{
  "version": "1.0",
  "truncation": null,
  "padding": null,
  "added_tokens": [
    {
      "id": 523,
      "content": "[MASK]",
      "single_word": false,
      "lstrip": false,
      "rstrip": false,
      "normalized": false,
      "special": true
    },
    {
      "id": 1027,
      "content": "[PAD]",
      "single_word": false,
      "lstrip": false,
      "rstrip": false,
      "normalized": false,
      "special": true
    },
    {
      "id": 1044,
      "content": "[UNK]",
      "single_word": false,
      "lstrip": false,
      "rstrip": false,
      "normalized": false,
      "special": true
    },
    {
      "id": 2348,
      "content": "[CLS]",
      "single_word": false,
      "lstrip": false,
      "rstrip": false,
      "normalized": false,
      "special": true
    },
    {
      "id": 2400,
      "content": "[EOS]",
      "single_word": false,
      "lstrip": false,
      "rstrip": false,
      "normalized": false,
      "special": true
    },
    {
      "id": 2489,
      "content": "[SEP]",
      "single_word": false,
      "lstrip": false,
      "rstrip": false,
      "normalized": false,
      "special": true
    }
  ],
  "normalizer": null,
  "pre_tokenizer": {
    "type": "ByteLevel",
    "add_prefix_space": false,
    "trim_offsets": true,
    "use_regex": true
  },
  "post_processor": null,
  "decoder": null,
  "model": {
    "type": "Unigram",
    "unk_id": null,
    "vocab": [
      [
        "Ġhot",
        -1.0
      ],
      [
        "Ġlack",
        -1.0
      ],
      [
        "ĠSo",
        -1.0
      ],
      [
        "ĠGlobal",
        -1.0
      ],
      [
        "the",
        -1.0
      ],
      [
        "Ġ50",
        -1.0
      ],
      [
        "Ġweather",
        -1.0
      ],
      [
        "Ġavoid",
        -1.0
      ],
      [
        "Ġ2001",
        -1.0
      ],
      [
        "Ġintroduced",
        -1.0
      ],
      [
        "'t",
        -1.0
      ],
      [
        "Ġvaluable",
        -1.0
      ],
      [
        "v",
        -1.0
      ],
      [
        "Ġlong",
        -1.0
      ],
      [
        "Ġtakes",
        -1.0
      ],
      [
        "Ġteach",
        -1.0
      ],
      [
        "al",
        -1.0
      ],
      [
        "ĠWildlife",
        -1.0
      ],
      [
        "Ġmake",
        -1.0
      ],
      [
        "Ġappropriate",
        -1.0
      ],
      [
        "Ġold",
        -1.0
      ],
      [
        "Ġbuild",
        -1.0
      ],
      [
        "'s",
        -1.0
      ],
      [
        "ĠEven",
        -1.0
      ],
      [
        "Ġpredict",
        -1.0
      ],
      [
        "Ġaware",
        -1.0
      ],
      [
        "Ġlearn",
        -1.0
      ],
      [
        "ĠChurch",
        -1.0
      ],
      [
        "ĠL",
        -1.0
      ],
      [
        "Ġfamilies",
        -1.0
      ],
      [
        "Ġcountries",
        -1.0
      ],
      [
        "Ġsearch",
        -1.0
      ],
      [
        "6",
        -1.0
      ],
      [
        "ĠF",
        -1.0
      ],
      [
        "Ġrequest",
        -1.0
      ],
      [
        "ĠFamily",
        -1.0
      ],
      [
        "Ġup",
        -1.0
      ],
      [
        "Ġkeep",
        -1.0
      ],
      [
        "ĠMarch",
        -1.0
      ],
      [
        "Ġlarge",
        -1.0
      ],
      [
        "Ġgroup",
        -1.0
      ],
      [
        "Ġcontain",
        -1.0
      ],
      [
        "Ġpass",
        -1.0
      ],
      [
        "Ġeverything",
        -1.0
      ],
      [
        "Ġtechnologies",
        -1.0
      ],
      [
        "Ġcommunity",
        -1.0
      ],
      [
        "Ġdata",
        -1.0
      ],
      [
        "Ġtogether",
        -1.0
      ],
      [
        "Ġactive",
        -1.0
      ],
      [
        "0",
        -1.0
      ],
      [
        "Ġinside",
        -1.0
      ],
      [
        "with",
        -1.0
      ],
      [
        "Ġ17",
        -1.0
      ],
      [
        "Ġbegan",
        -1.0
      ],
      [
        "Ġsuffer",
        -1.0
      ],
      [
        "Ġgas",
        -1.0
      ],
      [
        "light",
        -1.0
      ],
      [
        "Ġquestion",
        -1.0
      ],
      [
        "ĠAct",
        -1.0
      ],
      [
        "Ġspirit",
        -1.0
      ],
      [
        "Ġperformed",
        -1.0
      ],
      [
        "Ġcondition",
        -1.0
      ],
      [
        "Ġmodern",
        -1.0
      ],
      [
        "Ġreduce",
        -1.0
      ],
      [
        "Ġaccept",
        -1.0
      ],
      [
        "Ġlocal",
        -1.0
      ],
      [
        "Ġ80",
        -1.0
      ],
      [
        "Ġdevice",
        -1.0
      ],
      [
        "Ġbuilt",
        -1.0
      ],
      [
        "Ġfree",
        -1.0
      ],
      [
        "Ġ10",
        -1.0
      ],
      [
        "Ġlooking",
        -1.0
      ],
      [
        "Ĵ",
        -1.0
      ],
      [
        "Ġnorth",
        -1.0
      ],
      [
        "Ġset",
        -1.0
      ],
      [
        "ated",
        -1.0
      ],
      [
        "Ġlimit",
        -1.0
      ],
      [
        "ĠJapanese",
        -1.0
      ],
      [
        "Ġwent",
        -1.0
      ],
      [
        "¸",
        -1.0
      ],
      [
        "ĠIreland",
        -1.0
      ],
      [
        "Ġrapid",
        -1.0
      ],
      [
        "ĠHIV",
        -1.0
      ],
      [
        "Ġgood",
        -1.0
      ],
      [
        "Ġprivate",
        -1.0
      ],
      [
        "Ġteacher",
        -1.0
      ],
      [
        "ĠJohn",
        -1.0
      ],
      [
        "Ġformed",
        -1.0
      ],
      [
        "Ġpossible",
        -1.0
      ],
      [
        "Ġmap",
        -1.0
      ],
      [
        "Ġleaders",
        -1.0
      ],
      [
        "in",
        -1.0
      ],
      [
        "Ġexample",
        -1.0
      ],
      [
        "Ġbecoming",
        -1.0
      ],
      [
        "Ġlife",
        -1.0
      ],
      [
        "http",
        -1.0
      ],
      [
        "Ġsign",
        -1.0
      ],
      [
        "Ġscientist",
        -1.0
      ],
      [
        "Ġimportance",
        -1.0
      ],
      [
        "Ġmoney",
        -1.0
      ],
      [
        "Ġsolar",
        -1.0
      ],
      [
        "Ġwebsite",
        -1.0
      ],
      [
        "Ġalone",
        -1.0
      ],
      [
        "Ġusually",
        -1.0
      ],
      [
        "Ġsignal",
        -1.0
      ],
      [
        "Ġorgan",
        -1.0
      ],
      [
        "ĠJuly",
        -1.0
      ],
      [
        "Ġhimself",
        -1.0
      ],
      [
        "Ġengage",
        -1.0
      ],
      [
        "ĠJames",
        -1.0
      ],
      [
        "Ġaccomplish",
        -1.0
      ],
      [
        "Ġcountry",
        -1.0
      ],
      [
        "Ġpast",
        -1.0
      ],
      [
        "ĠFrom",
        -1.0
      ],
      [
        "Ġactivity",
        -1.0
      ],
      [
        "Ġadopt",
        -1.0
      ],
      [
        "Ġcognitive",
        -1.0
      ],
      [
        "Ġmilk",
        -1.0
      ],
      [
        "ĠInformation",
        -1.0
      ],
      [
        "Ġcarried",
        -1.0
      ],
      [
        "Ġcardiovascular",
        -1.0
      ],
      [
        "Ġoffice",
        -1.0
      ],
      [
        "Ġgetting",
        -1.0
      ],
      [
        "ĠWindows",
        -1.0
      ],
      [
        "ER",
        -1.0
      ],
      [
        "ĠLouis",
        -1.0
      ],
      [
        "Ġbooks",
        -1.0
      ],
      [
        "$",
        -1.0
      ],
      [
        "Ġform",
        -1.0
      ],
      [
        "Ġtherefore",
        -1.0
      ],
      [
        "Ġsub",
        -1.0
      ],
      [
        "Ù",
        -1.0
      ],
      [
        "Ġtreat",
        -1.0
      ],
      [
        "Ġadult",
        -1.0
      ],
      [
        "Ġoxygen",
        -1.0
      ],
      [
        "Ġsociety",
        -1.0
      ],
      [
        "Ġdistinct",
        -1.0
      ],
      [
        "time",
        -1.0
      ],
      [
        "Ġfear",
        -1.0
      ],
      [
        "Ġreturn",
        -1.0
      ],
      [
        "ĠEarth",
        -1.0
      ],
      [
        "Ë",
        -1.0
      ],
      [
        "Ġimagin",
        -1.0
      ],
      [
        "Ġnumber",
        -1.0
      ],
      [
        "Ġgenetic",
        -1.0
      ],
      [
        "Ġincreases",
        -1.0
      ],
      [
        "),",
        -1.0
      ],
      [
        "ĠRiver",
        -1.0
      ],
      [
        "ĠH",
        -1.0
      ],
      [
        "æ",
        -1.0
      ],
      [
        "Ġmen",
        -1.0
      ],
      [
        "Ġapparent",
        -1.0
      ],
      [
        "Ġ25",
        -1.0
      ],
      [
        "Ġborder",
        -1.0
      ],
      [
        "You",
        -1.0
      ],
      [
        "Ġdifferences",
        -1.0
      ],
      [
        "ĠEx",
        -1.0
      ],
      [
        "Ġcancer",
        -1.0
      ],
      [
        "ĠMexico",
        -1.0
      ],
      [
        "le",
        -1.0
      ],
      [
        "Ġcomparison",
        -1.0
      ],
      [
        "ton",
        -1.0
      ],
      [
        "Ġrelevant",
        -1.0
      ],
      [
        "ĠGreat",
        -1.0
      ],
      [
        "Ġdestroy",
        -1.0
      ],
      [
        "V",
        -1.0
      ],
      [
        "Ġimportant",
        -1.0
      ],
      [
        "Ġless",
        -1.0
      ],
      [
        "Y",
        -1.0
      ],
      [
        "ĠWorld",
        -1.0
      ],
      [
        "ì",
        -1.0
      ],
      [
        "Ġsafety",
        -1.0
      ],
      [
        "ĠEmpire",
        -1.0
      ],
      [
        "Ġmodels",
        -1.0
      ],
      [
        "Ġof",
        -1.0
      ],
      [
        "ĠPacific",
        -1.0
      ],
      [
        "Ġ12",
        -1.0
      ],
      [
        "see",
        -1.0
      ],
      [
        "24",
        -1.0
      ],
      [
        "ĠY",
        -1.0
      ],
      [
        "Ġstart",
        -1.0
      ],
      [
        "Ġpopulation",
        -1.0
      ],
      [
        "Ġmembers",
        -1.0
      ],
      [
        "Ġremoved",
        -1.0
      ],
      [
        "D",
        -1.0
      ],
      [
        "ĠDevelopment",
        -1.0
      ],
      [
        "Ġ2013",
        -1.0
      ],
      [
        "Ġremain",
        -1.0
      ],
      [
        "Ġ'",
        -1.0
      ],
      [
        "Ġthese",
        -1.0
      ],
      [
        "Ġfully",
        -1.0
      ],
      [
        "=",
        -1.0
      ],
      [
        "ĠHe",
        -1.0
      ],
      [
        "Ġtable",
        -1.0
      ],
      [
        "Ġ195",
        -1.0
      ],
      [
        "ĠHospital",
        -1.0
      ],
      [
        "Ġquickly",
        -1.0
      ],
      [
        "Ġdays",
        -1.0
      ],
      [
        "Ġkey",
        -1.0
      ],
      [
        "Ġexplanation",
        -1.0
      ],
      [
        "Ġprocedure",
        -1.0
      ],
      [
        "Ġneed",
        -1.0
      ],
      [
        "There",
        -1.0
      ],
      [
        "Ġcut",
        -1.0
      ],
      [
        "Ġ186",
        -1.0
      ],
      [
        "Ġpost",
        -1.0
      ],
      [
        "İ",
        -1.0
      ],
      [
        "ĠJerusalem",
        -1.0
      ],
      [
        "Ġfrequently",
        -1.0
      ],
      [
        "Ġmakes",
        -1.0
      ],
      [
        "Ġdirection",
        -1.0
      ],
      [
        "Ġregion",
        -1.0
      ],
      [
        "Ġconditions",
        -1.0
      ],
      [
        "Ġenemy",
        -1.0
      ],
      [
        "ĠBrazil",
        -1.0
      ],
      [
        "Î",
        -1.0
      ],
      [
        "Ġopinion",
        -1.0
      ],
      [
        "Ġwhere",
        -1.0
      ],
      [
        "Ġtalk",
        -1.0
      ],
      [
        "Ġtowards",
        -1.0
      ],
      [
        "AT",
        -1.0
      ],
      [
        ".âĢĿ",
        -1.0
      ],
      [
        "10",
        -1.0
      ],
      [
        "Ġsquare",
        -1.0
      ],
      [
        "Ġkind",
        -1.0
      ],
      [
        "Ġprofessor",
        -1.0
      ],
      [
        "Ġbig",
        -1.0
      ],
      [
        "%",
        -1.0
      ],
      [
        "Ġolder",
        -1.0
      ],
      [
        "or",
        -1.0
      ],
      [
        "Ċ",
        -1.0
      ],
      [
        "Ġconstruction",
        -1.0
      ],
      [
        "Ġdirect",
        -1.0
      ],
      [
        "Ġexperiment",
        -1.0
      ],
      [
        "Ġadditional",
        -1.0
      ],
      [
        "ĠDo",
        -1.0
      ],
      [
        "Ġaffected",
        -1.0
      ],
      [
        "Ġhard",
        -1.0
      ],
      [
        "Ġcurrent",
        -1.0
      ],
      [
        "Ġlow",
        -1.0
      ],
      [
        "ance",
        -1.0
      ],
      [
        "ĠCourt",
        -1.0
      ],
      [
        "Ġfoot",
        -1.0
      ],
      [
        "Ġvictim",
        -1.0
      ],
      [
        "Ġbreath",
        -1.0
      ],
      [
        "Ġperspective",
        -1.0
      ],
      [
        "Ġaffect",
        -1.0
      ],
      [
        "Ġstarted",
        -1.0
      ],
      [
        "Ġschool",
        -1.0
      ],
      [
        "ĠShe",
        -1.0
      ],
      [
        "Ġsuggest",
        -1.0
      ],
      [
        "Ġthreat",
        -1.0
      ],
      [
        "Ġvirtu",
        -1.0
      ],
      [
        "Ġminor",
        -1.0
      ],
      [
        "Ġonly",
        -1.0
      ],
      [
        "Ġnumerous",
        -1.0
      ],
      [
        "known",
        -1.0
      ],
      [
        "Ġillness",
        -1.0
      ],
      [
        "Ġcame",
        -1.0
      ],
      [
        "ĠGeorge",
        -1.0
      ],
      [
        "Ġlanguage",
        -1.0
      ],
      [
        "000",
        -1.0
      ],
      [
        "ĠBecause",
        -1.0
      ],
      [
        "Ö",
        -1.0
      ],
      [
        "um",
        -1.0
      ],
      [
        "less",
        -1.0
      ],
      [
        "¥",
        -1.0
      ],
      [
        "Ġupon",
        -1.0
      ],
      [
        "¾",
        -1.0
      ],
      [
        "Ġpresent",
        -1.0
      ],
      [
        "Ġwhat",
        -1.0
      ],
      [
        "Ġreason",
        -1.0
      ],
      [
        "Ġmodel",
        -1.0
      ],
      [
        "28",
        -1.0
      ],
      [
        "_",
        -1.0
      ],
      [
        "§",
        -1.0
      ],
      [
        "Ġagriculture",
        -1.0
      ],
      [
        "Ġ29",
        -1.0
      ],
      [
        "Ġyears",
        -1.0
      ],
      [
        "ĠStandard",
        -1.0
      ],
      [
        "Ġmuch",
        -1.0
      ],
      [
        "Ġsustain",
        -1.0
      ],
      [
        "ĠIndia",
        -1.0
      ],
      [
        "Ġsent",
        -1.0
      ],
      [
        "Ġher",
        -1.0
      ],
      [
        "ĠHouse",
        -1.0
      ],
      [
        "Ġal",
        -1.0
      ],
      [
        "Ġsaid",
        -1.0
      ],
      [
        "Ġstructure",
        -1.0
      ],
      [
        "Ġhave",
        -1.0
      ],
      [
        "Ġpassed",
        -1.0
      ],
      [
        "O",
        -1.0
      ],
      [
        "ist",
        -1.0
      ],
      [
        "Research",
        -1.0
      ],
      [
        "Ġreal",
        -1.0
      ],
      [
        "Ġlaw",
        -1.0
      ],
      [
        "Ġscenario",
        -1.0
      ],
      [
        "Ġpower",
        -1.0
      ],
      [
        "ĠCounty",
        -1.0
      ],
      [
        "4",
        -1.0
      ],
      [
        "now",
        -1.0
      ],
      [
        "ened",
        -1.0
      ],
      [
        "Ġelements",
        -1.0
      ],
      [
        "ŀ",
        -1.0
      ],
      [
        "Ġmonitor",
        -1.0
      ],
      [
        "Ġtree",
        -1.0
      ],
      [
        "Ġenzyme",
        -1.0
      ],
      [
        "up",
        -1.0
      ],
      [
        "Ġrelated",
        -1.0
      ],
      [
        "ĠW",
        -1.0
      ],
      [
        "Ġinfection",
        -1.0
      ],
      [
        "work",
        -1.0
      ],
      [
        "Ġsymptoms",
        -1.0
      ],
      [
        "Ġthe",
        -1.0
      ],
      [
        "d",
        -1.0
      ],
      [
        "ĠLatin",
        -1.0
      ],
      [
        "Ġsetting",
        -1.0
      ],
      [
        "ĠEach",
        -1.0
      ],
      [
        "Ġalways",
        -1.0
      ],
      [
        "Ġlandscape",
        -1.0
      ],
      [
        "Ġkidney",
        -1.0
      ],
      [
        "Ġcombination",
        -1.0
      ],
      [
        "ĠSpace",
        -1.0
      ],
      [
        "ĠAt",
        -1.0
      ],
      [
        "32",
        -1.0
      ],
      [
        "ĠAmerican",
        -1.0
      ],
      [
        "ĠKentucky",
        -1.0
      ],
      [
        "ions",
        -1.0
      ],
      [
        "Ġeventually",
        -1.0
      ],
      [
        "Ġabsolute",
        -1.0
      ],
      [
        "Ġperformance",
        -1.0
      ],
      [
        "Ġcandidate",
        -1.0
      ],
      [
        "Ġgeneration",
        -1.0
      ],
      [
        "Ġpolicies",
        -1.0
      ],
      [
        "´",
        -1.0
      ],
      [
        "ĠBlack",
        -1.0
      ],
      [
        "Ġ1999",
        -1.0
      ],
      [
        "Ġfive",
        -1.0
      ],
      [
        "Ġlearning",
        -1.0
      ],
      [
        "If",
        -1.0
      ],
      [
        "Ġfight",
        -1.0
      ],
      [
        "ĠEncyclopedia",
        -1.0
      ],
      [
        "Ġstory",
        -1.0
      ],
      [
        "ĠDecember",
        -1.0
      ],
      [
        "Ġagricultural",
        -1.0
      ],
      [
        "Ġbeginning",
        -1.0
      ],
      [
        "Ġcause",
        -1.0
      ],
      [
        "www",
        -1.0
      ],
      [
        "):",
        -1.0
      ],
      [
        "39",
        -1.0
      ],
      [
        "Ġdemand",
        -1.0
      ],
      [
        "ĠMedical",
        -1.0
      ],
      [
        "Ġphrase",
        -1.0
      ],
      [
        "'ll",
        -1.0
      ],
      [
        "Ġtreatment",
        -1.0
      ],
      [
        "Ġcourse",
        -1.0
      ],
      [
        "Ġbirds",
        -1.0
      ],
      [
        "Ġareas",
        -1.0
      ],
      [
        "Ġhighly",
        -1.0
      ],
      [
        "Ġbalance",
        -1.0
      ],
      [
        "Ġfeed",
        -1.0
      ],
      [
        "×",
        -1.0
      ],
      [
        "Ġemotion",
        -1.0
      ],
      [
        "Ġestablish",
        -1.0
      ],
      [
        "Ġreally",
        -1.0
      ],
      [
        "Ġlines",
        -1.0
      ],
      [
        "Ġevents",
        -1.0
      ],
      [
        "Ġsupport",
        -1.0
      ],
      [
        "Ġfeel",
        -1.0
      ],
      [
        "Ġshown",
        -1.0
      ],
      [
        "H",
        -1.0
      ],
      [
        "Ġwalk",
        -1.0
      ],
      [
        "Ġadequate",
        -1.0
      ],
      [
        "Ġi",
        -1.0
      ],
      [
        "based",
        -1.0
      ],
      [
        "Ġabove",
        -1.0
      ],
      [
        "Ġvery",
        -1.0
      ],
      [
        "ĠFor",
        -1.0
      ],
      [
        "Ġcheck",
        -1.0
      ],
      [
        "Ġrun",
        -1.0
      ],
      [
        "Ġequipment",
        -1.0
      ],
      [
        "Ã©",
        -1.0
      ],
      [
        "We",
        -1.0
      ],
      [
        "ĠAlzheimer",
        -1.0
      ],
      [
        "Ġsleep",
        -1.0
      ],
      [
        "Ġsometimes",
        -1.0
      ],
      [
        "Ļ",
        -1.0
      ],
      [
        "Ġborn",
        -1.0
      ],
      [
        "Ġprice",
        -1.0
      ],
      [
        "Ġgovern",
        -1.0
      ],
      [
        "Ġnumbers",
        -1.0
      ],
      [
        "Ġship",
        -1.0
      ],
      [
        "Ġsafe",
        -1.0
      ],
      [
        "¡",
        -1.0
      ],
      [
        "Ġfar",
        -1.0
      ],
      [
        "Ġtrue",
        -1.0
      ],
      [
        "ĠAlthough",
        -1.0
      ],
      [
        "Ġbudget",
        -1.0
      ],
      [
        "rs",
        -1.0
      ],
      [
        "Ġwidespread",
        -1.0
      ],
      [
        "Ġselect",
        -1.0
      ],
      [
        "Ġtreated",
        -1.0
      ],
      [
        "ĠU",
        -1.0
      ],
      [
        "ĠColumbia",
        -1.0
      ],
      [
        "Ġnot",
        -1.0
      ],
      [
        "Ġclaim",
        -1.0
      ],
      [
        "ĠCanadian",
        -1.0
      ],
      [
        "ED",
        -1.0
      ],
      [
        "Ġmaximum",
        -1.0
      ],
      [
        "Ġpractice",
        -1.0
      ],
      [
        "Ġquite",
        -1.0
      ],
      [
        "Ġfamous",
        -1.0
      ],
      [
        "Ġyour",
        -1.0
      ],
      [
        "Ġexplain",
        -1.0
      ],
      [
        "Ġleave",
        -1.0
      ],
      [
        "ĠUnion",
        -1.0
      ],
      [
        "Ġchurch",
        -1.0
      ],
      [
        "Ġvariety",
        -1.0
      ],
      [
        "Ġclimate",
        -1.0
      ],
      [
        "É",
        -1.0
      ],
      [
        "Ġprojects",
        -1.0
      ],
      [
        "ĠMassachusetts",
        -1.0
      ],
      [
        "ĠLaw",
        -1.0
      ],
      [
        "ĠThey",
        -1.0
      ],
      [
        "Ġreceived",
        -1.0
      ],
      [
        "Ġmovement",
        -1.0
      ],
      [
        "Ġvessel",
        -1.0
      ],
      [
        "Ġknow",
        -1.0
      ],
      [
        "Ġget",
        -1.0
      ],
      [
        "p",
        -1.0
      ],
      [
        "Ġun",
        -1.0
      ],
      [
        "22",
        -1.0
      ],
      [
        "com",
        -1.0
      ],
      [
        "ĠISBN",
        -1.0
      ],
      [
        "¶",
        -1.0
      ],
      [
        "Ġplant",
        -1.0
      ],
      [
        "Ġdepartment",
        -1.0
      ],
      [
        "Â°",
        -1.0
      ],
      [
        "Ġcontrol",
        -1.0
      ],
      [
        "Ġanti",
        -1.0
      ],
      [
        "ĠSurvey",
        -1.0
      ],
      [
        "Ġeasy",
        -1.0
      ],
      [
        "Ġpresence",
        -1.0
      ],
      [
        "Ġtheory",
        -1.0
      ],
      [
        "ĠSchool",
        -1.0
      ],
      [
        "Ġlook",
        -1.0
      ],
      [
        "Ġadults",
        -1.0
      ],
      [
        "ĠDirector",
        -1.0
      ],
      [
        "Ġparallel",
        -1.0
      ],
      [
        "ling",
        -1.0
      ],
      [
        "st",
        -1.0
      ],
      [
        "µ",
        -1.0
      ],
      [
        "Ġoccurs",
        -1.0
      ],
      [
        "Ġman",
        -1.0
      ],
      [
        "ķ",
        -1.0
      ],
      [
        "Ġtake",
        -1.0
      ],
      [
        "Ġpublic",
        -1.0
      ],
      [
        "Â",
        -1.0
      ],
      [
        "Ġcompanies",
        -1.0
      ],
      [
        "Ġsignificant",
        -1.0
      ],
      [
        "Ġhealth",
        -1.0
      ],
      [
        "Despite",
        -1.0
      ],
      [
        "ly",
        -1.0
      ],
      [
        "Ġtitle",
        -1.0
      ],
      [
        "Ġfuture",
        -1.0
      ],
      [
        "Ġwild",
        -1.0
      ],
      [
        "Ġdid",
        -1.0
      ],
      [
        "Ġobtain",
        -1.0
      ],
      [
        "Ġprocesses",
        -1.0
      ],
      [
        "Ġimprove",
        -1.0
      ],
      [
        "Ġmiddle",
        -1.0
      ],
      [
        "Ġoutbreak",
        -1.0
      ],
      [
        "Ġhalf",
        -1.0
      ],
      [
        "ĠInstitute",
        -1.0
      ],
      [
        "An",
        -1.0
      ],
      [
        "Ġjournal",
        -1.0
      ],
      [
        "35",
        -1.0
      ],
      [
        "ĠâĢĵ",
        -1.0
      ],
      [
        "Ġhousehold",
        -1.0
      ],
      [
        "Ġ194",
        -1.0
      ],
      [
        "Ġculture",
        -1.0
      ],
      [
        "Ġfederal",
        -1.0
      ],
      [
        "Ġcovered",
        -1.0
      ],
      [
        "ies",
        -1.0
      ],
      [
        "ĠWe",
        -1.0
      ],
      [
        "&",
        -1.0
      ],
      [
        "7",
        -1.0
      ],
      [
        "Ġdate",
        -1.0
      ],
      [
        "Ł",
        -1.0
      ],
      [
        "ľ",
        -1.0
      ],
      [
        "wards",
        -1.0
      ],
      [
        "Ġsure",
        -1.0
      ],
      [
        "Ġletter",
        -1.0
      ],
      [
        "Ġpractices",
        -1.0
      ],
      [
        "Ġproblem",
        -1.0
      ],
      [
        "ë",
        -1.0
      ],
      [
        "Äģ",
        -1.0
      ],
      [
        "Ġfirst",
        -1.0
      ],
      [
        "ĠMediterranean",
        -1.0
      ],
      [
        "Ġcosts",
        -1.0
      ],
      [
        "Ġtype",
        -1.0
      ],
      [
        "Ġexpect",
        -1.0
      ],
      [
        "Ġdead",
        -1.0
      ],
      [
        "Ġeffort",
        -1.0
      ],
      [
        "Ġclass",
        -1.0
      ],
      [
        "Ġpart",
        -1.0
      ],
      [
        "Ġcode",
        -1.0
      ],
      [
        "Ġpath",
        -1.0
      ],
      [
        "Ġadded",
        -1.0
      ],
      [
        "ĠCatholic",
        -1.0
      ],
      [
        "s",
        -1.0
      ],
      [
        ",",
        -1.0
      ],
      [
        "<",
        -1.0
      ],
      [
        "On",
        -1.0
      ],
      [
        "Ġsays",
        -1.0
      ],
      [
        "Ġprincipal",
        -1.0
      ],
      [
        "ĠChristian",
        -1.0
      ],
      [
        "Ġproviding",
        -1.0
      ],
      [
        "Ġfull",
        -1.0
      ],
      [
        "Ġwoman",
        -1.0
      ],
      [
        "Ġheavy",
        -1.0
      ],
      [
        "Ġactually",
        -1.0
      ],
      [
        "ĠBook",
        -1.0
      ],
      [
        "[MASK]",
        -1.0
      ],
      [
        "Ġdouble",
        -1.0
      ],
      [
        "term",
        -1.0
      ],
      [
        "ĠAmerica",
        -1.0
      ],
      [
        "th",
        -1.0
      ],
      [
        "a",
        -1.0
      ],
      [
        "78",
        -1.0
      ],
      [
        "Ġbreast",
        -1.0
      ],
      [
        "ĠOklahoma",
        -1.0
      ],
      [
        "Ġoccur",
        -1.0
      ],
      [
        "à",
        -1.0
      ],
      [
        "ĠV",
        -1.0
      ],
      [
        "Ġgoal",
        -1.0
      ],
      [
        "Ġdue",
        -1.0
      ],
      [
        "Ġhealthy",
        -1.0
      ],
      [
        "Ġwood",
        -1.0
      ],
      [
        "Ġtrees",
        -1.0
      ],
      [
        "ĠCommittee",
        -1.0
      ],
      [
        "Ġfossil",
        -1.0
      ],
      [
        "ĠThat",
        -1.0
      ],
      [
        "ĠElizabeth",
        -1.0
      ],
      [
        "Although",
        -1.0
      ],
      [
        "Ġ2008",
        -1.0
      ],
      [
        "With",
        -1.0
      ],
      [
        "Ġchildren",
        -1.0
      ],
      [
        "Ġhuman",
        -1.0
      ],
      [
        "ĠArab",
        -1.0
      ],
      [
        "Ġriver",
        -1.0
      ],
      [
        "Ġtroops",
        -1.0
      ],
      [
        "Ġcold",
        -1.0
      ],
      [
        "G",
        -1.0
      ],
      [
        "R",
        -1.0
      ],
      [
        "ĠAfrican",
        -1.0
      ],
      [
        "Ġpurchase",
        -1.0
      ],
      [
        "Ġopportunities",
        -1.0
      ],
      [
        "ization",
        -1.0
      ],
      [
        "Ġopportunity",
        -1.0
      ],
      [
        "Ġoil",
        -1.0
      ],
      [
        "Ġmanagement",
        -1.0
      ],
      [
        "Ġtests",
        -1.0
      ],
      [
        "Ġcamp",
        -1.0
      ],
      [
        "ure",
        -1.0
      ],
      [
        "Ġcalled",
        -1.0
      ],
      [
        "Ġsun",
        -1.0
      ],
      [
        "Ġwide",
        -1.0
      ],
      [
        "Ġappear",
        -1.0
      ],
      [
        "Ġstomach",
        -1.0
      ],
      [
        "Ó",
        -1.0
      ],
      [
        "Ġthings",
        -1.0
      ],
      [
        "les",
        -1.0
      ],
      [
        "Ġmedia",
        -1.0
      ],
      [
        "Ġadd",
        -1.0
      ],
      [
        "Ġsmall",
        -1.0
      ],
      [
        "ĠSan",
        -1.0
      ],
      [
        "ĠOxford",
        -1.0
      ],
      [
        "Ġnecessary",
        -1.0
      ],
      [
        "Ġwater",
        -1.0
      ],
      [
        "Ġapproach",
        -1.0
      ],
      [
        "ĠCanada",
        -1.0
      ],
      [
        "en",
        -1.0
      ],
      [
        "Ġdamage",
        -1.0
      ],
      [
        "Ġothers",
        -1.0
      ],
      [
        "y",
        -1.0
      ],
      [
        "Ġfreedom",
        -1.0
      ],
      [
        "ĠM",
        -1.0
      ],
      [
        "Ġuseful",
        -1.0
      ],
      [
        "ĠLondon",
        -1.0
      ],
      [
        "Ġdistance",
        -1.0
      ],
      [
        "Ġ2000",
        -1.0
      ],
      [
        "Ġstudied",
        -1.0
      ],
      [
        "Ġreplace",
        -1.0
      ],
      [
        "Ġ[",
        -1.0
      ],
      [
        "ĠIs",
        -1.0
      ],
      [
        "Ġreport",
        -1.0
      ],
      [
        "Ġbased",
        -1.0
      ],
      [
        "and",
        -1.0
      ],
      [
        "Ġknown",
        -1.0
      ],
      [
        "Ġbeyond",
        -1.0
      ],
      [
        "Ĺ",
        -1.0
      ],
      [
        "ĠVietnam",
        -1.0
      ],
      [
        "á¹Ń",
        -1.0
      ],
      [
        "Ġespecially",
        -1.0
      ],
      [
        "Ġmain",
        -1.0
      ],
      [
        "Ġnature",
        -1.0
      ],
      [
        "Ġcreating",
        -1.0
      ],
      [
        "Ġscientific",
        -1.0
      ],
      [
        "ã",
        -1.0
      ],
      [
        "âĢĵ",
        -1.0
      ],
      [
        "ments",
        -1.0
      ],
      [
        "Ġamong",
        -1.0
      ],
      [
        "Ġgene",
        -1.0
      ],
      [
        "Ġwith",
        -1.0
      ],
      [
        "Ġnative",
        -1.0
      ],
      [
        "Ġearlier",
        -1.0
      ],
      [
        "Ġdiet",
        -1.0
      ],
      [
        "Ġ20",
        -1.0
      ],
      [
        "Ġ2009",
        -1.0
      ],
      [
        "ĠX",
        -1.0
      ],
      [
        "including",
        -1.0
      ],
      [
        "Ġnote",
        -1.0
      ],
      [
        "Ġbreak",
        -1.0
      ],
      [
        "ĠSouth",
        -1.0
      ],
      [
        "Ġtraining",
        -1.0
      ],
      [
        "Ġpatient",
        -1.0
      ],
      [
        "Ġtask",
        -1.0
      ],
      [
        "U",
        -1.0
      ],
      [
        "Ġslow",
        -1.0
      ],
      [
        "Ġcolor",
        -1.0
      ],
      [
        "Ġworked",
        -1.0
      ],
      [
        "Ġhundred",
        -1.0
      ],
      [
        "Ġdesigned",
        -1.0
      ],
      [
        "Ġpromote",
        -1.0
      ],
      [
        "ĠMississippi",
        -1.0
      ],
      [
        "Ġworkers",
        -1.0
      ],
      [
        "IT",
        -1.0
      ],
      [
        "Ġ199",
        -1.0
      ],
      [
        "Ġaccording",
        -1.0
      ],
      [
        "ĠAmericans",
        -1.0
      ],
      [
        "American",
        -1.0
      ],
      [
        "Ġspecies",
        -1.0
      ],
      [
        "Ġservice",
        -1.0
      ],
      [
        "Ġits",
        -1.0
      ],
      [
        "Ġproblems",
        -1.0
      ],
      [
        "Ø",
        -1.0
      ],
      [
        "Ġpretty",
        -1.0
      ],
      [
        "Ġworks",
        -1.0
      ],
      [
        "Ġenhance",
        -1.0
      ],
      [
        "Ġcourt",
        -1.0
      ],
      [
        "Ġrisk",
        -1.0
      ],
      [
        "Ġincreased",
        -1.0
      ],
      [
        "Ġeveryone",
        -1.0
      ],
      [
        "Ġpeople",
        -1.0
      ],
      [
        "Ġseen",
        -1.0
      ],
      [
        "+",
        -1.0
      ],
      [
        "Ú",
        -1.0
      ],
      [
        "ĠOr",
        -1.0
      ],
      [
        ">",
        -1.0
      ],
      [
        "--",
        -1.0
      ],
      [
        "ĠTrans",
        -1.0
      ],
      [
        "Ġescape",
        -1.0
      ],
      [
        "Ġdirectly",
        -1.0
      ],
      [
        "Ġresources",
        -1.0
      ],
      [
        "Ġ|",
        -1.0
      ],
      [
        "ĠNo",
        -1.0
      ],
      [
        "Ġanother",
        -1.0
      ],
      [
        "Ġwhom",
        -1.0
      ],
      [
        "ĠRichard",
        -1.0
      ],
      [
        "\",",
        -1.0
      ],
      [
        "36",
        -1.0
      ],
      [
        "Ġideas",
        -1.0
      ],
      [
        "Ġtop",
        -1.0
      ],
      [
        "Ġinstall",
        -1.0
      ],
      [
        "Ġpolitical",
        -1.0
      ],
      [
        "á",
        -1.0
      ],
      [
        "ĠOhio",
        -1.0
      ],
      [
        "ian",
        -1.0
      ],
      [
        "Ġusing",
        -1.0
      ],
      [
        "Ġnews",
        -1.0
      ],
      [
        "Ġrule",
        -1.0
      ],
      [
        "Ġheat",
        -1.0
      ],
      [
        "z",
        -1.0
      ],
      [
        "ī",
        -1.0
      ],
      [
        "Ġ60",
        -1.0
      ],
      [
        "Ġdisappear",
        -1.0
      ],
      [
        "Ġforms",
        -1.0
      ],
      [
        "Ġrange",
        -1.0
      ],
      [
        "Ġhormone",
        -1.0
      ],
      [
        "Ġsouthern",
        -1.0
      ],
      [
        "So",
        -1.0
      ],
      [
        "Ġ=",
        -1.0
      ],
      [
        "C",
        -1.0
      ],
      [
        "Ġresults",
        -1.0
      ],
      [
        "org",
        -1.0
      ],
      [
        "Ġto",
        -1.0
      ],
      [
        "Ġtool",
        -1.0
      ],
      [
        "Ħ",
        -1.0
      ],
      [
        "Ġprovide",
        -1.0
      ],
      [
        "Ġunusual",
        -1.0
      ],
      [
        "DA",
        -1.0
      ],
      [
        "Ġensure",
        -1.0
      ],
      [
        "Ġfamiliar",
        -1.0
      ],
      [
        "Ġweapons",
        -1.0
      ],
      [
        "Ġ196",
        -1.0
      ],
      [
        "Ĭ",
        -1.0
      ],
      [
        "Ġ+",
        -1.0
      ],
      [
        "ĠHow",
        -1.0
      ],
      [
        "AL",
        -1.0
      ],
      [
        "ģ",
        -1.0
      ],
      [
        "Ġvocabulary",
        -1.0
      ],
      [
        "Ġincluded",
        -1.0
      ],
      [
        "hood",
        -1.0
      ],
      [
        "Ġtook",
        -1.0
      ],
      [
        "Ġgoes",
        -1.0
      ],
      [
        "self",
        -1.0
      ],
      [
        "Ġdisorders",
        -1.0
      ],
      [
        "Ġnight",
        -1.0
      ],
      [
        "Ġpercent",
        -1.0
      ],
      [
        "ĠOctober",
        -1.0
      ],
      [
        "Ġbecame",
        -1.0
      ],
      [
        "ic",
        -1.0
      ],
      [
        "ĠHuman",
        -1.0
      ],
      [
        "Ġcultural",
        -1.0
      ],
      [
        "Ġphysical",
        -1.0
      ],
      [
        "Ġcomes",
        -1.0
      ],
      [
        "®",
        -1.0
      ],
      [
        "Ġprimary",
        -1.0
      ],
      [
        "Ġeasily",
        -1.0
      ],
      [
        "Ġdiseases",
        -1.0
      ],
      [
        "Ġscale",
        -1.0
      ],
      [
        "Ġequal",
        -1.0
      ],
      [
        "able",
        -1.0
      ],
      [
        "ĠGreek",
        -1.0
      ],
      [
        "Ġmethod",
        -1.0
      ],
      [
        "ĠHistoric",
        -1.0
      ],
      [
        "Ġboard",
        -1.0
      ],
      [
        "ĠThere",
        -1.0
      ],
      [
        "ĠAl",
        -1.0
      ],
      [
        "Ġstage",
        -1.0
      ],
      [
        "Ġidea",
        -1.0
      ],
      [
        "Ġshe",
        -1.0
      ],
      [
        "Ĳ",
        -1.0
      ],
      [
        "Ġnine",
        -1.0
      ],
      [
        "Ġname",
        -1.0
      ],
      [
        "Ġthink",
        -1.0
      ],
      [
        "Ġrelatively",
        -1.0
      ],
      [
        "Ġsystem",
        -1.0
      ],
      [
        "Ġscience",
        -1.0
      ],
      [
        "Ġre",
        -1.0
      ],
      [
        "Ġflow",
        -1.0
      ],
      [
        "ĠAs",
        -1.0
      ],
      [
        "Ġgo",
        -1.0
      ],
      [
        "Ġrare",
        -1.0
      ],
      [
        "Ġthem",
        -1.0
      ],
      [
        "Ġprison",
        -1.0
      ],
      [
        "ĠNetwork",
        -1.0
      ],
      [
        "Ġphenomen",
        -1.0
      ],
      [
        "14",
        -1.0
      ],
      [
        "Ġbut",
        -1.0
      ],
      [
        "±",
        -1.0
      ],
      [
        "ĠWestern",
        -1.0
      ],
      [
        "Some",
        -1.0
      ],
      [
        "ĠChrist",
        -1.0
      ],
      [
        "ĠMichael",
        -1.0
      ],
      [
        "Ġcomplete",
        -1.0
      ],
      [
        "Ġinclude",
        -1.0
      ],
      [
        "book",
        -1.0
      ],
      [
        "Ġreducing",
        -1.0
      ],
      [
        ",\"",
        -1.0
      ],
      [
        "Ġhistory",
        -1.0
      ],
      [
        "Ġmedical",
        -1.0
      ],
      [
        "Ġneeds",
        -1.0
      ],
      [
        "ª",
        -1.0
      ],
      [
        "ever",
        -1.0
      ],
      [
        "est",
        -1.0
      ],
      [
        "Ġvalues",
        -1.0
      ],
      [
        "Ġgave",
        -1.0
      ],
      [
        "To",
        -1.0
      ],
      [
        "Ġconnect",
        -1.0
      ],
      [
        "Ġgrow",
        -1.0
      ],
      [
        "Ġalternative",
        -1.0
      ],
      [
        "Ġwithout",
        -1.0
      ],
      [
        "Ķ",
        -1.0
      ],
      [
        "ry",
        -1.0
      ],
      [
        "Ex",
        -1.0
      ],
      [
        "Ġstruggle",
        -1.0
      ],
      [
        "ĠNews",
        -1.0
      ],
      [
        "Ġtemperatures",
        -1.0
      ],
      [
        "Ġlocation",
        -1.0
      ],
      [
        "Ġevent",
        -1.0
      ],
      [
        "Ġleaves",
        -1.0
      ],
      [
        "way",
        -1.0
      ],
      [
        "Ï",
        -1.0
      ],
      [
        "Ġdespite",
        -1.0
      ],
      [
        "Ġforward",
        -1.0
      ],
      [
        "Ġproducts",
        -1.0
      ],
      [
        "ve",
        -1.0
      ],
      [
        "Ġchemical",
        -1.0
      ],
      [
        "Ġ190",
        -1.0
      ],
      [
        "Ġcreated",
        -1.0
      ],
      [
        "Ġnow",
        -1.0
      ],
      [
        "Ġtraditional",
        -1.0
      ],
      [
        "70",
        -1.0
      ],
      [
        "Ġproduce",
        -1.0
      ],
      [
        "Ġdistribution",
        -1.0
      ],
      [
        "Ġwere",
        -1.0
      ],
      [
        "Ġbetter",
        -1.0
      ],
      [
        "Ġapplications",
        -1.0
      ],
      [
        "Ġbehaviour",
        -1.0
      ],
      [
        "Ġreligion",
        -1.0
      ],
      [
        "9",
        -1.0
      ],
      [
        "Ġparticular",
        -1.0
      ],
      [
        "°",
        -1.0
      ],
      [
        "Ġarticle",
        -1.0
      ],
      [
        "re",
        -1.0
      ],
      [
        "ĠOffice",
        -1.0
      ],
      [
        "Ġmany",
        -1.0
      ],
      [
        "Ġthemselves",
        -1.0
      ],
      [
        "Ġnecessarily",
        -1.0
      ],
      [
        "Ġposition",
        -1.0
      ],
      [
        "Ġquestions",
        -1.0
      ],
      [
        "Ġview",
        -1.0
      ],
      [
        "Ġexhibit",
        -1.0
      ],
      [
        "ĠGeorgia",
        -1.0
      ],
      [
        "ĠEnglish",
        -1.0
      ],
      [
        "Ġ5",
        -1.0
      ],
      [
        "Ġeconomic",
        -1.0
      ],
      [
        "Ġteachers",
        -1.0
      ],
      [
        "Ġpopulations",
        -1.0
      ],
      [
        "Ġdeath",
        -1.0
      ],
      [
        "Ġdatabase",
        -1.0
      ],
      [
        "Ġpresident",
        -1.0
      ],
      [
        "Ġheld",
        -1.0
      ],
      [
        "Ġsomewhat",
        -1.0
      ],
      [
        "Ġ100",
        -1.0
      ],
      [
        "Ġnext",
        -1.0
      ],
      [
        "h",
        -1.0
      ],
      [
        "Ü",
        -1.0
      ],
      [
        "house",
        -1.0
      ],
      [
        "Ġserve",
        -1.0
      ],
      [
        "Ġpractical",
        -1.0
      ],
      [
        "Ġbasic",
        -1.0
      ],
      [
        "Ġ$",
        -1.0
      ],
      [
        "Ġcross",
        -1.0
      ],
      [
        "://",
        -1.0
      ],
      [
        "Ġnear",
        -1.0
      ],
      [
        "ĠColorado",
        -1.0
      ],
      [
        "Ġ--",
        -1.0
      ],
      [
        "Ġfollow",
        -1.0
      ],
      [
        "Ġvalue",
        -1.0
      ],
      [
        "ally",
        -1.0
      ],
      [
        "l",
        -1.0
      ],
      [
        "Ġchallenge",
        -1.0
      ],
      [
        "37",
        -1.0
      ],
      [
        "ĠBritain",
        -1.0
      ],
      [
        "Ġtumor",
        -1.0
      ],
      [
        "Ġsoon",
        -1.0
      ],
      [
        "ĠNew",
        -1.0
      ],
      [
        "||",
        -1.0
      ],
      [
        "Ġ/",
        -1.0
      ],
      [
        "Ġdoing",
        -1.0
      ],
      [
        "Ġinternal",
        -1.0
      ],
      [
        "Ġprograms",
        -1.0
      ],
      [
        "Ġratio",
        -1.0
      ],
      [
        "Ġnor",
        -1.0
      ],
      [
        "Ġthousands",
        -1.0
      ],
      [
        "NA",
        -1.0
      ],
      [
        ")",
        -1.0
      ],
      [
        "Ġpresented",
        -1.0
      ],
      [
        "Û",
        -1.0
      ],
      [
        "Ġd",
        -1.0
      ],
      [
        "Ġinstitutions",
        -1.0
      ],
      [
        "Ġremained",
        -1.0
      ],
      [
        "Ġshare",
        -1.0
      ],
      [
        "Ġduring",
        -1.0
      ],
      [
        "ĠKing",
        -1.0
      ],
      [
        "M",
        -1.0
      ],
      [
        "Ġwriting",
        -1.0
      ],
      [
        "Ġstop",
        -1.0
      ],
      [
        "load",
        -1.0
      ],
      [
        "Ġdioxide",
        -1.0
      ],
      [
        "í",
        -1.0
      ],
      [
        "Ġ2006",
        -1.0
      ],
      [
        "ĠJanuary",
        -1.0
      ],
      [
        "Ġitself",
        -1.0
      ],
      [
        "Ġnamed",
        -1.0
      ],
      [
        "Ġboth",
        -1.0
      ],
      [
        "F",
        -1.0
      ],
      [
        "ð",
        -1.0
      ],
      [
        "Ġdoes",
        -1.0
      ],
      [
        "ĠJapan",
        -1.0
      ],
      [
        "Ġorganizations",
        -1.0
      ],
      [
        "ĠSt",
        -1.0
      ],
      [
        "Ġessential",
        -1.0
      ],
      [
        "Ġpowerful",
        -1.0
      ],
      [
        "Ġinto",
        -1.0
      ],
      [
        "ĠBut",
        -1.0
      ],
      [
        "Ġbackground",
        -1.0
      ],
      [
        "²",
        -1.0
      ],
      [
        "Ġforeign",
        -1.0
      ],
      [
        "Ġan",
        -1.0
      ],
      [
        "12",
        -1.0
      ],
      [
        "Ġable",
        -1.0
      ],
      [
        "b",
        -1.0
      ],
      [
        "ı",
        -1.0
      ],
      [
        "Ġweb",
        -1.0
      ],
      [
        "Ġglobal",
        -1.0
      ],
      [
        "Ġor",
        -1.0
      ],
      [
        "ĠRetrieved",
        -1.0
      ],
      [
        "Ġacid",
        -1.0
      ],
      [
        "Ġoften",
        -1.0
      ],
      [
        "½",
        -1.0
      ],
      [
        "5",
        -1.0
      ],
      [
        "Ġsequence",
        -1.0
      ],
      [
        "ĠPennsylvania",
        -1.0
      ],
      [
        "Ġindustrial",
        -1.0
      ],
      [
        "ĠSee",
        -1.0
      ],
      [
        "Ġmanage",
        -1.0
      ],
      [
        "Ġquality",
        -1.0
      ],
      [
        "ĠBe",
        -1.0
      ],
      [
        "ening",
        -1.0
      ],
      [
        "¢",
        -1.0
      ],
      [
        ".",
        -1.0
      ],
      [
        "Ġdegrees",
        -1.0
      ],
      [
        "Ġproperty",
        -1.0
      ],
      [
        "In",
        -1.0
      ],
      [
        "Ġbacteria",
        -1.0
      ],
      [
        "Ġevidence",
        -1.0
      ],
      [
        "J",
        -1.0
      ],
      [
        "Ġconflict",
        -1.0
      ],
      [
        "be",
        -1.0
      ],
      [
        "Ġgroups",
        -1.0
      ],
      [
        "Ġsome",
        -1.0
      ],
      [
        "Ġ2005",
        -1.0
      ],
      [
        "r",
        -1.0
      ],
      [
        "ĠÂ",
        -1.0
      ],
      [
        "199",
        -1.0
      ],
      [
        "AC",
        -1.0
      ],
      [
        "Ġexpected",
        -1.0
      ],
      [
        "Ġread",
        -1.0
      ],
      [
        "Ġprevious",
        -1.0
      ],
      [
        "ê",
        -1.0
      ],
      [
        "Ġagainst",
        -1.0
      ],
      [
        "ĠZ",
        -1.0
      ],
      [
        "ĠEuropean",
        -1.0
      ],
      [
        "Ġannual",
        -1.0
      ],
      [
        "ĠJews",
        -1.0
      ],
      [
        "ĠAlso",
        -1.0
      ],
      [
        "Ġrecently",
        -1.0
      ],
      [
        "ways",
        -1.0
      ],
      [
        "Ġrecords",
        -1.0
      ],
      [
        "«",
        -1.0
      ],
      [
        "Ġanimals",
        -1.0
      ],
      [
        "Ġe",
        -1.0
      ],
      [
        "Ġresearchers",
        -1.0
      ],
      [
        "fully",
        -1.0
      ],
      [
        "Ġconduct",
        -1.0
      ],
      [
        "Ġfamily",
        -1.0
      ],
      [
        "ĠChina",
        -1.0
      ],
      [
        "Ġcertain",
        -1.0
      ],
      [
        "Ġunder",
        -1.0
      ],
      [
        "Ġequivalent",
        -1.0
      ],
      [
        "Ġthough",
        -1.0
      ],
      [
        "IS",
        -1.0
      ],
      [
        "Ġfollowed",
        -1.0
      ],
      [
        "Ġmountain",
        -1.0
      ],
      [
        "17",
        -1.0
      ],
      [
        "Ġcenter",
        -1.0
      ],
      [
        "Ġright",
        -1.0
      ],
      [
        "Ġvisit",
        -1.0
      ],
      [
        "Ġstudent",
        -1.0
      ],
      [
        "Ġleading",
        -1.0
      ],
      [
        "ĠAn",
        -1.0
      ],
      [
        "Ġcircumstances",
        -1.0
      ],
      [
        "Ġantibiotic",
        -1.0
      ],
      [
        "ĠDr",
        -1.0
      ],
      [
        "È",
        -1.0
      ],
      [
        "j",
        -1.0
      ],
      [
        "Ġaim",
        -1.0
      ],
      [
        "ĠAcademy",
        -1.0
      ],
      [
        "Ġidentify",
        -1.0
      ],
      [
        "Ġtown",
        -1.0
      ],
      [
        "Ġrace",
        -1.0
      ],
      [
        "Ġwork",
        -1.0
      ],
      [
        "ĠGovernment",
        -1.0
      ],
      [
        "ĠNovember",
        -1.0
      ],
      [
        "Ġmeans",
        -1.0
      ],
      [
        "...",
        -1.0
      ],
      [
        "Ġclear",
        -1.0
      ],
      [
        "Ġ27",
        -1.0
      ],
      [
        "}",
        -1.0
      ],
      [
        "i",
        -1.0
      ],
      [
        "Ġeach",
        -1.0
      ],
      [
        "Ġcholesterol",
        -1.0
      ],
      [
        "\".",
        -1.0
      ],
      [
        "Ġvia",
        -1.0
      ],
      [
        "Ġcentury",
        -1.0
      ],
      [
        "Ġbusiness",
        -1.0
      ],
      [
        "00",
        -1.0
      ],
      [
        "Ġencourage",
        -1.0
      ],
      [
        "As",
        -1.0
      ],
      [
        "Ġprovides",
        -1.0
      ],
      [
        "Ġabandon",
        -1.0
      ],
      [
        "Ġoffer",
        -1.0
      ],
      [
        "Ġwhether",
        -1.0
      ],
      [
        "Ġpermanent",
        -1.0
      ],
      [
        "ĠâĢĶ",
        -1.0
      ],
      [
        "ļ",
        -1.0
      ],
      [
        "Ġmeet",
        -1.0
      ],
      [
        "Ġthird",
        -1.0
      ],
      [
        "ĠHigh",
        -1.0
      ],
      [
        "Ġbelow",
        -1.0
      ],
      [
        "ness",
        -1.0
      ],
      [
        "Ġdifferent",
        -1.0
      ],
      [
        "wise",
        -1.0
      ],
      [
        "\"",
        -1.0
      ],
      [
        "Ġsettle",
        -1.0
      ],
      [
        "Ġphase",
        -1.0
      ],
      [
        "Ġpurpose",
        -1.0
      ],
      [
        "Ġabnormal",
        -1.0
      ],
      [
        "ation",
        -1.0
      ],
      [
        "Ġinterpret",
        -1.0
      ],
      [
        "Ġprior",
        -1.0
      ],
      [
        "Ġpre",
        -1.0
      ],
      [
        "Ġcharacter",
        -1.0
      ],
      [
        "[PAD]",
        -1.0
      ],
      [
        "Ġmathematic",
        -1.0
      ],
      [
        "Ġmight",
        -1.0
      ],
      [
        "Ġam",
        -1.0
      ],
      [
        "Ġindustry",
        -1.0
      ],
      [
        "Ġlegal",
        -1.0
      ],
      [
        "Ġlast",
        -1.0
      ],
      [
        "These",
        -1.0
      ],
      [
        "Ġco",
        -1.0
      ],
      [
        "Ġ1990",
        -1.0
      ],
      [
        "Ġweak",
        -1.0
      ],
      [
        "Ġbit",
        -1.0
      ],
      [
        "k",
        -1.0
      ],
      [
        "Ġsomething",
        -1.0
      ],
      [
        "ĠHebrew",
        -1.0
      ],
      [
        "Ġrespond",
        -1.0
      ],
      [
        "Ġoutside",
        -1.0
      ],
      [
        "[UNK]",
        -1.0
      ],
      [
        "Ġwords",
        -1.0
      ],
      [
        "head",
        -1.0
      ],
      [
        "Ġmy",
        -1.0
      ],
      [
        "Ġserved",
        -1.0
      ],
      [
        "ĠI",
        -1.0
      ],
      [
        "Ġ&",
        -1.0
      ],
      [
        "Ġexisting",
        -1.0
      ],
      [
        "Ġacknowledg",
        -1.0
      ],
      [
        "Ġvolume",
        -1.0
      ],
      [
        "Ġlevels",
        -1.0
      ],
      [
        "Ġforce",
        -1.0
      ],
      [
        "Æ",
        -1.0
      ],
      [
        "Ġversion",
        -1.0
      ],
      [
        "Ġstrong",
        -1.0
      ],
      [
        "ĠAfter",
        -1.0
      ],
      [
        "Ġdiscuss",
        -1.0
      ],
      [
        "Ġlost",
        -1.0
      ],
      [
        "Ġprevent",
        -1.0
      ],
      [
        "One",
        -1.0
      ],
      [
        "Ġplatform",
        -1.0
      ],
      [
        "Ġcities",
        -1.0
      ],
      [
        "Ġvary",
        -1.0
      ],
      [
        "ize",
        -1.0
      ],
      [
        "How",
        -1.0
      ],
      [
        "Ġrespect",
        -1.0
      ],
      [
        "Ġalong",
        -1.0
      ],
      [
        "16",
        -1.0
      ],
      [
        "ĠWhen",
        -1.0
      ],
      [
        "Ġwomen",
        -1.0
      ],
      [
        "Ġgreater",
        -1.0
      ],
      [
        "Ġbelieve",
        -1.0
      ],
      [
        "Ġattention",
        -1.0
      ],
      [
        "Ġdeliver",
        -1.0
      ],
      [
        "Ġactions",
        -1.0
      ],
      [
        "by",
        -1.0
      ],
      [
        "Ġhumans",
        -1.0
      ],
      [
        "ĠProject",
        -1.0
      ],
      [
        "Ġdistrict",
        -1.0
      ],
      [
        "Ġapplied",
        -1.0
      ],
      [
        "Ġconsist",
        -1.0
      ],
      [
        "X",
        -1.0
      ],
      [
        "ĠA",
        -1.0
      ],
      [
        "Ġrest",
        -1.0
      ],
      [
        "Ġnearly",
        -1.0
      ],
      [
        "Ġinfluence",
        -1.0
      ],
      [
        "âĢĶ",
        -1.0
      ],
      [
        "Ġcover",
        -1.0
      ],
      [
        "Ġprotein",
        -1.0
      ],
      [
        "Ġdark",
        -1.0
      ],
      [
        "Ġimplement",
        -1.0
      ],
      [
        "Ġessay",
        -1.0
      ],
      [
        "Ġdiscussion",
        -1.0
      ],
      [
        "Ġreceiving",
        -1.0
      ],
      [
        "Ġled",
        -1.0
      ],
      [
        "ĠAnd",
        -1.0
      ],
      [
        "N",
        -1.0
      ],
      [
        "Ġeffective",
        -1.0
      ],
      [
        "Ġregular",
        -1.0
      ],
      [
        "Ġperiod",
        -1.0
      ],
      [
        "Ġused",
        -1.0
      ],
      [
        "Ġspeed",
        -1.0
      ],
      [
        "Ġdecrease",
        -1.0
      ],
      [
        "Ġlaws",
        -1.0
      ],
      [
        "Ġconsider",
        -1.0
      ],
      [
        "ĠFederal",
        -1.0
      ],
      [
        "Ġdegree",
        -1.0
      ],
      [
        "Ġmale",
        -1.0
      ],
      [
        "Ġenvironmental",
        -1.0
      ],
      [
        "Ġonline",
        -1.0
      ],
      [
        "Ġagain",
        -1.0
      ],
      [
        "Ġcommittee",
        -1.0
      ],
      [
        "Ġrates",
        -1.0
      ],
      [
        "Ġstrategies",
        -1.0
      ],
      [
        "Ġtoday",
        -1.0
      ],
      [
        "ĠUniversity",
        -1.0
      ],
      [
        "ĠGerman",
        -1.0
      ],
      [
        "Ġnon",
        -1.0
      ],
      [
        "ĠJesus",
        -1.0
      ],
      [
        "AM",
        -1.0
      ],
      [
        "While",
        -1.0
      ],
      [
        "Ġunique",
        -1.0
      ],
      [
        "Ġimpossible",
        -1.0
      ],
      [
        "Ġleft",
        -1.0
      ],
      [
        "Ġenforce",
        -1.0
      ],
      [
        "Ġstudies",
        -1.0
      ],
      [
        "ĠJ",
        -1.0
      ],
      [
        "Ġwhite",
        -1.0
      ],
      [
        "|",
        -1.0
      ],
      [
        "Ġminutes",
        -1.0
      ],
      [
        ",âĢĿ",
        -1.0
      ],
      [
        "Ġanything",
        -1.0
      ],
      [
        "Ġmarket",
        -1.0
      ],
      [
        "ĠAdministration",
        -1.0
      ],
      [
        "Ġneeded",
        -1.0
      ],
      [
        "Ġcare",
        -1.0
      ],
      [
        "Ġmind",
        -1.0
      ],
      [
        "Ġtrouble",
        -1.0
      ],
      [
        "Ġfindings",
        -1.0
      ],
      [
        "Ġauthority",
        -1.0
      ],
      [
        "Ġfeature",
        -1.0
      ],
      [
        "ĠResearch",
        -1.0
      ],
      [
        "Ġthinking",
        -1.0
      ],
      [
        "g",
        -1.0
      ],
      [
        "Ġinvolved",
        -1.0
      ],
      [
        "Ġterms",
        -1.0
      ],
      [
        "Ò",
        -1.0
      ],
      [
        "Ġdrug",
        -1.0
      ],
      [
        "ĠâĨĳ",
        -1.0
      ],
      [
        "Ġearliest",
        -1.0
      ],
      [
        "Ġfactor",
        -1.0
      ],
      [
        "ĠLibrary",
        -1.0
      ],
      [
        "Ġwest",
        -1.0
      ],
      [
        "Ġresponsible",
        -1.0
      ],
      [
        "`",
        -1.0
      ],
      [
        "ĠIn",
        -1.0
      ],
      [
        "ĠWhat",
        -1.0
      ],
      [
        "ĠAtlantic",
        -1.0
      ],
      [
        "Ġcontinue",
        -1.0
      ],
      [
        "Ġmade",
        -1.0
      ],
      [
        "ĠWest",
        -1.0
      ],
      [
        "Ġ6",
        -1.0
      ],
      [
        "Ġplace",
        -1.0
      ],
      [
        "3",
        -1.0
      ],
      [
        "Ġp",
        -1.0
      ],
      [
        "ĠAfrica",
        -1.0
      ],
      [
        "Ġefficiency",
        -1.0
      ],
      [
        "led",
        -1.0
      ],
      [
        "Ġtrans",
        -1.0
      ],
      [
        "Ġfruit",
        -1.0
      ],
      [
        "Ġmachine",
        -1.0
      ],
      [
        "Ġmother",
        -1.0
      ],
      [
        "Ġsoftware",
        -1.0
      ],
      [
        "ĠSome",
        -1.0
      ],
      [
        "Ġlove",
        -1.0
      ],
      [
        "ĠIf",
        -1.0
      ],
      [
        "Ġtobacco",
        -1.0
      ],
      [
        "Ġwar",
        -1.0
      ],
      [
        "son",
        -1.0
      ],
      [
        "Ġbring",
        -1.0
      ],
      [
        "Ġevery",
        -1.0
      ],
      [
        "Ġcurriculum",
        -1.0
      ],
      [
        "ĠChicago",
        -1.0
      ],
      [
        "Ġextremely",
        -1.0
      ],
      [
        "Ġand",
        -1.0
      ],
      [
        "Ġcredit",
        -1.0
      ],
      [
        "Ġpatients",
        -1.0
      ],
      [
        "Ġextra",
        -1.0
      ],
      [
        "Ġhelps",
        -1.0
      ],
      [
        "ĠYork",
        -1.0
      ],
      [
        "Ġdon",
        -1.0
      ],
      [
        "Ġaction",
        -1.0
      ],
      [
        "Ġcompared",
        -1.0
      ],
      [
        "Ġ2004",
        -1.0
      ],
      [
        "âĢĻ",
        -1.0
      ],
      [
        "Ġnuclear",
        -1.0
      ],
      [
        "Ġrelationship",
        -1.0
      ],
      [
        "Ġreleased",
        -1.0
      ],
      [
        "Ġcar",
        -1.0
      ],
      [
        "ĠJoseph",
        -1.0
      ],
      [
        "Ġ14",
        -1.0
      ],
      [
        "Ġrestrict",
        -1.0
      ],
      [
        "Ġeasier",
        -1.0
      ],
      [
        "Ġcall",
        -1.0
      ],
      [
        "Ġhe",
        -1.0
      ],
      [
        "Ġearthquake",
        -1.0
      ],
      [
        "Ġeconomy",
        -1.0
      ],
      [
        "Ġschools",
        -1.0
      ],
      [
        "side",
        -1.0
      ],
      [
        "ĠTexas",
        -1.0
      ],
      [
        "ĠPakistan",
        -1.0
      ],
      [
        "Ġrunning",
        -1.0
      ],
      [
        "ĠOn",
        -1.0
      ],
      [
        "Ġthen",
        -1.0
      ],
      [
        "Ġvehicle",
        -1.0
      ],
      [
        "K",
        -1.0
      ],
      [
        "Ġprimarily",
        -1.0
      ],
      [
        "Ġtry",
        -1.0
      ],
      [
        "ations",
        -1.0
      ],
      [
        "Ġgame",
        -1.0
      ],
      [
        "Ġreinforce",
        -1.0
      ],
      [
        "Ġfactors",
        -1.0
      ],
      [
        "EC",
        -1.0
      ],
      [
        "Ġcarry",
        -1.0
      ],
      [
        "Ġavailable",
        -1.0
      ],
      [
        "Ġstyle",
        -1.0
      ],
      [
        "Ġloss",
        -1.0
      ],
      [
        "Ġadvantage",
        -1.0
      ],
      [
        "Ġ1",
        -1.0
      ],
      [
        "ĠInternet",
        -1.0
      ],
      [
        "ĠCity",
        -1.0
      ],
      [
        "ĠInstead",
        -1.0
      ],
      [
        "ĠOne",
        -1.0
      ],
      [
        "Ġwhy",
        -1.0
      ],
      [
        "40",
        -1.0
      ],
      [
        "Ġetc",
        -1.0
      ],
      [
        "į",
        -1.0
      ],
      [
        "Ġsubject",
        -1.0
      ],
      [
        "ĠGoogle",
        -1.0
      ],
      [
        "ĠGermany",
        -1.0
      ],
      [
        "Ġconcept",
        -1.0
      ],
      [
        "OR",
        -1.0
      ],
      [
        "Ġlabor",
        -1.0
      ],
      [
        "ĠOur",
        -1.0
      ],
      [
        "Ġbeautiful",
        -1.0
      ],
      [
        "ĠMay",
        -1.0
      ],
      [
        "Ġalthough",
        -1.0
      ],
      [
        "Ġcity",
        -1.0
      ],
      [
        "ĠAll",
        -1.0
      ],
      [
        "Ġmeasures",
        -1.0
      ],
      [
        "Ġhazard",
        -1.0
      ],
      [
        "Ġsolution",
        -1.0
      ],
      [
        "Ġability",
        -1.0
      ],
      [
        "Ġ\"",
        -1.0
      ],
      [
        "Ġphilosoph",
        -1.0
      ],
      [
        "Ġslightly",
        -1.0
      ],
      [
        "¯",
        -1.0
      ],
      [
        "Ġreligious",
        -1.0
      ],
      [
        "Ġoff",
        -1.0
      ],
      [
        "Ġrights",
        -1.0
      ],
      [
        "Ġlaunch",
        -1.0
      ],
      [
        "ĠAustralia",
        -1.0
      ],
      [
        "Ġeither",
        -1.0
      ],
      [
        "Ġthere",
        -1.0
      ],
      [
        "Ġwaste",
        -1.0
      ],
      [
        "Ġafter",
        -1.0
      ],
      [
        "Ġreading",
        -1.0
      ],
      [
        "Ġscientists",
        -1.0
      ],
      [
        "ĠWith",
        -1.0
      ],
      [
        "Ġauthor",
        -1.0
      ],
      [
        "Ġstories",
        -1.0
      ],
      [
        "Ġsuccess",
        -1.0
      ],
      [
        "Ġaddress",
        -1.0
      ],
      [
        "Ġlimited",
        -1.0
      ],
      [
        "He",
        -1.0
      ],
      [
        "ĠO",
        -1.0
      ],
      [
        "ON",
        -1.0
      ],
      [
        "Ġvillage",
        -1.0
      ],
      [
        "Ġcompletely",
        -1.0
      ],
      [
        "Ġforest",
        -1.0
      ],
      [
        "Ġappears",
        -1.0
      ],
      [
        "15",
        -1.0
      ],
      [
        "Ġmiles",
        -1.0
      ],
      [
        ":",
        -1.0
      ],
      [
        "Ġenergy",
        -1.0
      ],
      [
        "q",
        -1.0
      ],
      [
        "Ġrecommend",
        -1.0
      ],
      [
        "Ġinform",
        -1.0
      ],
      [
        "'",
        -1.0
      ],
      [
        "27",
        -1.0
      ],
      [
        "Ç",
        -1.0
      ],
      [
        "ists",
        -1.0
      ],
      [
        "ĠSystem",
        -1.0
      ],
      [
        "Ġmoved",
        -1.0
      ],
      [
        "Ġconcern",
        -1.0
      ],
      [
        "Ġ198",
        -1.0
      ],
      [
        "Ġneither",
        -1.0
      ],
      [
        "ĠChildren",
        -1.0
      ],
      [
        "Ġtaking",
        -1.0
      ],
      [
        "Ġnormal",
        -1.0
      ],
      [
        "³",
        -1.0
      ],
      [
        "ĠCouncil",
        -1.0
      ],
      [
        "Ġcustom",
        -1.0
      ],
      [
        "âĢ¦",
        -1.0
      ],
      [
        "Ġpersons",
        -1.0
      ],
      [
        "(",
        -1.0
      ],
      [
        "Ġocean",
        -1.0
      ],
      [
        "ĠUN",
        -1.0
      ],
      [
        "Ġhowever",
        -1.0
      ],
      [
        "ĠStates",
        -1.0
      ],
      [
        "ĠHere",
        -1.0
      ],
      [
        "Ġpain",
        -1.0
      ],
      [
        "Ġhis",
        -1.0
      ],
      [
        "Ġcases",
        -1.0
      ],
      [
        "Ġestablished",
        -1.0
      ],
      [
        "Ġproject",
        -1.0
      ],
      [
        "Ġlist",
        -1.0
      ],
      [
        "Ġusers",
        -1.0
      ],
      [
        "Ġmeeting",
        -1.0
      ],
      [
        "Ġdecision",
        -1.0
      ],
      [
        "Ì",
        -1.0
      ],
      [
        "Ġradiation",
        -1.0
      ],
      [
        "Ġno",
        -1.0
      ],
      [
        "Ġfoods",
        -1.0
      ],
      [
        "ĠDay",
        -1.0
      ],
      [
        "Ġuses",
        -1.0
      ],
      [
        "Ġsteps",
        -1.0
      ],
      [
        "Ġone",
        -1.0
      ],
      [
        "Ġmessage",
        -1.0
      ],
      [
        "Ġimpact",
        -1.0
      ],
      [
        "Ġproposed",
        -1.0
      ],
      [
        "Ġisn",
        -1.0
      ],
      [
        "Ġso",
        -1.0
      ],
      [
        "ĠGod",
        -1.0
      ],
      [
        "Ġyoung",
        -1.0
      ],
      [
        "Ġcomplex",
        -1.0
      ],
      [
        "Ġspeech",
        -1.0
      ],
      [
        "*",
        -1.0
      ],
      [
        "ĠPress",
        -1.0
      ],
      [
        "Ġtypically",
        -1.0
      ],
      [
        "Ġmay",
        -1.0
      ],
      [
        "Ġhouse",
        -1.0
      ],
      [
        "Ġcollection",
        -1.0
      ],
      [
        "T",
        -1.0
      ],
      [
        "Ġhow",
        -1.0
      ],
      [
        "13",
        -1.0
      ],
      [
        "Ġfew",
        -1.0
      ],
      [
        "Ġlarger",
        -1.0
      ],
      [
        "Ġchronic",
        -1.0
      ],
      [
        "âĢ",
        -1.0
      ],
      [
        "Ġsurviv",
        -1.0
      ],
      [
        "ous",
        -1.0
      ],
      [
        "S",
        -1.0
      ],
      [
        "e",
        -1.0
      ],
      [
        "Ġgreat",
        -1.0
      ],
      [
        "·",
        -1.0
      ],
      [
        "ĠCD",
        -1.0
      ],
      [
        "Ġc",
        -1.0
      ],
      [
        "Ġtrade",
        -1.0
      ],
      [
        "Ġexposure",
        -1.0
      ],
      [
        "Ġet",
        -1.0
      ],
      [
        "Ġactivities",
        -1.0
      ],
      [
        "Ġplants",
        -1.0
      ],
      [
        "Ġprotection",
        -1.0
      ],
      [
        "ĠDistrict",
        -1.0
      ],
      [
        "¤",
        -1.0
      ],
      [
        "Ĥ",
        -1.0
      ],
      [
        "Ġstress",
        -1.0
      ],
      [
        "Ġwind",
        -1.0
      ],
      [
        "Ġasked",
        -1.0
      ],
      [
        "Ġorbit",
        -1.0
      ],
      [
        "26",
        -1.0
      ],
      [
        "Ġdistinguish",
        -1.0
      ],
      [
        "Ġtarget",
        -1.0
      ],
      [
        "land",
        -1.0
      ],
      [
        "Ġself",
        -1.0
      ],
      [
        "ĠBy",
        -1.0
      ],
      [
        "Ġwinter",
        -1.0
      ],
      [
        "Ġshall",
        -1.0
      ],
      [
        "Ġobserved",
        -1.0
      ],
      [
        "¼",
        -1.0
      ],
      [
        "Ġintellectual",
        -1.0
      ],
      [
        "Ġorder",
        -1.0
      ],
      [
        "200",
        -1.0
      ],
      [
        "Ġworking",
        -1.0
      ],
      [
        "Ġoffers",
        -1.0
      ],
      [
        "¹",
        -1.0
      ],
      [
        "Ġcontinu",
        -1.0
      ],
      [
        "Ġfish",
        -1.0
      ],
      [
        "Ĩ",
        -1.0
      ],
      [
        "ĠBuddh",
        -1.0
      ],
      [
        "ĠNational",
        -1.0
      ],
      [
        "Ġmaterial",
        -1.0
      ],
      [
        "Ġbecome",
        -1.0
      ],
      [
        "75",
        -1.0
      ],
      [
        "Ġfresh",
        -1.0
      ],
      [
        "Ġthroughout",
        -1.0
      ],
      [
        "2",
        -1.0
      ],
      [
        "Ġsurface",
        -1.0
      ],
      [
        "Ġinstance",
        -1.0
      ],
      [
        "Ġsimilar",
        -1.0
      ],
      [
        "Ġrecent",
        -1.0
      ],
      [
        "Ġmust",
        -1.0
      ],
      [
        "Ġeat",
        -1.0
      ],
      [
        "Ġmajor",
        -1.0
      ],
      [
        "Ġnational",
        -1.0
      ],
      [
        "ĠLord",
        -1.0
      ],
      [
        "Ġmatter",
        -1.0
      ],
      [
        "Ġtest",
        -1.0
      ],
      [
        "Ġseems",
        -1.0
      ],
      [
        "Ġmeaning",
        -1.0
      ],
      [
        "Ġsites",
        -1.0
      ],
      [
        "ĠSun",
        -1.0
      ],
      [
        "ĠOf",
        -1.0
      ],
      [
        "Ġparty",
        -1.0
      ],
      [
        "Ġdied",
        -1.0
      ],
      [
        "Ġsince",
        -1.0
      ],
      [
        "Ġreveal",
        -1.0
      ],
      [
        "Ġnorthern",
        -1.0
      ],
      [
        "Ġdaughter",
        -1.0
      ],
      [
        "Ġsample",
        -1.0
      ],
      [
        "ĠIsland",
        -1.0
      ],
      [
        "Ġbegin",
        -1.0
      ],
      [
        "which",
        -1.0
      ],
      [
        "Ġdollars",
        -1.0
      ],
      [
        "-",
        -1.0
      ],
      [
        "Ġmultiple",
        -1.0
      ],
      [
        "Ġplans",
        -1.0
      ],
      [
        "Ġaccurate",
        -1.0
      ],
      [
        "Ġbone",
        -1.0
      ],
      [
        "ĠKansas",
        -1.0
      ],
      [
        "Ġstaff",
        -1.0
      ],
      [
        "Ġwritten",
        -1.0
      ],
      [
        "Ġcauses",
        -1.0
      ],
      [
        "Ġart",
        -1.0
      ],
      [
        "Ġbillion",
        -1.0
      ],
      [
        "Ġhaving",
        -1.0
      ],
      [
        "Ġgives",
        -1.0
      ],
      [
        "Ġwitness",
        -1.0
      ],
      [
        "Ġthis",
        -1.0
      ],
      [
        "Ġtrying",
        -1.0
      ],
      [
        "'ve",
        -1.0
      ],
      [
        "Ġcontext",
        -1.0
      ],
      [
        "Ġdo",
        -1.0
      ],
      [
        "Ġdepression",
        -1.0
      ],
      [
        "Ġfinancial",
        -1.0
      ],
      [
        "Ġdefined",
        -1.0
      ],
      [
        "Ġapproximately",
        -1.0
      ],
      [
        "ä",
        -1.0
      ],
      [
        "Ġsuccessful",
        -1.0
      ],
      [
        "Ġfast",
        -1.0
      ],
      [
        "Ġadapt",
        -1.0
      ],
      [
        "Ġshows",
        -1.0
      ],
      [
        "When",
        -1.0
      ],
      [
        "ĠState",
        -1.0
      ],
      [
        "Ġsea",
        -1.0
      ],
      [
        "as",
        -1.0
      ],
      [
        "Ġlearned",
        -1.0
      ],
      [
        "line",
        -1.0
      ],
      [
        "ĠN",
        -1.0
      ],
      [
        "ES",
        -1.0
      ],
      [
        "Ġexist",
        -1.0
      ],
      [
        "Ġdescribe",
        -1.0
      ],
      [
        "Ġreached",
        -1.0
      ],
      [
        "Ġroughly",
        -1.0
      ],
      [
        "on",
        -1.0
      ],
      [
        "@",
        -1.0
      ],
      [
        "é",
        -1.0
      ],
      [
        "Ġsigns",
        -1.0
      ],
      [
        "Ġreduced",
        -1.0
      ],
      [
        "Ġassist",
        -1.0
      ],
      [
        "E",
        -1.0
      ],
      [
        "Ġthey",
        -1.0
      ],
      [
        "Ġfood",
        -1.0
      ],
      [
        "Ġalgorithm",
        -1.0
      ],
      [
        "Ġtwenty",
        -1.0
      ],
      [
        "Ġlikely",
        -1.0
      ],
      [
        "er",
        -1.0
      ],
      [
        "Ġmaking",
        -1.0
      ],
      [
        "Ġsame",
        -1.0
      ],
      [
        "Ġtwo",
        -1.0
      ],
      [
        "Ġ13",
        -1.0
      ],
      [
        "Ġgiving",
        -1.0
      ],
      [
        "Ġreported",
        -1.0
      ],
      [
        "Ġmission",
        -1.0
      ],
      [
        "Ġallowed",
        -1.0
      ],
      [
        "AR",
        -1.0
      ],
      [
        "Ġincluding",
        -1.0
      ],
      [
        "Ġacross",
        -1.0
      ],
      [
        "Figure",
        -1.0
      ],
      [
        "11",
        -1.0
      ],
      [
        "ĠAugust",
        -1.0
      ],
      [
        "Ġhas",
        -1.0
      ],
      [
        "Ġwhile",
        -1.0
      ],
      [
        "man",
        -1.0
      ],
      [
        "Ġsomeone",
        -1.0
      ],
      [
        "Ġbehavior",
        -1.0
      ],
      [
        "Ġ40",
        -1.0
      ],
      [
        "Ġchanges",
        -1.0
      ],
      [
        "Ġturned",
        -1.0
      ],
      [
        "Ġcommunities",
        -1.0
      ],
      [
        "Ġalcohol",
        -1.0
      ],
      [
        "Ġin",
        -1.0
      ],
      [
        "Ġsymbol",
        -1.0
      ],
      [
        "ĠCenter",
        -1.0
      ],
      [
        "Ġsix",
        -1.0
      ],
      [
        "Ġchange",
        -1.0
      ],
      [
        "Ġpositive",
        -1.0
      ],
      [
        "Ġchapter",
        -1.0
      ],
      [
        "ID",
        -1.0
      ],
      [
        "âĢĿ",
        -1.0
      ],
      [
        "ĠDuring",
        -1.0
      ],
      [
        "Ġdesign",
        -1.0
      ],
      [
        "Ġopen",
        -1.0
      ],
      [
        "Ġthought",
        -1.0
      ],
      [
        "Ġover",
        -1.0
      ],
      [
        "Ġabout",
        -1.0
      ],
      [
        "Ġupper",
        -1.0
      ],
      [
        "Ġpregnancy",
        -1.0
      ],
      [
        "Ġmedicine",
        -1.0
      ],
      [
        "Ġhigher",
        -1.0
      ],
      [
        "B",
        -1.0
      ],
      [
        "Ġproduct",
        -1.0
      ],
      [
        "Ġpeace",
        -1.0
      ],
      [
        "Ġthose",
        -1.0
      ],
      [
        "Ġask",
        -1.0
      ],
      [
        "Ġreports",
        -1.0
      ],
      [
        "Ġwould",
        -1.0
      ],
      [
        "Ġsingle",
        -1.0
      ],
      [
        "Ġoccup",
        -1.0
      ],
      [
        "ive",
        -1.0
      ],
      [
        "Ġexcept",
        -1.0
      ],
      [
        "L",
        -1.0
      ],
      [
        "29",
        -1.0
      ],
      [
        "Ġ4",
        -1.0
      ],
      [
        "Ġnothing",
        -1.0
      ],
      [
        "Ġit",
        -1.0
      ],
      [
        "ĠThen",
        -1.0
      ],
      [
        "Ġexercise",
        -1.0
      ],
      [
        "Ã¡",
        -1.0
      ],
      [
        "45",
        -1.0
      ],
      [
        "Ġobjects",
        -1.0
      ],
      [
        "Ġserious",
        -1.0
      ],
      [
        "Ġpotential",
        -1.0
      ],
      [
        "Ġfeet",
        -1.0
      ],
      [
        "Ġmunicipal",
        -1.0
      ],
      [
        "Ġcannot",
        -1.0
      ],
      [
        "Ġdomestic",
        -1.0
      ],
      [
        "Ġfunction",
        -1.0
      ],
      [
        "Ġthree",
        -1.0
      ],
      [
        "I",
        -1.0
      ],
      [
        "Ġour",
        -1.0
      ],
      [
        "ĠCivil",
        -1.0
      ],
      [
        "Ġstates",
        -1.0
      ],
      [
        "ĠWhile",
        -1.0
      ],
      [
        "Ġhome",
        -1.0
      ],
      [
        "Ġweeks",
        -1.0
      ],
      [
        "Ġseries",
        -1.0
      ],
      [
        "Ġanxiety",
        -1.0
      ],
      [
        "Ġrate",
        -1.0
      ],
      [
        ".)",
        -1.0
      ],
      [
        "Ġmulti",
        -1.0
      ],
      [
        "ual",
        -1.0
      ],
      [
        "ĠFirst",
        -1.0
      ],
      [
        "Ġgeneral",
        -1.0
      ],
      [
        "ĠSociety",
        -1.0
      ],
      [
        "Ġrock",
        -1.0
      ],
      [
        "Ġdoesn",
        -1.0
      ],
      [
        "Ġrich",
        -1.0
      ],
      [
        "Ġthus",
        -1.0
      ],
      [
        "Ġare",
        -1.0
      ],
      [
        "day",
        -1.0
      ],
      [
        "Ġfields",
        -1.0
      ],
      [
        "Ġliterature",
        -1.0
      ],
      [
        "Ġex",
        -1.0
      ],
      [
        "Ġhand",
        -1.0
      ],
      [
        "Ġcommercial",
        -1.0
      ],
      [
        "Ġout",
        -1.0
      ],
      [
        "ors",
        -1.0
      ],
      [
        "Ġattract",
        -1.0
      ],
      [
        "Ġ:",
        -1.0
      ],
      [
        "Ġrise",
        -1.0
      ],
      [
        "Ġpicture",
        -1.0
      ],
      [
        "Ġofficials",
        -1.0
      ],
      [
        "ĠSoviet",
        -1.0
      ],
      [
        "Ġbase",
        -1.0
      ],
      [
        "Ġunderstand",
        -1.0
      ],
      [
        "ĠOcean",
        -1.0
      ],
      [
        "Ġbe",
        -1.0
      ],
      [
        "Ġreference",
        -1.0
      ],
      [
        "ĠCambridge",
        -1.0
      ],
      [
        "Ġsources",
        -1.0
      ],
      [
        "Ġspread",
        -1.0
      ],
      [
        "Ġlate",
        -1.0
      ],
      [
        "us",
        -1.0
      ],
      [
        "Ġshort",
        -1.0
      ],
      [
        "Ġus",
        -1.0
      ],
      [
        "Ġturn",
        -1.0
      ],
      [
        "!",
        -1.0
      ],
      [
        "that",
        -1.0
      ],
      [
        "to",
        -1.0
      ],
      [
        "Ġremains",
        -1.0
      ],
      [
        "Ġ18",
        -1.0
      ],
      [
        "Ġliving",
        -1.0
      ],
      [
        "Ġcomponent",
        -1.0
      ],
      [
        "Ġprogress",
        -1.0
      ],
      [
        "Ġ21",
        -1.0
      ],
      [
        "Ġexperience",
        -1.0
      ],
      [
        "Ġoperations",
        -1.0
      ],
      [
        "Ġeating",
        -1.0
      ],
      [
        "ĠFlorida",
        -1.0
      ],
      [
        "Ġcapacity",
        -1.0
      ],
      [
        "Ġdidn",
        -1.0
      ],
      [
        "Ġ3",
        -1.0
      ],
      [
        "Ġchance",
        -1.0
      ],
      [
        "By",
        -1.0
      ],
      [
        "Ġmass",
        -1.0
      ],
      [
        "ĥ",
        -1.0
      ],
      [
        "Ġestimated",
        -1.0
      ],
      [
        "c",
        -1.0
      ],
      [
        "Ġ16",
        -1.0
      ],
      [
        "Ġbrought",
        -1.0
      ],
      [
        "Ġseparate",
        -1.0
      ],
      [
        "Ġskills",
        -1.0
      ],
      [
        "Ġkilled",
        -1.0
      ],
      [
        "Ġerror",
        -1.0
      ],
      [
        "30",
        -1.0
      ],
      [
        "Ġstudents",
        -1.0
      ],
      [
        "Ġaverage",
        -1.0
      ],
      [
        "Ġfather",
        -1.0
      ],
      [
        "Ġspecific",
        -1.0
      ],
      [
        "ĠIllinois",
        -1.0
      ],
      [
        "Ġnames",
        -1.0
      ],
      [
        "ĠService",
        -1.0
      ],
      [
        "Å",
        -1.0
      ],
      [
        "Ġwrote",
        -1.0
      ],
      [
        "AN",
        -1.0
      ],
      [
        "Ġregard",
        -1.0
      ],
      [
        "After",
        -1.0
      ],
      [
        "Ġwant",
        -1.0
      ],
      [
        "Ġwidely",
        -1.0
      ],
      [
        "ĠAssociation",
        -1.0
      ],
      [
        "ed",
        -1.0
      ],
      [
        "Ġsurgery",
        -1.0
      ],
      [
        "21",
        -1.0
      ],
      [
        "Ġat",
        -1.0
      ],
      [
        "Ġ2002",
        -1.0
      ],
      [
        "Ġfinal",
        -1.0
      ],
      [
        "Ġeight",
        -1.0
      ],
      [
        "Ġpregnant",
        -1.0
      ],
      [
        "Ġlive",
        -1.0
      ],
      [
        "Ġrules",
        -1.0
      ],
      [
        "Ġcompany",
        -1.0
      ],
      [
        "Ġentire",
        -1.0
      ],
      [
        "ĠAccording",
        -1.0
      ],
      [
        "Ġunit",
        -1.0
      ],
      [
        "Ġgiven",
        -1.0
      ],
      [
        "Ġ2003",
        -1.0
      ],
      [
        "Ġ.",
        -1.0
      ],
      [
        "an",
        -1.0
      ],
      [
        "Ġdry",
        -1.0
      ],
      [
        "Ġlittle",
        -1.0
      ],
      [
        "Ġultimate",
        -1.0
      ],
      [
        "Ġresult",
        -1.0
      ],
      [
        "Ġparticularly",
        -1.0
      ],
      [
        "Ġconstant",
        -1.0
      ],
      [
        "ĠWar",
        -1.0
      ],
      [
        "Ġ23",
        -1.0
      ],
      [
        "Ġmemory",
        -1.0
      ],
      [
        "Ġ,",
        -1.0
      ],
      [
        "Ġis",
        -1.0
      ],
      [
        "Ġmusic",
        -1.0
      ],
      [
        "Ġfield",
        -1.0
      ],
      [
        "Į",
        -1.0
      ],
      [
        "Ġfocus",
        -1.0
      ],
      [
        "Ġkids",
        -1.0
      ],
      [
        "Ġperhaps",
        -1.0
      ],
      [
        "ĠUnited",
        -1.0
      ],
      [
        "Ġseason",
        -1.0
      ],
      [
        "Ġen",
        -1.0
      ],
      [
        "Ġreasons",
        -1.0
      ],
      [
        "Ġancient",
        -1.0
      ],
      [
        "Ġways",
        -1.0
      ],
      [
        "Ġindependent",
        -1.0
      ],
      [
        "ç",
        -1.0
      ],
      [
        "ex",
        -1.0
      ],
      [
        "Ġallows",
        -1.0
      ],
      [
        "Ġjourney",
        -1.0
      ],
      [
        "ĠDavid",
        -1.0
      ],
      [
        "Ġreview",
        -1.0
      ],
      [
        "Ġfeatures",
        -1.0
      ],
      [
        "Ġtime",
        -1.0
      ],
      [
        "Ġwell",
        -1.0
      ],
      [
        "ion",
        -1.0
      ],
      [
        "Ġplan",
        -1.0
      ],
      [
        "Ġtransport",
        -1.0
      ],
      [
        "Ġconservation",
        -1.0
      ],
      [
        "Ġtaken",
        -1.0
      ],
      [
        "Ġgreen",
        -1.0
      ],
      [
        "Ġdevices",
        -1.0
      ],
      [
        "Ġamount",
        -1.0
      ],
      [
        "ET",
        -1.0
      ],
      [
        "Ġtropical",
        -1.0
      ],
      [
        "Ġfire",
        -1.0
      ],
      [
        "ĠScience",
        -1.0
      ],
      [
        "Ġbox",
        -1.0
      ],
      [
        "ĠS",
        -1.0
      ],
      [
        "Ġmember",
        -1.0
      ],
      [
        "Ġprotect",
        -1.0
      ],
      [
        "Ġeducational",
        -1.0
      ],
      [
        "Ġpattern",
        -1.0
      ],
      [
        "Ġregions",
        -1.0
      ],
      [
        "Ġ2010",
        -1.0
      ],
      [
        "Ġon",
        -1.0
      ],
      [
        "u",
        -1.0
      ],
      [
        "Ġdiscovered",
        -1.0
      ],
      [
        "ĠMuslim",
        -1.0
      ],
      [
        "EN",
        -1.0
      ],
      [
        "Ġgalax",
        -1.0
      ],
      [
        "Ġtechnology",
        -1.0
      ],
      [
        "Ġelse",
        -1.0
      ],
      [
        "Ġtherapy",
        -1.0
      ],
      [
        "Ġbelieved",
        -1.0
      ],
      [
        "ĠIt",
        -1.0
      ],
      [
        "Ġ9",
        -1.0
      ],
      [
        "Ġmaintain",
        -1.0
      ],
      [
        "Ġdocument",
        -1.0
      ],
      [
        "Ġcome",
        -1.0
      ],
      [
        "Ġbabies",
        -1.0
      ],
      [
        "Ġattack",
        -1.0
      ],
      [
        "Ġrelease",
        -1.0
      ],
      [
        "Ġsee",
        -1.0
      ],
      [
        "Ġcan",
        -1.0
      ],
      [
        "Ġred",
        -1.0
      ],
      [
        "Ġ24",
        -1.0
      ],
      [
        "Ġson",
        -1.0
      ],
      [
        "Ġcell",
        -1.0
      ],
      [
        "Ġperson",
        -1.0
      ],
      [
        "Ġstatus",
        -1.0
      ],
      [
        "80",
        -1.0
      ],
      [
        "ĠYour",
        -1.0
      ],
      [
        "Ġgovernment",
        -1.0
      ],
      [
        "year",
        -1.0
      ],
      [
        "ĠFebruary",
        -1.0
      ],
      [
        "Ġstrength",
        -1.0
      ],
      [
        "ĠOver",
        -1.0
      ],
      [
        "Ġact",
        -1.0
      ],
      [
        "Ġbroad",
        -1.0
      ],
      [
        "Ġclassroom",
        -1.0
      ],
      [
        "ĠLincoln",
        -1.0
      ],
      [
        "Ġleast",
        -1.0
      ],
      [
        "SA",
        -1.0
      ],
      [
        "out",
        -1.0
      ],
      [
        "Ġpolicy",
        -1.0
      ],
      [
        "Ġdisplay",
        -1.0
      ],
      [
        "ĠFrance",
        -1.0
      ],
      [
        "ĠK",
        -1.0
      ],
      [
        "Ġpoint",
        -1.0
      ],
      [
        "Ġcolumn",
        -1.0
      ],
      [
        "Ġstudy",
        -1.0
      ],
      [
        "ĠSmith",
        -1.0
      ],
      [
        "Ġissue",
        -1.0
      ],
      [
        "Ġ7",
        -1.0
      ],
      [
        "20",
        -1.0
      ],
      [
        "ĠEnergy",
        -1.0
      ],
      [
        "Ġagree",
        -1.0
      ],
      [
        "Ġoriginal",
        -1.0
      ],
      [
        "ĠEducation",
        -1.0
      ],
      [
        "ĠInternational",
        -1.0
      ],
      [
        "Ģ",
        -1.0
      ],
      [
        "m",
        -1.0
      ],
      [
        "Ġday",
        -1.0
      ],
      [
        "50",
        -1.0
      ],
      [
        "Ġformer",
        -1.0
      ],
      [
        "ĠR",
        -1.0
      ],
      [
        "Ġclearly",
        -1.0
      ],
      [
        "Ġbenefits",
        -1.0
      ],
      [
        "ty",
        -1.0
      ],
      [
        "Ġvirus",
        -1.0
      ],
      [
        "\\",
        -1.0
      ],
      [
        "Ġwhich",
        -1.0
      ],
      [
        "Ġalmost",
        -1.0
      ],
      [
        "ĠMore",
        -1.0
      ],
      [
        "Ġunits",
        -1.0
      ],
      [
        "Ġwildlife",
        -1.0
      ],
      [
        "Ġstep",
        -1.0
      ],
      [
        "Ġown",
        -1.0
      ],
      [
        "ĭ",
        -1.0
      ],
      [
        "Ġcase",
        -1.0
      ],
      [
        "According",
        -1.0
      ],
      [
        "Ġgoing",
        -1.0
      ],
      [
        "Ġgive",
        -1.0
      ],
      [
        "Ġearth",
        -1.0
      ],
      [
        "Ġbehind",
        -1.0
      ],
      [
        "for",
        -1.0
      ],
      [
        "ĠLanguage",
        -1.0
      ],
      [
        "Ġtoo",
        -1.0
      ],
      [
        "Ġnatural",
        -1.0
      ],
      [
        "ĸ",
        -1.0
      ],
      [
        "Ġallow",
        -1.0
      ],
      [
        "n",
        -1.0
      ],
      [
        "Ġchanged",
        -1.0
      ],
      [
        "Ġwhen",
        -1.0
      ],
      [
        "Ġcomfort",
        -1.0
      ],
      [
        "Ġlargest",
        -1.0
      ],
      [
        "Ġbaby",
        -1.0
      ],
      [
        "Ġapplication",
        -1.0
      ],
      [
        "Ġsimple",
        -1.0
      ],
      [
        "ĠPark",
        -1.0
      ],
      [
        "Ġdaily",
        -1.0
      ],
      [
        "Ġreceive",
        -1.0
      ],
      [
        "Ġten",
        -1.0
      ],
      [
        "Ġresponse",
        -1.0
      ],
      [
        "Ġmarriage",
        -1.0
      ],
      [
        "Ġlonger",
        -1.0
      ],
      [
        "Ġvitamin",
        -1.0
      ],
      [
        "ĠProfessor",
        -1.0
      ],
      [
        "At",
        -1.0
      ],
      [
        "Ġm",
        -1.0
      ],
      [
        "Ġmeasure",
        -1.0
      ],
      [
        "Ġactual",
        -1.0
      ],
      [
        "Ġdedicated",
        -1.0
      ],
      [
        "Ġsacrifice",
        -1.0
      ],
      [
        "Ġnew",
        -1.0
      ],
      [
        "Ġfall",
        -1.0
      ],
      [
        "Ġsecond",
        -1.0
      ],
      [
        "Ġdifficult",
        -1.0
      ],
      [
        "Ġconsumption",
        -1.0
      ],
      [
        "Ġsubstance",
        -1.0
      ],
      [
        "Ġ22",
        -1.0
      ],
      [
        "Ġtemperature",
        -1.0
      ],
      [
        "ĠHealth",
        -1.0
      ],
      [
        "Ġa",
        -1.0
      ],
      [
        "Ġfailure",
        -1.0
      ],
      [
        "Ġcitizens",
        -1.0
      ],
      [
        "ĠThe",
        -1.0
      ],
      [
        "ĠPresident",
        -1.0
      ],
      [
        "Ġgold",
        -1.0
      ],
      [
        "Ġbuildings",
        -1.0
      ],
      [
        "Ġissues",
        -1.0
      ],
      [
        "Ġmore",
        -1.0
      ],
      [
        "Ġhistorical",
        -1.0
      ],
      [
        "ĠManagement",
        -1.0
      ],
      [
        "ĠWeb",
        -1.0
      ],
      [
        "Ġstation",
        -1.0
      ],
      [
        "Ġbenefit",
        -1.0
      ],
      [
        "Ľ",
        -1.0
      ],
      [
        "Ġspeak",
        -1.0
      ],
      [
        "Ġperfect",
        -1.0
      ],
      [
        "Ġcomprehensive",
        -1.0
      ],
      [
        "ĠAir",
        -1.0
      ],
      [
        "Ġdecades",
        -1.0
      ],
      [
        "Ġevolution",
        -1.0
      ],
      [
        "Ġpp",
        -1.0
      ],
      [
        "dom",
        -1.0
      ],
      [
        "Ġdifference",
        -1.0
      ],
      [
        "Ġvision",
        -1.0
      ],
      [
        "34",
        -1.0
      ],
      [
        "Ġmilitary",
        -1.0
      ],
      [
        "Ġweight",
        -1.0
      ],
      [
        "Ġdisorder",
        -1.0
      ],
      [
        "Ġseveral",
        -1.0
      ],
      [
        "]",
        -1.0
      ],
      [
        "ĠValley",
        -1.0
      ],
      [
        "Ġsay",
        -1.0
      ],
      [
        "Ġchief",
        -1.0
      ],
      [
        "water",
        -1.0
      ],
      [
        "Ġever",
        -1.0
      ],
      [
        "19",
        -1.0
      ],
      [
        "Ġdetermined",
        -1.0
      ],
      [
        "Ġprofessional",
        -1.0
      ],
      [
        "Ġexchange",
        -1.0
      ],
      [
        "What",
        -1.0
      ],
      [
        "set",
        -1.0
      ],
      [
        "Ġfound",
        -1.0
      ],
      [
        "Ġdevelopment",
        -1.0
      ],
      [
        "Ġthousand",
        -1.0
      ],
      [
        "Ġexamples",
        -1.0
      ],
      [
        "IN",
        -1.0
      ],
      [
        "Ġfurther",
        -1.0
      ],
      [
        "Ġquant",
        -1.0
      ],
      [
        "Ġbetween",
        -1.0
      ],
      [
        "Ġincome",
        -1.0
      ],
      [
        "Ġbrain",
        -1.0
      ],
      [
        "Ġuse",
        -1.0
      ],
      [
        "A",
        -1.0
      ],
      [
        "age",
        -1.0
      ],
      [
        "Ġwrite",
        -1.0
      ],
      [
        "ĠC",
        -1.0
      ],
      [
        "Z",
        -1.0
      ],
      [
        "Ġtravel",
        -1.0
      ],
      [
        "Ġguide",
        -1.0
      ],
      [
        "Ġmoving",
        -1.0
      ],
      [
        "Ġsound",
        -1.0
      ],
      [
        "Ġv",
        -1.0
      ],
      [
        "Ġaccount",
        -1.0
      ],
      [
        "Ġwhole",
        -1.0
      ],
      [
        "Ġblack",
        -1.0
      ],
      [
        "ĠHowever",
        -1.0
      ],
      [
        "Ġfrom",
        -1.0
      ],
      [
        "Ġrather",
        -1.0
      ],
      [
        "Ġrequires",
        -1.0
      ],
      [
        "ĺ",
        -1.0
      ],
      [
        "Ġenough",
        -1.0
      ],
      [
        "Ġparts",
        -1.0
      ],
      [
        "Ġcommonly",
        -1.0
      ],
      [
        "Ġtissue",
        -1.0
      ],
      [
        "ern",
        -1.0
      ],
      [
        "Ġany",
        -1.0
      ],
      [
        "1",
        -1.0
      ],
      [
        "Ġreflect",
        -1.0
      ],
      [
        "Ġaccess",
        -1.0
      ],
      [
        "Ġfemale",
        -1.0
      ],
      [
        "Ġsuggests",
        -1.0
      ],
      [
        "Ġsucceed",
        -1.0
      ],
      [
        "Ġchannel",
        -1.0
      ],
      [
        "Ġengine",
        -1.0
      ],
      [
        "IC",
        -1.0
      ],
      [
        "wide",
        -1.0
      ],
      [
        "Ġsense",
        -1.0
      ],
      [
        "ĠAfghanistan",
        -1.0
      ],
      [
        "Ġnotice",
        -1.0
      ],
      [
        "Ġtoward",
        -1.0
      ],
      [
        "Ġmonths",
        -1.0
      ],
      [
        "Ġarea",
        -1.0
      ],
      [
        "Ġgrowth",
        -1.0
      ],
      [
        "Ġtesting",
        -1.0
      ],
      [
        "ĠChinese",
        -1.0
      ],
      [
        ".,",
        -1.0
      ],
      [
        "Ġbelief",
        -1.0
      ],
      [
        "Ġmajority",
        -1.0
      ],
      [
        "Ġcolleagues",
        -1.0
      ],
      [
        "Ġdeveloping",
        -1.0
      ],
      [
        "8",
        -1.0
      ],
      [
        "Ġbecause",
        -1.0
      ],
      [
        "Ġcollege",
        -1.0
      ],
      [
        "Ġcommand",
        -1.0
      ],
      [
        "Ġharvest",
        -1.0
      ],
      [
        "Ġsize",
        -1.0
      ],
      [
        "Ġhold",
        -1.0
      ],
      [
        "ĠCollege",
        -1.0
      ],
      [
        "Ġhappen",
        -1.0
      ],
      [
        "Ġmillion",
        -1.0
      ],
      [
        "Ġrepresent",
        -1.0
      ],
      [
        "Ġpages",
        -1.0
      ],
      [
        "ĠYou",
        -1.0
      ],
      [
        "ĠThis",
        -1.0
      ],
      [
        "of",
        -1.0
      ],
      [
        "Ġpublished",
        -1.0
      ],
      [
        "Ġabsorb",
        -1.0
      ],
      [
        "Ġanimal",
        -1.0
      ],
      [
        "Ġincrease",
        -1.0
      ],
      [
        "ĠMost",
        -1.0
      ],
      [
        "where",
        -1.0
      ],
      [
        "ful",
        -1.0
      ],
      [
        "Ġfat",
        -1.0
      ],
      [
        "Ġtechniques",
        -1.0
      ],
      [
        "Ġbeing",
        -1.0
      ],
      [
        "Ġcommunication",
        -1.0
      ],
      [
        "Ġyou",
        -1.0
      ],
      [
        "ĠDepartment",
        -1.0
      ],
      [
        "ĠOther",
        -1.0
      ],
      [
        "Ġcenturies",
        -1.0
      ],
      [
        "Ġwho",
        -1.0
      ],
      [
        "Ġshow",
        -1.0
      ],
      [
        "Ġemissions",
        -1.0
      ],
      [
        "craft",
        -1.0
      ],
      [
        "Ġpoverty",
        -1.0
      ],
      [
        "Ġsocial",
        -1.0
      ],
      [
        "Ġharm",
        -1.0
      ],
      [
        "Ġhelp",
        -1.0
      ],
      [
        "Ġhighest",
        -1.0
      ],
      [
        "â",
        -1.0
      ],
      [
        "P",
        -1.0
      ],
      [
        "Ġ0",
        -1.0
      ],
      [
        "Ġbest",
        -1.0
      ],
      [
        "Ġenjoy",
        -1.0
      ],
      [
        "Ġcategor",
        -1.0
      ],
      [
        "ĠNorth",
        -1.0
      ],
      [
        "Ġ-",
        -1.0
      ],
      [
        "Ġunderstanding",
        -1.0
      ],
      [
        "Ġlower",
        -1.0
      ],
      [
        "lands",
        -1.0
      ],
      [
        "Ġtotal",
        -1.0
      ],
      [
        "Ġpoints",
        -1.0
      ],
      [
        "ity",
        -1.0
      ],
      [
        "Ġenvironment",
        -1.0
      ],
      [
        "Ġbottom",
        -1.0
      ],
      [
        "25",
        -1.0
      ],
      [
        "Ġhands",
        -1.0
      ],
      [
        "Ġcampaign",
        -1.0
      ],
      [
        "Ġsoil",
        -1.0
      ],
      [
        "ĠItalian",
        -1.0
      ],
      [
        "Ġthan",
        -1.0
      ],
      [
        "Ġif",
        -1.0
      ],
      [
        "Ġeffect",
        -1.0
      ],
      [
        "Ġprinciple",
        -1.0
      ],
      [
        "es",
        -1.0
      ],
      [
        "Ġenter",
        -1.0
      ],
      [
        "ĠBritish",
        -1.0
      ],
      [
        "Ġworld",
        -1.0
      ],
      [
        "ĠSpanish",
        -1.0
      ],
      [
        "Ġgenerally",
        -1.0
      ],
      [
        "ĠJune",
        -1.0
      ],
      [
        "Ġconstruct",
        -1.0
      ],
      [
        "Ġcould",
        -1.0
      ],
      [
        "Ġstate",
        -1.0
      ],
      [
        "Ġappointed",
        -1.0
      ],
      [
        "Ġmaintenance",
        -1.0
      ],
      [
        "Ġthing",
        -1.0
      ],
      [
        "Ġtext",
        -1.0
      ],
      [
        "ĠEurope",
        -1.0
      ],
      [
        "Ġ8",
        -1.0
      ],
      [
        "ĠThus",
        -1.0
      ],
      [
        "'re",
        -1.0
      ],
      [
        "Ġdeveloped",
        -1.0
      ],
      [
        "ĠMissouri",
        -1.0
      ],
      [
        "ĠIslam",
        -1.0
      ],
      [
        "Ġcomputer",
        -1.0
      ],
      [
        "ĠCO",
        -1.0
      ],
      [
        "Ġprobably",
        -1.0
      ],
      [
        "Ġanswer",
        -1.0
      ],
      [
        "f",
        -1.0
      ],
      [
        "Ġdiabetes",
        -1.0
      ],
      [
        "/",
        -1.0
      ],
      [
        "it",
        -1.0
      ],
      [
        "Ġpiece",
        -1.0
      ],
      [
        "This",
        -1.0
      ],
      [
        "Ġsection",
        -1.0
      ],
      [
        "ĠHis",
        -1.0
      ],
      [
        "Ġtold",
        -1.0
      ],
      [
        "Ġcapital",
        -1.0
      ],
      [
        "Ġdoubt",
        -1.0
      ],
      [
        "Ġdescribed",
        -1.0
      ],
      [
        "Ġfact",
        -1.0
      ],
      [
        "Ġsufficient",
        -1.0
      ],
      [
        "Ġcarbon",
        -1.0
      ],
      [
        "Ġwhose",
        -1.0
      ],
      [
        "Ġreach",
        -1.0
      ],
      [
        "Ġface",
        -1.0
      ],
      [
        "Ä",
        -1.0
      ],
      [
        "ĠArmy",
        -1.0
      ],
      [
        "Ġbefore",
        -1.0
      ],
      [
        "ably",
        -1.0
      ],
      [
        "Ġinternational",
        -1.0
      ],
      [
        "ĠNASA",
        -1.0
      ],
      [
        "But",
        -1.0
      ],
      [
        "Ġmuscle",
        -1.0
      ],
      [
        "Ġsupply",
        -1.0
      ],
      [
        "Ġside",
        -1.0
      ],
      [
        "Ġsummer",
        -1.0
      ],
      [
        "ĠUse",
        -1.0
      ],
      [
        "ĠRobert",
        -1.0
      ],
      [
        "Ġlight",
        -1.0
      ],
      [
        "W",
        -1.0
      ],
      [
        "Ġtypes",
        -1.0
      ],
      [
        "Ġdetermine",
        -1.0
      ],
      [
        "Ġcontinued",
        -1.0
      ],
      [
        "Ġfundamental",
        -1.0
      ],
      [
        "ĠRoosevelt",
        -1.0
      ],
      [
        "Ġtheir",
        -1.0
      ],
      [
        "Ġroom",
        -1.0
      ],
      [
        "ĠFrench",
        -1.0
      ],
      [
        "Ġhim",
        -1.0
      ],
      [
        "Ġlocated",
        -1.0
      ],
      [
        "Ġheart",
        -1.0
      ],
      [
        "Ġknowledge",
        -1.0
      ],
      [
        "Ġindividual",
        -1.0
      ],
      [
        "Ġsevere",
        -1.0
      ],
      [
        "gov",
        -1.0
      ],
      [
        "Ġcharacteristics",
        -1.0
      ],
      [
        "w",
        -1.0
      ],
      [
        "Ġair",
        -1.0
      ],
      [
        "Ġcoming",
        -1.0
      ],
      [
        "Ġcurrently",
        -1.0
      ],
      [
        "Ġdown",
        -1.0
      ],
      [
        "Ġroad",
        -1.0
      ],
      [
        "Ġeast",
        -1.0
      ],
      [
        "RI",
        -1.0
      ],
      [
        "18",
        -1.0
      ],
      [
        "Ġinterest",
        -1.0
      ],
      [
        "Ġdeep",
        -1.0
      ],
      [
        "Ġproperties",
        -1.0
      ],
      [
        "Ġfile",
        -1.0
      ],
      [
        "ĠIsrael",
        -1.0
      ],
      [
        "o",
        -1.0
      ],
      [
        "Ġsyndrome",
        -1.0
      ],
      [
        "Ġscreen",
        -1.0
      ],
      [
        "Ġtools",
        -1.0
      ],
      [
        "Ġofficial",
        -1.0
      ],
      [
        "Ġsecret",
        -1.0
      ],
      [
        "Ġcommon",
        -1.0
      ],
      [
        "Ġ2",
        -1.0
      ],
      [
        "back",
        -1.0
      ],
      [
        "Ġnewspaper",
        -1.0
      ],
      [
        "ers",
        -1.0
      ],
      [
        "Ġgarden",
        -1.0
      ],
      [
        ").",
        -1.0
      ],
      [
        ");",
        -1.0
      ],
      [
        "ĠNow",
        -1.0
      ],
      [
        "Ġlevel",
        -1.0
      ],
      [
        "Ġsatellite",
        -1.0
      ],
      [
        "Ġeven",
        -1.0
      ],
      [
        "Ġorigin",
        -1.0
      ],
      [
        "ĠPeople",
        -1.0
      ],
      [
        "ĠTHE",
        -1.0
      ],
      [
        "Ŀ",
        -1.0
      ],
      [
        "Ġtypical",
        -1.0
      ],
      [
        "ĠD",
        -1.0
      ],
      [
        "Ġnoted",
        -1.0
      ],
      [
        "ĠDictionary",
        -1.0
      ],
      [
        "Ġplaced",
        -1.0
      ],
      [
        "Ġfriend",
        -1.0
      ],
      [
        "~",
        -1.0
      ],
      [
        "Ġlived",
        -1.0
      ],
      [
        "Ġseem",
        -1.0
      ],
      [
        "Ġcentral",
        -1.0
      ],
      [
        "Ġefficient",
        -1.0
      ],
      [
        "ĠGeneral",
        -1.0
      ],
      [
        "Ġfigure",
        -1.0
      ],
      [
        "Ġback",
        -1.0
      ],
      [
        ";",
        -1.0
      ],
      [
        "ĠB",
        -1.0
      ],
      [
        "Ġinformation",
        -1.0
      ],
      [
        "Ġtradition",
        -1.0
      ],
      [
        "Ġalready",
        -1.0
      ],
      [
        "Ġpaper",
        -1.0
      ],
      [
        "Ġthat",
        -1.0
      ],
      [
        "Ġtoxic",
        -1.0
      ],
      [
        "Ġclinical",
        -1.0
      ],
      [
        "ł",
        -1.0
      ],
      [
        "Ġend",
        -1.0
      ],
      [
        "Ġmoment",
        -1.0
      ],
      [
        "Ġgot",
        -1.0
      ],
      [
        "Ġrequired",
        -1.0
      ],
      [
        "AS",
        -1.0
      ],
      [
        "Ġlet",
        -1.0
      ],
      [
        "Ġvarious",
        -1.0
      ],
      [
        "ĠDarwin",
        -1.0
      ],
      [
        "Ġbirth",
        -1.0
      ],
      [
        "Ġuser",
        -1.0
      ],
      [
        "Ġelectricity",
        -1.0
      ],
      [
        "¨",
        -1.0
      ],
      [
        "º",
        -1.0
      ],
      [
        "ĠMc",
        -1.0
      ],
      [
        "ĠEngland",
        -1.0
      ],
      [
        "Ġcreate",
        -1.0
      ],
      [
        "Ġdrugs",
        -1.0
      ],
      [
        "Q",
        -1.0
      ],
      [
        "Ġ30",
        -1.0
      ],
      [
        "Ġway",
        -1.0
      ],
      [
        "Ġpay",
        -1.0
      ],
      [
        "ĠWashington",
        -1.0
      ],
      [
        "Ġstrategy",
        -1.0
      ],
      [
        "Ġstay",
        -1.0
      ],
      [
        "Ġnetwork",
        -1.0
      ],
      [
        "Ġspecial",
        -1.0
      ],
      [
        "Ġimages",
        -1.0
      ],
      [
        "Ġdigital",
        -1.0
      ],
      [
        "Ã",
        -1.0
      ],
      [
        "Ġresearch",
        -1.0
      ],
      [
        "Õ",
        -1.0
      ],
      [
        "Ġchoice",
        -1.0
      ],
      [
        "like",
        -1.0
      ],
      [
        "Ġwas",
        -1.0
      ],
      [
        "Ġweek",
        -1.0
      ],
      [
        "Ġmove",
        -1.0
      ],
      [
        "Ġcontact",
        -1.0
      ],
      [
        "Ġmid",
        -1.0
      ],
      [
        "Ġplaces",
        -1.0
      ],
      [
        "ĠT",
        -1.0
      ],
      [
        "ĠFoundation",
        -1.0
      ],
      [
        "Ġyear",
        -1.0
      ],
      [
        "ĠCommission",
        -1.0
      ],
      [
        "Ġjust",
        -1.0
      ],
      [
        "Ġblue",
        -1.0
      ],
      [
        "Ġanalysis",
        -1.0
      ],
      [
        "Ġlead",
        -1.0
      ],
      [
        "ĠJewish",
        -1.0
      ],
      [
        "Ġwill",
        -1.0
      ],
      [
        "Ġeducation",
        -1.0
      ],
      [
        "ĠMany",
        -1.0
      ],
      [
        "[",
        -1.0
      ],
      [
        "ĠUS",
        -1.0
      ],
      [
        "Ġ26",
        -1.0
      ],
      [
        "ĠCarolina",
        -1.0
      ],
      [
        "Ġsecurity",
        -1.0
      ],
      [
        "ĠMary",
        -1.0
      ],
      [
        "ĠPublic",
        -1.0
      ],
      [
        "ism",
        -1.0
      ],
      [
        "ĠRussia",
        -1.0
      ],
      [
        "ĠAsia",
        -1.0
      ],
      [
        "Ġmaterials",
        -1.0
      ],
      [
        "Ġeye",
        -1.0
      ],
      [
        "Ń",
        -1.0
      ],
      [
        "Ġfriends",
        -1.0
      ],
      [
        "Ġshould",
        -1.0
      ],
      [
        "Ġinteresting",
        -1.0
      ],
      [
        "Ġclose",
        -1.0
      ],
      [
        "Ġ2011",
        -1.0
      ],
      [
        "©",
        -1.0
      ],
      [
        "Ġrequire",
        -1.0
      ],
      [
        "Ġall",
        -1.0
      ],
      [
        "Ġacademic",
        -1.0
      ],
      [
        "Ġachieve",
        -1.0
      ],
      [
        "ĠRepublic",
        -1.0
      ],
      [
        "Ġinvolve",
        -1.0
      ],
      [
        "t",
        -1.0
      ],
      [
        "ĠP",
        -1.0
      ],
      [
        "Ġking",
        -1.0
      ],
      [
        "Ġstructures",
        -1.0
      ],
      [
        "ward",
        -1.0
      ],
      [
        "ĠGreen",
        -1.0
      ],
      [
        "ing",
        -1.0
      ],
      [
        "ĠEast",
        -1.0
      ],
      [
        "Ġdoctor",
        -1.0
      ],
      [
        "ĠII",
        -1.0
      ],
      [
        "Ġaway",
        -1.0
      ],
      [
        "Ġnation",
        -1.0
      ],
      [
        "Í",
        -1.0
      ],
      [
        "Ġconsidered",
        -1.0
      ],
      [
        "Ġbad",
        -1.0
      ],
      [
        "ĠDNA",
        -1.0
      ],
      [
        "ĠHistory",
        -1.0
      ],
      [
        "Ñ",
        -1.0
      ],
      [
        "Ġrecord",
        -1.0
      ],
      [
        "Ġwithin",
        -1.0
      ],
      [
        "Ġterm",
        -1.0
      ],
      [
        "Ġbattle",
        -1.0
      ],
      [
        "The",
        -1.0
      ],
      [
        "Ġuntil",
        -1.0
      ],
      [
        "Ġago",
        -1.0
      ],
      [
        "Ġfour",
        -1.0
      ],
      [
        "ĠApril",
        -1.0
      ],
      [
        "PA",
        -1.0
      ],
      [
        "Ġsuch",
        -1.0
      ],
      [
        "Ġchild",
        -1.0
      ],
      [
        "Ġhigh",
        -1.0
      ],
      [
        "ings",
        -1.0
      ],
      [
        "âĢ¢",
        -1.0
      ],
      [
        "Ġlot",
        -1.0
      ],
      [
        "Ġcaused",
        -1.0
      ],
      [
        "Ġatmosphere",
        -1.0
      ],
      [
        "Ġshape",
        -1.0
      ],
      [
        "Ġgrowing",
        -1.0
      ],
      [
        "Ġremember",
        -1.0
      ],
      [
        "one",
        -1.0
      ],
      [
        "ĠCalifornia",
        -1.0
      ],
      [
        "Ġk",
        -1.0
      ],
      [
        "Ġconducted",
        -1.0
      ],
      [
        "Ġfront",
        -1.0
      ],
      [
        "ized",
        -1.0
      ],
      [
        "Ġpopular",
        -1.0
      ],
      [
        "ĠTo",
        -1.0
      ],
      [
        "Ġhead",
        -1.0
      ],
      [
        "Ġphoto",
        -1.0
      ],
      [
        "Ġcost",
        -1.0
      ],
      [
        "Ġmental",
        -1.0
      ],
      [
        "Ġcontains",
        -1.0
      ],
      [
        "ĠTheir",
        -1.0
      ],
      [
        "Ġas",
        -1.0
      ],
      [
        "Ġinstead",
        -1.0
      ],
      [
        "Ġice",
        -1.0
      ],
      [
        "ĠâĢĺ",
        -1.0
      ],
      [
        "over",
        -1.0
      ],
      [
        "Ġdisease",
        -1.0
      ],
      [
        "ĠSeptember",
        -1.0
      ],
      [
        "Ġsimply",
        -1.0
      ],
      [
        "Ġdeal",
        -1.0
      ],
      [
        "ĳ",
        -1.0
      ],
      [
        "Ġmean",
        -1.0
      ],
      [
        "ment",
        -1.0
      ],
      [
        "Ġhttp",
        -1.0
      ],
      [
        "ĠG",
        -1.0
      ],
      [
        "Ġaddition",
        -1.0
      ],
      [
        "ĠVirginia",
        -1.0
      ],
      [
        "?",
        -1.0
      ],
      [
        "Ġ19",
        -1.0
      ],
      [
        "Ġpressure",
        -1.0
      ],
      [
        "is",
        -1.0
      ],
      [
        "Ġsource",
        -1.0
      ],
      [
        "Ġsubstantial",
        -1.0
      ],
      [
        "Ġindividuals",
        -1.0
      ],
      [
        "Ġrole",
        -1.0
      ],
      [
        "Ġorganization",
        -1.0
      ],
      [
        "It",
        -1.0
      ],
      [
        "Ġperform",
        -1.0
      ],
      [
        "ĠCongress",
        -1.0
      ],
      [
        "Ġspace",
        -1.0
      ],
      [
        "ST",
        -1.0
      ],
      [
        "Ġ15",
        -1.0
      ],
      [
        "Ġme",
        -1.0
      ],
      [
        "AIDS",
        -1.0
      ],
      [
        "Ġobject",
        -1.0
      ],
      [
        "Ġobvious",
        -1.0
      ],
      [
        "ĠEgypt",
        -1.0
      ],
      [
        "Ġsaw",
        -1.0
      ],
      [
        "Ġhusband",
        -1.0
      ],
      [
        "Ġeffects",
        -1.0
      ],
      [
        "Ġschedule",
        -1.0
      ],
      [
        "Ġincludes",
        -1.0
      ],
      [
        "Ġstandard",
        -1.0
      ],
      [
        "ĠThese",
        -1.0
      ],
      [
        "Ġput",
        -1.0
      ],
      [
        "Ġmanufactur",
        -1.0
      ],
      [
        "ĠHenry",
        -1.0
      ],
      [
        "Ġhad",
        -1.0
      ],
      [
        "Ġbuilding",
        -1.0
      ],
      [
        "Ġn",
        -1.0
      ],
      [
        "Ġfunctions",
        -1.0
      ],
      [
        "Ġby",
        -1.0
      ],
      [
        "Ġproduction",
        -1.0
      ],
      [
        "Ġyet",
        -1.0
      ],
      [
        "Ġbecomes",
        -1.0
      ],
      [
        "They",
        -1.0
      ],
      [
        "ĩ",
        -1.0
      ],
      [
        "See",
        -1.0
      ],
      [
        "Ġper",
        -1.0
      ],
      [
        "ĵ",
        -1.0
      ],
      [
        "Ġprovided",
        -1.0
      ],
      [
        "Ġexcellent",
        -1.0
      ],
      [
        "Ġ",
        -1.0
      ],
      [
        "Ġguarantee",
        -1.0
      ],
      [
        "Ġx",
        -1.0
      ],
      [
        "23",
        -1.0
      ],
      [
        "Ġfollowing",
        -1.0
      ],
      [
        "For",
        -1.0
      ],
      [
        "Ġjob",
        -1.0
      ],
      [
        "Ġteaching",
        -1.0
      ],
      [
        "Ġlater",
        -1.0
      ],
      [
        "Ġassociated",
        -1.0
      ],
      [
        "Ġidentified",
        -1.0
      ],
      [
        "Ġage",
        -1.0
      ],
      [
        "ĠE",
        -1.0
      ],
      [
        "å",
        -1.0
      ],
      [
        "^",
        -1.0
      ],
      [
        "Ġfor",
        -1.0
      ],
      [
        "Ġdetails",
        -1.0
      ],
      [
        "Ê",
        -1.0
      ],
      [
        "âĢľ",
        -1.0
      ],
      [
        "Ġwon",
        -1.0
      ],
      [
        "RE",
        -1.0
      ],
      [
        "Ġtax",
        -1.0
      ],
      [
        "Ġtell",
        -1.0
      ],
      [
        "[CLS]",
        -1.0
      ],
      [
        ".\"",
        -1.0
      ],
      [
        "Ġpoor",
        -1.0
      ],
      [
        "Ġsugar",
        -1.0
      ],
      [
        "Ġsmaller",
        -1.0
      ],
      [
        "¦",
        -1.0
      ],
      [
        "Ġingredient",
        -1.0
      ],
      [
        "Ġteam",
        -1.0
      ],
      [
        "Ġoccasion",
        -1.0
      ],
      [
        "Ġcorrect",
        -1.0
      ],
      [
        "Ġplanet",
        -1.0
      ],
      [
        "Ġcoast",
        -1.0
      ],
      [
        "¿",
        -1.0
      ],
      [
        "Ġgirls",
        -1.0
      ],
      [
        "ĠIndian",
        -1.0
      ],
      [
        "Ġimage",
        -1.0
      ],
      [
        "Ġline",
        -1.0
      ],
      [
        "Ġlike",
        -1.0
      ],
      [
        "Ġgenes",
        -1.0
      ],
      [
        "Ġthrough",
        -1.0
      ],
      [
        "ĠâĢľ",
        -1.0
      ],
      [
        "Ġlives",
        -1.0
      ],
      [
        "Ġnegative",
        -1.0
      ],
      [
        "Ī",
        -1.0
      ],
      [
        "Ġother",
        -1.0
      ],
      [
        "Ġhours",
        -1.0
      ],
      [
        "Ġsystems",
        -1.0
      ],
      [
        "Ġhere",
        -1.0
      ],
      [
        "¬",
        -1.0
      ],
      [
        "Ġfuel",
        -1.0
      ],
      [
        "Ġword",
        -1.0
      ],
      [
        "è",
        -1.0
      ],
      [
        "Ġlink",
        -1.0
      ],
      [
        "ĠMedicine",
        -1.0
      ],
      [
        "Ġsituation",
        -1.0
      ],
      [
        "ĠCharles",
        -1.0
      ],
      [
        "Ġones",
        -1.0
      ],
      [
        "Ġtimes",
        -1.0
      ],
      [
        "ĠPaul",
        -1.0
      ],
      [
        "Ġcontent",
        -1.0
      ],
      [
        "Ġwrong",
        -1.0
      ],
      [
        "ĠSince",
        -1.0
      ],
      [
        "Ġblood",
        -1.0
      ],
      [
        "ħ",
        -1.0
      ],
      [
        "ĠWork",
        -1.0
      ],
      [
        "Ġsouth",
        -1.0
      ],
      [
        "Ġbody",
        -1.0
      ],
      [
        "Ġdone",
        -1.0
      ],
      [
        "Ġ...",
        -1.0
      ],
      [
        "Ġproduced",
        -1.0
      ],
      [
        "Ġbook",
        -1.0
      ],
      [
        "Ð",
        -1.0
      ],
      [
        "[EOS]",
        -1.0
      ],
      [
        "Ġaround",
        -1.0
      ],
      [
        "RO",
        -1.0
      ],
      [
        "Ġcivil",
        -1.0
      ],
      [
        "ĠJournal",
        -1.0
      ],
      [
        "ĠMuseum",
        -1.0
      ],
      [
        "Ġpersonal",
        -1.0
      ],
      [
        "Ġproper",
        -1.0
      ],
      [
        "Ġ(",
        -1.0
      ],
      [
        "Ġonce",
        -1.0
      ],
      [
        "lines",
        -1.0
      ],
      [
        "Ġplay",
        -1.0
      ],
      [
        "Ġbeen",
        -1.0
      ],
      [
        "Ġalso",
        -1.0
      ],
      [
        "Ġcells",
        -1.0
      ],
      [
        "Ġattempt",
        -1.0
      ],
      [
        "Ġmonth",
        -1.0
      ],
      [
        "Ġforces",
        -1.0
      ],
      [
        "Ġ197",
        -1.0
      ],
      [
        "Ġcreation",
        -1.0
      ],
      [
        "Ġresource",
        -1.0
      ],
      [
        "west",
        -1.0
      ],
      [
        "Ġ28",
        -1.0
      ],
      [
        "Ġmethods",
        -1.0
      ],
      [
        "ary",
        -1.0
      ],
      [
        "Ġwe",
        -1.0
      ],
      [
        "Ġsite",
        -1.0
      ],
      [
        "Ġ2007",
        -1.0
      ],
      [
        "Ġbasis",
        -1.0
      ],
      [
        "And",
        -1.0
      ],
      [
        "Ġincreasing",
        -1.0
      ],
      [
        "Ġfaith",
        -1.0
      ],
      [
        "Ġcritical",
        -1.0
      ],
      [
        "Ġefforts",
        -1.0
      ],
      [
        "Ġsupplement",
        -1.0
      ],
      [
        "ĠRoman",
        -1.0
      ],
      [
        "38",
        -1.0
      ],
      [
        "Ġvideo",
        -1.0
      ],
      [
        "Ġunderstood",
        -1.0
      ],
      [
        "ĠWater",
        -1.0
      ],
      [
        "Ġshowed",
        -1.0
      ],
      [
        "Ġhospital",
        -1.0
      ],
      [
        "ĠProgram",
        -1.0
      ],
      [
        "Ġearly",
        -1.0
      ],
      [
        "ĠMiddle",
        -1.0
      ],
      [
        "Ġimmediately",
        -1.0
      ],
      [
        "ĠPhiladelphia",
        -1.0
      ],
      [
        "Ġproportion",
        -1.0
      ],
      [
        "£",
        -1.0
      ],
      [
        "Ġplanning",
        -1.0
      ],
      [
        "Ġinfrastructure",
        -1.0
      ],
      [
        "Ġdevelop",
        -1.0
      ],
      [
        "Ġmost",
        -1.0
      ],
      [
        "Ġliquid",
        -1.0
      ],
      [
        "Ġ11",
        -1.0
      ],
      [
        "ities",
        -1.0
      ],
      [
        "Ġclean",
        -1.0
      ],
      [
        "Ġpage",
        -1.0
      ],
      [
        "Ġseven",
        -1.0
      ],
      [
        "Ġservices",
        -1.0
      ],
      [
        "Ġmuseum",
        -1.0
      ],
      [
        "Ġground",
        -1.0
      ],
      [
        "ĠWilliam",
        -1.0
      ],
      [
        "Ġ2012",
        -1.0
      ],
      [
        "Ġsurvey",
        -1.0
      ],
      [
        "ï",
        -1.0
      ],
      [
        "Ġpatterns",
        -1.0
      ],
      [
        "Ġfind",
        -1.0
      ],
      [
        "Ġoverall",
        -1.0
      ],
      [
        "Ġhope",
        -1.0
      ],
      [
        "»",
        -1.0
      ],
      [
        "Ġparents",
        -1.0
      ],
      [
        "Ġde",
        -1.0
      ],
      [
        "Ġprogram",
        -1.0
      ],
      [
        "Ġvisual",
        -1.0
      ],
      [
        "Ġskin",
        -1.0
      ],
      [
        "Ġeyes",
        -1.0
      ],
      [
        "Ġstill",
        -1.0
      ],
      [
        "Ġlength",
        -1.0
      ],
      [
        "Ġspring",
        -1.0
      ],
      [
        "Ġprocess",
        -1.0
      ],
      [
        "Ġchoose",
        -1.0
      ],
      [
        "Ġstandards",
        -1.0
      ],
      [
        "60",
        -1.0
      ],
      [
        "#",
        -1.0
      ],
      [
        "Ġresistance",
        -1.0
      ],
      [
        "Ġnever",
        -1.0
      ],
      [
        "x",
        -1.0
      ],
      [
        "Ġland",
        -1.0
      ]
    ],
    "byte_fallback": false
  }
}