{
  "version": "1.0",
  "truncation": null,
  "padding": null,
  "added_tokens": [
    {
      "id": 0,
      "content": "<|bos|>",
      "single_word": false,
      "lstrip": false,
      "rstrip": false,
      "normalized": false,
      "special": true
    },
    {
      "id": 1,
      "content": "<|user_start|>",
      "single_word": false,
      "lstrip": false,
      "rstrip": false,
      "normalized": false,
      "special": true
    },
    {
      "id": 2,
      "content": "<|user_end|>",
      "single_word": false,
      "lstrip": false,
      "rstrip": false,
      "normalized": false,
      "special": true
    },
    {
      "id": 3,
      "content": "<|assistant_start|>",
      "single_word": false,
      "lstrip": false,
      "rstrip": false,
      "normalized": false,
      "special": true
    },
    {
      "id": 4,
      "content": "<|assistant_end|>",
      "single_word": false,
      "lstrip": false,
      "rstrip": false,
      "normalized": false,
      "special": true
    },
    {
      "id": 5,
      "content": "<|python_start|>",
      "single_word": false,
      "lstrip": false,
      "rstrip": false,
      "normalized": false,
      "special": true
    },
    {
      "id": 6,
      "content": "<|python_end|>",
      "single_word": false,
      "lstrip": false,
      "rstrip": false,
      "normalized": false,
      "special": true
    },
    {
      "id": 7,
      "content": "<|output_start|>",
      "single_word": false,
      "lstrip": false,
      "rstrip": false,
      "normalized": false,
      "special": true
    },
    {
      "id": 8,
      "content": "<|output_end|>",
      "single_word": false,
      "lstrip": false,
      "rstrip": false,
      "normalized": false,
      "special": true
    },
    {
      "id": 9,
      "content": "<|unk|>",
      "single_word": false,
      "lstrip": false,
      "rstrip": false,
      "normalized": false,
      "special": true
    }
  ],
  "normalizer": null,
  "pre_tokenizer": {
    "type": "Sequence",
    "pretokenizers": [
      {
        "type": "Split",
        "pattern": {
          "Regex": "'(?i:[sdmt]|ll|ve|re)|[^\\r\\n\\p{L}\\p{N}]?+\\p{L}+|\\p{N}{1,2}| ?[^\\s\\p{L}\\p{N}]++[\\r\\n]*|\\s*[\\r\\n]|\\s+(?!\\S)|\\s+"
        },
        "behavior": "Isolated",
        "invert": false
      },
      {
        "type": "ByteLevel",
        "add_prefix_space": false,
        "trim_offsets": true,
        "use_regex": false
      }
    ]
  },
  "post_processor": {
    "type": "TemplateProcessing",
    "single": [
      {
        "Sequence": {
          "id": "A",
          "type_id": 0
        }
      }
    ],
    "pair": [
      {
        "Sequence": {
          "id": "A",
          "type_id": 0
        }
      },
      {
        "Sequence": {
          "id": "B",
          "type_id": 1
        }
      }
    ],
    "special_tokens": {}
  },
  "decoder": null,
  "model": {
    "type": "Unigram",
    "unk_id": 9,
    "vocab": [
      [
        "<|bos|>",
        0.0
      ],
      [
        "<|user_start|>",
        0.0
      ],
      [
        "<|user_end|>",
        0.0
      ],
      [
        "<|assistant_start|>",
        0.0
      ],
      [
        "<|assistant_end|>",
        0.0
      ],
      [
        "<|python_start|>",
        0.0
      ],
      [
        "<|python_end|>",
        0.0
      ],
      [
        "<|output_start|>",
        0.0
      ],
      [
        "<|output_end|>",
        0.0
      ],
      [
        "<|unk|>",
        0.0
      ],
      [
        "s",
        -2.9217722916384403
      ],
      [
        "Ġthe",
        -3.4981244099480975
      ],
      [
        ",",
        -3.5521068187917173
      ],
      [
        "Ġ",
        -3.556706089186586
      ],
      [
        ".",
        -3.839872415120011
      ],
      [
        "Ġand",
        -4.034262379544774
      ],
      [
        "Ġto",
        -4.076598582417498
      ],
      [
        "Ġof",
        -4.092198998849861
      ],
      [
        "Ġa",
        -4.179715257344046
      ],
      [
        "ing",
        -4.257758536697477
      ],
      [
        "Ġin",
        -4.549891737679765
      ],
      [
        "e",
        -4.584103047215287
      ],
      [
        "ed",
        -4.665858479523315
      ],
      [
        "Ġis",
        -4.723669659729287
      ],
      [
        "t",
        -4.772875377921457
      ],
      [
        "y",
        -4.812733262250747
      ],
      [
        "d",
        -4.8340156251574715
      ],
      [
        "'",
        -5.028203230803133
      ],
      [
        "ly",
        -5.117240671336992
      ],
      [
        "Ġthat",
        -5.1235590921633705
      ],
      [
        "Ġfor",
        -5.144253641669449
      ],
      [
        "0",
        -5.193604691832849
      ],
      [
        "1",
        -5.284645841215266
      ],
      [
        "-",
        -5.297389155839454
      ],
      [
        "Ċ",
        -5.340688129224082
      ],
      [
        ":",
        -5.348314951327676
      ],
      [
        "Ġare",
        -5.364910022347406
      ],
      [
        ".Ċ",
        -5.391107057030682
      ],
      [
        "Ġon",
        -5.398042567488112
      ],
      [
        "Ġit",
        -5.400559052519842
      ],
      [
        ".ĊĊ",
        -5.413272780200865
      ],
      [
        "Ġyou",
        -5.426861562460497
      ],
      [
        "a",
        -5.433478538213418
      ],
      [
        "2",
        -5.458832945012892
      ],
      [
        "Ġwith",
        -5.458851610454365
      ],
      [
        "Ġbe",
        -5.491210358959858
      ],
      [
        "Ġcan",
        -5.620852911619506
      ],
      [
        "Ġor",
        -5.629793455208585
      ],
      [
        "ĊĊ",
        -5.739242707350909
      ],
      [
        "o",
        -5.783809554577745
      ],
      [
        "er",
        -5.804124947084837
      ],
      [
        "n",
        -5.829151581501428
      ],
      [
        "Ġyour",
        -5.832453054802329
      ],
      [
        "Ġ(",
        -5.834207694289484
      ],
      [
        "r",
        -5.840680424368228
      ],
      [
        "Ġas",
        -5.8450202002420255
      ],
      [
        "i",
        -5.898792956118495
      ],
      [
        "ĠI",
        -5.904986237975484
      ],
      [
        "\"",
        -5.939506018413178
      ],
      [
        "Ġhave",
        -5.96713539183996
      ],
      [
        "ĠThe",
        -5.992193450167841
      ],
      [
        "Ġfrom",
        -6.011210354522417
      ],
      [
        ")",
        -6.011329496501373
      ],
      [
        "Ġan",
        -6.082177179417075
      ],
      [
        "Ġby",
        -6.096172003979646
      ],
      [
        "3",
        -6.140986010599155
      ],
      [
        "Ġthis",
        -6.143590891234599
      ],
      [
        "al",
        -6.159661271710062
      ],
      [
        "Ġnot",
        -6.180952546560116
      ],
      [
        "?",
        -6.183395227230285
      ],
      [
        "5",
        -6.1995150978535705
      ],
      [
        "m",
        -6.221290176175344
      ],
      [
        "Ġat",
        -6.287132787245037
      ],
      [
        "Ġwill",
        -6.293300909269959
      ],
      [
        "4",
        -6.319465939333707
      ],
      [
        "c",
        -6.330403698528659
      ],
      [
        "Ġtheir",
        -6.335273310570923
      ],
      [
        "on",
        -6.391714245067735
      ],
      [
        "in",
        -6.423401725353424
      ],
      [
        "Ġmore",
        -6.436923049010852
      ],
      [
        "l",
        -6.454845624048206
      ],
      [
        "9",
        -6.456763015272779
      ],
      [
        "Ġwas",
        -6.464945575672246
      ],
      [
        "Ġthey",
        -6.472940972015305
      ],
      [
        "re",
        -6.494043214501364
      ],
      [
        "ĠA",
        -6.511907113449
      ],
      [
        "or",
        -6.513021988471792
      ],
      [
        "g",
        -6.519607856813938
      ],
      [
        "The",
        -6.528122885376659
      ],
      [
        "Ġwe",
        -6.561600323512247
      ],
      [
        "Ġbut",
        -6.579905221426879
      ],
      [
        "6",
        -6.584099437374682
      ],
      [
        "Ġhas",
        -6.587443329827549
      ],
      [
        "A",
        -6.596021111437517
      ],
      [
        "f",
        -6.596670305814223
      ],
      [
        "ies",
        -6.6072667184662315
      ],
      [
        "Ġwhich",
        -6.613848090820101
      ],
      [
        "8",
        -6.6391331757477445
      ],
      [
        "Ġother",
        -6.670819618916921
      ],
      [
        "Ġone",
        -6.686435607363757
      ],
      [
        "p",
        -6.695369893564321
      ],
      [
        "Question",
        -6.70619071032443
      ],
      [
        "Ġalso",
        -6.709737905572192
      ],
      [
        "7",
        -6.7344025280367035
      ],
      [
        "ĠAnswer",
        -6.734914135910392
      ],
      [
        "Ġall",
        -6.756050113378018
      ],
      [
        "b",
        -6.769968949714004
      ],
      [
        "Ġdo",
        -6.779740538493481
      ],
      [
        "Ġabout",
        -6.787862788767493
      ],
      [
        "Ġwhen",
        -6.823183987081293
      ],
      [
        "Ġso",
        -6.838591528189525
      ],
      [
        "Ġup",
        -6.842426731939545
      ],
      [
        "ĠIt",
        -6.853660270935393
      ],
      [
        "Ġtime",
        -6.858601940570143
      ],
      [
        "Ġuse",
        -6.875952280436083
      ],
      [
        "Ġif",
        -6.8829955837890875
      ],
      [
        "ĠS",
        -6.891403872214564
      ],
      [
        "Ġinto",
        -6.894458670133078
      ],
      [
        "Ġlike",
        -6.908534594516176
      ],
      [
        "Ġthem",
        -6.909603704772552
      ],
      [
        "ĠThis",
        -6.9448470545312535
      ],
      [
        "Ġhow",
        -6.945606282151614
      ],
      [
        "Ġout",
        -6.948786546387968
      ],
      [
        "Ġneed",
        -6.948969470999675
      ],
      [
        "Ġmay",
        -6.957982271394261
      ],
      [
        "Ġsome",
        -6.962661923991844
      ],
      [
        "S",
        -6.9686208225143
      ],
      [
        "h",
        -6.968787470725498
      ],
      [
        "ic",
        -6.988515779611594
      ],
      [
        "I",
        -6.995186130021512
      ],
      [
        "ĠIn",
        -6.995729651902147
      ],
      [
        "is",
        -6.995981633192269
      ],
      [
        "u",
        -7.0028032912107125
      ],
      [
        "ĠC",
        -7.014600702026193
      ],
      [
        "ĠWhat",
        -7.014987866469273
      ],
      [
        "Ġthan",
        -7.015367570485985
      ],
      [
        "ion",
        -7.030240244612298
      ],
      [
        "ation",
        -7.031487877863087
      ],
      [
        "Ġany",
        -7.0392776617338715
      ],
      [
        "k",
        -7.052345346812583
      ],
      [
        "Ġwater",
        -7.061811526061392
      ],
      [
        "able",
        -7.06411075108505
      ],
      [
        "le",
        -7.066453952349665
      ],
      [
        "Ġthese",
        -7.071990941445332
      ],
      [
        "Ġthere",
        -7.080673035195089
      ],
      [
        "/",
        -7.09496598292446
      ],
      [
        "ity",
        -7.0953646705172435
      ],
      [
        "Ġwhat",
        -7.095472467600818
      ],
      [
        "Ġused",
        -7.1234322025656525
      ],
      [
        "an",
        -7.135363542482608
      ],
      [
        "en",
        -7.136295802740786
      ],
      [
        "Ġmake",
        -7.136522030097382
      ],
      [
        "Ġour",
        -7.145936987419271
      ],
      [
        "C",
        -7.148271820238525
      ],
      [
        "ce",
        -7.176608899944727
      ],
      [
        "Ġwere",
        -7.192425241429339
      ],
      [
        "D",
        -7.206028596523129
      ],
      [
        "Ġhelp",
        -7.211504928753976
      ],
      [
        "Ġnew",
        -7.216394782656414
      ],
      [
        "Ġmost",
        -7.218214350945669
      ],
      [
        "ĠB",
        -7.219025489003325
      ],
      [
        "Ġover",
        -7.236034906696178
      ],
      [
        "Ġsuch",
        -7.236809086198267
      ],
      [
        "Ġget",
        -7.244270259092463
      ],
      [
        "Ġbeen",
        -7.259395994429326
      ],
      [
        "Ġshould",
        -7.268111468136699
      ],
      [
        "If",
        -7.280880623250146
      ],
      [
        "Ġwho",
        -7.281724294679673
      ],
      [
        "Ġwould",
        -7.283497361561775
      ],
      [
        "Ġpeople",
        -7.284415209560656
      ],
      [
        "B",
        -7.28642884613585
      ],
      [
        "it",
        -7.320562285822511
      ],
      [
        "th",
        -7.321936992949857
      ],
      [
        "Ġjust",
        -7.341401216336864
      ],
      [
        "v",
        -7.341469238195241
      ],
      [
        "Ġhigh",
        -7.344557789929265
      ],
      [
        "Ġwork",
        -7.368526345979092
      ],
      [
        "Ġmany",
        -7.369406724733
      ],
      [
        "Ġno",
        -7.371974768735248
      ],
      [
        "Ġre",
        -7.372239413681378
      ],
      [
        ";",
        -7.378765140300171
      ],
      [
        "Ġits",
        -7.379596916780704
      ],
      [
        "ers",
        -7.395240014381516
      ],
      [
        "ive",
        -7.397767820489918
      ],
      [
        "Ġhealth",
        -7.400022002856254
      ],
      [
        "Ġwell",
        -7.404900303895717
      ],
      [
        "Ġplant",
        -7.41607802010609
      ],
      [
        "Ġmy",
        -7.416914395801934
      ],
      [
        "Ġtwo",
        -7.418926459138794
      ],
      [
        "ever",
        -7.426219466930958
      ],
      [
        "Ġbetween",
        -7.442625999925573
      ],
      [
        "Ġlong",
        -7.443897808335782
      ],
      [
        "Ġdifferent",
        -7.449184335540243
      ],
      [
        "um",
        -7.453589904043197
      ],
      [
        "Ġway",
        -7.454015950503765
      ],
      [
        "T",
        -7.457944169667519
      ],
      [
        "ll",
        -7.458722978368877
      ],
      [
        "ĠE",
        -7.462002996189717
      ],
      [
        "!",
        -7.469915080367519
      ],
      [
        "ĠP",
        -7.47434467851166
      ],
      [
        "Ġfirst",
        -7.4808888971379695
      ],
      [
        "?Ċ",
        -7.485313899464085
      ],
      [
        "x",
        -7.516775571512214
      ],
      [
        "Ġhe",
        -7.518647962868119
      ],
      [
        "Ġthrough",
        -7.51979825252606
      ],
      [
        "Ġday",
        -7.525881127304258
      ],
      [
        "Ġusing",
        -7.530128734284618
      ],
      [
        "Ġwhere",
        -7.531744737139565
      ],
      [
        "us",
        -7.534435872809409
      ],
      [
        "Ġprovide",
        -7.547884178054277
      ],
      [
        "F",
        -7.550574999489092
      ],
      [
        "ment",
        -7.552426838558741
      ],
      [
        "ĠT",
        -7.557626747372051
      ],
      [
        "Ġun",
        -7.562336338144769
      ],
      [
        "Ġbecaus",
        -7.562710110534544
      ],
      [
        "Ġeven",
        -7.565353377976365
      ],
      [
        "at",
        -7.570381255101864
      ],
      [
        "In",
        -7.581092272805096
      ],
      [
        "ar",
        -7.58486715373108
      ],
      [
        "Ġlook",
        -7.585400226300747
      ],
      [
        "P",
        -7.592797365315715
      ],
      [
        "ve",
        -7.595051413011948
      ],
      [
        "Ġcould",
        -7.602577383441165
      ],
      [
        "ch",
        -7.613720329701907
      ],
      [
        "est",
        -7.621226920101687
      ],
      [
        "G",
        -7.625954200318196
      ],
      [
        "Ġhad",
        -7.627283182752345
      ],
      [
        "Ġknow",
        -7.627493209044296
      ],
      [
        "Ġsystem",
        -7.638685743184611
      ],
      [
        "Ġvery",
        -7.640876726866503
      ],
      [
        "ĠHow",
        -7.647143661499454
      ],
      [
        "Ġeach",
        -7.650462159911497
      ],
      [
        "ĠF",
        -7.655880716349332
      ],
      [
        "E",
        -7.665621562760691
      ],
      [
        "Ġevery",
        -7.670248255238974
      ],
      [
        "ĠThey",
        -7.673627458350284
      ],
      [
        "?ĊĊ",
        -7.683252610151145
      ],
      [
        "Ġdon",
        -7.684124004444032
      ],
      [
        "ance",
        -7.690095083054251
      ],
      [
        "Ġmuch",
        -7.698383743848433
      ],
      [
        "age",
        -7.699899803997835
      ],
      [
        "ĠâĢĵ",
        -7.702253525382849
      ],
      [
        "Ġfood",
        -7.708899702093401
      ],
      [
        "Ġthen",
        -7.712979718929331
      ],
      [
        "Ġgood",
        -7.718018953095672
      ],
      [
        "Ġdoes",
        -7.718541987878667
      ],
      [
        "ĠYou",
        -7.719712168435554
      ],
      [
        "Ġtake",
        -7.723548946123941
      ],
      [
        ").",
        -7.724800367707304
      ],
      [
        "Ġstart",
        -7.726264800115717
      ],
      [
        "Ġimportant",
        -7.733609312834026
      ],
      [
        "Ġhis",
        -7.743197614913543
      ],
      [
        "Ġsee",
        -7.7433637487114435
      ],
      [
        "ter",
        -7.745149068418773
      ],
      [
        "ĠD",
        -7.745282560499111
      ],
      [
        "Ġwhile",
        -7.747212806010204
      ],
      [
        "ate",
        -7.747656068625002
      ],
      [
        "Ġafter",
        -7.752997688567907
      ],
      [
        "w",
        -7.753651855818792
      ],
      [
        "L",
        -7.7555269528037085
      ],
      [
        "ĠG",
        -7.756594890510065
      ],
      [
        "Ġarea",
        -7.765743101883635
      ],
      [
        "Ġlarge",
        -7.771949379288279
      ],
      [
        "Ġbefore",
        -7.777065766759815
      ],
      [
        "ur",
        -7.783298243547873
      ],
      [
        "Ġlight",
        -7.785029605772153
      ],
      [
        "Ġyears",
        -7.788725389135435
      ],
      [
        "(",
        -7.793201552350383
      ],
      [
        "Ġlevel",
        -7.797596251149098
      ],
      [
        "Ġhuman",
        -7.798930966468707
      ],
      [
        "Ġdesign",
        -7.803141747200411
      ],
      [
        "ness",
        -7.805524198113927
      ],
      [
        "Ġpart",
        -7.805556992568832
      ],
      [
        "W",
        -7.807736651518237
      ],
      [
        "Ġthing",
        -7.8181553345623565
      ],
      [
        "Ġworld",
        -7.81862141219883
      ],
      [
        "ĠW",
        -7.823242272764798
      ],
      [
        "Ġp",
        -7.823887001965688
      ],
      [
        "ĠM",
        -7.826525717271998
      ],
      [
        "Ġlife",
        -7.829499638165054
      ],
      [
        "Ġback",
        -7.83327354866891
      ],
      [
        "Ġdown",
        -7.834071904556581
      ],
      [
        "un",
        -7.838465419929374
      ],
      [
        "Ġboth",
        -7.839621132841687
      ],
      [
        "Ġaround",
        -7.840291384571861
      ],
      [
        "Ġsame",
        -7.843608003136905
      ],
      [
        "Ġcome",
        -7.849177565109376
      ],
      [
        "Ġcause",
        -7.851764936819652
      ],
      [
        "Ġwant",
        -7.853534497987259
      ],
      [
        "Ġfollow",
        -7.857696428515981
      ],
      [
        "Ġdata",
        -7.865923948215025
      ],
      [
        "Ġallow",
        -7.865952145451645
      ],
      [
        "one",
        -7.866218017311394
      ],
      [
        "Ġgreat",
        -7.87246120134703
      ],
      [
        "Ġduring",
        -7.874034432520718
      ],
      [
        "Ġde",
        -7.878809420568238
      ],
      [
        "ĠTo",
        -7.88596568401134
      ],
      [
        "R",
        -7.8934952336636
      ],
      [
        "M",
        -7.896323480955901
      ],
      [
        "Ġthink",
        -7.898412741871257
      ],
      [
        "ĠN",
        -7.899855300708568
      ],
      [
        "Ġbeing",
        -7.899943269084157
      ],
      [
        "Ġright",
        -7.902037787310474
      ],
      [
        "Ġmaterial",
        -7.904329933676813
      ],
      [
        "ĠFor",
        -7.904762048182681
      ],
      [
        "ĠWe",
        -7.91099713210573
      ],
      [
        "il",
        -7.9133475266314655
      ],
      [
        "Ġkeep",
        -7.916898580732496
      ],
      [
        "Ġprocess",
        -7.917420384364337
      ],
      [
        "Ġfound",
        -7.918845763166107
      ],
      [
        "Ġbody",
        -7.925083253436481
      ],
      [
        "),",
        -7.927693892539477
      ],
      [
        "ĠH",
        -7.927792059984005
      ],
      [
        "Ġthose",
        -7.930984334676993
      ],
      [
        "Ġgo",
        -7.93483937540739
      ],
      [
        "O",
        -7.936921080519222
      ],
      [
        "and",
        -7.940870345011509
      ],
      [
        "ous",
        -7.9428174365008735
      ],
      [
        "Ġme",
        -7.947781663266506
      ],
      [
        "bility",
        -7.950135136887743
      ],
      [
        "Ġsmall",
        -7.950646158440878
      ],
      [
        "What",
        -7.9512679027942275
      ],
      [
        "Ġfind",
        -7.951639422919463
      ],
      [
        "Ġoften",
        -7.956725544717067
      ],
      [
        "Ġenergy",
        -7.959709368869002
      ],
      [
        "ul",
        -7.961156913828472
      ],
      [
        "Ġshow",
        -7.965121771640667
      ],
      [
        "Ġbest",
        -7.966086157154602
      ],
      [
        "ĠR",
        -7.966414119966201
      ],
      [
        "Ġcreate",
        -7.966828287121457
      ],
      [
        "%",
        -7.967729972972434
      ],
      [
        "Ġcar",
        -7.969375411291117
      ],
      [
        "Ġinclude",
        -7.975236649613121
      ],
      [
        "Ġmade",
        -7.977280242795794
      ],
      [
        "N",
        -7.977667701650244
      ],
      [
        "the",
        -7.988107910239872
      ],
      [
        "Ġmean",
        -7.993565885193235
      ],
      [
        "Ġyear",
        -7.993722845563102
      ],
      [
        "Ġhome",
        -8.001150767647545
      ],
      [
        "Ġcommon",
        -8.001453106685002
      ],
      [
        "Ġincrease",
        -8.002225765519519
      ],
      [
        "Ġher",
        -8.004931080997453
      ],
      [
        "Ġus",
        -8.00550461491669
      ],
      [
        ":Ċ",
        -8.010889426810722
      ],
      [
        "Ġgrow",
        -8.013811327522756
      ],
      [
        "H",
        -8.016477804491274
      ],
      [
        "Ġunder",
        -8.018207223453109
      ],
      [
        "Ġchange",
        -8.033570106489535
      ],
      [
        "Ġcondition",
        -8.035075234938809
      ],
      [
        "to",
        -8.035443620954908
      ],
      [
        "Ġlead",
        -8.041715285323729
      ],
      [
        "ally",
        -8.041964757548275
      ],
      [
        "Ġplace",
        -8.042294824688478
      ],
      [
        "ĠO",
        -8.04341615421067
      ],
      [
        "Ġrequire",
        -8.051663141568557
      ],
      [
        "Ġinformation",
        -8.053420230825934
      ],
      [
        "Ġexperience",
        -8.05793524838915
      ],
      [
        "Ġstudents",
        -8.059340779514887
      ],
      [
        "Ġresearch",
        -8.062508129906103
      ],
      [
        "âĢĻ",
        -8.06947811025234
      ],
      [
        "Ġnow",
        -8.071732555575153
      ],
      [
        "Ġtemperature",
        -8.073363633200639
      ],
      [
        "am",
        -8.075237403157704
      ],
      [
        "Ġair",
        -8.076785196878426
      ],
      [
        "z",
        -8.080438635755868
      ],
      [
        "Ġnumber",
        -8.080515595759557
      ],
      [
        "This",
        -8.083095372330433
      ],
      [
        "How",
        -8.084033490523113
      ],
      [
        "Ġsaid",
        -8.08845696957973
      ],
      [
        "Ġspecies",
        -8.092805527037498
      ],
      [
        "Ġbetter",
        -8.093847688876124
      ],
      [
        "li",
        -8.097273849416528
      ],
      [
        "Ġinclud",
        -8.097515335072783
      ],
      [
        "Ġdevelop",
        -8.100976401901018
      ],
      [
        "ry",
        -8.106250205310111
      ],
      [
        "Ġfew",
        -8.10950438573399
      ],
      [
        "based",
        -8.111043132352332
      ],
      [
        "V",
        -8.11106427703201
      ],
      [
        "Ġchildren",
        -8.114535231253887
      ],
      [
        "Ġdog",
        -8.118231722426351
      ],
      [
        "Ġoff",
        -8.119542304783891
      ],
      [
        "Ġform",
        -8.119609031934031
      ],
      [
        "Ġbecome",
        -8.120778866281672
      ],
      [
        "Ġexample",
        -8.120801402838556
      ],
      [
        "Ġconsider",
        -8.123862522621247
      ],
      [
        "ary",
        -8.12527615887831
      ],
      [
        "ĠRe",
        -8.127490482626612
      ],
      [
        "Ġstudy",
        -8.128878071578189
      ],
      [
        "ĠThese",
        -8.13055586073256
      ],
      [
        "Ġset",
        -8.130716406221728
      ],
      [
        "Ġstill",
        -8.134595358245729
      ],
      [
        "Ġend",
        -8.135830921054863
      ],
      [
        "Ġtest",
        -8.139633081639479
      ],
      [
        "Ġsupport",
        -8.139804415384749
      ],
      [
        "Ġpotential",
        -8.145063135066119
      ],
      [
        "Ġown",
        -8.145705301845789
      ],
      [
        "Ġmethod",
        -8.14844318445759
      ],
      [
        "Ġb",
        -8.149538836995436
      ],
      [
        "ent",
        -8.1508150313201
      ],
      [
        "im",
        -8.153336531980106
      ],
      [
        "Ġschool",
        -8.157965130923955
      ],
      [
        "Ġheat",
        -8.162712381288365
      ],
      [
        "Ġper",
        -8.174020491105164
      ],
      [
        "less",
        -8.177155393257966
      ],
      [
        "Ġpower",
        -8.190722534894839
      ],
      [
        "Ġmight",
        -8.191353181477313
      ],
      [
        "Ġissue",
        -8.191962580843386
      ],
      [
        "ĠSo",
        -8.19470305091514
      ],
      [
        "Ġcontrol",
        -8.20023767542316
      ],
      [
        "Ġresult",
        -8.201481570128603
      ],
      [
        "co",
        -8.202265547666165
      ],
      [
        "Ġw",
        -8.208364747549647
      ],
      [
        "Ġgive",
        -8.209202059771204
      ],
      [
        "Ġgroup",
        -8.213739845341415
      ],
      [
        "It",
        -8.215374027603428
      ],
      [
        "ĠL",
        -8.216936537657237
      ],
      [
        "Ġcase",
        -8.216936613416522
      ],
      [
        "ĠBut",
        -8.21702193982231
      ],
      [
        "Ġdisease",
        -8.218126496430823
      ],
      [
        "Ġplay",
        -8.222080328651296
      ],
      [
        "Ġpoint",
        -8.222109107570809
      ],
      [
        "Ġspecific",
        -8.223260257183505
      ],
      [
        "Ġal",
        -8.223757640441345
      ],
      [
        "Ġless",
        -8.22820249968871
      ],
      [
        "Ġknown",
        -8.231047973040528
      ],
      [
        "Ġmaking",
        -8.234308300275908
      ],
      [
        "Ġtype",
        -8.234553151538112
      ],
      [
        "ite",
        -8.236976162909254
      ],
      [
        "without",
        -8.237163683692536
      ],
      [
        "Ġthree",
        -8.237553778103406
      ],
      [
        "K",
        -8.242300717179608
      ],
      [
        "be",
        -8.243169315602955
      ],
      [
        "Ġcolor",
        -8.245773422792398
      ],
      [
        "ĠAnd",
        -8.246203893889406
      ],
      [
        "Ġshe",
        -8.251032865237729
      ],
      [
        "Ġco",
        -8.251150841566623
      ],
      [
        "Ġlot",
        -8.251413861672841
      ],
      [
        "Ġnatural",
        -8.252837926370812
      ],
      [
        "thing",
        -8.253007156635562
      ],
      [
        "Ġprevent",
        -8.259392538673033
      ],
      [
        "...",
        -8.266080738174878
      ],
      [
        "Ġindividual",
        -8.271325163580414
      ],
      [
        "Ġspace",
        -8.272644229829634
      ],
      [
        "Ġrisk",
        -8.279494659053345
      ],
      [
        "Ġtoo",
        -8.279848848392566
      ],
      [
        "Ġenvironment",
        -8.283502201576336
      ],
      [
        "Ġmust",
        -8.291705260184893
      ],
      [
        "Ġwithin",
        -8.295725321346819
      ],
      [
        "Ġacid",
        -8.29822139951364
      ],
      [
        "if",
        -8.300279978940097
      ],
      [
        "Ġquestion",
        -8.303108569843554
      ],
      [
        "Ġreally",
        -8.304081264607015
      ],
      [
        "Ġmain",
        -8.304697060395506
      ],
      [
        "Ġreduce",
        -8.307461424069574
      ],
      [
        "Ġblood",
        -8.30864798405075
      ],
      [
        ":ĊĊ",
        -8.30870685999096
      ],
      [
        "Ġbenefit",
        -8.309906796809184
      ],
      [
        "Ġcost",
        -8.312273969786192
      ],
      [
        "Ġadd",
        -8.31363398474627
      ],
      [
        "ĠK",
        -8.314587802305097
      ],
      [
        "Ġwhy",
        -8.314889354289797
      ],
      [
        "+",
        -8.315503825313531
      ],
      [
        "Ġdue",
        -8.319723161960063
      ],
      [
        "Ġturn",
        -8.32014344608108
      ],
      [
        "Ġlow",
        -8.323924561189141
      ],
      [
        "ĠWhen",
        -8.325512022195337
      ],
      [
        "Ġsoil",
        -8.328057483604582
      ],
      [
        "Ġlearn",
        -8.331204165738908
      ],
      [
        "Ġensure",
        -8.333282049093878
      ],
      [
        "Ġsure",
        -8.334128517015063
      ],
      [
        "ant",
        -8.338363654066091
      ],
      [
        "Ġproject",
        -8.340789797591858
      ],
      [
        "Ġanother",
        -8.34361537251723
      ],
      [
        "Ġcalled",
        -8.345483042438808
      ],
      [
        "ut",
        -8.352916552265896
      ],
      [
        "Ġcare",
        -8.35359046044194
      ],
      [
        "per",
        -8.354567850006491
      ],
      [
        "ĠHe",
        -8.35866508715366
      ],
      [
        "Ġtry",
        -8.358942994957903
      ],
      [
        "Ġpossible",
        -8.36277921042349
      ],
      [
        "Ġtree",
        -8.36998587819075
      ],
      [
        "Ġvalue",
        -8.371969830757404
      ],
      [
        "Ġrange",
        -8.372241334266093
      ],
      [
        "Ġhere",
        -8.377652719940993
      ],
      [
        "Ġsource",
        -8.389488279080291
      ],
      [
        "Ġsomething",
        -8.39035998191402
      ],
      [
        "Ġname",
        -8.391652905140777
      ],
      [
        "U",
        -8.392198141966785
      ],
      [
        "Ġproblem",
        -8.395572553173348
      ],
      [
        "Ġline",
        -8.39646303746171
      ],
      [
        "Ġamount",
        -8.39868946566628
      ],
      [
        "tic",
        -8.400387930576807
      ],
      [
        "ma",
        -8.400868877553059
      ],
      [
        "Ġteam",
        -8.401155273464216
      ],
      [
        "ĠV",
        -8.40334558277215
      ],
      [
        "Ġdid",
        -8.404837485476492
      ],
      [
        "Ġalways",
        -8.40577982376227
      ],
      [
        "Ġlive",
        -8.409001833122693
      ],
      [
        "ĠSt",
        -8.416702002491942
      ],
      [
        "Ġsize",
        -8.425142440506203
      ],
      [
        "Ġdevelopment",
        -8.42970310008685
      ],
      [
        "ĠThere",
        -8.43018139288576
      ],
      [
        "Ġvarious",
        -8.430368287835966
      ],
      [
        "Ġlast",
        -8.432336037285804
      ],
      [
        "Ġanimals",
        -8.442092271637769
      ],
      [
        "ian",
        -8.445301712623081
      ],
      [
        "Ġcontain",
        -8.450756330285497
      ],
      [
        "op",
        -8.456514795875337
      ],
      [
        "Ġcurrent",
        -8.459112690342648
      ],
      [
        "Ġside",
        -8.459145510619688
      ],
      [
        "Ġpresent",
        -8.466376630138807
      ],
      [
        "Ġpressure",
        -8.468180858895916
      ],
      [
        "Ġsurface",
        -8.46896860416614
      ],
      [
        "up",
        -8.46940136413399
      ],
      [
        "ge",
        -8.470845841675633
      ],
      [
        "Ġusual",
        -8.471224478060357
      ],
      [
        "Ġnon",
        -8.471569047623523
      ],
      [
        "Ġopen",
        -8.472959489495182
      ],
      [
        "Ġhand",
        -8.473181413613812
      ],
      [
        "Ġfish",
        -8.473581901254938
      ],
      [
        "ĠAs",
        -8.475303156108302
      ],
      [
        "Ġhappen",
        -8.475662312029101
      ],
      [
        "Ġfactor",
        -8.47839321147098
      ],
      [
        "]",
        -8.480144590419375
      ],
      [
        "Ġlittle",
        -8.481325895103872
      ],
      [
        "Ġgoing",
        -8.48255969086227
      ],
      [
        "Ġsecond",
        -8.485954307034975
      ],
      [
        "Ġeasi",
        -8.487529547593937
      ],
      [
        "ver",
        -8.48787293656596
      ],
      [
        "min",
        -8.490301230013504
      ],
      [
        "ow",
        -8.493873549090742
      ],
      [
        "ated",
        -8.49437351187509
      ],
      [
        "Ġsignificant",
        -8.496679487427585
      ],
      [
        "Ġlearning",
        -8.497900498628841
      ],
      [
        "ĠU",
        -8.49880751059569
      ],
      [
        "no",
        -8.50169534394323
      ],
      [
        "Ġavailable",
        -8.502035061057688
      ],
      [
        "ex",
        -8.505897328772274
      ],
      [
        "Ġcells",
        -8.507728702862376
      ],
      [
        "Ġorder",
        -8.509387620883734
      ],
      [
        "Ġrole",
        -8.511222095533196
      ],
      [
        "Ġshort",
        -8.5112253833264
      ],
      [
        "Ġquality",
        -8.513741228245927
      ],
      [
        "lu",
        -8.514532055085112
      ],
      [
        "her",
        -8.515238974296837
      ],
      [
        "Ġfocus",
        -8.515780669339367
      ],
      [
        "me",
        -8.52008608861857
      ],
      [
        "Ġgeneral",
        -8.521276591333589
      ],
      [
        "ill",
        -8.525389676031075
      ],
      [
        "Ġenough",
        -8.526483500366549
      ],
      [
        "Ġstate",
        -8.52900925861979
      ],
      [
        ",\"",
        -8.530542537318333
      ],
      [
        "Ġfeel",
        -8.532662303948307
      ],
      [
        "ach",
        -8.532955565646661
      ],
      [
        "Ġpre",
        -8.534746115577367
      ],
      [
        "Ġobject",
        -8.535143227435995
      ],
      [
        "Ġsolution",
        -8.535705567445486
      ],
      [
        "Ġprotect",
        -8.537163473731438
      ],
      [
        "ide",
        -8.538583628330155
      ],
      [
        "Ġterm",
        -8.540000453775768
      ],
      [
        "Ġoil",
        -8.542513041312253
      ],
      [
        "Ġessential",
        -8.54278761491873
      ],
      [
        "Ġfunction",
        -8.54441101790832
      ],
      [
        "Ġcover",
        -8.545449903805437
      ],
      [
        "Ġlocal",
        -8.550719660772163
      ],
      [
        "Ġtogether",
        -8.552250949453281
      ],
      [
        "ish",
        -8.553702232714226
      ],
      [
        "Ġweek",
        -8.555334720983858
      ],
      [
        "Ġperson",
        -8.558276723075544
      ],
      [
        "Ġhard",
        -8.559452178658958
      ],
      [
        "Ġmodel",
        -8.560239296361239
      ],
      [
        "Ġgarden",
        -8.562551850633522
      ],
      [
        "Ġput",
        -8.562846771079972
      ],
      [
        "ĠAl",
        -8.565007370673442
      ],
      [
        "Ġtext",
        -8.567418768912344
      ],
      [
        "several",
        -8.570119721560733
      ],
      [
        "Ġimpact",
        -8.570850124771393
      ],
      [
        "We",
        -8.571051625084017
      ],
      [
        "Ġunderstand",
        -8.57333427607951
      ],
      [
        "ial",
        -8.573639982359921
      ],
      [
        "Ġproducts",
        -8.574884208512845
      ],
      [
        "Ġfree",
        -8.57627791617193
      ],
      [
        "Ġleas",
        -8.576585143146648
      ],
      [
        "tion",
        -8.578198467597712
      ],
      [
        "To",
        -8.582128491982573
      ],
      [
        "land",
        -8.582481547470902
      ],
      [
        "Ġleave",
        -8.582873192258129
      ],
      [
        "Ġsay",
        -8.583459132542188
      ],
      [
        "You",
        -8.586688378850297
      ],
      [
        "Ġfast",
        -8.58777903062687
      ],
      [
        "ĠWhich",
        -8.588455728085243
      ],
      [
        "ical",
        -8.59108006869125
      ],
      [
        "Ġproduce",
        -8.591143882320797
      ],
      [
        "out",
        -8.592018265962679
      ],
      [
        "Ġaway",
        -8.592391875221047
      ],
      [
        "Ġtechnolog",
        -8.593176775486146
      ],
      [
        "having",
        -8.593465775795876
      ],
      [
        "Ġcertain",
        -8.593652357248057
      ],
      [
        "vi",
        -8.594269951551208
      ],
      [
        "Ġrun",
        -8.59498245278453
      ],
      [
        "Ġgrowth",
        -8.597031635349358
      ],
      [
        "Ġage",
        -8.599955794144151
      ],
      [
        "Ġnear",
        -8.60097388923393
      ],
      [
        "man",
        -8.60185615297711
      ],
      [
        "Ġdifference",
        -8.601907259038008
      ],
      [
        "âĢĶ",
        -8.602131873250602
      ],
      [
        "Ġcheck",
        -8.602463592310954
      ],
      [
        "Ġweight",
        -8.603468186229273
      ],
      [
        "Ġimprove",
        -8.604780814086222
      ],
      [
        "ard",
        -8.605447714273918
      ],
      [
        "Ġparticular",
        -8.607498105693228
      ],
      [
        "ĠJ",
        -8.609619041294904
      ],
      [
        "Ġproblems",
        -8.61216221563468
      ],
      [
        "Ġtechnique",
        -8.615000544770211
      ],
      [
        "not",
        -8.617182919849427
      ],
      [
        "Ġdiet",
        -8.619475780097293
      ],
      [
        "Ġreal",
        -8.619727534608593
      ],
      [
        "Ġpractice",
        -8.621326115226099
      ],
      [
        "va",
        -8.622334712746405
      ],
      [
        "Ġlove",
        -8.622468191764295
      ],
      [
        "Ġcat",
        -8.62374551103503
      ],
      [
        "Ġcook",
        -8.624130584600818
      ],
      [
        "Ġpatient",
        -8.624881513629813
      ],
      [
        "Ġlet",
        -8.626870453848172
      ],
      [
        "ĠSome",
        -8.627230472763692
      ],
      [
        "hether",
        -8.627508656864054
      ],
      [
        "Ġtypes",
        -8.628462035958531
      ],
      [
        "iv",
        -8.630422842206897
      ],
      [
        "Y",
        -8.631252636942092
      ],
      [
        "Ġfull",
        -8.632927869756532
      ],
      [
        "Ġread",
        -8.637381922520937
      ],
      [
        "Ġcourse",
        -8.638721061551932
      ],
      [
        "Ġpost",
        -8.639214333984366
      ],
      [
        "Ġtreatment",
        -8.640151277831924
      ],
      [
        "Ġ[",
        -8.642874428853588
      ],
      [
        "Ġcon",
        -8.642911727378673
      ],
      [
        "ten",
        -8.643509810886506
      ],
      [
        "When",
        -8.644267409068092
      ],
      [
        "ĠNew",
        -8.644722826051765
      ],
      [
        "Ġprogram",
        -8.64866057301678
      ],
      [
        "Ġsimilar",
        -8.651167230201612
      ],
      [
        "ĠAn",
        -8.654364887266135
      ],
      [
        "Ġword",
        -8.654419848779554
      ],
      [
        "Ġmaintain",
        -8.655349447442038
      ],
      [
        "ful",
        -8.65794687275298
      ],
      [
        "Ġsince",
        -8.657993125582827
      ],
      [
        "ling",
        -8.65827163175836
      ],
      [
        "Ġhead",
        -8.659462767850263
      ],
      [
        "Ġdamage",
        -8.659675018648223
      ],
      [
        "Ġdirect",
        -8.66108131729423
      ],
      [
        "Ġcreat",
        -8.66260951491758
      ],
      [
        "ph",
        -8.664032577177048
      ],
      [
        "ĠThat",
        -8.664037152118194
      ],
      [
        "Ġprotein",
        -8.669653993747556
      ],
      [
        "Ġskin",
        -8.670675627596356
      ],
      [
        "Ġ&",
        -8.671314762916609
      ],
      [
        "Ġuntil",
        -8.672165092222295
      ],
      [
        "Ġfact",
        -8.672752747323067
      ],
      [
        "Ġsystems",
        -8.672846173606498
      ],
      [
        "Ġpro",
        -8.674593271941244
      ],
      [
        "Ġphysical",
        -8.681280577236517
      ],
      [
        "Ġproper",
        -8.682818490617501
      ],
      [
        "ating",
        -8.683472118933285
      ],
      [
        "Ġearly",
        -8.684050853424525
      ],
      [
        "Ġtop",
        -8.685203099936814
      ],
      [
        "though",
        -8.68565319769756
      ],
      [
        "Ġalong",
        -8.68598694083583
      ],
      [
        "Ġkey",
        -8.686786031784855
      ],
      [
        "Ġdis",
        -8.688370487721475
      ],
      [
        "Ġresults",
        -8.688903640152905
      ],
      [
        "ĠNo",
        -8.689404072173254
      ],
      [
        "Ġfamily",
        -8.689667113761125
      ],
      [
        "ĠBy",
        -8.690541382888675
      ],
      [
        "stead",
        -8.691928900739363
      ],
      [
        "ĠWith",
        -8.692930959101183
      ],
      [
        "Ġnext",
        -8.695571420539782
      ],
      [
        "There",
        -8.696188746900962
      ],
      [
        "Ġstrong",
        -8.698335983341197
      ],
      [
        "ble",
        -8.698403405368285
      ],
      [
        "Ġsafe",
        -8.700236558160277
      ],
      [
        "Ġfield",
        -8.702314474218735
      ],
      [
        "Ġreason",
        -8.702366256663986
      ],
      [
        "Ġkind",
        -8.702987700344192
      ],
      [
        "Ġworking",
        -8.704602590878
      ],
      [
        "Ġremain",
        -8.70480374722554
      ],
      [
        "Ġdry",
        -8.70516932225209
      ],
      [
        "Ġ=",
        -8.705496237516536
      ],
      [
        "ence",
        -8.705886498587372
      ],
      [
        "Ġproduction",
        -8.706563881021685
      ],
      [
        "Ġ$",
        -8.707106163186175
      ],
      [
        "ĠBe",
        -8.708467232150578
      ],
      [
        "Ġseem",
        -8.710929460594976
      ],
      [
        "Ġoffer",
        -8.713433189114898
      ],
      [
        "!Ċ",
        -8.714866753279363
      ],
      [
        "J",
        -8.716837785320745
      ],
      [
        "Ġhigher",
        -8.717620718383651
      ],
      [
        "Ġsite",
        -8.717823883570619
      ],
      [
        "Ġsp",
        -8.718959845281066
      ],
      [
        "Ġeye",
        -8.719675912180655
      ],
      [
        "Ġdogs",
        -8.721134315954986
      ],
      [
        ")Ċ",
        -8.72144540169284
      ],
      [
        "Ġchild",
        -8.726015598440979
      ],
      [
        "Ġcell",
        -8.72811767247158
      ],
      [
        "Ġdi",
        -8.728281255978645
      ],
      [
        "Ġbusiness",
        -8.728959343781398
      ],
      [
        "self",
        -8.73289726133647
      ],
      [
        "Ġmakes",
        -8.73361130852277
      ],
      [
        "Ġanimal",
        -8.735904220291042
      ],
      [
        "Ġold",
        -8.736521916631894
      ],
      [
        "Ġbook",
        -8.736656650345584
      ],
      [
        "*",
        -8.737154226873319
      ],
      [
        "Ġeasy",
        -8.737478277776582
      ],
      [
        "ber",
        -8.737523724987323
      ],
      [
        "Ġmarket",
        -8.739423131142015
      ],
      [
        "Ġwide",
        -8.740382787482664
      ],
      [
        "ca",
        -8.74041797283467
      ],
      [
        "Ġchanges",
        -8.744781836144059
      ],
      [
        "Ġvariet",
        -8.747033559423842
      ],
      [
        "Ġstep",
        -8.747068583626788
      ],
      [
        "Ġdoesn",
        -8.747499749130437
      ],
      [
        "cy",
        -8.74779846750881
      ],
      [
        "ĠUniversit",
        -8.749640112401313
      ],
      [
        "Ġmachine",
        -8.751843596071144
      ],
      [
        "Ġeffective",
        -8.752150168969461
      ],
      [
        "Ġlower",
        -8.752258044700412
      ],
      [
        "ctivity",
        -8.752279252427655
      ],
      [
        "Ġavoid",
        -8.752812945426328
      ],
      [
        "Ġlikely",
        -8.753257328124675
      ],
      [
        "Ġsimple",
        -8.753893606696899
      ],
      [
        "Ġspeed",
        -8.754851110442472
      ],
      [
        "Ġheart",
        -8.755896885323587
      ],
      [
        "Ġbuilding",
        -8.75593620929156
      ],
      [
        "âĢ¦",
        -8.756459476718028
      ],
      [
        "Ġpet",
        -8.758331456026202
      ],
      [
        "Ġprofessional",
        -8.75981295127728
      ],
      [
        "Ġsocial",
        -8.75986106515058
      ],
      [
        "ions",
        -8.7632490993937
      ],
      [
        "ĠDe",
        -8.765189152291793
      ],
      [
        "Ġgas",
        -8.766468845131559
      ],
      [
        "Ġfuel",
        -8.766479754937354
      ],
      [
        "Ġtraining",
        -8.766780512934904
      ],
      [
        "gu",
        -8.766946750260047
      ],
      [
        "mm",
        -8.767720599863255
      ],
      [
        "ture",
        -8.769661350084684
      ],
      [
        "Ġunique",
        -8.770424931147033
      ],
      [
        "ĠMo",
        -8.770694081736075
      ],
      [
        "tra",
        -8.771052513481479
      ],
      [
        "Ġaffect",
        -8.77163506741475
      ],
      [
        "ok",
        -8.7767232593586
      ],
      [
        "Ġfar",
        -8.77823422147669
      ],
      [
        "Ġimage",
        -8.778681419697595
      ],
      [
        "Ġfuture",
        -8.780243771806017
      ],
      [
        "Ġnever",
        -8.780607946717922
      ],
      [
        "Ġmo",
        -8.781427686767382
      ],
      [
        "Ġactually",
        -8.78213555162343
      ],
      [
        "Ġnecessar",
        -8.783202657228095
      ],
      [
        "Ġcomponent",
        -8.786193673228725
      ],
      [
        "Ġface",
        -8.786472879589972
      ],
      [
        "Ġoccur",
        -8.788077853135423
      ],
      [
        "Ġacross",
        -8.789206529157982
      ],
      [
        "Ġpopulation",
        -8.790275370532651
      ],
      [
        "ub",
        -8.790447129271257
      ],
      [
        "Ġcarbon",
        -8.790698142900382
      ],
      [
        "Ġdepend",
        -8.791885785846766
      ],
      [
        "line",
        -8.791922941611112
      ],
      [
        "Ġexist",
        -8.792345678465853
      ],
      [
        "Ġmove",
        -8.792423110658897
      ],
      [
        "Ġunit",
        -8.795463100304854
      ],
      [
        "Ġenvironmental",
        -8.796474611634292
      ],
      [
        "Ġclose",
        -8.797987847087533
      ],
      [
        "Ġproduct",
        -8.798635543237658
      ],
      [
        "Ġsuggest",
        -8.800478667117392
      ],
      [
        "Ġgiven",
        -8.801525201050694
      ],
      [
        "Ġespeciall",
        -8.801830134197925
      ],
      [
        "Ġelectric",
        -8.805014746256782
      ],
      [
        "against",
        -8.805520917946637
      ],
      [
        "act",
        -8.806871050465055
      ],
      [
        "ĠâĢĶ",
        -8.808716113823003
      ],
      [
        "Ġtreat",
        -8.809482544686908
      ],
      [
        "Ġleft",
        -8.810451425471467
      ],
      [
        "Ġwhite",
        -8.811002332304373
      ],
      [
        "Ġcut",
        -8.815956617325696
      ],
      [
        "ism",
        -8.81650200103144
      ],
      [
        "Ġresource",
        -8.816687784183202
      ],
      [
        "Ġsign",
        -8.821169703663918
      ],
      [
        "Ġcomputer",
        -8.821507317488402
      ],
      [
        "Ġask",
        -8.824421592021656
      ],
      [
        "ĠDo",
        -8.824776940469633
      ],
      [
        "Ġdone",
        -8.826447882067434
      ],
      [
        "ĠYour",
        -8.826689995140542
      ],
      [
        "ha",
        -8.828563341641027
      ],
      [
        "Ġarticle",
        -8.82903653866758
      ],
      [
        "Ġmillion",
        -8.83043521502201
      ],
      [
        "Ġcall",
        -8.830444257772879
      ],
      [
        "For",
        -8.830791125068322
      ],
      [
        "ĠAmerican",
        -8.831888045246943
      ],
      [
        "pi",
        -8.834593641682009
      ],
      [
        "Ġstore",
        -8.835037794628388
      ],
      [
        "Ġperiod",
        -8.835048015621533
      ],
      [
        "Ġdeep",
        -8.83792025157916
      ],
      [
        "Ġclear",
        -8.839580350042866
      ],
      [
        "ized",
        -8.842681725686901
      ],
      [
        "Ġminute",
        -8.843737159847864
      ],
      [
        "most",
        -8.844896285635365
      ],
      [
        "Ġclean",
        -8.845246797900387
      ],
      [
        "we",
        -8.84536129680821
      ],
      [
        "Ġplan",
        -8.846083731013342
      ],
      [
        "Ġtoday",
        -8.848327273193934
      ],
      [
        "ring",
        -8.850010918166852
      ],
      [
        "Ġauthor",
        -8.852307039512961
      ],
      [
        "Ġrecommend",
        -8.854548885810523
      ],
      [
        "Ġaccess",
        -8.85617820878262
      ],
      [
        "Ġstructure",
        -8.856304704882623
      ],
      [
        "Ġpass",
        -8.857483019928807
      ],
      [
        "side",
        -8.857901905258892
      ],
      [
        "Ġground",
        -8.860348619886206
      ],
      [
        "Ġloss",
        -8.860615780263021
      ],
      [
        "Ġregular",
        -8.861877896456019
      ],
      [
        "Ġparts",
        -8.863674524831772
      ],
      [
        "Ġaccording",
        -8.86495762967784
      ],
      [
        "Ġdifficult",
        -8.865113679993533
      ],
      [
        "Ġvehicle",
        -8.865113681013131
      ],
      [
        "Ġcontent",
        -8.865118865561493
      ],
      [
        "ell",
        -8.865598064314426
      ],
      [
        "Ġbase",
        -8.865884887397058
      ],
      [
        "Ġinterest",
        -8.865970362423766
      ],
      [
        "Ġview",
        -8.866032281009756
      ],
      [
        "Ġabove",
        -8.869446991676439
      ],
      [
        "Ġparent",
        -8.870868805249223
      ],
      [
        "ak",
        -8.871201754525147
      ],
      [
        "Ġpast",
        -8.871276822910048
      ],
      [
        "ru",
        -8.871354759588604
      ],
      [
        "Ġeffects",
        -8.87448047856115
      ],
      [
        "Ġshare",
        -8.874648480207862
      ],
      [
        "ster",
        -8.875795277294046
      ],
      [
        "Ġfurther",
        -8.875978221880938
      ],
      [
        "Ġeat",
        -8.87611047012545
      ],
      [
        "Ġfour",
        -8.8777053583188
      ],
      [
        "ĠPa",
        -8.878888080606178
      ],
      [
        "Ġart",
        -8.879936329376402
      ],
      [
        "Ġrat",
        -8.880053781998175
      ],
      [
        "Ġindustry",
        -8.880356235714856
      ],
      [
        "Ġuser",
        -8.881140542137668
      ],
      [
        "Ġbelieve",
        -8.881167788863266
      ],
      [
        "Ġdetail",
        -8.881556638525073
      ],
      [
        "Ġengine",
        -8.88628973398362
      ],
      [
        "mp",
        -8.887202112734233
      ],
      [
        "âĢĵ",
        -8.887225008011331
      ],
      [
        "hi",
        -8.887326674219803
      ],
      [
        "Ġbig",
        -8.888207777189834
      ],
      [
        "ĠLa",
        -8.888375998129785
      ],
      [
        "Ġwarm",
        -8.890167581267033
      ],
      [
        "Ġsingle",
        -8.890449066808852
      ],
      [
        "all",
        -8.891355826305132
      ],
      [
        "Ġeffect",
        -8.891383676714481
      ],
      [
        "Ġstress",
        -8.891398020670671
      ],
      [
        "Ġtimes",
        -8.895466221973525
      ],
      [
        "Ġunderstanding",
        -8.89651002677714
      ],
      [
        "Ġsays",
        -8.896971223300634
      ],
      [
        "Ġactivities",
        -8.89797179873382
      ],
      [
        "Ġlist",
        -8.898025712240363
      ],
      [
        "Ġcool",
        -8.89893467104456
      ],
      [
        "Ġpersonal",
        -8.899328944302617
      ],
      [
        "Ġcomplex",
        -8.900505201953749
      ],
      [
        "Ġsound",
        -8.901002210396932
      ],
      [
        "way",
        -8.901190498633884
      ],
      [
        "Ġrecent",
        -8.908688956223823
      ],
      [
        "Ġmetal",
        -8.909598833255728
      ],
      [
        "Ġbrain",
        -8.910550253991715
      ],
      [
        "Ġstudie",
        -8.911556529951284
      ],
      [
        "Ġvideo",
        -8.911565194506036
      ],
      [
        "Ġnetwork",
        -8.911579295188922
      ],
      [
        "Ġfall",
        -8.91193313133818
      ],
      [
        "Ġhistor",
        -8.913296841771523
      ],
      [
        "Ġtell",
        -8.913406658318827
      ],
      [
        "Ġthought",
        -8.91380708199214
      ],
      [
        "Ġfeatures",
        -8.913953634232378
      ],
      [
        "Ġhim",
        -8.914911652550433
      ],
      [
        "Ġbreak",
        -8.915920144001479
      ],
      [
        "Ġbasic",
        -8.91757629576505
      ],
      [
        "over",
        -8.918623375760763
      ],
      [
        "Ġaddress",
        -8.9186275566739
      ],
      [
        "Ġmanagement",
        -8.918684361538595
      ],
      [
        "our",
        -8.921959677073147
      ],
      [
        "Ġenjoy",
        -8.924085194042235
      ],
      [
        "Ġscience",
        -8.924463264014078
      ],
      [
        "ative",
        -8.924714515585158
      ],
      [
        "Ġreach",
        -8.92510148498054
      ],
      [
        "Ġhours",
        -8.92616557372223
      ],
      [
        "Ġaction",
        -8.926938596178992
      ],
      [
        "Ġapproach",
        -8.928130551298644
      ],
      [
        "ization",
        -8.928563416269878
      ],
      [
        "Ġchoice",
        -8.929857324829715
      ],
      [
        "Ġbring",
        -8.930427099486609
      ],
      [
        "So",
        -8.932885981837002
      ],
      [
        "Ġclimate",
        -8.933296712313584
      ],
      [
        "Ġaddition",
        -8.933334913204632
      ],
      [
        "Ġamong",
        -8.933402243682437
      ],
      [
        "ves",
        -8.93406653480973
      ],
      [
        "Ġrate",
        -8.936732494044794
      ],
      [
        "_",
        -8.936791896563346
      ],
      [
        "Ġdiscover",
        -8.936819704899555
      ],
      [
        "Ġmatter",
        -8.936917900383804
      ],
      [
        "Ġposition",
        -8.938266480975567
      ],
      [
        "Ġskills",
        -8.93961642013079
      ],
      [
        "Ġpaper",
        -8.940622041605824
      ],
      [
        "Ġassociate",
        -8.943637724128287
      ],
      [
        "ĠDr",
        -8.943929562595006
      ],
      [
        "Ġnormal",
        -8.945112264314773
      ],
      [
        "log",
        -8.946393504815784
      ],
      [
        "Ġsafety",
        -8.951274249347653
      ],
      [
        "Ġeither",
        -8.95131280236574
      ],
      [
        "bi",
        -8.952672977649861
      ],
      [
        "Ġmind",
        -8.953798426947465
      ],
      [
        "Ġalready",
        -8.954338565183535
      ],
      [
        "Ġgreen",
        -8.956872177882133
      ],
      [
        "Ġinside",
        -8.958651835093
      ],
      [
        "Q",
        -8.959952623640206
      ],
      [
        "Ġbit",
        -8.960242914463286
      ],
      [
        "Ġsense",
        -8.960269379980819
      ],
      [
        "Re",
        -8.962166204280937
      ],
      [
        "Ġexplain",
        -8.962641379088671
      ],
      [
        "Ġcommunity",
        -8.96406488380974
      ],
      [
        "ĠLe",
        -8.964343053298046
      ],
      [
        "Ġslow",
        -8.965161626386308
      ],
      [
        "Ġperform",
        -8.966021616666133
      ],
      [
        "ize",
        -8.967344669622602
      ],
      [
        "Ġresponse",
        -8.967417453249492
      ],
      [
        "=",
        -8.96761964590567
      ],
      [
        "Ġagain",
        -8.968420680289029
      ],
      [
        "Ġstay",
        -8.969611891088284
      ],
      [
        "Ġanswer",
        -8.969969333091043
      ],
      [
        "Ġred",
        -8.970528698350797
      ],
      [
        "Ġgett",
        -8.971947510240724
      ],
      [
        "Ġbehavior",
        -8.973055222562039
      ],
      [
        "ĠPo",
        -8.97374599673712
      ],
      [
        "Ġland",
        -8.975039387716027
      ],
      [
        "ile",
        -8.976621088214298
      ],
      [
        "ke",
        -8.98009477025651
      ],
      [
        "ĠOne",
        -8.981446802038773
      ],
      [
        "Ġperformance",
        -8.982350217941672
      ],
      [
        "Ġshape",
        -8.982434718982416
      ],
      [
        "con",
        -8.98472496204877
      ],
      [
        "Ġpublic",
        -8.98587851407392
      ],
      [
        "Ġmilk",
        -8.986762851615428
      ],
      [
        "Ġmention",
        -8.98697334359522
      ],
      [
        "Ġliving",
        -8.98797997661816
      ],
      [
        "Ġtalk",
        -8.98798982092136
      ],
      [
        "ĠPro",
        -8.98866565145875
      ],
      [
        "Ġmix",
        -8.989181926300912
      ],
      [
        "Ġsub",
        -8.992702019129684
      ],
      [
        "Ġdescribe",
        -8.992926896011173
      ],
      [
        "Ġcorrect",
        -8.99498053222055
      ],
      [
        "Ġhouse",
        -8.995749983883181
      ],
      [
        "for",
        -8.996659685836509
      ],
      [
        "Ġam",
        -8.999202810169717
      ],
      [
        "taking",
        -9.001452959464082
      ],
      [
        "Ġbelow",
        -9.00150891803531
      ],
      [
        "ĠCon",
        -9.001858922864892
      ],
      [
        "ĠCo",
        -9.003808312242757
      ],
      [
        "Ġconcern",
        -9.003985117168087
      ],
      [
        "Ġgame",
        -9.004883655861436
      ],
      [
        "Ġcompany",
        -9.005226984019082
      ],
      [
        "Ġfee",
        -9.005752646505268
      ],
      [
        "Ġpopular",
        -9.0077381954767
      ],
      [
        "Ġbuild",
        -9.009607687441472
      ],
      [
        "Ġwhole",
        -9.011403496384697
      ],
      [
        "ĠAt",
        -9.011928869011058
      ],
      [
        "Ġwear",
        -9.012090372571244
      ],
      [
        "uc",
        -9.012179044426214
      ],
      [
        "Ġseen",
        -9.01322857309112
      ],
      [
        "by",
        -9.013825231173794
      ],
      [
        "Ġspecial",
        -9.01445975291187
      ],
      [
        "Ġseason",
        -9.0153098725404
      ],
      [
        "As",
        -9.01585525114011
      ],
      [
        "Ġidea",
        -9.015940028257088
      ],
      [
        "ship",
        -9.016544407025268
      ],
      [
        "ip",
        -9.016675258772588
      ],
      [
        "ward",
        -9.019097757806424
      ],
      [
        "Ġthough",
        -9.019705649977896
      ],
      [
        "Ġnature",
        -9.02154208470424
      ],
      [
        "ier",
        -9.0215981437541
      ],
      [
        "Ġclass",
        -9.022972759660204
      ],
      [
        "Ġpositive",
        -9.0255897842457
      ],
      [
        "Ġact",
        -9.027790691928107
      ],
      [
        "Ġblack",
        -9.027856923518726
      ],
      [
        "ĠUnit",
        -9.028737279405846
      ],
      [
        "ect",
        -9.029010629728871
      ],
      [
        "Ġwomen",
        -9.029128330816253
      ],
      [
        "Ġmajor",
        -9.029565122880554
      ],
      [
        "ĠDi",
        -9.02961233535
      ],
      [
        "ĠWhil",
        -9.032115581435718
      ],
      [
        "ure",
        -9.03510615954358
      ],
      [
        "king",
        -9.035766928911762
      ],
      [
        "he",
        -9.035830744653666
      ],
      [
        "Ġflower",
        -9.037122234595724
      ],
      [
        "Ġwaste",
        -9.038151088976676
      ],
      [
        "Ġtoward",
        -9.039659129342397
      ],
      [
        "Ġscientist",
        -9.040651150505829
      ],
      [
        "Ġadult",
        -9.041943068384958
      ],
      [
        "pe",
        -9.042436976381396
      ],
      [
        "ĠMan",
        -9.043303025824496
      ],
      [
        "Ġexercise",
        -9.043755716205707
      ],
      [
        "Ġresearchers",
        -9.044020716498942
      ],
      [
        "Ġfill",
        -9.044891237296223
      ],
      [
        "Ġtotal",
        -9.04493063244567
      ],
      [
        "ĠMa",
        -9.046018165564409
      ],
      [
        "Ġcode",
        -9.046056761607192
      ],
      [
        "Ġsetting",
        -9.0461170735543
      ],
      [
        "Ġsea",
        -9.047983203578614
      ],
      [
        "Ġmovement",
        -9.050387596861691
      ],
      [
        "Ġcold",
        -9.051149146206209
      ],
      [
        "lic",
        -9.0512423365915
      ],
      [
        "ĠAI",
        -9.051358320531294
      ],
      [
        "Ġmonths",
        -9.053167253469407
      ],
      [
        "fer",
        -9.05691936166511
      ],
      [
        "Ġtools",
        -9.05969297637908
      ],
      [
        "Ġman",
        -9.059892406135646
      ],
      [
        "nd",
        -9.06207981502541
      ],
      [
        "Ġhold",
        -9.062630527539476
      ],
      [
        "ng",
        -9.063353708085735
      ],
      [
        "Ġgenetic",
        -9.06483151081509
      ],
      [
        "ĠAll",
        -9.064955493744051
      ],
      [
        "Ġchemical",
        -9.065050231161502
      ],
      [
        "Ġsugar",
        -9.066760966351946
      ],
      [
        "Ġyoung",
        -9.066903334487233
      ],
      [
        "Ġtip",
        -9.066961262524746
      ],
      [
        "Ġsimpl",
        -9.067435765059408
      ],
      [
        "ĠBo",
        -9.069108886878798
      ],
      [
        "Ġprovid",
        -9.07086593688171
      ],
      [
        "Ġtraditional",
        -9.070874320379154
      ],
      [
        "Ġpercent",
        -9.071807924990589
      ],
      [
        "Ġappear",
        -9.072996341279527
      ],
      [
        "ran",
        -9.073851606774598
      ],
      [
        "que",
        -9.075520061880622
      ],
      [
        "Ġbatter",
        -9.076114378289097
      ],
      [
        "form",
        -9.076474130165987
      ],
      [
        "Ġdetermine",
        -9.078794464477282
      ],
      [
        "Ġplastic",
        -9.080455735401737
      ],
      [
        "Ġpain",
        -9.081028880853673
      ],
      [
        "ĠZ",
        -9.081179778847602
      ],
      [
        "ĠEx",
        -9.081209542978598
      ],
      [
        "Ġcancer",
        -9.081317496950696
      ],
      [
        "Ġexpect",
        -9.08186013586404
      ],
      [
        "Ġways",
        -9.0828323448344
      ],
      [
        "Ġknowledge",
        -9.084147496024505
      ],
      [
        "Ġperfect",
        -9.08415965381398
      ],
      [
        "Ġbuy",
        -9.084218918398792
      ],
      [
        "Ġpattern",
        -9.085425914230552
      ],
      [
        "Ġbalance",
        -9.085487577164065
      ],
      [
        "Ġflow",
        -9.088664007179526
      ],
      [
        "Ġfruit",
        -9.090150701870495
      ],
      [
        "end",
        -9.090904797489848
      ],
      [
        "Ġex",
        -9.091854152004178
      ],
      [
        "ĠSa",
        -9.093048966861016
      ],
      [
        "Ġsomeone",
        -9.094187403891969
      ],
      [
        "Ġoutside",
        -9.094855184170475
      ],
      [
        "Ġeffort",
        -9.094897247328674
      ],
      [
        "Ġtool",
        -9.097405927589175
      ],
      [
        "qua",
        -9.097420044711065
      ],
      [
        "Ġreceive",
        -9.099570768062396
      ],
      [
        "Ġroom",
        -9.099993082536358
      ],
      [
        "ĠY",
        -9.100840872862824
      ],
      [
        "Ġstrateg",
        -9.101591560259385
      ],
      [
        "mer",
        -9.101887160905932
      ],
      [
        "day",
        -9.102982049677774
      ],
      [
        "Ġrepresent",
        -9.103572883336703
      ],
      [
        "Ġdoing",
        -9.103773048109955
      ],
      [
        "Ġtypically",
        -9.10412036227052
      ],
      [
        "Ġmedical",
        -9.104486780337878
      ],
      [
        "Ġtravel",
        -9.105835469305733
      ],
      [
        "Ġsymptoms",
        -9.107164500288365
      ],
      [
        "Ġactive",
        -9.107820958382536
      ],
      [
        ".\"ĊĊ",
        -9.109137809962515
      ],
      [
        "go",
        -9.10976139563315
      ],
      [
        "ĠRo",
        -9.110747900870232
      ],
      [
        "âĢ¢",
        -9.111347235240892
      ],
      [
        "Ġlanguage",
        -9.111347236505434
      ],
      [
        "Ġaverage",
        -9.111360499967578
      ],
      [
        "Ġwinter",
        -9.111509807790814
      ],
      [
        "Ġforce",
        -9.11154492043632
      ],
      [
        "Ġdivers",
        -9.11168738778126
      ],
      [
        "Ġoverall",
        -9.112278670897702
      ],
      [
        "Ġrule",
        -9.112874166649078
      ],
      [
        "Ġcontinue",
        -9.113315431939084
      ],
      [
        "Ġonline",
        -9.113564165212471
      ],
      [
        "Ġhot",
        -9.115467839103276
      ],
      [
        "Ġguide",
        -9.116937077847677
      ],
      [
        "Ġservice",
        -9.117778243834524
      ],
      [
        "ĠCan",
        -9.117800269162402
      ],
      [
        "Ġmuscle",
        -9.11828496649327
      ],
      [
        "Ġapplications",
        -9.118740036700618
      ],
      [
        "Ġchoose",
        -9.120168851145786
      ],
      [
        "ug",
        -9.123867230044535
      ],
      [
        "Ġfeed",
        -9.12464930452024
      ],
      [
        "Ġever",
        -9.124709482395389
      ],
      [
        "Ġserve",
        -9.125223883060409
      ],
      [
        "Ġwood",
        -9.125728204368563
      ],
      [
        ">",
        -9.127011752442122
      ],
      [
        "Ġrest",
        -9.129096852597335
      ],
      [
        "Ġenhance",
        -9.129626835068123
      ],
      [
        "Ġinvolve",
        -9.130577222037587
      ],
      [
        "Ġcrucial",
        -9.13088730440935
      ],
      [
        "Ġidentify",
        -9.132297718629047
      ],
      [
        "Ġcamera",
        -9.13234864415988
      ],
      [
        "Ġselect",
        -9.134319800668042
      ],
      [
        "Ġbirds",
        -9.134978625215812
      ],
      [
        "Ġexperiment",
        -9.135044132998337
      ],
      [
        "\\",
        -9.135053749725476
      ],
      [
        "Ġexplore",
        -9.135117056584946
      ],
      [
        "ck",
        -9.138866424112098
      ],
      [
        "Ġglobal",
        -9.138945468700404
      ],
      [
        "low",
        -9.139338010162142
      ],
      [
        "ĠX",
        -9.141389572438708
      ],
      [
        "Ġsh",
        -9.143341366249278
      ],
      [
        "Ġtarget",
        -9.14651263808364
      ],
      [
        "gan",
        -9.1472019622078
      ],
      [
        "Ġentire",
        -9.147949265392366
      ],
      [
        "Ġblock",
        -9.14808849208228
      ],
      [
        "Ġanalysis",
        -9.15012962348855
      ],
      [
        "ight",
        -9.15114123221695
      ],
      [
        "Ġreaction",
        -9.15192171553759
      ],
      [
        "Ġetc",
        -9.152587860826957
      ],
      [
        "Ġsignal",
        -9.153860978500726
      ],
      [
        "der",
        -9.154067871539318
      ],
      [
        "Ġcontact",
        -9.156586781329668
      ],
      [
        "ĠSchool",
        -9.157019827353196
      ],
      [
        "Ġfive",
        -9.15713039481232
      ],
      [
        "ĠUS",
        -9.1596565388566
      ],
      [
        "Ġmodern",
        -9.160941135740522
      ],
      [
        "Ġprimar",
        -9.161308121017072
      ],
      [
        "Ġrelationship",
        -9.162421651267536
      ],
      [
        "cal",
        -9.163454404925744
      ],
      [
        "Ġsun",
        -9.16382506325541
      ],
      [
        "Ġhelps",
        -9.1647419760744
      ],
      [
        "ĠNational",
        -9.164763005554294
      ],
      [
        "gen",
        -9.165122407806932
      ],
      [
        "ka",
        -9.16672841138053
      ],
      [
        "Ġsituation",
        -9.166759467733783
      ],
      [
        "An",
        -9.167171241582407
      ],
      [
        "âĢĿ",
        -9.16755769037328
      ],
      [
        "Ġstop",
        -9.16794952892696
      ],
      [
        "Ġkill",
        -9.168269485771305
      ],
      [
        "Ġbacteria",
        -9.168759522026791
      ],
      [
        "ĠNorth",
        -9.168974578690076
      ],
      [
        "ven",
        -9.169337572632816
      ],
      [
        "Ġchicken",
        -9.169836159267508
      ],
      [
        "Ġmemor",
        -9.171241530886103
      ],
      [
        "Ġmoney",
        -9.174168114775483
      ],
      [
        "Ġrelated",
        -9.175382488868532
      ],
      [
        "Ġstory",
        -9.176291740987654
      ],
      [
        "Ġinfection",
        -9.17637272166646
      ],
      [
        "Ġsometime",
        -9.178411747066887
      ],
      [
        "Ġmultiple",
        -9.1785805626487
      ],
      [
        "lin",
        -9.179414112653202
      ],
      [
        "Ġjob",
        -9.180006288051
      ],
      [
        "ign",
        -9.180277568356145
      ],
      [
        "Ġcharge",
        -9.181442840612052
      ],
      [
        "Ġlocation",
        -9.181527325081468
      ],
      [
        ".\"Ċ",
        -9.182016843090045
      ],
      [
        "Ġtrack",
        -9.183055909688496
      ],
      [
        "Ġdevice",
        -9.184138291998496
      ],
      [
        "Ġself",
        -9.186196178163122
      ],
      [
        "Ġregion",
        -9.187136452758256
      ],
      [
        "Ġgot",
        -9.187239990266365
      ],
      [
        "ĠRa",
        -9.187625797982546
      ],
      [
        "Ġhear",
        -9.189052758199844
      ],
      [
        "ĠMar",
        -9.190287087068644
      ],
      [
        "Ġcr",
        -9.19245337697316
      ],
      [
        "let",
        -9.192649752242469
      ],
      [
        "Ġdecision",
        -9.193407641232245
      ],
      [
        "Ġdigital",
        -9.193821340734004
      ],
      [
        "**",
        -9.193983549862002
      ],
      [
        ").Ċ",
        -9.194884083115554
      ],
      [
        "Ġfarm",
        -9.19493827218746
      ],
      [
        "ĠShe",
        -9.19602591633342
      ],
      [
        "Ġnight",
        -9.196163244317276
      ],
      [
        "Ġsubject",
        -9.196453755736409
      ],
      [
        "Ġrelease",
        -9.197008733466165
      ],
      [
        "Ġcomplete",
        -9.19710932034126
      ],
      [
        "Ġremove",
        -9.197472825591824
      ],
      [
        "qui",
        -9.198083624139308
      ],
      [
        "ĠDNA",
        -9.199396908263356
      ],
      [
        "Ġtable",
        -9.200489382624376
      ],
      [
        "Ġcycle",
        -9.202715213478069
      ],
      [
        "ĠLi",
        -9.202760557171706
      ],
      [
        "Ġproperties",
        -9.203234318721666
      ],
      [
        "Ġcenter",
        -9.203975205532451
      ],
      [
        "Ġestablish",
        -9.203988165432795
      ],
      [
        "Ġlink",
        -9.20430255881806
      ],
      [
        "Ġbad",
        -9.205028355534816
      ],
      [
        "Ġmonitor",
        -9.20852542522444
      ],
      [
        "ĠHealth",
        -9.208574215141203
      ],
      [
        "Ġvi",
        -9.209208520631789
      ],
      [
        "where",
        -9.209644954724116
      ],
      [
        "Ġexpert",
        -9.210055116230931
      ],
      [
        "Ġexact",
        -9.210226411163571
      ],
      [
        "Ġlength",
        -9.211772714648342
      ],
      [
        "ĠâĢľ",
        -9.213375500806729
      ],
      [
        "Ġregard",
        -9.214640880995097
      ],
      [
        "ose",
        -9.21554790195024
      ],
      [
        "und",
        -9.21565029911716
      ],
      [
        "Ġtrue",
        -9.220013590629849
      ],
      [
        "Ma",
        -9.221402411857692
      ],
      [
        "ox",
        -9.221703477554506
      ],
      [
        "hind",
        -9.222171470729135
      ],
      [
        "Ġrelative",
        -9.222437629683592
      ],
      [
        "X",
        -9.222968755222754
      ],
      [
        "comp",
        -9.223372566780458
      ],
      [
        "Ġoption",
        -9.22424090180056
      ],
      [
        "Ġaccount",
        -9.225432528497118
      ],
      [
        "Ġnutrient",
        -9.22566722464904
      ],
      [
        "ĠCh",
        -9.226684318973886
      ],
      [
        "Ġcompared",
        -9.227109258093789
      ],
      [
        "Ġsample",
        -9.227294503938722
      ],
      [
        "Ġgain",
        -9.22755795092952
      ],
      [
        "ner",
        -9.227743907123529
      ],
      [
        "ction",
        -9.227843771732768
      ],
      [
        "den",
        -9.22875518507822
      ],
      [
        "Ġlayer",
        -9.230463230693411
      ],
      [
        "Ġimport",
        -9.231446135684545
      ],
      [
        "Ġinvolved",
        -9.23157932676269
      ],
      [
        "Ġelements",
        -9.232583599017902
      ],
      [
        "throughout",
        -9.233096781265957
      ],
      [
        "Ġsuccessful",
        -9.233842624044447
      ],
      [
        "Ġspread",
        -9.234602783847905
      ],
      [
        "Ġeating",
        -9.235228042961602
      ],
      [
        "Ġteacher",
        -9.235254881999872
      ],
      [
        "ĠOn",
        -9.236340151184976
      ],
      [
        "Ġfat",
        -9.236737717970538
      ],
      [
        "Ġapplication",
        -9.23752988107166
      ],
      [
        "Ġprobabl",
        -9.237917890471511
      ],
      [
        "Ġice",
        -9.23946301216042
      ],
      [
        "Ġcaus",
        -9.240201458352445
      ],
      [
        "Ġisn",
        -9.240441554948294
      ],
      [
        "rus",
        -9.241380593668785
      ],
      [
        "yet",
        -9.242175961032068
      ],
      [
        "Ġma",
        -9.24234446636757
      ],
      [
        "ler",
        -9.246612495723468
      ],
      [
        "Ġmass",
        -9.247424226166462
      ],
      [
        "wa",
        -9.247520948382771
      ],
      [
        "Ġfun",
        -9.2476722192893
      ],
      [
        "ĠCa",
        -9.247854578287512
      ],
      [
        "Ġcontribute",
        -9.252085362779976
      ],
      [
        "Ġsoftware",
        -9.253735616003716
      ],
      [
        "Ġoptions",
        -9.254956586294572
      ],
      [
        "Ġdrive",
        -9.255863183683784
      ],
      [
        "Ġeggs",
        -9.25592911434454
      ],
      [
        "port",
        -9.255977187384026
      ],
      [
        "ĠHa",
        -9.25641069683543
      ],
      [
        "che",
        -9.25858038044727
      ],
      [
        "Ġattention",
        -9.26331265092078
      ],
      [
        "Ġsummer",
        -9.263350639074702
      ],
      [
        "Ġequipment",
        -9.26494390273691
      ],
      [
        ".\"",
        -9.267443397671478
      ],
      [
        "Ġsearch",
        -9.2681867345667
      ],
      [
        "of",
        -9.27081621029966
      ],
      [
        "Ġtaken",
        -9.272202605513394
      ],
      [
        "Ġcrop",
        -9.274034388189808
      ],
      [
        "Ġingredient",
        -9.27626751635839
      ],
      [
        "Ġvisit",
        -9.277390250333204
      ],
      [
        "Ġwon",
        -9.278052665541464
      ],
      [
        "ology",
        -9.278157416749448
      ],
      [
        "Ġfoods",
        -9.278280354649628
      ],
      [
        "Ġreport",
        -9.278889408619836
      ],
      [
        "Ġsleep",
        -9.27920999505896
      ],
      [
        "Ġcl",
        -9.28072910597538
      ],
      [
        "Ġincreasing",
        -9.281169456351645
      ],
      [
        "quickly",
        -9.281404382165196
      ],
      [
        "Ġfront",
        -9.281962089712769
      ],
      [
        "Ġstudent",
        -9.283385097344851
      ],
      [
        "Ġapply",
        -9.283910865511588
      ],
      [
        "Ġdiscuss",
        -9.284183288722009
      ],
      [
        "Ġextreme",
        -9.284450839764332
      ],
      [
        "Ġpurpose",
        -9.28548677455046
      ],
      [
        "Step",
        -9.28851509351528
      ],
      [
        "Ġservices",
        -9.28907014541016
      ],
      [
        "tri",
        -9.289192093810888
      ],
      [
        "Ġefficient",
        -9.289939814151133
      ],
      [
        "Ġsave",
        -9.29052868732035
      ],
      [
        "gra",
        -9.29120794509942
      ],
      [
        "Ġconcept",
        -9.291323529714742
      ],
      [
        "Ġrecord",
        -9.292232285124332
      ],
      [
        "Ġnegative",
        -9.294360182195303
      ],
      [
        "Ġconnection",
        -9.294556061041636
      ],
      [
        "quite",
        -9.294885659314447
      ],
      [
        "Why",
        -9.29584649446013
      ],
      [
        "ĠCar",
        -9.296622373376124
      ],
      [
        "Ġtend",
        -9.297022839288552
      ],
      [
        "Ġgene",
        -9.297283937755571
      ],
      [
        "Ġdistance",
        -9.297692658078953
      ],
      [
        "Ġmeat",
        -9.298098285900087
      ],
      [
        "Ġwatch",
        -9.298788247979692
      ],
      [
        "ory",
        -9.299126419356291
      ],
      [
        "j",
        -9.299436358873972
      ],
      [
        "fish",
        -9.299517578290756
      ],
      [
        "care",
        -9.301031395053464
      ],
      [
        "ick",
        -9.301381375522311
      ],
      [
        "ities",
        -9.3018675938714
      ],
      [
        "Ġfinding",
        -9.302287814006384
      ],
      [
        "ix",
        -9.304049848170129
      ],
      [
        "Ġprice",
        -9.304308206220176
      ],
      [
        "Ġadditional",
        -9.304489076232748
      ],
      [
        "Ġbox",
        -9.304532939996935
      ],
      [
        "ium",
        -9.306469462008526
      ],
      [
        "One",
        -9.306843209385027
      ],
      [
        "Ġtri",
        -9.307118676897108
      ],
      [
        "Ġachieve",
        -9.30736191243484
      ],
      [
        "Ġcountry",
        -9.307495326431646
      ],
      [
        "Ġfire",
        -9.308710409662034
      ],
      [
        "Ġweather",
        -9.308855720460723
      ],
      [
        "Ġpay",
        -9.309403198465196
      ],
      [
        "ake",
        -9.309449853318942
      ],
      [
        "Ġeducation",
        -9.31057679522046
      ],
      [
        "Ġshown",
        -9.312283426537368
      ],
      [
        "Ġlater",
        -9.314858708303152
      ],
      [
        "ĠBa",
        -9.316638519670956
      ],
      [
        "Ġadded",
        -9.316828768839825
      ],
      [
        "Ġapp",
        -9.317705250567762
      ],
      [
        "Ġspot",
        -9.318239503119385
      ],
      [
        "Ġmonth",
        -9.318666079298657
      ],
      [
        "ear",
        -9.31913633295388
      ],
      [
        "Ġtrain",
        -9.31954191603164
      ],
      [
        "Ġwebsite",
        -9.319582711706024
      ],
      [
        "-to",
        -9.321103828227251
      ],
      [
        "Ġprocesse",
        -9.321158622303454
      ],
      [
        "Ġdrink",
        -9.32133667739128
      ],
      [
        "ang",
        -9.321539457734492
      ],
      [
        "Ġcompound",
        -9.322982008191996
      ],
      [
        "ĠOr",
        -9.323485973060864
      ],
      [
        "time",
        -9.32382163098178
      ],
      [
        "ger",
        -9.325212199707202
      ],
      [
        "head",
        -9.325480037566884
      ],
      [
        "Ġmeasure",
        -9.325765374841415
      ],
      [
        "ging",
        -9.325800866542714
      ],
      [
        "Ġdai",
        -9.326479771238327
      ],
      [
        "Ġsalt",
        -9.326718976898771
      ],
      [
        "Ġdraw",
        -9.327761716180676
      ],
      [
        "Ġparticle",
        -9.329841368389106
      ],
      [
        "Ġattack",
        -9.329853779174217
      ],
      [
        "ĠHere",
        -9.330994188723412
      ],
      [
        "Ġplayer",
        -9.332029661395088
      ],
      [
        "ĠScience",
        -9.332790258696615
      ],
      [
        "Ġfriend",
        -9.332863155213674
      ],
      [
        "Ġstandard",
        -9.33304677206122
      ],
      [
        "Ġreview",
        -9.333642424610185
      ],
      [
        "ĠStates",
        -9.333824780431492
      ],
      [
        "Ġalternative",
        -9.335195846565522
      ],
      [
        "But",
        -9.335617202483142
      ],
      [
        "Ġevidence",
        -9.336739294228847
      ],
      [
        "Ġinfluence",
        -9.337419620817515
      ],
      [
        "Ġfinal",
        -9.339198663735464
      ],
      [
        "Ġca",
        -9.340769675092226
      ],
      [
        "Ġwalk",
        -9.340941331472576
      ],
      [
        "ack",
        -9.34113218897535
      ],
      [
        "Ġdark",
        -9.34208433746046
      ],
      [
        "set",
        -9.342295813988557
      ],
      [
        "Ġmolecule",
        -9.342835312882286
      ],
      [
        "more",
        -9.344408581415454
      ],
      [
        "Ġaspect",
        -9.34554278263667
      ],
      [
        "ze",
        -9.3457558779293
      ],
      [
        "air",
        -9.345915986801408
      ],
      [
        "Ġdetect",
        -9.349743928681624
      ],
      [
        "Ġchance",
        -9.352522539243468
      ],
      [
        "Ġgoal",
        -9.352613957109192
      ],
      [
        "Ġoutput",
        -9.352885014065922
      ],
      [
        "Ġinput",
        -9.353753257430618
      ],
      [
        "Ġvisual",
        -9.354207603733002
      ],
      [
        "work",
        -9.355580129973236
      ],
      [
        "Ġhalf",
        -9.355779548545389
      ],
      [
        "red",
        -9.355948625209326
      ],
      [
        "ĠMe",
        -9.356088068436732
      ],
      [
        "Ġinstall",
        -9.356859984674507
      ],
      [
        "Ġblue",
        -9.35713558110844
      ],
      [
        "Ġextra",
        -9.357848021526047
      ],
      [
        "Ġpick",
        -9.358207363607942
      ],
      [
        "Ġgenes",
        -9.358313487690406
      ],
      [
        "Ġmedia",
        -9.358998262956312
      ],
      [
        "Ġdisplay",
        -9.35957336484255
      ],
      [
        "Ġreturn",
        -9.359649468329197
      ],
      [
        "Ġsensor",
        -9.361283614582105
      ],
      [
        "Ġsection",
        -9.36130220676236
      ],
      [
        "Ġthemsel",
        -9.361632896928828
      ],
      [
        "Ġago",
        -9.362232006720614
      ],
      [
        "ĠUse",
        -9.363324293252669
      ],
      [
        "running",
        -9.36425402058628
      ],
      [
        "Ġappropriate",
        -9.364380627692752
      ],
      [
        "Ġscale",
        -9.364574286342972
      ],
      [
        "Ġsix",
        -9.366483870012976
      ],
      [
        "rop",
        -9.3668683512801
      ],
      [
        "RE",
        -9.367044410478805
      ],
      [
        "Ġconduct",
        -9.367117083206487
      ],
      [
        "Ġcard",
        -9.36792629714896
      ],
      [
        "Ġleaf",
        -9.368405911943096
      ],
      [
        "Ġgovernment",
        -9.368408159055376
      ],
      [
        "Ġsuccess",
        -9.37124587928163
      ],
      [
        "ĠMi",
        -9.371582164306052
      ],
      [
        "Ġhorse",
        -9.371934988138657
      ],
      [
        "Ġfile",
        -9.372969434212042
      ],
      [
        "Ġreduc",
        -9.37498281608185
      ],
      [
        "cent",
        -9.375057356108446
      ],
      [
        "Ġvolume",
        -9.375579905036922
      ],
      [
        "Ġproduced",
        -9.375657990982123
      ],
      [
        "Ġenter",
        -9.376167273941858
      ],
      [
        "Ġoffers",
        -9.376282260747162
      ],
      [
        "Ġdevices",
        -9.377754734368343
      ],
      [
        "pro",
        -9.377947075101094
      ],
      [
        "Ġsupply",
        -9.379186179417855
      ],
      [
        "Ġdidn",
        -9.379767248710085
      ],
      [
        "Ġspring",
        -9.38034846385412
      ],
      [
        "Ġdoctor",
        -9.38100254272869
      ],
      [
        "Ġroad",
        -9.381068801176347
      ],
      [
        "Ġoriginal",
        -9.381378143426485
      ],
      [
        "AR",
        -9.382616719467467
      ],
      [
        "ible",
        -9.382642016549504
      ],
      [
        "Ġindicate",
        -9.38438552605294
      ],
      [
        "Ġstage",
        -9.384806259967846
      ],
      [
        "Ġnode",
        -9.385231744520992
      ],
      [
        "Ġextend",
        -9.386442521999417
      ],
      [
        "Ġfit",
        -9.388035801918674
      ],
      [
        "Ġconvert",
        -9.38827090700983
      ],
      [
        "Ġhair",
        -9.388296192956744
      ],
      [
        "Ġsmaller",
        -9.388332566143752
      ],
      [
        "ĠAmerica",
        -9.388915820668672
      ],
      [
        "Ġinter",
        -9.38918727525816
      ],
      [
        "Ġmode",
        -9.389528015868333
      ],
      [
        "ĠAfter",
        -9.389851136730488
      ],
      [
        "ious",
        -9.39069480071911
      ],
      [
        "Ġinsect",
        -9.390898308622386
      ],
      [
        "light",
        -9.391206744865432
      ],
      [
        "wise",
        -9.391228152811513
      ],
      [
        "Ġfresh",
        -9.392128925150535
      ],
      [
        "ong",
        -9.39250062481198
      ],
      [
        "Ġoperation",
        -9.392756686262468
      ],
      [
        "ĠMore",
        -9.3927715074495
      ],
      [
        "Ġinjur",
        -9.39402640049157
      ],
      [
        "Ġscientific",
        -9.395579777746056
      ],
      [
        "Ġcommunication",
        -9.39557977791404
      ],
      [
        "Ġkids",
        -9.396259221811816
      ],
      [
        "Ġmeet",
        -9.396452747049496
      ],
      [
        "Ġtank",
        -9.399261861556273
      ],
      [
        "yourself",
        -9.399876908455369
      ],
      [
        "Ġworks",
        -9.400450356782317
      ],
      [
        "Ġphone",
        -9.401758968298145
      ],
      [
        "Ġmental",
        -9.402352075086917
      ],
      [
        "Ġversion",
        -9.402959581306211
      ],
      [
        "com",
        -9.403414577677932
      ],
      [
        "Ġreading",
        -9.405758548716534
      ],
      [
        "Z",
        -9.405885206248072
      ],
      [
        "ER",
        -9.407700607265811
      ],
      [
        "Ġseparate",
        -9.40783982162706
      ],
      [
        "Ġlack",
        -9.408687080417902
      ],
      [
        "Ġpoints",
        -9.408809810948114
      ],
      [
        "Ġscreen",
        -9.4089113803067
      ],
      [
        "Ġdrop",
        -9.409092812306628
      ],
      [
        "Ġmicro",
        -9.410564813998327
      ],
      [
        "Ġocean",
        -9.412247498003982
      ],
      [
        "Ġmulti",
        -9.412868307233175
      ],
      [
        "Ġmusic",
        -9.41301901589333
      ],
      [
        "Ġdirection",
        -9.41382293778149
      ],
      [
        "ĠSouth",
        -9.415287080600162
      ],
      [
        "Ġconnect",
        -9.415404306764014
      ],
      [
        "ĠYes",
        -9.415537043297604
      ],
      [
        "ĠPer",
        -9.415751073699791
      ],
      [
        "Ġanti",
        -9.41589361299887
      ],
      [
        "Ġroof",
        -9.416005818299936
      ],
      [
        "Ġsuper",
        -9.416341846314936
      ],
      [
        "Ġlimit",
        -9.41683169706813
      ],
      [
        "Ġhandle",
        -9.417960765470538
      ],
      [
        "hap",
        -9.419137173979498
      ],
      [
        "ĠNa",
        -9.419343569081205
      ],
      [
        "ility",
        -9.419819025457674
      ],
      [
        "Ġtakes",
        -9.419959437601694
      ],
      [
        "Do",
        -9.421347496375814
      ],
      [
        "Ġball",
        -9.421968146594857
      ],
      [
        "Â°",
        -9.423541219806182
      ],
      [
        "Ġear",
        -9.424179389610387
      ],
      [
        "ily",
        -9.425615374679248
      ],
      [
        "Ġbar",
        -9.42564799743841
      ],
      [
        "Can",
        -9.426519708126774
      ],
      [
        "Ġdeal",
        -9.42659224670211
      ],
      [
        "Ġbaby",
        -9.426617578821835
      ],
      [
        "ple",
        -9.4271731467024
      ],
      [
        "Ġbreed",
        -9.428631592356554
      ],
      [
        "Ġchallenges",
        -9.429836758225488
      ],
      [
        "Ġcount",
        -9.43163549866552
      ],
      [
        "Ġfl",
        -9.433482247517578
      ],
      [
        "Ġwall",
        -9.434235605457534
      ],
      [
        "ĠNe",
        -9.43450691436097
      ],
      [
        "Ġfix",
        -9.435332615829369
      ],
      [
        "Ġrecycl",
        -9.435483036706822
      ],
      [
        "Ġplann",
        -9.435889481685791
      ],
      [
        "Ġstrength",
        -9.43599545238267
      ],
      [
        "Ġcity",
        -9.436211408137536
      ],
      [
        "Ġorganic",
        -9.437126838192984
      ],
      [
        "Ġfeature",
        -9.437737774070284
      ],
      [
        "ade",
        -9.4378896389841
      ],
      [
        "Ġcats",
        -9.44002475683333
      ],
      [
        "Ġbio",
        -9.44022626538649
      ],
      [
        "ĠMy",
        -9.440817795867
      ],
      [
        "Ġwild",
        -9.44088084427896
      ],
      [
        "Ġcutting",
        -9.44088440641396
      ],
      [
        "Ġidentifi",
        -9.441648662650405
      ],
      [
        "Ġmainten",
        -9.441780261634214
      ],
      [
        "ST",
        -9.442571673636962
      ],
      [
        "Ġfinish",
        -9.444599019310084
      ],
      [
        "Ġstone",
        -9.44517817882528
      ],
      [
        "ute",
        -9.446598930228788
      ],
      [
        "Ġideal",
        -9.447473599577307
      ],
      [
        "har",
        -9.448363583025976
      ],
      [
        "Ġnotice",
        -9.44843529482806
      ],
      [
        "Ġeyes",
        -9.448912457935725
      ],
      [
        "Ġarm",
        -9.449707519479498
      ],
      [
        "Ġoxygen",
        -9.450310431546988
      ],
      [
        "Ġtaste",
        -9.450315053730014
      ],
      [
        "[",
        -9.450702622129388
      ],
      [
        "Ġbag",
        -9.450845670470096
      ],
      [
        "Ġcompletely",
        -9.452277022578077
      ],
      [
        "Ġrepair",
        -9.452449620952576
      ],
      [
        "Ġbird",
        -9.453109567450817
      ],
      [
        "Ġdrain",
        -9.454316318552523
      ],
      [
        "uch",
        -9.454681450425095
      ],
      [
        "Ġwar",
        -9.455031457092364
      ],
      [
        "companie",
        -9.456145538110372
      ],
      [
        "Ġsubstance",
        -9.456147323051836
      ],
      [
        "Ġemission",
        -9.456261026437122
      ],
      [
        "Ġtouch",
        -9.456828981850482
      ],
      [
        "ice",
        -9.457439374962345
      ],
      [
        "Because",
        -9.458100798411564
      ],
      [
        "Ġcritical",
        -9.459194471950276
      ],
      [
        "Ġmodels",
        -9.459229423683295
      ],
      [
        "Ġpaint",
        -9.459321065615963
      ],
      [
        "ock",
        -9.46040253903746
      ],
      [
        "ĠResearch",
        -9.46128533065266
      ],
      [
        "ĠEarth",
        -9.464119087426257
      ],
      [
        "Ġelse",
        -9.46416998983084
      ],
      [
        "Ġconstant",
        -9.465951290918294
      ],
      [
        "Ġestimate",
        -9.466446745131428
      ],
      [
        "Ġseeds",
        -9.466450824651057
      ],
      [
        "Ġenable",
        -9.466854701694842
      ],
      [
        "Ġmoment",
        -9.467041810724094
      ],
      [
        "Ġbegin",
        -9.468684871531316
      ],
      [
        "lan",
        -9.468769287036489
      ],
      [
        "Ġglass",
        -9.469041882678304
      ],
      [
        "Ġreflect",
        -9.469900208140055
      ],
      [
        "Al",
        -9.471015132825428
      ],
      [
        "Ġdate",
        -9.471171837132168
      ],
      [
        "uff",
        -9.4720487247354
      ],
      [
        "Ġmu",
        -9.472630150336007
      ],
      [
        "ists",
        -9.474041762729808
      ],
      [
        "Ġimages",
        -9.474606576822069
      ],
      [
        "board",
        -9.475086970505584
      ],
      [
        "Ġcollect",
        -9.47586538253906
      ],
      [
        "Ġteeth",
        -9.475990920648908
      ],
      [
        "Ġbr",
        -9.47648959585593
      ],
      [
        "Whil",
        -9.477401060513934
      ],
      [
        "Ġgoe",
        -9.4775261090218
      ],
      [
        "Ġfine",
        -9.47823544303999
      ],
      [
        "Ġsolar",
        -9.478562902089278
      ],
      [
        "Ġquick",
        -9.4796022278943
      ],
      [
        "Ġwind",
        -9.479739315909043
      ],
      [
        "Ġdocument",
        -9.479840455587034
      ],
      [
        "Ġdeath",
        -9.481856794065642
      ],
      [
        "Ġevent",
        -9.48204633693816
      ],
      [
        "rac",
        -9.483004072129692
      ],
      [
        "Ġload",
        -9.483227669513845
      ],
      [
        "water",
        -9.48362376621197
      ],
      [
        "ĠVi",
        -9.484882586842804
      ],
      [
        "Ġmanage",
        -9.485216986089169
      ],
      [
        "Ġmark",
        -9.485352821917814
      ],
      [
        "ĠAdditional",
        -9.486807516469772
      ],
      [
        "ather",
        -9.487425180098128
      ],
      [
        "ric",
        -9.488643331565989
      ],
      [
        "ĠWhy",
        -9.490173674007348
      ],
      [
        "-in",
        -9.49122797436927
      ],
      [
        "Ġfemale",
        -9.491900751549116
      ],
      [
        "Ġflight",
        -9.49205417350144
      ],
      [
        "ping",
        -9.494360521218908
      ],
      [
        "Ġstyle",
        -9.495350811629866
      ],
      [
        "Ġlate",
        -9.495430182315864
      ],
      [
        "Ġcircuit",
        -9.495959487762338
      ],
      [
        "Ġitems",
        -9.49600902514798
      ],
      [
        "ĠTa",
        -9.497448606773409
      ],
      [
        "Ġpump",
        -9.49792321405653
      ],
      [
        "Ġcentur",
        -9.498156517438382
      ],
      [
        "Ġcame",
        -9.498887244809328
      ],
      [
        "net",
        -9.499375848190772
      ],
      [
        "Ġlives",
        -9.500142546648528
      ],
      [
        "Ġadvance",
        -9.500277093920172
      ],
      [
        "Ġrich",
        -9.500921355385772
      ],
      [
        "Ġmeal",
        -9.50215758098414
      ],
      [
        "Ġlo",
        -9.502429691951544
      ],
      [
        "ĠFrom",
        -9.50297201379363
      ],
      [
        "Ġdecrease",
        -9.504108215788897
      ],
      [
        "art",
        -9.504130578385787
      ],
      [
        "Ġcharacter",
        -9.504319747066358
      ],
      [
        "Ġprogress",
        -9.50445991658603
      ],
      [
        "Ġaware",
        -9.504608763051255
      ],
      [
        "Ġuseful",
        -9.504787170442292
      ],
      [
        "Ġfr",
        -9.504821248055949
      ],
      [
        "Ġreplace",
        -9.504930538607372
      ],
      [
        "ĠPh",
        -9.505570084942498
      ],
      [
        "Ġseries",
        -9.506257695260656
      ],
      [
        "uck",
        -9.50697043411197
      ],
      [
        "rad",
        -9.507345508704775
      ],
      [
        "Ġfly",
        -9.507662531708164
      ],
      [
        "Ġgenerate",
        -9.508746706055703
      ],
      [
        "fully",
        -9.5087677998551
      ],
      [
        "cer",
        -9.510153728132266
      ],
      [
        "ĠAre",
        -9.510903322660225
      ],
      [
        "ĠMost",
        -9.51119367093525
      ],
      [
        "Ġresponsibl",
        -9.512330252240265
      ],
      [
        "âĪĴ",
        -9.512333661854385
      ],
      [
        "Ġleg",
        -9.512896589468353
      ],
      [
        "Ġaim",
        -9.51400698932526
      ],
      [
        "can",
        -9.514817421359874
      ],
      [
        "ĠCO",
        -9.515384519713386
      ],
      [
        "Ġprotection",
        -9.51709913489666
      ],
      [
        "Ġfeeling",
        -9.517437538457298
      ],
      [
        "Ġj",
        -9.518698742804276
      ],
      [
        "Ġauto",
        -9.518898154854693
      ],
      [
        "Ġmale",
        -9.519722109807232
      ],
      [
        "Ġadapt",
        -9.522009394058127
      ],
      [
        "mar",
        -9.522176064561256
      ],
      [
        "ĠNot",
        -9.522230425602466
      ],
      [
        "Ġliquid",
        -9.522704490721072
      ],
      [
        "Ġencourage",
        -9.522866112486284
      ],
      [
        "ĠWorld",
        -9.523516442511529
      ],
      [
        "Ġdiabetes",
        -9.523835821554158
      ],
      [
        "Ġrain",
        -9.52415796073835
      ],
      [
        "oid",
        -9.524493069184338
      ],
      [
        "Ġhost",
        -9.525219809897596
      ],
      [
        "ĠHo",
        -9.527247287119746
      ],
      [
        "Ġremember",
        -9.528979958055276
      ],
      [
        "Ġmoving",
        -9.533205229352536
      ],
      [
        "Ġcharacteristic",
        -9.533251864709158
      ],
      [
        "Ġlocate",
        -9.533533232761355
      ],
      [
        "za",
        -9.534390166278666
      ],
      [
        "Ġseek",
        -9.53481668878426
      ],
      [
        "Ġbuil",
        -9.535662727379645
      ],
      [
        "ĠHigh",
        -9.536980025528472
      ],
      [
        "ria",
        -9.537268309129866
      ],
      [
        "Ġfrequent",
        -9.537409927118834
      ],
      [
        "Ġlandscape",
        -9.5391251464673
      ],
      [
        "Ġfilter",
        -9.539529231686164
      ],
      [
        "Ġmembers",
        -9.539678300716137
      ],
      [
        "Ġengineer",
        -9.540461718614484
      ],
      [
        "bl",
        -9.541101707903568
      ],
      [
        "He",
        -9.542948032776527
      ],
      [
        "pr",
        -9.54359172100184
      ],
      [
        "ĠLo",
        -9.54400485586592
      ],
      [
        "Ġegg",
        -9.545078232789123
      ],
      [
        "Ġcarry",
        -9.545409443017578
      ],
      [
        "Ġlimited",
        -9.545533000426731
      ],
      [
        "Ġpoor",
        -9.545938767718756
      ],
      [
        "Ġsteps",
        -9.545946654210244
      ],
      [
        "Ġbond",
        -9.546094133002423
      ],
      [
        "Ġgrass",
        -9.54614301452327
      ],
      [
        "Ġprint",
        -9.546245783166288
      ],
      [
        "Ġtransport",
        -9.547238342468468
      ],
      [
        "Ġculture",
        -9.548052502845843
      ],
      [
        "Ġcross",
        -9.54811179106292
      ],
      [
        "Ġcombination",
        -9.550576224997414
      ],
      [
        "Be",
        -9.55064335814071
      ],
      [
        "ĠQ",
        -9.551333938889933
      ],
      [
        "Ġframe",
        -9.551538083670437
      ],
      [
        "Ġsequence",
        -9.551944217994455
      ],
      [
        "Ġlose",
        -9.552452810356694
      ],
      [
        "-term",
        -9.552552497328914
      ],
      [
        "Another",
        -9.553442032105664
      ],
      [
        "And",
        -9.553752325208103
      ],
      [
        "Ġsoft",
        -9.55432998263178
      ],
      [
        "Ġplatform",
        -9.55448612510233
      ],
      [
        "izing",
        -9.555583397446032
      ],
      [
        "Ġedge",
        -9.555651899601743
      ],
      [
        "ren",
        -9.55570280313994
      ],
      [
        "Ġbone",
        -9.55633696007477
      ],
      [
        "Ġprett",
        -9.55684090829655
      ],
      [
        "ries",
        -9.556965306561231
      ],
      [
        "vol",
        -9.557315254063113
      ],
      [
        "Ġcloth",
        -9.558065761449036
      ],
      [
        "Ġnote",
        -9.558782786244734
      ],
      [
        "Ġcommercial",
        -9.558801109550856
      ],
      [
        "Ġraise",
        -9.55880368783094
      ],
      [
        "Ġinitial",
        -9.558825995379966
      ],
      [
        "applied",
        -9.55894049012004
      ],
      [
        "ĠPre",
        -9.559020595070333
      ],
      [
        "OR",
        -9.560548142236286
      ],
      [
        "Ġyellow",
        -9.560965714147487
      ],
      [
        "Ġdemand",
        -9.560977513465026
      ],
      [
        "Ġla",
        -9.561038967067498
      ],
      [
        "Ġrise",
        -9.561107136344669
      ],
      [
        "ept",
        -9.56130807642231
      ],
      [
        "Ġ--",
        -9.561616961636677
      ],
      [
        "Ġmineral",
        -9.562884300958093
      ],
      [
        "$",
        -9.563208952105285
      ],
      [
        "These",
        -9.563404714764172
      ],
      [
        "Ġadjust",
        -9.564833967844656
      ],
      [
        "ĠUs",
        -9.564984548781029
      ],
      [
        "Ġpair",
        -9.565909904569107
      ],
      [
        "ĠRNA",
        -9.566100514719054
      ],
      [
        "Ġpan",
        -9.5668074724587
      ],
      [
        "Ġbottom",
        -9.567487385324682
      ],
      [
        "Ġbi",
        -9.567723662353306
      ],
      [
        "Ġvary",
        -9.567726257314092
      ],
      [
        "Ġserious",
        -9.569676385551716
      ],
      [
        "Ġelement",
        -9.57053437432177
      ],
      [
        "Ġbrown",
        -9.57065980272064
      ],
      [
        "app",
        -9.570749435127317
      ],
      [
        "Ġensur",
        -9.571309120119189
      ],
      [
        "Ġcur",
        -9.571372814244944
      ],
      [
        "Ġshoot",
        -9.571865682318991
      ],
      [
        "Ġhope",
        -9.572406788380295
      ],
      [
        "ĠCenter",
        -9.574074121985785
      ],
      [
        "Ġbrand",
        -9.574465973629154
      ],
      [
        "Ġangle",
        -9.574951860454526
      ],
      [
        "rap",
        -9.575698542977518
      ],
      [
        "Ġelectrical",
        -9.575775345542452
      ],
      [
        "Ġpiece",
        -9.576528259503377
      ],
      [
        "cus",
        -9.5773771794213
      ],
      [
        "ĠLet",
        -9.57949317567043
      ],
      [
        "aught",
        -9.580130143206311
      ],
      [
        "pl",
        -9.580689768760134
      ],
      [
        "Ġready",
        -9.58173205289796
      ],
      [
        "Ġsustainabl",
        -9.582003542331996
      ],
      [
        "Ġvia",
        -9.58250093690446
      ],
      [
        "pp",
        -9.584192270194118
      ],
      [
        "Ġpromote",
        -9.584255941288305
      ],
      [
        "yond",
        -9.584371775895928
      ],
      [
        "Ġtheory",
        -9.584555644237216
      ],
      [
        "Ġphotograph",
        -9.584782797392856
      ],
      [
        "Ġcountr",
        -9.58639320469085
      ],
      [
        "Some",
        -9.586930118721874
      ],
      [
        "Ġinstance",
        -9.58734406985958
      ],
      [
        "Ġburn",
        -9.587539758647782
      ],
      [
        "Ġboard",
        -9.58818046800722
      ],
      [
        "Ġgeneration",
        -9.58849143761116
      ],
      [
        "Ġcapacit",
        -9.58953976609478
      ],
      [
        "Ġlibrar",
        -9.589542456226438
      ],
      [
        "press",
        -9.591488862411838
      ],
      [
        "Ġsupplement",
        -9.591771115117384
      ],
      [
        "Ġrare",
        -9.591887478851792
      ],
      [
        "Ġwait",
        -9.594048582663588
      ],
      [
        "top",
        -9.594807582418769
      ],
      [
        "Ġmatch",
        -9.595995202391313
      ],
      [
        "Ġevents",
        -9.597416891957426
      ],
      [
        "ĠKa",
        -9.59849433483332
      ],
      [
        "Ġtissue",
        -9.598497596663684
      ],
      [
        "Ġequal",
        -9.598498591328257
      ],
      [
        "Ġcommand",
        -9.598679683424235
      ],
      [
        "bit",
        -9.599040822087446
      ],
      [
        "cycl",
        -9.599047385881892
      ],
      [
        "Ġflavor",
        -9.5995440039571
      ],
      [
        "ash",
        -9.600245268836192
      ],
      [
        "Ġiron",
        -9.60079104127648
      ],
      [
        "use",
        -9.60180041755077
      ],
      [
        "Ġstick",
        -9.60316270959359
      ],
      [
        "kin",
        -9.603675046787334
      ],
      [
        "spec",
        -9.60389749113994
      ],
      [
        "ĠCr",
        -9.604358035345037
      ],
      [
        "Ġdoor",
        -9.604501242748318
      ],
      [
        "Ġforest",
        -9.605409206139914
      ],
      [
        "ome",
        -9.60607785843566
      ],
      [
        "men",
        -9.606823910197916
      ],
      [
        "Ġ#",
        -9.607014016769586
      ],
      [
        "Ġprocedure",
        -9.60753720794884
      ],
      [
        "Ġaccurate",
        -9.60753721799886
      ],
      [
        "Ġdesire",
        -9.6075461765477
      ],
      [
        "Ġpark",
        -9.609752299999151
      ],
      [
        "Ġdead",
        -9.610004779851458
      ],
      [
        "Ġshot",
        -9.610729779555454
      ],
      [
        "Ġtherefor",
        -9.61099938329372
      ],
      [
        "Ġfe",
        -9.611329381373167
      ],
      [
        "Ġweb",
        -9.611882395914812
      ],
      [
        "Ġsolid",
        -9.61213757121916
      ],
      [
        "efore",
        -9.612219471476278
      ],
      [
        "Ġnothing",
        -9.612738558518265
      ],
      [
        "On",
        -9.613328829167232
      ],
      [
        "mark",
        -9.613339771500614
      ],
      [
        "Ġcollection",
        -9.613641641347604
      ],
      [
        "ray",
        -9.61507270183078
      ],
      [
        "ern",
        -9.615670000158644
      ],
      [
        "Ġwriting",
        -9.618952965534362
      ],
      [
        "Ġsoon",
        -9.619630033936597
      ],
      [
        "ĠHar",
        -9.620904230200534
      ],
      [
        "ĠFa",
        -9.622881889642304
      ],
      [
        "Ġcolors",
        -9.622924476351772
      ],
      [
        "ja",
        -9.623226426296144
      ],
      [
        "Ġfloor",
        -9.623561306444303
      ],
      [
        "Ġreference",
        -9.62371121856739
      ],
      [
        "Ġpest",
        -9.625051037593495
      ],
      [
        "Ġstar",
        -9.625435477218716
      ],
      [
        "Ġvitamin",
        -9.625865332442109
      ],
      [
        "ĠSp",
        -9.6260398785324
      ],
      [
        "Ġmis",
        -9.626722517285993
      ],
      [
        "ification",
        -9.627040224310589
      ],
      [
        "went",
        -9.627306829888198
      ],
      [
        "Ġvision",
        -9.627709259232043
      ],
      [
        "bra",
        -9.628147283642148
      ],
      [
        "ants",
        -9.628602378557026
      ],
      [
        "Ġhearing",
        -9.62968062322448
      ],
      [
        "Ġpath",
        -9.629984609786856
      ],
      [
        "ĠEven",
        -9.631244961554463
      ],
      [
        "Ġaid",
        -9.631688309100838
      ],
      [
        ".S",
        -9.63251653849439
      ],
      [
        "Ġprograms",
        -9.63263944521489
      ],
      [
        "Ġcolour",
        -9.63282854342576
      ],
      [
        "Ġpublished",
        -9.634471841966938
      ],
      [
        "Ġspend",
        -9.634574628021188
      ],
      [
        "No",
        -9.634764954170745
      ],
      [
        "Ġpicture",
        -9.634948255506805
      ],
      [
        "Ġfluid",
        -9.635172284223415
      ],
      [
        "ĠOur",
        -9.636844856178827
      ],
      [
        "Ġpull",
        -9.637593259542603
      ],
      [
        "Ġlesson",
        -9.637619788115892
      ],
      [
        "Ġswitch",
        -9.639280104319408
      ],
      [
        "Ġalcohol",
        -9.639835297961676
      ],
      [
        "Ġrecover",
        -9.639937651184912
      ],
      [
        "Ġseed",
        -9.640460316460926
      ],
      [
        "Ġlabel",
        -9.640636760997616
      ],
      [
        "Ġreasons",
        -9.641182262035926
      ],
      [
        "Ġpowerful",
        -9.641510833467809
      ],
      [
        "dding",
        -9.64235091648415
      ],
      [
        "Ġsell",
        -9.64327896413592
      ],
      [
        "Ġslight",
        -9.64414680320058
      ],
      [
        "Ġsecurity",
        -9.644818082248465
      ],
      [
        "Ġfriends",
        -9.645156080277784
      ],
      [
        "Ġusers",
        -9.64561918593346
      ],
      [
        "Ģ",
        -9.646894101178912
      ],
      [
        "Ġsweet",
        -9.646895446060618
      ],
      [
        "ĠGa",
        -9.647106950108782
      ],
      [
        "Ġefficiency",
        -9.647278939021948
      ],
      [
        "Ġchang",
        -9.64817725790976
      ],
      [
        "Ġcit",
        -9.648649533782256
      ],
      [
        "Ġpin",
        -9.649080522842036
      ],
      [
        "Ġcontext",
        -9.649325444981644
      ],
      [
        "Ġcontroll",
        -9.649597112784242
      ],
      [
        "ĠWar",
        -9.650929011051195
      ],
      [
        "Ġhands",
        -9.650991705591723
      ],
      [
        "-up",
        -9.651350035825883
      ],
      [
        "Ġbeautiful",
        -9.6516451781883
      ],
      [
        "Ġfoot",
        -9.652979065114277
      ],
      [
        "Ġpresen",
        -9.65339123922844
      ],
      [
        "Ġrequirements",
        -9.654154565670828
      ],
      [
        "Ġthus",
        -9.654583410664443
      ],
      [
        "istic",
        -9.654938534398577
      ],
      [
        "ĠAlso",
        -9.655623621340744
      ],
      [
        "]Ċ",
        -9.65602015625455
      ],
      [
        "Ġcombine",
        -9.656064600256512
      ],
      [
        "Ġmoisture",
        -9.656432799364136
      ],
      [
        "part",
        -9.657246258325657
      ],
      [
        "but",
        -9.658139599354207
      ],
      [
        "Ġpage",
        -9.65820537393703
      ],
      [
        "giving",
        -9.658933689319504
      ],
      [
        "Ġconsistent",
        -9.65896114863375
      ],
      [
        "rie",
        -9.660007660894596
      ],
      [
        "Ġpush",
        -9.661171937632565
      ],
      [
        "Ġrock",
        -9.66117971471922
      ],
      [
        "Ġeffectively",
        -9.66174100239881
      ],
      [
        "Ġcleaning",
        -9.662100881670629
      ],
      [
        "Ġroot",
        -9.662759768986753
      ],
      [
        "Ġopportunity",
        -9.662949218831615
      ],
      [
        "Ġfigure",
        -9.662970873160894
      ],
      [
        "Ġflat",
        -9.663241931165526
      ],
      [
        "ition",
        -9.66342419127882
      ],
      [
        "{",
        -9.663561158853035
      ],
      [
        "Ġthird",
        -9.663561232531787
      ],
      [
        "Ġjourney",
        -9.663561286691971
      ],
      [
        "Ġwrong",
        -9.663562266103188
      ],
      [
        "Ġconstruction",
        -9.664207314088058
      ],
      [
        "q",
        -9.665124645533345
      ],
      [
        "Ġroll",
        -9.665726002346108
      ],
      [
        "mate",
        -9.66805491368926
      ],
      [
        "Ġmouth",
        -9.668390177980427
      ],
      [
        "cul",
        -9.66878929733885
      ],
      [
        "Ġresistance",
        -9.668861888881734
      ],
      [
        "hu",
        -9.669011547422732
      ],
      [
        "ave",
        -9.671447422069113
      ],
      [
        "Ġchain",
        -9.671965315379795
      ],
      [
        "Con",
        -9.67259120406468
      ],
      [
        "Pro",
        -9.672898963610244
      ],
      [
        "ĠGo",
        -9.673086139111817
      ],
      [
        "Ġrapid",
        -9.673212106865831
      ],
      [
        "ĠOf",
        -9.674363352204644
      ],
      [
        "Ġfrequency",
        -9.67457515363652
      ],
      [
        "Ġmessage",
        -9.67564608744677
      ],
      [
        "Ġbroad",
        -9.675723762671804
      ],
      [
        "ĠTheir",
        -9.675960596736523
      ],
      [
        "Ġexpress",
        -9.676899438419373
      ],
      [
        "Ġpot",
        -9.677844903399436
      ],
      [
        "Ġvariable",
        -9.678071744328305
      ],
      [
        "Ġmother",
        -9.67811348278144
      ],
      [
        "led",
        -9.678851322582004
      ],
      [
        "Ġtherap",
        -9.679899308188766
      ],
      [
        "own",
        -9.6817199100922
      ],
      [
        "Ġcu",
        -9.682275282266929
      ],
      [
        "Ġalgorithm",
        -9.682955696660098
      ],
      [
        "Ġobtain",
        -9.682955696755098
      ],
      [
        "Ġtask",
        -9.6829651622356
      ],
      [
        "Ġmedication",
        -9.682969480342196
      ],
      [
        "Ġattach",
        -9.683141297184388
      ],
      [
        "Ġled",
        -9.683815947567904
      ],
      [
        "Ġfo",
        -9.683977587152906
      ],
      [
        "Ġdynamic",
        -9.684341675000685
      ],
      [
        "ought",
        -9.68488867978948
      ],
      [
        "Ġstem",
        -9.686114594620785
      ],
      [
        "Ġvirus",
        -9.687405233739362
      ],
      [
        "Ġrefer",
        -9.68801440147752
      ],
      [
        "IN",
        -9.688019210185065
      ],
      [
        "Ġstand",
        -9.688680196317565
      ],
      [
        "Ġexpression",
        -9.689180720795475
      ],
      [
        "Ġforward",
        -9.689244237318448
      ],
      [
        "cle",
        -9.689399071488015
      ],
      [
        "Ġdie",
        -9.690211240606772
      ],
      [
        "Ġsymbol",
        -9.690329626647312
      ],
      [
        "Ġsend",
        -9.690934703706422
      ],
      [
        "Ġworth",
        -9.691242950398928
      ],
      [
        "By",
        -9.691822050956226
      ],
      [
        "Ġconsumption",
        -9.692795961667365
      ],
      [
        "Ġmiddle",
        -9.692809810015088
      ],
      [
        "Ġbo",
        -9.692986738929418
      ],
      [
        "Ġsmooth",
        -9.695271265567422
      ],
      [
        "storage",
        -9.695619014169647
      ],
      [
        "Ġinteresting",
        -9.695640109992546
      ],
      [
        "ĠTh",
        -9.696170858928248
      ],
      [
        "Ġlaw",
        -9.696497652062
      ],
      [
        "are",
        -9.696513383342111
      ],
      [
        "Ġconnected",
        -9.698042096674936
      ],
      [
        "my",
        -9.698153993879425
      ],
      [
        "Ġhighlight",
        -9.69862861873156
      ],
      [
        "}",
        -9.700240068790798
      ],
      [
        "ĠTe",
        -9.70037918976437
      ],
      [
        "ĠGod",
        -9.70124501022872
      ],
      [
        "ĠWho",
        -9.702064815999384
      ],
      [
        "ene",
        -9.702207319401705
      ],
      [
        "Ġsuitabl",
        -9.702516575995968
      ],
      [
        "ular",
        -9.70273030473101
      ],
      [
        "Ġexposure",
        -9.7028504466708
      ],
      [
        "Ġfiber",
        -9.70288698833452
      ],
      [
        "Ġnative",
        -9.70291576754025
      ],
      [
        "Ġmotor",
        -9.703313302947825
      ],
      [
        "Ġdefine",
        -9.703686570406951
      ],
      [
        "Ġphoto",
        -9.704073485118265
      ],
      [
        "lit",
        -9.704350530599228
      ],
      [
        "east",
        -9.704945045814256
      ],
      [
        "cha",
        -9.706182154059242
      ],
      [
        "Ġwrite",
        -9.706679111365164
      ],
      [
        "ĠMin",
        -9.707418712010522
      ],
      [
        "Ġvital",
        -9.7077908440492
      ],
      [
        "Ġinternal",
        -9.707882194360968
      ],
      [
        "ĠPi",
        -9.708465490727669
      ],
      [
        "Ġimplement",
        -9.709366036932316
      ],
      [
        "Ġcouple",
        -9.71025495967898
      ],
      [
        "tern",
        -9.710615176150537
      ],
      [
        "Ġsevere",
        -9.710716285996678
      ],
      [
        "Ġcheese",
        -9.712771954560452
      ],
      [
        "Ġnumer",
        -9.713108686857227
      ],
      [
        "Now",
        -9.714085537556429
      ],
      [
        "ham",
        -9.71413941328289
      ],
      [
        "Ġdeliver",
        -9.71472437122575
      ],
      [
        "abl",
        -9.71495096455734
      ],
      [
        "Ġtasks",
        -9.715287839304258
      ],
      [
        "written",
        -9.71529685841416
      ],
      [
        "Ġfight",
        -9.715365000066182
      ],
      [
        "ĠWater",
        -9.71548558762256
      ],
      [
        "val",
        -9.7157809812268
      ],
      [
        "mic",
        -9.716093908277458
      ],
      [
        "Ġpa",
        -9.716505586194788
      ],
      [
        "ĠState",
        -9.716717909517502
      ],
      [
        "Ġoperat",
        -9.717111531773146
      ],
      [
        "Ġpredict",
        -9.718088679380177
      ],
      [
        "Ġvegetables",
        -9.718320904980216
      ],
      [
        "Ġdrawing",
        -9.718508213969557
      ],
      [
        "Ġcatch",
        -9.720043427952188
      ],
      [
        "Ġnumbers",
        -9.72059804415822
      ],
      [
        "Ġpanel",
        -9.72225975832192
      ],
      [
        "Ġcommunit",
        -9.722431139883112
      ],
      [
        "ĠâĢ¦",
        -9.72263484296898
      ],
      [
        "ĠWi",
        -9.72314410202003
      ],
      [
        "Ġconcentration",
        -9.723224790985748
      ],
      [
        "Ġli",
        -9.723624813520363
      ],
      [
        "Ġwonder",
        -9.724647569645466
      ],
      [
        "Ġmechanism",
        -9.725462073970226
      ],
      [
        "ĠNow",
        -9.725964681080864
      ],
      [
        "Ġearth",
        -9.72666295429866
      ],
      [
        "With",
        -9.72683822342032
      ],
      [
        "ĠPlant",
        -9.727281626953562
      ],
      [
        "Ġjoint",
        -9.72844849975509
      ],
      [
        "Ġfund",
        -9.728585740955978
      ],
      [
        "stro",
        -9.728925622245496
      ],
      [
        "ĠDay",
        -9.729625154791544
      ],
      [
        "Ġideas",
        -9.730207624382
      ],
      [
        "Ġclaim",
        -9.730591475943738
      ],
      [
        "lay",
        -9.731310120780169
      ],
      [
        "Ġround",
        -9.731331278859596
      ],
      [
        "ĠLake",
        -9.731570306803224
      ],
      [
        "Ġbreath",
        -9.731803253400455
      ],
      [
        "Ġpurchase",
        -9.731943391845553
      ],
      [
        "Ġtube",
        -9.732685778647072
      ],
      [
        "ĠMay",
        -9.732944399822332
      ],
      [
        "rate",
        -9.7330609754387
      ],
      [
        "Ġscore",
        -9.733092164817382
      ],
      [
        "Ġcategor",
        -9.733155432478425
      ],
      [
        "Ġattempt",
        -9.733158949347846
      ],
      [
        "Ġolder",
        -9.733781284767248
      ],
      [
        "Ġerror",
        -9.735737996016706
      ],
      [
        "Ġexpensive",
        -9.738315723023003
      ],
      [
        "Ġbirth",
        -9.73832079751046
      ],
      [
        "Ġeconomic",
        -9.738735773649529
      ],
      [
        "ĠMake",
        -9.739149293915878
      ],
      [
        "Ġinform",
        -9.739811235909134
      ],
      [
        "Ġcomfortabl",
        -9.740082978930962
      ],
      [
        "ĠAir",
        -9.742581303296138
      ],
      [
        "Ġheavy",
        -9.743504004070232
      ],
      [
        "Ġcontract",
        -9.743509612250351
      ],
      [
        "Ġfair",
        -9.743560690637723
      ],
      [
        "Ġtexture",
        -9.74395128505288
      ],
      [
        "Ġsort",
        -9.744275938584366
      ],
      [
        "Ġforms",
        -9.744278919227655
      ],
      [
        "Ġadvantage",
        -9.744294643245262
      ],
      [
        "Ġheight",
        -9.744490727990945
      ],
      [
        "Ġrespond",
        -9.746107968897707
      ],
      [
        "Ġrespect",
        -9.746110905007688
      ],
      [
        "Ġoutdoor",
        -9.746352379255637
      ],
      [
        "ou",
        -9.746868080729504
      ],
      [
        "Ġaccept",
        -9.747492827654073
      ],
      [
        "tors",
        -9.74893955323676
      ],
      [
        "like",
        -9.74904038193375
      ],
      [
        "Ġstuff",
        -9.75135385197583
      ],
      [
        "came",
        -9.7513861280148
      ],
      [
        "bar",
        -9.75155502359791
      ],
      [
        "Ġlens",
        -9.7516574058279
      ],
      [
        "oma",
        -9.752297531444144
      ],
      [
        "ula",
        -9.75319465795719
      ],
      [
        "Ã",
        -9.7538220540016
      ],
      [
        "Ġsport",
        -9.755148709400778
      ],
      [
        "Ġdriv",
        -9.7554412659065
      ],
      [
        "alone",
        -9.75554168064554
      ],
      [
        "Ġmedium",
        -9.756744588955955
      ],
      [
        "Ġupdate",
        -9.758139208125192
      ],
      [
        "Ġthousand",
        -9.75923163736615
      ],
      [
        "Ġmeaning",
        -9.759299244362149
      ],
      [
        "ĠSea",
        -9.759346696502169
      ],
      [
        "SE",
        -9.759668174997833
      ],
      [
        "Ġwire",
        -9.759869158104449
      ],
      [
        "Ġprevious",
        -9.761147388941854
      ],
      [
        "ĠKi",
        -9.76322580717292
      ],
      [
        "Ġdepth",
        -9.76354494015369
      ],
      [
        "Ġtransform",
        -9.76375493297626
      ],
      [
        "Ġfamili",
        -9.763894238213664
      ],
      [
        "Ġsteel",
        -9.767195961136204
      ],
      [
        "bu",
        -9.767259862579492
      ],
      [
        "Ġten",
        -9.76727804803927
      ],
      [
        "Ġimp",
        -9.769951149462011
      ],
      [
        "Ġtire",
        -9.770280855844204
      ],
      [
        "Ġexpos",
        -9.770480894438414
      ],
      [
        "AT",
        -9.77202367264723
      ],
      [
        "Ġreported",
        -9.772083797661782
      ],
      [
        "Ġphase",
        -9.772163634041815
      ],
      [
        "Ġha",
        -9.773363642586537
      ],
      [
        "cation",
        -9.77458641388191
      ],
      [
        "Ġpropert",
        -9.777526935469462
      ],
      [
        "Ġgl",
        -9.777643606669391
      ],
      [
        "ĠUn",
        -9.777824356077474
      ],
      [
        "ĠEnglish",
        -9.77789869531422
      ],
      [
        "Ġtrans",
        -9.779541127963594
      ],
      [
        "Ġwor",
        -9.779905572012456
      ],
      [
        "ĠOnc",
        -9.780193318617124
      ],
      [
        "ĠFirst",
        -9.780671912791307
      ],
      [
        "ole",
        -9.780680174553158
      ],
      [
        "Ġtechnologies",
        -9.78234457946899
      ],
      [
        "Ġsociet",
        -9.78329682310098
      ],
      [
        "Ġcarrie",
        -9.783308109903592
      ],
      [
        "Ġwindow",
        -9.783825087250298
      ],
      [
        "Ġearlie",
        -9.786841079120167
      ],
      [
        "Ġfail",
        -9.788633677329688
      ],
      [
        "Ġcoming",
        -9.790351159155502
      ],
      [
        "ì",
        -9.79142045875185
      ],
      [
        "Ġnoise",
        -9.791571481470928
      ],
      [
        "Ġonto",
        -9.793359950321818
      ],
      [
        "Ġsurrounding",
        -9.793690388081805
      ],
      [
        "Ġfinancial",
        -9.794181269786195
      ],
      [
        "Ġblade",
        -9.794187957881736
      ],
      [
        "Ġreveal",
        -9.794194408880353
      ],
      [
        "Ġstates",
        -9.79583432412369
      ],
      [
        "They",
        -9.797476588712032
      ],
      [
        "ES",
        -9.798489561661151
      ],
      [
        "emb",
        -9.799563538977216
      ],
      [
        "Ġseal",
        -9.801617484468537
      ],
      [
        "Ġplanet",
        -9.802004651836016
      ],
      [
        "Ġhapp",
        -9.802026394402503
      ],
      [
        "Thank",
        -9.802448142291162
      ],
      [
        "Ġsmell",
        -9.802493162594864
      ],
      [
        "Ġjoin",
        -9.804753310168834
      ],
      [
        "Ġho",
        -9.805072398270436
      ],
      [
        "ĠNOT",
        -9.805328585914744
      ],
      [
        "Ġcha",
        -9.805589943385634
      ],
      [
        "Ġgrade",
        -9.8055942844723
      ],
      [
        "Ġbasi",
        -9.805811834930251
      ],
      [
        "Ġrecognize",
        -9.806538475653593
      ],
      [
        "Ġfan",
        -9.806908367451772
      ],
      [
        "ĠSe",
        -9.80835419087029
      ],
      [
        "Ġplate",
        -9.80837732016496
      ],
      [
        "Ġevolution",
        -9.808654761080708
      ],
      [
        "Ġthin",
        -9.80895418267988
      ],
      [
        "Ġinsight",
        -9.809057977968743
      ],
      [
        "Ġfi",
        -9.809974623436696
      ],
      [
        "ĠAccording",
        -9.81022443530478
      ],
      [
        "Ġboat",
        -9.81300322446255
      ],
      [
        "å",
        -9.813518876414529
      ],
      [
        "Ġhydrogen",
        -9.81358531502417
      ],
      [
        "old",
        -9.813637695343788
      ],
      [
        "Ġsuit",
        -9.814039889620991
      ],
      [
        "ĠMu",
        -9.81418455792973
      ],
      [
        "back",
        -9.814558653875952
      ],
      [
        "AL",
        -9.815267687098409
      ],
      [
        "ung",
        -9.81540886044452
      ],
      [
        "Ġdrug",
        -9.815523837818253
      ],
      [
        "Ġcup",
        -9.816449439322128
      ],
      [
        "Ġoutcome",
        -9.8167341969404
      ],
      [
        "wide",
        -9.8169913261696
      ],
      [
        "Ġmid",
        -9.818409406833512
      ],
      [
        "â",
        -9.819046299987953
      ],
      [
        "Ġhit",
        -9.81905058327876
      ],
      [
        "Ġcolon",
        -9.819179937653878
      ],
      [
        "Ġchallenge",
        -9.819495326650255
      ],
      [
        "row",
        -9.81960425657964
      ],
      [
        "ĠJohn",
        -9.819634317476416
      ],
      [
        "OS",
        -9.81966638792628
      ],
      [
        "ĠGr",
        -9.819734874759
      ],
      [
        "body",
        -9.81984627233762
      ],
      [
        "ivity",
        -9.819963776574957
      ],
      [
        "osis",
        -9.820282812718473
      ],
      [
        "About",
        -9.821210153492627
      ],
      [
        "Ġteach",
        -9.821266103821912
      ],
      [
        "ood",
        -9.821337418917846
      ],
      [
        "Ġinvest",
        -9.8220906940078
      ],
      [
        "IS",
        -9.822163094468571
      ],
      [
        "-b",
        -9.822334568695792
      ],
      [
        "Ġtrip",
        -9.82380028944534
      ],
      [
        "Ġfabric",
        -9.824739183390438
      ],
      [
        "acc",
        -9.8254847844657
      ],
      [
        "Ġvoltage",
        -9.827564196374798
      ],
      [
        "Ġdouble",
        -9.827573120854057
      ],
      [
        "ĠAm",
        -9.828482826831916
      ],
      [
        "Ġlisten",
        -9.829755441622392
      ],
      [
        "ĠOver",
        -9.83012874510418
      ],
      [
        "Ġspeak",
        -9.830396766783176
      ],
      [
        "Ġabsorb",
        -9.83039696279586
      ],
      [
        "held",
        -9.830451711053405
      ],
      [
        "Ġassessment",
        -9.830868875330696
      ],
      [
        "Ġconsumer",
        -9.831100027588343
      ],
      [
        "Ġorganization",
        -9.831187419995208
      ],
      [
        "Ġmotion",
        -9.831417512818897
      ],
      [
        "Ġcontainer",
        -9.832102385624708
      ],
      [
        "Ġmap",
        -9.832907670378392
      ],
      [
        "Ġhuge",
        -9.833246366380932
      ],
      [
        "Ġimmune",
        -9.83345033240006
      ],
      [
        "Ġconservation",
        -9.833750742329183
      ],
      [
        "nic",
        -9.833822247111266
      ],
      [
        "ient",
        -9.835119204889672
      ],
      [
        "Ġmiss",
        -9.835941708812664
      ],
      [
        "Ġdu",
        -9.83619317638827
      ],
      [
        "Ġcoast",
        -9.838970143224024
      ],
      [
        "oli",
        -9.83962152218356
      ],
      [
        "Ġhabitat",
        -9.840403046833025
      ],
      [
        "Ġdegrees",
        -9.841391466899188
      ],
      [
        "Ġbrush",
        -9.84150309608674
      ],
      [
        "right",
        -9.841822045945404
      ],
      [
        "Ġbright",
        -9.842287198358315
      ],
      [
        "amp",
        -9.843375578943828
      ],
      [
        "Ġphotos",
        -9.843957320698992
      ],
      [
        "Ġfunctions",
        -9.843982097918014
      ],
      [
        "Ġmen",
        -9.844193346632052
      ],
      [
        "Ġexpand",
        -9.84477203049332
      ],
      [
        "Ġbiological",
        -9.845171222126105
      ],
      [
        "Ġdemonstrate",
        -9.845539648155125
      ],
      [
        "Ġimprov",
        -9.84633922617542
      ],
      [
        "Ġpractical",
        -9.84735347229132
      ],
      [
        "Â",
        -9.850365925913348
      ],
      [
        "ĠGu",
        -9.850616164593664
      ],
      [
        "Ġcomment",
        -9.8506754747556
      ],
      [
        "AD",
        -9.851514501525584
      ],
      [
        "Ġorgan",
        -9.85159010955995
      ],
      [
        "stock",
        -9.851750553818691
      ],
      [
        "Ġperspective",
        -9.853353421121556
      ],
      [
        "well",
        -9.854431272281216
      ],
      [
        "Ġlab",
        -9.85446996910361
      ],
      [
        "ark",
        -9.85461645889238
      ],
      [
        "Ġgames",
        -9.854745419512476
      ],
      [
        "pre",
        -9.85520534465429
      ],
      [
        "Ġba",
        -9.855375431052572
      ],
      [
        "¸",
        -9.856260394951946
      ],
      [
        "Ġriver",
        -9.856272517858107
      ],
      [
        "Ġsnow",
        -9.856280453422045
      ],
      [
        "Ġregions",
        -9.85654975020667
      ],
      [
        "ĠPu",
        -9.8571172242975
      ],
      [
        "Ġsecure",
        -9.857905141109894
      ],
      [
        "pot",
        -9.858076005770986
      ],
      [
        "Ġpieces",
        -9.858234882912235
      ],
      [
        "Ġcapture",
        -9.858371410291106
      ],
      [
        "ĠLife",
        -9.8585581301054
      ],
      [
        "Ã©",
        -9.859198355282848
      ],
      [
        "Ġsaw",
        -9.859253418347429
      ],
      [
        "Ġclick",
        -9.859340246530609
      ],
      [
        "Ġnational",
        -9.85989623890062
      ],
      [
        "ĠOther",
        -9.86033582268077
      ],
      [
        "Ġmeasures",
        -9.86042700691468
      ],
      [
        "Ġthick",
        -9.86181021070398
      ],
      [
        "Ġsurvey",
        -9.862099881764664
      ],
      [
        "ĠBar",
        -9.86299968982258
      ],
      [
        "Ġprop",
        -9.863040277947304
      ],
      [
        "Ġobserve",
        -9.863120221868524
      ],
      [
        "ches",
        -9.863320515925343
      ],
      [
        "AN",
        -9.86339673279534
      ],
      [
        "Ġassist",
        -9.863991231047208
      ],
      [
        "Ġmedicine",
        -9.865032484628482
      ],
      [
        "ĠService",
        -9.86503252292956
      ],
      [
        "Ġcentral",
        -9.865037323417454
      ],
      [
        "Ġshade",
        -9.865351891141756
      ],
      [
        "Ġbooks",
        -9.86537447069481
      ],
      [
        "Ġblog",
        -9.865837966319187
      ],
      [
        "tiny",
        -9.868306342774623
      ],
      [
        "Mo",
        -9.868430050258096
      ],
      [
        "ĠUK",
        -9.869048381103372
      ],
      [
        "ĠMicro",
        -9.86977360898482
      ],
      [
        "|",
        -9.87071589615768
      ],
      [
        "Ġbackground",
        -9.871236758986608
      ],
      [
        "Ġmaximu",
        -9.872138189845048
      ],
      [
        "Man",
        -9.872631559946749
      ],
      [
        "Ġaffected",
        -9.87296354176156
      ],
      [
        "Ġinternational",
        -9.87388206756881
      ],
      [
        "Ġlearned",
        -9.87390558184048
      ],
      [
        "Ġvoice",
        -9.873943599369962
      ],
      [
        "itis",
        -9.87398134970834
      ],
      [
        "Ġteaching",
        -9.874077268127646
      ],
      [
        "try",
        -9.874467296176778
      ],
      [
        "Ġopportunit",
        -9.874637680540005
      ],
      [
        "Ġappearance",
        -9.874904739707992
      ],
      [
        "Ġaren",
        -9.875191584014978
      ],
      [
        "Ġmeasurement",
        -9.877763810462552
      ],
      [
        "Ġband",
        -9.877909169097109
      ],
      [
        "That",
        -9.878453450708545
      ],
      [
        "Ġhole",
        -9.879022739854651
      ],
      [
        "Ġwanted",
        -9.879082362870848
      ],
      [
        "Ġmember",
        -9.879496341264865
      ],
      [
        "ĠJust",
        -9.87951177069662
      ],
      [
        "Ġexcellent",
        -9.879825657593534
      ],
      [
        ".com",
        -9.879836655417405
      ],
      [
        "ĠDur",
        -9.880277155272996
      ],
      [
        "how",
        -9.88035367954327
      ],
      [
        "win",
        -9.880419895008846
      ],
      [
        ".)Ċ",
        -9.881280130008657
      ],
      [
        "ĠRead",
        -9.881799978182055
      ],
      [
        "Ġskill",
        -9.88197022652356
      ],
      [
        "lost",
        -9.882630763031202
      ],
      [
        "Ġinches",
        -9.882719688778318
      ],
      [
        "Ġmixture",
        -9.883190513846811
      ],
      [
        "Ġsurvive",
        -9.8851686599955
      ],
      [
        "ĠInstitute",
        -9.885804621113444
      ],
      [
        "Ġecosystem",
        -9.885816793231887
      ],
      [
        ".[",
        -9.885862987668574
      ],
      [
        "Ġtru",
        -9.886038093253816
      ],
      [
        "ĠSystem",
        -9.886368890096564
      ],
      [
        "Ġrec",
        -9.886613917299636
      ],
      [
        "Ġallerg",
        -9.88719675048327
      ],
      [
        "ED",
        -9.888018911499028
      ],
      [
        "Ġmanual",
        -9.888840007825667
      ],
      [
        "ĠSu",
        -9.889264478552125
      ],
      [
        "Ġpress",
        -9.890165408642206
      ],
      [
        "ĠCalifornia",
        -9.890618034029565
      ],
      [
        "Ġradio",
        -9.891853005034076
      ],
      [
        "Ġdriver",
        -9.892083452758545
      ],
      [
        "ami",
        -9.893254396512674
      ],
      [
        "Ġhabit",
        -9.893912748443256
      ],
      [
        "Ġselection",
        -9.894165925711578
      ],
      [
        "Ġfarmer",
        -9.895603614930495
      ],
      [
        "Ġstructures",
        -9.895882327945426
      ],
      [
        "Ġwave",
        -9.897050202115365
      ],
      [
        "sol",
        -9.897306973365144
      ],
      [
        "Ġstaff",
        -9.897872484954227
      ],
      [
        "Ġcapabilit",
        -9.897914681921396
      ],
      [
        "Ġbottle",
        -9.897929342384412
      ],
      [
        "Ġobserv",
        -9.898947202099263
      ],
      [
        "Ġlu",
        -9.89904589083757
      ],
      [
        "Ġbear",
        -9.899129794058451
      ],
      [
        "ĠDon",
        -9.900231051234496
      ],
      [
        "dom",
        -9.90027537429422
      ],
      [
        "Ġ|",
        -9.900675257218204
      ],
      [
        "Ġenzyme",
        -9.900910636858754
      ],
      [
        "Ġshell",
        -9.901221644954097
      ],
      [
        "Ġvaluable",
        -9.901840695200733
      ],
      [
        "TH",
        -9.902779737200676
      ],
      [
        "chi",
        -9.903037307257575
      ],
      [
        "ians",
        -9.90328907566406
      ],
      [
        "Ġstock",
        -9.903458620920356
      ],
      [
        "Ġspin",
        -9.903665950699558
      ],
      [
        "els",
        -9.903839758607116
      ],
      [
        "Ġsession",
        -9.903961402643844
      ],
      [
        "Ġcore",
        -9.90463334033051
      ],
      [
        "´",
        -9.906028946267234
      ],
      [
        "meter",
        -9.90670057333838
      ],
      [
        "car",
        -9.910193425775738
      ],
      [
        "Ġbodie",
        -9.910329727783974
      ],
      [
        "Ġoffice",
        -9.910842579317306
      ],
      [
        "par",
        -9.911067105652249
      ],
      [
        "han",
        -9.911904604293884
      ],
      [
        "graph",
        -9.912436933396194
      ],
      [
        "ĺ",
        -9.913030022379088
      ],
      [
        "Ġstraight",
        -9.913162845517984
      ],
      [
        "ctober",
        -9.913164030898056
      ],
      [
        "Ġroutine",
        -9.913188744053182
      ],
      [
        "Ġclasses",
        -9.914510912369671
      ],
      [
        "pen",
        -9.914724241908791
      ],
      [
        "Ġreact",
        -9.914752213351372
      ],
      [
        "ĠTherefor",
        -9.914765240174772
      ],
      [
        "Ġequation",
        -9.91624848243042
      ],
      [
        "Ġfilm",
        -9.916252688778778
      ],
      [
        "Ġprefer",
        -9.917651593199237
      ],
      [
        "book",
        -9.918573640225947
      ],
      [
        "Ġshift",
        -9.919350853029512
      ],
      [
        "point",
        -9.919768003032388
      ],
      [
        "cur",
        -9.919788612526087
      ],
      [
        "Ġlegal",
        -9.920275227808276
      ],
      [
        "Ġbillion",
        -9.920461558999447
      ],
      [
        "Ġexamples",
        -9.921539355955009
      ],
      [
        "Ġscan",
        -9.921853763155193
      ],
      [
        "Ġwildlif",
        -9.922123820046249
      ],
      [
        "Ġpossibilit",
        -9.922449918702304
      ],
      [
        "Ġannual",
        -9.92245204457276
      ],
      [
        "Ġplease",
        -9.923614048362705
      ],
      [
        "NO",
        -9.923674355325607
      ],
      [
        "Ġoptimal",
        -9.92407237746955
      ],
      [
        "Here",
        -9.925103022249704
      ],
      [
        "Ch",
        -9.925180782325189
      ],
      [
        "Ġparticipant",
        -9.92556517993335
      ],
      [
        "Ġyield",
        -9.92556518032707
      ],
      [
        "Ġconsult",
        -9.925565768636003
      ],
      [
        "Ġflood",
        -9.925650543658673
      ],
      [
        "Ġdangerous",
        -9.925773410969356
      ],
      [
        "Ġactual",
        -9.925796887596078
      ],
      [
        "ĠPark",
        -9.926221265171892
      ],
      [
        "Pa",
        -9.926660949525644
      ],
      [
        "Ġintroduce",
        -9.92676207207282
      ],
      [
        "-free",
        -9.926820583658063
      ],
      [
        "Ġtopic",
        -9.927361163075751
      ],
      [
        "Ġemergenc",
        -9.92736689154439
      ],
      [
        "ida",
        -9.928043979680776
      ],
      [
        "Ġcreative",
        -9.92870905965629
      ],
      [
        "Ġeventual",
        -9.928767151367513
      ],
      [
        "Ġapproximate",
        -9.928789440758935
      ],
      [
        "IC",
        -9.92902767301466
      ],
      [
        "Ġsports",
        -9.930337260277083
      ],
      [
        "ĠCor",
        -9.93069061175202
      ],
      [
        "lot",
        -9.931105635857149
      ],
      [
        "rry",
        -9.931683846688305
      ],
      [
        "Ġbreast",
        -9.931922812417444
      ],
      [
        "AC",
        -9.931953408046088
      ],
      [
        "ĠCom",
        -9.93250845599922
      ],
      [
        "ural",
        -9.932733222626556
      ],
      [
        "ically",
        -9.932881567308373
      ],
      [
        "cut",
        -9.934614026724388
      ],
      [
        "-like",
        -9.934722479180936
      ],
      [
        "Ġexhibit",
        -9.93488888849513
      ],
      [
        "Ġagent",
        -9.935494831456552
      ],
      [
        "ari",
        -9.93567259105615
      ],
      [
        "ley",
        -9.936924891957643
      ],
      [
        "Ġcustomer",
        -9.93715123270382
      ],
      [
        "Ġcheap",
        -9.9381328065535
      ],
      [
        "CT",
        -9.940272917506562
      ],
      [
        "lar",
        -9.940751583392998
      ],
      [
        "Ġassess",
        -9.94088500215745
      ],
      [
        "mat",
        -9.941311868410686
      ],
      [
        "Ġtrust",
        -9.941774177476544
      ],
      [
        "Ġstrain",
        -9.94220673979729
      ],
      [
        "All",
        -9.942574906716713
      ],
      [
        "ĠJu",
        -9.943444306932603
      ],
      [
        "Ġmembrane",
        -9.944035687521229
      ],
      [
        "Ġmiles",
        -9.944059199899808
      ],
      [
        "Ġfashion",
        -9.944463416946562
      ],
      [
        "Ġdecade",
        -9.944468133341116
      ],
      [
        "Ġisland",
        -9.944509726359104
      ],
      [
        "Ġstroke",
        -9.944512542750864
      ],
      [
        "Ġbeginning",
        -9.94453041026225
      ],
      [
        "ĠDog",
        -9.944586573753991
      ],
      [
        "CE",
        -9.944878562923233
      ],
      [
        "Ġpara",
        -9.94504197263286
      ],
      [
        "Ġraw",
        -9.945840831892292
      ],
      [
        "Ġmanufacturer",
        -9.945940966327758
      ],
      [
        "Ġstream",
        -9.946447535828428
      ],
      [
        "Ġrobot",
        -9.946770139943906
      ],
      [
        "Ġtransfer",
        -9.947377941798266
      ],
      [
        "Ġconcrete",
        -9.947648077524123
      ],
      [
        "ĠDepartment",
        -9.94764819066595
      ],
      [
        "Ġsquare",
        -9.94765548281974
      ],
      [
        "view",
        -9.949162920204705
      ],
      [
        "ĠDa",
        -9.949322827741089
      ],
      [
        "Ġcoat",
        -9.949661460771877
      ],
      [
        "Ġatom",
        -9.9507890359975
      ],
      [
        "Ġadvice",
        -9.950843491965074
      ],
      [
        "Ġleak",
        -9.950920654922127
      ],
      [
        "Ġreduction",
        -9.951531382125072
      ],
      [
        "nel",
        -9.951644670270625
      ],
      [
        "Ġatmosphere",
        -9.95164813354636
      ],
      [
        "Ġfeeding",
        -9.951761982650709
      ],
      [
        "Ġhour",
        -9.951987726930415
      ],
      [
        "ĠCat",
        -9.952152354591806
      ],
      [
        "ĠAdd",
        -9.953294374309998
      ],
      [
        "Ġtooth",
        -9.953682509591909
      ],
      [
        "-be",
        -9.953802539983345
      ],
      [
        "Ġprocessing",
        -9.953887897042648
      ],
      [
        "Ġcomprehensive",
        -9.95404971641622
      ],
      [
        "After",
        -9.954497428305384
      ],
      [
        "Ġartist",
        -9.9545947265698
      ],
      [
        "ĠRu",
        -9.955649744225791
      ],
      [
        "Ġtea",
        -9.95576265640651
      ],
      [
        "Ġne",
        -9.95631999591713
      ],
      [
        "off",
        -9.956654405458472
      ],
      [
        "ĠIndia",
        -9.957667252324276
      ],
      [
        "rew",
        -9.957771785580364
      ],
      [
        "Ġpromot",
        -9.95819243396602
      ],
      [
        "ĠJa",
        -9.958911658844034
      ],
      [
        "Ġschedule",
        -9.959761617166896
      ],
      [
        "Ġchemicals",
        -9.960286903345803
      ],
      [
        "Ġsounds",
        -9.960797025918918
      ],
      [
        "Our",
        -9.96086934280822
      ],
      [
        "related",
        -9.96103182124053
      ],
      [
        "Ġroots",
        -9.961741501370604
      ],
      [
        "ĠSince",
        -9.962515269991483
      ],
      [
        "raft",
        -9.962956708254
      ],
      [
        "ĠAfrica",
        -9.963591332952896
      ],
      [
        "Ġlung",
        -9.963927385383991
      ],
      [
        "ĠAct",
        -9.964079135628424
      ],
      [
        "Ġharm",
        -9.964491836776158
      ],
      [
        "âĢĻt",
        -9.964595372112507
      ],
      [
        "ail",
        -9.965211646217425
      ],
      [
        "ified",
        -9.965543982935584
      ],
      [
        "Ġrid",
        -9.96687076177636
      ],
      [
        "ĠYork",
        -9.966976522437236
      ],
      [
        "Ġclassroom",
        -9.96705147882516
      ],
      [
        "#",
        -9.967722268973668
      ],
      [
        "len",
        -9.968106547966777
      ],
      [
        "Ġnice",
        -9.968965341968524
      ],
      [
        "Ġhundred",
        -9.97022966976493
      ],
      [
        "Ġantibiotic",
        -9.970253093116613
      ],
      [
        "kept",
        -9.9715889080854
      ],
      [
        "Ġrates",
        -9.972096118344922
      ],
      [
        "Cl",
        -9.97265778595198
      ],
      [
        "ĠpH",
        -9.973278594015447
      ],
      [
        "lock",
        -9.973587441599792
      ],
      [
        "Ġgear",
        -9.973651138222884
      ],
      [
        "hen",
        -9.974114070906616
      ],
      [
        "Ġstandards",
        -9.974186868916227
      ],
      [
        "ttle",
        -9.974628616672778
      ],
      [
        "mas",
        -9.97468400940902
      ],
      [
        "ĠFood",
        -9.975239099388652
      ],
      [
        "Ġstr",
        -9.975463876932992
      ],
      [
        "ncy",
        -9.976209898755986
      ],
      [
        "Ġcloud",
        -9.976777370609266
      ],
      [
        "Ġfossil",
        -9.976777705924606
      ],
      [
        "Ġlaunch",
        -9.9767789939121
      ],
      [
        "ĠSh",
        -9.977202286756912
      ],
      [
        "Ġexternal",
        -9.980066604620871
      ],
      [
        "Ġbroke",
        -9.98037088688332
      ],
      [
        "Ġemotion",
        -9.980479113290986
      ],
      [
        "Ġemploy",
        -9.980514143597286
      ],
      [
        "Co",
        -9.980931430320116
      ],
      [
        "Ġresident",
        -9.981077792372126
      ],
      [
        "rom",
        -9.982142519079662
      ],
      [
        "ĠApp",
        -9.982701052890873
      ],
      [
        "nia",
        -9.982782416064971
      ],
      [
        "-p",
        -9.9830390600974
      ],
      [
        "Ġrelevan",
        -9.983367429801028
      ],
      [
        "Ġfavorite",
        -9.983530388772069
      ],
      [
        "Ġmarine",
        -9.983679740008428
      ],
      [
        "Ġrace",
        -9.984332791603142
      ],
      [
        "gram",
        -9.986056686663176
      ],
      [
        "Ġsolve",
        -9.986650774482683
      ],
      [
        "Ġscar",
        -9.986670885658434
      ],
      [
        "Ġdistribution",
        -9.986705736905453
      ],
      [
        "Ġdisc",
        -9.98741389574552
      ],
      [
        "Ġplaces",
        -9.98860601199651
      ],
      [
        "Ġflu",
        -9.989117170586203
      ],
      [
        "ĠQu",
        -9.990134564012138
      ],
      [
        "arm",
        -9.990666734809132
      ],
      [
        "ju",
        -9.991056579955044
      ],
      [
        "Ġcomfort",
        -9.9910570278122
      ],
      [
        "Ġdiagram",
        -9.993333694804392
      ],
      [
        "Ġblend",
        -9.993392001762484
      ],
      [
        "Ġartificial",
        -9.993542063193392
      ],
      [
        "ĠGe",
        -9.993849680849252
      ],
      [
        "ological",
        -9.9938497590041
      ],
      [
        "Ġpartner",
        -9.99429221173894
      ],
      [
        "ĠGreen",
        -9.996341225598474
      ],
      [
        "Ġvirtual",
        -9.996677460942472
      ],
      [
        "Ġadvis",
        -9.996706345617284
      ],
      [
        "ĠProgram",
        -9.99680796817929
      ],
      [
        "Ġaudio",
        -9.9969971931213
      ],
      [
        "Ġreliabl",
        -9.997035910864891
      ],
      [
        "ĠPC",
        -9.998281101030145
      ],
      [
        "which",
        -9.998422057816722
      ],
      [
        "ĠEvery",
        -9.99875509881429
      ],
      [
        "ĠAustralia",
        -9.999209780940244
      ],
      [
        "ĠRiver",
        -10.0000566709328
      ],
      [
        "Ġtransition",
        -10.000115984589833
      ],
      [
        "Ġassembl",
        -10.00016765361009
      ],
      [
        "PA",
        -10.00100512877452
      ],
      [
        "Ġbike",
        -10.001258050762052
      ],
      [
        "Ġnest",
        -10.001412229798063
      ],
      [
        "Ġchalleng",
        -10.0018054254137
      ],
      [
        "Ġinstructions",
        -10.002796145628787
      ],
      [
        "Ġindustrial",
        -10.00340016864029
      ],
      [
        "Ġdimension",
        -10.00340022605858
      ],
      [
        "CH",
        -10.003781112645264
      ],
      [
        "ĠArt",
        -10.004661734406405
      ],
      [
        "RO",
        -10.005065152855742
      ],
      [
        "ĠStudent",
        -10.0059982836952
      ],
      [
        "ĠCol",
        -10.006175773794547
      ],
      [
        "Ġdish",
        -10.006732848428133
      ],
      [
        "Ġcontrast",
        -10.006778826388116
      ],
      [
        "ĠSi",
        -10.007125228373852
      ],
      [
        "ĠHis",
        -10.007425698027337
      ],
      [
        "ĠKe",
        -10.008276068662507
      ],
      [
        "round",
        -10.009612674904773
      ],
      [
        "RI",
        -10.009699823596844
      ],
      [
        "@",
        -10.010168377144364
      ],
      [
        "Ġaccident",
        -10.01016838614283
      ],
      [
        "Ġinterface",
        -10.010169228446316
      ],
      [
        "Ġmaster",
        -10.010548962043575
      ],
      [
        "Ġbutton",
        -10.010640747643697
      ],
      [
        "Ġdegree",
        -10.01066322939888
      ],
      [
        "ĠMon",
        -10.011205435571403
      ],
      [
        "ĠTri",
        -10.011245431709517
      ],
      [
        "Ġlitera",
        -10.011605991264233
      ],
      [
        "metric",
        -10.012651974033268
      ],
      [
        "urge",
        -10.012895094325312
      ],
      [
        "ł",
        -10.013569737688584
      ],
      [
        "Ġconclusion",
        -10.013569737811196
      ],
      [
        "Ġinternet",
        -10.013719906712256
      ],
      [
        "coming",
        -10.013903199968508
      ],
      [
        "some",
        -10.013958224226371
      ],
      [
        "Ġsheet",
        -10.01401309832795
      ],
      [
        "cro",
        -10.014385887906396
      ],
      [
        "Ġemotional",
        -10.016664658187803
      ],
      [
        "AS",
        -10.01759796123379
      ],
      [
        "Ġinvestment",
        -10.017622865419147
      ],
      [
        "Ġcustomers",
        -10.017918543875783
      ],
      [
        "Ġelectronic",
        -10.018621614784273
      ],
      [
        "LE",
        -10.018743633224569
      ],
      [
        "ĠWell",
        -10.01971914010903
      ],
      [
        "Ġpoly",
        -10.019769611629227
      ],
      [
        "mobile",
        -10.020394270649591
      ],
      [
        "Ġbeneficial",
        -10.020407364506912
      ],
      [
        "Ġchocolate",
        -10.02040738568789
      ],
      [
        "Ġsnail",
        -10.020412372272736
      ],
      [
        "Ġsector",
        -10.020413577828633
      ],
      [
        "Ġtypical",
        -10.021260624122162
      ],
      [
        "Ġfear",
        -10.021279018468562
      ],
      [
        "gar",
        -10.023553849919326
      ],
      [
        "Ġpack",
        -10.023631122565966
      ],
      [
        "Ġdress",
        -10.023866679729425
      ],
      [
        "Ġdiscussion",
        -10.024452395498418
      ],
      [
        "late",
        -10.0245222410277
      ],
      [
        "tely",
        -10.025643732781049
      ],
      [
        "Ġpe",
        -10.026616051448226
      ],
      [
        "ĠEducation",
        -10.027311293318014
      ],
      [
        "MS",
        -10.028710791183975
      ],
      [
        "hin",
        -10.028826141641362
      ],
      [
        "Un",
        -10.02892408510386
      ],
      [
        "Ġorganisms",
        -10.030081765259135
      ],
      [
        "ĠEuropean",
        -10.030410731099767
      ],
      [
        "Ġindependent",
        -10.030753333459046
      ],
      [
        "eck",
        -10.03124582452196
      ],
      [
        "Ġtrade",
        -10.031645000585346
      ],
      [
        "Ġeducational",
        -10.031981691072478
      ],
      [
        "Ġcorner",
        -10.032107017660252
      ],
      [
        "Ġoperate",
        -10.033959011428353
      ],
      [
        "Ġintegrate",
        -10.034131740473692
      ],
      [
        "Ġmelt",
        -10.034559286375938
      ],
      [
        "Ġpop",
        -10.03523459558154
      ],
      [
        "Ġstorie",
        -10.03598438187485
      ],
      [
        "Ġpur",
        -10.036001418178127
      ],
      [
        "Ġthreat",
        -10.036856357635967
      ],
      [
        "Ġhazard",
        -10.037708896076184
      ],
      [
        "bal",
        -10.039781232653944
      ],
      [
        "Ġwash",
        -10.040554227712184
      ],
      [
        "Ġsit",
        -10.041324693153843
      ],
      [
        "Ġformation",
        -10.041609362866982
      ],
      [
        "Ġexamine",
        -10.04198584017935
      ],
      [
        "Ġpad",
        -10.042386556899643
      ],
      [
        "Ġstation",
        -10.042453021395524
      ],
      [
        "uel",
        -10.04370448544996
      ],
      [
        "matic",
        -10.043862402612165
      ],
      [
        "Creat",
        -10.046032025375707
      ],
      [
        "Ġformula",
        -10.046414450860876
      ],
      [
        "Ġremoved",
        -10.046936195265644
      ],
      [
        "Ġcalculate",
        -10.047742335326165
      ],
      [
        "Ġvariation",
        -10.048235308768891
      ],
      [
        "Ġfailure",
        -10.048397017684565
      ],
      [
        "ĠSan",
        -10.048467005370348
      ],
      [
        "Ġlake",
        -10.048554339632378
      ],
      [
        "Ġexcit",
        -10.049319766380492
      ],
      [
        "visible",
        -10.049485309919245
      ],
      [
        "Ġbill",
        -10.05002512167368
      ],
      [
        "ĠInter",
        -10.05047446195849
      ],
      [
        "Ġsharp",
        -10.050896877841044
      ],
      [
        "Ġgoals",
        -10.051434879852486
      ],
      [
        "lines",
        -10.051771274171486
      ],
      [
        "ĠBu",
        -10.05179381764264
      ],
      [
        "Ġcomposition",
        -10.051817316733302
      ],
      [
        "ball",
        -10.053062228097629
      ],
      [
        "IT",
        -10.053243424846864
      ],
      [
        "Ġportion",
        -10.05367962243467
      ],
      [
        "ĠSch",
        -10.05396679997154
      ],
      [
        "Ġguid",
        -10.055087869784048
      ],
      [
        "Ġtrigger",
        -10.05531520700194
      ],
      [
        "ĠLu",
        -10.05540346496219
      ],
      [
        "Ġharmful",
        -10.055506068905062
      ],
      [
        "Ġweld",
        -10.055810093866365
      ],
      [
        "Ġattract",
        -10.056450535351315
      ],
      [
        "US",
        -10.056502731749951
      ],
      [
        "Ġcomput",
        -10.056748001838248
      ],
      [
        "Ġoffering",
        -10.057405466123996
      ],
      [
        "Ġtax",
        -10.057586489893982
      ],
      [
        "Ġshar",
        -10.058016176379532
      ],
      [
        "verse",
        -10.058279867299676
      ],
      [
        "Ġkitchen",
        -10.058874122591062
      ],
      [
        "Ġgenome",
        -10.05887857397655
      ],
      [
        "Ġpathogen",
        -10.05893371894841
      ],
      [
        "Ġzone",
        -10.058960918611106
      ],
      [
        "Ġrep",
        -10.060555285777529
      ],
      [
        "Ġconstruct",
        -10.060604204145513
      ],
      [
        "Ġwheel",
        -10.06122175131435
      ],
      [
        "ĠFurther",
        -10.061316742483392
      ],
      [
        "Ġextract",
        -10.061477404300124
      ],
      [
        "Ġlogic",
        -10.061667789462025
      ],
      [
        "Ġratio",
        -10.061982560293524
      ],
      [
        "Ġpregnanc",
        -10.062445035472084
      ],
      [
        "Ġcultural",
        -10.062459873330926
      ],
      [
        "Ġtransmission",
        -10.062486250754556
      ],
      [
        "Ġmold",
        -10.06269660604469
      ],
      [
        "Ġpor",
        -10.063107862583392
      ],
      [
        "read",
        -10.063219763085907
      ],
      [
        "Ġcompost",
        -10.063604637941896
      ],
      [
        "Ġstrip",
        -10.064291919511138
      ],
      [
        "that",
        -10.064433386218008
      ],
      [
        "ON",
        -10.06469746576728
      ],
      [
        "Ġmeasur",
        -10.064725993896785
      ],
      [
        "Ġarrow",
        -10.065683014610544
      ],
      [
        "Ġinnovation",
        -10.066029300847733
      ],
      [
        "Ġharvest",
        -10.066029408955677
      ],
      [
        "Ġprivate",
        -10.066193255834865
      ],
      [
        "what",
        -10.066583797987532
      ],
      [
        "fac",
        -10.06758049735076
      ],
      [
        "Ġcap",
        -10.068148237238365
      ],
      [
        "Ġherb",
        -10.069493050264068
      ],
      [
        "gel",
        -10.069493827472275
      ],
      [
        "ľ",
        -10.069626380178851
      ],
      [
        "Ġobvious",
        -10.069626386670588
      ],
      [
        "Ġfold",
        -10.069979613246671
      ],
      [
        "lia",
        -10.070180506581869
      ],
      [
        "Ġtight",
        -10.0702283202297
      ],
      [
        "Ġspeaker",
        -10.070416589876745
      ],
      [
        "cu",
        -10.070866278601454
      ],
      [
        "Ġheal",
        -10.071414172620983
      ],
      [
        "ĠTur",
        -10.071603442619413
      ],
      [
        "?\"",
        -10.072477999603178
      ],
      [
        "lies",
        -10.072964349646195
      ],
      [
        "Ġaircraft",
        -10.07323711944612
      ],
      [
        "Ġcreation",
        -10.074902384584773
      ],
      [
        "Ġpill",
        -10.076215323913376
      ],
      [
        "Ġconversation",
        -10.076859727666054
      ],
      [
        "Ġrelax",
        -10.0768597686031
      ],
      [
        "Ġcarefully",
        -10.077799792871222
      ],
      [
        "ĠPeople",
        -10.0782711817171
      ],
      [
        "Ġregulator",
        -10.079153109658552
      ],
      [
        "immediately",
        -10.0792832514366
      ],
      [
        "Ġth",
        -10.079340194213875
      ],
      [
        "Ġultimate",
        -10.080496047342894
      ],
      [
        "Ġcream",
        -10.08050556959194
      ],
      [
        "Ġcraft",
        -10.080582041404982
      ],
      [
        "long",
        -10.080800063909392
      ],
      [
        "Ġnutrition",
        -10.080840587816468
      ],
      [
        "Ġsuffer",
        -10.080860156385048
      ],
      [
        "ĠWal",
        -10.081011235106416
      ],
      [
        "cra",
        -10.081398833093886
      ],
      [
        "Ġinstallation",
        -10.082332236853052
      ],
      [
        "Ġowner",
        -10.082979251782778
      ],
      [
        "ĠKeep",
        -10.082998270802848
      ],
      [
        "cap",
        -10.083122087778252
      ],
      [
        "Ġcounter",
        -10.084034304765062
      ],
      [
        "Ġdirt",
        -10.084239562359928
      ],
      [
        "Ġwalls",
        -10.084383654855554
      ],
      [
        "los",
        -10.084575311055588
      ],
      [
        "Ġconsist",
        -10.08517722510108
      ],
      [
        "Ġcurve",
        -10.08596588809636
      ],
      [
        "ĠChrist",
        -10.086203199350273
      ],
      [
        "ĠAr",
        -10.086512562853816
      ],
      [
        "Ġdigest",
        -10.086890983512482
      ],
      [
        "onic",
        -10.08743941513552
      ],
      [
        "Ġjump",
        -10.08782097003234
      ],
      [
        "Ġgr",
        -10.088127979124597
      ],
      [
        "ĠEl",
        -10.088262609723644
      ],
      [
        "Ġcable",
        -10.089230645983672
      ],
      [
        "Ġedit",
        -10.089697263677053
      ],
      [
        "Ġchi",
        -10.089864444595948
      ],
      [
        "Ġletter",
        -10.09002506314029
      ],
      [
        "Ġagriculture",
        -10.091485156102603
      ],
      [
        "Ġurban",
        -10.091485409802605
      ],
      [
        "Ġgirl",
        -10.091492584418624
      ],
      [
        "latest",
        -10.091589466589015
      ],
      [
        "cla",
        -10.092169751217677
      ],
      [
        "Ġport",
        -10.09237476605768
      ],
      [
        "Ġreward",
        -10.093429991124156
      ],
      [
        "Ġgap",
        -10.093793327044184
      ],
      [
        "Ġinteract",
        -10.094144500680752
      ],
      [
        "ĠClass",
        -10.094391526881084
      ],
      [
        "iness",
        -10.095141593306389
      ],
      [
        "-quality",
        -10.095175218222115
      ],
      [
        "ware",
        -10.095455990065693
      ],
      [
        "Ġpounds",
        -10.097157404580514
      ],
      [
        "Ġeight",
        -10.097249326737888
      ],
      [
        "Ġlay",
        -10.097260900175945
      ],
      [
        "Ġsong",
        -10.09776802525371
      ],
      [
        "Ġmanag",
        -10.097822675915136
      ],
      [
        "Ġfundamental",
        -10.098878936540464
      ],
      [
        "Ġmorning",
        -10.098879420586462
      ],
      [
        "Ġdioxide",
        -10.098944487413265
      ],
      [
        "Ġtwi",
        -10.098966847147434
      ],
      [
        "Ġcreature",
        -10.099399569024335
      ],
      [
        "load",
        -10.099518936937896
      ],
      [
        "Ġengage",
        -10.102035679572012
      ],
      [
        "Ġagree",
        -10.102306861105928
      ],
      [
        "-friendly",
        -10.102604278156296
      ],
      [
        "Ġattend",
        -10.102715199599864
      ],
      [
        "Are",
        -10.103012437594431
      ],
      [
        "pan",
        -10.103629593403715
      ],
      [
        "Ġhunting",
        -10.104321163093845
      ],
      [
        "script",
        -10.104898636833056
      ],
      [
        "phy",
        -10.104974637406432
      ],
      [
        "ĠTake",
        -10.105689430051658
      ],
      [
        "°",
        -10.10627491436351
      ],
      [
        "Ġamazing",
        -10.106328248748206
      ],
      [
        "hose",
        -10.107124597463072
      ],
      [
        "Ġbleed",
        -10.107491495050288
      ],
      [
        "pet",
        -10.10761863254802
      ],
      [
        "Ġlift",
        -10.107751949690948
      ],
      [
        "Ġhelpful",
        -10.107768903060366
      ],
      [
        "ĠIndian",
        -10.108037663555995
      ],
      [
        "new",
        -10.10808016304351
      ],
      [
        "ĠPlan",
        -10.108682849579358
      ],
      [
        "Ġimprovement",
        -10.108698494340336
      ],
      [
        "Ġupper",
        -10.108853877957216
      ],
      [
        "Ġwaves",
        -10.109739352026583
      ],
      [
        "Î",
        -10.109984145672469
      ],
      [
        "Ġchannel",
        -10.110073248683516
      ],
      [
        "Ġplug",
        -10.110108630268638
      ],
      [
        "Ġorigin",
        -10.110142412722686
      ],
      [
        "Ġdesp",
        -10.110372664189612
      ],
      [
        "lac",
        -10.110596591386834
      ],
      [
        "Ġgenerat",
        -10.111285044961674
      ],
      [
        "mel",
        -10.112614430920855
      ],
      [
        "ĠEurope",
        -10.113034488520714
      ],
      [
        "ground",
        -10.113042094651815
      ],
      [
        "Ġconsequence",
        -10.113832428873652
      ],
      [
        "Ġabsolute",
        -10.113832430702251
      ],
      [
        "Ġrestaurant",
        -10.113832432178924
      ],
      [
        "Ġtechnical",
        -10.113832597449916
      ],
      [
        "Ġbaking",
        -10.114013646998153
      ],
      [
        "rain",
        -10.11415252383046
      ],
      [
        "ĠFo",
        -10.11424113849286
      ],
      [
        "ĠPri",
        -10.11503169712654
      ],
      [
        "ching",
        -10.116871854862843
      ],
      [
        "ĠBritish",
        -10.117607111717984
      ],
      [
        "Ġdefinition",
        -10.117659019143272
      ],
      [
        "Ġspray",
        -10.117867493200148
      ],
      [
        "-time",
        -10.117969714438898
      ],
      [
        "take",
        -10.118881405476358
      ],
      [
        "Ġexplor",
        -10.120525346566854
      ],
      [
        "Ġeconom",
        -10.120779676081106
      ],
      [
        "Ġlaws",
        -10.120917375412006
      ],
      [
        "uk",
        -10.121250100282271
      ],
      [
        "atic",
        -10.121369137800093
      ],
      [
        "Ġstomach",
        -10.121393909154758
      ],
      [
        "Ġthorough",
        -10.121393953841451
      ],
      [
        "Ġrenewable",
        -10.121394474341775
      ],
      [
        "Ġrandom",
        -10.121398137553197
      ],
      [
        "Ġdedicat",
        -10.12142836045838
      ],
      [
        "Ġfirm",
        -10.121446773998972
      ],
      [
        "Ġassume",
        -10.122486954579982
      ],
      [
        "Ġconsume",
        -10.122911455509524
      ],
      [
        "Ġregulations",
        -10.12349040537194
      ],
      [
        "Ġwi",
        -10.123802103862303
      ],
      [
        "ĠHer",
        -10.123824478574551
      ],
      [
        "Ġinteractions",
        -10.124104346983328
      ],
      [
        "Ġquant",
        -10.124171063530977
      ],
      [
        "EN",
        -10.124304807785654
      ],
      [
        "Ġcontinu",
        -10.124410373050589
      ],
      [
        "Ġcustom",
        -10.124834819021466
      ],
      [
        "Ġdetermined",
        -10.124968566273672
      ],
      [
        "Ġessay",
        -10.125196919001272
      ],
      [
        "Ġfiles",
        -10.1252532957431
      ],
      [
        "Ġbatteries",
        -10.12526271074768
      ],
      [
        "Ġcontinuous",
        -10.125559711629135
      ],
      [
        "Ġtrial",
        -10.126347943929536
      ],
      [
        "cognition",
        -10.1264196353941
      ],
      [
        "Ex",
        -10.126465900159497
      ],
      [
        "rum",
        -10.127438155906388
      ],
      [
        "var",
        -10.128671801991846
      ],
      [
        "Ħ",
        -10.129012964601252
      ],
      [
        "Ġsauce",
        -10.129014395246903
      ],
      [
        "ĠWeb",
        -10.129529419626133
      ],
      [
        "Ġformat",
        -10.129591513661316
      ],
      [
        "ĠEnergy",
        -10.129621870413253
      ],
      [
        "Ġplanting",
        -10.129825781097104
      ],
      [
        "ker",
        -10.130841568127597
      ],
      [
        "lam",
        -10.131552291824123
      ],
      [
        "Ġpackag",
        -10.132122126450518
      ],
      [
        "ston",
        -10.132830846955075
      ],
      [
        "Ġscratch",
        -10.132844716337171
      ],
      [
        "Ġmutation",
        -10.132859104326917
      ],
      [
        "Ġindoor",
        -10.132966043035914
      ],
      [
        "Ġnucle",
        -10.134537551797449
      ],
      [
        "Ġstring",
        -10.135064943618206
      ],
      [
        "Ġconsideration",
        -10.135611315951063
      ],
      [
        "Ġleav",
        -10.135979868158278
      ],
      [
        "Ġship",
        -10.136116479061188
      ],
      [
        "Ġopinion",
        -10.13669110672298
      ],
      [
        "Ġsaving",
        -10.13669209657058
      ],
      [
        "Ġplent",
        -10.136716547186609
      ],
      [
        "ĠChina",
        -10.136726619197074
      ],
      [
        "-year",
        -10.136790120026728
      ],
      [
        "list",
        -10.136882317808016
      ],
      [
        "uit",
        -10.137141074918013
      ],
      [
        "Ġpreviously",
        -10.137753477536693
      ],
      [
        "Ġprepare",
        -10.138277344436537
      ],
      [
        "RNA",
        -10.138558268355972
      ],
      [
        "Ġmajority",
        -10.139223003830937
      ],
      [
        "Ġclinical",
        -10.139718294892848
      ],
      [
        "wood",
        -10.139740984634557
      ],
      [
        "/or",
        -10.140113901916216
      ],
      [
        "Ġfuse",
        -10.140190884865667
      ],
      [
        "Ġmine",
        -10.140216449298215
      ],
      [
        "ĠEn",
        -10.140469004982307
      ],
      [
        "Ġscene",
        -10.140561643729068
      ],
      [
        "Ġborder",
        -10.140791656680538
      ],
      [
        "Ġalter",
        -10.141414942871272
      ],
      [
        "Ġhistorical",
        -10.14208513525688
      ],
      [
        "Ġwish",
        -10.142113229007489
      ],
      [
        "ola",
        -10.142666121781756
      ],
      [
        "Ġmeeting",
        -10.143369675341544
      ],
      [
        "Ġbecom",
        -10.14348971500162
      ],
      [
        "weight",
        -10.143516629244136
      ],
      [
        "Ġweed",
        -10.143614324042726
      ],
      [
        "Ġqu",
        -10.143930740740268
      ],
      [
        "ĠNi",
        -10.144393515645929
      ],
      [
        "nflammation",
        -10.14442782547106
      ],
      [
        "Ġvessel",
        -10.144430806840742
      ],
      [
        "Ġsmart",
        -10.144481753363827
      ],
      [
        "Ġversatil",
        -10.144498776722257
      ],
      [
        "Ġtopics",
        -10.145662585261888
      ],
      [
        "Ġpainting",
        -10.14580626441489
      ],
      [
        "Ġautomatic",
        -10.146527338944368
      ],
      [
        "Use",
        -10.146886359152411
      ],
      [
        "ĠMarch",
        -10.147192426109838
      ],
      [
        "Ġprimari",
        -10.14732493299907
      ],
      [
        "Ġcalci",
        -10.147762750634516
      ],
      [
        "Ġhospital",
        -10.148318563070092
      ],
      [
        "Ġsecret",
        -10.14831861106826
      ],
      [
        "Ġargument",
        -10.148318684810206
      ],
      [
        "Com",
        -10.149171268153342
      ],
      [
        "Ġpose",
        -10.14983309351746
      ],
      [
        "Ġprior",
        -10.149894655029314
      ],
      [
        "PS",
        -10.149919903528383
      ],
      [
        "ĠGoogle",
        -10.149970369934668
      ],
      [
        "Yes",
        -10.150268558876922
      ],
      [
        "ĠOut",
        -10.150481546153529
      ],
      [
        "ories",
        -10.151147013839385
      ],
      [
        "ĠAfrican",
        -10.15186118206536
      ],
      [
        "Ġorganiz",
        -10.152120161571109
      ],
      [
        "ĠCanada",
        -10.152225252362818
      ],
      [
        "Ġgift",
        -10.152234354724726
      ],
      [
        "Ġinner",
        -10.153572780389451
      ],
      [
        "hot",
        -10.153837002759788
      ],
      [
        "heat",
        -10.154381319772014
      ],
      [
        "proof",
        -10.15455848431908
      ],
      [
        "hill",
        -10.15506024308571
      ],
      [
        "Ġmath",
        -10.155307228780533
      ],
      [
        "resistant",
        -10.155433330055557
      ],
      [
        "Ġjournal",
        -10.15596497208725
      ],
      [
        "Ġinstrument",
        -10.156146402490164
      ],
      [
        "Ġminimum",
        -10.156147333891337
      ],
      [
        "times",
        -10.156493530217965
      ],
      [
        "Ġseven",
        -10.157636197587127
      ],
      [
        "Ġhormone",
        -10.158071352783914
      ],
      [
        "tech",
        -10.158705312270271
      ],
      [
        "ogen",
        -10.158876852895872
      ],
      [
        "Ġuniverse",
        -10.160085044619404
      ],
      [
        "Ġemployee",
        -10.160207565451016
      ],
      [
        "Ġguidelines",
        -10.160229987949045
      ],
      [
        "Ġgrain",
        -10.16024531754686
      ],
      [
        "Ġexcessive",
        -10.160655487490745
      ],
      [
        "Ġpolluti",
        -10.162227964919277
      ],
      [
        "My",
        -10.162627713474365
      ],
      [
        "oil",
        -10.163184275408565
      ],
      [
        "Ġprinciples",
        -10.16347473276252
      ],
      [
        "ĠGreat",
        -10.164329860903788
      ],
      [
        "ĠBio",
        -10.164405548401142
      ],
      [
        "Ġowners",
        -10.164432275392242
      ],
      [
        "Ġgate",
        -10.165160193666768
      ],
      [
        "cious",
        -10.16545447866616
      ],
      [
        "AP",
        -10.165626972330603
      ],
      [
        "Your",
        -10.165701778188234
      ],
      [
        "ĠAny",
        -10.166932529582926
      ],
      [
        "Ġlayers",
        -10.167246217139027
      ],
      [
        "Ġinstitution",
        -10.168004212485052
      ],
      [
        "Let",
        -10.168058517960192
      ],
      [
        "Ġchip",
        -10.168563564595171
      ],
      [
        "Ġwouldn",
        -10.168633747483533
      ],
      [
        "Ġstatement",
        -10.17073058298045
      ],
      [
        "ME",
        -10.17138987707864
      ],
      [
        "Ġresponsibilit",
        -10.171988276131108
      ],
      [
        "Ġintelligence",
        -10.17200528878972
      ],
      [
        "ĠCha",
        -10.172130078121056
      ],
      [
        "Ġlaser",
        -10.172548368777612
      ],
      [
        "ĠFe",
        -10.173015647368914
      ],
      [
        "org",
        -10.173494262754351
      ],
      [
        "Ġgraphic",
        -10.173642941442411
      ],
      [
        "oke",
        -10.17384730329898
      ],
      [
        "Ġcast",
        -10.174499888077635
      ],
      [
        "put",
        -10.175160289283376
      ],
      [
        "Ġanxiet",
        -10.17528208641323
      ],
      [
        "Ð",
        -10.17598827612076
      ],
      [
        "Ġcoffee",
        -10.175988284033734
      ],
      [
        "ĠApril",
        -10.175992721130331
      ],
      [
        "Ġglucos",
        -10.17601199962802
      ],
      [
        "ache",
        -10.176165971010304
      ],
      [
        "gener",
        -10.176816715938449
      ],
      [
        "vel",
        -10.178048717230327
      ],
      [
        "rack",
        -10.17857972453913
      ],
      [
        "Ġtun",
        -10.178679625745993
      ],
      [
        "opt",
        -10.178990429204887
      ],
      [
        "Ġnamed",
        -10.17918147073788
      ],
      [
        "Ġobjective",
        -10.17921197037997
      ],
      [
        "told",
        -10.179979087089617
      ],
      [
        "Ġgather",
        -10.18009023818432
      ],
      [
        "Ġtoxic",
        -10.180140799993836
      ],
      [
        "Ġdefinite",
        -10.18025472392086
      ],
      [
        "Ġsurvival",
        -10.18088488269947
      ],
      [
        "Ġproduc",
        -10.181313258886105
      ],
      [
        "Ġcontribut",
        -10.18195612614395
      ],
      [
        "æ",
        -10.184036598442336
      ],
      [
        "Ġbeauty",
        -10.184037561320086
      ],
      [
        "ĠFree",
        -10.184068145811828
      ],
      [
        "ĠJune",
        -10.184094691573756
      ],
      [
        "Ġillness",
        -10.184098843283918
      ],
      [
        "Hi",
        -10.18446624384308
      ],
      [
        "Ġborn",
        -10.18460137792014
      ],
      [
        "Ġremov",
        -10.184624428545112
      ],
      [
        "Ġdecide",
        -10.18505221773008
      ],
      [
        "Ġpreserv",
        -10.185164965781698
      ],
      [
        "Ġobservation",
        -10.185238670992645
      ],
      [
        "have",
        -10.185382222064538
      ],
      [
        "ines",
        -10.185761850571438
      ],
      [
        "Ġworse",
        -10.185774107308315
      ],
      [
        "ĠBi",
        -10.18622012393427
      ],
      [
        "Ġreceiv",
        -10.186366636027962
      ],
      [
        "Ġadopt",
        -10.187286831046771
      ],
      [
        "Ġconfirm",
        -10.188085357244828
      ],
      [
        "Ġofficial",
        -10.188086930764408
      ],
      [
        "Ġkidney",
        -10.18810582236101
      ],
      [
        "Ġcompetition",
        -10.188117766498111
      ],
      [
        "Ġcircle",
        -10.18842046035698
      ],
      [
        "Ġsale",
        -10.18911624758956
      ],
      [
        "tail",
        -10.189679480462452
      ],
      [
        "ĠJo",
        -10.190672863972562
      ],
      [
        "Ġcommunicate",
        -10.192150222724912
      ],
      [
        "Answer",
        -10.192207247474704
      ],
      [
        "Most",
        -10.192838605761928
      ],
      [
        "Ġmission",
        -10.193355444602629
      ],
      [
        "Ġprogramm",
        -10.193376387952013
      ],
      [
        "ney",
        -10.193386084184102
      ],
      [
        "Ġtract",
        -10.194524598993912
      ],
      [
        "wan",
        -10.194611867676604
      ],
      [
        "Ġrealize",
        -10.195029882472712
      ],
      [
        "Ġsta",
        -10.195607999005569
      ],
      [
        "Ġextensive",
        -10.19623187407253
      ],
      [
        "Ġdestroy",
        -10.196236778432176
      ],
      [
        "Ġtitle",
        -10.196242374751291
      ],
      [
        "Ġoccurr",
        -10.196532569840072
      ],
      [
        "Ġshark",
        -10.1965885772395
      ],
      [
        "Ġintend",
        -10.19691947421394
      ],
      [
        "nal",
        -10.197169337918996
      ],
      [
        "Ġprepared",
        -10.19806267252934
      ],
      [
        "rib",
        -10.198556072842385
      ],
      [
        "Ġmill",
        -10.199815088964105
      ],
      [
        "Ġsick",
        -10.200029053204153
      ],
      [
        "Ġfinger",
        -10.200101881509053
      ],
      [
        "`",
        -10.200330211195904
      ],
      [
        "ĠInternational",
        -10.20033022490609
      ],
      [
        "Ġcomparison",
        -10.200331295603087
      ],
      [
        "Ġnerve",
        -10.200444488819368
      ],
      [
        "with",
        -10.200675733550892
      ],
      [
        "Ġfoundation",
        -10.20081000836548
      ],
      [
        "ING",
        -10.20097069141788
      ],
      [
        "ĠDu",
        -10.201291823083912
      ],
      [
        "Ġmat",
        -10.201630986270494
      ],
      [
        "LA",
        -10.201672373243774
      ],
      [
        "ĠLike",
        -10.20186387861404
      ],
      [
        "ken",
        -10.202451096420214
      ],
      [
        "ĠMedi",
        -10.204046250719784
      ],
      [
        "rine",
        -10.204196908212188
      ],
      [
        "Conclusion",
        -10.204445442213832
      ],
      [
        "Ġchronic",
        -10.20444549746437
      ],
      [
        "Ġpolicy",
        -10.204445585368752
      ],
      [
        "Ġmountain",
        -10.20445072924694
      ],
      [
        "Ġsunlight",
        -10.20468310727894
      ],
      [
        "Ġpathway",
        -10.204693054290049
      ],
      [
        "Le",
        -10.205011790319569
      ],
      [
        "gle",
        -10.20554349993734
      ],
      [
        "ĠVol",
        -10.20626876500269
      ],
      [
        "Ġmild",
        -10.20896264936924
      ],
      [
        "mil",
        -10.209044802221433
      ],
      [
        "pla",
        -10.20955340691734
      ],
      [
        "SO",
        -10.20961519598952
      ],
      [
        "Ġminimize",
        -10.210013413162931
      ],
      [
        "hood",
        -10.21009590175906
      ],
      [
        "Ġrot",
        -10.210482675475102
      ],
      [
        "life",
        -10.21173353693504
      ],
      [
        "Ġfin",
        -10.21180745717194
      ],
      [
        "Ġutiliz",
        -10.212112698875188
      ],
      [
        "del",
        -10.212441924998434
      ],
      [
        "Ġderive",
        -10.212830963714431
      ],
      [
        "Ġfoster",
        -10.212992800651032
      ],
      [
        "PR",
        -10.213044903353293
      ],
      [
        "Ġexam",
        -10.213277477376431
      ],
      [
        "Ġconventional",
        -10.213627596140752
      ],
      [
        "Ġfamiliar",
        -10.214757111148312
      ],
      [
        "ental",
        -10.214810389962366
      ],
      [
        "Ġtail",
        -10.215568916950495
      ],
      [
        "ĠChi",
        -10.21676141377181
      ],
      [
        "Ġinnovative",
        -10.21689372299438
      ],
      [
        "Ġclient",
        -10.217031081189894
      ],
      [
        "Ġcrack",
        -10.217193622507422
      ],
      [
        "Ġga",
        -10.21726459823414
      ],
      [
        "According",
        -10.21765812326318
      ],
      [
        "ĠThrough",
        -10.21769428558538
      ],
      [
        "Ġtown",
        -10.217865300160572
      ],
      [
        "mph",
        -10.218365244498791
      ],
      [
        "Ġseat",
        -10.220297672937582
      ],
      [
        "ĠMac",
        -10.22035647587083
      ],
      [
        "lov",
        -10.22071278136687
      ],
      [
        "Ġsteam",
        -10.221079104172874
      ],
      [
        "Ġwoman",
        -10.2210837369417
      ],
      [
        "ional",
        -10.22113734221525
      ],
      [
        "Ġparameter",
        -10.221144388554112
      ],
      [
        "Ġdental",
        -10.221302255948492
      ],
      [
        "Ġalign",
        -10.2215613262656
      ],
      [
        "Ġtrick",
        -10.2215776591008
      ],
      [
        "Ġcho",
        -10.224124851850338
      ],
      [
        "Ġprinter",
        -10.224474715822184
      ],
      [
        "ugh",
        -10.225240898475557
      ],
      [
        "Ġbehaviour",
        -10.225279498963214
      ],
      [
        "Ġstretch",
        -10.225281660735847
      ],
      [
        "Ġdomain",
        -10.22584530025779
      ],
      [
        "Ġvarie",
        -10.225851441462115
      ],
      [
        "ĠWrit",
        -10.22800579013277
      ],
      [
        "Ġprove",
        -10.228178118892796
      ],
      [
        "Ġwasn",
        -10.228264759252
      ],
      [
        "Ġfields",
        -10.229037720303166
      ],
      [
        "Ġcareer",
        -10.229217771675508
      ],
      [
        "ĠTime",
        -10.229270730377683
      ],
      [
        "even",
        -10.229273979475128
      ],
      [
        "Ġaudience",
        -10.229498917814738
      ],
      [
        "Ġprofile",
        -10.22949981030667
      ],
      [
        "Ġthrow",
        -10.229617354817536
      ],
      [
        "ĠTi",
        -10.229819829565317
      ],
      [
        "Ġbrick",
        -10.229953719997113
      ],
      [
        "Ġutilize",
        -10.230126431146193
      ],
      [
        "pat",
        -10.230223591243668
      ],
      [
        "place",
        -10.230924179031906
      ],
      [
        "count",
        -10.231035643730335
      ],
      [
        "Ġwin",
        -10.231269844037609
      ],
      [
        "ĠOpen",
        -10.231610936476564
      ],
      [
        "zo",
        -10.231705248519985
      ],
      [
        "Ġliver",
        -10.233263366479036
      ],
      [
        "ĠFu",
        -10.233527435833702
      ],
      [
        "tur",
        -10.233553993952947
      ],
      [
        "Ġemail",
        -10.233973651185782
      ],
      [
        "Ġmask",
        -10.233982638323148
      ],
      [
        "Ġlie",
        -10.234908739147462
      ],
      [
        "ĠSA",
        -10.2353472676113
      ],
      [
        "Ġbug",
        -10.235589245420217
      ],
      [
        "Ġinteraction",
        -10.236311858408056
      ],
      [
        "La",
        -10.236619751884778
      ],
      [
        "Table",
        -10.236624616828028
      ],
      [
        "Ġcloser",
        -10.237477488362504
      ],
      [
        "ET",
        -10.237611259177807
      ],
      [
        "ģ",
        -10.23792764932973
      ],
      [
        "Ġprecise",
        -10.237991621583802
      ],
      [
        "Ġradiation",
        -10.23799165684234
      ],
      [
        "Ġworksheet",
        -10.238179611480192
      ],
      [
        "loc",
        -10.239367610249236
      ],
      [
        "ĠDesign",
        -10.239573290333428
      ],
      [
        "ĠBlack",
        -10.239792918451752
      ],
      [
        "MP",
        -10.239929694750934
      ],
      [
        "Ġexcess",
        -10.241651846840178
      ],
      [
        "las",
        -10.241746277741871
      ],
      [
        "Ġorganizations",
        -10.242240838090016
      ],
      [
        "Ġarchitecture",
        -10.242293699087144
      ],
      [
        "Ġpictures",
        -10.242649813524856
      ],
      [
        "Ġdensit",
        -10.24287656473831
      ],
      [
        "ĠUp",
        -10.24381319193381
      ],
      [
        "Ġopening",
        -10.244236758194573
      ],
      [
        "Ġfisher",
        -10.245252259911029
      ],
      [
        "PT",
        -10.245472008729514
      ],
      [
        "Ġdecided",
        -10.24590835480616
      ],
      [
        "MA",
        -10.24601749618493
      ],
      [
        "Ġparticipat",
        -10.246062154861663
      ],
      [
        "Ġboil",
        -10.246299268407911
      ],
      [
        "More",
        -10.246312747687652
      ],
      [
        "Ġappeal",
        -10.246614069017545
      ],
      [
        "Ġarray",
        -10.246666254642562
      ],
      [
        "Ġhorses",
        -10.246680436724382
      ],
      [
        "box",
        -10.248232410758384
      ],
      [
        "ĠII",
        -10.248653663204111
      ],
      [
        "type",
        -10.24998137268323
      ],
      [
        "ĠHuman",
        -10.250469369021562
      ],
      [
        "ĠSee",
        -10.250590384753243
      ],
      [
        "roo",
        -10.250773987517707
      ],
      [
        "ĠâĢĺ",
        -10.250867209793196
      ],
      [
        "Chapter",
        -10.250904512885771
      ],
      [
        "Ġtrouble",
        -10.250952684701186
      ],
      [
        "Ġnut",
        -10.251599775041464
      ],
      [
        "chemistry",
        -10.251944298987002
      ],
      [
        "rising",
        -10.252378622814309
      ],
      [
        "print",
        -10.25252026881124
      ],
      [
        "Ġsaying",
        -10.252688708679932
      ],
      [
        "Me",
        -10.255034903035906
      ],
      [
        "Ġmanufacturing",
        -10.255196213981542
      ],
      [
        "Ġzero",
        -10.25519918026258
      ],
      [
        "Ġvalid",
        -10.255200257094822
      ],
      [
        "Ġtrail",
        -10.25525140096933
      ],
      [
        "Ġhousehold",
        -10.255286308084592
      ],
      [
        "ĠEast",
        -10.255935588209988
      ],
      [
        "ĠHave",
        -10.256314899859603
      ],
      [
        "Ġchose",
        -10.25666646916855
      ],
      [
        "Ġintroduc",
        -10.257676028463216
      ],
      [
        "Ġprinting",
        -10.25816287098743
      ],
      [
        "SS",
        -10.258619704506266
      ],
      [
        "ĠCare",
        -10.258708202958925
      ],
      [
        "Ġhoney",
        -10.259605348980193
      ],
      [
        "ĠSet",
        -10.260009302550774
      ],
      [
        "Ġtests",
        -10.26003881162843
      ],
      [
        "path",
        -10.260646939538708
      ],
      [
        "Ġrow",
        -10.262551598979243
      ],
      [
        "Ġadvantages",
        -10.2625814849402
      ],
      [
        "Ġchoos",
        -10.26263924147419
      ],
      [
        "November",
        -10.263910894597023
      ],
      [
        "hand",
        -10.264669287039546
      ],
      [
        "Ġfac",
        -10.264679151300314
      ],
      [
        "Ġnation",
        -10.264950062159834
      ],
      [
        "ĠWork",
        -10.26527004500609
      ],
      [
        "Last",
        -10.265601907909849
      ],
      [
        "ĠAg",
        -10.265824025506843
      ],
      [
        "tell",
        -10.266111953103552
      ],
      [
        "ĠHu",
        -10.266460447922729
      ],
      [
        "ĠBoth",
        -10.266591761206
      ],
      [
        "Ġworm",
        -10.26699472164507
      ],
      [
        "Ġapart",
        -10.267088431669649
      ],
      [
        "Ġenhanc",
        -10.267835118796633
      ],
      [
        "Ġmistake",
        -10.268377295139436
      ],
      [
        "Ġfacilit",
        -10.268713546206923
      ],
      [
        "UN",
        -10.26895574315244
      ],
      [
        "ĠLight",
        -10.269164251921543
      ],
      [
        "Ġpane",
        -10.26934529628756
      ],
      [
        "Ġpool",
        -10.26977311890797
      ],
      [
        "Ġnovel",
        -10.270601802665022
      ],
      [
        "alytic",
        -10.270951852495612
      ],
      [
        "Ġlock",
        -10.27134456041446
      ],
      [
        "Ġroute",
        -10.2714566708667
      ],
      [
        "ike",
        -10.271772824955674
      ],
      [
        "Ġsold",
        -10.272164767522057
      ],
      [
        "Ġpar",
        -10.272533214161973
      ],
      [
        "Ġdatabase",
        -10.272867807955295
      ],
      [
        "Ġusage",
        -10.272885162521906
      ],
      [
        "last",
        -10.273187135212767
      ],
      [
        "Ġstable",
        -10.273191247386675
      ],
      [
        "tory",
        -10.27323073109767
      ],
      [
        "Ġpreparation",
        -10.27327129942142
      ],
      [
        "ĠDoes",
        -10.273779352532458
      ],
      [
        "Ġ**",
        -10.274454573597795
      ],
      [
        "Ġeliminate",
        -10.274580422680929
      ],
      [
        "BC",
        -10.274599188506512
      ],
      [
        "ĠVe",
        -10.27470755003299
      ],
      [
        "Ġencounter",
        -10.27712699272612
      ],
      [
        "Source",
        -10.27721427844596
      ],
      [
        "flow",
        -10.277737392008298
      ],
      [
        "ama",
        -10.278060137009502
      ],
      [
        "ĠLong",
        -10.27813046179343
      ],
      [
        "ography",
        -10.279208028345472
      ],
      [
        "referred",
        -10.279353459065684
      ],
      [
        "name",
[...]
