{
  "version": "1.0",
  "truncation": null,
  "padding": null,
  "added_tokens": [
    {
      "id": 0,
      "content": "<|bos|>",
      "single_word": false,
      "lstrip": false,
      "rstrip": false,
      "normalized": false,
      "special": true
    },
    {
      "id": 1,
      "content": "<|user_start|>",
      "single_word": false,
      "lstrip": false,
      "rstrip": false,
      "normalized": false,
      "special": true
    },
    {
      "id": 2,
      "content": "<|user_end|>",
      "single_word": false,
      "lstrip": false,
      "rstrip": false,
      "normalized": false,
      "special": true
    },
    {
      "id": 3,
      "content": "<|assistant_start|>",
      "single_word": false,
      "lstrip": false,
      "rstrip": false,
      "normalized": false,
      "special": true
    },
    {
      "id": 4,
      "content": "<|assistant_end|>",
      "single_word": false,
      "lstrip": false,
      "rstrip": false,
      "normalized": false,
      "special": true
    },
    {
      "id": 5,
      "content": "<|python_start|>",
      "single_word": false,
      "lstrip": false,
      "rstrip": false,
      "normalized": false,
      "special": true
    },
    {
      "id": 6,
      "content": "<|python_end|>",
      "single_word": false,
      "lstrip": false,
      "rstrip": false,
      "normalized": false,
      "special": true
    },
    {
      "id": 7,
      "content": "<|output_start|>",
      "single_word": false,
      "lstrip": false,
      "rstrip": false,
      "normalized": false,
      "special": true
    },
    {
      "id": 8,
      "content": "<|output_end|>",
      "single_word": false,
      "lstrip": false,
      "rstrip": false,
      "normalized": false,
      "special": true
    },
    {
      "id": 9,
      "content": "<|unk|>",
      "single_word": false,
      "lstrip": false,
      "rstrip": false,
      "normalized": false,
      "special": true
    }
  ],
  "normalizer": null,
  "pre_tokenizer": {
    "type": "Sequence",
    "pretokenizers": [
      {
        "type": "Split",
        "pattern": {
          "Regex": "'(?i:[sdmt]|ll|ve|re)|[^\\r\\n\\p{L}\\p{N}]?+\\p{L}+|\\p{N}{1,2}| ?[^\\s\\p{L}\\p{N}]++[\\r\\n]*|\\s*[\\r\\n]|\\s+(?!\\S)|\\s+"
        },
        "behavior": "Isolated",
        "invert": false
      },
      {
        "type": "ByteLevel",
        "add_prefix_space": false,
        "trim_offsets": true,
        "use_regex": false
      }
    ]
  },
  "post_processor": {
    "type": "TemplateProcessing",
    "single": [
      {
        "Sequence": {
          "id": "A",
          "type_id": 0
        }
      }
    ],
    "pair": [
      {
        "Sequence": {
          "id": "A",
          "type_id": 0
        }
      },
      {
        "Sequence": {
          "id": "B",
          "type_id": 1
        }
      }
    ],
    "special_tokens": {}
  },
  "decoder": {
    "type": "ByteLevel",
    "add_prefix_space": true,
    "trim_offsets": true,
    "use_regex": true
  },
  "model": {
    "type": "Unigram",
    "unk_id": 9,
    "vocab": [
      [
        "<|bos|>",
        0.0
      ],
      [
        "<|user_start|>",
        0.0
      ],
      [
        "<|user_end|>",
        0.0
      ],
      [
        "<|assistant_start|>",
        0.0
      ],
      [
        "<|assistant_end|>",
        0.0
      ],
      [
        "<|python_start|>",
        0.0
      ],
      [
        "<|python_end|>",
        0.0
      ],
      [
        "<|output_start|>",
        0.0
      ],
      [
        "<|output_end|>",
        0.0
      ],
      [
        "<|unk|>",
        0.0
      ],
      [
        "Ġ",
        -2.594955958319769
      ],
      [
        "Ġthe",
        -3.344835490540095
      ],
      [
        ",",
        -3.388882629900106
      ],
      [
        ".",
        -3.675712487374757
      ],
      [
        "Ġand",
        -3.884621925643057
      ],
      [
        "a",
        -3.8993486384872025
      ],
      [
        "s",
        -3.8995683012106106
      ],
      [
        "Ġto",
        -3.9246689946206352
      ],
      [
        "Ġof",
        -3.927455349916928
      ],
      [
        "Ġin",
        -4.446354091290461
      ],
      [
        "Ġis",
        -4.546848128815947
      ],
      [
        "'",
        -4.852431082747424
      ],
      [
        "Ġthat",
        -4.9672114440658675
      ],
      [
        "0",
        -4.974351817924232
      ],
      [
        "Ġfor",
        -4.9958651348645375
      ],
      [
        "1",
        -5.104465100125754
      ],
      [
        "Ġare",
        -5.158930674548261
      ],
      [
        "t",
        -5.175438014128247
      ],
      [
        ":",
        -5.188213801235332
      ],
      [
        "Ġyou",
        -5.245365462365115
      ],
      [
        "Ċ",
        -5.273689736083606
      ],
      [
        ".Ċ",
        -5.2758951464973265
      ],
      [
        "Ġit",
        -5.29312800997589
      ],
      [
        ".ĊĊ",
        -5.3057161146581855
      ],
      [
        "2",
        -5.313423707085345
      ],
      [
        "Ġwith",
        -5.321948597733501
      ],
      [
        "-",
        -5.425702586194527
      ],
      [
        "Ġon",
        -5.447879339355358
      ],
      [
        "Ġor",
        -5.459194547170972
      ],
      [
        "Ġcan",
        -5.467596411588863
      ],
      [
        "Ġbe",
        -5.469005497516886
      ],
      [
        "Ġas",
        -5.476105819559605
      ],
      [
        "(",
        -5.584415006026957
      ],
      [
        "Ġyour",
        -5.636971276089934
      ],
      [
        "ĊĊ",
        -5.659288625204917
      ],
      [
        "I",
        -5.674143223587825
      ],
      [
        "\"",
        -5.696117573578004
      ],
      [
        "Ġhave",
        -5.815374681157339
      ],
      [
        "Ġfrom",
        -5.837048403085197
      ],
      [
        "ĠThe",
        -5.864743173132139
      ],
      [
        "ing",
        -5.9091110378055
      ],
      [
        "Ġby",
        -5.91393114043268
      ],
      [
        "3",
        -5.953067938991307
      ],
      [
        "Ġan",
        -5.9724046998568365
      ],
      [
        ")",
        -5.982727159229867
      ],
      [
        "Ġthis",
        -5.997555947916881
      ],
      [
        "5",
        -6.015682605450612
      ],
      [
        "?",
        -6.040005084869636
      ],
      [
        "i",
        -6.053377475841961
      ],
      [
        "o",
        -6.065911835706647
      ],
      [
        "Ġnot",
        -6.076516298210043
      ],
      [
        "Ġwill",
        -6.157580514036951
      ],
      [
        "4",
        -6.164123549588346
      ],
      [
        "Ġtheir",
        -6.16645638883368
      ],
      [
        "Ġthey",
        -6.188037858344435
      ],
      [
        "d",
        -6.2563086331617725
      ],
      [
        "ed",
        -6.26465418522068
      ],
      [
        "9",
        -6.265031416590979
      ],
      [
        "Ġmore",
        -6.2844272029991295
      ],
      [
        "n",
        -6.287949551502463
      ],
      [
        "e",
        -6.309591255068673
      ],
      [
        "Ġwas",
        -6.312131639298604
      ],
      [
        "A",
        -6.321197563577034
      ],
      [
        "The",
        -6.355590248943711
      ],
      [
        "f",
        -6.421773668771593
      ],
      [
        "6",
        -6.42467311277329
      ],
      [
        "Ġbut",
        -6.427707835288658
      ],
      [
        "Ġwe",
        -6.430447569319197
      ],
      [
        "Ġwhich",
        -6.438945066762971
      ],
      [
        "Ġhas",
        -6.44199914325878
      ],
      [
        "8",
        -6.457410838598385
      ],
      [
        "Ġone",
        -6.526437868494149
      ],
      [
        "Ġalso",
        -6.53005851946919
      ],
      [
        "Question",
        -6.532748894050284
      ],
      [
        "ĠAnswer",
        -6.556022510391532
      ],
      [
        "7",
        -6.5660067758216645
      ],
      [
        "y",
        -6.572053878519517
      ],
      [
        "Ġabout",
        -6.606901578038874
      ],
      [
        "Ġall",
        -6.6098130025643265
      ],
      [
        "Ġother",
        -6.66409023477447
      ],
      [
        "Ġwhen",
        -6.6960008950872965
      ],
      [
        "ĠIt",
        -6.6987293256713
      ],
      [
        "Ġthem",
        -6.731021638670072
      ],
      [
        "Ġdo",
        -6.751113487828203
      ],
      [
        "Ġtime",
        -6.7574423805762756
      ],
      [
        "Ġinto",
        -6.773642753606529
      ],
      [
        "Ġlike",
        -6.775103003060952
      ],
      [
        "ĠThis",
        -6.811816815235803
      ],
      [
        "ly",
        -6.814016664425717
      ],
      [
        "Ġmay",
        -6.8375649105874725
      ],
      [
        "Ġuse",
        -6.84301341687315
      ],
      [
        "Ġup",
        -6.845001625564279
      ],
      [
        "Ġsome",
        -6.853827890507809
      ],
      [
        "m",
        -6.859048295830178
      ],
      [
        "Ġthan",
        -6.865165860236255
      ],
      [
        "Ġout",
        -6.872815317681264
      ],
      [
        "ĠWhat",
        -6.888327323882585
      ],
      [
        "Ġthese",
        -6.896700046149057
      ],
      [
        "Ġhow",
        -6.9077547231143335
      ],
      [
        "Ġthere",
        -6.943150052806992
      ],
      [
        "Ġused",
        -6.970296081375517
      ],
      [
        "Ġwater",
        -6.975584988009771
      ],
      [
        "Ġwhat",
        -6.9795059436841544
      ],
      [
        "Ġour",
        -7.00035948349138
      ],
      [
        "Ġits",
        -7.036301847196134
      ],
      [
        "Ġmake",
        -7.047728560345373
      ],
      [
        "Ġsuch",
        -7.047945183823499
      ],
      [
        "Ġwere",
        -7.065407197925175
      ],
      [
        "Ġmost",
        -7.075140238832008
      ],
      [
        "re",
        -7.097164433011686
      ],
      [
        "Ġpeople",
        -7.1087595548012
      ],
      [
        "Ġbeen",
        -7.111979897277237
      ],
      [
        "ĠIn",
        -7.124812390965806
      ],
      [
        "Ġany",
        -7.12893080826694
      ],
      [
        "Ġshould",
        -7.162996935420695
      ],
      [
        "Ġwould",
        -7.173855488368826
      ],
      [
        "Ġhelp",
        -7.17715891218001
      ],
      [
        "/",
        -7.181929024856817
      ],
      [
        "Ġonly",
        -7.187070530825464
      ],
      [
        "Ġget",
        -7.187611172954886
      ],
      [
        "Ġneed",
        -7.190250741485885
      ],
      [
        "Ġjust",
        -7.201349530465491
      ],
      [
        "Ġmany",
        -7.2186865098226
      ],
      [
        "Ġwho",
        -7.227082551759201
      ],
      [
        "Ġnew",
        -7.230245178268991
      ],
      [
        ";",
        -7.25888677339187
      ],
      [
        "Ġtwo",
        -7.263876769438207
      ],
      [
        "Ġwell",
        -7.279470640579968
      ],
      [
        "Ġfirst",
        -7.290084516252589
      ],
      [
        "Ġover",
        -7.295138646512145
      ],
      [
        "Ġthrough",
        -7.31847035224326
      ],
      [
        "Ġway",
        -7.332661985383187
      ],
      [
        "r",
        -7.344708650766195
      ],
      [
        "Ġmy",
        -7.355626557176304
      ],
      [
        "Ġdifferent",
        -7.356378993432774
      ],
      [
        "Ġbetween",
        -7.358608846614308
      ],
      [
        "Ġwork",
        -7.381986446578843
      ],
      [
        "Ġusing",
        -7.387195699781625
      ],
      [
        "Ġwhere",
        -7.387993000645656
      ],
      [
        "Ġno",
        -7.401021138425317
      ],
      [
        "Ġbecause",
        -7.4076470520763795
      ],
      [
        "?Ċ",
        -7.419829653988614
      ],
      [
        "ĠIf",
        -7.432836693214297
      ],
      [
        "Ġcould",
        -7.443549386084674
      ],
      [
        "Ġvery",
        -7.45846481233983
      ],
      [
        "Ġeven",
        -7.47584082955164
      ],
      [
        "ĠThey",
        -7.480143227012872
      ],
      [
        "Ġhigh",
        -7.49554751120745
      ],
      [
        "he",
        -7.500746255019648
      ],
      [
        "Ġsystem",
        -7.500911187525603
      ],
      [
        "Ġmuch",
        -7.513431400398568
      ],
      [
        "Ġeach",
        -7.514418050182115
      ],
      [
        "Ġimportant",
        -7.543029028849981
      ],
      [
        "Ġknow",
        -7.5500708458950285
      ],
      [
        "!",
        -7.550195762751096
      ],
      [
        "Ġgood",
        -7.552473377612568
      ],
      [
        "?ĊĊ",
        -7.559420740408408
      ],
      [
        "Ġhad",
        -7.565382284962874
      ],
      [
        "In",
        -7.576403803276522
      ],
      [
        "Ġyears",
        -7.579349248216783
      ],
      [
        "Ġdoes",
        -7.582743749658638
      ],
      [
        "ĠâĢĵ",
        -7.583253134563472
      ],
      [
        "ĠYou",
        -7.59290826470901
      ],
      [
        "Ġwhile",
        -7.59754782403218
      ],
      [
        "Ġhis",
        -7.599456615610054
      ],
      [
        "Ġfood",
        -7.604265549866461
      ],
      [
        "Ġtake",
        -7.612091041445893
      ],
      [
        "Ġdon",
        -7.6210722882633455
      ],
      [
        "Ġlong",
        -7.624071075919472
      ],
      [
        "c",
        -7.633983200812924
      ],
      [
        ").",
        -7.635730495455286
      ],
      [
        "Ġbeing",
        -7.636911177746374
      ],
      [
        "Ġwant",
        -7.661947282578094
      ],
      [
        "Ġafter",
        -7.667408882668592
      ],
      [
        "Ġsee",
        -7.683118734845603
      ],
      [
        "Ġduring",
        -7.685802062692298
      ],
      [
        "Ġaround",
        -7.687892974135698
      ],
      [
        "Ġbefore",
        -7.695575668266695
      ],
      [
        "Ġsame",
        -7.697326949444905
      ],
      [
        "able",
        -7.708133829543076
      ],
      [
        "Ġthose",
        -7.728961130237023
      ],
      [
        "Ġhealth",
        -7.733493806572861
      ],
      [
        "Ġoften",
        -7.752965664462664
      ],
      [
        "Ġworld",
        -7.7551015599340705
      ],
      [
        "Ġboth",
        -7.757950629744402
      ],
      [
        "Ġlife",
        -7.761064093126281
      ],
      [
        "Ġenergy",
        -7.763152637641005
      ],
      [
        "What",
        -7.767536805244218
      ],
      [
        "Ġdata",
        -7.769453857468642
      ],
      [
        "%",
        -7.777910641755328
      ],
      [
        "Ġbest",
        -7.77916633656835
      ],
      [
        "Ġprocess",
        -7.785724904370914
      ],
      [
        "Ġfound",
        -7.792818460820637
      ],
      [
        "Ġbody",
        -7.797563501305122
      ],
      [
        "Ġmade",
        -7.801393836188318
      ],
      [
        "D",
        -7.804720002959975
      ],
      [
        "Ġback",
        -7.809831121911303
      ],
      [
        "Ġpart",
        -7.824293470669547
      ],
      [
        "p",
        -7.83550348011063
      ],
      [
        "),",
        -7.839301570633523
      ],
      [
        "Ġright",
        -7.844497606454343
      ],
      [
        "Ġfind",
        -7.847856474069085
      ],
      [
        "Ġdown",
        -7.849369536530759
      ],
      [
        "Ġsmall",
        -7.854745274600246
      ],
      [
        "Ġlight",
        -7.866592985166264
      ],
      [
        "Ġinformation",
        -7.877963238036578
      ],
      [
        "Ġyear",
        -7.878546360016644
      ],
      [
        "Ġday",
        -7.88161371577454
      ],
      [
        "Ġnumber",
        -7.888238478035094
      ],
      [
        "Ġsaid",
        -7.890002791502262
      ],
      [
        "Ġspecies",
        -7.895642893788885
      ],
      [
        "This",
        -7.906329370936595
      ],
      [
        "ĠFor",
        -7.907167058048627
      ],
      [
        "ĠWe",
        -7.91040590566573
      ],
      [
        "b",
        -7.915226239236759
      ],
      [
        "Ġprovide",
        -7.918628215068631
      ],
      [
        "Ġus",
        -7.925447073652084
      ],
      [
        ":Ċ",
        -7.928970445222667
      ],
      [
        "Ġmight",
        -7.930838619495169
      ],
      [
        "ll",
        -7.936563357195993
      ],
      [
        "ĠThese",
        -7.959368401190174
      ],
      [
        "Ġgo",
        -7.961918194794116
      ],
      [
        "Ġnow",
        -7.963312763185712
      ],
      [
        "Ġpower",
        -7.963536665318104
      ],
      [
        "Ġbetter",
        -7.966869103890296
      ],
      [
        "Ġhome",
        -7.968048717152792
      ],
      [
        "Ġresearch",
        -7.973087725324705
      ],
      [
        "S",
        -7.979865774500784
      ],
      [
        "g",
        -7.980112360571328
      ],
      [
        "l",
        -7.980368837980629
      ],
      [
        "Ġwithout",
        -7.982209825645409
      ],
      [
        "Ġchange",
        -7.991213842939384
      ],
      [
        "Ġstudents",
        -7.998194504816635
      ],
      [
        "Ġstill",
        -7.998615924206412
      ],
      [
        "If",
        -7.998619123511535
      ],
      [
        "Ġme",
        -7.9994921405400845
      ],
      [
        "Ġthink",
        -8.001557421048918
      ],
      [
        "Ġher",
        -8.001820629180195
      ],
      [
        "ĠC",
        -8.002177056110073
      ],
      [
        "Ġexample",
        -8.002971487910662
      ],
      [
        "Ġair",
        -8.007172708923306
      ],
      [
        "Ġown",
        -8.007316348456179
      ],
      [
        "Ġplant",
        -8.011329774218957
      ],
      [
        "ve",
        -8.015452539734495
      ],
      [
        "h",
        -8.018150101811408
      ],
      [
        "Ġkeep",
        -8.019132453212123
      ],
      [
        "Ġincluding",
        -8.022200286268559
      ],
      [
        "Ġplants",
        -8.02507535042496
      ],
      [
        "Ġevery",
        -8.026139157585467
      ],
      [
        "Ġlook",
        -8.028170332046365
      ],
      [
        "Ġtype",
        -8.02936475171712
      ],
      [
        "Ġmaking",
        -8.030216979642962
      ],
      [
        "ĠTo",
        -8.033764935487033
      ],
      [
        "How",
        -8.039885046052849
      ],
      [
        "Ġstudy",
        -8.050860091841685
      ],
      [
        "Ġcreate",
        -8.051111684552039
      ],
      [
        "Ġfew",
        -8.053927180154258
      ],
      [
        "=",
        -8.056125839062966
      ],
      [
        "Ġoff",
        -8.056333191373708
      ],
      [
        "Ġcommon",
        -8.060981229955011
      ],
      [
        "...",
        -8.06161305447156
      ],
      [
        "Ġdog",
        -8.065445087330303
      ],
      [
        "Ġless",
        -8.074240048843032
      ],
      [
        "Ġknown",
        -8.076546698525362
      ],
      [
        "Ġthree",
        -8.08607384451208
      ],
      [
        "Ġlarge",
        -8.089659531865491
      ],
      [
        ":ĊĊ",
        -8.094547190563071
      ],
      [
        "Ġcause",
        -8.094572334190445
      ],
      [
        "ĠBut",
        -8.111621867930667
      ],
      [
        "Ġlot",
        -8.118954729261269
      ],
      [
        "Ġchildren",
        -8.125939089690759
      ],
      [
        "Ġthings",
        -8.127732139196228
      ],
      [
        "Ġhuman",
        -8.128339699271557
      ],
      [
        "[",
        -8.133476229321573
      ],
      [
        "âĢĶ",
        -8.137291799858279
      ],
      [
        "Ġcontrol",
        -8.139954248004178
      ],
      [
        "Ġplace",
        -8.142494243419417
      ],
      [
        "Ġmust",
        -8.143959921333694
      ],
      [
        "Ġsure",
        -8.144154067463992
      ],
      [
        "Ġset",
        -8.146630303377808
      ],
      [
        "Ġgreat",
        -8.148516224877845
      ],
      [
        "ĠHowever",
        -8.1511768458547
      ],
      [
        "ĠAnd",
        -8.152081477893134
      ],
      [
        "Ġcalled",
        -8.154379318162517
      ],
      [
        "Ġwithin",
        -8.154689455085876
      ],
      [
        "Ġexperience",
        -8.175900607154498
      ],
      [
        "Ġinclude",
        -8.178102439052642
      ],
      [
        "Ġunder",
        -8.186221840136078
      ],
      [
        "Ġwhy",
        -8.190710673208407
      ],
      [
        "ĠB",
        -8.197351289483743
      ],
      [
        "Ġreally",
        -8.199547867151175
      ],
      [
        "Ġsomething",
        -8.20153849999579
      ],
      [
        "and",
        -8.206359226016776
      ],
      [
        "ĠAs",
        -8.21312959425946
      ],
      [
        "$",
        -8.217842881850324
      ],
      [
        "in",
        -8.219528406311504
      ],
      [
        "Ġfollowing",
        -8.221615248739724
      ],
      [
        "ĠWhen",
        -8.221850447628983
      ],
      [
        "Ġdue",
        -8.22417734577421
      ],
      [
        "Ġpossible",
        -8.225051365761555
      ],
      [
        "Ġanother",
        -8.22757214962456
      ],
      [
        "Ġpoint",
        -8.22779439329854
      ],
      [
        "Ġform",
        -8.229450940104028
      ],
      [
        "Ġgoing",
        -8.23745393954486
      ],
      [
        "Ġbecome",
        -8.23749093730321
      ],
      [
        "Ġlow",
        -8.239033307052011
      ],
      [
        "Ġcome",
        -8.239186758136567
      ],
      [
        "Ġlevel",
        -8.24815144137132
      ],
      [
        "Ġnatural",
        -8.250058451307936
      ],
      [
        "Ġend",
        -8.25408403840554
      ],
      [
        "Ġrange",
        -8.256794668275568
      ],
      [
        "Ġhere",
        -8.259928484241268
      ],
      [
        "Ġcar",
        -8.262783105671234
      ],
      [
        "ĠHow",
        -8.265951649902682
      ],
      [
        "Ġvarious",
        -8.266032259203257
      ],
      [
        "Ġcells",
        -8.26814093247847
      ],
      [
        "Ġcare",
        -8.27329608978342
      ],
      [
        "Ġstart",
        -8.274444758174146
      ],
      [
        "ĠSo",
        -8.27461060206403
      ],
      [
        "Ġlittle",
        -8.274618416915585
      ],
      [
        "ĠThere",
        -8.275439220330536
      ],
      [
        "x",
        -8.275484075921408
      ],
      [
        "Ġalways",
        -8.276869198768518
      ],
      [
        "Ġspecific",
        -8.291611710837577
      ],
      [
        "Ġmeans",
        -8.291640423342367
      ],
      [
        "Ġsize",
        -8.300502216851882
      ],
      [
        "Ġtemperature",
        -8.301498408261532
      ],
      [
        "Ġspace",
        -8.30630931038633
      ],
      [
        "Ġdid",
        -8.30734635477301
      ],
      [
        "Ġblood",
        -8.309332766984337
      ],
      [
        "Ġsupport",
        -8.315492215307906
      ],
      [
        "Ġdesign",
        -8.318775537068618
      ],
      [
        "Ġpotential",
        -8.32882560984259
      ],
      [
        "Ġsoil",
        -8.331497304463758
      ],
      [
        "Ġavailable",
        -8.336159214367889
      ],
      [
        "Ġshe",
        -8.338391167601825
      ],
      [
        "Ġenvironment",
        -8.34104551888295
      ],
      [
        "Ġdisease",
        -8.342546382839512
      ],
      [
        "Ġproblem",
        -8.34534427912906
      ],
      [
        "Ġensure",
        -8.34660886912017
      ],
      [
        "Ġlearn",
        -8.350209315437782
      ],
      [
        "Ġfeel",
        -8.353218986050852
      ],
      [
        "Ġseveral",
        -8.355836464756468
      ],
      [
        "Ġmain",
        -8.356837946086417
      ],
      [
        "the",
        -8.357173124335151
      ],
      [
        "Ġneeds",
        -8.358564069810862
      ],
      [
        "&",
        -8.358885962708088
      ],
      [
        "Ġheat",
        -8.360893162992028
      ],
      [
        "Ġlearning",
        -8.361403169297391
      ],
      [
        "Ġtypes",
        -8.363769130724766
      ],
      [
        "Ġper",
        -8.367768128036866
      ],
      [
        "Ġbased",
        -8.367813076586668
      ],
      [
        "Ġgive",
        -8.368786909315107
      ],
      [
        "Ġareas",
        -8.374280773422642
      ],
      [
        "Ġschool",
        -8.378608306299437
      ],
      [
        "Ġsurface",
        -8.378794103242367
      ],
      [
        "Ġrisk",
        -8.38040663115558
      ],
      [
        "Ġdevelopment",
        -8.382023890773047
      ],
      [
        "Ġenough",
        -8.388438613018806
      ],
      [
        "Ġusually",
        -8.39530016829638
      ],
      [
        "Ġquality",
        -8.397075965173668
      ],
      [
        "ĠWhich",
        -8.399219661917419
      ],
      [
        "Ġtext",
        -8.401212970125084
      ],
      [
        "Ġlast",
        -8.402420102060027
      ],
      [
        "Ġanimals",
        -8.409636221812608
      ],
      [
        "Ġconditions",
        -8.412492107444201
      ],
      [
        "T",
        -8.413571898580798
      ],
      [
        "When",
        -8.416022934898633
      ],
      [
        "Ġcolor",
        -8.419401739215218
      ],
      [
        "on",
        -8.429163285113134
      ],
      [
        "Ġorder",
        -8.43018867628854
      ],
      [
        "Ġgroup",
        -8.432343385544664
      ],
      [
        "Ġtechnology",
        -8.433347000342005
      ],
      [
        "Ġunderstand",
        -8.434670099956316
      ],
      [
        "Ġsystems",
        -8.43752006490501
      ],
      [
        "Ġside",
        -8.441865896993708
      ],
      [
        "Ġpressure",
        -8.45014969022747
      ],
      [
        "Ġmaterials",
        -8.450891509797893
      ],
      [
        "Ġperson",
        -8.466310271913814
      ],
      [
        "Ġsince",
        -8.467895479730341
      ],
      [
        "Ġamount",
        -8.47265431406321
      ],
      [
        "th",
        -8.473186983063478
      ],
      [
        "Ġstate",
        -8.473303067171031
      ],
      [
        "Ġuntil",
        -8.474137235220137
      ],
      [
        "Ġtogether",
        -8.47456150044272
      ],
      [
        "Ġmakes",
        -8.477731648728497
      ],
      [
        "Ġfish",
        -8.480328392615407
      ],
      [
        "Ġcase",
        -8.481794672946084
      ],
      [
        "Ġcurrent",
        -8.486705606605309
      ],
      [
        "Ġsay",
        -8.48935238309226
      ],
      [
        "Ġoil",
        -8.49154853503339
      ],
      [
        "Ġresult",
        -8.491565468164742
      ],
      [
        "Ġincrease",
        -8.49441343083896
      ],
      [
        "Ġfamily",
        -8.494638983851706
      ],
      [
        "Ġage",
        -8.494947134780272
      ],
      [
        "Ġlead",
        -8.496296478503256
      ],
      [
        "Ġtimes",
        -8.497381051208489
      ],
      [
        "Ġlevels",
        -8.49864783901505
      ],
      [
        "Ġmaterial",
        -8.49975917160196
      ],
      [
        "Ġessential",
        -8.501240752217518
      ],
      [
        "You",
        -8.501615138020572
      ],
      [
        "Ġaway",
        -8.501985277253024
      ],
      [
        "Ġtop",
        -8.503444160786183
      ],
      [
        "Ġproblems",
        -8.503556020676173
      ],
      [
        "Ġimpact",
        -8.505419091885987
      ],
      [
        "k",
        -8.509488281667107
      ],
      [
        "Ġhaving",
        -8.514620203649429
      ],
      [
        "v",
        -8.515667112780958
      ],
      [
        "Ġput",
        -8.517734773696175
      ],
      [
        "Ġsecond",
        -8.51820967079555
      ],
      [
        "Ġnext",
        -8.518813066957375
      ],
      [
        "Ġworking",
        -8.521029031640387
      ],
      [
        "Ġkey",
        -8.524436692425024
      ],
      [
        "Ġresults",
        -8.526792711260596
      ],
      [
        "Ġprevent",
        -8.528088763670453
      ],
      [
        "Ġnon",
        -8.530060858228241
      ],
      [
        "C",
        -8.532313420521897
      ],
      [
        "Ġname",
        -8.534053670944477
      ],
      [
        "Ġreduce",
        -8.535243879448169
      ],
      [
        "ĠBy",
        -8.535441971499024
      ],
      [
        "Ġproducts",
        -8.53918911803192
      ],
      [
        "Ġfree",
        -8.539621667480052
      ],
      [
        "+",
        -8.540715791949609
      ],
      [
        "Ġweight",
        -8.54309005861729
      ],
      [
        "Ġtreatment",
        -8.543359655180938
      ],
      [
        "Ġcourse",
        -8.543432411777026
      ],
      [
        "Ġhand",
        -8.544920192195367
      ],
      [
        "Ġhigher",
        -8.54743955234936
      ],
      [
        "ĠThat",
        -8.547950691128671
      ],
      [
        "Ġearly",
        -8.548395126721646
      ],
      [
        "Ġvalue",
        -8.549053658964201
      ],
      [
        "Ġeasy",
        -8.550326473778467
      ],
      [
        "Ġgrowth",
        -8.552578313507242
      ],
      [
        "]",
        -8.555806554488074
      ],
      [
        "Ġlikely",
        -8.559722316807758
      ],
      [
        "There",
        -8.562664670216684
      ],
      [
        "Ġcomes",
        -8.562794324396826
      ],
      [
        "Ġdays",
        -8.566370331341345
      ],
      [
        "Ġteam",
        -8.567798629746699
      ],
      [
        "Ġlocal",
        -8.568250865363852
      ],
      [
        "Ġmethod",
        -8.568976456474475
      ],
      [
        "Ġactually",
        -8.571487014525834
      ],
      [
        "âĢĻs",
        -8.574123531742076
      ],
      [
        "Ġleast",
        -8.574617450050788
      ],
      [
        "Ġline",
        -8.576300090098522
      ],
      [
        "u",
        -8.57673680983396
      ],
      [
        "Ġdoesn",
        -8.577851237414572
      ],
      [
        "ĠUniversity",
        -8.578773877119842
      ],
      [
        "Ġchild",
        -8.578996086373268
      ],
      [
        "Ġrole",
        -8.579733602820376
      ],
      [
        "Ġlower",
        -8.579991668322435
      ],
      [
        "Ġhealthy",
        -8.581164006041433
      ],
      [
        "ĠHe",
        -8.582008048365939
      ],
      [
        "We",
        -8.583257494105458
      ],
      [
        "Ġopen",
        -8.58359582363391
      ],
      [
        "Ġshow",
        -8.584636068399426
      ],
      [
        "Ġprogram",
        -8.590116976543488
      ],
      [
        "Ġfull",
        -8.591569983766968
      ],
      [
        "Ġproject",
        -8.592686446777709
      ],
      [
        "Ġchanges",
        -8.592849561498419
      ],
      [
        "Ġtest",
        -8.595110457357293
      ],
      [
        "Ġsimple",
        -8.598816485209888
      ],
      [
        "Ġarea",
        -8.602867331087639
      ],
      [
        "Ġfuture",
        -8.605160253798397
      ],
      [
        "Ġplay",
        -8.607015422878051
      ],
      [
        "Ġissues",
        -8.60879038590568
      ],
      [
        "Ġcost",
        -8.612352493618987
      ],
      [
        "Ġpresent",
        -8.61345048889778
      ],
      [
        "Ġthing",
        -8.614051105774758
      ],
      [
        "Ġproduction",
        -8.624090518136038
      ],
      [
        "Ġunique",
        -8.624278897772935
      ],
      [
        "Ġespecially",
        -8.624784558073907
      ],
      [
        "Ġalong",
        -8.624967245404465
      ],
      [
        "Ġmodel",
        -8.627813591585449
      ],
      [
        "Ġfield",
        -8.632058838589957
      ],
      [
        "Ġfunction",
        -8.633912638152937
      ],
      [
        "Ġcell",
        -8.634603563940367
      ],
      [
        "Ġabove",
        -8.634849190223951
      ],
      [
        "Ġacross",
        -8.636229072159384
      ],
      [
        "Ġdogs",
        -8.642888419064093
      ],
      [
        "Ġdone",
        -8.645340783452648
      ],
      [
        "Ġlive",
        -8.646279868207536
      ],
      [
        "Ġdamage",
        -8.649772078169702
      ],
      [
        "Ġcertain",
        -8.650172062889117
      ],
      [
        "Ġagainst",
        -8.650677576616989
      ],
      [
        "Ġgrow",
        -8.652037735000041
      ],
      [
        "Ġadd",
        -8.655191966174593
      ],
      [
        "Ġgiven",
        -8.65653106548627
      ],
      [
        "Ġhard",
        -8.662666568090522
      ],
      [
        "ĠWith",
        -8.662798580062136
      ],
      [
        "or",
        -8.663593572340487
      ],
      [
        "Ġwhite",
        -8.665763251529903
      ],
      [
        "Ġskin",
        -8.665831150333846
      ],
      [
        "*",
        -8.66826061839116
      ],
      [
        "Ġeye",
        -8.668515650073733
      ],
      [
        "Ġlet",
        -8.669552273411444
      ],
      [
        "Ġsingle",
        -8.670285849481456
      ],
      [
        "Ġnever",
        -8.671731371404281
      ],
      [
        "Ġsocial",
        -8.672682781051304
      ],
      [
        "Ġsource",
        -8.675503093049043
      ],
      [
        "Ġpaper",
        -8.686106380254897
      ],
      [
        "Ġdiet",
        -8.68768577794595
      ],
      [
        "To",
        -8.688391866945068
      ],
      [
        "Ġold",
        -8.690202558130022
      ],
      [
        "Ġothers",
        -8.69210980817263
      ],
      [
        "Ġstep",
        -8.697061620600138
      ],
      [
        "Ġtry",
        -8.698615014670343
      ],
      [
        "Ġeffects",
        -8.698786146407377
      ],
      [
        "Ġphysical",
        -8.69885461118496
      ],
      [
        "âĢĵ",
        -8.70089878524773
      ],
      [
        "Ġbook",
        -8.706288900761598
      ],
      [
        "Ġimprove",
        -8.706417532045966
      ],
      [
        "Ġunderstanding",
        -8.706736842379472
      ],
      [
        "Ġbenefits",
        -8.70698265186351
      ],
      [
        "Ġsimilar",
        -8.711003649770696
      ],
      [
        "Ġlooking",
        -8.712772949512965
      ],
      [
        "Ġsays",
        -8.713340364734496
      ],
      [
        "_",
        -8.7136182534171
      ],
      [
        "Ġconsider",
        -8.71385281051578
      ],
      [
        "Ġsignificant",
        -8.715187249040614
      ],
      [
        "Ġways",
        -8.715577204881262
      ],
      [
        "Ġfactors",
        -8.718587792712011
      ],
      [
        "Ġclimate",
        -8.719835980075194
      ],
      [
        ")Ċ",
        -8.721229948492537
      ],
      [
        "Ġfar",
        -8.72363365368891
      ],
      [
        "ĠYour",
        -8.7242412772441
      ],
      [
        "Ġtraining",
        -8.725942576820255
      ],
      [
        "Ġproduce",
        -8.72744957805407
      ],
      [
        "Ġfact",
        -8.728370419324994
      ],
      [
        "Ġreal",
        -8.730678488922512
      ],
      [
        "ĠSome",
        -8.732156896536937
      ],
      [
        "Ġeither",
        -8.73685329226054
      ],
      [
        "Ġdesigned",
        -8.737002897634225
      ],
      [
        "eat",
        -8.740291267675785
      ],
      [
        "!ĊĊ",
        -8.742420636742834
      ],
      [
        "Ġanimal",
        -8.74647109688553
      ],
      [
        "Ġparts",
        -8.74744730585827
      ],
      [
        "Ġonce",
        -8.7494063985183
      ],
      [
        "For",
        -8.75001025669748
      ],
      [
        "ĠNew",
        -8.750486327265834
      ],
      [
        "Ġfurther",
        -8.751106317213662
      ],
      [
        "Ġcomputer",
        -8.751252515285334
      ],
      [
        "is",
        -8.752102260409448
      ],
      [
        "Ġaccording",
        -8.753377575246795
      ],
      [
        "Ġaddition",
        -8.753750928069264
      ],
      [
        "Ġtoday",
        -8.75415373582267
      ],
      [
        "Ġfour",
        -8.754540238115572
      ],
      [
        "Ġmillion",
        -8.755874171653915
      ],
      [
        "Ġscience",
        -8.758835753388038
      ],
      [
        "Ġperformance",
        -8.759118080597274
      ],
      [
        "Ġspeed",
        -8.759583964236409
      ],
      [
        "Ġshort",
        -8.759695239720322
      ],
      [
        "Ġleft",
        -8.762071096001149
      ],
      [
        "Ġwhether",
        -8.765806036981987
      ],
      [
        "Ġoffer",
        -8.767591206210493
      ],
      [
        "Ġeffective",
        -8.768059448989273
      ],
      [
        "Ġread",
        -8.769494181363086
      ],
      [
        "Ġgetting",
        -8.771189556229483
      ],
      [
        "Ġheart",
        -8.771416748344901
      ],
      [
        "Ġhead",
        -8.771997784734799
      ],
      [
        "Ġground",
        -8.772333749485131
      ],
      [
        "ĠM",
        -8.77243747085962
      ],
      [
        "Ġhim",
        -8.772470121529658
      ],
      [
        "Ġdifference",
        -8.77265943892853
      ],
      [
        "Ġmove",
        -8.773321374188011
      ],
      [
        "Ġallows",
        -8.775463011015525
      ],
      [
        "Ġgame",
        -8.776721145448453
      ],
      [
        "Ġproduct",
        -8.779193995333834
      ],
      [
        "Ġeffect",
        -8.780120962706057
      ],
      [
        "Ġnecessary",
        -8.782298435648736
      ],
      [
        "Ġskills",
        -8.7859428686309
      ],
      [
        "Ġbelow",
        -8.78648865871904
      ],
      [
        "Ġvariety",
        -8.787022147908008
      ],
      [
        "Ġability",
        -8.788251259513375
      ],
      [
        "Ġgas",
        -8.788720474172624
      ],
      [
        "Ġhelps",
        -8.789746143525225
      ],
      [
        "Ġapproach",
        -8.79186115927903
      ],
      [
        "Ġimage",
        -8.797738938124901
      ],
      [
        "Ġclean",
        -8.798004485303998
      ],
      [
        "Ġloss",
        -8.79830723225879
      ],
      [
        "Ġindividual",
        -8.798778834159618
      ],
      [
        "Ġquestion",
        -8.799615066610913
      ],
      [
        "Ġrate",
        -8.802008247315847
      ],
      [
        "Ġtree",
        -8.8024402682319
      ],
      [
        "Ġprovides",
        -8.805585638861892
      ],
      [
        "ness",
        -8.806172085624567
      ],
      [
        "Ġaccess",
        -8.807495616394252
      ],
      [
        "Ġavoid",
        -8.80774490775527
      ],
      [
        "Ġalready",
        -8.811820199140184
      ],
      [
        "Ġbig",
        -8.812319776973933
      ],
      [
        "Ġhours",
        -8.815389821089909
      ],
      [
        "Ġfocus",
        -8.816650408653079
      ],
      [
        "Ġallow",
        -8.8167672921504
      ],
      [
        "Ġcommunity",
        -8.818688133469205
      ],
      [
        "Ġturn",
        -8.819881259534409
      ],
      [
        "Ġdry",
        -8.82020306185812
      ],
      [
        "Ġcat",
        -8.820239995540222
      ],
      [
        "Ġcontent",
        -8.821934222974576
      ],
      [
        "Ġsafe",
        -8.822617130035445
      ],
      [
        "Ġamong",
        -8.822968428931139
      ],
      [
        "us",
        -8.823540181695543
      ],
      [
        "Ġsafety",
        -8.82383263892022
      ],
      [
        "Ġneeded",
        -8.824713757094361
      ],
      [
        "Ġhistory",
        -8.824908854809623
      ],
      [
        "Ġrun",
        -8.825651741934767
      ],
      [
        ")ĊĊ",
        -8.826300430024576
      ],
      [
        "Ġlove",
        -8.828263248730156
      ],
      [
        "Ġbrain",
        -8.828383204850535
      ],
      [
        "Ġreason",
        -8.829596109296551
      ],
      [
        "Ġfeatures",
        -8.831890955554258
      ],
      [
        "Ġdevelop",
        -8.833086889305811
      ],
      [
        "Ġdoing",
        -8.83407834379292
      ],
      [
        "Ġrequire",
        -8.834597951203808
      ],
      [
        "Ġindustry",
        -8.837519576546875
      ],
      [
        "Ġthough",
        -8.838002312027829
      ],
      [
        "ĠIs",
        -8.83977928175458
      ],
      [
        "Ġblack",
        -8.840300181341206
      ],
      [
        "Ġkind",
        -8.844710451127924
      ],
      [
        "Ġpain",
        -8.847378856912592
      ],
      [
        "Ġinside",
        -8.848224696344476
      ],
      [
        "Ġarticle",
        -8.84964953126622
      ],
      [
        "Ġpublic",
        -8.850999406289855
      ],
      [
        "Ġcarbon",
        -8.851266113566094
      ],
      [
        "Ġstructure",
        -8.851269321520954
      ],
      [
        "Ġuser",
        -8.851508028252274
      ],
      [
        "ĠOne",
        -8.852295415470323
      ],
      [
        "Ġsymptoms",
        -8.853952698310199
      ],
      [
        "Ġseen",
        -8.854428232843793
      ],
      [
        "Ġcheck",
        -8.85449743385901
      ],
      [
        "Ġrequired",
        -8.856203979758137
      ],
      [
        "Ġknowledge",
        -8.857204644322566
      ],
      [
        "Ġmajor",
        -8.85833085125379
      ],
      [
        "Ġonline",
        -8.858569031158053
      ],
      [
        "Ġleaves",
        -8.860017739512221
      ],
      [
        "Ġmean",
        -8.860706095379115
      ],
      [
        "Ġactivities",
        -8.861692251021077
      ],
      [
        "ĠU",
        -8.862980636242757
      ],
      [
        "Ġpopular",
        -8.864067552506487
      ],
      [
        "Ġgarden",
        -8.866151198365179
      ],
      [
        "Ġbuilding",
        -8.868101839692734
      ],
      [
        "Ġidea",
        -8.868664042546545
      ],
      [
        "Ġlonger",
        -8.87026192580477
      ],
      [
        "Ġsound",
        -8.870424916787291
      ],
      [
        "Ġbit",
        -8.872754683220483
      ],
      [
        "ĠAmerican",
        -8.877161119556485
      ],
      [
        "Ġagain",
        -8.878395233162637
      ],
      [
        "Ġred",
        -8.880456218670645
      ],
      [
        "!Ċ",
        -8.881020561561748
      ],
      [
        "B",
        -8.882697535685212
      ],
      [
        "Ġbusiness",
        -8.88274844484683
      ],
      [
        "Ġtools",
        -8.882802960673482
      ],
      [
        "Ġresearchers",
        -8.885583083742906
      ],
      [
        "ĠAI",
        -8.885829188431385
      ],
      [
        "Ġquestions",
        -8.886789255480135
      ],
      [
        "ĠP",
        -8.88851751656716
      ],
      [
        "Ġactivity",
        -8.889870350194096
      ],
      [
        "Ġcompany",
        -8.892343135537802
      ],
      [
        "Ġun",
        -8.895979748706706
      ],
      [
        "Ġwhole",
        -8.896073877736695
      ],
      [
        "Ġgreen",
        -8.897055849846026
      ],
      [
        "Ġmatter",
        -8.900029590569732
      ],
      [
        "Ġtaking",
        -8.90113951834492
      ],
      [
        "Ġliving",
        -8.902476326822525
      ],
      [
        "Ġmethods",
        -8.904695616639343
      ],
      [
        "Ġsomeone",
        -8.9053973763362
      ],
      [
        "Ġnature",
        -8.90745592258665
      ],
      [
        "Ġenvironmental",
        -8.909734186087938
      ],
      [
        "ies",
        -8.913053050285457
      ],
      [
        "Ġclass",
        -8.91415559054573
      ],
      [
        "Ġtypically",
        -8.914504260158177
      ],
      [
        "Ġclose",
        -8.914827393421328
      ],
      [
        "w",
        -8.915849286297446
      ],
      [
        "Ġmind",
        -8.917253545996784
      ],
      [
        "Ġeasily",
        -8.91740134045824
      ],
      [
        "Ġmonths",
        -8.922524229540558
      ],
      [
        "Ġself",
        -8.923889026269917
      ],
      [
        "Ġever",
        -8.924461086386493
      ],
      [
        "Ġperiod",
        -8.925156508848893
      ],
      [
        "Ġvideo",
        -8.925954459909724
      ],
      [
        "ĠNo",
        -8.926591582157547
      ],
      [
        "Ġhumans",
        -8.927003396291028
      ],
      [
        "Ġindividuals",
        -8.92834489987143
      ],
      [
        "Ġroom",
        -8.93130965462984
      ],
      [
        "Ġtrees",
        -8.933846504273278
      ],
      [
        "Ġsolution",
        -8.935328545534112
      ],
      [
        "Ġassociated",
        -8.935641195078357
      ],
      [
        "Ġgrowing",
        -8.936004293954596
      ],
      [
        "Ġaverage",
        -8.938818008258043
      ],
      [
        ".\"ĊĊ",
        -8.940413725034261
      ],
      [
        "Ġdevice",
        -8.941075594311767
      ],
      [
        "Ġmoney",
        -8.941846344465567
      ],
      [
        "Ġanswer",
        -8.9419609348609
      ],
      [
        "Ġtell",
        -8.942457825114076
      ],
      [
        "Ġcancer",
        -8.94294552013218
      ],
      [
        "O",
        -8.943812525779204
      ],
      [
        "Ġmanagement",
        -8.9441735062907
      ],
      [
        "Ġcontinue",
        -8.945055167560815
      ],
      [
        "Ġgeneral",
        -8.946416960637762
      ],
      [
        "Ġconsidered",
        -8.947368544609235
      ],
      [
        "Ġmedical",
        -8.949372090330618
      ],
      [
        "Ġoverall",
        -8.950292281503295
      ],
      [
        "Ġcold",
        -8.950582975427281
      ],
      [
        "Ġcrucial",
        -8.952208464188306
      ],
      [
        "Ġmarket",
        -8.952452504900252
      ],
      [
        "Ġstrong",
        -8.953157245909427
      ],
      [
        "Ġchoose",
        -8.953692437198063
      ],
      [
        "Ġminutes",
        -8.95387583871999
      ],
      [
        "Ġcases",
        -8.953942175525622
      ],
      [
        "Ġservice",
        -8.954835428033487
      ],
      [
        "Ġtechniques",
        -8.955025775815056
      ],
      [
        "Ġrather",
        -8.956168728167393
      ],
      [
        "Ġetc",
        -8.95681311140851
      ],
      [
        "Ġweek",
        -8.958595618666578
      ],
      [
        "Ġdifficult",
        -8.95890591859702
      ],
      [
        "Ġclear",
        -8.959967409367893
      ],
      [
        "Ġpositive",
        -8.960694035492523
      ],
      [
        "Ġresources",
        -8.961002806391987
      ],
      [
        "Ġsense",
        -8.961403530412097
      ],
      [
        "Ġpast",
        -8.962575391526066
      ],
      [
        "Ġpopulation",
        -8.963079721554873
      ],
      [
        "Ġpractice",
        -8.96489146798108
      ],
      [
        "Ġhouse",
        -8.967747366748881
      ],
      [
        "Ġbuild",
        -8.969394128863165
      ],
      [
        "Ġcreating",
        -8.970498860423161
      ],
      [
        "Ġpatients",
        -8.97336328518311
      ],
      [
        "Ġprimary",
        -8.974054138338996
      ],
      [
        "ĠE",
        -8.975748455680328
      ],
      [
        "Ġcomplex",
        -8.976829603621132
      ],
      [
        "Ġengine",
        -8.979030486243671
      ],
      [
        "Ġcondition",
        -8.979456426146385
      ],
      [
        "Ġhowever",
        -8.980429831637464
      ],
      [
        "Ġprotein",
        -8.980742990160305
      ],
      [
        "-based",
        -8.981584334052593
      ],
      [
        "Ġpost",
        -8.981966260548981
      ],
      [
        "Ġwomen",
        -8.982538255017122
      ],
      [
        "Ġbelieve",
        -8.983014288537136
      ],
      [
        "Ġissue",
        -8.983575405797037
      ],
      [
        "Ġhot",
        -8.983908368274703
      ],
      [
        "Ġplan",
        -8.983973107645276
      ],
      [
        "Ġquickly",
        -8.985169158139945
      ],
      [
        "Ġtraditional",
        -8.9855202976879
      ],
      [
        "Ġthroughout",
        -8.986518613263158
      ],
      [
        "Ġyourself",
        -8.988280217974719
      ],
      [
        "Ġcut",
        -8.992108905213897
      ],
      [
        "Ġremove",
        -8.996747855495265
      ],
      [
        "Ġyoung",
        -8.999319455413401
      ],
      [
        "Ġprofessional",
        -8.999936845775567
      ],
      [
        "ers",
        -9.000329555972288
      ],
      [
        "Ġlayer",
        -9.000965435351532
      ],
      [
        "So",
        -9.003904472836268
      ],
      [
        "Ġnear",
        -9.00725216335945
      ],
      [
        "Ġstress",
        -9.007695531545409
      ],
      [
        "Ġoutside",
        -9.008604392115105
      ],
      [
        "Ġcontact",
        -9.008686170204722
      ],
      [
        "an",
        -9.009768206292351
      ],
      [
        "Ġmultiple",
        -9.010198751287174
      ],
      [
        "Ġmachine",
        -9.011115251779698
      ],
      [
        "Ġincreased",
        -9.014444869732674
      ],
      [
        "|",
        -9.014673221635585
      ],
      [
        "Ġsimply",
        -9.015031333870134
      ],
      [
        "Ġprobably",
        -9.017888877691377
      ],
      [
        "âĢ¢",
        -9.018797784417792
      ],
      [
        "ĠWhile",
        -9.020352187500642
      ],
      [
        "Ġdeveloped",
        -9.021621774110102
      ],
      [
        "Ġshape",
        -9.026700275554472
      ],
      [
        "Ġlist",
        -9.02671891349706
      ],
      [
        "Ġoptions",
        -9.026809831550889
      ],
      [
        "Ġrelated",
        -9.027561112120644
      ],
      [
        "Ġworks",
        -9.029067994518115
      ],
      [
        "Ġcannot",
        -9.029128886675664
      ],
      [
        "Ġflow",
        -9.030390796303994
      ],
      [
        "Ġcreated",
        -9.030686744222308
      ],
      [
        "Ġpet",
        -9.031471817889363
      ],
      [
        "Ġbirds",
        -9.031919911390842
      ],
      [
        "Ġfeet",
        -9.0322036581139
      ],
      [
        ".\"Ċ",
        -9.032527883465995
      ],
      [
        "Ġspecial",
        -9.032809014629724
      ],
      [
        "Ġstudies",
        -9.033114344826004
      ],
      [
        "Ġart",
        -9.035089747096182
      ],
      [
        "al",
        -9.0351574867094
      ],
      [
        "ĠR",
        -9.040599122045313
      ],
      [
        "Ġwide",
        -9.041207821472057
      ],
      [
        "Ġparticular",
        -9.043997031974529
      ],
      [
        "Ġalmost",
        -9.045396335159955
      ],
      [
        "Ġeducation",
        -9.045955639017745
      ],
      [
        "Ġwaste",
        -9.046860211463857
      ],
      [
        "Ġbehavior",
        -9.047319267976896
      ],
      [
        "Ġincludes",
        -9.047648863441328
      ],
      [
        "One",
        -9.049567159688875
      ],
      [
        "Ġwinter",
        -9.052847349732998
      ],
      [
        "Ġtool",
        -9.052947153817268
      ],
      [
        "Ġdetermine",
        -9.053743613138243
      ],
      [
        "Ġfuel",
        -9.054179994597408
      ],
      [
        "ĠUnited",
        -9.054265958836917
      ],
      [
        "to",
        -9.05539511528904
      ],
      [
        "Ġgot",
        -9.055560847580004
      ],
      [
        "Ġnormal",
        -9.057139669190436
      ],
      [
        "Ġinstead",
        -9.057291140043558
      ],
      [
        "Ġposition",
        -9.057472346237471
      ],
      [
        "Ġprotect",
        -9.058426406284692
      ],
      [
        "Ġthought",
        -9.05852880967953
      ],
      [
        "Ġtotal",
        -9.058721235072166
      ],
      [
        "Ġsite",
        -9.060398078911314
      ],
      [
        "Ġelements",
        -9.061949157635029
      ],
      [
        "Ġservices",
        -9.062085652296622
      ],
      [
        "Ġcall",
        -9.062466979573998
      ],
      [
        "Ġlarger",
        -9.062579552908437
      ],
      [
        "Ġfive",
        -9.062641999381256
      ],
      [
        "Ġattention",
        -9.062813603695895
      ],
      [
        "Ġhalf",
        -9.06638795712558
      ],
      [
        "Ġland",
        -9.067121582369486
      ],
      [
        "ĠAt",
        -9.06740558561802
      ],
      [
        "Ġdeep",
        -9.067846047748754
      ],
      [
        "Ġmodern",
        -9.067860207022816
      ],
      [
        "Ġauthor",
        -9.068824041034778
      ],
      [
        "Ġbasic",
        -9.074137362713444
      ],
      [
        "Ġlater",
        -9.076667093027751
      ],
      [
        "Ġwon",
        -9.07812182895147
      ],
      [
        "ĠAn",
        -9.078908670184344
      ],
      [
        "Ġchoice",
        -9.078988257296846
      ],
      [
        "Ġglobal",
        -9.0799459150943
      ],
      [
        "Ġpersonal",
        -9.082747332480832
      ],
      [
        "Ġchemical",
        -9.084617415340013
      ],
      [
        "Ġcompared",
        -9.085465365004287
      ],
      [
        "Ġscientists",
        -9.087364149378397
      ],
      [
        "ĠNational",
        -9.089002854511127
      ],
      [
        "Ġmaintain",
        -9.089713474387176
      ],
      [
        "Ġshown",
        -9.092731487245542
      ],
      [
        "Ġcauses",
        -9.094598543693865
      ],
      [
        "Ġsometimes",
        -9.09479062910333
      ],
      [
        "Ġapplications",
        -9.09520485658594
      ],
      [
        "Ġproviding",
        -9.096708576507485
      ],
      [
        "Ġanything",
        -9.098598111038632
      ],
      [
        "Ġyet",
        -9.098658407592383
      ],
      [
        "Ġface",
        -9.099010922676063
      ],
      [
        "Ġeverything",
        -9.09980496708028
      ],
      [
        "Ġtakes",
        -9.099998381169843
      ],
      [
        "Ġcomplete",
        -9.102235648225657
      ],
      [
        "Ġhold",
        -9.102480094647138
      ],
      [
        "Ġtrue",
        -9.10269977999103
      ],
      [
        "Ġeyes",
        -9.103891145713815
      ],
      [
        "Ġbattery",
        -9.10426891427565
      ],
      [
        "Ġpercent",
        -9.105632618903527
      ],
      [
        ").Ċ",
        -9.10591106394986
      ],
      [
        ">",
        -9.10796414839626
      ],
      [
        "Ġmetal",
        -9.108888923352788
      ],
      [
        "ĠAll",
        -9.109667254088988
      ],
      [
        "Ġshows",
        -9.110086693132086
      ],
      [
        "Ġcountry",
        -9.111376739331623
      ],
      [
        "Ġregular",
        -9.11253677418155
      ],
      [
        "Ġstay",
        -9.113555612411586
      ],
      [
        "ity",
        -9.114013786515187
      ],
      [
        "Ġcaused",
        -9.114217869328089
      ],
      [
        "Ġadditional",
        -9.114245238522235
      ],
      [
        "Ġquite",
        -9.115651895668654
      ],
      [
        "Ġweather",
        -9.116166161169993
      ],
      [
        "Ġgenerally",
        -9.116962535116834
      ],
      [
        "Ġcode",
        -9.117480827109954
      ],
      [
        "#",
        -9.120391516869882
      ],
      [
        "Ġshare",
        -9.120763126220508
      ],
      [
        "Ġlanguage",
        -9.121280646293377
      ],
      [
        "Ġtaken",
        -9.12169164601339
      ],
      [
        "Ġaffect",
        -9.121800003179718
      ],
      [
        "Ġbacteria",
        -9.123465864845508
      ],
      [
        "Ġequipment",
        -9.123623133407811
      ],
      [
        "Ġcomponents",
        -9.124379314147143
      ],
      [
        "Ġsoftware",
        -9.127951047100986
      ],
      [
        "Ġdevices",
        -9.128314552252588
      ],
      [
        "Ġanalysis",
        -9.128494001586889
      ],
      [
        "ĠHere",
        -9.13095295481958
      ],
      [
        "Ġsummer",
        -9.131274517021955
      ],
      [
        "Ġdigital",
        -9.131808790739877
      ],
      [
        "Ġbad",
        -9.133217896500344
      ],
      [
        "Ġoffers",
        -9.13398949654474
      ],
      [
        "Ġstarted",
        -9.135765358714751
      ],
      [
        "Ġsea",
        -9.141571734377443
      ],
      [
        "Why",
        -9.14229054760046
      ],
      [
        "Ġago",
        -9.143060307586754
      ],
      [
        "Ġperfect",
        -9.143782736861455
      ],
      [
        "Ġterms",
        -9.144317548697698
      ],
      [
        "Ġfoods",
        -9.144995611967996
      ],
      [
        "Ġterm",
        -9.14657520317562
      ],
      [
        "Ġbring",
        -9.148435703512572
      ],
      [
        "Ġreading",
        -9.148953387868236
      ],
      [
        "Ġtrying",
        -9.149794313949489
      ],
      [
        "Ġitself",
        -9.150946404060424
      ],
      [
        "Ġenjoy",
        -9.151579400207424
      ],
      [
        "ĠEarth",
        -9.153761705293292
      ],
      [
        "Ġthemselves",
        -9.155126634377512
      ],
      [
        "ĠDo",
        -9.159520735551643
      ],
      [
        "Ġpurpose",
        -9.159528531372946
      ],
      [
        "Ġprovided",
        -9.160316603919934
      ],
      [
        "Ġforce",
        -9.161222442182948
      ],
      [
        "Ġresponse",
        -9.161363349378655
      ],
      [
        "Ġproperties",
        -9.163813487779253
      ],
      [
        "Ġstop",
        -9.16412266736963
      ],
      [
        "Ġaction",
        -9.16650025151707
      ],
      [
        "Ġuses",
        -9.166532453301668
      ],
      [
        "Ġkids",
        -9.16730753237013
      ],
      [
        "ĠH",
        -9.170971857450828
      ],
      [
        "Ġsignal",
        -9.171657470573876
      ],
      [
        "Ġmentioned",
        -9.17303832245064
      ],
      [
        "Ġplastic",
        -9.17331356157615
      ],
      [
        "Ġfollow",
        -9.173585841220842
      ],
      [
        "Ġwords",
        -9.173731572328276
      ],
      [
        "Ġdaily",
        -9.17376867528692
      ],
      [
        "ĠDNA",
        -9.174027989629906
      ],
      [
        "Ġgroups",
        -9.175649629777656
      ],
      [
        "Ġwarm",
        -9.177593243563116
      ],
      [
        "Ġcover",
        -9.179169654416988
      ],
      [
        "Ġlength",
        -9.17978949084238
      ],
      [
        "Ġproper",
        -9.18078494675049
      ],
      [
        "Ġtreat",
        -9.181401170872483
      ],
      [
        "Ġmeat",
        -9.184908374699846
      ],
      [
        "Ġregion",
        -9.186162522989022
      ],
      [
        "Ġsmaller",
        -9.18666690341157
      ],
      [
        "Ġevidence",
        -9.18707150257115
      ],
      [
        "Ġmass",
        -9.187796990142708
      ],
      [
        "Ġadded",
        -9.18889049916916
      ],
      [
        "Ġbehind",
        -9.18959042567362
      ],
      [
        "Ġseason",
        -9.19108982186722
      ],
      [
        "Ġeating",
        -9.191219633500332
      ],
      [
        "Ġoption",
        -9.191927171629445
      ],
      [
        "Ġparticularly",
        -9.192018887607905
      ],
      [
        "ĠOn",
        -9.193253245462444
      ],
      [
        "ĠStates",
        -9.196341577026336
      ],
      [
        "Ġsteps",
        -9.197036205915706
      ],
      [
        "Ġstandard",
        -9.197284310606683
      ],
      [
        "Ġnight",
        -9.197379650440178
      ],
      [
        "Ġsugar",
        -9.198599760868357
      ],
      [
        "Ġrequires",
        -9.198809519709773
      ],
      [
        "Ġreach",
        -9.19960541460773
      ],
      [
        "Ġjob",
        -9.2007293698346
      ],
      [
        "Ġice",
        -9.202456657260733
      ],
      [
        "Ġfront",
        -9.204019674247126
      ],
      [
        "Ġvehicle",
        -9.205326607170996
      ],
      [
        "âĢ¦",
        -9.205483420498094
      ],
      [
        "Ġstudent",
        -9.205602519215226
      ],
      [
        "Ġfun",
        -9.206986665343369
      ],
      [
        "Ġwood",
        -9.208359566129806
      ],
      [
        "Ġdirectly",
        -9.209658012973884
      ],
      [
        "--",
        -9.21207454523667
      ],
      [
        "Ġacid",
        -9.212886618903577
      ],
      [
        "Ġmilk",
        -9.214953544857265
      ],
      [
        "ĠDr",
        -9.215720904389617
      ],
      [
        "ĠF",
        -9.216213289870456
      ],
      [
        "Ġparents",
        -9.218923803220047
      ],
      [
        "Ġapplication",
        -9.22025669768617
      ],
      [
        "Ġtowards",
        -9.220339413634925
      ],
      [
        "Ġleading",
        -9.220431437438474
      ],
      [
        "ĠAfter",
        -9.221139464537034
      ],
      [
        "Ġal",
        -9.22171346791415
      ],
      [
        "Ġinvolved",
        -9.222794683374216
      ],
      [
        "Ġhighly",
        -9.223038018085244
      ],
      [
        "M",
        -9.223401394245816
      ],
      [
        "Ġexplore",
        -9.22648335328396
      ],
      [
        "But",
        -9.22743311902633
      ],
      [
        "Ġentire",
        -9.229533995023326
      ],
      [
        "ĠCan",
        -9.232032263060818
      ],
      [
        "Ġstory",
        -9.232350189750328
      ],
      [
        "Ġfall",
        -9.232582616167456
      ],
      [
        "Ġexercise",
        -9.236264288454542
      ],
      [
        "Ġgenetic",
        -9.236734071926753
      ],
      [
        "Ġeveryone",
        -9.237720780628797
      ],
      [
        "Ġguide",
        -9.237923172956789
      ],
      [
        "Ġenhance",
        -9.238728913545946
      ],
      [
        "Ġproduced",
        -9.238829065490624
      ],
      [
        "Ġbase",
        -9.240457540483035
      ],
      [
        ").ĊĊ",
        -9.242575870101504
      ],
      [
        "Ġidentify",
        -9.242853137000644
      ],
      [
        "Ġteeth",
        -9.242872622160634
      ],
      [
        "Ġobject",
        -9.24377508434385
      ],
      [
        "ĠâĢľ",
        -9.244395486639656
      ],
      [
        "Ġdiseases",
        -9.24441785180123
      ],
      [
        "Ġmeet",
        -9.245180580574274
      ],
      [
        "Ġsleep",
        -9.246427171594076
      ],
      [
        "Q",
        -9.24762055604269
      ],
      [
        "Ġrest",
        -9.24833258007312
      ],
      [
        "Ġview",
        -9.250495810711236
      ],
      [
        "Ġsolar",
        -9.254599897228058
      ],
      [
        "Ġword",
        -9.25633511174712
      ],
      [
        "Ġcats",
        -9.256503959374166
      ],
      [
        ".S",
        -9.257417399317989
      ],
      [
        "Ġweeks",
        -9.258325870182253
      ],
      [
        "Ġstore",
        -9.259521175226563
      ],
      [
        "Ġelectric",
        -9.259990476567332
      ],
      [
        "Ġbalance",
        -9.26003133037188
      ],
      [
        "Ġdidn",
        -9.2603412740192
      ],
      [
        "Ġfresh",
        -9.261821731595338
      ],
      [
        "Ġgoal",
        -9.262334311342103
      ],
      [
        "Ġrecommended",
        -9.262780056188898
      ],
      [
        "Ġeasier",
        -9.263073194328175
      ],
      [
        "Ġwebsite",
        -9.263504781501505
      ],
      [
        "Ġbenefit",
        -9.264295394031285
      ],
      [
        "Ġunit",
        -9.265634049675368
      ],
      [
        "Ġrecent",
        -9.265711094719398
      ],
      [
        "Ġpoints",
        -9.265731458222906
      ],
      [
        "Ġcolors",
        -9.265967200177707
      ],
      [
        "Ġask",
        -9.26665036838194
      ],
      [
        "Ġmodels",
        -9.267108383842253
      ],
      [
        "Ġeggs",
        -9.268841743454589
      ],
      [
        "Ġfast",
        -9.27288162954157
      ],
      [
        "W",
        -9.273510033079653
      ],
      [
        "Ġreport",
        -9.273554314637906
      ],
      [
        "Ġblue",
        -9.27435874871156
      ],
      [
        "Ġsources",
        -9.27695644502042
      ],
      [
        "Ġextra",
        -9.277709448591924
      ],
      [
        "Ġcountries",
        -9.279896023512483
      ],
      [
        "Ġbuy",
        -9.280443942054736
      ],
      [
        "Ġfit",
        -9.280684260895052
      ],
      [
        "Ġitems",
        -9.28262564687057
      ],
      [
        "P",
        -9.28302767251973
      ],
      [
        "Ġmovement",
        -9.28468396649539
      ],
      [
        "Ġimages",
        -9.284765014781112
      ],
      [
        "Ġoccur",
        -9.28490358761097
      ],
      [
        "Ġevent",
        -9.286320117513425
      ],
      [
        "Ġtips",
        -9.286372896487912
      ],
      [
        "Ġprocesses",
        -9.286606791994084
      ],
      [
        "Ġevents",
        -9.289185186732954
      ],
      [
        "Ġlives",
        -9.289214941482063
      ],
      [
        "Ġwear",
        -9.289279187363949
      ],
      [
        "Ġsave",
        -9.28946320862556
      ],
      [
        "Ġrunning",
        -9.290595010651524
      ],
      [
        "Ġcompletely",
        -9.293512729527576
      ],
      [
        "Ġpatient",
        -9.293940774412556
      ],
      [
        "Ġstyle",
        -9.29405392405733
      ],
      [
        "ĠScience",
        -9.295403187973392
      ],
      [
        "Ġsun",
        -9.29614099233174
      ],
      [
        "Ġcontribute",
        -9.296567357972505
      ],
      [
        "Ġgreater",
        -9.297746775853096
      ],
      [
        "Ġuseful",
        -9.297843131112018
      ],
      [
        "ĠN",
        -9.29862855794214
      ],
      [
        "Ġmedia",
        -9.299757337288844
      ],
      [
        "ĠShe",
        -9.300366957324142
      ],
      [
        "Ġpiece",
        -9.303679385766689
      ],
      [
        "ĠAmerica",
        -9.305699848355111
      ],
      [
        "Ġsupply",
        -9.305842733258798
      ],
      [
        "Ġactive",
        -9.306936956150675
      ],
      [
        "Ġseeds",
        -9.308158753306556
      ],
      [
        "âĢĻ",
        -9.30942467421173
      ],
      [
        "Ġflowers",
        -9.309753711674828
      ],
      [
        "Ġcamera",
        -9.309911425237328
      ],
      [
        "ĠK",
        -9.310375544111968
      ],
      [
        "Ġcommunication",
        -9.311757778946893
      ],
      [
        "ĠYes",
        -9.311809353293643
      ],
      [
        "Ġcontain",
        -9.312276232377735
      ],
      [
        "Ġprice",
        -9.31379750199993
      ],
      [
        "Ġproperly",
        -9.314479058939506
      ],
      [
        "Ġfruit",
        -9.316313530741432
      ],
      [
        "Ġtend",
        -9.317464903959875
      ],
      [
        "Ġlocation",
        -9.318607912772627
      ],
      [
        "ĠG",
        -9.318735740590656
      ],
      [
        "Ġcorrect",
        -9.32038543908539
      ],
      [
        "Ġseries",
        -9.32114956432664
      ],
      [
        "Ġcool",
        -9.321393594809914
      ],
      [
        "Ġchance",
        -9.32286379646154
      ],
      [
        "Ġorganic",
        -9.326763633365443
      ],
      [
        "Ġlines",
        -9.329052510491758
      ],
      [
        "E",
        -9.332228767316476
      ],
      [
        "depending",
        -9.332672947177771
      ],
      [
        "Ġaddress",
        -9.333784052263232
      ],
      [
        "Ġefficiency",
        -9.334380141776217
      ],
      [
        "Ġnegative",
        -9.335754346566166
      ],
      [
        "Ġleave",
        -9.336518998322182
      ],
      [
        "Ġscientific",
        -9.337185928160965
      ],
      [
        "Ġgoes",
        -9.3375439994791
      ],
      [
        "Ġcritical",
        -9.33844933660056
      ],
      [
        "Ġmoving",
        -9.338463911094426
      ],
      [
        "Ġprotection",
        -9.338804046634104
      ],
      [
        "-to",
        -9.339384267871775
      ],
      [
        "Ġoutput",
        -9.339509909386289
      ],
      [
        "While",
        -9.339913551645292
      ],
      [
        "Ġtalk",
        -9.339942252251102
      ],
      [
        "Ġmembers",
        -9.339955015381053
      ],
      [
        "Ġchallenges",
        -9.34193533039875
      ],
      [
        "Ġachieve",
        -9.344658500473749
      ],
      [
        "Ġtravel",
        -9.345773865182778
      ],
      [
        "Ġspring",
        -9.346360279251073
      ],
      [
        "Ġtemperatures",
        -9.346376621736429
      ],
      [
        "...ĊĊ",
        -9.346528866145
      ],
      [
        "Ġfeed",
        -9.346702649204872
      ],
      [
        "ĠMost",
        -9.348556661515518
      ],
      [
        "Ġbuilt",
        -9.349938594050634
      ],
      [
        "Ġcompanies",
        -9.350338196116436
      ],
      [
        "Ġgovernment",
        -9.35217473005456
      ],
      [
        "ĠNorth",
        -9.35322701684658
      ],
      [
        "Ġappropriate",
        -9.353511349283233
      ],
      [
        "Ġcontains",
        -9.353994828283366
      ],
      [
        "Ġmemory",
        -9.35446027797198
      ],
      [
        "Ġtheory",
        -9.355134502061528
      ],
      [
        "z",
        -9.358460027866377
      ],
      [
        "Ġdistance",
        -9.362110211541053
      ],
      [
        "ĠL",
        -9.362860144133736
      ],
      [
        "Ġpatterns",
        -9.363385863781826
      ],
      [
        "ĠFrom",
        -9.365020937067348
      ],
      [
        "Ġdeveloping",
        -9.365926134829383
      ],
      [
        "Ġnetwork",
        -9.368026474742722
      ],
      [
        "Ġnumbers",
        -9.368535591700072
      ],
      [
        "Ġallowing",
        -9.368591971165191
      ],
      [
        "Ġbird",
        -9.3687728818594
      ],
      [
        "Ġtable",
        -9.368818762712513
      ],
      [
        "Ġpage",
        -9.371029904195144
      ],
      [
        "Ġact",
        -9.371349194476668
      ],
      [
        "Ġvalues",
        -9.371422929748226
      ],
      [
        "By",
        -9.372264051745892
      ],
      [
        "Ġpay",
        -9.372804705056993
      ],
      [
        "Ġusers",
        -9.3733656036594
      ],
      [
        "Ġlimited",
        -9.37520923794712
      ],
      [
        "Ġmental",
        -9.37661463007537
      ],
      [
        "Ġlack",
        -9.37703707228302
      ],
      [
        "Ġresistance",
        -9.377863962851295
      ],
      [
        "Ġcommonly",
        -9.378662485571276
      ],
      [
        "ĠUS",
        -9.380045467908875
      ],
      [
        "Ġtaste",
        -9.38060336867862
      ],
      [
        "Ġprograms",
        -9.381365625622037
      ],
      [
        "These",
        -9.382326522053082
      ],
      [
        "Ġbottom",
        -9.38243913648664
      ],
      [
        "Ġseem",
        -9.382678093288204
      ],
      [
        "Ġbreak",
        -9.383001424811903
      ],
      [
        "Ġprojects",
        -9.383443952701755
      ],
      [
        "Ġremember",
        -9.384031141810013
      ],
      [
        "Ġmaintenance",
        -9.384232696082206
      ],
      [
        "Ġspread",
        -9.384408767074516
      ],
      [
        "Ġoriginal",
        -9.38533807290993
      ],
      [
        "Ġimportance",
        -9.38657593783862
      ],
      [
        "Ġhappens",
        -9.387168141224164
      ],
      [
        "Ġinfection",
        -9.387598882328504
      ],
      [
        "Ġseems",
        -9.387974065231989
      ],
      [
        "Ġcosts",
        -9.390519097236387
      ],
      [
        "Ġinterest",
        -9.392068160408195
      ],
      [
        "Ġreasons",
        -9.392670910299335
      ],
      [
        "Ġvision",
        -9.39396283027747
      ],
      [
        "Ġhair",
        -9.3945707315738
      ],
      [
        "Ġbegin",
        -9.39528398394898
      ],
      [
        "Ġpretty",
        -9.39570100542064
      ],
      [
        "Ġcame",
        -9.395908454297516
      ],
      [
        "ĠSchool",
        -9.397171748105595
      ],
      [
        "Ġstrength",
        -9.397984405230224
      ],
      [
        "ĠHealth",
        -9.398194013055766
      ],
      [
        "Step",
        -9.400125405309216
      ],
      [
        "Ġpublished",
        -9.400962779608236
      ],
      [
        "ĠUse",
        -9.400999907891862
      ],
      [
        "Ġwriting",
        -9.401686339860614
      ],
      [
        "Can",
        -9.402686708205122
      ],
      [
        "Ġupon",
        -9.40337713559486
      ],
      [
        "Ġcooking",
        -9.403756155647692
      ],
      [
        "Ġsubject",
        -9.404022451872644
      ],
      [
        "Ġsuccess",
        -9.40416356014092
      ],
      [
        "Ġfile",
        -9.404883626367312
      ],
      [
        "Ġcenter",
        -9.405546896773638
      ],
      [
        "ĠResearch",
        -9.4059690647692
      ],
      [
        "Ġforms",
        -9.406783464515891
      ],
      [
        "Ġbaby",
        -9.40697271097214
      ],
      [
        "ĠMany",
        -9.40705398118055
      ],
      [
        "Ġwind",
        -9.407472048071565
      ],
      [
        "Ġfire",
        -9.408524400889034
      ],
      [
        "Ġsigns",
        -9.408717772844648
      ],
      [
        "ĠWorld",
        -9.409419305990385
      ],
      [
        "Ġdeal",
        -9.410362370283536
      ],
      [
        "Ġfine",
        -9.410410569174958
      ],
      [
        "Ġslow",
        -9.41084725458801
      ],
      [
        "Ġhands",
        -9.411307620516189
      ],
      [
        "Ġdirection",
        -9.412026854699915
      ],
      [
        "Ġdirect",
        -9.412701342213156
      ],
      [
        "Ġsearch",
        -9.413906618819018
      ],
      [
        "Ġelectrical",
        -9.414233463541011
      ],
      [
        "Ġcycle",
        -9.4146445670541
      ],
      [
        "Ġefficient",
        -9.41586117176335
      ],
      [
        "ĠOf",
        -9.415967096010364
      ],
      [
        "Ġdrive",
        -9.416940599510276
      ],
      [
        "Ġideal",
        -9.41703501971906
      ],
      [
        "Ġdark",
        -9.41996108610588
      ],
      [
        "Ġfat",
        -9.424849823523306
      ],
      [
        "Ġobjects",
        -9.425869702312989
      ],
      [
        "Ġmeasure",
        -9.427829846214424
      ],
      [
        "Ġwild",
        -9.43063620394742
      ],
      [
        "Ġelse",
        -9.430712989064908
      ],
      [
        "Ġstage",
        -9.435258903374656
      ],
      [
        "Ġsustainable",
        -9.43590570434764
      ],
      [
        "Ġcity",
        -9.43700358725198
      ],
      [
        "Ġsection",
        -9.4385317046424
      ],
      [
        "Ġready",
        -9.43862512658002
      ],
      [
        "Ġideas",
        -9.43883263591989
      ],
      [
        "Ġsix",
        -9.439023572027702
      ],
      [
        "Ġpre",
        -9.439389353341737
      ],
      [
        "Ġincreasing",
        -9.44006031167118
      ],
      [
        "Ġman",
        -9.440175010971403
      ],
      [
        "Ġbox",
        -9.440216007623151
      ],
      [
        "Ġreducing",
        -9.442107689408004
      ],
      [
        "Ġpractices",
        -9.443096780341316
      ],
      [
        "Ġserve",
        -9.4435635523329
      ],
      [
        "Ġhope",
        -9.443745515958527
      ],
      [
        "Ġimmune",
        -9.444146726431509
      ],
      [
        "Ġcleaning",
        -9.44498224708414
      ],
      [
        "Ġhearing",
        -9.445711026516616
      ],
      [
        "Ġhappen",
        -9.445878552812054
      ],
      [
        "Ġlate",
        -9.446566034243508
      ],
      [
        "Ġinput",
        -9.44820619250764
      ],
      [
        "Ġinvolves",
        -9.448286986026767
      ],
      [
        "Ġstates",
        -9.44860584938607
      ],
      [
        "ĠSouth",
        -9.44861835254709
      ],
      [
        "Ġmusic",
        -9.449678272068914
      ],
      [
        "Ġcircuit",
        -9.453213089613726
      ],
      [
        "Ġresponsible",
        -9.453717837126378
      ],
      [
        "Ġbecomes",
        -9.457312149059875
      ],
      [
        "Ġpromote",
        -9.457633025791484
      ],
      [
        "Ġfactor",
        -9.459015120070244
      ],
      [
        "Ġsuitable",
        -9.45956313168945
      ],
      [
        "Ġtesting",
        -9.45959444275559
      ],
      [
        "Ġconstruction",
        -9.463267817684876
      ],
      [
        "Ġtarget",
        -9.46405134185275
      ],
      [
        "Ġfinal",
        -9.464468224569472
      ],
      [
        "Ġrequirements",
        -9.464601947277274
      ],
      [
        "ensuring",
        -9.464848664372658
      ],
      [
        "Ġphase",
        -9.465275431597268
      ],
      [
        "Ġstorage",
        -9.46594167313596
      ],
      [
        "Ġthinking",
        -9.466256664409949
      ],
      [
        "F",
        -9.468148210040816
      ],
      [
        "Ġfeature",
        -9.468531614059644
      ],
      [
        "Ġoxygen",
        -9.468908946830744
      ],
      [
        "ĠWhy",
        -9.46910885363902
      ],
      [
        "Ġsignificantly",
        -9.470870318750023
      ],
      [
        "Ġfriends",
        -9.471641162970087
      ],
      [
        "Y",
        -9.472680352551452
      ],
      [
        "Ġnoise",
        -9.473198619906707
      ],
      [
        "They",
        -9.47365594053558
      ],
      [
        "Ġthird",
        -9.474155286587546
      ],
      [
        "V",
        -9.476107061141429
      ],
      [
        "Ġtechnique",
        -9.476643315414192
      ],
      [
        "Ġappear",
        -9.47870712952659
      ],
      [
        "Ġglass",
        -9.478775567863687
      ],
      [
        "Ġnothing",
        -9.480676451010478
      ],
      [
        "Ġrelationship",
        -9.481215281405216
      ],
      [
        "Ġreaction",
        -9.483044087159554
      ],
      [
        "Ġsolutions",
        -9.484132411795906
      ],
      [
        "Ġgives",
        -9.487883630656404
      ],
      [
        "Ġaccount",
        -9.489454337077673
      ],
      [
        "Ġstarting",
        -9.490125437028436
      ],
      [
        "N",
        -9.493030458293232
      ],
      [
        "Ġpowerful",
        -9.493189384370456
      ],
      [
        "Ġnutrients",
        -9.49349510401314
      ],
      [
        "Ġtook",
        -9.49415414768856
      ],
      [
        "ĠAlso",
        -9.495536474881332
      ],
      [
        "Ġsetting",
        -9.495918818227969
      ],
      [
        "Ġmoment",
        -9.496909248409688
      ],
      [
        "ĠNot",
        -9.497483279593247
      ],
      [
        "Ġvia",
        -9.498574265274584
      ],
      [
        "Ġfilm",
        -9.499306988015013
      ],
      [
        "Ġapplied",
        -9.500007998589494
      ],
      [
        "ĠV",
        -9.501350238394624
      ],
      [
        ".com",
        -9.501493342224808
      ],
      [
        "Ġliquid",
        -9.502432240176844
      ],
      [
        "Ġwall",
        -9.50328108348554
      ],
      [
        "Ġadding",
        -9.503848162521324
      ],
      [
        "Ġroot",
        -9.504888877456269
      ],
      [
        "Ġsituation",
        -9.50539741581898
      ],
      [
        "ĠX",
        -9.50744773840782
      ],
      [
        "Ġpattern",
        -9.50782634822707
      ],
      [
        "Ġingredients",
        -9.508071530662464
      ],
      [
        "Ġones",
        -9.510823801884028
      ],
      [
        "With",
        -9.51121589977672
      ],
      [
        "Ġscale",
        -9.511261861589997
      ],
      [
        "ĠMy",
        -9.512981343363926
      ],
      [
        "Ġiron",
        -9.513176661086703
      ],
      [
        "R",
        -9.51427160025597
      ],
      [
        "Ġmonth",
        -9.514314052788531
      ],
      [
        "Ġsalt",
        -9.51485522185088
      ],
      [
        "Ġmuscle",
        -9.515008727003323
      ],
      [
        "Ġjourney",
        -9.517665857433457
      ],
      [
        "And",
        -9.518177769387592
      ],
      [
        "Ġcentury",
        -9.519364567426924
      ],
      [
        "Ġgene",
        -9.52218117329775
      ],
      [
        "Ġsoon",
        -9.522646799443796
      ],
      [
        "Ġheavy",
        -9.52367425035057
      ],
      [
        "Ġinteresting",
        -9.523831641322298
      ],
      [
        "Ġdeath",
        -9.52420521908292
      ],
      [
        "Ġvisual",
        -9.524567463203224
      ],
      [
        "Ġapply",
        -9.52465693331636
      ],
      [
        "Ġcurrently",
        -9.525512348915322
      ],
      [
        "Ġculture",
        -9.526109798727513
      ],
      [
        "Ġdecision",
        -9.526710456229056
      ],
      [
        "ĠAre",
        -9.527193660690378
      ],
      [
        "Ġexposure",
        -9.52847552934364
      ],
      [
        "Ġfully",
        -9.528496394447863
      ],
      [
        "Ġsuccessful",
        -9.52915172681474
      ],
      [
        "Ġlaw",
        -9.530256992690225
      ],
      [
        "ĠOur",
        -9.530402870561916
      ],
      [
        "Ġcharge",
        -9.530511395677834
      ],
      [
        "Ġcausing",
        -9.532173790356294
      ],
      [
        "Ġlocated",
        -9.532359193373546
      ],
      [
        "Ġspot",
        -9.533977505622431
      ],
      [
        "Ġfaster",
        -9.534211695051148
      ],
      [
        "ĠTheir",
        -9.535502992899918
      ],
      [
        "Ġsecurity",
        -9.536692683473165
      ],
      [
        "Ġgames",
        -9.537982941469645
      ],
      [
        "Ġconnected",
        -9.538372894794527
      ],
      [
        "Ġvegetables",
        -9.53997706476137
      ],
      [
        "Ġreceive",
        -9.54015723257046
      ],
      [
        "Ġwrong",
        -9.540407001447567
      ],
      [
        "mm",
        -9.541326698406722
      ],
      [
        "Ġexactly",
        -9.542803597002749
      ],
      [
        "Ġcombination",
        -9.543179526459744
      ],
      [
        "Ġanyone",
        -9.54424554728162
      ],
      [
        "Ġboard",
        -9.544345592789403
      ],
      [
        "Ġfrequency",
        -9.54509304647982
      ],
      [
        "Ġtissue",
        -9.54512271269239
      ],
      [
        "Ġrich",
        -9.546161437892428
      ],
      [
        "of",
        -9.546421169919835
      ],
      [
        "Ġstem",
        -9.546722497123907
      ],
      [
        "K",
        -9.548154898279632
      ],
      [
        "Ġmen",
        -9.54844062551537
      ],
      [
        "Ġopportunity",
        -9.54850181976586
      ],
      [
        "Ġserious",
        -9.54870245855266
      ],
      [
        "it",
        -9.548751435239875
      ],
      [
        "Ġpieces",
        -9.548955751807432
      ],
      [
        "Ġgain",
        -9.549893028470883
      ],
      [
        "Ġforward",
        -9.550059512374842
      ],
      [
        "Ġheight",
        -9.551942201515317
      ],
      [
        "Ġexcellent",
        -9.552218303624706
      ],
      [
        "Ġdescribed",
        -9.554742736760884
      ],
      [
        "Ġcapacity",
        -9.555045690525738
      ],
      [
        "Ġsoft",
        -9.55505304994811
      ],
      [
        "Ġearth",
        -9.55659889017434
      ],
      [
        "Ġvoltage",
        -9.556802290045212
      ],
      [
        "Ġyellow",
        -9.556827128078462
      ],
      [
        "Ġeffectively",
        -9.556944660409902
      ],
      [
        "Now",
        -9.557743010555946
      ],
      [
        "Ġtask",
        -9.558930072515324
      ],
      [
        "Ġstrategies",
        -9.559613735808576
      ],
      [
        "H",
        -9.55974941595104
      ],
      [
        "Ġmoisture",
        -9.559938194211922
      ],
      [
        "Do",
        -9.561139560743504
      ],
      [
        "ĠWho",
        -9.561167212396828
      ],
      [
        "ĠJ",
        -9.563118549864011
      ],
      [
        "Ġmeaning",
        -9.563634060839547
      ],
      [
        "Ġgets",
        -9.564732178110225
      ],
      [
        "Ġtherefore",
        -9.566541137481874
      ],
      [
        "Ġcoming",
        -9.568762633908438
      ],
      [
        "-term",
        -9.570090320646145
      ],
      [
        "Ġdisplay",
        -9.5706620654128
      ],
      [
        "Ġwrite",
        -9.571338428007648
      ],
      [
        "Ġproperty",
        -9.572043841721568
      ],
      [
        "ĠAdditionally",
        -9.573335349741743
      ],
      [
        "Ġrecord",
        -9.574856945317809
      ],
      [
        "Ġoccurs",
        -9.57504777111083
      ],
      [
        "Ġincluded",
        -9.575805869936998
      ],
      [
        "Ġbecame",
        -9.576200650379215
      ],
      [
        "Ġled",
        -9.576311854304633
      ],
      [
        "Ġreturn",
        -9.577970522029451
      ],
      [
        "Ġreduced",
        -9.578082645969914
      ],
      [
        "Ġprocessing",
        -9.578853923970351
      ],
      [
        "An",
        -9.579630519341748
      ],
      [
        "Ġinches",
        -9.58018284004655
      ],
      [
        "Ġtherapy",
        -9.580612126965194
      ],
      [
        "Ġbeautiful",
        -9.58108378691984
      ],
      [
        "Ġnative",
        -9.5817139577608
      ],
      [
        "Ġfunctions",
        -9.584397358173709
      ],
      [
        "Ġthus",
        -9.584665266262157
      ],
      [
        "ĠOnce",
        -9.5848260797672
      ],
      [
        "Ġmanage",
        -9.585018843674082
      ],
      [
        "<",
        -9.58553228593628
      ],
      [
        "Ġbrown",
        -9.588581448385984
      ],
      [
        "Ġtrack",
        -9.590286874773607
      ],
      [
        "Ġperform",
        -9.590546392214586
      ],
      [
        "Ġsevere",
        -9.593173193248372
      ],
      [
        "Ġball",
        -9.593395808794932
      ],
      [
        "Ġconcept",
        -9.59358080475554
      ],
      [
        "Ġbeyond",
        -9.59387681914649
      ],
      [
        "Ġtank",
        -9.595187996465246
      ],
      [
        "Ġvisit",
        -9.597547152160704
      ],
      [
        "Ġpresence",
        -9.598743552757286
      ],
      [
        "Ġgiving",
        -9.598889436209287
      ],
      [
        "Ġchallenge",
        -9.598970576244492
      ],
      [
        "Ġscreen",
        -9.59910479954088
      ],
      [
        "Ġadvanced",
        -9.600199020923316
      ],
      [
        "Ġplaces",
        -9.600915576037924
      ],
      [
        "ĠBecause",
        -9.601429358901592
      ],
      [
        "Ġmix",
        -9.602584034462952
      ],
      [
        "ĠNow",
        -9.602699564084295
      ],
      [
        "Ġmotor",
        -9.604497695542005
      ],
      [
        "Ġextremely",
        -9.605471244464168
      ],
      [
        "Some",
        -9.605859558523369
      ],
      [
        "Ġdetails",
        -9.60624936490164
      ],
      [
        "L",
        -9.607936204091764
      ],
      [
        "Ġelement",
        -9.610089014353928
      ],
      [
        "ĠEach",
        -9.61105605128831
      ],
      [
        "Ġexpensive",
        -9.611745457900676
      ],
      [
        "Ġmaximum",
        -9.612228143157171
      ],
      [
        "Ġexpected",
        -9.612338893670566
      ],
      [
        "Ġworth",
        -9.612582182904449
      ],
      [
        "Ġrecently",
        -9.613618536349536
      ],
      [
        "Ġpoor",
        -9.61436291850971
      ],
      [
        "Ġrelease",
        -9.614709761747248
      ],
      [
        "ĠMake",
        -9.61507457507253
      ],
      [
        "Ġocean",
        -9.615307129799348
      ],
      [
        "Ġsteel",
        -9.61545781816877
      ],
      [
        "ĠCenter",
        -9.615560130396634
      ],
      [
        "Ġpicture",
        -9.615972646751183
      ],
      [
        "Ġelectricity",
        -9.61651799015128
      ],
      [
        "Ġteaching",
        -9.616687164884937
      ],
      [
        "Ġcouple",
        -9.617273366662037
      ],
      [
        "Ġkeeping",
        -9.6179954965392
      ],
      [
        "Ġmiddle",
        -9.618214324300077
      ],
      [
        "Ġhuge",
        -9.619035952223207
      ],
      [
        "Ġalternative",
        -9.619655381461587
      ],
      [
        "Ġprevious",
        -9.62080961069578
      ],
      [
        "Ġconsumption",
        -9.62091198868416
      ],
      [
        "Ġexplain",
        -9.62401280733928
      ],
      [
        "Ġhandle",
        -9.62457032201231
      ],
      [
        "Ġparticles",
        -9.62492930289477
      ],
      [
        "Ġtouch",
        -9.625330463740603
      ],
      [
        "Ġalthough",
        -9.626477060640536
      ],
      [
        "Ġolder",
        -9.627121688585664
      ],
      [
        "Ġhorse",
        -9.627798310620264
      ],
      [
        "Ġsign",
        -9.628852381762329
      ],
      [
        "Ġequal",
        -9.629941497940091
      ],
      [
        "Ġlost",
        -9.63096620620011
      ],
      [
        "Ġversion",
        -9.632166754967947
      ],
      [
        "Ġmotion",
        -9.632197829797224
      ],
      [
        "Ġsolid",
        -9.63247223291646
      ],
      [
        "ally",
        -9.632972467594664
      ],
      [
        "Ġvolume",
        -9.63367755543951
      ],
      [
        "Ġexist",
        -9.63571005348206
      ],
      [
        "Ġslightly",
        -9.63636693064867
      ],
      [
        "Ġfemale",
        -9.636850556294783
      ],
      [
        "ĠOther",
        -9.638748051530738
      ],
      [
        "Ġdoctor",
        -9.639198644007536
      ],
      [
        "Ġcutting",
        -9.63980386008233
      ],
      [
        "Ġaffected",
        -9.640052801109643
      ],
      [
        "Ġonto",
        -9.641641685910548
      ],
      [
        "Ġpaint",
        -9.642515195754688
      ],
      [
        "ĠEnglish",
        -9.642715949823277
      ],
      [
        "Ġcommunities",
        -9.643069743950852
      ],
      [
        "Ġlargest",
        -9.64529897631822
      ],
      [
        "Ġcars",
        -9.645704587546668
      ],
      [
        "Ġroad",
        -9.647141877024334
      ],
      [
        "Ġphone",
        -9.647245352016316
      ],
      [
        "ĠâĢ¦",
        -9.647420470322537
      ],
      [
        "Ġear",
        -9.64837395861034
      ],
      [
        "Ġinstance",
        -9.64880891956605
      ],
      [
        "ĠLet",
        -9.648924250835424
      ],
      [
        "Ġrelatively",
        -9.649116200477645
      ],
      [
        "Ġgenes",
        -9.649166427808224
      ],
      [
        "Here",
        -9.649590223493432
      ],
      [
        "Ġbone",
        -9.65001852882261
      ],
      [
        "ĠInstitute",
        -9.650832363617162
      ],
      [
        "Ġexperiment",
        -9.651026707963474
      ],
      [
        "ĠMay",
        -9.652169949790052
      ],
      [
        "Ġremain",
        -9.653198140154728
      ],
      [
        "Ġsites",
        -9.654384157625566
      ],
      [
        "Ġtasks",
        -9.654494767217896
      ],
      [
        "Ġopportunities",
        -9.654589191099063
      ],
      [
        "Ġvaluable",
        -9.65504337830398
      ],
      [
        "ĠNOT",
        -9.655848748449769
      ],
      [
        "Ġconnection",
        -9.65683695502893
      ],
      [
        "Ġinfluence",
        -9.656993042998314
      ],
      [
        "Ġchanging",
        -9.65713907642719
      ],
      [
        "Ġdegrees",
        -9.658036262607922
      ],
      [
        "Ġcharacteristics",
        -9.6581268667862
      ],
      [
        "Ġplaced",
        -9.658818157889591
      ],
      [
        "Ġcarry",
        -9.659285496228648
      ],
      [
        "Ġdiscovered",
        -9.659799006556636
      ],
      [
        "Ġcomfortable",
        -9.66074226005951
      ],
      [
        "Ġfluid",
        -9.661362950843316
      ],
      [
        "Ġsuggest",
        -9.66143618265317
      ],
      [
        "Ġstructures",
        -9.663118636543077
      ],
      [
        "Ġschools",
        -9.663956976946162
      ],
      [
        "Ġemissions",
        -9.66408962530186
      ],
      [
        "Ġdemand",
        -9.664604298520812
      ],
      [
        "for",
        -9.666135868836392
      ],
      [
        "Ġproteins",
        -9.66682602216346
      ],
      [
        "Ġremains",
        -9.66704180619743
      ],
      [
        "Ġspend",
        -9.66721418678435
      ],
      [
        "Ġdriving",
        -9.66736086933501
      ],
      [
        "Ġevolution",
        -9.667396392297066
      ],
      [
        "Ġdepth",
        -9.667629747980875
      ],
      [
        "Ġgoals",
        -9.66909173269989
      ],
      [
        "Ġsort",
        -9.66963130145014
      ],
      [
        "Ġdraw",
        -9.669801199074708
      ],
      [
        "However",
        -9.670100630416307
      ],
      [
        "Ġteachers",
        -9.671831309793458
      ],
      [
        "Ġtexture",
        -9.673623057494089
      ],
      [
        "Ġexamples",
        -9.673671057877463
      ],
      [
        "Ġdepends",
        -9.67386130723216
      ],
      [
        "Ġadults",
        -9.674357329207051
      ],
      [
        "Ġco",
        -9.675483080842069
      ],
      [
        "Ġmedium",
        -9.675663148386644
      ],
      [
        "Ġbeginning",
        -9.67607231414762
      ],
      [
        "ĠEven",
        -9.67614912811228
      ],
      [
        "Ġtechnologies",
        -9.677542740387546
      ],
      [
        "Ġexperiences",
        -9.677869774916331
      ],
      [
        "Ġlose",
        -9.679693072994212
      ],
      [
        "Ġsaw",
        -9.680322905738429
      ],
      [
        "Ġlooks",
        -9.680390546334438
      ],
      [
        "ĠBe",
        -9.682474901363
      ],
      [
        "Ġalone",
        -9.68370325816666
      ],
      [
        "Ġconservation",
        -9.684788875850534
      ],
      [
        "Ġdistribution",
        -9.684925015201836
      ],
      [
        "Ġdescribe",
        -9.685001832382666
      ],
      [
        "Ġdate",
        -9.68500802827772
      ],
      [
        "ĠState",
        -9.685488398725823
      ],
      [
        "Ġdifferences",
        -9.686009444480684
      ],
      [
        "\\",
        -9.686909434609316
      ],
      [
        "Ġrise",
        -9.687350532637408
      ],
      [
        "Ġbooks",
        -9.68897028743757
      ],
      [
        "Ġbrand",
        -9.68935852726045
      ],
      [
        "Ġnote",
        -9.689647032862698
      ],
      [
        "ĠIndia",
        -9.68999470912656
      ],
      [
        "Ġmeasures",
        -9.690023576832225
      ],
      [
        "Ġflight",
        -9.69155268988983
      ],
      [
        "Ġblock",
        -9.691749052181011
      ],
      [
        "ĠWater",
        -9.69216428315332
      ],
      [
        "Ġresulting",
        -9.692300426352912
      ],
      [
        "Ġinitial",
        -9.692560077983906
      ],
      [
        "Ġincreases",
        -9.693627301079363
      ],
      [
        "Ġrecommend",
        -9.693825263503976
      ],
      [
        "G",
        -9.69384116809565
      ],
      [
        "Ġreported",
        -9.694366313389535
      ],
      [
        "Ġtests",
        -9.694881679891536
      ],
      [
        "Ġcomponent",
        -9.69544953261985
      ],
      [
        "Ġflavor",
        -9.695475382874788
      ],
      [
        "Ġcommercial",
        -9.698007085666838
      ],
      [
        "Ġsample",
        -9.698676023507003
      ],
      [
        "ĠCalifornia",
        -9.699582582697918
      ],
      [
        "Ġfeeling",
        -9.69960981396294
      ],
      [
        "-up",
        -9.701186544549673
      ],
      [
        "On",
        -9.701630310571153
      ],
      [
        "ĠMore",
        -9.70276319998257
      ],
      [
        "Ġselection",
        -9.704088182407844
      ],
      [
        "Ġwent",
        -9.704520412737658
      ],
      [
        "Ġrepresent",
        -9.705850985276234
      ],
      [
        "Ġfigure",
        -9.706046844480474
      ],
      [
        "Ġmale",
        -9.706269244102929
      ],
      [
        "Ġstand",
        -9.706297838231094
      ],
      [
        "Ġbegan",
        -9.707731976923952
      ],
      [
        "Ġhear",
        -9.708967056944116
      ],
      [
        "Ġdiabetes",
        -9.70911440316046
      ],
      [
        "Ġfinancial",
        -9.709402277462177
      ],
      [
        "Ġinsects",
        -9.71070311882256
      ],
      [
        "Ġseed",
        -9.710968707946408
      ],
      [
        "Ġefforts",
        -9.711884162853826
      ],
      [
        "Ġappearance",
        -9.712594799253807
      ],
      [
        "Ġconstant",
        -9.713870247359012
      ],
      [
        "Ġconnect",
        -9.714149541390428
      ],
      [
        "Ġsounds",
        -9.715352307034612
      ],
      [
        "Ġaspects",
        -9.71551849487392
      ],
      [
        "Ġweb",
        -9.717387366049506
      ],
      [
        "Ġvary",
        -9.717553217474505
      ],
      [
        "Ġseparate",
        -9.71841835723037
      ],
      [
        "Ġcollection",
        -9.719331425694463
      ],
      [
        "Ġexisting",
        -9.719617674253865
      ],
      [
        "Ġcore",
        -9.72091462676543
      ],
      [
        "Ġeffort",
        -9.721366075717416
      ],
      [
        "Ġrules",
        -9.721395973983736
      ],
      [
        "Ġdegree",
        -9.721448541710211
      ],
      [
        "Ġcross",
        -9.722062911772
      ],
      [
        "Ġhabitat",
        -9.724813016842244
      ],
      [
        "Ġwalk",
        -9.725281731917375
      ],
      [
        "Ġplanning",
        -9.72534527524791
      ],
      [
        "Ġfoot",
        -9.726384896970092
      ],
      [
        "ĠFirst",
        -9.726837079016924
      ],
      [
        "Ġadvantage",
        -9.728616505615676
      ],
      [
        "Ġrare",
        -9.729386475082215
      ],
      [
        "Ġroots",
        -9.729389855363372
      ],
      [
        "Ġanti",
        -9.729913020679636
      ],
      [
        "Ġstuff",
        -9.731071300087104
      ],
      [
        "ĠAlthough",
        -9.733039969438837
      ],
      [
        "Ġwritten",
        -9.733556715062416
      ],
      [
        "Ġfloor",
        -9.73482390001192
      ],
      [
        "Ġfinding",
        -9.735463466124374
      ],
      [
        "Ġvital",
        -9.736013540183713
      ],
      [
        "Ġlink",
        -9.736126754147984
      ],
      [
        "ĠGod",
        -9.736474307074948
      ],
      [
        "Ġmaintaining",
        -9.736860928865
      ],
      [
        "Ġreview",
        -9.737064489901243
      ],
      [
        "Ġoperation",
        -9.737294848123405
      ],
      [
        "Ġplanet",
        -9.737402636781464
      ],
      [
        "Ġvirus",
        -9.739814526981387
      ],
      [
        "Ġchicken",
        -9.7410753831577
      ],
      [
        "{",
        -9.741340042428291
      ],
      [
        "Ġpopulations",
        -9.741356586135767
      ],
      [
        "Ġimmediately",
        -9.74139416245519
      ],
      [
        "Ġcontext",
        -9.74183952428415
      ],
      [
        "Ġformed",
        -9.74243043448147
      ],
      [
        "Ġspecifically",
        -9.742782108995984
      ],
      [
        "Ġbreed",
        -9.743817088220007
      ],
      [
        "Ġprefer",
        -9.74495925930377
      ],
      [
        "Ġpick",
        -9.746756548239798
      ],
      [
        "Ġallowed",
        -9.746786116863522
      ],
      [
        "ĠAccording",
        -9.747380933851671
      ],
      [
        "Ġactual",
        -9.747928221564528
      ],
      [
        "Ġadult",
        -9.748140072627669
      ],
      [
        "Ġplease",
        -9.748631779003158
      ],
      [
        "Ġnational",
        -9.749458879433227
      ],
      [
        "Ġload",
        -9.74965633382135
      ],
      [
        "That",
        -9.750590668115771
      ],
      [
        "Ġaccurate",
        -9.751385343414082
      ],
      [
        "Ġrock",
        -9.751902945361174
      ],
      [
        "Ġreplace",
        -9.752558418775084
      ],
      [
        "man",
        -9.752845579022734
      ],
      [
        "Ġregularly",
        -9.754282827375338
      ],
      [
        "Ġframe",
        -9.754391260226845
      ],
      [
        "Ġinstructions",
        -9.754552407695522
      ],
      [
        "Ġswitch",
        -9.75611161687022
      ],
      [
        "Ġmouth",
        -9.756170255846213
      ],
      [
        "Ġphoto",
        -9.757638281320288
      ],
      [
        "-like",
        -9.758152403534917
      ],
      [
        "Ġquick",
        -9.758269441420572
      ],
      [
        "Ġasked",
        -9.75836926536638
      ],
      [
        "Ġcovered",
        -9.759021614951832
      ],
      [
        "Our",
        -9.760220599346733
      ],
      [
        "Ġfamilies",
        -9.760268222482413
      ],
      [
        "ĠJust",
        -9.760986416646684
      ],
      [
        "Ġatmosphere",
        -9.762707523540548
      ],
      [
        "Ġrates",
        -9.765578658676478
      ],
      [
        "Ġgeneration",
        -9.766070172568742
      ],
      [
        "Ġtopic",
        -9.76665967337291
      ],
      [
        "Ġfilter",
        -9.767123132829392
      ],
      [
        "Ġcentral",
        -9.767408428134353
      ],
      [
        "Ġnotice",
        -9.767887456023477
      ],
      [
        "Ġinternal",
        -9.767910776102292
      ],
      [
        "Ġnearly",
        -9.768541039823166
      ],
      [
        "Ġcustomers",
        -9.76949813794903
      ],
      [
        "Ġratio",
        -9.76993575710169
      ],
      [
        "Ġbasis",
        -9.77002172864058
      ],
      [
        "ĠEurope",
        -9.7703659686766
      ],
      [
        "Ġfeeding",
        -9.771728112109471
      ],
      [
        "Ġregions",
        -9.772669656260833
      ],
      [
        "Ġmember",
        -9.773341432754
      ],
      [
        "Ġeconomic",
        -9.775044951211392
      ],
      [
        "ĠTherefore",
        -9.775080984809144
      ],
      [
        "Ġrepair",
        -9.776064154255856
      ],
      [
        "ĠOr",
        -9.776122337204606
      ],
      [
        "Ġgenerate",
        -9.778728171818493
      ],
      [
        "Ġowners",
        -9.77951687235619
      ],
      [
        "ĠSince",
        -9.77960987573209
      ],
      [
        "Ġmolecules",
        -9.779673205122409
      ],
      [
        "Ġdrawing",
        -9.779770436558396
      ],
      [
        "Ġcustomer",
        -9.780758963180327
      ],
      [
        "Ġexpect",
        -9.78169060113614
      ],
      [
        "Ġgrass",
        -9.78216301369876
      ],
      [
        "Ġprogress",
        -9.784341768136413
      ],
      [
        "Ġemotional",
        -9.786264114846476
      ],
      [
        "Ġtiny",
        -9.786360854944627
      ],
      [
        "After",
        -9.786522870120663
      ],
      [
        "Ġdoor",
        -9.788449511377696
      ],
      [
        "Ġpath",
        -9.78895993874212
      ],
      [
        "Ġfavorite",
        -9.789604499754972
      ],
      [
        "Ġfrequently",
        -9.789970914402064
      ],
      [
        "Ġstaff",
        -9.791406552134417
      ],
      [
        "Ġmiles",
        -9.791525622387052
      ],
      [
        "ĠAfrica",
        -9.792964474836465
      ],
      [
        "Ġmarine",
        -9.79334654010375
      ],
      [
        "um",
        -9.795087780956452
      ],
      [
        "Ġfriend",
        -9.79647784537804
      ],
      [
        "Ġbecoming",
        -9.797148774236671
      ],
      [
        "Ġhappy",
        -9.79762780022138
      ],
      [
        "Ġadvice",
        -9.79958230066283
      ],
      [
        "Ġlearned",
        -9.800199818503112
      ],
      [
        "Ġhelping",
        -9.80058477960627
      ],
      [
        "Ġobserved",
        -9.800800710138327
      ],
      [
        "Ġrelative",
        -9.801308580901232
      ],
      [
        "Ġwindow",
        -9.801479081547384
      ],
      [
        "Ġbodies",
        -9.802118635985469
      ],
      [
        "ĠDepartment",
        -9.802300580252336
      ],
      [
        "Another",
        -9.804064893111876
      ],
      [
        "Ġdouble",
        -9.804671298822228
      ],
      [
        "Ġsuggests",
        -9.80483272081459
      ],
      [
        "Ġinternational",
        -9.806567348622336
      ],
      [
        "Ġidentified",
        -9.80756331898638
      ],
      [
        "Ġpets",
        -9.808295709198356
      ],
      [
        "Ġselect",
        -9.80843573769928
      ],
      [
        "Ġdrug",
        -9.808971116908657
      ],
      [
        "Ġbirth",
        -9.809543428817609
      ],
      [
        "ability",
        -9.809571301603588
      ],
      [
        "Ġhour",
        -9.809651846784949
      ],
      [
        "Ġimproved",
        -9.810872980316248
      ],
      [
        "Ġregarding",
        -9.811095783207724
      ],
      [
        "Ġedge",
        -9.811302373995147
      ],
      [
        "Ġplaying",
        -9.81148631438044
      ],
      [
        "Ġwildlife",
        -9.8118368907689
      ],
      [
        "Ġwanted",
        -9.81190918045
      ],
      [
        "Ġlandscape",
        -9.812619816685077
      ],
      [
        "Ġwire",
        -9.812624658859152
      ],
      [
        "**",
        -9.812901809634138
      ],
      [
        "Ġstandards",
        -9.81303724192427
      ],
      [
        "Ġinterested",
        -9.81308529446586
      ],
      [
        "Ġtransfer",
        -9.814273809215768
      ],
      [
        "Ġplayers",
        -9.81471388017638
      ],
      [
        "Ġsociety",
        -9.814947672563212
      ],
      [
        "Ġsmooth",
        -9.816122999263367
      ],
      [
        "Ġreference",
        -9.816229432691548
      ],
      [
        "Ġbed",
        -9.816388048388744
      ],
      [
        "Ġaudio",
        -9.818212204648082
      ],
      [
        "Ġaim",
        -9.818296872692168
      ],
      [
        "Ġorganization",
        -9.818423747598455
      ],
      [
        "âĢĿ",
        -9.818826492178951
      ],
      [
        "ĠUK",
        -9.819177869153853
      ],
      [
        "Ġfashion",
        -9.820406556300885
      ],
      [
        "Ġdangerous",
        -9.820749680259407
      ],
      [
        "Ġdiscuss",
        -9.820836596480577
      ],
      [
        "Ġapp",
        -9.821736052768957
      ],
      [
        "Ġstraight",
        -9.822278159507356
      ],
      [
        "Ġcreative",
        -9.822575349499122
      ],
      [
        "less",
        -9.823083628649291
      ],
      [
        "âĢĻt",
        -9.82318673657066
      ],
      [
        "No",
        -9.823270212695482
      ],
      [
        "Ġwatch",
        -9.82399378366101
      ],
      [
        "Ġflat",
        -9.8246400027403
      ],
      [
        "Ġmulti",
        -9.825098951195656
      ],
      [
        "Ġexperienced",
        -9.826622092285506
      ],
      [
        "Ġlimit",
        -9.826933480496503
      ],
      [
        "ĠUsing",
        -9.82709802708448
      ],
      [
        "Ġcharacter",
        -9.827105810780612
      ],
      [
        "Ġhelpful",
        -9.82813411544409
      ],
      [
        "Ġdiverse",
        -9.828162337541375
      ],
      [
        "Ġpractical",
        -9.829111993423204
      ],
      [
        "Answer",
        -9.833201009771432
      ],
      [
        "Ġinfections",
        -9.834048039025014
      ],
      [
        "Ġpass",
        -9.834749732834156
      ],
      [
        "Ġbackground",
        -9.8349017647985
      ],
      [
        "Ġnumerous",
        -9.835126377993843
      ],
      [
        "Ġkitchen",
        -9.835287130992562
      ],
      [
        "Ġcomprehensive",
        -9.83675960532141
      ],
      [
        "Ġchanged",
        -9.837881977614888
      ],
      [
        "Ġchain",
        -9.838175436628948
      ],
      [
        "Ġlighting",
        -9.840762199962244
      ],
      [
        "Ġaware",
        -9.841590286608174
      ],
      [
        "est",
        -9.842769261489748
      ],
      [
        "Ġremoved",
        -9.843653410564846
      ],
      [
        "ĠAustralia",
        -9.84381473199334
      ],
      [
        "Ġsurvive",
        -9.84423014750462
      ],
      [
        "Ġchemicals",
        -9.844532355533923
      ],
      [
        "j",
        -9.84585168061941
      ],
      [
        "-free",
        -9.845920702348296
      ],
      [
        "...Ċ",
        -9.847265108753277
      ],
      [
        "Ġsend",
        -9.847583856058304
      ],
      [
        "Ġforest",
        -9.847971739229298
      ],
      [
        "Ġsquare",
        -9.8480581633697
      ],
      [
        "Ġteacher",
        -9.848113102668757
      ],
      [
        "Ġhealthcare",
        -9.848450988640504
      ],
      [
        "Ġmuscles",
        -9.848701493666924
      ],
      [
        "Ġreality",
        -9.849172180271392
      ],
      [
        "Ġmaybe",
        -9.850264795612876
      ],
      [
        "Ġanxiety",
        -9.851932289179274
      ],
      [
        "Ġbillion",
        -9.852548761184156
      ],
      [
        "Ġrisks",
        -9.85337229480078
      ],
      [
        "Ġworked",
        -9.853964648005034
      ],
      [
        "Ġfruits",
        -9.854430165539044
      ],
      [
        "Ġestablished",
        -9.854669447407572
      ],
      [
        "Ġdiscussion",
        -9.857057203091088
      ],
      [
        "Ġfly",
        -9.857519176028212
      ],
      [
        "ion",
        -9.857968401407083
      ],
      [
        "Ġsurgery",
        -9.859259046536572
      ],
      [
        "Ġpollution",
        -9.860396642446249
      ],
      [
        "which",
        -9.860538793302045
      ],
      [
        "Ġheld",
        -9.8627493427953
      ],
      [
        "Ġhit",
        -9.86289233762473
      ],
      [
        "Ġalcohol",
        -9.8632805826747
      ],
      [
        "Ġdesired",
        -9.86377162146443
      ],
      [
        "Ġapproximately",
        -9.86484470472398
      ],
      [
        "Ġdrop",
        -9.866411128921763
      ],
      [
        "Ġresource",
        -9.867627972939545
      ],
      [
        "Ġdefined",
        -9.86878005562692
      ],
      [
        "Ġegg",
        -9.869482271029058
      ],
      [
        "ĠYork",
        -9.870400212857591
      ],
      [
        "Ġbusinesses",
        -9.871004248936073
      ],
      [
        "Ġclick",
        -9.871074254227208
      ],
      [
        "Ġangle",
        -9.871425996703064
      ],
      [
        "Ġconcerns",
        -9.872295742347932
      ],
      [
        "Ġreceived",
        -9.872486839876744
      ],
      [
        "Ġdie",
        -9.872639024542094
      ],
      [
        "potentially",
        -9.873334665815351
      ],
      [
        "Ġmorning",
        -9.873679561955711
      ],
      [
        "Ġreduction",
        -9.874848424972685
      ],
      [
        "Ġfabric",
        -9.87530852032336
      ],
      [
        "Ġhost",
        -9.875357335121269
      ],
      [
        "ĠDay",
        -9.875609136693368
      ],
      [
        "Ġcomfort",
        -9.87656765286001
      ],
      [
        "Ġfailure",
        -9.876768610002545
      ],
      [
        "All",
        -9.878328856176797
      ],
      [
        "Ġtold",
        -9.878709458131484
      ],
      [
        "Ġclassroom",
        -9.879521511366434
      ],
      [
        "Ġgrown",
        -9.879781472725908
      ],
      [
        "Ġvehicles",
        -9.879850286267152
      ],
      [
        "ĠChina",
        -9.880347018518268
      ],
      [
        "Ġshowed",
        -9.881139700797592
      ],
      [
        "Ġlayers",
        -9.881601026668449
      ],
      [
        "by",
        -9.882181231953208
      ],
      [
        "Ġkill",
        -9.882553317629624
      ],
      [
        "Ġancient",
        -9.88365497616616
      ],
      [
        "Ġflower",
        -9.883872883208587
      ],
      [
        "-in",
        -9.884258648535564
      ],
      [
        "/or",
        -9.885231656826942
      ],
      [
        "Ġconcrete",
        -9.885312566523314
      ],
      [
        "Ġbeneficial",
        -9.885350190910389
      ],
      [
        "Ġsub",
        -9.885543290798632
      ],
      [
        "Ġupper",
        -9.886797484212162
      ],
      [
        "Ġsensor",
        -9.8868170208147
      ],
      [
        "Ġengineering",
        -9.887905362630375
      ],
      [
        "Ġhighest",
        -9.888254634600344
      ],
      [
        "Ġwave",
        -9.889903926920663
      ],
      [
        "Ġthin",
        -9.89004433497322
      ],
      [
        "Ġraw",
        -9.890739357109275
      ],
      [
        "Ġrule",
        -9.89088151478583
      ],
      [
        "Ġaircraft",
        -9.890942408431613
      ],
      [
        "Ġperspective",
        -9.891663921468004
      ],
      [
        "ĠWhether",
        -9.89210382407588
      ],
      [
        "Ġheating",
        -9.892207545574664
      ],
      [
        "Ġoperations",
        -9.89226242149811
      ],
      [
        "Ġmostly",
        -9.893160496690664
      ],
      [
        "@",
        -9.893408293940077
      ],
      [
        "Ġprepare",
        -9.893763499603503
      ],
      [
        "Ġencourage",
        -9.894464257576988
      ],
      [
        "Ġcareer",
        -9.89461926644906
      ],
      [
        "Ġfields",
        -9.894665933970126
      ],
      [
        "Ġdental",
        -9.895369795825731
      ],
      [
        "-year",
        -9.896998691977563
      ],
      [
        "Ġearlier",
        -9.89723938261413
      ],
      [
        "Ġwidely",
        -9.897268208913626
      ],
      [
        "Ġtypical",
        -9.89809210085275
      ],
      [
        "Ġleaf",
        -9.898696690833956
      ],
      [
        "Ġheard",
        -9.899026587261442
      ],
      [
        "Ġinjury",
        -9.899293500076771
      ],
      [
        "Ġpair",
        -9.900210513456065
      ],
      [
        "Ġtalking",
        -9.900333906926123
      ],
      [
        "Ġmid",
        -9.900389393851937
      ],
      [
        "Ġlegal",
        -9.90248275905171
      ],
      [
        "Ġdecisions",
        -9.902515600545469
      ],
      [
        "Ġtransition",
        -9.902604751937456
      ],
      [
        "Ġprimarily",
        -9.903516660813253
      ],
      [
        "Ġpurchase",
        -9.903831186556287
      ],
      [
        "Ġgold",
        -9.903979865044514
      ],
      [
        "Your",
        -9.90407201441758
      ],
      [
        "Ġsignals",
        -9.904224396314332
      ],
      [
        "Ġsaying",
        -9.904605115181552
      ],
      [
        "Ġharmful",
        -9.905379091527225
      ],
      [
        "Ġteach",
        -9.906065267960065
      ],
      [
        "Ġattack",
        -9.906163161276702
      ],
      [
        "Most",
        -9.906915240026612
      ],
      [
        "Ġsmell",
        -9.9073121571156
      ],
      [
        "Ġpool",
        -9.907711422269358
      ],
      [
        "Ġclaim",
        -9.908093801613145
      ],
      [
        "Ġmeal",
        -9.908576360380822
      ],
      [
        "Ġcultural",
        -9.90891244467256
      ],
      [
        "Ġlights",
        -9.909423273739826
      ],
      [
        "Ġelectronic",
        -9.910201959913168
      ],
      [
        "Ġreleased",
        -9.9107751093381
      ],
      [
        "ĠHigh",
        -9.910899103554756
      ],
      [
        "Ġexperts",
        -9.91139568810792
      ],
      [
        "Ġexposed",
        -9.911402499317257
      ],
      [
        "Ġclasses",
        -9.911832167050022
      ],
      [
        "Ġsports",
        -9.912406576904155
      ],
      [
        "Ġamounts",
        -9.912569350344135
      ],
      [
        "Ġfill",
        -9.91336964371174
      ],
      [
        "Ġbiological",
        -9.913608744430933
      ],
      [
        "Ġrespect",
        -9.91384166937305
      ],
      [
        "Ġnice",
        -9.914275171821476
      ],
      [
        "ĠDuring",
        -9.914350347231212
      ],
      [
        "Ġsettings",
        -9.914537167794876
      ],
      [
        "Yes",
        -9.915272815273582
      ],
      [
        "Ġroof",
        -9.916257062726316
      ],
      [
        "Ġround",
        -9.91656838867805
      ],
      [
        "Ġtransmission",
        -9.918180140671794
      ],
      [
        "Ġcapture",
        -9.918357157334944
      ],
      [
        "Ġplatform",
        -9.918549425004938
      ],
      [
        "Ġtoward",
        -9.91859427489387
      ],
      [
        "Ġartificial",
        -9.91941605877008
      ],
      [
        "Ġrice",
        -9.919583828225116
      ],
      [
        "ĠDon",
        -9.920178287002576
      ],
      [
        "Ġtransport",
        -9.920417126090388
      ],
      [
        "Ġmother",
        -9.92056160029586
      ],
      [
        "ĠAir",
        -9.921410321744418
      ],
      [
        "Ġoffice",
        -9.92169037424982
      ],
      [
        "Ġnaturally",
        -9.922121049541222
      ],
      [
        "Ġeventually",
        -9.92254911186306
      ],
      [
        "Ġindustrial",
        -9.92275092180298
      ],
      [
        "Are",
        -9.92284211079268
      ],
      [
        "Ġnamed",
        -9.923080576773067
      ],
      [
        "ĠEuropean",
        -9.923864365759012
      ],
      [
        "Ġpump",
        -9.92442536081197
      ],
      [
        "Ġprivate",
        -9.925213570987856
      ],
      [
        "Ġunits",
        -9.92785416597408
      ],
      [
        "Ġdead",
        -9.9280309124277
      ],
      [
        "Ġwait",
        -9.928495699660012
      ],
      [
        "Ġlab",
        -9.930074558514503
      ],
      [
        "Ġstrategy",
        -9.930388251319076
      ],
      [
        "Ġindicate",
        -9.9304441021632
      ],
      [
        "aid",
        -9.930454054166754
      ],
      [
        "Ġexternal",
        -9.93097516007508
      ],
      [
        "Ġpolicy",
        -9.93124049672384
      ],
      [
        "Ġrelevant",
        -9.93157433059811
      ],
      [
        "Ġlatest",
        -9.932047465685846
      ],
      [
        "Ġmixture",
        -9.93269968130972
      ],
      [
        "Ġorganisms",
        -9.93290320276852
      ],
      [
        "Ġdetailed",
        -9.93596449825366
      ],
      [
        "Ġcheese",
        -9.937417349566136
      ],
      [
        "Ġquantum",
        -9.93755233102881
      ],
      [
        "Ġrelationships",
        -9.938221736562497
      ],
      [
        "Ġtrip",
        -9.93862585421868
      ],
      [
        "Ġdrugs",
        -9.938786403800096
      ],
      [
        "Ġplans",
        -9.938824531419865
      ],
      [
        "Ġfollowed",
        -9.9403857187371
      ],
      [
        "Ġdetect",
        -9.940722314485823
      ],
      [
        "Ġbike",
        -9.940827919244668
      ],
      [
        "Ġshade",
        -9.941366159551723
      ],
      [
        "Ġmold",
        -9.942875385751824
      ],
      [
        "Once",
        -9.943310625155876
      ],
      [
        "Ġbright",
        -9.943942682911132
      ],
      [
        "Ġseek",
        -9.94437691891156
      ],
      [
        "Ġtreated",
        -9.945654938455672
      ],
      [
        "Ġmedicine",
        -9.946295687183246
      ],
      [
        "Ġcarefully",
        -9.94630974261502
      ],
      [
        "Ġoperating",
        -9.94672078637091
      ],
      [
        "Ġmode",
        -9.94685186866787
      ],
      [
        "capable",
        -9.947238428266676
      ],
      [
        "Ġextreme",
        -9.947664990085588
      ],
      [
        "Ġcomposition",
        -9.948562311967947
      ],
      [
        "Ġfindings",
        -9.949504733147275
      ],
      [
        "My",
        -9.95022580885176
      ],
      [
        "Ġlifestyle",
        -9.950430506467043
      ],
      [
        "Ġmagnetic",
        -9.950627978979387
      ],
      [
        "Ġwaves",
        -9.953216081997184
      ],
      [
        "Ġlens",
        -9.953668662751092
      ],
      [
        "Ġmessage",
        -9.9537804123696
      ],
      [
        "Ġbag",
        -9.954302616491043
      ],
      [
        "Ġgrade",
        -9.954826526267976
      ],
      [
        "Ġpull",
        -9.955166590495836
      ],
      [
        "Ġstored",
        -9.957661878432612
      ],
      [
        "Ġexpression",
        -9.957716300382488
      ],
      [
        "Ġstories",
        -9.957912910409078
      ],
      [
        "Ġprint",
        -9.957955857209054
      ],
      [
        "Ġbeauty",
        -9.958013091290454
      ],
      [
        "-quality",
        -9.958606915901964
      ],
      [
        "Ġintroduced",
        -9.958829575773413
      ],
      [
        "Ġemail",
        -9.958873341300318
      ],
      [
        "Ġadvantages",
        -9.958920568270214
      ],
      [
        "Ġreliable",
        -9.958920586017852
      ],
      [
        "Ġwalls",
        -9.9595490519321
      ],
      [
        "Ġthousands",
        -9.95964660145329
      ],
      [
        "Ġvoice",
        -9.959817518071956
      ],
      [
        "ĠCanada",
        -9.959946171785225
      ],
      [
        "Ġmachines",
        -9.960132174917511
      ],
      [
        "Ġfishing",
        -9.960466879449193
      ],
      [
        "Ġconsistent",
        -9.960996237446963
      ],
      [
        "Ġsunlight",
        -9.961374014879675
      ],
      [
        "Ġenvironments",
        -9.962168864472485
      ],
      [
        "Ġoptimal",
        -9.963027322226235
      ],
      [
        "Ġmanufacturing",
        -9.963871456576255
      ],
      [
        "Ġchoosing",
        -9.965044830433822
      ],
      [
        "Ġsamples",
        -9.965241635628184
      ],
      [
        "Ġstone",
        -9.965568758788791
      ],
      [
        "Ġplanting",
        -9.966652562724304
      ],
      [
        "Ġcard",
        -9.966988320117297
      ],
      [
        "Ġcredit",
        -9.96741935778018
      ],
      [
        "Ġroutine",
        -9.967420528742192
      ],
      [
        "Ġnerve",
        -9.967420989268936
      ],
      [
        "Ġoutdoor",
        -9.968132616612204
      ],
      [
        "Ġsurfaces",
        -9.968882586936015
      ],
      [
        "Ġdetail",
        -9.96902727493783
      ],
      [
        "Ġbrought",
        -9.969205328102005
      ],
      [
        "Ġnews",
        -9.969597465502629
      ],
      [
        "Ġadjust",
        -9.969667471604604
      ],
      [
        "Ġvitamin",
        -9.969790955889414
      ],
      [
        "Ġmatch",
        -9.969963919987071
      ],
      [
        "Ġfarmers",
        -9.970204742137089
      ],
      [
        "ĠRiver",
        -9.971232238922806
      ],
      [
        "Ġbatteries",
        -9.971470753869763
      ],
      [
        "Ġformation",
        -9.971619771488276
      ],
      [
        "Ġhole",
        -9.97240449351119
      ],
      [
        "Ġdetermined",
        -9.973553215640846
      ],
      [
        "ĠDoes",
        -9.975007737413923
      ],
      [
        "Ġconcentration",
        -9.97584823057672
      ],
      [
        "Ġradio",
        -9.977153438426638
      ],
      [
        "Ġdish",
        -9.97734948851216
      ],
      [
        "Ġsecure",
        -9.977769406519952
      ],
      [
        "Ġmonitoring",
        -9.978216707461236
      ],
      [
        "Ġzero",
        -9.97843358921785
      ],
      [
        "Ġsweet",
        -9.978809749925052
      ],
      [
        "Ġcontainer",
        -9.979707228639704
      ],
      [
        "Ġclinical",
        -9.98007933474457
      ],
      [
        "Ġcoffee",
        -9.980654918901395
      ],
      [
        "ĠFrench",
        -9.980659215120426
      ],
      [
        "Ġfiber",
        -9.980785505267814
      ],
      [
        "Ġprepared",
        -9.981047458586843
      ],
      [
        "Ġblog",
        -9.981490938141125
      ],
      [
        "Ġcolour",
        -9.982343320954046
      ],
      [
        "Ġaudience",
        -9.982398458856814
      ],
      [
        "Ġorganizations",
        -9.98318346100435
      ],
      [
        "Ġsituations",
        -9.983220073616504
      ],
      [
        "Ġoffering",
        -9.983475881521962
      ],
      [
        "Ġjoint",
        -9.98349467900029
      ],
      [
        "-being",
        -9.983729434325006
      ],
      [
        "Finally",
        -9.983989163749882
      ],
      [
        "Ġlegs",
        -9.984193591882049
      ],
      [
        "Ġperformed",
        -9.984929202085596
      ],
      [
        "Ġrespond",
        -9.985743049667478
      ],
      [
        "Ġkept",
        -9.98576051997468
      ],
      [
        "Many",
        -9.985791875106724
      ],
      [
        "Ġtooth",
        -9.985877473089417
      ],
      [
        "Conclusion",
        -9.986254343929394
      ],
      [
        "that",
        -9.98639177318448
      ],
      [
        "ĠGoogle",
        -9.987405463424826
      ],
      [
        "Ġrain",
        -9.987452861498102
      ],
      [
        "Ġcombined",
        -9.98750288960601
      ],
      [
        "Ġbreeding",
        -9.987745018245144
      ],
      [
        "Ġassist",
        -9.98793620730928
      ],
      [
        "X",
        -9.988356826850602
      ],
      [
        "Ġprocedure",
        -9.98868905435834
      ],
      [
        "-time",
        -9.988839925640388
      ],
      [
        "Ġintelligence",
        -9.989249799787109
      ],
      [
        "Ġbutton",
        -9.989484677351944
      ],
      [
        "Ġappears",
        -9.989911225598162
      ],
      [
        "ĠBritish",
        -9.990958804874452
      ],
      [
        "ĠFood",
        -9.991351709308995
      ],
      [
        "Ġmainly",
        -9.991381957755513
      ],
      [
        "ĠJune",
        -9.992153853410992
      ],
      [
        "Ġprofessionals",
        -9.992359153335
      ],
      [
        "ĠCO",
        -9.99240515589235
      ],
      [
        "Ġhydrogen",
        -9.99271522390216
      ],
      [
        "Ġdensity",
        -9.992989735515998
      ],
      [
        "Ġstatus",
        -9.993899116003195
      ],
      [
        "Ġminimum",
        -9.99471158536935
      ],
      [
        "||",
        -9.996019551060336
      ],
      [
        "Ġactions",
        -9.99605332937482
      ],
      [
        "Ġcoat",
        -9.996156550963024
      ],
      [
        "Ġmonitor",
        -9.997337044077357
      ],
      [
        "Ġeducational",
        -9.999848158772584
      ],
      [
        "Ġconclusion",
        -10.00015578075404
      ],
      [
        "Ġcrop",
        -10.000222712715525
      ],
      [
        "Ġraise",
        -10.00071397691424
      ],
      [
        "Ġplays",
        -10.000835852395262
      ],
      [
        "Ġplayer",
        -10.00108378022265
      ],
      [
        "Ġdrink",
        -10.0013024214656
      ],
      [
        "Ġaspect",
        -10.001821108667915
      ],
      [
        "Ġfight",
        -10.00236834240207
      ],
      [
        "Ġawareness",
        -10.002454055999118
      ],
      [
        "Ġannual",
        -10.00292462092987
      ],
      [
        "Ġamazing",
        -10.003308076084853
      ],
      [
        "Ġcontrast",
        -10.003815285977996
      ],
      [
        "-friendly",
        -10.004397100611047
      ],
      [
        "focused",
        -10.0052181884138
      ],
      [
        "Ġdesigns",
        -10.00581956649343
      ],
      [
        "Ġchallenging",
        -10.006346690321724
      ],
      [
        "ĠMarch",
        -10.006854238907165
      ],
      [
        "Ġuniverse",
        -10.007432095123528
      ],
      [
        "Ġmeasured",
        -10.008498944737363
      ],
      [
        "Ġsnow",
        -10.008526661532573
      ],
      [
        "Ġfear",
        -10.008565750043624
      ],
      [
        "Ġstarts",
        -10.00897939472559
      ],
      [
        "Ġimproving",
        -10.00995720739909
      ],
      [
        "Ġapart",
        -10.010297620878015
      ],
      [
        "Ġleads",
        -10.011362656189256
      ],
      [
        "Ġsurrounding",
        -10.011614819823654
      ],
      [
        "Ġattempt",
        -10.012097733666913
      ],
      [
        "Ġcrops",
        -10.013454873197563
      ],
      [
        "Ġmobile",
        -10.01346674593545
      ],
      [
        "Ġfarm",
        -10.013992014413484
      ],
      [
        "Ġcook",
        -10.014192457676913
      ],
      [
        "ĠApril",
        -10.014646789205038
      ],
      [
        "truly",
        -10.016921134632444
      ],
      [
        "ring",
        -10.018473613398044
      ],
      [
        "Ġsell",
        -10.019286515262888
      ],
      [
        "ĠPeople",
        -10.020362072843591
      ],
      [
        "Ġstrain",
        -10.020576447842355
      ],
      [
        "turned",
        -10.021028002576992
      ],
      [
        "Ġenter",
        -10.021321215976991
      ],
      [
        "Ġshowing",
        -10.023438132409948
      ],
      [
        "plenty",
        -10.023975475987733
      ],
      [
        "Ġchoices",
        -10.024860738898209
      ],
      [
        "Ġpowder",
        -10.026901723517094
      ],
      [
        "Ġsensitive",
        -10.027574434043558
      ],
      [
        "Ġdecide",
        -10.027694505262923
      ],
      [
        "Ġplane",
        -10.02790652404429
      ],
      [
        "Ġstock",
        -10.028916186301409
      ],
      [
        "Â·",
        -10.0289561850674
      ],
      [
        "Ġphotos",
        -10.02896231620334
      ],
      [
        "ĠInternational",
        -10.030277290703378
      ],
      [
        "Ġerror",
        -10.031176783978497
      ],
      [
        "Ġmechanical",
        -10.032688781277528
      ],
      [
        "ĠSystem",
        -10.032741859840696
      ],
      [
        "referred",
        -10.03368803298662
      ],
      [
        "Ġconcern",
        -10.034071006707675
      ],
      [
        "Ġperhaps",
        -10.034272624442792
      ],
      [
        "Ġcount",
        -10.0347392115712
      ],
      [
        "Ġdecrease",
        -10.036040874900934
      ],
      [
        "Ġlaser",
        -10.037543015359851
      ],
      [
        "Ġplate",
        -10.038054758352464
      ],
      [
        "Ġgear",
        -10.038102761998871
      ],
      [
        "Ġwar",
        -10.038220589436586
      ],
      [
        "Ġtreatments",
        -10.038527637534784
      ],
      [
        "shared",
        -10.039212647285622
      ],
      [
        "Ġwhose",
        -10.039995086090402
      ],
      [
        "Ġmajority",
        -10.040965537195335
      ],
      [
        "Ġleaving",
        -10.043333839046522
      ],
      [
        "Ġbottle",
        -10.043616673116386
      ],
      [
        "Ġprinting",
        -10.044149053198378
      ],
      [
        "Ġforces",
        -10.04430271555722
      ],
      [
        "Ġsequence",
        -10.044951744420322
      ],
      [
        "Ġfundamental",
        -10.046475756374738
      ],
      [
        "Ġstatement",
        -10.04661358280851
      ],
      [
        "Ġmechanism",
        -10.046734821861811
      ],
      [
        "Ġopening",
        -10.0499242960546
      ],
      [
        "Ġowner",
        -10.051363585103749
      ],
      [
        "Ġpreviously",
        -10.051538651916117
      ],
      [
        "Ġdust",
        -10.052290090039596
      ],
      [
        "Ġestimated",
        -10.052339198828015
      ],
      [
        "Ġpush",
        -10.05355261933564
      ],
      [
        "ĠWar",
        -10.053905933689247
      ],
      [
        "Ġdrain",
        -10.054564785880029
      ],
      [
        "Ġcup",
        -10.05516670661028
      ],
      [
        "ĠWell",
        -10.055631934478493
      ],
      [
        "Ġshapes",
        -10.056620809303617
      ],
      [
        "Ġexhibit",
        -10.057416248489812
      ],
      [
        "Ġfilled",
        -10.0576094553693
      ],
      [
        "Ġradiation",
        -10.0581104877016
      ],
      [
        "Ġchronic",
        -10.058454025655026
      ],
      [
        "ĠGreat",
        -10.059041338908488
      ],
      [
        "Ġhomes",
        -10.059236283434354
      ],
      [
        "Ġportion",
        -10.05935497446838
      ],
      [
        "ĠBoth",
        -10.0599177364744
      ],
      [
        "Ġspeaker",
        -10.06173257343166
      ],
      [
        "Ġsmart",
        -10.06231079843038
      ],
      [
        "Ġvisible",
        -10.063387271192322
      ],
      [
        "Ġgenerated",
        -10.064200796308578
      ],
      [
        "Ġborn",
        -10.064820546361
      ],
      [
        "Ġbones",
        -10.064923990977483
      ],
      [
        "Ġselected",
        -10.06501899686016
      ],
      [
        "Ġrefers",
        -10.065674070877758
      ],
      [
        "Ġtechnical",
        -10.066644684530765
      ],
      [
        "Ġminerals",
        -10.067538296112383
      ],
      [
        "Ġcatch",
        -10.068420962078491
      ],
      [
        "ĠJohn",
        -10.069501888212317
      ],
      [
        "Ġtried",
        -10.069553834205864
      ],
      [
        "ĠEnergy",
        -10.069742366306013
      ],
      [
        "Ġsets",
        -10.06993271322528
      ],
      [
        "Ġtrust",
        -10.069990937779735
      ],
      [
        "Ġclothing",
        -10.070256397558673
      ],
      [
        "Ġconducted",
        -10.072006179058118
      ],
      [
        "ĠEducation",
        -10.073298669409043
      ],
      [
        "Ġfeedback",
        -10.07439621802641
      ],
      [
        "Ġvalve",
        -10.07453603414914
      ],
      [
        "Ġessay",
        -10.074601072132314
      ],
      [
        "ĠAfrican",
        -10.07563180791262
      ],
      [
        "Ġreactions",
        -10.075909434553193
      ],
      [
        "Ġkinds",
        -10.0767000635097
      ],
      [
        "Ġpot",
        -10.076861811313089
      ],
      [
        "Ġpainting",
        -10.07688565271076
      ],
      [
        "Ġenable",
        -10.077247418609875
      ],
      [
        "Ġinstallation",
        -10.078351886034085
      ],
      [
        "Ġcertainly",
        -10.078506485511925
      ],
      [
        "Ġsolve",
        -10.079916971201486
      ],
      [
        "].",
        -10.080267148730456
      ],
      [
        "Ġattract",
        -10.08083357095104
      ],
      [
        "Ġconsidering",
        -10.082328989195226
      ],
      [
        "Ġtube",
        -10.083210902282174
      ],
      [
        "Ġstable",
        -10.083271317004929
      ],
      [
        "Ġimpacts",
        -10.083940675955084
      ],
      [
        "-related",
        -10.084069864687086
      ],
      [
        "Ġmission",
        -10.08436766932362
      ],
      [
        "Ġparticipants",
        -10.08516315110466
      ],
      [
        "Ġproducing",
        -10.085327147916152
      ],
      [
        "Ġcm",
        -10.08533204452781
      ],
      [
        "Ġintake",
        -10.085447084310376
      ],
      [
        "Ġbudget",
        -10.085893641579428
      ],
      [
        "Ġchocolate",
        -10.086084957103536
      ],
      [
        "Ġphotography",
        -10.08715494791547
      ],
      [
        "Ġpresented",
        -10.08799991377265
      ],
      [
        "Ġthick",
        -10.088000681502049
      ],
      [
        "Ġriver",
        -10.088542056649445
      ],
      [
        "Ġotherwise",
        -10.089048839825132
      ],
      [
        "Ġtail",
        -10.08905101563805
      ],
      [
        "Ġdisorders",
        -10.08929408077853
      ],
      [
        "Ġcompounds",
        -10.089552525342055
      ],
      [
        "Ġpurposes",
        -10.09014226899884
      ],
      [
        "Ġmap",
        -10.09040062150394
      ],
      [
        "ĠBlack",
        -10.090497460067088
      ],
      [
        "Ġwheel",
        -10.091314009353203
      ],
      [
        "Ġrecovery",
        -10.092619876966586
      ],
      [
        "Ġatoms",
        -10.092946488916237
      ],
      [
        "Ġtrade",
        -10.09304769821586
      ],
      [
        "Ġexcessive",
        -10.09522712222965
      ],
      [
        "ĠPark",
        -10.095440753428578
      ],
      [
        "First",
        -10.096505157550109
      ],
      [
        "Ġbees",
        -10.09732052320006
      ],
      [
        "Ġconcepts",
        -10.09797523495996
      ],
      [
        "Ġlabel",
        -10.09888943544378
      ],
      [
        "Ġaffects",
        -10.099049922586316
      ],
      [
        "Ġelectrons",
        -10.099329242056404
      ],
      [
        "Ġinternet",
        -10.099980587328153
      ],
      [
        "Ġscene",
        -10.100066198600556
      ],
      [
        "Ġsit",
        -10.100498946774085
      ],
      [
        "Ġpictures",
        -10.100836419350896
      ],
      [
        "Ġcontrolled",
        -10.101684556509358
      ],
      [
        "Ġemergency",
        -10.101713850164298
      ],
      [
        "Ġensures",
        -10.101792390387423
      ],
      [
        "Ġagree",
        -10.1018205884407
      ],
      [
        "Ġinflammation",
        -10.101957661647411
      ],
      [
        "Ġcooling",
        -10.10201752379336
      ],
      [
        "Ġwouldn",
        -10.10248131742543
      ],
      [
        "Ġskill",
        -10.103625793755052
      ],
      [
        "Ġvarieties",
        -10.103998074886055
      ],
      [
        "Ġconsists",
        -10.105118333232426
      ],
      [
        "Ġengage",
        -10.10519288433976
      ],
      [
        "ĠJuly",
        -10.106129423302727
      ],
      [
        "Ġdescription",
        -10.106682289787033
      ],
      [
        "ĠOver",
        -10.108677976631474
      ],
      [
        "Ġpure",
        -10.10885064212859
      ],
      [
        "Ġnormally",
        -10.10945382246976
      ],
      [
        "ĠHis",
        -10.109482676981049
      ],
      [
        "Ġwalking",
        -10.10978137659056
      ],
      [
        "Ġformula",
        -10.110454337145017
      ],
      [
        "slowly",
        -10.11080694746977
      ],
      [
        "Ġwhatever",
        -10.111285906413066
      ],
      [
        "Ġdiversity",
        -10.111377094594095
      ],
      [
        "Ġdefinition",
        -10.111532687137975
      ],
      [
        "Ġprinciples",
        -10.1123054293752
      ],
      [
        "Ġharm",
        -10.113145292862209
      ],
      [
        "Ġeight",
        -10.113647355226911
      ],
      [
        "ĠCity",
        -10.11365274641891
      ],
      [
        "Ġsurvival",
        -10.114444001226152
      ],
      [
        "Ġassessment",
        -10.117344821100284
      ],
      [
        "Ġfoundation",
        -10.117803121107388
      ],
      [
        "Ġdisorder",
        -10.118021332077232
      ],
      [
        "Ġbite",
        -10.11818225776766
      ],
      [
        "Ġclosely",
        -10.118691175116286
      ],
      [
        "According",
        -10.11871377265544
      ],
      [
        "Ġdamaged",
        -10.11904084889276
      ],
      [
        "Ġcreation",
        -10.119460218912025
      ],
      [
        "Ġwarming",
        -10.119805287693282
      ],
      [
        "Ġexpert",
        -10.120475466603295
      ],
      [
        "Ġvirtual",
        -10.121060017519884
      ],
      [
        "Ġnutrition",
        -10.121212285368694
      ],
      [
        "Ġsizes",
        -10.12159868068047
      ],
      [
        "Ġinner",
        -10.122216684857886
      ],
      [
        "Use",
        -10.122817061436631
      ],
      [
        "we",
        -10.123457596938533
      ],
      [
        "Ġdecades",
        -10.125147549636791
      ],
      [
        "Ġmixed",
        -10.125360582858496
      ],
      [
        "Ġcarried",
        -10.125377793783226
      ],
      [
        "Ġcompare",
        -10.125754591926516
      ],
      [
        "Ġdecided",
        -10.125932465912278
      ],
      [
        "Ġseeing",
        -10.126092204748833
      ],
      [
        "Ġinsights",
        -10.126114704944154
      ],
      [
        "Ġunless",
        -10.127883156896472
      ],
      [
        "Ġten",
        -10.128236450613429
      ],
      [
        "ĠRed",
        -10.128577528694606
      ],
      [
        "q",
        -10.129697346135556
      ],
      [
        "Ġholes",
        -10.12993224828281
      ],
      [
        "`",
        -10.130194556942095
      ],
      [
        "Ġinstall",
        -10.130247460749391
      ],
      [
        "ĠSeptember",
        -10.130311593912957
      ],
      [
        "Ġsuper",
        -10.1303412871691
      ],
      [
        "Ġprior",
        -10.130999639404031
      ],
      [
        "Ġexpand",
        -10.131445925026313
      ],
      [
        "Ġexcess",
        -10.131595618251254
      ],
      [
        "Ġdishes",
        -10.131669246766023
      ],
      [
        "Ġboost",
        -10.132087616556504
      ],
      [
        "ĠKeep",
        -10.132674192764352
      ],
      [
        "Ġpercentage",
        -10.132810215823833
      ],
      [
        "Ġtopics",
        -10.133225531105904
      ],
      [
        "Ġspent",
        -10.134034905492635
      ],
      [
        "Let",
        -10.134173932631418
      ],
      [
        "Ġbowl",
        -10.134262198883947
      ],
      [
        "Ġacids",
        -10.134937921649142
      ],
      [
        "Ġlinked",
        -10.135197093626692
      ],
      [
        "Ġcollege",
        -10.136696211881398
      ],
      [
        "from",
        -10.138956486226975
      ],
      [
        "Ġdocument",
        -10.139188319347756
      ],
      [
        "Ġtested",
        -10.13993987009941
      ],
      [
        "Ġfunctional",
        -10.140119595370145
      ],
      [
        "Ġshift",
        -10.14018278607458
      ],
      [
        "Ġcopper",
        -10.140935699975804
      ],
      [
        "Ġcommunicate",
        -10.142888380044072
      ],
      [
        "Ġinvestment",
        -10.14329568589548
      ],
      [
        "Ġrely",
        -10.144166098776063
      ],
      [
        "Ġgreenhouse",
        -10.144175452068042
      ],
      [
        "Ġcorrectly",
        -10.144698589912243
      ],
      [
        "Ġcontaining",
        -10.14513027416177
      ],
      [
        "ĠIndian",
        -10.145388933848515
      ],
      [
        "Ġtight",
        -10.146677094434612
      ],
      [
        "Ġclearly",
        -10.1472748174968
      ],
      [
        "Ġshot",
        -10.147673883147716
      ],
      [
        "Ġdiscover",
        -10.147833291939728
      ],
      [
        "Ġstick",
        -10.147909352696065
      ],
      [
        "Ġcreates",
        -10.147928417791896
      ],
      [
        "Ġperiods",
        -10.148282273016385
      ],
      [
        "Ġprey",
        -10.149825996511126
      ],
      [
        "Ġextend",
        -10.14985801718458
      ],
      [
        "Ġpregnancy",
        -10.14992864708328
      ],
      [
        "Ġfiles",
        -10.149954390254512
      ],
      [
        "Ġdistinct",
        -10.150160652394478
      ],
      [
        "Ġahead",
        -10.150593569278955
      ],
      [
        "Ġputting",
        -10.152158439358992
      ],
      [
        "Ġhunting",
        -10.153488847545496
      ],
      [
        "Ġchapter",
        -10.154012717944
      ],
      [
        "Ġsauce",
        -10.154211427754769
      ],
      [
        "Ġmolecular",
        -10.1547766720175
      ],
      [
        "Ġrepresents",
        -10.155140547148966
      ],
      [
        "old",
        -10.15568207826013
      ],
      [
        "Ġvideos",
        -10.156467952753925
      ],
      [
        "Ġcloser",
        -10.15675212821405
      ],
      [
        "Ġtraffic",
        -10.157159655996187
      ],
      [
        "Ġattached",
        -10.157478967330338
      ],
      [
        "Ġcalcium",
        -10.15779922521094
      ],
      [
        "Ġbigger",
        -10.158230281492088
      ],
      [
        "Ġguidelines",
        -10.158893160206304
      ],
      [
        "Ġpress",
        -10.159786027545806
      ],
      [
        "Ġprices",
        -10.1600759915974
      ],
      [
        "Ġinteraction",
        -10.160556576687435
      ],
      [
        "Ġphysics",
        -10.160928635210295
      ],
      [
        "Ġparent",
        -10.161551023696568
      ],
      [
        "Ġcreatures",
        -10.161817109107677
      ],
      [
        "Ġfirm",
        -10.16212768090632
      ],
      [
        "Ġmarketing",
        -10.16218368713674
      ],
      [
        "Ġthrive",
        -10.162493938765577
      ],
      [
        "ĠIts",
        -10.162954427919027
      ],
      [
        "Ġaccuracy",
        -10.163046971052063
      ],
      [
        "Ġcomputers",
        -10.163216275300549
      ],
      [
        "Ġship",
        -10.163304764407677
      ],
      [
        "Ġmeeting",
        -10.164227497381368
      ],
      [
        "Ġdepend",
        -10.16443025090255
      ],
      [
        "Ġmanner",
        -10.165220139827838
      ],
      [
        "ĠInstead",
        -10.16574163967414
      ],
      [
        "Ġmention",
        -10.167864734048884
      ],
      [
        "Ġcombine",
        -10.16807198651604
      ],
      [
        "Although",
        -10.168351389876818
      ],
      [
        "Ġurban",
        -10.168912189265685
      ],
      [
        "Ġhappened",
        -10.169351617793843
      ],
      [
        "Ġconsume",
        -10.170342996494448
      ],
      [
        "Ġtrain",
        -10.170522271941644
      ],
      [
        "Ġbuying",
        -10.171537163567267
      ],
      [
        "Ġcream",
        -10.171687055240326
      ],
      [
        "Ġsides",
        -10.171982756460675
      ],
      [
        "Ġdefinitely",
        -10.17282656765173
      ],
      [
        "Ġstomach",
        -10.17332013427151
      ],
      [
        "ĠCounty",
        -10.173332359878929
      ],
      [
        "ĠTake",
        -10.173577734181134
      ],
      [
        "Ġfossil",
        -10.173770855320935
      ],
      [
        "with",
        -10.173910776970557
      ],
      [
        "Ġapproaches",
        -10.173980146231791
      ],
      [
        "Ġturning",
        -10.174119754307297
      ],
      [
        "Ġpounds",
        -10.17418345319594
      ],
      [
        "ĠThus",
        -10.174733970560348
      ],
      [
        "Ġboat",
        -10.17545030270312
      ],
      [
        "Ġbroken",
        -10.176018658431708
      ],
      [
        "Ġvast",
        -10.176134609887168
      ],
      [
        "Ġspeak",
        -10.176553969402155
      ],
      [
        "Ġpages",
        -10.17661337937128
      ],
      [
        "ĠpH",
        -10.177674544083796
      ],
      [
        "Ġstar",
        -10.177922873847487
      ],
      [
        "Ġlocations",
        -10.178248392889708
      ],
      [
        "Ġbond",
        -10.178261915180368
      ],
      [
        "Ġtoxic",
        -10.17900388105946
      ],
      [
        "Ġlaws",
        -10.179004691879994
      ],
      [
        "ĠII",
        -10.179011150670334
      ],
      [
        "From",
        -10.180986481015548
      ],
      [
        "Ġcareful",
        -10.18143298882374
      ],
      [
        "ĠOctober",
        -10.18254427207043
      ],
      [
        "Ġinteractions",
        -10.18376586997867
      ],
      [
        "Ġlesson",
        -10.185056948342242
      ],
      [
        "Ġpanel",
        -10.185424987962485
      ],
      [
        "looked",
        -10.185606710908225
      ],
      [
        "Ġfixed",
        -10.18607452699613
      ],
      [
        "ĠWest",
        -10.186272377273909
      ],
      [
        "Ġtall",
        -10.186448568090317
      ],
      [
        "Ġobtained",
        -10.18769849586385
      ],
      [
        "Ġworry",
        -10.188405918124888
      ],
      [
        "Ġmeals",
        -10.18861816375248
      ],
      [
        "Ġpreserve",
        -10.188862101271477
      ],
      [
        "Moreover",
        -10.188940237822866
      ],
      [
        "Ġseven",
        -10.189026831579962
      ],
      [
        "Ġmedication",
        -10.189209684612903
      ],
      [
        "Ġbalanced",
        -10.18945678716562
      ],
      [
        "Ġpassed",
        -10.18988925463657
      ],
      [
        "Ġsheet",
        -10.190172616897431
      ],
      [
        "Ġintended",
        -10.190532027539158
      ],
      [
        "Ġfix",
        -10.19115877518028
      ],
      [
        "Ġfamiliar",
        -10.191199470552474
      ],
      [
        "Ġinstalled",
        -10.191375031476843
      ],
      [
        "ĠSt",
        -10.19191885480069
      ],
      [
        "Ġeconomy",
        -10.192073898044434
      ],
      [
        "ĠAbout",
        -10.192326190105277
      ],
      [
        "Ġindependent",
        -10.193992926203409
      ],
      [
        "Ġroute",
        -10.194537111168236
      ],
      [
        "âĢ¦ĊĊ",
        -10.194851554167556
      ],
      [
        "Ġnames",
        -10.19490777789376
      ],
      [
        "Ġfelt",
        -10.195300427654075
      ],
      [
        "Ġdioxide",
        -10.195906604912937
      ],
      [
        "Ġdepression",
        -10.196578200802705
      ],
      [
        "Ġworldwide",
        -10.1970910240684
      ],
      [
        "Ġwindows",
        -10.197589120260204
      ],
      [
        "Ġexact",
        -10.197862413130055
      ],
      [
        "Ġprotected",
        -10.198117872566854
      ],
      [
        "Ġsold",
        -10.198252147049557
      ],
      [
        "Ġbegins",
        -10.198730337883475
      ],
      [
        "Ġproduces",
        -10.19888994159551
      ],
      [
        "Ġfamous",
        -10.19902490265052
      ],
      [
        "Ġturns",
        -10.199163768139078
      ],
      [
        "Ġsharing",
        -10.199577558377756
      ],
      [
        "removing",
        -10.20006636540032
      ],
      [
        "Ġdeeper",
        -10.20015679381292
      ],
      [
        "Ġfinish",
        -10.200617635023349
      ],
      [
        "Ġrapidly",
        -10.201304686641128
      ],
      [
        "Ġcooked",
        -10.20156223388824
      ],
      [
        "Ġjoin",
        -10.201976320956794
      ],
      [
        "Ġwoman",
        -10.202091186068532
      ],
      [
        "one",
        -10.202102757725353
      ],
      [
        "Ġtwice",
        -10.202209097449808
      ],
      [
        "ĠCollege",
        -10.202235859543016
      ],
      [
        "Ġsubstance",
        -10.20265121532215
      ],
      [
        "Ġbutter",
        -10.202990807493364
      ],
      [
        "Ġsuggested",
        -10.20335397232738
      ],
      [
        "Figure",
        -10.203500518563594
      ],
      [
        "Ġinnovative",
        -10.203997136597938
      ],
      [
        "Ġcollected",
        -10.204427060786204
      ],
      [
        "Ġraised",
        -10.20481234847108
      ],
      [
        "He",
        -10.204890109062797
      ],
      [
        "ĠJanuary",
        -10.20601373674353
      ],
      [
        "Ġclosed",
        -10.206195988148302
      ],
      [
        "Ġschedule",
        -10.20639726405193
      ],
      [
        "Ġhabits",
        -10.20684488769128
      ],
      [
        "Ġcompound",
        -10.206959081636528
      ],
      [
        "Ġadapt",
        -10.207114361515092
      ],
      [
        "Ġliver",
        -10.20715426199747
      ],
      [
        "Ġinjuries",
        -10.2074234272413
      ],
      [
        "Ġagriculture",
        -10.20756330099504
      ],
      [
        "Ġrecognize",
        -10.207965741096446
      ],
      [
        "Ġworkers",
        -10.208421988933187
      ],
      [
        "U",
        -10.211680953505546
      ],
      [
        "Ġhorses",
        -10.21169832468331
      ],
      [
        "Ġrapid",
        -10.211905846813158
      ],
      [
        "ĠGreen",
        -10.211955151372006
      ],
      [
        "ĠLike",
        -10.21226942653436
      ],
      [
        "Ġneck",
        -10.21267304065958
      ],
      [
        "Ġfurniture",
        -10.21327438228898
      ],
      [
        "Ġbrush",
        -10.213718917236124
      ],
      [
        "Ġbar",
        -10.213941656224558
      ],
      [
        "Ġshoes",
        -10.214606575826677
      ],
      [
        "Ġnitrogen",
        -10.214862052695835
      ],
      [
        "Ġcommand",
        -10.21541225019338
      ],
      [
        "Ġbaking",
        -10.215428352405128
      ],
      [
        "ĠAugust",
        -10.215477555489036
      ],
      [
        "ĠCheck",
        -10.215882609505291
      ],
      [
        "Ġfail",
        -10.2162152434197
      ],
      [
        "Ġpreventing",
        -10.216452148911417
      ],
      [
        "</",
        -10.216531731892369
      ],
      [
        "Ġpreparation",
        -10.216599778319129
      ],
      [
        "Ġthermal",
        -10.217622795235783
      ],
      [
        "Ġanswers",
        -10.217970291855922
      ],
      [
        "ĠChinese",
        -10.21804159953422
      ],
      [
        "Ġseconds",
        -10.218297403728709
      ],
      [
        "Ġstages",
        -10.218895940205522
      ],
      [
        "ĠCOVID",
        -10.21895003429906
      ],
      [
        "not",
        -10.219238290991136
      ],
      [
        "Ġthrow",
        -10.220052016935902
      ],
      [
        "Ġminimize",
        -10.220909771975313
      ],
      [
        "ĠWhere",
        -10.2209486911476
      ],
      [
        "Ġreports",
        -10.221198997307871
      ],
      [
        "Ġhardware",
        -10.221220468683924
      ],
      [
        "Ġecosystem",
        -10.22150840581161
      ],
      [
        "Ġopposite",
        -10.222198022878358
      ],
      [
        "Ġmath",
        -10.222501227753238
      ],
      [
        "Ġlawn",
        -10.22271067388592
      ],
      [
        "Ġsent",
        -10.22310327109381
      ],
      [
        "Ġconvert",
        -10.223261275822988
      ],
      [
        "Ġsharp",
        -10.223603332165697
      ],
      [
        "Ġpests",
        -10.224391695831375
      ],
      [
        "ĠTechnology",
        -10.225137127843425
      ],
      [
        "Ġarray",
        -10.22542707206632
      ],
      [
        "Ġprofessor",
        -10.225662567755766
      ],
      [
        "Ġoffered",
        -10.226010085139524
      ],
      [
        "Ġrace",
        -10.226267954462314
      ],
      [
        "Ġcommitment",
        -10.228485073634843
      ],
      [
        "Ġsuit",
        -10.229158497753549
      ],
      [
        "Ġitem",
        -10.22926078252333
      ],
      [
        "Ġbiggest",
        -10.229744653969084
      ],
      [
        "ĠSea",
        -10.229852349967144
      ],
      [
        "Ġstability",
        -10.229874990859086
      ],
      [
        "Ġmedications",
        -10.230019259340535
      ],
      [
        "Ġdiagnosis",
        -10.230373860598933
      ],
      [
        "Ġsustainability",
        -10.231746690878609
      ],
      [
        "ized",
        -10.232520721358416
      ],
      [
        "Ġbreast",
        -10.233796566079354
      ],
      [
        "Ġbiology",
        -10.235073207400806
      ],
      [
        "Ġformat",
        -10.235077156187431
      ],
      [
        "Ġsuffer",
        -10.235507964430315
      ],
      [
        "Ġvariable",
        -10.236079845806678
      ],
      [
        "ĠLearning",
        -10.2369127419215
      ],
      [
        "Ġrecipe",
        -10.237125052832578
      ],
      [
        "Ġtrained",
        -10.237552494939283
      ],
      [
        "Ġincreasingly",
        -10.238398353067478
      ],
      [
        "Ġdiscovery",
        -10.238444868260906
      ],
      [
        "Ġrequest",
        -10.23959006673934
      ],
      [
        "ĠFlorida",
        -10.240147194626314
      ],
      [
        "Ġcompetition",
        -10.2403154155768
      ],
      [
        "Ġexchange",
        -10.240430642413967
      ],
      [
        "Ġcontract",
        -10.240470120038148
      ],
      [
        "Ġdriver",
        -10.24069355138122
      ],
      [
        "be",
        -10.240866944453082
      ],
      [
        "Ġexciting",
        -10.24145076895873
      ],
      [
        ".[",
        -10.24181702050181
      ],
      [
        "-on",
        -10.24275225030132
      ],
      [
        "Ġcompleted",
        -10.242817712973244
      ],
      [
        "Ġdetection",
        -10.242993512775415
      ],
      [
        "Ġwish",
        -10.243693645406456
      ],
      [
        "Ġdemonstrate",
        -10.24387362470458
      ],
      [
        "Ġworse",
        -10.24423736484762
      ],
      [
        "Ġjournal",
        -10.244304612424164
      ],
      [
        "Ġoven",
        -10.244320887782344
      ],
      [
        "Ġdelicious",
        -10.244425890336608
      ],
      [
        "Ġoperate",
        -10.245033222594488
      ],
      [
        "Ġdespite",
        -10.24546261538844
      ],
      [
        "Ġobtain",
        -10.246058102031505
      ],
      [
        "Ġbroad",
        -10.246339147938778
      ],
      [
        "Ġnose",
        -10.24709209151183
      ],
      [
        "Ġflying",
        -10.247668280364238
      ],
      [
        "ĠControl",
        -10.247994050268469
      ],
      [
        "Ġbelieved",
        -10.248063296254209
      ],
      [
        "ĠProgram",
        -10.248087982202357
      ],
      [
        "Ġconventional",
        -10.248188822843616
      ],
      [
        "Ġindustries",
        -10.24837276147618
      ],
      [
        "Share",
        -10.248495465352114
      ],
      [
        "Ġdedicated",
        -10.248565934553213
      ],
      [
        "Ġcapabilities",
        -10.249159664442706
      ],
      [
        "Ġconnections",
        -10.250078116398296
      ],
      [
        "Ġspaces",
        -10.25112624323926
      ],
      [
        "Ġdiscussed",
        -10.251346013810336
      ],
      [
        "Ġhistorical",
        -10.251347734672814
      ],
      [
        "Ġfriendly",
        -10.251591712941453
      ],
      [
        "Ġsubstances",
        -10.25189755896494
      ],
      [
        "Ġspray",
        -10.251982444111094
      ],
      [
        "Ġequation",
        -10.252103988826494
      ],
      [
        "Ġclothes",
        -10.253806593775405
      ],
      [
        "Ġbuildings",
        -10.254097929196291
      ],
      [
        "Ġregulations",
        -10.254156342854948
      ],
      [
        "Ġdrinking",
        -10.254195977733993
      ],
      [
        "Ġtip",
        -10.254493645306676
      ],
      [
        "Ġdanger",
        -10.25467360249744
      ],
      [
        "Ġexplained",
        -10.254697852356362
      ],
      [
        "Ġcharacters",
        -10.254946232070925
      ],
      [
        "Ġinsurance",
        -10.25517902674025
      ],
      [
        "Ġexploring",
        -10.255406877146362
      ],
      [
        "Ġseeking",
        -10.25563709215414
      ],
      [
        "Ġsuccessfully",
        -10.255758368902708
      ],
      [
        "Ġgave",
        -10.256744989770082
      ],
      [
        "Ġemotions",
        -10.256794120413538
      ],
      [
        "Ġmeasurement",
        -10.25753333506506
      ],
      [
        "Those",
        -10.257686378685198
      ],
      [
        "Ġpeak",
        -10.259789826415712
      ],
      [
        "like",
        -10.25986406351201
      ],
      [
        "Ġemployees",
        -10.25990611563293
      ],
      [
        "Ġagricultural",
        -10.259955549678732
      ],
      [
        "Ġlessons",
        -10.26058768358152
      ],
      [
        "Ġinformed",
        -10.26118620432456
      ],
      [
        "Ġlibrary",
        -10.262159825556152
      ],
      [
        "Ġinteract",
        -10.262659321111432
      ],
      [
        "Ġthreat",
        -10.262795052691397
      ],
      [
        "ĠTV",
        -10.262880268513104
      ],
      [
        "Ġpreferences",
        -10.263254561954993
      ],
      [
        "Ġconfidence",
        -10.264627433757264
      ],
      [
        "Ġmembrane",
        -10.264986757914954
      ],
      [
        "ĠSan",
        -10.265349335166048
      ],
      [
        "Ġexperiments",
        -10.265549690265685
      ],
      [
        "ĠLED",
        -10.265553362731396
      ],
      [
        "Ġdiagram",
        -10.26580780640398
      ],
      [
        "Ġzone",
        -10.267159080144689
      ],
      [
        "Ġconsumers",
        -10.26748311518788
      ],
      [
        "Ġreduces",
        -10.267886560676107
      ],
      [
        "Ġreplaced",
        -10.268164067897947
      ],
      [
        "Ġmassive",
        -10.268251699540423
      ],
      [
        "Ġprogramming",
        -10.268898276566452
      ],
      [
        "Ġoutcomes",
        -10.26983081069641
      ],
      [
        "Ġsurvey",
        -10.27024159182646
      ],
      [
        "Ġnutrient",
        -10.271515544735763
      ],
      [
        "Ġexplains",
        -10.272529630016944
      ],
      [
        "Ġsouth",
        -10.272966933846105
      ],
      [
        "Ġcalories",
        -10.273271098662136
      ],
      [
        "Ġremote",
        -10.27400756005564
      ],
      [
        "Ġthoughts",
        -10.274624983788271
      ],
      [
        "Ġpossibly",
        -10.275952268590975
      ],
      [
        "Ġgap",
        -10.276024698338148
      ],
      [
        "Ġindoor",
        -10.276629081214104
      ],
      [
        "ĠSociety",
        -10.276702671949916
      ],
      [
        "ĠAct",
        -10.276710134055833
      ],
      [
        "Ġblocks",
        -10.277157099231712
      ],
      [
        "Ġusage",
        -10.277462183889526
      ],
      [
        "Ġnovel",
        -10.277687167098076
      ],
      [
        "Ġrenewable",
        -10.277791019797387
      ],
      [
        "Ġconsequences",
        -10.277893966347634
      ],
      [
        "Ġunderlying",
        -10.278157793512634
      ],
      [
        "but",
        -10.27837798814537
      ],
      [
        "J",
        -10.278499103586633
      ],
      [
        "Ġmanufacturer",
        -10.278608152235464
      ],
      [
        "ĠAssociation",
        -10.279050306683043
      ],
      [
        "Ġchannel",
        -10.279542986913512
      ],
      [
        "Ġexplanation",
        -10.279681384011893
      ],
      [
        "Ġmanual",
        -10.28009016223045
      ],
      [
        "Ġprocedures",
        -10.280296887071264
      ],
      [
        "ĠStudents",
        -10.281317514091388
      ],
      [
        "ĠAsia",
        -10.281701036371729
      ],
      [
        "-of",
        -10.281859194659372
      ],
      [
        "ĠTexas",
        -10.281971054818262
      ],
      [
        "Ġmenu",
        -10.282642930668514
      ],
      [
        "Ġinvolve",
        -10.283079713157296
      ],
      [
        "Ġillness",
        -10.283107308503036
      ],
      [
        "ĠDesign",
        -10.28314843047842
      ],
      [
        "ĠGet",
        -10.283181298548683
      ],
      [
        "Ġintroduce",
        -10.283329433885813
      ],
      [
        "ĠGerman",
        -10.283453550019226
      ],
      [
        "Ġguidance",
        -10.28490003956066
      ],
      [
        "ation",
        -10.285215553243251
      ],
      [
        "Ġmovements",
        -10.285360919065576
      ],
      [
        "Ġconstantly",
        -10.285432999492828
      ],
      [
        "Ġtea",
        -10.285480545591811
      ],
      [
        "Ġadequate",
        -10.285511426052388
      ],
      [
        "Ġelectron",
        -10.2857047869877
      ],
      [
        "Ġnorth",
        -10.286050057170648
      ],
      [
        "Ġfair",
        -10.28630700336903
      ],
      [
        "Ġdynamic",
        -10.286384407327706
      ],
      [
        "Ġserver",
        -10.287126109003449
      ],
      [
        "Ġyield",
        -10.28721616027966
      ],
      [
        "ĠWhite",
        -10.287635204213103
      ],
      [
        "Ġnotes",
        -10.287661428582547
      ],
      [
        "ĠEast",
        -10.287715369704053
      ],
      [
        "Ġassess",
        -10.28869168878575
      ],
      [
        "Ġswimming",
        -10.288830348233752
      ],
      [
        "ĠPower",
        -10.289535907239854
      ],
      [
        "Ġhandling",
        -10.289716938077843
      ],
      [
        "Ġimagine",
        -10.289753010591014
      ],
      [
        "Ġacademic",
        -10.290120835905835
      ],
      [
        "Before",
        -10.29051973410215
      ],
      [
        "Ġwash",
        -10.290764966057328
      ],
      [
        "Ġgenome",
        -10.290990484465087
      ],
      [
        "Ġplayed",
        -10.291293064254598
      ],
      [
        "Ġbread",
        -10.291722882637812
      ],
      [
        "Ġforests",
        -10.292103696620105
      ],
      [
        "Ġcoral",
        -10.294975036440032
      ],
      [
        "Ġrobot",
        -10.295945006792367
      ],
      [
        "see",
        -10.29610744909402
      ],
      [
        "?\"",
        -10.296274050927083
      ],
      [
        "Ġburn",
        -10.297274498098377
      ],
      [
        "Ġsession",
        -10.297625728606793
      ],
      [
        "Ġpolitical",
        -10.298075890012017
      ],
      [
        "Ġtrigger",
        -10.298436722799972
      ],
      [
        "Ġcoal",
        -10.298441651420209
      ],
      [
        "Ġrecorded",
        -10.298701403983712
      ],
      [
        "ĠLife",
        -10.29887380651419
      ],
      [
        "Ġlay",
        -10.298894539877292
      ],
      [
        "Ġinterface",
        -10.298982472609016
      ],
      [
        "ĠService",
        -10.299704093230837
      ],
      [
        "Ġstudying",
        -10.299741611230848
      ],
      [
        "Ġdiameter",
        -10.301217514623184
      ],
      [
        "Ġadds",
        -10.301304201484102
      ],
      [
        "Ġbasically",
        -10.30180109798213
      ],
      [
        "Ġregard",
        -10.301830100589225
      ],
      [
        "Ġblend",
        -10.302997711466594
      ],
      [
        "Ġvaccine",
        -10.304732808017173
      ],
      [
        "Ġsensors",
        -10.305032297686031
      ],
      [
        "Ġmaster",
        -10.306101702070563
      ],
      [
        "Ġpanels",
        -10.307124432357742
      ],
      [
        "Since",
        -10.307416177821914
      ],
      [
        "Ġrocks",
        -10.308107212999111
      ],
      [
        "Ġcompost",
        -10.308400490435837
      ],
      [
        "Ġdiffer",
        -10.30840467582366
      ],
      [
        "ĠArt",
        -10.308636962218168
      ],
      [
        "ĠPlant",
        -10.30878712079358
      ],
      [
        "Ġstores",
        -10.30887887587578
      ],
      [
        "Ġears",
        -10.30909868002246
      ],
      [
        "Ġdecline",
        -10.309219408438068
      ],
      [
        "Ġcontinued",
        -10.309629879725756
      ],
      [
        "Ġhumidity",
        -10.31054499324962
      ],
      [
        "Ġproposed",
        -10.311129487439429
      ],
      [
        "Ġinnovation",
        -10.31118154820243
      ],
      [
        "Ġspeech",
        -10.311474842173151
      ],
      [
        "Ġstructural",
        -10.31159409633302
      ],
      [
        "ĠGuide",
        -10.311975087143828
      ],
      [
        "Ġrecords",
        -10.31240135525303
      ],
      [
        "Ġorigin",
        -10.312750894429673
      ],
      [
        "Ġdelivery",
        -10.313888332222795
      ],
      [
        "Ġcoast",
        -10.314086183705577
      ],
      [
        "Ġmice",
        -10.314087633084736
      ],
      [
        "Ġwrote",
        -10.314092586846344
      ],
      [
        "Ġjuice",
        -10.31414256880264
      ],
      [
        "Ġride",
        -10.31418522393622
      ],
      [
        "Ġremaining",
        -10.314440491340312
      ],
      [
        "Ġband",
        -10.314602913261904
      ],
      [
        "Ġarm",
        -10.31515509669761
      ],
      [
        "ĠTwo",
        -10.315236168109028
      ],
      [
        "Ġextensive",
        -10.315411711197529
      ],
      [
        "Ġmining",
        -10.316185694234733
      ],
      [
        "engaging",
        -10.316320548412778
      ],
      [
        "Ġmechanisms",
        -10.316459835163446
      ],
      [
        "ĠToday",
        -10.317181736193827
      ],
      [
        "Ġassume",
        -10.317409747725996
      ],
      [
        "Ġsport",
        -10.31805909553314
      ],
      [
        "Ġoral",
        -10.31835431643754
      ],
      [
        "Ġcorn",
        -10.318555885830497
      ],
      [
        "Ġsex",
        -10.318611267758238
      ],
      [
        "Ġentirely",
        -10.318906471611388
      ],
      [
        "Ġsecondary",
        -10.31891222467268
      ],
      [
        "Ġcollect",
        -10.31900105363026
      ],
      [
        "ĠTime",
        -10.320446890653534
      ],
      [
        "Ġrandom",
        -10.320816037786996
      ],
      [
        "Ġreplacement",
        -10.321240058750224
      ],
      [
        "Â°C",
        -10.321446405894973
      ],
      [
        "Ġleg",
        -10.323365575126608
      ],
      [
        "ĠLook",
        -10.323394862678498
      ],
      [
        "Ġrecycling",
        -10.323404909052378
      ],
      [
        "Ġbreathing",
        -10.32349971560504
      ],
      [
        "Ġprove",
        -10.323507677496988
      ],
      [
        "Ġcities",
        -10.323712063807465
      ],
      [
        "Ġmyself",
        -10.324212967370578
      ],
      [
        "Ġparallel",
        -10.324413666443904
      ],
      [
        "Ġanywhere",
        -10.32543961501292
      ],
      [
        "ĠRead",
        -10.32609489204114
      ],
      [
        "ĠNovember",
        -10.32633081016153
      ],
      [
        "Ġsector",
        -10.326629656394717
      ],
      [
        "Ġmissing",
        -10.32729494042344
      ],
      [
        "Ġvegetable",
        -10.32733622911144
      ],
      [
        "Ġequivalent",
        -10.327802583700535
      ],
      [
        "Ġhospital",
        -10.328243946633664
      ],
      [
        "Ġguess",
        -10.32884651046694
      ],
      [
        "Ġhoney",
        -10.329459180543624
      ],
      [
        "Ġtransportation",
        -10.32954776998576
      ],
      [
        "wearing",
        -10.330646567513
      ],
      [
        "Ġestablish",
        -10.330663026502789
      ],
      [
        "Ġstudied",
        -10.330735514496586
      ],
      [
        "Ġpuppy",
        -10.331193724842551
      ],
      [
        "Ġcurve",
        -10.331649437150084
      ],
      [
        "Ġcontinuous",
        -10.331684713134482
      ],
      [
        "Ġdose",
        -10.332118162452394
      ],
      [
        "Ġcovers",
        -10.33228944075132
      ],
      [
        "Ġtitle",
        -10.332352229895465
      ],
      [
        "Ġforget",
        -10.332642311356333
      ],
      [
        "Ġfacilities",
        -10.3345748943598
      ],
      [
        "Using",
        -10.334670064704532
      ],
      [
        "Ġachieved",
        -10.334722456409075
      ],
      [
        "Ġdebris",
        -10.335487361479428
      ],
      [
        "Ġimprovement",
        -10.335489823119612
      ],
      [
        "Ġexcept",
        -10.335709285422425
      ],
      [
        "Ġorange",
        -10.335750587022698
      ],
      [
        "Ġmetals",
        -10.33585527470077
      ],
      [
        "Ġtrends",
        -10.335986588514332
      ],
      [
        "ĠHave",
        -10.336046433953957
      ],
      [
        "Ġapplying",
        -10.336670522606632
      ],
      [
        "Ġsupporting",
        -10.336859010904124
      ],
      [
        "Ġcreativity",
        -10.336965030109718
      ],
      [
        "Ġbranches",
        -10.337179041619995
      ],
      [
        "Ġthread",
        -10.337406596822737
      ],
      [
        "Ġbehaviors",
        -10.337920753124582
      ],
      [
        "moved",
        -10.33805436707961
      ],
      [
        "ĠRemember",
        -10.33888111368681
      ],
      [
        "Ġcards",
        -10.338953873633908
      ],
      [
        "Ġstring",
        -10.339913706610902
      ],
      [
        "Ġgravity",
        -10.340110545248674
      ],
      [
        "Ġnest",
        -10.340147984569745
      ],
      [
        "Ġstronger",
        -10.340320701813898
      ],
      [
        "Ġpipe",
        -10.340553506312222
      ],
      [
        "Ġmineral",
        -10.340678251320696
      ],
      [
        "ĠDecember",
        -10.340890523950405
      ],
      [
        "Ġstands",
        -10.342103023197843
      ],
      [
        "Ġlisted",
        -10.342341862622057
      ],
      [
        "Ġtruth",
        -10.343045977424094
      ],
      [
        "Ġaccessible",
        -10.343439030110192
      ],
      [
        "Ġinch",
        -10.343924864665397
      ],
      [
        "Ġsufficient",
        -10.343953717856373
      ],
      [
        "ĠAnother",
        -10.344158282373932
      ],
      [
        "Ġvacuum",
        -10.344273391123114
      ],
      [
        "Not",
        -10.344348795398112
      ],
      [
        "Ġmilitary",
        -10.344393584077256
      ],
      [
        "Ġtrouble",
        -10.344682922278608
      ],
      [
        "Ġreflect",
        -10.344724517712544
      ],
      [
        "Ġdirt",
        -10.345417668413743
      ],
      [
        "Ġhundreds",
        -10.34594016179889
      ],
      [
        "Ġexamine",
        -10.346667879708736
      ],
      [
        "Ġfrequent",
        -10.34703032485672
      ],
      [
        "Ġextended",
        -10.347394464608977
      ],
      [
        "Ġconflict",
        -10.347905435760005
      ],
      [
        "Ġtropical",
        -10.34828229009786
      ],
      [
        "Ġfarming",
        -10.348886445985158
      ],
      [
        "Ġreward",
        -10.34914911751689
      ],
      [
        "Ġparameters",
        -10.349720977447186
      ],
      [
        "Ġlenses",
        -10.3497893181321
      ],
      [
        "Ġletter",
        -10.35008652830376
      ],
      [
        "Ġopinion",
        -10.351513370552125
      ],
      [
        "finally",
        -10.351842421159526
      ],
      [
        "Ġprotective",
        -10.35245434125293
      ],
      [
        ";Ċ",
        -10.352454606271992
      ],
      [
        "Ġpan",
        -10.35290349414388
      ],
      [
        "Ġrights",
        -10.3529752311608
      ],
      [
        "ĠCare",
        -10.353107564618414
      ],
      [
        "More",
        -10.353701517983524
      ],
      [
        "Ġindex",
        -10.353869636543765
      ],
      [
        "you",
        -10.353997757862029
      ],
      [
        "Ġmeasurements",
        -10.354224638104483
      ],
      [
        "~",
        -10.354890258066629
      ],
      [
        "ities",
        -10.355736507914289
      ],
      [
        "ĠEngland",
        -10.357830276156951
      ],
      [
        "ions",
        -10.35792438488982
      ],
      [
        "Ġgone",
        -10.358012226576529
      ],
      [
        "Ġouter",
        -10.358207863914982
      ],
      [
        "Ġbeans",
        -10.358722980927778
      ],
      [
        "Ġloose",
        -10.359232267756012
      ],
      [
        "Ġindicates",
        -10.359316575647917
      ],
      [
        "Ġimpossible",
        -10.359376766032527
      ],
      [
        "Ġcognitive",
        -10.359493370037235
      ],
      [
        "Ġinfected",
        -10.3595102940234
      ],
      [
        "Ġpackage",
        -10.360373649376466
      ],
      [
        "Ġlinks",
        -10.360629264019556
      ],
      [
        "Ġspecialized",
        -10.362122487269032
      ],
      [
        "ĠPacific",
        -10.362419547323093
      ],
      [
        "Ġvelocity",
        -10.362619267439072
      ],
      [
        "Ġintroduction",
        -10.362764540967692
      ],
      [
        "Ġeveryday",
        -10.362800648405049
      ],
      [
        "Ġfeelings",
        -10.36280620064874
      ],
      [
        "Ġedges",
        -10.36293719133156
      ],
      [
        "Ġrecording",
        -10.363310705301306
      ],
      [
        "Ġmeant",
        -10.363512722597068
      ],
      [
        "Ġsupported",
        -10.363682133737504
      ],
      [
        "Ġincorporate",
        -10.36390134443189
      ],
      [
        "Ġminute",
        -10.364681643628629
      ],
      [
        "ĠHome",
        -10.364705559546818
      ],
      [
        "Ġsales",
        -10.365118482034688
      ],
      [
        "Ġpark",
        -10.365211645146909
      ],
      [
        "ĠNature",
        -10.36533747010692
      ],
      [
        "Ġserved",
        -10.365739767291046
      ],
      [
        "Ġnetworks",
        -10.365790535721471
      ],
      [
        "Ġcollaboration",
        -10.3663274640729
      ],
      [
        "Ġgardening",
        -10.366809412048072
      ],
      [
        "Ġveterinarian",
        -10.367293731434232
      ],
      [
        "Ġdirector",
        -10.36737736928209
      ],
      [
        "ĠFoundation",
        -10.36759664743913
      ],
      [
        "Ġefficiently",
        -10.367880476226045
      ],
      [
        "Ġrefer",
        -10.368108638380546
      ],
      [
        "Ġassistance",
        -10.368658284187326
      ],
      [
        "Ġknowing",
        -10.368730568697892
      ],
      [
        "ĠJapanese",
        -10.36927270975588
      ],
      [
        "Ġwashing",
        -10.369585724555447
      ],
      [
        "ĠThrough",
        -10.370189488181714
      ],
      [
        "Ġclassic",
        -10.370563341718508
      ],
      [
        "ties",
        -10.37081141969204
      ],
      [
        "ĠFebruary",
        -10.371135816641909
      ],
      [
        "Ġstation",
        -10.371205782741416
      ],
      [
        "Ġprecise",
        -10.371561818876453
      ],
      [
        "Ġpartner",
        -10.371734592423229
      ],
      [
        "Ġmeasuring",
        -10.372355704694742
      ],
      [
        "Ġchosen",
        -10.372594981780004
      ],
      [
        "Ġpest",
        -10.372751961672463
      ],
      [
        "Ġdownload",
        -10.372814625548036
      ],
      [
        "Ġcalculate",
        -10.37318156542594
      ],
      [
        "Ġasking",
        -10.37376067211609
      ],
      [
        "Ġresolution",
        -10.373802566780308
      ],
      [
        "\"The",
        -10.37398369601843
      ],
      [
        "Ġsmoke",
        -10.373990658163727
      ],
      [
        "Ġinstruction",
        -10.374138158536788
      ],
      [
        "ÂŃ",
        -10.374649518040016
      ],
      [
        "ĠLake",
        -10.374776273893003
      ],
      [
        "Ġshock",
        -10.375058064716704
      ],
      [
        "Ġreact",
        -10.375132793977446
      ],
      [
        "Ġremoval",
        -10.375478414294228
      ],
      [
        "Ġruns",
        -10.37549345285522
      ],
      [
        "ĠTHE",
        -10.37589118843865
      ],
      [
        "way",
        -10.376141430264624
      ],
      [
        "Ġrealize",
        -10.376372601501402
      ],
      [
        "Ġhappening",
        -10.37643637320822
      ],
      [
        "Ġinterior",
        -10.37645920996451
      ],
      [
        "Ġease",
        -10.377620193688706
      ],
      [
        "Ġtaught",
        -10.377652437481416
      ],
      [
        "Ġfemales",
        -10.377756770329489
      ],
      [
        "Ġbreeds",
        -10.378208198626632
      ],
      [
        "Ġcable",
        -10.378912441532044
      ],
      [
        "Ġresponsibility",
        -10.379209219358668
      ],
      [
        "Ġpredict",
        -10.380186877188082
      ],
      [
        "Ġcustom",
        -10.380568478679605
      ],
      [
        "Ġdeliver",
        -10.381162637833366
      ],
      [
        "Ġfan",
        -10.381797688392131
      ],
      [
        "Ġplus",
        -10.381877504710047
      ],
      [
        "Ġchemistry",
        -10.382891421093657
      ],
      [
        "Ġobvious",
        -10.38433729755138
      ],
      [
        "Ġsouthern",
        -10.384797676702188
      ],
      [
        "Ġfollows",
        -10.384985602498158
      ],
      [
        "Ġwhereas",
        -10.385039886075631
      ],
      [
        "Ġtissues",
        -10.385421422202326
      ],
      [
        "Ġbear",
        -10.38565671825868
      ],
      [
        "Ġexpertise",
        -10.385783896398712
      ],
      [
        "ĠIsland",
        -10.385853405367078
      ],
      [
        "Ġcalls",
        -10.385999089518569
      ],
      [
        "Ġdatabase",
        -10.386159105156771
      ],
      [
        "Ġcomparison",
        -10.38699298589974
      ],
      [
        "Ġparty",
        -10.387656108057548
      ],
      [
        "up",
        -10.388745718034444
      ],
      [
        "Ġbags",
        -10.3889639129532
      ],
      [
        "fewer",
        -10.389712835016942
      ],
      [
        "Ġfinished",
        -10.389987048136613
      ],
      [
        "Ġvertical",
        -10.391612555626194
      ],
      [
        "Ġprinciple",
        -10.39166943181661
      ],
      [
        "Ġmild",
        -10.392189973253846
      ],
      [
        "Ġfascinating",
        -10.39325646692688
      ],
      [
        "Ġtear",
        -10.39348731293561
      ],
      [
        "noticed",
        -10.394056894002436
      ],
      [
        "loved",
        -10.394724799430511
      ],
      [
        "Ġmolecule",
        -10.395314086721404
      ],
      [
        "ĠPlease",
        -10.395631830539005
      ],
      [
        "ranging",
        -10.395657777627676
      ],
      [
        "Ġmicro",
        -10.39573320130552
      ],
      [
        "Ġinfrastructure",
        -10.39603069033057
      ],
      [
        "Ġpromoting",
        -10.396429274509906
      ],
      [
        "ĠChildren",
        -10.396745028999272
      ],
      [
        "Ġvitamins",
        -10.39689583471958
      ],
      [
        "Ġaccept",
        -10.398139226555816
      ],
      [
        "Ġartists",
        -10.398869685740085
      ],
      [
        "Ġalgorithm",
        -10.399004811459902
      ],
      [
        "Ġmoves",
        -10.399243294621447
      ],
      [
        "During",
        -10.399722571071374
      ],
      [
        "Ġsoap",
        -10.40046875557614
      ],
      [
        "Ġcameras",
        -10.4006366681193
      ],
      [
        "Ġcomment",
        -10.4009091322759
      ],
      [
        "ĠManagement",
        -10.400939738018574
      ],
      [
        "ĠDevelopment",
        -10.401090537545024
      ],
      [
        "Ġconsult",
        -10.401169127156288
      ],
      [
        "Ġexercises",
        -10.401551279804004
      ],
      [
        "Ġconcerned",
        -10.40178025463069
      ],
      [
        "Ġseat",
        -10.402479482559222
      ],
      [
        "Ġcake",
        -10.403026077203728
      ],
      [
        "ĠData",
        -10.40355238629752
      ],
      [
        "Ġlisten",
        -10.40376113535
      ],
      [
        "Ġvet",
        -10.403834524255588
      ],
      [
        "ĠAdd",
        -10.40395192011186
      ],
      [
        "Ġalgorithms",
        -10.404043156016222
      ],
      [
        "Ġsitting",
        -10.405190308438277
      ],
      [
        "Ġorgans",
        -10.40583900176191
      ],
      [
        "Ġbreath",
        -10.406032478249063
      ],
      [
        "Ġthanks",
        -10.406120300359309
      ],
      [
        "Ġmark",
        -10.406161669785744
      ],
      [
        "Ġparticle",
        -10.406484087332965
      ],
      [
        "}",
        -10.406824741980346
      ],
      [
        "Ġwonderful",
        -10.406871738087313
      ],
      [
        "ĠNatural",
        -10.406988768066928
      ],
      [
        "Ġmeters",
        -10.407301698733368
      ],
      [
        "Ġstanding",
        -10.407681474009552
      ],
      [
        "Other",
        -10.408609040051408
      ],
      [
        "Ġnorthern",
        -10.4092416630489
      ],
      [
        "Ġmanaging",
        -10.409385767201073
      ],
      [
        "Ġhousehold",
        -10.409663506173828
      ],
      [
        "Ġshell",
        -10.40977304451488
      ],
      [
        "-the",
        -10.409908250510078
      ],
      [
        "Ġauthors",
        -10.410100930308456
      ],
      [
        "Ġmales",
        -10.41186822510326
      ],
      [
        "Ġultimately",
        -10.411901321506196
      ],
      [
        "Ġjobs",
        -10.411967881457729
      ],
      [
        "ar",
        -10.412151639113016
      ],
      [
        "ĠProject",
        -10.412820051009618
      ],
      [
        "Ġpredators",
        -10.413000432658448
      ],
      [
        "safely",
        -10.41357560727928
      ],
      [
        "Ġcopy",
        -10.413868528460808
      ],
      [
        "Ġmanufacturers",
        -10.414023350602108
      ],
      [
        "Ġwonder",
        -10.414293621858969
      ],
      [
        "Ġhabitats",
        -10.414475687640568
      ],
      [
        "Ġinsulation",
        -10.415747042524504
      ],
      [
        "Ġtown",
        -10.417118667772185
      ],
      [
        "Ġsignificance",
        -10.417290526229246
      ],
      [
        "Ġdairy",
        -10.41755877622275
      ],
      [
        "Ġlaboratory",
        -10.417669048279762
      ],
      [
        "Ġdivided",
        -10.417937097299218
      ],
      [
        "Ġsupplies",
        -10.418055908321602
      ],
      [
        "Ġrecognition",
        -10.418098927328204
      ],
      [
        "Ġweak",
        -10.418116785039931
      ],
      [
        "Ġfacts",
        -10.418208609995808
      ],
      [
        "ĠHistory",
        -10.418352883604191
      ],
      [
        "Ġcharging",
        -10.41848406616312
      ],
      [
        "ĠMexico",
        -10.41865812837889
      ],
      [
        "Ġhighlight",
        -10.42016546658117
      ],
      [
        "Ġvessels",
        -10.420962349074763
      ],
      [
        "Ġtransform",
        -10.420992310275734
      ],
      [
        "\"I",
        -10.421208360200962
      ],
      [
        "ĠMuseum",
        -10.421223867710104
      ],
      [
        "Ġtire",
        -10.422025538279154
      ],
      [
        "Ġstyles",
        -10.422037810861314
      ],
      [
        "Ġgut",
        -10.422498543907938
      ],
      [
        "Ġsymbol",
        -10.423565494878616
      ],
      [
        "Ġwatching",
        -10.423565567813744
      ],
      [
        "ĠSee",
        -10.423646323308857
      ],
      [
        "Ġextent",
        -10.423737395316817
      ],
      [
        "Ġarticles",
        -10.425118999191104
      ],
      [
        "ĠLearn",
        -10.42528643256374
      ],
      [
        "Dr",
        -10.425728550075446
      ],
      [
        "Ġloop",
        -10.42614719126586
      ],
      [
        "Ġbacterial",
        -10.427166648302872
      ],
      [
        "Ġresponses",
        -10.427179133610574
      ],
      [
        "Ġperfectly",
        -10.427504852226082
      ],
      [
        "Ġecosystems",
        -10.427895294377668
      ],
      [
        "Ġresistant",
        -10.427993648120427
      ],
      [
        "Ġaggressive",
        -10.42837784425796
      ],
      [
        "Ġdive",
        -10.429267518072582
      ],
      [
        "Ġautomatically",
        -10.4301226068788
      ],
      [
        "Ġharder",
        -10.430214162206228
      ],
      [
        "Ġserving",
        -10.43042435426952
      ],
      [
        "fairly",
        -10.430654264593665
      ],
      [
        "Ġnutritional",
        -10.431518024829993
      ],
      [
        "Ġteams",
        -10.43154910807054
      ],
      [
        "ĠEvery",
        -10.431878312209538
      ],
      [
        "Ġappreciate",
        -10.432039756483029
      ],
      [
        "Ġreached",
        -10.432177005514085
      ],
      [
        "><",
        -10.432826015804654
      ],
      [
        "Ġnarrow",
        -10.43346512615541
      ],
      [
        "Ġfertilizer",
        -10.433701732228707
      ],
      [
        "Ġholding",
        -10.43503946673338
      ],
      [
        "Ġisland",
        -10.435377485733548
      ],
      [
        "Ġabsorb",
        -10.435419467004952
      ],
      [
        "Ġgardens",
        -10.436205800177442
      ],
      [
        "era",
        -10.436671056930631
      ],
      [
        "Ġwin",
        -10.436763631603336
      ],
      [
        "le",
        -10.437329617110676
      ],
      [
        "ĠConsider",
        -10.43777629430794
      ],
      [
        "Ġstroke",
        -10.437917438176086
      ],
      [
        "Ġstars",
        -10.43823978302293
      ],
      [
        "Ġcourses",
        -10.4389562532678
      ],
      [
        "Also",
        -10.439524277930834
      ],
      [
        "Ġcoil",
        -10.439708503385576
      ],
      [
        "Ġpossibility",
        -10.440057903445366
      ],
      [
        "Don",
        -10.440075016460126
      ],
      [
        "New",
        -10.44133265660346
      ],
      [
        "Ġpolicies",
        -10.44323142297651
      ],
      [
        "Ġsyndrome",
        -10.444731117893356
      ],
      [
        "Ġatom",
        -10.44510105212155
      ],
      [
        "Â°",
        -10.445477140371118
      ],
      [
        "Ġparticipate",
        -10.445698485614868
      ],
      [
        "Ġnecessarily",
        -10.44580848800494
      ],
      [
        "Ġincome",
        -10.446200653960137
      ],
      [
        "Ġeliminate",
        -10.446644676907704
      ],
      [
        "Ġcouldn",
        -10.447238257113517
      ],
      [
        "Ġyard",
        -10.447841776264234
      ],
      [
        "Where",
        -10.4482541101457
      ],
      [
        "Ġhealing",
        -10.448600493489932
      ],
      [
        "Ġbrings",
        -10.448609480251454
      ],
      [
        "ĠAustralian",
        -10.448646822399882
      ],
      [
        "Ġconversation",
        -10.449103938437702
      ],
      [
        "Does",
        -10.449349054652489
      ],
      [
        "Ġevaluate",
        -10.44994302686763
      ],
      [
        "Ġvariation",
        -10.45047392172296
      ],
      [
        "Ġprecision",
        -10.45082583040409
      ],
      [
        "Ġbelief",
        -10.45083457675094
      ],
      [
        "Ġlogic",
        -10.450944033292206
      ],
      [
        "Ġjump",
        -10.451104658468124
      ],
      [
        "Ġimplement",
        -10.451148353610613
      ],
      [
        "Ġyes",
        -10.451213898653208
      ],
      [
        "Ġproductivity",
        -10.451508334150107
      ],
      [
        "vibrant",
        -10.451519090678788
      ],
      [
        "Ġdefine",
        -10.45158663880148
      ],
      [
        "Ġviruses",
        -10.45178214311318
      ],
      [
        "ĠDog",
        -10.45191366124809
      ],
      [
        "ĠGood",
        -10.451955425938255
      ],
      [
        "knew",
        -10.452444303909273
      ],
      [
        "Ġflexible",
        -10.45278910977066
      ],
      [
        "ĠJapan",
        -10.452805618468748
      ],
      [
        "Ġaluminum",
        -10.45326438691415
      ],
      [
        "Ġflexibility",
        -10.45361797738633
      ],
      [
        "Ġmood",
        -10.453868552754855
      ],
      [
        "]ĊĊ",
        -10.453956034164635
      ],
      [
        "Ġintensity",
        -10.4546018675882
      ],
      [
        "Ġengines",
        -10.4561421856771
      ],
      [
        "Ġspectrum",
        -10.456180178454357
      ],
      [
        "Ġplatforms",
        -10.456303919891502
      ],
      [
        "):",
        -10.457131729094064
      ],
      [
        "Ġcleaner",
        -10.45828950338975
      ],
      [
        "Ġgrain",
        -10.458510992987089
      ],
      [
        "Ġflavors",
        -10.459391367230738
      ],
      [
        "Ġsessions",
        -10.459972228726151
      ],
      [
        "Ġsteam",
        -10.460911855801044
      ],
      [
        "]Ċ",
        -10.460912161481325
      ],
      [
        "Ġclay",
        -10.461142151731428
      ],
      [
        "Ġmovie",
        -10.46125148179968
      ],
      [
        "Ġduration",
        -10.461422699360284
      ],
      [
        "Ġprevention",
        -10.46168759844974
      ],
      [
        "Ġsupports",
        -10.461754811417606
      ],
      [
        "Ġrid",
        -10.461763191382042
      ],
      [
        "Ġargument",
        -10.461960804488156
      ],
      [
        "Ġfunding",
        -10.462164601753862
      ],
      [
        "Ġextract",
        -10.462205417788963
      ],
      [
        "Ġevolved",
        -10.46256147014688
      ],
      [
        "Ġlift",
        -10.46273301812107
      ],
      [
        "Ġcord",
        -10.462835716161736
      ],
      [
        "Ġrecommendations",
        -10.463136996307243
      ],
      [
        "Ġfacing",
        -10.465764280406123
      ],
      [
        "lies",
        -10.466153091773307
      ],
      [
        "Ġeffectiveness",
        -10.46660307492838
      ],
      [
        "Ġends",
        -10.4666105388112
      ],
      [
        "Ġgiant",
        -10.466731738823691
      ],
      [
        "Ġadvance",
        -10.466760695477408
      ],
      [
        "Ġcircle",
        -10.46855002685764
      ],
      [
        "Ġcalm",
        -10.468764651392217
      ],
      [
        "Ġindicator",
        -10.468860211022816
      ],
      [
        "Ġhidden",
        -10.468902190638245
      ],
      [
        "ĠAny",
        -10.469016529388067
      ],
      [
        "Ġleaders",
        -10.469330308340204
      ],
      [
        "ĠWashington",
        -10.469806544561871
      ],
      [
        "Ġpaid",
        -10.46981559143174
      ],
      [
        "Ġfitness",
        -10.470053295264618
      ],
      [
        "Ġhealthier",
        -10.470191294050707
      ],
      [
        "Because",
        -10.470412994528552
      ],
      [
        "Ġplanted",
        -10.471817422721676
      ],
      [
        "ĠEnvironmental",
        -10.472291250462863
      ],
      [
        "Ġselecting",
        -10.472412974626907
      ],
      [
        "ĠInternet",
        -10.472589250314943
      ],
      [
        "caught",
        -10.472767317954858
      ],
      [
        "Ġbank",
        -10.473468434649458
      ],
      [
        "such",
        -10.474659516480935
      ],
      [
        "Ġnuclear",
        -10.474676444256689
      ],
      [
        "Ġscore",
        -10.475819039165668
      ],
      [
        "âĪĴ",
        -10.4760446314629
      ],
      [
        "Ġrecipes",
        -10.476237138115025
      ],
      [
        "Ġantibiotics",
        -10.47748796288487
      ],
      [
        "Ġintegrated",
        -10.477582144134876
      ],
      [
        "Ġtrend",
        -10.477790355090333
      ],
      [
        "ĠSometimes",
        -10.478149224953974
      ],
      [
        "Ġescape",
        -10.478937068606106
      ],
      [
        "Ġcoastal",
        -10.479189560275062
      ],
      [
        "Ġarchitecture",
        -10.479250819305376
      ],
      [
        "Ġprofile",
        -10.47929441984222
      ],
      [
        "Ġcomplicated",
        -10.479336572523676
      ],
[...]
