{
  "version": "1.0",
  "truncation": null,
  "padding": null,
  "added_tokens": [
    {
      "id": 0,
      "content": "<|bos|>",
      "single_word": false,
      "lstrip": false,
      "rstrip": false,
      "normalized": false,
      "special": true
    },
    {
      "id": 1,
      "content": "<|user_start|>",
      "single_word": false,
      "lstrip": false,
      "rstrip": false,
      "normalized": false,
      "special": true
    },
    {
      "id": 2,
      "content": "<|user_end|>",
      "single_word": false,
      "lstrip": false,
      "rstrip": false,
      "normalized": false,
      "special": true
    },
    {
      "id": 3,
      "content": "<|assistant_start|>",
      "single_word": false,
      "lstrip": false,
      "rstrip": false,
      "normalized": false,
      "special": true
    },
    {
      "id": 4,
      "content": "<|assistant_end|>",
      "single_word": false,
      "lstrip": false,
      "rstrip": false,
      "normalized": false,
      "special": true
    },
    {
      "id": 5,
      "content": "<|python_start|>",
      "single_word": false,
      "lstrip": false,
      "rstrip": false,
      "normalized": false,
      "special": true
    },
    {
      "id": 6,
      "content": "<|python_end|>",
      "single_word": false,
      "lstrip": false,
      "rstrip": false,
      "normalized": false,
      "special": true
    },
    {
      "id": 7,
      "content": "<|output_start|>",
      "single_word": false,
      "lstrip": false,
      "rstrip": false,
      "normalized": false,
      "special": true
    },
    {
      "id": 8,
      "content": "<|output_end|>",
      "single_word": false,
      "lstrip": false,
      "rstrip": false,
      "normalized": false,
      "special": true
    },
    {
      "id": 9,
      "content": "<|unk|>",
      "single_word": false,
      "lstrip": false,
      "rstrip": false,
      "normalized": false,
      "special": true
    }
  ],
  "normalizer": null,
  "pre_tokenizer": {
    "type": "Sequence",
    "pretokenizers": [
      {
        "type": "Split",
        "pattern": {
          "Regex": "'(?i:[sdmt]|ll|ve|re)|[^\\r\\n\\p{L}\\p{N}]?+\\p{L}+|\\p{N}{1,2}| ?[^\\s\\p{L}\\p{N}]++[\\r\\n]*|\\s*[\\r\\n]|\\s+(?!\\S)|\\s+"
        },
        "behavior": "Isolated",
        "invert": false
      },
      {
        "type": "ByteLevel",
        "add_prefix_space": false,
        "trim_offsets": true,
        "use_regex": false
      }
    ]
  },
  "post_processor": {
    "type": "TemplateProcessing",
    "single": [
      {
        "Sequence": {
          "id": "A",
          "type_id": 0
        }
      }
    ],
    "pair": [
      {
        "Sequence": {
          "id": "A",
          "type_id": 0
        }
      },
      {
        "Sequence": {
          "id": "B",
          "type_id": 1
        }
      }
    ],
    "special_tokens": {}
  },
  "decoder": null,
  "model": {
    "type": "Unigram",
    "unk_id": 9,
    "vocab": [
      [
        "<|bos|>",
        0.0
      ],
      [
        "<|user_start|>",
        0.0
      ],
      [
        "<|user_end|>",
        0.0
      ],
      [
        "<|assistant_start|>",
        0.0
      ],
      [
        "<|assistant_end|>",
        0.0
      ],
      [
        "<|python_start|>",
        0.0
      ],
      [
        "<|python_end|>",
        0.0
      ],
      [
        "<|output_start|>",
        0.0
      ],
      [
        "<|output_end|>",
        0.0
      ],
      [
        "<|unk|>",
        0.0
      ],
      [
        "s",
        -3.057447706361907
      ],
      [
        "Ġ",
        -3.122630551114556
      ],
      [
        "Ġthe",
        -3.4325131751324385
      ],
      [
        ",",
        -3.492361041661095
      ],
      [
        ".",
        -3.78549210797223
      ],
      [
        "a",
        -3.942107503865106
      ],
      [
        "Ġand",
        -3.987993272061168
      ],
      [
        "Ġto",
        -4.0158261055029545
      ],
      [
        "Ġof",
        -4.036987909423431
      ],
      [
        "ing",
        -4.36577380309029
      ],
      [
        "Ġin",
        -4.534817848549483
      ],
      [
        "Ġis",
        -4.641704478817935
      ],
      [
        "ed",
        -4.823725838036985
      ],
      [
        "'",
        -4.940972941394696
      ],
      [
        "d",
        -4.950654829031061
      ],
      [
        "e",
        -5.042194457971716
      ],
      [
        "Ġthat",
        -5.050215945731354
      ],
      [
        "Ġfor",
        -5.076899016118503
      ],
      [
        "y",
        -5.078902548575382
      ],
      [
        "0",
        -5.11236214383991
      ],
      [
        "ly",
        -5.130650926994525
      ],
      [
        "t",
        -5.198925274691852
      ],
      [
        "1",
        -5.247134919939866
      ],
      [
        "Ġare",
        -5.262927980525221
      ],
      [
        ":",
        -5.2900908152077655
      ],
      [
        "Ġyou",
        -5.317143489149942
      ],
      [
        "Ġit",
        -5.330798014476983
      ],
      [
        ".Ċ",
        -5.343870222938833
      ],
      [
        "Ġwith",
        -5.349986190651704
      ],
      [
        ".ĊĊ",
        -5.3631521646935845
      ],
      [
        "Ċ",
        -5.396178546141085
      ],
      [
        "-",
        -5.435821454628911
      ],
      [
        "2",
        -5.468482155402777
      ],
      [
        "Ġbe",
        -5.4711975336058405
      ],
      [
        "Ġon",
        -5.507242963557349
      ],
      [
        "Ġor",
        -5.531495602734546
      ],
      [
        "Ġcan",
        -5.540566665153753
      ],
      [
        "Ġas",
        -5.582229170777477
      ],
      [
        "Ġyour",
        -5.686942106800592
      ],
      [
        "ĊĊ",
        -5.712798864010885
      ],
      [
        "Ġ(",
        -5.808084667375962
      ],
      [
        "n",
        -5.877192523447681
      ],
      [
        "\"",
        -5.894968609804474
      ],
      [
        "Ġhave",
        -5.919858440051529
      ],
      [
        "Ġfrom",
        -5.939362098802047
      ],
      [
        "ĠI",
        -5.940818238226775
      ],
      [
        "ĠThe",
        -5.978017186600585
      ],
      [
        ")",
        -6.012330946127342
      ],
      [
        "Ġby",
        -6.025492340102385
      ],
      [
        "Ġan",
        -6.048654566438637
      ],
      [
        "Ġthis",
        -6.074451679000019
      ],
      [
        "3",
        -6.097651221864348
      ],
      [
        "Ġnot",
        -6.125389974969922
      ],
      [
        "?",
        -6.144657286827613
      ],
      [
        "Ġat",
        -6.151201866096615
      ],
      [
        "o",
        -6.1688707501456115
      ],
      [
        "5",
        -6.184664221787106
      ],
      [
        "Ġwill",
        -6.219215028009906
      ],
      [
        "i",
        -6.234668438864244
      ],
      [
        "Ġtheir",
        -6.263083772811328
      ],
      [
        "er",
        -6.343903243460629
      ],
      [
        "4",
        -6.348741245610352
      ],
      [
        "Ġmore",
        -6.369082633275767
      ],
      [
        "Ġthey",
        -6.377057769169438
      ],
      [
        "r",
        -6.383790120440548
      ],
      [
        "Ġwas",
        -6.45484834514153
      ],
      [
        "9",
        -6.460812260062198
      ],
      [
        "The",
        -6.47993998005335
      ],
      [
        "Ġbut",
        -6.514380770430119
      ],
      [
        "Ġhas",
        -6.527469391984555
      ],
      [
        "Ġwhich",
        -6.551605556161427
      ],
      [
        "m",
        -6.554633830071026
      ],
      [
        "Ġwe",
        -6.580090998986515
      ],
      [
        "Ġone",
        -6.584300907536008
      ],
      [
        "Ġother",
        -6.594073746741069
      ],
      [
        "6",
        -6.611814851197442
      ],
      [
        "Ġalso",
        -6.619335971361666
      ],
      [
        "ies",
        -6.635070878965042
      ],
      [
        "ĠA",
        -6.6376103140874285
      ],
      [
        "Question",
        -6.644492826615943
      ],
      [
        "8",
        -6.648358314283916
      ],
      [
        "ĠAnswer",
        -6.665501199177548
      ],
      [
        "Ġall",
        -6.684723332738681
      ],
      [
        "Ġlike",
        -6.69497944198042
      ],
      [
        "Ġabout",
        -6.716298078826593
      ],
      [
        "Ġwhen",
        -6.761493085131306
      ],
      [
        "re",
        -6.7714262271657955
      ],
      [
        "Ġif",
        -6.780148606026772
      ],
      [
        "7",
        -6.780514941757099
      ],
      [
        "ĠIt",
        -6.785960626167027
      ],
      [
        "al",
        -6.801224277909814
      ],
      [
        "l",
        -6.802095130402542
      ],
      [
        "Ġtime",
        -6.80407730808556
      ],
      [
        "Ġdo",
        -6.811999268216466
      ],
      [
        "Ġthem",
        -6.8308850565274
      ],
      [
        "Ġneed",
        -6.837637466735098
      ],
      [
        "Ġuse",
        -6.840289163485849
      ],
      [
        "Ġinto",
        -6.852586640686502
      ],
      [
        "on",
        -6.863862882621984
      ],
      [
        "Ġso",
        -6.865254120470226
      ],
      [
        "Ġmay",
        -6.871635223752104
      ],
      [
        "Ġup",
        -6.877655981964738
      ],
      [
        "Ġsome",
        -6.883835340427467
      ],
      [
        "ĠThis",
        -6.908219496362372
      ],
      [
        "A",
        -6.910068426990936
      ],
      [
        "Ġout",
        -6.945754114300605
      ],
      [
        "Ġthan",
        -6.95104427614843
      ],
      [
        "c",
        -6.960136117717237
      ],
      [
        "ĠWhat",
        -6.988037318170159
      ],
      [
        "Ġhow",
        -7.003103359372892
      ],
      [
        "in",
        -7.005977653690891
      ],
      [
        "Ġthere",
        -7.007033926606557
      ],
      [
        "Ġthese",
        -7.020436537985571
      ],
      [
        "ĠIn",
        -7.053902051001129
      ],
      [
        "Ġget",
        -7.060996141263878
      ],
      [
        "Ġwater",
        -7.063507568557936
      ],
      [
        "Ġmake",
        -7.065495643366814
      ],
      [
        "Ġmost",
        -7.077257280166581
      ],
      [
        "Ġused",
        -7.082504713753865
      ],
      [
        "Ġwhat",
        -7.092344642095744
      ],
      [
        "able",
        -7.0924703979001595
      ],
      [
        "/",
        -7.103580700534854
      ],
      [
        "I",
        -7.108341099593543
      ],
      [
        "Ġany",
        -7.122333454064263
      ],
      [
        "Ġour",
        -7.122655003152747
      ],
      [
        "g",
        -7.15826683611192
      ],
      [
        "Ġsuch",
        -7.165707358540461
      ],
      [
        "Ġhelp",
        -7.178936915536999
      ],
      [
        "p",
        -7.182404356738113
      ],
      [
        "Ġpeople",
        -7.194555144291558
      ],
      [
        "Ġwere",
        -7.204708451001837
      ],
      [
        "Ġbeen",
        -7.211084538123885
      ],
      [
        "Ġwho",
        -7.229352632764284
      ],
      [
        "Ġnew",
        -7.239596708721331
      ],
      [
        "Ġshould",
        -7.245776201396776
      ],
      [
        "Ġthrough",
        -7.248033266691255
      ],
      [
        "Ġwould",
        -7.256474553050971
      ],
      [
        "or",
        -7.257022812896954
      ],
      [
        "b",
        -7.268576701407879
      ],
      [
        ";",
        -7.280028876335267
      ],
      [
        "Ġjust",
        -7.293337477664409
      ],
      [
        "Ġover",
        -7.316590857715712
      ],
      [
        "Ġonly",
        -7.318364456178776
      ],
      [
        "Ġmy",
        -7.3239969201778
      ],
      [
        "Ġmany",
        -7.3278097243340685
      ],
      [
        "Ġwork",
        -7.330590320166166
      ],
      [
        "Ġits",
        -7.334116534631626
      ],
      [
        "ĠC",
        -7.349495006180911
      ],
      [
        "Ġwell",
        -7.353964813528846
      ],
      [
        "Ġhigh",
        -7.3631467794752
      ],
      [
        "Ġfirst",
        -7.385201817750678
      ],
      [
        "h",
        -7.3879655540696465
      ],
      [
        "Ġtwo",
        -7.389530412585472
      ],
      [
        "f",
        -7.396023419482184
      ],
      [
        "an",
        -7.415096621191742
      ],
      [
        "Ġway",
        -7.418191371335103
      ],
      [
        "?Ċ",
        -7.425119005927261
      ],
      [
        "is",
        -7.429374376843141
      ],
      [
        "ĠS",
        -7.441529210902617
      ],
      [
        "Ġdifferent",
        -7.445470421005361
      ],
      [
        "Ġwhere",
        -7.445687868007598
      ],
      [
        "Ġno",
        -7.4548490508633165
      ],
      [
        "out",
        -7.457275062205831
      ],
      [
        "ion",
        -7.469001151530362
      ],
      [
        "Ġtake",
        -7.471897708312877
      ],
      [
        "ĠIf",
        -7.474587706519175
      ],
      [
        "ation",
        -7.476647455627422
      ],
      [
        "Ġusing",
        -7.477519685962374
      ],
      [
        "Ġcould",
        -7.495921625179788
      ],
      [
        "Ġeven",
        -7.501279693648577
      ],
      [
        "Ġbetween",
        -7.504214695399956
      ],
      [
        "S",
        -7.516227144744835
      ],
      [
        "Ġbecause",
        -7.516637852059391
      ],
      [
        "ity",
        -7.519846619091085
      ],
      [
        "Ġlook",
        -7.520260831531589
      ],
      [
        "Ġprovide",
        -7.527933914952285
      ],
      [
        "Ġpart",
        -7.5491704444529795
      ],
      [
        "Ġvery",
        -7.550035798703616
      ],
      [
        "u",
        -7.5712021608767905
      ],
      [
        "In",
        -7.571612936099509
      ],
      [
        "ic",
        -7.572515672091454
      ],
      [
        "Ġsystem",
        -7.580300346929819
      ],
      [
        "ve",
        -7.584679024748322
      ],
      [
        "Ġhealth",
        -7.593798836761588
      ],
      [
        "Ġhe",
        -7.5987264500104175
      ],
      [
        "Ġeach",
        -7.600668636948173
      ],
      [
        "!",
        -7.612102366957998
      ],
      [
        "Ġgood",
        -7.61785178090196
      ],
      [
        "Ġmuch",
        -7.619148622197169
      ],
      [
        "Ġwant",
        -7.619807689400865
      ],
      [
        "Ġknow",
        -7.62619632919426
      ],
      [
        "Ġimportant",
        -7.628009334074825
      ],
      [
        "Ġhad",
        -7.637505291525859
      ],
      [
        "ĠYou",
        -7.640936025697258
      ],
      [
        "ĠThey",
        -7.643313121242537
      ],
      [
        "th",
        -7.644738822283037
      ],
      [
        "um",
        -7.646277879692631
      ],
      [
        "Ġdoes",
        -7.647920410708313
      ],
      [
        "ĠâĢĵ",
        -7.6617149716771
      ],
      [
        "Ġfood",
        -7.67058478277772
      ],
      [
        "?ĊĊ",
        -7.674740377095441
      ],
      [
        "Ġcause",
        -7.675161250816133
      ],
      [
        "le",
        -7.681036091397175
      ],
      [
        "Ġlong",
        -7.682698491714447
      ],
      [
        "Ġhis",
        -7.686145714495252
      ],
      [
        "Ġsee",
        -7.686777267599734
      ],
      [
        "Ġdon",
        -7.687984032666231
      ],
      [
        "Ġwhile",
        -7.68801195188199
      ],
      [
        "Ġevery",
        -7.692667459831812
      ],
      [
        "ĠB",
        -7.694499823428982
      ],
      [
        "Ġsmall",
        -7.698192120119852
      ],
      [
        "k",
        -7.70218740936523
      ],
      [
        "(",
        -7.703340991539989
      ],
      [
        "Ġafter",
        -7.722487240800888
      ],
      [
        "Ġyears",
        -7.723791765957891
      ],
      [
        "ll",
        -7.724415780365167
      ],
      [
        "Ġnumber",
        -7.729543090631935
      ],
      [
        "ers",
        -7.733029842904303
      ],
      [
        "us",
        -7.738583326459668
      ],
      [
        ").",
        -7.746091980457978
      ],
      [
        "Ġfollow",
        -7.748882726869198
      ],
      [
        "ment",
        -7.753153659623985
      ],
      [
        "around",
        -7.75706539312629
      ],
      [
        "Ġbefore",
        -7.75927921656198
      ],
      [
        "Ġcome",
        -7.761775293803893
      ],
      [
        "Ġworld",
        -7.776466685857315
      ],
      [
        "Ġduring",
        -7.784748306310707
      ],
      [
        "Ġprocess",
        -7.78728169476889
      ],
      [
        "Ġsame",
        -7.793181761229723
      ],
      [
        "Ġbody",
        -7.794702346216651
      ],
      [
        "Ġback",
        -7.798580959239327
      ],
      [
        "Ġlevel",
        -7.7988274707819585
      ],
      [
        "Ġreal",
        -7.817034447204787
      ],
      [
        "Ġbeing",
        -7.820633141699561
      ],
      [
        "those",
        -7.820947121521311
      ],
      [
        "D",
        -7.825004043062219
      ],
      [
        "Ġkeep",
        -7.82898634482229
      ],
      [
        "Ġbest",
        -7.830033522808074
      ],
      [
        "Ġoften",
        -7.833767700330664
      ],
      [
        "Ġright",
        -7.848576707272841
      ],
      [
        "w",
        -7.850973779064962
      ],
      [
        "Ġlife",
        -7.855159867232894
      ],
      [
        "C",
        -7.8569031163007
      ],
      [
        "Ġfind",
        -7.869078513966906
      ],
      [
        "ness",
        -7.870718762772922
      ],
      [
        "What",
        -7.874328804191354
      ],
      [
        "Ġfound",
        -7.875314838762501
      ],
      [
        "ĠFor",
        -7.875365390390376
      ],
      [
        "Ġcommon",
        -7.888004698764789
      ],
      [
        "Ġyear",
        -7.893205416104536
      ],
      [
        "Ġpower",
        -7.894685601366902
      ],
      [
        "Ġgo",
        -7.895688152370541
      ],
      [
        "Ġdown",
        -7.896642179350124
      ],
      [
        "Ġmade",
        -7.900678299808737
      ],
      [
        "Ġexperience",
        -7.905510017336864
      ],
      [
        "Ġdata",
        -7.906869879011504
      ],
      [
        "Ġday",
        -7.909373161081366
      ],
      [
        "Ġun",
        -7.909385785431617
      ],
      [
        "Ġboth",
        -7.9116401608758995
      ],
      [
        "Ġenergy",
        -7.913390776550925
      ],
      [
        "%",
        -7.924881878709986
      ],
      [
        "Ġher",
        -7.931012462253289
      ],
      [
        "Ġexample",
        -7.9323771585820815
      ],
      [
        "x",
        -7.938720709598609
      ],
      [
        "Ġsaid",
        -7.939488014123258
      ],
      [
        "ĠF",
        -7.939710461678777
      ],
      [
        "),",
        -7.944503355601785
      ],
      [
        "Ġstart",
        -7.944802691095093
      ],
      [
        "Ġchange",
        -7.946149746219225
      ],
      [
        "Ġplant",
        -7.946802482535947
      ],
      [
        "Ġincrease",
        -7.94719707317766
      ],
      [
        "Ġdog",
        -7.949096406876468
      ],
      [
        "Ġme",
        -7.957756912735249
      ],
      [
        "Ġinformation",
        -7.963767257621065
      ],
      [
        "Ġlight",
        -7.970832396213238
      ],
      [
        ":Ċ",
        -7.975095264347242
      ],
      [
        "Ġhome",
        -7.978162103001246
      ],
      [
        "ĠWe",
        -7.981473236590814
      ],
      [
        "ability",
        -7.992076541684488
      ],
      [
        "ĠT",
        -7.994715255528261
      ],
      [
        "ĠTo",
        -7.995672285536587
      ],
      [
        "B",
        -8.005254804981512
      ],
      [
        "Ġform",
        -8.007635339981569
      ],
      [
        "Ġus",
        -8.017726191412528
      ],
      [
        "Ġair",
        -8.01940636204398
      ],
      [
        "it",
        -8.022479546377495
      ],
      [
        "Ġthink",
        -8.023810713659886
      ],
      [
        "Ġmight",
        -8.027837973924903
      ],
      [
        "This",
        -8.03232254630203
      ],
      [
        "est",
        -8.034371839441949
      ],
      [
        "Ġoff",
        -8.03453469031928
      ],
      [
        "and",
        -8.035045855901284
      ],
      [
        "Ġplace",
        -8.036082423471507
      ],
      [
        "Ġfew",
        -8.038777136242317
      ],
      [
        "ĠD",
        -8.040477887741577
      ],
      [
        "Ġdevelop",
        -8.042105617422605
      ],
      [
        "Ġresearch",
        -8.046651190369564
      ],
      [
        "Ġstudents",
        -8.047645822564593
      ],
      [
        "Ġgreat",
        -8.048118309565663
      ],
      [
        "Ġspecies",
        -8.048386706933632
      ],
      [
        "Ġown",
        -8.050067222966787
      ],
      [
        "Ġsupport",
        -8.050746100943332
      ],
      [
        "ĠThese",
        -8.051210406059784
      ],
      [
        "Ġnow",
        -8.0515947842923
      ],
      [
        "If",
        -8.052157362809629
      ],
      [
        "Ġbetter",
        -8.058636174726978
      ],
      [
        "âĢĶ",
        -8.063140343935501
      ],
      [
        "F",
        -8.064639291773437
      ],
      [
        "Ġcase",
        -8.079864445224482
      ],
      [
        "Ġstill",
        -8.08693522506646
      ],
      [
        "Ġstudy",
        -8.093813649423794
      ],
      [
        "Ġunder",
        -8.097552515069108
      ],
      [
        "Ġmaking",
        -8.099176703671583
      ],
      [
        "ĠP",
        -8.102687288505113
      ],
      [
        "age",
        -8.104589904155995
      ],
      [
        "Ġcreate",
        -8.110119342838109
      ],
      [
        "Ġtype",
        -8.117235001760289
      ],
      [
        "Ġhuman",
        -8.118253596975991
      ],
      [
        "Ġset",
        -8.121402306567953
      ],
      [
        "Ġplants",
        -8.124181234098437
      ],
      [
        "Ġcontrol",
        -8.124717683781414
      ],
      [
        "Ġless",
        -8.124892044082506
      ],
      [
        "âĢĻ",
        -8.136321707654895
      ],
      [
        "Ġper",
        -8.138374173252663
      ],
      [
        "Ġlarge",
        -8.138395252147767
      ],
      [
        "...",
        -8.139558100638288
      ],
      [
        "Ġincluding",
        -8.145092524146765
      ],
      [
        "How",
        -8.14812103527852
      ],
      [
        "Ġgive",
        -8.14933721088164
      ],
      [
        "Ġdesign",
        -8.151452080287136
      ],
      [
        "Ġvalue",
        -8.152487079690212
      ],
      [
        "It",
        -8.153190113989302
      ],
      [
        "v",
        -8.15529127803121
      ],
      [
        "Ġtoo",
        -8.156553645909076
      ],
      [
        ":ĊĊ",
        -8.15910395022236
      ],
      [
        "Ġend",
        -8.162896492575578
      ],
      [
        "Ġsure",
        -8.16339039947861
      ],
      [
        "Ġthree",
        -8.171977837404215
      ],
      [
        "ce",
        -8.174128897036914
      ],
      [
        "Ġpressure",
        -8.175383327189591
      ],
      [
        "ĠE",
        -8.179137742151465
      ],
      [
        "Ġnatural",
        -8.179191822352301
      ],
      [
        "Ġcurrent",
        -8.181896949801493
      ],
      [
        "ĠBut",
        -8.183222142743494
      ],
      [
        "Ġtest",
        -8.184339388422451
      ],
      [
        "Ġblood",
        -8.18826112562872
      ],
      [
        "T",
        -8.190389503651248
      ],
      [
        "Ġknown",
        -8.190869061530469
      ],
      [
        "Ġcar",
        -8.194294126229284
      ],
      [
        "Ġlot",
        -8.194697005741727
      ],
      [
        "Ġdisease",
        -8.19684503713418
      ],
      [
        "Ġprevent",
        -8.199240790365804
      ],
      [
        "Ġchildren",
        -8.200464342997881
      ],
      [
        "Ġlead",
        -8.204892240861202
      ],
      [
        "Ġadd",
        -8.206777088602696
      ],
      [
        "ive",
        -8.210652071807592
      ],
      [
        "Ġpotential",
        -8.214756202111491
      ],
      [
        "Ġlearn",
        -8.21625248183254
      ],
      [
        "land",
        -8.217362907856327
      ],
      [
        "ĠHowever",
        -8.218059725937726
      ],
      [
        "Ġensure",
        -8.223239089892243
      ],
      [
        "Ġthings",
        -8.228517522514016
      ],
      [
        "Ġmust",
        -8.229095985499448
      ],
      [
        "Ġheat",
        -8.230566770856619
      ],
      [
        "Ġoffer",
        -8.230961015031184
      ],
      [
        "ĠAnd",
        -8.237002722938
      ],
      [
        "Ġactual",
        -8.241270874389667
      ],
      [
        "Ġre",
        -8.241813472426164
      ],
      [
        "Ġinclude",
        -8.242617840159623
      ],
      [
        "Ġmodel",
        -8.243185037435934
      ],
      [
        "Ġrisk",
        -8.245577447780972
      ],
      [
        "less",
        -8.246309948460771
      ],
      [
        "why",
        -8.246873967083662
      ],
      [
        "the",
        -8.24716560196618
      ],
      [
        "Ġtry",
        -8.258771526008523
      ],
      [
        "Ġlow",
        -8.26256158688798
      ],
      [
        "Ġsomething",
        -8.26473702083303
      ],
      [
        "ĠSo",
        -8.267923566002686
      ],
      [
        "Ġshe",
        -8.269667226934232
      ],
      [
        "Ġcolor",
        -8.271160139078287
      ],
      [
        "Ġenvironment",
        -8.276190950116126
      ],
      [
        "to",
        -8.276366811634526
      ],
      [
        "Ġindividual",
        -8.27861576218278
      ],
      [
        "Ġreduce",
        -8.281535285220297
      ],
      [
        "ĠWhen",
        -8.28280181742183
      ],
      [
        "Ġcalled",
        -8.283166858914047
      ],
      [
        "Ġwithin",
        -8.283430601249297
      ],
      [
        "ĠHow",
        -8.292379293041604
      ],
      [
        "Ġbecome",
        -8.299234796591808
      ],
      [
        "Ġcare",
        -8.302319051521941
      ],
      [
        "M",
        -8.309091253784093
      ],
      [
        "Ġfunction",
        -8.311139462441663
      ],
      [
        "Ġpoint",
        -8.316564159702471
      ],
      [
        "Ġname",
        -8.317311482546051
      ],
      [
        "Ġanother",
        -8.317351353644357
      ],
      [
        "Ġdue",
        -8.320083142804682
      ],
      [
        "Ġpossible",
        -8.321678453916004
      ],
      [
        "Ġfactor",
        -8.3252980633239
      ],
      [
        "Ġplay",
        -8.326169763390224
      ],
      [
        "ul",
        -8.327553596557417
      ],
      [
        "Ġeffective",
        -8.327612924825997
      ],
      [
        "Ġamount",
        -8.327726020843189
      ],
      [
        "Ġlast",
        -8.331340585783302
      ],
      [
        "Ġreason",
        -8.332849429396987
      ],
      [
        "Ġsize",
        -8.334207809508586
      ],
      [
        "Ġrange",
        -8.334392234438848
      ],
      [
        "Ġtreatment",
        -8.338283314600842
      ],
      [
        "P",
        -8.340648152586386
      ],
      [
        "Ġgoing",
        -8.347038301910928
      ],
      [
        "Ġalway",
        -8.350329298506907
      ],
      [
        "Ġclose",
        -8.351371418506663
      ],
      [
        "Ġspace",
        -8.351997190209104
      ],
      [
        "Ġcat",
        -8.354319519088593
      ],
      [
        "Ġlittle",
        -8.355975855726765
      ],
      [
        "ĠThere",
        -8.35667365551631
      ],
      [
        "Ġhere",
        -8.357706952861331
      ],
      [
        "Ġperson",
        -8.357977575230114
      ],
      [
        "Ġorder",
        -8.358905699165634
      ],
      [
        "Ġfish",
        -8.361305566450374
      ],
      [
        "Ġsurface",
        -8.365356664587937
      ],
      [
        "Ġsecond",
        -8.367951463384589
      ],
      [
        "Ġvarious",
        -8.368694257404524
      ],
      [
        "Ġimpact",
        -8.370097729109254
      ],
      [
        "ĠH",
        -8.374023464827157
      ],
      [
        "Ġtemperature",
        -8.383153061642057
      ],
      [
        "Ġspecific",
        -8.387143960836543
      ],
      [
        "Ġallow",
        -8.388235075110789
      ],
      [
        "ĠM",
        -8.390146192459495
      ],
      [
        "ĠG",
        -8.3930118146691
      ],
      [
        "Ġrequire",
        -8.393449197435096
      ],
      [
        "Ġsoil",
        -8.393901950448559
      ],
      [
        "Ġstate",
        -8.395228697174568
      ],
      [
        "Ġshow",
        -8.40037313355057
      ],
      [
        "G",
        -8.41054881504877
      ],
      [
        "Ġlearning",
        -8.414284784900342
      ],
      [
        "ther",
        -8.418471138275837
      ],
      [
        "Ġavailable",
        -8.419567827293925
      ],
      [
        "Ġproblem",
        -8.422296391532418
      ],
      [
        "Ġside",
        -8.429447031006006
      ],
      [
        "ar",
        -8.43164639325547
      ],
      [
        "Ġmeans",
        -8.437067372725469
      ],
      [
        "]",
        -8.437573288930299
      ],
      [
        "Ġresult",
        -8.437610232455961
      ],
      [
        "Ġhard",
        -8.43859742416369
      ],
      [
        "Ġcells",
        -8.440315305692778
      ],
      [
        "E",
        -8.441412775538536
      ],
      [
        "Ġschool",
        -8.441686576830897
      ],
      [
        "li",
        -8.443822974858357
      ],
      [
        "ĠR",
        -8.44543906791039
      ],
      [
        ",\"",
        -8.449011831995026
      ],
      [
        "Ġimprove",
        -8.45266259119601
      ],
      [
        "ĠHe",
        -8.45408830205281
      ],
      [
        "Ġquality",
        -8.455410739093512
      ],
      [
        "*",
        -8.455716302943749
      ],
      [
        "Ġusually",
        -8.456899116276654
      ],
      [
        "Ġuser",
        -8.457157940868928
      ],
      [
        "Ġdid",
        -8.458123753929705
      ],
      [
        "Ġweight",
        -8.46006098329403
      ],
      [
        "ĠW",
        -8.463837759089216
      ],
      [
        "Ġleave",
        -8.465750214407816
      ],
      [
        "ĠWhich",
        -8.466723240950127
      ],
      [
        "Ġenough",
        -8.467908464928435
      ],
      [
        "Ġlive",
        -8.47022482154315
      ],
      [
        "Ġconsider",
        -8.470399374187343
      ],
      [
        "Ġfeel",
        -8.473410355870357
      ],
      [
        "Ġcourse",
        -8.473466825651016
      ],
      [
        "Ġmain",
        -8.480755247020761
      ],
      [
        "Ġseveral",
        -8.483692715760409
      ],
      [
        "Ġeat",
        -8.484850842293849
      ],
      [
        "Ġpresent",
        -8.484961203419456
      ],
      [
        "Ġsignificant",
        -8.484982599154115
      ],
      [
        "ally",
        -8.48553253636786
      ],
      [
        "W",
        -8.486844052993384
      ],
      [
        "Ġput",
        -8.489530515801412
      ],
      [
        "ry",
        -8.493737376759785
      ],
      [
        "When",
        -8.498311087620134
      ],
      [
        "Ġessential",
        -8.504819080112178
      ],
      [
        "Ġareas",
        -8.504958339781762
      ],
      [
        "Ġteam",
        -8.508665148020505
      ],
      [
        "Ġtypes",
        -8.51002173272051
      ],
      [
        "Ġmanage",
        -8.513987462999962
      ],
      [
        "Ġopen",
        -8.514550684239104
      ],
      [
        "based",
        -8.5153034784637
      ],
      [
        "ĠN",
        -8.515375469786548
      ],
      [
        "Ġunderstand",
        -8.516341851188116
      ],
      [
        "Ġoption",
        -8.51702468579056
      ],
      [
        "Ġdifference",
        -8.518206047688082
      ],
      [
        "Ġ&",
        -8.51912849784862
      ],
      [
        "ĠU",
        -8.521316891806347
      ],
      [
        "ĠAs",
        -8.522577866824346
      ],
      [
        "Ġparticular",
        -8.52704932391346
      ],
      [
        "Ġhand",
        -8.527500243635346
      ],
      [
        "ur",
        -8.527951898581643
      ],
      [
        "Ġde",
        -8.529280562860716
      ],
      [
        "Ġterm",
        -8.530479727890675
      ],
      [
        "having",
        -8.531098877093633
      ],
      [
        "Ġchild",
        -8.531721725977514
      ],
      [
        "Ġdamage",
        -8.531810438104342
      ],
      [
        "Ġdevelopment",
        -8.538044900791705
      ],
      [
        "Ġtechnology",
        -8.53912169509476
      ],
      [
        "Ġdiet",
        -8.541320688920376
      ],
      [
        "Ġmaterial",
        -8.541911123916115
      ],
      [
        "Ġplan",
        -8.543106409285974
      ],
      [
        "Ġmethod",
        -8.544514495103392
      ],
      [
        "Ġconditions",
        -8.54700791705082
      ],
      [
        "Ġfree",
        -8.549550564238451
      ],
      [
        "Ġnext",
        -8.551950944551336
      ],
      [
        "Ġoil",
        -8.552437307423805
      ],
      [
        "Ġfamily",
        -8.55263441154203
      ],
      [
        "Ġanimals",
        -8.563072896288542
      ],
      [
        "H",
        -8.563927467310439
      ],
      [
        "Ġeye",
        -8.565426190970573
      ],
      [
        "Ġaway",
        -8.569080998048172
      ],
      [
        "ch",
        -8.572374747882069
      ],
      [
        "Ġb",
        -8.572738372436742
      ],
      [
        "Ġhour",
        -8.575545997130082
      ],
      [
        "Ġnon",
        -8.575919363867534
      ],
      [
        "Ġfull",
        -8.576018992180382
      ],
      [
        "Ġtext",
        -8.576142240948748
      ],
      [
        "Ġkey",
        -8.579407230541996
      ],
      [
        "Ġlocal",
        -8.58063065221347
      ],
      [
        "Ġgas",
        -8.581688257040016
      ],
      [
        "self",
        -8.582181721725142
      ],
      [
        "Ġstructure",
        -8.582216510747125
      ],
      [
        "Ġsince",
        -8.583615138287016
      ],
      [
        "While",
        -8.585043112594796
      ],
      [
        "Ġgrow",
        -8.586841490052628
      ],
      [
        "Ġthing",
        -8.58790046634017
      ],
      [
        "Ġproject",
        -8.58804064866823
      ],
      [
        "Ġmaterials",
        -8.588533039340955
      ],
      [
        "Ġarea",
        -8.589373825128622
      ],
      [
        "Ġtop",
        -8.591803203551684
      ],
      [
        "Ġgame",
        -8.593088809496173
      ],
      [
        "Ġsafe",
        -8.593250357146946
      ],
      [
        "Ġtogether",
        -8.593416129650468
      ],
      [
        "Ġsay",
        -8.594008656938152
      ],
      [
        "Ġgroup",
        -8.594972778217727
      ],
      [
        "Ġlower",
        -8.595136233967018
      ],
      [
        "Ġshort",
        -8.59640689959664
      ],
      [
        "ĠL",
        -8.59866548485703
      ],
      [
        "Ġmaintain",
        -8.598978627064103
      ],
      [
        "Ġfocus",
        -8.601664815018559
      ],
      [
        "Ġalong",
        -8.602377066171787
      ],
      [
        "Ġgarden",
        -8.603226342196837
      ],
      [
        "Ġcell",
        -8.603776466302868
      ],
      [
        "Ġaffect",
        -8.605844422372655
      ],
      [
        "Ġuntil",
        -8.606283025354319
      ],
      [
        "Ġ$",
        -8.60710446545212
      ],
      [
        "Ġage",
        -8.608010797309086
      ],
      [
        "Ġsimple",
        -8.610123805575459
      ],
      [
        "Ġleast",
        -8.6101240443532
      ],
      [
        "Ġ=",
        -8.613636840658284
      ],
      [
        "ance",
        -8.61450062633495
      ],
      [
        "Ġwide",
        -8.61534375370877
      ],
      [
        "Ġlove",
        -8.615373921819309
      ],
      [
        "Ġcost",
        -8.615633647611755
      ],
      [
        "Ġcontain",
        -8.615703437296238
      ],
      [
        "Ġapplication",
        -8.616365238065477
      ],
      [
        "Ġseem",
        -8.616440640070651
      ],
      [
        "Ġvideo",
        -8.617144066573236
      ],
      [
        "Ġcheck",
        -8.619750979081296
      ],
      [
        "Ġlet",
        -8.620109938499134
      ],
      [
        "N",
        -8.621195476207017
      ],
      [
        "Ġsystems",
        -8.622599412090336
      ],
      [
        "Ġearly",
        -8.623892942720202
      ],
      [
        "ĠThat",
        -8.62662737097979
      ],
      [
        "Ġmeasure",
        -8.629794839683393
      ],
      [
        "Ġrole",
        -8.63197611048032
      ],
      [
        "You",
        -8.632805088529178
      ],
      [
        "Ġtechnique",
        -8.6373573042065
      ],
      [
        "ither",
        -8.639043404644779
      ],
      [
        "Ġline",
        -8.642753089493539
      ],
      [
        "Ġeasy",
        -8.64281234460817
      ],
      [
        "Ġdays",
        -8.643444546167315
      ],
      [
        "Ġsocial",
        -8.6435137999466
      ],
      [
        "Ġpaper",
        -8.644300827896238
      ],
      [
        "L",
        -8.644746559666496
      ],
      [
        "Ġhigher",
        -8.645536357294255
      ],
      [
        "ĠBy",
        -8.647623861147416
      ],
      [
        "Ġstrong",
        -8.650369412081037
      ],
      [
        "Ġrate",
        -8.650373441422467
      ],
      [
        "Ġproper",
        -8.650652171354684
      ],
      [
        "V",
        -8.651158129797174
      ],
      [
        "Ġvariet",
        -8.652639938701222
      ],
      [
        "Ġhead",
        -8.652766688946105
      ],
      [
        "Ġrun",
        -8.653147959315937
      ],
      [
        "Ġclean",
        -8.653216776754972
      ],
      [
        "Ġworking",
        -8.653426501849395
      ],
      [
        "Ġsimilar",
        -8.65380795353093
      ],
      [
        "Ġproducts",
        -8.655365964643043
      ],
      [
        "Ġloss",
        -8.659874016012832
      ],
      [
        "Ġprotect",
        -8.66035690306409
      ],
      [
        "Ġproblems",
        -8.661102333650607
      ],
      [
        "To",
        -8.662392044270353
      ],
      [
        "Ġturn",
        -8.66268145372237
      ],
      [
        "There",
        -8.663043314014269
      ],
      [
        "Ġstep",
        -8.665256035349639
      ],
      [
        "Ġdepend",
        -8.666595695520861
      ],
      [
        "ĠWith",
        -8.668897360368884
      ],
      [
        "Ġtypical",
        -8.669235568182273
      ],
      [
        "Ġhealthy",
        -8.670534088568157
      ],
      [
        "We",
        -8.671310250700223
      ],
      [
        "Ġfuture",
        -8.67330054620992
      ],
      [
        "Ġprogram",
        -8.673791781019522
      ],
      [
        "ĠK",
        -8.67508718937933
      ],
      [
        "_",
        -8.67953846900447
      ],
      [
        "Ġfar",
        -8.680579282241654
      ],
      [
        "Ġpropert",
        -8.680599925490469
      ],
      [
        "Ġcomponent",
        -8.68081151154442
      ],
      [
        "Ġnever",
        -8.681873512487574
      ],
      [
        "Ġmove",
        -8.682184327920686
      ],
      [
        "Ġtreat",
        -8.683227264541086
      ],
      [
        "Ġdoesn",
        -8.686363799138554
      ],
      [
        "ĠO",
        -8.687651273982883
      ],
      [
        "Ġelement",
        -8.688511729616852
      ],
      [
        "Ġdogs",
        -8.690085890116656
      ],
      [
        "Ġmachine",
        -8.690196641336792
      ],
      [
        "Ġresults",
        -8.690279530273536
      ],
      [
        "Ġphysical",
        -8.692279932692738
      ],
      [
        "ĠUniversity",
        -8.692458830224512
      ],
      [
        "Ġavoid",
        -8.69307907989514
      ],
      [
        "ous",
        -8.693682355416545
      ],
      [
        "Ġbook",
        -8.6945921284881
      ],
      [
        "Ġgiven",
        -8.695156420083148
      ],
      [
        "K",
        -8.697667498474662
      ],
      [
        "ĠRe",
        -8.698570817957524
      ],
      [
        "Ġold",
        -8.699295829492105
      ],
      [
        "Ġissues",
        -8.699392294738315
      ],
      [
        "ary",
        -8.700063008014144
      ],
      [
        "Ġbuilding",
        -8.703697944306612
      ],
      [
        "Ġtimes",
        -8.707469638732007
      ],
      [
        "Ġspeed",
        -8.708166116472128
      ],
      [
        "Ġunique",
        -8.708662327193192
      ],
      [
        "Ġaccess",
        -8.709964550346086
      ],
      [
        "ĠNo",
        -8.71625731508755
      ],
      [
        "Ġtraining",
        -8.720912547354168
      ],
      [
        "ĠSome",
        -8.721564736328574
      ],
      [
        "Ġabove",
        -8.723372738543315
      ],
      [
        "Ġaccording",
        -8.72375947400305
      ],
      [
        "Ġespecial",
        -8.724340052702424
      ],
      [
        "Ġcertain",
        -8.724822771849894
      ],
      [
        "Ġrecommend",
        -8.72915636119653
      ],
      [
        "ate",
        -8.729273281006265
      ],
      [
        "Ġproduction",
        -8.731048016505369
      ],
      [
        ")ĊĊ",
        -8.733961246657016
      ],
      [
        "across",
        -8.734351314819685
      ],
      [
        "Ġdone",
        -8.734379685918185
      ],
      [
        "Ġchanges",
        -8.743044681442761
      ],
      [
        "Ġskin",
        -8.743471792394303
      ],
      [
        "R",
        -8.744351406830765
      ],
      [
        "ĠNew",
        -8.746430130037822
      ],
      [
        "Ġwhite",
        -8.746733640184328
      ],
      [
        "Ġclimate",
        -8.747147697329947
      ],
      [
        "Ġexist",
        -8.750964038704591
      ],
      [
        "Ġhim",
        -8.75172942093097
      ],
      [
        "stead",
        -8.751729773428426
      ],
      [
        "Ġdetail",
        -8.752372112511061
      ],
      [
        "ĠYour",
        -8.753171409891115
      ],
      [
        "For",
        -8.753853923502968
      ],
      [
        "Ġmarket",
        -8.75491835298483
      ],
      [
        "Ġsingle",
        -8.756501899297282
      ],
      [
        "Ġmakes",
        -8.757930903008742
      ],
      [
        "Ġgrowth",
        -8.760628863977766
      ],
      [
        "Ġscience",
        -8.761059474508272
      ],
      [
        "Ġpost",
        -8.761994065289585
      ],
      [
        "Ġregular",
        -8.764513695055161
      ],
      [
        "!ĊĊ",
        -8.764862296445305
      ],
      [
        "Ġdry",
        -8.765172415029557
      ],
      [
        "O",
        -8.765336639146838
      ],
      [
        "Ġdifficult",
        -8.765976551123659
      ],
      [
        "Ġremove",
        -8.766792488827416
      ],
      [
        "Ġbit",
        -8.768424838828054
      ],
      [
        "Ġheart",
        -8.76995983009008
      ],
      [
        "Ġ[",
        -8.771622212538563
      ],
      [
        "z",
        -8.771743629098577
      ],
      [
        "Ġbelieve",
        -8.773627750456061
      ],
      [
        "against",
        -8.774496450783824
      ],
      [
        "Ġfact",
        -8.77637909311137
      ],
      [
        "Ġred",
        -8.776843392608164
      ],
      [
        "man",
        -8.780994232972596
      ],
      [
        "Ġproduct",
        -8.783130552143326
      ],
      [
        "Ġwhe",
        -8.783878307757703
      ],
      [
        "Ġfield",
        -8.784237215942255
      ],
      [
        "ter",
        -8.785145620951063
      ],
      [
        "Ġweek",
        -8.786115046248277
      ],
      [
        "Ġbasic",
        -8.78690836092371
      ],
      [
        "Ġread",
        -8.787137030569564
      ],
      [
        "Ġam",
        -8.789181307045897
      ],
      [
        "Ġcontinue",
        -8.792481664218275
      ],
      [
        "Ġsource",
        -8.793270444200271
      ],
      [
        "Ġoccur",
        -8.795741366093978
      ],
      [
        "Ġcontent",
        -8.798238190846748
      ],
      [
        "Ġpopulation",
        -8.800159013519218
      ],
      [
        "Ġobject",
        -8.800318929686448
      ],
      [
        "Ġbrain",
        -8.804551556249695
      ],
      [
        "Ġanimal",
        -8.809055181020653
      ],
      [
        "Ġdeep",
        -8.809629473877903
      ],
      [
        "Ġperformance",
        -8.810861533873808
      ],
      [
        "Ġforce",
        -8.811802850363257
      ],
      [
        "Ġchemical",
        -8.814031594804838
      ],
      [
        "Ġaddition",
        -8.814647397977472
      ],
      [
        "Ġpain",
        -8.814957205378736
      ],
      [
        "Ġtoday",
        -8.815825404523707
      ],
      [
        "Ġpopular",
        -8.816845742146352
      ],
      [
        "ĠV",
        -8.817511347428859
      ],
      [
        "Ġleft",
        -8.817693828115104
      ],
      [
        "Ġenjoy",
        -8.819000197087156
      ],
      [
        "Ġproduce",
        -8.81915680901748
      ],
      [
        ")Ċ",
        -8.819855275669411
      ],
      [
        "Ġsafety",
        -8.821608824003508
      ],
      [
        "Ġremain",
        -8.82335507849372
      ],
      [
        "Ġpatient",
        -8.824659060831427
      ],
      [
        "Ġmedical",
        -8.829372509554707
      ],
      [
        "Ġnecessary",
        -8.832114099022794
      ],
      [
        "Ġground",
        -8.832366037332442
      ],
      [
        "Ġbring",
        -8.834150087977758
      ],
      [
        "Ġmatter",
        -8.835563134355747
      ],
      [
        "Ġlimit",
        -8.835704040432478
      ],
      [
        "Ġeffects",
        -8.837385439603324
      ],
      [
        "Ġfurther",
        -8.84083352117546
      ],
      [
        "Ġnear",
        -8.841806733454657
      ],
      [
        "thing",
        -8.843453045901247
      ],
      [
        "Ġarticle",
        -8.845815325011019
      ],
      [
        "Ġdesigned",
        -8.846549311142214
      ],
      [
        "Ġkind",
        -8.84658439919756
      ],
      [
        "un",
        -8.84674277659844
      ],
      [
        "Ġinfection",
        -8.848535395280392
      ],
      [
        "Ġstore",
        -8.84929240994581
      ],
      [
        "Ġsound",
        -8.849336641391702
      ],
      [
        "Ġfour",
        -8.85109160311255
      ],
      [
        "Ġblack",
        -8.853799360758067
      ],
      [
        "Ġcomputer",
        -8.854847031939503
      ],
      [
        "Ġchoice",
        -8.855224989288573
      ],
      [
        "co",
        -8.85552845077671
      ],
      [
        "Ġskills",
        -8.855528960025595
      ],
      [
        "Ġstandard",
        -8.857827011602073
      ],
      [
        "Ġanswer",
        -8.858171578425548
      ],
      [
        "Ġpublic",
        -8.863612539921746
      ],
      [
        "Ġbusiness",
        -8.868077163513698
      ],
      [
        "Ġeffect",
        -8.868605071449629
      ],
      [
        "Ġbenefits",
        -8.873208440239672
      ],
      [
        ".\"Ċ",
        -8.87658836912358
      ],
      [
        "Ġflow",
        -8.879126888231546
      ],
      [
        "Ġagain",
        -8.880471674185582
      ],
      [
        "Ġhouse",
        -8.883096745696363
      ],
      [
        "ish",
        -8.883388856633864
      ],
      [
        "Ġgreen",
        -8.884935533004864
      ],
      [
        "if",
        -8.885889965414275
      ],
      [
        "Ġquestion",
        -8.886425315971824
      ],
      [
        "Ġsymptom",
        -8.886927535541858
      ],
      [
        "Ġapproach",
        -8.887442760144914
      ],
      [
        "Ġbuild",
        -8.888076357275697
      ],
      [
        "Ġsun",
        -8.888911396978195
      ],
      [
        "Ġsays",
        -8.889023239007123
      ],
      [
        "Ġrecent",
        -8.890469618986314
      ],
      [
        "Ġstay",
        -8.8910120774771
      ],
      [
        "Ġitem",
        -8.891938434783516
      ],
      [
        "ĠScot",
        -8.893532543144227
      ],
      [
        "ĠAn",
        -8.893620504682175
      ],
      [
        "Ġcomplete",
        -8.89469401712266
      ],
      [
        "tic",
        -8.895538492499576
      ],
      [
        "Ġmillion",
        -8.896166331393864
      ],
      [
        "Ġwhole",
        -8.89690323454817
      ],
      [
        "Ġvehicle",
        -8.897567549414186
      ],
      [
        "Ġcondition",
        -8.899021627269882
      ],
      [
        "Ġimage",
        -8.899476560211491
      ],
      [
        "Ġregion",
        -8.899590743261728
      ],
      [
        "below",
        -8.9006900673279
      ],
      [
        "Ġmean",
        -8.902336270310322
      ],
      [
        "already",
        -8.903330169660261
      ],
      [
        "ĠDo",
        -8.903461940390473
      ],
      [
        "Ġallows",
        -8.904242914550291
      ],
      [
        "Ġtree",
        -8.904789146385813
      ],
      [
        "Ġknowledge",
        -8.904999155689602
      ],
      [
        "Y",
        -8.905348746032342
      ],
      [
        "Ġtalk",
        -8.909771099384866
      ],
      [
        "Ġbehavior",
        -8.910634318170281
      ],
      [
        "Ġposition",
        -8.911255300390359
      ],
      [
        "ĠOne",
        -8.917622725859747
      ],
      [
        "Ġinside",
        -8.920798183585667
      ],
      [
        "Ġprice",
        -8.922187688603863
      ],
      [
        "Ġunderstanding",
        -8.922869161788107
      ],
      [
        "Ġspecial",
        -8.923048996591282
      ],
      [
        "Ġsolution",
        -8.924034458203996
      ],
      [
        "Ġseen",
        -8.924611910344616
      ],
      [
        "Ġcold",
        -8.925312323545821
      ],
      [
        "Ġcomplex",
        -8.926786946055898
      ],
      [
        "Ġways",
        -8.927965607699623
      ],
      [
        "Ġlonger",
        -8.928764316468772
      ],
      [
        "Ġrequired",
        -8.929523259400499
      ],
      [
        "Ġthough",
        -8.931920527559715
      ],
      [
        "Ġmajor",
        -8.932208848333136
      ],
      [
        "Ġbig",
        -8.932889735396977
      ],
      [
        "Ġhistory",
        -8.933682751783447
      ],
      [
        "Ġpersonal",
        -8.93468229329023
      ],
      [
        "Ġreach",
        -8.93493673530952
      ],
      [
        "Ġcompany",
        -8.93573245759336
      ],
      [
        "Ġcommunity",
        -8.93573279315973
      ],
      [
        "Ġfruit",
        -8.935831299218897
      ],
      [
        "Ġamong",
        -8.936389887040626
      ],
      [
        "âĢĵ",
        -8.937575191102745
      ],
      [
        "Ġmention",
        -8.937698373063135
      ],
      [
        "once",
        -8.938337524123781
      ],
      [
        "Ġissue",
        -8.940240296841925
      ],
      [
        "Ġactiviti",
        -8.940405576221897
      ],
      [
        "So",
        -8.943068552237522
      ],
      [
        "Ġconcern",
        -8.94430808016326
      ],
      [
        "Ġenvironmental",
        -8.945535756989656
      ],
      [
        "Ġsignal",
        -8.948615411555714
      ],
      [
        "ĠOn",
        -8.950419917562147
      ],
      [
        "Ġtoward",
        -8.950664572463737
      ],
      [
        "Ġprovid",
        -8.951420080930209
      ],
      [
        "Ġcall",
        -8.95157528052281
      ],
      [
        "ĠMan",
        -8.951737731920058
      ],
      [
        "Ġidea",
        -8.951770428116378
      ],
      [
        "Ġlayer",
        -8.952524965502283
      ],
      [
        "Ġshare",
        -8.95347827592566
      ],
      [
        "Ġpractice",
        -8.955406990834131
      ],
      [
        "Ġpet",
        -8.956239721671341
      ],
      [
        "ok",
        -8.958077038342658
      ],
      [
        "Ġmix",
        -8.958489614565437
      ],
      [
        "Ġonline",
        -8.961137330214306
      ],
      [
        "Ġcorrect",
        -8.961182222114294
      ],
      [
        "Ġtask",
        -8.962226388435313
      ],
      [
        "Ġbattery",
        -8.962389803820267
      ],
      [
        "Ġtaking",
        -8.962751722667676
      ],
      [
        "Ġpurpose",
        -8.96428431425224
      ],
      [
        "Ġactivity",
        -8.964640858324906
      ],
      [
        "As",
        -8.964899852734778
      ],
      [
        "Ġeasily",
        -8.967333385702855
      ],
      [
        "Ġindustry",
        -8.968593319143883
      ],
      [
        "Ġpre",
        -8.969709779343184
      ],
      [
        "Ġcancer",
        -8.970023800962982
      ],
      [
        "Ġresearcher",
        -8.97120546132739
      ],
      [
        "Ġcontact",
        -8.971917966393173
      ],
      [
        ">",
        -8.97222759030544
      ],
      [
        "ful",
        -8.973237768415872
      ],
      [
        "Ġperiod",
        -8.975164562668667
      ],
      [
        "Ġmonths",
        -8.976889357470544
      ],
      [
        "Ġminutes",
        -8.977293918296734
      ],
      [
        "Ġclear",
        -8.97840082872381
      ],
      [
        "Ġface",
        -8.980475083376117
      ],
      [
        "Ġauthor",
        -8.981436809688672
      ],
      [
        "Ġeducation",
        -8.983642140717988
      ],
      [
        "Ġslow",
        -8.984504548864997
      ],
      [
        "Ġhelps",
        -8.985379860973417
      ],
      [
        "Ġbuy",
        -8.986987757305663
      ],
      [
        "Ġperfect",
        -8.98814060295711
      ],
      [
        "Ġappear",
        -8.989372907445231
      ],
      [
        "Ġgeneral",
        -8.989410746060733
      ],
      [
        "Ġcut",
        -8.991273802362564
      ],
      [
        "Ġblock",
        -8.991454099212874
      ],
      [
        "Ġopportunit",
        -8.992836815586266
      ],
      [
        "Ġaction",
        -8.993195758817128
      ],
      [
        "Ġpositive",
        -8.99402324644022
      ],
      [
        "be",
        -8.99410492921824
      ],
      [
        "!Ċ",
        -8.99567599789059
      ],
      [
        "Ġview",
        -8.996852274811483
      ],
      [
        "[",
        -8.99837274923463
      ],
      [
        "|",
        -9.000360335441464
      ],
      [
        "Ġassociate",
        -9.000610838016037
      ],
      [
        "ves",
        -9.000978867186106
      ],
      [
        "Ġsomeone",
        -9.002244497813834
      ],
      [
        "Ġfall",
        -9.002324291937354
      ],
      [
        "Ġroom",
        -9.002427958756424
      ],
      [
        "im",
        -9.004369857589959
      ],
      [
        "Ġtravel",
        -9.005723617651988
      ],
      [
        "Ġco",
        -9.007869933889015
      ],
      [
        "Ġtotal",
        -9.009006781556169
      ],
      [
        "Ġprofessional",
        -9.009571490894745
      ],
      [
        "Ġsea",
        -9.0105815136751
      ],
      [
        "Ġlanguage",
        -9.013416446807035
      ],
      [
        "Ġprobabl",
        -9.013953269182476
      ],
      [
        "per",
        -9.01577960886992
      ],
      [
        "Ġdetermine",
        -9.015989799173138
      ],
      [
        "Ġmoney",
        -9.01637001951208
      ],
      [
        "Ġstress",
        -9.016998060784497
      ],
      [
        "ĠJ",
        -9.018059184055174
      ],
      [
        "Ġmind",
        -9.018957288963025
      ],
      [
        "Ġcook",
        -9.021962359654308
      ],
      [
        "Ġlink",
        -9.02386086514721
      ],
      [
        "Ġengine",
        -9.023876282760297
      ],
      [
        "Ġfuel",
        -9.02393235474139
      ],
      [
        "Ġfeatures",
        -9.024214570877998
      ],
      [
        "Ġseason",
        -9.02501214982661
      ],
      [
        "Ġwalk",
        -9.025646364341794
      ],
      [
        "Ġquickly",
        -9.026260320045308
      ],
      [
        "Ġprotein",
        -9.026653992524608
      ],
      [
        "Ġetc",
        -9.027927345260466
      ],
      [
        "Ġhot",
        -9.028091990892658
      ],
      [
        "Ġdevice",
        -9.031306844606275
      ],
      [
        "ĠAmerican",
        -9.032754544114727
      ],
      [
        "-based",
        -9.034296018202186
      ],
      [
        "Ġkid",
        -9.03514741461381
      ],
      [
        "Ġgot",
        -9.035561140922963
      ],
      [
        "Ġnetwork",
        -9.035741094598588
      ],
      [
        "Ġmethods",
        -9.036372856786542
      ],
      [
        "Ġwinter",
        -9.036443230987553
      ],
      [
        "rather",
        -9.038131623306066
      ],
      [
        "Ġlist",
        -9.039194632021616
      ],
      [
        "Ġcrucial",
        -9.039795560572152
      ],
      [
        "Ġservice",
        -9.039937394103871
      ],
      [
        "Ġsetting",
        -9.039951191052886
      ],
      [
        "Ġbalance",
        -9.04091992228878
      ],
      [
        "Ġhalf",
        -9.041747462150916
      ],
      [
        "Ġdoing",
        -9.043369974998583
      ],
      [
        "Ġtool",
        -9.043570111859054
      ],
      [
        "Ġself",
        -9.043717558126804
      ],
      [
        "Ġplastic",
        -9.04528355126608
      ],
      [
        "ent",
        -9.045555641208054
      ],
      [
        "Ġyourself",
        -9.046521812665134
      ],
      [
        "Ġlocation",
        -9.046639821359996
      ],
      [
        "Ġtools",
        -9.050571219103585
      ],
      [
        "Ġattention",
        -9.053783243517431
      ],
      [
        "Ġnature",
        -9.053868960800775
      ],
      [
        "Ġtell",
        -9.05501759135332
      ],
      [
        "Ġoverall",
        -9.05509173884272
      ],
      [
        "Ġrelease",
        -9.056111040366089
      ],
      [
        "Ġliving",
        -9.05620814179958
      ],
      [
        "Ġsense",
        -9.056646116356944
      ],
      [
        "Ġguide",
        -9.059055562350988
      ],
      [
        "Ġstor",
        -9.05914151760324
      ],
      [
        "Ġpast",
        -9.059745567176035
      ],
      [
        "Ġask",
        -9.060820177171149
      ],
      [
        "Ġcool",
        -9.062295576227488
      ],
      [
        "Ġever",
        -9.06521088292197
      ],
      [
        "Ġunit",
        -9.06561083054604
      ],
      [
        "Ġhowever",
        -9.06587360258956
      ],
      [
        "Ġconsidered",
        -9.06593069167285
      ],
      [
        "Ġsugar",
        -9.06722404630479
      ],
      [
        "Ġyoung",
        -9.069564991755122
      ],
      [
        "Ġresponse",
        -9.069772605416928
      ],
      [
        "Ġbreak",
        -9.070463664662975
      ],
      [
        "Ġwarm",
        -9.070841254813196
      ],
      [
        "Ġsuggest",
        -9.071973662313969
      ],
      [
        "Ġchoose",
        -9.07221954055689
      ],
      [
        "Ġthought",
        -9.0726299410752
      ],
      [
        "Ġfeet",
        -9.075284069390026
      ],
      [
        "Ġwomen",
        -9.075605869604152
      ],
      [
        "Ġhold",
        -9.075852456321613
      ],
      [
        "Ġwaste",
        -9.077282469279586
      ],
      [
        "Ġquestions",
        -9.077760668630075
      ],
      [
        "Ġtraditional",
        -9.080283944091176
      ],
      [
        "Ġsituation",
        -9.081228904194848
      ],
      [
        "Ġgrowing",
        -9.082342793306855
      ],
      [
        "Ġdescribe",
        -9.084512201151444
      ],
      [
        "where",
        -9.086969660371883
      ],
      [
        "Ġclass",
        -9.087254207411547
      ],
      [
        "Ġaverage",
        -9.087977909872873
      ],
      [
        "Ġcarbon",
        -9.0890215845871
      ],
      [
        "Ġcreating",
        -9.09050481065188
      ],
      [
        "Ġwall",
        -9.09335400428801
      ],
      [
        "mm",
        -9.093392702869892
      ],
      [
        "ĠX",
        -9.093991058423727
      ],
      [
        "Ġlarger",
        -9.09554164443622
      ],
      [
        "Ġsimply",
        -9.09615444840783
      ],
      [
        "Ġwon",
        -9.097432220880757
      ],
      [
        "Ġdecision",
        -9.098304971174464
      ],
      [
        "ized",
        -9.09884842150886
      ],
      [
        "Ġnormal",
        -9.100492372790583
      ],
      [
        "Ġwood",
        -9.1006804797108
      ],
      [
        "Ġland",
        -9.100685354106684
      ],
      [
        "Ġmetal",
        -9.10166904946685
      ],
      [
        "Ġpatients",
        -9.102184424029415
      ],
      [
        "From",
        -9.105466766095311
      ],
      [
        "Ġbacteria",
        -9.106350039441638
      ],
      [
        "one",
        -9.106762563391625
      ],
      [
        "Ġadditional",
        -9.109873868070377
      ],
      [
        "Ġtarget",
        -9.110450371231334
      ],
      [
        "Ġgain",
        -9.110584964648863
      ],
      [
        "âĢ¦",
        -9.111984464486524
      ],
      [
        "Ġreading",
        -9.114554369717524
      ],
      [
        "Ġreceive",
        -9.115051996250426
      ],
      [
        "Ġprimar",
        -9.115361191144746
      ],
      [
        "Ġweather",
        -9.115731997281785
      ],
      [
        "ling",
        -9.11712967906089
      ],
      [
        "Ġadult",
        -9.117870894695924
      ],
      [
        "Ġshape",
        -9.11790532684029
      ],
      [
        "Ġeffort",
        -9.119804225799976
      ],
      [
        "Ġaddress",
        -9.122709455773563
      ],
      [
        "Ġbegin",
        -9.12342813858982
      ],
      [
        "ĠAll",
        -9.124140538897224
      ],
      [
        "Ġsite",
        -9.12512967422959
      ],
      [
        "Ġbone",
        -9.1266987684125
      ],
      [
        "Ġactive",
        -9.126852134445194
      ],
      [
        "Ġart",
        -9.129719107965435
      ],
      [
        "Ġreport",
        -9.130696935907794
      ],
      [
        "Ġoutside",
        -9.13110014150265
      ],
      [
        "Ġexpert",
        -9.13187283593001
      ],
      [
        "Ġenhance",
        -9.132350014752092
      ],
      [
        "Ġresources",
        -9.133245169685608
      ],
      [
        "Ġcreated",
        -9.13452760824409
      ],
      [
        "yet",
        -9.134591735181658
      ],
      [
        "Ġhappen",
        -9.136201070075863
      ],
      [
        "op",
        -9.13725766648573
      ],
      [
        ").Ċ",
        -9.137275689316496
      ],
      [
        "Ġsummer",
        -9.13737233086282
      ],
      [
        "Ġstop",
        -9.137869691229076
      ],
      [
        "\"ĊĊ",
        -9.137896053583573
      ],
      [
        "Ġact",
        -9.140526922864051
      ],
      [
        "Ġhumans",
        -9.141385647658495
      ],
      [
        "Ġglobal",
        -9.14149012890031
      ],
      [
        "Ġpay",
        -9.142849441585248
      ],
      [
        "Ġquite",
        -9.146681909318628
      ],
      [
        "Ġrelationship",
        -9.146700047816712
      ],
      [
        "by",
        -9.147042609309649
      ],
      [
        "Ġcode",
        -9.14740662382568
      ],
      [
        "ism",
        -9.148426282765197
      ],
      [
        "Ġeyes",
        -9.148738754755133
      ],
      [
        "Ġcharge",
        -9.148985102907414
      ],
      [
        "Ġaccount",
        -9.150466276579223
      ],
      [
        "ver",
        -9.15222250507021
      ],
      [
        "Ġplayer",
        -9.153670239696638
      ],
      [
        "ĠCan",
        -9.154702037874486
      ],
      [
        "Ġextreme",
        -9.15534733802968
      ],
      [
        "ĠAt",
        -9.155651005154624
      ],
      [
        "Ġidentify",
        -9.15572395216531
      ],
      [
        "Ġsometime",
        -9.15793356617968
      ],
      [
        "Ġfinal",
        -9.158951711081729
      ],
      [
        "Ġrelative",
        -9.15992545239952
      ],
      [
        "Ġmovement",
        -9.160505722121028
      ],
      [
        "ence",
        -9.160661719321489
      ],
      [
        "Ġincreasing",
        -9.161199025241864
      ],
      [
        "ĠDr",
        -9.162535051393778
      ],
      [
        ".\"",
        -9.16272154485665
      ],
      [
        "+",
        -9.165166645597113
      ],
      [
        "me",
        -9.165202461830448
      ],
      [
        "Ġefficient",
        -9.166058058257072
      ],
      [
        "Ġfast",
        -9.166202287289565
      ],
      [
        "Ġrest",
        -9.166330753616885
      ],
      [
        "Ġpercent",
        -9.1663582870518
      ],
      [
        "cannot",
        -9.16720558064749
      ],
      [
        "Why",
        -9.167764838278838
      ],
      [
        "Ġevent",
        -9.16813859471279
      ],
      [
        "Ġsoftware",
        -9.168401095856654
      ],
      [
        "Ġteeth",
        -9.170455280099135
      ],
      [
        "Ġexplain",
        -9.174231695849729
      ],
      [
        "Ġsection",
        -9.174398346607028
      ],
      [
        "Ġstudent",
        -9.17516359219588
      ],
      [
        "Ġexact",
        -9.175897438115651
      ],
      [
        "Ġstage",
        -9.17590824313723
      ],
      [
        "am",
        -9.176807394390636
      ],
      [
        "ex",
        -9.177068118202456
      ],
      [
        "Ġrepresent",
        -9.177639531926497
      ],
      [
        "Ġbase",
        -9.178358034096238
      ],
      [
        "Ġbird",
        -9.178686520387416
      ],
      [
        "ĠHere",
        -9.179203514508576
      ],
      [
        "Ġsubject",
        -9.179479992975576
      ],
      [
        "Ġregard",
        -9.180538392733038
      ],
      [
        "Ġcountry",
        -9.180938451936882
      ],
      [
        "Ġreturn",
        -9.182133939461568
      ],
      [
        "Ġprevious",
        -9.182872938098075
      ],
      [
        "One",
        -9.182996062948462
      ],
      [
        "gan",
        -9.183864914993098
      ],
      [
        "Ġdark",
        -9.183917983850764
      ],
      [
        "Ġexplore",
        -9.18589268626071
      ],
      [
        "Ġapply",
        -9.187012080825532
      ],
      [
        "ĠNational",
        -9.187802945025762
      ],
      [
        "Ġlength",
        -9.187904876667464
      ],
      [
        "Ġlater",
        -9.188090544974388
      ],
      [
        "Ġrelated",
        -9.18890043874016
      ],
      [
        "ĠAI",
        -9.189269900978196
      ],
      [
        "Ġanything",
        -9.190353688209276
      ],
      [
        "Ġalmost",
        -9.193206607779327
      ],
      [
        "Ġtaken",
        -9.194574866935971
      ],
      [
        "ut",
        -9.19622021948817
      ],
      [
        "United",
        -9.198051448968116
      ],
      [
        "Ġwebsite",
        -9.198625984538907
      ],
      [
        "Ġsensor",
        -9.200645585202327
      ],
      [
        "up",
        -9.201425310212668
      ],
      [
        "Ġdrive",
        -9.201605260601344
      ],
      [
        "Ġdaily",
        -9.202591487057273
      ],
      [
        "Ġmass",
        -9.203397432592558
      ],
      [
        "ĠBe",
        -9.203398715409431
      ],
      [
        "Ġbehind",
        -9.203400848055022
      ],
      [
        "Ġbad",
        -9.204617185627969
      ],
      [
        "Ġstudies",
        -9.206742134232735
      ],
      [
        "Ġoriginal",
        -9.2083225418183
      ],
      [
        "Ġsleep",
        -9.20926233797329
      ],
      [
        "Ġgenerate",
        -9.209973533369752
      ],
      [
        "Ġelectric",
        -9.210614935179056
      ],
      [
        "Ġincludes",
        -9.210781689109991
      ],
      [
        "Ġconcept",
        -9.212562571236278
      ],
      [
        "Ġbirds",
        -9.2126913215365
      ],
      [
        "Ġgenerally",
        -9.213975690403345
      ],
      [
        "Ġmultiple",
        -9.214641548941913
      ],
      [
        "Ġcustomer",
        -9.215096653553143
      ],
      [
        "ier",
        -9.21615718312594
      ],
      [
        "Ġtissue",
        -9.217047663000102
      ],
      [
        "Ġfive",
        -9.217241901190995
      ],
      [
        "Ġwords",
        -9.21787747530215
      ],
      [
        "over",
        -9.218923902854328
      ],
      [
        "Ġadvantage",
        -9.22009593684388
      ],
      [
        "Ġisn",
        -9.220688729512888
      ],
      [
        "Ġmeat",
        -9.222283495560932
      ],
      [
        "Ġnight",
        -9.22233263631993
      ],
      [
        "Ġservices",
        -9.222465576537406
      ],
      [
        "Ġdevices",
        -9.224467288072567
      ],
      [
        "Ġmodern",
        -9.22514704565475
      ],
      [
        "Ġextra",
        -9.2259633340525
      ],
      [
        "Ġeasie",
        -9.226109492180909
      ],
      [
        "Ġvegetable",
        -9.227732875431675
      ],
      [
        "Ġcommunication",
        -9.23176277755326
      ],
      [
        "ge",
        -9.231897573772894
      ],
      [
        "Ġshows",
        -9.233035597392297
      ],
      [
        "Ġgenetic",
        -9.23401150759979
      ],
      [
        "Ġjob",
        -9.23407672752268
      ],
      [
        "Ġtrue",
        -9.234678499180088
      ],
      [
        "Ġtrees",
        -9.236236868880669
      ],
      [
        "ĠShe",
        -9.236501085666085
      ],
      [
        "Ġscientists",
        -9.236684911958662
      ],
      [
        "Ġhear",
        -9.237286423786983
      ],
      [
        "Ġsave",
        -9.2378003070292
      ],
      [
        "ical",
        -9.237954733054783
      ],
      [
        "ĠUse",
        -9.238417784365476
      ],
      [
        "Ġfront",
        -9.24174919079076
      ],
      [
        "J",
        -9.242104447587066
      ],
      [
        "Ġreview",
        -9.243754275714398
      ],
      [
        "ĠHealth",
        -9.246354100320886
      ],
      [
        "Ġstarted",
        -9.246391494247025
      ],
      [
        "Ġanalysis",
        -9.2471242511278
      ],
      [
        "Ġreaction",
        -9.249508816918263
      ],
      [
        "Ġsample",
        -9.250728755230137
      ],
      [
        "Ġsupply",
        -9.251588937591691
      ],
      [
        "Ġequipment",
        -9.252418010374274
      ],
      [
        "ĠSt",
        -9.252566404968698
      ],
      [
        "Ġvisit",
        -9.252886991309662
      ],
      [
        "Ġacid",
        -9.255183490961947
      ],
      [
        "Ġcenter",
        -9.255513291186643
      ],
      [
        "ated",
        -9.255797119819023
      ],
      [
        "Ġexperiment",
        -9.255895685361969
      ],
      [
        "Ġfun",
        -9.258063875256868
      ],
      [
        "ĠAfter",
        -9.258935390400536
      ],
      [
        "Ġsub",
        -9.259785062481622
      ],
      [
        "Ġago",
        -9.259852878419045
      ],
      [
        "Ġice",
        -9.263636363041796
      ],
      [
        "Ġspread",
        -9.265258281445442
      ],
      [
        "Ġdirection",
        -9.26570864782596
      ],
      [
        "Ġentire",
        -9.268456315201435
      ],
      [
        "Ġdigital",
        -9.268631632873824
      ],
      [
        "Ġspring",
        -9.269478211405405
      ],
      [
        "Ġappropriate",
        -9.269818008440147
      ],
      [
        "Ġbenefit",
        -9.269976227056858
      ],
      [
        "Ġserve",
        -9.269979482915373
      ],
      [
        "Ġdiscuss",
        -9.27083301708488
      ],
      [
        "Ġshown",
        -9.270856892278346
      ],
      [
        "Ġinvolve",
        -9.272265861113652
      ],
      [
        "Ġcaus",
        -9.272643759802754
      ],
      [
        "Ġinjur",
        -9.274830104289968
      ],
      [
        "Ġdirectly",
        -9.276759683168647
      ],
      [
        "Ġflavor",
        -9.279550668122052
      ],
      [
        "ever",
        -9.281258846604924
      ],
      [
        "Ġsolar",
        -9.283498597187748
      ],
      [
        "ring",
        -9.285528937767891
      ],
      [
        "Ġinterest",
        -9.285628627857054
      ],
      [
        "-to",
        -9.285966646399515
      ],
      [
        "=",
        -9.286887736770169
      ],
      [
        "Ġdiscover",
        -9.287062106725994
      ],
      [
        "ship",
        -9.287109181896524
      ],
      [
        "vi",
        -9.28748524186764
      ],
      [
        "wise",
        -9.287596239455844
      ],
      [
        "Ġnegative",
        -9.289657088020562
      ],
      [
        "Ġevents",
        -9.29007110440702
      ],
      [
        "Ġfly",
        -9.291938114704656
      ],
      [
        "Ġachieve",
        -9.291989935975758
      ],
      [
        "Ġconstant",
        -9.292537983125907
      ],
      [
        "Ġelectrical",
        -9.294078314788662
      ],
      [
        "Ġsteps",
        -9.294434524785096
      ],
      [
        "ization",
        -9.294664000610616
      ],
      [
        "Ġmedia",
        -9.2948729158346
      ],
      [
        "ĠDe",
        -9.294916520460893
      ],
      [
        "Ġfriend",
        -9.295727446357294
      ],
      [
        "Ġfemale",
        -9.298688109377824
      ],
      [
        "Ġenter",
        -9.29909732735592
      ],
      [
        "Ġleg",
        -9.30128288616374
      ],
      [
        "Ġexercise",
        -9.30295255954553
      ],
      [
        "Ġthemsel",
        -9.303007690799252
      ],
      [
        "Ġingredient",
        -9.303050450472622
      ],
      [
        "Ġaspect",
        -9.30322882822682
      ],
      [
        "Ġorganization",
        -9.30393568158425
      ],
      [
        "Ġrunn",
        -9.304464672036357
      ],
      [
        "Ġdirect",
        -9.305260668939786
      ],
      [
        "Ġaware",
        -9.306079346916452
      ],
      [
        "Ġfresh",
        -9.306614248138608
      ],
      [
        "care",
        -9.306844298136486
      ],
      [
        "Ġcentur",
        -9.30788467539609
      ],
      [
        "Ġadded",
        -9.30798712093653
      ],
      [
        "ions",
        -9.308762131799472
      ],
      [
        "U",
        -9.310273098613202
      ],
      [
        "Ġwatch",
        -9.31036895509235
      ],
      [
        "Ġfinding",
        -9.311593074409084
      ],
      [
        "Ġseeds",
        -9.311706577478194
      ],
      [
        "Ġfire",
        -9.312870141826714
      ],
      [
        "Ġcompare",
        -9.315533967839407
      ],
      [
        "Q",
        -9.317396034075887
      ],
      [
        "Ġchance",
        -9.31905330010795
      ],
      [
        "Ġuseful",
        -9.321549100054147
      ],
      [
        "Ġcover",
        -9.321851527149882
      ],
      [
        "Ġtopic",
        -9.3219127890637
      ],
      [
        "Ġpiece",
        -9.32354924341717
      ],
      [
        "Ġwear",
        -9.32403812456448
      ],
      [
        "ese",
        -9.32540683754974
      ],
      [
        "Ġreduc",
        -9.32568334326421
      ],
      [
        "light",
        -9.3260593209619
      ],
      [
        "Ġmonth",
        -9.32706947836926
      ],
      [
        "ĠAl",
        -9.327073571925254
      ],
      [
        "But",
        -9.328656853916042
      ],
      [
        "den",
        -9.328710461609797
      ],
      [
        "Ġimmediate",
        -9.328921639238647
      ],
      [
        "cy",
        -9.32968996937158
      ],
      [
        "Ġnotice",
        -9.329951059917592
      ],
      [
        "Ġglass",
        -9.331174670273509
      ],
      [
        "ĠEarth",
        -9.331326958167244
      ],
      [
        "Ġeveryone",
        -9.331335652255596
      ],
      [
        "Ġmeal",
        -9.331708179129834
      ],
      [
        "Ġtable",
        -9.332767982451491
      ],
      [
        "Ġman",
        -9.333378620718753
      ],
      [
        "Ġfeed",
        -9.33354846301907
      ],
      [
        "Ġeggs",
        -9.334796864209425
      ],
      [
        "Ġelse",
        -9.33532553088593
      ],
      [
        "ĠStates",
        -9.33581259205501
      ],
      [
        "ities",
        -9.338185040988597
      ],
      [
        "Ġword",
        -9.339151192578104
      ],
      [
        "moving",
        -9.33952008566308
      ],
      [
        "Ġtrack",
        -9.34037669426486
      ],
      [
        "min",
        -9.341203407375133
      ],
      [
        "Ġconnection",
        -9.341975700367858
      ],
      [
        "Ġrequirement",
        -9.342766444889808
      ],
      [
        "Ġstory",
        -9.342984062037166
      ],
      [
        "Ġparents",
        -9.344594189121633
      ],
      [
        "X",
        -9.345591249203473
      ],
      [
        "Ġfeeling",
        -9.34639896121232
      ],
      [
        "Ġgames",
        -9.34893763983435
      ],
      [
        "Ġcamera",
        -9.34898463757829
      ],
      [
        "Ġstyle",
        -9.349911860269042
      ],
      [
        "Ġtips",
        -9.350004832125991
      ],
      [
        "ĠMy",
        -9.352567425469912
      ],
      [
        "Ġball",
        -9.355232102654092
      ],
      [
        "Ġgroups",
        -9.355707595504308
      ],
      [
        "Ġfoods",
        -9.355806835553256
      ],
      [
        "ial",
        -9.3559383996369
      ],
      [
        "ill",
        -9.356117883719056
      ],
      [
        "Ġmeet",
        -9.356840434878665
      ],
      [
        "Ġtouch",
        -9.357763984534836
      ],
      [
        "ha",
        -9.358526321268748
      ],
      [
        "Ġcycle",
        -9.362363802653778
      ],
      [
        "Ġkill",
        -9.362955572631424
      ],
      [
        "Ġwind",
        -9.363225266122145
      ],
      [
        "Ġtend",
        -9.364485070149568
      ],
      [
        "Ġconnect",
        -9.367778958971677
      ],
      [
        "Ġindicate",
        -9.369243480503783
      ],
      [
        "Ġproduced",
        -9.369604524107936
      ],
      [
        "Ġmental",
        -9.370464747931738
      ],
      [
        "Ġcontribute",
        -9.371348970973564
      ],
      [
        "Ġinitial",
        -9.371390952838544
      ],
      [
        "Ġdidn",
        -9.371729474435078
      ],
      [
        "Ġdoctor",
        -9.372436045157771
      ],
      [
        "Ġorganic",
        -9.373097547782496
      ],
      [
        "Ġcrop",
        -9.37402120428172
      ],
      [
        "Can",
        -9.374119998015091
      ],
      [
        "Ġinfluence",
        -9.376735320246915
      ],
      [
        "Ġinstruction",
        -9.37920213980468
      ],
      [
        "Ġfine",
        -9.381018286805476
      ],
      [
        "Ġapp",
        -9.381395599816862
      ],
      [
        "Ġmoment",
        -9.382144669189625
      ],
      [
        "Ġmilk",
        -9.38563473035556
      ],
      [
        "Ġparticle",
        -9.387688899265637
      ],
      [
        "Ġfit",
        -9.388888814390146
      ],
      [
        "Another",
        -9.389854264188832
      ],
      [
        "Ġweeks",
        -9.389951511411851
      ],
      [
        "ating",
        -9.390562445892696
      ],
      [
        "Ġready",
        -9.391358198549115
      ],
      [
        "Ġgovernment",
        -9.391571606591736
      ],
      [
        "bility",
        -9.392493722238534
      ],
      [
        "Ġcount",
        -9.393463221730862
      ],
      [
        "Ġvisual",
        -9.393569388216113
      ],
      [
        "Ġscale",
        -9.395530919189168
      ],
      [
        "Ġcritical",
        -9.39628376073586
      ],
      [
        "Ġinstall",
        -9.397765942434226
      ],
      [
        "Ġworks",
        -9.398050845974216
      ],
      [
        "Ġhair",
        -9.399133551550856
      ],
      [
        "Ġprotection",
        -9.399457101408917
      ],
      [
        "Ġfrequent",
        -9.399903099492082
      ],
      [
        "Ġsuitable",
        -9.400725121496045
      ],
      [
        "Ġgoal",
        -9.401614154423346
      ],
      [
        "ĠNorth",
        -9.40238560198285
      ],
      [
        "Ġculture",
        -9.402972395600829
      ],
      [
        "Ġserie",
        -9.40337864909162
      ],
      [
        "ten",
        -9.404107187244756
      ],
      [
        "Ġsuccess",
        -9.40478687612926
      ],
      [
        "Ġtesting",
        -9.405358817632546
      ],
      [
        "Ġmulti",
        -9.405416104083486
      ],
      [
        "Ġoutput",
        -9.406268178374688
      ],
      [
        "Ġworth",
        -9.407383804765807
      ],
      [
        "Ġpage",
        -9.407688781375004
      ],
      [
        "ĠUS",
        -9.407924473637776
      ],
      [
        "Ġsalt",
        -9.408029826524764
      ],
      [
        "ĠYes",
        -9.408229720969842
      ],
      [
        "Ġclaim",
        -9.40918390083901
      ],
      [
        "Ġbreed",
        -9.4100975864266
      ],
      [
        "Ġflowers",
        -9.410173916579769
      ],
      [
        "Ġsix",
        -9.410410124695336
      ],
      [
        "Ġsearch",
        -9.410843842486516
      ],
      [
        "Ġseek",
        -9.411894958513852
      ],
      [
        "Ġremember",
        -9.412797462215249
      ],
      [
        "ĠâĢľ",
        -9.413283798073762
      ],
      [
        "Ġdate",
        -9.413391918997888
      ],
      [
        "Ġresistance",
        -9.414320029859708
      ],
      [
        "Ġevidence",
        -9.41474241117389
      ],
      [
        "Ġspend",
        -9.415051644244446
      ],
      [
        "Ġefficiency",
        -9.416899334875184
      ],
      [
        "Ġalternative",
        -9.41871297202869
      ],
      [
        "ĠMore",
        -9.42104368928334
      ],
      [
        "Ġattack",
        -9.421402887945534
      ],
      [
        "Ġdetect",
        -9.421497363870182
      ],
      [
        "Ġperform",
        -9.421680908177272
      ],
      [
        "Ġhearing",
        -9.422148028694044
      ],
      [
        "Ġstrength",
        -9.422848512967716
      ],
      [
        "Ġselect",
        -9.423399929668443
      ],
      [
        "day",
        -9.423948067050102
      ],
      [
        "An",
        -9.425129950547111
      ],
      [
        "Step",
        -9.425419458992234
      ],
      [
        "Ġcompletely",
        -9.425769695186418
      ],
      [
        "Ġblue",
        -9.42625255035519
      ],
      [
        "Ġrare",
        -9.426745441625318
      ],
      [
        "for",
        -9.427339104725316
      ],
      [
        "pretty",
        -9.427633454770548
      ],
      [
        "Ġdistance",
        -9.427941457760692
      ],
      [
        "Ġinput",
        -9.42852251935602
      ],
      [
        "Ġedge",
        -9.428833552691826
      ],
      [
        "ĠMost",
        -9.429514556891894
      ],
      [
        "Ġbag",
        -9.430867207673
      ],
      [
        "ng",
        -9.431476969934929
      ],
      [
        "Ġwave",
        -9.43162091890176
      ],
      [
        "Ġlack",
        -9.432830601989494
      ],
      [
        "Ġequal",
        -9.432834275261982
      ],
      [
        "Ġfiber",
        -9.43290512226824
      ],
      [
        "Ġideal",
        -9.433466476694598
      ],
      [
        "Ġear",
        -9.434834684026931
      ],
      [
        "line",
        -9.43537743178841
      ],
      [
        "Ġseparate",
        -9.435959719557626
      ],
      [
        "$",
        -9.4365143878841
      ],
      [
        "Ġhope",
        -9.436801900800926
      ],
      [
        "ĠScience",
        -9.43826479006406
      ],
      [
        "Ġliquid",
        -9.439312216887304
      ],
      [
        "Ġfat",
        -9.439392094550906
      ],
      [
        "Ġvoltage",
        -9.439819321191852
      ],
      [
        "Ġdrink",
        -9.440102542517328
      ],
      [
        "Ġcarry",
        -9.440418731263534
      ],
      [
        "Ġgreater",
        -9.440734660376044
      ],
      [
        "Re",
        -9.441236509630585
      ],
      [
        "ium",
        -9.442491935279612
      ],
      [
        "Ġaim",
        -9.443022846700714
      ],
      [
        "Ġmale",
        -9.443777635103416
      ],
      [
        "Ġload",
        -9.444558020304934
      ],
      [
        "Ġrepair",
        -9.444763845260772
      ],
      [
        "ĠOr",
        -9.445626684838151
      ],
      [
        "Ġcircuit",
        -9.446074640774048
      ],
      [
        "Ġmemory",
        -9.446529714671374
      ],
      [
        "Ġscientific",
        -9.4469848201455
      ],
      [
        "Ġroot",
        -9.449157899578552
      ],
      [
        "ĠSchool",
        -9.4494783683987
      ],
      [
        "Ġdeath",
        -9.450006551911166
      ],
      [
        "Ġcapacit",
        -9.450344687634328
      ],
      [
        "ure",
        -9.45075313456325
      ],
      [
        "Ġnote",
        -9.451016438141313
      ],
      [
        "Ġal",
        -9.451589917461682
      ],
      [
        "Ġdemand",
        -9.451861963060072
      ],
      [
        "These",
        -9.4520795057117
      ],
      [
        "companie",
        -9.454913805222343
      ],
      [
        "ĠDNA",
        -9.458984777414363
      ],
      [
        "Ġdeal",
        -9.461623295005529
      ],
      [
        "Ġcountr",
        -9.461817093705305
      ],
      [
        "Ġtaste",
        -9.462144147592568
      ],
      [
        "Ġpair",
        -9.46296871239062
      ],
      [
        "Ġgoe",
        -9.463624959102392
      ],
      [
        "Ġbar",
        -9.463776469705326
      ],
      [
        "Ġmuscle",
        -9.463857315074591
      ],
      [
        "Ġreplace",
        -9.464615153369124
      ],
      [
        "Ġflight",
        -9.46527399716818
      ],
      [
        "Ġdraw",
        -9.467777682780005
      ],
      [
        "Ġcareful",
        -9.468485016035752
      ],
      [
        "of",
        -9.468748081583689
      ],
      [
        "Ġobtain",
        -9.469384251144987
      ],
      [
        "Ġforest",
        -9.47015831962457
      ],
      [
        "j",
        -9.4702429246918
      ],
      [
        "work",
        -9.471708151504805
      ],
      [
        "Ġconstruction",
        -9.475969077416966
      ],
      [
        "Ġdi",
        -9.476318697704851
      ],
      [
        "Each",
        -9.477105848927984
      ],
      [
        "Using",
        -9.477591898873513
      ],
      [
        "Ġjourney",
        -9.477739364215331
      ],
      [
        "Ġfeature",
        -9.478290203459428
      ],
      [
        "Ġprocesses",
        -9.478339902771374
      ],
      [
        "Ġcleaning",
        -9.478481833129866
      ],
      [
        "Ġhabitat",
        -9.478628221149076
      ],
      [
        "Ġlate",
        -9.479680923572092
      ],
      [
        "head",
        -9.479797446318322
      ],
      [
        "Ġbaby",
        -9.479845335549175
      ],
      [
        "Ġpass",
        -9.480439293108692
      ],
      [
        ".S",
        -9.48094763721102
      ],
      [
        "Ġmembers",
        -9.482185557553624
      ],
      [
        "ĠZ",
        -9.483162511070969
      ],
      [
        "maintenance",
        -9.484244947612758
      ],
      [
        "Ġpattern",
        -9.485170041820847
      ],
      [
        "ĠAmerica",
        -9.486378699909247
      ],
      [
        "Ġmusic",
        -9.486522233676975
      ],
      [
        "With",
        -9.489802809226235
      ],
      [
        "ĠThen",
        -9.491992374748984
      ],
      [
        "Ġpoints",
        -9.492227192982506
      ],
      [
        "ĠCo",
        -9.494307047904629
      ],
      [
        "ĠOf",
        -9.496212823244791
      ],
      [
        "Ġcouple",
        -9.496367701900464
      ],
      [
        "Ġfile",
        -9.496503293949946
      ],
      [
        "Ġslight",
        -9.4971098950838
      ],
      [
        "Ġbuilt",
        -9.50011276780593
      ],
      [
        "Ġpro",
        -9.50025360257485
      ],
      [
        "Do",
        -9.501225358184408
      ],
      [
        "Ġgene",
        -9.501270487091642
      ],
      [
        "time",
        -9.502278522646634
      ],
      [
        "ĠLa",
        -9.50410904004741
      ],
      [
        "Ġ+",
        -9.504393874893683
      ],
      [
        "Ġtank",
        -9.504986506256415
      ],
      [
        "Ġengineer",
        -9.505591624253132
      ],
      [
        "Ġoxygen",
        -9.50646544375956
      ],
      [
        "Ġimportance",
        -9.50653663507217
      ],
      [
        "Ġwire",
        -9.507965156839369
      ],
      [
        "he",
        -9.508242809644802
      ],
      [
        "ĠWorld",
        -9.50914032694226
      ],
      [
        "Ġlives",
        -9.512520234303588
      ],
      [
        "Ġpromote",
        -9.512676976472203
      ],
      [
        "Ġensur",
        -9.51356357839188
      ],
      [
        "Ġsevere",
        -9.514117659007578
      ],
      [
        "Ġcombination",
        -9.514175955547
      ],
      [
        "Ġhandle",
        -9.51448845916783
      ],
      [
        "Ġrich",
        -9.515187860508751
      ],
      [
        "Ġrecord",
        -9.51586695012955
      ],
      [
        "Ġcutting",
        -9.520415547512844
      ],
      [
        "Ġcap",
        -9.52053136453462
      ],
      [
        "By",
        -9.521022595041192
      ],
      [
        "Ġsoft",
        -9.522539730365544
      ],
      [
        "ow",
        -9.522594712008312
      ],
      [
        "ĠWhy",
        -9.526345433671851
      ],
      [
        "Ġpatterns",
        -9.52671773569377
      ],
      [
        "Ġpublished",
        -9.526983403398804
      ],
      [
        "Ġinstance",
        -9.528295636422513
      ],
      [
        "Ġhit",
        -9.528308336738386
      ],
      [
        "Ġcosts",
        -9.52858995096164
      ],
      [
        "Ġpath",
        -9.529413489447991
      ],
      [
        "ĠNot",
        -9.52955491262907
      ],
      [
        "Ġdefine",
        -9.530209312353026
      ],
      [
        "Ġscreen",
        -9.530572853271718
      ],
      [
        "Ġbox",
        -9.533211169027256
      ],
      [
        "go",
        -9.53325830877194
      ],
      [
        "Ġphoto",
        -9.533757738846935
      ],
      [
        "ĠY",
        -9.53384776519002
      ],
      [
        "tion",
        -9.534642147988478
      ],
      [
        "Ġapplied",
        -9.534717219087993
      ],
      [
        "Ġsoon",
        -9.537165179421766
      ],
      [
        "Ġvary",
        -9.53731453101151
      ],
      [
        "Ġbottom",
        -9.537667421312984
      ],
      [
        "Ġrefer",
        -9.53793240353199
      ],
      [
        "ĠResearch",
        -9.5381443316597
      ],
      [
        "Ġcolors",
        -9.538325336441645
      ],
      [
        "ize",
        -9.539267272173106
      ],
      [
        "Ġpull",
        -9.539348941020432
      ],
      [
        "-up",
        -9.540423450378295
      ],
      [
        "Ġsources",
        -9.540830943968702
      ],
      [
        "side",
        -9.541178313670864
      ],
      [
        "Ġimages",
        -9.541813843007535
      ],
      [
        "Ġmouth",
        -9.543662817468713
      ],
      [
        "Ġthird",
        -9.543854403937868
      ],
      [
        "Ġstem",
        -9.545529865022107
      ],
      [
        "Ġforward",
        -9.54634278316875
      ],
      [
        "therapy",
        -9.546919251995128
      ],
      [
        "Ġsigns",
        -9.549002074287936
      ],
      [
        "Ġfluid",
        -9.549428715494948
      ],
      [
        "ĠAre",
        -9.549481689400158
      ],
      [
        "pe",
        -9.550544244991816
      ],
      [
        "giving",
        -9.55060571639343
      ],
      [
        "Ġlines",
        -9.551015979897878
      ],
      [
        "Ġupon",
        -9.552376672111423
      ],
      [
        "Ġvision",
        -9.552608465595648
      ],
      [
        "Ġsmooth",
        -9.552639318150447
      ],
      [
        "Ġresponsibl",
        -9.553000753939031
      ],
      [
        "ph",
        -9.5537910772227
      ],
      [
        "Ġcompar",
        -9.55383754220263
      ],
      [
        "Ġfinish",
        -9.555383292731133
      ],
      [
        "On",
        -9.555973625019032
      ],
      [
        "Ġtemperatures",
        -9.556345892010274
      ],
      [
        "âĢ¢",
        -9.556484476726578
      ],
      [
        "Ġnothing",
        -9.55659563667624
      ],
      [
        "we",
        -9.55662349436518
      ],
      [
        "Ġmotor",
        -9.55687763333944
      ],
      [
        "ĠCon",
        -9.557115750397635
      ],
      [
        "Ġprint",
        -9.558650919816133
      ],
      [
        "Ġaccurate",
        -9.561942074910922
      ],
      [
        "Ġteaching",
        -9.56195228099817
      ],
      [
        "end",
        -9.562667404724223
      ],
      [
        "Ġfoot",
        -9.56270212644396
      ],
      [
        "con",
        -9.562720847497944
      ],
      [
        "Ġadjust",
        -9.56274124685315
      ],
      [
        "ĠAdditional",
        -9.563284258743533
      ],
      [
        "Ġdeliver",
        -9.563704890741535
      ],
      [
        "Ġpowerful",
        -9.563993707049352
      ],
      [
        "ĠSouth",
        -9.564073188282103
      ],
      [
        "Ġsort",
        -9.564076019369258
      ],
      [
        "Ġchallenges",
        -9.564911461654468
      ],
      [
        "Ġtrain",
        -9.565287489366606
      ],
      [
        "ĠMay",
        -9.56608799786772
      ],
      [
        "Ġyellow",
        -9.567579311261357
      ],
      [
        "Some",
        -9.567810467672894
      ],
      [
        "Ġhost",
        -9.569244403411362
      ],
      [
        "Ġrise",
        -9.56945280223636
      ],
      [
        "Ġsuccessful",
        -9.5699308419424
      ],
      [
        "Ġmeaning",
        -9.570348014762835
      ],
      [
        "Ġdecrease",
        -9.570989603517692
      ],
      [
        "Ġwild",
        -9.571990962822744
      ],
      [
        "Ġconsist",
        -9.572353503610636
      ],
      [
        "Ġlesson",
        -9.575772927868332
      ],
      [
        "Ġcross",
        -9.57589089412425
      ],
      [
        "Ġmedication",
        -9.57688687040567
      ],
      [
        "Ġinteraction",
        -9.577847870518651
      ],
      [
        "Ġrecover",
        -9.58042660240793
      ],
      [
        "Ġhands",
        -9.582087875887517
      ],
      [
        "Ġphotograph",
        -9.58220316537502
      ],
      [
        "Ġ#",
        -9.582806118713853
      ],
      [
        "Ġbeautiful",
        -9.585642964429084
      ],
      [
        "Ġcame",
        -9.586956982869664
      ],
      [
        "Ġfriends",
        -9.58841435123015
      ],
      [
        "Ġphone",
        -9.588489439507017
      ],
      [
        "Ġinvolves",
        -9.588609968109331
      ],
      [
        "Ġvia",
        -9.59031886858059
      ],
      [
        "Ġboard",
        -9.590787047215771
      ],
      [
        "Ġpick",
        -9.591454367509076
      ],
      [
        "ĠMake",
        -9.593271461045642
      ],
      [
        "Ġtrip",
        -9.594572054679348
      ],
      [
        "ĠOur",
        -9.596341515879736
      ],
      [
        "Ġrapid",
        -9.596769280565695
      ],
      [
        "Ġsend",
        -9.59806011168493
      ],
      [
        "let",
        -9.598805775663603
      ],
      [
        "ĠRa",
        -9.599362269825146
      ],
      [
        "air",
        -9.599443019868932
      ],
      [
        "Ġpicture",
        -9.600116536723268
      ],
      [
        "Ġpush",
        -9.600323179075849
      ],
      [
        "Ġprograms",
        -9.600743908196902
      ],
      [
        ".com",
        -9.601234734419531
      ],
      [
        "Ġadapt",
        -9.60177354859119
      ],
      [
        "Ġfloor",
        -9.601882030991714
      ],
      [
        "Ġenable",
        -9.604252598942344
      ],
      [
        "ative",
        -9.60431788384539
      ],
      [
        "><",
        -9.605182690986693
      ],
      [
        "ĠWho",
        -9.605500195540408
      ],
      [
        "Ġplatform",
        -9.606268120202875
      ],
      [
        "Ġpoor",
        -9.608665800822145
      ],
      [
        "Ġvolume",
        -9.609040708593
      ],
      [
        "Ġsuper",
        -9.60947008129419
      ],
      [
        "Ġhorse",
        -9.610379101544778
      ],
      [
        "Ġwriting",
        -9.610812170551789
      ],
      [
        "Ġocean",
        -9.612232320550222
      ],
      [
        "Ġimmune",
        -9.612460309354754
      ],
      [
        "Ġbrand",
        -9.613470233503914
      ],
      [
        "Ġthinking",
        -9.613477213442136
      ],
      [
        "Ġflower",
        -9.614421999681896
      ],
      [
        "Ġpurchase",
        -9.614791806150748
      ],
      [
        "Ġversion",
        -9.614868943018127
      ],
      [
        "-term",
        -9.615279513470046
      ],
      [
        "Ġserious",
        -9.615938045779242
      ],
      [
        "Ġnative",
        -9.615975186834673
      ],
      [
        "therefore",
        -9.616017105141967
      ],
      [
        "came",
        -9.616141577046855
      ],
      [
        "Ġroad",
        -9.61849481258446
      ],
      [
        "Ġwrong",
        -9.61946968145009
      ],
      [
        "Ġquick",
        -9.619603622761192
      ],
      [
        "Ġideas",
        -9.620537397959437
      ],
      [
        "Ġfarm",
        -9.621114248413866
      ],
      [
        "Ġseed",
        -9.62198591083699
      ],
      [
        "ach",
        -9.622599643757768
      ],
      [
        "Ġmanufacturer",
        -9.622661210426742
      ],
      [
        "They",
        -9.62307893368292
      ],
      [
        "Ġsecurity",
        -9.625897727019671
      ],
      [
        "Ġfilter",
        -9.625931014905724
      ],
      [
        "Ġfaster",
        -9.62596949606172
      ],
      [
        "Ġiron",
        -9.626789470795504
      ],
      [
        "Ġearth",
        -9.626949165228329
      ],
      [
        "Ġpaint",
        -9.627311446381896
      ],
      [
        "ard",
        -9.628197533252417
      ],
      [
        "chi",
        -9.628542655361484
      ],
      [
        "ide",
        -9.6292707954164
      ],
      [
        "Ġstand",
        -9.62928483989885
      ],
      [
        "Ġanyone",
        -9.6294313951878
      ],
      [
        "lost",
        -9.632422508101612
      ],
      [
        "Ġadvanced",
        -9.632868818713504
      ],
      [
        "Ġinteresting",
        -9.633757155568995
      ],
      [
        "ĠCalifornia",
        -9.633911313333629
      ],
      [
        "Ġcity",
        -9.635190820597586
      ],
      [
        "Ġpieces",
        -9.63846599570932
      ],
      [
        "Ġdegrees",
        -9.638704253708092
      ],
      [
        "hi",
        -9.63908705106761
      ],
      [
        "Ġwrite",
        -9.63930255909358
      ],
      [
        "Ġinter",
        -9.639685287082369
      ],
      [
        "Ġexcellent",
        -9.640230136031208
      ],
      [
        "Ġnutrients",
        -9.641604298598455
      ],
      [
        "Ġprojects",
        -9.64412275601246
      ],
      [
        "Ġbrown",
        -9.645953812088491
      ],
      [
        "Ġincluded",
        -9.647034145057836
      ],
      [
        "Ġexpand",
        -9.647658198384672
      ],
      [
        "Ġexpensive",
        -9.647668226726909
      ],
      [
        "Ġround",
        -9.64768090401527
      ],
      [
        "Ġheavy",
        -9.648774732193054
      ],
      [
        "Ġcomment",
        -9.64907356284411
      ],
      [
        "Ġdriv",
        -9.649537289374807
      ],
      [
        "Ġteachers",
        -9.650325580890511
      ],
      [
        "Ġteacher",
        -9.650674125841537
      ],
      [
        "Ġmessage",
        -9.650818932648336
      ],
      [
        "Ġchicken",
        -9.651396360599316
      ],
      [
        "**",
        -9.652548985408352
      ],
      [
        "Ġcoming",
        -9.65376351831279
      ],
      [
        "Ġspeak",
        -9.654489572153796
      ],
      [
        "Ġhappens",
        -9.655268785941097
      ],
      [
        "ĠPro",
        -9.656260710012408
      ],
      [
        "Ġcontainer",
        -9.657152906206694
      ],
      [
        "Ġsustainabl",
        -9.657727339760513
      ],
      [
        "ĠJu",
        -9.658558510898253
      ],
      [
        "Ġexposure",
        -9.65894246072916
      ],
      [
        "No",
        -9.659925935846974
      ],
      [
        "Ġdriver",
        -9.660798614369943
      ],
      [
        "And",
        -9.661398815393936
      ],
      [
        "ĠAls",
        -9.661976247586868
      ],
      [
        "ca",
        -9.663104168562953
      ],
      [
        "Ġnoise",
        -9.663956484928512
      ],
      [
        "Ġencourage",
        -9.664432869813544
      ],
      [
        "ĠCenter",
        -9.66494441965504
      ],
      [
        "Ġvaccine",
        -9.665213138656714
      ],
      [
        "Ġdocument",
        -9.66542958868241
      ],
      [
        "Ġclick",
        -9.666800174313078
      ],
      [
        "Ġonto",
        -9.667178536436255
      ],
      [
        "Ġma",
        -9.667611764385695
      ],
      [
        "Ġbright",
        -9.667875126890006
      ],
      [
        "Ġsolid",
        -9.668233684919326
      ],
      [
        "Ġpractices",
        -9.668658739967166
      ],
      [
        "Ġsolutions",
        -9.669104029135534
      ],
      [
        "Ġdisplay",
        -9.669320818235567
      ],
      [
        "Ġframe",
        -9.670016797550058
      ],
      [
        "Ġplanet",
        -9.67144645690696
      ],
      [
        "Ġcomfortable",
        -9.671707343836706
      ],
      [
        "Ġswitch",
        -9.672651552242904
      ],
      [
        "Ġprefer",
        -9.674747910814954
      ],
      [
        "ug",
        -9.674979833559345
      ],
      [
        "Ġcompound",
        -9.675385282237452
      ],
      [
        "Ġpanel",
        -9.67552777634594
      ],
      [
        "ĠNow",
        -9.675598177390182
      ],
      [
        "Ġphase",
        -9.676919088218153
      ],
      [
        "Ġrain",
        -9.677701104034288
      ],
      [
        "Ġtheory",
        -9.677866712548038
      ],
      [
        "Ġmonitor",
        -9.67835840413276
      ],
      [
        "Ġfabric",
        -9.678467280302591
      ],
      [
        "Ġpresence",
        -9.683092351660015
      ],
      [
        "Ġmiddle",
        -9.683094345971394
      ],
      [
        "Ġreflect",
        -9.683219879927414
      ],
      [
        "Ġsubstance",
        -9.684370862528088
      ],
      [
        "Ġsecure",
        -9.684697243970025
      ],
      [
        "Ġaccept",
        -9.685485365458298
      ],
      [
        "Ġlaw",
        -9.685503188613689
      ],
      [
        "Ġskill",
        -9.686289454907064
      ],
      [
        "Ġburn",
        -9.686447276897525
      ],
      [
        "Z",
        -9.686456362158218
      ],
      [
        "ĠTheir",
        -9.687081581924108
      ],
      [
        "ĠState",
        -9.688277324216829
      ],
      [
        "Ġcon",
        -9.68834782128729
      ],
      [
        "Ġmatch",
        -9.688563261831272
      ],
      [
        "Now",
        -9.688868686121758
      ],
      [
        "ĠOther",
        -9.68912219820364
      ],
      [
        "Ġblog",
        -9.692521127249975
      ],
      [
        "Ġmap",
        -9.693390350015624
      ],
      [
        "Ġfair",
        -9.69346944844559
      ],
      [
        "Ġstates",
        -9.69461551190516
      ],
      [
        "Ġattempt",
        -9.694741448973687
      ],
      [
        "ĠMo",
        -9.69510267000122
      ],
      [
        "Ġsequence",
        -9.695627371303578
      ],
      [
        "ĠUn",
        -9.696003271912272
      ],
      [
        "Ġconsistent",
        -9.696176791088572
      ],
      [
        "ĠBecause",
        -9.696316672051054
      ],
      [
        "Ġexpress",
        -9.696413736659103
      ],
      [
        "ĠUK",
        -9.696794651339117
      ],
      [
        "Ġestimate",
        -9.699122982517933
      ],
      [
        "Ġmotion",
        -9.699361808490073
      ],
      [
        "ĠEnglish",
        -9.699564086029904
      ],
      [
        "Ġbeginning",
        -9.700029296306983
      ],
      [
        "Ġtransport",
        -9.700724713081868
      ],
      [
        "haps",
        -9.700758237490792
      ],
      [
        "Ġhuge",
        -9.701733280556232
      ],
      [
        "Ġvaluable",
        -9.701977963537397
      ],
      [
        "Ġdrain",
        -9.702384179571752
      ],
      [
        "Ġsaw",
        -9.703005518351604
      ],
      [
        "Ġthus",
        -9.704070656989176
      ],
      [
        "Ġinches",
        -9.704072095594633
      ],
      [
        "ular",
        -9.704173339274483
      ],
      [
        "older",
        -9.70438920013491
      ],
      [
        "Ġmid",
        -9.706128019301904
      ],
      [
        "Ġprogress",
        -9.707330635139291
      ],
      [
        "Ġstone",
        -9.70889976633729
      ],
      [
        "Ġpound",
        -9.7091871592294
      ],
      [
        "Ġsign",
        -9.710086021630444
      ],
      [
        "Ġsustain",
        -9.710112621712456
      ],
      [
        "fish",
        -9.71024874747359
      ],
      [
        "Ġlose",
        -9.710448640689895
      ],
      [
        "ĠWater",
        -9.71049542111088
      ],
      [
        "Ġstick",
        -9.711878782139484
      ],
      [
        "ail",
        -9.712110158226816
      ],
      [
        "Ġrock",
        -9.713336137488456
      ],
      [
        "lthough",
        -9.713941214169669
      ],
      [
        "Ġchallenge",
        -9.714007556039236
      ],
      [
        "Ġship",
        -9.715449563510456
      ],
      [
        "Ġraise",
        -9.715776050167197
      ],
      [
        "lin",
        -9.716201766009762
      ],
      [
        "Ġsell",
        -9.71695626172383
      ],
      [
        "Ġanti",
        -9.71697453154021
      ],
      [
        "Ġdepth",
        -9.717140311574935
      ],
      [
        "Ġmaximu",
        -9.717149086380587
      ],
      [
        "Ġmother",
        -9.717368111647666
      ],
      [
        "ick",
        -9.71750050273056
      ],
      [
        "Ġmechanism",
        -9.71847245532138
      ],
      [
        "Ġemission",
        -9.718579854249592
      ],
      [
        "-in",
        -9.71929646379919
      ],
      [
        "Ġdoor",
        -9.719598681502845
      ],
      [
        "Ġthousand",
        -9.719807574421177
      ],
      [
        "Ġ--",
        -9.720690754793855
      ],
      [
        "Ġfully",
        -9.72120199440474
      ],
      [
        "body",
        -9.721525589480477
      ],
      [
        "Ġbond",
        -9.72194808063734
      ],
      [
        "Ġmicro",
        -9.72257064661903
      ],
      [
        "eyond",
        -9.722887598128873
      ],
      [
        "our",
        -9.72433624306527
      ],
      [
        "Ġmoisture",
        -9.725199772861226
      ],
      [
        "Ġsurrounding",
        -9.725488960239865
      ],
      [
        "ĠPer",
        -9.726312240565033
      ],
      [
        "Ġinternal",
        -9.726521617488997
      ],
      [
        "Ġplate",
        -9.72688232620541
      ],
      [
        "Ġcommuniti",
        -9.726993789846103
      ],
      [
        "Ġcentral",
        -9.728419235772254
      ],
      [
        "ists",
        -9.7315630000466
      ],
      [
        "Ġcoast",
        -9.731784963569924
      ],
      [
        "Ġgrain",
        -9.732169542699827
      ],
      [
        "Ġnational",
        -9.732272449622474
      ],
      [
        "Ġrecipe",
        -9.7332576547248
      ],
      [
        "Ġexpected",
        -9.734043711296222
      ],
      [
        "Ġplease",
        -9.73503560776425
      ],
      [
        "Ġcolour",
        -9.73516811279196
      ],
      [
        "wide",
        -9.735967996968808
      ],
      [
        "ĠNOT",
        -9.737140680835395
      ],
      [
        "Ġimprov",
        -9.737407199774331
      ],
      [
        "ĠJust",
        -9.73837620836618
      ],
      [
        "Ġten",
        -9.738521265718632
      ],
      [
        "Ġrespond",
        -9.739935205487123
      ],
      [
        "Ġbackground",
        -9.740160548661374
      ],
      [
        "Ġaren",
        -9.7404685211912
      ],
      [
        "went",
        -9.740941446769662
      ],
      [
        "Ġreveal",
        -9.741419421590898
      ],
      [
        "tri",
        -9.742778051788305
      ],
      [
        "Ġfigure",
        -9.74287800088358
      ],
      [
        "Ġshift",
        -9.743243987549208
      ],
      [
        "ĠCO",
        -9.743683260552505
      ],
      [
        "Ġcontext",
        -9.743935248649828
      ],
      [
        "Ġvital",
        -9.74415748199533
      ],
      [
        "form",
        -9.746186182996905
      ],
      [
        "Ġreference",
        -9.746410689845264
      ],
      [
        "ĠLet",
        -9.747333992028874
      ],
      [
        "br",
        -9.747859088302352
      ],
      [
        "Ġaid",
        -9.74857772432872
      ],
      [
        "ice",
        -9.74906626427362
      ],
      [
        "Ġangle",
        -9.749489476974734
      ],
      [
        "Ġsquare",
        -9.749789091273154
      ],
      [
        "ĠFirst",
        -9.751037753410705
      ],
      [
        "âĢĿ",
        -9.751135644369324
      ],
      [
        "Ġelectronic",
        -9.752193915911436
      ],
      [
        "Ġheight",
        -9.752584279775991
      ],
      [
        "Ġdead",
        -9.753912328626429
      ],
      [
        "que",
        -9.753915657486177
      ],
      [
        "Ġmedium",
        -9.754036319447746
      ],
      [
        "Ġattach",
        -9.754809349647235
      ],
      [
        "Ġstrategies",
        -9.754848121349962
      ],
      [
        "Ġprocessing",
        -9.755019601981358
      ],
      [
        "Ġbreath",
        -9.755033522431376
      ],
      [
        "Ġwritten",
        -9.756267322415352
      ],
      [
        "Ġbio",
        -9.757029404347762
      ],
      [
        "ke",
        -9.757309604705434
      ],
      [
        "Ġplanning",
        -9.758053731602656
      ],
      [
        "ner",
        -9.759666580817616
      ],
      [
        "mer",
        -9.76049846670244
      ],
      [
        "Ġabsorb",
        -9.76078095114972
      ],
      [
        "Ġtransfer",
        -9.76092186652962
      ],
      [
        "ER",
        -9.7609529415437
      ],
      [
        "ĠMar",
        -9.761496071735856
      ],
      [
        "Ġbecomes",
        -9.76185178489284
      ],
      [
        "Ġerror",
        -9.762107412296102
      ],
      [
        "happy",
        -9.762109716152237
      ],
      [
        "Ġchanging",
        -9.76220665865179
      ],
      [
        "Ġfinancial",
        -9.76351483598436
      ],
      [
        "Ġdiabetes",
        -9.763646464873712
      ],
      [
        "ĠEven",
        -9.763706305620891
      ],
      [
        "iv",
        -9.765102727013446
      ],
      [
        "Ġled",
        -9.765604591316604
      ],
      [
        "Ġpredict",
        -9.766173929806
      ],
      [
        "Ġtechnologies",
        -9.766318722567796
      ],
      [
        "âĢĻt",
        -9.76647151040398
      ],
      [
        "Ġlocate",
        -9.768027032955027
      ],
      [
        "ĠOnc",
        -9.769617525443037
      ],
      [
        "Ġmiss",
        -9.77029261820203
      ],
      [
        "ĠRo",
        -9.77254544030313
      ],
      [
        "ĠInstitute",
        -9.773321346038312
      ],
      [
        "Ġmen",
        -9.773865620759008
      ],
      [
        "Ġcup",
        -9.773953217371396
      ],
      [
        "Ġlandscape",
        -9.775220639070136
      ],
      [
        "Ġdouble",
        -9.775300831775796
      ],
      [
        "Ġconnected",
        -9.775642631772367
      ],
      [
        "q",
        -9.776203765715202
      ],
      [
        "Ġassess",
        -9.777170323994518
      ],
      [
        "Ġdiscovered",
        -9.778069845075432
      ],
      [
        "Ġfrequency",
        -9.778139060886735
      ],
      [
        "act",
        -9.77944370104164
      ],
      [
        "Ġbasi",
        -9.78012565727509
      ],
      [
        "Ġpipe",
        -9.78136524074856
      ],
      [
        "Ġweb",
        -9.7815931472735
      ],
      [
        "Ġinvolv",
        -9.782431795418134
      ],
      [
        "Ġconsumption",
        -9.783237366045
      ],
      [
        "Ġcapture",
        -9.784325481923236
      ],
      [
        "Ġbutton",
        -9.784829967117222
      ],
      [
        "Ġtexture",
        -9.784962278134286
      ],
      [
        "Ġpark",
        -9.785383077058958
      ],
      [
        "ĠâĢ¦",
        -9.78719006693468
      ],
      [
        "ĠLi",
        -9.7873639770538
      ],
      [
        "Ġpractical",
        -9.787514181115997
      ],
      [
        "Ġoutcome",
        -9.787819323179088
      ],
      [
        "Ġpool",
        -9.78878338654523
      ],
      [
        "Here",
        -9.78885517829758
      ],
      [
        "Ġconvert",
        -9.789116094751446
      ],
      [
        "Ġroll",
        -9.789942827956953
      ],
      [
        "Ġpest",
        -9.790972316239028
      ],
      [
        "men",
        -9.791606148390512
      ],
      [
        "Ġfilm",
        -9.792460582978263
      ],
      [
        "Ġprinciple",
        -9.793247734848958
      ],
      [
        "electricity",
        -9.793511980559202
      ],
      [
        "Ġresulting",
        -9.795178620051384
      ],
      [
        "Ġcollection",
        -9.795521208460636
      ],
      [
        "Ġmedicine",
        -9.795981400667106
      ],
      [
        "Ġassessment",
        -9.79695012005212
      ],
      [
        "Ġgoals",
        -9.797054468721786
      ],
      [
        "Ġstrain",
        -9.797275540135264
      ],
      [
        "Ġengage",
        -9.79858514383978
      ],
      [
        "Ġattract",
        -9.799566634120511
      ],
      [
        "Ġemail",
        -9.80163886083754
      ],
      [
        "Ġevolution",
        -9.80177730160586
      ],
      [
        "Ġexpect",
        -9.801866816028516
      ],
      [
        "Man",
        -9.802770902983053
      ],
      [
        "ĠDoes",
        -9.803308200356646
      ],
      [
        "Ġjoin",
        -9.803374607184054
      ],
      [
        "Ġdie",
        -9.804758770290588
      ],
      [
        "mp",
        -9.80494942173418
      ],
      [
        "Ġoperation",
        -9.806271209987468
      ],
      [
        "ĠLe",
        -9.80641770473877
      ],
      [
        "ak",
        -9.810117203071764
      ],
      [
        "Ġsweet",
        -9.810464407797005
      ],
      [
        "Ġstuff",
        -9.810659066551676
      ],
      [
        "not",
        -9.811031931636478
      ],
      [
        "ĠCar",
        -9.811647226915232
      ],
      [
        "Ġrule",
        -9.812619641687776
      ],
      [
        "Ġplaced",
        -9.813066486753108
      ],
      [
        "ĠRiver",
        -9.81377356654504
      ],
      [
        "Ġvariable",
        -9.814753404810636
      ],
      [
        "Ġfavorite",
        -9.815059910241864
      ],
      [
        "Ġdecade",
        -9.815071819816149
      ],
      [
        "ĠGo",
        -9.816026029717133
      ],
      [
        "Ġsheet",
        -9.816251551376798
      ],
      [
        "Ġoffice",
        -9.816682377200165
      ],
      [
        "Ġowners",
        -9.816804549200285
      ],
      [
        "Ġdivers",
        -9.817074568214228
      ],
      [
        "Ġroutine",
        -9.81818297589716
      ],
      [
        "ĠDon",
        -9.81851188117581
      ],
      [
        "...ĊĊ",
        -9.81851314970251
      ],
      [
        "ĠAlthough",
        -9.818838066570486
      ],
      [
        "However",
        -9.820273238106685
      ],
      [
        "Ġorganism",
        -9.821214668575603
      ],
      [
        "Ġgear",
        -9.822472073918837
      ],
      [
        "-like",
        -9.823670539144056
      ],
      [
        "Ġremov",
        -9.825295602275787
      ],
      [
        "ible",
        -9.826502012085164
      ],
      [
        "Ġbodie",
        -9.82675907347426
      ],
      [
        "ÂŃ",
        -9.826880177552225
      ],
      [
        "Ġannual",
        -9.826940407903312
      ],
      [
        "Ġcovered",
        -9.828485560192613
      ],
      [
        "ĠAccording",
        -9.828505873843865
      ],
      [
        "#",
        -9.828648124186737
      ],
      [
        "\\",
        -9.82907790614425
      ],
      [
        "ĠDur",
        -9.82921608470453
      ],
      [
        "Ġgrass",
        -9.829414154838611
      ],
      [
        "Ġinternational",
        -9.829860109390626
      ],
      [
        "Ġcommercial",
        -9.831237000227135
      ],
      [
        "Ġreported",
        -9.831259780205324
      ],
      [
        "Ġfailure",
        -9.831384223427488
      ],
      [
        "pril",
        -9.831646801682236
      ],
      [
        "Ġspot",
        -9.832088110149314
      ],
      [
        "board",
        -9.83241970766258
      ],
      [
        "ber",
        -9.832939691205912
      ],
      [
        "ler",
        -9.836955892229492
      ],
      [
        "lic",
        -9.837078383304457
      ],
      [
        "ash",
        -9.837625771542942
      ],
      [
        "Ġcomfort",
        -9.83785904464538
      ],
      [
        "Ġmode",
        -9.83786294463554
      ],
      [
        "held",
        -9.838543311596712
      ],
      [
        "Ġfoundation",
        -9.841389505676045
      ],
      [
        "Ġbatter",
        -9.841722611751074
      ],
      [
        "ĠLo",
        -9.842168872944123
      ],
      [
        "Ġeconomic",
        -9.843540091655091
      ],
      [
        "Ġupper",
        -9.843726678984794
      ],
      [
        "Ġpump",
        -9.844850390638442
      ],
      [
        "Ġdangerous",
        -9.844950817478075
      ],
      [
        "ĠIndia",
        -9.84528131318259
      ],
      [
        "All",
        -9.845805666170598
      ],
      [
        "ought",
        -9.84613517736923
      ],
      [
        "Ġcore",
        -9.847669290171158
      ],
      [
        "ĠDay",
        -9.84898635074535
      ],
      [
        "That",
        -9.849862170817794
      ],
      [
        "Ġselection",
        -9.850671527482987
      ],
      [
        "Ġplane",
        -9.850880102589803
      ],
      [
        "Ġreality",
        -9.852086728305428
      ],
      [
        "eating",
        -9.85233035090765
      ],
      [
        "Ġfashion",
        -9.85400717325619
      ],
      [
        "Ġsounds",
        -9.854103394895532
      ],
      [
        "ĠAfrica",
        -9.854258798529427
      ],
      [
        "After",
        -9.854333029941325
      ],
      [
        "way",
        -9.854615192376476
      ],
      [
        "Ġpress",
        -9.854652113306738
      ],
      [
        "Ġdegree",
        -9.855817713633964
      ],
      [
        "Ġalone",
        -9.856099047725252
      ],
      [
        "ping",
        -9.856169460763814
      ],
      [
        "Ġtail",
        -9.85678943878533
      ],
      [
        "Ġsuit",
        -9.857276405814964
      ],
      [
        "Ġfund",
        -9.857551051697714
      ],
      [
        "Ġmo",
        -9.857782688357348
      ],
      [
        "Ġcable",
        -9.858125246749102
      ],
      [
        "Ġbusinesses",
        -9.859430622291876
      ],
      [
        "itis",
        -9.85963594629251
      ],
      [
        "Ġexpression",
        -9.860236389868142
      ],
      [
        "Ġstaff",
        -9.860405391373378
      ],
      [
        "Ġspecifically",
        -9.861479242535395
      ],
      [
        "Ġbike",
        -9.862300441880112
      ],
      [
        "-year",
        -9.862416374710447
      ],
      [
        "Ġgenes",
        -9.862791950020677
      ],
      [
        "ivity",
        -9.863307869934475
      ],
      [
        "Ġstraight",
        -9.864734517583052
      ],
      [
        "Ġgift",
        -9.864760446866878
      ],
      [
        "Ġappearance",
        -9.865235599857291
      ],
      [
        "Ġcategor",
        -9.865658858254612
      ],
      [
        "Ġinsight",
        -9.865977724388866
      ],
      [
        "Ġoperat",
        -9.866415799495105
      ],
      [
        "Ġcareer",
        -9.866472566666866
      ],
      [
        "ĠNa",
        -9.866644159818406
      ],
      [
        "ang",
        -9.866767887759966
      ],
      [
        "Ġintroduce",
        -9.868833437916123
      ],
      [
        "ĠTherefor",
        -9.869128221540166
      ],
      [
        "ĠSince",
        -9.870849538943093
      ],
      [
        "Ġvirtual",
        -9.871012836338387
      ],
      [
        "Ġbr",
        -9.872684877312942
      ],
      [
        "Ġrules",
        -9.872969597106874
      ],
      [
        "Ġhelpful",
        -9.873364343370753
      ],
      [
        "Ġdrop",
        -9.874064146890396
      ],
      [
        "Ġrelax",
        -9.874073180759831
      ],
      [
        "Ġfossil",
        -9.875326643009553
      ],
      [
        "Ġadvice",
        -9.875688447924292
      ],
      [
        "Ġdemonstrate",
        -9.876088329179854
      ],
      [
        "Ġmolecules",
        -9.87630594830696
      ],
      [
        "Ġartist",
        -9.87902473026347
      ],
      [
        "Ġallowed",
        -9.880321596086956
      ],
      [
        "Ġroots",
        -9.880779931723955
      ],
      [
        "Ġbirth",
        -9.881107120987796
      ],
      [
        "Ġtrigger",
        -9.882502777551284
      ],
      [
        "{",
        -9.883087750908157
      ],
      [
        "Ġsports",
        -9.88416581787698
      ],
      [
        "Ġflat",
        -9.884341677101078
      ],
      [
        "Ġinform",
        -9.884634814960611
      ],
      [
        "Ġbutter",
        -9.884966194119064
      ],
      [
        "Ġproteins",
        -9.88596096501564
      ],
      [
        "ster",
        -9.886297601621408
      ],
      [
        "Ġconcrete",
        -9.886618728816217
      ],
      [
        "ger",
        -9.886943322722164
      ],
      [
        "ĠDepartment",
        -9.88711200089937
      ],
      [
        "Ġdistribution",
        -9.888425232404572
      ],
      [
        "Ġtransform",
        -9.88931317444846
      ],
      [
        "Ġpollution",
        -9.889907391567611
      ],
      [
        "Ġcatch",
        -9.890421219263926
      ],
      [
        "Ġthread",
        -9.890533114334144
      ],
      [
        "Ġinsects",
        -9.89099835066986
      ],
      [
        "ĠPa",
        -9.891599316653608
      ],
      [
        "Ġteach",
        -9.89267234679522
      ],
      [
        "Ġdynamic",
        -9.89282221349465
      ],
      [
        "Ġfear",
        -9.894663087439811
      ],
      [
        "fer",
        -9.894674505220944
      ],
      [
        "Ġgeneration",
        -9.894950681457727
      ],
      [
        "Ġwindow",
        -9.895389668701538
      ],
      [
        "ology",
        -9.895845888250133
      ],
      [
        "Ġsociety",
        -9.89613516217764
      ],
      [
        "Ġconclusion",
        -9.89614288229498
      ],
      [
        "Ġregulation",
        -9.89618649781182
      ],
      [
        "Ġdrawing",
        -9.89629856011548
      ],
      [
        "Ġobserve",
        -9.89721932977062
      ],
      [
        "Ġasked",
        -9.897600634534784
      ],
      [
        "Ġhundred",
        -9.897729953531751
      ],
      [
        "Ġvoice",
        -9.89775017710101
      ],
      [
        "tra",
        -9.89788578481994
      ],
      [
        "Ġpack",
        -9.897919052008245
      ],
      [
        "Ġcharacter",
        -9.897938237442183
      ],
      [
        "Ġthin",
        -9.89886701139973
      ],
      [
        "ck",
        -9.898963439440225
      ],
      [
        "Ġindoor",
        -9.899371668868756
      ],
      [
        "ile",
        -9.899535401081003
      ],
      [
        "/or",
        -9.899827355101554
      ],
      [
        "Ġshot",
        -9.900280422336962
      ],
      [
        "Ġhighlight",
        -9.90045354470687
      ],
      [
        "ĠWar",
        -9.901990616752444
      ],
      [
        "Ġnearly",
        -9.902006929333758
      ],
      [
        "ĠAustralia",
        -9.902133378975556
      ],
      [
        "Ġcharacteristics",
        -9.902262570395434
      ],
      [
        "Ġextend",
        -9.902452125856476
      ],
      [
        "Ġcheap",
        -9.902546486856467
      ],
      [
        "uc",
        -9.903701954964282
      ],
      [
        "Ġmorning",
        -9.904142831192424
      ],
      [
        "Ġtri",
        -9.905256387006194
      ],
      [
        "ĠSea",
        -9.905427537271962
      ],
      [
        "Ġdis",
        -9.906835680495265
      ],
      [
        "Ġformed",
        -9.907075500795427
      ],
      [
        "Ġauto",
        -9.909194099276917
      ],
      [
        "ĠQ",
        -9.909340382265558
      ],
      [
        "Ġrat",
        -9.910507220626176
      ],
      [
        "Ġmember",
        -9.910606343975276
      ],
      [
        "ĠService",
        -9.911554844472786
      ],
      [
        "ĠCa",
        -9.911606124072804
      ],
      [
        "Ġboat",
        -9.912295906669668
      ],
      [
        "ĠJapan",
        -9.912781995572654
      ],
      [
        "Ġfill",
        -9.913498379092712
      ],
      [
        "Ġcrack",
        -9.915483469141195
      ],
      [
        "Ġcreative",
        -9.915533911705458
      ],
      [
        "Ġbear",
        -9.91602061095428
      ],
      [
        "Ġsit",
        -9.916056841050477
      ],
      [
        "Ġcalci",
        -9.916309161384977
      ],
      [
        "Ġleaf",
        -9.916620744666156
      ],
      [
        "ĠEurope",
        -9.9169053372888
      ],
      [
        "Ġanxiet",
        -9.917238154653267
      ],
      [
        "ĠCh",
        -9.917643684645032
      ],
      [
        "Ġfamilies",
        -9.918698463786106
      ],
      [
        "Ġoptimal",
        -9.919424391255218
      ],
      [
        "Ġagree",
        -9.919903955708588
      ],
      [
        "Ġdish",
        -9.920412688316016
      ],
      [
        "coming",
        -9.92126412849003
      ],
      [
        "Ġsurgery",
        -9.922208317936231
      ],
      [
        "Ġhospital",
        -9.923584867972457
      ],
      [
        "Ġdental",
        -9.923725146674087
      ],
      [
        "Ġprovider",
        -9.923892247289526
      ],
      [
        "-free",
        -9.925306998545327
      ],
      [
        "Ġwar",
        -9.925737263429738
      ],
      [
        "ect",
        -9.926350887214202
      ],
      [
        "pro",
        -9.926353726771657
      ],
      [
        "rop",
        -9.926706660580296
      ],
      [
        "Ġstain",
        -9.92671411394753
      ],
      [
        "Ġdirt",
        -9.92692150370235
      ],
      [
        "Ġbeneficial",
        -9.926957777632818
      ],
      [
        "Ġharmful",
        -9.928653451217446
      ],
      [
        "Ġperformed",
        -9.92879772039884
      ],
      [
        "Ġbrush",
        -9.929476301142508
      ],
      [
        "Ġsites",
        -9.929720804395703
      ],
      [
        "Ġreferr",
        -9.929864167041954
      ],
      [
        "Ġapproximately",
        -9.931324819230015
      ],
      [
        "Ġbooks",
        -9.932216458273846
      ],
      [
        "Ġmaybe",
        -9.932396525967954
      ],
      [
        "Ġpreference",
        -9.933617029454652
      ],
      [
        "Ġconsume",
        -9.934033452802629
      ],
      [
        "Ġlegal",
        -9.934215591060878
      ],
      [
        "ĠFood",
        -9.93476668713349
      ],
      [
        "Ġriver",
        -9.934829212829849
      ],
      [
        "Ġseal",
        -9.935464976573368
      ],
      [
        "Ġshar",
        -9.93558972180405
      ],
      [
        "Ġcoat",
        -9.935669047695928
      ],
      [
        "Ġrobot",
        -9.936277172872307
      ],
      [
        "Ġindustrial",
        -9.936455402631946
      ],
      [
        "Be",
        -9.936762745446185
      ],
      [
        "Ġtransmission",
        -9.936805213522796
      ],
      [
        "izing",
        -9.937656776580956
      ],
      [
        "Ġtru",
        -9.937698247152838
      ],
      [
        "Ġschools",
        -9.937704316339218
      ],
      [
        "ious",
        -9.937975346748436
      ],
      [
        "Ġcollect",
        -9.938060585119144
      ],
      [
        "Ġregister",
        -9.93832784930899
      ],
      [
        "Ġwait",
        -9.938420918023697
      ],
      [
        "Ġeventual",
        -9.939008512008504
      ],
      [
        "Ġtrust",
        -9.939172576971004
      ],
      [
        "ĠMe",
        -9.939663842535015
      ],
      [
        "ility",
        -9.939890432768216
      ],
      [
        "Ġprepared",
        -9.940072628428588
      ],
      [
        "ĠOver",
        -9.940585752565816
      ],
      [
        "Ġcars",
        -9.94063216321753
      ],
      [
        "Ġcoffee",
        -9.94178283108932
      ],
      [
        "ĠHigh",
        -9.942519118756524
      ],
      [
        "My",
        -9.942610273746691
      ],
      [
        "water",
        -9.943092065771149
      ],
      [
        "Ġstatement",
        -9.943465406839614
      ],
      [
        "Ġclassroom",
        -9.94351167895613
      ],
      [
        "Ġneck",
        -9.9440779808536
      ],
      [
        "Ġsteel",
        -9.945130550922432
      ],
      [
        "pl",
        -9.94544255664292
      ],
      [
        "Ġcreation",
        -9.94550490193332
      ],
      [
        "Ġportion",
        -9.94604552257
      ],
      [
        "Ġcarrie",
        -9.946389066383144
      ],
      [
        "Ġhydrogen",
        -9.946822235513828
      ],
      [
        "Ġlatest",
        -9.94724316683279
      ],
      [
        "wildlife",
        -9.947332156211472
      ],
      [
        "Ġharvest",
        -9.94847736923232
      ],
      [
        "Ġlaser",
        -9.948587468955363
      ],
      [
        "Ġchannel",
        -9.948714740440892
      ],
      [
        "Our",
        -9.948773338305724
      ],
      [
        "Ġcomprehensive",
        -9.950157998327503
      ],
      [
        "Ġsurvey",
        -9.950158027208293
      ],
      [
        "Ġformula",
        -9.950390748740862
      ],
      [
        "Ġoutdoor",
        -9.950497802534484
      ],
      [
        "ĠPre",
        -9.9510040114921
      ],
      [
        "Ġegg",
        -9.951276572509071
      ],
      [
        "Ġthick",
        -9.951462749192569
      ],
      [
        "Ġpets",
        -9.951864812901572
      ],
      [
        "Ġfeeding",
        -9.95193687841195
      ],
      [
        "Ġdefinition",
        -9.952833976795748
      ],
      [
        "Ġemployee",
        -9.953561003470032
      ],
      [
        "Ġex",
        -9.95372945227922
      ],
      [
        "Ġresource",
        -9.953865591602828
      ],
      [
        "ĠPo",
        -9.954108368377195
      ],
      [
        "Ġmeeting",
        -9.954697862566595
      ],
      [
        "Ġestablished",
        -9.955542234387597
      ],
      [
        "ĠAir",
        -9.95579121738542
      ],
      [
        "Ġbowl",
        -9.957089579961975
      ],
      [
        "Ġemotional",
        -9.957198635869808
      ],
      [
        "more",
        -9.957517044310112
      ],
      [
        "Ġprocedure",
        -9.957567883920897
      ],
      [
        "Ġearlie",
        -9.957608989522036
      ],
      [
        "Ġassist",
        -9.958603336319207
      ],
      [
        "Ġconservation",
        -9.958682398069694
      ],
      [
        "Ġsuggests",
        -9.95912708828346
      ],
      [
        "Ġratio",
        -9.959370797979094
      ],
      [
        "Ġprogramm",
        -9.959475308481572
      ],
      [
        "Ġtiny",
        -9.960330908112782
      ],
      [
        "Ġisland",
        -9.960383250070626
      ],
      [
        "Ġmixture",
        -9.96040059610344
      ],
      [
        "ĠModel",
        -9.960509314295486
      ],
      [
        "Ġvirus",
        -9.961928845251316
      ],
      [
        "ley",
        -9.961974164499672
      ],
      [
        "Ġmaster",
        -9.963540981802794
      ],
      [
        "Ġpossibilit",
        -9.963706067706864
      ],
      [
        "Ġchain",
        -9.963714504401072
      ],
      [
        "Ġstrateg",
        -9.964010525147804
      ],
      [
        "Ġschedule",
        -9.965686213869269
      ],
      [
        "}",
        -9.966259952325933
      ],
      [
        "Ġrandom",
        -9.967931383204384
      ],
      [
        "Ġcalculate",
        -9.96815807044588
      ],
      [
        "Ġformation",
        -9.970258849649028
      ],
      [
        "which",
        -9.971228601081448
      ],
      [
        "ĠWhether",
        -9.971242473462883
      ],
      [
        "king",
        -9.97176739780215
      ],
      [
        "ĠGod",
        -9.972084179000424
      ],
      [
        "Ġsnow",
        -9.972438021375217
      ],
      [
        "Ġtransition",
        -9.97422217792903
      ],
      [
        "all",
        -9.97433071585072
      ],
      [
        "Ġreduction",
        -9.975880992653725
      ],
      [
        "Ġmarine",
        -9.976067007780216
      ],
      [
        "Ġshade",
        -9.97644399269327
      ],
      [
        "und",
        -9.97723531586107
      ],
      [
        "Ġnumerous",
        -9.977440168515052
      ],
      [
        "Yes",
        -9.977891290672469
      ],
      [
        "Ġclasses",
        -9.978183298087613
      ],
      [
        "Ġinstrument",
        -9.97917027058188
      ],
      [
        "Ġdiagram",
        -9.979170631606992
      ],
      [
        "Ġprivate",
        -9.979180659115112
      ],
      [
        "hu",
        -9.97982371848724
      ],
      [
        "Ġstation",
        -9.980502655462669
      ],
      [
        "Are",
        -9.981185490277568
      ],
      [
        "Ġboost",
        -9.981367051377
      ],
      [
        "Ġrespect",
        -9.981624559832234
      ],
      [
        "Ġtechnical",
        -9.982658528686144
      ],
      [
        "Your",
        -9.982945532318787
      ],
      [
        "Ġdiscussion",
        -9.983160877250004
      ],
      [
        "Ġparameter",
        -9.98393533081754
      ],
      [
        "Ġalgorithm",
        -9.98431372202018
      ],
      [
        "Ġnice",
        -9.984650665447582
      ],
      [
        "how",
        -9.98627853607473
      ],
      [
        "Ġsurvive",
        -9.986329020229586
      ],
      [
        "ĠEducation",
        -9.986519115723148
      ],
      [
        "Ġautomatic",
        -9.986704391383435
      ],
      [
        "Ġoperate",
        -9.986753804815168
      ],
      [
        "Ġartificial",
        -9.988104364877705
      ],
      [
        "Ġprimari",
        -9.988140103573729
      ],
      [
        "Ġmanufactur",
        -9.988589045164332
      ],
      [
        "Ġoperations",
        -9.98865593029295
      ],
      [
        "Ġspeaker",
        -9.98912030661339
      ],
      [
        "Ġmonitoring",
        -9.989514151207729
      ],
      [
        "ĠKeep",
        -9.989736277120883
      ],
      [
        "identified",
        -9.991310902747156
      ],
      [
        "Ġatmosphere",
        -9.99136553669697
      ],
      [
        "can",
        -9.99195423941769
      ],
      [
        "Ġlabel",
        -9.991992692917368
      ],
      [
        "Ġdrug",
        -9.992327833825346
      ],
      [
        "Ġjump",
        -9.99312273044414
      ],
      [
        "Ġroof",
        -9.996604826982304
      ],
      [
        "Ġleader",
        -9.997291565108108
      ],
      [
        "Ġinterested",
        -9.997306903726578
      ],
      [
        "ification",
        -9.998447542326597
      ],
      [
        "Ġlarges",
        -9.998698114161082
      ],
      [
        "ĠEuropean",
        -9.99936169840539
      ],
      [
        "Ġprepare",
        -9.999673074578862
      ],
      [
        "Ġbank",
        -10.00014252520526
      ],
      [
        "Ġattend",
        -10.000386166451548
      ],
      [
        "Ġlift",
        -10.001742693310645
      ],
      [
        "Ġperspective",
        -10.001938351947686
      ],
      [
        "Ġtitle",
        -10.00239128325032
      ],
      [
        "kin",
        -10.002614327925803
      ],
      [
        "but",
        -10.003285745344218
      ],
      [
        "ĠRead",
        -10.004220089113131
      ],
      [
        "quality",
        -10.004896287134724
      ],
      [
        "Ġshower",
        -10.005261663516016
      ],
      [
        "ĠSystem",
        -10.005457442363497
      ],
      [
        "Ġrelevant",
        -10.005551996132066
      ],
      [
        "Ġsmell",
        -10.007306568242024
      ],
      [
        "Most",
        -10.00796235285625
      ],
      [
        "are",
        -10.008166496084057
      ],
      [
        "Ġequation",
        -10.00904947632807
      ],
      [
        "Ġzone",
        -10.009748052321816
      ],
      [
        "Ġfix",
        -10.010809288328494
      ],
      [
        "Ġstretch",
        -10.010841225031616
      ],
      [
        "Ġantibiotic",
        -10.010850465542228
      ],
      [
        "ĠMa",
        -10.010953700324652
      ],
      [
        "Ġsmart",
        -10.01135176735783
      ],
      [
        "Ġgrown",
        -10.01155391479016
      ],
      [
        "Ġresident",
        -10.012652193001156
      ],
      [
        "He",
        -10.012784784172814
      ],
      [
        "Ġmuscles",
        -10.01321392045712
      ],
      [
        "desired",
        -10.014018553368665
      ],
      [
        "Ġcertainly",
        -10.014446387115829
      ],
      [
        "ki",
        -10.014757604373344
      ],
      [
        "Ġsaying",
        -10.015127502531044
      ],
      [
        "Ġdefinite",
        -10.015556766649375
      ],
      [
        "Ġprecise",
        -10.016211539257863
      ],
      [
        "Answer",
        -10.0171933499634
      ],
      [
        "Ġparent",
        -10.017657655614304
      ],
      [
        "Ġemotion",
        -10.017754554771392
      ],
      [
        "Ġofficial",
        -10.0180105357317
      ],
      [
        "ĠYork",
        -10.018011563813351
      ],
      [
        "Ġnerve",
        -10.018098751051678
      ],
      [
        "use",
        -10.018417421125664
      ],
      [
        "red",
        -10.019643631696075
      ],
      [
        "Ġrequest",
        -10.019812072974862
      ],
      [
        "Ġminimum",
        -10.019812287221653
      ],
      [
        "Ġcard",
        -10.020237475409298
      ],
      [
        "gg",
        -10.020757754744269
      ],
      [
        "Ġseat",
        -10.021529792583603
      ],
      [
        "ran",
        -10.021629657264654
      ],
      [
        "Ġexternal",
        -10.023425264123484
      ],
      [
        "Ġcheese",
        -10.023428363363394
      ],
      [
        "Ġbiological",
        -10.02367827610984
      ],
      [
        "cal",
        -10.024867897348155
      ],
      [
        "Ġlifestyle",
        -10.025384708861283
      ],
      [
        "-being",
        -10.025458294719058
      ],
      [
        "ham",
        -10.025588587270857
      ],
      [
        "Ġmanual",
        -10.026196106932112
      ],
      [
        "Ġplent",
        -10.027070541852886
      ],
      [
        "Ġaudio",
        -10.027141246427773
      ],
      [
        "Ġraw",
        -10.027474192435644
      ],
      [
        "with",
        -10.027660897679844
      ],
      [
        "Ġphotos",
        -10.028241543065423
      ],
      [
        "Ġcapabilit",
        -10.029562036424196
      ],
      [
        "Ġconduct",
        -10.030629716273063
      ],
      [
        "Ġbroad",
        -10.030805294320544
      ],
      [
        "Ġmiles",
        -10.030971782707695
      ],
      [
        "Ġimplement",
        -10.03198511395878
      ],
      [
        "Ġstock",
        -10.033872761903368
      ],
      [
        "Ġnest",
        -10.034901076288284
      ],
      [
        "Ġcream",
        -10.035142793916252
      ],
      [
        "Ġfunctional",
        -10.0357881395006
      ],
      [
        "ĠJohn",
        -10.03671129866762
      ],
      [
        "Ġguideline",
        -10.037319880141167
      ],
      [
        "ĠHis",
        -10.037548428507408
      ],
      [
        "Ġpan",
        -10.03766723027467
      ],
      [
        "Conclusion",
        -10.039892190960511
      ],
      [
        "Ġinternet",
        -10.039927556526402
      ],
      [
        "gar",
        -10.04006878136179
      ],
      [
        "Ġlawn",
        -10.0402185806126
      ],
      [
        "Ġoffering",
        -10.04073798745072
      ],
      [
        "Ġancient",
        -10.041692174932288
      ],
      [
        "Ġstatus",
        -10.041869458872608
      ],
      [
        "Ġincredibl",
        -10.04353568616004
      ],
      [
        "OS",
        -10.04354725593956
      ],
      [
        "ub",
        -10.04407333465381
      ],
      [
        "Ġprocessor",
        -10.044932108644009
      ],
      [
        "Ġguid",
        -10.045089300034697
      ],
      [
        "Ġreplacement",
        -10.046154395308456
      ],
      [
        "Ġsport",
        -10.046155403713223
      ],
      [
        "Ġopinion",
        -10.047236088856195
      ],
      [
        "Ġne",
        -10.04733432221418
      ],
      [
        "Ġrealize",
        -10.04748601463697
      ],
      [
        "Ġformat",
        -10.047572413340712
      ],
      [
        "-friendl",
        -10.047695154722016
      ],
      [
        "Ġquantit",
        -10.048180222026488
      ],
      [
        "ake",
        -10.048674184927236
      ],
      [
        "Ġkept",
        -10.04909145239873
      ],
      [
        "Ġblend",
        -10.049099418893778
      ],
      [
        "Ġseven",
        -10.049160451818754
      ],
      [
        "Ġsymbol",
        -10.05003059946855
      ],
      [
        "ĠEl",
        -10.05229293944688
      ],
      [
        "Ġwash",
        -10.052367831780774
      ],
      [
        "ĠGreat",
        -10.052987108998556
      ],
      [
        "Ġhole",
        -10.053773322712342
      ],
      [
        "Ġorigin",
        -10.053806211544057
      ],
      [
        "car",
        -10.05405490596987
      ],
      [
        "Ġchoos",
        -10.054392657537074
      ],
      [
        "ĠStudent",
        -10.054806170271732
      ],
      [
        "Ġworry",
        -10.056573825631652
      ],
      [
        "Ġport",
        -10.057623908382848
      ],
      [
        "Ġstroke",
        -10.058048135337891
      ],
      [
        "Ġobvious",
        -10.058142420004913
      ],
      [
        "tability",
        -10.05820476951537
      ],
      [
        "Ġcreature",
        -10.058419827636826
      ],
      [
        "Ġbottle",
        -10.058431752236348
      ],
      [
        "Ġstomach",
        -10.05858461335796
      ],
      [
        "mar",
        -10.058961436467031
      ],
      [
        "Ġgold",
        -10.059520957083528
      ],
      [
        "Ġclient",
        -10.06033917570242
      ],
      [
        "Ġbillion",
        -10.062092522941384
      ],
      [
        "Ġcontinuous",
        -10.062217326925246
      ],
      [
        "ĠMarch",
        -10.06230812350076
      ],
      [
        "Ġbite",
        -10.063074612879184
      ],
      [
        "Ġcalorie",
        -10.06364967347444
      ],
      [
        "Ġshoes",
        -10.064060137987791
      ],
      [
        "aging",
        -10.064279947594656
      ],
      [
        "nic",
        -10.06484485106022
      ],
      [
        "Ġnation",
        -10.065586027601702
      ],
      [
        "Ġmainly",
        -10.066623121307074
      ],
      [
        "ĠGoogle",
        -10.06690912875781
      ],
      [
        "ene",
        -10.067538429803855
      ],
      [
        "Use",
        -10.067804617024269
      ],
      [
        "Ġvariation",
        -10.06783590819992
      ],
      [
        "Ġkidney",
        -10.067883979134962
      ],
      [
        "Ġpropose",
        -10.068052001353433
      ],
      [
        "Ġhormone",
        -10.069729817574096
      ],
      [
        "Ġsolve",
        -10.071293425981164
      ],
      [
        "Ġapart",
        -10.071739241084424
      ],
      [
        "Ġlayers",
        -10.072286786809928
      ],
      [
        "Ġband",
        -10.07309045404715
      ],
      [
        "Ġargument",
        -10.073571921627671
      ],
      [
        "Ġreliable",
        -10.073666407326757
      ],
      [
        "Ġbak",
        -10.07443068235321
      ],
      [
        "osis",
        -10.074889214659615
      ],
      [
        "Ġlens",
        -10.074906848159774
      ],
      [
        "emergency",
        -10.075404150836253
      ],
      [
        "Ġamazing",
        -10.07543340019494
      ],
      [
        "Ġfracture",
        -10.075433775197585
      ],
      [
        "ĠDesign",
        -10.076221437151156
      ],
      [
        "eath",
        -10.076754347040524
      ],
      [
        "Ġgets",
        -10.07724143014327
      ],
      [
        "ĠTi",
        -10.077251084143434
      ],
      [
        "Ġfirm",
        -10.077903750355436
      ],
      [
        "Ġadopt",
        -10.078670691317171
      ],
      [
        "Ġparticipant",
        -10.079253695897616
      ],
      [
        "Ġinnovation",
        -10.079255382473306
      ],
      [
        "ĠChina",
        -10.079322394437002
      ],
      [
        "Ġchalleng",
        -10.080769592762325
      ],
      [
        "Ġthorough",
        -10.081169417516117
      ],
      [
        "Ġeducational",
        -10.081262301485138
      ],
      [
        "Ġspin",
        -10.081627822810113
      ],
      [
        "Ġindependent",
        -10.082630440658903
      ],
      [
        "Ġvs",
        -10.082903827860644
      ],
      [
        "Ġbi",
        -10.083876958961469
      ],
      [
        "Ġpot",
        -10.085333263936466
      ],
      [
        "Ġsensitive",
        -10.086376682489998
      ],
      [
        "Ġdetermined",
        -10.086413808430244
      ],
      [
        "set",
        -10.086460959043087
      ],
      [
        "Ġremote",
        -10.086938669794346
      ],
      [
        "Ġcommand",
        -10.086939724645063
      ],
      [
        "ĠNe",
        -10.087129010309017
      ],
      [
        "ĠWest",
        -10.08801707999882
      ],
      [
        "low",
        -10.08848684869225
      ],
      [
        "Ġhelping",
        -10.088771484582242
      ],
      [
        "September",
        -10.088869444693527
      ],
      [
        "ĠPeople",
        -10.088899935581022
      ],
      [
        "ES",
        -10.08953412747167
      ],
      [
        "Ġintelligence",
        -10.089562502468167
      ],
      [
        "Ġpowder",
        -10.090803388605345
      ],
      [
        "ĠAct",
        -10.090926526287342
      ],
      [
        "Ġinteract",
        -10.091071223328212
      ],
      [
        "Ġwheel",
        -10.091469543734044
      ],
      [
        "Ġassume",
        -10.091545096135906
      ],
      [
        "Ġmembrane",
        -10.09276613342201
      ],
      [
        "Ġmelt",
        -10.09293236233574
      ],
      [
        "Ġestablish",
        -10.093370212814026
      ],
      [
        "Ġedit",
        -10.094196772592197
      ],
      [
        "ward",
        -10.095817828952349
      ],
      [
        "Ġstar",
        -10.09594314565529
      ],
      [
        "||",
        -10.09656194016829
      ],
      [
        "Ġmovie",
        -10.096633435671752
      ],
      [
        "back",
        -10.097069840910976
      ],
      [
        "Ġstable",
        -10.097582251526669
      ],
      [
        "Ġutilize",
        -10.097951730597568
      ],
      [
        "Ġfurniture",
        -10.098580934768489
      ],
      [
        "Ġbudget",
        -10.098591822804966
      ],
      [
        "Ġsupplie",
        -10.09887701017598
      ],
      [
        "ĠJune",
        -10.099192196570302
      ],
      [
        "Ġwet",
        -10.099489824079104
      ],
      [
        "Ġmis",
        -10.099719504031432
      ],
      [
        "Ġeliminate",
        -10.100827548991994
      ],
      [
        "Onc",
        -10.101597283828193
      ],
      [
        "Ġextract",
        -10.101859075027413
      ],
      [
        "Ġinvestment",
        -10.102888422908332
      ],
      [
        "ĠBritish",
        -10.103385956316943
      ],
      [
        "Ġoccurr",
        -10.104051990840745
      ],
      [
        "Ġultimate",
        -10.104448820029782
      ],
      [
        "Ġcollege",
        -10.104448869753451
      ],
      [
        "Ġvitamin",
        -10.10476050886928
      ],
      [
        "Ġdensit",
        -10.104879252211962
      ],
      [
        "Ġharm",
        -10.10500000874879
      ],
      [
        "bar",
        -10.105748639459645
      ],
      [
        "Ġtrade",
        -10.10616780158606
      ],
      [
        "Ġdescription",
        -10.106498834514934
      ],
      [
        "Ġowner",
        -10.107022798728302
      ],
      [
        "Ġsuffer",
        -10.107467996050232
      ],
      [
        "AL",
        -10.10823362129877
      ],
      [
        "Ġbreeding",
        -10.108337974722438
      ],
      [
        "Ġencounter",
        -10.10838196031286
      ],
      [
        "Ġscenario",
        -10.10838196356697
      ],
      [
        "Ġhoney",
        -10.108396573453254
      ],
      [
        "Ġclinical",
        -10.108653057812948
      ],
      [
        "Ġpercentage",
        -10.109160819779706
      ],
      [
        "Ġdirector",
        -10.109676612673118
      ],
      [
        "ĠFrench",
        -10.110169332128134
      ],
      [
        "Ġchart",
        -10.110261894229364
      ],
      [
        "Ġjoint",
        -10.110318976009523
      ],
      [
        "Ġeight",
        -10.110524194467258
      ],
      [
        "-time",
        -10.110618040667228
      ],
      [
        "Ġalcohol",
        -10.111809068725456
      ],
      [
        "what",
        -10.112095445248594
      ],
      [
        "Ġradio",
        -10.113791939355965
      ],
      [
        "Ġbees",
        -10.114162779876306
      ],
      [
        "Ġessay",
        -10.114312703767048
      ],
      [
        "Ġleak",
        -10.114462991000956
      ],
      [
        "Ġsecret",
        -10.114505776967915
      ],
      [
        "Ġguy",
        -10.114785764901224
      ],
      [
        "Ġprove",
        -10.11531615945804
      ],
      [
        "Ġputt",
        -10.116126802530475
      ],
      [
        "Ġflood",
        -10.116295181430328
      ],
      [
        "ĠCanada",
        -10.116306292535937
      ],
      [
        "Ġaircraft",
        -10.116498798175924
      ],
      [
        "ĠGreen",
        -10.1166748709301
      ],
      [
        "Ġarm",
        -10.117633473442876
      ],
      [
        "Ġtea",
        -10.117813079459353
      ],
      [
        "ĠHome",
        -10.118186980325424
      ],
      [
        "Ġproduc",
        -10.118476452224662
      ],
      [
        "Ġbill",
        -10.11869460882942
      ],
      [
        "ack",
        -10.11912697746016
      ],
      [
        "ĠPark",
        -10.119500704568969
      ],
      [
        "Ġvalve",
        -10.120310016202284
      ],
      [
        "Ġweak",
        -10.12085420634454
      ],
      [
        "Ġcm",
        -10.12191938681961
      ],
      [
        "Ġfundamental",
        -10.122271123611036
      ],
      [
        "ware",
        -10.122935117528003
      ],
      [
        "ĠPi",
        -10.12316504672668
      ],
      [
        "Ġcompost",
        -10.123451769192812
      ],
      [
        "Ġcoal",
        -10.123986473289625
      ],
      [
        "Ġtight",
        -10.12438232228952
      ],
      [
        "Ġchose",
        -10.124402965971916
      ],
      [
        "Ġconcentration",
        -10.125510067921006
      ],
      [
        "Ġscene",
        -10.12562380086224
      ],
      [
        "urthermore",
        -10.12609242375957
      ],
      [
        "ear",
        -10.127853335811452
      ],
      [
        "ED",
        -10.128075675430807
      ],
      [
        "Ġkitchen",
        -10.128286642077768
      ],
      [
        "gen",
        -10.12840806753427
      ],
      [
        "qui",
        -10.129514693386287
      ],
      [
        "Ġrow",
        -10.130298653106887
      ],
      [
        "Ġyard",
        -10.130760958460655
      ],
      [
        "ING",
        -10.130777574012017
      ],
      [
        "Ġintake",
        -10.131046023254417
      ],
      [
        "Ġplanting",
        -10.13114447154826
      ],
      [
        "ĠIndian",
        -10.13223067197818
      ],
      [
        "OVID",
        -10.132342689226258
      ],
      [
        "ĠGu",
        -10.1326949757746
      ],
      [
        "ĠWell",
        -10.132895108725176
      ],
      [
        "Ġsp",
        -10.133209295283802
      ],
      [
        "Ġselected",
        -10.134988392731442
      ],
      [
        "Ġpolicy",
        -10.13640669893237
      ],
      [
        "ja",
        -10.137016974565812
      ],
      [
        "Ġadvance",
        -10.137792516550656
      ],
      [
        "Ġjournal",
        -10.138215333422774
      ],
      [
        "Ġenzyme",
        -10.13827104702819
      ],
      [
        "that",
        -10.13895205612874
      ],
      [
        "Ġgap",
        -10.140632151998272
      ],
      [
        "ĠAugust",
        -10.141147593202913
      ],
      [
        "Ġfight",
        -10.141356956140736
      ],
      [
        "Ġwaiting",
        -10.141818975975468
      ],
      [
        "]Ċ",
        -10.142139169379874
      ],
      [
        "-on",
        -10.14231250638766
      ],
      [
        "ĠVi",
        -10.1426095162147
      ],
      [
        "pp",
        -10.143092112715452
      ],
      [
        "uck",
        -10.144193735574952
      ],
      [
        "Ġexcessive",
        -10.144746050125155
      ],
      [
        "Ġprior",
        -10.14537530410059
      ],
      [
        "Ġconfirm",
        -10.145977060692012
      ],
      [
        "Ġmobile",
        -10.146591087365389
      ],
      [
        "More",
        -10.146639396305003
      ],
      [
        "ĠAdd",
        -10.14724373868714
      ],
      [
        "Ġdecide",
        -10.147349797377046
      ],
      [
        "ĠAC",
        -10.149483815347253
      ],
      [
        "ĠRed",
        -10.149856614689336
      ],
      [
        "Ġrough",
        -10.149899051352088
      ],
      [
        "Ġleav",
        -10.150508298283226
      ],
      [
        "Florida",
        -10.150648430022688
      ],
      [
        "off",
        -10.15116876985465
      ],
      [
        "ĠKa",
        -10.151671464603965
      ],
      [
        "ĠWhere",
        -10.151827889184052
      ],
      [
        "ĠAbout",
        -10.152701371541385
      ],
      [
        "Ġpredator",
        -10.152704937222564
      ],
      [
        "ways",
        -10.153455801907851
      ],
      [
        "Ġcredit",
        -10.155901609297027
      ],
      [
        "ĠInternational",
        -10.15591247966688
      ],
      [
        "Ġhid",
        -10.15665485976683
      ],
      [
        "Ġlab",
        -10.15812898938458
      ],
      [
        "Ġcontrast",
        -10.158897763377402
      ],
      [
        "Ġzero",
        -10.158932345600586
      ],
      [
        "Ġfeedback",
        -10.158992258784988
      ],
      [
        "New",
        -10.159209051101772
      ],
      [
        "Ġbulb",
        -10.159586085877542
      ],
      [
        "Ġdrugs",
        -10.159834292630933
      ],
      [
        "Ġhardware",
        -10.161198746627928
      ],
      [
        "ong",
        -10.161234884837786
      ],
      [
        "ĠPC",
        -10.16136686540456
      ],
      [
        "Ġsudden",
        -10.163051627806947
      ],
      [
        "ung",
        -10.163093871748924
      ],
      [
        "ĠLike",
        -10.16331853072242
      ],
      [
        "Ġboil",
        -10.163370036106077
      ],
      [
        "Ġpainting",
        -10.164275449980844
      ],
      [
        "ple",
        -10.16445160056563
      ],
      [
        "cu",
        -10.164708903125645
      ],
      [
        "Ġmechanical",
        -10.164715922284222
      ],
      [
        "Ġcontrolle",
        -10.16554182437904
      ],
      [
        "Ġgrade",
        -10.166604743047952
      ],
      [
        "Ġconstruct",
        -10.166787822062698
      ],
      [
        "ĠWork",
        -10.167513476978607
      ],
      [
        "ĠLearn",
        -10.16789249008918
      ],
      [
        "Co",
        -10.169253583964826
      ],
      [
        "First",
        -10.169284371632326
      ],
      [
        "Ġexamine",
        -10.17060328000198
      ],
      [
        "Ġshowing",
        -10.170659324238583
      ],
      [
        "Ġheater",
        -10.170965163267434
      ],
      [
        "Ġintervention",
        -10.17141098136167
      ],
      [
        "Ġspray",
        -10.171438881563308
      ],
      [
        "Ġunits",
        -10.171549423983912
      ],
      [
        "Ġflu",
        -10.172262923265189
      ],
      [
        "Ġwouldn",
        -10.172737240656923
      ],
      [
        "Ġopening",
        -10.173274649459056
      ],
      [
        "Ġgraphic",
        -10.17367637780634
      ],
      [
        "ĠAny",
        -10.17399957865872
      ],
      [
        "net",
        -10.17460409974118
      ],
      [
        "Ġfarmers",
        -10.174685877547738
      ],
      [
        "Ġinvest",
        -10.17481224644608
      ],
      [
        "ze",
        -10.174889207832956
      ],
      [
        "Ġwhatever",
        -10.17556566408093
      ],
      [
        "Ġcurve",
        -10.17645348513066
      ],
      [
        "Ġsupplement",
        -10.177094811085066
      ],
      [
        "Ġcompetition",
        -10.17772684018022
      ],
      [
        "Ġyield",
        -10.177726843700947
      ],
      [
        "Ġbread",
        -10.17790379957244
      ],
      [
        "Ġdishe",
        -10.178160872247725
      ],
      [
        "ose",
        -10.178265115172673
      ],
      [
        "Ġprinting",
        -10.178506089424932
      ],
      [
        "Ġmill",
        -10.178731157872262
      ],
      [
        "ĠHer",
        -10.179377032549326
      ],
      [
        "led",
        -10.181693383620496
      ],
      [
        "Ġsufficient",
        -10.181959542881218
      ],
      [
        "Ġconversation",
        -10.18195954786847
      ],
      [
        "Ġfilled",
        -10.1820605837286
      ],
      [
        "Ġemploy",
        -10.182208756948802
      ],
      [
        "ĠCheck",
        -10.18226573740436
      ],
      [
        "Ġlighting",
        -10.182791745498964
      ],
      [
        "Ġborn",
        -10.183167038007678
      ],
      [
        "ĠFebruary",
        -10.183727026048194
      ],
      [
        "Share",
        -10.18375812037267
      ],
      [
        "&",
        -10.183785304792622
      ],
      [
        "Ġprofile",
        -10.184101525224976
      ],
      [
        "Ġworker",
        -10.18470861607107
      ],
      [
        "Ġnose",
        -10.184803902742305
      ],
      [
        "Ġdistinct",
        -10.186151795215626
      ],
      [
        "-related",
        -10.186210388877305
      ],
      [
        "gu",
        -10.1871305144263
      ],
      [
        "ĠEnergy",
        -10.187817107742529
      ],
      [
        "Ġcalm",
        -10.188499984197415
      ],
      [
        "Ġnormally",
        -10.188971431350572
      ],
      [
        "ĠTest",
        -10.18916461996962
      ],
      [
        "Ġlay",
        -10.189296800227114
      ],
      [
        "Ġsharp",
        -10.189376446843266
      ],
      [
        "Ġhistorical",
        -10.190014173523204
      ],
      [
        "Ġdestroy",
        -10.190479843438816
      ],
      [
        "Ġmold",
        -10.191050097128253
      ],
      [
        "Pa",
        -10.192145827142603
      ],
      [
        "Ġappeal",
        -10.192638109021164
      ],
      [
        "Ġthrow",
        -10.192835425183194
      ],
      [
        "Ġcraft",
        -10.192970842122149
      ],
      [
        "Ġconsideration",
        -10.193657969671769
      ],
      [
        "Ġdecided",
        -10.19378110704586
      ],
      [
        "ign",
        -10.1941048922212
      ],
      [
        "Ġprofessionals",
        -10.194166789970907
      ],
      [
        "ĠTh",
        -10.194674493637612
      ],
      [
        "âĪĴ",
        -10.194767561751704
      ],
      [
        "Ġpoly",
        -10.194845776873294
      ],
      [
        "Ġstorie",
        -10.19497889706621
      ],
      [
        "Ġsaving",
        -10.1953248614656
      ],
      [
        "Ġsilver",
        -10.195537702916642
      ],
      [
        "ĠStart",
        -10.195992677283844
      ],
      [
        "Ġfloat",
        -10.196187736797338
      ],
      [
        "Ġpriorit",
        -10.196545064018562
      ],
      [
        "Ġcolumn",
        -10.196917561761987
      ],
      [
        "Ġaudience",
        -10.196917755999165
      ],
      [
        "Ġrecognize",
        -10.197373922523578
      ],
      [
        "Ġincorporate",
        -10.19780181684078
      ],
      [
        "Ġvi",
        -10.19798043521192
      ],
      [
        "Ġfan",
        -10.199902266721374
      ],
      [
        "Ġpilot",
        -10.200214543368508
      ],
      [
        "Ġheal",
        -10.200299919181123
      ],
      [
        "Ġbug",
        -10.201088562466984
      ],
      [
        "Ġbeauty",
        -10.201233505369231
      ],
      [
        "Ġchair",
        -10.201248504413028
      ],
      [
        "Ġvisibl",
        -10.201509226001154
      ],
      [
        "Ġbecom",
        -10.201902230373332
      ],
      [
        "Ġimagine",
        -10.202190793498064
      ],
      [
        "Ġgraph",
        -10.203103237922004
      ],
      [
        "ĠStep",
        -10.203790272452242
      ],
      [
        "Ġdust",
        -10.204269776612993
      ],
      [
        "hose",
        -10.204982108487048
      ],
      [
        "Ġnorth",
        -10.205059194584663
      ],
      [
        "Â",
        -10.205482389400288
      ],
      [
        "Ġrace",
        -10.205538876418055
      ],
      [
        "Ġspecialize",
        -10.205606936209817
      ],
      [
        "qua",
        -10.205622305000638
      ],
      [
        "rate",
        -10.20579342535979
      ],
      [
        "made",
        -10.206644055780693
      ],
      [
        "Ġcommunicate",
        -10.207249396513332
      ],
      [
        "Ã©",
        -10.207352530440382
      ],
      [
        "Ġreward",
        -10.208088601867932
      ],
      [
        "Ġsector",
        -10.208114956140646
      ],
      [
        "Ġfields",
        -10.208562107230138
      ],
      [
        "Ġnovel",
        -10.20856977261804
      ],
      [
        "Ġpregnanc",
        -10.20969943283551
      ],
      [
        "Ġdelicious",
        -10.20991835981772
      ],
      [
        "ble",
        -10.21011097901808
      ],
      [
        "Ġshapes",
        -10.21057482941387
      ],
      [
        "book",
        -10.210730439907383
      ],
      [
        "Ġho",
        -10.21076194938562
      ],
      [
        "ric",
        -10.2109406622832
      ],
      [
        "Ġtie",
        -10.211548283246234
      ],
      [
        "Ġherb",
        -10.211827374923525
      ],
      [
        "Ġextensive",
        -10.212101750074236
      ],
      [
        "Ġlung",
        -10.212194895501822
      ],
      [
        "Ġstructural",
        -10.21265489105923
      ],
      [
        "Ġmath",
        -10.212915130015796
      ],
      [
        "ĠBoth",
        -10.213291230339864
      ],
      [
        "According",
        -10.214082341893484
      ],
      [
        "Ġminimize",
        -10.21413850932758
      ],
      [
        "Ġillustrate",
        -10.214222627255376
      ],
      [
        "right",
        -10.215083843715888
      ],
      [
        "Ġinstallation",
        -10.21557901450597
      ],
      [
        "confidence",
        -10.216559218125973
      ],
      [
        "cat",
        -10.216733963143822
      ],
      [
        "ĠBr",
        -10.216864470013167
      ],
      [
        "cle",
        -10.217305133107065
      ],
      [
        "Ġmanag",
        -10.217401377555788
      ],
      [
        "Ġobjective",
        -10.217615639774683
      ],
      [
        "Ġdisorder",
        -10.21780674297808
      ],
      [
        "bacterial",
        -10.217853933865264
      ],
      [
        "Ġgreenhouse",
        -10.218809318244569
      ],
      [
        "Ġmission",
        -10.219018241631655
      ],
      [
        "ĠPower",
        -10.219026134960153
      ],
      [
        "ches",
        -10.220060233621544
      ],
      [
        "Ġwish",
        -10.220187656139297
      ],
      [
        "Ġrestaurant",
        -10.220883362891986
      ],
      [
        "Ġprompt",
        -10.220884025977591
      ],
      [
        "Ġstanding",
        -10.22088676960131
      ],
      [
        "Ġstream",
        -10.222160837891272
      ],
      [
        "Ġminerals",
        -10.222396990753571
      ],
      [
        "Ġexcess",
        -10.222819408973118
      ],
      [
        "za",
        -10.22305046276801
      ],
      [
        "Ġillness",
        -10.223291102152048
      ],
      [
        "ĠPlant",
        -10.225255685769875
      ],
      [
        "Ġbarrier",
        -10.225303779078873
      ],
      [
        "Ġtooth",
        -10.22537303148177
      ],
      [
        "Ġgrill",
        -10.225399819134562
      ],
      [
        "Ġcultural",
        -10.225575229759697
      ],
      [
        "Ġtall",
        -10.225738958412226
      ],
      [
        "Ġclothing",
        -10.22669931338579
      ],
      [
        "Ġgenerat",
        -10.22756106556826
      ],
      [
        "than",
        -10.228152545822317
      ],
      [
        "Ġcorn",
        -10.228185828775064
      ],
      [
        "ĠJanuary",
        -10.228581264694476
      ],
      [
        "Ġcomposition",
        -10.229584457558149
      ],
      [
        "ĠArt",
        -10.229623970097853
      ],
      [
        "Ġvegan",
        -10.229807186021734
      ],
      [
        "len",
        -10.229874290493608
      ],
      [
        "Ġcircle",
        -10.230030507553671
      ],
      [
        "Ġdesigner",
        -10.230647082717642
      ],
      [
        "IC",
        -10.23138930924183
      ],
      [
        "Ġpictures",
        -10.231433432064488
      ],
      [
        "ĠSan",
        -10.232341113491511
      ],
      [
        "ĠTake",
        -10.232945771306294
      ],
      [
        "Ġexhibit",
        -10.233250596152352
      ],
      [
        "Ġvarie",
        -10.233291693699304
      ],
      [
        "oil",
        -10.233447187385144
      ],
      [
        "Let",
        -10.234115954216488
      ],
      [
        "Ġsurprise",
        -10.234202093517506
      ],
      [
        "Ġaccurac",
        -10.234202094108566
      ],
      [
        "ture",
        -10.234255083778802
      ],
      [
        "Ġintegrate",
        -10.234470253560922
      ],
      [
        "Ġsitting",
        -10.23492810669734
      ],
      [
        "com",
        -10.235989509574614
      ],
      [
        "ĠLu",
        -10.236019331247832
      ],
      [
        "Ġversatil",
        -10.236477695561112
      ],
      [
        "Ġchronic",
        -10.236477951449714
      ],
      [
        "Ġfelt",
        -10.236522468665637
      ],
      [
        "Ġpreparation",
        -10.236805093630794
      ],
      [
        "ĠPlan",
        -10.237047784030551
      ],
      [
        "Ġbroken",
        -10.238236706734604
      ],
      [
        "ĠHuman",
        -10.238466711196232
      ],
      [
        "Ġloop",
        -10.238746940863024
      ],
      [
        "Ġnail",
        -10.238890069685002
      ],
      [
        "Ġindex",
        -10.239383319523636
      ],
      [
        "ĠBo",
        -10.240939127126431
      ],
      [
        "Ġinner",
        -10.241669548693965
      ],
      [
        "Ġatoms",
        -10.241674379161234
      ],
      [
        "Ġcombined",
        -10.242383298403954
      ],
      [
        "Ġobservation",
        -10.243704629576136
      ],
      [
        "Ġinterior",
        -10.24544849699386
      ],
      [
        "Ġsent",
        -10.247012359962817
      ],
      [
        "Ġresponsibilit",
        -10.247700598546404
      ],
      [
        "Ġminute",
        -10.248281752586175
      ],
      [
        "Ġattribute",
        -10.248617418925695
      ],
      [
        "Ġshoulder",
        -10.248698007688184
      ],
      [
        "oma",
        -10.248718507064002
      ],
      [
        "Ġhunt",
        -10.249167607124487
      ],
      [
        "ĠCollege",
        -10.249968263803408
      ],
      [
        "Ġuniverse",
        -10.249968640282816
      ],
      [
        "Ġtip",
        -10.25039978805841
      ],
      [
        "spent",
        -10.250965170221493
      ],
      [
        "ĠDi",
        -10.251272188582448
      ],
      [
        "ĠHo",
        -10.25202760061638
      ],
      [
        "Ġ...ĊĊ",
        -10.252057455148345
      ],
      [
        "Ġdelay",
        -10.252327190251698
      ],
      [
        "ĠGarden",
        -10.252974938723751
      ],
      [
        "some",
        -10.254163287845298
      ],
      [
        "diversity",
        -10.25435775052527
      ],
      [
        "Ġbloom",
        -10.25533704362723
      ],
      [
        "ĠIsland",
        -10.255685343693193
      ],
      [
        "Ġcharging",
        -10.256449391475178
      ],
      [
        "Ġthermal",
        -10.256795182856276
      ],
      [
        "Ġmatrix",
        -10.256810659158411
      ],
      [
        "ik",
        -10.257537654078028
      ],
      [
        "going",
        -10.25774399036165
      ],
      [
        "BD",
        -10.25782422166136
      ],
      [
        "Ġappreciate",
        -10.258787258040318
      ],
      [
        "Ġinnovative",
        -10.25909749368249
      ],
      [
        "Ġoven",
        -10.259170387180443
      ],
      [
        "Ġla",
        -10.25924253394422
      ],
      [
        "Ġshop",
        -10.259716955832578
      ],
      [
        "Ġconducted",
        -10.260149095958717
      ],
      [
        "ix",
        -10.260410829585272
      ],
      [
        "ries",
        -10.260603224200205
      ],
      [
        "Ġrecommendation",
        -10.261716509006128
      ],
      [
        "Ġtoxic",
        -10.26208251276672
      ],
      [
        "Ġfinger",
        -10.263745772144436
      ],
      [
        "Ġcake",
        -10.263806305748991
      ],
      [
        "tended",
        -10.263899307683534
      ],
      [
        "Ġconsult",
        -10.26514939346205
      ],
      [
        "Ġski",
        -10.265188617727672
      ],
      [
        "my",
        -10.265706920059811
      ],
      [
        "Ġexplor",
        -10.265712607163849
      ],
      [
        "Ġgrant",
        -10.266142700918529
      ],
      [
        "Ġdimension",
        -10.266146509222722
      ],
      [
        "Ġinspire",
        -10.266240408637229
      ],
      [
        "Ġpen",
        -10.266290141606618
      ],
      [
        "Ġwoman",
        -10.268341625274097
      ],
      [
        "Ġpackage",
        -10.269285552778507
      ],
      [
        "press",
        -10.270022249366352
      ],
      [
        "tain",
        -10.270301195073198
      ],
      [
        "gave",
        -10.270387881636292
      ],
      [
        "Ġfoster",
        -10.270631908435734
      ],
      [
        "Ġeconom",
        -10.270707534200954
      ],
      [
        "Ġtire",
        -10.270903654099053
      ],
      [
        "ĠCare",
        -10.271097783590012
      ],
      [
        "IS",
        -10.27165717710504
      ],
      [
        "Ġcharacters",
        -10.271867787250876
      ],
      [
        "Ġheavi",
        -10.272398323890474
      ],
      [
        "Ġpure",
        -10.272463267737738
      ],
      [
        "SE",
        -10.272963973044943
      ],
      [
        "twic",
        -10.27298063408568
      ],
      [
        "Ġderive",
        -10.273019089975255
      ],
      [
        "ĠSi",
        -10.273435489441686
      ],
      [
        "Ġacademic",
        -10.275256866273942
      ],
      [
        "Ġsauce",
        -10.27526134317285
      ],
      [
        "ĠGa",
        -10.275916613648938
      ],
      [
        "ĠGood",
        -10.27609458500309
      ],
      [
        "pan",
        -10.276789346756878
      ],
      [
        "ĠBlack",
        -10.277066774859344
      ],
      [
        "Ġbrief",
        -10.277588019185789
      ],
      [
        "Ġgate",
        -10.278768953801
      ],
      [
        "Ġarray",
        -10.278872015085469
      ],
      [
        "Ġtube",
        -10.278928841863642
      ],
      [
        "AR",
        -10.27926131461922
      ],
      [
        "Ġblade",
        -10.279926324924258
      ],
      [
        "espite",
        -10.28012599994485
      ],
      [
        "ĠHave",
        -10.280300559786015
      ],
      [
        "Ġdivided",
        -10.28101113239801
      ],
      [
        "Ġwonder",
        -10.281538861387803
      ],
      [
        "ĠData",
        -10.28174585222934
      ],
      [
        "ĠGet",
        -10.28188172643022
      ],
      [
        "Ã",
        -10.28216987956118
      ],
      [
        "part",
        -10.282333927208374
      ],
      [
        "LE",
        -10.282349603753577
      ],
      [
        "Dr",
        -10.282497926428006
      ],
      [
        "Ġtraffic",
        -10.282567973432633
      ],
      [
        "Ġblow",
        -10.282897979605824
      ],
      [
        "brough",
        -10.28335494745652
      ],
      [
        "Ġpop",
        -10.283597320546235
      ],
      [
        "Children",
        -10.28463584734665
      ],
      [
        "|Ċ",
        -10.284646368085442
      ],
      [
        "Ġhousehold",
        -10.284812231816378
      ],
      [
        "ĠLake",
        -10.285244868094654
      ],
      [
        "Ġletter",
        -10.2854075376058
      ],
      [
        "Ġbeam",
        -10.285546410642343
      ],
      [
        "Ġcounter",
        -10.28643629505198
      ],
      [
        "Ġgradual",
        -10.287004221907257
      ],
      [
        "ker",
        -10.287012673415918
      ],
      [
        "Ġnutrition",
        -10.28881613575199
      ],
      [
        "Ġlock",
        -10.288935121598508
      ],
      [
        "Ġaquarium",
        -10.28932510438072
      ],
      [
        "ĠProgram",
        -10.289845178572552
      ],
      [
        "Ġdatabase",
        -10.28999372763596
      ],
      [
        "ĠSu",
        -10.29021094645656
      ],
      [
        "Ġsizes",
        -10.291242428019531
      ],
      [
        "Ġaccident",
        -10.291519318873153
      ],
      [
        "Ġmild",
        -10.291879180769154
      ],
      [
        "ified",
        -10.29214624747022
      ],
      [
        "Ġroute",
        -10.292410515693756
      ],
      [
        "Ġgirl",
        -10.292425002677184
      ],
      [
        "ĠWhite",
        -10.293704825718487
      ],
      [
        "Ġwin",
        -10.29414354861908
      ],
      [
        "Ġride",
        -10.29420464017453
      ],
      [
        "ĠII",
        -10.294260003867794
      ],
      [
        "Although",
        -10.294581499602227
      ],
      [
        "lam",
        -10.295487842598224
      ],
      [
        "house",
        -10.295508610271188
      ],
      [
        "Ġtax",
        -10.295865132756669
      ],
      [
        "Ġloose",
        -10.296044631701974
      ],
      [
        "Ġremoval",
        -10.296230553754764
      ],
      [
        "Ġdedicate",
        -10.296434871286667
      ],
      [
        "Ġdebri",
        -10.296468944747854
      ],
      [
        "Ġclearly",
        -10.29724157643492
      ],
      [
        "Ġinfect",
        -10.29732336976466
      ],
      [
        "like",
        -10.29750643137434
      ],
      [
        "Ġfacilit",
        -10.29781818256108
      ],
      [
        "Ġcombine",
        -10.29800237483488
      ],
      [
        "Ġconsum",
        -10.298428276859678
      ],
      [
        "Ġpond",
        -10.298465170071871
      ],
      [
        "ĠEvery",
        -10.298569608541673
      ],
      [
        "aught",
        -10.299804022259096
      ],
      [
        "RE",
        -10.300522550696208
      ],
      [
        "Ġsmoke",
        -10.300839407305135
      ],
      [
        "ĠDis",
        -10.300955950950076
      ],
      [
        "Not",
        -10.301179992203323
      ],
      [
        "Ġprofessor",
        -10.301201704533709
      ],
      [
        "Ġsurvival",
        -10.30145477692366
      ],
      [
        "ĠInternet",
        -10.30230840298865
      ],
      [
        "uff",
        -10.302721388912303
      ],
      [
        "Ġbean",
        -10.303770539855416
      ],
      [
        "Ġwarming",
        -10.304277924964328
      ],
      [
        "Ġanalyze",
        -10.304363392429437
      ],
      [
        "see",
        -10.304633104135744
      ],
      [
        "Ġrocks",
        -10.305043607962574
      ],
      [
        "Ġintroduc",
        -10.3053537559238
      ],
      [
        "Ġnitrogen",
        -10.306020026284694
      ],
      [
        "Ġminimal",
        -10.306313856564676
      ],
      [
        "rap",
        -10.30664954038528
      ],
      [
        "Ġfixed",
        -10.307325780394866
      ],
      [
        "ade",
        -10.30742856311386
      ],
      [
        "Ġinterface",
        -10.307471844389646
      ],
      [
        "Ġguess",
        -10.308402834827604
      ],
      [
        "IN",
        -10.308657407854284
      ],
      [
        "ĠLight",
        -10.309040924683956
      ],
      [
        "Ġsight",
        -10.309133513835684
      ],
      [
        "Ġaccessib",
        -10.309379646682808
      ],
      [
        "Ġsouth",
        -10.309915344871644
      ],
      [
        "ĠLearning",
        -10.310039437385448
      ],
      [
        "wood",
        -10.31037906365666
      ],
      [
        "ĠAfrican",
        -10.310408406670078
      ],
      [
        "Ġ<",
        -10.310432815230271
      ],
      [
        "ark",
        -10.311275343223349
      ],
      [
        "Ġwonderful",
        -10.31137531676493
      ],
      [
        "til",
        -10.311694642939246
      ],
      [
        "port",
        -10.312062926259348
      ],
      [
        "har",
        -10.312467419595368
      ],
      [
        "Ġcontaining",
        -10.312630400185157
      ],
      [
        "Ġtrial",
        -10.31284844075927
      ],
      [
        "Ġweigh",
        -10.313097731106366
      ],
      [
        "Ġfamous",
        -10.313227290983658
      ],
      [
        "Ġdisorders",
        -10.314193443466472
      ],
      [
        "ĠFree",
        -10.314969139310197
      ],
      [
        "Ġthrive",
        -10.314987876271257
      ],
      [
        "Ġobserv",
        -10.315341235941546
      ],
      [
        "bit",
        -10.316769376182693
      ],
      [
        "-b",
        -10.318164006053143
      ],
      [
        "Ġrice",
        -10.31864042420592
      ],
      [
        "Ġdigest",
        -10.319010365196478
      ],
      [
        "Ġrais",
        -10.31908032757998
      ],
      [
        "Ġvet",
        -10.319127202205593
      ],
      [
        "well",
        -10.319458163068807
      ],
      [
        "Ġrely",
        -10.320125009069898
      ],
      [
        "Ġvacuum",
        -10.320502667852448
      ],
      [
        "Ġvast",
        -10.320678151359484
      ],
      [
        "ĠControl",
        -10.32074198881878
      ],
      [
        "istic",
        -10.32097970712418
      ],
      [
        "her",
        -10.3209935236397
      ],
      [
        "Ġcorner",
        -10.321679957988106
      ],
      [
        "ĠBar",
        -10.32176479110138
      ],
      [
        "ĠSa",
        -10.322061261113248
      ],
      [
        "ĠProject",
        -10.32267928294458
      ],
      [
        "ST",
        -10.32268323311881
      ],
      [
        "Ġcomput",
        -10.322943891754951
      ],
      [
        "Ġveterinarian",
        -10.322968894637436
      ],
      [
        "Ġdrill",
        -10.323116569042094
      ],
      [
        "Ġmeasurements",
        -10.323267104169348
      ],
      [
        "Ġparticipat",
        -10.323284611478094
      ],
      [
        "Despite",
        -10.325241106412363
      ],
      [
        "Ġexciting",
        -10.325455726348348
      ],
      [
        "Ġmenu",
        -10.325946964914747
      ],
      [
        "Ġdiagnosi",
        -10.326001452233314
      ],
      [
        "Ġreceiv",
        -10.326128507059448
      ],
      [
        "Ġevaluate",
        -10.326913319583664
      ],
      [
        "Ġfertilizer",
        -10.327633281852716
      ],
      [
        "Ġinflammation",
        -10.327844318736474
      ],
      [
        "Ġborder",
        -10.327883861764578
      ],
      [
        "Ġstorm",
        -10.328247476428528
      ],
      [
        "Ġmodule",
        -10.32877152234291
      ],
      [
        "Ġplug",
        -10.328855223484446
      ],
      [
        ");",
        -10.32905669559051
      ],
      [
        "Ġdinosaur",
        -10.330294651700637
      ],
      [
        "Ġcampaign",
        -10.33030057639314
      ],
      [
        "Ġobes",
        -10.330320826577172
      ],
      [
        "ĠThrough",
        -10.33036916625689
      ],
      [
        "ĠCommon",
        -10.330502612254442
      ],
      [
        "Ġmanner",
        -10.330529984810475
      ],
      [
        "Ġcalculation",
        -10.331054778659391
      ],
      [
        "amp",
        -10.33164851942596
      ],
      [
        "Ġmeasurement",
        -10.332328508985375
      ],
      [
        "Ġdownload",
        -10.33299867014028
      ],
      [
        "Ġexcept",
        -10.333506878230532
      ],
      [
        "].",
        -10.333506912975832
      ],
      [
        "top",
        -10.333927916294943
      ],
      [
        "ĠOpen",
        -10.334230233953068
      ],
      [
        "ĠConsider",
        -10.334771363149084
      ],
      [
        "ĠTime",
        -10.334844235410497
      ],
      [
        "Â°",
        -10.334947274112222
      ],
      [
        "Ġmolecular",
        -10.335129748984954
      ],
      [
        "ĠNatural",
        -10.335450334247604
      ],
      [
        "ĠPM",
        -10.335605614196606
      ],
      [
        "IT",
        -10.336379019483957
      ],
      [
        "Ġfamiliar",
        -10.337307546763636
      ],
      [
        "Ġtown",
        -10.337391278523848
      ],
      [
        "ĠGuide",
        -10.339055271265146
      ],
      [
        "stock",
        -10.33923847307883
      ],
      [
        "Ġpolitical",
        -10.339959635122678
      ],
      [
        "âĢĭ",
        -10.340183675855258
      ],
      [
        "Ġchapter",
        -10.340186206511266
      ],
      [
        "Ġbreast",
        -10.340846951307803
      ],
      [
        "Ġthanks",
        -10.341047883973925
      ],
      [
        "Ġalter",
        -10.341447061743605
      ],
      [
        "Read",
        -10.341899654395911
      ],
      [
        "AC",
        -10.342290672092984
      ],
      [
        "Ġworse",
        -10.342419942128878
      ],
      [
        "Ġorange",
        -10.342762504688556
      ],
      [
        "weight",
        -10.343825637838702
      ],
      [
        "ĠRemember",
        -10.344355243070533
      ],
      [
        "ĠDC",
        -10.344538259389926
      ],
      [
        "Ġjuice",
        -10.344593061096049
      ],
      [
        "Ġtrouble",
        -10.344628379866538
      ],
      [
        "Ġchocolate",
        -10.345164808919932
      ],
      [
        "Ġcopper",
        -10.345206292122862
      ],
      [
        "Ġquantum",
        -10.34522051582384
      ],
      [
        "Ġadequate",
        -10.345240693075564
      ],
      [
        "Ġfacility",
        -10.346707449716494
      ],
      [
        "uk",
        -10.346785054943506
      ],
      [
        "Ġca",
        -10.346908466307813
      ],
      [
        "Ġdisc",
        -10.346940195967614
      ],
      [
        "ĠLife",
        -10.346987641393625
      ],
      [
        "Ġrespirator",
        -10.3474227421727
      ],
      [
        "Ġblind",
        -10.34756170870006
      ],
      [
        "Ġclothes",
        -10.34788337812212
      ],
      [
        "ĠWi",
        -10.348208463320024
      ],
      [
        "Don",
        -10.3482296758362
      ],
      [
        "Ġtruth",
        -10.348433512178044
      ],
      [
        "Ġgenerator",
        -10.34848321184164
      ],
      [
        "Ġregulate",
        -10.348607523585883
      ],
      [
        "Ġscore",
        -10.349120878392185
      ],
      [
        "Ġthoughts",
        -10.349379121866525
      ],
      [
        "jo",
        -10.349471267478089
      ],
      [
        "Ġprocedures",
        -10.349595948463422
      ],
      [
        "ĠPe",
        -10.35006126325678
      ],
      [
        "Ġradiation",
        -10.350282587277572
      ],
      [
        "Ġassistance",
        -10.350440912056866
      ],
      [
        "ĠPh",
        -10.350472864732488
      ],
      [
        "Ġapproache",
        -10.350474105317849
      ],
      [
        "Ġliver",
        -10.35049160540622
      ],
      [
        "Ġstring",
        -10.351578515570978
      ],
      [
        "Ġprotective",
        -10.3516513725872
      ],
      [
        "Ġplus",
        -10.352153331947584
      ],
      [
        "Ġentirely",
        -10.352606202456592
      ],
      [
        "Ġpossibly",
        -10.352683634569154
      ],
      [
        "Ġexplanation",
        -10.352683645883308
      ],
      [
        "Ġsenior",
        -10.352683846385869
      ],
      [
        "Ġmeasuring",
        -10.352683846961895
      ],
      [
        "Ġexchange",
        -10.353208531269669
      ],
      [
        "Ġcloud",
        -10.353355285664495
      ],
      [
        "CT",
        -10.353641593132387
      ],
      [
        "Ġears",
        -10.353811448609882
      ],
      [
        "ĠPleas",
        -10.354010110637123
      ],
      [
        "ĠOctober",
        -10.354119246501243
      ],
      [
        "Ġinsert",
        -10.354616185013615
      ],
      [
        "ĠLook",
        -10.354676156198394
      ],
      [
        "AT",
        -10.35491545354817
      ],
      [
        "mu",
        -10.355797314336185
      ],
      [
        "ĠEn",
        -10.355967070298345
      ],
      [
        "ĠChoos",
        -10.356346796036416
      ],
      [
        "ju",
        -10.356481569281382
      ],
      [
        "Ġwindows",
        -10.356584951306846
      ],
      [
        "Ġmineral",
        -10.357470178434514
      ],
      [
        "Ġserver",
        -10.35770637397212
      ],
      [
        "Ġapprove",
        -10.357779271969225
      ],
      [
        "Ġstrengthen",
        -10.357782045198803
      ],
      [
        "Ġdepression",
        -10.357907478525563
      ],
      [
        "Ġreact",
        -10.35854646082634
      ],
      [
        "\"The",
        -10.361020837018364
      ],
      [
        "Ġmassive",
        -10.361127107460074
      ],
      [
        "Ġinch",
        -10.361410894385202
      ],
      [
        "Ġcustom",
        -10.361601416684344
      ],
      [
        "Ġcrusher",
        -10.362069521574366
      ],
      [
        "Ġnet",
        -10.362244881163058
      ],
      [
        "Ġagriculture",
        -10.362797498424689
      ],
      [
        "Ġpepper",
        -10.362797808004917
      ],
      [
        "comp",
        -10.362893013092068
      ],
      [
        "Ġinitiative",
        -10.36291801457966
      ],
      [
        "Ġsuccessfully",
        -10.363270486477443
      ],
      [
        "Ġvector",
        -10.364531398880384
      ],
      [
        "Before",
        -10.364586811171446
      ],
      [
        "Ġscar",
        -10.36466069143338
      ],
      [
        "Ġexpose",
        -10.364704485369982
      ],
      [
        "Ġbehaviour",
        -10.36534202483006
      ],
      [
        "Introduction",
        -10.365362422854831
      ],
      [
        "Ġbigge",
        -10.365693721062756
      ],
      [
        "Ġdomain",
        -10.365739420321912
      ],
      [
        "Ġaward",
        -10.366465665361424
      ],
      [
        "Ġkinds",
        -10.366895170346794
      ],
      [
        "Ġdive",
        -10.367585832771285
      ],
      [
        "mat",
        -10.367663165820018
      ],
      [
        "ĠAr",
        -10.36779693492733
      ],
      [
        "Ġrear",
        -10.368848834307189
      ],
      [
        "CH",
        -10.369011626377132
      ],
      [
        "Ġkne",
        -10.369853911464364
      ],
      [
        "Ġcovers",
        -10.369911183574771
      ],
      [
        "Ġplays",
        -10.370008482319054
      ],
      [
        "Ġbelief",
        -10.370428802952148
      ],
      [
        "Ġmolecule",
        -10.370618683441032
      ],
      [
        "ĠpH",
        -10.370652771228444
      ],
      [
        "Ġreli",
        -10.371193649211012
      ],
      [
        "Ġembodiment",
        -10.37160684739744
      ],
      [
        "ĠHa",
        -10.371620906019569
      ],
      [
        "ĠCity",
        -10.371703190133918
      ],
      [
        "Ġlaborator",
        -10.37173220133568
      ],
      [
        "rie",
        -10.372675905589912
      ],
      [
        "Ġpassenger",
        -10.373015192468426
      ],
      [
        "Ġmammal",
        -10.373020725038224
      ],
      [
        "Ġshock",
        -10.373080262055485
      ],
      [
        "gle",
        -10.373116945181168
      ],
      [
        "Ġacids",
        -10.373132950159643
      ],
      [
        "Ġachiev",
        -10.373358191422035
      ],
      [
        "Ġpin",
        -10.373503416132312
      ],
      [
        "MS",
        -10.373598578114796
      ],
      [
        "Ġgram",
        -10.373745260406752
      ],
      [
        "Ġturning",
        -10.374238863666992
      ],
      [
        "iness",
        -10.374275927632493
      ],
      [
        "Ġcl",
        -10.374607884478907
      ],
      [
        "Ġprofit",
        -10.374779644844084
      ],
      [
        "Ġforget",
        -10.375019029147571
      ],
      [
        "Ġprey",
        -10.37551613376235
      ],
      [
        "ĠUV",
        -10.376348991831442
      ],
      [
        "Ġmice",
        -10.377206647694996
      ],
      [
        "Ġswimming",
        -10.378176313153809
      ],
      [
        "ĠAnimal",
        -10.37872114118056
      ],
      [
        "Ġbigger",
        -10.380101183771352
      ],
      [
        "Ġthreat",
        -10.380187479118373
      ],
      [
        "Ġagricultural",
        -10.3807466879467
      ],
      [
        "ĠEngland",
        -10.380747123857212
      ],
      [
        "Ġsouthern",
        -10.380752022494232
      ],
      [
        "late",
        -10.38101191965042
      ],
      [
        "rich",
        -10.382086045367682
      ],
      [
        "Ġgr",
        -10.383028863375149
      ],
      [
        "Ġcollected",
        -10.383066225676783
      ],
      [
        "Ġlisted",
        -10.383426319754069
      ],
      [
        "lid",
        -10.383448907851491
      ],
      [
        "Ġpeak",
        -10.38363234690689
      ],
      [
        "Ġsales",
        -10.383683706131604
      ],
      [
        "mph",
        -10.384138781745616
      ],
      [
        "Ġaffects",
        -10.384155734392904
      ],
      [
        "ĠLED",
        -10.385027193294857
      ],
      [
        "Since",
        -10.38615120803654
      ],
      [
        "ĠUp",
        -10.386287942063412
      ],
      [
        "Ġunlike",
        -10.3863445179351
      ],
      [
        "Ġdigesti",
        -10.386473805021629
      ],
      [
        "Ġsmok",
        -10.38679720718399
      ],
      [
        "Dur",
        -10.38683078802549
      ],
      [
        "Ġlicense",
        -10.38812934195867
      ],
      [
        "Ġgenome",
        -10.38854040255011
      ],
      [
        "Ġcopy",
        -10.388910403449142
      ],
      [
        "Ġperiods",
        -10.38908399508318
      ],
      [
        "ĠWeb",
        -10.389246829206428
      ],
      [
        "ĠEx",
        -10.389744493722546
      ],
      [
        "Ġbattle",
        -10.389910992761653
      ],
      [
        "ĠToday",
        -10.390197006323412
      ],
      [
        "han",
        -10.39037636211904
      ],
      [
        "Ġrecognition",
        -10.391149894293346
      ],
      [
        "Ġopposite",
        -10.391154681442616
      ],
      [
        "Ġdrie",
        -10.391300275698937
      ],
      [
        "Ġcooked",
        -10.391623900474706
      ],
      [
        "ĠEast",
        -10.39206493384582
      ],
      [
        "Ġplayed",
        -10.392508464370133
      ],
      [
        "Ġsold",
        -10.393603048314958
      ],
      [
        "Ġnorthern",
        -10.39377437116757
      ],
      [
        "@",
        -10.39427396759638
      ],
      [
        "Ġcontract",
        -10.394318574132932
      ],
      [
        "Ġwearing",
        -10.39475535725898
      ],
      [
        "Ġtough",
        -10.394870660077563
      ],
      [
        "Ġhomes",
        -10.396207943515478
      ],
      [
        "ĠWindow",
        -10.396349471226715
      ],
      [
        "Ġalign",
        -10.396359562990307
      ],
      [
        "Ġalumin",
        -10.39639589326725
      ],
      [
        "Ġphysics",
        -10.39639886627416
      ],
      [
        "Ġrural",
        -10.396424618446025
      ],
      [
        "Ġtrend",
        -10.396440413057764
      ],
      [
        "Pro",
        -10.396498021670965
      ],
      [
        "Ġclub",
        -10.39661686931319
      ],
      [
        "Ġvariant",
        -10.396852207564102
      ],
      [
        "ĠLong",
        -10.39705048384687
      ],
      [
        "Ġcookie",
        -10.397552914035552
      ],
      [
        "Ġmining",
        -10.397817441814194
      ],
      [
        "RA",
        -10.398443421644124
      ],
      [
        "most",
        -10.39866188028119
      ],
      [
        "Ġnarrow",
        -10.399060093209322
      ],
      [
        "Ġsteam",
        -10.399249045921362
      ],
      [
        "ĠPart",
        -10.399451717180185
      ],
      [
        "Ġmin",
        -10.399717104990064
      ],
      [
        "ĠTwo",
[...]
