{
  "version": "1.0",
  "truncation": null,
  "padding": null,
  "added_tokens": [
    {
      "id": 0,
      "content": "<|bos|>",
      "single_word": false,
      "lstrip": false,
      "rstrip": false,
      "normalized": false,
      "special": true
    },
    {
      "id": 1,
      "content": "<|user_start|>",
      "single_word": false,
      "lstrip": false,
      "rstrip": false,
      "normalized": false,
      "special": true
    },
    {
      "id": 2,
      "content": "<|user_end|>",
      "single_word": false,
      "lstrip": false,
      "rstrip": false,
      "normalized": false,
      "special": true
    },
    {
      "id": 3,
      "content": "<|assistant_start|>",
      "single_word": false,
      "lstrip": false,
      "rstrip": false,
      "normalized": false,
      "special": true
    },
    {
      "id": 4,
      "content": "<|assistant_end|>",
      "single_word": false,
      "lstrip": false,
      "rstrip": false,
      "normalized": false,
      "special": true
    },
    {
      "id": 5,
      "content": "<|python_start|>",
      "single_word": false,
      "lstrip": false,
      "rstrip": false,
      "normalized": false,
      "special": true
    },
    {
      "id": 6,
      "content": "<|python_end|>",
      "single_word": false,
      "lstrip": false,
      "rstrip": false,
      "normalized": false,
      "special": true
    },
    {
      "id": 7,
      "content": "<|output_start|>",
      "single_word": false,
      "lstrip": false,
      "rstrip": false,
      "normalized": false,
      "special": true
    },
    {
      "id": 8,
      "content": "<|output_end|>",
      "single_word": false,
      "lstrip": false,
      "rstrip": false,
      "normalized": false,
      "special": true
    },
    {
      "id": 9,
      "content": "<|unk|>",
      "single_word": false,
      "lstrip": false,
      "rstrip": false,
      "normalized": false,
      "special": true
    }
  ],
  "normalizer": null,
  "pre_tokenizer": {
    "type": "Sequence",
    "pretokenizers": [
      {
        "type": "Split",
        "pattern": {
          "Regex": "'(?i:[sdmt]|ll|ve|re)|[^\\r\\n\\p{L}\\p{N}]?+\\p{L}+|\\p{N}{1,2}| ?[^\\s\\p{L}\\p{N}]++[\\r\\n]*|\\s*[\\r\\n]|\\s+(?!\\S)|\\s+"
        },
        "behavior": "Isolated",
        "invert": false
      },
      {
        "type": "ByteLevel",
        "add_prefix_space": false,
        "trim_offsets": true,
        "use_regex": false
      }
    ]
  },
  "post_processor": {
    "type": "TemplateProcessing",
    "single": [
      {
        "Sequence": {
          "id": "A",
          "type_id": 0
        }
      }
    ],
    "pair": [
      {
        "Sequence": {
          "id": "A",
          "type_id": 0
        }
      },
      {
        "Sequence": {
          "id": "B",
          "type_id": 1
        }
      }
    ],
    "special_tokens": {}
  },
  "decoder": null,
  "model": {
    "type": "Unigram",
    "unk_id": 9,
    "vocab": [
      [
        "<|bos|>",
        0.0
      ],
      [
        "<|user_start|>",
        0.0
      ],
      [
        "<|user_end|>",
        0.0
      ],
      [
        "<|assistant_start|>",
        0.0
      ],
      [
        "<|assistant_end|>",
        0.0
      ],
      [
        "<|python_start|>",
        0.0
      ],
      [
        "<|python_end|>",
        0.0
      ],
      [
        "<|output_start|>",
        0.0
      ],
      [
        "<|output_end|>",
        0.0
      ],
      [
        "<|unk|>",
        0.0
      ],
      [
        "Ġ",
        -2.183750618081854
      ],
      [
        "s",
        -3.0466159128927472
      ],
      [
        ",",
        -3.564576960602978
      ],
      [
        "Ġthe",
        -3.5916535848188555
      ],
      [
        ".",
        -3.847720948332306
      ],
      [
        "a",
        -4.088748361979986
      ],
      [
        "Ġof",
        -4.236008682450409
      ],
      [
        "Ġto",
        -4.369749173383216
      ],
      [
        "Ġand",
        -4.481990717613897
      ],
      [
        "d",
        -4.509077720854384
      ],
      [
        "t",
        -4.515207896161694
      ],
      [
        "ing",
        -4.559819181617135
      ],
      [
        "e",
        -4.560779568355731
      ],
      [
        "y",
        -4.788143059899101
      ],
      [
        "Ġin",
        -4.824168551858863
      ],
      [
        "o",
        -4.859119926228567
      ],
      [
        "'",
        -5.026082289169413
      ],
      [
        "and",
        -5.054157990468299
      ],
      [
        "i",
        -5.130170598282854
      ],
      [
        "0",
        -5.16853178889669
      ],
      [
        "Ġthat",
        -5.171771525632479
      ],
      [
        "Ċ",
        -5.1857230131788725
      ],
      [
        "Ġfor",
        -5.20153321867074
      ],
      [
        ":",
        -5.322399835331176
      ],
      [
        "n",
        -5.339308525984746
      ],
      [
        "1",
        -5.340696148063799
      ],
      [
        "ly",
        -5.409180860211576
      ],
      [
        ".ĊĊ",
        -5.441899335293128
      ],
      [
        "Ġyou",
        -5.4450652358112865
      ],
      [
        "Ġwith",
        -5.456433147746903
      ],
      [
        "is",
        -5.521721081817075
      ],
      [
        ".Ċ",
        -5.532885439125577
      ],
      [
        "2",
        -5.574267557083777
      ],
      [
        "Ġbe",
        -5.662175437699844
      ],
      [
        "Ġcan",
        -5.678959496375466
      ],
      [
        "r",
        -5.685757843647233
      ],
      [
        "Ġis",
        -5.690790564669378
      ],
      [
        "Ġare",
        -5.692423227035379
      ],
      [
        "-",
        -5.795276327352525
      ],
      [
        "ed",
        -5.798647609258831
      ],
      [
        "Ġyour",
        -5.823660226089242
      ],
      [
        "on",
        -5.8334938304018245
      ],
      [
        "ĊĊ",
        -5.858648301442548
      ],
      [
        "the",
        -5.9191493061188005
      ],
      [
        "(",
        -6.032798748487233
      ],
      [
        "Ġa",
        -6.043065667906584
      ],
      [
        "Ġfrom",
        -6.043413821907341
      ],
      [
        "to",
        -6.050366068854295
      ],
      [
        "Ġhave",
        -6.078711613978653
      ],
      [
        "f",
        -6.079851071653403
      ],
      [
        ")",
        -6.122591239175163
      ],
      [
        "\"",
        -6.131249941843212
      ],
      [
        "ĠThe",
        -6.157860686716674
      ],
      [
        "3",
        -6.167320903855206
      ],
      [
        "I",
        -6.186617567058752
      ],
      [
        "Ġthis",
        -6.2073920236622
      ],
      [
        "in",
        -6.220896654846486
      ],
      [
        "?",
        -6.230994476597784
      ],
      [
        "it",
        -6.242284537081794
      ],
      [
        "Ġor",
        -6.247805626753854
      ],
      [
        "5",
        -6.264112413925371
      ],
      [
        "Ġby",
        -6.267800073844734
      ],
      [
        "Ġnot",
        -6.271236278251553
      ],
      [
        "l",
        -6.323737467949556
      ],
      [
        "Ġtheir",
        -6.356749302393576
      ],
      [
        "Ġwill",
        -6.360610497928086
      ],
      [
        "The",
        -6.36341186342289
      ],
      [
        "ĠI",
        -6.387650002571146
      ],
      [
        "4",
        -6.415588372763745
      ],
      [
        "Ġan",
        -6.471503575383943
      ],
      [
        "or",
        -6.497151555283629
      ],
      [
        "Ġas",
        -6.5155099383927695
      ],
      [
        "m",
        -6.516949670405211
      ],
      [
        "Ġmore",
        -6.524128860011503
      ],
      [
        "Ġthey",
        -6.529925184174235
      ],
      [
        "9",
        -6.531690229385891
      ],
      [
        "are",
        -6.533191791977302
      ],
      [
        "of",
        -6.567113212532519
      ],
      [
        "Ġwas",
        -6.583661275762056
      ],
      [
        "Ġbut",
        -6.643672949757624
      ],
      [
        "Ġwhich",
        -6.67600896254125
      ],
      [
        "6",
        -6.6833930535710895
      ],
      [
        "Question",
        -6.712565871227145
      ],
      [
        "8",
        -6.739587611843245
      ],
      [
        "Ġhas",
        -6.76493187877511
      ],
      [
        "Ġalso",
        -6.766233988874921
      ],
      [
        "ĠAnswer",
        -6.788500606711905
      ],
      [
        "A",
        -6.789064003126748
      ],
      [
        "Ġwe",
        -6.803185533567641
      ],
      [
        "Ġabout",
        -6.824082302070384
      ],
      [
        "7",
        -6.838454894974081
      ],
      [
        "h",
        -6.893759675271628
      ],
      [
        "Ġmay",
        -6.8952802994090625
      ],
      [
        "Ġwhen",
        -6.899791293357284
      ],
      [
        "Ġneed",
        -6.9215867075387045
      ],
      [
        "Ġlike",
        -6.939330572810897
      ],
      [
        "c",
        -6.958728233327664
      ],
      [
        "Ġthem",
        -6.978730886371441
      ],
      [
        "Ġtime",
        -6.980956217557603
      ],
      [
        "Ġall",
        -7.007491985006077
      ],
      [
        "Ġother",
        -7.020779274773497
      ],
      [
        "Ġinto",
        -7.025046820336932
      ],
      [
        "ies",
        -7.029777582164893
      ],
      [
        "Ġsome",
        -7.0375135937257784
      ],
      [
        "Ġit",
        -7.070310906025135
      ],
      [
        "Ġup",
        -7.0976005188350015
      ],
      [
        "Ġhow",
        -7.100005330383711
      ],
      [
        "Ġout",
        -7.138920616083649
      ],
      [
        "Ġthere",
        -7.141116100015555
      ],
      [
        "Ġthan",
        -7.1436866360717435
      ],
      [
        "an",
        -7.147998835808437
      ],
      [
        "Ġthese",
        -7.160494928401395
      ],
      [
        "one",
        -7.171723889532881
      ],
      [
        "g",
        -7.187947332007166
      ],
      [
        "ĠThis",
        -7.192100434166006
      ],
      [
        "Ġmake",
        -7.197454647958507
      ],
      [
        "Ġwhat",
        -7.208402025498447
      ],
      [
        "Ġwater",
        -7.2360524177550705
      ],
      [
        "such",
        -7.236868024753951
      ],
      [
        "at",
        -7.244511961041745
      ],
      [
        "Ġdo",
        -7.251121423430375
      ],
      [
        "ĠWhat",
        -7.25177073915482
      ],
      [
        "Ġuse",
        -7.2592424954381105
      ],
      [
        "Ġhelp",
        -7.2713392074828
      ],
      [
        "ĠA",
        -7.277408014617661
      ],
      [
        "u",
        -7.287074329213954
      ],
      [
        "Ġbeen",
        -7.296652088167873
      ],
      [
        "Ġmost",
        -7.3011369707314415
      ],
      [
        "Ġany",
        -7.301703991697748
      ],
      [
        "ĠIt",
        -7.307699824590909
      ],
      [
        "Ġshould",
        -7.311349037459429
      ],
      [
        "Ġwould",
        -7.3158846974057585
      ],
      [
        "Ġwho",
        -7.319040947851152
      ],
      [
        "Ġ(",
        -7.3444280697594095
      ],
      [
        "b",
        -7.36772577497654
      ],
      [
        "Ġthrough",
        -7.372760439721352
      ],
      [
        "Ġpeople",
        -7.377659041437498
      ],
      [
        "re",
        -7.384260103120981
      ],
      [
        "Ġwere",
        -7.387569231401715
      ],
      [
        ";",
        -7.394872929837444
      ],
      [
        "/",
        -7.412632077726521
      ],
      [
        "ĠIn",
        -7.414167452474722
      ],
      [
        "Ġjust",
        -7.434718863861143
      ],
      [
        "Ġnew",
        -7.438473131648683
      ],
      [
        "able",
        -7.453369065886088
      ],
      [
        "Ġon",
        -7.458773359261864
      ],
      [
        "?Ċ",
        -7.465679530119974
      ],
      [
        "as",
        -7.470933813984999
      ],
      [
        "Ġonly",
        -7.47245368488451
      ],
      [
        "Ġget",
        -7.490526190102164
      ],
      [
        "Ġwell",
        -7.507289920103679
      ],
      [
        "Ġwork",
        -7.510205482828438
      ],
      [
        "What",
        -7.52861991530453
      ],
      [
        "Ġmany",
        -7.531156978216018
      ],
      [
        "Ġfirst",
        -7.533693220360675
      ],
      [
        "Ġmy",
        -7.544210281842933
      ],
      [
        "Ġdifferent",
        -7.547803236528127
      ],
      [
        "Ġprovide",
        -7.548093573895331
      ],
      [
        "out",
        -7.550984014371238
      ],
      [
        "Ġused",
        -7.562607455443006
      ],
      [
        "Ġover",
        -7.565942936842122
      ],
      [
        "Ġcould",
        -7.567622300718858
      ],
      [
        "Ġi",
        -7.572091907451105
      ],
      [
        "our",
        -7.572553702066808
      ],
      [
        "Ġwhere",
        -7.587406132346414
      ],
      [
        "Ġbetween",
        -7.612566331741712
      ],
      [
        "S",
        -7.6173664823362195
      ],
      [
        "!",
        -7.640328331422605
      ],
      [
        "Ġtwo",
        -7.643449988354094
      ],
      [
        "Ġtake",
        -7.653223226379021
      ],
      [
        "Ġbecause",
        -7.654494557125789
      ],
      [
        "es",
        -7.657099993660944
      ],
      [
        "Ġhigh",
        -7.660614719706867
      ],
      [
        "w",
        -7.666798650025035
      ],
      [
        "Ġpart",
        -7.675661293189727
      ],
      [
        "This",
        -7.684638985083321
      ],
      [
        "Ġeven",
        -7.69209578506571
      ],
      [
        "Ġsystem",
        -7.704347439227195
      ],
      [
        "Ġhealth",
        -7.716470353074056
      ],
      [
        "Ġchange",
        -7.720306351639898
      ],
      [
        "Ġknow",
        -7.725771845249173
      ],
      [
        "al",
        -7.731061104858179
      ],
      [
        "Ġimportant",
        -7.738274424952845
      ],
      [
        "?ĊĊ",
        -7.7400476443500015
      ],
      [
        "Ġgood",
        -7.752483557723101
      ],
      [
        "Ġwant",
        -7.752551666347431
      ],
      [
        "Ġlong",
        -7.757090274763631
      ],
      [
        "Ġmuch",
        -7.759427027754
      ],
      [
        "Ġfood",
        -7.766185674008836
      ],
      [
        "Ġdoes",
        -7.769009156451168
      ],
      [
        "Ġlook",
        -7.7697970923883055
      ],
      [
        "p",
        -7.788517649860825
      ],
      [
        "Ġsee",
        -7.797774511180348
      ],
      [
        "ever",
        -7.800922637387349
      ],
      [
        "ĠYou",
        -7.807642992212367
      ],
      [
        "for",
        -7.81229384755001
      ],
      [
        "ĠIf",
        -7.81251058386355
      ],
      [
        "D",
        -7.831093528672173
      ],
      [
        "around",
        -7.833912533278912
      ],
      [
        "Ġevery",
        -7.845618393438009
      ],
      [
        "ĠThey",
        -7.851149429034894
      ],
      [
        "How",
        -7.852293654013315
      ],
      [
        "Ġresult",
        -7.855822207134113
      ],
      [
        "Ġafter",
        -7.855976636942644
      ],
      [
        "Ġbeing",
        -7.858564698631926
      ],
      [
        "âĢĻ",
        -7.86069529384532
      ],
      [
        "us",
        -7.865895150587297
      ],
      [
        "Ġduring",
        -7.8666837337498094
      ],
      [
        "In",
        -7.86684208296552
      ],
      [
        "Ġyears",
        -7.875855182628912
      ],
      [
        "Ġits",
        -7.879177278921708
      ],
      [
        "Ġvery",
        -7.887617563651688
      ],
      [
        "Ġwhile",
        -7.891980269812072
      ],
      [
        "Ġbefore",
        -7.894598789012064
      ],
      [
        "ve",
        -7.895162144915051
      ],
      [
        "Ġway",
        -7.896898456954623
      ],
      [
        "Ġone",
        -7.903536720394823
      ],
      [
        "Ġcause",
        -7.910670148800356
      ],
      [
        "Ġno",
        -7.910920099489494
      ],
      [
        "Ġnumber",
        -7.920523191007781
      ],
      [
        "C",
        -7.92211540059176
      ],
      [
        "Ġbest",
        -7.926282764261614
      ],
      [
        "if",
        -7.936338906168944
      ],
      [
        "Ġprocess",
        -7.943964196098673
      ],
      [
        "Ġsame",
        -7.944737695025611
      ],
      [
        "Ġlevel",
        -7.950598011804864
      ],
      [
        "Ġusing",
        -7.950713059144725
      ],
      [
        "Ġback",
        -7.950795169137745
      ],
      [
        "ness",
        -7.955850727250384
      ],
      [
        "Ġhad",
        -7.957519232643606
      ],
      [
        "Ġbody",
        -7.960755481638499
      ],
      [
        "Ġdog",
        -7.962207271206252
      ],
      [
        "Ġoften",
        -7.962785997262177
      ],
      [
        "T",
        -7.966082158691523
      ],
      [
        "Ġfollow",
        -7.967423139905842
      ],
      [
        "Ġexperience",
        -7.968751636868182
      ],
      [
        "ally",
        -7.971100754840017
      ],
      [
        "Ġinclude",
        -7.978519414753471
      ],
      [
        "Ġfound",
        -7.979392716754326
      ],
      [
        "ĠC",
        -7.980634104404768
      ],
      [
        "Ġlife",
        -7.983759349976179
      ],
      [
        "be",
        -7.984598721550837
      ],
      [
        ").",
        -7.987426422716644
      ],
      [
        "Ġat",
        -7.9876268497904785
      ],
      [
        "Ġcommon",
        -7.995908924715001
      ],
      [
        "Ġallow",
        -7.997201703944389
      ],
      [
        "ity",
        -7.9993338723466625
      ],
      [
        "Ġdon",
        -8.000714450196948
      ],
      [
        "Ġworld",
        -8.010851420967949
      ],
      [
        "Ġsmall",
        -8.013025687863102
      ],
      [
        "by",
        -8.019254757723285
      ],
      [
        "Ġplant",
        -8.021896356601175
      ],
      [
        "Ġyear",
        -8.029780073029997
      ],
      [
        "Ġfind",
        -8.038418134661107
      ],
      [
        "all",
        -8.038500971498554
      ],
      [
        "Ġhome",
        -8.039952595130213
      ],
      [
        "Ġkeep",
        -8.041073606926199
      ],
      [
        "ĠHow",
        -8.041744414723006
      ],
      [
        "Ġexample",
        -8.043409614477053
      ],
      [
        "Ġboth",
        -8.045951282441148
      ],
      [
        "Ġhis",
        -8.04795479045898
      ],
      [
        "Ġlight",
        -8.048859433687184
      ],
      [
        "Ġmean",
        -8.055295791382948
      ],
      [
        "that",
        -8.056548316771442
      ],
      [
        "Ġsaid",
        -8.05924543280198
      ],
      [
        "other",
        -8.060087500784736
      ],
      [
        "Ġdata",
        -8.068081802798407
      ],
      [
        "its",
        -8.073505841217465
      ],
      [
        "Ġinformation",
        -8.084642533193074
      ],
      [
        "Ġstudents",
        -8.085700647365256
      ],
      [
        "Ġmight",
        -8.086991467693721
      ],
      [
        "Ġpower",
        -8.088856121553317
      ],
      [
        "Ġright",
        -8.097241323125084
      ],
      [
        "he",
        -8.104306131289885
      ],
      [
        "Ġdown",
        -8.104782950858056
      ],
      [
        "ĠâĢĵ",
        -8.109089127526818
      ],
      [
        "Ġday",
        -8.110029529610665
      ],
      [
        "%",
        -8.115505399132918
      ],
      [
        "Ġincrease",
        -8.115896037330439
      ],
      [
        "Ġenergy",
        -8.120837755142688
      ],
      [
        "Ġthink",
        -8.122804335837536
      ],
      [
        "Ġconsider",
        -8.12852101844612
      ],
      [
        "ability",
        -8.141892850402087
      ],
      [
        "Ġmade",
        -8.151117479375717
      ],
      [
        "Ġspecies",
        -8.15391595104126
      ],
      [
        "Ġstart",
        -8.155599788796014
      ],
      [
        "Ġdesign",
        -8.158654860790444
      ],
      [
        "ĠFor",
        -8.158808765292797
      ],
      [
        "Ġlarge",
        -8.162228446517107
      ],
      [
        "Ġunder",
        -8.168810705475153
      ],
      [
        "used",
        -8.170983180930932
      ],
      [
        "Ġstudy",
        -8.173006888007642
      ],
      [
        "Ġbetter",
        -8.175866553493613
      ],
      [
        "Ġresearch",
        -8.178340137824417
      ],
      [
        "Ġplace",
        -8.179463947541317
      ],
      [
        "ĠWe",
        -8.181776044221797
      ],
      [
        "Ġplants",
        -8.195470554981416
      ],
      [
        "),",
        -8.202847884285376
      ],
      [
        "less",
        -8.214499346146383
      ],
      [
        "Ġgreat",
        -8.214634793487662
      ],
      [
        "Ġgo",
        -8.216912504559218
      ],
      [
        "Ġshow",
        -8.21734549292237
      ],
      [
        "Ġsupport",
        -8.218417638131813
      ],
      [
        "Ġvalue",
        -8.222207130064199
      ],
      [
        "Ġincluding",
        -8.226471165799868
      ],
      [
        "Ġtemperature",
        -8.226489887755795
      ],
      [
        "Ġair",
        -8.227250312854466
      ],
      [
        "Ġcolor",
        -8.23336039264574
      ],
      [
        "Ġhuman",
        -8.237551307767419
      ],
      [
        ":ĊĊ",
        -8.240674677608151
      ],
      [
        "Ġeach",
        -8.242603245109574
      ],
      [
        "use",
        -8.245308654795192
      ],
      [
        "ll",
        -8.248496128033805
      ],
      [
        "Ġstill",
        -8.248606371650403
      ],
      [
        "Ġcontrol",
        -8.250835443702577
      ],
      [
        "ĠTo",
        -8.253313069505424
      ],
      [
        "Ġgive",
        -8.260482447303541
      ],
      [
        "quality",
        -8.265297723297756
      ],
      [
        "ation",
        -8.267714823834343
      ],
      [
        "Ġcreate",
        -8.267771403499681
      ],
      [
        "Ġproject",
        -8.26800835425043
      ],
      [
        "Ġfew",
        -8.271095403301254
      ],
      [
        "Ġb",
        -8.273808299047195
      ],
      [
        "Ġso",
        -8.276772766330705
      ],
      [
        "Ġcase",
        -8.28104803540938
      ],
      [
        "Ġprevent",
        -8.285181497027157
      ],
      [
        "Ġpotential",
        -8.286072858612101
      ],
      [
        "Ġensure",
        -8.287692473934058
      ],
      [
        "Ġoffer",
        -8.288389498274068
      ],
      [
        "Ġtype",
        -8.290292105475928
      ],
      [
        "When",
        -8.294868759272331
      ],
      [
        "Ġchildren",
        -8.302697712004436
      ],
      [
        "Ġrisk",
        -8.303533046593344
      ],
      [
        "Ġth",
        -8.3038366173671
      ],
      [
        "ĠThese",
        -8.304690295307243
      ],
      [
        "Ġnatural",
        -8.305724504555565
      ],
      [
        "Ġpoint",
        -8.306068896529338
      ],
      [
        "x",
        -8.30619906446787
      ],
      [
        "Ġmust",
        -8.309647416599166
      ],
      [
        "âĢĵ",
        -8.312476434783054
      ],
      [
        "Ġour",
        -8.324396780054657
      ],
      [
        "B",
        -8.324780487680798
      ],
      [
        "Ġher",
        -8.328366595985495
      ],
      [
        "ĠB",
        -8.329378319527173
      ],
      [
        "Ġwh",
        -8.338639315455186
      ],
      [
        "Ġoff",
        -8.340236172076569
      ],
      [
        "Ġlead",
        -8.342869403899961
      ],
      [
        "Ġmodel",
        -8.346974555155683
      ],
      [
        "Ġthree",
        -8.34789428146106
      ],
      [
        "Ġblood",
        -8.351242291814735
      ],
      [
        "Ġcar",
        -8.351633931258565
      ],
      [
        "known",
        -8.358052647435052
      ],
      [
        "Ġdisease",
        -8.359103733354896
      ],
      [
        "Ġthings",
        -8.360657082208526
      ],
      [
        "ĠBut",
        -8.372573232234885
      ],
      [
        "Ġperson",
        -8.381919691338913
      ],
      [
        "th",
        -8.383945620971136
      ],
      [
        "Ġindividual",
        -8.384058491914438
      ],
      [
        "Ġcost",
        -8.384236980793869
      ],
      [
        "Ġenvironment",
        -8.38563284275696
      ],
      [
        "Ġproduce",
        -8.386738631254227
      ],
      [
        "ĠAnd",
        -8.38852372266396
      ],
      [
        "Ġgrow",
        -8.388534209950844
      ],
      [
        "Ġsomething",
        -8.38922608691313
      ],
      [
        "k",
        -8.393007202506242
      ],
      [
        "Ġcalled",
        -8.39635206723569
      ],
      [
        "...",
        -8.400031769368614
      ],
      [
        "Ġtest",
        -8.412010209152394
      ],
      [
        "Ġt",
        -8.420022928718359
      ],
      [
        "Ġcome",
        -8.421783239467377
      ],
      [
        "Ġpressure",
        -8.422597018795653
      ],
      [
        "Ġmain",
        -8.425292194138962
      ],
      [
        "you",
        -8.42956322322633
      ],
      [
        "Ġsoil",
        -8.430101218893974
      ],
      [
        ":Ċ",
        -8.430518027208283
      ],
      [
        "Ġwithin",
        -8.434027066035929
      ],
      [
        "Ġcells",
        -8.437897049788141
      ],
      [
        "Ġform",
        -8.437956104876974
      ],
      [
        "um",
        -8.438218588861211
      ],
      [
        "Ġtreatment",
        -8.438914052105904
      ],
      [
        "Ġsecond",
        -8.438943599572587
      ],
      [
        "ĠS",
        -8.43896166760808
      ],
      [
        "Ġrequire",
        -8.440636889344013
      ],
      [
        "Ġarea",
        -8.444603650299715
      ],
      [
        "Ġanother",
        -8.448999429071629
      ],
      [
        "Ġcurrent",
        -8.449030811539004
      ],
      [
        "Ġfactor",
        -8.450570827123206
      ],
      [
        "each",
        -8.45497432018768
      ],
      [
        "Ġcare",
        -8.455098904138259
      ],
      [
        "Ġschool",
        -8.455829366152539
      ],
      [
        "Ġeffective",
        -8.456046481159513
      ],
      [
        "Ġdue",
        -8.458963938061967
      ],
      [
        "can",
        -8.45987722505578
      ],
      [
        "Ġspace",
        -8.461817031118482
      ],
      [
        "Ġbecome",
        -8.463602257841401
      ],
      [
        "Ġalway",
        -8.464701310410135
      ],
      [
        "Ġpossible",
        -8.464709105841745
      ],
      [
        "Ġdevelop",
        -8.466644281126127
      ],
      [
        "Ġimpact",
        -8.473713535316296
      ],
      [
        "Ġspecific",
        -8.47507360883936
      ],
      [
        "have",
        -8.477545782595982
      ],
      [
        "using",
        -8.483230930416013
      ],
      [
        "Ġreal",
        -8.486104360814185
      ],
      [
        "!Ċ",
        -8.491434330247788
      ],
      [
        "Ġlearning",
        -8.492795449107465
      ],
      [
        "Ġlearn",
        -8.493655683899703
      ],
      [
        "Ġper",
        -8.493916511675748
      ],
      [
        "Ġheat",
        -8.49540745713611
      ],
      [
        "Ġamount",
        -8.500451697954453
      ],
      [
        "âĢĶ",
        -8.500661473849858
      ],
      [
        "Ġvarious",
        -8.50173458622373
      ],
      [
        "age",
        -8.502815972959482
      ],
      [
        "Ġreason",
        -8.503687407343094
      ],
      [
        "Ġclose",
        -8.503784384981131
      ],
      [
        "Ġleave",
        -8.50955390688263
      ],
      [
        "If",
        -8.510544812124742
      ],
      [
        "way",
        -8.510718976004036
      ],
      [
        "Ġenough",
        -8.511301241028715
      ],
      [
        "Ġlittle",
        -8.512055892264545
      ],
      [
        "Ġproblem",
        -8.513338213976388
      ],
      [
        "You",
        -8.517808845348249
      ],
      [
        "Ġsurface",
        -8.521801898521343
      ],
      [
        "Ġplay",
        -8.524001233359225
      ],
      [
        "There",
        -8.533374591752281
      ],
      [
        "Ġcomplete",
        -8.536298437197477
      ],
      [
        "Ġorder",
        -8.536907965299736
      ],
      [
        "Ġaffect",
        -8.543123937598295
      ],
      [
        "Ġimprove",
        -8.548416248342683
      ],
      [
        "Ġfeel",
        -8.55073666485032
      ],
      [
        "Ġavailable",
        -8.552623785024728
      ],
      [
        "Ġareas",
        -8.553441882925622
      ],
      [
        "Ġme",
        -8.556005957850761
      ],
      [
        "Ġstate",
        -8.55714913241281
      ],
      [
        "Ġname",
        -8.560222273050417
      ],
      [
        "Ġusually",
        -8.560278677076425
      ],
      [
        "Ġfish",
        -8.570757606196253
      ],
      [
        "hose",
        -8.57417887349855
      ],
      [
        "er",
        -8.578083782499101
      ],
      [
        "Ġchild",
        -8.586148790071247
      ],
      [
        "Ġreduce",
        -8.586185185481007
      ],
      [
        "Ġgarden",
        -8.586888852381023
      ],
      [
        "Ġgoing",
        -8.587793423423896
      ],
      [
        "Ġproper",
        -8.587816140192396
      ],
      [
        "Ġdamage",
        -8.589744684609556
      ],
      [
        "Ġseveral",
        -8.59084765949387
      ],
      [
        "Ġpatient",
        -8.591591463442025
      ],
      [
        "Ġrange",
        -8.592855795367742
      ],
      [
        "aking",
        -8.595192515431066
      ],
      [
        "Ġdevice",
        -8.596336461433896
      ],
      [
        "ĠSo",
        -8.604592918024426
      ],
      [
        "based",
        -8.605025681823982
      ],
      [
        "P",
        -8.608644036756743
      ],
      [
        "Ġend",
        -8.610407753375492
      ],
      [
        "ĠThere",
        -8.610489413153712
      ],
      [
        "Ġplan",
        -8.613531932052602
      ],
      [
        "Ġtypes",
        -8.620815808786173
      ],
      [
        "Ġnow",
        -8.621139029940679
      ],
      [
        "Ġfunction",
        -8.625888106186936
      ],
      [
        "Ġlive",
        -8.626378657813031
      ],
      [
        "self",
        -8.627426117229536
      ],
      [
        "Ġessential",
        -8.62928565008854
      ],
      [
        "though",
        -8.630539020403734
      ],
      [
        "Ġsignificant",
        -8.631270735698534
      ],
      [
        "Ġdiet",
        -8.633146248316848
      ],
      [
        "Ġinvolve",
        -8.637416468414587
      ],
      [
        "Ġweight",
        -8.637534546511207
      ],
      [
        "Ġoption",
        -8.637550727553965
      ],
      [
        "having",
        -8.63758450115279
      ],
      [
        "v",
        -8.640573555890708
      ],
      [
        "Ġadd",
        -8.641273162829759
      ],
      [
        "Ġparticular",
        -8.64423986552477
      ],
      [
        "Ġsize",
        -8.647802491348568
      ],
      [
        "Ġconditions",
        -8.64907943699608
      ],
      [
        "with",
        -8.654627758186823
      ],
      [
        "Ġdid",
        -8.654789367256502
      ],
      [
        "Ġlocal",
        -8.662625993031183
      ],
      [
        "F",
        -8.663697453280239
      ],
      [
        "[",
        -8.665242673039932
      ],
      [
        "Ġuntil",
        -8.665456364937814
      ],
      [
        "Ġcourse",
        -8.666407029396803
      ],
      [
        "Ġdevelopment",
        -8.669141032516162
      ],
      [
        "Ġseem",
        -8.673800590497247
      ],
      [
        "Ġshe",
        -8.675411670005953
      ],
      [
        "Ġhard",
        -8.676315313046292
      ],
      [
        "Ġun",
        -8.682054711854478
      ],
      [
        "ar",
        -8.686117475967423
      ],
      [
        "Ġunderstand",
        -8.687975333490252
      ],
      [
        "not",
        -8.688258942248439
      ],
      [
        "Ġfuture",
        -8.688935274726099
      ],
      [
        "Ġanimals",
        -8.689141383288062
      ],
      [
        "Ġuser",
        -8.689457629898884
      ],
      [
        "Ġdifference",
        -8.69118155364874
      ],
      [
        "ĠWhich",
        -8.691613781005238
      ],
      [
        "Ġtext",
        -8.696874167988554
      ],
      [
        "Ġown",
        -8.69834935695571
      ],
      [
        "Ġvariet",
        -8.699369043729186
      ],
      [
        "Ġfamily",
        -8.699531680735792
      ],
      [
        "Ġsince",
        -8.700594630312873
      ],
      [
        "more",
        -8.700650186998676
      ],
      [
        "ĠWhen",
        -8.702519315657703
      ],
      [
        "Ġteam",
        -8.703464730015417
      ],
      [
        "Ġkey",
        -8.704315557809451
      ],
      [
        "Ġcell",
        -8.705808345675596
      ],
      [
        "Ġput",
        -8.712284082112468
      ],
      [
        "Ġnext",
        -8.713877181796256
      ],
      [
        "Ġfree",
        -8.713933873368767
      ],
      [
        "Ġsystems",
        -8.717385829774578
      ],
      [
        "ary",
        -8.720142701745296
      ],
      [
        "Ġmaterial",
        -8.721146292049088
      ],
      [
        "ion",
        -8.721627501542446
      ],
      [
        "Ġmethod",
        -8.722033841761736
      ],
      [
        "M",
        -8.72297098096281
      ],
      [
        "Ġwide",
        -8.724932912441698
      ],
      [
        "Ġpaper",
        -8.726402972682791
      ],
      [
        "Ġsimple",
        -8.727178521176821
      ],
      [
        "ĠSome",
        -8.733122163525863
      ],
      [
        "Ġtechnique",
        -8.733447996148573
      ],
      [
        "&",
        -8.733529399229935
      ],
      [
        "*",
        -8.734299725836422
      ],
      [
        "Ġeasy",
        -8.737337421175337
      ],
      [
        "Ġsafe",
        -8.73735841479861
      ],
      [
        "Ġmaintain",
        -8.738002861692824
      ],
      [
        "Ġtogether",
        -8.741238192024099
      ],
      [
        "Ġkind",
        -8.741495065156744
      ],
      [
        "Ġprotect",
        -8.743199172321262
      ],
      [
        "ĠHe",
        -8.743471426930705
      ],
      [
        "from",
        -8.745368447165264
      ],
      [
        "Ġterm",
        -8.747217339816846
      ],
      [
        "Ġgame",
        -8.748252479759348
      ],
      [
        "Ġvideo",
        -8.749769014010056
      ],
      [
        "Ġproblems",
        -8.75109252123334
      ],
      [
        "Ġtechnology",
        -8.751721485912881
      ],
      [
        "Ġlast",
        -8.756964203669058
      ],
      [
        "ĠAs",
        -8.75879364552493
      ],
      [
        "how",
        -8.760215791395446
      ],
      [
        "Ġside",
        -8.760474496991115
      ],
      [
        "Ġhand",
        -8.761680481481424
      ],
      [
        "Ġnecessar",
        -8.763443401162888
      ],
      [
        "For",
        -8.7640960150257
      ],
      [
        "Ġless",
        -8.766416404206652
      ],
      [
        "Ġalong",
        -8.767436892871629
      ],
      [
        "Ġopen",
        -8.768912100440488
      ],
      [
        "Ġproducts",
        -8.76978961234985
      ],
      [
        "Ġmeasure",
        -8.771093135096727
      ],
      [
        "Ġevent",
        -8.772036824544625
      ],
      [
        "Ġmachine",
        -8.773936542969778
      ],
      [
        "Ġdoesn",
        -8.774152875024445
      ],
      [
        "Ġlow",
        -8.775442130645576
      ],
      [
        "Ġset",
        -8.776932695519736
      ],
      [
        "]",
        -8.777001777555409
      ],
      [
        "Ġavoid",
        -8.777953755690042
      ],
      [
        "up",
        -8.782284881210316
      ],
      [
        "ither",
        -8.784523714877452
      ],
      [
        "Ġsafety",
        -8.785496484773969
      ],
      [
        "Ġstructure",
        -8.78691832088349
      ],
      [
        "time",
        -8.787197556907195
      ],
      [
        "Ġgroup",
        -8.787364507866963
      ],
      [
        "Ġmaterials",
        -8.790396022662524
      ],
      [
        "Ġfull",
        -8.790669066628768
      ],
      [
        "ĠD",
        -8.791170990660767
      ],
      [
        "Ġactuall",
        -8.79266606806808
      ],
      [
        "Ġprogram",
        -8.792690664526749
      ],
      [
        "Ġeye",
        -8.79277688781864
      ],
      [
        "Ġmakes",
        -8.79465276883942
      ],
      [
        "Ġsure",
        -8.795469256449678
      ],
      [
        "Ġgiven",
        -8.79547018512789
      ],
      [
        "Ġgrowth",
        -8.797404481396665
      ],
      [
        ",\"",
        -8.797461881924754
      ],
      [
        "Ġapplication",
        -8.797808006022489
      ],
      [
        "Ġtop",
        -8.798329373052647
      ],
      [
        "Ġdepend",
        -8.803342319976991
      ],
      [
        "Ġsocial",
        -8.803819298825424
      ],
      [
        "Ġnon",
        -8.807203735676154
      ],
      [
        "Ġdays",
        -8.808081750150091
      ],
      [
        "Ġremove",
        -8.808551723157654
      ],
      [
        "Ġpresent",
        -8.812870382299355
      ],
      [
        "Ġloss",
        -8.813314947309426
      ],
      [
        "$",
        -8.81335871551547
      ],
      [
        "Ġphysical",
        -8.818929068933143
      ],
      [
        "Ġcheck",
        -8.819500844215522
      ],
      [
        "Ġhigher",
        -8.819790616914528
      ],
      [
        ".\"Ċ",
        -8.819888883004186
      ],
      [
        "Ġshort",
        -8.820083225195784
      ],
      [
        "issues",
        -8.821391383332227
      ],
      [
        "ĠThat",
        -8.82278829856389
      ],
      [
        "where",
        -8.823384102146202
      ],
      [
        "against",
        -8.823613378440566
      ],
      [
        "Ġnever",
        -8.825093293900476
      ],
      [
        "ĠUniversity",
        -8.825202776221648
      ],
      [
        "Ġanswer",
        -8.827455709284106
      ],
      [
        "E",
        -8.828016117494155
      ],
      [
        ")ĊĊ",
        -8.829526713337682
      ],
      [
        "Ġcontain",
        -8.831943496433146
      ],
      [
        "Ġsimilar",
        -8.837839000192744
      ],
      [
        "Ġabove",
        -8.839043279455511
      ],
      [
        "Ġfocus",
        -8.84248580166835
      ],
      [
        "Ġtimes",
        -8.842887005087086
      ],
      [
        "Ġgas",
        -8.843143776806809
      ],
      [
        "Ġlot",
        -8.843675350396438
      ],
      [
        "Ġaccess",
        -8.8437800039493
      ],
      [
        "Ġtraining",
        -8.844398651034687
      ],
      [
        "Ġunique",
        -8.845180506208488
      ],
      [
        "Ġearly",
        -8.846496271395793
      ],
      [
        "Ġmak",
        -8.847222144971301
      ],
      [
        "Ġlove",
        -8.847621591330261
      ],
      [
        "Ġstep",
        -8.849955489338845
      ],
      [
        "Ġmove",
        -8.852080206683414
      ],
      [
        "ĠM",
        -8.852082191273269
      ],
      [
        "Ġstore",
        -8.852136250820568
      ],
      [
        "across",
        -8.853828825446382
      ],
      [
        "=",
        -8.85480223954549
      ],
      [
        "Ġsource",
        -8.856755904235662
      ],
      [
        "Ġoccur",
        -8.859080823818129
      ],
      [
        "least",
        -8.860993904334833
      ],
      [
        "Ġworking",
        -8.862700960928839
      ],
      [
        "ĠBy",
        -8.863637315008628
      ],
      [
        "thing",
        -8.865689131609034
      ],
      [
        "Ġaccording",
        -8.866132609907954
      ],
      [
        "Ġbelieve",
        -8.866200007410015
      ],
      [
        "ver",
        -8.86785101021745
      ],
      [
        "O",
        -8.867885053366056
      ],
      [
        "Ġclear",
        -8.872542310322276
      ],
      [
        "Ġhealthy",
        -8.873635893768157
      ],
      [
        "Ġcomputer",
        -8.873958669041906
      ],
      [
        "Ġcomponent",
        -8.877046834271052
      ],
      [
        "Ġwhite",
        -8.882978779324029
      ],
      [
        "Ġtoo",
        -8.88491151354167
      ],
      [
        "Ġdifficult",
        -8.885398321808232
      ],
      [
        "Ġregion",
        -8.88635492203451
      ],
      [
        "Ġmarket",
        -8.88943268173745
      ],
      [
        "Ġinfection",
        -8.889767026272466
      ],
      [
        "Ġrun",
        -8.889878713020803
      ],
      [
        "We",
        -8.892065046739646
      ],
      [
        "Ġfar",
        -8.8931732208416
      ],
      [
        "Ġsay",
        -8.893918821732292
      ],
      [
        "Ġcertain",
        -8.894561862037811
      ],
      [
        "Ġskin",
        -8.894684976790014
      ],
      [
        "Ġcat",
        -8.897284607228167
      ],
      [
        "Ġenjoy",
        -8.89740209038443
      ],
      [
        "Ġtypical",
        -8.897819042566724
      ],
      [
        "Ġweek",
        -8.898250129141438
      ],
      [
        "own",
        -8.899642340598309
      ],
      [
        "Ġbuilding",
        -8.900346950906673
      ],
      [
        "Ġbusiness",
        -8.901909655087195
      ],
      [
        "Ġclean",
        -8.903289525102345
      ],
      [
        "once",
        -8.90389450646348
      ],
      [
        "Ġcontinue",
        -8.90454491347481
      ],
      [
        "Ġremain",
        -8.909362582548804
      ],
      [
        "Ġobject",
        -8.911452348402642
      ],
      [
        "ic",
        -8.911885456682837
      ],
      [
        "Ġeffects",
        -8.913732909610886
      ],
      [
        "Ġchoice",
        -8.913867121172851
      ],
      [
        "Ġspeed",
        -8.918873036952753
      ],
      [
        "Ġaddition",
        -8.918951434847385
      ],
      [
        "L",
        -8.920380288257395
      ],
      [
        "ĠWith",
        -8.922250401242398
      ],
      [
        "Ġespecial",
        -8.922375832461295
      ],
      [
        "Ġanimal",
        -8.923784721116924
      ],
      [
        "W",
        -8.927609718474393
      ],
      [
        "Ġpopulation",
        -8.928543355158013
      ],
      [
        "ment",
        -8.932877511911817
      ],
      [
        "like",
        -8.933526512593149
      ],
      [
        "Ġelement",
        -8.93374275066147
      ],
      [
        "Ġregular",
        -8.9337791661396
      ],
      [
        "ĠP",
        -8.935133657327633
      ],
      [
        "Ġsingle",
        -8.936983915645214
      ],
      [
        "H",
        -8.93798453141223
      ],
      [
        "Ġhelps",
        -8.938537790988772
      ],
      [
        "ĠNew",
        -8.939076735459235
      ],
      [
        "Ġpain",
        -8.941370067490444
      ],
      [
        "Ġparent",
        -8.941971736233965
      ],
      [
        "Ġfurther",
        -8.942213318680205
      ],
      [
        "Ġmatter",
        -8.94361157244467
      ],
      [
        "le",
        -8.94636494426424
      ],
      [
        "Ġtoday",
        -8.94665682620933
      ],
      [
        "Ġcondition",
        -8.947274794746113
      ],
      [
        "Ġbasic",
        -8.948081470763938
      ],
      [
        "Ġmajor",
        -8.948321365740078
      ],
      [
        "Ġforce",
        -8.949586510591406
      ],
      [
        "Ġpopular",
        -8.949960667382014
      ],
      [
        "Ġground",
        -8.951244235790295
      ],
      [
        "comes",
        -8.95294413133253
      ],
      [
        "Ġskills",
        -8.955745031310613
      ],
      [
        "Ġstay",
        -8.955966263798295
      ],
      [
        "Ġline",
        -8.956618943041082
      ],
      [
        "Ġdone",
        -8.958534337160128
      ],
      [
        "Ġeffect",
        -8.958848778091454
      ],
      [
        "Ġissue",
        -8.959502873551063
      ],
      [
        "Ġbehavior",
        -8.960094766647924
      ],
      [
        "Ġaway",
        -8.962427681743238
      ],
      [
        "Ġproduction",
        -8.96320868091459
      ],
      [
        "Ġshare",
        -8.968359876979086
      ],
      [
        "Ġleft",
        -8.968889296232677
      ],
      [
        "Ġdetail",
        -8.970330580758308
      ],
      [
        "Ġbook",
        -8.970385743782069
      ],
      [
        "Ġcontent",
        -8.970652764259723
      ],
      [
        "Ġrole",
        -8.971670194289768
      ],
      [
        "Ġhouse",
        -8.971819927135922
      ],
      [
        "Ġcommunity",
        -8.973334517816728
      ],
      [
        "Ġclimate",
        -8.973518300623152
      ],
      [
        "Ġnear",
        -8.9735664147879
      ],
      [
        "Ġstrong",
        -8.975003534216118
      ],
      [
        "Ġsignal",
        -8.977607173816384
      ],
      [
        "Ġmedical",
        -8.97761808988944
      ],
      [
        "Ġscience",
        -8.978157193829126
      ],
      [
        "ĠYour",
        -8.978357708325738
      ],
      [
        "Ġflow",
        -8.97856070674434
      ],
      [
        "old",
        -8.97858522126952
      ],
      [
        "Ġsound",
        -8.981237472822354
      ],
      [
        "Ġtask",
        -8.982480725053998
      ],
      [
        "Ġitem",
        -8.983589207101963
      ],
      [
        "Ġperformance",
        -8.984444254421497
      ],
      [
        "ĠNo",
        -8.984989383815952
      ],
      [
        "has",
        -8.988546922555855
      ],
      [
        "Ġperiod",
        -8.98930711944205
      ],
      [
        "Ġeducation",
        -8.990079468058765
      ],
      [
        "Ġbenefits",
        -8.991581912482776
      ],
      [
        "Ġelectric",
        -8.997917962891986
      ],
      [
        "Ġfact",
        -8.999416106827471
      ],
      [
        "Ġhere",
        -9.00263555012579
      ],
      [
        "thos",
        -9.005563918450637
      ],
      [
        "Ġtry",
        -9.009409814947611
      ],
      [
        "Why",
        -9.01227282973386
      ],
      [
        "Ġpublic",
        -9.012395900119756
      ],
      [
        "Ġbattery",
        -9.012738790487628
      ],
      [
        "Ġsymptom",
        -9.015322812238727
      ],
      [
        "Ġpiece",
        -9.015610301046024
      ],
      [
        "now",
        -9.018196169880486
      ],
      [
        "Ġdry",
        -9.018248155134504
      ],
      [
        "Ġgoal",
        -9.02091582549518
      ],
      [
        "Ġassociate",
        -9.021087114270449
      ],
      [
        "Ġturn",
        -9.021950867975647
      ],
      [
        "Ġagain",
        -9.022284510201864
      ],
      [
        "Ġpropert",
        -9.023703944293093
      ],
      [
        "Ġrecent",
        -9.027175705011338
      ],
      [
        "dogs",
        -9.02789250356355
      ],
      [
        "These",
        -9.028326828907144
      ],
      [
        "Ġfour",
        -9.02858622762517
      ],
      [
        "Ġlower",
        -9.02883444981384
      ],
      [
        "Ġcomplex",
        -9.028914032173738
      ],
      [
        "Ġexist",
        -9.030361915938386
      ],
      [
        "Ġsays",
        -9.03039537436302
      ],
      [
        "Ġoil",
        -9.030482154423575
      ],
      [
        "Ġnormal",
        -9.030684693958502
      ],
      [
        "Ġwhole",
        -9.03182265729405
      ],
      [
        "Ġhistory",
        -9.03236323650054
      ],
      [
        "Ġheart",
        -9.033004167230722
      ],
      [
        "Ġquestion",
        -9.034623971945432
      ],
      [
        "below",
        -9.037392543980667
      ],
      [
        "Ġstandard",
        -9.03879984439893
      ],
      [
        "Ġca",
        -9.039018752456752
      ],
      [
        "Ġhead",
        -9.04173659324056
      ],
      [
        "Ġlayer",
        -9.042379757624817
      ],
      [
        "Ġindustry",
        -9.042980733329973
      ],
      [
        "Ġmillion",
        -9.04390222290314
      ],
      [
        "Ġtree",
        -9.045121888793725
      ],
      [
        "_",
        -9.045147127032529
      ],
      [
        "Ġsolution",
        -9.045698307961736
      ],
      [
        "R",
        -9.046112416936186
      ],
      [
        "most",
        -9.046217522155644
      ],
      [
        "Ġeasily",
        -9.051066611524863
      ],
      [
        "Ġalread",
        -9.052157099903065
      ],
      [
        "nstead",
        -9.055253395599076
      ],
      [
        "Ġread",
        -9.055470654859963
      ],
      [
        "which",
        -9.055541865251072
      ],
      [
        "ng",
        -9.055549866696431
      ],
      [
        "Ġhe",
        -9.056057391016674
      ],
      [
        "Ġmention",
        -9.05751423381976
      ],
      [
        "Ġcontact",
        -9.05758182962343
      ],
      [
        "Ġapproach",
        -9.057747624437308
      ],
      [
        "Ġrequired",
        -9.060717178965216
      ],
      [
        "Ġblack",
        -9.061016003799216
      ],
      [
        "Ġdoing",
        -9.06185851478069
      ],
      [
        "Ġresearcher",
        -9.063405215784597
      ],
      [
        "Ġperfect",
        -9.063784563497794
      ],
      [
        "Ġface",
        -9.066063125886531
      ],
      [
        "Ġtoward",
        -9.066417116163624
      ],
      [
        "Ġinside",
        -9.066751803861294
      ],
      [
        "Ġactiviti",
        -9.06687060630774
      ],
      [
        "Ġwarm",
        -9.068925183654404
      ],
      [
        "Ġif",
        -9.06894423308741
      ],
      [
        "Ġgreen",
        -9.069023181228616
      ],
      [
        "It",
        -9.07084866141861
      ],
      [
        "ĠT",
        -9.07149946479977
      ],
      [
        "Ġfield",
        -9.073213116817987
      ],
      [
        "Ġcompare",
        -9.074301186455514
      ],
      [
        "Ġbit",
        -9.074601656773911
      ],
      [
        "Ġprotein",
        -9.075353818399504
      ],
      [
        "very",
        -9.076314472603649
      ],
      [
        ").Ċ",
        -9.077230697641724
      ],
      [
        "Ġamong",
        -9.078417042524334
      ],
      [
        "Ġnetwork",
        -9.079294252254124
      ],
      [
        "They",
        -9.07948934637914
      ],
      [
        "Ġpurpose",
        -9.079522946124602
      ],
      [
        "-based",
        -9.080925967045012
      ],
      [
        "Ġbring",
        -9.081576376263952
      ],
      [
        "Ġproduct",
        -9.081945637761937
      ],
      [
        "Ġtreat",
        -9.08281953098126
      ],
      [
        "Ġprofessional",
        -9.084298374455551
      ],
      [
        "Ġpost",
        -9.084473135629583
      ],
      [
        "Ġmonths",
        -9.086094534300765
      ],
      [
        "Ġidea",
        -9.086444616793004
      ],
      [
        "Ġenvironmental",
        -9.086592971152424
      ],
      [
        "Ġcover",
        -9.08668171590044
      ],
      [
        "Ġmoney",
        -9.089337975708062
      ],
      [
        "N",
        -9.089394056697362
      ],
      [
        "Ġpositive",
        -9.089638573243295
      ],
      [
        "Ġsomeone",
        -9.092426294670531
      ],
      [
        "Ġcorrect",
        -9.094054797451996
      ],
      [
        "Ġchemical",
        -9.094149491286778
      ],
      [
        "Ġfeatures",
        -9.096156238066136
      ],
      [
        "Ġdecision",
        -9.096303325052356
      ],
      [
        "Ġblock",
        -9.096753797041009
      ],
      [
        "also",
        -9.096794629583568
      ],
      [
        "Ġcompany",
        -9.097255192950335
      ],
      [
        "Ġbrain",
        -9.097725246051851
      ],
      [
        "Ġreport",
        -9.099958309747253
      ],
      [
        "Ġsituation",
        -9.101951031441605
      ],
      [
        "Ġcold",
        -9.102843725451711
      ],
      [
        "Ġtarget",
        -9.107108693946405
      ],
      [
        "Ġentire",
        -9.107526350167618
      ],
      [
        "get",
        -9.107645267753032
      ],
      [
        "Ġgrowing",
        -9.107972556345509
      ],
      [
        "Ġbacteria",
        -9.108538474777236
      ],
      [
        "Ġspecial",
        -9.110872661540984
      ],
      [
        "Ġguide",
        -9.11096303893219
      ],
      [
        "hours",
        -9.111400130540028
      ],
      [
        "Ġbig",
        -9.11662326545954
      ],
      [
        "Ġunderstanding",
        -9.11722819059226
      ],
      [
        "Ġopportunit",
        -9.118547865564196
      ],
      [
        "Ġdescribe",
        -9.118880960953398
      ],
      [
        "Ġmuscle",
        -9.121209116562747
      ],
      [
        "Ġtalk",
        -9.122507504691566
      ],
      [
        "Ġreceive",
        -9.123283193246923
      ],
      [
        "Ġcrucial",
        -9.125319893478204
      ],
      [
        "ather",
        -9.12586622670467
      ],
      [
        "Ġyoung",
        -9.127930260166544
      ],
      [
        "ting",
        -9.128111779479353
      ],
      [
        "Ġrelease",
        -9.129248803418768
      ],
      [
        "Ġarticle",
        -9.129861045171772
      ],
      [
        "Ġsetting",
        -9.13116326234045
      ],
      [
        "Ġsleep",
        -9.131740355925777
      ],
      [
        "we",
        -9.132282297990873
      ],
      [
        "Ġhalf",
        -9.13261585981364
      ],
      [
        "Ġeyes",
        -9.132821428374584
      ],
      [
        "Ġprobabl",
        -9.132884512509342
      ],
      [
        "Ġm",
        -9.137085545000996
      ],
      [
        "Ġthing",
        -9.140202681801725
      ],
      [
        "Ġyourself",
        -9.140334936525326
      ],
      [
        "anagement",
        -9.141855963008634
      ],
      [
        "Ġminutes",
        -9.142349397897576
      ],
      [
        "Ġsugar",
        -9.142712727932338
      ],
      [
        "Ġprovid",
        -9.142790477516384
      ],
      [
        "Ġlet",
        -9.14286762153564
      ],
      [
        "One",
        -9.14356630974586
      ],
      [
        "your",
        -9.14491255272318
      ],
      [
        "ĠE",
        -9.145276587236816
      ],
      [
        "Ġconcern",
        -9.14656789110547
      ],
      [
        "Ġpatients",
        -9.147931699944948
      ],
      [
        "Ġprice",
        -9.148645965269791
      ],
      [
        "Ġpet",
        -9.150128641061894
      ],
      [
        "Ġre",
        -9.1501544492052
      ],
      [
        "Ġauthor",
        -9.151014641406675
      ],
      [
        "From",
        -9.151639406337807
      ],
      [
        "Ġonline",
        -9.153046445259577
      ],
      [
        "Ġprimar",
        -9.154838410736868
      ],
      [
        "Ġbuild",
        -9.156972906262297
      ],
      [
        "Ġlonge",
        -9.15711255843701
      ],
      [
        "Ġfruit",
        -9.1577001872501
      ],
      [
        "Ġpractice",
        -9.159842936901846
      ],
      [
        "ance",
        -9.162182173915957
      ],
      [
        "Ġmethods",
        -9.162373573702586
      ],
      [
        "Ġpersonal",
        -9.16321503895901
      ],
      [
        "But",
        -9.1651771423087
      ],
      [
        "Ġcancer",
        -9.16620337004857
      ],
      [
        "cause",
        -9.16756291450877
      ],
      [
        "Ġservice",
        -9.169806187364362
      ],
      [
        "Ġknowledge",
        -9.16984278953502
      ],
      [
        "sure",
        -9.17073667676068
      ],
      [
        "Ġpast",
        -9.171738802573302
      ],
      [
        "Ġtraditional",
        -9.17262142589242
      ],
      [
        "To",
        -9.172724617046818
      ],
      [
        "Ġsection",
        -9.17536008340549
      ],
      [
        "Ġfall",
        -9.176974220602824
      ],
      [
        "Ġcount",
        -9.177314420465637
      ],
      [
        "Ġgeneral",
        -9.177531150276454
      ],
      [
        "ĠH",
        -9.177878539337929
      ],
      [
        "Ġdegree",
        -9.178485005326216
      ],
      [
        "ities",
        -9.179963296669252
      ],
      [
        "ĠOne",
        -9.180056635930246
      ],
      [
        "Ġlanguage",
        -9.180476635848851
      ],
      [
        "Ġtool",
        -9.180690816538098
      ],
      [
        "Ġchoose",
        -9.181441739667964
      ],
      [
        "Ġsense",
        -9.182754505812792
      ],
      [
        "Ġdetermine",
        -9.18428147694639
      ],
      [
        "ĠAl",
        -9.185955640783302
      ],
      [
        "Whil",
        -9.186638423776165
      ],
      [
        "Ġaverage",
        -9.188007136110675
      ],
      [
        "Ġwomen",
        -9.188494993900068
      ],
      [
        "Ġstress",
        -9.191108334908492
      ],
      [
        "this",
        -9.194459820817915
      ],
      [
        "Ġ\"",
        -9.19509996011274
      ],
      [
        "Ġenhance",
        -9.1951776579981
      ],
      [
        "ember",
        -9.195324434460964
      ],
      [
        "ous",
        -9.195369221077025
      ],
      [
        "Ġdeep",
        -9.195454099603367
      ],
      [
        "Ġquestions",
        -9.19593897272568
      ],
      [
        "Ġexercise",
        -9.196901960034143
      ],
      [
        "+",
        -9.197255993400072
      ],
      [
        "Ġvehicle",
        -9.197606318007592
      ],
      [
        "Ġwinter",
        -9.197736064798264
      ],
      [
        "Ġappear",
        -9.19815385932016
      ],
      [
        "Ġoverall",
        -9.198391359979963
      ],
      [
        "z",
        -9.19869141254034
      ],
      [
        "her",
        -9.20570577831402
      ],
      [
        "Ġmind",
        -9.20633960062834
      ],
      [
        "Ġwall",
        -9.207616105778426
      ],
      [
        "Ġpercent",
        -9.20807654486202
      ],
      [
        "Ġoutside",
        -9.208358557260294
      ],
      [
        "Ġeffort",
        -9.210646582037818
      ],
      [
        "ves",
        -9.211158217406185
      ],
      [
        "Ġstudent",
        -9.211719165844707
      ],
      [
        "Ġcreating",
        -9.21338978187201
      ],
      [
        "Ġresources",
        -9.213510608193912
      ],
      [
        "Ġsimply",
        -9.213613398840444
      ],
      [
        "Ġlarger",
        -9.214086417202896
      ],
      [
        "Ġdesigne",
        -9.214995614353494
      ],
      [
        "Ġtravel",
        -9.216554900591213
      ],
      [
        "Ġapply",
        -9.218675222284483
      ],
      [
        "Ġlocation",
        -9.219247526324567
      ],
      [
        "Ġthought",
        -9.219576668682132
      ],
      [
        "Answer",
        -9.219667840424243
      ],
      [
        "ĠAmerican",
        -9.220007673599278
      ],
      [
        "Ġbone",
        -9.220755803894397
      ],
      [
        "Ġar",
        -9.224337477106818
      ],
      [
        "Ġteeth",
        -9.227669945761384
      ],
      [
        "Ġtell",
        -9.22791048752958
      ],
      [
        "Ġseason",
        -9.22847333593482
      ],
      [
        "Ġexpert",
        -9.229441570554885
      ],
      [
        "Ġexplain",
        -9.230026530800316
      ],
      [
        "ĠOn",
        -9.230940725516284
      ],
      [
        "Ġcool",
        -9.230981771275752
      ],
      [
        "Ġsuggest",
        -9.231222119701794
      ],
      [
        "âĢ¦",
        -9.231343196920191
      ],
      [
        "Ġbuy",
        -9.23209816180502
      ],
      [
        "quite",
        -9.232975072223438
      ],
      [
        "Ġo",
        -9.233269465912354
      ],
      [
        "some",
        -9.23420917113348
      ],
      [
        "Ġposition",
        -9.234968199801164
      ],
      [
        "ĠF",
        -9.23656334502468
      ],
      [
        "Ġshape",
        -9.236908630641071
      ],
      [
        "eating",
        -9.237686678815248
      ],
      [
        "Ġbegin",
        -9.237985029438674
      ],
      [
        "Ġresponse",
        -9.23901030188638
      ],
      [
        "Ġwaste",
        -9.239215183538144
      ],
      [
        "rying",
        -9.239977432886423
      ],
      [
        "Ġsolar",
        -9.240617115848288
      ],
      [
        "Ġtrees",
        -9.241596642508068
      ],
      [
        ")Ċ",
        -9.241822551169257
      ],
      [
        "Ġjob",
        -9.243437393163282
      ],
      [
        "Ġexperiment",
        -9.245533684521648
      ],
      [
        "Ġcustomer",
        -9.247159973201423
      ],
      [
        "Ġrule",
        -9.248750620469185
      ],
      [
        "Ġreading",
        -9.248811893133093
      ],
      [
        "Ġidentify",
        -9.248849929746653
      ],
      [
        "Ġfuel",
        -9.249032301856625
      ],
      [
        "Ġclass",
        -9.249085276170929
      ],
      [
        "Ġattention",
        -9.24983459964004
      ],
      [
        "G",
        -9.251640778696943
      ],
      [
        "Ġthough",
        -9.252455948591567
      ],
      [
        "Ġadditional",
        -9.253280575156984
      ],
      [
        "Ġaddress",
        -9.255430868903687
      ],
      [
        "Ġfeet",
        -9.259699588062992
      ],
      [
        "Ġquickl",
        -9.260051706717562
      ],
      [
        "Ġsun",
        -9.2602892858302
      ],
      [
        "Ġsummer",
        -9.260581513393811
      ],
      [
        "Ġsubject",
        -9.262182078955837
      ],
      [
        "Ġhappen",
        -9.262248366892043
      ],
      [
        "Ġsometime",
        -9.26308462055273
      ],
      [
        "Ġtools",
        -9.263272445972778
      ],
      [
        "Ġtaking",
        -9.26379664605453
      ],
      [
        "Ġwon",
        -9.266266571105165
      ],
      [
        "Ġanything",
        -9.26807415650061
      ],
      [
        "Ġadult",
        -9.268189732914626
      ],
      [
        "Ġbird",
        -9.271951286595142
      ],
      [
        "Ġreach",
        -9.272346889489784
      ],
      [
        "Ġhold",
        -9.27568980932963
      ],
      [
        "Ġbreak",
        -9.276937280644864
      ],
      [
        "Ġplastic",
        -9.277166740309957
      ],
      [
        "Ġservices",
        -9.278003693892511
      ],
      [
        "Ġetc",
        -9.27883188351247
      ],
      [
        "but",
        -9.27933698310169
      ],
      [
        "created",
        -9.279621812709282
      ],
      [
        "ĠU",
        -9.280059883725864
      ],
      [
        "Ġbalance",
        -9.280901231364258
      ],
      [
        "Ġvegetable",
        -9.281969259301825
      ],
      [
        "Ġstarted",
        -9.28276636849868
      ],
      [
        "Ġtissue",
        -9.282805780471392
      ],
      [
        "Ġweather",
        -9.283154093374456
      ],
      [
        "hether",
        -9.287243943241128
      ],
      [
        "Ġwood",
        -9.289736382751306
      ],
      [
        "Ġsoftware",
        -9.291217510226897
      ],
      [
        "Ġrepresent",
        -9.29166194954266
      ],
      [
        "Ġalmost",
        -9.291932436479224
      ],
      [
        "Ġred",
        -9.292314948223304
      ],
      [
        "Ġstudies",
        -9.292718364050456
      ],
      [
        "Ġactivity",
        -9.293255654987888
      ],
      [
        "Ġlength",
        -9.293329904860842
      ],
      [
        "Ġthread",
        -9.294227463998013
      ],
      [
        "Ġexact",
        -9.29444440512723
      ],
      [
        "Ġwalk",
        -9.295601699596364
      ],
      [
        "Ġmetal",
        -9.295620766069032
      ],
      [
        "Ġprevious",
        -9.295733183522746
      ],
      [
        "nd",
        -9.295804657005949
      ],
      [
        "any",
        -9.296211612124193
      ],
      [
        "care",
        -9.298303033306702
      ],
      [
        "ĠAll",
        -9.298620155287756
      ],
      [
        "Ġrelationship",
        -9.301697149596666
      ],
      [
        "Ġus",
        -9.30559131889422
      ],
      [
        "Ġcut",
        -9.30651134795691
      ],
      [
        "Ġhumans",
        -9.306670127635469
      ],
      [
        "two",
        -9.30747715061019
      ],
      [
        "Ġimage",
        -9.308828216004056
      ],
      [
        "Ġdaily",
        -9.310761306505125
      ],
      [
        "ways",
        -9.311773056535522
      ],
      [
        "made",
        -9.312526659347334
      ],
      [
        "Ġmanage",
        -9.313051230757535
      ],
      [
        "Ġeasie",
        -9.313436891774288
      ],
      [
        "Ġmovement",
        -9.314581928278107
      ],
      [
        "Ġcarbon",
        -9.316503503390194
      ],
      [
        "Ġwild",
        -9.317874749503442
      ],
      [
        "well",
        -9.3197355560047
      ],
      [
        "Ġrelative",
        -9.320100627619633
      ],
      [
        "Ġvisit",
        -9.32103621585343
      ],
      [
        "ĠR",
        -9.321112758787644
      ],
      [
        "|",
        -9.32267288820644
      ],
      [
        "Ġgenerally",
        -9.32269047164132
      ],
      [
        "ĠAI",
        -9.322942795559136
      ],
      [
        "than",
        -9.324451361098667
      ],
      [
        "Ġfemale",
        -9.32471784354492
      ],
      [
        "ĠAn",
        -9.32676285211933
      ],
      [
        "Some",
        -9.327996454761074
      ],
      [
        "Ġdigital",
        -9.32895850870919
      ],
      [
        "Ġcall",
        -9.329577738284769
      ],
      [
        "Ġtaken",
        -9.32969417018423
      ],
      [
        "Ġtotal",
        -9.330424975623227
      ],
      [
        "Ġview",
        -9.332013496931406
      ],
      [
        "iving",
        -9.333152177774217
      ],
      [
        "Ġincreasing",
        -9.33381040739424
      ],
      [
        "Ġhim",
        -9.334138294302289
      ],
      [
        "Ġpay",
        -9.33545598949329
      ],
      [
        "Ġseeds",
        -9.338175329238936
      ],
      [
        "Ġdark",
        -9.338408795566783
      ],
      [
        "Ġbirds",
        -9.338552814460275
      ],
      [
        "Ġexplore",
        -9.339334558232126
      ],
      [
        "work",
        -9.340038176858044
      ],
      [
        "Ġactive",
        -9.340373217410924
      ],
      [
        "line",
        -9.341338443192104
      ],
      [
        "Ġfinding",
        -9.341359352263416
      ],
      [
        "Ġsuccessful",
        -9.341731995853756
      ],
      [
        "only",
        -9.342182997171502
      ],
      [
        "Ġextreme",
        -9.342577420963355
      ],
      [
        "Ġrelated",
        -9.34272473468715
      ],
      [
        "ĠNational",
        -9.34323914226656
      ],
      [
        "With",
        -9.34324676197454
      ],
      [
        "Ġaccount",
        -9.34336769042094
      ],
      [
        "Ġstage",
        -9.345249568934394
      ],
      [
        "Ġfront",
        -9.345573287279258
      ],
      [
        "side",
        -9.345876503244572
      ],
      [
        "Ġstop",
        -9.346041050241189
      ],
      [
        "cannot",
        -9.346837621687584
      ],
      [
        "Ġmultiple",
        -9.348440237555062
      ],
      [
        "Ġflavor",
        -9.348788357143288
      ],
      [
        "Ġregard",
        -9.34902566734356
      ],
      [
        "Ġcountry",
        -9.349335176961242
      ],
      [
        "Ġma",
        -9.349416663612407
      ],
      [
        "Ġengine",
        -9.349420539863964
      ],
      [
        "Ġdeliver",
        -9.350697919856168
      ],
      [
        "ive",
        -9.35106093492871
      ],
      [
        "Ġha",
        -9.352157860645038
      ],
      [
        "Ġnature",
        -9.352791008377276
      ],
      [
        "Ġlikel",
        -9.353094585713476
      ],
      [
        "ĠUnite",
        -9.35594043572868
      ],
      [
        "Â°",
        -9.357344104716011
      ],
      [
        "Ġthemsel",
        -9.358674316311232
      ],
      [
        "ce",
        -9.361150234844416
      ],
      [
        "Ġglobal",
        -9.361722747581217
      ],
      [
        "ĠMan",
        -9.361767380187713
      ],
      [
        "Ġhear",
        -9.364944772761842
      ],
      [
        "Ġchance",
        -9.367370241586473
      ],
      [
        "here",
        -9.36755766321409
      ],
      [
        "Ġdirectly",
        -9.367827110810268
      ],
      [
        "Ġextra",
        -9.36815217509494
      ],
      [
        "coming",
        -9.368736992775796
      ],
      [
        "Ġcook",
        -9.369363268393268
      ],
      [
        "Ġprint",
        -9.370108106021984
      ],
      [
        "Ġself",
        -9.372554944056455
      ],
      [
        "Ġnight",
        -9.373269087415302
      ],
      [
        "people",
        -9.373382361165367
      ],
      [
        "Ġcharge",
        -9.374582778165856
      ],
      [
        "ĠHere",
        -9.374706715047708
      ],
      [
        "Ġnegative",
        -9.376488285235776
      ],
      [
        "light",
        -9.376616985027333
      ],
      [
        "Ġfast",
        -9.376883533352087
      ],
      [
        "Ġlink",
        -9.377076057674838
      ],
      [
        "Ġlist",
        -9.37743615503895
      ],
      [
        "Ġroom",
        -9.37813856401343
      ],
      [
        "Ġachieve",
        -9.379360105455444
      ],
      [
        "others",
        -9.38483463222502
      ],
      [
        "over",
        -9.38820895960366
      ],
      [
        "Ġmodern",
        -9.38999700474206
      ],
      [
        "Ġoriginal",
        -9.39105906188075
      ],
      [
        "Ġcommunication",
        -9.391346166063444
      ],
      [
        "Ġequipment",
        -9.392727778962788
      ],
      [
        "Ġfive",
        -9.393278799258812
      ],
      [
        "Ġco",
        -9.393817083944484
      ],
      [
        "his",
        -9.393965196630583
      ],
      [
        "king",
        -9.39469159111506
      ],
      [
        "Can",
        -9.394849129443571
      ],
      [
        "Ġbenefit",
        -9.397606359720236
      ],
      [
        "Ġalternative",
        -9.40076273943604
      ],
      [
        "ĠBe",
        -9.40094365493006
      ],
      [
        "Ġplayer",
        -9.40137579754678
      ],
      [
        "Ġeggs",
        -9.401966269316798
      ],
      [
        "Ġwebsite",
        -9.40303572039502
      ],
      [
        ".\"",
        -9.40425951939847
      ],
      [
        "Ġtrue",
        -9.404398861179931
      ],
      [
        "Another",
        -9.405414692765367
      ],
      [
        "ĠUse",
        -9.405695445465833
      ],
      [
        "Ġreturn",
        -9.405732918697773
      ],
      [
        "Ġindicate",
        -9.406015421182907
      ],
      [
        "Ġappropriate",
        -9.40675105299394
      ],
      [
        "low",
        -9.407853334555687
      ],
      [
        "Ġefficient",
        -9.409405808000097
      ],
      [
        "Ġgenetic",
        -9.409411607249694
      ],
      [
        "Ġreview",
        -9.409921362402343
      ],
      [
        "Ġmass",
        -9.410923266929911
      ],
      [
        "Ġfun",
        -9.4121348218213
      ],
      [
        "Ġinterest",
        -9.412722541459946
      ],
      [
        "Ġtips",
        -9.413777338313473
      ],
      [
        "V",
        -9.41435118510554
      ],
      [
        "Ġorganization",
        -9.415147594516297
      ],
      [
        "Ġdirection",
        -9.416221506959344
      ],
      [
        "Ġaspect",
        -9.418185986731611
      ],
      [
        "Ġbehind",
        -9.419239145103187
      ],
      [
        "Ġrequirement",
        -9.419634895864212
      ],
      [
        "\"ĊĊ",
        -9.42003900093831
      ],
      [
        "Ġreaction",
        -9.423136983780934
      ],
      [
        "Ġeveryone",
        -9.424275150097367
      ],
      [
        "Ġtopic",
        -9.42490890574674
      ],
      [
        "body",
        -9.42523374628662
      ],
      [
        "Ġbad",
        -9.425388378716937
      ],
      [
        "Ġacid",
        -9.425413035675582
      ],
      [
        "Ġconnection",
        -9.426499338973407
      ],
      [
        "Ġlater",
        -9.42907230200193
      ],
      [
        "Ġscientists",
        -9.42947271433595
      ],
      [
        "ĠL",
        -9.430074452146645
      ],
      [
        "were",
        -9.430264710187572
      ],
      [
        "Ġmeat",
        -9.43381680004576
      ],
      [
        "Ġlimit",
        -9.43414982206324
      ],
      [
        "Ġshown",
        -9.436799208666164
      ],
      [
        "Ġcontribute",
        -9.438573527309057
      ],
      [
        "Ġsteps",
        -9.43967829143053
      ],
      [
        "Ġsensor",
        -9.439864289057528
      ],
      [
        "Ġsupply",
        -9.43996683077183
      ],
      [
        "kids",
        -9.440301982197829
      ],
      [
        "Ġbase",
        -9.440490653362351
      ],
      [
        "Ġsite",
        -9.441547810042088
      ],
      [
        "Ġunit",
        -9.442053116568276
      ],
      [
        "Ġgain",
        -9.442604017582203
      ],
      [
        "right",
        -9.442907744439932
      ],
      [
        "they",
        -9.443796376967168
      ],
      [
        "day",
        -9.443879698790449
      ],
      [
        "Ġfile",
        -9.445942220983104
      ],
      [
        "ĠHealth",
        -9.446621739797829
      ],
      [
        "ĠStates",
        -9.447847952172896
      ],
      [
        "Ġuseful",
        -9.4496150333465
      ],
      [
        "last",
        -9.449933874041797
      ],
      [
        "Ġpre",
        -9.452383325377564
      ],
      [
        "Ġmeet",
        -9.45269904728552
      ],
      [
        "ries",
        -9.454113295705833
      ],
      [
        "unning",
        -9.454295665602604
      ],
      [
        "Ġspread",
        -9.45485153801685
      ],
      [
        "Ġprotection",
        -9.454919023797604
      ],
      [
        "ĠâĢľ",
        -9.457588838743892
      ],
      [
        "Ġfinal",
        -9.457901153307288
      ],
      [
        "Ġingredient",
        -9.4586525396386
      ],
      [
        "Ġserious",
        -9.459370381216647
      ],
      [
        "Ġinfluence",
        -9.46024683541297
      ],
      [
        "Ġselect",
        -9.460493878927648
      ],
      [
        "Ġconstant",
        -9.460861924590862
      ],
      [
        "Ġdrive",
        -9.46320834796347
      ],
      [
        "Ġsave",
        -9.463811473538788
      ],
      [
        "ĠDo",
        -9.46445747835445
      ],
      [
        "moving",
        -9.466976134240891
      ],
      [
        "Ġmonth",
        -9.467132675608903
      ],
      [
        "ĠScience",
        -9.46933394517375
      ],
      [
        "Ġhabitat",
        -9.469590684214928
      ],
      [
        "Ġmeal",
        -9.470082446718015
      ],
      [
        "Ġfeeling",
        -9.470391167677615
      ],
      [
        "Ġelectrical",
        -9.470959397810253
      ],
      [
        "Ġspring",
        -9.471353068659544
      ],
      [
        "Ġcode",
        -9.471975010718817
      ],
      [
        "Ġelse",
        -9.472971499990187
      ],
      [
        "Ġnotice",
        -9.474629642472047
      ],
      [
        "Ġgenerate",
        -9.47478256829281
      ],
      [
        "Ġconcept",
        -9.475210153383582
      ],
      [
        "Ġgroups",
        -9.4767331057514
      ],
      [
        "So",
        -9.47710367298031
      ],
      [
        "Ġrepair",
        -9.47841269356974
      ],
      [
        "Using",
        -9.479406550083786
      ],
      [
        "ĠNorth",
        -9.483191057779788
      ],
      [
        "Ġcenter",
        -9.483591411668524
      ],
      [
        "Ġimmediate",
        -9.483824965127198
      ],
      [
        "Ġfresh",
        -9.48415732969955
      ],
      [
        "Ġ$",
        -9.484579757212645
      ],
      [
        "Ġglass",
        -9.484653952125765
      ],
      [
        "Ġreplace",
        -9.485344969189494
      ],
      [
        "Ġnutrient",
        -9.486119920596686
      ],
      [
        "Ġsuitable",
        -9.486825396808875
      ],
      [
        "Ġworks",
        -9.487208149000082
      ],
      [
        "Ġcircuit",
        -9.48812536424947
      ],
      [
        "Ġaware",
        -9.488905503077827
      ],
      [
        "Ġword",
        -9.488995412633972
      ],
      [
        "Ġroot",
        -9.490104100444768
      ],
      [
        "Ġbag",
        -9.490236443153602
      ],
      [
        "Ġadded",
        -9.490641718835874
      ],
      [
        "ĠShe",
        -9.492200425435335
      ],
      [
        "Ġtaste",
        -9.49443244343621
      ],
      [
        "ĠCan",
        -9.495357650494196
      ],
      [
        "Ġsample",
        -9.496053243405376
      ],
      [
        "Ġanalysis",
        -9.496126967031344
      ],
      [
        "ther",
        -9.497213828941888
      ],
      [
        "ĠEarth",
        -9.497291278635178
      ],
      [
        "Ġfrequent",
        -9.497432472180591
      ],
      [
        "Ġreall",
        -9.499362543656492
      ],
      [
        "--",
        -9.501179502425993
      ],
      [
        "Each",
        -9.501590914497966
      ],
      [
        "Ġweeks",
        -9.502969867295144
      ],
      [
        "Ġtesting",
        -9.504263810071183
      ],
      [
        "ĠX",
        -9.504500261442583
      ],
      [
        "Ġstory",
        -9.504622732947812
      ],
      [
        "Ġlocate",
        -9.505368394073326
      ],
      [
        "Ġmemory",
        -9.505370006658922
      ],
      [
        "U",
        -9.505859918791476
      ],
      [
        "Ġfiber",
        -9.506664548586285
      ],
      [
        "Ġremember",
        -9.50767219138152
      ],
      [
        "Ġconstruction",
        -9.50782179611
      ],
      [
        "Ġforest",
        -9.508750587939724
      ],
      [
        "ĠAfter",
        -9.510722005502414
      ],
      [
        "Ġdirect",
        -9.511645263169598
      ],
      [
        "me",
        -9.512262865217794
      ],
      [
        "Ġdoctor",
        -9.513177909172502
      ],
      [
        "Ġwords",
        -9.513184079051786
      ],
      [
        "Ġfoods",
        -9.513870854313025
      ],
      [
        "Ġseek",
        -9.514287594676263
      ],
      [
        "ĠDr",
        -9.5146082690774
      ],
      [
        "Ġbrand",
        -9.51522102004899
      ],
      [
        "Ġflowers",
        -9.516452192431728
      ],
      [
        "Ġinstruction",
        -9.516973435939132
      ],
      [
        "Ġthen",
        -9.517522993260815
      ],
      [
        "Ġrecommende",
        -9.517636947839804
      ],
      [
        "As",
        -9.518923529766838
      ],
      [
        "Ġwatch",
        -9.519677144827243
      ],
      [
        "Ġprett",
        -9.51993822476296
      ],
      [
        "man",
        -9.520119075267374
      ],
      [
        "Ġdrink",
        -9.520564622103912
      ],
      [
        "Ġhearing",
        -9.52254672433007
      ],
      [
        "ĠG",
        -9.522963968387003
      ],
      [
        "Ġprocedure",
        -9.52473082604881
      ],
      [
        "Ġwait",
        -9.525656762255252
      ],
      [
        "Ġdidn",
        -9.525661736793634
      ],
      [
        "Ġman",
        -9.52614131784074
      ],
      [
        "Ġpage",
        -9.527608671620722
      ],
      [
        "ĠCalifornia",
        -9.527794193830918
      ],
      [
        "Ġconnect",
        -9.528230919451962
      ],
      [
        "Ġgreater",
        -9.52922216682298
      ],
      [
        "By",
        -9.529432301860748
      ],
      [
        "Ġsmalle",
        -9.531243728441035
      ],
      [
        "Ġseparate",
        -9.532322672672116
      ],
      [
        "Ġc",
        -9.533653905412825
      ],
      [
        "land",
        -9.533865849810912
      ],
      [
        "ĠK",
        -9.534778127855226
      ],
      [
        "Ġtrack",
        -9.534793639787702
      ],
      [
        "ĠUS",
        -9.53501470692628
      ],
      [
        "Step",
        -9.53591567318421
      ],
      [
        "Ġtend",
        -9.536421220955594
      ],
      [
        "Ġgovernment",
        -9.53655450478984
      ],
      [
        "Ġmoment",
        -9.538152306065768
      ],
      [
        "Ġspend",
        -9.540394203504851
      ],
      [
        "ĠSouth",
        -9.540945065407708
      ],
      [
        "Ġflight",
        -9.541679235620888
      ],
      [
        "Ġinput",
        -9.542274751959258
      ],
      [
        "when",
        -9.54272517363606
      ],
      [
        "ĠO",
        -9.54273588646358
      ],
      [
        "will",
        -9.544064272871822
      ],
      [
        "Ġfeature",
        -9.549970265501132
      ],
      [
        "Ġmale",
        -9.551202768973546
      ],
      [
        "Ġmembers",
        -9.55134409239811
      ],
      [
        "Ġstrength",
        -9.551444114922289
      ],
      [
        "Ġsix",
        -9.55161035119232
      ],
      [
        "Ġtouch",
        -9.552009773534872
      ],
      [
        "Ġpromote",
        -9.553171582454716
      ],
      [
        "Ġfat",
        -9.55442322917672
      ],
      [
        "ĠWhil",
        -9.554480670861292
      ],
      [
        "Ġteachers",
        -9.556543853939202
      ],
      [
        "ĠV",
        -9.557353383548715
      ],
      [
        "fish",
        -9.557542918071082
      ],
      [
        "Ġ=",
        -9.559380246540789
      ],
      [
        "Ġdiscover",
        -9.55958960677647
      ],
      [
        "Ġcritical",
        -9.560259325577448
      ],
      [
        "Ġpatterns",
        -9.561131751592852
      ],
      [
        "Ġcleaning",
        -9.561635194339958
      ],
      [
        "Ġdistance",
        -9.561689380426031
      ],
      [
        "ĠHowe",
        -9.562863887707202
      ],
      [
        "Ġchallenges",
        -9.562887635195374
      ],
      [
        "Ġideal",
        -9.563015517947058
      ],
      [
        "Ġdocument",
        -9.563799679841807
      ],
      [
        "-to",
        -9.564219426640816
      ],
      [
        "ĠSchool",
        -9.564404535683432
      ],
      [
        "Ġperform",
        -9.564603961061495
      ],
      [
        "Ġattack",
        -9.564818120500682
      ],
      [
        "Ġrecommend",
        -9.565482746073917
      ],
      [
        "make",
        -9.566070688956913
      ],
      [
        "ĠN",
        -9.567782413035658
      ],
      [
        "what",
        -9.5701674586374
      ],
      [
        "Ġready",
        -9.571146882538846
      ],
      [
        "Q",
        -9.57189752231385
      ],
      [
        "Ġdeath",
        -9.572388470862318
      ],
      [
        "Ġpattern",
        -9.5738517697069
      ],
      [
        "ility",
        -9.574607553959876
      ],
      [
        "while",
        -9.574657420482186
      ],
      [
        "Ġcombination",
        -9.574907288710737
      ],
      [
        "Now",
        -9.574926319674594
      ],
      [
        "Ġbaby",
        -9.57514007106068
      ],
      [
        "Ġimportanc",
        -9.575191855873078
      ],
      [
        "Ġwind",
        -9.580301692200525
      ],
      [
        "Ġframe",
        -9.58106838211778
      ],
      [
        "Ġhorse",
        -9.581982587564395
      ],
      [
        "water",
        -9.582289357020338
      ],
      [
        "Ġevidence",
        -9.582651281924234
      ],
      [
        "Ġcareful",
        -9.583784050401874
      ],
      [
        "Ġmix",
        -9.58388741954057
      ],
      [
        "Ġslow",
        -9.586291447911238
      ],
      [
        "Ġgot",
        -9.588813693200768
      ],
      [
        "Ġgames",
        -9.589020732632529
      ],
      [
        "Ġorganic",
        -9.589803246764818
      ],
      [
        "had",
        -9.59122310711136
      ],
      [
        "Ġmusic",
        -9.591758627312796
      ],
      [
        "Ġinstance",
        -9.593086423228744
      ],
      [
        "Ġcycle",
        -9.595032395864488
      ],
      [
        "Ġwire",
        -9.595452415396217
      ],
      [
        "Ġhope",
        -9.597025585791895
      ],
      [
        "And",
        -9.597679533578976
      ],
      [
        "Ġwear",
        -9.598276041244208
      ],
      [
        "Ġrest",
        -9.598804751124092
      ],
      [
        "rate",
        -9.599535826227791
      ],
      [
        "Ġfilter",
        -9.6002987161031
      ],
      [
        "ĠYes",
        -9.600904121368387
      ],
      [
        "Ġdiscuss",
        -9.601251895206897
      ],
      [
        "Ġblue",
        -9.602229187031543
      ],
      [
        "K",
        -9.603084494615963
      ],
      [
        ">",
        -9.60570491802851
      ],
      [
        "Ġland",
        -9.60597453958188
      ],
      [
        "Ġdemand",
        -9.60745727132904
      ],
      [
        "ers",
        -9.609409737765793
      ],
      [
        "Ġfire",
        -9.610615796236663
      ],
      [
        "Ġhour",
        -9.610631626147333
      ],
      [
        "Ġflower",
        -9.610652657303206
      ],
      [
        "Ġdefine",
        -9.611755972021186
      ],
      [
        "Ġrecord",
        -9.612712285039064
      ],
      [
        "Ġhair",
        -9.613876745350796
      ],
      [
        "âĢ¢",
        -9.614353961548613
      ],
      [
        "Ġdeal",
        -9.614889358093592
      ],
      [
        "Ġefficiency",
        -9.615240593851215
      ],
      [
        "Ġteaching",
        -9.617169217589854
      ],
      [
        "><",
        -9.61956614461534
      ],
      [
        "Ġpanel",
        -9.620118751361858
      ],
      [
        "giving",
        -9.620669439731383
      ],
      [
        "Ġcamera",
        -9.6207159783448
      ],
      [
        "Ġfeed",
        -9.620719768070902
      ],
      [
        "Ġresponsibl",
        -9.621030573532725
      ],
      [
        "ĠAmerica",
        -9.621255001944686
      ],
      [
        "Ġdevelope",
        -9.621906206519895
      ],
      [
        "Ġdetect",
        -9.622069469818188
      ],
      [
        "Ġfracture",
        -9.622575363582316
      ],
      [
        "Ġserve",
        -9.623618630836178
      ],
      [
        "life",
        -9.623976395102376
      ],
      [
        "Ġcentur",
        -9.625577595092588
      ],
      [
        "That",
        -9.628486019566887
      ],
      [
        "lines",
        -9.628913777007156
      ],
      [
        "Ġliquid",
        -9.629675340995076
      ],
      [
        "Ġheavy",
        -9.631574491226605
      ],
      [
        "companie",
        -9.63567871259282
      ],
      [
        "...ĊĊ",
        -9.635806549066931
      ],
      [
        "Y",
        -9.636089149788544
      ],
      [
        "many",
        -9.637531355212214
      ],
      [
        "about",
        -9.63829849932326
      ],
      [
        "Ġprocesses",
        -9.638309482619908
      ],
      [
        "Ġjourney",
        -9.638995158664354
      ],
      [
        "Ġsevere",
        -9.639083514823444
      ],
      [
        "Ġcapacit",
        -9.63960118783023
      ],
      [
        "Ġleg",
        -9.639756660693196
      ],
      [
        "Ġways",
        -9.641022899181024
      ],
      [
        "#",
        -9.642184308448517
      ],
      [
        "Ġconduct",
        -9.64257203383903
      ],
      [
        "Ġpass",
        -9.642892615332046
      ],
      [
        "ĠMay",
        -9.643748350500104
      ],
      [
        "Ġsuccess",
        -9.643812876845814
      ],
      [
        "red",
        -9.644101495881042
      ],
      [
        "even",
        -9.644335111626209
      ],
      [
        "Ġlives",
        -9.644576302637958
      ],
      [
        "take",
        -9.644777130669148
      ],
      [
        "Ġclaim",
        -9.645594551849731
      ],
      [
        "Ġresistance",
        -9.645966893313634
      ],
      [
        "Ġreduc",
        -9.646855512962926
      ],
      [
        "Ġbuilt",
        -9.64737310282948
      ],
      [
        "Ġsecurity",
        -9.64924520446261
      ],
      [
        "Ġmouth",
        -9.64953407221554
      ],
      [
        "nce",
        -9.649975792070018
      ],
      [
        "Ġcouple",
        -9.650259808991445
      ],
      [
        "Ġenter",
        -9.650643660692849
      ],
      [
        "Ġfluid",
        -9.650792796660305
      ],
      [
        "Ġobtain",
        -9.651811645258874
      ],
      [
        "Ġobserve",
        -9.65262286510131
      ],
      [
        "Ġw",
        -9.65324440849377
      ],
      [
        "-term",
        -9.653365141259956
      ],
      [
        "Ġmental",
        -9.654359697448538
      ],
      [
        "ĠMore",
        -9.654529525659576
      ],
      [
        "Ġstyle",
        -9.654841387013466
      ],
      [
        "Ġdriver",
        -9.655835498691388
      ],
      [
        "bility",
        -9.658697453920974
      ],
      [
        "Ġanyone",
        -9.663012362474488
      ],
      [
        "Ġgene",
        -9.66378804454922
      ],
      [
        "Ġfarm",
        -9.663982696637987
      ],
      [
        "Ġinteraction",
        -9.664723639007343
      ],
      [
        "Ġscale",
        -9.665469447301591
      ],
      [
        "Ġfine",
        -9.66561591406641
      ],
      [
        "Ġprograms",
        -9.666965681253076
      ],
      [
        "Ġscientific",
        -9.669231135174911
      ],
      [
        "Ġmedication",
        -9.6696524387541
      ],
      [
        "Ġincluded",
        -9.669798580331088
      ],
      [
        "Ġnothing",
        -9.670899636990228
      ],
      [
        "older",
        -9.671161465431291
      ],
      [
        "ĠWorld",
        -9.672803706876309
      ],
      [
        "Ġbeautiful",
        -9.672986898640907
      ],
      [
        "Ġvisual",
        -9.6742761306336
      ],
      [
        "Ġdriv",
        -9.67655289549878
      ],
      [
        "Ġfoot",
        -9.67811895517118
      ],
      [
        "Ġfriends",
        -9.679012376073937
      ],
      [
        "Here",
        -9.679464997427214
      ],
      [
        "Ġcomfortabl",
        -9.679646903818371
      ],
      [
        "Ġsea",
        -9.679654032300563
      ],
      [
        "Ġrapid",
        -9.679873293559211
      ],
      [
        "Ġensur",
        -9.68099848297676
      ],
      [
        "etting",
        -9.681345631967876
      ],
      [
        "Ġworth",
        -9.682087613543253
      ],
      [
        "Ġenable",
        -9.683492620923474
      ],
      [
        "Ġcharacteristic",
        -9.68405593229209
      ],
      [
        "Ġmeasurement",
        -9.68406009993896
      ],
      [
        "Ġwave",
        -9.685437666831191
      ],
      [
        "Ġcarry",
        -9.68560263958322
      ],
      [
        "Ġteacher",
        -9.685954238474666
      ],
      [
        "Ġsustainabl",
        -9.68792243538804
      ],
      [
        "Ġraise",
        -9.688196103396653
      ],
      [
        "Ġpurchase",
        -9.688571965500827
      ],
      [
        "Ġfloor",
        -9.688834114124504
      ],
      [
        "Ġmeaning",
        -9.690182853591027
      ],
      [
        "Ġhandle",
        -9.690544007408617
      ],
      [
        "Ġthinking",
        -9.690672664362031
      ],
      [
        "Ġcolour",
        -9.691093673579353
      ],
      [
        "Ġthird",
        -9.69153570289991
      ],
      [
        "Ġadvanced",
        -9.692354528100562
      ],
      [
        "Ġbottom",
        -9.692365299457162
      ],
      [
        "Ġequal",
        -9.69266739984229
      ],
      [
        "Ġsigns",
        -9.693482535267307
      ],
      [
        "Ġexposure",
        -9.694014480359822
      ],
      [
        "Ġmoistur",
        -9.695523232512
      ],
      [
        "Ġseed",
        -9.69741192673306
      ],
      [
        "Ġoutput",
        -9.698584343150834
      ],
      [
        "Ġparticle",
        -9.703079931474704
      ],
      [
        "Ġinches",
        -9.703319713082166
      ],
      [
        "Ġengineer",
        -9.703611665099569
      ],
      [
        "Ġsmooth",
        -9.70393639388558
      ],
      [
        "Ġapplied",
        -9.70415494524931
      ],
      [
        "adding",
        -9.704175756748857
      ],
      [
        "Ġgeneration",
        -9.705599939147564
      ],
      [
        "Ġnative",
        -9.706374462786515
      ],
      [
        "expensive",
        -9.708044201834833
      ],
      [
        "Ġvary",
        -9.708072923501536
      ],
      [
        "Ġaccurate",
        -9.708397671406006
      ],
      [
        "Ġlesson",
        -9.710402743578737
      ],
      [
        "Ġask",
        -9.71170931418845
      ],
      [
        "Ġnote",
        -9.712355120947034
      ],
      [
        "Ġdecrease",
        -9.712903391937656
      ],
      [
        "ĠModel",
        -9.71343661306333
      ],
      [
        "going",
        -9.714497171085473
      ],
      [
        "Ġpowerful",
        -9.714782345036118
      ],
      [
        "Ġsolutions",
        -9.715290327926866
      ],
      [
        "X",
        -9.715550779739724
      ],
      [
        "ĠOf",
        -9.71622420739608
      ],
      [
        "do",
        -9.716537479883309
      ],
      [
        "Ġmulti",
        -9.71694352927778
      ],
      [
        "ĠMost",
        -9.71697669107524
      ],
      [
        "ry",
        -9.717700222752208
      ],
      [
        "tion",
        -9.719283958406724
      ],
      [
        "Ġadvantage",
        -9.720590507178926
      ],
      [
        "ĠDNA",
        -9.721200644195129
      ],
      [
        "into",
        -9.72249543275456
      ],
      [
        "Ġactual",
        -9.72370635811945
      ],
      [
        "Ġago",
        -9.72371162095004
      ],
      [
        "upon",
        -9.724421089287446
      ],
      [
        "Ġdraw",
        -9.726067557321834
      ],
      [
        "Ġyellow",
        -9.727340858025771
      ],
      [
        "Ġdiabet",
        -9.727831442166174
      ],
      [
        "Ġpublished",
        -9.728023446369
      ],
      [
        "Ġconsist",
        -9.728682520709445
      ],
      [
        "Ġal",
        -9.728700326408635
      ],
      [
        "Ġhands",
        -9.730929802281931
      ],
      [
        "Ġrefer",
        -9.732188645426312
      ],
      [
        "Ġquick",
        -9.732280982131543
      ],
      [
        "Ġinjur",
        -9.732753677108182
      ],
      [
        "Ġimages",
        -9.736556277678543
      ],
      [
        "Ġmilk",
        -9.736933813846306
      ],
      [
        "Ġ[",
        -9.737639226518668
      ],
      [
        "Ġact",
        -9.737770077394348
      ],
      [
        "ties",
        -9.737862732238536
      ],
      [
        "ĠAfrica",
        -9.739428959871272
      ],
      [
        "Ġpollution",
        -9.739879881344445
      ],
      [
        "Ġencourage",
        -9.74048423086654
      ],
      [
        "Ġvaluable",
        -9.740587523505464
      ],
      [
        "ĠMy",
        -9.74185432630392
      ],
      [
        "Ġbox",
        -9.74266165869652
      ],
      [
        "Ġtransfer",
        -9.743021093977507
      ],
      [
        "Ġvision",
        -9.74326314166456
      ],
      [
        "Ġse",
        -9.744532922477976
      ],
      [
        "Ġhappens",
        -9.745159024868055
      ],
      [
        "Ġculture",
        -9.74521211387479
      ],
      [
        "Ġbrown",
        -9.74747264523787
      ],
      [
        "Ġthousand",
        -9.747768193751035
      ],
      [
        "Ġphotograph",
        -9.748231617574255
      ],
      [
        "Ġpractices",
        -9.749501249727388
      ],
      [
        "Ġslight",
        -9.749672962991752
      ],
      [
        "Before",
        -9.751248200264666
      ],
      [
        "ĠNot",
        -9.75349993054944
      ],
      [
        "Ġsoft",
        -9.754306159672684
      ],
      [
        "Ġexcellent",
        -9.754391780604092
      ],
      [
        "Our",
        -9.755859262168023
      ],
      [
        "Ġplatform",
        -9.7559383418937
      ],
      [
        "Ġstates",
        -9.756943056588064
      ],
      [
        "ĠResearch",
        -9.756970336908072
      ],
      [
        "Ġsecure",
        -9.75705070791556
      ],
      [
        "Ġideas",
        -9.757489356821823
      ],
      [
        "Ġinteresting",
        -9.758448017851324
      ],
      [
        ".com",
        -9.759002612278856
      ],
      [
        "Ġboard",
        -9.759033023360317
      ],
      [
        "Ġfriend",
        -9.759217165091629
      ],
      [
        "-up",
        -9.761380070051349
      ],
      [
        "was",
        -9.761628661881872
      ],
      [
        "se",
        -9.762074900516213
      ],
      [
        "Ġmanufacturer",
        -9.76280080715739
      ],
      [
        "Ġever",
        -9.763028565688195
      ],
      [
        "After",
        -9.76376400481473
      ],
      [
        "Ġdrain",
        -9.763919307807775
      ],
      [
        "ĠState",
        -9.764105867338404
      ],
      [
        "Ġconsistent",
        -9.764501135408704
      ],
      [
        "ĠCenter",
        -9.764626407590756
      ],
      [
        "Ġwrong",
        -9.765585541026471
      ],
      [
        "ĠAdditional",
        -9.766009104607916
      ],
      [
        "Ġwrite",
        -9.767085059507735
      ],
      [
        "Ġwriting",
        -9.767115421796367
      ],
      [
        "ful",
        -9.767207422000611
      ],
      [
        "Ġintroduce",
        -9.767461924946748
      ],
      [
        "Ġattempt",
        -9.768262169848269
      ],
      [
        "Ġphone",
        -9.7683065088341
      ],
      [
        "Ġapp",
        -9.768648641977093
      ],
      [
        "ook",
        -9.768846030997924
      ],
      [
        "Ġbright",
        -9.769252641877124
      ],
      [
        "them",
        -9.769787089623795
      ],
      [
        "Ġdepth",
        -9.77001357152767
      ],
      [
        "uses",
        -9.77054891559586
      ],
      [
        "Ġpicture",
        -9.77145948049772
      ],
      [
        "Ġcontainer",
        -9.771466490671738
      ],
      [
        "Ġkill",
        -9.771885610179329
      ],
      [
        "Ġwhe",
        -9.771889111594136
      ],
      [
        "Ġmonitor",
        -9.772188443925216
      ],
      [
        "Ġpoor",
        -9.779030334760836
      ],
      [
        "head",
        -9.780168116414254
      ],
      [
        "ĠTheir",
        -9.780285923223357
      ],
      [
        "Ġcame",
        -9.781158490109537
      ],
      [
        "Ġfly",
        -9.783013981674898
      ],
      [
        "Ġfinancial",
        -9.783631700349328
      ],
      [
        "Ġload",
        -9.78394410509684
      ],
      [
        "ĠEnglish",
        -9.783969552608816
      ],
      [
        "Ġphoto",
        -9.78472092990378
      ],
      [
        "Ġstand",
        -9.78477767804934
      ],
      [
        "Ġvoltage",
        -9.785565848583222
      ],
      [
        "Ġsurrounding",
        -9.785972540100818
      ],
      [
        "Ġoutcome",
        -9.78713683472882
      ],
      [
        "Ġoxygen",
        -9.787406605873088
      ],
      [
        "Ġnoise",
        -9.79010322029848
      ],
      [
        "ĠUK",
        -9.791632048097735
      ],
      [
        "No",
        -9.79318603573938
      ],
      [
        "Ġrare",
        -9.793339330303017
      ],
      [
        "lower",
        -9.793371707835362
      ],
      [
        "Ġpest",
        -9.793577097600032
      ],
      [
        "Ġlack",
        -9.793891001785177
      ],
      [
        "Ġvolume",
        -9.79399772613657
      ],
      [
        "Ġimmune",
        -9.79564306851994
      ],
      [
        "eat",
        -9.7959969321373
      ],
      [
        "Ġphase",
        -9.797743016713516
      ],
      [
        "Ġmatch",
        -9.7985504649239
      ],
      [
        "Ġdangerous",
        -9.799592952120628
      ],
      [
        "Ġsubstance",
        -9.80058480819656
      ],
      [
        "Ġpath",
        -9.801248070543942
      ],
      [
        "Ġcoast",
        -9.801384682369912
      ],
      [
        "Ġedge",
        -9.802216906621704
      ],
      [
        "ĠOur",
        -9.802376198244776
      ],
      [
        "Ġtable",
        -9.803067368563864
      ],
      [
        "ring",
        -9.804638981840531
      ],
      [
        "Ġtexture",
        -9.805890434576922
      ],
      [
        "Ġsearch",
        -9.806344660218045
      ],
      [
        "Ġinitial",
        -9.807844784875549
      ],
      [
        "Ġlimite",
        -9.808390602191324
      ],
      [
        "ĠAre",
        -9.810222906522045
      ],
      [
        "Ġcable",
        -9.811935444674036
      ],
      [
        "Ġpick",
        -9.813130193556509
      ],
      [
        "Ġestimate",
        -9.81353607091964
      ],
      [
        "Ġfabric",
        -9.814476326480284
      ],
      [
        "Ġtherefor",
        -9.815539555361903
      ],
      [
        "Ġversion",
        -9.815946926961487
      ],
      [
        "Ġmother",
        -9.819672872296955
      ],
      [
        "Ġ&",
        -9.819823282282169
      ],
      [
        "ĠWho",
        -9.82207799136022
      ],
      [
        "Ġdoor",
        -9.82336161531266
      ],
      [
        "Ġforward",
        -9.823521184511844
      ],
      [
        "Ġroad",
        -9.824809550166789
      ],
      [
        "ĠInstitute",
        -9.826636756251006
      ],
      [
        "Ġmessage",
        -9.826783736729476
      ],
      [
        "Ġmiddle",
        -9.827376742875884
      ],
      [
        "Ġreflect",
        -9.828835650907449
      ],
      [
        "Ġlaw",
        -9.830108859180054
      ],
      [
        "Ġhospital",
        -9.830280989144413
      ],
      [
        "ice",
        -9.830311277623236
      ],
      [
        "All",
        -9.83080965160483
      ],
      [
        "ĠMake",
        -9.831630810041018
      ],
      [
        "Ġvitamin",
        -9.832385754834592
      ],
      [
        "Ġ-->",
        -9.832412408696294
      ],
      [
        "Ġtechnologi",
        -9.832492646836217
      ],
      [
        "Ġtherap",
        -9.833086361930052
      ],
      [
        "Ġadjust",
        -9.833196474587238
      ],
      [
        "ĠW",
        -9.833226955786447
      ],
      [
        "Ġmap",
        -9.83463486661607
      ],
      [
        "Ġbeginning",
        -9.83631137459458
      ],
      [
        "/or",
        -9.837443110964166
      ],
      [
        "**",
        -9.838870109441334
      ],
      [
        "Ġsalt",
        -9.839167091563388
      ],
      [
        "Ġvoice",
        -9.839201882746424
      ],
      [
        "Ġsaw",
        -9.839445152725483
      ],
      [
        "Ġspeak",
        -9.841542734638676
      ],
      [
        "Ġbackground",
        -9.842397004968038
      ],
      [
        "Ġfigure",
        -9.842812853799876
      ],
      [
        "ooking",
        -9.842894508215242
      ],
      [
        "Ġrecipe",
        -9.84558642967242
      ],
      [
        "Ġsign",
        -9.845766455335736
      ],
      [
        ".S",
        -9.84619474774242
      ],
      [
        "there",
        -9.846694112938028
      ],
      [
        "Ġbusinesses",
        -9.847252404301386
      ],
      [
        "Ġtransport",
        -9.847429627330683
      ],
      [
        "Ġfaste",
        -9.847590633574672
      ],
      [
        "Ġoffice",
        -9.8475960658255
      ],
      [
        "Ġcollection",
        -9.848579978443112
      ],
      [
        "Ġmedia",
        -9.848853868166474
      ],
      [
        "Ġemployee",
        -9.84982416758678
      ],
      [
        "Ġinternational",
        -9.850583067202972
      ],
      [
        "Ġstaff",
        -9.850814764917375
      ],
      [
        "Ġmaximu",
        -9.850840184801749
      ],
      [
        "Ġpresence",
        -9.851200858604985
      ],
      [
        "ne",
        -9.85129774033194
      ],
      [
        "Ġcutting",
        -9.85156662068282
      ],
      [
        "surgery",
        -9.852467834705616
      ],
      [
        "Ġpull",
        -9.85288237574343
      ],
      [
        "Ġassessment",
        -9.85290951309018
      ],
      [
        "Ġhuge",
        -9.8542513702567
      ],
      [
        "Ġmedicine",
        -9.856672915758292
      ],
      [
        "Ġvaccine",
        -9.857052657756508
      ],
      [
        "Ġbecomes",
        -9.8572559077808
      ],
      [
        "Ġhot",
        -9.857265949137291
      ],
      [
        "Ġplanet",
        -9.857616614332652
      ],
      [
        "Ġold",
        -9.857973128760992
      ],
      [
        "Ġchallenge",
        -9.858540884332964
      ],
      [
        "Ġgettin",
        -9.859294464005306
      ],
      [
        "Ġgets",
        -9.859922989499022
      ],
      [
        "On",
        -9.860215095535889
      ],
      [
        "Ġnational",
        -9.860591914316744
      ],
      [
        "Ġtha",
        -9.861799342229016
      ],
      [
        "Ġletter",
        -9.863162860867636
      ],
      [
        "Ġschools",
        -9.863724987100683
      ],
      [
        "haps",
        -9.864685038343158
      ],
      [
        "Ġfair",
        -9.865103182587411
      ],
      [
        "Ġoperation",
        -9.866845351349935
      ],
      [
        "Ġrecover",
        -9.867843863396844
      ],
      [
        "Man",
        -9.868327063359718
      ],
      [
        "Ġsoon",
        -9.868626384049014
      ],
      [
        "ĠSystem",
        -9.8696216522216
      ],
      [
        "Ġconcentration",
        -9.870900253393849
      ],
      [
        "Ġecosystem",
        -9.871289888126269
      ],
      [
        "try",
        -9.87320465612352
      ],
      [
        "Ġstrategies",
        -9.87411847957977
      ],
      [
        "Ġorganism",
        -9.874187846420494
      ],
      [
        "Ġbreath",
        -9.874296565826754
      ],
      [
        "times",
        -9.875285884277666
      ],
      [
        "Ġrecognize",
        -9.875358155084566
      ],
      [
        "Ġcontext",
        -9.875576303657528
      ],
      [
        "Your",
        -9.87616858897426
      ],
      [
        "Ġcoffee",
        -9.877080358074467
      ],
      [
        "Ġwritten",
        -9.877388412228312
      ],
      [
        "Ġalgorithm",
        -9.879308989165452
      ],
      [
        "Ġiron",
        -9.87964954551109
      ],
      [
        "Ġadapt",
        -9.880406956059916
      ],
      [
        "Ġage",
        -9.88177554109117
      ],
      [
        "Ġexpected",
        -9.882590698854736
      ],
      [
        "field",
        -9.883081440231663
      ],
      [
        "ĠNOT",
        -9.883092887222578
      ],
      [
        "Ġrobot",
        -9.883632619361812
      ],
      [
        "ĠRead",
        -9.883712609470145
      ],
      [
        "Al",
        -9.883864232653336
      ],
      [
        "Ġoutdoor",
        -9.883895362705504
      ],
      [
        "away",
        -9.884030953465352
      ],
      [
        "Ġemission",
        -9.885329549796356
      ],
      [
        "Ġrich",
        -9.887240298778464
      ],
      [
        "Ġfilm",
        -9.887626542980325
      ],
      [
        "Ġswitch",
        -9.887803973261228
      ],
      [
        "Ġhapp",
        -9.888578571684352
      ],
      [
        "Ġlate",
        -9.88890891582393
      ],
      [
        "Ġs",
        -9.890760988907672
      ],
      [
        "ĠOnc",
        -9.890772828056871
      ],
      [
        "Ġplease",
        -9.891460815725225
      ],
      [
        "don",
        -9.891571849617897
      ],
      [
        "Ġselection",
        -9.892238945998432
      ],
      [
        "Ġfoundation",
        -9.893303874284218
      ],
      [
        "Ġbigge",
        -9.89338644467346
      ],
      [
        "ĠFirst",
        -9.893693197569457
      ],
      [
        "Ġdouble",
        -9.894537473669178
      ],
      [
        "Ġsort",
        -9.895293357573076
      ],
      [
        "Ġupper",
        -9.895865486081648
      ],
      [
        "Ġcaus",
        -9.896323177020836
      ],
      [
        "Ġproteins",
        -9.897965151569352
      ],
      [
        "Ġtank",
        -9.899191502125186
      ],
      [
        "went",
        -9.90041796897892
      ],
      [
        "sources",
        -9.901208777707332
      ],
      [
        "Ġprogress",
        -9.903004268253818
      ],
      [
        "Ġroots",
        -9.903112366645855
      ],
      [
        "Ġclick",
        -9.90344982477015
      ],
      [
        "Ġscreen",
        -9.905325120306458
      ],
      [
        "Ġgrain",
        -9.905670314685288
      ],
      [
        "Ġsquare",
        -9.90576762458754
      ],
      [
        "Ġsequence",
        -9.906033905594269
      ],
      [
        "Do",
        -9.907082164852362
      ],
      [
        "Ġangle",
        -9.907085199051537
      ],
      [
        "ĠRiver",
        -9.907506461079286
      ],
      [
        "Ġburn",
        -9.9075740877233
      ],
      [
        "end",
        -9.907849218235016
      ],
      [
        "Ġfix",
        -9.908050655539704
      ],
      [
        "âĢĿ",
        -9.90806322715125
      ],
      [
        "Ġball",
        -9.908082010413588
      ],
      [
        "Ġprocessor",
        -9.909376087745702
      ],
      [
        "Ġconnected",
        -9.910531539057189
      ],
      [
        "Ġtrip",
        -9.91069147544087
      ],
      [
        "Ġconsumpti",
        -9.911595789712214
      ],
      [
        "en",
        -9.911735054969885
      ],
      [
        "Ġgrass",
        -9.912067162182016
      ],
      [
        "Ġstick",
        -9.913430638382788
      ],
      [
        "Ġthreat",
        -9.914293055021291
      ],
      [
        "Ġaction",
        -9.915744375427082
      ],
      [
        "ĠJust",
        -9.915749697663744
      ],
      [
        "Ġplane",
        -9.91620539253142
      ],
      [
        "Ġcapture",
        -9.916810692378718
      ],
      [
        "Ġsounds",
        -9.916843063882489
      ],
      [
        "Ġvirtual",
        -9.916922290337348
      ],
      [
        "Ġcentral",
        -9.917096761243906
      ],
      [
        "Ġowners",
        -9.918276723328953
      ],
      [
        "Ġclassroom",
        -9.918473253307988
      ],
      [
        "Ġmedium",
        -9.918516378377925
      ],
      [
        "Ġanti",
        -9.918800577045468
      ],
      [
        "Ġpractical",
        -9.919032974886434
      ],
      [
        "their",
        -9.919499123153754
      ],
      [
        "Ġhost",
        -9.920291421314246
      ],
      [
        "Ġearth",
        -9.9210466170619
      ],
      [
        "Ġpound",
        -9.92214526641446
      ],
      [
        "Ġdemonstrate",
        -9.922252267283312
      ],
      [
        "Ġaccept",
        -9.92391397542865
      ],
      [
        "ĠAustralia",
        -9.92449314580152
      ],
      [
        "ecause",
        -9.92522565984984
      ],
      [
        "Ġdiscovered",
        -9.925761535198957
      ],
      [
        "ĠEven",
        -9.925977109600286
      ],
      [
        "Ġconsume",
        -9.926373690314154
      ],
      [
        "Ġprinciple",
        -9.927656554302718
      ],
      [
        "Ġexpect",
        -9.927786231948977
      ],
      [
        "Ġbreed",
        -9.929388126340314
      ],
      [
        "Ġtube",
        -9.92983611161889
      ],
      [
        "Ġmechanism",
        -9.930164720346117
      ],
      [
        "Ġannual",
        -9.930326063106689
      ],
      [
        "Ġrock",
        -9.93223712005562
      ],
      [
        "Ġdi",
        -9.932281918613423
      ],
      [
        "Ġvariable",
        -9.934149420495151
      ],
      [
        "Ġpaint",
        -9.934172366173645
      ],
      [
        "Ġexpand",
        -9.934385396367636
      ],
      [
        "Ġrate",
        -9.93648111595009
      ],
      [
        "Ġpipe",
        -9.93648690608878
      ],
      [
        "Ġsweet",
        -9.936536329197644
      ],
      [
        "-like",
        -9.936591105269322
      ],
      [
        "ium",
        -9.936605371506252
      ],
      [
        "Ġcareer",
        -9.936798621071862
      ],
      [
        "Ġpush",
        -9.937507653856596
      ],
      [
        "Ġdisplay",
        -9.938507541157326
      ],
      [
        "Ġbutton",
        -9.940313058445096
      ],
      [
        "Ġspecifically",
        -9.940833396950207
      ],
      [
        "him",
        -9.94121117068109
      ],
      [
        "then",
        -9.943817352921265
      ],
      [
        "Ġchicken",
        -9.944587596171738
      ],
      [
        "Ġvital",
        -9.94566779987112
      ],
      [
        "held",
        -9.945752190059984
      ],
      [
        "Ġillness",
        -9.94715553285404
      ],
      [
        "Ġessay",
        -9.94872519366402
      ],
      [
        "Ġfavorite",
        -9.949503454259087
      ],
      [
        "ĠIndia",
        -9.950616091985436
      ],
      [
        "Ġcloth",
        -9.951574885780367
      ],
      [
        "Ġprefer",
        -9.951601565035045
      ],
      [
        "Ġinternal",
        -9.952744741466132
      ],
      [
        "Ġelectronic",
        -9.952947729675063
      ],
      [
        "Ġcommercial",
        -9.953987891040851
      ],
      [
        "Ġheight",
        -9.955529046133108
      ],
      [
        "Ġmixture",
        -9.956228052813568
      ],
      [
        "Ġmid",
        -9.95654023926179
      ],
      [
        "Ġcity",
        -9.957542145367826
      ],
      [
        "Ġspot",
        -9.957550701624571
      ],
      [
        "Ġidentifie",
        -9.958099266058378
      ],
      [
        "Ġcompound",
        -9.958261193617442
      ],
      [
        "Ġsolid",
        -9.958440900358813
      ],
      [
        "Ġbutter",
        -9.95865103017112
      ],
      [
        "Ġresource",
        -9.959276744390191
      ],
      [
        "thus",
        -9.961363088070057
      ],
      [
        "Ġharmful",
        -9.961747064640535
      ],
      [
        "Ġreported",
        -9.962449367893786
      ],
      [
        "Ġplaced",
        -9.962756029356896
      ],
      [
        "Ġinstrument",
        -9.963867576380608
      ],
      [
        "Ġdivers",
        -9.964250692875154
      ],
      [
        "Ġcharacter",
        -9.964428280965256
      ],
      [
        "Ġinstall",
        -9.96481302890575
      ],
      [
        "wise",
        -9.965098660420493
      ],
      [
        "Ġindoor",
        -9.96547861075934
      ],
      [
        "Ġstuff",
        -9.965547940968811
      ],
      [
        "Ġappearance",
        -9.965614116294738
      ],
      [
        "Ġmember",
        -9.9656184751051
      ],
      [
        "Yes",
        -9.966334143967403
      ],
      [
        "ou",
        -9.967572382398332
      ],
      [
        "Ġgear",
        -9.969045119469106
      ],
      [
        "Ġattract",
        -9.969382148027908
      ],
      [
        "Ġinsight",
        -9.969444660474288
      ],
      [
        "ĠLet",
        -9.973672851126636
      ],
      [
        "point",
        -9.974267230921049
      ],
      [
        "Ġdecade",
        -9.974728539154183
      ],
      [
        "Ġeconomic",
        -9.974781713332764
      ],
      [
        "Ġinterested",
        -9.97528659719044
      ],
      [
        "est",
        -9.975346218591683
      ],
      [
        "Ġcomment",
        -9.97635647829033
      ],
      [
        "lost",
        -9.97697682466572
      ],
      [
        "Most",
        -9.977582558181698
      ],
      [
        "Ġwindow",
        -9.978322507413916
      ],
      [
        "Ġregulation",
        -9.97874601868747
      ],
      [
        "Ġextend",
        -9.97957291336565
      ],
      [
        "Ġocean",
        -9.979682596575316
      ],
      [
        "Ġreveal",
        -9.984085395128991
      ],
      [
        "Ġp",
        -9.984259195908692
      ],
      [
        "Ġsociety",
        -9.984532065113084
      ],
      [
        "Ġdrawing",
        -9.98503663736885
      ],
      [
        "Ġaim",
        -9.985378505451472
      ],
      [
        "Ġcomfort",
        -9.9871233663304
      ],
      [
        "-free",
        -9.987221270763357
      ],
      [
        "Ġlandscape",
        -9.988908400089054
      ],
      [
        "Ġproduc",
        -9.989696567565453
      ],
      [
        "Ġcheese",
        -9.98971429297968
      ],
      [
        "being",
        -9.989756051873153
      ],
      [
        "Ġequation",
        -9.99051815801772
      ],
      [
        "Ġwa",
        -9.990728814316723
      ],
      [
        "Ġearlie",
        -9.99089908189768
      ],
      [
        "ĠDepartment",
        -9.991606671511224
      ],
      [
        "Ġcomprehensive",
        -9.992138996205696
      ],
      [
        "Ġcalculate",
        -9.992945678844162
      ],
      [
        "Ġstraight",
        -9.994975852557872
      ],
      [
        "long",
        -9.995637731423546
      ],
      [
        "Ġalone",
        -9.997169254096756
      ],
      [
        "Ġperformed",
        -9.997956571355816
      ],
      [
        "ĠOr",
        -9.998306882256026
      ],
      [
        "just",
        -9.998397914422998
      ],
      [
        "Ġclasses",
        -9.999789562157089
      ],
      [
        "Ġprocessing",
        -10.000246977495827
      ],
      [
        "ĠIs",
        -10.000254431202244
      ],
      [
        "Ġstomach",
        -10.00037273382016
      ],
      [
        "Ġadvice",
        -10.000638447354216
      ],
      [
        "Ġhundred",
        -10.000727702312393
      ],
      [
        "Ġexpression",
        -10.000951843834876
      ],
      [
        "Onc",
        -10.00231420001892
      ],
      [
        "Which",
        -10.00245660770752
      ],
      [
        "ĠEurope",
        -10.002576356718349
      ],
      [
        "Ġconclusion",
        -10.002681398253245
      ],
      [
        "ĠEducation",
        -10.002967255881824
      ],
      [
        "Ġskill",
        -10.003359502301596
      ],
      [
        "Ġhighl",
        -10.003872890032742
      ],
      [
        "Ġbulb",
        -10.004710171841811
      ],
      [
        "ĠAt",
        -10.004944256925242
      ],
      [
        "Ġtransmission",
        -10.005057935546128
      ],
      [
        "Ġmovie",
        -10.005203106102783
      ],
      [
        "Ġfamili",
        -10.006402214115525
      ],
      [
        "Ġpreference",
        -10.007118840084814
      ],
      [
        "Ġpump",
        -10.007510181454954
      ],
      [
        "Ġsilver",
        -10.00759395432648
      ],
      [
        "Ġargument",
        -10.009640809723347
      ],
      [
        "Ġantibiotic",
        -10.0112669603768
      ],
      [
        "ĠWater",
        -10.01134009735464
      ],
      [
        "Ġbodie",
        -10.012457499484386
      ],
      [
        "Use",
        -10.01300178673539
      ],
      [
        "Ġindustrial",
        -10.014023119384024
      ],
      [
        "Ġtransition",
        -10.014548764528785
      ],
      [
        "Are",
        -10.015327830157432
      ],
      [
        "these",
        -10.016901774625431
      ],
      [
        "new",
        -10.017519647512346
      ],
      [
        "Ġpark",
        -10.01820838015685
      ],
      [
        "Ġhormone",
        -10.018704418937078
      ],
      [
        "st",
        -10.018925681331144
      ],
      [
        "Ġlegal",
        -10.019020362466854
      ],
      [
        "my",
        -10.019190989940428
      ],
      [
        "Ġreference",
        -10.019591889387131
      ],
      [
        "First",
        -10.020140635614702
      ],
      [
        "no",
        -10.020301677405108
      ],
      [
        "Ġdate",
        -10.020976112000865
      ],
      [
        "formed",
        -10.022133680455507
      ],
      [
        "More",
        -10.022415658755412
      ],
      [
        "Ġshift",
        -10.022971030116818
      ],
      [
        "Ġpredict",
        -10.023123211335058
      ],
      [
        "Ġchain",
        -10.024184987640211
      ],
      [
        "Ġnearly",
        -10.024531052290431
      ],
      [
        "Ġrise",
        -10.02457984435412
      ],
      [
        "forms",
        -10.025489731644988
      ],
      [
        "ge",
        -10.025610704930978
      ],
      [
        "Ġcup",
        -10.025762455384834
      ],
      [
        "Ġneck",
        -10.025787338835633
      ],
      [
        "Ġstatement",
        -10.025890795130678
      ],
      [
        "emergency",
        -10.026228607979869
      ],
      [
        "Ġevolution",
        -10.027447725142688
      ],
      [
        "Ġhelpful",
        -10.028043002596265
      ],
      [
        "Ġdefinition",
        -10.028224749852676
      ],
      [
        "Ġoffering",
        -10.0299687287028
      ],
      [
        "Ġancient",
        -10.030124261202593
      ],
      [
        "Ġrealize",
        -10.03019542382011
      ],
      [
        "Ġbond",
        -10.03027939083242
      ],
      [
        "Ġagree",
        -10.030817322433956
      ],
      [
        "Ġroutine",
        -10.031103768040758
      ],
      [
        "Ġcatch",
        -10.03200991838138
      ],
      [
        "came",
        -10.03380479327485
      ],
      [
        "Ġprivate",
        -10.033897042001744
      ],
      [
        "lot",
        -10.033973505774249
      ],
      [
        "Ġrelevant",
        -10.034113797058096
      ],
      [
        "Ġpool",
        -10.034315771164133
      ],
      [
        "Ġoperate",
        -10.034445114199492
      ],
      [
        "Ġpossibilit",
        -10.03506145664489
      ],
      [
        "Ġexpose",
        -10.035470978536823
      ],
      [
        "Ġopinion",
        -10.035713771086009
      ],
      [
        "allow",
        -10.0364551623205
      ],
      [
        "Ġcollect",
        -10.038917578738245
      ],
      [
        "ĠService",
        -10.038971020559291
      ],
      [
        "Ġemail",
        -10.039634856889904
      ],
      [
        "Ġfit",
        -10.0414062259797
      ],
      [
        "Ġworker",
        -10.04146281850308
      ],
      [
        "Ġcalorie",
        -10.041601510616136
      ],
      [
        "oil",
        -10.042377314401971
      ],
      [
        "Ġdiscussion",
        -10.04388606559128
      ],
      [
        "Ġdental",
        -10.044395825878524
      ],
      [
        "Ġplanting",
        -10.045444447292386
      ],
      [
        "refore",
        -10.046371874745963
      ],
      [
        "Ġpack",
        -10.046372526905229
      ],
      [
        "because",
        -10.046405398311329
      ],
      [
        "Ġcloud",
        -10.046961614161171
      ],
      [
        "ĠDay",
        -10.04726967260359
      ],
      [
        "ĠRe",
        -10.0474622956534
      ],
      [
        "ĠJapan",
        -10.047487397672374
      ],
      [
        "Ġonto",
        -10.047499792906336
      ],
      [
        "Ġdivide",
        -10.048094084360924
      ],
      [
        "Ġbu",
        -10.0485371060384
      ],
      [
        "Ġsuggests",
        -10.04945548401269
      ],
      [
        "Ġtomato",
        -10.049864005279868
      ],
      [
        "Ġsites",
        -10.049867600909328
      ],
      [
        "Ġfailure",
        -10.05049253095563
      ],
      [
        "According",
        -10.050502658271132
      ],
      [
        "structure",
        -10.051723141217735
      ],
      [
        "Ġpair",
        -10.051909952270648
      ],
      [
        "Ġperspective",
        -10.052676666390788
      ],
      [
        "Ġbasi",
        -10.053029201355027
      ],
      [
        "Ġcarrie",
        -10.05319393421966
      ],
      [
        "Ġgift",
        -10.053263930535122
      ],
      [
        "Ġzone",
        -10.054540192238044
      ],
      [
        "Ġartificial",
        -10.054898582563055
      ],
      [
        "Ġhoney",
        -10.055939931863064
      ],
      [
        "Ġweb",
        -10.056207716019616
      ],
      [
        "through",
        -10.0579296947543
      ],
      [
        "Ġutilize",
        -10.05807824667352
      ],
      [
        "Ġsurvey",
        -10.05877752128072
      ],
      [
        "Ġrespond",
        -10.058996146200148
      ],
      [
        "rought",
        -10.059883622668815
      ],
      [
        "Ġbatteri",
        -10.060069114183753
      ],
      [
        "Ġmiles",
        -10.060209405293367
      ],
      [
        "Ġnumerous",
        -10.060342153279052
      ],
      [
        "Ġasked",
        -10.060928688973464
      ],
      [
        "eries",
        -10.061003576147243
      ],
      [
        "Ġinnovation",
        -10.061535946024588
      ],
      [
        "Ġrespect",
        -10.062430228832824
      ],
      [
        "Ġdrop",
        -10.063431432623767
      ],
      [
        "Ġbeneficial",
        -10.063989200010813
      ],
      [
        "Ġharvest",
        -10.064786536637785
      ],
      [
        "Ġam",
        -10.06479764678923
      ],
      [
        "Ġsustain",
        -10.06522325688688
      ],
      [
        "Ġjoin",
        -10.066062212011287
      ],
      [
        "Ġclient",
        -10.067013265303489
      ],
      [
        "tenanc",
        -10.06775137452257
      ],
      [
        "rates",
        -10.067799085353922
      ],
      [
        "kept",
        -10.068445649567266
      ],
      [
        "Ġmotor",
        -10.068528027760102
      ],
      [
        "Ġorgan",
        -10.069032280668686
      ],
      [
        "Ġinsects",
        -10.070615736015288
      ],
      [
        "Ġchang",
        -10.071753738310598
      ],
      [
        "Ġreliabl",
        -10.071947286966951
      ],
      [
        "Ġexternal",
        -10.07210740971107
      ],
      [
        "Ġchannel",
        -10.072434866315769
      ],
      [
        "Ġliv",
        -10.072635178357396
      ],
      [
        "Ġcreative",
        -10.072791523822184
      ],
      [
        "Ġboat",
        -10.073179784731163
      ],
      [
        "Ġboost",
        -10.073270505064546
      ],
      [
        "Ġcompost",
        -10.07329583343802
      ],
      [
        "led",
        -10.073520679741108
      ],
      [
        "Ġtrigger",
        -10.073795868538433
      ],
      [
        "Ġpolicy",
        -10.07449852581514
      ],
      [
        "Ġportion",
        -10.076122461335933
      ],
      [
        "Ġcountr",
        -10.077543569064996
      ],
      [
        "know",
        -10.078046904568744
      ],
      [
        "Ġsub",
        -10.07859826302608
      ],
      [
        "Ġhighlight",
        -10.07906620347232
      ],
      [
        "put",
        -10.07913147130273
      ],
      [
        "Ġprovider",
        -10.08008626921265
      ],
      [
        "Ġapart",
        -10.08019447006589
      ],
      [
        "Ġremote",
        -10.080335419701049
      ],
      [
        "Ġbirth",
        -10.080832225394
      ],
      [
        "ĠOther",
        -10.08116405706216
      ],
      [
        "ture",
        -10.081720073123638
      ],
      [
        "Ġchoos",
        -10.082322128557902
      ],
      [
        "Ġvariation",
        -10.082455774733203
      ],
      [
        "may",
        -10.084710880111196
      ],
      [
        "weight",
        -10.08510273751239
      ],
      [
        "Ġphotos",
        -10.085415745150948
      ],
      [
        "âĢ¦Ċ",
        -10.08560221244359
      ],
      [
        "Ġmonitoring",
        -10.086465811020656
      ],
      [
        "Ġestablished",
        -10.086657834980134
      ],
      [
        "Ġmanufactur",
        -10.087239572620152
      ],
      [
        "Ġisland",
        -10.088656112044326
      ],
      [
        "-being",
        -10.088949553430645
      ],
      [
        "Ġmeeting",
        -10.089006651618147
      ],
      [
        "ically",
        -10.090567087415057
      ],
      [
        "ĠNow",
        -10.090714749530193
      ],
      [
        "Ġshade",
        -10.091036190177476
      ],
      [
        "ones",
        -10.09118741491477
      ],
      [
        "\\",
        -10.092507250801386
      ],
      [
        "desired",
        -10.092889885558522
      ],
      [
        "Ġoptimal",
        -10.093409179861094
      ],
      [
        "Ġcrop",
        -10.095746300356788
      ],
      [
        "Ġeventual",
        -10.09633480076686
      ],
      [
        "Ġserie",
        -10.09648168045998
      ],
      [
        "Ġengage",
        -10.09733125378676
      ],
      [
        "-year",
        -10.098167518535035
      ],
      [
        "Ġcollege",
        -10.098623377368996
      ],
      [
        "Ġdirt",
        -10.09904101263808
      ],
      [
        "Ġsports",
        -10.09968335150664
      ],
      [
        "Ġassist",
        -10.099757566394215
      ],
      [
        "Ġbar",
        -10.099883533528333
      ],
      [
        "Ġexamine",
        -10.10005862291155
      ],
      [
        "orage",
        -10.10030854411525
      ],
      [
        "ĠJ",
        -10.100506452627998
      ],
      [
        "change",
        -10.100809788281747
      ],
      [
        "Ġnice",
        -10.101501979580142
      ],
      [
        "Ġconsequence",
        -10.102353078233458
      ],
      [
        "Ġapproximately",
        -10.102723262981204
      ],
      [
        "Ġzero",
        -10.102884581181073
      ],
      [
        "Ġerror",
        -10.10319539343886
      ],
      [
        "Ġrealit",
        -10.104183317745887
      ],
      [
        "Ġteach",
        -10.104404962928175
      ],
      [
        "Ġreferr",
        -10.104953163761431
      ],
      [
        "power",
        -10.105142449864536
      ],
      [
        "Ġcross",
        -10.105946431556193
      ],
      [
        "Ġsurvive",
        -10.10630887242096
      ],
      [
        "Ġprepared",
        -10.106492209609453
      ],
      [
        "Ġconservation",
        -10.106900504788907
      ],
      [
        "ship",
        -10.108927115629632
      ],
      [
        "Ġminimum",
        -10.109036877261584
      ],
      [
        "Ġmode",
        -10.109624778467492
      ],
      [
        "Ġtechnical",
        -10.109731038753942
      ],
      [
        "Ġmotion",
        -10.110036614223851
      ],
      [
        "Ġofficial",
        -10.110190464930303
      ],
      [
        "Ġanxiet",
        -10.110291541125063
      ],
      [
        "Ġsteel",
        -10.110370605767756
      ],
      [
        "Ġpercentage",
        -10.113256913746325
      ],
      [
        "Ġart",
        -10.113888261151043
      ],
      [
        "board",
        -10.114551220878212
      ],
      [
        "Ġcovered",
        -10.115225381530902
      ],
      [
        "Ġfill",
        -10.1153199129141
      ],
      [
        "Ġtransform",
        -10.115908444652035
      ],
      [
        "Ġdistribution",
        -10.117433658142868
      ],
      [
        "Ġguideline",
        -10.117993213034543
      ],
      [
        "Ġprogramm",
        -10.119550493001364
      ],
      [
        "ĠBritish",
        -10.119775728320656
      ],
      [
        "Ġoperations",
        -10.120139590423031
      ],
      [
        "ical",
        -10.120633495762789
      ],
      [
        "Ġvalve",
        -10.122089575997254
      ],
      [
        "Ġformed",
        -10.122194590595504
      ],
      [
        "Ġdead",
        -10.122437879355983
      ],
      [
        "Ġegg",
        -10.122956171603905
      ],
      [
        "Ġeducational",
        -10.123421415510808
      ],
      [
        "Ġmold",
        -10.12372947846228
      ],
      [
        "Ġassess",
        -10.124438608159744
      ],
      [
        "fully",
        -10.124465534548078
      ],
      [
        "Ġmorning",
        -10.124518508655058
      ],
      [
        "Ġstrain",
        -10.12476192097187
      ],
      [
        "-friendl",
        -10.125062262757822
      ],
      [
        "Ġdrug",
        -10.12533718017918
      ],
      [
        "Ġbowl",
        -10.125888209651569
      ],
      [
        "Ġtrust",
        -10.12701901653653
      ],
      [
        "Ġimprov",
        -10.127186933096803
      ],
      [
        "ĠGoogle",
        -10.12758201157668
      ],
      [
        "ĠâĢĶ",
        -10.127896319982971
      ],
      [
        "Ġprimari",
        -10.128131993642278
      ],
      [
        "Ġemotional",
        -10.12930728295586
      ],
      [
        "name",
        -10.129344137574735
      ],
      [
        "Ġtail",
        -10.130307127761814
      ],
      [
        "Ġnerve",
        -10.130522260460507
      ],
      [
        "Ġdie",
        -10.130680819136316
      ],
      [
        "Ġlose",
        -10.130726670239133
      ],
      [
        "Ġquilt",
        -10.131040481005613
      ],
      [
        "Ġweed",
        -10.131632740699498
      ],
      [
        "Ġvia",
        -10.133129896892957
      ],
      [
        "Ġflat",
        -10.133134589048986
      ],
      [
        "Ġprepare",
        -10.133825422132718
      ],
      [
        "table",
        -10.134789321262405
      ],
      [
        "Ġdish",
        -10.134868447966843
      ],
      [
        "Ġincorporate",
        -10.135942318209732
      ],
      [
        "Ġfunctional",
        -10.136263894951291
      ],
      [
        "Ġmolecules",
        -10.139441160170207
      ],
      [
        "am",
        -10.13952987117309
      ],
      [
        "ĠFebruary",
        -10.140793685613923
      ],
      [
        "chemical",
        -10.141375897838865
      ],
      [
        "let",
        -10.141758995631612
      ],
      [
        "Ġfund",
        -10.141868096508912
      ],
      [
        "Ġstatus",
        -10.142456178693529
      ],
      [
        "Ġsaying",
        -10.142737053399667
      ],
      [
        "Ġthorough",
        -10.143115638900133
      ],
      [
        "ĠAccording",
        -10.143177042245169
      ],
      [
        "lates",
        -10.14362039978991
      ],
      [
        "Ġhazard",
        -10.144444107611234
      ],
      [
        "Ġcommunit",
        -10.144883372889446
      ],
      [
        "Ġspeaker",
        -10.144909831919374
      ],
      [
        "Ġfrequenc",
        -10.14547142606454
      ],
      [
        "Ġaudio",
        -10.146111345670754
      ],
      [
        "Ġones",
        -10.14637714146663
      ],
      [
        "reduced",
        -10.14694140332352
      ],
      [
        "Ġcapabilit",
        -10.147364699735348
      ],
      [
        "Ġgate",
        -10.148374589722245
      ],
      [
        "ĠGod",
        -10.14870578529218
      ],
      [
        "Ġoperat",
        -10.148733032519308
      ],
      [
        "Ġfurni",
        -10.149745236865993
      ],
      [
        "ĠEuropean",
        -10.149956380079576
      ],
      [
        "action",
        -10.150582524336524
      ],
      [
        "Ġmask",
        -10.1512644396886
      ],
      [
        "Ġlifestyle",
        -10.152718537951078
      ],
      [
        "late",
        -10.152973366434251
      ],
      [
        "Ġice",
        -10.153128569697596
      ],
      [
        "ling",
        -10.154016772739476
      ],
      [
        "Ġeliminate",
        -10.15587783052458
      ],
      [
        "Ġsupplie",
        -10.157204596906674
      ],
      [
        "ĠKeep",
        -10.158867775468426
      ],
      [
        "ĠWest",
        -10.15984810239924
      ],
      [
        "Ġplent",
        -10.161076902945933
      ],
      [
        "Ġsnake",
        -10.163966126503132
      ],
      [
        "Ġschedule",
        -10.16432966968561
      ],
      [
        "Ġkitchen",
        -10.164510232575424
      ],
      [
        "pril",
        -10.165722676791116
      ],
      [
        "Ġfashion",
        -10.165781783817806
      ],
      [
        "Ġcookie",
        -10.166010796387429
      ],
      [
        "Florida",
        -10.166049351079057
      ],
      [
        "Ġpot",
        -10.1663449543673
      ],
      [
        "Ġharm",
        -10.167659882687776
      ],
      [
        "ĠJul",
        -10.16913594947895
      ],
      [
        "Ġbread",
        -10.170065056217286
      ],
      [
        "ĠMarch",
        -10.17047931238858
      ],
      [
        "Ġindependent",
        -10.170956471775796
      ],
      [
        "Ġinteract",
        -10.171102963600658
      ],
      [
        "Ġcore",
        -10.171735959353448
      ],
      [
        "Ġbike",
        -10.171791952091816
      ],
      [
        "ĠPeople",
        -10.172242180980149
      ],
      [
        "Ġartist",
        -10.172975503273964
      ],
      [
        "ĠAct",
        -10.173149238803948
      ],
      [
        "Ġdynamic",
        -10.173178695773633
      ],
      [
        "Ġguid",
        -10.17325355380202
      ],
      [
        "Ġcreation",
        -10.173993356305449
      ],
      [
        "ĠâĢ¦",
        -10.175087064236113
      ],
      [
        "need",
        -10.175475681570772
      ],
      [
        "Conclusion",
        -10.175900399329556
      ],
      [
        "crops",
        -10.17762682298062
      ],
      [
        "Ġnovel",
        -10.177958324224464
      ],
      [
        "Ġstem",
        -10.178122922524494
      ],
      [
        "Ġreduction",
        -10.178339648061378
      ],
      [
        "BIM",
        -10.178560065821216
      ],
      [
        "Since",
        -10.179160746280084
      ],
      [
        "Ġimprovement",
        -10.179227387026176
      ],
      [
        "Ġcontinuous",
        -10.17960826751765
      ],
      [
        "ĠDon",
        -10.180109055558049
      ],
      [
        "Ġwar",
        -10.180600840415664
      ],
      [
        "Ġcake",
        -10.181043899287513
      ],
      [
        "Ġincredibl",
        -10.181583651414932
      ],
      [
        "Ġsend",
        -10.182489375237411
      ],
      [
        "ĠDur",
        -10.182643169076364
      ],
      [
        "Ġpets",
        -10.182850809148242
      ],
      [
        "ĠWhether",
        -10.183378155804837
      ],
      [
        "ose",
        -10.183862121373654
      ],
      [
        "Ġvirus",
        -10.183943196774518
      ],
      [
        "place",
        -10.184140764777004
      ],
      [
        "Ġprofessionals",
        -10.18447105157054
      ],
      [
        "Ġstructural",
        -10.186119263203256
      ],
      [
        "Â·",
        -10.18677055939066
      ],
      [
        "ĠSince",
        -10.187857995455992
      ],
      [
        "Ġmarine",
        -10.187979577824107
      ],
      [
        "Ġconversation",
        -10.188232842735278
      ],
      [
        "Ġmembrane",
        -10.188264366516252
      ],
      [
        "Ġlawn",
        -10.188278563855388
      ],
      [
        "ĠFood",
        -10.188728374560554
      ],
      [
        "Ġmiss",
        -10.188867556667958
      ],
      [
        "Ġspecialize",
        -10.189143057762418
      ],
      [
        "j",
        -10.189191882303652
      ],
      [
        "Ġleaf",
        -10.189446134224228
      ],
      [
        "Ġdisorder",
        -10.189446154546271
      ],
      [
        "Ġresponsibilit",
        -10.191068920392896
      ],
      [
        "ĠDoes",
        -10.19175305940298
      ],
      [
        "Ġrain",
        -10.19186920802542
      ],
      [
        "Ġdrugs",
        -10.19187644018601
      ],
      [
        "Ġprecise",
        -10.192119826495077
      ],
      [
        "Ġobvious",
        -10.192193947055651
      ],
      [
        "Ġmaster",
        -10.193528159259015
      ],
      [
        "-in",
        -10.19441175791539
      ],
      [
        "ball",
        -10.19463683843422
      ],
      [
        "Ġbottle",
        -10.19478148935794
      ],
      [
        "ur",
        -10.195243504962132
      ],
      [
        "Ġfight",
        -10.196015511863308
      ],
      [
        "Ġmainly",
        -10.196093684390316
      ],
      [
        "Ġdecide",
        -10.196510475379494
      ],
      [
        "ence",
        -10.196680919634863
      ],
      [
        "Ġconcrete",
        -10.196780313967931
      ],
      [
        "Ġfacility",
        -10.19857729329055
      ],
      [
        "case",
        -10.199132296235714
      ],
      [
        "Ġinvestment",
        -10.199771493495192
      ],
      [
        "create",
        -10.199871411550031
      ],
      [
        "Ġorigin",
        -10.20024829337385
      ],
      [
        "Ġsuper",
        -10.200484250560852
      ],
      [
        "Ġintelligence",
        -10.20054224862514
      ],
      [
        "Ġassume",
        -10.201235628992164
      ],
      [
        "ĠHigh",
        -10.20264143437689
      ],
      [
        "Ġfossil",
        -10.203354968031284
      ],
      [
        "Ġlens",
        -10.203431204416631
      ],
      [
        "Ġemotion",
        -10.20543056203
      ],
      [
        "ization",
        -10.2055787924306
      ],
      [
        "Ġvarie",
        -10.206692636435127
      ],
      [
        "ĠEnergy",
        -10.207836421589596
      ],
      [
        "Ġbooks",
        -10.208646615437228
      ],
      [
        "Ġdecided",
        -10.208661465270652
      ],
      [
        "men",
        -10.208852014438149
      ],
      [
        "Ġapprove",
        -10.20904404249989
      ],
      [
        "Ġbiological",
        -10.20927476968102
      ],
      [
        "Ġtight",
        -10.2098006978216
      ],
      [
        "Ġfirm",
        -10.21029826040968
      ],
      [
        "Ġgreenhouse",
        -10.210304040581438
      ],
      [
        "Ġthrow",
        -10.21101954176962
      ],
      [
        "Ġadvance",
        -10.211175148485832
      ],
      [
        "Ġcharacters",
        -10.211319862166132
      ],
      [
        "ted",
        -10.211702938227685
      ],
      [
        "part",
        -10.2126132556096
      ],
      [
        "Ġdescription",
        -10.21277181531962
      ],
      [
        "Ġenzyme",
        -10.213049427590462
      ],
      [
        "Ġstone",
        -10.213285802772123
      ],
      [
        "Ġpilot",
        -10.214434810242272
      ],
      [
        "ĠChina",
        -10.215502781074054
      ],
      [
        "Ġpasse",
        -10.216297702370245
      ],
      [
        "Ġriver",
        -10.2165814642277
      ],
      [
        "Ġrequest",
        -10.216831835628462
      ],
      [
        "Let",
        -10.2169431222114
      ],
      [
        "Ġdisorders",
        -10.217823471772912
      ],
      [
        "Ġlayers",
        -10.21810477233509
      ],
      [
        "Ġstrateg",
        -10.218645630962286
      ],
      [
        "Ġatmosphere",
        -10.218990759706749
      ],
      [
        "hunting",
        -10.219012159631111
      ],
      [
        "Ġchalleng",
        -10.21922182284554
      ],
      [
        "Ġcap",
        -10.219448836740415
      ],
      [
        "Ġgap",
        -10.219962375119575
      ],
      [
        "Ġstar",
        -10.220336030143482
      ],
      [
        "ĠCanada",
        -10.221147980334305
      ],
      [
        "ty",
        -10.222057562551852
      ],
      [
        "Ġtrade",
        -10.222959525029676
      ],
      [
        "Ġexcessive",
        -10.222960562611313
      ],
      [
        "Ġcompetition",
        -10.22354866562176
      ],
      [
        "Ġcrack",
        -10.22360196170708
      ],
      [
        "Ġprotective",
        -10.224565623917574
      ],
      [
        "Ġsector",
        -10.22489757936287
      ],
      [
        "so",
        -10.224986632606734
      ],
      [
        "Ġcream",
        -10.225227441545794
      ],
      [
        "ĠFrench",
        -10.225403951369533
      ],
      [
        "Ġaccident",
        -10.226382783102752
      ],
      [
        "Ġarm",
        -10.22660499718158
      ],
      [
        "Ġsizes",
        -10.226921760381344
      ],
      [
        "mental",
        -10.227928393722364
      ],
      [
        "Ġisn",
        -10.228569778696862
      ],
      [
        "Ġbecom",
        -10.229165221487092
      ],
      [
        "Ġdirector",
        -10.229541484166834
      ],
      [
        "ch",
        -10.229779028582932
      ],
      [
        "Ġrelax",
        -10.230395234036916
      ],
      [
        "range",
        -10.23131816175158
      ],
      [
        "Ġsenior",
        -10.23263577767033
      ],
      [
        "ĠTh",
        -10.233233942593428
      ],
      [
        "Ġunits",
        -10.23584081065694
      ],
      [
        "ĠAir",
        -10.236080016831323
      ],
      [
        "Ġbudget",
        -10.236128127241791
      ],
      [
        "ĠRed",
        -10.236160983616916
      ],
      [
        "forming",
        -10.237789056665267
      ],
      [
        "size",
        -10.23877262741698
      ],
      [
        "ĠWell",
        -10.239575493019077
      ],
      [
        "Ġsymbol",
        -10.239851473245016
      ],
      [
        "Ġhighes",
        -10.240172296352489
      ],
      [
        "Ġint",
        -10.240802346783015
      ],
      [
        "Ġconstruct",
        -10.240870140608177
      ],
      [
        "Ġregister",
        -10.242558441022087
      ],
      [
        "Ġmanual",
        -10.24336490912108
      ],
      [
        "Ġbreeding",
        -10.24446405972138
      ],
      [
        "Ġconvert",
        -10.244479849548345
      ],
      [
        "Ġchair",
        -10.245038156229484
      ],
      [
        "Ġdelicious",
        -10.245833973523956
      ],
      [
        "Ġcoat",
        -10.245987760644358
      ],
      [
        "Ġcreature",
        -10.24711136745302
      ],
      [
        "-related",
        -10.24712193754244
      ],
      [
        "Ġconsideration",
        -10.248680884395656
      ],
      [
        "Ġlung",
        -10.248754742408856
      ],
      [
        "Ġpregnanc",
        -10.249243116645353
      ],
      [
        "Ġpainting",
        -10.250672954308971
      ],
      [
        "number",
        -10.250918495299562
      ],
      [
        "ĠWhy",
        -10.251537472369522
      ],
      [
        "Ġsmart",
        -10.251714205668367
      ],
      [
        "Ġreceptor",
        -10.25217543676003
      ],
      [
        "Ġintake",
        -10.253284376315808
      ],
      [
        "]Ċ",
        -10.253332643215089
      ],
      [
        "Ġintervention",
        -10.25451321403561
      ],
      [
        "ĠYork",
        -10.256114983334466
      ],
      [
        "Ġblend",
        -10.256157734948737
      ],
      [
        "ĠDec",
        -10.256206549247572
      ],
      [
        "Ġstation",
        -10.257517904123835
      ],
      [
        "My",
        -10.257707485610442
      ],
      [
        "Ġparticipant",
        -10.258887761864717
      ],
      [
        "back",
        -10.258892582105656
      ],
      [
        "Ġreplacement",
        -10.259338905897366
      ],
      [
        "Ġwhatever",
        -10.259675853178257
      ],
      [
        "ĠAls",
        -10.260333219693106
      ],
      [
        "Ġcommunicate",
        -10.260560197334389
      ],
      [
        "Ġfeeding",
        -10.26125428132411
      ],
      [
        "ĠJune",
        -10.262497940564463
      ],
      [
        "Ġbear",
        -10.263095591272286
      ],
      [
        "Ġconfirm",
        -10.26338274541669
      ],
      [
        "Ġgenes",
        -10.263508172505317
      ],
      [
        "Ġattribute",
        -10.26508287200162
      ],
      [
        "Ġworry",
        -10.265133943344704
      ],
      [
        "Ġwheel",
        -10.265172654423408
      ],
      [
        "ending",
        -10.266240394512444
      ],
      [
        "Ġcredit",
        -10.266506574129814
      ],
      [
        "Ġfinger",
        -10.267589563669876
      ],
      [
        "Ġdensit",
        -10.267970742580658
      ],
      [
        "Ġsnow",
        -10.268088314002473
      ],
      [
        "Ġde",
        -10.268274816390742
      ],
      [
        "Ġdelay",
        -10.268675698922427
      ],
      [
        "Ġchose",
        -10.269377273291232
      ],
      [
        "Ġdimension",
        -10.269578472947629
      ],
      [
        "Ġgold",
        -10.270059580585698
      ],
      [
        "Ġinstallation",
        -10.271093599360544
      ],
      [
        "Ġfinish",
        -10.271182265565775
      ],
      [
        "elected",
        -10.27139234996482
      ],
      [
        "Ġminimize",
        -10.27159339417149
      ],
      [
        "ought",
        -10.271819889704034
      ],
      [
        "Ġtrain",
        -10.271857591822508
      ],
      [
        "looked",
        -10.27214769071206
      ],
      [
        "Ġshowing",
        -10.272380310015926
      ],
      [
        "Ġalcohol",
        -10.272769094080044
      ],
      [
        "Ġcommand",
        -10.273399179024754
      ],
      [
        "Ġbrush",
        -10.274442747968234
      ],
      [
        "Ġsudden",
        -10.275049129471116
      ],
      [
        "working",
        -10.275096233760316
      ],
      [
        "Ġloop",
        -10.276172225066304
      ],
      [
        "Ġprofit",
        -10.277717822814836
      ],
      [
        "look",
        -10.27772648755346
      ],
      [
        "Ġbroken",
        -10.278864488993465
      ],
      [
        "Ġinter",
        -10.278995651429172
      ],
      [
        "Ġsensitive",
        -10.279499534657887
      ],
      [
        "-time",
        -10.279714832159344
      ],
      [
        "An",
        -10.2800593387552
      ],
      [
        "ĠSept",
        -10.28043211172927
      ],
      [
        "Ġclinical",
        -10.280504331758443
      ],
      [
        "Ġsufficient",
        -10.280589462742036
      ],
      [
        "Ġkidney",
        -10.28082013963527
      ],
      [
        "...Ċ",
        -10.281664449425424
      ],
      [
        "ĠCollege",
        -10.28167418579755
      ],
      [
        "Ġfille",
        -10.283516958407056
      ],
      [
        "keep",
        -10.28363727677207
      ],
      [
        "Ġleav",
        -10.284348310480368
      ],
      [
        "ĠIndian",
        -10.28496013894458
      ],
      [
        "OVID",
        -10.285468078952093
      ],
      [
        "Ġvisibl",
        -10.285566446028302
      ],
      [
        "Ġblind",
        -10.285664437208588
      ],
      [
        "Ġappeal",
        -10.286219137249796
      ],
      [
        "Ġremov",
        -10.287018765055048
      ],
      [
        "Ġobjective",
        -10.287037998495515
      ],
      [
        "Ġdishe",
        -10.287832689355833
      ],
      [
        "Ġparameter",
        -10.289097514429898
      ],
      [
        "Ġfarmers",
        -10.289418078411742
      ],
      [
        "tiny",
        -10.28972157658663
      ],
      [
        "Ġdiagram",
        -10.2897927918827
      ],
      [
        "Ġsurprise",
        -10.290322707895104
      ],
      [
        "Ġversatil",
        -10.291636914559756
      ],
      [
        "current",
        -10.292247748853944
      ],
      [
        "sium",
        -10.292696100608914
      ],
      [
        "Ġresident",
        -10.292782568801313
      ],
      [
        "Ġdistinct",
        -10.295158658182276
      ],
      [
        "ĠTest",
        -10.295935324210095
      ],
      [
        "elling",
        -10.298394372718406
      ],
      [
        "first",
        -10.299317084958856
      ],
      [
        "ĠGreen",
        -10.299667191484048
      ],
      [
        "un",
        -10.300066090800916
      ],
      [
        "ĠDesign",
        -10.300733878379798
      ],
      [
        "Ġscenario",
        -10.301197520659688
      ],
      [
        "Ġtitle",
        -10.30158072859529
      ],
      [
        "Ġbillion",
        -10.301649550441304
      ],
      [
        "ĠLearn",
        -10.301829416193602
      ],
      [
        "Ġattend",
        -10.302501978184104
      ],
      [
        "ĠPlant",
        -10.302522667661098
      ],
      [
        "Ġfoster",
        -10.302544324397031
      ],
      [
        "Ġpermanent",
        -10.30274902347239
      ],
      [
        "ying",
        -10.303187253022612
      ],
      [
        "Ġdedicate",
        -10.303223591945043
      ],
      [
        "ca",
        -10.303746672600017
      ],
      [
        "Ġlabel",
        -10.304153392968242
      ],
      [
        "Ġstor",
        -10.30437689713984
      ],
      [
        "Ġinternet",
        -10.30515684158559
      ],
      [
        "form",
        -10.307041557745697
      ],
      [
        "Ġpackage",
        -10.307130916881986
      ],
      [
        "Ġvessel",
        -10.307196173702888
      ],
      [
        "Ġdiscusse",
        -10.307211500972612
      ],
      [
        "Ġmixe",
        -10.308111403815122
      ],
      [
        "round",
        -10.30819817870188
      ],
      [
        "Ġradio",
        -10.30863459706901
      ],
      [
        "Ġextensive",
        -10.309495341722972
      ],
      [
        "Ġdigesti",
        -10.310256400455737
      ],
      [
        "Ġwindows",
        -10.310541690358594
      ],
      [
        "Ġprofile",
        -10.310562120252454
      ],
      [
        "ble",
        -10.310605859464571
      ],
      [
        "ĠCO",
        -10.311162484644926
      ],
      [
        "Ġgenerator",
        -10.3113284939585
      ],
      [
        "Ġanalyze",
        -10.311572093273329
      ],
      [
        "ĠStudent",
        -10.311714275161844
      ],
      [
        "ĠLook",
        -10.314095269105888
      ],
      [
        "ĠGreat",
        -10.314146378321505
      ],
      [
        "Ġplate",
        -10.314250588584674
      ],
      [
        "ĠAugust",
        -10.314982184296928
      ],
      [
        "Ġinsulin",
        -10.315327899458705
      ],
      [
        "Ġsmoke",
        -10.315390011720025
      ],
      [
        "Ġblog",
        -10.315548854043492
      ],
      [
        "Ġshoes",
        -10.316000061703736
      ],
      [
        "Ġopening",
        -10.316085479587516
      ],
      [
        "Ġrabbit",
        -10.316294822933408
      ],
      [
        "Not",
        -10.317103392525718
      ],
      [
        "Ġvariant",
        -10.31713958294403
      ],
      [
        "Ġfacilit",
        -10.317441185460211
      ],
      [
        "Where",
        -10.318445936422812
      ],
      [
        "Ġaccessib",
        -10.319613889455184
      ],
      [
        "Ġyield",
        -10.31999777237234
      ],
      [
        "Ġowner",
        -10.320686838724653
      ],
      [
        "Ġtru",
        -10.32138329667363
      ],
      [
        "Ġmanager",
        -10.321876244818458
      ],
      [
        "Ġdetermined",
        -10.321953297307054
      ],
      [
        "tic",
        -10.322020988203551
      ],
      [
        "Ġsaving",
        -10.322753791965347
      ],
      [
        "per",
        -10.32378689738211
      ],
      [
        "Ġautomatic",
        -10.324457348125858
      ],
      [
        "Ġbeauty",
        -10.324717852294174
      ],
      [
        "Ġsolve",
        -10.325707425871109
      ],
      [
        "Ġfundamental",
        -10.326285647844571
      ],
      [
        "Ġprior",
        -10.32638379344782
      ],
      [
        "Ġpreparation",
        -10.326431567392014
      ],
      [
        "often",
        -10.326621481031232
      ],
      [
        "ĠLike",
        -10.326959040135666
      ],
      [
        "Ġestablish",
        -10.327442632563702
      ],
      [
        "Ġrandom",
        -10.327630054884086
      ],
      [
        "Ġrespirator",
        -10.328191116604303
      ],
      [
        "Ġbee",
        -10.32977327340869
      ],
      [
        "Ġpowder",
        -10.33050551888871
      ],
      [
        "Ġcoal",
        -10.330610548413574
      ],
      [
        "Ġdomain",
        -10.330721997998292
      ],
      [
        "Ġthick",
        -10.331834056298549
      ],
      [
        "ĠHis",
        -10.332564812678218
      ],
      [
        "Ġobservation",
        -10.3326606914913
      ],
      [
        "Ġsauce",
        -10.332806416257425
      ],
      [
        "Ġwish",
        -10.333089010962794
      ],
      [
        "Ġbrief",
        -10.333861181371466
      ],
      [
        "Other",
        -10.333872798794577
      ],
      [
        "Ġprove",
        -10.334438682231388
      ],
      [
        "Ġlift",
        -10.335857919306417
      ],
      [
        "mm",
        -10.336430057932576
      ],
      [
        "type",
        -10.33652123340399
      ],
      [
        "ĠTime",
        -10.337279464806793
      ],
      [
        "Ġcard",
        -10.337499760439323
      ],
      [
        "Ġevaluate",
        -10.33753898183339
      ],
      [
        "Ġthi",
        -10.339573919947467
      ],
      [
        "ĠStep",
        -10.340049352461136
      ],
      [
        "should",
        -10.340180560492916
      ],
      [
        "Children",
        -10.342402324443364
      ],
      [
        "Ġloose",
        -10.343095098805096
      ],
      [
        "Ġcampaign",
        -10.34397072369182
      ],
      [
        "Ġwound",
        -10.344421753381113
      ],
      [
        "Ġlimestone",
        -10.344662676471216
      ],
      [
        "Ġplug",
        -10.34466396453931
      ],
      [
        "Ġmanag",
        -10.3450806840378
      ],
      [
        "early",
        -10.345840356950664
      ],
      [
        "Ġear",
        -10.346047159404373
      ],
      [
        "ĠPark",
        -10.34655126364472
      ],
      [
        "top",
        -10.34757940048134
      ],
      [
        "Ġattache",
        -10.34828889323652
      ],
      [
        "Ġbill",
        -10.348565928806188
      ],
      [
        "Ġscore",
        -10.349315450798429
      ],
      [
        "Ġthrive",
        -10.349584970737356
      ],
      [
        ";Ċ",
        -10.349662007054045
      ],
      [
        "Ġencounter",
        -10.3500932451598
      ],
      [
        "|Ċ",
        -10.350788698871002
      ],
      [
        "Ġguy",
        -10.351454812440853
      ],
      [
        "air",
        -10.35182461183724
      ],
      [
        "called",
        -10.352712921572596
      ],
      [
        "Ġexpress",
        -10.353953200457353
      ],
      [
        "Ġgirl",
        -10.35431006705875
      ],
      [
        "Ġeat",
        -10.354599874064686
      ],
      [
        "Ġseven",
        -10.354754844540878
      ],
      [
        "ating",
        -10.356251059272502
      ],
      [
        "Ġdatabase",
        -10.356493635810088
      ],
      [
        "Ġinnovative",
        -10.357148253374245
      ],
      [
        "Ġhardwa",
        -10.357895187206635
      ],
      [
        "Ġrestaurant",
        -10.35803146494357
      ],
      [
        "Ġdefinite",
        -10.358547041282758
      ],
      [
        "Ġgoe",
        -10.358643037212758
      ],
      [
        "Ġabsorb",
        -10.359932847245457
      ],
      [
        "Ġroof",
        -10.360339201752474
      ],
      [
        "Ġherb",
        -10.361227213057374
      ],
      [
        "Ġpredator",
        -10.362414342333588
      ],
      [
        "Ġderive",
        -10.363080167905782
      ],
      [
        "@",
        -10.363391327684823
      ],
      [
        "Ġillustrate",
        -10.364121499170247
      ],
      [
        "diversity",
        -10.3649525290726
      ],
      [
        "Ġprofessor",
        -10.365303841394468
      ],
      [
        "Ġtraffic",
        -10.36534290573821
      ],
      [
        "Ġquantit",
        -10.36540376690008
      ],
      [
        "Ġleads",
        -10.366027021757436
      ],
      [
        "Ġfear",
        -10.366114668197362
      ],
      [
        "Ġstock",
        -10.366329687890062
      ],
      [
        "Ġseal",
        -10.366480362442813
      ],
      [
        "Ġexhibit",
        -10.366964372546535
      ],
      [
        "Ġsmell",
        -10.367055648096777
      ],
      [
        "ĠInternational",
        -10.36712581450019
      ],
      [
        "Ġbloom",
        -10.367379105252452
      ],
      [
        "Ġclub",
        -10.36778933009673
      ],
      [
        "{",
        -10.368809077639783
      ],
      [
        "Ġconsult",
        -10.36952991707866
      ],
      [
        "Ġcurve",
        -10.369805397990676
      ],
      [
        "plants",
        -10.370688976404011
      ],
      [
        "Introduction",
        -10.370777443948388
      ],
      [
        "Ġrecorded",
        -10.371041961985703
      ],
      [
        "Ġcollected",
        -10.371261245535988
      ],
      [
        "Ġtooth",
        -10.37279842892898
      ],
      [
        "Ġaudience",
        -10.374095083176371
      ],
      [
        "Ġformula",
        -10.374174633914937
      ],
      [
        "ĠCount",
        -10.3744716443297
      ],
      [
        "Ġleak",
        -10.375220745003784
      ],
      [
        "process",
        -10.375511949158971
      ],
      [
        "Ġpropose",
        -10.376122701514278
      ],
      [
        "Ġshrub",
        -10.376914118708688
      ],
      [
        "good",
        -10.37700017293281
      ],
      [
        "Ġvisitor",
        -10.377335066962004
      ],
      [
        "see",
        -10.377337792646896
      ],
      [
        "ĠJohn",
        -10.377660763115175
      ],
      [
        "Ġshot",
        -10.378492369259366
      ],
      [
        "lowly",
        -10.378729419575205
      ],
      [
        "Ġhomes",
        -10.378868348231466
      ],
      [
        "Ġstring",
        -10.37906323813382
      ],
      [
        "Ġinvest",
        -10.379192776744322
      ],
      [
        "Ġparticipate",
        -10.379391521894238
      ],
      [
        "Ġjournal",
        -10.379871539870852
      ],
      [
        "Ġstable",
        -10.380074844538424
      ],
      [
        "Ġunlike",
        -10.380094284475042
      ],
      [
        "Ġcertainly",
        -10.38048590383346
      ],
      [
        "Don",
        -10.380935736471306
      ],
      [
        "Ġsuffer",
        -10.381139922908726
      ],
      [
        "Ġabsolute",
        -10.3814653687396
      ],
      [
        "ĠAfrican",
        -10.38154897640941
      ],
      [
        "lots",
        -10.38195329357673
      ],
      [
        "Ġsharp",
        -10.382079270921524
      ],
      [
        "Ġdespi",
        -10.38230464304871
      ],
      [
        "ĠData",
        -10.382364928082986
      ],
      [
        "Ġradiation",
        -10.382372887519434
      ],
      [
        "Make",
        -10.382550425348692
      ],
      [
        "Ġnews",
        -10.382835439734624
      ],
      [
        "Ġfertilizer",
        -10.38294109007979
      ],
      [
        "ĠOver",
        -10.383234130035806
      ],
      [
        "Ġplann",
        -10.383337963605364
      ],
      [
        "Ġpassenger",
        -10.384262886943038
      ],
      [
        "ĠPower",
        -10.385657679672812
      ],
      [
        "Ġrecommendation",
        -10.38633785431318
      ],
      [
        "uch",
        -10.386455314830773
      ],
      [
        "days",
        -10.386780667851752
      ],
      [
        "ĠAustralian",
        -10.387786145967304
      ],
      [
        "Ġcircle",
        -10.387983690670104
      ],
      [
        "Ġcooked",
        -10.388378772515017
      ],
      [
        "Ġwoman",
        -10.388500908822518
      ],
      [
        "Ġcontrolle",
        -10.388501270622626
      ],
      [
        "Ġpond",
        -10.389487877588977
      ],
      [
        "Ġpreserve",
        -10.390082387645842
      ],
      [
        "Ġexciting",
        -10.390161568277543
      ],
      [
        "ried",
        -10.390220884260067
      ],
      [
        "ĠAsia",
        -10.39052080625127
      ],
      [
        "ssistance",
        -10.391033249697458
      ],
      [
        "Ġflour",
        -10.392483650334563
      ],
      [
        "ha",
        -10.39262447597734
      ],
      [
        "Ġadequate",
        -10.392800897294984
      ],
      [
        "J",
        -10.393174478096256
      ],
      [
        "Does",
        -10.3934819656673
      ],
      [
        "ĠHome",
        -10.393703809009724
      ],
      [
        "Ġsheet",
        -10.394254927198489
      ],
      [
        "Ġamazing",
        -10.39447250467284
      ],
      [
        "Ġinterior",
        -10.39450758722318
      ],
      [
        "Ġdebri",
        -10.395310174452762
      ],
      [
        "Ġimagine",
        -10.395437039717136
      ],
      [
        "Ġauthorit",
        -10.395629399901388
      ],
      [
        "Ġsuc",
        -10.396254639785315
      ],
      [
        "Ġprompt",
        -10.397235968687232
      ],
      [
        "ĠWar",
        -10.39738827355039
      ],
      [
        "Ġorganize",
        -10.397925385250351
      ],
      [
        "Ġfeedback",
        -10.398946865351489
      ],
      [
        "rice",
        -10.399673337619731
      ],
      [
        "Ġmechanical",
        -10.40074528304892
      ],
      [
        "Ġinner",
        -10.4008519487681
      ],
      [
        "osis",
        -10.401360761534807
      ],
      [
        "wood",
        -10.401505700117266
      ],
      [
        "New",
        -10.40343289631672
      ],
      [
        "Ġgrade",
        -10.404274494169291
      ],
      [
        "Understanding",
        -10.404509434457973
      ],
      [
        "Ġcontrast",
        -10.404549705052112
      ],
      [
        "Ġbarrier",
        -10.405939705459406
      ],
      [
        "Ġmolecular",
        -10.40634637853206
      ],
      [
        "Ġdesigner",
        -10.406768890071188
      ],
      [
        "Ġformat",
        -10.406952116723314
      ],
      [
        "functions",
        -10.407236839016187
      ],
      [
        "Ġreache",
        -10.408278594399926
      ],
      [
        "Ġforget",
        -10.408419697318587
      ],
      [
        "Ġinterface",
        -10.40849177164128
      ],
      [
        "does",
        -10.409197051689112
      ],
      [
        "ĠEvery",
        -10.40976684545959
      ],
      [
        "she",
        -10.409853586301804
      ],
      [
        "Ġvector",
        -10.409914578412444
      ],
      [
        "Ġremoval",
        -10.410827657340054
      ],
      [
        "ground",
        -10.410904666297984
      ],
      [
        "Ġworse",
        -10.411011624517965
      ],
      [
        "Ġacademic",
        -10.411045802132806
      ],
      [
        "Ġjump",
        -10.411289321586963
      ],
      [
        "Ġpictures",
        -10.4120565186168
      ],
      [
        "Ġroute",
        -10.412112159712414
      ],
      [
        "âĢĺ",
        -10.41215867247201
      ],
      [
        "ĠIsland",
        -10.412770642121822
      ],
      [
        "Ġblade",
        -10.412890528929584
      ],
      [
        "Ġaircraft",
        -10.413434959916165
      ],
      [
        "Ġdream",
        -10.41344418286516
      ],
      [
        "ĠGet",
        -10.413532626795943
      ],
      [
        "Ġguess",
        -10.414454826245688
      ],
      [
        "Ġbank",
        -10.41458335112088
      ],
      [
        "ĠAbou",
        -10.415553208377991
      ],
      [
        "Ġcalculation",
        -10.415676386914102
      ],
      [
        "ĠNov",
        -10.416397165272024
      ],
      [
        "Ġcontrolling",
        -10.416698859261498
      ],
      [
        "Ġstreet",
        -10.416919987866326
      ],
      [
        "Ġcalm",
        -10.417361590137409
      ],
      [
        "Ġmassive",
        -10.417400385932297
      ],
      [
        "ĠSea",
        -10.417769454576272
      ],
      [
        "Ġwearing",
        -10.418282645822632
      ],
      [
        "Read",
        -10.418722055915172
      ],
      [
        "Ġexplanation",
        -10.418980877405325
      ],
      [
        "Ġvast",
        -10.41900876663458
      ],
      [
        "Water",
        -10.419148095032975
      ],
      [
        "Even",
        -10.419597439225658
      ],
      [
        "Ġratio",
        -10.420269408526616
      ],
      [
        "Ġcombined",
        -10.420467962046642
      ],
      [
        "Ġlab",
        -10.422639141295894
      ],
      [
        "Ġcomplication",
        -10.423787853101697
      ],
      [
        "Ġborn",
        -10.423807513707343
      ],
      [
        "ware",
        -10.424346133583152
      ],
      [
        "between",
        -10.424836252172744
      ],
      [
        "Ġmelt",
        -10.425034221331693
      ],
      [
        "Ġshapes",
        -10.425343012100656
      ],
      [
        "ĠMa",
        -10.42542154289055
      ],
      [
        "Ġsouthern",
        -10.425448020741497
      ],
      [
        "Ġrural",
        -10.426088950422333
      ],
      [
        "go",
        -10.426549963848526
      ],
      [
        "ĠEast",
        -10.42688156920551
      ],
      [
        "ĠJanu",
        -10.426974186331751
      ],
      [
        "Ġreasonabl",
        -10.427136831845058
      ],
      [
        "Ġstrip",
        -10.427216558757344
      ],
      [
        "ma",
        -10.427335751129828
      ],
      [
        "Ġchronic",
        -10.428672558428277
      ],
      [
        "Ġrecognition",
        -10.428860537147791
      ],
      [
        "energy",
        -10.429407399638114
      ],
      [
        "Ġsu",
        -10.429831920535936
      ],
      [
        "Ġmeasuring",
        -10.430118297767589
      ],
      [
        "value",
        -10.430772875680974
      ],
      [
        "Ġwonderful",
        -10.431072554077597
      ],
      [
        "Ġwonder",
        -10.431125151164307
      ],
      [
        "Ġfloat",
        -10.431397490212388
      ],
      [
        "Ġlearne",
        -10.431891520251662
      ],
      [
        "Ġinfrastructure",
        -10.432703972848143
      ],
      [
        "Ġrecords",
        -10.432799909360828
      ],
      [
        "||",
        -10.43315428563763
      ],
      [
        "Ġoven",
        -10.433190438529005
      ],
      [
        "ĠAssociation",
        -10.434828232842802
      ],
      [
        "Ġsell",
        -10.436629128854005
      ],
      [
        "ions",
        -10.438052030446872
      ],
      [
        "call",
        -10.438862422672154
      ],
      [
        "<",
        -10.439168923057872
      ],
      [
        "He",
        -10.439890943191044
      ],
      [
        "Ġd",
        -10.439978920838689
      ],
      [
        "room",
        -10.440239971512764
      ],
      [
        "Ġprey",
        -10.44067574454153
      ],
      [
        "Ġfreeze",
        -10.441102721818334
      ],
      [
        "Ġscene",
        -10.441316075906837
      ],
      [
        "Ġmilitary",
        -10.442477684446224
      ],
      [
        "Ġreward",
        -10.443182668737062
      ],
      [
        "Ġconfiden",
        -10.443258093648538
      ],
      [
        "Ġintegrate",
        -10.443883937324872
      ],
      [
        "Ġsurvival",
        -10.443921723547348
      ],
      [
        "ĠSan",
        -10.443954334095702
      ],
      [
        "Ġflood",
        -10.445730691704227
      ],
      [
        "Ġshell",
        -10.445788891640698
      ],
      [
        "Ġinspire",
        -10.446526403286388
      ],
      [
        "uring",
        -10.447209490326886
      ],
      [
        "Ġexcess",
        -10.447356230195169
      ],
      [
        "Ġaren",
        -10.448030123001598
      ],
      [
        "ĠSilver",
        -10.449640311565322
      ],
      [
        "Ġstorie",
        -10.44994141919116
      ],
      [
        "Ġsport",
        -10.45027404435004
      ],
      [
        "ĠpH",
        -10.451587145527252
      ],
      [
        "Ġchapter",
        -10.451625858569244
      ],
      [
        "actions",
        -10.451998342877165
      ],
      [
        "Ġmild",
        -10.452618741781222
      ],
      [
        "Ġpure",
        -10.4527195577045
      ],
      [
        "Ġcalci",
        -10.45289708453328
      ],
      [
        "Ġarray",
        -10.453261795977422
      ],
      [
        "Ġveterinarian",
        -10.45339071151402
      ],
      [
        "Ġgradual",
        -10.45361321719722
      ],
      [
        "Ġhistorical",
        -10.453791490561802
      ],
      [
        "Ġcategor",
        -10.453857951630228
      ],
      [
        "Ġvacuum",
        -10.45389572176
      ],
      [
        "ĠTechnolog",
        -10.45437788658862
      ],
      [
        "ĠSociety",
        -10.454655551248884
      ],
      [
        "ĠGarden",
        -10.455086326885011
      ],
      [
        "Ġinflammation",
        -10.455211289233608
      ],
      [
        "Ġpages",
        -10.458247579724665
      ],
      [
        "Ġcrushing",
        -10.458594816721863
      ],
      [
        "ĠCheck",
        -10.458905509265058
      ],
      [
        "ĠWhere",
        -10.458972076199046
      ],
      [
        "Ġdistribute",
        -10.459437466417818
      ],
      [
        "Ġtrouble",
        -10.45964581474614
      ],
      [
        "Ġnorthern",
        -10.459794146231207
      ],
      [
        "Ġuniversity",
        -10.459858761878223
      ],
      [
        "Add",
        -10.46112274459378
      ],
      [
        "Ġexplor",
        -10.462511652756048
      ],
      [
        "wimming",
        -10.462738984730064
      ],
      [
        "Ġhousehold",
        -10.462837351310204
      ],
      [
        "ul",
        -10.462965612960192
      ],
      [
        "Ġultimate",
        -10.462992740280992
      ],
      [
        "ear",
        -10.46368647267209
      ],
      [
        "ĠGood",
        -10.464048481057883
      ],
      [
        "Ġinsert",
        -10.464286218820046
      ],
      [
        "much",
        -10.464539517712378
      ],
      [
        "Ġcontinu",
        -10.464678212898171
      ],
      [
        "Ġelectrons",
        -10.464683383517922
      ],
      [
        "Ġhydrogen",
        -10.465297564525091
      ],
      [
        "Ġalumin",
        -10.465333395077172
      ],
      [
        "Ġseat",
        -10.466234790700655
      ],
      [
        "ĠWhite",
        -10.466282392510015
      ],
      [
        "Ġincome",
        -10.46668517907348
      ],
      [
        "Ġcharging",
        -10.46815944840709
      ],
      [
        "Ġpro",
        -10.468526813357505
      ],
      [
        "Ġlunch",
        -10.4698354584009
      ],
      [
        "Ġbehaviour",
        -10.470403297084802
      ],
      [
        "idden",
        -10.470787953368076
      ],
      [
        "help",
        -10.471459808375217
      ],
      [
        "Ġnutrition",
        -10.471683442544755
      ],
      [
        "nance",
        -10.472093539978273
      ],
      [
        "Ġthermal",
        -10.472302133329944
      ],
      [
        "Ġtoxic",
        -10.472583415645612
      ],
      [
        "Ġfelt",
        -10.473574085750048
      ],
      [
        "Ġeight",
        -10.474135943832955
      ],
      [
        "ĠChoos",
        -10.475081569138109
      ],
      [
        "Ġappreciate",
        -10.47614998594748
      ],
      [
        "Ġperiods",
        -10.476717952579468
      ],
      [
        "Ġcorner",
        -10.47816476053428
      ],
      [
        "Ġrough",
        -10.478165320869742
      ],
      [
        "Ġorange",
        -10.47835800297458
      ],
      [
        "Ġdepression",
        -10.478482131798865
      ],
      [
        "Ġjuice",
        -10.478953673907734
      ],
      [
        "Ġstain",
        -10.479373091126137
      ],
      [
        "Ġcars",
        -10.479580304319978
      ],
      [
        "building",
        -10.479922402695948
      ],
      [
        "Ġsecret",
        -10.480721026930835
      ],
      [
        "twic",
        -10.481240837254765
      ],
      [
        "Ġagricultural",
        -10.481496987106514
      ],
      [
        "Ġthanks",
        -10.483478097506188
      ],
      [
        "Ġlicense",
        -10.483668829920925
      ],
      [
        "ĠBoth",
        -10.483971411797905
      ],
      [
        "species",
        -10.483972304707487
      ],
      [
        "state",
        -10.48427009447698
      ],
      [
        "stead",
        -10.484347086808036
      ],
      [
        "Ġvegan",
        -10.484664648424712
      ],
      [
        "Ġagriculture",
        -10.485051673752178
      ],
      [
        "Additional",
        -10.485922223853516
      ],
      [
        "Ġdust",
        -10.486328316034314
      ],
      [
        "ĠCity",
        -10.48650742631562
      ],
      [
        "Ġdioxide",
        -10.48773468982711
      ],
      [
        "Ġplayed",
        -10.488128808737748
      ],
      [
        "Ġpan",
        -10.48855269144639
      ],
      [
        "result",
        -10.488580248771912
      ],
      [
        "Ġdentist",
        -10.48882997542598
      ],
      [
        "fields",
        -10.488920256992053
      ],
      [
        "Final",
        -10.489486228199382
      ],
      [
        "Ġapproache",
        -10.489603094090157
      ],
      [
        "wide",
        -10.489644582500272
      ],
      [
        "order",
        -10.490689614489144
      ],
      [
        "Ġtransportation",
        -10.490913340041123
      ],
      [
        "Ġintroduction",
        -10.49150844686081
      ],
      [
        "ĠGuide",
        -10.4915728718179
      ],
      [
        "Just",
        -10.491628444613903
      ],
      [
        "Ġalter",
        -10.491861527021875
      ],
      [
        "ĠTV",
        -10.492482228870466
      ],
      [
        "find",
        -10.492782285530874
      ],
      [
        "Ġcomposition",
        -10.493739655921711
      ],
      [
        "Ġdisaster",
        -10.49455943669275
      ],
      [
        "li",
        -10.494722071258543
      ],
      [
        "Ġcopy",
        -10.494890713305834
      ],
      [
        "Ġextract",
        -10.494911641565192
      ],
      [
        "Ġcustom",
        -10.495153250451596
      ],
      [
        "Ġmining",
        -10.495304988443277
      ],
      [
        "Ġpop",
        -10.49654293534518
      ],
      [
        "ĠControl",
        -10.496588797732704
      ],
      [
        "Ġaccurac",
        -10.496589545173574
      ],
      [
        "ĠTexa",
        -10.496612661433922
      ],
      [
        "Ġmobile",
        -10.496644410065027
      ],
      [
        "Ġfully",
        -10.49685624564703
      ],
      [
        "Ġaesthetic",
        -10.497703199312404
      ],
      [
        "Ġbridge",
        -10.497806859804648
      ],
      [
        "Ġfamiliar",
        -10.497953136707324
      ],
      [
        "Ġminimal",
        -10.498383817357483
      ],
      [
        "Ġinteractive",
        -10.498695163820226
      ],
      [
        "History",
        -10.49936922445166
      ],
      [
        "Ġshop",
        -10.49937190648362
      ],
      [
        "Ġmanner",
        -10.499409629426996
      ],
      [
        "Ġdurable",
        -10.499514191316251
      ],
      [
        "Ġbabie",
        -10.499654544232468
      ],
      [
        "Ġtradition",
        -10.499709453452647
      ],
      [
        "Ġrespective",
        -10.500481488555014
      ],
      [
        "ĠLearning",
        -10.500975603371344
      ],
      [
        "Ġcultural",
        -10.501043309134053
      ],
      [
        "Ġexperienc",
        -10.501106548743111
      ],
      [
        "ĠDevelopment",
        -10.501705468650153
      ],
      [
        "Ġsupplement",
        -10.502138328860555
      ],
      [
        "Ġgenome",
        -10.502525946310598
      ],
      [
        "Ġjobs",
        -10.504032005300962
      ],
      [
        "itis",
        -10.50408973787811
      ],
      [
        "Ġformation",
        -10.504344760088532
      ],
      [
        "ĠLife",
        -10.504805912072428
      ],
      [
        "Ġshock",
        -10.50557402899946
      ],
      [
        "Ġg",
        -10.506106668273071
      ],
      [
        "ĠCo",
        -10.50621197708424
      ],
      [
        ".âĢĿ",
        -10.506973924558274
      ],
      [
        "Ġscrew",
        -10.507180630949916
      ],
      [
        "Ġarrangement",
        -10.50886725116266
      ],
      [
        "ill",
        -10.509429453733905
      ],
      [
        "Ġminute",
        -10.509463405232353
      ],
      [
        "Ġsuspect",
        -10.5096359398462
      ],
      [
        "Ġcommitment",
        -10.509837334602334
      ],
      [
        "Ġstrengthen",
        -10.51002085787642
      ],
      [
        "Ġcorn",
        -10.510231039091073
      ],
      [
        "ĠUV",
        -10.510491905703304
      ],
      [
        "Ġquantum",
        -10.510658345139742
      ],
      [
        "Ġcash",
        -10.510923590283262
      ],
      [
        "Ġheater",
        -10.51095120982265
      ],
      [
        "lies",
        -10.511156220104834
      ],
      [
        "ĠAnimal",
        -10.511263339197576
      ],
      [
        "Ġsexual",
        -10.511668378410745
      ],
      [
        "technology",
        -10.511699322261393
      ],
      [
        "Ġcreates",
        -10.511863942149574
      ],
      [
        "Ġembodiment",
        -10.512407936298288
      ],
      [
        "Ġbug",
        -10.512637720269186
      ],
      [
        "Ġsong",
        -10.513218411566626
      ],
      [
        "ĠConsider",
        -10.513220714532489
      ],
      [
        "eadership",
        -10.513436896631369
      ],
      [
        "spread",
        -10.513819854946442
      ],
      [
        "Ġfamous",
        -10.514117615841135
      ],
      [
        "Ġauto",
        -10.51413859785398
      ],
      [
        "Ġmakin",
        -10.514242419831424
      ],
      [
        "Ġplays",
        -10.514432997799355
      ],
      [
        "ĠTake",
        -10.51477818535118
      ],
      [
        "Ġinstitution",
        -10.514911489642172
      ],
      [
        "ĠBay",
        -10.51509212783744
      ],
      [
        "ĠIts",
        -10.515459380830857
      ],
      [
        "before",
        -10.515746008282331
      ],
      [
        "Ġinspection",
        -10.515804192180386
      ],
      [
        "Ġinitiative",
        -10.515869959186867
      ],
      [
        "Ġcluster",
        -10.515986671370936
      ],
      [
        "level",
        -10.516043180740152
      ],
      [
        "ĠPM",
        -10.516398220685558
      ],
      [
        "gave",
        -10.516424807374756
      ],
      [
        "ĠThen",
        -10.51649024183106
      ],
      [
        "Ġcurriculum",
        -10.516504757351662
      ],
      [
        "Ġvertical",
        -10.516781655382776
      ],
      [
        "still",
        -10.517326558434808
      ],
      [
        "stock",
        -10.518030960425582
      ],
      [
        "advantages",
        -10.518291512061891
      ],
      [
        "Ġfacilitate",
        -10.518533992102569
      ],
      [
        "Ġfinishe",
        -10.51922553718215
      ],
      [
        "ory",
        -10.520448034494818
      ],
      [
        "Ġexcited",
        -10.520740122493835
      ],
      [
        "ĠSt",
        -10.52116652163265
      ],
      [
        "Ġconsumers",
        -10.521231779464078
      ],
      [
        "ĠOctober",
        -10.521889899946505
      ],
      [
        "ĠPlan",
        -10.52199928052952
      ],
      [
        "Ġpractitioner",
        -10.52214851928731
      ],
      [
        "Ġthoughts",
        -10.52257133620172
      ],
      [
        "Unfortunatel",
        -10.52340218864488
      ],
      [
        "Ġbreast",
        -10.523549393973614
      ],
      [
        "Ġacids",
        -10.52388871465967
      ],
      [
        "Ġlaborator",
        -10.52394212040667
      ],
      [
        "ĠEngland",
        -10.523969887841336
      ],
      [
        "Ġsession",
        -10.524313226829456
      ],
      [
        "Ġregulate",
        -10.525351467777368
      ],
      [
        "Ġworkshop",
        -10.526280046535607
      ],
      [
        "Ġgun",
        -10.526435806278124
      ],
      [
        "Ġlights",
        -10.526813214935586
      ],
      [
        "cellular",
        -10.526916252077744
      ],
      [
        "Ġweigh",
        -10.527071956731325
      ],
      [
        "rich",
        -10.52772744885867
      ],
      [
        "Ġdischarge",
        -10.528236097731462
      ],
      [
        "Ġyard",
        -10.528673952538709
      ],
      [
        "Ġfocuse",
        -10.528845495055457
      ],
      [
        "Ġbranche",
        -10.52910145890785
      ],
      [
        "ĠHuman",
        -10.529875065153188
      ],
      [
        "Ġsides",
        -10.52992612204166
      ],
      [
        "role",
        -10.530244248148914
      ],
      [
        "high",
        -10.530299462261844
      ],
      [
        "Ġopposite",
        -10.531065126099854
      ],
      [
        "Ġborder",
        -10.53134993076426
      ],
      [
        "ĠClean",
        -10.53157717903996
      ],
      [
        "Ġkitten",
        -10.531739402887116
      ],
      [
        "Ġuniverse",
        -10.53193749156481
      ],
      [
        "gan",
        -10.532127390308096
      ],
      [
        "Ġsessions",
        -10.532578660136558
      ],
      [
        "Ġcentre",
        -10.533674354013971
      ],
      [
        "Ġtrend",
        -10.535055575777402
      ],
      [
        "Ġkid",
        -10.535158305870937
      ],
      [
        "Ġexcept",
        -10.535203160365992
      ],
      [
        "Ġrid",
        -10.535305525907496
      ],
      [
        "meter",
        -10.53559298000193
      ],
      [
        "\"We",
        -10.535755447368931
      ],
      [
        "typical",
        -10.535930142564588
      ],
      [
        "Ġurban",
        -10.53634902177182
      ],
      [
        "Ġpeak",
        -10.53645807717523
      ],
      [
        "Every",
        -10.53698410270701
      ],
      [
        "Ġcollaboration",
        -10.538412079958611
      ],
      [
        "Ġmoral",
        -10.539858839854611
      ],
      [
        "Ġmoth",
        -10.540490087317265
      ],
      [
        "].",
        -10.540702296140374
      ],
      [
        "Ġdeer",
        -10.540730525401836
      ],
      [
        "Ġgraduate",
        -10.540913026143574
      ],
      [
        "Ġarrive",
        -10.541149029859485
      ],
      [
        "Ġphysics",
        -10.542194305649252
      ],
      [
        "ask",
        -10.542311219891188
      ],
      [
        "Ġweapon",
        -10.54287842922383
      ],
      [
        "Ġpasta",
        -10.54317934195463
      ],
      [
        "Ġfriendl",
        -10.54388884884234
      ],
      [
        "Ġrat",
        -10.54506503326976
      ],
      [
        "Ġthreaten",
        -10.54533938887883
      ],
      [
        "Ġcontract",
        -10.54582243637775
      ],
      [
        "ngineering",
        -10.545865076684908
      ],
      [
        "ĠFish",
        -10.54638540907471
      ],
      [
        "Ġimplement",
        -10.546577567099195
      ],
      [
        "\"The",
        -10.547363271825816
      ],
      [
        "Ġpackag",
        -10.54763995207583
      ],
      [
        "Ġmutation",
        -10.547915746203357
      ],
      [
        "Ġbean",
        -10.548731032063287
      ],
      [
        "Ġthin",
        -10.548759598153264
      ],
      [
        "Ġcom",
        -10.54882916546568
      ],
      [
        "Ġindex",
        -10.548876391820023
      ],
      [
        "come",
        -10.54907130883988
      ],
      [
        "ĠKnow",
        -10.549126702536416
      ],
      [
        "Ġcolumn",
        -10.549786205737645
      ],
      [
        "Ġcognitive",
        -10.550070685204645
      ],
      [
        "Ġpotatoes",
        -10.550388082888324
      ],
      [
        "Ġsex",
        -10.550388094278002
      ],
      [
        "Ġrenewable",
        -10.550426625227832
      ],
      [
        "Ġleader",
        -10.55047380107008
      ],
      [
        "Ġmammal",
        -10.55053851431744
      ],
      [
        "Ġpartner",
        -10.550608844251071
      ],
      [
        "ĠBlack",
        -10.550919795098924
      ],
      [
        "Ġeconom",
        -10.551881781908396
      ],
      [
        "Ġdiagnose",
        -10.552007992582766
      ],
      [
        "Ġhabits",
        -10.55210039661916
      ],
      [
        "Ġmeter",
        -10.552808557906094
      ],
      [
        "Ġmen",
        -10.55308908779298
      ],
      [
        "Ġrestrict",
        -10.553195048628606
      ],
      [
        "Ġcontaining",
        -10.553899559354129
      ],
      [
        "Ġdecay",
        -10.554129414772436
      ],
      [
        "Ġturning",
        -10.55475879044803
      ],
      [
        "ĠFoundation",
        -10.555025456100626
      ],
      [
        "Ġstroke",
        -10.555091474855198
      ],
      [
        "Ġdinosaur",
        -10.555100640529131
      ],
      [
        "ĠRemember",
        -10.555507306391071
      ],
      [
        "Ġ#",
        -10.556637160880394
      ],
      [
        "Ġtip",
        -10.556885169400267
      ],
      [
        "Ġspin",
        -10.557092136144634
      ],
      [
        "Ġspots",
        -10.557647192542216
      ],
      [
        "Ġrace",
        -10.558033651751623
      ],
      [
        "vity",
        -10.558099296766247
      ],
      [
        "Ġnose",
        -10.558682525021384
      ],
      [
        "cy",
        -10.558959364040264
      ],
      [
        "Ġheal",
        -10.559103797037077
      ],
      [
        "ĠProgram",
        -10.559266821400282
      ],
      [
        "Ġequipp",
        -10.559645030081528
      ],
      [
        "Ġwarning",
        -10.559716339316862
      ],
      [
        "Ġboy",
        -10.560436998770657
      ],
      [
        "Ġconfiguration",
        -10.56149620990593
      ],
      [
        "Who",
        -10.561586419466584
      ],
      [
        "active",
        -10.562033706636264
      ],
      [
        "Ġdetection",
        -10.562938857995125
      ],
      [
        "Ġpar",
        -10.563186094425005
      ],
      [
        "Ġunusual",
        -10.563798804781204
      ],
      [
        "Ġtwist",
        -10.56552074130764
      ],
      [
        "ĠThrough",
        -10.56585551406308
      ],
      [
        "Have",
        -10.566185900302052
      ],
      [
        "Ġhappening",
        -10.566554269846195
      ],
      [
        "ĠInformation",
        -10.56660437343364
      ],
      [
        "Ġconditioner",
        -10.567533967739427
      ],
      [
        "Ġimpossibl",
        -10.569097149966725
      ],
      [
        "served",
        -10.569481665524002
      ],
      [
        "Ġtrait",
        -10.569624521022176
      ],
      [
        "Ġsuffering",
        -10.569902928423026
      ],
      [
        "Ġconflict",
        -10.57007809939099
      ],
      [
        "Ġkg",
        -10.570096962343015
      ],
      [
        "Ġcapital",
        -10.57066533484089
      ],
      [
        "Ġshelter",
        -10.570811360741644
      ],
      [
        "Ġconvenient",
        -10.57084596061041
      ],
      [
        "Ġsoup",
        -10.571026794402504
      ],
      [
        "ĠOpen",
        -10.571737910166505
      ],
      [
        "act",
        -10.572908382407958
      ],
      [
        "Ġlaser",
        -10.574140471325698
      ],
      [
        "ĠMexic",
        -10.57490935980926
      ],
      [
        "Ġfixe",
        -10.575141292114036
      ],
      [
        "Ġinform",
        -10.57635371022986
      ],
      [
        "Z",
        -10.580468942199476
      ],
      [
        "library",
        -10.581292471593638
      ],
      [
        "ĠGerman",
        -10.581783104801543
      ],
      [
        "after",
        -10.581935798561265
      ],
      [
        "Ġactivate",
        -10.581943814783706
      ],
      [
        "Ġparty",
        -10.581963138594537
      ],
      [
        "would",
        -10.582058018241485
      ],
      [
        "full",
        -10.582338277370122
      ],
      [
        "-day",
        -10.583373939669151
      ],
      [
        "Ġ...ĊĊ",
        -10.583799975562702
      ],
      [
        "Ġinjuri",
        -10.58450899192854
      ],
      [
        "urthermore",
        -10.584662141152869
      ],
      [
        "Ġboil",
        -10.584817775700415
      ],
      [
        "Ġtough",
        -10.585066508440974
      ],
      [
        "Ġluck",
        -10.585750171904458
      ],
      [
        "Ġculinar",
        -10.587071480419764
      ],
      [
        "including",
        -10.58729651376397
      ],
      [
        "Ġbroad",
        -10.58750951167862
      ],
      [
        "Ġstrike",
        -10.587534951546823
      ],
      [
        "Ġmicro",
        -10.587658550111485
      ],
      [
        "Ġclothes",
        -10.58811109755712
      ],
      [
        "Ġinsurance",
        -10.588638031731255
      ],
      [
        "Ġturns",
        -10.588909354501572
      ],
      [
        "Ġbi",
        -10.589276818486493
      ],
      [
        "Ġmetals",
        -10.589653836811069
      ],
      [
        "Ġnames",
        -10.589678519010953
      ],
      [
        "Ġjoint",
        -10.589706180608728
      ],
      [
        "city",
        -10.589718559999485
      ],
      [
        "ĠAny",
        -10.589743957490144
      ],
      [
        "Ġdiscomfort",
        -10.589900439162424
      ],
      [
        "Ġsnakes",
        -10.590189647140493
      ],
      [
        "Ġapparent",
        -10.591072580408577
      ],
      [
        "Ġlearner",
        -10.591172412662376
      ],
      [
        "Ġbinding",
        -10.591395656346258
      ],
      [
        "Ġprogramme",
        -10.59142752023552
      ],
      [
        "Ġstove",
        -10.592130968975995
      ],
      [
        "Ġassembl",
        -10.59285179832351
      ],
      [
        "Ġshark",
        -10.593580268774094
      ],
      [
        "Ġwouldn",
        -10.5936255291407
      ],
      [
        "Ġcrusher",
        -10.593985969386456
      ],
      [
        "ĠAdd",
        -10.595447326820164
      ],
      [
        "Ġisolate",
        -10.595451665168529
      ],
      [
        "odium",
        -10.595537461967822
      ],
      [
        "Ġcombine",
        -10.595639389042388
      ],
      [
        "Ġpizza",
        -10.595963491307128
      ],
      [
        "Ġholiday",
        -10.596254677806863
      ],
      [
        "Ġspectrum",
        -10.59633100644156
      ],
      [
        "Ġsimulation",
        -10.596667325421995
      ],
      [
        "Ġpossibly",
        -10.596858272007116
      ],
      [
        "ily",
        -10.597084982804173
      ],
      [
        "Ġplus",
        -10.597956425531894
      ],
      [
        "Ġliver",
        -10.598505189743998
      ],
      [
        "force",
        -10.598969565344747
      ],
      [
        "ĠCommon",
        -10.59936040532774
      ],
      [
        "Ġconsumer",
        -10.599408195437393
      ],
      [
        "cross",
        -10.600263222372742
      ],
      [
        "Ġuniform",
        -10.600683052562577
      ],
      [
        "Ġballoon",
        -10.601506232779048
      ],
      [
        "Ġmark",
        -10.60164524556454
      ],
      [
        "Ġdiagnosi",
        -10.6018995710447
      ],
      [
        "Ġdestroy",
        -10.602212104798957
      ],
      [
        "Ġnorth",
        -10.602276992948124
      ],
      [
        "Ġpolitical",
        -10.603255073017571
      ],
      [
        "Ġdecline",
        -10.6039535556648
      ],
      [
        "ĠLab",
        -10.604279301058895
      ],
      [
        "Ġunderly",
        -10.60444161210139
      ],
      [
[...]
