{
  "version": "1.0",
  "truncation": null,
  "padding": null,
  "added_tokens": [
    {
      "id": 0,
      "content": "<|bos|>",
      "single_word": false,
      "lstrip": false,
      "rstrip": false,
      "normalized": false,
      "special": true
    },
    {
      "id": 1,
      "content": "<|user_start|>",
      "single_word": false,
      "lstrip": false,
      "rstrip": false,
      "normalized": false,
      "special": true
    },
    {
      "id": 2,
      "content": "<|user_end|>",
      "single_word": false,
      "lstrip": false,
      "rstrip": false,
      "normalized": false,
      "special": true
    },
    {
      "id": 3,
      "content": "<|assistant_start|>",
      "single_word": false,
      "lstrip": false,
      "rstrip": false,
      "normalized": false,
      "special": true
    },
    {
      "id": 4,
      "content": "<|assistant_end|>",
      "single_word": false,
      "lstrip": false,
      "rstrip": false,
      "normalized": false,
      "special": true
    },
    {
      "id": 5,
      "content": "<|python_start|>",
      "single_word": false,
      "lstrip": false,
      "rstrip": false,
      "normalized": false,
      "special": true
    },
    {
      "id": 6,
      "content": "<|python_end|>",
      "single_word": false,
      "lstrip": false,
      "rstrip": false,
      "normalized": false,
      "special": true
    },
    {
      "id": 7,
      "content": "<|output_start|>",
      "single_word": false,
      "lstrip": false,
      "rstrip": false,
      "normalized": false,
      "special": true
    },
    {
      "id": 8,
      "content": "<|output_end|>",
      "single_word": false,
      "lstrip": false,
      "rstrip": false,
      "normalized": false,
      "special": true
    },
    {
      "id": 9,
      "content": "<|unk|>",
      "single_word": false,
      "lstrip": false,
      "rstrip": false,
      "normalized": false,
      "special": true
    }
  ],
  "normalizer": null,
  "pre_tokenizer": {
    "type": "Sequence",
    "pretokenizers": [
      {
        "type": "Split",
        "pattern": {
          "Regex": "'(?i:[sdmt]|ll|ve|re)|[^\\r\\n\\p{L}\\p{N}]?+\\p{L}+|\\p{N}{1,2}| ?[^\\s\\p{L}\\p{N}]++[\\r\\n]*|\\s*[\\r\\n]|\\s+(?!\\S)|\\s+"
        },
        "behavior": "Isolated",
        "invert": false
      },
      {
        "type": "ByteLevel",
        "add_prefix_space": false,
        "trim_offsets": true,
        "use_regex": false
      }
    ]
  },
  "post_processor": {
    "type": "TemplateProcessing",
    "single": [
      {
        "Sequence": {
          "id": "A",
          "type_id": 0
        }
      }
    ],
    "pair": [
      {
        "Sequence": {
          "id": "A",
          "type_id": 0
        }
      },
      {
        "Sequence": {
          "id": "B",
          "type_id": 1
        }
      }
    ],
    "special_tokens": {}
  },
  "decoder": null,
  "model": {
    "type": "Unigram",
    "unk_id": 9,
    "vocab": [
      [
        "<|bos|>",
        0.0
      ],
      [
        "<|user_start|>",
        0.0
      ],
      [
        "<|user_end|>",
        0.0
      ],
      [
        "<|assistant_start|>",
        0.0
      ],
      [
        "<|assistant_end|>",
        0.0
      ],
      [
        "<|python_start|>",
        0.0
      ],
      [
        "<|python_end|>",
        0.0
      ],
      [
        "<|output_start|>",
        0.0
      ],
      [
        "<|output_end|>",
        0.0
      ],
      [
        "<|unk|>",
        0.0
      ],
      [
        "s",
        -3.112634096802669
      ],
      [
        "Ġ",
        -3.2080238156535827
      ],
      [
        "Ġthe",
        -3.399311330841474
      ],
      [
        ",",
        -3.4586742355769893
      ],
      [
        ".",
        -3.7411645222283134
      ],
      [
        "Ġand",
        -3.932479265976814
      ],
      [
        "Ġof",
        -3.992004325298561
      ],
      [
        "Ġto",
        -3.9959354637486832
      ],
      [
        "a",
        -4.009180058063011
      ],
      [
        "ing",
        -4.376878390725022
      ],
      [
        "Ġin",
        -4.499301091419412
      ],
      [
        "Ġis",
        -4.603583257615485
      ],
      [
        "ed",
        -4.767730933784389
      ],
      [
        "'",
        -4.912296616823335
      ],
      [
        "Ġthat",
        -5.03267295691626
      ],
      [
        "y",
        -5.035928728934232
      ],
      [
        "Ġfor",
        -5.050069287775438
      ],
      [
        "d",
        -5.052680774713892
      ],
      [
        "0",
        -5.053031591460099
      ],
      [
        "ly",
        -5.196028818575984
      ],
      [
        "1",
        -5.207142194497388
      ],
      [
        "Ġare",
        -5.2263546091187685
      ],
      [
        "Ċ",
        -5.235486053003449
      ],
      [
        ":",
        -5.238434967860892
      ],
      [
        "e",
        -5.292083331549376
      ],
      [
        "Ġwith",
        -5.294862252219012
      ],
      [
        ".Ċ",
        -5.304072556975136
      ],
      [
        ".ĊĊ",
        -5.304503652617395
      ],
      [
        "Ġyou",
        -5.31984759132469
      ],
      [
        "Ġit",
        -5.341128286047027
      ],
      [
        "2",
        -5.4175370308186
      ],
      [
        "Ġbe",
        -5.457476184661797
      ],
      [
        "Ġcan",
        -5.493152238583674
      ],
      [
        "Ġon",
        -5.501233156375745
      ],
      [
        "Ġor",
        -5.514599741512059
      ],
      [
        "Ġas",
        -5.541583722102315
      ],
      [
        "t",
        -5.554912696924939
      ],
      [
        "-",
        -5.608196495380495
      ],
      [
        "ĊĊ",
        -5.635377701458763
      ],
      [
        "Ġyour",
        -5.7082484242572615
      ],
      [
        "Ġ(",
        -5.768614438885788
      ],
      [
        "\"",
        -5.848840432907766
      ],
      [
        "Ġfrom",
        -5.880217596323915
      ],
      [
        "Ġhave",
        -5.88446206534644
      ],
      [
        "ĠThe",
        -5.932824595498012
      ],
      [
        "ĠI",
        -5.969345831467571
      ],
      [
        "Ġby",
        -5.976060985767603
      ],
      [
        ")",
        -5.994683363940544
      ],
      [
        "n",
        -5.997515419102996
      ],
      [
        "Ġan",
        -6.030514864453327
      ],
      [
        "Ġthis",
        -6.070190007348051
      ],
      [
        "3",
        -6.074785137449428
      ],
      [
        "?",
        -6.092092288496566
      ],
      [
        "5",
        -6.099049826416284
      ],
      [
        "Ġat",
        -6.110819839424689
      ],
      [
        "Ġnot",
        -6.123047744629014
      ],
      [
        "Ġtheir",
        -6.202701846727708
      ],
      [
        "Ġwill",
        -6.208909578869653
      ],
      [
        "4",
        -6.272706914410628
      ],
      [
        "Ġthey",
        -6.328039337169999
      ],
      [
        "Ġmore",
        -6.349895119581843
      ],
      [
        "9",
        -6.354148374283568
      ],
      [
        "Ġwas",
        -6.386992216570334
      ],
      [
        "The",
        -6.4207943756138555
      ],
      [
        "Ġbut",
        -6.471877927987682
      ],
      [
        "Ġhas",
        -6.485372227437031
      ],
      [
        "Ġwhich",
        -6.4941438139217755
      ],
      [
        "Ġwe",
        -6.506882943561028
      ],
      [
        "6",
        -6.548540570888855
      ],
      [
        "r",
        -6.550443435418458
      ],
      [
        "Ġone",
        -6.560279886463549
      ],
      [
        "Question",
        -6.561069212131464
      ],
      [
        "Ġalso",
        -6.583655212104569
      ],
      [
        "ĠAnswer",
        -6.589455208639674
      ],
      [
        "8",
        -6.592531248131461
      ],
      [
        "ies",
        -6.604612121236675
      ],
      [
        "o",
        -6.6347469266237855
      ],
      [
        "Ġabout",
        -6.649943086253934
      ],
      [
        "i",
        -6.666982964987536
      ],
      [
        "Ġall",
        -6.667439098975599
      ],
      [
        "7",
        -6.67280087326232
      ],
      [
        "Ġother",
        -6.709840224798901
      ],
      [
        "ĠIt",
        -6.7296599192927715
      ],
      [
        "Ġwhen",
        -6.741041291504258
      ],
      [
        "Ġif",
        -6.78253066207512
      ],
      [
        "Ġdo",
        -6.786109497025608
      ],
      [
        "Ġsome",
        -6.787167359813557
      ],
      [
        "on",
        -6.7875459851221915
      ],
      [
        "Ġthem",
        -6.798408432613364
      ],
      [
        "ĠA",
        -6.79894043544768
      ],
      [
        "Ġuse",
        -6.801485738929328
      ],
      [
        "Ġtime",
        -6.807724957392434
      ],
      [
        "Ġinto",
        -6.820643568360859
      ],
      [
        "Ġlike",
        -6.823263072950141
      ],
      [
        "Ġso",
        -6.845443940857665
      ],
      [
        "Ġup",
        -6.846602826788265
      ],
      [
        "Ġhow",
        -6.848966179242453
      ],
      [
        "er",
        -6.856099037298957
      ],
      [
        "Ġmay",
        -6.8708605836575
      ],
      [
        "ĠThis",
        -6.882038597109569
      ],
      [
        "ĠWhat",
        -6.915429804302381
      ],
      [
        "Ġout",
        -6.92508245234675
      ],
      [
        "Ġthan",
        -6.927643940705877
      ],
      [
        "m",
        -6.937055462492809
      ],
      [
        "A",
        -6.944910818935526
      ],
      [
        "Ġthese",
        -6.949295765940084
      ],
      [
        "re",
        -6.9623072766716785
      ],
      [
        "Ġthere",
        -6.9716680932404405
      ],
      [
        "Ġwhat",
        -6.972487548590566
      ],
      [
        "Ġour",
        -6.991146678038195
      ],
      [
        "Ġwater",
        -7.022990854890729
      ],
      [
        "Ġused",
        -7.035638250282766
      ],
      [
        "/",
        -7.064722976891058
      ],
      [
        "Ġneed",
        -7.083941427112787
      ],
      [
        "able",
        -7.090492653471452
      ],
      [
        "Ġmake",
        -7.090575864183162
      ],
      [
        "Ġmost",
        -7.094922297061462
      ],
      [
        "Ġpeople",
        -7.103655189706664
      ],
      [
        "Ġsuch",
        -7.108665616304588
      ],
      [
        "Ġwere",
        -7.1279720774576685
      ],
      [
        "ĠIn",
        -7.135515574271496
      ],
      [
        "Ġany",
        -7.136638627217172
      ],
      [
        "c",
        -7.1633102986356345
      ],
      [
        "Ġget",
        -7.164900635261651
      ],
      [
        "Ġbeen",
        -7.171269166286283
      ],
      [
        "Ġhelp",
        -7.178925259642897
      ],
      [
        "Ġnew",
        -7.210206287564926
      ],
      [
        "Ġshould",
        -7.230127310457723
      ],
      [
        "Ġjust",
        -7.234986960872108
      ],
      [
        "Ġonly",
        -7.247551936503699
      ],
      [
        "Ġwould",
        -7.25183252884904
      ],
      [
        "Ġits",
        -7.2569457764000145
      ],
      [
        "Ġwho",
        -7.271441551897732
      ],
      [
        "Ġmany",
        -7.272495105168071
      ],
      [
        "Ġhigh",
        -7.29849075341356
      ],
      [
        "I",
        -7.305388166011062
      ],
      [
        "Ġover",
        -7.309070430144501
      ],
      [
        ";",
        -7.321184697223337
      ],
      [
        "Ġtwo",
        -7.3249470246357795
      ],
      [
        "Ġwell",
        -7.334993137503263
      ],
      [
        "al",
        -7.364063100792956
      ],
      [
        "l",
        -7.368558568202927
      ],
      [
        "Ġway",
        -7.371726128639468
      ],
      [
        "Ġfirst",
        -7.374011150431038
      ],
      [
        "Ġthrough",
        -7.375704189255188
      ],
      [
        "Ġwhere",
        -7.397926929841518
      ],
      [
        "Ġno",
        -7.401782187461521
      ],
      [
        "Ġmy",
        -7.402312483923904
      ],
      [
        "Ġdifferent",
        -7.405099097322209
      ],
      [
        "Ġbetween",
        -7.406120938680116
      ],
      [
        "Ġtake",
        -7.411213765336585
      ],
      [
        "Ġwork",
        -7.414542319759327
      ],
      [
        "ever",
        -7.419043637419172
      ],
      [
        "?Ċ",
        -7.4371860825926195
      ],
      [
        "!",
        -7.458570138121749
      ],
      [
        "Ġgo",
        -7.461884654276114
      ],
      [
        "Ġbecause",
        -7.46627364414066
      ],
      [
        "Ġcould",
        -7.472178728612805
      ],
      [
        "in",
        -7.472273395740036
      ],
      [
        "Ġusing",
        -7.488717152463774
      ],
      [
        "ĠIf",
        -7.4919321531835745
      ],
      [
        "Ġeven",
        -7.507781326391159
      ],
      [
        "Ġvery",
        -7.525818281110903
      ],
      [
        "ĠHow",
        -7.527715019890229
      ],
      [
        "ĠThey",
        -7.531967255015912
      ],
      [
        "Ġhe",
        -7.552264074341832
      ],
      [
        "Ġsystem",
        -7.553328175513405
      ],
      [
        "Ġmuch",
        -7.564548356515607
      ],
      [
        "ve",
        -7.577230090022557
      ],
      [
        "Ġprovide",
        -7.587070392657159
      ],
      [
        "Ġchange",
        -7.592096777001766
      ],
      [
        "Ġsee",
        -7.597543611302676
      ],
      [
        "Ġhealth",
        -7.597808313746043
      ],
      [
        "Ġfood",
        -7.5979438102029455
      ],
      [
        "ity",
        -7.60298470524565
      ],
      [
        "Ġknow",
        -7.603386043124807
      ],
      [
        "while",
        -7.603512021649854
      ],
      [
        "Ġhis",
        -7.6038102642009715
      ],
      [
        "Ġwant",
        -7.605476756556982
      ],
      [
        "Ġeach",
        -7.605591946647818
      ],
      [
        "Ġimportant",
        -7.61188135782964
      ],
      [
        "In",
        -7.614943622309779
      ],
      [
        "Ġprocess",
        -7.616496923420927
      ],
      [
        "Ġgood",
        -7.620889065366329
      ],
      [
        "Ġdoes",
        -7.625277252869472
      ],
      [
        "g",
        -7.626245890513593
      ],
      [
        "ĠâĢĵ",
        -7.636292155921968
      ],
      [
        "?ĊĊ",
        -7.6394880920495805
      ],
      [
        "Ġyears",
        -7.641919434789989
      ],
      [
        "Ġlong",
        -7.6454424227461555
      ],
      [
        "Ġhad",
        -7.645626619799756
      ],
      [
        "Ġsmall",
        -7.652717809657423
      ],
      [
        "ĠYou",
        -7.663739633506273
      ],
      [
        ").",
        -7.664412017925445
      ],
      [
        "Ġdesign",
        -7.673682797553422
      ],
      [
        "Ġevery",
        -7.6816318973391216
      ],
      [
        "ĠC",
        -7.689771464447205
      ],
      [
        "Ġafter",
        -7.701141066839526
      ],
      [
        "Ġdon",
        -7.719264978573046
      ],
      [
        "Ġaround",
        -7.71967066571478
      ],
      [
        "Ġworld",
        -7.725708730974006
      ],
      [
        "f",
        -7.740998621974333
      ],
      [
        "out",
        -7.741182195864907
      ],
      [
        "Ġsame",
        -7.7447659955976444
      ],
      [
        "Ġlife",
        -7.751180292227263
      ],
      [
        "Ġlarge",
        -7.751531857397742
      ],
      [
        "ĠB",
        -7.756666312937931
      ],
      [
        "Ġbefore",
        -7.75995062064052
      ],
      [
        "Ġfound",
        -7.76370415099346
      ],
      [
        "Ġcreate",
        -7.789083357977352
      ],
      [
        "Ġthose",
        -7.791192114151814
      ],
      [
        "Ġoften",
        -7.794478179702443
      ],
      [
        "is",
        -7.798600405102869
      ],
      [
        "Ġboth",
        -7.801604016607349
      ],
      [
        "Ġallow",
        -7.804987876046972
      ],
      [
        "Ġplace",
        -7.810628938279839
      ],
      [
        "Ġarea",
        -7.813998750162799
      ],
      [
        "Ġlook",
        -7.814960823809956
      ],
      [
        "Ġbeing",
        -7.817675268752479
      ],
      [
        "Ġright",
        -7.819584686691128
      ],
      [
        "during",
        -7.820045905701985
      ],
      [
        "Ġbody",
        -7.821181496495205
      ],
      [
        "Ġpart",
        -7.826299601914231
      ],
      [
        "Ġcause",
        -7.829735827067216
      ],
      [
        "Ġdata",
        -7.830565756468776
      ],
      [
        "ce",
        -7.831865893120053
      ],
      [
        "What",
        -7.836578765074458
      ],
      [
        "Ġlight",
        -7.837733859679075
      ],
      [
        "ul",
        -7.841951803370181
      ],
      [
        "Ġenergy",
        -7.849339980145077
      ],
      [
        "Ġbest",
        -7.852881854638319
      ],
      [
        "%",
        -7.85691547255402
      ],
      [
        "Ġback",
        -7.856996077559208
      ],
      [
        "Ġfind",
        -7.857616134748259
      ],
      [
        "Ġkeep",
        -7.85768257728183
      ],
      [
        "><",
        -7.863722101892497
      ],
      [
        "ĠFor",
        -7.8657575618456335
      ],
      [
        "p",
        -7.86749181738201
      ],
      [
        "Ġcommon",
        -7.871336692537529
      ],
      [
        "Ġmade",
        -7.872657144798193
      ],
      [
        "Ġinformation",
        -7.875659640854746
      ],
      [
        "h",
        -7.8776511619799905
      ],
      [
        "ll",
        -7.883654268035729
      ],
      [
        "ĠWe",
        -7.885000773025904
      ],
      [
        "Ġdown",
        -7.887155065314992
      ],
      [
        "S",
        -7.8874601699582225
      ],
      [
        "Ġday",
        -7.89933233510043
      ],
      [
        "Ġyear",
        -7.901843558606883
      ],
      [
        "C",
        -7.904001893536424
      ],
      [
        "ĠS",
        -7.905095944728481
      ],
      [
        "Ġincrease",
        -7.910148121058855
      ],
      [
        "Ġinclude",
        -7.917174660507298
      ],
      [
        "Ġsay",
        -7.918680164839623
      ],
      [
        "(",
        -7.921145488629431
      ],
      [
        "Ġnumber",
        -7.92932915928327
      ],
      [
        "),",
        -7.933215598992524
      ],
      [
        "Ġstart",
        -7.935216799993643
      ],
      [
        "Ġus",
        -7.93580403976622
      ],
      [
        "Ġpower",
        -7.937443460885275
      ],
      [
        "Ġher",
        -7.9384690374474065
      ],
      [
        "Ġplant",
        -7.938702155892704
      ],
      [
        "Ġexperience",
        -7.942957424192375
      ],
      [
        ":Ċ",
        -7.953301867166576
      ],
      [
        "Ġshow",
        -7.957037750279627
      ],
      [
        "How",
        -7.960197113296616
      ],
      [
        "Ġmain",
        -7.9623744776389636
      ],
      [
        "Ġform",
        -7.964688521595063
      ],
      [
        "Ġspecies",
        -7.96913289831142
      ],
      [
        "ion",
        -7.969681537341151
      ],
      [
        "D",
        -7.971185361865338
      ],
      [
        "Ġsaid",
        -7.973462885563736
      ],
      [
        "us",
        -7.976028436205281
      ],
      [
        "Ġstudy",
        -7.979410660184424
      ],
      [
        "Ġhome",
        -7.980756296515647
      ],
      [
        "Ġunder",
        -7.987388182783631
      ],
      [
        "le",
        -7.988039649057017
      ],
      [
        "Ġlead",
        -7.990194435179797
      ],
      [
        "ness",
        -7.9945310691537
      ],
      [
        "Ġresearch",
        -7.998278959647948
      ],
      [
        "b",
        -8.003325498808437
      ],
      [
        "Ġadd",
        -8.004365778707628
      ],
      [
        "Ġbetter",
        -8.004940704482964
      ],
      [
        "and",
        -8.005667384132877
      ],
      [
        "ĠThese",
        -8.00868430735142
      ],
      [
        "Ġnow",
        -8.009467856319574
      ],
      [
        "Ġmight",
        -8.010331792926292
      ],
      [
        "Ġfew",
        -8.011053465749395
      ],
      [
        "li",
        -8.015695460198707
      ],
      [
        "Ġsupport",
        -8.017560938169643
      ],
      [
        "This",
        -8.018795090560957
      ],
      [
        "Ġme",
        -8.019999246343385
      ],
      [
        "Ġgrow",
        -8.02776993393634
      ],
      [
        "Ġgreat",
        -8.033033512594908
      ],
      [
        "or",
        -8.035414381005282
      ],
      [
        "Ġoff",
        -8.03704217942936
      ],
      [
        "ĠTo",
        -8.041124661273892
      ],
      [
        "Ġstudents",
        -8.043261227730953
      ],
      [
        "ation",
        -8.043899695952724
      ],
      [
        "Ġstill",
        -8.04899796751909
      ],
      [
        "Ġown",
        -8.051075079394261
      ],
      [
        "Ġexample",
        -8.059445313216013
      ],
      [
        "Ġincluding",
        -8.065428505004672
      ],
      [
        "Ġdog",
        -8.06835166217065
      ],
      [
        "Ġcontrol",
        -8.068779239298939
      ],
      [
        "If",
        -8.07055764969791
      ],
      [
        "Ġplants",
        -8.075410205037597
      ],
      [
        "Ġthink",
        -8.079991006915455
      ],
      [
        "Ġtype",
        -8.090582644955576
      ],
      [
        "Ġmaking",
        -8.098161960660802
      ],
      [
        "...",
        -8.100394490081584
      ],
      [
        "It",
        -8.1026636196196
      ],
      [
        "Ġset",
        -8.102920540104405
      ],
      [
        "x",
        -8.10863161023698
      ],
      [
        "Ġchildren",
        -8.110160395197164
      ],
      [
        "Ġtoo",
        -8.112119027532586
      ],
      [
        "Ġair",
        -8.115814414151894
      ],
      [
        "Ġgroup",
        -8.1179248708024
      ],
      [
        "ic",
        -8.120061372496632
      ],
      [
        "Ġless",
        -8.123400231881842
      ],
      [
        "th",
        -8.12924125619653
      ],
      [
        "Ġgive",
        -8.129651170570604
      ],
      [
        "Ġmethod",
        -8.140182381701033
      ],
      [
        "ĠBut",
        -8.142901940440971
      ],
      [
        "Ġtest",
        -8.14291742875076
      ],
      [
        "Ġindividual",
        -8.144714961819062
      ],
      [
        "Ġknown",
        -8.14525346789653
      ],
      [
        "Ġhuman",
        -8.149291062619437
      ],
      [
        "Ġschool",
        -8.150134984210203
      ],
      [
        "Ġspecific",
        -8.154423699783676
      ],
      [
        "Ġsize",
        -8.156979847303973
      ],
      [
        "Ġend",
        -8.15705796157135
      ],
      [
        "est",
        -8.162520795750359
      ],
      [
        "Ġun",
        -8.171761918876225
      ],
      [
        "um",
        -8.173489836394063
      ],
      [
        "Ġprevent",
        -8.175634978512145
      ],
      [
        "k",
        -8.17575510021935
      ],
      [
        "ability",
        -8.178705485964063
      ],
      [
        "Ġpotential",
        -8.179149062247815
      ],
      [
        "Ġcurrent",
        -8.179543786963198
      ],
      [
        "Ġthree",
        -8.180507688366202
      ],
      [
        "Ġper",
        -8.1818285299446
      ],
      [
        "Ġoffer",
        -8.18271594386039
      ],
      [
        "Ġsure",
        -8.18736526841371
      ],
      [
        ":ĊĊ",
        -8.188039113752977
      ],
      [
        "Ġmust",
        -8.18908057099357
      ],
      [
        "Ġresult",
        -8.20342349810065
      ],
      [
        "Ġsurface",
        -8.205027030116007
      ],
      [
        "Ġensure",
        -8.207812393951446
      ],
      [
        "Ġmodel",
        -8.211603040618886
      ],
      [
        "u",
        -8.212778077113434
      ],
      [
        "Ġwhy",
        -8.21430817921308
      ],
      [
        "Ġsoil",
        -8.215498978731123
      ],
      [
        "Ġlearn",
        -8.22188070479407
      ],
      [
        "Ġnatural",
        -8.228372459005028
      ],
      [
        "Ġcome",
        -8.22927146771751
      ],
      [
        "Ġreduce",
        -8.231750490351567
      ],
      [
        "ĠWhen",
        -8.234784207470906
      ],
      [
        "Ġlow",
        -8.235519433565603
      ],
      [
        "Ġspace",
        -8.238228523096096
      ],
      [
        "Ġthings",
        -8.242241248538404
      ],
      [
        "âĢĻ",
        -8.243431410181586
      ],
      [
        "ĠAnd",
        -8.258587444792443
      ],
      [
        "Ġbecome",
        -8.259569558745191
      ],
      [
        "Ġplay",
        -8.26151767661316
      ],
      [
        "Ġwithin",
        -8.261774631753301
      ],
      [
        "Ġcalled",
        -8.263229468697773
      ],
      [
        "Ġcost",
        -8.268972906673461
      ],
      [
        "Ġvarious",
        -8.27050700658178
      ],
      [
        "Ġcar",
        -8.2705079481057
      ],
      [
        "Ġtry",
        -8.272157707146942
      ],
      [
        "ĠD",
        -8.274345160154304
      ],
      [
        "Ġdue",
        -8.274432674305277
      ],
      [
        "Ġpoint",
        -8.277730999876628
      ],
      [
        "Ġreally",
        -8.28127485178154
      ],
      [
        "Ġblood",
        -8.281349121497218
      ],
      [
        "Ġname",
        -8.286838266090996
      ],
      [
        "Ġlevel",
        -8.287705350041643
      ],
      [
        "Ġclose",
        -8.28949367944453
      ],
      [
        "Ġsource",
        -8.293176141366814
      ],
      [
        "Ġsomething",
        -8.294571239905142
      ],
      [
        "B",
        -8.297716107045307
      ],
      [
        "Ġamount",
        -8.29816570332334
      ],
      [
        "Ġenvironment",
        -8.30059335869157
      ],
      [
        "Ġfish",
        -8.300597746329714
      ],
      [
        "Ġfollowing",
        -8.304877217721792
      ],
      [
        "Ġcells",
        -8.30762200405038
      ],
      [
        "the",
        -8.309395599967331
      ],
      [
        "Ġrisk",
        -8.310677813860554
      ],
      [
        "Ġal",
        -8.313703335830699
      ],
      [
        "Ġbenefit",
        -8.314896772243491
      ],
      [
        "Ġshe",
        -8.316546532948042
      ],
      [
        "Ġanother",
        -8.318405513462576
      ],
      [
        "ĠThere",
        -8.32204784701495
      ],
      [
        "Ġhere",
        -8.325364558497789
      ],
      [
        "Ġimpact",
        -8.328412609326403
      ],
      [
        "Ġpossible",
        -8.330910884989187
      ],
      [
        "Ġcare",
        -8.331590167676708
      ],
      [
        "Ġweek",
        -8.331729321144298
      ],
      [
        "Ġdisease",
        -8.331837771879226
      ],
      [
        "Ġcolor",
        -8.33251152596685
      ],
      [
        "ĠT",
        -8.334222430796167
      ],
      [
        "Ġrange",
        -8.337127318442786
      ],
      [
        "Ġheat",
        -8.339719454294592
      ],
      [
        "ĠSo",
        -8.341664363287126
      ],
      [
        "Ġlittle",
        -8.343199213521693
      ],
      [
        "Ġactual",
        -8.344381458443163
      ],
      [
        "Ġmeans",
        -8.347621808863352
      ],
      [
        "Ġrequire",
        -8.35023796083819
      ],
      [
        "ally",
        -8.353409914521826
      ],
      [
        "Ġlearning",
        -8.354122625738317
      ],
      [
        "Ġlot",
        -8.360303996733219
      ],
      [
        "Ġsignificant",
        -8.362934196084751
      ],
      [
        "Ġalways",
        -8.365747754447156
      ],
      [
        "Ġlast",
        -8.365752551353605
      ],
      [
        "Ġdid",
        -8.36607127459465
      ],
      [
        "Ġfield",
        -8.382098742704022
      ],
      [
        "Ġdevelopment",
        -8.385387955559352
      ],
      [
        "Ġstate",
        -8.386768539541624
      ],
      [
        "Ġusually",
        -8.393583642702938
      ],
      [
        "Ġhard",
        -8.395006779099436
      ],
      [
        "Ġtreatment",
        -8.399404295123272
      ],
      [
        "Ġproblem",
        -8.40065906474258
      ],
      [
        "Ġorder",
        -8.401034637599967
      ],
      [
        "ĠWhich",
        -8.40182486242378
      ],
      [
        "Ġdevice",
        -8.405504979300606
      ],
      [
        "Ġcontain",
        -8.406780180290893
      ],
      [
        "Ġopen",
        -8.409204807813182
      ],
      [
        "ĠP",
        -8.409902050143494
      ],
      [
        "Ġtemperature",
        -8.411155675576847
      ],
      [
        "Ġlive",
        -8.418064818047721
      ],
      [
        "Ġavailable",
        -8.41952711050559
      ],
      [
        "Ġleave",
        -8.420979470641512
      ],
      [
        "Ġpressure",
        -8.42281605829686
      ],
      [
        "Ġunderstand",
        -8.426411914196423
      ],
      [
        "Ġquality",
        -8.426528040129096
      ],
      [
        "Ġoption",
        -8.42664525534145
      ],
      [
        "Ġgeneral",
        -8.427455595701854
      ],
      [
        "Ġbased",
        -8.428963134599172
      ],
      [
        "an",
        -8.429208043312556
      ],
      [
        "Ġperson",
        -8.430384057780643
      ],
      [
        "Ġimprove",
        -8.437031783685072
      ],
      [
        "Ġessential",
        -8.438631298907875
      ],
      [
        "Ġ=",
        -8.441065167727903
      ],
      [
        "Ġneeds",
        -8.442678443216769
      ],
      [
        "Ġtext",
        -8.442868057963182
      ],
      [
        "Ġseveral",
        -8.443334468043888
      ],
      [
        ",\"",
        -8.445022704699081
      ],
      [
        "less",
        -8.44530195955874
      ],
      [
        "v",
        -8.44625549966479
      ],
      [
        "Ġmaterials",
        -8.44857408906244
      ],
      [
        "Ġenough",
        -8.461410628339262
      ],
      [
        "Ġturn",
        -8.46553295498403
      ],
      [
        "Ġeffective",
        -8.468814183007312
      ],
      [
        "Ġpresent",
        -8.46975621987323
      ],
      [
        "Ġfeel",
        -8.470853942955635
      ],
      [
        "Ġlevels",
        -8.47122111273342
      ],
      [
        "Ġdiet",
        -8.473699308098261
      ],
      [
        "Ġaffect",
        -8.475982309855905
      ],
      [
        "ĠM",
        -8.480638221364998
      ],
      [
        "Ġside",
        -8.482709342607325
      ],
      [
        "ĠAs",
        -8.483683595825239
      ],
      [
        "Ġcertain",
        -8.48501892534272
      ],
      [
        "Ġteam",
        -8.485019411504913
      ],
      [
        "technology",
        -8.485176059686575
      ],
      [
        "Ġcourse",
        -8.488508579392164
      ],
      [
        "Ġconsider",
        -8.488562439662363
      ],
      [
        "T",
        -8.490219811028897
      ],
      [
        "ry",
        -8.491148777105764
      ],
      [
        "it",
        -8.491757358301548
      ],
      [
        "Ġconditions",
        -8.492538523685907
      ],
      [
        "Ġuntil",
        -8.493101245348925
      ],
      [
        "Ġmaterial",
        -8.496044092289019
      ],
      [
        "Ġtypes",
        -8.497182752871911
      ],
      [
        "Ġcreat",
        -8.500386772656732
      ],
      [
        "When",
        -8.50133782532033
      ],
      [
        "Ġput",
        -8.501618271751887
      ],
      [
        "Ġpatient",
        -8.50782475903253
      ],
      [
        "Ġaway",
        -8.512555914998064
      ],
      [
        "ĠWith",
        -8.513003962471196
      ],
      [
        "ĠE",
        -8.514586806494627
      ],
      [
        "Ġlocal",
        -8.515090457548665
      ],
      [
        "Ġfunction",
        -8.516481630246506
      ],
      [
        "Ġanimals",
        -8.517140023901122
      ],
      [
        "Ġ$",
        -8.518418988108042
      ],
      [
        "Ġgrowth",
        -8.51887866718716
      ],
      [
        "Ġrate",
        -8.519477706640792
      ],
      [
        "Ġrole",
        -8.521652896347382
      ],
      [
        "Ġweight",
        -8.521699052524824
      ],
      [
        "Ġsystems",
        -8.52202374873331
      ],
      [
        "Ġfocus",
        -8.527411680384294
      ],
      [
        "Ġfamily",
        -8.52943311714155
      ],
      [
        "one",
        -8.530896856685446
      ],
      [
        "Ġwide",
        -8.533338323507323
      ],
      [
        "Ġkey",
        -8.533602031802616
      ],
      [
        "Ġtop",
        -8.536017053851399
      ],
      [
        "Ġsolution",
        -8.537393028453137
      ],
      [
        "Ġcheck",
        -8.538489867001854
      ],
      [
        "Ġvalue",
        -8.541961593227915
      ],
      [
        "You",
        -8.542384451120048
      ],
      [
        "Ġgarden",
        -8.545246441079264
      ],
      [
        "Ġtogether",
        -8.54621854598599
      ],
      [
        "ĠHe",
        -8.550191744568053
      ],
      [
        "Ġproject",
        -8.551356239427115
      ],
      [
        "Ġoil",
        -8.5576472482805
      ],
      [
        "Ġprogram",
        -8.557912356877505
      ],
      [
        "ĠUniversity",
        -8.559263980534789
      ],
      [
        "Ġhand",
        -8.560153690455849
      ],
      [
        "Ġcomplete",
        -8.56018621470296
      ],
      [
        "Ġsince",
        -8.562292370145716
      ],
      [
        "Ġnon",
        -8.56360682814656
      ],
      [
        "early",
        -8.564175943702729
      ],
      [
        "w",
        -8.564218825145627
      ],
      [
        "Ġproblems",
        -8.564494762638521
      ],
      [
        "ers",
        -8.566481451147991
      ],
      [
        "We",
        -8.571690391798958
      ],
      [
        "Ġcase",
        -8.574256333895306
      ],
      [
        "Ġfree",
        -8.576909082998451
      ],
      [
        "ĠThat",
        -8.583701495521597
      ],
      [
        "Ġstructure",
        -8.58379736025346
      ],
      [
        "Ġ&",
        -8.58397878352003
      ],
      [
        "Ġlower",
        -8.585227156475181
      ],
      [
        "!Ċ",
        -8.586885111424483
      ],
      [
        "ĠBy",
        -8.587410739511284
      ],
      [
        "Ġresults",
        -8.594295367059022
      ],
      [
        "Ġhigher",
        -8.595135805527669
      ],
      [
        "Ġworking",
        -8.595250129468763
      ],
      [
        "Ġshort",
        -8.603308045529579
      ],
      [
        "Ġchild",
        -8.603468851137167
      ],
      [
        "Ġrun",
        -8.603843808704617
      ],
      [
        "Ġeye",
        -8.604843092585881
      ],
      [
        "Ġprotect",
        -8.60677492035326
      ],
      [
        "Ġage",
        -8.607221143150994
      ],
      [
        "Ġhealthy",
        -8.61186245653536
      ],
      [
        "having",
        -8.61421592269183
      ],
      [
        "Ġdays",
        -8.61705363902799
      ],
      [
        "Ġvariet",
        -8.61738283545763
      ],
      [
        "Ġnext",
        -8.617397018392357
      ],
      [
        "Ġmakes",
        -8.618634703324874
      ],
      [
        "Ġphysical",
        -8.618846323999392
      ],
      [
        "Ġpopulation",
        -8.622020272250678
      ],
      [
        "Ġobject",
        -8.622252443680587
      ],
      [
        "Ġfull",
        -8.624280116157621
      ],
      [
        "Ġdepend",
        -8.628894375791106
      ],
      [
        "Ġdamage",
        -8.629308183246879
      ],
      [
        "Ġcomes",
        -8.633749567345081
      ],
      [
        "ment",
        -8.635390967781706
      ],
      [
        "F",
        -8.635406065254564
      ],
      [
        "Ġsimple",
        -8.636678950327628
      ],
      [
        "Ġseem",
        -8.63795444666227
      ],
      [
        "Ġunique",
        -8.640380011498614
      ],
      [
        "Ġreal",
        -8.641392304210372
      ],
      [
        "Ġproducts",
        -8.641792853241677
      ],
      [
        "Ġline",
        -8.643746995687572
      ],
      [
        "Ġagain",
        -8.643799393825638
      ],
      [
        "Ġdoesn",
        -8.644941934613996
      ],
      [
        "Ġfuture",
        -8.645229687478936
      ],
      [
        ">",
        -8.64562417401494
      ],
      [
        "Ġold",
        -8.647120561296559
      ],
      [
        "Ġeasy",
        -8.648104052741603
      ],
      [
        "Ġlikely",
        -8.650915150557495
      ],
      [
        "Ġsecond",
        -8.651076706264277
      ],
      [
        "ary",
        -8.65274351099886
      ],
      [
        "Ġresource",
        -8.653127491666615
      ],
      [
        "ĠF",
        -8.653163599393334
      ],
      [
        "Ġproduct",
        -8.653824166632372
      ],
      [
        "Ġalong",
        -8.654216326439073
      ],
      [
        "Ġremain",
        -8.657423102283268
      ],
      [
        "Ġclear",
        -8.657817813094795
      ],
      [
        "Ġlet",
        -8.65789986986606
      ],
      [
        "Ġfollow",
        -8.658640627067303
      ],
      [
        "Ġleast",
        -8.659477149195201
      ],
      [
        "Ġproduce",
        -8.659700326528608
      ],
      [
        "Ġtypical",
        -8.66168880520228
      ],
      [
        "Ġacross",
        -8.663160364501056
      ],
      [
        "Ġkind",
        -8.663995802306488
      ],
      [
        "Ġmarket",
        -8.666352117308715
      ],
      [
        "Ġnecessar",
        -8.667312646519548
      ],
      [
        "Ġsimilar",
        -8.674074139060458
      ],
      [
        "Ġthing",
        -8.674862252228479
      ],
      [
        "Ġbuilding",
        -8.674914039804598
      ],
      [
        "Ġespecial",
        -8.675993612755857
      ],
      [
        "to",
        -8.67850303295933
      ],
      [
        "There",
        -8.68756160572634
      ],
      [
        "Ġsocial",
        -8.688330774899867
      ],
      [
        "Ġnever",
        -8.689747053150738
      ],
      [
        "Ġlove",
        -8.691913591072627
      ],
      [
        "ĠW",
        -8.692040624680477
      ],
      [
        "Ġtimes",
        -8.692084249751904
      ],
      [
        "Ġissues",
        -8.697088694328485
      ],
      [
        "Ġimage",
        -8.700830711543666
      ],
      [
        "ĠNew",
        -8.702090869719715
      ],
      [
        "Ġabove",
        -8.70252799594227
      ],
      [
        "Ġpaper",
        -8.703452626961704
      ],
      [
        "Ġground",
        -8.70413253585566
      ],
      [
        "Ġcontinue",
        -8.704857495466399
      ],
      [
        "Ġdifficult",
        -8.70921986283845
      ],
      [
        "Ġproduction",
        -8.710030574137502
      ],
      [
        "To",
        -8.710293351821713
      ],
      [
        "Ġbit",
        -8.710976563087492
      ],
      [
        "Ġanimal",
        -8.711184107152555
      ],
      [
        "Ġclimate",
        -8.711424351766203
      ],
      [
        "Ġgiven",
        -8.711687491418061
      ],
      [
        "Ġvideo",
        -8.71248691021177
      ],
      [
        "Ġstep",
        -8.713108752146816
      ],
      [
        "Ġdogs",
        -8.71324793412213
      ],
      [
        "Ġcell",
        -8.717802868459515
      ],
      [
        "Ġperiod",
        -8.718144314327745
      ],
      [
        "*",
        -8.719133707551224
      ],
      [
        "Ġheart",
        -8.720521474450608
      ],
      [
        "Ġfactors",
        -8.721105670614676
      ],
      [
        "P",
        -8.721225461434564
      ],
      [
        "Ġsafe",
        -8.72670944092742
      ],
      [
        "Ġwhite",
        -8.727456835991681
      ],
      [
        "Ġrecommend",
        -8.728821916410777
      ],
      [
        "Ġdry",
        -8.734964672253021
      ],
      [
        "Ġeffects",
        -8.735211700258233
      ],
      [
        "Ġdifference",
        -8.738138061848698
      ],
      [
        "Ġmillion",
        -8.739115393756368
      ],
      [
        "Ġdone",
        -8.739209601781791
      ],
      [
        "Ġnormal",
        -8.74230284391103
      ],
      [
        "Ġde",
        -8.745384782976936
      ],
      [
        "Ġarticle",
        -8.745983782773502
      ],
      [
        "Ġroom",
        -8.750275676873635
      ],
      [
        "Ġaccording",
        -8.750993334567333
      ],
      [
        "ĠYour",
        -8.751949374202347
      ],
      [
        "ĠU",
        -8.754954443490455
      ],
      [
        "Ġyoung",
        -8.757363137281706
      ],
      [
        "For",
        -8.757569610033748
      ],
      [
        "Ġeat",
        -8.757685837885777
      ],
      [
        "Ġnear",
        -8.758562750509224
      ],
      [
        "Ġ[",
        -8.758669939605092
      ],
      [
        "Ġhead",
        -8.759211120541561
      ],
      [
        "Ġhim",
        -8.76224004222707
      ],
      [
        "Ġspeed",
        -8.763414358225813
      ],
      [
        "Ġcat",
        -8.76366386046341
      ],
      [
        "Ġfact",
        -8.76499128242224
      ],
      [
        "most",
        -8.765462256755438
      ],
      [
        "Ġclean",
        -8.765872115628994
      ],
      [
        "ous",
        -8.76619805583816
      ],
      [
        "thing",
        -8.766385328493318
      ],
      [
        "Ġblack",
        -8.768834630883251
      ],
      [
        "Ġquestion",
        -8.769143514713708
      ],
      [
        "Ġinterest",
        -8.769354386494527
      ],
      [
        "Ġscience",
        -8.770612879460234
      ],
      [
        "Ġstrong",
        -8.772467794923456
      ],
      [
        "Ġtraining",
        -8.773391891163474
      ],
      [
        "Ġavoid",
        -8.77450451547379
      ],
      [
        "z",
        -8.77460986601704
      ],
      [
        "Ġmachine",
        -8.77545892805771
      ],
      [
        "Ġbring",
        -8.776290746695373
      ],
      [
        "Ġaddition",
        -8.778952559903992
      ],
      [
        "Ġbook",
        -8.779573411640857
      ],
      [
        "Ġsingle",
        -8.779813611618172
      ],
      [
        "Ġwarm",
        -8.781554523286882
      ],
      [
        "Ġcancer",
        -8.782065610766043
      ],
      [
        "Ġamong",
        -8.782186621460506
      ],
      [
        "Ġmean",
        -8.783938435478332
      ],
      [
        "Ġlist",
        -8.784992236195524
      ],
      [
        "Ġeither",
        -8.785088681877532
      ],
      [
        "ĠSome",
        -8.785109095314112
      ],
      [
        "Ġread",
        -8.79042826887126
      ],
      [
        "Ġfar",
        -8.791363070297642
      ],
      [
        "Ġskin",
        -8.792303715233393
      ],
      [
        "Ġstore",
        -8.794277982897132
      ],
      [
        "Ġremove",
        -8.795356517049134
      ],
      [
        "Ġtoday",
        -8.796258049009495
      ],
      [
        "ĠNo",
        -8.797568367991797
      ],
      [
        "Ġperformance",
        -8.797883166909738
      ],
      [
        "Ġexist",
        -8.79854796479125
      ],
      [
        ")Ċ",
        -8.79878995739754
      ],
      [
        "Ġnature",
        -8.801782738160089
      ],
      [
        "not",
        -8.803306471380896
      ],
      [
        "_",
        -8.805881157700265
      ],
      [
        "Ġask",
        -8.808787007518195
      ],
      [
        "ĠR",
        -8.810605063982106
      ],
      [
        "Ġparent",
        -8.81064230953405
      ],
      [
        "Ġlooking",
        -8.812004760024305
      ],
      [
        "Ġflower",
        -8.812057088861884
      ],
      [
        "Ġenjoy",
        -8.81243325494728
      ],
      [
        "Ġunderstanding",
        -8.812687394693533
      ],
      [
        "Ġrecent",
        -8.813526500643666
      ],
      [
        "Ġloss",
        -8.82011084891727
      ],
      [
        "ĠH",
        -8.82024947074748
      ],
      [
        "Ġcontent",
        -8.821307765572852
      ],
      [
        "Ġdevelop",
        -8.821428249400107
      ],
      [
        "Ġmatter",
        -8.822386016330775
      ],
      [
        "Ġpublic",
        -8.822852211254283
      ],
      [
        "Ġfour",
        -8.825983157942701
      ],
      [
        "Ġcomputer",
        -8.826686944409701
      ],
      [
        "ive",
        -8.827296921423452
      ],
      [
        "Ġbelieve",
        -8.828680168571793
      ],
      [
        "Ġgas",
        -8.82979560854581
      ],
      [
        "M",
        -8.832082638837159
      ],
      [
        "Ġactivity",
        -8.832124061247281
      ],
      [
        "Ġthought",
        -8.834512013436168
      ],
      [
        "Ġcondition",
        -8.835212646451431
      ],
      [
        "Ġbasic",
        -8.836161141677884
      ],
      [
        "Ġreason",
        -8.837254006517895
      ],
      [
        "Ġleft",
        -8.840301562040374
      ],
      [
        "Ġfurther",
        -8.840737708451176
      ],
      [
        "Ġaccess",
        -8.841710557577283
      ],
      [
        "Ġlayer",
        -8.842741846495215
      ],
      [
        "Ġskills",
        -8.844113763690121
      ],
      [
        "Ġaction",
        -8.844412210580316
      ],
      [
        "Ġbalance",
        -8.844722755316898
      ],
      [
        "Ġonce",
        -8.846179763257762
      ],
      [
        "Ġeffect",
        -8.846911723291306
      ],
      [
        "âĢĶ",
        -8.84727470364544
      ],
      [
        "Ġinside",
        -8.848793265740744
      ],
      [
        "Ġmove",
        -8.85032182219578
      ],
      [
        "Ġtalk",
        -8.850368729433338
      ],
      [
        "Ġcool",
        -8.851727262716857
      ],
      [
        "Ġstudie",
        -8.852469529403393
      ],
      [
        "by",
        -8.852791044047201
      ],
      [
        "Ġbehavior",
        -8.855010472921867
      ],
      [
        "Ġassociate",
        -8.85740647108727
      ],
      [
        "Ġfall",
        -8.858290346705394
      ],
      [
        "ĠâĢĶ",
        -8.860435176644888
      ],
      [
        "Ġapproach",
        -8.861376387712799
      ],
      [
        "Ġappear",
        -8.863295486633795
      ],
      [
        "Ġways",
        -8.863519937439154
      ],
      [
        "Ġstress",
        -8.864557010285402
      ],
      [
        "Ġchallenge",
        -8.86466390260225
      ],
      [
        "Ġbig",
        -8.865095505885625
      ],
      [
        "Ġlanguage",
        -8.867518257363116
      ],
      [
        "Ġwomen",
        -8.86824152160135
      ],
      [
        "Ġpost",
        -8.87205519108929
      ],
      [
        "Ġgetting",
        -8.872170594672646
      ],
      [
        "E",
        -8.872954858503372
      ],
      [
        "Ġgame",
        -8.878122982392522
      ],
      [
        "Ġwhether",
        -8.879689637879174
      ],
      [
        "Ġmention",
        -8.88466192323251
      ],
      [
        "Ġparts",
        -8.884881860425983
      ],
      [
        "Ġam",
        -8.88846964140765
      ],
      [
        "Ġindustry",
        -8.889962052839907
      ],
      [
        "Ġcommunity",
        -8.890564413301778
      ],
      [
        "Ġsymptoms",
        -8.892432594659624
      ],
      [
        "already",
        -8.89248813581769
      ],
      [
        "Ġreceive",
        -8.89277133108802
      ],
      [
        "Ġservice",
        -8.894172724301454
      ],
      [
        "Ġenvironmental",
        -8.896497310992102
      ],
      [
        "Ġhouse",
        -8.898366065831123
      ],
      [
        "taking",
        -8.898995964233588
      ],
      [
        "Ġfruit",
        -8.900064344250854
      ],
      [
        "Ġperform",
        -8.900524161133603
      ],
      [
        "Ġtoward",
        -8.900561966054742
      ],
      [
        "]",
        -8.901085067898713
      ],
      [
        "Ġforce",
        -8.901161192747164
      ],
      [
        "Ġfeatures",
        -8.902338589981426
      ],
      [
        "Ġmajor",
        -8.903207241389314
      ],
      [
        "Ġactivities",
        -8.908672574046243
      ],
      [
        "Ġbusiness",
        -8.908807992015994
      ],
      [
        "Ġpain",
        -8.909301282501751
      ],
      [
        "Ġrequired",
        -8.912023607079709
      ],
      [
        "So",
        -8.912225300839395
      ],
      [
        "Ġknowledge",
        -8.913682238648626
      ],
      [
        "Ġsugar",
        -8.913828881696693
      ],
      [
        ")ĊĊ",
        -8.914343624373988
      ],
      [
        "Ġmoney",
        -8.916497348502276
      ],
      [
        "Ġbrain",
        -8.918846808691878
      ],
      [
        "Ġidea",
        -8.920023111276407
      ],
      [
        "Ġhours",
        -8.92143131453988
      ],
      [
        "Ġliving",
        -8.921921736525576
      ],
      [
        "age",
        -8.922295538736504
      ],
      [
        "Ġcontact",
        -8.922759324191333
      ],
      [
        "Ġcall",
        -8.924141797980042
      ],
      [
        "Ġcold",
        -8.924408042154578
      ],
      [
        "Ġwild",
        -8.925232683126548
      ],
      [
        "âĢĵ",
        -8.92601261920505
      ],
      [
        "afety",
        -8.92682659508957
      ],
      [
        "Ġanswer",
        -8.929469706683584
      ],
      [
        "Ġelectric",
        -8.930653472006416
      ],
      [
        "Ġsun",
        -8.93599172028696
      ],
      [
        "ĠG",
        -8.936103821656834
      ],
      [
        "Ġred",
        -8.937346259015275
      ],
      [
        "Ġpet",
        -8.938689223133586
      ],
      [
        "Ġbelow",
        -8.940705732773942
      ],
      [
        "Ġgreen",
        -8.94110570192256
      ],
      [
        "Ġpersonal",
        -8.941157693070828
      ],
      [
        "Ġcarbon",
        -8.942327580240168
      ],
      [
        "Ġuser",
        -8.944346643108759
      ],
      [
        "Ġtreat",
        -8.945336673944443
      ],
      [
        "ĠL",
        -8.947697573233372
      ],
      [
        "Ġtools",
        -8.947794243284585
      ],
      [
        "ĠOne",
        -8.948002323475368
      ],
      [
        "Ġtree",
        -8.948051817223053
      ],
      [
        "Ġwhole",
        -8.948843168781536
      ],
      [
        "Ġflow",
        -8.94909680403352
      ],
      [
        "Ġbuild",
        -8.950047729228904
      ],
      [
        "Ġhistor",
        -8.950287651420844
      ],
      [
        "Ġpopular",
        -8.950620317663855
      ],
      [
        "Ġadult",
        -8.95079789912042
      ],
      [
        "Ġsense",
        -8.951847117814612
      ],
      [
        "Ġreport",
        -8.952857696573286
      ],
      [
        "Ġclass",
        -8.952942934541149
      ],
      [
        "ful",
        -8.953838717765695
      ],
      [
        "Ġself",
        -8.958291591471692
      ],
      [
        "Ġthough",
        -8.958934170227941
      ],
      [
        "Ġstay",
        -8.960329491525751
      ],
      [
        "ember",
        -8.960474691385352
      ],
      [
        "Ġoverall",
        -8.962236900305964
      ],
      [
        "Ġitem",
        -8.96256038268189
      ],
      [
        "Ġposition",
        -8.963081246985617
      ],
      [
        "Ġperfect",
        -8.96414802085602
      ],
      [
        "Ġcover",
        -8.964992552954694
      ],
      [
        "Ġcompany",
        -8.966596427158487
      ],
      [
        "Ġmedical",
        -8.967034903514246
      ],
      [
        "Ġengine",
        -8.968552518809656
      ],
      [
        "Ġresearchers",
        -8.968621852618568
      ],
      [
        "H",
        -8.968711540896503
      ],
      [
        "Ġothers",
        -8.968777893760405
      ],
      [
        "Ġface",
        -8.96925356436236
      ],
      [
        "Ġmeasure",
        -8.970481856522968
      ],
      [
        "Ġpositive",
        -8.97116552115592
      ],
      [
        "Ġentire",
        -8.971264119840377
      ],
      [
        "Ġfuel",
        -8.971681682928715
      ],
      [
        "Ġtell",
        -8.972628157610526
      ],
      [
        "Ġsignal",
        -8.973850638181865
      ],
      [
        "ĠAmerican",
        -8.973935523670761
      ],
      [
        "Ġaverage",
        -8.974099211108587
      ],
      [
        "Ġpast",
        -8.97436146532309
      ],
      [
        "Ġlonger",
        -8.974591472782043
      ],
      [
        "ĠUnit",
        -8.975337437507562
      ],
      [
        "Ġcomplex",
        -8.976664254025309
      ],
      [
        "online",
        -8.976994782941398
      ],
      [
        "Ġprofessional",
        -8.97723467792748
      ],
      [
        "Ġpractice",
        -8.97814188431857
      ],
      [
        "Ġmind",
        -8.979560639676702
      ],
      [
        "Ġcrucial",
        -8.980291926024305
      ],
      [
        "Ġeasily",
        -8.980989770862688
      ],
      [
        "Ġmetal",
        -8.981061734000921
      ],
      [
        "Ġshape",
        -8.981095636976036
      ],
      [
        "Ġselect",
        -8.982140850545079
      ],
      [
        "Ġmonths",
        -8.98214167907495
      ],
      [
        "Ġissue",
        -8.982516543096416
      ],
      [
        "Ġwalk",
        -8.984353816665969
      ],
      [
        "Ġopportunit",
        -8.984890774543628
      ],
      [
        "gainst",
        -8.985215075818344
      ],
      [
        "Ġscientist",
        -8.985267305550547
      ],
      [
        "Ġbirds",
        -8.985652687467677
      ],
      [
        "Ġmanagement",
        -8.987147565172155
      ],
      [
        "ĠDo",
        -8.992989718946252
      ],
      [
        "Ġdoing",
        -8.99421555358596
      ],
      [
        "Ġsound",
        -8.99649556725089
      ],
      [
        "Ġbegin",
        -8.996938258247184
      ],
      [
        "Ġresponse",
        -8.996988504141338
      ],
      [
        "Ġchoose",
        -8.997137280566152
      ],
      [
        ".\"ĊĊ",
        -8.99824753918889
      ],
      [
        "As",
        -8.999654503544733
      ],
      [
        "Ġseason",
        -8.99977162716461
      ],
      [
        "land",
        -9.000515648705125
      ],
      [
        "ather",
        -9.002012193489467
      ],
      [
        "ĠAI",
        -9.002261228953865
      ],
      [
        "Ġtraditional",
        -9.002861524511756
      ],
      [
        "N",
        -9.006983837037403
      ],
      [
        "Ġplan",
        -9.007016972945081
      ],
      [
        "Ġrelative",
        -9.008158265790952
      ],
      [
        "Ġhappen",
        -9.010274995220218
      ],
      [
        "Ġglobal",
        -9.01350671958695
      ],
      [
        "Ġprint",
        -9.01466274999374
      ],
      [
        "Ġreach",
        -9.016752850775909
      ],
      [
        ".\"Ċ",
        -9.018482775893307
      ],
      [
        "V",
        -9.019399904269628
      ],
      [
        "Ġquestions",
        -9.020724142212128
      ],
      [
        "Ġsuggest",
        -9.021061977254742
      ],
      [
        "Ġdeep",
        -9.024441299342984
      ],
      [
        "Ġetc",
        -9.026752324167369
      ],
      [
        "Ġquickly",
        -9.026874085170745
      ],
      [
        "Ġstop",
        -9.027503888182933
      ],
      [
        "Ġwall",
        -9.029664943529353
      ],
      [
        "Ġaddress",
        -9.030708092993375
      ],
      [
        "Ġthroughout",
        -9.031164570187094
      ],
      [
        "Ġsea",
        -9.031321181138503
      ],
      [
        "Ġinvolve",
        -9.031565534139776
      ],
      [
        "Ġmaintain",
        -9.034815139562474
      ],
      [
        "Ġwinter",
        -9.037665882817116
      ],
      [
        "Ġmovement",
        -9.037704210752215
      ],
      [
        "Ġminutes",
        -9.03897688973646
      ],
      [
        "Ġtechniques",
        -9.039905735153244
      ],
      [
        "Ġdetermine",
        -9.040681981157183
      ],
      [
        "Ġinfection",
        -9.04075675510722
      ],
      [
        "Ġwear",
        -9.041335722896878
      ],
      [
        "Ġspecial",
        -9.043211808247266
      ],
      [
        "Ġcut",
        -9.044046755863365
      ],
      [
        "Ġprotein",
        -9.045275400112214
      ],
      [
        "ĠWhil",
        -9.046204160188148
      ],
      [
        "Ġconsidered",
        -9.04651510854247
      ],
      [
        "|",
        -9.048820447902507
      ],
      [
        "Ġbreak",
        -9.049483430616323
      ],
      [
        "Ġrelationship",
        -9.051734525829382
      ],
      [
        "Ġcases",
        -9.053981891268805
      ],
      [
        "Ġhelps",
        -9.05456922712348
      ],
      [
        "Ġacid",
        -9.054739156637886
      ],
      [
        "Ġyourself",
        -9.055718247318216
      ],
      [
        "Ġcamera",
        -9.057122580191876
      ],
      [
        "Ġdescribe",
        -9.059003108248636
      ],
      [
        "Ġreturn",
        -9.05979203511625
      ],
      [
        "Ġshare",
        -9.060523403807652
      ],
      [
        "Ġwaste",
        -9.060684305938691
      ],
      [
        "Ġsetting",
        -9.061056028746185
      ],
      [
        "+",
        -9.062110715039186
      ],
      [
        "-base",
        -9.06243310994832
      ],
      [
        "Ġprimary",
        -9.06283489547669
      ],
      [
        "Ġauthor",
        -9.066969360588343
      ],
      [
        "Ġactive",
        -9.067306260527907
      ],
      [
        "Ġprobabl",
        -9.067589089230475
      ],
      [
        "Ġchemical",
        -9.06825053977663
      ],
      [
        "seen",
        -9.068603066098486
      ],
      [
        "Ġeyes",
        -9.068834175583047
      ],
      [
        "Ġglass",
        -9.070713518374784
      ],
      [
        "Ġhot",
        -9.07705800831854
      ],
      [
        "Ġvisit",
        -9.077665424011627
      ],
      [
        "W",
        -9.07897130609618
      ],
      [
        "Ġstrateg",
        -9.07906559979449
      ],
      [
        "Ġrelease",
        -9.079500403229629
      ],
      [
        "Ġidentify",
        -9.079573709649528
      ],
      [
        "Ġmonitor",
        -9.079945341045114
      ],
      [
        "Ġattention",
        -9.080104624391822
      ],
      [
        "Ġprovid",
        -9.082439816654368
      ],
      [
        "Ġrelated",
        -9.0826166495825
      ],
      [
        "Ġtrees",
        -9.082825879968969
      ],
      [
        "Ġsoftware",
        -9.084294832246275
      ],
      [
        "Ġsite",
        -9.084849174365385
      ],
      [
        "Ġoutside",
        -9.084868580170973
      ],
      [
        "Ġdecision",
        -9.085658336799472
      ],
      [
        "Ġnetwork",
        -9.085890112659175
      ],
      [
        "K",
        -9.08635413766782
      ],
      [
        "Ġequipment",
        -9.089648385207028
      ],
      [
        "Ġgot",
        -9.090680897056624
      ],
      [
        "ar",
        -9.091424273829569
      ],
      [
        "G",
        -9.09219715286066
      ],
      [
        "Ġregard",
        -9.09298354583947
      ],
      [
        "ĠN",
        -9.093365576204697
      ],
      [
        "Ġland",
        -9.094603133849882
      ],
      [
        "Ġmultiple",
        -9.094956387407732
      ],
      [
        "Ġmodern",
        -9.096223615534628
      ],
      [
        "Ġview",
        -9.096578356202668
      ],
      [
        "Ġachieve",
        -9.09768284350912
      ],
      [
        "Ġcountry",
        -9.09903410939943
      ],
      [
        "Ġwebsite",
        -9.10053257948024
      ],
      [
        "ĠAt",
        -9.1033056705757
      ],
      [
        "ĠAn",
        -9.103720353126608
      ],
      [
        "Ġlength",
        -9.1048668990397
      ],
      [
        "Ġlimit",
        -9.105499779236222
      ],
      [
        "R",
        -9.110423395486407
      ],
      [
        "Ġfeet",
        -9.110882842854188
      ],
      [
        "Ġtotal",
        -9.113897439012138
      ],
      [
        "Ġtool",
        -9.114768586384752
      ],
      [
        "Ġbad",
        -9.11663444173206
      ],
      [
        ").Ċ",
        -9.11859778410113
      ],
      [
        "Ġchoice",
        -9.119935261943798
      ],
      [
        "Ġeducation",
        -9.120247239513684
      ],
      [
        "Ġexplain",
        -9.12064448768483
      ],
      [
        "Ġtravel",
        -9.121541168580208
      ],
      [
        "Ġelements",
        -9.12269035777282
      ],
      [
        "Ġweather",
        -9.123359965906348
      ],
      [
        "simply",
        -9.124897910539886
      ],
      [
        "Ġrepresent",
        -9.125496040705826
      ],
      [
        "Ġhalf",
        -9.125646961477797
      ],
      [
        "Ġthemselves",
        -9.12764117945433
      ],
      [
        "Ġextreme",
        -9.127844557697273
      ],
      [
        "ĠNational",
        -9.128636364662396
      ],
      [
        "Ġpercent",
        -9.129697116090234
      ],
      [
        "ish",
        -9.131522030716663
      ],
      [
        "Ġdeveloped",
        -9.132589946983332
      ],
      [
        "Ġact",
        -9.134129564728346
      ],
      [
        "Ġregular",
        -9.134790777773038
      ],
      [
        "Ġdaily",
        -9.135278088075506
      ],
      [
        "Ġnight",
        -9.135294790564334
      ],
      [
        "Ġexplore",
        -9.13545391200812
      ],
      [
        "Ġrecord",
        -9.137578238202774
      ],
      [
        "Ġever",
        -9.138676707670848
      ],
      [
        "ĠK",
        -9.13979561743879
      ],
      [
        "Ġparticular",
        -9.140546252871465
      ],
      [
        "Why",
        -9.140956769622017
      ],
      [
        "Ġincreasing",
        -9.141140585500924
      ],
      [
        "Ġanything",
        -9.14217759772501
      ],
      [
        "Ġfive",
        -9.145301488241913
      ],
      [
        "Ġinput",
        -9.146218568621329
      ],
      [
        "Ġsummer",
        -9.147663894698718
      ],
      [
        "Ġsometime",
        -9.148005401952451
      ],
      [
        "Ġwords",
        -9.148007829923015
      ],
      [
        "Ġdigital",
        -9.149137061482769
      ],
      [
        "Ġcode",
        -9.151388779939827
      ],
      [
        "ok",
        -9.151806093750114
      ],
      [
        "Ġfarm",
        -9.152351695625123
      ],
      [
        "Ġorganic",
        -9.152555608791154
      ],
      [
        "Ġplastic",
        -9.152884569050338
      ],
      [
        "quite",
        -9.156342236682637
      ],
      [
        "Ġinstead",
        -9.157301570057214
      ],
      [
        "Ġlater",
        -9.15761531463964
      ],
      [
        "Ġmix",
        -9.159096941088473
      ],
      [
        "Ġyet",
        -9.162072319658812
      ],
      [
        "ĠOn",
        -9.163716987181672
      ],
      [
        "Ġadditional",
        -9.164048741627209
      ],
      [
        "Ġgain",
        -9.164569971729463
      ],
      [
        "Ġhumans",
        -9.164692944500027
      ],
      [
        "Ġpay",
        -9.166416519481908
      ],
      [
        "Ġunit",
        -9.16682040998576
      ],
      [
        "ĠHere",
        -9.168081997900064
      ],
      [
        "Ġcaused",
        -9.169381430767023
      ],
      [
        "One",
        -9.17104512455272
      ],
      [
        "Ġbattery",
        -9.17124093801541
      ],
      [
        "ĠAll",
        -9.171601505804386
      ],
      [
        "Ġfeed",
        -9.173925056951454
      ],
      [
        "Ġreduc",
        -9.17395896469275
      ],
      [
        "Ġtarget",
        -9.17620887669132
      ],
      [
        "Ġdistance",
        -9.176272045637248
      ],
      [
        "Ġsensor",
        -9.176893223589737
      ],
      [
        "Ġspread",
        -9.17733165802658
      ],
      [
        "Ġterm",
        -9.17737989061386
      ],
      [
        "Ġfresh",
        -9.177930194116634
      ],
      [
        "Ġmilk",
        -9.180119418216986
      ],
      [
        "Ġcorrect",
        -9.180147820650085
      ],
      [
        "Ġitself",
        -9.183062859714552
      ],
      [
        "Ġreading",
        -9.183747237161434
      ],
      [
        "Ġanalysis",
        -9.18449353134734
      ],
      [
        "Ġplayer",
        -9.184995345968996
      ],
      [
        "Ġsuccessful",
        -9.185474768734698
      ],
      [
        "Ġmedia",
        -9.186774821081542
      ],
      [
        "Ġ</",
        -9.186921245292233
      ],
      [
        "Ġblue",
        -9.186996917923008
      ],
      [
        "Ġfast",
        -9.187213949441324
      ],
      [
        "Ġproper",
        -9.187537973884728
      ],
      [
        "Ġcustomer",
        -9.189381232911552
      ],
      [
        "Ġfun",
        -9.19116046088131
      ],
      [
        "Ġfit",
        -9.192205422142418
      ],
      [
        "Ġwood",
        -9.192304959895376
      ],
      [
        "Ġevent",
        -9.192417512706612
      ],
      [
        "ĠDNA",
        -9.192536901576318
      ],
      [
        "Ġfinal",
        -9.193177668970684
      ],
      [
        "man",
        -9.193232722653375
      ],
      [
        "Ġcomponents",
        -9.19674216428166
      ],
      [
        "Ġservices",
        -9.197237368208413
      ],
      [
        "Ġpass",
        -9.197388828407222
      ],
      [
        "ĠEarth",
        -9.198503603762797
      ],
      [
        "Ġvehicle",
        -9.198765538706043
      ],
      [
        "Ġcenter",
        -9.200976030222751
      ],
      [
        "Ġart",
        -9.201424222898986
      ],
      [
        "Ġserve",
        -9.20250171284298
      ],
      [
        "Ġhear",
        -9.204415479660376
      ],
      [
        "Ġexact",
        -9.205236965333668
      ],
      [
        "Ġrest",
        -9.20886766916465
      ],
      [
        "Ġregion",
        -9.209824276462893
      ],
      [
        "Ġapply",
        -9.211541110599894
      ],
      [
        "Ġstudent",
        -9.21168605742497
      ],
      [
        "Ġconcern",
        -9.21229077129563
      ],
      [
        "Ġpre",
        -9.213732290565218
      ],
      [
        "Ġkids",
        -9.213749290713231
      ],
      [
        "Ġago",
        -9.214002907950835
      ],
      [
        "Ġtrue",
        -9.2150756994677
      ],
      [
        "Ġbrand",
        -9.215254916534438
      ],
      [
        "Ġdrive",
        -9.21832330151842
      ],
      [
        "Ġwon",
        -9.218377961492047
      ],
      [
        "Ġapplications",
        -9.21903801490568
      ],
      [
        "Ġguide",
        -9.21962830270457
      ],
      [
        "Ġbase",
        -9.221069413636933
      ],
      [
        "ĠO",
        -9.221745951758342
      ],
      [
        "Ġbacteria",
        -9.226498501042242
      ],
      [
        "But",
        -9.227190574655491
      ],
      [
        "Ġnegative",
        -9.227982176358736
      ],
      [
        "Ġhold",
        -9.229894776410855
      ],
      [
        "ĠHealth",
        -9.231095446664078
      ],
      [
        "Ġmeet",
        -9.232954226660045
      ],
      [
        "Ġbird",
        -9.233186546882909
      ],
      [
        "ism",
        -9.23388212668628
      ],
      [
        "L",
        -9.23511321860432
      ],
      [
        "Ġapplication",
        -9.23551491648539
      ],
      [
        "Ġattack",
        -9.237449194816236
      ],
      [
        "Ġfat",
        -9.239621300282296
      ],
      [
        "Ġocean",
        -9.240841226183235
      ],
      [
        "Ġeasie",
        -9.241107032308047
      ],
      [
        "ian",
        -9.244065911480682
      ],
      [
        "Ġice",
        -9.244630438838662
      ],
      [
        "ĠJ",
        -9.246140399161682
      ],
      [
        "Ġprovided",
        -9.246682557832315
      ],
      [
        "Ġgenetic",
        -9.24883605136475
      ],
      [
        "Ġcommunication",
        -9.249063656839615
      ],
      [
        "ĠDr",
        -9.249095117015877
      ],
      [
        "Ġaspect",
        -9.249201025517769
      ],
      [
        "Ġcontribute",
        -9.249254087397894
      ],
      [
        "Ġdiscuss",
        -9.249415436735957
      ],
      [
        "Ġfactor",
        -9.249900158104072
      ],
      [
        "Ġdark",
        -9.252475123083231
      ],
      [
        "Ġprice",
        -9.253326682555937
      ],
      [
        "Ġstandard",
        -9.253589729479366
      ],
      [
        "Ġgovernment",
        -9.25607894921152
      ],
      [
        "ĠAfter",
        -9.256580679553888
      ],
      [
        "Ġpurpose",
        -9.258403096397636
      ],
      [
        "Ġconcept",
        -9.260413881687764
      ],
      [
        "Ġbreed",
        -9.261643120268335
      ],
      [
        "Ġprocesses",
        -9.263224074543068
      ],
      [
        "ivity",
        -9.26331916554161
      ],
      [
        "Ġappropriate",
        -9.26705822523506
      ],
      [
        "ĠShe",
        -9.268104523625508
      ],
      [
        "Ġadvantage",
        -9.27074932631269
      ],
      [
        "Ġtable",
        -9.271217752330436
      ],
      [
        "ĠCan",
        -9.271698996965853
      ],
      [
        "Ġmoment",
        -9.27226710361816
      ],
      [
        "Ġculture",
        -9.272989614568306
      ],
      [
        "ance",
        -9.273786995112784
      ],
      [
        "Ġmass",
        -9.274737858129368
      ],
      [
        "Ġworks",
        -9.275488345821152
      ],
      [
        "Ġfemale",
        -9.27675891930152
      ],
      [
        "Ġevidence",
        -9.278320695164403
      ],
      [
        "Ġfriend",
        -9.279105795422826
      ],
      [
        "Ġindicate",
        -9.28196551325339
      ],
      [
        "Ġextra",
        -9.283869652634856
      ],
      [
        "Ġdiscover",
        -9.285981190346336
      ],
      [
        "Ġbaby",
        -9.28670542044161
      ],
      [
        "O",
        -9.287930463112955
      ],
      [
        "ĠV",
        -9.2891125108468
      ],
      [
        "Ġdirection",
        -9.290608238068373
      ],
      [
        "where",
        -9.29106743633508
      ],
      [
        "Ġdidn",
        -9.291730074504915
      ],
      [
        "Ġbehin",
        -9.292436208855824
      ],
      [
        "âĢ¦",
        -9.29244806930098
      ],
      [
        "Ġteeth",
        -9.293431569496256
      ],
      [
        "Ġlink",
        -9.293658562651288
      ],
      [
        "Ġlack",
        -9.293756724039378
      ],
      [
        "Ġdoctor",
        -9.294004573035677
      ],
      [
        "Ġboard",
        -9.294050103789132
      ],
      [
        "Ġeggs",
        -9.294741306090389
      ],
      [
        "Ġharm",
        -9.295089854583766
      ],
      [
        "Ġparticularly",
        -9.29596602996056
      ],
      [
        "Ġshows",
        -9.297006799579394
      ],
      [
        "Ġbuy",
        -9.297354472288768
      ],
      [
        "ĠStates",
        -9.298682710415562
      ],
      [
        "Ġexperiment",
        -9.299024097204056
      ],
      [
        "Ġlocation",
        -9.299662884601414
      ],
      [
        "Ġmeat",
        -9.299947582003288
      ],
      [
        "Ġeating",
        -9.300357885946518
      ],
      [
        "Ġmental",
        -9.301440745836937
      ],
      [
        "Ġcritical",
        -9.302504322596407
      ],
      [
        "Ġterms",
        -9.304996530056137
      ],
      [
        "Ġword",
        -9.305224572252824
      ],
      [
        "Ġbox",
        -9.306950089686858
      ],
      [
        "sustainable",
        -9.307604046059629
      ],
      [
        "Ġrunning",
        -9.30894167480884
      ],
      [
        ".S",
        -9.309324840557863
      ],
      [
        "Ġsleep",
        -9.310059954758144
      ],
      [
        "Ġman",
        -9.311489161488634
      ],
      [
        "Ġconduct",
        -9.312596891027937
      ],
      [
        "Ġcountr",
        -9.313471652894217
      ],
      [
        "Ġchance",
        -9.314261307203118
      ],
      [
        "Ġfire",
        -9.314653791760684
      ],
      [
        "Ġeveryone",
        -9.31478990882906
      ],
      [
        "ĠNorth",
        -9.316429895548406
      ],
      [
        "Ġdrink",
        -9.316530139353464
      ],
      [
        "Ġspot",
        -9.316613958090626
      ],
      [
        "Ġgoal",
        -9.318146631954686
      ],
      [
        "Ġelse",
        -9.319154354981162
      ],
      [
        "Ġfront",
        -9.320105119563916
      ],
      [
        "Ġaim",
        -9.322415179852808
      ],
      [
        "Ġhole",
        -9.322505574717557
      ],
      [
        "Ġstyle",
        -9.32288918215869
      ],
      [
        "Ġproduced",
        -9.323987309477353
      ],
      [
        "Ġfill",
        -9.325787065284686
      ],
      [
        "Ġdiseases",
        -9.326975400053534
      ],
      [
        "Ġstatement",
        -9.327948980187724
      ],
      [
        "Ġsupply",
        -9.328368167752965
      ],
      [
        "Ġparticle",
        -9.32996726266573
      ],
      [
        "ĠFrom",
        -9.330967465479482
      ],
      [
        "Y",
        -9.330996967108051
      ],
      [
        "Ġstory",
        -9.335400802143525
      ],
      [
        "Ġspring",
        -9.3362067571864
      ],
      [
        "Ġserious",
        -9.337815647072407
      ],
      [
        "Ġexercise",
        -9.33850147132341
      ],
      [
        "Ġconstant",
        -9.338858381454074
      ],
      [
        "companie",
        -9.343077690825666
      ],
      [
        "Ġpiece",
        -9.3433977579057
      ],
      [
        "Ġoccur",
        -9.3434254773748
      ],
      [
        "Ġapplie",
        -9.3442646226532
      ],
      [
        "Can",
        -9.347535347482385
      ],
      [
        "Ġrock",
        -9.3478991259024
      ],
      [
        "Ġfilter",
        -9.348505053509776
      ],
      [
        "Ġbuilt",
        -9.34872864647399
      ],
      [
        "Ġcompar",
        -9.349767402670285
      ],
      [
        "[",
        -9.349774464413876
      ],
      [
        "ĠYes",
        -9.350139743535092
      ],
      [
        "Ġstrength",
        -9.35189154007865
      ],
      [
        "Ġideal",
        -9.35419840129883
      ],
      [
        "ĠâĢľ",
        -9.35444090814772
      ],
      [
        "Ġtaste",
        -9.354825579515587
      ],
      [
        "Ġestablish",
        -9.35538048999344
      ],
      [
        "Ġevents",
        -9.355802694723916
      ],
      [
        "Ġequal",
        -9.355916334673278
      ],
      [
        "Ġsuccess",
        -9.356895091770603
      ],
      [
        "Ġjob",
        -9.357016853081412
      ],
      [
        "Ġnote",
        -9.357104222934533
      ],
      [
        "ĠMore",
        -9.35764744344219
      ],
      [
        "Ġsave",
        -9.35819310455132
      ],
      [
        "Ġaccount",
        -9.35875850835439
      ],
      [
        "Ġoutput",
        -9.3591866251111
      ],
      [
        "Ġwatch",
        -9.359233695996949
      ],
      [
        "Ġscale",
        -9.360211408160875
      ],
      [
        "Ġproperly",
        -9.360577141419585
      ],
      [
        "Ġseparate",
        -9.360796394435592
      ],
      [
        "Ġlives",
        -9.360977743866735
      ],
      [
        "Ġmonth",
        -9.361138152092394
      ],
      [
        "Ġinfluence",
        -9.361460073860188
      ],
      [
        "Ġcolors",
        -9.362128558774456
      ],
      [
        "Ġseries",
        -9.362238102922449
      ],
      [
        "Ġvisual",
        -9.363214095575726
      ],
      [
        "Ġcharge",
        -9.36351091997563
      ],
      [
        "Ġproperties",
        -9.363797055131478
      ],
      [
        "Ġuseful",
        -9.364617334865777
      ],
      [
        "Ġcombination",
        -9.365339980918368
      ],
      [
        "Their",
        -9.36563561987809
      ],
      [
        "ĠAmerica",
        -9.365747857220237
      ],
      [
        "Ġalternative",
        -9.365928499194789
      ],
      [
        "Ġcarry",
        -9.366183834812682
      ],
      [
        "Ġcompare",
        -9.366417123757785
      ],
      [
        "Ġmembers",
        -9.3666472332064
      ],
      [
        "Ġvision",
        -9.366815793875324
      ],
      [
        "Ġfoods",
        -9.368254704399009
      ],
      [
        "Ġfeeling",
        -9.368344641454335
      ],
      [
        "Ġmanage",
        -9.368407939197445
      ],
      [
        "Ġdirectly",
        -9.36855292272515
      ],
      [
        "Ġinvolved",
        -9.370665373652146
      ],
      [
        "Ġdeath",
        -9.370948451452502
      ],
      [
        "Ġimages",
        -9.371226582026798
      ],
      [
        "Ġgreater",
        -9.371319517389788
      ],
      [
        "Ġsearch",
        -9.372168246547355
      ],
      [
        "Ġpromote",
        -9.372829366856545
      ],
      [
        "Ġtransport",
        -9.373066886177806
      ],
      [
        "Ġphase",
        -9.376512110751428
      ],
      [
        "mm",
        -9.379047102377204
      ],
      [
        "Ġsubject",
        -9.379410652801331
      ],
      [
        "Ġsteps",
        -9.379960505191155
      ],
      [
        "Ġoriginal",
        -9.381599103855605
      ],
      [
        "Ġslight",
        -9.382351455113206
      ],
      [
        "Ġdisplay",
        -9.384511684457172
      ],
      [
        "Ġremember",
        -9.38535677172021
      ],
      [
        "Ġstem",
        -9.386469743520896
      ],
      [
        "Ġnotice",
        -9.388888437409037
      ],
      [
        "=",
        -9.388904100406116
      ],
      [
        "Ġdeal",
        -9.390119624730266
      ],
      [
        "Ġ+",
        -9.390194277100475
      ],
      [
        "Ġfoot",
        -9.390553489219418
      ],
      [
        "And",
        -9.391057023846242
      ],
      [
        "Whil",
        -9.391488545353685
      ],
      [
        "Ġdraw",
        -9.391746677282224
      ],
      [
        "ĠUse",
        -9.392220878136406
      ],
      [
        "Ġimmun",
        -9.392377040115033
      ],
      [
        "âĢĿ",
        -9.39275878208203
      ],
      [
        "ĠX",
        -9.393029386009296
      ],
      [
        "ĠBe",
        -9.393126821834905
      ],
      [
        "Ġpatterns",
        -9.393264055955768
      ],
      [
        "Ġdirect",
        -9.395217320643962
      ],
      [
        "Ġkill",
        -9.395325695904573
      ],
      [
        "Ġlines",
        -9.39594500999116
      ],
      [
        "more",
        -9.396720141695528
      ],
      [
        "With",
        -9.398767511822316
      ],
      [
        "Ġefficienc",
        -9.398833249809124
      ],
      [
        "Ġfile",
        -9.399365006394092
      ],
      [
        "Ġseeds",
        -9.399676490699507
      ],
      [
        "life",
        -9.400433195461686
      ],
      [
        "ĠScience",
        -9.400473972171582
      ],
      [
        "Ġmale",
        -9.40062919487936
      ],
      [
        "Ġpoor",
        -9.401547099242972
      ],
      [
        "Ġmeal",
        -9.402589956583256
      ],
      [
        "Ġfeature",
        -9.404840515442446
      ],
      [
        "Ġvalues",
        -9.404889866967713
      ],
      [
        "Ġensur",
        -9.405647313742836
      ],
      [
        "Ġsign",
        -9.406778930115818
      ],
      [
        "Ġencourage",
        -9.407661583319523
      ],
      [
        "Ġload",
        -9.407920249705036
      ],
      [
        "Ġextend",
        -9.408285184710548
      ],
      [
        "Â°",
        -9.410299074029933
      ],
      [
        "Ġphone",
        -9.410598705105285
      ],
      [
        "Ġdecrease",
        -9.41072572405266
      ],
      [
        "-to",
        -9.4107327885616
      ],
      [
        "Ġinstruction",
        -9.410952820746164
      ],
      [
        "Ġgoe",
        -9.41111978010009
      ],
      [
        "Ġsoft",
        -9.411667680035286
      ],
      [
        "Ġcircuit",
        -9.411846059921771
      ],
      [
        "Ġscientific",
        -9.413913950328196
      ],
      [
        "Ġsituation",
        -9.414462942507804
      ],
      [
        "Ġinstall",
        -9.41583825244236
      ],
      [
        ".\"",
        -9.41584174536657
      ],
      [
        "Ġprett",
        -9.416077586659862
      ],
      [
        "Ġleg",
        -9.416699035080686
      ],
      [
        "Ġgrade",
        -9.418787263184072
      ],
      [
        "Ġpull",
        -9.420039342930934
      ],
      [
        "Ġtips",
        -9.420398341670785
      ],
      [
        "Ġvitamin",
        -9.420883832701737
      ],
      [
        "Ġcount",
        -9.422187701557045
      ],
      [
        "Ġcollect",
        -9.422304087652506
      ],
      [
        "Ġlate",
        -9.42634315175718
      ],
      [
        "Ġaccurate",
        -9.426861748441
      ],
      [
        "Ġrequirements",
        -9.428514895205405
      ],
      [
        "ĠUS",
        -9.4292259243732
      ],
      [
        "ĠWorld",
        -9.43191344011938
      ],
      [
        "Ġraise",
        -9.432280962597623
      ],
      [
        "Ġroot",
        -9.432506746254052
      ],
      [
        "Ġsolar",
        -9.433250264980511
      ],
      [
        "Ġclaim",
        -9.43335982678111
      ],
      [
        "Ġdur",
        -9.434692069786683
      ],
      [
        "Ġstage",
        -9.436309408344266
      ],
      [
        "Ġgeneration",
        -9.43676198236443
      ],
      [
        "Ġversion",
        -9.437327394800134
      ],
      [
        "Ġprotection",
        -9.438295728460362
      ],
      [
        "Ġfine",
        -9.439765188365838
      ],
      [
        "Ġpest",
        -9.440293468605915
      ],
      [
        "Ġsmooth",
        -9.442010202013806
      ],
      [
        "ier",
        -9.442527363395415
      ],
      [
        "Ġmuscle",
        -9.442756565909589
      ],
      [
        "Ġhappens",
        -9.44292157894721
      ],
      [
        "ĠResearch",
        -9.444109862021811
      ],
      [
        "Ġadjust",
        -9.44458134938138
      ],
      [
        "Ġcaus",
        -9.444880454934612
      ],
      [
        "Ġresponsibl",
        -9.444922881568704
      ],
      [
        "Ġinitial",
        -9.44503768161382
      ],
      [
        "Ġmusic",
        -9.44568599866968
      ],
      [
        "Ġmoving",
        -9.44572581710351
      ],
      [
        "Ġpoints",
        -9.446238734055209
      ],
      [
        "Ġbag",
        -9.446579920948384
      ],
      [
        "ĠSouth",
        -9.44725931240235
      ],
      [
        "Ġliquid",
        -9.448544069285369
      ],
      [
        "âĢ¢",
        -9.448822600953063
      ],
      [
        "Ġreasons",
        -9.449201950446882
      ],
      [
        "tenance",
        -9.450791883002683
      ],
      [
        "Ġconnect",
        -9.452242910238535
      ],
      [
        "of",
        -9.452493911591276
      ],
      [
        "cy",
        -9.454396066537957
      ],
      [
        "ĠMost",
        -9.45478331791265
      ],
      [
        "taken",
        -9.455248322245932
      ],
      [
        "An",
        -9.45671901933882
      ],
      [
        "Ġtesting",
        -9.457232229518372
      ],
      [
        "Ġwind",
        -9.457239023598692
      ],
      [
        "Ġrich",
        -9.457674366852771
      ],
      [
        "Ġfrequent",
        -9.458057181703683
      ],
      [
        "Ġcontainer",
        -9.460065746686634
      ],
      [
        "Ġbottom",
        -9.461275389124276
      ],
      [
        "Ġrepair",
        -9.461432189068248
      ],
      [
        "Ġscreen",
        -9.461930345734736
      ],
      [
        "Ġsteel",
        -9.4626558526686
      ],
      [
        "Ġtouch",
        -9.463256558430528
      ],
      [
        "Ġhost",
        -9.464947594727532
      ],
      [
        "Ġprograms",
        -9.465733615233123
      ],
      [
        "Ġcareful",
        -9.467540703890368
      ],
      [
        "Ġvary",
        -9.468574501492425
      ],
      [
        "light",
        -9.470286502211412
      ],
      [
        "Ġenhance",
        -9.470441491671949
      ],
      [
        "Ġsix",
        -9.472088444636254
      ],
      [
        "Ġdate",
        -9.472140750564716
      ],
      [
        "Ġcap",
        -9.474247127679304
      ],
      [
        "Ġdemand",
        -9.475069771966918
      ],
      [
        "Ġnoise",
        -9.47556775388065
      ],
      [
        "Ġhope",
        -9.4762459848652
      ],
      [
        "Ġbrown",
        -9.476361118268333
      ],
      [
        "Ġimportan",
        -9.477248241722954
      ],
      [
        "ĠMany",
        -9.47747459921954
      ],
      [
        "Ġtemperatures",
        -9.477735307596893
      ],
      [
        "tic",
        -9.478305508294149
      ],
      [
        "Ġsuitable",
        -9.478599487108442
      ],
      [
        "Ġemission",
        -9.480453863677187
      ],
      [
        "Ġmechanism",
        -9.480574359719672
      ],
      [
        "ship",
        -9.482788172352354
      ],
      [
        "Ġefficient",
        -9.483725969787828
      ],
      [
        "Ġplanet",
        -9.48489188059714
      ],
      [
        "Ġdeveloping",
        -9.485015072734608
      ],
      [
        "ĠCenter",
        -9.4850244446815
      ],
      [
        "Ġenter",
        -9.485203413940344
      ],
      [
        "ĠAdditional",
        -9.486038649088114
      ],
      [
        "older",
        -9.486128647486584
      ],
      [
        "ĠWhy",
        -9.486297348677308
      ],
      [
        "ch",
        -9.487021961707375
      ],
      [
        "By",
        -9.487284423333884
      ],
      [
        "Ġinteraction",
        -9.488214480229852
      ],
      [
        "ge",
        -9.48834522705583
      ],
      [
        "-term",
        -9.48855875461355
      ],
      [
        "Ġiron",
        -9.490251402667653
      ],
      [
        "Ġjourney",
        -9.49203597655974
      ],
      [
        "Ġfigure",
        -9.492580679391562
      ],
      [
        "Ġsigns",
        -9.492715340372056
      ],
      [
        "<",
        -9.493053865366049
      ],
      [
        "Ġcats",
        -9.493606228051464
      ],
      [
        "-up",
        -9.496205570235029
      ],
      [
        "Ġcity",
        -9.496545818228435
      ],
      [
        "Ġaccept",
        -9.496635560477266
      ],
      [
        "Ġsevere",
        -9.49691996870424
      ],
      [
        "Ġobtain",
        -9.497045691325315
      ],
      [
        "Ġpick",
        -9.498608028296571
      ],
      [
        "Ġpublished",
        -9.49907774079928
      ],
      [
        "Ġpair",
        -9.500658773263808
      ],
      [
        "Ġwriting",
        -9.501914173382964
      ],
      [
        "Ġblock",
        -9.502152206757827
      ],
      [
        "Ġestimate",
        -9.502857203103396
      ],
      [
        "Ġreview",
        -9.503864371296952
      ],
      [
        "Ġconsist",
        -9.504317626484946
      ],
      [
        "Ġseek",
        -9.504656794949009
      ],
      [
        "giving",
        -9.504696636712769
      ],
      [
        "ĠMy",
        -9.505040806936
      ],
      [
        "Ġpractices",
        -9.50589179141
      ],
      [
        "Ġnumbers",
        -9.50638758150807
      ],
      [
        "Ġvia",
        -9.508399783032637
      ],
      [
        "Ġreaction",
        -9.510086401461496
      ],
      [
        "Ġmen",
        -9.51087383886518
      ],
      [
        "Ġwire",
        -9.511362899221542
      ],
      [
        "Ġhair",
        -9.511529000047023
      ],
      [
        "These",
        -9.512025633739016
      ],
      [
        "Ġtend",
        -9.512081799780574
      ],
      [
        "gan",
        -9.512893629685454
      ],
      [
        "Ġcame",
        -9.513177529996533
      ],
      [
        "Ġoxygen",
        -9.515700620631629
      ],
      [
        "Ġcompound",
        -9.516137146230648
      ],
      [
        "ĠNot",
        -9.517036458987285
      ],
      [
        "ĠSchool",
        -9.517088432988452
      ],
      [
        "Ġnutrients",
        -9.517318991621943
      ],
      [
        "Ġbreath",
        -9.517614711745624
      ],
      [
        "Ġco",
        -9.517690781177194
      ],
      [
        "Ġyellow",
        -9.518186725474276
      ],
      [
        "Ġcouple",
        -9.51927735396797
      ],
      [
        "fish",
        -9.519291274223582
      ],
      [
        "Ġhandle",
        -9.51989551547848
      ],
      [
        "ĠJapan",
        -9.520680438591498
      ],
      [
        "Ġwrong",
        -9.521118615261988
      ],
      [
        "Ġconsumpti",
        -9.521370268261176
      ],
      [
        "Ġresistance",
        -9.521596747386091
      ],
      [
        "Ġchicken",
        -9.52242112895776
      ],
      [
        "Ġmotion",
        -9.52309797826968
      ],
      [
        "Ġingredients",
        -9.52371949987382
      ],
      [
        "Ġnothing",
        -9.523938122221608
      ],
      [
        "Ġvegetables",
        -9.52420075072485
      ],
      [
        "Ġmemory",
        -9.524267879705446
      ],
      [
        "Ġtissue",
        -9.52434699987653
      ],
      [
        "Ġfriends",
        -9.52522591695141
      ],
      [
        "Ġ--",
        -9.526498986533776
      ],
      [
        "Ġelectrical",
        -9.52832389508688
      ],
      [
        "Ġusers",
        -9.529444299933862
      ],
      [
        "Ġfloor",
        -9.530042144380657
      ],
      [
        "Ġinstance",
        -9.530969668172084
      ],
      [
        "ant",
        -9.53158163313055
      ],
      [
        "ĠOur",
        -9.53273564822541
      ],
      [
        "Ġphoto",
        -9.532928247982806
      ],
      [
        "Ġtherapy",
        -9.533713931036935
      ],
      [
        "Ġrefer",
        -9.534679789029768
      ],
      [
        "ĠThen",
        -9.535299331121026
      ],
      [
        "Ġrise",
        -9.535362998211651
      ],
      [
        "Ġvariable",
        -9.536715985185385
      ],
      [
        "ĠOf",
        -9.538420262518672
      ],
      [
        "Ġstorage",
        -9.53882474971784
      ],
      [
        "Ġconstruction",
        -9.538992710269714
      ],
      [
        "Ġtheory",
        -9.540136184630173
      ],
      [
        "Ġinteresting",
        -9.541052824780198
      ],
      [
        "Ġbeautiful",
        -9.541129838816452
      ],
      [
        "ur",
        -9.54249776869829
      ],
      [
        "Ġmessage",
        -9.542977506039684
      ],
      [
        "Ġpage",
        -9.543636579812894
      ],
      [
        "Ġwrite",
        -9.54383725164454
      ],
      [
        "Ġwonder",
        -9.544170984650131
      ],
      [
        "ĠAls",
        -9.544404367386091
      ],
      [
        "Ġspend",
        -9.544692131231097
      ],
      [
        "Ġsubstance",
        -9.545164527660123
      ],
      [
        "Ġrare",
        -9.545666204776754
      ],
      [
        "Ġstick",
        -9.54568541372518
      ],
      [
        "Ġcollection",
        -9.54622295084425
      ],
      [
        "Do",
        -9.546978494533343
      ],
      [
        "Ġwait",
        -9.548638348707833
      ],
      [
        "Ġexposure",
        -9.550141460110291
      ],
      [
        "Ġreflect",
        -9.551082116220352
      ],
      [
        "Ġtechnique",
        -9.5537390438559
      ],
      [
        "Ġflight",
        -9.554182162440243
      ],
      [
        "Ġcapacit",
        -9.554755491307615
      ],
      [
        "ĠWho",
        -9.555623311502828
      ],
      [
        "Ġpowerful",
        -9.556186762407457
      ],
      [
        "Ġideas",
        -9.55637314046436
      ],
      [
        "Ġbigge",
        -9.557102554338382
      ],
      [
        "Ġpaint",
        -9.559152175920104
      ],
      [
        "Ġtank",
        -9.559291760755404
      ],
      [
        "ber",
        -9.560714345132062
      ],
      [
        "Ġsection",
        -9.561683925259729
      ],
      [
        "They",
        -9.56169542734085
      ],
      [
        "Ġready",
        -9.562085107056372
      ],
      [
        "ĠOr",
        -9.562985693388594
      ],
      [
        "Ġmedication",
        -9.564184452490924
      ],
      [
        "Ġdeliver",
        -9.56421179938076
      ],
      [
        "Ġtask",
        -9.564848809411943
      ],
      [
        "Ġrice",
        -9.566324356101648
      ],
      [
        "ĠNow",
        -9.566701416875931
      ],
      [
        "Ġgenerate",
        -9.567969024966914
      ],
      [
        "Ġcycle",
        -9.570755214990792
      ],
      [
        "Ġfaster",
        -9.570765731425617
      ],
      [
        "Ġbone",
        -9.57260884958675
      ],
      [
        "\\",
        -9.57329627112837
      ],
      [
        "Ġpieces",
        -9.57363664181915
      ],
      [
        "Ġpicture",
        -9.573872707629604
      ],
      [
        "Ġheavy",
        -9.574675552109596
      ],
      [
        "Ġanti",
        -9.575577289092262
      ],
      [
        "Ġstarting",
        -9.575900058092186
      ],
      [
        "Ġlandscape",
        -9.576345339914663
      ],
      [
        "Ġmeasurement",
        -9.576596636478047
      ],
      [
        "Ġcentury",
        -9.576766525908546
      ],
      [
        "Ġhands",
        -9.578112874320064
      ],
      [
        "Ġlaw",
        -9.579103761371584
      ],
      [
        "lost",
        -9.579498429208613
      ],
      [
        "Ġswitch",
        -9.579536151311128
      ],
      [
        "Ġsend",
        -9.580586559484033
      ],
      [
        "Ġhuge",
        -9.580816003131847
      ],
      [
        "inches",
        -9.58356567329325
      ],
      [
        "Ġforward",
        -9.584026042510416
      ],
      [
        ".com",
        -9.58506439797164
      ],
      [
        "Ġimplement",
        -9.585350004790438
      ],
      [
        "Ġanyone",
        -9.585506391836642
      ],
      [
        "Ġpredict",
        -9.585792844553028
      ],
      [
        "Ġprinciple",
        -9.587785603188012
      ],
      [
        "Ġcutting",
        -9.587800610733895
      ],
      [
        "Ġsalt",
        -9.59071973867705
      ],
      [
        "Ġexpert",
        -9.59072642405853
      ],
      [
        "Ġfund",
        -9.5911812710906
      ],
      [
        "Ġoutdoor",
        -9.591563730605102
      ],
      [
        "Ġstand",
        -9.593262812810163
      ],
      [
        "Ġpush",
        -9.593359809199338
      ],
      [
        "Ġexcellent",
        -9.593885380701767
      ],
      [
        "Ġfluid",
        -9.595668452076044
      ],
      [
        "Ġseed",
        -9.595892267414015
      ],
      [
        "ĠRe",
        -9.596242151391898
      ],
      [
        "Ġframe",
        -9.597953097581724
      ],
      [
        "On",
        -9.59934434054084
      ],
      [
        "although",
        -9.600396111809424
      ],
      [
        "ĠNOT",
        -9.601046607345603
      ],
      [
        "Ġslow",
        -9.602246064524838
      ],
      [
        "Ġvolume",
        -9.602634295132583
      ],
      [
        "Ġsort",
        -9.604236158274166
      ],
      [
        "Ġmeaning",
        -9.605875836437772
      ],
      [
        "Ġadapt",
        -9.605935641742317
      ],
      [
        "Ġexpect",
        -9.605942664319173
      ],
      [
        "Ġlesson",
        -9.606295384090664
      ],
      [
        "Ġinsects",
        -9.607477907088754
      ],
      [
        "Ġquick",
        -9.60817649023886
      ],
      [
        "Ġprojects",
        -9.608841340890343
      ],
      [
        "Ġcooking",
        -9.609091386046927
      ],
      [
        "Ġmotor",
        -9.609932601446758
      ],
      [
        "Ġcleaning",
        -9.61203290494212
      ],
      [
        "Ġsaw",
        -9.613509706864894
      ],
      [
        "ĠAre",
        -9.614887028985112
      ],
      [
        "Ġled",
        -9.615201635554406
      ],
      [
        "Ġdocument",
        -9.616755271917054
      ],
      [
        "Ġearth",
        -9.617897432982572
      ],
      [
        "ĠBecause",
        -9.618653549361412
      ],
      [
        "Ġthird",
        -9.618728491484047
      ],
      [
        "Now",
        -9.61873388233668
      ],
      [
        "Ġmolecule",
        -9.619458054046063
      ],
      [
        "over",
        -9.619627735781512
      ],
      [
        "Ġcoming",
        -9.624787327037676
      ],
      [
        "Ġelectronic",
        -9.624985110034018
      ],
      [
        "Some",
        -9.62688205905749
      ],
      [
        "Ġangle",
        -9.627068558191617
      ],
      [
        "Ġplatform",
        -9.62742701020946
      ],
      [
        "spite",
        -9.6276613890469
      ],
      [
        "Ġfully",
        -9.628839648346665
      ],
      [
        "Ġsample",
        -9.630541066620497
      ],
      [
        "Ġoccurs",
        -9.63060984236507
      ],
      [
        "ĠOther",
        -9.632511851012364
      ],
      [
        "if",
        -9.63292497658162
      ],
      [
        "Ġthousand",
        -9.633757025394594
      ],
      [
        "Ġbecomes",
        -9.63435628757145
      ],
      [
        "Ġcommunitie",
        -9.63435977287918
      ],
      [
        "Ġstates",
        -9.634775528292494
      ],
      [
        "Ġb",
        -9.635121359905876
      ],
      [
        "for",
        -9.635935364863462
      ],
      [
        "Ġstone",
        -9.637061060912062
      ],
      [
        "Ġcloth",
        -9.637809965179576
      ],
      [
        "ization",
        -9.638171988419495
      ],
      [
        "Ġreported",
        -9.63841119484164
      ],
      [
        "Ġpattern",
        -9.640511145771788
      ],
      [
        "Ġsolid",
        -9.640954744420483
      ],
      [
        "Ġhorse",
        -9.641253911913896
      ],
      [
        "Ġflavor",
        -9.641332366728037
      ],
      [
        "Ġheight",
        -9.641668038397702
      ],
      [
        "ĠLet",
        -9.642518575033948
      ],
      [
        "Ġworth",
        -9.643806474095571
      ],
      [
        "Ġconsumer",
        -9.644609091855347
      ],
      [
        "Ġpurchase",
        -9.645152120594346
      ],
      [
        "Ġplanning",
        -9.646316322505871
      ],
      [
        "Ġmatch",
        -9.647996539602168
      ],
      [
        "Ġfinish",
        -9.64873395541554
      ],
      [
        "Ġcross",
        -9.651534880120998
      ],
      [
        "Ġexpensive",
        -9.65426243281625
      ],
      [
        "therefore",
        -9.654280157716636
      ],
      [
        "Ġalcohol",
        -9.654739137407214
      ],
      [
        "Ġfight",
        -9.655188648854276
      ],
      [
        "Ġdiabetes",
        -9.65538746260762
      ],
      [
        "Ġadvanced",
        -9.65590763307518
      ],
      [
        "Ġmaximum",
        -9.65613573612875
      ],
      [
        "Ġlocated",
        -9.65748210534026
      ],
      [
        "Ġclick",
        -9.657496297898582
      ],
      [
        "Ġpractical",
        -9.657740712869751
      ],
      [
        "About",
        -9.65843705595147
      ],
      [
        "Ġdetails",
        -9.65880375905308
      ],
      [
        "Ġlose",
        -9.658921995975655
      ],
      [
        "Ġear",
        -9.659028753678257
      ],
      [
        "Ġoutcome",
        -9.660065481257964
      ],
      [
        "Ġvoltage",
        -9.660095479671757
      ],
      [
        "Ġeconomic",
        -9.660302782745728
      ],
      [
        "Ġsecurity",
        -9.661128947370589
      ],
      [
        "Ġmulti",
        -9.663985444786436
      ],
      [
        "Ġthinking",
        -9.66464911606222
      ],
      [
        "Ġreference",
        -9.665341968900773
      ],
      [
        "care",
        -9.666660775228449
      ],
      [
        "Ġsurrounding",
        -9.666746424812878
      ],
      [
        "Ġpresence",
        -9.667218617965109
      ],
      [
        "Ġreveal",
        -9.667329892516433
      ],
      [
        "Ġsell",
        -9.66736707939889
      ],
      [
        "Ġconvert",
        -9.668552302127278
      ],
      [
        "hether",
        -9.668690442540766
      ],
      [
        "ter",
        -9.670631828276242
      ],
      [
        "Ġbeyond",
        -9.671384604016565
      ],
      [
        "ate",
        -9.672947606033048
      ],
      [
        "ĠUs",
        -9.673252925810644
      ],
      [
        "Ġcoast",
        -9.673316746419165
      ],
      [
        "aught",
        -9.673695821501752
      ],
      [
        "ĠEach",
        -9.674714800357368
      ],
      [
        "ĠInstitute",
        -9.675184558989072
      ],
      [
        "Ġfamilies",
        -9.675765728157629
      ],
      [
        "Q",
        -9.676721440280549
      ],
      [
        "Ġgrass",
        -9.676746827675316
      ],
      [
        "Ġexpand",
        -9.677301576298392
      ],
      [
        "Ġroad",
        -9.679089307271862
      ],
      [
        "Ġball",
        -9.68098552192636
      ],
      [
        "Ġsub",
        -9.68160627607731
      ],
      [
        "Ġspeak",
        -9.681623264064797
      ],
      [
        "Ġmiddle",
        -9.68170517796296
      ],
      [
        "Ġtexture",
        -9.68231773033633
      ],
      [
        "Ġfrequency",
        -9.682680771252253
      ],
      [
        "Ġstuff",
        -9.68323559725366
      ],
      [
        "Ġconnection",
        -9.684396191991864
      ],
      [
        "Ġtrack",
        -9.685215005525071
      ],
      [
        "Ġplease",
        -9.685257414187554
      ],
      [
        "Ġchang",
        -9.68533729097972
      ],
      [
        "haps",
        -9.68639199727515
      ],
      [
        "Ġapp",
        -9.686963322116116
      ],
      [
        "Ġtiny",
        -9.68785228077854
      ],
      [
        "Ġmeasures",
        -9.688484620848516
      ],
      [
        "Ġtechnologie",
        -9.689587766659663
      ],
      [
        "Ġstaff",
        -9.690388812341546
      ],
      [
        "went",
        -9.691355081400404
      ],
      [
        "itis",
        -9.691380586777932
      ],
      [
        "Ġchannel",
        -9.691907058907894
      ],
      [
        "came",
        -9.6923137062656
      ],
      [
        "Ġobserve",
        -9.69349395370985
      ],
      [
        "Ġvital",
        -9.693533650747748
      ],
      [
        "U",
        -9.693788306062318
      ],
      [
        "ese",
        -9.695584513698424
      ],
      [
        "Ġcomment",
        -9.696259317603914
      ],
      [
        "Ġincluded",
        -9.696292553002769
      ],
      [
        "Ġbank",
        -9.696404948746492
      ],
      [
        "Ġidentifie",
        -9.696897972056924
      ],
      [
        "ĠMay",
        -9.697051396341012
      ],
      [
        "Ġfavorite",
        -9.697186080643064
      ],
      [
        "$",
        -9.699925208059431
      ],
      [
        "Ġprevious",
        -9.700465888076556
      ],
      [
        "Ġroll",
        -9.701187248535586
      ],
      [
        "Ġmouth",
        -9.701283229699596
      ],
      [
        "Ġthus",
        -9.70211115018244
      ],
      [
        "Ġdiscovered",
        -9.70251196927384
      ],
      [
        "Ġround",
        -9.70319538526588
      ],
      [
        "Ġrecognize",
        -9.703564996963284
      ],
      [
        "Ġmoistur",
        -9.703727640074105
      ],
      [
        "Ġcontext",
        -9.704464614660942
      ],
      [
        "Ġaid",
        -9.70452705058404
      ],
      [
        "ĠDe",
        -9.706183845110722
      ],
      [
        "Ġforest",
        -9.707852442885324
      ],
      [
        "Ġfarmer",
        -9.707853307693671
      ],
      [
        "Ġhit",
        -9.710015399854466
      ],
      [
        "Ġsoon",
        -9.71089798403498
      ],
      [
        "Ġradio",
        -9.711125780033765
      ],
      [
        "Ġnational",
        -9.71176839691966
      ],
      [
        "Ġfabric",
        -9.711814999354749
      ],
      [
        "Ġ#",
        -9.711875826326832
      ],
      [
        "body",
        -9.712868370996588
      ],
      [
        "Ġcombine",
        -9.713313018142028
      ],
      [
        "Ġhabit",
        -9.713358390312507
      ],
      [
        "Ġplate",
        -9.716123128337172
      ],
      [
        "Ġvaluable",
        -9.716828947707995
      ],
      [
        "Ġonto",
        -9.719689436877175
      ],
      [
        "Ġcommercial",
        -9.720376840180595
      ],
      [
        "Ġfair",
        -9.72081234113351
      ],
      [
        "Ġproperty",
        -9.721089351778929
      ],
      [
        "Ġconnected",
        -9.721802702605263
      ],
      [
        "Ġgames",
        -9.72203728005244
      ],
      [
        "ĠEnglish",
        -9.722442944665744
      ],
      [
        "Ġsweet",
        -9.722906966912989
      ],
      [
        "Ġdivers",
        -9.723677097099944
      ],
      [
        "Ġalone",
        -9.724827240507436
      ],
      [
        "Ġdecade",
        -9.725865740994122
      ],
      [
        "Ġbond",
        -9.726591730839935
      ],
      [
        "limited",
        -9.726860452506813
      ],
      [
        "Ġformed",
        -9.727116209273992
      ],
      [
        "Ġcolour",
        -9.727916953684224
      ],
      [
        "Ġhabitat",
        -9.728018195602411
      ],
      [
        "Ġelement",
        -9.728349120308309
      ],
      [
        "Ġengage",
        -9.728762045358469
      ],
      [
        "Ġbeginning",
        -9.728998130727422
      ],
      [
        "line",
        -9.729744196834238
      ],
      [
        "up",
        -9.729890641884518
      ],
      [
        "Step",
        -9.730696694466507
      ],
      [
        "Ġteaching",
        -9.730749252699871
      ],
      [
        "j",
        -9.731856376471477
      ],
      [
        "Ġgenes",
        -9.73296335618927
      ],
      [
        "Ġevolution",
        -9.733637326456392
      ],
      [
        "ĠUK",
        -9.737454351292133
      ],
      [
        "ĠMake",
        -9.737859926641091
      ],
      [
        "Ġdrawing",
        -9.738632786559798
      ],
      [
        "Ġcrop",
        -9.739193271136973
      ],
      [
        "efore",
        -9.73924295745402
      ],
      [
        "ence",
        -9.73963348294951
      ],
      [
        "un",
        -9.739921415371136
      ],
      [
        "Ġmap",
        -9.739941646744017
      ],
      [
        "Ġbasi",
        -9.740614643717391
      ],
      [
        "Ġimprov",
        -9.740825907199929
      ],
      [
        "Ġannual",
        -9.742799145237615
      ],
      [
        "ĠState",
        -9.743558600610134
      ],
      [
        "Ġinternational",
        -9.743793564081315
      ],
      [
        "held",
        -9.74446455692554
      ],
      [
        "Ġanxiet",
        -9.744522513941106
      ],
      [
        "ĠGerman",
        -9.744969781280748
      ],
      [
        "Ġhearing",
        -9.745329186457276
      ],
      [
        "Ġappearance",
        -9.746351154771766
      ],
      [
        "time",
        -9.747621910599095
      ],
      [
        "ĠIndia",
        -9.748583347183809
      ],
      [
        "Ġdegrees",
        -9.748815193358311
      ],
      [
        "Ġpanel",
        -9.748901629627024
      ],
      [
        "Ġjoin",
        -9.74949428959868
      ],
      [
        "Ġcoat",
        -9.751113152309888
      ],
      [
        "Ġmeter",
        -9.752365394007168
      ],
      [
        "Ġaren",
        -9.752979749681856
      ],
      [
        "Ġowner",
        -9.7529980746874
      ],
      [
        "ĠDon",
        -9.753017096046683
      ],
      [
        "Ġexamples",
        -9.753915276585303
      ],
      [
        "Ġinjur",
        -9.753958478591734
      ],
      [
        "Ġweb",
        -9.75400320280983
      ],
      [
        "water",
        -9.75476762775186
      ],
      [
        "Ġpump",
        -9.755269677641463
      ],
      [
        "Ġpot",
        -9.755843197398978
      ],
      [
        "Ġfilm",
        -9.755860121169382
      ],
      [
        "ĠJust",
        -9.755923702878636
      ],
      [
        "Ġmarine",
        -9.756146446032142
      ],
      [
        "Ġdouble",
        -9.75696351575749
      ],
      [
        "Ġmedium",
        -9.757722998354986
      ],
      [
        "Ġsites",
        -9.757945717612822
      ],
      [
        "Ġbutton",
        -9.758355418010362
      ],
      [
        "Ġshift",
        -9.75924530744611
      ],
      [
        "Here",
        -9.760237235116438
      ],
      [
        "ĠFirst",
        -9.760289798268992
      ],
      [
        "Ġcharacteristics",
        -9.76253760281464
      ],
      [
        "Ġconsistent",
        -9.763462902284484
      ],
      [
        "Ġfashion",
        -9.763637746527582
      ],
      [
        "Ġtrigger",
        -9.764016539007349
      ],
      [
        "Ġsociety",
        -9.765341663647884
      ],
      [
        "Our",
        -9.76536943209774
      ],
      [
        "Ġfeeding",
        -9.765692873829575
      ],
      [
        "Ġtasks",
        -9.766728434614125
      ],
      [
        "Ġoperation",
        -9.768596955670157
      ],
      [
        "Ġregularly",
        -9.768607822731765
      ],
      [
        "ling",
        -9.76988619290672
      ],
      [
        "Ġcreative",
        -9.770951311004724
      ],
      [
        "Ġcapture",
        -9.771484861067956
      ],
      [
        "No",
        -9.77150943043361
      ],
      [
        "Ġdead",
        -9.772478937349677
      ],
      [
        "Ġbackground",
        -9.772782153411784
      ],
      [
        "ĠWater",
        -9.773206999146185
      ],
      [
        "That",
        -9.773355779078877
      ],
      [
        "ized",
        -9.773413504830092
      ],
      [
        "Ġeffort",
        -9.774068738813105
      ],
      [
        "Ġpark",
        -9.77421540304926
      ],
      [
        "Ġschedule",
        -9.774228900505886
      ],
      [
        "Ġsecure",
        -9.775463360440677
      ],
      [
        "ĠEven",
        -9.776098716950596
      ],
      [
        "Ġinternal",
        -9.776572610741926
      ],
      [
        "Ġnative",
        -9.778097051107617
      ],
      [
        "Ġconservation",
        -9.778498443816488
      ],
      [
        "self",
        -9.778556298510086
      ],
      [
        "ĠAlthough",
        -9.778913664134404
      ],
      [
        "Ġdegree",
        -9.77904514672102
      ],
      [
        "Ġmaintaining",
        -9.779826404314637
      ],
      [
        "Ġflat",
        -9.781115413053646
      ],
      [
        "Ġparticipant",
        -9.781244102891907
      ],
      [
        "Ġtube",
        -9.782836899508888
      ],
      [
        "Answer",
        -9.782939332409631
      ],
      [
        "Ġlabel",
        -9.783236625473693
      ],
      [
        "Ġteachers",
        -9.783523032402346
      ],
      [
        "Ġimmediately",
        -9.78356857713
      ],
      [
        "Ġdriv",
        -9.784159000984376
      ],
      [
        "Ġdangerous",
        -9.787027455079116
      ],
      [
        "Ġdetect",
        -9.787858261951053
      ],
      [
        "Ġroutine",
        -9.788040573866729
      ],
      [
        "-year",
        -9.788228051036423
      ],
      [
        "Ġgene",
        -9.78860685562444
      ],
      [
        "Ġlargest",
        -9.788617879304113
      ],
      [
        "happy",
        -9.790614800046058
      ],
      [
        "Ġfinding",
        -9.791710336060884
      ],
      [
        "work",
        -9.7923654324841
      ],
      [
        "-free",
        -9.792927464618325
      ],
      [
        "Ġcomprehensive",
        -9.793849730124885
      ],
      [
        "Ġratio",
        -9.794274353318825
      ],
      [
        "Ġlegal",
        -9.794671836522964
      ],
      [
        "Ġbright",
        -9.794903188609634
      ],
      [
        "Ġlayers",
        -9.795854962355666
      ],
      [
        "Ġdriver",
        -9.796191593442677
      ],
      [
        "ĠAfrica",
        -9.797091867493773
      ],
      [
        "ĠEurope",
        -9.797687110029312
      ],
      [
        "ver",
        -9.799939423259175
      ],
      [
        "Ġcoffee",
        -9.800068747722747
      ],
      [
        "Ġstation",
        -9.800229880818724
      ],
      [
        "Ġcheese",
        -9.800398350625557
      ],
      [
        "Ġapproximate",
        -9.801701460148838
      ],
      [
        "ĠDepartment",
        -9.801701463569612
      ],
      [
        "ĠChina",
        -9.801773219542168
      ],
      [
        "Ġhour",
        -9.802164376820269
      ],
      [
        "Ġalgorithm",
        -9.802221057425506
      ],
      [
        "Ġhighlight",
        -9.802442699868752
      ],
      [
        "Ġcomponent",
        -9.803246959090508
      ],
      [
        "Ġtrip",
        -9.805510508998298
      ],
      [
        "Ġmagnetic",
        -9.805644231009342
      ],
      [
        "Ġvirtual",
        -9.80600210480974
      ],
      [
        "Ġcomfortable",
        -9.806312010707265
      ],
      [
        "Ġartist",
        -9.80760064166176
      ],
      [
        "J",
        -9.807785087945428
      ],
      [
        "am",
        -9.807807442753958
      ],
      [
        "Ġbirth",
        -9.81023504041346
      ],
      [
        "Ġrain",
        -9.811110711128208
      ],
      [
        "ĠAccording",
        -9.81128605470794
      ],
      [
        "Ġbodie",
        -9.811513058815075
      ],
      [
        "Ġsupplement",
        -9.811989890044728
      ],
      [
        "Ġroots",
        -9.812342646555464
      ],
      [
        "Ġpool",
        -9.81437720020808
      ],
      [
        "ĠCalifornia",
        -9.814741932945989
      ],
      [
        "Ġbooks",
        -9.815091004092132
      ],
      [
        "Ġabsorb",
        -9.815318954625038
      ],
      [
        "After",
        -9.815908725873538
      ],
      [
        "Ġdepth",
        -9.8160047929959
      ],
      [
        "Ġedge",
        -9.81859931021744
      ],
      [
        "Ġassess",
        -9.819247487745567
      ],
      [
        "ĠOnc",
        -9.81960435708486
      ],
      [
        "Ġtransmission",
        -9.821381477779209
      ],
      [
        "Ġfunctions",
        -9.821593280565605
      ],
      [
        "Ġnest",
        -9.82180678915672
      ],
      [
        "Ġnearly",
        -9.8243467273515
      ],
      [
        "Ġthreat",
        -9.82463214817757
      ],
      [
        "Ġcontinuous",
        -9.824977025828366
      ],
      [
        "Ġmember",
        -9.825102430404646
      ],
      [
        "Ġcup",
        -9.82559127828034
      ],
      [
        "#",
        -9.825802847329452
      ],
      [
        "Ġselection",
        -9.826620156821626
      ],
      [
        "Ġdie",
        -9.826993278069256
      ],
      [
        "Ġclient",
        -9.827064809349343
      ],
      [
        "Ġinsight",
        -9.828098801217106
      ],
      [
        "Ġdrain",
        -9.828912346804696
      ],
      [
        "Ġcomfort",
        -9.82905536261384
      ],
      [
        "Ġgold",
        -9.829708644339265
      ],
      [
        "Ġaware",
        -9.829978149987005
      ],
      [
        "Ġsuit",
        -9.830955206361482
      ],
      [
        "Ġtopic",
        -9.832370228028337
      ],
      [
        "Ġemergenc",
        -9.83324310563549
      ],
      [
        "Ġtransfer",
        -9.833524075321854
      ],
      [
        "Ġremov",
        -9.834212010115872
      ],
      [
        "coming",
        -9.835454759058043
      ],
      [
        "Ġintroduce",
        -9.836216766867018
      ],
      [
        "bility",
        -9.837246062533051
      ],
      [
        "Ġrules",
        -9.837363240485626
      ],
      [
        "Ġoffice",
        -9.837811853656898
      ],
      [
        "Ġoptimal",
        -9.838379845617863
      ],
      [
        "Ġtransform",
        -9.838610457425126
      ],
      [
        "Ġwheel",
        -9.839806164421695
      ],
      [
        "Ġprefer",
        -9.839853726905314
      ],
      [
        "Ġfinancial",
        -9.84046681382214
      ],
      [
        "Ġcentral",
        -9.840629110812255
      ],
      [
        "Ġdental",
        -9.841285189992064
      ],
      [
        "Ġgrain",
        -9.842393334647934
      ],
      [
        "Ġmaybe",
        -9.842534115272894
      ],
      [
        "Ġformat",
        -9.843888724393745
      ],
      [
        "Ġpolicy",
        -9.8439590691915
      ],
      [
        "Ġatmosphere",
        -9.845117579136758
      ],
      [
        "expected",
        -9.845575431731454
      ],
      [
        "Ġdesire",
        -9.845707407383028
      ],
      [
        "ĠBlack",
        -9.847235089182655
      ],
      [
        "ĠSince",
        -9.847319719140188
      ],
      [
        "Ġthin",
        -9.847366814181653
      ],
      [
        "Ġlisten",
        -9.847577768621962
      ],
      [
        "X",
        -9.84779267319593
      ],
      [
        "ĠDay",
        -9.848574487330955
      ],
      [
        "Ġfiber",
        -9.85001330111607
      ],
      [
        "Ġassessment",
        -9.850586122814132
      ],
      [
        "Ġsurger",
        -9.851714022553702
      ],
      [
        "Ġyield",
        -9.85222650796647
      ],
      [
        "Ġartificial",
        -9.853158456873375
      ],
      [
        "Ġemail",
        -9.854565665750195
      ],
      [
        "Ġroof",
        -9.85539874686828
      ],
      [
        "Ġleaf",
        -9.855744420638937
      ],
      [
        "be",
        -9.857064200707788
      ],
      [
        "Ġpress",
        -9.857252352086071
      ],
      [
        "Ġgoals",
        -9.857457310847336
      ],
      [
        "Ġsmart",
        -9.858546159446815
      ],
      [
        "Ġdrug",
        -9.859633870647226
      ],
      [
        "Ġsequence",
        -9.859859541589662
      ],
      [
        "ĠAir",
        -9.86006923145867
      ],
      [
        "Ġpath",
        -9.86106139824459
      ],
      [
        "ĠAustralia",
        -9.8612998812734
      ],
      [
        "Ġvirus",
        -9.86201074709736
      ],
      [
        "Ġvoice",
        -9.862404820782391
      ],
      [
        "Ġelectron",
        -9.86283308256457
      ],
      [
        "Ġdoor",
        -9.86320228314304
      ],
      [
        "Ġcharacter",
        -9.86328172010893
      ],
      [
        "Ġtold",
        -9.863608283775536
      ],
      [
        "Ġpossibilit",
        -9.864068218012653
      ],
      [
        "Ġconclusion",
        -9.864206297366248
      ],
      [
        "-in",
        -9.864413504932504
      ],
      [
        "-like",
        -9.86466436661826
      ],
      [
        "Ġrespond",
        -9.864882817835367
      ],
      [
        "Ġmixture",
        -9.865113936210872
      ],
      [
        "Ġexpress",
        -9.865169301016463
      ],
      [
        "Ġtransition",
        -9.86621325498211
      ],
      [
        "Ġstraight",
        -9.867062597850836
      ],
      [
        "Ġbeneficial",
        -9.86766004621388
      ],
      [
        "Ġancient",
        -9.867873976333156
      ],
      [
        "Ġteacher",
        -9.868668148653274
      ],
      [
        "Ġheal",
        -9.869603376438317
      ],
      [
        "Ġsurvey",
        -9.870494121641457
      ],
      [
        "Ġdetail",
        -9.871077008974089
      ],
      [
        "Ġpets",
        -9.871799977489506
      ],
      [
        "Ġengineering",
        -9.872239250000447
      ],
      [
        "Ġvalve",
        -9.872294560792731
      ],
      [
        "Ġgear",
        -9.87247239828508
      ],
      [
        "Ġbatter",
        -9.87267140539814
      ],
      [
        "Ġspeaker",
        -9.87308256544323
      ],
      [
        "Ġefforts",
        -9.873740345471615
      ],
      [
        "Ġstock",
        -9.874448012505836
      ],
      [
        "Ġdistribution",
        -9.874521651492849
      ],
      [
        "Z",
        -9.875588665890684
      ],
      [
        "Ġseal",
        -9.877256235661036
      ],
      [
        "Ġkitchen",
        -9.877412422048616
      ],
      [
        "Ġcore",
        -9.877444197658937
      ],
      [
        "Ġshot",
        -9.87810013902586
      ],
      [
        "Ġthick",
        -9.878721073172963
      ],
      [
        "Ġrid",
        -9.88108570549964
      ],
      [
        "ĠFood",
        -9.88226570039362
      ],
      [
        "Ġpack",
        -9.882953932854
      ],
      [
        "Ġfertilizer",
        -9.884474603846874
      ],
      [
        "go",
        -9.885406039083366
      ],
      [
        "All",
        -9.886598925059936
      ],
      [
        "wide",
        -9.887152449072538
      ],
      [
        "Ġprogress",
        -9.887249947917084
      ],
      [
        "Ġagree",
        -9.888963668953863
      ],
      [
        "ĠEvery",
        -9.889007770920175
      ],
      [
        "Ġegg",
        -9.889830122966366
      ],
      [
        "ĠTherefor",
        -9.8899696312238
      ],
      [
        "Ġship",
        -9.891448116436685
      ],
      [
        "ĠDuring",
        -9.893194958380445
      ],
      [
        "Ġpollution",
        -9.893503434406238
      ],
      [
        "Ġwritten",
        -9.893838385145736
      ],
      [
        "Ġadopt",
        -9.894457022314366
      ],
      [
        "Ġtechnical",
        -9.894574064968372
      ],
      [
        "Ġregulation",
        -9.894947925568175
      ],
      [
        "Ġattempt",
        -9.89599237495391
      ],
      [
        "Ġsports",
        -9.896519873448783
      ],
      [
        "Ġsquare",
        -9.89814476131038
      ],
      [
        "Ġcarrie",
        -9.898317440924464
      ],
      [
        "Ġcars",
        -9.89886829006066
      ],
      [
        "Ġlens",
        -9.898881182670484
      ],
      [
        "ĠOver",
        -9.899134795910054
      ],
      [
        "Ġdiscussion",
        -9.89920278073772
      ],
      [
        "Ġmiles",
        -9.89975571674923
      ],
      [
        "Ġreplace",
        -9.90065925739158
      ],
      [
        "My",
        -9.901060532484385
      ],
      [
        "Ġsession",
        -9.901682317858116
      ],
      [
        "Ġskill",
        -9.902443433494632
      ],
      [
        "Ġtri",
        -9.903016250732325
      ],
      [
        "Ġimprovement",
        -9.9050278246714
      ],
      [
        "Ġteach",
        -9.905742488879678
      ],
      [
        "ĠHigh",
        -9.906079363825418
      ],
      [
        "Ġenable",
        -9.906226494698316
      ],
      [
        "Ġindependent",
        -9.908316111792
      ],
      [
        "Ġrace",
        -9.908479549799775
      ],
      [
        "Ġtrust",
        -9.909445518593811
      ],
      [
        "Ġcream",
        -9.909570328423897
      ],
      [
        "Ġburn",
        -9.90988395234294
      ],
      [
        "Ġmother",
        -9.910298785137588
      ],
      [
        "Ġhelpful",
        -9.91078436757503
      ],
      [
        "Ġorganization",
        -9.910834382820225
      ],
      [
        "Ġwindow",
        -9.911986524850342
      ],
      [
        "Ġdrop",
        -9.912056523977142
      ],
      [
        "Ġnumerou",
        -9.912226116597086
      ],
      [
        "Ġbillion",
        -9.91263013530894
      ],
      [
        "Ġcheap",
        -9.913253025583408
      ],
      [
        "Ġchemicals",
        -9.91707941976946
      ],
      [
        "Ġproteins",
        -9.917318104345709
      ],
      [
        "Ġpipe",
        -9.918053054796427
      ],
      [
        "ĠâĢ¦",
        -9.919166384181594
      ],
      [
        "Ġemotional",
        -9.920079692996277
      ],
      [
        "Ġcommand",
        -9.920417539493137
      ],
      [
        "Ġblend",
        -9.92048313640971
      ],
      [
        "Ġsuggests",
        -9.921547410203058
      ],
      [
        "Ġperspective",
        -9.921611855599217
      ],
      [
        "Ġoperate",
        -9.921617556655246
      ],
      [
        "ĠDec",
        -9.92184676198859
      ],
      [
        "Ġclassroom",
        -9.92366146753188
      ],
      [
        "Ġexternal",
        -9.92394464399484
      ],
      [
        "Ġthrow",
        -9.92422772879863
      ],
      [
        "-quality",
        -9.924895858319273
      ],
      [
        "Ġbear",
        -9.928078963381465
      ],
      [
        "Ġharvest",
        -9.929400502899366
      ],
      [
        "ĠDownload",
        -9.929433321419223
      ],
      [
        "ory",
        -9.929819775292003
      ],
      [
        "ĠCO",
        -9.930520382030547
      ],
      [
        "Ġcorn",
        -9.930707328875338
      ],
      [
        "Ġinvestment",
        -9.931984219472811
      ],
      [
        "Ġportion",
        -9.93227204390238
      ],
      [
        "ĠEuropean",
        -9.933104280897556
      ],
      [
        "what",
        -9.933279460771155
      ],
      [
        "ĠApril",
        -9.933667759669625
      ],
      [
        "Ġadvice",
        -9.933762498926622
      ],
      [
        "Ġjoint",
        -9.933787579172485
      ],
      [
        "Ġdifferences",
        -9.934314588873251
      ],
      [
        "Ġrespect",
        -9.93681604473892
      ],
      [
        "Another",
        -9.936936188263305
      ],
      [
        "Ġbar",
        -9.937132431254092
      ],
      [
        "Ġsurvive",
        -9.937303303330072
      ],
      [
        "Ġraw",
        -9.938245715461552
      ],
      [
        "Ġprepared",
        -9.938776500584652
      ],
      [
        "Ġborn",
        -9.940739701538057
      ],
      [
        "which",
        -9.940745926260435
      ],
      [
        "Ġletter",
        -9.941508565865522
      ],
      [
        "Ġbeauty",
        -9.94152190472658
      ],
      [
        "ĠYork",
        -9.941732571101404
      ],
      [
        "Ġmold",
        -9.94173756453683
      ],
      [
        "Ġmode",
        -9.941756389872664
      ],
      [
        "Ġexperts",
        -9.942192268528968
      ],
      [
        "Ġsuffer",
        -9.944267539094998
      ],
      [
        "Ġsheet",
        -9.94457943644148
      ],
      [
        "Ġattract",
        -9.944650912366024
      ],
      [
        "Ġshoes",
        -9.94753674666062
      ],
      [
        "Ġbroad",
        -9.94756550812701
      ],
      [
        "Ġhundred",
        -9.949915889786704
      ],
      [
        "Ġcareer",
        -9.952143207513746
      ],
      [
        "Ġsit",
        -9.95292980256684
      ],
      [
        "Ġmedicine",
        -9.953043382226774
      ],
      [
        "Ġupper",
        -9.954479698081231
      ],
      [
        "Ġstorie",
        -9.95487972711048
      ],
      [
        "Ġnice",
        -9.958631213126296
      ],
      [
        "Ġcatch",
        -9.95863406102136
      ],
      [
        "ĠMarch",
        -9.961440304465112
      ],
      [
        "Ġchalleng",
        -9.96145178790808
      ],
      [
        "Ġwar",
        -9.96153433017778
      ],
      [
        "Ġmid",
        -9.962250999943857
      ],
      [
        "Ġregions",
        -9.962683399951713
      ],
      [
        "ĠGreat",
        -9.963384427519925
      ],
      [
        "Ġultimate",
        -9.963766613094087
      ],
      [
        "Ġformation",
        -9.964105261699356
      ],
      [
        "Ġsnake",
        -9.964290046952785
      ],
      [
        "ĠSt",
        -9.964489056678826
      ],
      [
        "ĠPark",
        -9.965607120785808
      ],
      [
        "Ġprepare",
        -9.965970729278864
      ],
      [
        "].",
        -9.967074855335571
      ],
      [
        "Ġmanufactur",
        -9.96713045723715
      ],
      [
        "Ġstatus",
        -9.96751437769768
      ],
      [
        "Ġgrown",
        -9.969136460117976
      ],
      [
        "Ġcultural",
        -9.969153441945338
      ],
      [
        "Ġchanged",
        -9.969155220043517
      ],
      [
        "Ġprimari",
        -9.969744107917208
      ],
      [
        "Ġcrops",
        -9.97222652806312
      ],
      [
        "Ġindoor",
        -9.973084380487524
      ],
      [
        "Ġpregnancy",
        -9.973883981613508
      ],
      [
        "Ġpreference",
        -9.974414000423389
      ],
      [
        "Ġlay",
        -9.974504737197076
      ],
      [
        "Ġengineer",
        -9.97533595308581
      ],
      [
        "Ġconsume",
        -9.976139840626637
      ],
      [
        "Ġrule",
        -9.976354062293876
      ],
      [
        "Ġreduction",
        -9.976669737894609
      ],
      [
        "Ġmechanical",
        -9.9776788405037
      ],
      [
        "Are",
        -9.97861151637942
      ],
      [
        "Ġaccident",
        -9.978967041153476
      ],
      [
        "Ġoperat",
        -9.97936700185165
      ],
      [
        "upon",
        -9.979395258427289
      ],
      [
        "Ġtitle",
        -9.979590932871384
      ],
      [
        "exposed",
        -9.979713788131292
      ],
      [
        "Ġblade",
        -9.980780290977656
      ],
      [
        "Ġbreeding",
        -9.98215848798553
      ],
      [
        "Ġcreature",
        -9.983941527219734
      ],
      [
        "Ġstandards",
        -9.984787741398884
      ],
      [
        "Ġdefined",
        -9.985011605497585
      ],
      [
        "ĠGo",
        -9.985116012359608
      ],
      [
        "nstead",
        -9.98634036727814
      ],
      [
        "Ġgenome",
        -9.986557496129969
      ],
      [
        "Ġnutrition",
        -9.987123028904149
      ],
      [
        "Ġtrain",
        -9.98758387557416
      ],
      [
        "Ġconcentration",
        -9.987721446088283
      ],
      [
        "Ġlatest",
        -9.987944418545062
      ],
      [
        "Ġowners",
        -9.98896081122593
      ],
      [
        "Ġenzyme",
        -9.989233472208056
      ],
      [
        "ent",
        -9.98937126539848
      ],
      [
        "Ġweigh",
        -9.98966892023608
      ],
      [
        "Ġseat",
        -9.990940052381028
      ],
      [
        "Ġlung",
        -9.990952686405178
      ],
      [
        "Ġapart",
        -9.99159280568803
      ],
      [
        "Ġworked",
        -9.991752941333864
      ],
      [
        "Ġreliabl",
        -9.991800782520894
      ],
      [
        "Ġsaying",
        -9.991843243992992
      ],
      [
        "Ġeventually",
        -9.992082825524786
      ],
      [
        "Ġscene",
        -9.992226323286657
      ],
      [
        "Ġfindings",
        -9.992975740271682
      ],
      [
        "ĠInternational",
        -9.992988303542091
      ],
      [
        "Ġsounds",
        -9.993057777342408
      ],
      [
        "ĠWell",
        -9.993683379687557
      ],
      [
        "Ġearlier",
        -9.993803003834133
      ],
      [
        "resistant",
        -9.993889669940796
      ],
      [
        "Ġstorm",
        -9.994730211756773
      ],
      [
        "ĠDoes",
        -9.994938025444108
      ],
      [
        "Ġwhose",
        -9.995771715086844
      ],
      [
        "Re",
        -9.996982743956549
      ],
      [
        "Ġprocedure",
        -9.997067150838632
      ],
      [
        "Ġillness",
        -9.997238626634203
      ],
      [
        "Ġworry",
        -9.997376194507549
      ],
      [
        "Ġwet",
        -9.997530287602348
      ],
      [
        "Ġatom",
        -9.99814454657562
      ],
      [
        "Ġparameter",
        -9.99889316333245
      ],
      [
        "kept",
        -9.999085390700426
      ],
      [
        "Ġchain",
        -9.999134841615618
      ],
      [
        "Ġmorning",
        -10.000014001973458
      ],
      [
        "/or",
        -10.000392438685331
      ],
      [
        "Ġquantum",
        -10.002612814189856
      ],
      [
        "Ġnaturally",
        -10.002805328069408
      ],
      [
        "ĠSept",
        -10.003097199806984
      ],
      [
        "Ġbusinesses",
        -10.003698669567104
      ],
      [
        "Ġcomposition",
        -10.003987660457828
      ],
      [
        "Ġexpression",
        -10.004896358155111
      ],
      [
        "Ġorganizations",
        -10.005371254875088
      ],
      [
        "Ġcm",
        -10.005590403128616
      ],
      [
        "Ġcontrast",
        -10.00665597659162
      ],
      [
        "Ġreferr",
        -10.007067336234432
      ],
      [
        "ĠIsland",
        -10.00768926610606
      ],
      [
        "Ġdemonstrate",
        -10.007913853653404
      ],
      [
        "Ġsolve",
        -10.008418208658195
      ],
      [
        "Ġassist",
        -10.008518168639329
      ],
      [
        "Ġrat",
        -10.008536848970635
      ],
      [
        "Many",
        -10.00871895316826
      ],
      [
        "Ġdefinition",
        -10.00883070712772
      ],
      [
        "Ġplane",
        -10.009427966949277
      ],
      [
        "Ġloop",
        -10.01039159109077
      ],
      [
        "Ġvaccine",
        -10.010818505367926
      ],
      [
        "Ġbill",
        -10.01093139297591
      ],
      [
        "Ġmuscles",
        -10.011221299226367
      ],
      [
        "Ġheating",
        -10.011616462753594
      ],
      [
        "Ġprivate",
        -10.012101694758204
      ],
      [
        "**",
        -10.01403482566371
      ],
      [
        "ĠRiver",
        -10.015140983283798
      ],
      [
        "ĠKeep",
        -10.015360459700878
      ],
      [
        "{",
        -10.015462580045702
      ],
      [
        "Ġoperations",
        -10.016801622242
      ],
      [
        "ĠEducation",
        -10.01688035437867
      ],
      [
        "ĠGreen",
        -10.017143928889425
      ],
      [
        "Ġclasse",
        -10.017811393270089
      ],
      [
        "Ġcreation",
        -10.018416055411183
      ],
      [
        "Ġcard",
        -10.018429655610776
      ],
      [
        "Ġemployee",
        -10.018694089549598
      ],
      [
        "Ġnutrient",
        -10.020021586771737
      ],
      [
        "Ġsmell",
        -10.02009124444287
      ],
      [
        "Ġinteract",
        -10.020129043016077
      ],
      [
        "Ġlaunch",
        -10.02168139010417
      ],
      [
        "Conclusion",
        -10.022618029032756
      ],
      [
        "Ġlifestyle",
        -10.02267778526741
      ],
      [
        "Ġoffering",
        -10.022997472436376
      ],
      [
        "ĠSystem",
        -10.024126568086237
      ],
      [
        "Ġpilot",
        -10.024600555926517
      ],
      [
        "Ġinternet",
        -10.024618654277123
      ],
      [
        "Ġcable",
        -10.025502235533152
      ],
      [
        "Ġaircraft",
        -10.025522569885055
      ],
      [
        "Ġtire",
        -10.025524077821308
      ],
      [
        "Ġenvironments",
        -10.02624549087806
      ],
      [
        "âĢĻt",
        -10.027786426602738
      ],
      [
        "Most",
        -10.02805697337168
      ],
      [
        "Ġmin",
        -10.028455762552296
      ],
      [
        "Ġcontrolle",
        -10.028556758660716
      ],
      [
        "Ġzone",
        -10.02887922545148
      ],
      [
        "Ġfail",
        -10.02900474983172
      ],
      [
        "ĠSan",
        -10.030866563426802
      ],
      [
        "Ġintelligence",
        -10.03102456549589
      ],
      [
        "Ġprofessionals",
        -10.032636166336928
      ],
      [
        "Ġfundamental",
        -10.03335780249446
      ],
      [
        "Ġshade",
        -10.034225680131474
      ],
      [
        "Ġfunctional",
        -10.034536777769912
      ],
      [
        "Ġeducational",
        -10.034555998174673
      ],
      [
        "Ġvehicles",
        -10.0351235963685
      ],
      [
        "ĠPeople",
        -10.03615811662635
      ],
      [
        "Ġdi",
        -10.036481560108385
      ],
      [
        "ĠWar",
        -10.037863024119703
      ],
      [
        "Ġsamples",
        -10.039148710152148
      ],
      [
        "Ġobvious",
        -10.039289962593694
      ],
      [
        "Ġbiological",
        -10.039534717935537
      ],
      [
        "ĠBritish",
        -10.03965443406808
      ],
      [
        "that",
        -10.039890169538992
      ],
      [
        "Ġfinger",
        -10.040476311090249
      ],
      [
        "Ġtru",
        -10.041443015136029
      ],
      [
        "Ġnerve",
        -10.04261283256663
      ],
      [
        "Ġemploy",
        -10.04292634515538
      ],
      [
        "Ġpainting",
        -10.043008967609396
      ],
      [
        "Ġspin",
        -10.043232709762847
      ],
      [
        "Ġamazing",
        -10.043321189249422
      ],
      [
        "Ġcapabilit",
        -10.043447286668076
      ],
      [
        "Ġrequest",
        -10.043746120540114
      ],
      [
        "Ġexamine",
        -10.047276977065966
      ],
      [
        "Ġrisks",
        -10.047697041297958
      ],
      [
        "Ġextract",
        -10.04931333795841
      ],
      [
        "Ġtooth",
        -10.049448133856808
      ],
      [
        "Ġbike",
        -10.050404545836248
      ],
      [
        "Ġsituations",
        -10.051362573130556
      ],
      [
        "Ġradiation",
        -10.051731807248734
      ],
      [
        "ĠFlorida",
        -10.052717847605637
      ],
      [
        "Ġblog",
        -10.05278959272652
      ],
      [
        "Ġquantit",
        -10.05287742939209
      ],
      [
        "Ġwaves",
        -10.052912793728948
      ],
      [
        "Yes",
        -10.053652208150885
      ],
      [
        "Ġcurve",
        -10.054818422159888
      ],
      [
        "Ġstrain",
        -10.055050389590557
      ],
      [
        "Ġproduc",
        -10.05526999611964
      ],
      [
        "Ġobservation",
        -10.055975007242932
      ],
      [
        "Ġmobile",
        -10.056378361028328
      ],
      [
        "Ġfly",
        -10.05715724706478
      ],
      [
        "Ġinnovation",
        -10.057301020537038
      ],
      [
        "Ġprovider",
        -10.05759299221336
      ],
      [
        "ĠSea",
        -10.0579429248983
      ],
      [
        "Ġlibrar",
        -10.058323755167876
      ],
      [
        "Ġarray",
        -10.058527556234177
      ],
      [
        "Ġerror",
        -10.060386370834628
      ],
      [
        "Ġjournal",
        -10.060505674874232
      ],
      [
        "Ġcredit",
        -10.060708408114298
      ],
      [
        "Ġdetailed",
        -10.060896361830366
      ],
      [
        "He",
        -10.06111117244008
      ],
      [
        "ities",
        -10.06116824606783
      ],
      [
        "Ġbite",
        -10.06117026333724
      ],
      [
        "Ġcalculate",
        -10.063165511375598
      ],
      [
        "Ġminerals",
        -10.064113135886592
      ],
      [
        "Ġcook",
        -10.064443505053047
      ],
      [
        "Ġrealize",
        -10.064470454555234
      ],
      [
        "Ġsurvival",
        -10.065253983958597
      ],
      [
        "accurac",
        -10.065322994838096
      ],
      [
        "Ġhelping",
        -10.065700658264364
      ],
      [
        "Ġphotograph",
        -10.067313637206846
      ],
      [
        "Ġdrugs",
        -10.06783637456645
      ],
      [
        "Ġencounter",
        -10.06918515204673
      ],
      [
        "with",
        -10.06940864766698
      ],
      [
        "-friendl",
        -10.069441631771888
      ],
      [
        "Ġaudio",
        -10.069506230194412
      ],
      [
        "Ġminimum",
        -10.0702760968213
      ],
      [
        "Ġboat",
        -10.070438342873723
      ],
      [
        "Ġprior",
        -10.071054810365576
      ],
      [
        "Ġlighting",
        -10.07127474578986
      ],
      [
        "brough",
        -10.071431377989732
      ],
      [
        "Ġchronic",
        -10.071984983635849
      ],
      [
        "way",
        -10.072432622207234
      ],
      [
        "we",
        -10.072471228386132
      ],
      [
        "Ġrealit",
        -10.073070006920624
      ],
      [
        "Ġunits",
        -10.07312143786864
      ],
      [
        "Ġdepression",
        -10.073414227987136
      ],
      [
        "Ġdecline",
        -10.074151407225152
      ],
      [
        "Ġfailure",
        -10.074201012263426
      ],
      [
        "Ġdisorder",
        -10.074679545315472
      ],
      [
        "Ġawarenes",
        -10.074706431376828
      ],
      [
        "Ġleak",
        -10.075080599474656
      ],
      [
        "Ġsport",
        -10.075412925774677
      ],
      [
        "men",
        -10.075949164666223
      ],
      [
        "Ġrecovery",
        -10.07658128330408
      ],
      [
        "Ġrelevant",
        -10.076688276545935
      ],
      [
        "Ġguy",
        -10.077633098786134
      ],
      [
        "me",
        -10.077735019186076
      ],
      [
        "Ġdish",
        -10.077839415057577
      ],
      [
        "Ġtreated",
        -10.07873350815263
      ],
      [
        "Ġtraffic",
        -10.07948237159678
      ],
      [
        "Ġisland",
        -10.079573604133673
      ],
      [
        "ĠCanada",
        -10.080022304577287
      ],
      [
        "Ġjump",
        -10.080319539825494
      ],
      [
        "Ġdamaged",
        -10.080670355950769
      ],
      [
        "diversity",
        -10.081331090037516
      ],
      [
        "Ġdetermined",
        -10.082309885472556
      ],
      [
        "Ġcit",
        -10.083435074305829
      ],
      [
        "Ġmeeting",
        -10.08383339935921
      ],
      [
        "Ġpesticide",
        -10.083958497541555
      ],
      [
        "Ġboost",
        -10.08403380423239
      ],
      [
        "Ġpercentage",
        -10.084149424749556
      ],
      [
        "Ġcompost",
        -10.084207961040184
      ],
      [
        "Ġchoos",
        -10.084666954402852
      ],
      [
        "Ġfoundation",
        -10.084975316797747
      ],
      [
        "ĠDesign",
        -10.0857779822353
      ],
      [
        "Ġspider",
        -10.085906853083864
      ],
      [
        "Ġadvance",
        -10.086114439730364
      ],
      [
        "Ġten",
        -10.086721511312684
      ],
      [
        "Ġcollege",
        -10.086836225797176
      ],
      [
        "Ġfan",
        -10.087850073189854
      ],
      [
        "Ġmission",
        -10.088694444496465
      ],
      [
        "Ġpredator",
        -10.08903892950498
      ],
      [
        "}",
        -10.08942680260679
      ],
      [
        "ill",
        -10.08971192261123
      ],
      [
        "Ġconsequence",
        -10.090128304962564
      ],
      [
        "Ġopinion",
        -10.09012838020882
      ],
      [
        "Ġfear",
        -10.09055185212474
      ],
      [
        "per",
        -10.090628486098762
      ],
      [
        "Ġhospital",
        -10.091904048281076
      ],
      [
        "Ġnation",
        -10.0925383382006
      ],
      [
        "Ġ...Ċ",
        -10.093242306967694
      ],
      [
        "Ġextensive",
        -10.094952051443364
      ],
      [
        "Ġwave",
        -10.095146420231032
      ],
      [
        "Ġtight",
        -10.095228338974128
      ],
      [
        "Ġcalcium",
        -10.095488931538108
      ],
      [
        "Ġgirl",
        -10.096634265405012
      ],
      [
        "Ġthorough",
        -10.09699182505632
      ],
      [
        "ide",
        -10.097739906870608
      ],
      [
        "Ġedit",
        -10.098527967918866
      ],
      [
        "im",
        -10.100281379721295
      ],
      [
        "Ġknee",
        -10.100886132668569
      ],
      [
        "According",
        -10.10106675990098
      ],
      [
        "ley",
        -10.101346694158414
      ],
      [
        "ĠLife",
        -10.101872419305291
      ],
      [
        "Ġbarrier",
        -10.102908182584414
      ],
      [
        "Ġleaving",
        -10.102910090487216
      ],
      [
        "Ġchose",
        -10.102934557821117
      ],
      [
        "ial",
        -10.104104384540758
      ],
      [
        "ĠProgram",
        -10.104558011643476
      ],
      [
        "Ġspray",
        -10.104661579632731
      ],
      [
        "Ġnitrogen",
        -10.104844813180106
      ],
      [
        "Ġchoices",
        -10.105436185056536
      ],
      [
        "Ġrestaurant",
        -10.105642169931324
      ],
      [
        "Ġvisibl",
        -10.10630912175737
      ],
      [
        "Ġmajority",
        -10.106722284971728
      ],
      [
        "how",
        -10.107197308492957
      ],
      [
        "Ġreplacement",
        -10.10742258244164
      ],
      [
        "Ġappreciate",
        -10.10744702212714
      ],
      [
        "Ġsharp",
        -10.108253550678167
      ],
      [
        "ĠNature",
        -10.10905226185044
      ],
      [
        "ĠThu",
        -10.109262117682125
      ],
      [
        "end",
        -10.109709407461366
      ],
      [
        "Ġstable",
        -10.109844680214236
      ],
      [
        "Ġband",
        -10.109953189812806
      ],
      [
        "Your",
        -10.1102692830593
      ],
      [
        "Use",
        -10.11030035523026
      ],
      [
        "Ġlie",
        -10.111735516588212
      ],
      [
        "Ġabsolute",
        -10.1129722387718
      ],
      [
        "Ġlots",
        -10.11332557890085
      ],
      [
        "Januar",
        -10.113727913391564
      ],
      [
        "-related",
        -10.11424709439152
      ],
      [
        "ĠJune",
        -10.115186482549309
      ],
      [
        "Ġexhibit",
        -10.115272144750456
      ],
      [
        "Ġmaster",
        -10.115669397058262
      ],
      [
        "More",
        -10.11720737430502
      ],
      [
        "ĠNov",
        -10.117221151439049
      ],
      [
        "Ġrough",
        -10.11809899985083
      ],
      [
        "Ġbreast",
        -10.118386056629966
      ],
      [
        "Ġsensitive",
        -10.118994771219638
      ],
      [
        "ĠY",
        -10.119360538710753
      ],
      [
        "Ġbottle",
        -10.120891125150523
      ],
      [
        "Ġhormone",
        -10.120894693488882
      ],
      [
        "-be",
        -10.120922230766991
      ],
      [
        "Ġguideline",
        -10.120923387682812
      ],
      [
        "Ġexplor",
        -10.121317775039971
      ],
      [
        "Ġexcessive",
        -10.122514617692318
      ],
      [
        "Ġstroke",
        -10.123419952180113
      ],
      [
        "ĠWest",
        -10.123733286999208
      ],
      [
        "Ġindustrial",
        -10.12440219136608
      ],
      [
        "Ġbelt",
        -10.125006943273153
      ],
      [
        "Ġcompetition",
        -10.125179582951812
      ],
      [
        "Ġconsideration",
        -10.126233531209351
      ],
      [
        "Ġfossil",
        -10.127080578311196
      ],
      [
        "wise",
        -10.127558188284391
      ],
      [
        "ical",
        -10.12762843259146
      ],
      [
        "Onc",
        -10.127702735361504
      ],
      [
        "Ġlights",
        -10.129125572159456
      ],
      [
        "Ġplans",
        -10.129253018476575
      ],
      [
        "Ġplanting",
        -10.12946974790543
      ],
      [
        "Ġprecise",
        -10.129632711639388
      ],
      [
        "Ġhousehold",
        -10.129944977013928
      ],
      [
        "Ġbug",
        -10.130484687075128
      ],
      [
        "OVID",
        -10.131167002846349
      ],
      [
        "Ġstain",
        -10.131367205005713
      ],
      [
        "Ġbudget",
        -10.132053812532902
      ],
      [
        "Ġslowly",
        -10.133983828231228
      ],
      [
        "urniture",
        -10.135408896416592
      ],
      [
        "Ġmask",
        -10.135676352312284
      ],
      [
        "ĠPlant",
        -10.137087300124534
      ],
      [
        "ĠFurther",
        -10.13791216536036
      ],
      [
        "Ġconfirm",
        -10.13809033149696
      ],
      [
        "Ġahead",
        -10.138256107257664
      ],
      [
        "Ġformula",
        -10.138356014034224
      ],
      [
        "Ġshowing",
        -10.138377449627209
      ],
      [
        "ĠLED",
        -10.138712813122854
      ],
      [
        "Ġeliminate",
        -10.138764009518288
      ],
      [
        "ĠPro",
        -10.139472156122736
      ],
      [
        "Ġwash",
        -10.139683738336856
      ],
      [
        "Ġpreviously",
        -10.139749947810266
      ],
      [
        "Ġplent",
        -10.140043374369128
      ],
      [
        "Ġmovie",
        -10.140086339555191
      ],
      [
        "ification",
        -10.140235934939607
      ],
      [
        "Ġagricultur",
        -10.140604039221362
      ],
      [
        "Ġga",
        -10.140974526475503
      ],
      [
        "he",
        -10.141036992506477
      ],
      [
        "Ġeconomy",
        -10.141220970974045
      ],
      [
        "Ġtrail",
        -10.142217468332529
      ],
      [
        "Ġinsulation",
        -10.14235769866789
      ],
      [
        "Ġintake",
        -10.14363265686097
      ],
      [
        "ĠStudent",
        -10.144542406766512
      ],
      [
        "Ġshared",
        -10.144672963089524
      ],
      [
        "Ġcalm",
        -10.145216098311812
      ],
      [
        "Ġbread",
        -10.145951633571508
      ],
      [
        "Ġvarie",
        -10.146986705040575
      ],
      [
        "side",
        -10.147420289768782
      ],
      [
        "Ġdigesti",
        -10.14750812544105
      ],
      [
        "Ġsent",
        -10.148312568006553
      ],
      [
        "Ġbones",
        -10.148893383241518
      ],
      [
        "Ġsudden",
        -10.148968850869736
      ],
      [
        "Ġbees",
        -10.149011700266914
      ],
      [
        "Ġzero",
        -10.149237573574624
      ],
      [
        "Ġconstruct",
        -10.149575506144553
      ],
      [
        "Ġargument",
        -10.150265059186914
      ],
      [
        "Ġtall",
        -10.150578635154387
      ],
      [
        "Ġpowder",
        -10.15090790035718
      ],
      [
        "@",
        -10.151081617240822
      ],
      [
        "ĠGood",
        -10.151850028776831
      ],
      [
        "-time",
        -10.152305738862534
      ],
      [
        "Ġsuper",
        -10.152494013277025
      ],
      [
        "ĠType",
        -10.152594142501467
      ],
      [
        "Ġphotos",
        -10.153055338518
      ],
      [
        "ĠChine",
        -10.153208183125988
      ],
      [
        "Ġlawn",
        -10.153410844539614
      ],
      [
        "Ġreward",
        -10.153486075909242
      ],
      [
        "Ġurban",
        -10.153616983182047
      ],
      [
        "Ġmanag",
        -10.154026364923396
      ],
      [
        "Ġlab",
        -10.15541245837887
      ],
      [
        "Ġsaving",
        -10.156008143857871
      ],
      [
        "Ġdust",
        -10.159962215711491
      ],
      [
        "Ġsufficient",
        -10.160499686649423
      ],
      [
        "Ġpurposes",
        -10.160999471496517
      ],
      [
        "Ġoven",
        -10.161634522604729
      ],
      [
        "ĠHome",
        -10.165143287663854
      ],
      [
        "ten",
        -10.16609774171279
      ],
      [
        "uch",
        -10.16739166757194
      ],
      [
        "Ġaudience",
        -10.167619113046795
      ],
      [
        "Ġrubber",
        -10.16955979312667
      ],
      [
        "Be",
        -10.170001465292042
      ],
      [
        "Ġecosystem",
        -10.170343301085058
      ],
      [
        "Ġfeedback",
        -10.170368073847392
      ],
      [
        "Ġstages",
        -10.170438879378205
      ],
      [
        "ĠEnergy",
        -10.171400651682967
      ],
      [
        "Ġpounds",
        -10.171557677700022
      ],
      [
        "Ġplays",
        -10.173083156857428
      ],
      [
        "Ġaesthetic",
        -10.173508821386736
      ],
      [
        "made",
        -10.173757953848003
      ],
      [
        "Ġconventional",
        -10.174676992155591
      ],
      [
        "Ġminimize",
        -10.17473042685678
      ],
      [
        "Ġtwi",
        -10.174739741667468
      ],
      [
        "Ġupdate",
        -10.175030371348084
      ],
      [
        "Ġcognitive",
        -10.175318087489924
      ],
      [
        "||",
        -10.17591961684835
      ],
      [
        "Ġnose",
        -10.176271089276616
      ],
      [
        "Ġeight",
        -10.17630025111885
      ],
      [
        "Ġinflammation",
        -10.17710025042805
      ],
      [
        "Ġdioxide",
        -10.177102406350762
      ],
      [
        "Ġshell",
        -10.17730121287756
      ],
      [
        "ĠUn",
        -10.177367086781166
      ],
      [
        "Ġsong",
        -10.17811000298957
      ],
      [
        "Ġgenerated",
        -10.178875490804394
      ],
      [
        "Ġdecided",
        -10.179975534873511
      ],
      [
        "Ġintroduc",
        -10.180207113630676
      ],
      [
        "Ġtrouble",
        -10.180647722943466
      ],
      [
        "Ġpepper",
        -10.180894338330964
      ],
      [
        "Ġuniversit",
        -10.181728181411373
      ],
      [
        "Ġfixed",
        -10.181774304762255
      ],
      [
        "Ġinterface",
        -10.1824946996753
      ],
      [
        "ated",
        -10.18311220298978
      ],
      [
        "ĠBoth",
        -10.183156300750367
      ],
      [
        "Ġwouldn",
        -10.183438987691714
      ],
      [
        "Ġorganisms",
        -10.183529194433149
      ],
      [
        "Ġdensity",
        -10.183618287610358
      ],
      [
        "Ġclinical",
        -10.183738072263376
      ],
      [
        "Ġbutter",
        -10.18646055690279
      ],
      [
        "ĠLike",
        -10.186606928014012
      ],
      [
        "ĠJohn",
        -10.186640923067614
      ],
      [
        "Ġcomputers",
        -10.188972435887033
      ],
      [
        "Ġshop",
        -10.189331469194151
      ],
      [
        "Ġpackage",
        -10.189862507604042
      ],
      [
        "Ġuniverse",
        -10.189989832526038
      ],
      [
        "Ġincredibl",
        -10.190454131630618
      ],
      [
        "Ġflood",
        -10.190969171347282
      ],
      [
        "Ġimagine",
        -10.191422196585428
      ],
      [
        "ĠâĢ¢",
        -10.192131529812896
      ],
      [
        "Ġprofessor",
        -10.192553636937124
      ],
      [
        "Ġsector",
        -10.192714511716812
      ],
      [
        "Ġseven",
        -10.192823735618582
      ],
      [
        "Ġpictures",
        -10.193179474428671
      ],
      [
        "Ġinter",
        -10.194058173256847
      ],
      [
        "Ġjuice",
        -10.194408699302343
      ],
      [
        "Ġdishe",
        -10.19450356963484
      ],
      [
        "Ġarm",
        -10.195210130754772
      ],
      [
        "Ġplug",
        -10.1957292931129
      ],
      [
        "ĠZ",
        -10.19665026118787
      ],
      [
        "Ġmicro",
        -10.197116743982592
      ],
      [
        "Ġopening",
        -10.197220797183428
      ],
      [
        "Ġstomach",
        -10.197336676355471
      ],
      [
        "ĠWhere",
        -10.198442894503996
      ],
      [
        "ĠTake",
        -10.198673663568083
      ],
      [
        "Ġremote",
        -10.198761392276314
      ],
      [
        "Ġlinked",
        -10.199477291501646
      ],
      [
        "Ġbecom",
        -10.200499219919852
      ],
      [
        "Ġtoxic",
        -10.200512966865778
      ],
      [
        "Ġsnow",
        -10.202404181357824
      ],
      [
        "Ġinner",
        -10.203179794836508
      ],
      [
        "Ġconcrete",
        -10.204346218590604
      ],
      [
        "Ġputt",
        -10.204520605891574
      ],
      [
        "Ġassembl",
        -10.20456841270246
      ],
      [
        "Ġpeak",
        -10.205194203792455
      ],
      [
        "ï¿½",
        -10.206266132178104
      ],
      [
        "Ġotherwise",
        -10.20671496397515
      ],
      [
        "Ġthread",
        -10.206738112028477
      ],
      [
        "Ġdelicious",
        -10.206739247730402
      ],
      [
        "Ġlift",
        -10.206879797490018
      ],
      [
        "Ġguess",
        -10.206992015238349
      ],
      [
        "ĠAny",
        -10.207280334547551
      ],
      [
        "Ġmammal",
        -10.207357230450722
      ],
      [
        "Ġcircle",
        -10.207927575758294
      ],
      [
        "affected",
        -10.208309110242158
      ],
      [
        "ĠTexas",
        -10.208675135683446
      ],
      [
        "ĠAsia",
        -10.209174798866504
      ],
      [
        "From",
        -10.209357211676142
      ],
      [
        "Ġtrace",
        -10.209572546777224
      ],
      [
        "ural",
        -10.209654844009334
      ],
      [
        "Ġdivide",
        -10.210685374218269
      ],
      [
        "Ġmanner",
        -10.211645773293672
      ],
      [
        "Ġriver",
        -10.211848254018408
      ],
      [
        "ĠAl",
        -10.21303823754842
      ],
      [
        "Ġbelief",
        -10.213125907888642
      ],
      [
        "Let",
        -10.214145000062326
      ],
      [
        "ought",
        -10.21454506519925
      ],
      [
        "Ġgraph",
        -10.214633450043518
      ],
      [
        "Ġcommunicate",
        -10.214857124407082
      ],
      [
        "ĠCheck",
        -10.215209111884176
      ],
      [
        "Ġcopy",
        -10.215262310289424
      ],
      [
        "covered",
        -10.216271002029355
      ],
      [
        "Ġimplant",
        -10.216296969161546
      ],
      [
        "Ġmineral",
        -10.217171721554974
      ],
      [
        "Ġbulb",
        -10.217639216234405
      ],
      [
        "Ġhydrogen",
        -10.21801907580677
      ],
      [
        "ĠLearning",
        -10.218547634006118
      ],
      [
        "ĠCity",
        -10.21864076610932
      ],
      [
        "Ġinnovative",
        -10.218687527558426
      ],
      [
        "Ġdistinct",
        -10.219099198019864
      ],
      [
        "Ġbroken",
        -10.219434789182811
      ],
      [
        "Ġcomparison",
        -10.21954625653932
      ],
      [
        "low",
        -10.220279756569102
      ],
      [
        "Ġcloud",
        -10.22098258861063
      ],
      [
        "Ġdesigner",
        -10.221066124988743
      ],
      [
        "Ġfiles",
        -10.221287464016791
      ],
      [
        "ĠAugust",
        -10.221350906781517
      ],
      [
        "Ġauto",
        -10.221664578872469
      ],
      [
        "Ġliver",
        -10.22183843939929
      ],
      [
        "Ġhistorical",
        -10.221942051110275
      ],
      [
        "Ġcraft",
        -10.22296607842369
      ],
      [
        "Ġthrive",
        -10.22344827620948
      ],
      [
        "Ġshar",
        -10.225111364168995
      ],
      [
        "Ġpropose",
        -10.226537958439298
      ],
      [
        "Ġdownload",
        -10.227160095182905
      ],
      [
        "Ġfamiliar",
        -10.227244282134382
      ],
      [
        "ĠIndian",
        -10.227739023580035
      ],
      [
        "Ġpizza",
        -10.228357017213677
      ],
      [
        "Ġincorporate",
        -10.228392503120082
      ],
      [
        "Ġbuying",
        -10.22876255197125
      ],
      [
        "Ġwoman",
        -10.229153978529538
      ],
      [
        "ng",
        -10.229483070187602
      ],
      [
        "Ġemotion",
        -10.230290891812974
      ],
      [
        "ĠTechnology",
        -10.230582102464377
      ],
      [
        "Ġcalories",
        -10.230649609014003
      ],
      [
        "ĠGod",
        -10.231144164941735
      ],
      [
        "Figure",
        -10.231882468752964
      ],
      [
        "Ġinjuries",
        -10.2329747934213
      ],
      [
        "like",
        -10.233197298332476
      ],
      [
        "Ġrandom",
        -10.233295417452084
      ],
      [
        "Ġhandl",
        -10.233385900676572
      ],
      [
        "Ġfelt",
        -10.23343856555674
      ],
      [
        "Ġtrade",
        -10.234363676683104
      ],
      [
        "Ġdecide",
        -10.234481850483393
      ],
      [
        "Ġintervention",
        -10.2360366712839
      ],
      [
        "Ġthreaten",
        -10.236749514883314
      ],
      [
        "Ġvast",
        -10.237292893570247
      ],
      [
        "wood",
        -10.238892755531726
      ],
      [
        "Ġrapid",
        -10.23898981048757
      ],
      [
        "...Ċ",
        -10.239240677364483
      ],
      [
        "ĠRed",
        -10.241040868228716
      ],
      [
        "Ġstructural",
        -10.241912744525182
      ],
      [
        "from",
        -10.242233450208891
      ],
      [
        "ĠYear",
        -10.242392363241787
      ],
      [
        "Ġmanual",
        -10.242436738122215
      ],
      [
        "Ġmath",
        -10.243016961122049
      ],
      [
        "Ġgift",
        -10.24305471873835
      ],
      [
        "Ġloose",
        -10.24323657960573
      ],
      [
        "Ġwish",
        -10.24334401089479
      ],
      [
        "Ġanalyze",
        -10.24353813291183
      ],
      [
        "Ġrely",
        -10.244115481312926
      ],
      [
        "Ġtrial",
        -10.244371642936128
      ],
      [
        "Ġscore",
        -10.244576123550672
      ],
      [
        "ĠGeneral",
        -10.24531741611767
      ],
      [
        "Ġmistake",
        -10.245487520479106
      ],
      [
        "Ġbowl",
        -10.245543379446952
      ],
      [
        "Ġdescription",
        -10.246607578458246
      ],
      [
        "ĠFrench",
        -10.247152745599898
      ],
      [
        "Ġgradual",
        -10.247992483462706
      ],
      [
        "Ġsustainability",
        -10.248599655803792
      ],
      [
        "Researchers",
        -10.248958276556714
      ],
      [
        "Ġsmoke",
        -10.24922922178439
      ],
      [
        "ĠControl",
        -10.24972879096137
      ],
      [
        "Ġlaser",
        -10.249738924960052
      ],
      [
        "Ġattend",
        -10.250077938675837
      ],
      [
        "Ġindustrie",
        -10.25047112544776
      ],
      [
        "Ġoral",
        -10.250734225223908
      ],
      [
        "Ġalter",
        -10.25077891275535
      ],
      [
        "Ġresident",
        -10.251015608330984
      ],
      [
        "Ġstretch",
        -10.2511122042124
      ],
      [
        "Ġweed",
        -10.25143371500624
      ],
      [
        "Ġofficial",
        -10.252225634437242
      ],
      [
        "ring",
        -10.252706577000009
      ],
      [
        "Ġdiffer",
        -10.25311134796379
      ],
      [
        "Ġstream",
        -10.253536721242112
      ],
      [
        "Ġtrend",
        -10.25422611070108
      ],
      [
        "Ġwasn",
        -10.254487056491854
      ],
      [
        "ĠCo",
        -10.25454467516886
      ],
      [
        "Ġforests",
        -10.255132463253693
      ],
      [
        "Ġcoral",
        -10.255563127826465
      ],
      [
        "Ġexchange",
        -10.2561372229218
      ],
      [
        "Ġacademic",
        -10.257216445561829
      ],
      [
        "Ġsecret",
        -10.257767943873276
      ],
      [
        "ium",
        -10.258845960896627
      ],
      [
        "Ġengaging",
        -10.26045847177028
      ],
      [
        "Ġcrack",
        -10.261813996291968
      ],
      [
        "Ġtrained",
        -10.261829512417158
      ],
      [
        "ĠStart",
        -10.26186495177231
      ],
      [
        "ĠQ",
        -10.262490246151737
      ],
      [
        "Ġfoster",
        -10.26297727568534
      ],
      [
        "gone",
        -10.262998932982573
      ],
      [
        "Ġrenewable",
        -10.264136556144098
      ],
      [
        "ĠEngl",
        -10.264659357207544
      ],
      [
        "ĠConsider",
        -10.26488667763555
      ],
      [
        "Ġpin",
        -10.265726198707462
      ],
      [
        "Ġdiagnosis",
        -10.266330302535632
      ],
      [
        "ĠAfrican",
        -10.267088961926834
      ],
      [
        "Ġroute",
        -10.267971943703586
      ],
      [
        "Ġsurprise",
        -10.268015201977846
      ],
      [
        "Ġsymbol",
        -10.268053901176252
      ],
      [
        "Ġinterior",
        -10.268619925409135
      ],
      [
        "Ġkidney",
        -10.268819528913546
      ],
      [
        "definitely",
        -10.268939897250153
      ],
      [
        "Ġequivalent",
        -10.269347841570056
      ],
      [
        "Ġreli",
        -10.27005697612814
      ],
      [
        "Ġparticipate",
        -10.27019470628564
      ],
      [
        "Ġlarva",
        -10.270598588809584
      ],
      [
        "Ġagricultural",
        -10.270744170067008
      ],
      [
        "ĠEast",
        -10.271397526185403
      ],
      [
        "ĠSociet",
        -10.271990627501411
      ],
      [
        "-of",
        -10.27255609536542
      ],
      [
        "Ġcollaboration",
        -10.273521473584497
      ],
      [
        "Ġgap",
        -10.27366346006087
      ],
      [
        "ĠSpace",
        -10.273929481064242
      ],
      [
        "Ġhazard",
        -10.274960046233527
      ],
      [
        "Ġsauce",
        -10.275252493145938
      ],
      [
        "Ġrecover",
        -10.27552532846518
      ],
      [
        "Ġfirm",
        -10.275604257778935
      ],
      [
        "Ġinitiative",
        -10.275703223774077
      ],
      [
        "Ġthermal",
        -10.275776245706282
      ],
      [
        "Ġinsurance",
        -10.27578969480222
      ],
      [
        "Ġworse",
        -10.275881590340273
      ],
      [
        "Ġweak",
        -10.275988888821743
      ],
      [
        "Ġprompt",
        -10.276578691192858
      ],
      [
        "Ġcoal",
        -10.276867395876067
      ],
      [
        "Ġprices",
        -10.277263499124771
      ],
      [
        "Ġrelax",
        -10.277857903865383
      ],
      [
        "Ġexcess",
        -10.278034330864177
      ],
      [
        "Ġgravit",
        -10.278213549465612
      ],
      [
        "Ġpresentation",
        -10.27838812309
      ],
      [
        "Ġstar",
        -10.27933704546146
      ],
      [
        "Ġcopper",
        -10.279376064424977
      ],
      [
        "ĠCar",
        -10.279461873009089
      ],
      [
        "ĠGet",
        -10.280170242886737
      ],
      [
        "Ġvegetable",
        -10.282383250197253
      ],
      [
        "Ġprogramming",
        -10.28362507339051
      ],
      [
        "ut",
        -10.283641871651094
      ],
      [
        "ĠOcto",
        -10.283692254504317
      ],
      [
        "Ġexciting",
        -10.28372070547115
      ],
      [
        "Ġrapidly",
        -10.283975722890656
      ],
      [
        "Ġattached",
        -10.284765921988924
      ],
      [
        "ING",
        -10.285077641473247
      ],
      [
        "Ġtea",
        -10.28630249724954
      ],
      [
        "ions",
        -10.2869408314192
      ],
      [
        "Ġvelocit",
        -10.287011069408788
      ],
      [
        "Ġecosystems",
        -10.287076252422183
      ],
      [
        "ĠAssociation",
        -10.287352758435006
      ],
      [
        "Ġspaces",
        -10.28784264858857
      ],
      [
        "Ġminimal",
        -10.28794515307349
      ],
      [
        "Ġgreenhouse",
        -10.289539404815445
      ],
      [
        "Ġconfidence",
        -10.289642823947522
      ],
      [
        "Ġdesir",
        -10.289998136936658
      ],
      [
        "ĠRemember",
        -10.290042323846226
      ],
      [
        "Ġdive",
        -10.290110657650043
      ],
      [
        "Ġspecialize",
        -10.290239436369063
      ],
      [
        "Ġserver",
        -10.290239875460582
      ],
      [
        "Ġbio",
        -10.290276512755728
      ],
      [
        "Ġexam",
        -10.29059991202039
      ],
      [
        "Ġworkshop",
        -10.291097580128657
      ],
      [
        "Ġchocolate",
        -10.291851626230338
      ],
      [
        "informed",
        -10.29193665111926
      ],
      [
        "Ġcombin",
        -10.292548163727108
      ],
      [
        "Ġray",
        -10.293281929446206
      ],
      [
        "Ġtrait",
        -10.29363066000228
      ],
      [
        "ĠII",
        -10.293669655364994
      ],
      [
        "Ġinstallation",
        -10.294401470717151
      ],
      [
        "Ġdisorders",
        -10.29455355915132
      ],
      [
        "Ġnews",
        -10.294607099043294
      ],
      [
        "-old",
        -10.294904931363702
      ],
      [
        "Ġalign",
        -10.295044255728488
      ],
      [
        "Ġconsult",
        -10.295749988537583
      ],
      [
        "Ġprove",
        -10.29589041312829
      ],
      [
        "Ġcow",
        -10.296128895496352
      ],
      [
        "ĠPower",
        -10.296706644921056
      ],
      [
        "ĠHuman",
        -10.296716697579845
      ],
      [
        "Ġgrant",
        -10.29684428610227
      ],
      [
        "Ġforget",
        -10.296979730775083
      ],
      [
        "Ġnet",
        -10.297269398056876
      ],
      [
        "Although",
        -10.297536254205491
      ],
      [
        "Ġimport",
        -10.297852758482962
      ],
      [
        "ĠWild",
        -10.298068599083372
      ],
      [
        "ĠCollege",
        -10.298797745549049
      ],
      [
        "Ġprotective",
        -10.2991549310528
      ],
      [
        "Ġcrystal",
        -10.29973746297997
      ],
      [
        "ĠAnimal",
        -10.299875823524228
      ],
      [
        "Ġpreparation",
        -10.299992226487204
      ],
      [
        "Ġport",
        -10.30071449934088
      ],
      [
        "Ġheavi",
        -10.301105031831105
      ],
      [
        "History",
        -10.301694121682289
      ],
      [
        "Ġcooked",
        -10.302435260121252
      ],
      [
        "Ġreactions",
        -10.303085761307756
      ],
      [
        "-on",
        -10.303867513024876
      ],
      [
        "Ġhabitats",
        -10.304638854996831
      ],
      [
        "Ġassume",
        -10.305110832404232
      ],
      [
        "Ġusage",
        -10.305554855431774
      ],
      [
        "First",
        -10.30570841745029
      ],
      [
        "Ġmark",
        -10.306029784410049
      ],
      [
        "ca",
        -10.306932121487344
      ],
      [
        "Ġneck",
        -10.30700233753458
      ],
      [
        "Ġhardware",
        -10.30772195953444
      ],
      [
        "ha",
        -10.308037885214077
      ],
      [
        "ĠHis",
        -10.309040639298193
      ],
      [
        "Ġinstrument",
        -10.309239251806346
      ],
      [
        "Ġrecipe",
        -10.309582163878463
      ],
      [
        "Ġdefine",
        -10.309846971477077
      ],
      [
        "ĠLook",
        -10.310002335737533
      ],
      [
        "Ġlock",
        -10.310268636498131
      ],
      [
        "ĠEl",
        -10.310673508682758
      ],
      [
        "Ġorange",
        -10.311976574658797
      ],
      [
        "Ġstarts",
        -10.312227335938465
      ],
      [
        "Ġeveryday",
        -10.312265148859286
      ],
      [
        "Ġphysics",
        -10.312298778042315
      ],
      [
        "Ġprey",
        -10.313074281873092
      ],
      [
        "den",
        -10.313833300432886
      ],
      [
        "ĠAdd",
        -10.31402960722716
      ],
      [
        "Ġpro",
        -10.314764887335716
      ],
      [
        "stock",
        -10.315037275442274
      ],
      [
        "can",
        -10.31508740724
      ],
      [
        "field",
        -10.315325282635284
      ],
      [
        "Ġcontract",
        -10.315632909575402
      ],
      [
        "Ġhunting",
        -10.315879244953218
      ],
      [
        "Ġaggressive",
        -10.31616053984781
      ],
      [
        "ĠpH",
        -10.316546491096576
      ],
      [
        "ĠPacifi",
        -10.317248318620964
      ],
      [
        "board",
        -10.317956266698031
      ],
      [
        "Ġmissing",
        -10.318736126149886
      ],
      [
        "Ġfather",
        -10.320578588859767
      ],
      [
        "Ġnorth",
        -10.321207014660324
      ],
      [
        "ĠGoogle",
        -10.321936498448604
      ],
      [
        "Since",
        -10.322262344928472
      ],
      [
        "Ġbranche",
        -10.324509474984806
      ],
      [
        "Ġtropical",
        -10.324702409909484
      ],
      [
        "Ġguidance",
        -10.325265339137232
      ],
      [
        "Ġessay",
        -10.325531535686128
      ],
      [
        "Ġdimension",
        -10.325801297944452
      ],
      [
        "Ġexplanation",
        -10.32601320556595
      ],
      [
        "ene",
        -10.326168309323643
      ],
      [
        "Ġplus",
        -10.326255474271283
      ],
      [
        "ative",
        -10.326350610435709
      ],
      [
        "Ġtopics",
        -10.32647354170384
      ],
      [
        "Ġlocations",
        -10.326475808770956
      ],
      [
        "Ġpossibl",
        -10.326536146727362
      ],
      [
        "Ġmodule",
        -10.32689407216826
      ],
      [
        "Ġcamp",
        -10.327061033337232
      ],
      [
        "Ġunlike",
        -10.327194764061849
      ],
      [
        "ĠWork",
        -10.32761507606596
      ],
      [
        "Ġresolution",
        -10.328860070935942
      ],
      [
        "Ġedges",
        -10.329581576247351
      ],
      [
        "Us",
        -10.329636575628824
      ],
      [
        "Ġpermanent",
        -10.329998085779229
      ],
      [
        "Ġdanger",
        -10.330479787612376
      ],
      [
        "Ġdiameter",
        -10.33061725807073
      ],
      [
        "Ġfamous",
        -10.330994255826909
      ],
      [
        "Ġlaws",
        -10.331180203982491
      ],
      [
        "Ġincorporat",
        -10.332930830640006
      ],
      [
        "Ġadequate",
        -10.333313879517316
      ],
      [
        "Ġstrengthen",
        -10.333663048538568
      ],
      [
        "Ġsmok",
        -10.334500908695532
      ],
      [
        "Ġspen",
        -10.335162916131145
      ],
      [
        "Ġstronger",
        -10.33569875146936
      ],
      [
        "oid",
        -10.336156827338415
      ],
      [
        "ĠGuide",
        -10.336166792290232
      ],
      [
        "Ġchapter",
        -10.336642666816328
      ],
      [
        "fitness",
        -10.337167930930512
      ],
      [
        "Ġabilit",
        -10.339001309072824
      ],
      [
        "Ġswimming",
        -10.339592160775148
      ],
      [
        "Ġapproaches",
        -10.339715021902888
      ],
      [
        "Ġchromosome",
        -10.339925568667365
      ],
      [
        "Ġsouth",
        -10.340501253505057
      ],
      [
        "Ġpolitical",
        -10.340598527963913
      ],
      [
        "Ġconflict",
        -10.34144260360626
      ],
      [
        "Ġopposite",
        -10.341444062195798
      ],
      [
        "ĠGarden",
        -10.343288338323555
      ],
      [
        "Ġaccessibl",
        -10.343484012955994
      ],
      [
        "Ġevaluate",
        -10.34365889952031
      ],
      [
        "Ġrotation",
        -10.343693882516304
      ],
      [
        "Ġmountain",
        -10.344477038563353
      ],
      [
        "Ġpartial",
        -10.344549107753783
      ],
      [
        "Ġmild",
        -10.345171136191157
      ],
      [
        "Ġreplaced",
        -10.34534915828988
      ],
      [
        "Ġdirector",
        -10.34607284728578
      ],
      [
        "Ġreact",
        -10.346461141243784
      ],
      [
        "ĠTV",
        -10.347196883439633
      ],
      [
        "Ġclothes",
        -10.347371231335138
      ],
      [
        "ĠHave",
        -10.348141168243954
      ],
      [
        "Ġreaders",
        -10.349450629958069
      ],
      [
        "Ġnutritional",
        -10.349755735922043
      ],
      [
        "Ġorigin",
        -10.350111459954194
      ],
      [
        "Ġflexi",
        -10.350578911757694
      ],
      [
        "Ġdynamic",
        -10.350908547143405
      ],
      [
        "Ġrecommendation",
        -10.351270413875524
      ],
      [
        "Ġmolecular",
        -10.352187273292015
      ],
      [
        "ĠTime",
        -10.352662105844914
      ],
      [
        "see",
        -10.352744861647182
      ],
      [
        "Ġconsum",
        -10.353007850201871
      ],
      [
        "Ġsexual",
        -10.353271773464373
      ],
      [
        "ĠProject",
        -10.354006204615876
      ],
      [
        "ĠToday",
        -10.354029670974525
      ],
      [
        "izing",
        -10.35435646465844
      ],
      [
        "pp",
        -10.354990059331346
      ],
      [
        "Ġarrive",
        -10.355070384483094
      ],
      [
        "Ġhumid",
        -10.355142895726043
      ],
      [
        "Ġborder",
        -10.355160978327682
      ],
      [
        "ĠCommon",
        -10.355589117366984
      ],
      [
        "Ġacids",
        -10.35624533890883
      ],
      [
        "Ġfix",
        -10.357050775634407
      ],
      [
        "ĠCare",
        -10.357250701168963
      ],
      [
        "\"The",
        -10.357855247598351
      ],
      [
        "Ġderive",
        -10.357874005953878
      ],
      [
        "ke",
        -10.35810796905861
      ],
      [
        "Ġdeposit",
        -10.358268558480074
      ],
      [
        "Ġanswers",
        -10.358536640407086
      ],
      [
        "Ġnode",
        -10.358816427983992
      ],
      [
        "Ġauthors",
        -10.35905613652244
      ],
      [
        "Ġconversation",
        -10.359211569025092
      ],
      [
        "Ġphotography",
        -10.35942449805688
      ],
      [
        "Ġflour",
        -10.360491718134387
      ],
      [
        "Ġbiodiversity",
        -10.360729693711631
      ],
      [
        "ware",
        -10.360815148162192
      ],
      [
        "Ġattribute",
        -10.36265660171246
      ],
      [
        "Ġmassive",
        -10.363154753336998
      ],
      [
        "Ġdiagnose",
        -10.36323394846552
      ],
      [
        "ĠLong",
        -10.363426406075853
      ],
      [
        "Ġexperienc",
        -10.364513548472242
      ],
      [
        "Ġdisabilit",
        -10.364544453787904
      ],
      [
        "Ġstring",
        -10.364862632419438
      ],
      [
        "AND",
        -10.365503375014054
      ],
      [
        "ĠSun",
        -10.365899531284793
      ],
      [
        "Ġvibrant",
        -10.36643838363265
      ],
      [
        "Ġprocedures",
        -10.366467104642972
      ],
      [
        "ĠBlue",
        -10.36711763970633
      ],
      [
        "Ġpackag",
        -10.367195044630618
      ],
      [
        "Ġdeeper",
        -10.367529865827372
      ],
      [
        "Ġbrush",
        -10.36821979733427
      ],
      [
        "?\"",
        -10.368392046587507
      ],
      [
        "Ġsex",
        -10.368441289050566
      ],
      [
        "ĠAct",
        -10.36846687154397
      ],
      [
        "Ġshapes",
        -10.368631687721043
      ],
      [
        "Ġantibiotic",
        -10.369040802074124
      ],
      [
        "Ġsitting",
        -10.3694322038326
      ],
      [
        "Ġdiamond",
        -10.369679191279698
      ],
      [
        "Ġworkers",
        -10.37141565488621
      ],
      [
        "Ġindex",
        -10.372215043743854
      ],
      [
        "ĠAnother",
        -10.37251911035803
      ],
      [
        "--",
        -10.373653192412434
      ],
      [
        "Ġwor",
        -10.3737729645429
      ],
      [
        "Ġachiev",
        -10.37395470197869
      ],
      [
        "ĠNatural",
        -10.374010629997091
      ],
      [
        "Ġdelivery",
        -10.37412424856896
      ],
      [
        "Ġnarrow",
        -10.374660455881893
      ],
      [
        "Ġequation",
        -10.375097225004897
      ],
      [
        "Ġprofit",
        -10.375539046240522
      ],
      [
        "her",
        -10.375976950937352
      ],
      [
        "ĠTHE",
        -10.376196822744808
      ],
      [
        "Ġbranch",
        -10.376411500536255
      ],
      [
        "Ã©",
        -10.376586019231986
      ],
      [
        "Ġcarrier",
        -10.37698529547786
      ],
      [
        "Ġdose",
        -10.377320250805464
      ],
      [
        "mas",
        -10.377402619822092
      ],
      [
        "Ġstability",
        -10.377522906560433
      ],
      [
        "Ġvertical",
        -10.378529075416882
      ],
      [
        "Not",
        -10.379048686809677
      ],
      [
        "Ġspeech",
        -10.37989470792764
      ],
      [
        "Ġsold",
        -10.379932499930025
      ],
      [
        "Ġteams",
        -10.380458493956931
      ],
      [
        "Ġincome",
        -10.380607541144348
      ],
      [
        "Ġpartner",
        -10.381318940562556
      ],
      [
        "Ġanimation",
        -10.383128182177956
      ],
      [
        "Ġdebri",
        -10.385135176933488
      ],
      [
        "Ġseconds",
        -10.38514956516487
      ],
      [
        "Ġhybrid",
        -10.386229770506006
      ],
      [
        "Ġadjustment",
        -10.386410553107767
      ],
      [
        "rich",
        -10.387232273821226
      ],
      [
        "Ġmoved",
        -10.387665496887005
      ],
      [
        "Ġmanager",
        -10.388160144279478
      ],
      [
        "Ġouter",
        -10.389088454775012
      ],
      [
        "rising",
        -10.389506347756283
      ],
      [
        "ĠSee",
        -10.390626350117108
      ],
      [
        "Ġpan",
        -10.39104479022742
      ],
      [
        "ĠService",
        -10.391101395001186
      ],
      [
        "making",
        -10.391964109703585
      ],
      [
        "\"We",
        -10.392664043147112
      ],
      [
        "ĠPer",
        -10.392892826963948
      ],
      [
        "Ġmiss",
        -10.393556691445164
      ],
      [
        "ĠRead",
        -10.394124719519404
      ],
      [
        "ĠMe",
        -10.394577766402996
      ],
      [
        "Ġpathway",
        -10.394728448449769
      ],
      [
        "Ġdomain",
        -10.394928033281644
      ],
      [
        "you",
        -10.395894084195968
      ],
      [
        "Ġhappening",
        -10.396035316825216
      ],
      [
        "selves",
        -10.396250248842373
      ],
      [
        "Ġversatile",
        -10.397402404153787
      ],
      [
        "`",
        -10.39742943981187
      ],
      [
        "intended",
        -10.398152117323686
      ],
      [
        "Ġvolunteer",
        -10.398189568293043
      ],
      [
        "Ġyouth",
        -10.398527463770352
      ],
      [
        "Ġformer",
        -10.39873992104311
      ],
      [
        "Ġrespirator",
        -10.398765761231251
      ],
      [
        "Ġdelay",
        -10.39909891590101
      ],
      [
        "Ġjobs",
        -10.399305241242956
      ],
      [
        "Ġrepeat",
        -10.40022597183964
      ],
      [
        "Ġpotato",
        -10.400289192113114
      ],
      [
        "Ġbabies",
        -10.400299200323175
      ],
      [
        "Ġgather",
        -10.402225651026548
      ],
      [
        "lin",
        -10.402728478227065
      ],
      [
        "Ġidentit",
        -10.403174374235054
      ],
      [
        "Ġpuppy",
        -10.403246263972507
      ],
      [
        "ĠWashington",
        -10.403389067303902
      ],
      [
        "Ġsales",
        -10.403975923611917
      ],
      [
        "Ġwrote",
        -10.40433168280398
      ],
      [
        "Ġfacilitate",
        -10.405246593197496
      ],
      [
        "ĠCounty",
        -10.405406017026074
      ],
      [
        "Ġdepartment",
        -10.405559369271828
      ],
      [
        "Ġfacing",
        -10.406073992545302
      ],
      [
        "Ġbaking",
        -10.406079123865345
      ],
      [
        "Ġasking",
        -10.407607329122918
      ],
      [
        "Ġclimb",
        -10.40770624003508
      ],
      [
        "sistance",
        -10.407810261600776
      ],
      [
        "neath",
        -10.407977010759328
      ],
      [
        "Pro",
        -10.408589429063838
      ],
      [
        "Ġcustom",
        -10.408856083068573
      ],
      [
        "Ġchair",
        -10.408881114219744
      ],
      [
        "iness",
        -10.409311595934517
      ],
      [
        "Ġmeasuring",
        -10.411894280173769
      ],
      [
        "Ġcommitment",
        -10.411945513456445
      ],
      [
        "Ġtheme",
        -10.412550202663326
      ],
      [
        "Ġtone",
        -10.41278954716948
      ],
      [
        "Ġstands",
        -10.41317927327212
      ],
      [
        "Ġkg",
        -10.413554088177872
      ],
      [
        "ĠDisease",
        -10.41441730362849
      ],
      [
        "ĠUp",
        -10.414860912078492
      ],
      [
        "ĠOcean",
        -10.415066238097342
      ],
      [
        "Ġinspire",
        -10.415373257816302
      ],
      [
        "Ġcentre",
        -10.416058211386671
      ],
      [
        "Ġhomes",
        -10.41675530482602
      ],
      [
        "Ġinch",
        -10.41743733320983
      ],
      [
        "Ġcampaign",
        -10.417751724219574
      ],
      [
        "Ġsimulation",
        -10.417822176858955
      ],
      [
        "Ġcovers",
        -10.419363611309423
      ],
      [
        "Ġsides",
        -10.419383581701366
      ],
      [
        "Ġpure",
        -10.420734411519772
      ],
      [
        "Ġtail",
        -10.420916928039198
      ],
      [
        "Ġmembrane",
        -10.42111230595382
      ],
      [
        "Ġ{",
        -10.421831820716854
      ],
      [
        "ize",
        -10.422527526612711
      ],
      [
        "ĠChildren",
        -10.422859645932096
      ],
      [
        "Ġdiagram",
        -10.423642434322767
      ],
      [
        "Ġbiology",
        -10.423723202210825
      ],
      [
        "Ġaward",
        -10.424084690036471
      ],
      [
        "Dr",
        -10.42412370264812
      ],
      [
        "Ġequipp",
        -10.424559947330728
      ],
      [
        "Ġï¿½",
        -10.424907981963266
      ],
      [
        "Ġprogramme",
        -10.42586967308053
      ],
      [
        "Ġgraphic",
        -10.427011121366585
      ],
      [
        "Ġtrick",
        -10.427403062640389
      ],
      [
        "Ġtip",
        -10.427442667647286
      ],
      [
        "Ġcompleted",
        -10.427846937721274
      ],
      [
        "Ġsick",
        -10.428277679009286
      ],
      [
        "OS",
        -10.428797359768891
      ],
      [
        "Ġbehaviour",
        -10.42907326352629
      ],
      [
        "osis",
        -10.429100278929932
      ],
      [
        "Ġdealing",
        -10.429565186035308
      ],
      [
        "-size",
        -10.43050325476252
      ],
      [
        "Ġsteam",
        -10.431018727788263
      ],
      [
        "Ġimpossib",
        -10.43115513311412
      ],
      [
        "but",
        -10.431975646787205
      ],
      [
        "Ġmanufacturer",
        -10.432021589104377
      ],
      [
        "Ġobserv",
        -10.4322844120229
      ],
      [
        "Ġspirit",
        -10.433098294535084
      ],
      [
        "Ġpink",
        -10.434059624914577
      ],
      [
        "ĠLondon",
        -10.434113830647291
      ],
      [
        "Ġvet",
        -10.434529768247264
      ],
      [
        "Ġserving",
        -10.435335954857193
      ],
      [
        "ĠLight",
        -10.435347815313936
      ],
      [
        "Ġskate",
        -10.435463722373324
      ],
      [
        "Ġrecycling",
        -10.435555149002155
      ],
      [
        "Ġcharacters",
        -10.43562954883718
      ],
      [
        "Ġinsect",
        -10.436222404157103
      ],
      [
        "right",
        -10.436391327130192
      ],
      [
        "Ġregulator",
        -10.4367419780614
      ],
      [
        "Ġorgans",
        -10.437286746856744
      ],
      [
        "Ġsoap",
        -10.437460326230156
      ],
      [
        "ĠThrough",
        -10.43757558844962
      ],
      [
        "Ġpolic",
        -10.437852496534925
      ],
      [
        "ĠChrist",
        -10.43860712100635
      ],
      [
        "back",
        -10.438786822782689
      ],
      [
        "Ġflying",
        -10.439029059094777
      ],
      [
        "Ġdied",
        -10.439315211392875
      ],
      [
        "Ġtruth",
        -10.44052287984456
      ],
      [
        "hi",
        -10.440636877740571
      ],
      [
        "Ġpromoting",
        -10.440860944544934
      ],
      [
        "Ġpreserve",
        -10.441045127937418
      ],
      [
        "Ġmanufacturers",
        -10.441760422946054
      ],
      [
        "ster",
        -10.443038577574669
      ],
      [
        "Ġvector",
        -10.443490404468823
      ],
      [
        "ĠMS",
        -10.44361498651722
      ],
      [
        "Ġecological",
        -10.443667915674808
      ],
      [
        "Ġfeather",
        -10.44460607973883
      ],
      [
        "Ġshoot",
        -10.444761841033603
      ],
      [
        "Ġbough",
        -10.445110439107443
      ],
      [
        "Ġcomput",
        -10.44559977271813
      ],
      [
        "Ġsky",
        -10.446008960149808
      ],
      [
        "ĠClean",
        -10.44656731330619
      ],
      [
        "Ġbathroom",
        -10.447572924502415
      ],
      [
        "Ġrating",
        -10.447836275595757
      ],
      [
        "Ġlimitation",
        -10.448788598881135
      ],
      [
        "Ġsatellite",
        -10.44889791512832
      ],
      [
        "Ġbath",
        -10.449240967675236
      ],
      [
        "Ġconcerned",
        -10.449471134190636
      ],
      [
        "Keep",
        -10.44965958883457
      ],
      [
        "Ġcheckbook",
        -10.450717917287363
      ],
      [
        "Safety",
        -10.450962948590488
      ],
      [
        "ĠTwo",
        -10.451832936193018
      ],
      [
        "Ġlitter",
        -10.451913868557364
      ],
      [
        "ĠHouse",
        -10.452155957481445
      ],
      [
        "Ġpad",
        -10.452237056834107
      ],
      [
        "New",
        -10.452987305427502
      ],
      [
        "Ġturns",
        -10.453393435838043
      ],
      [
        "Ġuniform",
        -10.453674621571524
      ],
      [
        "Ġcouldn",
        -10.45401084198842
      ],
      [
        "PS",
        -10.454020828094404
      ],
      [
        "ler",
        -10.45575452036573
      ],
      [
        "Ġparallel",
        -10.45600327730379
      ],
      [
        "Ġappeal",
        -10.456281142022684
      ],
      [
        "Ġveterinarian",
        -10.456677787002436
      ],
      [
        "Ġremarkabl",
        -10.456764173327407
      ],
      [
        "ĠHer",
        -10.45712898681878
      ],
      [
        "Ġstrip",
        -10.457201727364607
      ],
      [
        "Ġthanks",
        -10.457805552646995
      ],
      [
        "Ġhappi",
        -10.457998318943446
      ],
      [
        "ĠCon",
        -10.458155625864707
      ],
      [
        "Ġcards",
        -10.45840679646932
      ],
      [
        "Ġmirror",
        -10.458914512746084
      ],
      [
        "Ġeffectiveness",
        -10.459154278672584
      ],
      [
        "Ġreverse",
        -10.459169719194207
      ],
      [
        "Ġbrief",
        -10.459735941913324
      ],
      [
        "Ġreef",
        -10.459738837253951
      ],
      [
        "Every",
        -10.460150211755028
      ],
      [
        "ĠArt",
        -10.460185038600605
      ],
      [
        "ĠInternet",
        -10.460358097220002
      ],
      [
        "Ġintense",
        -10.460454993471648
      ],
      [
        "Ġtough",
        -10.460864307386547
      ],
      [
        "Ġintroduction",
        -10.461251616575025
      ],
      [
        "Which",
        -10.462392607873545
      ],
      [
        "Ġreached",
        -10.464088757192334
      ],
      [
        "are",
        -10.465297428782758
      ],
      [
        "Ġlense",
        -10.465524144466835
      ],
      [
        "Ġdrill",
        -10.465883383413292
      ],
      [
        "Ġresponsibility",
        -10.465899723592427
      ],
      [
        "Ġhorses",
        -10.465919063544298
      ],
      [
        "Ġsight",
        -10.466657414215389
      ],
      [
        "Ġprofile",
        -10.466944574101156
      ],
      [
        "ating",
        -10.467131637721591
      ],
      [
        "Ġbridge",
        -10.4685507472781
      ],
      [
        "Ġcontribut",
        -10.46887622375539
      ],
      [
        "Ġrear",
        -10.469192138723812
      ],
      [
        "Ġclassic",
        -10.470407678462552
      ],
      [
        "Ġtransformation",
        -10.471712826699871
      ],
      [
        "Ġdrought",
        -10.47206333734223
      ],
      [
        "Ġease",
        -10.472200870803386
      ],
      [
        "Ġdense",
        -10.473919334288114
      ],
      [
        "Ġinstitution",
        -10.474052943362922
      ],
      [
        "Ġnovel",
        -10.474226929134
      ],
      [
        "Ġminor",
        -10.47520927670823
      ],
      [
        "ĠSometime",
        -10.475855860921904
      ],
      [
        "ĠWhite",
        -10.475991267489931
      ],
      [
        "ĠChange",
        -10.476721676131389
      ],
      [
        "ĠFigure",
        -10.476915763580228
      ],
      [
        "Ġdestroy",
        -10.477279058917006
      ],
      [
        "Ġcalls",
        -10.477800984673893
      ],
      [
        "Ġproven",
        -10.478197957605625
      ],
      [
        "Ġnervous",
        -10.478283687063865
      ],
      [
        "Share",
        -10.47842621332551
      ],
      [
        "Ġbeginner",
        -10.478440514944264
      ],
      [
        "Ġwings",
        -10.478560507902683
      ],
      [
        "some",
        -10.478582228411508
      ],
      [
        "group",
        -10.478611757161252
      ],
      [
        "Ġfacilities",
        -10.479259912587562
      ],
      [
        "Ġdetermin",
        -10.480125544173704
      ],
      [
        "Ġremoval",
        -10.48075218478365
      ],
      [
        "Ġdollar",
        -10.48085286603554
      ],
      [
        "Ġcategory",
        -10.48099023957203
      ],
      [
        "Ġsuspect",
        -10.48140856142021
      ],
      [
        "Ġlifespan",
        -10.48155243996984
      ],
      [
        "Ġhimself",
        -10.481725671618094
      ],
      [
        "Ġconvenient",
        -10.482409850257088
      ],
      [
        "Ġdedicate",
        -10.482416155968163
      ],
      [
        "off",
        -10.482493839588647
      ],
      [
        "Ġrecording",
        -10.482737058125892
      ],
      [
        "Ġexplains",
        -10.482927760769536
      ],
      [
        "Ġyes",
        -10.4834298495883
      ],
      [
        "ĠPlease",
        -10.4835725073035
      ],
      [
        "Ġdistrict",
        -10.48454536096316
      ],
      [
        "ner",
        -10.485294537515855
      ],
      [
        "Ġflexibl",
        -10.485612122630974
      ],
      [
        "Ġcategori",
        -10.48578912846857
      ],
      [
        "ĠDevelopment",
        -10.485947354584958
      ],
      [
        "hose",
        -10.486221023473291
      ],
      [
        "Ġstruggle",
        -10.486933899511724
      ],
      [
        "Ġquote",
        -10.487304563033138
      ],
      [
        "all",
        -10.487436052876404
      ],
      [
[...]
