{
  "version": "1.0",
  "truncation": null,
  "padding": null,
  "added_tokens": [
    {
      "id": 0,
      "content": "<|bos|>",
      "single_word": false,
      "lstrip": false,
      "rstrip": false,
      "normalized": false,
      "special": true
    },
    {
      "id": 1,
      "content": "<|user_start|>",
      "single_word": false,
      "lstrip": false,
      "rstrip": false,
      "normalized": false,
      "special": true
    },
    {
      "id": 2,
      "content": "<|user_end|>",
      "single_word": false,
      "lstrip": false,
      "rstrip": false,
      "normalized": false,
      "special": true
    },
    {
      "id": 3,
      "content": "<|assistant_start|>",
      "single_word": false,
      "lstrip": false,
      "rstrip": false,
      "normalized": false,
      "special": true
    },
    {
      "id": 4,
      "content": "<|assistant_end|>",
      "single_word": false,
      "lstrip": false,
      "rstrip": false,
      "normalized": false,
      "special": true
    },
    {
      "id": 5,
      "content": "<|python_start|>",
      "single_word": false,
      "lstrip": false,
      "rstrip": false,
      "normalized": false,
      "special": true
    },
    {
      "id": 6,
      "content": "<|python_end|>",
      "single_word": false,
      "lstrip": false,
      "rstrip": false,
      "normalized": false,
      "special": true
    },
    {
      "id": 7,
      "content": "<|output_start|>",
      "single_word": false,
      "lstrip": false,
      "rstrip": false,
      "normalized": false,
      "special": true
    },
    {
      "id": 8,
      "content": "<|output_end|>",
      "single_word": false,
      "lstrip": false,
      "rstrip": false,
      "normalized": false,
      "special": true
    },
    {
      "id": 9,
      "content": "<|unk|>",
      "single_word": false,
      "lstrip": false,
      "rstrip": false,
      "normalized": false,
      "special": true
    }
  ],
  "normalizer": null,
  "pre_tokenizer": {
    "type": "Sequence",
    "pretokenizers": [
      {
        "type": "Split",
        "pattern": {
          "Regex": "'(?i:[sdmt]|ll|ve|re)|[^\\r\\n\\p{L}\\p{N}]?+\\p{L}+|\\p{N}{1,2}| ?[^\\s\\p{L}\\p{N}]++[\\r\\n]*|\\s*[\\r\\n]|\\s+(?!\\S)|\\s+"
        },
        "behavior": "Isolated",
        "invert": false
      },
      {
        "type": "ByteLevel",
        "add_prefix_space": false,
        "trim_offsets": true,
        "use_regex": false
      }
    ]
  },
  "post_processor": {
    "type": "TemplateProcessing",
    "single": [
      {
        "Sequence": {
          "id": "A",
          "type_id": 0
        }
      }
    ],
    "pair": [
      {
        "Sequence": {
          "id": "A",
          "type_id": 0
        }
      },
      {
        "Sequence": {
          "id": "B",
          "type_id": 1
        }
      }
    ],
    "special_tokens": {}
  },
  "decoder": null,
  "model": {
    "type": "Unigram",
    "unk_id": 9,
    "vocab": [
      [
        "<|bos|>",
        0.0
      ],
      [
        "<|user_start|>",
        0.0
      ],
      [
        "<|user_end|>",
        0.0
      ],
      [
        "<|assistant_start|>",
        0.0
      ],
      [
        "<|assistant_end|>",
        0.0
      ],
      [
        "<|python_start|>",
        0.0
      ],
      [
        "<|python_end|>",
        0.0
      ],
      [
        "<|output_start|>",
        0.0
      ],
      [
        "<|output_end|>",
        0.0
      ],
      [
        "<|unk|>",
        0.0
      ],
      [
        "s",
        -3.1029815940486714
      ],
      [
        "Ġ",
        -3.1706721281489685
      ],
      [
        "Ġthe",
        -3.3949206569245636
      ],
      [
        ",",
        -3.4492772550285533
      ],
      [
        ".",
        -3.718790637825364
      ],
      [
        "Ġand",
        -3.950815076547936
      ],
      [
        "Ġof",
        -3.986699966263496
      ],
      [
        "Ġto",
        -4.000224976734009
      ],
      [
        "a",
        -4.010126404145623
      ],
      [
        "ing",
        -4.429276717859485
      ],
      [
        "Ġin",
        -4.506966581199373
      ],
      [
        "Ġis",
        -4.61971303975627
      ],
      [
        "ed",
        -4.75824172625939
      ],
      [
        "'",
        -4.928985768351641
      ],
      [
        "d",
        -4.9699169916890416
      ],
      [
        "0",
        -5.013473624372306
      ],
      [
        "Ġthat",
        -5.0405552017726
      ],
      [
        "Ġfor",
        -5.049476313594814
      ],
      [
        "y",
        -5.050637075563111
      ],
      [
        "1",
        -5.142210158467087
      ],
      [
        "ly",
        -5.185189376797908
      ],
      [
        ":",
        -5.221923901771969
      ],
      [
        "Ġare",
        -5.25227326884033
      ],
      [
        "Ġit",
        -5.31560598548192
      ],
      [
        "Ċ",
        -5.315751934562794
      ],
      [
        "Ġwith",
        -5.316669778640183
      ],
      [
        "Ġyou",
        -5.320863333943715
      ],
      [
        ".Ċ",
        -5.334945469703861
      ],
      [
        "2",
        -5.356120443120121
      ],
      [
        ".ĊĊ",
        -5.371230119494204
      ],
      [
        "e",
        -5.435645728188142
      ],
      [
        "Ġbe",
        -5.467572371524819
      ],
      [
        "t",
        -5.4688973226387585
      ],
      [
        "Ġon",
        -5.495124658272932
      ],
      [
        "Ġcan",
        -5.500829623890926
      ],
      [
        "Ġor",
        -5.51735679549806
      ],
      [
        "Ġas",
        -5.534711886603253
      ],
      [
        "-",
        -5.5591649300505726
      ],
      [
        "ĊĊ",
        -5.588493927896831
      ],
      [
        "Ġyour",
        -5.725523166307735
      ],
      [
        "Ġ(",
        -5.776128526981015
      ],
      [
        "\"",
        -5.828255530666338
      ],
      [
        "ĠThe",
        -5.868718934019213
      ],
      [
        "Ġhave",
        -5.889557762564921
      ],
      [
        "Ġfrom",
        -5.901665830022168
      ],
      [
        "ĠI",
        -5.943644621314714
      ],
      [
        "Ġby",
        -5.9588332630891205
      ],
      [
        "?",
        -5.959429735280731
      ],
      [
        "n",
        -5.997289841463562
      ],
      [
        "3",
        -5.997424784303167
      ],
      [
        "Ġan",
        -6.017735531567219
      ],
      [
        ")",
        -6.033609587128021
      ],
      [
        "5",
        -6.046309297440152
      ],
      [
        "Ġthis",
        -6.062243277952765
      ],
      [
        "Ġat",
        -6.122789769864209
      ],
      [
        "Ġnot",
        -6.129628068705525
      ],
      [
        "Ġwill",
        -6.2233392304484365
      ],
      [
        "Ġtheir",
        -6.2368305206359835
      ],
      [
        "4",
        -6.242988768259957
      ],
      [
        "Ġwas",
        -6.316348001966068
      ],
      [
        "Ġmore",
        -6.333843392044312
      ],
      [
        "9",
        -6.345184891324413
      ],
      [
        "Ġthey",
        -6.359911450973229
      ],
      [
        "The",
        -6.422169281691982
      ],
      [
        "6",
        -6.462658530963237
      ],
      [
        "8",
        -6.490271161950115
      ],
      [
        "Ġhas",
        -6.493313345422489
      ],
      [
        "Ġwhich",
        -6.496044152017388
      ],
      [
        "Ġbut",
        -6.497172635969031
      ],
      [
        "er",
        -6.504159304602348
      ],
      [
        "Ġone",
        -6.528287596158279
      ],
      [
        "Ġwe",
        -6.54734615585596
      ],
      [
        "Question",
        -6.572228014041963
      ],
      [
        "Ġalso",
        -6.588428868117868
      ],
      [
        "ĠAnswer",
        -6.597477699108948
      ],
      [
        "ies",
        -6.606594816414923
      ],
      [
        "i",
        -6.615575098633768
      ],
      [
        "7",
        -6.623701354503661
      ],
      [
        "Ġother",
        -6.6529481997568585
      ],
      [
        "Ġall",
        -6.6708012991083105
      ],
      [
        "Ġabout",
        -6.672445155762967
      ],
      [
        "o",
        -6.71514545918502
      ],
      [
        "ĠIt",
        -6.72541669364508
      ],
      [
        "Ġwhen",
        -6.7695517709459825
      ],
      [
        "r",
        -6.771188874427647
      ],
      [
        "ĠA",
        -6.77413137313563
      ],
      [
        "Ġtime",
        -6.800854532622333
      ],
      [
        "Ġthem",
        -6.801100748793729
      ],
      [
        "Ġif",
        -6.808656537115308
      ],
      [
        "Ġdo",
        -6.815821037247703
      ],
      [
        "Ġinto",
        -6.832199735303883
      ],
      [
        "Ġlike",
        -6.837961128897938
      ],
      [
        "Ġsome",
        -6.839066500144064
      ],
      [
        "Ġhow",
        -6.842751420959667
      ],
      [
        "Ġso",
        -6.853711454205387
      ],
      [
        "ĠThis",
        -6.882390419858851
      ],
      [
        "Ġuse",
        -6.893814389829538
      ],
      [
        "Ġup",
        -6.89501238388984
      ],
      [
        "re",
        -6.896762045083587
      ],
      [
        "Ġout",
        -6.910962887072396
      ],
      [
        "Ġthan",
        -6.913193930222892
      ],
      [
        "ĠWhat",
        -6.9214566488968
      ],
      [
        "m",
        -6.926039845790418
      ],
      [
        "Ġmay",
        -6.935568313426272
      ],
      [
        "Ġthese",
        -6.948684204860676
      ],
      [
        "on",
        -6.975858068273736
      ],
      [
        "Ġthere",
        -6.997816079770212
      ],
      [
        "A",
        -7.0087911796492985
      ],
      [
        "l",
        -7.021924815534254
      ],
      [
        "Ġwater",
        -7.036751095942384
      ],
      [
        "Ġused",
        -7.056856628878727
      ],
      [
        "Ġwhat",
        -7.066738985097254
      ],
      [
        "Ġneed",
        -7.068467673407191
      ],
      [
        "ĠIn",
        -7.085988973915786
      ],
      [
        "Ġmost",
        -7.091057836120514
      ],
      [
        "Ġmake",
        -7.095241071294367
      ],
      [
        "Ġwere",
        -7.101431556748993
      ],
      [
        "Ġour",
        -7.10679781911378
      ],
      [
        "Ġsuch",
        -7.1105851952673795
      ],
      [
        "/",
        -7.111154727170332
      ],
      [
        "Ġnew",
        -7.159536720602473
      ],
      [
        "Ġany",
        -7.1644654658689735
      ],
      [
        "able",
        -7.167219256328485
      ],
      [
        "Ġget",
        -7.1744202469449085
      ],
      [
        "Ġpeople",
        -7.179769173285591
      ],
      [
        "Ġbeen",
        -7.184890521398117
      ],
      [
        "Ġhelp",
        -7.203357383587813
      ],
      [
        "Ġwould",
        -7.224332204858246
      ],
      [
        "Ġshould",
        -7.225444871422477
      ],
      [
        "Ġits",
        -7.25444407260559
      ],
      [
        "Ġjust",
        -7.260855069586022
      ],
      [
        "I",
        -7.265212539783706
      ],
      [
        "al",
        -7.2807379341280125
      ],
      [
        "Ġwho",
        -7.2859469038992195
      ],
      [
        "Ġonly",
        -7.288856640313048
      ],
      [
        "Ġmany",
        -7.315187099766307
      ],
      [
        "?Ċ",
        -7.316108194496236
      ],
      [
        "Ġover",
        -7.316484207195952
      ],
      [
        "Ġwork",
        -7.332535985227215
      ],
      [
        "Ġtwo",
        -7.334984489433337
      ],
      [
        ";",
        -7.337985783424525
      ],
      [
        "Ġwell",
        -7.357045911639334
      ],
      [
        "c",
        -7.360177129000437
      ],
      [
        "Ġhigh",
        -7.364855251285922
      ],
      [
        "Ġmy",
        -7.376749895133447
      ],
      [
        "Ġdifferent",
        -7.387454034730219
      ],
      [
        "Ġfirst",
        -7.391313862876492
      ],
      [
        "Ġthrough",
        -7.3938011116512605
      ],
      [
        "Ġway",
        -7.407579628377242
      ],
      [
        "Ġlong",
        -7.4198655279967
      ],
      [
        "Ġbetween",
        -7.420861442289153
      ],
      [
        "Ġno",
        -7.432381018797052
      ],
      [
        "Ġbecause",
        -7.4422304126297
      ],
      [
        "Ġvery",
        -7.450531513177726
      ],
      [
        "Ġsystem",
        -7.465477617568228
      ],
      [
        "Ġwhere",
        -7.467482824523184
      ],
      [
        "ity",
        -7.473413393121918
      ],
      [
        "Ġtake",
        -7.48947941517301
      ],
      [
        "Ġeven",
        -7.490732355458896
      ],
      [
        "Ġcould",
        -7.496783604416809
      ],
      [
        "ĠIf",
        -7.49820983137276
      ],
      [
        "Ġpart",
        -7.505331846547572
      ],
      [
        "ĠC",
        -7.537664856568155
      ],
      [
        "Ġchange",
        -7.543922602516107
      ],
      [
        "ĠThey",
        -7.554608088004453
      ],
      [
        "Ġmuch",
        -7.55784914385252
      ],
      [
        "Ġhe",
        -7.569306908716184
      ],
      [
        "Ġhad",
        -7.573984144489335
      ],
      [
        "Ġhis",
        -7.57955808163466
      ],
      [
        "Ġgood",
        -7.599871197855993
      ],
      [
        "Ġeach",
        -7.604171219113642
      ],
      [
        "Ġsmall",
        -7.6085462478914305
      ],
      [
        "Ġimportant",
        -7.621179405947537
      ],
      [
        "In",
        -7.627259011514774
      ],
      [
        "ĠYou",
        -7.630994373810953
      ],
      [
        "Ġknow",
        -7.635164125861479
      ],
      [
        "Ġdoes",
        -7.640359636831477
      ],
      [
        "Ġfood",
        -7.644579938847938
      ],
      [
        "Ġwant",
        -7.651355029528743
      ],
      [
        "!",
        -7.653129270162026
      ],
      [
        "Ġyears",
        -7.658846263707181
      ],
      [
        "Ġwhile",
        -7.659200370312014
      ],
      [
        "Ġus",
        -7.661851471325891
      ],
      [
        "ĠâĢĵ",
        -7.663688605245667
      ],
      [
        "Ġenergy",
        -7.667499166743561
      ],
      [
        "in",
        -7.671704684304121
      ],
      [
        "Ġresult",
        -7.672626087403938
      ],
      [
        "using",
        -7.675153605696254
      ],
      [
        "Ġdesign",
        -7.682916313566492
      ],
      [
        "Ġhealth",
        -7.6829972412719485
      ],
      [
        ").",
        -7.68604583247158
      ],
      [
        "Ġnumber",
        -7.687618023318569
      ],
      [
        "Ġsee",
        -7.693101631117447
      ],
      [
        "Ġafter",
        -7.694108824541928
      ],
      [
        "Ġdon",
        -7.698974199774629
      ],
      [
        "h",
        -7.719793600783202
      ],
      [
        "out",
        -7.724405680299494
      ],
      [
        "g",
        -7.728973926738725
      ],
      [
        "Ġhuman",
        -7.732473163490447
      ],
      [
        "p",
        -7.734004998906949
      ],
      [
        "ic",
        -7.734265015089243
      ],
      [
        "Ġsame",
        -7.748062779963613
      ],
      [
        "Ġworld",
        -7.754738116305029
      ],
      [
        "Ġbefore",
        -7.760569877876177
      ],
      [
        "during",
        -7.761319654428032
      ],
      [
        "Ġaround",
        -7.763289665939299
      ],
      [
        "Ġinclude",
        -7.770362623252845
      ],
      [
        "Ġprovide",
        -7.775082248470516
      ],
      [
        "ĠB",
        -7.775696625023322
      ],
      [
        "those",
        -7.776921069809712
      ],
      [
        "Ġgreat",
        -7.7828821720310355
      ],
      [
        "ve",
        -7.783725907574775
      ],
      [
        "Ġlight",
        -7.790973371572997
      ],
      [
        "Ġlife",
        -7.796061272730491
      ],
      [
        "Ġbeing",
        -7.80121731579743
      ],
      [
        "Ġfound",
        -7.803183084828667
      ],
      [
        "Ġboth",
        -7.804367898221262
      ],
      [
        "is",
        -7.815793120404935
      ],
      [
        "Ġbest",
        -7.826895850213662
      ],
      [
        "Ġprocess",
        -7.831203635925354
      ],
      [
        "Ġcause",
        -7.839492942111113
      ],
      [
        "Ġdata",
        -7.841154388140772
      ],
      [
        "Ġright",
        -7.843728756047605
      ],
      [
        "Ġfind",
        -7.844632716582835
      ],
      [
        "Ġplace",
        -7.846571812562404
      ],
      [
        "b",
        -7.85608941848972
      ],
      [
        "Ġoften",
        -7.858498193940822
      ],
      [
        "Ġmade",
        -7.860091923594048
      ],
      [
        "),",
        -7.86889086012941
      ],
      [
        "Ġexample",
        -7.874558880067134
      ],
      [
        "Ġback",
        -7.874719964992544
      ],
      [
        "Ġadd",
        -7.884013714866411
      ],
      [
        "ĠFor",
        -7.8870549765837055
      ],
      [
        "Ġdown",
        -7.889134209580701
      ],
      [
        "Ġthink",
        -7.897316866475485
      ],
      [
        "Ġday",
        -7.902472588567422
      ],
      [
        "Ġincrease",
        -7.907193514829181
      ],
      [
        "Ġbody",
        -7.912265691387619
      ],
      [
        "S",
        -7.914229237254817
      ],
      [
        "u",
        -7.915440648628792
      ],
      [
        "ll",
        -7.920511272098368
      ],
      [
        "f",
        -7.927192996625594
      ],
      [
        "Ġform",
        -7.929446969540674
      ],
      [
        "Ġdevelop",
        -7.937777071811805
      ],
      [
        "What",
        -7.940569555353029
      ],
      [
        "Ġinformation",
        -7.943039086710478
      ],
      [
        "Ġsaid",
        -7.943168948170547
      ],
      [
        "Ġlook",
        -7.943453434091419
      ],
      [
        "Ġoff",
        -7.946545631736093
      ],
      [
        "%",
        -7.947134510934527
      ],
      [
        "D",
        -7.949020145807061
      ],
      [
        "Ġevery",
        -7.951043316923794
      ],
      [
        "Ġstart",
        -7.954493758829479
      ],
      [
        "Ġpower",
        -7.957673829899958
      ],
      [
        "Ġyear",
        -7.958898407177013
      ],
      [
        "Ġcreate",
        -7.962964725208808
      ],
      [
        "ĠWe",
        -7.963548847841526
      ],
      [
        "or",
        -7.9763542365542754
      ],
      [
        "C",
        -7.983046408148139
      ],
      [
        "um",
        -7.984217175334223
      ],
      [
        ":Ċ",
        -7.986987438569811
      ],
      [
        "Ġplant",
        -7.989046877672315
      ],
      [
        "Ġhome",
        -7.989176720638209
      ],
      [
        "Ġunder",
        -7.991042764835955
      ],
      [
        "Ġspecies",
        -7.992236344627964
      ],
      [
        "ĠThese",
        -7.99261068101586
      ],
      [
        "Ġresearch",
        -7.999953149637744
      ],
      [
        "Ġme",
        -8.000192988147234
      ],
      [
        "Ġown",
        -8.00215362671461
      ],
      [
        "Ġbetter",
        -8.005458889156778
      ],
      [
        "(",
        -8.006389878816462
      ],
      [
        "us",
        -8.007893739199147
      ],
      [
        "Ġnow",
        -8.01080541711229
      ],
      [
        "However",
        -8.01275514448519
      ],
      [
        "Ġgrow",
        -8.012816615209957
      ],
      [
        "Ġmight",
        -8.016403118854535
      ],
      [
        "This",
        -8.017356527032453
      ],
      [
        "Ġgo",
        -8.018982672677852
      ],
      [
        "Ġstudy",
        -8.019618290050683
      ],
      [
        "Ġher",
        -8.026854152233645
      ],
      [
        "Ġheat",
        -8.029747915380158
      ],
      [
        "th",
        -8.032261681654354
      ],
      [
        "Ġdog",
        -8.032432348319706
      ],
      [
        "ness",
        -8.032916792844722
      ],
      [
        "Ġsupport",
        -8.036249756605608
      ],
      [
        "Ġbecome",
        -8.0425132330581
      ],
      [
        "Ġfew",
        -8.042577514349007
      ],
      [
        "Ġair",
        -8.043826318394286
      ],
      [
        "Ġlarge",
        -8.053943685134747
      ],
      [
        "Ġpoint",
        -8.05483326754705
      ],
      [
        "Ġtemperature",
        -8.05611177976933
      ],
      [
        "Ġstill",
        -8.059093060568875
      ],
      [
        "ĠTo",
        -8.066040174866284
      ],
      [
        "Ġkeep",
        -8.069477441162123
      ],
      [
        "ĠBut",
        -8.071799057056511
      ],
      [
        "If",
        -8.073617798337667
      ],
      [
        "Ġexperience",
        -8.075463958882306
      ],
      [
        "ĠS",
        -8.092645691618651
      ],
      [
        "Ġstudents",
        -8.097755128816365
      ],
      [
        "Ġincluding",
        -8.1037780111021
      ],
      [
        "ability",
        -8.109766970703232
      ],
      [
        "Ġcase",
        -8.111224977565017
      ],
      [
        "Ġtoo",
        -8.112766231601793
      ],
      [
        "Ġtype",
        -8.114552614205504
      ],
      [
        "Ġissue",
        -8.115758251921331
      ],
      [
        "...",
        -8.118479379548088
      ],
      [
        "Ġcurrent",
        -8.11960244317043
      ],
      [
        "ĠD",
        -8.119965255715378
      ],
      [
        "Ġplants",
        -8.123174631761566
      ],
      [
        "and",
        -8.127737760535194
      ],
      [
        "Ġthree",
        -8.129069318699731
      ],
      [
        "Ġspecific",
        -8.129713962140048
      ],
      [
        "Ġmaking",
        -8.132564508112527
      ],
      [
        "Ġless",
        -8.149099144526957
      ],
      [
        "Ġend",
        -8.157365333398703
      ],
      [
        "Ġwithin",
        -8.164098635834236
      ],
      [
        "Ġschool",
        -8.168162687651046
      ],
      [
        "Ġlot",
        -8.168604020023164
      ],
      [
        "Ġallow",
        -8.171670593905029
      ],
      [
        "Ġknown",
        -8.173200515602657
      ],
      [
        "It",
        -8.173582762511256
      ],
      [
        "ally",
        -8.17571065153251
      ],
      [
        "k",
        -8.177070478757315
      ],
      [
        "Ġproduce",
        -8.17823212920785
      ],
      [
        "Ġcommon",
        -8.179210721671168
      ],
      [
        "Ġthings",
        -8.181615422003663
      ],
      [
        "ion",
        -8.190043629563789
      ],
      [
        "Ġoffer",
        -8.19062415325051
      ],
      [
        ":ĊĊ",
        -8.191504243314615
      ],
      [
        "Ġmust",
        -8.192162950456973
      ],
      [
        "How",
        -8.194529565982943
      ],
      [
        "x",
        -8.200052985563994
      ],
      [
        "Ġcontrol",
        -8.20027601280959
      ],
      [
        "Ġun",
        -8.200455643277042
      ],
      [
        "Ġreduce",
        -8.202506815809615
      ],
      [
        "Ġchildren",
        -8.204968082477421
      ],
      [
        "Ġindividual",
        -8.206239890614798
      ],
      [
        "Ġenvironment",
        -8.207893500098097
      ],
      [
        "Ġcalled",
        -8.210049439104866
      ],
      [
        "le",
        -8.216527221749388
      ],
      [
        "Ġset",
        -8.218527086885327
      ],
      [
        "Ġlearn",
        -8.220281572686844
      ],
      [
        "Ġsure",
        -8.229094128305364
      ],
      [
        "Ġlow",
        -8.229410928345184
      ],
      [
        "Ġpotential",
        -8.229971443839876
      ],
      [
        "Ġsize",
        -8.230747450186325
      ],
      [
        "Ġanother",
        -8.23487060639581
      ],
      [
        "ĠAnd",
        -8.236960923160849
      ],
      [
        "ĠWhen",
        -8.237437155835691
      ],
      [
        "Ġwhy",
        -8.240383708850137
      ],
      [
        "ation",
        -8.241752028478182
      ],
      [
        "Ġcar",
        -8.248255001712124
      ],
      [
        "Ġsource",
        -8.262661909289854
      ],
      [
        "Ġreally",
        -8.263814704060636
      ],
      [
        "Ġdue",
        -8.264358608250959
      ],
      [
        "w",
        -8.266359953468115
      ],
      [
        "Ġlead",
        -8.26949446820548
      ],
      [
        "Ġfollowing",
        -8.271368083250618
      ],
      [
        "Ġline",
        -8.272036078920767
      ],
      [
        "Ġvalue",
        -8.273248913428041
      ],
      [
        "ĠHow",
        -8.281875538514598
      ],
      [
        "Ġcolor",
        -8.284873035902198
      ],
      [
        "Ġensure",
        -8.292297550766442
      ],
      [
        "Ġspace",
        -8.292307899998189
      ],
      [
        "Ġvarious",
        -8.294310993814122
      ],
      [
        "Ġsurface",
        -8.297191323250086
      ],
      [
        "Ġdid",
        -8.30153856979768
      ],
      [
        "Ġsomething",
        -8.303202875321432
      ],
      [
        "Ġlevel",
        -8.30366342057546
      ],
      [
        "Ġgame",
        -8.307887351842158
      ],
      [
        "Ġrange",
        -8.30811318589976
      ],
      [
        ",\"",
        -8.310339637970856
      ],
      [
        "Ġprevent",
        -8.310476165136429
      ],
      [
        "Ġnatural",
        -8.310841067559355
      ],
      [
        "Ġhere",
        -8.315716701051212
      ],
      [
        "Ġlittle",
        -8.316526960017011
      ],
      [
        "Ġper",
        -8.3167330156224
      ],
      [
        "Ġuser",
        -8.322956007480625
      ],
      [
        "ĠThere",
        -8.323007171054082
      ],
      [
        "Ġcome",
        -8.324081602573834
      ],
      [
        "Ġshow",
        -8.327617914832974
      ],
      [
        "Ġname",
        -8.327618260954582
      ],
      [
        "Ġeffective",
        -8.329268488689708
      ],
      [
        "possible",
        -8.329505470200273
      ],
      [
        "Ġshe",
        -8.339603418392954
      ],
      [
        "ĠM",
        -8.347123822618489
      ],
      [
        "Ġamount",
        -8.348525908341278
      ],
      [
        "Ġlast",
        -8.34943296435383
      ],
      [
        "Ġtest",
        -8.349670211676624
      ],
      [
        "ĠSo",
        -8.354781972303286
      ],
      [
        "Ġrequire",
        -8.35972378450901
      ],
      [
        "Ġsoil",
        -8.360814983987334
      ],
      [
        "Ġgeneral",
        -8.362291290298339
      ],
      [
        "Ġalway",
        -8.362319304783325
      ],
      [
        "Ġbenefit",
        -8.363892718331755
      ],
      [
        "Ġimpact",
        -8.36568159719809
      ],
      [
        "Ġcells",
        -8.365683923946747
      ],
      [
        "age",
        -8.370837281451706
      ],
      [
        "Ġplay",
        -8.371290392961635
      ],
      [
        "Ġprogram",
        -8.372003079844543
      ],
      [
        "Ġ=",
        -8.373258304069711
      ],
      [
        "ĠT",
        -8.37540564304993
      ],
      [
        "Ġdevelopment",
        -8.37936680843158
      ],
      [
        "Ġavailable",
        -8.382930206453342
      ],
      [
        "Ġbased",
        -8.384417462193813
      ],
      [
        "B",
        -8.3858789158387
      ],
      [
        "Ġseveral",
        -8.3877023666345
      ],
      [
        "Ġpresent",
        -8.388390474571757
      ],
      [
        "Ġcomplete",
        -8.389164606619765
      ],
      [
        "Ġturn",
        -8.390695373575738
      ],
      [
        "Ġcare",
        -8.391380295218246
      ],
      [
        "Ġsignificant",
        -8.395204918049942
      ],
      [
        "Ġal",
        -8.398918502983635
      ],
      [
        "Ġstate",
        -8.399929488279245
      ],
      [
        "Ġorder",
        -8.402492765326878
      ],
      [
        "Ġmeans",
        -8.403519757162996
      ],
      [
        "Ġgive",
        -8.40829670271582
      ],
      [
        "an",
        -8.408986064033076
      ],
      [
        "Ġgoing",
        -8.41055051609069
      ],
      [
        "Ġdevice",
        -8.411327982534967
      ],
      [
        "Ġproblem",
        -8.411615028233204
      ],
      [
        "Ġfeel",
        -8.41188641803205
      ],
      [
        "Ġmain",
        -8.420252824273552
      ],
      [
        "Ġareas",
        -8.42330457168612
      ],
      [
        "the",
        -8.424758250442597
      ],
      [
        "Ġrisk",
        -8.425327261152894
      ],
      [
        "ĠWhich",
        -8.425821244428318
      ],
      [
        "ĠAs",
        -8.426688059363707
      ],
      [
        "Ġgroup",
        -8.426724285819958
      ],
      [
        "Ġdisease",
        -8.431247115605597
      ],
      [
        "est",
        -8.431874355290358
      ],
      [
        "ary",
        -8.431902834585772
      ],
      [
        "Ġnear",
        -8.43424318299447
      ],
      [
        "Ġtext",
        -8.434572997067393
      ],
      [
        "ĠE",
        -8.439553190576557
      ],
      [
        "Ġleave",
        -8.44036751727596
      ],
      [
        "Ġcertain",
        -8.442890573509885
      ],
      [
        "less",
        -8.44715424813321
      ],
      [
        "Ġusually",
        -8.447757456297985
      ],
      [
        "Ġreason",
        -8.451395327094838
      ],
      [
        "Ġtreatment",
        -8.451965723260507
      ],
      [
        "Ġmaterials",
        -8.4536461946381
      ],
      [
        "Ġessential",
        -8.45790602226732
      ],
      [
        "Ġcourse",
        -8.46054993078981
      ],
      [
        "ce",
        -8.461978002988788
      ],
      [
        "Ġsecond",
        -8.462357971855727
      ],
      [
        "ĠP",
        -8.469645283670324
      ],
      [
        "Ġteam",
        -8.470727604616766
      ],
      [
        "Ġlocal",
        -8.472104147734907
      ],
      [
        "Ġblood",
        -8.475162709079752
      ],
      [
        "Ġunderstand",
        -8.475837956457434
      ],
      [
        "Ġperson",
        -8.477854879421116
      ],
      [
        "Ġsay",
        -8.479701732750913
      ],
      [
        "Ġconsider",
        -8.483605168836501
      ],
      [
        "Ġquality",
        -8.485942756636543
      ],
      [
        "Ġmaterial",
        -8.488625005695864
      ],
      [
        "Ġside",
        -8.49127568987463
      ],
      [
        "Ġtechnology",
        -8.492168701276782
      ],
      [
        "Ġconditions",
        -8.492624286468493
      ],
      [
        "Ġ[",
        -8.49494256889665
      ],
      [
        "Ġenough",
        -8.49973586238671
      ],
      [
        "Ġage",
        -8.500508045940926
      ],
      [
        "Ġtypes",
        -8.50092841529952
      ],
      [
        "Ġarea",
        -8.50108941344591
      ],
      [
        "Ġtop",
        -8.507781251544635
      ],
      [
        "Ġhand",
        -8.512313356376943
      ],
      [
        "Ġsystems",
        -8.51307529307444
      ],
      [
        "Ġimprove",
        -8.51527306503992
      ],
      [
        "Ġanimals",
        -8.517097808536649
      ],
      [
        "Ġput",
        -8.517312105377844
      ],
      [
        "Ġdifference",
        -8.518472045701817
      ],
      [
        "Ġeat",
        -8.522947960293058
      ],
      [
        "When",
        -8.523892261857618
      ],
      [
        "Ġlearning",
        -8.526784620725076
      ],
      [
        "Ġunti",
        -8.527082297780716
      ],
      [
        "]",
        -8.533712249129064
      ],
      [
        "Ġmethod",
        -8.535132373751644
      ],
      [
        "Ġfull",
        -8.538615189388292
      ],
      [
        "Ġfamily",
        -8.541171657881003
      ],
      [
        "Ġinvolve",
        -8.541790912819174
      ],
      [
        "T",
        -8.543316751114395
      ],
      [
        "Ġneeds",
        -8.54390327355931
      ],
      [
        "Ġkey",
        -8.54644986165706
      ],
      [
        "You",
        -8.546467580742593
      ],
      [
        "Ġfree",
        -8.547167065216268
      ],
      [
        "ĠHe",
        -8.548176670245677
      ],
      [
        "ever",
        -8.550060171318606
      ],
      [
        "Ġlevels",
        -8.550571747747476
      ],
      [
        "Ġfunction",
        -8.551841212736381
      ],
      [
        "Ġ&",
        -8.552028679388442
      ],
      [
        "Ġweight",
        -8.552461208498064
      ],
      [
        "Ġtogether",
        -8.555941418851098
      ],
      [
        "Ġhappen",
        -8.556811629964557
      ],
      [
        "Ġmachine",
        -8.557507840922836
      ],
      [
        "Ġrole",
        -8.557926855124416
      ],
      [
        "ĠThat",
        -8.558760499125315
      ],
      [
        "it",
        -8.560542170777794
      ],
      [
        "next",
        -8.568380113623805
      ],
      [
        "having",
        -8.569756434379421
      ],
      [
        "Ġmaintain",
        -8.570405794633661
      ],
      [
        "While",
        -8.571856697976083
      ],
      [
        "Ġsolution",
        -8.57383015608571
      ],
      [
        "Ġleast",
        -8.575962130430185
      ],
      [
        "ĠWith",
        -8.57611348471061
      ],
      [
        "Ġhigher",
        -8.577070735104435
      ],
      [
        "Ġclose",
        -8.57793472804495
      ],
      [
        "Ġsince",
        -8.578295457134118
      ],
      [
        "Ġskin",
        -8.578686007426604
      ],
      [
        "Ġcheck",
        -8.579501995758037
      ],
      [
        "ment",
        -8.581525797197944
      ],
      [
        "Ġlive",
        -8.58509058213054
      ],
      [
        "Ġhour",
        -8.58855757338221
      ],
      [
        "Ġaway",
        -8.588559001202324
      ],
      [
        "Ġ$",
        -8.588763625558766
      ],
      [
        "Ġproblems",
        -8.588997401841112
      ],
      [
        "Ġlet",
        -8.589519649059797
      ],
      [
        "Ġopen",
        -8.591256411593186
      ],
      [
        "Ġword",
        -8.59380282021403
      ],
      [
        "Ġnon",
        -8.594275082545987
      ],
      [
        "Ġshort",
        -8.595156963187979
      ],
      [
        "Ġfocus",
        -8.595493882005389
      ],
      [
        "Ġcost",
        -8.595747165637663
      ],
      [
        "Ġold",
        -8.59596344732911
      ],
      [
        "Ġhard",
        -8.599357637955997
      ],
      [
        "ĠUniversity",
        -8.599443856932599
      ],
      [
        "Ġkind",
        -8.600657919344442
      ],
      [
        "Ġpressure",
        -8.601979934691656
      ],
      [
        "ers",
        -8.603914339040749
      ],
      [
        "v",
        -8.60499854846832
      ],
      [
        "Ġforce",
        -8.605273080714493
      ],
      [
        "ous",
        -8.611208774406808
      ],
      [
        "Ġearly",
        -8.613509576771069
      ],
      [
        "ĠBy",
        -8.61459818679279
      ],
      [
        "Ġsafe",
        -8.615015822331381
      ],
      [
        "Ġactually",
        -8.615022229001479
      ],
      [
        "Ġsimple",
        -8.615703271811736
      ],
      [
        "Ġworking",
        -8.617082768874877
      ],
      [
        "Ġfield",
        -8.617637275785611
      ],
      [
        "Ġproject",
        -8.619834509449124
      ],
      [
        "Ġeye",
        -8.622239306012737
      ],
      [
        "Ġeasy",
        -8.623814485699796
      ],
      [
        "Ġgrowth",
        -8.625045389187932
      ],
      [
        "Ġdiet",
        -8.626669056227332
      ],
      [
        "Ġfish",
        -8.628579382223982
      ],
      [
        "Ġoil",
        -8.630302063554655
      ],
      [
        "*",
        -8.630534642560786
      ],
      [
        "ĠH",
        -8.631073471964013
      ],
      [
        "Ġquick",
        -8.631282100256058
      ],
      [
        "ther",
        -8.63177181143961
      ],
      [
        "Ġthing",
        -8.63482267888195
      ],
      [
        "Ġmeasure",
        -8.635762632879722
      ],
      [
        "Ġdigital",
        -8.636101014759912
      ],
      [
        "ĠR",
        -8.636241447038863
      ],
      [
        "Ġfuture",
        -8.636620226601359
      ],
      [
        "Ġimage",
        -8.636637450495929
      ],
      [
        "Ġalong",
        -8.637034620905624
      ],
      [
        "Ġseem",
        -8.639878707633438
      ],
      [
        "Ġphysical",
        -8.640084920162003
      ],
      [
        "Ġdepend",
        -8.643094980407467
      ],
      [
        "Ġmodel",
        -8.645248949487836
      ],
      [
        "Ġlower",
        -8.647875087236727
      ],
      [
        "We",
        -8.650736557692753
      ],
      [
        "Ġnever",
        -8.651544038202168
      ],
      [
        "Ġhim",
        -8.65203022625273
      ],
      [
        "Ġtypical",
        -8.658579098909645
      ],
      [
        "âĢĻs",
        -8.660561616226522
      ],
      [
        "Ġtraining",
        -8.661021643896152
      ],
      [
        "Ġmakes",
        -8.662089751051194
      ],
      [
        "_",
        -8.667565733554781
      ],
      [
        "P",
        -8.669177611950381
      ],
      [
        "Ġindustr",
        -8.672090942564642
      ],
      [
        "Ġdoesn",
        -8.674275570079672
      ],
      [
        "Ġcomes",
        -8.677267956529626
      ],
      [
        "Ġarticle",
        -8.677589550085429
      ],
      [
        "Ġpopulation",
        -8.67772571264069
      ],
      [
        "Ġunique",
        -8.677862578492716
      ],
      [
        "Ġgarden",
        -8.679906061485614
      ],
      [
        "Ġdirect",
        -8.680415216794655
      ],
      [
        "Ġrun",
        -8.682844446162308
      ],
      [
        "Ġscience",
        -8.683208344959594
      ],
      [
        "Ġlove",
        -8.684592179468751
      ],
      [
        "Ġespecial",
        -8.685899726645875
      ],
      [
        "Ġlikely",
        -8.685968554714586
      ],
      [
        "Ġmajor",
        -8.688996238363675
      ],
      [
        "Ġground",
        -8.68927281150238
      ],
      [
        "Ġclear",
        -8.689628250731278
      ],
      [
        "Ġdamage",
        -8.691264751653321
      ],
      [
        "Ġsocial",
        -8.69160191865532
      ],
      [
        ")ĊĊ",
        -8.691706716808945
      ],
      [
        "Ġcell",
        -8.69281277110856
      ],
      [
        "Ġdays",
        -8.69399750023854
      ],
      [
        "Ġacross",
        -8.695222761726942
      ],
      [
        "Ġtreat",
        -8.695679745470281
      ],
      [
        "not",
        -8.700214269214628
      ],
      [
        "Ġsimilar",
        -8.700722958152694
      ],
      [
        "ry",
        -8.700772887488576
      ],
      [
        "Ġmove",
        -8.701234166788872
      ],
      [
        "Ġproducts",
        -8.70194842545656
      ],
      [
        "Ġchild",
        -8.703583147804585
      ],
      [
        "Ġfact",
        -8.703779987273952
      ],
      [
        "Ġsingle",
        -8.704502411816437
      ],
      [
        "Ġde",
        -8.7063773989033
      ],
      [
        "Ġcomponent",
        -8.710028907707763
      ],
      [
        "Ġbusiness",
        -8.711121553840117
      ],
      [
        "Ġask",
        -8.711127716471086
      ],
      [
        "Ġhealthy",
        -8.711186627308994
      ],
      [
        "Ġtimes",
        -8.712974041996858
      ],
      [
        "Ġunderstanding",
        -8.716970319936086
      ],
      [
        "Ġpropert",
        -8.718819495950756
      ],
      [
        "Ġdone",
        -8.719593274511613
      ],
      [
        "Ġclimate",
        -8.722791363060484
      ],
      [
        "ĠSome",
        -8.723087072716385
      ],
      [
        "Ġavoid",
        -8.723298234383488
      ],
      [
        "Ġabove",
        -8.723408491782916
      ],
      [
        "Ġdry",
        -8.724408046252641
      ],
      [
        "Ġprotect",
        -8.727086889803893
      ],
      [
        "Ġvideo",
        -8.728856063421222
      ],
      [
        "There",
        -8.729313480066288
      ],
      [
        "Ġreal",
        -8.729646680483139
      ],
      [
        "Ġaffect",
        -8.730515866725156
      ],
      [
        "Ġperiod",
        -8.733658645553431
      ],
      [
        "Ġoccur",
        -8.73402104511397
      ],
      [
        "Ġpaper",
        -8.737578886002389
      ],
      [
        "ĠF",
        -8.739601682478156
      ],
      [
        "Ġtry",
        -8.741335643832409
      ],
      [
        "Ġcomputer",
        -8.741495727770001
      ],
      [
        "Ġperformance",
        -8.741601630861881
      ],
      [
        "Ġbook",
        -8.742857322458573
      ],
      [
        "self",
        -8.742885960673405
      ],
      [
        "Ġclean",
        -8.745056720996125
      ],
      [
        "Ġcontinue",
        -8.745701422280888
      ],
      [
        "Ġaccording",
        -8.746673208643152
      ],
      [
        "to",
        -8.746912772165068
      ],
      [
        ")Ċ",
        -8.747058279749965
      ],
      [
        "Ġnetwork",
        -8.748155663285186
      ],
      [
        "Ġdogs",
        -8.748403614702156
      ],
      [
        "Ġproduction",
        -8.749363563822286
      ],
      [
        "Ġwarm",
        -8.750031340005055
      ],
      [
        "Ġfactors",
        -8.75056838101225
      ],
      [
        "Ġvehicle",
        -8.750979596541285
      ],
      [
        "ĠAmerican",
        -8.754400148393554
      ],
      [
        "Ġresearcher",
        -8.754418349726983
      ],
      [
        "Ġaccess",
        -8.759786272038243
      ],
      [
        "Ġwhite",
        -8.760989120951841
      ],
      [
        "Ġblack",
        -8.761615638205262
      ],
      [
        "Ġstep",
        -8.761650245741572
      ],
      [
        "Ġdetermine",
        -8.76539944604134
      ],
      [
        "!ĊĊ",
        -8.766430942543092
      ],
      [
        "Ġdeep",
        -8.769112769855584
      ],
      [
        "Ġpopular",
        -8.773369652030539
      ],
      [
        "Ġnormal",
        -8.77464888502439
      ],
      [
        "Ġbasic",
        -8.774782457108262
      ],
      [
        "ĠNew",
        -8.777328839580676
      ],
      [
        "Ġregion",
        -8.7774142402026
      ],
      [
        "Ġamong",
        -8.777526778938409
      ],
      [
        "Ġexist",
        -8.77790038137237
      ],
      [
        "Ġpattern",
        -8.778046455192595
      ],
      [
        "ready",
        -8.778381081346122
      ],
      [
        "Ġpost",
        -8.779386166575769
      ],
      [
        "To",
        -8.782093813383835
      ],
      [
        "Ġspeed",
        -8.782805129354402
      ],
      [
        "ĠâĢĶ",
        -8.783794182576901
      ],
      [
        "Ġfast",
        -8.785801855994663
      ],
      [
        "Ġagains",
        -8.78699356330673
      ],
      [
        "Ġgiven",
        -8.791041194233681
      ],
      [
        "Ġpiece",
        -8.793393348992328
      ],
      [
        "Ġleft",
        -8.793558770321074
      ],
      [
        "Ġmean",
        -8.795271600557676
      ],
      [
        "Ġfurther",
        -8.79596258931352
      ],
      [
        "Ġwhe",
        -8.796873717409145
      ],
      [
        "Ġregular",
        -8.798621744595074
      ],
      [
        "Ġloss",
        -8.799266154535575
      ],
      [
        "R",
        -8.799853082353648
      ],
      [
        "Ġcat",
        -8.802546880202943
      ],
      [
        "Ġmatter",
        -8.802724091064885
      ],
      [
        "ĠN",
        -8.80859576684998
      ],
      [
        "Ġquestion",
        -8.809805600460798
      ],
      [
        "Ġeither",
        -8.813252999960326
      ],
      [
        "Ġfar",
        -8.813462583023767
      ],
      [
        "Ġplan",
        -8.81397176134627
      ],
      [
        "Ġenjoy",
        -8.815758115066842
      ],
      [
        "Ġsign",
        -8.816575687341665
      ],
      [
        "Ġaddition",
        -8.818788279377696
      ],
      [
        "Ġremove",
        -8.819060170296034
      ],
      [
        "Ġcontent",
        -8.82010525100192
      ],
      [
        "Ġrecent",
        -8.821578650843737
      ],
      [
        "Ġtalk",
        -8.823573613391337
      ],
      [
        "Ġbring",
        -8.823673397030884
      ],
      [
        "F",
        -8.824646116398043
      ],
      [
        "Ġeffects",
        -8.82514341350069
      ],
      [
        "ĠYour",
        -8.826151471559609
      ],
      [
        "Ġred",
        -8.826171810760005
      ],
      [
        "For",
        -8.826450461643505
      ],
      [
        "Ġgetting",
        -8.82654833199912
      ],
      [
        "ory",
        -8.828937548659423
      ],
      [
        "Ġlooking",
        -8.829131261791133
      ],
      [
        "Ġfour",
        -8.829664545419424
      ],
      [
        "Ġtoday",
        -8.829797463397199
      ],
      [
        "necessary",
        -8.832223376147319
      ],
      [
        "Ġproduct",
        -8.833506086528278
      ],
      [
        "Ġwide",
        -8.835652900612809
      ],
      [
        "Ġam",
        -8.836776772395972
      ],
      [
        "Ġpain",
        -8.843850469806835
      ],
      [
        "Ġlist",
        -8.844920250646066
      ],
      [
        "Ġsays",
        -8.8454738291673
      ],
      [
        "Ġheart",
        -8.845834311479564
      ],
      [
        "Ġeffect",
        -8.846383722816404
      ],
      [
        "Ġstructure",
        -8.846432407142071
      ],
      [
        "âĢĵ",
        -8.847624175968019
      ],
      [
        "Ġmarket",
        -8.849745373648082
      ],
      [
        "E",
        -8.849911433862948
      ],
      [
        "ĠU",
        -8.85107488688943
      ],
      [
        "ĠNo",
        -8.851245703832065
      ],
      [
        "Ġread",
        -8.85155350085552
      ],
      [
        "Ġcall",
        -8.85169757528454
      ],
      [
        "Ġanimal",
        -8.852235653703948
      ],
      [
        "Ġfee",
        -8.859666709873572
      ],
      [
        "H",
        -8.859983510521277
      ],
      [
        "Ġexplain",
        -8.86034594385863
      ],
      [
        "âĢĶ",
        -8.860715945578615
      ],
      [
        "Ġunit",
        -8.861016278210052
      ],
      [
        "ten",
        -8.861282050723029
      ],
      [
        "Ġthought",
        -8.862775720979393
      ],
      [
        "Ġyoung",
        -8.863341522408035
      ],
      [
        "Ġroom",
        -8.864715168640254
      ],
      [
        "Ġobject",
        -8.865234501873474
      ],
      [
        "Ġdifficult",
        -8.865941855644527
      ],
      [
        "Ġengine",
        -8.866310065247138
      ],
      [
        "Ġassociate",
        -8.869176746837793
      ],
      [
        "Ġfeatures",
        -8.870882558804347
      ],
      [
        "Ġperform",
        -8.871454784543934
      ],
      [
        "Ġbig",
        -8.871603409749387
      ],
      [
        "Ġbelieve",
        -8.871753486707249
      ],
      [
        "Ġvariety",
        -8.873538173019076
      ],
      [
        "Ġhead",
        -8.874625626871744
      ],
      [
        "Ġcold",
        -8.875965207536506
      ],
      [
        "Ġapproach",
        -8.876340416188047
      ],
      [
        "Ġpurpose",
        -8.87690063090401
      ],
      [
        "Ġbrain",
        -8.877910164965424
      ],
      [
        "Ġrate",
        -8.87845957269191
      ],
      [
        "Ġanswer",
        -8.880609062725988
      ],
      [
        "Ġgas",
        -8.881691105588022
      ],
      [
        "Ġidea",
        -8.883084198593776
      ],
      [
        "ĠOn",
        -8.883801522966873
      ],
      [
        "Ġhistory",
        -8.884673562066482
      ],
      [
        "Ġactivity",
        -8.886304983696224
      ],
      [
        "Ġthough",
        -8.886530395145705
      ],
      [
        "Ġbase",
        -8.888807171126766
      ],
      [
        "Ġskills",
        -8.889631423604808
      ],
      [
        "Ġposition",
        -8.891772447807213
      ],
      [
        "Ġways",
        -8.891776128756469
      ],
      [
        "Ġinside",
        -8.893614060237404
      ],
      [
        ".\"Ċ",
        -8.894216507087691
      ],
      [
        "Ġbit",
        -8.895118677708616
      ],
      [
        "Ġshape",
        -8.895134179051666
      ],
      [
        "Ġtarget",
        -8.895967361792273
      ],
      [
        "As",
        -8.897431931933458
      ],
      [
        "Ġbelow",
        -8.897593065995753
      ],
      [
        "Ġpositive",
        -8.900819257773872
      ],
      [
        "Ġface",
        -8.90110239961165
      ],
      [
        "Ġcontain",
        -8.901352222400927
      ],
      [
        "Ġstay",
        -8.902162240540688
      ],
      [
        "Ġprovid",
        -8.904516968865604
      ],
      [
        "once",
        -8.90746635663706
      ],
      [
        "Ġacid",
        -8.90947971630122
      ],
      [
        "Ġallows",
        -8.909658154138626
      ],
      [
        "Ġcommunity",
        -8.909827290604058
      ],
      [
        "Ġsound",
        -8.91123525521589
      ],
      [
        "Ġstress",
        -8.913156855025047
      ],
      [
        "Ġparent",
        -8.914493840207648
      ],
      [
        "\\",
        -8.91642411698907
      ],
      [
        "Ġlayer",
        -8.917144524669117
      ],
      [
        "Ġsignal",
        -8.917573204590658
      ],
      [
        "Ġenvironmental",
        -8.918860561336274
      ],
      [
        "Ġcomplex",
        -8.919152986596831
      ],
      [
        "Ġopportunit",
        -8.919249538625692
      ],
      [
        "z",
        -8.921365090270434
      ],
      [
        "Ġknowledge",
        -8.92161202422145
      ],
      [
        "Ġrequired",
        -8.922768914379272
      ],
      [
        "Ġcool",
        -8.923589033986357
      ],
      [
        "ĠG",
        -8.924876249091106
      ],
      [
        "ĠOne",
        -8.925875251199976
      ],
      [
        "Ġwhole",
        -8.92596067369286
      ],
      [
        "Ġslow",
        -8.926397456337895
      ],
      [
        "Ġflow",
        -8.926476089035177
      ],
      [
        "!Ċ",
        -8.927706588545416
      ],
      [
        "afety",
        -8.927737587315214
      ],
      [
        "Ġbreak",
        -8.927901176442694
      ],
      [
        "Ġstor",
        -8.928004579311986
      ],
      [
        "ĠL",
        -8.930844877101947
      ],
      [
        "Ġtree",
        -8.931332031023457
      ],
      [
        "Ġstrong",
        -8.933860485767934
      ],
      [
        "Ġbehavior",
        -8.936068622976592
      ],
      [
        "Ġpublic",
        -8.93622178896922
      ],
      [
        "Ġagain",
        -8.936983085991198
      ],
      [
        "#",
        -8.93881668656623
      ],
      [
        "Ġhouse",
        -8.944516363742665
      ],
      [
        "Ġhelps",
        -8.946874555927764
      ],
      [
        "Ġshare",
        -8.948495004675964
      ],
      [
        "Ġweek",
        -8.94941289783996
      ],
      [
        "taking",
        -8.950796601138688
      ],
      [
        "Ġgot",
        -8.953448518774065
      ],
      [
        "Ġbuild",
        -8.95375221197828
      ],
      [
        "M",
        -8.954158502952776
      ],
      [
        "Ġperfect",
        -8.957289031467333
      ],
      [
        "N",
        -8.957956271610522
      ],
      [
        "Ġactivities",
        -8.958285793672353
      ],
      [
        "Ġselect",
        -8.960124235510579
      ],
      [
        "Ġbacteria",
        -8.960652516419376
      ],
      [
        "Ġclass",
        -8.961565588860939
      ],
      [
        "Ġsymptom",
        -8.961675297732887
      ],
      [
        "Ġliving",
        -8.962935298994427
      ],
      [
        "Ġcancer",
        -8.96386457925979
      ],
      [
        "man",
        -8.964723850055481
      ],
      [
        "Ġdoing",
        -8.965628956838252
      ],
      [
        "Ġmind",
        -8.96576232652537
      ],
      [
        "Ġseen",
        -8.965873758265364
      ],
      [
        "âĢ¦",
        -8.966830387507823
      ],
      [
        "Ġresponse",
        -8.966983609831095
      ],
      [
        "online",
        -8.96825172506291
      ],
      [
        "Ġprotein",
        -8.968526795432968
      ],
      [
        "Ġtotal",
        -8.970193999326893
      ],
      [
        "Ġprovides",
        -8.971199217094139
      ],
      [
        "Ġexercise",
        -8.971876325384862
      ],
      [
        "Ġbuilding",
        -8.972643054955164
      ],
      [
        "Ġmethods",
        -8.972713618928813
      ],
      [
        "ful",
        -8.973632348752705
      ],
      [
        "So",
        -8.97578030639356
      ],
      [
        "Ġwaste",
        -8.976130209659331
      ],
      [
        "Ġpractice",
        -8.976786675470048
      ],
      [
        "Ġcorrect",
        -8.978986909045002
      ],
      [
        "Ġcontact",
        -8.979793326986481
      ],
      [
        "Ġtools",
        -8.980604978657803
      ],
      [
        "Ġservice",
        -8.983036258256096
      ],
      [
        "Ġlocation",
        -8.98476463023594
      ],
      [
        "Ġpersonal",
        -8.984765017732224
      ],
      [
        "Ġfollow",
        -8.985190947931669
      ],
      [
        "Ġtraditional",
        -8.985937797689317
      ],
      [
        "ĠAI",
        -8.987793240031177
      ],
      [
        "Ġprofessional",
        -8.988732942772884
      ],
      [
        "Ġidentify",
        -8.988926065638164
      ],
      [
        "Ġparticular",
        -8.989031077600536
      ],
      [
        "Ġcompany",
        -8.990930215549493
      ],
      [
        "Ġmetal",
        -8.991256858525745
      ],
      [
        "Ġcreat",
        -8.991585653782405
      ],
      [
        "Ġmonths",
        -8.992291577119527
      ],
      [
        "Ġoverall",
        -8.99255616701697
      ],
      [
        "Ġflower",
        -8.992615792029344
      ],
      [
        "Ġnature",
        -8.99428974190896
      ],
      [
        "Ġtechniques",
        -8.99442160619323
      ],
      [
        "Ġgreen",
        -8.994537676742421
      ],
      [
        "Ġresources",
        -8.994666555717469
      ],
      [
        ".\"",
        -8.999878036642283
      ],
      [
        "G",
        -9.000780484052104
      ],
      [
        "Ġmultiple",
        -9.000984425103551
      ],
      [
        "Ġprimar",
        -9.002036086228765
      ],
      [
        "ather",
        -9.002054394880936
      ],
      [
        "Ġtell",
        -9.002188882554073
      ],
      [
        "Ġsense",
        -9.003290561096204
      ],
      [
        "Ġgenetic",
        -9.003777867316805
      ],
      [
        "Ġsite",
        -9.004061313513295
      ],
      [
        "Ġentire",
        -9.006875691458406
      ],
      [
        "Ġbalance",
        -9.009353968084843
      ],
      [
        "Ġinfection",
        -9.010685889688713
      ],
      [
        "Ġmone",
        -9.010806932621096
      ],
      [
        "Ġart",
        -9.011801745184002
      ],
      [
        "Ġspecial",
        -9.011960353074889
      ],
      [
        "Ġeasily",
        -9.014179107298984
      ],
      [
        "Ġauthor",
        -9.015149566891118
      ],
      [
        "Ġlate",
        -9.01589219488346
      ],
      [
        "Ġcrucial",
        -9.017467112613827
      ],
      [
        "Ġaverage",
        -9.018235072355075
      ],
      [
        "Ġsolar",
        -9.01879234662904
      ],
      [
        "Ġdescribe",
        -9.018993622982656
      ],
      [
        "Ġcut",
        -9.020661065167417
      ],
      [
        "Ġmuscle",
        -9.021745510372856
      ],
      [
        "Ġcarbon",
        -9.022672064619684
      ],
      [
        "Ġfruit",
        -9.025255886394737
      ],
      [
        "Ġhot",
        -9.02786132838147
      ],
      [
        "Ġthroughout",
        -9.02970955384742
      ],
      [
        "Ġcycle",
        -9.034491392483051
      ],
      [
        "Ġsomeone",
        -9.034764883312764
      ],
      [
        "Ġever",
        -9.034829099427462
      ],
      [
        "Ġmix",
        -9.035101796155704
      ],
      [
        "Ġreach",
        -9.03592452475771
      ],
      [
        "Ġglobal",
        -9.035952373508358
      ],
      [
        "Ġminutes",
        -9.036011755083113
      ],
      [
        "Ġreceive",
        -9.03689087454023
      ],
      [
        "ĠJ",
        -9.038819306836356
      ],
      [
        "Ġcreated",
        -9.038859268518156
      ],
      [
        "Ġdegree",
        -9.04047955302211
      ],
      [
        "ĠDNA",
        -9.04105598356127
      ],
      [
        "Ġfall",
        -9.04179776769043
      ],
      [
        "Ġmodern",
        -9.04292810007281
      ],
      [
        "ĠK",
        -9.042985814067206
      ],
      [
        "Ġetc",
        -9.044342170431293
      ],
      [
        "Ġconsidered",
        -9.0444287236831
      ],
      [
        "Ġinterest",
        -9.046802875426382
      ],
      [
        "Ġsuggest",
        -9.046946371959455
      ],
      [
        "Ġsugar",
        -9.047318246825116
      ],
      [
        "Ġquestions",
        -9.04836918251663
      ],
      [
        "ĠNational",
        -9.04836923355576
      ],
      [
        "Ġpast",
        -9.048571917247502
      ],
      [
        "ĠAn",
        -9.048954821670891
      ],
      [
        "Ġplastic",
        -9.049211157049912
      ],
      [
        "Ġrelease",
        -9.052021054247987
      ],
      [
        "Ġchoose",
        -9.053624341882148
      ],
      [
        "Ġchoice",
        -9.055939617583697
      ],
      [
        "Ġaddress",
        -9.059469659572468
      ],
      [
        "Ġblock",
        -9.06126351083316
      ],
      [
        "Ġmanagement",
        -9.063238784107234
      ],
      [
        "Ġothers",
        -9.063511941246926
      ],
      [
        "K",
        -9.063722757703886
      ],
      [
        "Ġpet",
        -9.064247517032284
      ],
      [
        "Ġsimply",
        -9.064805800011824
      ],
      [
        "ember",
        -9.065632156829617
      ],
      [
        "Ġprobably",
        -9.065633126831436
      ],
      [
        "Ġbuy",
        -9.06570834649454
      ],
      [
        "Ġlarger",
        -9.066784914340378
      ],
      [
        "V",
        -9.070003504351703
      ],
      [
        "Ġjob",
        -9.071150180187871
      ],
      [
        "Ġmillion",
        -9.07135170083885
      ],
      [
        "Ġsleep",
        -9.071546977313384
      ],
      [
        "ĠScience",
        -9.071594600613652
      ],
      [
        "Ġyourself",
        -9.074442407482652
      ],
      [
        "Ġextreme",
        -9.075584055702867
      ],
      [
        "Ġlimit",
        -9.07642584318819
      ],
      [
        "land",
        -9.07669154727269
      ],
      [
        "Ġterm",
        -9.077521077531015
      ],
      [
        "by",
        -9.077649301424906
      ],
      [
        "where",
        -9.08028669120708
      ],
      [
        "Ġlanguage",
        -9.081121962247622
      ],
      [
        "Ġincreasing",
        -9.08208134267485
      ],
      [
        "Ġreturn",
        -9.082605429636471
      ],
      [
        "O",
        -9.08338897297319
      ],
      [
        "Ġoptions",
        -9.08543155116761
      ],
      [
        "Ġcondition",
        -9.086140925364004
      ],
      [
        "Ġwebsite",
        -9.087626596372033
      ],
      [
        "Ġseason",
        -9.089958685451665
      ],
      [
        "Ġrepresent",
        -9.091537997071285
      ],
      [
        "Ġbad",
        -9.092600645724415
      ],
      [
        "Ġadult",
        -9.093061812567331
      ],
      [
        "Ġscientists",
        -9.094356781755218
      ],
      [
        "Ġmovement",
        -9.094395763270132
      ],
      [
        "Ġself",
        -9.095896726926256
      ],
      [
        "Ġstore",
        -9.096225034657476
      ],
      [
        "Ġpatients",
        -9.096318204298695
      ],
      [
        "Ġsituation",
        -9.096790805062556
      ],
      [
        "Ġreaction",
        -9.097429974633108
      ],
      [
        "Ġsea",
        -9.097540002962788
      ],
      [
        "Ġadvantage",
        -9.099620559139815
      ],
      [
        "|",
        -9.100207930136175
      ],
      [
        "Ġlater",
        -9.10052972128662
      ],
      [
        "Ġdecision",
        -9.101347352914882
      ],
      [
        "Ġact",
        -9.103239257066168
      ],
      [
        "Ġalmost",
        -9.103598814562291
      ],
      [
        "Ġwomen",
        -9.104070244823792
      ],
      [
        "Ġrelated",
        -9.10471062121109
      ],
      [
        "Ġsometime",
        -9.105453671231844
      ],
      [
        "Ġstop",
        -9.1057418495352
      ],
      [
        "Ġexpert",
        -9.106294987515852
      ],
      [
        "Ġwinter",
        -9.107685151944924
      ],
      [
        "Ġwall",
        -9.109090375559012
      ],
      [
        "Ġrelative",
        -9.10980011715301
      ],
      [
        "Ġdrive",
        -9.110715518700838
      ],
      [
        "Ġcommunication",
        -9.111503516633793
      ],
      [
        "Q",
        -9.112405844356022
      ],
      [
        "Ġoutside",
        -9.113975598386414
      ],
      [
        "Ġbattery",
        -9.114667706282786
      ],
      [
        "Ġeducation",
        -9.114757848169996
      ],
      [
        "Ġreport",
        -9.116257360140825
      ],
      [
        "Ġregard",
        -9.117378965204988
      ],
      [
        "Ġland",
        -9.117668066524892
      ],
      [
        "Ġcode",
        -9.118256111274306
      ],
      [
        "ĠAll",
        -9.118389882367968
      ],
      [
        "Ġexact",
        -9.118695042973194
      ],
      [
        "ĠO",
        -9.120196864367614
      ],
      [
        "Ġbreed",
        -9.124498417401622
      ],
      [
        "ĠDo",
        -9.124675252229547
      ],
      [
        "L",
        -9.126332954433131
      ],
      [
        "Ġspring",
        -9.126582266639714
      ],
      [
        "\"ĊĊ",
        -9.126889368496704
      ],
      [
        "Ġefficient",
        -9.127089120240818
      ],
      [
        "-based",
        -9.127599155653996
      ],
      [
        "Ġtool",
        -9.129782759634374
      ],
      [
        "+",
        -9.131206749607877
      ],
      [
        "Ġdistance",
        -9.131468271980705
      ],
      [
        "Ġfive",
        -9.131481199393036
      ],
      [
        "Ġpercent",
        -9.131990858221531
      ],
      [
        "Ġapplication",
        -9.133133844570583
      ],
      [
        "Ġapplications",
        -9.13352390446992
      ],
      [
        "Ġeverything",
        -9.133884960968269
      ],
      [
        "Ġshown",
        -9.134184988615656
      ],
      [
        "Ġgain",
        -9.136169501405718
      ],
      [
        "Ġsubject",
        -9.136373530068056
      ],
      [
        ">",
        -9.136955703025532
      ],
      [
        "Ġelements",
        -9.137160259174038
      ],
      [
        "Ġfuel",
        -9.13737448418679
      ],
      [
        "Ġcustomer",
        -9.137385875172988
      ],
      [
        "Ġsearch",
        -9.137769308297583
      ],
      [
        "Ġyet",
        -9.140402039339424
      ],
      [
        "Ġcountry",
        -9.14225296157471
      ],
      [
        "Ġinstead",
        -9.142627079009054
      ],
      [
        "Ġstarted",
        -9.144215354769646
      ],
      [
        "Ġchemical",
        -9.148202418077476
      ],
      [
        "Ġexplore",
        -9.148721094311009
      ],
      [
        "ĠW",
        -9.149831261015256
      ],
      [
        "Ġkids",
        -9.150006991309109
      ],
      [
        "Ġanalysis",
        -9.15034878434527
      ],
      [
        "One",
        -9.1507583039242
      ],
      [
        "Ġgenerate",
        -9.15128600272017
      ],
      [
        "ance",
        -9.154108593344192
      ],
      [
        "Ġfinal",
        -9.155481754797776
      ],
      [
        "ĠV",
        -9.155588911820995
      ],
      [
        "Ġstation",
        -9.156218608179978
      ],
      [
        "ĠShe",
        -9.15644706682462
      ],
      [
        "ĠAt",
        -9.15654597992866
      ],
      [
        "Ġactive",
        -9.157317438458566
      ],
      [
        "ĠStates",
        -9.157487964964789
      ],
      [
        "Ġpage",
        -9.15921787287719
      ],
      [
        "Ġtravel",
        -9.15982662035101
      ],
      [
        "Ġeffort",
        -9.16066853007427
      ],
      [
        "Ġstudies",
        -9.162316403621835
      ],
      [
        "ive",
        -9.162359535048768
      ],
      [
        "Ġfactor",
        -9.163414000634962
      ],
      [
        "Ġear",
        -9.163940234869742
      ],
      [
        "Ġcharge",
        -9.16928123963232
      ],
      [
        "Ġattention",
        -9.171473388669952
      ],
      [
        "Ġoriginal",
        -9.171739767040844
      ],
      [
        "ĠHere",
        -9.172413655783004
      ],
      [
        "Ġevidence",
        -9.172559573586993
      ],
      [
        "Ġthemselves",
        -9.17325811082457
      ],
      [
        "Ġnight",
        -9.174134923036814
      ],
      [
        "ĠCan",
        -9.17438110709526
      ],
      [
        "Ġmonitor",
        -9.17438254909933
      ],
      [
        "Ġmedical",
        -9.174631630796013
      ],
      [
        "Ġwon",
        -9.175430963193207
      ],
      [
        "Ġlength",
        -9.176814262149875
      ],
      [
        "Ġanything",
        -9.17977315591736
      ],
      [
        "Ġwood",
        -9.182221680797603
      ],
      [
        "ĠEarth",
        -9.182311777858096
      ],
      [
        "Ġprevious",
        -9.182734195532037
      ],
      [
        "Ġoperation",
        -9.182762867798408
      ],
      [
        "Ġguide",
        -9.183039034525112
      ],
      [
        "Ġappear",
        -9.184665717147167
      ],
      [
        "Ġview",
        -9.185608708492763
      ],
      [
        "Ġoption",
        -9.185781002765443
      ],
      [
        "Ġpass",
        -9.18622224135273
      ],
      [
        "Ġtrees",
        -9.18645243223936
      ],
      [
        "Ġfinding",
        -9.186659471602525
      ],
      [
        "Ġweather",
        -9.1881482630411
      ],
      [
        "Ġdrink",
        -9.18923317407188
      ],
      [
        "Ġserve",
        -9.18976145049443
      ],
      [
        "Ġmentioned",
        -9.190131647835198
      ],
      [
        "Ġtaken",
        -9.190704467242815
      ],
      [
        "Ġreading",
        -9.192186006279783
      ],
      [
        "Ġspread",
        -9.193649781079795
      ],
      [
        "Ġfun",
        -9.194054916980784
      ],
      [
        "Ġequipment",
        -9.19600201784188
      ],
      [
        "Ġadditional",
        -9.196206609885149
      ],
      [
        "Ġstrateg",
        -9.19640474273334
      ],
      [
        "Ġpay",
        -9.19677643913409
      ],
      [
        "Ġlink",
        -9.200117380767468
      ],
      [
        "Ġstory",
        -9.200620249516106
      ],
      [
        "Ġdisplay",
        -9.201251225811074
      ],
      [
        "Ġservices",
        -9.201299695263582
      ],
      [
        "ism",
        -9.201573228718926
      ],
      [
        "Ġvisit",
        -9.20198484333432
      ],
      [
        "Ġfresh",
        -9.202161749963125
      ],
      [
        "Ġestablish",
        -9.20447648204956
      ],
      [
        "Ġtrying",
        -9.205190252963456
      ],
      [
        "Ġpre",
        -9.205228224879871
      ],
      [
        "Ġmedia",
        -9.205680190431146
      ],
      [
        "Ġago",
        -9.206529334618963
      ],
      [
        "quite",
        -9.207090963997803
      ],
      [
        "Ġcharacter",
        -9.208927145103535
      ],
      [
        "Ġmov",
        -9.21125072363511
      ],
      [
        "Ġculture",
        -9.21202980087201
      ],
      [
        ").Ċ",
        -9.213514690643564
      ],
      [
        "Ġtrue",
        -9.216249122626229
      ],
      [
        "Ġshows",
        -9.217922305059448
      ],
      [
        "Ġhalf",
        -9.21792319636219
      ],
      [
        "Ġstage",
        -9.218205569707482
      ],
      [
        "Ġadvance",
        -9.22055621831706
      ],
      [
        "Ġstudent",
        -9.221319167580123
      ],
      [
        "Ġcenter",
        -9.22173426445535
      ],
      [
        "Ġsave",
        -9.222459624243063
      ],
      [
        "Ġstrength",
        -9.222698260214589
      ],
      [
        "Ġhear",
        -9.222841673249048
      ],
      [
        "Ġdeliver",
        -9.224430436678356
      ],
      [
        "Ġcamera",
        -9.225655303580876
      ],
      [
        "Ġindicate",
        -9.22579971571184
      ],
      [
        "Ġrecord",
        -9.228903932914264
      ],
      [
        "Ġmeat",
        -9.22980315673248
      ],
      [
        "Ġcover",
        -9.230655736665929
      ],
      [
        "Ġsuccessful",
        -9.230878341271817
      ],
      [
        "Ġapply",
        -9.231171175081176
      ],
      [
        "Ġice",
        -9.231862015040416
      ],
      [
        "Ġstandard",
        -9.231992451215849
      ],
      [
        "Ġdark",
        -9.232358879983458
      ],
      [
        "Ġinput",
        -9.233061303758252
      ],
      [
        "Ġgroups",
        -9.23508252600868
      ],
      [
        "Ġproper",
        -9.239694600149347
      ],
      [
        "Ġnegative",
        -9.240066023844417
      ],
      [
        "ĠDr",
        -9.243075894815217
      ],
      [
        "Ġbirds",
        -9.243243290078674
      ],
      [
        "Ġaccount",
        -9.243881892916336
      ],
      [
        "Ġbehind",
        -9.244251851906936
      ],
      [
        "Ġfront",
        -9.24627607229818
      ],
      [
        "gan",
        -9.24638987357914
      ],
      [
        "Ġdetail",
        -9.246563059603304
      ],
      [
        "Ġworks",
        -9.248004851365389
      ],
      [
        "Ġeyes",
        -9.248014003986778
      ],
      [
        "Ġcompare",
        -9.251839705963269
      ],
      [
        "Ġselection",
        -9.2545514710525
      ],
      [
        "ian",
        -9.25482334355258
      ],
      [
        "Â°",
        -9.254991653529864
      ],
      [
        "Ġconstant",
        -9.255909350041115
      ],
      [
        "Ġwalk",
        -9.25758924650822
      ],
      [
        "Ġparticularly",
        -9.258813978967938
      ],
      [
        "Ġdiscuss",
        -9.259603762662891
      ],
      [
        "ĠUS",
        -9.260815817740143
      ],
      [
        "Ġscientific",
        -9.262039507226708
      ],
      [
        "Ġmass",
        -9.265269984292008
      ],
      [
        "Ġsun",
        -9.26672269589977
      ],
      [
        "Ġconnection",
        -9.2680168431995
      ],
      [
        "ĠHealth",
        -9.268878941104202
      ],
      [
        "=",
        -9.271655757283204
      ],
      [
        "âĢ¢",
        -9.272226674840011
      ],
      [
        "wise",
        -9.275137943134736
      ],
      [
        "Ġelectric",
        -9.275801598916347
      ],
      [
        "Ġtend",
        -9.278522078404333
      ],
      [
        "ĠYes",
        -9.279545718762058
      ],
      [
        "Ġwind",
        -9.28125930952275
      ],
      [
        "Ġleading",
        -9.28127345789826
      ],
      [
        "Ġfit",
        -9.281639837443304
      ],
      [
        "W",
        -9.283651523198223
      ],
      [
        "Ġaction",
        -9.28456396826762
      ],
      [
        "Ġvegetable",
        -9.284582139353276
      ],
      [
        "Ġmental",
        -9.28544783063122
      ],
      [
        "ĠAfter",
        -9.28588459007186
      ],
      [
        "Ġcolors",
        -9.287658012478992
      ],
      [
        "Ġdail",
        -9.288937110181614
      ],
      [
        "Why",
        -9.290114214330046
      ],
      [
        "Ġprocesses",
        -9.290275264078328
      ],
      [
        "ĠâĢľ",
        -9.2914689908189
      ],
      [
        "Ġsummer",
        -9.29332007968867
      ],
      [
        "Ġsoftware",
        -9.294895253028711
      ],
      [
        "Ġ+",
        -9.295919581435449
      ],
      [
        "Ġgovernment",
        -9.2960649786808
      ],
      [
        "Ġblue",
        -9.29869845832926
      ],
      [
        "Ġinitial",
        -9.299354526130031
      ],
      [
        "Ġinfluence",
        -9.299626073912483
      ],
      [
        "Ġnotice",
        -9.30051177989586
      ],
      [
        "Ġattack",
        -9.300655952973935
      ],
      [
        "Ġmale",
        -9.3010158777498
      ],
      [
        "ĠSchool",
        -9.30343397505226
      ],
      [
        "âĢĻ",
        -9.304840493637585
      ],
      [
        "Ġvisual",
        -9.305196336320616
      ],
      [
        "one",
        -9.30549975665511
      ],
      [
        "Ġinjur",
        -9.305617422186003
      ],
      [
        "Ġcauses",
        -9.307294652528329
      ],
      [
        "Ġelse",
        -9.307499551596909
      ],
      [
        "\\n",
        -9.308328229545946
      ],
      [
        "Ġextra",
        -9.30900551220958
      ],
      [
        "Ġdirection",
        -9.309410268610304
      ],
      [
        "Ġcontribute",
        -9.310068885498508
      ],
      [
        "Ġcritical",
        -9.311709293184048
      ],
      [
        "Ġocean",
        -9.312740518196096
      ],
      [
        "more",
        -9.313467649079971
      ],
      [
        "Ġequal",
        -9.315090389442224
      ],
      [
        "Ġterms",
        -9.315104473248384
      ],
      [
        "Ġpublish",
        -9.31513453494432
      ],
      [
        "Ġevents",
        -9.315465846761445
      ],
      [
        "Ġweeks",
        -9.316041510246984
      ],
      [
        "Ġbuilt",
        -9.316098043551817
      ],
      [
        "Ġlack",
        -9.317818520027458
      ],
      [
        "Ġcountries",
        -9.318124319608478
      ],
      [
        "Ġtissue",
        -9.318125641674555
      ],
      [
        "Ġelectrical",
        -9.31833772150957
      ],
      [
        "ĠAmerica",
        -9.31856965177436
      ],
      [
        "Ġenhance",
        -9.318956926068289
      ],
      [
        "But",
        -9.32058357251604
      ],
      [
        "Ġfire",
        -9.321143157137126
      ],
      [
        "Ġseparate",
        -9.32121555229002
      ],
      [
        "Ġman",
        -9.32150169846135
      ],
      [
        "Ġhole",
        -9.32174293836728
      ],
      [
        "Ġcombination",
        -9.324455529724457
      ],
      [
        "Ġeggs",
        -9.324899588457017
      ],
      [
        "Ġrunning",
        -9.32565400698116
      ],
      [
        "Ġrest",
        -9.328291354360992
      ],
      [
        "ĠNorth",
        -9.329503331619112
      ],
      [
        "ar",
        -9.329551594298676
      ],
      [
        "Ġeasier",
        -9.329878260945854
      ],
      [
        "Ġfeature",
        -9.329886753080082
      ],
      [
        "Ġhorse",
        -9.330164673243686
      ],
      [
        "Ġsix",
        -9.33077775299128
      ],
      [
        "Ġpaint",
        -9.330835515182448
      ],
      [
        "Ġrequirement",
        -9.331553235604552
      ],
      [
        "ul",
        -9.333070434337433
      ],
      [
        "Ġorganization",
        -9.335115462337576
      ],
      [
        "Ġdeath",
        -9.336606836731862
      ],
      [
        "Ġsalt",
        -9.337677830294124
      ],
      [
        "Ġrecommended",
        -9.338180090020847
      ],
      [
        "âĢĿ",
        -9.33885401560432
      ],
      [
        "ecause",
        -9.339067597042012
      ],
      [
        "Ġgene",
        -9.34036439573936
      ],
      [
        "Ġdidn",
        -9.341585267671796
      ],
      [
        "Ġhabitat",
        -9.342704296914102
      ],
      [
        "Ġremain",
        -9.3434896707715
      ],
      [
        "Ġalternative",
        -9.34371200378267
      ],
      [
        "Ġuseful",
        -9.34442477663714
      ],
      [
        "Ġgoal",
        -9.347674323025837
      ],
      [
        "Ġimages",
        -9.34842629333912
      ],
      [
        "Ġcity",
        -9.349039798369764
      ],
      [
        "Ġingredient",
        -9.34954202850576
      ],
      [
        "Ġchance",
        -9.355214825289815
      ],
      [
        "Ġmeet",
        -9.355729560080164
      ],
      [
        "Ġstyle",
        -9.355918632305322
      ],
      [
        "ĠMost",
        -9.355982310432632
      ],
      [
        "Ġefficienc",
        -9.356061462218475
      ],
      [
        "ization",
        -9.356680170848186
      ],
      [
        "Ġmonth",
        -9.35837671949036
      ],
      [
        "Ġtopic",
        -9.359555458734093
      ],
      [
        "Y",
        -9.36037102034488
      ],
      [
        "Ġboard",
        -9.360544696102483
      ],
      [
        "ĠX",
        -9.361654512549425
      ],
      [
        "ĠMore",
        -9.363910123811571
      ],
      [
        "Ġfine",
        -9.364844401177722
      ],
      [
        "Ġoutput",
        -9.367511136393563
      ],
      [
        "Ġitems",
        -9.36796325980496
      ],
      [
        "Ġappropriate",
        -9.3680575353917
      ],
      [
        "ier",
        -9.36826955441081
      ],
      [
        "Ġfilter",
        -9.368412520924023
      ],
      [
        "Ġaim",
        -9.37025604331113
      ],
      [
        "Ġdemand",
        -9.370676282652774
      ],
      [
        "ĠUse",
        -9.371173168540055
      ],
      [
        "Ġroot",
        -9.372196502206206
      ],
      [
        "ĠMy",
        -9.372730945355052
      ],
      [
        "Ġprice",
        -9.374627253844103
      ],
      [
        "Ġtowards",
        -9.3782865994255
      ],
      [
        "Ġeveryone",
        -9.37874609244532
      ],
      [
        "Can",
        -9.3788679588911
      ],
      [
        "Ġinsect",
        -9.379912304477408
      ],
      [
        "Ġsupply",
        -9.381803695270923
      ],
      [
        "Ġfeed",
        -9.382216742330073
      ],
      [
        "Ġconnect",
        -9.382750276239385
      ],
      [
        "Ġtips",
        -9.382755899248238
      ],
      [
        "Ġevent",
        -9.382816136613494
      ],
      [
        "Ġdetect",
        -9.383188532871598
      ],
      [
        "Ġcharacteristic",
        -9.383229756394918
      ],
      [
        "Ġprint",
        -9.38332526698328
      ],
      [
        "ĠOf",
        -9.384046582686477
      ],
      [
        ".S",
        -9.385276088108284
      ],
      [
        "Ġdraw",
        -9.386118290761416
      ],
      [
        "-to",
        -9.388217286067022
      ],
      [
        "Ġconcern",
        -9.388612235575144
      ],
      [
        "Ġachieve",
        -9.38923924544084
      ],
      [
        "Ġextend",
        -9.389367786930976
      ],
      [
        "ĠUnit",
        -9.3906381066582
      ],
      [
        "Ġsensor",
        -9.390926334072423
      ],
      [
        "Ġharm",
        -9.390941124957983
      ],
      [
        "Ġsteps",
        -9.391487093459856
      ],
      [
        "Ġcame",
        -9.391790602935927
      ],
      [
        "Ġprotection",
        -9.394471142297409
      ],
      [
        "Ġbegin",
        -9.397010746027618
      ],
      [
        "Ġhold",
        -9.397303797205748
      ],
      [
        "Ġcarry",
        -9.397365566085488
      ],
      [
        "Ġspot",
        -9.397520500021209
      ],
      [
        "Ġmodels",
        -9.397807593615475
      ],
      [
        "li",
        -9.40113324657365
      ],
      [
        "Ġupon",
        -9.403512388123495
      ],
      [
        "Ġwriting",
        -9.403841750657564
      ],
      [
        "Ġdeal",
        -9.405475333130015
      ],
      [
        "ĠMany",
        -9.406563572069688
      ],
      [
        "Ġmemory",
        -9.40718663555836
      ],
      [
        "Ġhope",
        -9.407195880356024
      ],
      [
        "Ġfeeling",
        -9.408250901246856
      ],
      [
        "Ġorganic",
        -9.40838610736986
      ],
      [
        "Ġideal",
        -9.408523594085324
      ],
      [
        "for",
        -9.409101865232014
      ],
      [
        "Ġspend",
        -9.40958039356657
      ],
      [
        "Ġtrain",
        -9.409733506950968
      ],
      [
        "ish",
        -9.41104210399048
      ],
      [
        "Ġedge",
        -9.41277752632842
      ],
      [
        "Ġbrand",
        -9.41327086514164
      ],
      [
        "Ġoxygen",
        -9.413894186348616
      ],
      [
        "Ġobtain",
        -9.41446658101658
      ],
      [
        "Ġimportance",
        -9.4146601705864
      ],
      [
        "Ġdate",
        -9.414772189881642
      ],
      [
        "Ġwear",
        -9.414906591398395
      ],
      [
        "ĠResearch",
        -9.41532953415662
      ],
      [
        "Ġserious",
        -9.416349660412664
      ],
      [
        "Ġsuccess",
        -9.416612289481044
      ],
      [
        "Ġfill",
        -9.41856777704526
      ],
      [
        "Ġmilk",
        -9.418646513253892
      ],
      [
        "Ġmoment",
        -9.42054799232046
      ],
      [
        "companie",
        -9.420961488234532
      ],
      [
        "Ġmen",
        -9.421184232142354
      ],
      [
        "ĠSouth",
        -9.421937745343012
      ],
      [
        "Ġwatch",
        -9.422123692480632
      ],
      [
        "Ġfoods",
        -9.422374924569162
      ],
      [
        "Ġsoft",
        -9.425104018256231
      ],
      [
        "...ĊĊ",
        -9.42571146308688
      ],
      [
        "ĠFrom",
        -9.425929736955595
      ],
      [
        "Ġideas",
        -9.42674300863784
      ],
      [
        "over",
        -9.427011952435858
      ],
      [
        "Ġencourage",
        -9.429319281180852
      ],
      [
        "Ġfigure",
        -9.429970883394674
      ],
      [
        "Ġslight",
        -9.430082898313746
      ],
      [
        "Ġtaste",
        -9.432293496531097
      ],
      [
        "Ġpatient",
        -9.432954822781443
      ],
      [
        "Ġanti",
        -9.435785127316883
      ],
      [
        "Ġinstance",
        -9.437357656410231
      ],
      [
        "Ġapp",
        -9.440795875933675
      ],
      [
        "Ġfluid",
        -9.440922285570664
      ],
      [
        "Ġremember",
        -9.442572137087684
      ],
      [
        "Ġenable",
        -9.443014661912851
      ],
      [
        "Ġhair",
        -9.443095523583366
      ],
      [
        "Ġmaintenance",
        -9.443573473317764
      ],
      [
        ".com",
        -9.444984555619232
      ],
      [
        "Ġimmediate",
        -9.44625616927652
      ],
      [
        "Ġseries",
        -9.44793798007228
      ],
      [
        "Ġseeds",
        -9.448230430588684
      ],
      [
        "Ġteeth",
        -9.448980161622725
      ],
      [
        "Ġnothing",
        -9.451159150736142
      ],
      [
        "Ġpromote",
        -9.451406636512909
      ],
      [
        "Ġhandle",
        -9.451754529014268
      ],
      [
        "Ġcommonly",
        -9.452583170790708
      ],
      [
        "Ġproperly",
        -9.452621952436752
      ],
      [
        "Ġdoctor",
        -9.4541163952025
      ],
      [
        "Ġtable",
        -9.455827435789116
      ],
      [
        "Ġrepair",
        -9.45639875438168
      ],
      [
        "Ġcircuit",
        -9.457163105853637
      ],
      [
        "Ġvision",
        -9.458413689723615
      ],
      [
        "Ġbaby",
        -9.459115361214174
      ],
      [
        "Ġdiseases",
        -9.459753347824533
      ],
      [
        "With",
        -9.461287866356972
      ],
      [
        "Ġcount",
        -9.461311366794057
      ],
      [
        "Ġseek",
        -9.461414204598071
      ],
      [
        "Ġsort",
        -9.462302660466548
      ],
      [
        "Ġpoor",
        -9.462537408821904
      ],
      [
        "Ġaccurate",
        -9.462639753553578
      ],
      [
        "Ġfrequent",
        -9.464090898595703
      ],
      [
        "Ġobjects",
        -9.464115376883022
      ],
      [
        "Ġbox",
        -9.464389083484264
      ],
      [
        "Ġsection",
        -9.46685445292774
      ],
      [
        "Ġliquid",
        -9.46779520089354
      ],
      [
        "Ġfat",
        -9.468228435423304
      ],
      [
        "[",
        -9.468517195704012
      ],
      [
        "Ġpretty",
        -9.47051353699496
      ],
      [
        "Ġkill",
        -9.471993301102277
      ],
      [
        "Ġmanage",
        -9.474267145978354
      ],
      [
        "Ġproteins",
        -9.47619698902701
      ],
      [
        "An",
        -9.476532637364016
      ],
      [
        "Ġrelationship",
        -9.478102821769331
      ],
      [
        "Ġstand",
        -9.478747316029231
      ],
      [
        "ĠBe",
        -9.47922029830847
      ],
      [
        "These",
        -9.48185862468616
      ],
      [
        "Ġhearing",
        -9.481903836504491
      ],
      [
        "Ġcats",
        -9.482279695971323
      ],
      [
        "Ġco",
        -9.485341501467795
      ],
      [
        "Ġplanet",
        -9.485815286145645
      ],
      [
        "Ġlives",
        -9.486533291186568
      ],
      [
        "came",
        -9.4870343213917
      ],
      [
        "Ġenter",
        -9.488751257689866
      ],
      [
        "Ġload",
        -9.49118066259858
      ],
      [
        "Ġcentury",
        -9.49176965052565
      ],
      [
        "Ġtask",
        -9.491944817414456
      ],
      [
        "By",
        -9.49349311356385
      ],
      [
        "Ġb",
        -9.49532833796604
      ],
      [
        "Ġcompar",
        -9.49587140206901
      ],
      [
        "ĠWorld",
        -9.496930997676303
      ],
      [
        "Ġcontains",
        -9.498404857178825
      ],
      [
        "Ġchallenges",
        -9.49875829602774
      ],
      [
        "Ġcouple",
        -9.498796483027782
      ],
      [
        "Ġtechnique",
        -9.499154499468958
      ],
      [
        "Ġevolution",
        -9.49916916683048
      ],
      [
        "Ġcompound",
        -9.499759829952485
      ],
      [
        "Ġphone",
        -9.499901923091372
      ],
      [
        "ĠWater",
        -9.500270021939809
      ],
      [
        "Ġinteresting",
        -9.50083617968698
      ],
      [
        "if",
        -9.501072672055178
      ],
      [
        "$",
        -9.501181615096744
      ],
      [
        "ĠWhy",
        -9.502764061328804
      ],
      [
        "Ġtouch",
        -9.502899489037876
      ],
      [
        "Ġnoise",
        -9.5059981682258
      ],
      [
        "Ġlocate",
        -9.5070017292837
      ],
      [
        "Ġresponsible",
        -9.508170256515497
      ],
      [
        "ĠAdditional",
        -9.509702551276993
      ],
      [
        "Ġcooking",
        -9.510288615384638
      ],
      [
        "Ġcloth",
        -9.510369094923842
      ],
      [
        "Ġcleaning",
        -9.511059197880224
      ],
      [
        "of",
        -9.511801321552753
      ],
      [
        "Ġrich",
        -9.512221732082056
      ],
      [
        "Ġfile",
        -9.513210235407136
      ],
      [
        "Ġrise",
        -9.514858769075804
      ],
      [
        "Ġgoe",
        -9.515034853098443
      ],
      [
        "Ġwait",
        -9.515777155352932
      ],
      [
        "Ġsmooth",
        -9.516194613685304
      ],
      [
        "Ġvia",
        -9.516250985177331
      ],
      [
        "Ġadapt",
        -9.51758395769681
      ],
      [
        "Ġmap",
        -9.517923680066046
      ],
      [
        "mm",
        -9.51929285073977
      ],
      [
        "Ġmembers",
        -9.521305393482193
      ],
      [
        "Ġreflect",
        -9.522009976480495
      ],
      [
        "Ġphase",
        -9.5227153768593
      ],
      [
        "Ġmolecules",
        -9.52319266311644
      ],
      [
        "Ġbeautiful",
        -9.526702753169369
      ],
      [
        "Ġstick",
        -9.527398992060302
      ],
      [
        "ĠNot",
        -9.528343953222851
      ],
      [
        "Ġbottom",
        -9.528559446304556
      ],
      [
        "Ġrefer",
        -9.529857465184756
      ],
      [
        "Ġaccept",
        -9.530521788111676
      ],
      [
        "Ġsub",
        -9.530597940933404
      ],
      [
        "Ġheavy",
        -9.53242695969688
      ],
      [
        "On",
        -9.533695155684622
      ],
      [
        "Ġcollect",
        -9.534730020333935
      ],
      [
        "Ġmaximum",
        -9.536411370607308
      ],
      [
        "Ġsetting",
        -9.536975729909027
      ],
      [
        "Ġpull",
        -9.537047686832016
      ],
      [
        "Ġsoon",
        -9.537726544225912
      ],
      [
        "Ġmechanism",
        -9.539720571516687
      ],
      [
        "Ġball",
        -9.540826231587982
      ],
      [
        "Ġconstruction",
        -9.540931326183792
      ],
      [
        "up",
        -9.541078149748518
      ],
      [
        "Ġswitch",
        -9.541490089284292
      ],
      [
        "Ġsustainable",
        -9.542189687774176
      ],
      [
        "Ġbird",
        -9.543374257731813
      ],
      [
        "Ġflight",
        -9.54438898045762
      ],
      [
        "Ġearth",
        -9.54505369157862
      ],
      [
        "X",
        -9.545098811003264
      ],
      [
        "Ġtank",
        -9.546073491258891
      ],
      [
        "Ġexpand",
        -9.546313370974122
      ],
      [
        "Some",
        -9.546924527124792
      ],
      [
        "ur",
        -9.547167831896314
      ],
      [
        "Ġconcept",
        -9.547383030369858
      ],
      [
        "ĠCenter",
        -9.5488760304126
      ],
      [
        "Ġensur",
        -9.54923436276597
      ],
      [
        "Ġwrite",
        -9.549259322783954
      ],
      [
        "Ġadjust",
        -9.549853774562472
      ],
      [
        "Ġtherap",
        -9.550387222569988
      ],
      [
        "-up",
        -9.551325115924978
      ],
      [
        "Ġpark",
        -9.551681097746243
      ],
      [
        "Ġelectronic",
        -9.552250235517622
      ],
      [
        "Ġmoisture",
        -9.552468242624332
      ],
      [
        "Ġcausing",
        -9.5543376853215
      ],
      [
        "Ġprojects",
        -9.555197505022228
      ],
      [
        "Ġdesire",
        -9.555853195877368
      ],
      [
        "Ġhost",
        -9.557761990705728
      ],
      [
        "Ġcosts",
        -9.558009002196917
      ],
      [
        "Ġpick",
        -9.55812650166886
      ],
      [
        "Ġscale",
        -9.559177611502
      ],
      [
        "Ġfinish",
        -9.559512116262647
      ],
      [
        "Ġ--",
        -9.561765531040605
      ],
      [
        "ĠAlso",
        -9.564514060835716
      ],
      [
        "Ġcontainer",
        -9.564613174952298
      ],
      [
        "Ġdecrease",
        -9.564613480307663
      ],
      [
        "Ġimplement",
        -9.56572455267678
      ],
      [
        "Ġpanel",
        -9.566169858681109
      ],
      [
        "Ġcutting",
        -9.567208794766431
      ],
      [
        "ĠAre",
        -9.567342238695732
      ],
      [
        "And",
        -9.568161526842736
      ],
      [
        "Ġrare",
        -9.568383854276934
      ],
      [
        "Ġapplied",
        -9.570597915371131
      ],
      [
        "water",
        -9.570988033868687
      ],
      [
        "Ġroad",
        -9.571913230590496
      ],
      [
        "Ġscreen",
        -9.572121517711045
      ],
      [
        "Ġwrong",
        -9.573271151746752
      ],
      [
        "ĠInstitute",
        -9.574008401467337
      ],
      [
        "Ġplann",
        -9.574584969154056
      ],
      [
        "Ġpest",
        -9.574747846019685
      ],
      [
        "inches",
        -9.57520843028988
      ],
      [
        "head",
        -9.576672765232324
      ],
      [
        "Ġfriends",
        -9.577049156149878
      ],
      [
        "Ġtrack",
        -9.577519004466769
      ],
      [
        "Ġround",
        -9.577582211692246
      ],
      [
        "Ġbrown",
        -9.579644557386583
      ],
      [
        "ĠWho",
        -9.580137021000954
      ],
      [
        "Ġreplace",
        -9.580386381084512
      ],
      [
        "Ġresistance",
        -9.58067097803753
      ],
      [
        "lthough",
        -9.582107467632014
      ],
      [
        "-term",
        -9.582364577408573
      ],
      [
        "Ġbag",
        -9.583461438507694
      ],
      [
        "Ġleg",
        -9.583907750473056
      ],
      [
        "Ġfrequency",
        -9.58396480700113
      ],
      [
        "Ġelement",
        -9.584826618335924
      ],
      [
        "Ġreducing",
        -9.585531129643188
      ],
      [
        "Ġdiscovered",
        -9.586055271289348
      ],
      [
        "Ġready",
        -9.587750009631094
      ],
      [
        "ĠGod",
        -9.587823584884852
      ],
      [
        "Ġpound",
        -9.587894056199296
      ],
      [
        "Ġdisorder",
        -9.589481520178852
      ],
      [
        "Ġcapacity",
        -9.59084891342269
      ],
      [
        "ch",
        -9.592087763292744
      ],
      [
        "ate",
        -9.59255998643144
      ],
      [
        "Ġplatform",
        -9.593072353067868
      ],
      [
        "Now",
        -9.593183806017787
      ],
      [
        "Do",
        -9.593418403760811
      ],
      [
        "Ġuses",
        -9.594348722759138
      ],
      [
        "ĠOur",
        -9.594908438520154
      ],
      [
        "Ġstem",
        -9.594996174951692
      ],
      [
        "Ġwild",
        -9.595460605903437
      ],
      [
        "Ġshift",
        -9.596088182370734
      ],
      [
        "ĠEach",
        -9.596618217917827
      ],
      [
        "Ġvoltage",
        -9.597678287385977
      ],
      [
        "Ġrecommend",
        -9.598072832453989
      ],
      [
        "Step",
        -9.598207955560646
      ],
      [
        "Ġglass",
        -9.600820395868777
      ],
      [
        "Ġpractices",
        -9.600901869357612
      ],
      [
        "Ġpowerful",
        -9.601513675004448
      ],
      [
        "Ġmessage",
        -9.603152770648194
      ],
      [
        "Ġvolume",
        -9.604417998423637
      ],
      [
        "Ġclaim",
        -9.6068288834613
      ],
      [
        "am",
        -9.607289711317
      ],
      [
        "Ġfight",
        -9.607479645647423
      ],
      [
        "Ġhands",
        -9.607517661433716
      ],
      [
        "Ġcommercial",
        -9.608322686768972
      ],
      [
        "Ġthird",
        -9.610446038822564
      ],
      [
        "ĠDe",
        -9.6105705776133
      ],
      [
        "ĠNow",
        -9.614061871064385
      ],
      [
        "Ġrapid",
        -9.616233607650956
      ],
      [
        "Ġgiving",
        -9.617919935160105
      ],
      [
        "Ġfarm",
        -9.61843087792439
      ],
      [
        "Ġanyone",
        -9.619945089506905
      ],
      [
        "Ġjoint",
        -9.6202416844965
      ],
      [
        "Ġdriver",
        -9.620789937650557
      ],
      [
        "Ġphotograph",
        -9.620841959432884
      ],
      [
        "time",
        -9.620918964970285
      ],
      [
        "Ġchang",
        -9.62231287788302
      ],
      [
        "Ġeconomic",
        -9.622615219688726
      ],
      [
        "Ġbond",
        -9.623700020016042
      ],
      [
        "Ġmeaning",
        -9.625978998605216
      ],
      [
        "Ġfoot",
        -9.626121549298617
      ],
      [
        "Ġconsist",
        -9.627065804482008
      ],
      [
        "Ġgenes",
        -9.629407618282457
      ],
      [
        "Ġreview",
        -9.629847013379491
      ],
      [
        "Ġraise",
        -9.629990855175986
      ],
      [
        "Ġpump",
        -9.630106774494337
      ],
      [
        "Ġmulti",
        -9.630177648625294
      ],
      [
        "spite",
        -9.631175888331908
      ],
      [
        "Ġcollection",
        -9.63152865119049
      ],
      [
        "Ġsolid",
        -9.631842883590336
      ],
      [
        "Ġenzyme",
        -9.632631646117034
      ],
      [
        "Ġconcentration",
        -9.633692994287449
      ],
      [
        "den",
        -9.634211677223462
      ],
      [
        "Ġnutrients",
        -9.635921857603988
      ],
      [
        "Ġsevere",
        -9.638253282020727
      ],
      [
        "Ġdie",
        -9.638761512692126
      ],
      [
        "Ġstates",
        -9.639603759639533
      ],
      [
        "Ġpicture",
        -9.639665166152966
      ],
      [
        "Ġworth",
        -9.639954408846725
      ],
      [
        "day",
        -9.640869358162515
      ],
      [
        "Ġattempt",
        -9.64107139674347
      ],
      [
        "Ġstructures",
        -9.641417209141952
      ],
      [
        "Ġgives",
        -9.641670061579696
      ],
      [
        "Ġtransport",
        -9.64176479774461
      ],
      [
        "Ġgrade",
        -9.642793239640728
      ],
      [
        "ĠWar",
        -9.64311135404042
      ],
      [
        "Ġversion",
        -9.643259198942246
      ],
      [
        "Ġdiscover",
        -9.64488935733866
      ],
      [
        "Ġtherefore",
        -9.645607079208336
      ],
      [
        "Ġmusic",
        -9.647184047232184
      ],
      [
        "Ġlaw",
        -9.647344901773366
      ],
      [
        "care",
        -9.64871958642322
      ],
      [
        "Ġled",
        -9.649390720016266
      ],
      [
        "Ġforward",
        -9.650228082450898
      ],
      [
        "Ġthus",
        -9.650986518903398
      ],
      [
        "Ġexcellent",
        -9.651235244157611
      ],
      [
        "Ġexpensive",
        -9.651354886815517
      ],
      [
        "Ġappearance",
        -9.651424820947453
      ],
      [
        "Ġyellow",
        -9.65217110601978
      ],
      [
        "co",
        -9.6534328503994
      ],
      [
        "Ġexpected",
        -9.653823824381886
      ],
      [
        "Ġmouth",
        -9.656481010467678
      ],
      [
        "bility",
        -9.656917280792545
      ],
      [
        "Ġsquare",
        -9.658351839573427
      ],
      [
        "Ġparticles",
        -9.660434695474704
      ],
      [
        "Ġplease",
        -9.661652475473105
      ],
      [
        "ĠThei",
        -9.66171789703158
      ],
      [
        "Ġconsistent",
        -9.663509451439891
      ],
      [
        "Ġstone",
        -9.663787371399115
      ],
      [
        "Ġfemale",
        -9.664888150900213
      ],
      [
        "Ġexposure",
        -9.665700485444995
      ],
      [
        "Ġcoming",
        -9.66803790437947
      ],
      [
        "Ġweb",
        -9.668674945377717
      ],
      [
        "Ġframe",
        -9.669404296315292
      ],
      [
        "Ġsuitabl",
        -9.670894646374744
      ],
      [
        "Ġcombine",
        -9.671972646348578
      ],
      [
        "line",
        -9.6726857676382
      ],
      [
        "Ġreported",
        -9.673193758595437
      ],
      [
        "Ġsecurit",
        -9.67380836129004
      ],
      [
        "Ġpractical",
        -9.673986780778227
      ],
      [
        "Ġpath",
        -9.674891986480276
      ],
      [
        "Ġbasi",
        -9.675913444705388
      ],
      [
        "Ġjourney",
        -9.677020939900023
      ],
      [
        "Ġsend",
        -9.677134121571562
      ],
      [
        "Ġalgorithm",
        -9.677405508821105
      ],
      [
        "Ġflavor",
        -9.677676264550216
      ],
      [
        "ĠLet",
        -9.67821566376058
      ],
      [
        "Ġsaw",
        -9.67852312942944
      ],
      [
        "Ġmagnetic",
        -9.680213992371488
      ],
      [
        "Ġtransition",
        -9.680267474851371
      ],
      [
        "ĠIndia",
        -9.680524413664529
      ],
      [
        "ĠBlack",
        -9.683187283303225
      ],
      [
        "Ġangle",
        -9.685046574901603
      ],
      [
        "Ġdocument",
        -9.686009048717846
      ],
      [
        "Ġphoto",
        -9.687091944238396
      ],
      [
        "Ġtexture",
        -9.687157945646632
      ],
      [
        "Ġsuit",
        -9.689275842146284
      ],
      [
        "Ġmiss",
        -9.689330976151416
      ],
      [
        "ĠâĢ¦",
        -9.689745646651218
      ],
      [
        "Ġcontext",
        -9.689884747442155
      ],
      [
        "Ġdoor",
        -9.690221850291168
      ],
      [
        "Ġtesting",
        -9.691176475990854
      ],
      [
        "Ġfund",
        -9.69180004694234
      ],
      [
        "Ġheight",
        -9.694902417372814
      ],
      [
        "Therefore",
        -9.695498995577552
      ],
      [
        "Ġclick",
        -9.696251251828674
      ],
      [
        "Ġnative",
        -9.6969036069714
      ],
      [
        "Ġmedium",
        -9.697865047332886
      ],
      [
        "ĠOther",
        -9.698162996408026
      ],
      [
        "Ġlesson",
        -9.698658493443444
      ],
      [
        "Ġfiber",
        -9.699281782249065
      ],
      [
        "Ġmeasurement",
        -9.700799776729651
      ],
      [
        "Ġdecade",
        -9.70117391339333
      ],
      [
        "ĠState",
        -9.701704689139657
      ],
      [
        "Ġaffected",
        -9.702087753892013
      ],
      [
        "ĠNOT",
        -9.702712203196915
      ],
      [
        "Ġpush",
        -9.703255227088068
      ],
      [
        "ĠAlthough",
        -9.704002027855845
      ],
      [
        "Ġvital",
        -9.705307389627436
      ],
      [
        "Ġerror",
        -9.705313580204775
      ],
      [
        "Ġsequence",
        -9.707798865953873
      ],
      [
        "ial",
        -9.70781183677904
      ],
      [
        "ĠOr",
        -9.708491199341818
      ],
      [
        "Ġbeyond",
        -9.709546673250289
      ],
      [
        "Ġpresence",
        -9.70954843477395
      ],
      [
        "Ġemission",
        -9.709555384240504
      ],
      [
        "Ġplayers",
        -9.709605007272028
      ],
      [
        "Ġjoin",
        -9.7097607295974
      ],
      [
        "Ġhuge",
        -9.709812003020277
      ],
      [
        "Ġtasks",
        -9.710170989749464
      ],
      [
        "ship",
        -9.71039198354175
      ],
      [
        "Ġexperiment",
        -9.711066378397842
      ],
      [
        "Ġrock",
        -9.711282173145952
      ],
      [
        "Ġquant",
        -9.71135783644964
      ],
      [
        "ĠAir",
        -9.713313564016552
      ],
      [
        "Ġabsorb",
        -9.714012591203694
      ],
      [
        "Ġwent",
        -9.715290747534612
      ],
      [
        "Ġcolour",
        -9.715648947438916
      ],
      [
        "Ġstuff",
        -9.71669815352722
      ],
      [
        "Ġconnected",
        -9.717162953645976
      ],
      [
        "Ġfashion",
        -9.717189022918356
      ],
      [
        "Ġmotion",
        -9.7173212076317
      ],
      [
        "Ġimmune",
        -9.717555132253356
      ],
      [
        "Ġsample",
        -9.717654834849624
      ],
      [
        "U",
        -9.71791584053737
      ],
      [
        "Ġmatch",
        -9.71835559438837
      ],
      [
        "Ġdriving",
        -9.718361846582193
      ],
      [
        "Ġrules",
        -9.719320794653422
      ],
      [
        "Ġconvert",
        -9.71994722521614
      ],
      [
        "limited",
        -9.722123208148606
      ],
      [
        "fully",
        -9.72256882007563
      ],
      [
        "Ġonto",
        -9.72263728634191
      ],
      [
        "j",
        -9.723144249451002
      ],
      [
        "Ġteachers",
        -9.723644234913456
      ],
      [
        "Ġteaching",
        -9.723766450942122
      ],
      [
        "Ġprocessing",
        -9.724021988252328
      ],
      [
        "Ġspeaker",
        -9.724146172978234
      ],
      [
        "Ġdistribution",
        -9.724912945314948
      ],
      [
        "Ġrobot",
        -9.725070522861136
      ],
      [
        "ized",
        -9.725892141045856
      ],
      [
        "work",
        -9.72610767232267
      ],
      [
        "Ġfunctions",
        -9.726635518558073
      ],
      [
        "ĠHigh",
        -9.7280504474904
      ],
      [
        "Ġrecipe",
        -9.72814293910046
      ],
      [
        "Ġbodie",
        -9.728253705282814
      ],
      [
        "Ġtechnologies",
        -9.728932753312316
      ],
      [
        "Ġlose",
        -9.729888513529392
      ],
      [
        "Ġwheel",
        -9.730296348772232
      ],
      [
        "Ġfossil",
        -9.730450716207775
      ],
      [
        "ĠOver",
        -9.731116829491848
      ],
      [
        "Ġsustain",
        -9.733012265615342
      ],
      [
        "Ġbackground",
        -9.733374207260958
      ],
      [
        "Ġwrit",
        -9.733952346741209
      ],
      [
        "Ġmiddle",
        -9.735111824047811
      ],
      [
        "Ġsociety",
        -9.73512715332479
      ],
      [
        "Ġinsight",
        -9.736430000787845
      ],
      [
        "No",
        -9.73646814125773
      ],
      [
        "Ġdivers",
        -9.737230679086451
      ],
      [
        "Ġrule",
        -9.737623706871254
      ],
      [
        "ĠMake",
        -9.738960040911955
      ],
      [
        "ĠOnc",
        -9.739648773857995
      ],
      [
        "ĠEnglish",
        -9.740256936459248
      ],
      [
        "Ġartist",
        -9.740870535769751
      ],
      [
        "Ġdetails",
        -9.741820877563796
      ],
      [
        "Ġsites",
        -9.742132443500102
      ],
      [
        "Ġvariation",
        -9.743249524742431
      ],
      [
        "Ġwar",
        -9.743789629170806
      ],
      [
        "ĠEuropean",
        -9.7441708000697
      ],
      [
        "un",
        -9.74553883261208
      ],
      [
        "Ġapproximate",
        -9.746112723612336
      ],
      [
        "comfortable",
        -9.746124364988264
      ],
      [
        "They",
        -9.748164315802144
      ],
      [
        "**",
        -9.748193477352183
      ],
      [
        "Ġfamilie",
        -9.750040945112094
      ],
      [
        "older",
        -9.75243192663994
      ],
      [
        "Ġbone",
        -9.752897801427306
      ],
      [
        "ĠCalifornia",
        -9.753555768300693
      ],
      [
        "Ġreference",
        -9.75430253410622
      ],
      [
        "Ġlandscape",
        -9.754341044281173
      ],
      [
        "Ġchallenge",
        -9.754844271232423
      ],
      [
        "Ġecosystem",
        -9.754993966146875
      ],
      [
        "Ġhit",
        -9.755585460707524
      ],
      [
        "ĠAfrica",
        -9.755768684476664
      ],
      [
        "J",
        -9.756650931436766
      ],
      [
        "Ġconsumption",
        -9.756969649861414
      ],
      [
        "Ġroots",
        -9.75978834481009
      ],
      [
        "ĠEven",
        -9.760135595612525
      ],
      [
        "Ġbirth",
        -9.762123526045496
      ],
      [
        "ĠUK",
        -9.763329407322836
      ],
      [
        "ĠEurope",
        -9.763883067050129
      ],
      [
        "Ġcommunit",
        -9.766949024126298
      ],
      [
        "Ġrice",
        -9.76730310349806
      ],
      [
        "Ġfabric",
        -9.767532570878014
      ],
      [
        "aught",
        -9.769461737629388
      ],
      [
        "Ġobserved",
        -9.770109375948296
      ],
      [
        "Ġinstructions",
        -9.770379468039817
      ],
      [
        "Ġcore",
        -9.770550250870214
      ],
      [
        "Ġaid",
        -9.770661192353348
      ],
      [
        "Ġdrawing",
        -9.77189365863966
      ],
      [
        "Ġblog",
        -9.77214021873921
      ],
      [
        "ĠFirst",
        -9.773933587263496
      ],
      [
        "Ġpainting",
        -9.77454490694334
      ],
      [
        "Ġcultural",
        -9.775006508652693
      ],
      [
        "Ġstock",
        -9.775335517911335
      ],
      [
        "Ġpair",
        -9.775598465959934
      ],
      [
        "ĠService",
        -9.775958891393977
      ],
      [
        "Ġlighting",
        -9.776247860631116
      ],
      [
        "Ġvary",
        -9.77625565231686
      ],
      [
        "Ġpurchase",
        -9.778283497315783
      ],
      [
        "Ġchannel",
        -9.7797199090829
      ],
      [
        "Ġbeginning",
        -9.780614979960449
      ],
      [
        "cy",
        -9.780642038711388
      ],
      [
        "Ġdiabetes",
        -9.781436379550527
      ],
      [
        "Ġbright",
        -9.782061939471834
      ],
      [
        "Ġlargest",
        -9.782638143918035
      ],
      [
        "Ġfavorite",
        -9.783059602219392
      ],
      [
        "Ġaspects",
        -9.783167690880912
      ],
      [
        "ĠMay",
        -9.783234802543806
      ],
      [
        "Ġremains",
        -9.784127948077476
      ],
      [
        "ĠJapan",
        -9.784237344967304
      ],
      [
        "Ġrecognize",
        -9.78494802556719
      ],
      [
        "ĠSystem",
        -9.785487531515177
      ],
      [
        "lost",
        -9.78768905497808
      ],
      [
        "Ġroll",
        -9.78811264407511
      ],
      [
        "Ġfloor",
        -9.78845750837893
      ],
      [
        "Ġgeneration",
        -9.79077594601969
      ],
      [
        "||",
        -9.79211958498524
      ],
      [
        "Ġcomment",
        -9.792134329464556
      ],
      [
        "Ġnote",
        -9.792738845352137
      ],
      [
        "ĠAccording",
        -9.793355202707232
      ],
      [
        "Ġdepth",
        -9.79414258877546
      ],
      [
        "Ġnational",
        -9.794414997099258
      ],
      [
        "Ġaren",
        -9.795941053319773
      ],
      [
        "Ġtrigger",
        -9.79697611184368
      ],
      [
        "Ġcross",
        -9.797842763346695
      ],
      [
        "Ġemploy",
        -9.799251371197254
      ],
      [
        "Ġmid",
        -9.799776747519818
      ],
      [
        "Ġbooks",
        -9.800076376127585
      ],
      [
        "Ġsurrounding",
        -9.801401367578595
      ],
      [
        "be",
        -9.80143787880701
      ],
      [
        "ĠRe",
        -9.802335977617446
      ],
      [
        "Ġcomfort",
        -9.802805343670672
      ],
      [
        "Ġutilize",
        -9.802896007569077
      ],
      [
        "Ġcreative",
        -9.80298635211243
      ],
      [
        "Ġskill",
        -9.803041231956652
      ],
      [
        "Ġbatteries",
        -9.803269643977204
      ],
      [
        "Ġlabel",
        -9.804300184744855
      ],
      [
        "Ġkeeping",
        -9.80430988225078
      ],
      [
        "Ġgrain",
        -9.806079397519902
      ],
      [
        "Ġpipe",
        -9.806257136496557
      ],
      [
        "ĠGerman",
        -9.80679086381015
      ],
      [
        "Ġdrug",
        -9.80841343429516
      ],
      [
        "Ġrespond",
        -9.809383152752307
      ],
      [
        "Ġseed",
        -9.809386994550245
      ],
      [
        "Ġclient",
        -9.809980093193914
      ],
      [
        "Ġintroduce",
        -9.81004175061014
      ],
      [
        "Ġpress",
        -9.810449830221064
      ],
      [
        "side",
        -9.811068979206455
      ],
      [
        "Ġletter",
        -9.811115251168973
      ],
      [
        "Ġdead",
        -9.811467443745665
      ],
      [
        "Ġwire",
        -9.811549340664422
      ],
      [
        "Ġdouble",
        -9.812111862079345
      ],
      [
        "-in",
        -9.81255504465435
      ],
      [
        "maybe",
        -9.81316542011742
      ],
      [
        "Ġexpect",
        -9.813723679238326
      ],
      [
        "Ġwonder",
        -9.813975573740574
      ],
      [
        "Ġaircraft",
        -9.815285624148109
      ],
      [
        "Ġiron",
        -9.815845757394062
      ],
      [
        "Ġcovered",
        -9.815907101828996
      ],
      [
        "Ġdiamond",
        -9.816268408538557
      ],
      [
        "electricity",
        -9.81690523317508
      ],
      [
        "Ġthreat",
        -9.81747204655761
      ],
      [
        "Ġcars",
        -9.817626059727154
      ],
      [
        "Ġdynamic",
        -9.817742446777237
      ],
      [
        "Ġstaff",
        -9.818468218628492
      ],
      [
        "Ġregulation",
        -9.81860979194143
      ],
      [
        "Ġsession",
        -9.8199084747308
      ],
      [
        "ĠDur",
        -9.820268046413448
      ],
      [
        "Ġpotato",
        -9.820354861015922
      ],
      [
        "Ġconservation",
        -9.820579488267756
      ],
      [
        "Ġcapture",
        -9.821977913628192
      ],
      [
        "Ġpack",
        -9.82280787130912
      ],
      [
        "Ġgrown",
        -9.82334813077656
      ],
      [
        "Ġtiny",
        -9.823534350565048
      ],
      [
        "Ġmiles",
        -9.824122471999605
      ],
      [
        "Ġremov",
        -9.825946011508428
      ],
      [
        "Ġhappy",
        -9.82601503622404
      ],
      [
        "Ġmotor",
        -9.82635529878096
      ],
      [
        "Ġfinancial",
        -9.827099205274036
      ],
      [
        "ĠPlant",
        -9.827495313612058
      ],
      [
        "ĠJust",
        -9.828342502990116
      ],
      [
        "Ġindicator",
        -9.828450463858433
      ],
      [
        "Ġvaluable",
        -9.829157031739127
      ],
      [
        "Ġatmosphere",
        -9.829482005290044
      ],
      [
        "held",
        -9.829978117569649
      ],
      [
        "took",
        -9.8303800746341
      ],
      [
        "quality",
        -9.83050435597858
      ],
      [
        "Ġrates",
        -9.832520520442973
      ],
      [
        "Ġegg",
        -9.834490984428967
      ],
      [
        "ĠUsing",
        -9.836708781573623
      ],
      [
        "ions",
        -9.837411393995016
      ],
      [
        "Ġcontroll",
        -9.837444473159652
      ],
      [
        "Ġmedicine",
        -9.837466404429872
      ],
      [
        "tic",
        -9.837468378376151
      ],
      [
        "Ġflat",
        -9.838329740755022
      ],
      [
        "Ġprogress",
        -9.84029919015502
      ],
      [
        "ese",
        -9.841748909191756
      ],
      [
        "Ġsurvive",
        -9.843138773793266
      ],
      [
        "Ġhundred",
        -9.845208224612763
      ],
      [
        "ant",
        -9.84522903294618
      ],
      [
        "Ġradio",
        -9.845606160014423
      ],
      [
        "-like",
        -9.845625947144164
      ],
      [
        "Ġsupplement",
        -9.846566740398558
      ],
      [
        "Ġeventual",
        -9.846594528171137
      ],
      [
        "Ġmother",
        -9.84725061566413
      ],
      [
        "Ġinternal",
        -9.84771615707186
      ],
      [
        "Ġcentral",
        -9.84789153008223
      ],
      [
        "Ġcontrast",
        -9.84846584177714
      ],
      [
        "Ġroutine",
        -9.849805183074157
      ],
      [
        "Ġcommand",
        -9.85105980025082
      ],
      [
        "ter",
        -9.85167432933873
      ],
      [
        "Ġratio",
        -9.85172464769628
      ],
      [
        "ĠYork",
        -9.85249769241208
      ],
      [
        "Ġoffice",
        -9.8534700564961
      ],
      [
        "Ġagree",
        -9.854067877200002
      ],
      [
        "That",
        -9.85500942337557
      ],
      [
        "Ġfilm",
        -9.85548711196829
      ],
      [
        "Ġmarine",
        -9.85600429602243
      ],
      [
        "Ġidentifie",
        -9.8568551989707
      ],
      [
        "Ġburn",
        -9.857792070798617
      ],
      [
        "ĠPark",
        -9.85782659711598
      ],
      [
        "Ġalone",
        -9.858359304406608
      ],
      [
        "Ġtransform",
        -9.859438994703522
      ],
      [
        "Ġimprov",
        -9.8605592954737
      ],
      [
        "Ġanxiet",
        -9.862104778552627
      ],
      [
        "Ġactual",
        -9.862587024392138
      ],
      [
        "Ġbutton",
        -9.862889284052857
      ],
      [
        "Ġfacilit",
        -9.863318180863995
      ],
      [
        "ĠMarch",
        -9.864305992656242
      ],
      [
        "Ġprefer",
        -9.864316006888243
      ],
      [
        "ok",
        -9.864435627137755
      ],
      [
        "Ġrandom",
        -9.864885160224285
      ],
      [
        "Ġexpress",
        -9.865724174721688
      ],
      [
        "Ġfeeding",
        -9.866495406861649
      ],
      [
        "ence",
        -9.866888650404212
      ],
      [
        "Ġlab",
        -9.867083393360836
      ],
      [
        "Ġstraight",
        -9.86724378754247
      ],
      [
        "ÂŃ",
        -9.867345237977778
      ],
      [
        "Ġhighlight",
        -9.86766211500282
      ],
      [
        "Ġfriend",
        -9.868113542272
      ],
      [
        "Ġdemonstrate",
        -9.868711828976483
      ],
      [
        "Ġdust",
        -9.869349937892116
      ],
      [
        "Ġcable",
        -9.869454475506654
      ],
      [
        "âĢĻt",
        -9.869799023696665
      ],
      [
        "Ġsurger",
        -9.869856932765709
      ],
      [
        "Ġmorning",
        -9.87015369896234
      ],
      [
        "Here",
        -9.87216655190577
      ],
      [
        "Ġchicken",
        -9.872290970257431
      ],
      [
        "Ġvirus",
        -9.873316729371822
      ],
      [
        "Ġexpression",
        -9.87360449530446
      ],
      [
        "Another",
        -9.873924292988177
      ],
      [
        "Ġminimum",
        -9.874027881653706
      ],
      [
        "Ġmember",
        -9.874250251972857
      ],
      [
        "all",
        -9.87466042578912
      ],
      [
        "Ġoffering",
        -9.875088682327693
      ],
      [
        "Ġwaves",
        -9.876428114418744
      ],
      [
        "ĠSince",
        -9.876876840364025
      ],
      [
        "Ġdrop",
        -9.877122801821551
      ],
      [
        "Ġcoat",
        -9.877757972149508
      ],
      [
        "Ġwildlife",
        -9.87837233394239
      ],
      [
        "Ġtrip",
        -9.879653591395922
      ],
      [
        "Ġmobile",
        -9.88026604230573
      ],
      [
        "Ġsteam",
        -9.880439540478385
      ],
      [
        "Ġcreation",
        -9.8807495596378
      ],
      [
        "Ġsecure",
        -9.88093606091715
      ],
      [
        "Ġteacher",
        -9.88106106379053
      ],
      [
        "Ġconclusion",
        -9.881208328374916
      ],
      [
        "ĠGreat",
        -9.88198231439944
      ],
      [
        "Ġaware",
        -9.882534572290991
      ],
      [
        "After",
        -9.882682331553111
      ],
      [
        "Ġmanufacturing",
        -9.884124723891333
      ],
      [
        "Ġclasses",
        -9.886286046869198
      ],
      [
        "Ġtransfer",
        -9.887851161812904
      ],
      [
        "Ġresource",
        -9.888199945575687
      ],
      [
        "Ġsounds",
        -9.888215487208052
      ],
      [
        "Ġjournal",
        -9.890044170314628
      ],
      [
        "Ġoperate",
        -9.891150910999071
      ],
      [
        "Ġlisten",
        -9.891203467176116
      ],
      [
        "ĠSt",
        -9.891878175078489
      ],
      [
        "Ġreliabl",
        -9.89320926327515
      ],
      [
        "Ġwidely",
        -9.895323825394414
      ],
      [
        "Ġcapabilit",
        -9.895745911489843
      ],
      [
        "Ġcard",
        -9.89597874536349
      ],
      [
        "ĠChina",
        -9.897170441132245
      ],
      [
        "Ġsymbol",
        -9.898241504998111
      ],
      [
        "Ġindoor",
        -9.8984280997259
      ],
      [
        "Ġdensit",
        -9.89886150015854
      ],
      [
        "ĠDepartment",
        -9.899153533642
      ],
      [
        "Ġvirtual",
        -9.902210423207377
      ],
      [
        "Our",
        -9.902379312551563
      ],
      [
        "Ġoperat",
        -9.90282473716522
      ],
      [
        "Ġchemicals",
        -9.904292732589068
      ],
      [
        "Ġthin",
        -9.904541822335858
      ],
      [
        "Ġstatement",
        -9.905326610155736
      ],
      [
        "ĠKeep",
        -9.905805758692344
      ],
      [
        "Ġgold",
        -9.905819703956936
      ],
      [
        "Ġsweet",
        -9.905835925508992
      ],
      [
        "ĠDay",
        -9.906627450540718
      ],
      [
        "ĠDec",
        -9.907239083944216
      ],
      [
        "Ġthick",
        -9.907506052934137
      ],
      [
        "Ġbear",
        -9.90838630733752
      ],
      [
        "Ġrequest",
        -9.909745446700096
      ],
      [
        "ĠDon",
        -9.910534007613116
      ],
      [
        "Ġinternational",
        -9.910615077297123
      ],
      [
        "Ġowners",
        -9.910815208326817
      ],
      [
        "Ġinteract",
        -9.911411889439211
      ],
      [
        "Ġmixture",
        -9.912364905936515
      ],
      [
        "Ġchain",
        -9.91341378252812
      ],
      [
        "Ġaudio",
        -9.913705406792978
      ],
      [
        "told",
        -9.914660765023823
      ],
      [
        "Ġpreference",
        -9.915005626134253
      ],
      [
        "Ġfundamental",
        -9.915163501869932
      ],
      [
        "Ġformed",
        -9.91527913494564
      ],
      [
        "Ġphysic",
        -9.915699055567
      ],
      [
        "Ġsmart",
        -9.916951050229793
      ],
      [
        "Ġconsume",
        -9.91862344276622
      ],
      [
        "Ġrain",
        -9.91910642232438
      ],
      [
        "Ġschedule",
        -9.919271156200464
      ],
      [
        "/or",
        -9.919717145028493
      ],
      [
        "Ġmanual",
        -9.920213510003752
      ],
      [
        "Ġadvice",
        -9.920261226815889
      ],
      [
        "Ġfarmers",
        -9.920588591318438
      ],
      [
        "ĠUnite",
        -9.920656732158804
      ],
      [
        "ĠAfrican",
        -9.922232462933144
      ],
      [
        "Ġpilot",
        -9.922644585513376
      ],
      [
        "Ġrid",
        -9.922722352995418
      ],
      [
        "Ġgoals",
        -9.924836293899354
      ],
      [
        "Ġshoes",
        -9.925644371556077
      ],
      [
        "Ġkitchen",
        -9.92625946839511
      ],
      [
        ".[",
        -9.926453827349194
      ],
      [
        "Ġbroad",
        -9.926716560982678
      ],
      [
        "ĠSea",
        -9.927487347612344
      ],
      [
        "Ġthread",
        -9.928301075348877
      ],
      [
        "ling",
        -9.929323599381
      ],
      [
        "Ġemotional",
        -9.929709332183478
      ],
      [
        "Ġsuggests",
        -9.929901352291886
      ],
      [
        "Ġcalorie",
        -9.930473614284375
      ],
      [
        "Ġdiscussion",
        -9.931896860518972
      ],
      [
        "Ġtube",
        -9.931963792500689
      ],
      [
        "All",
        -9.932432299134405
      ],
      [
        "Ġmechanical",
        -9.932833008466032
      ],
      [
        "Ġrespect",
        -9.933317525013845
      ],
      [
        "ent",
        -9.934790802811891
      ],
      [
        "which",
        -9.935050416810416
      ],
      [
        "Ġpixel",
        -9.937702106745704
      ],
      [
        "numerous",
        -9.937940895542956
      ],
      [
        "Ġbiological",
        -9.93838641146305
      ],
      [
        "Ġprimaril",
        -9.938415248069584
      ],
      [
        "Ġarray",
        -9.938529892661638
      ],
      [
        "Ġplane",
        -9.938870522840624
      ],
      [
        "Ġhighest",
        -9.93892637268327
      ],
      [
        "Ġtests",
        -9.93906658789945
      ],
      [
        "Ġbillion",
        -9.939871089270577
      ],
      [
        "Ġwash",
        -9.939967999517268
      ],
      [
        "Ġbrake",
        -9.941759128987345
      ],
      [
        "Ġdefinite",
        -9.941921733828778
      ],
      [
        "ĠWhether",
        -9.94215484275811
      ],
      [
        "Ġnest",
        -9.942473111357575
      ],
      [
        "Ġroof",
        -9.942759844440356
      ],
      [
        "Ġdangerous",
        -9.943317876499137
      ],
      [
        "Ġinternet",
        -9.945655557517242
      ],
      [
        "Ġkg",
        -9.946087987173788
      ],
      [
        "Ġforest",
        -9.946751056172925
      ],
      [
        "ĠPeople",
        -9.947618813421132
      ],
      [
        "Ġsamples",
        -9.94777476344054
      ],
      [
        "ĠGreen",
        -9.94805853043148
      ],
      [
        "]ĊĊ",
        -9.948873138010423
      ],
      [
        "Ġsports",
        -9.949440041779706
      ],
      [
        "Ġprivate",
        -9.950906600200298
      ],
      [
        "Ġlooks",
        -9.951026343390527
      ],
      [
        "Ġsuper",
        -9.951507069429727
      ],
      [
        "Ġattract",
        -9.951618987565052
      ],
      [
        "Ġcomprehensive",
        -9.955883247864618
      ],
      [
        "Ġformation",
        -9.957396024554534
      ],
      [
        "Ġvisibl",
        -9.957468642268678
      ],
      [
        "Ġpowder",
        -9.957524909007766
      ],
      [
        "Ġcook",
        -9.957812853608374
      ],
      [
        "reality",
        -9.95803608255737
      ],
      [
        "Ġtoward",
        -9.958447723008051
      ],
      [
        "Ġplaying",
        -9.95968225903755
      ],
      [
        "Ġtransmission",
        -9.960776863210643
      ],
      [
        "Ġharvest",
        -9.961263145546674
      ],
      [
        "Ġclassroom",
        -9.961316086985756
      ],
      [
        "Ġbeaut",
        -9.961752278229527
      ],
      [
        "Ġbug",
        -9.962035985404118
      ],
      [
        "Ġtrade",
        -9.962307953953225
      ],
      [
        "Ġlegal",
        -9.962904128704684
      ],
      [
        "defined",
        -9.96301495817025
      ],
      [
        "Ġcrop",
        -9.964241655248811
      ],
      [
        "Ġofficial",
        -9.965677286224558
      ],
      [
        "Ġnice",
        -9.966562968338897
      ],
      [
        "Ġmeal",
        -9.96708483713362
      ],
      [
        "><",
        -9.967401071721792
      ],
      [
        "Ġoptimal",
        -9.968072605399026
      ],
      [
        "Ġtitle",
        -9.968229569968452
      ],
      [
        "Ġcheese",
        -9.969733372656542
      ],
      [
        "Ġhabit",
        -9.970578252170528
      ],
      [
        "Answer",
        -9.970903221792208
      ],
      [
        "Ġsettings",
        -9.971815761555773
      ],
      [
        "Ġwindow",
        -9.972265154377707
      ],
      [
        "Ġextract",
        -9.972879283544888
      ],
      [
        "Ġparticipant",
        -9.974107352614135
      ],
      [
        "Ġwave",
        -9.97416725430663
      ],
      [
        "Ġparameter",
        -9.975926153975829
      ],
      [
        "wide",
        -9.976675563966
      ],
      [
        "Ġtechnical",
        -9.97759318387031
      ],
      [
        "Ġsteel",
        -9.978740509892235
      ],
      [
        "Ġboundar",
        -9.980070079045866
      ],
      [
        "Ġdi",
        -9.980367644223763
      ],
      [
        "Ġcup",
        -9.980434421129145
      ],
      [
        "Ġraw",
        -9.981126850927923
      ],
      [
        "Ġfoundation",
        -9.98199698426638
      ],
      [
        "Ġalcohol",
        -9.983549176867538
      ],
      [
        "eating",
        -9.983972055152728
      ],
      [
        "Ġemail",
        -9.984414830401716
      ],
      [
        "me",
        -9.984495907660005
      ],
      [
        "Ġportion",
        -9.985585222076605
      ],
      [
        "Ġshell",
        -9.98559516286149
      ],
      [
        "Ġbike",
        -9.985715855765342
      ],
      [
        "Ġfollowed",
        -9.985999655477876
      ],
      [
        "Ġultimate",
        -9.987118684879723
      ],
      [
        "Ġzero",
        -9.98726108146106
      ],
      [
        "Ġhelping",
        -9.98758863985531
      ],
      [
        "Ġplate",
        -9.988128810286582
      ],
      [
        "Ġdental",
        -9.989255816710951
      ],
      [
        "Ġtrul",
        -9.989668039625297
      ],
      [
        "Ġprocedure",
        -9.989725119722737
      ],
      [
        "laugh",
        -9.989727546904886
      ],
      [
        "fish",
        -9.989871644740305
      ],
      [
        "Ġcontinuous",
        -9.990040791806369
      ],
      [
        "Ġrisks",
        -9.990141843841084
      ],
      [
        "Ġstain",
        -9.990223861591192
      ],
      [
        "Ġmeeting",
        -9.990882633719051
      ],
      [
        "ĠApril",
        -9.991461641543946
      ],
      [
        "Ġheal",
        -9.991564298849095
      ],
      [
        "Ġthousands",
        -9.991950210060049
      ],
      [
        "Ġmelt",
        -9.992539319872929
      ],
      [
        "Ġorgan",
        -9.992763495285956
      ],
      [
        "October",
        -9.99280891037371
      ],
      [
        "Ġancient",
        -9.992905137685955
      ],
      [
        "\\u",
        -9.99314594669114
      ],
      [
        "Ġcollege",
        -9.993447140260349
      ],
      [
        "Ġbrush",
        -9.993559516792182
      ],
      [
        "Ġassess",
        -9.993649187737288
      ],
      [
        "Ġclinical",
        -9.99366436020642
      ],
      [
        "Ġeducational",
        -9.994841289979732
      ],
      [
        "Ġassist",
        -9.995260067186573
      ],
      [
        "Ġintelligence",
        -9.99780887610614
      ],
      [
        "Ġcareer",
        -9.9978443497495
      ],
      [
        "Ġautomatic",
        -9.998085236513386
      ],
      [
        "Ġorganisms",
        -9.998299054001638
      ],
      [
        "Conclusion",
        -9.998407606799326
      ],
      [
        "Ġuniverse",
        -9.998409270698666
      ],
      [
        "ĠCo",
        -9.998926838465042
      ],
      [
        "Ġfailure",
        -9.999131433265138
      ],
      [
        "Ġgraph",
        -10.000278821313632
      ],
      [
        "Ġprecise",
        -10.000301548947403
      ],
      [
        "Ġequation",
        -10.00030838964162
      ],
      [
        "Ġbloom",
        -10.001092867374645
      ],
      [
        "Ġstories",
        -10.00112313771545
      ],
      [
        "Ġinvolv",
        -10.001807205016116
      ],
      [
        "Ġconduct",
        -10.00272645802403
      ],
      [
        "Ġradiation",
        -10.003174793845188
      ],
      [
        "Ġfields",
        -10.004116751227208
      ],
      [
        "Ġpollution",
        -10.004670034670928
      ],
      [
        "Ġinteraction",
        -10.005164965030772
      ],
      [
        "Ġwhose",
        -10.006201280969057
      ],
      [
        "Ġstandards",
        -10.00628688085007
      ],
      [
        "ĠEnergy",
        -10.006662856940167
      ],
      [
        "Ġcrops",
        -10.00720543918994
      ],
      [
        "ĠGo",
        -10.007834576427296
      ],
      [
        "Ġattach",
        -10.009015249694675
      ],
      [
        "Ġlaser",
        -10.0090463880764
      ],
      [
        "Ġpool",
        -10.009506380468022
      ],
      [
        "Ġsaying",
        -10.011450502311977
      ],
      [
        "Ġperspective",
        -10.01237064443386
      ],
      [
        "Your",
        -10.012732390022178
      ],
      [
        "Ġ{",
        -10.013322604861164
      ],
      [
        "Ġsurvey",
        -10.013660749556646
      ],
      [
        "Ġapart",
        -10.013739793631142
      ],
      [
        "Ġhelpful",
        -10.013845833790295
      ],
      [
        "Ġgrass",
        -10.013909066096373
      ],
      [
        "Ġprepare",
        -10.013925513286228
      ],
      [
        "Ġpets",
        -10.014561303444497
      ],
      [
        "Ġcoffee",
        -10.015583628235149
      ],
      [
        "Ġjump",
        -10.01564361097774
      ],
      [
        "Most",
        -10.01613463309744
      ],
      [
        "Ġartificial",
        -10.016383903426116
      ],
      [
        "Ġexperiences",
        -10.016828244223955
      ],
      [
        "Ġboost",
        -10.017438995883802
      ],
      [
        "ities",
        -10.01821780296226
      ],
      [
        "brough",
        -10.020075047461198
      ],
      [
        "Ġmode",
        -10.020188008439604
      ],
      [
        "Ġyield",
        -10.02113081889763
      ],
      [
        "Ġcarefully",
        -10.022266489295674
      ],
      [
        "Instead",
        -10.022485157987113
      ],
      [
        "Ġsmell",
        -10.022791674308635
      ],
      [
        "Ġearlier",
        -10.023322228700057
      ],
      [
        "Ġcatch",
        -10.023328403063127
      ],
      [
        "ĠWell",
        -10.023866196577591
      ],
      [
        "Ġvitamin",
        -10.024181778310082
      ],
      [
        "-year",
        -10.024500359728163
      ],
      [
        "ĠpH",
        -10.02456599087298
      ],
      [
        "Ġstretch",
        -10.024906577467096
      ],
      [
        "Ġsunspot",
        -10.02524814081584
      ],
      [
        "Ġobservation",
        -10.025640334881128
      ],
      [
        "Ġessay",
        -10.025923676577197
      ],
      [
        "Ġobvious",
        -10.02623321405475
      ],
      [
        "-free",
        -10.026306848864824
      ],
      [
        "Ġmaster",
        -10.026414820158584
      ],
      [
        "Ġindustrial",
        -10.026699427952826
      ],
      [
        "Ġaspect",
        -10.027053763978904
      ],
      [
        "Ġguideline",
        -10.02782742545461
      ],
      [
        "Ġcompost",
        -10.028097134836129
      ],
      [
        "Ġdrugs",
        -10.028469963404673
      ],
      [
        "Ġpredict",
        -10.03031161599382
      ],
      [
        "Ġmolecular",
        -10.030664995223663
      ],
      [
        "Ġlifestyle",
        -10.03116726723034
      ],
      [
        "Ġtail",
        -10.031554357454471
      ],
      [
        "Ġengage",
        -10.031672547557982
      ],
      [
        "Ġcoal",
        -10.031823877238985
      ],
      [
        "Ġshar",
        -10.03247128546637
      ],
      [
        "Ġannual",
        -10.033184284105747
      ],
      [
        "ĠAustralia",
        -10.03398135040099
      ],
      [
        "board",
        -10.03447352559349
      ],
      [
        "Ġappeal",
        -10.035026298828306
      ],
      [
        "Ġformula",
        -10.035161137063923
      ],
      [
        "Ġworker",
        -10.035357326925531
      ],
      [
        "Ġupper",
        -10.03606716157056
      ],
      [
        "Ġcream",
        -10.03681608553604
      ],
      [
        "Ġcrack",
        -10.036949015232768
      ],
      [
        "Ġexternal",
        -10.03698672140892
      ],
      [
        "producing",
        -10.036998297854602
      ],
      [
        "Ġplanting",
        -10.037346851205928
      ],
      [
        "Ġtight",
        -10.037468449354588
      ],
      [
        "My",
        -10.03870528462728
      ],
      [
        "Ġvs",
        -10.0389086620423
      ],
      [
        "ĠCO",
        -10.039345358327529
      ],
      [
        "Ġcalculate",
        -10.041941147181326
      ],
      [
        "Ġvoice",
        -10.042903358642446
      ],
      [
        "Ġintend",
        -10.044156390321506
      ],
      [
        "Ġoccurr",
        -10.044722367459851
      ],
      [
        "Ġcomposition",
        -10.044887789211336
      ],
      [
        "Ġdescription",
        -10.046866696551362
      ],
      [
        "Ġchalleng",
        -10.047207936560657
      ],
      [
        "Ġpolicy",
        -10.04770133104326
      ],
      [
        "Ġillness",
        -10.048867630690436
      ],
      [
        "Ġrealize",
        -10.049137109847225
      ],
      [
        "Ġfear",
        -10.049208755950666
      ],
      [
        "Ġcreatures",
        -10.049277776837847
      ],
      [
        "iness",
        -10.049309527550754
      ],
      [
        "we",
        -10.050397403708864
      ],
      [
        "Ġcolon",
        -10.050479272300048
      ],
      [
        "Ġlaunch",
        -10.051608057737036
      ],
      [
        "Ġdefine",
        -10.051720669758073
      ],
      [
        "Ġexamine",
        -10.05207802290915
      ],
      [
        "Ġassessment",
        -10.053042509126795
      ],
      [
        "ĠEducation",
        -10.053403974231347
      ],
      [
        "Ġvessel",
        -10.05484306411267
      ],
      [
        "kept",
        -10.054876402261552
      ],
      [
        "Ġbeneficial",
        -10.054896409908968
      ],
      [
        "Ġowner",
        -10.055830012520987
      ],
      [
        "Ġpeak",
        -10.05584711440439
      ],
      [
        "ĠRiver",
        -10.05630225482869
      ],
      [
        "Ġembodiment",
        -10.056846804079669
      ],
      [
        "Ġeliminate",
        -10.057380987249196
      ],
      [
        "Ġthermal",
        -10.058500790175922
      ],
      [
        "Ġnation",
        -10.058821096261685
      ],
      [
        "Ġteach",
        -10.059056115254014
      ],
      [
        "Ġimprovement",
        -10.05936410107584
      ],
      [
        "Ġtrust",
        -10.059602092787893
      ],
      [
        "Ġmold",
        -10.060531717623048
      ],
      [
        "Ġstring",
        -10.060560123778878
      ],
      [
        "Ġprove",
        -10.060788168331587
      ],
      [
        "Ġreward",
        -10.060885468654105
      ],
      [
        "Ġplayer",
        -10.061156728562398
      ],
      [
        "ĠBoth",
        -10.06134197127894
      ],
      [
        "ĠFood",
        -10.062316292739322
      ],
      [
        "Ã©",
        -10.062648741475954
      ],
      [
        "Ġattend",
        -10.06269486858001
      ],
      [
        "Ġthorough",
        -10.06288303958897
      ],
      [
        "Ġsupplie",
        -10.06316964355268
      ],
      [
        "ĠGroup",
        -10.063584642114677
      ],
      [
        "Ġstatus",
        -10.063827798117762
      ],
      [
        "Ġpot",
        -10.063939723551892
      ],
      [
        "Ġfly",
        -10.064443553692676
      ],
      [
        "Many",
        -10.064474001093735
      ],
      [
        "Ġvaccine",
        -10.066186765883042
      ],
      [
        "Ġreduction",
        -10.066634930882746
      ],
      [
        "Ġengag",
        -10.067673238714804
      ],
      [
        "pp",
        -10.068107562432818
      ],
      [
        "Ġstrain",
        -10.068165276380052
      ],
      [
        "Ġreveal",
        -10.068544317559418
      ],
      [
        "ĠWhere",
        -10.06881662398613
      ],
      [
        "ated",
        -10.069312170883368
      ],
      [
        "Ġ<",
        -10.069381474224944
      ],
      [
        "Ġfault",
        -10.069712359427626
      ],
      [
        "Ġmicro",
        -10.070139612125493
      ],
      [
        "Ġsit",
        -10.070293479798416
      ],
      [
        "Ġgirl",
        -10.070742313555044
      ],
      [
        "Are",
        -10.07141278416589
      ],
      [
        "Ġopinion",
        -10.07156755180126
      ],
      [
        "Ġmainly",
        -10.071809084069578
      ],
      [
        "Ġbreast",
        -10.0721821337136
      ],
      [
        "Ġdish",
        -10.072750662533942
      ],
      [
        "ĠCity",
        -10.07290831057169
      ],
      [
        "ĠBritish",
        -10.072921881346236
      ],
      [
        "Ġgear",
        -10.074467303534512
      ],
      [
        "ĠJohn",
        -10.075533836633491
      ],
      [
        "Ġprovider",
        -10.075744960830136
      ],
      [
        "Ġrough",
        -10.075849300738511
      ],
      [
        "July",
        -10.076371024942189
      ],
      [
        "Ġexhibit",
        -10.07655158644762
      ],
      [
        "Ġchoos",
        -10.07698367271014
      ],
      [
        "Ġawareness",
        -10.07706329866814
      ],
      [
        "Ġscore",
        -10.077813705913766
      ],
      [
        "ĠFurther",
        -10.078079318044686
      ],
      [
        "Ġtraffic",
        -10.079145238130335
      ],
      [
        "Ġversatil",
        -10.079242982440835
      ],
      [
        "ĠGoogle",
        -10.08049089065332
      ],
      [
        "Ġengineering",
        -10.082164279775707
      ],
      [
        "ley",
        -10.0827137217937
      ],
      [
        "can",
        -10.08297277679387
      ],
      [
        "Ġhazard",
        -10.083272661102114
      ],
      [
        "Ġoutdoor",
        -10.083709148158032
      ],
      [
        "Ġlay",
        -10.085425247889264
      ],
      [
        "Ġborn",
        -10.085756921913326
      ],
      [
        "ĠInternational",
        -10.086034727630103
      ],
      [
        "Ġrelevant",
        -10.086587701543904
      ],
      [
        "ought",
        -10.087481691065715
      ],
      [
        "diversity",
        -10.089462471708211
      ],
      [
        "Ġrecovery",
        -10.090105622504437
      ],
      [
        "Ġlens",
        -10.090569363844033
      ],
      [
        "Ġprepared",
        -10.090920432217183
      ],
      [
        "ĠHis",
        -10.091331060813516
      ],
      [
        "Ġplent",
        -10.091552816754568
      ],
      [
        "Ġregister",
        -10.091736480947889
      ],
      [
        "Ġdistinct",
        -10.091776776037836
      ],
      [
        "Ġpercentage",
        -10.092152054024002
      ],
      [
        "Ġprinciples",
        -10.09296274613362
      ],
      [
        "Yes",
        -10.095319269978518
      ],
      [
        "Ġprior",
        -10.09571400833456
      ],
      [
        "Ġneural",
        -10.095727888675691
      ],
      [
        "|Ċ",
        -10.095851343873496
      ],
      [
        "Ġcraft",
        -10.096693246370748
      ],
      [
        "Ġtrial",
        -10.097018379944927
      ],
      [
        "Ġcredit",
        -10.097726647037968
      ],
      [
        "Ġaudience",
        -10.097794168680728
      ],
      [
        "Ġsunlight",
        -10.097948784538149
      ],
      [
        "Ġadopt",
        -10.099510789643835
      ],
      [
        "Ġprinting",
        -10.099510812822732
      ],
      [
        "Ġobjective",
        -10.099933145570043
      ],
      [
        "way",
        -10.100264820830738
      ],
      [
        "ĠDesign",
        -10.1003308310689
      ],
      [
        "ĠEast",
        -10.101814855757798
      ],
      [
        "Ġnaturally",
        -10.102121867854756
      ],
      [
        "Ġfail",
        -10.102903974944832
      ],
      [
        "ington",
        -10.103622547579317
      ],
      [
        "ill",
        -10.104292744323288
      ],
      [
        "Ġsell",
        -10.104791336141515
      ],
      [
        "Ġorigin",
        -10.104851363142252
      ],
      [
        "coming",
        -10.104920018762844
      ],
      [
        "ha",
        -10.105366711544937
      ],
      [
        "Ġfunctional",
        -10.105534670174968
      ],
      [
        "Ġscene",
        -10.105656784195162
      ],
      [
        "Ġphotos",
        -10.106204152772692
      ],
      [
        "men",
        -10.10711263151482
      ],
      [
        "ĠNov",
        -10.107367558473584
      ],
      [
        "ĠCanada",
        -10.107894291643667
      ],
      [
        "rote",
        -10.108516204408764
      ],
      [
        "Ġaccident",
        -10.108747087268714
      ],
      [
        "Ġhid",
        -10.109403360064055
      ],
      [
        "Ġchronic",
        -10.10943891716995
      ],
      [
        "ĠDoes",
        -10.109557760535717
      ],
      [
        "Ġamazing",
        -10.11041312679875
      ],
      [
        "Ġfirm",
        -10.110733431086285
      ],
      [
        "Ġcrystal",
        -10.110876486679263
      ],
      [
        "Ġpredator",
        -10.11101912076303
      ],
      [
        "...Ċ",
        -10.111336009998762
      ],
      [
        "Ġleak",
        -10.11144229501335
      ],
      [
        "Ġexcess",
        -10.11242684180823
      ],
      [
        "Ġextensive",
        -10.112531272018249
      ],
      [
        "Ġleaving",
        -10.112532436241032
      ],
      [
        "Ġsnow",
        -10.11278998539084
      ],
      [
        "Ġconcrete",
        -10.11322763524303
      ],
      [
        "Ġfix",
        -10.11351653479358
      ],
      [
        "Ġspray",
        -10.113609125301128
      ],
      [
        "Ġbill",
        -10.114027026339194
      ],
      [
        "Ġemotion",
        -10.114308207789424
      ],
      [
        "Ġtooth",
        -10.11496561083019
      ],
      [
        "Ġrace",
        -10.11507850714299
      ],
      [
        "Use",
        -10.11551598639846
      ],
      [
        "Ġsurvival",
        -10.11678386457061
      ],
      [
        "Ġdownload",
        -10.116886393283265
      ],
      [
        "Ġguy",
        -10.116923383489274
      ],
      [
        "Ġsheet",
        -10.117120166484863
      ],
      [
        "Ġdetermin",
        -10.117206224626532
      ],
      [
        "Ġnode",
        -10.117326868043271
      ],
      [
        "ĠAbout",
        -10.117682759263111
      ],
      [
        "Ġbowl",
        -10.117791060923505
      ],
      [
        "Ġconsideration",
        -10.118138454563358
      ],
      [
        "Ġpregnancy",
        -10.11965612241162
      ],
      [
        "Ġinvestment",
        -10.11972893816387
      ],
      [
        "ĠAsia",
        -10.12050962023793
      ],
      [
        "Ġconsequence",
        -10.121660300766424
      ],
      [
        "Ġlights",
        -10.122373493949883
      ],
      [
        "Ġengineer",
        -10.122386260471428
      ],
      [
        "Ġbottle",
        -10.122682515289917
      ],
      [
        "Ġcharg",
        -10.123059077534911
      ],
      [
        "ca",
        -10.12492942772504
      ],
      [
        "ĠHome",
        -10.125285346407445
      ],
      [
        "q",
        -10.125318683771573
      ],
      [
        "Ġhospital",
        -10.125489607618055
      ],
      [
        "Ġsector",
        -10.12549850637552
      ],
      [
        "ĠLED",
        -10.126053433873771
      ],
      [
        "ĠCount",
        -10.126475007175776
      ],
      [
        "Ġpure",
        -10.126486244899372
      ],
      [
        "Ġband",
        -10.126846132091083
      ],
      [
        "Ġtrait",
        -10.12749224892668
      ],
      [
        "Ġdestroy",
        -10.127528290803395
      ],
      [
        "Ġprogramm",
        -10.127975338447746
      ],
      [
        "ĠWest",
        -10.13047815030752
      ],
      [
        "Ġworry",
        -10.130716018573953
      ],
      [
        "Ġencounter",
        -10.13180389912863
      ],
      [
        "Ġabsolute",
        -10.132419201152684
      ],
      [
        "Ġallerg",
        -10.132654225637715
      ],
      [
        "what",
        -10.133047656757848
      ],
      [
        "Ġdecline",
        -10.133224745548905
      ],
      [
        "ĠLight",
        -10.13343424023611
      ],
      [
        "ĠArt",
        -10.133750238423456
      ],
      [
        "Ġassume",
        -10.13535002533956
      ],
      [
        "ĠSun",
        -10.136111474250194
      ],
      [
        "Ġdelay",
        -10.13626677273127
      ],
      [
        "ĠIndian",
        -10.136680092280796
      ],
      [
        "Ġresolution",
        -10.138409270988822
      ],
      [
        "Ġindependent",
        -10.138894574551776
      ],
      [
        "Ġsuffer",
        -10.139382630740744
      ],
      [
        "Ġsensitive",
        -10.139740229234924
      ],
      [
        "Ġactions",
        -10.13996378867562
      ],
      [
        "More",
        -10.140446557620985
      ],
      [
        "-time",
        -10.140463304336894
      ],
      [
        "Ġinstallation",
        -10.140731898251852
      ],
      [
        "Ġrestaurant",
        -10.140825047027018
      ],
      [
        "Ġestimated",
        -10.14157427277711
      ],
      [
        "Ġevolve",
        -10.141706998739377
      ],
      [
        "Ġexperiments",
        -10.141980816527427
      ],
      [
        "ĠY",
        -10.142155227093683
      ],
      [
        "Ġcm",
        -10.142235754219834
      ],
      [
        "Ġbar",
        -10.142366072436944
      ],
      [
        "Ġsufficient",
        -10.142588690879329
      ],
      [
        "Ġcalci",
        -10.143085980066587
      ],
      [
        "Ġresident",
        -10.144281948037122
      ],
      [
        "like",
        -10.14469372187515
      ],
      [
        "glasses",
        -10.145151477464529
      ],
      [
        "ĠEvery",
        -10.14518943866464
      ],
      [
        "Ġthrow",
        -10.147458204002003
      ],
      [
        "Ġfertilizer",
        -10.147658876584892
      ],
      [
        "Ġseven",
        -10.147991059479576
      ],
      [
        "cognition",
        -10.149263257300666
      ],
      [
        "Onc",
        -10.14927460190138
      ],
      [
        "Ġdatabase",
        -10.149333618063777
      ],
      [
        "Ġintroduc",
        -10.1497675603889
      ],
      [
        "ring",
        -10.149845090869
      ],
      [
        "Ġgravit",
        -10.1500935571259
      ],
      [
        "Let",
        -10.150358002543255
      ],
      [
        "referred",
        -10.150671518444987
      ],
      [
        "Ġprofile",
        -10.151351011333825
      ],
      [
        "First",
        -10.151483351764703
      ],
      [
        "ĠFrench",
        -10.152013113862168
      ],
      [
        "Ġleaf",
        -10.1524589679704
      ],
      [
        "].",
        -10.154221836508531
      ],
      [
        "Ġestimate",
        -10.154832627519738
      ],
      [
        "Ġconcerns",
        -10.15528637505296
      ],
      [
        "tried",
        -10.155410511382527
      ],
      [
        "ĠJune",
        -10.155527295129996
      ],
      [
        "Ġfelt",
        -10.15556488798741
      ],
      [
        "Ġfoster",
        -10.155885740985886
      ],
      [
        "Ġjuice",
        -10.156797753658694
      ],
      [
        "Ġcapabl",
        -10.156832066146375
      ],
      [
        "Ġnovel",
        -10.157371553677017
      ],
      [
        "cellular",
        -10.157789173354178
      ],
      [
        "Ġminerals",
        -10.158050793678866
      ],
      [
        "Ġsport",
        -10.158053529372555
      ],
      [
        "Ġrelationships",
        -10.15820574082003
      ],
      [
        "Ġsaving",
        -10.158291636394
      ],
      [
        "Ġexplor",
        -10.158789554999284
      ],
      [
        "Ġhistorical",
        -10.15963179025351
      ],
      [
        "Over",
        -10.160856342869858
      ],
      [
        "Ġapproaches",
        -10.16102593369329
      ],
      [
        "Ġemergency",
        -10.161195477835602
      ],
      [
        "Ġplays",
        -10.16130531467681
      ],
      [
        "Ġmining",
        -10.16154742603893
      ],
      [
        "itis",
        -10.161686443600914
      ],
      [
        "Ġrow",
        -10.162390380803618
      ],
      [
        "Ġlibrar",
        -10.16240928279493
      ],
      [
        "Ġdefinition",
        -10.163909183547286
      ],
      [
        "our",
        -10.164528719789027
      ],
      [
        "Ġworkshop",
        -10.16709178836933
      ],
      [
        "Ġagent",
        -10.16721895811855
      ],
      [
        "Ġreact",
        -10.167257748209812
      ],
      [
        "ble",
        -10.167693181502964
      ],
      [
        "ĠLife",
        -10.1678869101538
      ],
      [
        "Ġrely",
        -10.168739543330904
      ],
      [
        "-friendl",
        -10.169282892898648
      ],
      [
        "Ġconfirm",
        -10.16982176374185
      ],
      [
        "Ġmilitar",
        -10.170776191859945
      ],
      [
        "Ġshot",
        -10.171987310853927
      ],
      [
        "Ġfair",
        -10.172450115310854
      ],
      [
        "Ġshowing",
        -10.172802236261465
      ],
      [
        "end",
        -10.17317050947516
      ],
      [
        "Z",
        -10.174085723872349
      ],
      [
        "Ġpolitical",
        -10.17417333247881
      ],
      [
        "Ġmineral",
        -10.174412755350538
      ],
      [
        "Ġinteractions",
        -10.1751782869352
      ],
      [
        "Ġperhap",
        -10.175361716612128
      ],
      [
        "Ġeight",
        -10.175581708156129
      ],
      [
        "Ġstable",
        -10.175672098302304
      ],
      [
        "Ġurban",
        -10.176010566282631
      ],
      [
        "ĠZ",
        -10.17689779771924
      ],
      [
        "Ġremote",
        -10.17694968226014
      ],
      [
        "Ġmask",
        -10.177631442261475
      ],
      [
        "ĠSept",
        -10.177838943940134
      ],
      [
        "Ġopening",
        -10.177868113659702
      ],
      [
        "ge",
        -10.178667246748226
      ],
      [
        "Ġconversation",
        -10.17950149692336
      ],
      [
        "Ġprinter",
        -10.179603106097591
      ],
      [
        "Ġspen",
        -10.180087502957877
      ],
      [
        "Ġexam",
        -10.180415562120078
      ],
      [
        "Ġinnovation",
        -10.18054043818721
      ],
      [
        "Ġbudget",
        -10.180550367688312
      ],
      [
        "Ġblend",
        -10.180560212088295
      ],
      [
        "Ġloop",
        -10.180816095023692
      ],
      [
        "\"The",
        -10.181258945334266
      ],
      [
        "Ġmath",
        -10.18270242606339
      ],
      [
        "Ġmanner",
        -10.182979513565716
      ],
      [
        "Ġstroke",
        -10.184037347883546
      ],
      [
        "ball",
        -10.18428634534615
      ],
      [
        "Ġprompt",
        -10.185090624527412
      ],
      [
        "ene",
        -10.185461634546684
      ],
      [
        "Ġsolve",
        -10.185609469290403
      ],
      [
        "Ġcarried",
        -10.185777750079982
      ],
      [
        "Re",
        -10.18601153841368
      ],
      [
        "Ġlock",
        -10.186757761944758
      ],
      [
        "Ġcompetition",
        -10.187377090812268
      ],
      [
        "Ġspeak",
        -10.18878872953626
      ],
      [
        "that",
        -10.19030024041876
      ],
      [
        "Ġnerve",
        -10.190467451972411
      ],
      [
        "ĠHave",
        -10.190751198195816
      ],
      [
        "how",
        -10.191852320874446
      ],
      [
        "Ġmammal",
        -10.191955606450188
      ],
      [
        "with",
        -10.192569644985088
      ],
      [
        "Ġdecided",
        -10.1941949465951
      ],
      [
        "Ġexciting",
        -10.19426170996153
      ],
      [
        "ĠPower",
        -10.194960353749613
      ],
      [
        "Ġmanag",
        -10.195018611122816
      ],
      [
        "He",
        -10.195860006996265
      ],
      [
        "Ġelectrons",
        -10.195924036276372
      ],
      [
        "Ġguid",
        -10.195960667291704
      ],
      [
        "Ġwoman",
        -10.1961185212611
      ],
      [
        "Ġsent",
        -10.196700181510192
      ],
      [
        "Ġdecide",
        -10.19689201649866
      ],
      [
        "Ġdiagnose",
        -10.19709355470939
      ],
      [
        "Although",
        -10.197964064456162
      ],
      [
        "Ġserver",
        -10.198919988385622
      ],
      [
        "Ġcommunicate",
        -10.199380647847264
      ],
      [
        "Ġwish",
        -10.200476476972025
      ],
      [
        "Ġhydrogen",
        -10.200676165273478
      ],
      [
        "Ġgap",
        -10.20152135536236
      ],
      [
        "Ġinter",
        -10.201897097596063
      ],
      [
        "ng",
        -10.201925448612853
      ],
      [
        "Ġexcessive",
        -10.202159685211216
      ],
      [
        "Ġtomato",
        -10.202167927337914
      ],
      [
        "Ġrat",
        -10.203275133412966
      ],
      [
        "Ġagriculture",
        -10.203503013689438
      ],
      [
        "Ġstomach",
        -10.203634306913166
      ],
      [
        "Ġexplanation",
        -10.203972147521355
      ],
      [
        "ĠUE",
        -10.203994464271725
      ],
      [
        "ĠLike",
        -10.204170339562603
      ],
      [
        "Ġmention",
        -10.204463509644397
      ],
      [
        "Ġfishing",
        -10.205132063314313
      ],
      [
        "Ġgun",
        -10.2051978491233
      ],
      [
        "Ġwhatever",
        -10.205399111842812
      ],
      [
        "ĠIsland",
        -10.2054076898172
      ],
      [
        "Ġtall",
        -10.205450061910176
      ],
      [
        "ĠConsider",
        -10.205810175653454
      ],
      [
        "Ġlift",
        -10.20649054799523
      ],
      [
        "Ġstream",
        -10.207011003680346
      ],
      [
        "Ġsold",
        -10.207253779383429
      ],
      [
        "Ġacademic",
        -10.207262796311024
      ],
      [
        "ĠCD",
        -10.207350226897724
      ],
      [
        "ĠProgram",
        -10.207753476345442
      ],
      [
        "Ġseal",
        -10.207934576113503
      ],
      [
        "Ġfurniture",
        -10.208160813222667
      ],
      [
        "Ġinflammation",
        -10.208168434946016
      ],
      [
        "Ġfiles",
        -10.208533354223
      ],
      [
        "Ġchocolate",
        -10.208721873803295
      ],
      [
        "ification",
        -10.20931747221684
      ],
      [
        "Ġneck",
        -10.20934094418877
      ],
      [
        "Ġstorm",
        -10.209421285984067
      ],
      [
        "Ġloose",
        -10.211684166190413
      ],
      [
        "Ġchair",
        -10.212732851758336
      ],
      [
        "ĠGeneral",
        -10.214729511331068
      ],
      [
        "Ġhousehold",
        -10.216001609899768
      ],
      [
        "Ġchapter",
        -10.216061174411164
      ],
      [
        "Ġedit",
        -10.216293140240037
      ],
      [
        "Ġlung",
        -10.216386958176662
      ],
      [
        "ĠRed",
        -10.217100839812002
      ],
      [
        "Ġvast",
        -10.217572646565651
      ],
      [
        "History",
        -10.218025206431395
      ],
      [
        "Ġweigh",
        -10.218237664540805
      ],
      [
        "Ġcurve",
        -10.218458979640737
      ],
      [
        "Ġbecom",
        -10.218654101228276
      ],
      [
        "made",
        -10.21884067533443
      ],
      [
        "lin",
        -10.21957528232543
      ],
      [
        "ĠThus",
        -10.220010662183324
      ],
      [
        "Ġwasn",
        -10.220124061315977
      ],
      [
        "Ġitem",
        -10.221094544608334
      ],
      [
        "Ġsharp",
        -10.221445414714704
      ],
      [
        "ver",
        -10.222101051735471
      ],
      [
        "ĠCheck",
        -10.22289135486498
      ],
      [
        "Ġbones",
        -10.2229372358639
      ],
      [
        "Ġinstall",
        -10.222965093418884
      ],
      [
        "Ġappreciate",
        -10.223181857604809
      ],
      [
        "Ġconducted",
        -10.223441891250134
      ],
      [
        "he",
        -10.22455464540366
      ],
      [
        "Ġglucos",
        -10.2246071794174
      ],
      [
        "wood",
        -10.22536379426863
      ],
      [
        "From",
        -10.225586093203468
      ],
      [
        "Ġintake",
        -10.225998857195943
      ],
      [
        "Ġappears",
        -10.22609841177652
      ],
      [
        "Ġanalyze",
        -10.226498826643386
      ],
      [
        "Ġweak",
        -10.226596886180385
      ],
      [
        "Ġcomparison",
        -10.22700668725551
      ],
      [
        "According",
        -10.227976397612997
      ],
      [
        "Ġincorporat",
        -10.22869150179405
      ],
      [
        "Ġsurprise",
        -10.229386799014796
      ],
      [
        "Ġlinked",
        -10.229525901535188
      ],
      [
        "ĠLook",
        -10.23002082267102
      ],
      [
        "Ġpepper",
        -10.23027394429733
      ],
      [
        "Ġsubstance",
        -10.230627122572162
      ],
      [
        "Ġlense",
        -10.231404104293713
      ],
      [
        "Ġrelax",
        -10.232144578795948
      ],
      [
        "Ġeconom",
        -10.23224755368704
      ],
      [
        "Ġbroken",
        -10.232692847297612
      ],
      [
        "Ġconcepts",
        -10.235014261562917
      ],
      [
        "itting",
        -10.235294445967089
      ],
      [
        "Ġscrew",
        -10.235476905740338
      ],
      [
        "ĠSan",
        -10.236031611901993
      ],
      [
        "Ġdamaged",
        -10.236049206766545
      ],
      [
        "Ġregulate",
        -10.236325512017174
      ],
      [
        "Ġlaws",
        -10.236488117208534
      ],
      [
        "Ġwet",
        -10.237132280974548
      ],
      [
        "@",
        -10.237705516842336
      ],
      [
        "Ġchoices",
        -10.238957220904272
      ],
      [
        "Ġaccurac",
        -10.2389677158307
      ],
      [
        "Ġelectron",
        -10.239123962628636
      ],
      [
        "Ġdeposit",
        -10.239383281837169
      ],
      [
        "Ġagenc",
        -10.24033634418046
      ],
      [
        "Ġship",
        -10.2405417321539
      ],
      [
        "cities",
        -10.241782178332423
      ],
      [
        "Ġputt",
        -10.242782557653785
      ],
      [
        "Ġnutrition",
        -10.242805405803166
      ],
      [
        "Ġcloser",
        -10.243172188160614
      ],
      [
        "Ġsecret",
        -10.243481374066349
      ],
      [
        "Ġstability",
        -10.24367172047199
      ],
      [
        "Ġinterior",
        -10.243816099952983
      ],
      [
        "Ġarm",
        -10.244707598288793
      ],
      [
        "Ġclock",
        -10.245515331829314
      ],
      [
        "ĠSociety",
        -10.24642544444593
      ],
      [
        "Ġdiagnosi",
        -10.24656325918497
      ],
      [
        "standing",
        -10.247743831298028
      ],
      [
        "biology",
        -10.249106533781726
      ],
      [
        "-being",
        -10.249774181001388
      ],
      [
        "gone",
        -10.250359732724782
      ],
      [
        "Ġdur",
        -10.250700618946302
      ],
      [
        "Ġsudden",
        -10.251074507168289
      ],
      [
        "Ġreplacement",
        -10.251453073755366
      ],
      [
        "Ġemployees",
        -10.251851096238587
      ],
      [
        "Ġcareful",
        -10.253612658931656
      ],
      [
        "Ġdirector",
        -10.253920004023026
      ],
      [
        "her",
        -10.254751680066349
      ],
      [
        "Ġten",
        -10.25518629057358
      ],
      [
        "ĠUV",
        -10.255495785070792
      ],
      [
        "Ġpreparation",
        -10.25612504493711
      ],
      [
        "Ġinvention",
        -10.256180778891927
      ],
      [
        "possibly",
        -10.25724661536002
      ],
      [
        "Ġconsult",
        -10.257870054896737
      ],
      [
        "Ġconstruct",
        -10.25794301945933
      ],
      [
        "Ġmovie",
        -10.25816612858188
      ],
      [
        "Ġinform",
        -10.258851136247426
      ],
      [
        "Ġheavi",
        -10.259165532500402
      ],
      [
        "Ġbranch",
        -10.259712585712276
      ],
      [
        "ership",
        -10.260171575414017
      ],
      [
        "Ġscenario",
        -10.260866609443426
      ],
      [
        "Ġnitrogen",
        -10.260949150760656
      ],
      [
        "Ġconfidence",
        -10.26125815501741
      ],
      [
        "ĠUp",
        -10.2625455976658
      ],
      [
        "Ġprofessor",
        -10.262655403204372
      ],
      [
        "Ġsnake",
        -10.263136256435118
      ],
      [
        "Ġdiagram",
        -10.263330886035584
      ],
      [
        "ĠHuman",
        -10.264473916987775
      ],
      [
        "Ġshop",
        -10.265850940610663
      ],
      [
        "Ġclothes",
        -10.266216586438858
      ],
      [
        "Ġatoms",
        -10.266256108576204
      ],
      [
        "Ġincorporate",
        -10.266752844218598
      ],
      [
        "Ġdirt",
        -10.26683273108154
      ],
      [
        "ĠGuide",
        -10.267517035235784
      ],
      [
        "Ġguess",
        -10.268231538696888
      ],
      [
        "Ġcopper",
        -10.26909656422631
      ],
      [
        "Ġcloud",
        -10.269245185385284
      ],
      [
        "ĠControl",
        -10.269359804779103
      ],
      [
        "Ġbegins",
        -10.269556835052654
      ],
      [
        "Ġpro",
        -10.270266575218423
      ],
      [
        "Ġflood",
        -10.270755178594598
      ],
      [
        "Ġbigger",
        -10.270815845146242
      ],
      [
        "Ġstudied",
        -10.272177352076689
      ],
      [
        "Ġnose",
        -10.272332082942174
      ],
      [
        "Ġfamiliar",
        -10.272660068691136
      ],
      [
        "Ġlaborator",
        -10.272741692273186
      ],
      [
        "Ġaesthetic",
        -10.273337477013044
      ],
      [
        "ĠWash",
        -10.273927835575796
      ],
      [
        "Ġincredibl",
        -10.274538342880248
      ],
      [
        "Ġtrouble",
        -10.2748491972398
      ],
      [
        "Ġvariable",
        -10.274851606369998
      ],
      [
        "Ġcotton",
        -10.27574152058106
      ],
      [
        "Ġpictures",
        -10.275853771700175
      ],
      [
        "Ġsizes",
        -10.27631004214087
      ],
      [
        "Ġdedicate",
        -10.276781353104674
      ],
      [
        "Ġcovers",
        -10.278974295383485
      ],
      [
        "ĠTwo",
        -10.279589071951747
      ],
      [
        "ĠUn",
        -10.2799338143245
      ],
      [
        "Ġprobabilit",
        -10.281045645932265
      ],
      [
        "Ġorange",
        -10.281699289623418
      ],
      [
        "ĠJanu",
        -10.28286807793434
      ],
      [
        "Ġgave",
        -10.283314240164174
      ],
      [
        "Ġcampaign",
        -10.28397158969435
      ],
      [
        "Ġbelief",
        -10.284363690307496
      ],
      [
        "Ġflying",
        -10.285594037807211
      ],
      [
        "-related",
        -10.28602260061467
      ],
      [
        "going",
        -10.28699645792747
      ],
      [
        "Ġmanufacturer",
        -10.287184535200208
      ],
      [
        "Ġminimize",
        -10.287327037000866
      ],
      [
        "Ġinterface",
        -10.287380689963488
      ],
      [
        "Ġshapes",
        -10.287716031855872
      ],
      [
        "Ġexchange",
        -10.288267298054237
      ],
      [
        "ĠFebr",
        -10.28841026991747
      ],
      [
        "Ġma",
        -10.289954371069824
      ],
      [
        "ĠLearning",
        -10.290445752964992
      ],
      [
        "Ġinner",
        -10.290688344929158
      ],
      [
        "Ġvarie",
        -10.290830989212296
      ],
      [
        "Ġgradual",
        -10.290831205307136
      ],
      [
        "-the",
        -10.2910071983211
      ],
      [
        "Ġcorresponding",
        -10.293156826318263
      ],
      [
        "Ġcooked",
        -10.29316518030418
      ],
      [
        "Ġfather",
        -10.29353172945686
      ],
      [
        "ĠII",
        -10.29367521595519
      ],
      [
        "Ġexpose",
        -10.293912518359472
      ],
      [
        "Ġvariet",
        -10.29442765084265
      ],
      [
        "Ġroute",
        -10.294608818237805
      ],
      [
        "op",
        -10.2951827864456
      ],
      [
        "Ġrecorded",
        -10.295214449769457
      ],
      [
        "Ġcoral",
        -10.296051824394176
      ],
      [
        "Ġtrail",
        -10.296541068074792
      ],
      [
        "see",
        -10.29699702246284
      ],
      [
        "ĠMan",
        -10.297140522252938
      ],
      [
        "Ġisland",
        -10.297557130493416
      ],
      [
        "Ġtruck",
        -10.2975839160797
      ],
      [
        "ĠFlorid",
        -10.297977809068732
      ],
      [
        "cholesterol",
        -10.29849834972769
      ],
      [
        "Ġcalm",
        -10.29872295711317
      ],
      [
        "-of",
        -10.298969305428042
      ],
      [
        "Ġupdate",
        -10.29912906145669
      ],
      [
        "Ġwin",
        -10.299218187522822
      ],
      [
        "Ġbreath",
        -10.299329743676005
      ],
      [
        "Ġformat",
        -10.299510233601826
      ],
      [
        "Ġmedication",
        -10.299555754796604
      ],
      [
        "Ġseat",
        -10.300124977730166
      ],
      [
        "Ġtoxic",
        -10.300154991744744
      ],
      [
        "uar",
        -10.300384472352071
      ],
      [
        "ĠTHE",
        -10.300446233453805
      ],
      [
        "ĠCollege",
        -10.300758027268984
      ],
      [
        "Ġconflict",
        -10.301022318818166
      ],
      [
        "Ġinsurance",
        -10.301121962267876
      ],
      [
        "Ġrespective",
        -10.302493388811651
      ],
      [
        "Ġfamous",
        -10.302663417820714
      ],
      [
        "ĠCommon",
        -10.303435418443517
      ],
      [
        "Ġmanager",
        -10.303996088064302
      ],
      [
        "Ġcontribution",
        -10.304205557422812
      ],
      [
        "Ġstar",
        -10.304564637048568
      ],
      [
        "Ġhormone",
        -10.304941859832535
      ],
      [
        "Ġnet",
        -10.30501114294572
      ],
      [
        "ĠAny",
        -10.30564822172483
      ],
      [
        "Ġmassive",
        -10.30586307906358
      ],
      [
        "Ġshed",
        -10.307035329278936
      ],
      [
        "Ġreceiv",
        -10.30762757923721
      ],
      [
        "Ġinnovative",
        -10.308738715480011
      ],
      [
        "Ġmolecule",
        -10.308903369252214
      ],
      [
        "Ġwouldn",
        -10.308914997225596
      ],
      [
        "Ġlie",
        -10.30936209395594
      ],
      [
        "Ġprofessionals",
        -10.309424756318885
      ],
      [
        "Ġmembrane",
        -10.31013182884834
      ],
      [
        "Ġdishe",
        -10.311158432018908
      ],
      [
        "Ġluck",
        -10.311862524655288
      ],
      [
        "ĠPacific",
        -10.312636568156384
      ],
      [
        "Ġnotes",
        -10.31286689453211
      ],
      [
        "Ġvertical",
        -10.313082891233735
      ],
      [
        "Ġtradition",
        -10.313564101392505
      ],
      [
        "Ġreplac",
        -10.313784801812822
      ],
      [
        "Ġmedications",
        -10.315416029562376
      ],
      [
        "Ġrecording",
        -10.315536708037529
      ],
      [
        "Ġrear",
        -10.31666373847187
      ],
      [
        "ĠGet",
        -10.316808115973608
      ],
      [
        "Ġinch",
        -10.31710901121883
      ],
      [
        "Ġsilver",
        -10.318157734491118
      ],
      [
        "Ġmarketing",
        -10.318938448494109
      ],
      [
        "Ġprocedures",
        -10.319060127263434
      ],
      [
        "Ġliver",
        -10.319671105995743
      ],
      [
        "ĠThrough",
        -10.320516984817974
      ],
      [
        "Ġmutation",
        -10.322013172567356
      ],
      [
        "Ġstronger",
        -10.322543491533366
      ],
      [
        "Ġchemistry",
        -10.323239592307845
      ],
      [
        "Ġdrain",
        -10.32345981121631
      ],
      [
        "ĠLake",
        -10.324318748478314
      ],
      [
        "ize",
        -10.324320183527073
      ],
      [
        "Ġfemales",
        -10.324871530314775
      ],
      [
        "Ġcoast",
        -10.324947271415724
      ],
      [
        "Ġgrant",
        -10.325160920142055
      ],
      [
        "ĠEngland",
        -10.325207542703891
      ],
      [
        "Ġcustom",
        -10.326061724200082
      ],
      [
        "Ġnutrient",
        -10.326703418312608
      ],
      [
        "--",
        -10.326750231728692
      ],
      [
        "Ġriver",
        -10.327021075044591
      ],
      [
        "-level",
        -10.327447279589755
      ],
      [
        "Ġrecommendation",
        -10.327513244822134
      ],
      [
        "ĠBlue",
        -10.32837390068723
      ],
      [
        "Ġbutter",
        -10.329528958314436
      ],
      [
        "Ġopposite",
        -10.330348800347014
      ],
      [
        "ĠMe",
        -10.33079666748289
      ],
      [
        "Ġhardware",
        -10.330855186443824
      ],
      [
        "Ġshade",
        -10.331368568681064
      ],
      [
        "ĠOcean",
        -10.33146391687039
      ],
      [
        "accessible",
        -10.332229089825336
      ],
      [
        "Ġadequate",
        -10.33229560388023
      ],
      [
        "Ġpackage",
        -10.332352320737982
      ],
      [
        "Ġspecialist",
        -10.333086651153245
      ],
      [
        "Ġsegment",
        -10.333333171152756
      ],
      [
        "Ġrelation",
        -10.333640128545548
      ],
      [
        "interested",
        -10.333719029631084
      ],
      [
        "Ġalter",
        -10.33442848119687
      ],
      [
        "Ġtile",
        -10.334484977233451
      ],
      [
        "ĠAnimal",
        -10.334538213493628
      ],
      [
        "Ġoven",
        -10.334902679776755
      ],
      [
        "Ġpose",
        -10.33521035438699
      ],
      [
        "ĠAdd",
        -10.33556917368665
      ],
      [
        "Ġherb",
        -10.336117976331916
      ],
      [
        "Ġimagine",
        -10.336697017834648
      ],
      [
        "Ġintroduction",
        -10.33694602387596
      ],
      [
        "Ġsex",
        -10.337456424227506
      ],
      [
        "Ġminute",
        -10.337783951774425
      ],
      [
        "Ġsignificance",
        -10.337805356191964
      ],
      [
        "}",
        -10.338696384045653
      ],
      [
        "ĠAugust",
        -10.338880716757266
      ],
      [
        "Ġtheme",
        -10.33892514443736
      ],
      [
        "Ġwashing",
        -10.339402383197942
      ],
      [
        "ĠWindow",
        -10.339474595486411
      ],
      [
        "Ġbean",
        -10.340694047754129
      ],
      [
        "per",
        -10.34072180874866
      ],
      [
        "Ġsets",
        -10.340788666398437
      ],
      [
        "Ġillustrate",
        -10.34082263720541
      ],
      [
        "ĠRead",
        -10.340991827879618
      ],
      [
        "ical",
        -10.341067074701892
      ],
      [
        "Ġdimension",
        -10.3419028035783
      ],
      [
        "Ġconventional",
        -10.342384954145023
      ],
      [
        "Ġobes",
        -10.342864467900828
      ],
      [
        "Ġwearing",
        -10.344037522261834
      ],
      [
        "Ġnames",
        -10.344831268169582
      ],
      [
        "Ġpuppy",
        -10.346296264031327
      ],
      [
        "Ġusage",
        -10.346366975315457
      ],
      [
        "Ġshoulder",
        -10.34674620818561
      ],
      [
        "?\"",
        -10.346917331910344
      ],
      [
        "ka",
        -10.347021566189902
      ],
      [
        "Ġgather",
        -10.347071736805235
      ],
      [
        "most",
        -10.347616265946147
      ],
      [
        "Ġmild",
        -10.348305331613933
      ],
      [
        "Ġframework",
        -10.348359899186171
      ],
      [
        "go",
        -10.348745834614164
      ],
      [
        "aging",
        -10.34945577242177
      ],
      [
        "Ġsubstances",
        -10.350503279379575
      ],
      [
        "Ġdanger",
        -10.350720487296712
      ],
      [
        "Ġexcept",
        -10.350939598156
      ],
      [
        "ĠAC",
        -10.3512672641573
      ],
      [
        "que",
        -10.35206127841422
      ],
      [
        "Ġmoon",
        -10.352148293592672
      ],
      [
        "Ġanswers",
        -10.352728448829447
      ],
      [
        "Ġprinciple",
        -10.352759204410518
      ],
      [
        "Ġfold",
        -10.352872885983803
      ],
      [
        "Ġtrend",
        -10.352961119633822
      ],
      [
        "Ġtwice",
        -10.353614560978237
      ],
      [
        "Ġcollaboration",
        -10.353684985786696
      ],
      [
        "Ġbehaviour",
        -10.35499752487802
      ],
      [
        "Ġsauce",
        -10.35669529237368
      ],
      [
        "Ġvelocit",
        -10.357092359306328
      ],
      [
        "cid",
        -10.359553923895485
      ],
      [
        "Ġgum",
        -10.3615379433459
      ],
      [
        "Ġbabies",
        -10.36172696530229
      ],
      [
        "Ġpartner",
        -10.3620652262544
      ],
      [
        "Ġmenu",
        -10.362268836322825
      ],
      [
        "Ġparticle",
        -10.363126696319595
      ],
      [
        "ĠToday",
        -10.363659174502327
      ],
      [
        "ĠTake",
        -10.36429197502022
      ],
      [
        "ĠTime",
        -10.364356699025654
      ],
      [
        "Ġdepression",
        -10.364532305902332
      ],
      [
        "Ġstreet",
        -10.364717936804524
      ],
      [
        "Ġimpossibl",
        -10.366326486298831
      ],
      [
        "Ġdisk",
        -10.366388523499976
      ],
      [
        "Not",
        -10.366392931102832
      ],
      [
        "hi",
        -10.366882274931209
      ],
      [
        "eath",
        -10.368625849159908
      ],
      [
        "Ġevaluate",
        -10.3693652126392
      ],
      [
        "Ġborder",
        -10.369944317606432
      ],
      [
        "Ġparticipate",
        -10.370015735637525
      ],
      [
        "Ġfeedback",
        -10.370085115213811
      ],
      [
        "Ġbio",
        -10.370125580153116
      ],
      [
        "Ġhunting",
        -10.370298070474815
      ],
      [
        "Ġmeant",
        -10.370547340071294
      ],
      [
        "ĠAssociation",
        -10.370824869250615
      ],
      [
        "ING",
        -10.371640048659998
      ],
      [
        "Ġwine",
        -10.371788369070286
      ],
      [
        "Ġmeals",
        -10.371813491432125
      ],
      [
        "Ġride",
        -10.372418718878084
      ],
      [
        "ĠNatural",
        -10.372554705778857
      ],
      [
        "Ġsatellite",
        -10.372670949495689
      ],
      [
        "Ġvibrant",
        -10.372670953972976
      ],
      [
        "Ġreceptor",
        -10.37298903004885
      ],
      [
        "Ġtip",
        -10.373005355715076
      ],
      [
        "Ġhorses",
        -10.373824310688704
      ],
      [
        "back",
        -10.373889155826788
      ],
      [
        "Ġunlike",
        -10.374883954435912
      ],
      [
        "Ġcombin",
        -10.375162011533671
      ],
      [
        "Ġpan",
        -10.375518137431186
      ],
      [
        "ating",
        -10.375591801986983
      ],
      [
        "Ġsides",
        -10.376850028362838
      ],
      [
        "Ġculinar",
        -10.378188606990754
      ],
      [
        "Ġtumor",
        -10.378188922012749
      ],
      [
        "Ġbaking",
        -10.37827397549793
      ],
      [
        "ĠAnother",
        -10.378439019440192
      ],
      [
        "Ġreports",
        -10.379300245884057
      ],
      [
        "Ġprey",
        -10.379657628769772
      ],
      [
        "Ġthrive",
        -10.379860546329754
      ],
      [
        "Before",
        -10.380648488376446
      ],
      [
        "Ġdiameter",
        -10.380958567384456
      ],
      [
        "ler",
        -10.381618441302535
      ],
      [
        "ĠRemember",
        -10.382271543268637
      ],
      [
        "ĠAct",
        -10.38268882448996
      ],
      [
        "Ġrecover",
        -10.38308214894577
      ],
      [
        "Ġproductivity",
        -10.383871821435791
      ],
      [
        "Ġboil",
        -10.384062633930329
      ],
      [
        "ex",
        -10.384073437147531
      ],
      [
        "ĠPlease",
        -10.384204445548209
      ],
      [
        "Ġworse",
        -10.384213403908
      ],
      [
        "ĠWhite",
        -10.384436802046888
      ],
      [
        "},",
        -10.385681225442514
      ],
      [
        "Ġatom",
        -10.38602048428827
      ],
      [
        "Ġwor",
        -10.386041943959816
      ],
      [
        "let",
        -10.386049391117572
      ],
      [
        "<",
        -10.386130726165836
      ],
      [
        "Ġsouthern",
        -10.386525358218933
      ],
      [
        "Ġdebri",
        -10.386564343503617
      ],
      [
        "Ġhumidity",
        -10.386664154978185
      ],
      [
        "Ġprofit",
        -10.38781445266534
      ],
      [
        "Ġpresentation",
        -10.38847463524835
      ],
      [
        "Ġforget",
        -10.389794174586106
      ],
      [
        "Ġfriendly",
        -10.390360458732566
      ],
      [
        "ĠJournal",
        -10.39037425245052
      ],
      [
        "Ġprices",
        -10.390781436691393
      ],
      [
        "Ġvet",
        -10.392695122077132
      ],
      [
        "Ġzone",
        -10.393516597547723
      ],
      [
        "Ġchosen",
        -10.39425923933709
      ],
      [
        "ke",
        -10.394413772641665
      ],
      [
        "Ġintegrate",
        -10.394476391809032
      ],
      [
        "Ġoutcomes",
        -10.394873993058765
      ],
      [
        "Ġdelicious",
        -10.39492527803263
      ],
      [
        "some",
        -10.39492823298312
      ],
      [
        "Ġcorn",
        -10.395472062016244
      ],
      [
        ";Ċ",
        -10.395571736664865
      ],
      [
        "ĠStart",
        -10.396595221198115
      ],
      [
        "Ġderive",
        -10.396772044553437
      ],
      [
        "Ġdrill",
        -10.397742342832403
      ],
      [
        "Ġexperienc",
        -10.398268478143487
      ],
      [
        "Ġtrends",
        -10.39840875124652
      ],
      [
        "Ġshock",
        -10.398540492519054
      ],
      [
        "Ġsouth",
        -10.398606952936827
      ],
      [
        "Ġthanks",
        -10.399340763373782
      ],
      [
        "Ġmission",
        -10.399716415557808
      ],
      [
        "Ġshark",
        -10.400056456782004
      ],
      [
        "ĠPart",
        -10.400219397807202
      ],
      [
        "Ġfloat",
        -10.400690774797583
      ],
      [
        "Ġinteractive",
        -10.400761148511087
      ],
      [
        "Ġcards",
        -10.401590923950463
      ],
      [
        "ĠMr",
        -10.401648951983718
      ],
      [
        "Ġnurse",
        -10.401665487011153
      ],
      [
        "Ġdepartment",
        -10.401784554323472
      ],
      [
        "Ġagricultural",
        -10.401867496203735
      ],
      [
        "Ġpromoting",
        -10.401992945770427
      ],
      [
        "Ġmodule",
        -10.4026079878603
      ],
      [
        "Ġcelebrate",
        -10.402661050614084
      ],
      [
        "Ġtrace",
        -10.40330144980878
      ],
      [
        "tion",
        -10.40331831159023
      ],
      [
        "Ġdiffer",
        -10.403531808059286
      ],
      [
        "Ġtown",
        -10.403790676567892
      ],
      [
        "Ġstores",
        -10.404558767192684
      ],
      [
        "Ġdebate",
        -10.404670392099812
      ],
      [
        "Ġmistake",
        -10.404679333544635
      ],
      [
        "Ġexpansion",
        -10.404828290200276
      ],
      [
        "Ġcarbohydrate",
        -10.40520111883238
      ],
      [
        "Ġstarch",
        -10.406271737047764
      ],
      [
        "ĠStudents",
        -10.406386106938784
      ],
      [
        "Ġhandling",
        -10.406608802389648
      ],
      [
        "Ġwhereas",
        -10.407570853433723
      ],
      [
        "ĠKing",
        -10.408792664820734
      ],
      [
        "Ġgraduate",
        -10.408981806055635
      ],
      [
        "Ġnorthern",
        -10.409093535339697
      ],
      [
        "Ġserving",
        -10.409263751611183
      ],
      [
        "Ġclimb",
        -10.409354824883112
      ],
      [
        "ĠTechnology",
        -10.410168828522844
      ],
      [
        "Ġclay",
        -10.411220121846435
      ],
      [
        "Ġrenewable",
        -10.41146788117499
      ],
      [
        "izing",
        -10.411507597026366
      ],
      [
        "Ġflexi",
        -10.411845389884604
      ],
      [
        "Ġbiggest",
        -10.4119471456273
      ],
      [
        "Ġtea",
        -10.413859456634036
      ],
      [
        "ang",
        -10.414522466210483
      ],
      [
        "Ġdioxide",
        -10.414827781652177
      ],
      [
        "ĠLearn",
        -10.41577195507746
      ],
      [
        "Ġspecialized",
        -10.415810313084908
      ],
      [
        "min",
        -10.416299207671337
      ],
      [
        "Ġparallel",
        -10.416401508569605
      ],
      [
        "ĠInternet",
        -10.416408544229636
      ],
      [
        "Ġstands",
        -10.41758463728749
      ],
      [
        "Ġfascinating",
        -10.417690355596797
      ],
      [
        "Ġgift",
        -10.417734869673977
      ],
      [
        "Ġproposed",
        -10.417761003855896
      ],
      [
        "you",
        -10.418743342832562
      ],
      [
        "Ġcommitment",
        -10.420601081545197
      ],
      [
        "Ġease",
        -10.420731917335544
      ],
      [
        "ĠTV",
        -10.42093958256635
      ],
      [
        "Ġsemi",
        -10.421417944949454
      ],
      [
        "Ġintensit",
        -10.422018231309725
      ],
      [
        "Ġfixed",
        -10.424343323139762
      ],
      [
        "Ġcolumn",
        -10.42449021348414
      ],
      [
        "Ġstack",
        -10.425685897270558
      ],
      [
        "Ġshoot",
        -10.425792698343106
      ],
      [
        "Ġleader",
        -10.425862743003428
      ],
      [
        "Ġremaining",
        -10.426801451890237
      ],
      [
        "Ġdomain",
        -10.42718911220387
      ],
      [
        "Ġwindows",
        -10.427494005025206
      ],
      [
        "Ġwonderful",
        -10.427566693354269
      ],
      [
        "ware",
        -10.427643883487736
      ],
      [
        "Ġweld",
        -10.42788800664295
      ],
      [
        "Ġcent",
        -10.428102942700978
      ],
      [
        "from",
        -10.428779558643829
      ],
      [
        "Ġnuts",
        -10.429320086171291
      ],
      [
        "Ġmeters",
        -10.430500135315878
      ],
      [
        "Ġdetection",
        -10.431151465422037
      ],
      [
        "Ġcomputers",
        -10.43125088172635
      ],
      [
        "OVID",
        -10.431355049715426
      ],
      [
        "Ġrais",
        -10.43136712053516
      ],
      [
        "but",
        -10.43152994219246
      ],
      [
        "Ġlawn",
        -10.431848790692346
      ],
      [
        "-on",
        -10.432141852706902
      ],
      [
        "measuring",
        -10.43217998271745
      ],
      [
        "Ġentry",
        -10.433292075193505
      ],
      [
        "ner",
        -10.433578080163027
      ],
      [
        "Ġpar",
        -10.434868144590071
      ],
      [
        "Ġvalve",
        -10.435156396585937
      ],
      [
        "ĠFoundation",
        -10.43517135826768
      ],
      [
        "Dur",
        -10.436566510653734
      ],
      [
        "ĠFree",
        -10.437239290517663
      ],
      [
        "Be",
        -10.437317809211551
      ],
      [
        "Ġtires",
        -10.437434767728446
      ],
      [
        "Ġgreenhouse",
        -10.43810139312632
      ],
      [
        "Ġinitiative",
        -10.438136874789352
      ],
      [
        "ĠAl",
        -10.438144827126328
      ],
      [
        "ĠSometime",
        -10.438943763078091
      ],
      [
        "Ġbrief",
        -10.439130760262834
      ],
      [
        "ĠChine",
        -10.440214033018387
      ],
      [
        "ĠLab",
        -10.44037432871342
      ],
      [
        "ĠChildren",
        -10.44047022000888
      ],
      [
        "ĠLondon",
        -10.440544012048704
      ],
      [
        "Ġwing",
        -10.441866562749514
      ],
      [
        "Ġnarrow",
        -10.44396147499113
      ],
      [
        "Ġpathway",
        -10.444239244593224
      ],
      [
        "Ġassociation",
        -10.444768599467944
      ],
      [
        "Ġspectrum",
        -10.44543556024619
      ],
      [
        "Ġbreathing",
        -10.445954075248224
      ],
      [
        "ĠNote",
        -10.446090452363348
      ],
      [
        "Ġcake",
        -10.446435567704103
      ],
      [
        "installed",
        -10.44648186322382
      ],
      [
        "Ġexpos",
        -10.446540200324176
      ],
      [
        "Ġcluster",
        -10.446714174086038
      ],
      [
        "Ġveterinarian",
        -10.44692979502339
      ],
      [
        "Ġstars",
        -10.447346370660604
      ],
      [
        "Ġdream",
        -10.447997941913734
      ],
      [
        "Ġclassic",
        -10.448612406554757
      ],
      [
        "pe",
        -10.44959497239476
      ],
      [
        "Ġcomput",
        -10.44996842403124
      ],
      [
        "Ġvacuum",
        -10.450438455070422
      ],
      [
        "ivity",
        -10.450474362547013
      ],
      [
        "Ġresponsibilit",
        -10.450595134661274
      ],
      [
        "Ġnorth",
        -10.450715742288324
      ],
      [
        "Ġattribute",
        -10.450871046437818
      ],
      [
        "Ġarchitecture",
        -10.451068936660633
      ],
      [
        "New",
        -10.4511276849769
      ],
      [
        "ĠTest",
        -10.451801771076331
      ],
      [
        "ĠProfessor",
        -10.452557799259935
      ],
      [
        "ĠFrance",
        -10.45294465572188
      ],
      [
        "Ġvi",
        -10.453209593725967
      ],
      [
        "Ġneuron",
        -10.454091911360283
      ],
      [
        "Ġbound",
        -10.45494737292307
      ],
      [
        "ĠBefore",
        -10.455114483750275
      ],
      [
        "Ġpreserve",
        -10.455526755104705
      ],
      [
        "Ġsales",
        -10.45678336364599
      ],
      [
        "Ġtap",
        -10.457201111005956
      ],
      [
        "Dr",
        -10.459397260461742
      ],
      [
        "stone",
        -10.460748594861547
      ],
      [
        "Ġspice",
        -10.460896124896252
      ],
      [
        "Ġgenerator",
        -10.46181874634382
      ],
      [
        "ĠCare",
        -10.462027007176488
      ],
      [
        "ĠCouncil",
        -10.464199783433456
      ],
      [
        "Ġmemor",
        -10.4644962552738
      ],
      [
        "Ġdistrict",
        -10.46482239779905
      ],
      [
        "ĠProject",
        -10.465106401208264
      ],
      [
        "ĠManagement",
        -10.465171940961964
      ],
      [
        "ental",
        -10.465694364905444
      ],
      [
        "Ġinsert",
        -10.46613014732583
      ],
      [
        "ĠPro",
        -10.466632180360946
      ],
      [
        "Ġcopy",
        -10.466816873504094
      ],
      [
        "Ġexperimental",
        -10.46686285255088
      ],
      [
        "Ġflexible",
        -10.467891807810966
      ],
      [
        "gently",
        -10.469147040306062
      ],
      [
        "Ġbeef",
        -10.469203696713969
      ],
      [
        "Ġspirit",
        -10.469734094988311
      ],
      [
        "Ġmountain",
        -10.469920072470524
      ],
      [
        "bilities",
        -10.470034903790202
      ],
      [
        "Ġtropical",
        -10.470972301884151
      ],
      [
        "fitness",
        -10.471281198462703
      ],
      [
        "Ġboat",
        -10.4713866274872
      ],
      [
        "Ġdependent",
        -10.472378035331078
      ],
      [
        "Ġdesigner",
        -10.472867457723936
      ],
      [
        "ĠCar",
        -10.473655814867216
      ],
      [
        "Ġdried",
        -10.473914352734855
      ],
      [
        "Ġkidney",
        -10.473925569354336
      ],
      [
        "Ġpartial",
        -10.473976845560744
      ],
      [
        "Ġmillions",
        -10.474160858431809
      ],
      [
        "Ġdive",
        -10.474431605234114
      ],
      [
        "Ġsink",
        -10.474477155812878
      ],
      [
        "Ġlb",
        -10.474893243001835
      ],
      [
        "Ġprogramme",
        -10.47547233221859
      ],
      [
        "Ġunusual",
        -10.475542441857726
      ],
      [
        "Ġbranche",
        -10.475608862348208
      ],
      [
        "Ġbees",
        -10.4757292877757
      ],
      [
        "Ġouter",
        -10.47611932552911
      ],
      [
        "Ġspin",
        -10.476870552015532
      ],
      [
        "Ġalgae",
        -10.477271245822669
      ],
      [
        "ĠClass",
        -10.477408952720031
      ],
      [
        "Since",
        -10.477868989114416
      ],
      [
        "Ġmanufacture",
        -10.478008556618228
      ],
      [
        "Based",
        -10.47821899956349
      ],
      [
        "Ġcircle",
        -10.478449888248855
      ],
      [
        "Ġmine",
        -10.4797602110834
      ],
      [
        "Ġpai",
        -10.480696492309196
      ],
      [
        "Ġswimm",
        -10.48088931558982
      ],
      [
        "Ġtutorial",
        -10.480913576566062
      ],
      [
        "Ġknee",
        -10.481377477078968
      ],
      [
        "making",
        -10.481403444525236
      ],
      [
        "mon",
        -10.482358561495612
      ],
      [
        "Ġalign",
        -10.482367643020432
      ],
      [
        "Ġpossibility",
        -10.48250782153765
      ],
      [
        "Ġoccasional",
        -10.48259859008926
      ],
      [
        "Ġvector",
        -10.483038577652673
      ],
      [
        "Ġdairy",
        -10.48304061194176
      ],
      [
        "ĠDevelopment",
        -10.483054811697915
      ],
      [
        "Ġchart",
        -10.483352415304909
      ],
      [
        "Ġsuspect",
        -10.48369411885126
      ],
      [
        "Ġantibiotic",
        -10.48411562070108
      ],
      [
        "Ġinvestigation",
        -10.484270521344406
      ],
      [
        "ĠEngineer",
        -10.484296445255035
      ],
      [
        "Ġgrid",
        -10.484499289954796
      ],
      [
        "Ġcreativ",
        -10.484582216039389
      ],
      [
        "Ġinstruction",
        -10.485105937751593
      ],
      [
        "ĠMedicine",
        -10.485715889144087
      ],
      [
        "Ġrobotic",
        -10.485980583918169
      ],
      [
        "Ġcouldn",
        -10.48632684421165
      ],
      [
        "Ġassistant",
        -10.486355184576515
      ],
      [
        "Ġsupposed",
        -10.486535314487352
      ],
      [
        "Ġmyself",
        -10.486675172719654
      ],
      [
        "Ġtone",
        -10.486841965157907
      ],
      [
        "Ġkm",
        -10.486919743063112
      ],
      [
        "ĠCentral",
        -10.487196133164428
      ],
      [
        "mas",
        -10.487426312165798
      ],
      [
        "ĠPe",
        -10.48774991790251
      ],
      [
        "Ġequivalent",
        -10.48866270104978
      ],
      [
        "Ġargument",
        -10.489249142839997
      ],
      [
[...]
