{
  "version": "1.0",
  "truncation": null,
  "padding": null,
  "added_tokens": [
    {
      "id": 0,
      "content": "<|bos|>",
      "single_word": false,
      "lstrip": false,
      "rstrip": false,
      "normalized": false,
      "special": true
    },
    {
      "id": 1,
      "content": "<|user_start|>",
      "single_word": false,
      "lstrip": false,
      "rstrip": false,
      "normalized": false,
      "special": true
    },
    {
      "id": 2,
      "content": "<|user_end|>",
      "single_word": false,
      "lstrip": false,
      "rstrip": false,
      "normalized": false,
      "special": true
    },
    {
      "id": 3,
      "content": "<|assistant_start|>",
      "single_word": false,
      "lstrip": false,
      "rstrip": false,
      "normalized": false,
      "special": true
    },
    {
      "id": 4,
      "content": "<|assistant_end|>",
      "single_word": false,
      "lstrip": false,
      "rstrip": false,
      "normalized": false,
      "special": true
    },
    {
      "id": 5,
      "content": "<|python_start|>",
      "single_word": false,
      "lstrip": false,
      "rstrip": false,
      "normalized": false,
      "special": true
    },
    {
      "id": 6,
      "content": "<|python_end|>",
      "single_word": false,
      "lstrip": false,
      "rstrip": false,
      "normalized": false,
      "special": true
    },
    {
      "id": 7,
      "content": "<|output_start|>",
      "single_word": false,
      "lstrip": false,
      "rstrip": false,
      "normalized": false,
      "special": true
    },
    {
      "id": 8,
      "content": "<|output_end|>",
      "single_word": false,
      "lstrip": false,
      "rstrip": false,
      "normalized": false,
      "special": true
    },
    {
      "id": 9,
      "content": "<|unk|>",
      "single_word": false,
      "lstrip": false,
      "rstrip": false,
      "normalized": false,
      "special": true
    }
  ],
  "normalizer": null,
  "pre_tokenizer": {
    "type": "Sequence",
    "pretokenizers": [
      {
        "type": "Split",
        "pattern": {
          "Regex": "'(?i:[sdmt]|ll|ve|re)|[^\\r\\n\\p{L}\\p{N}]?+\\p{L}+|\\p{N}{1,2}| ?[^\\s\\p{L}\\p{N}]++[\\r\\n]*|\\s*[\\r\\n]|\\s+(?!\\S)|\\s+"
        },
        "behavior": "Isolated",
        "invert": false
      },
      {
        "type": "ByteLevel",
        "add_prefix_space": false,
        "trim_offsets": true,
        "use_regex": false
      }
    ]
  },
  "post_processor": {
    "type": "TemplateProcessing",
    "single": [
      {
        "Sequence": {
          "id": "A",
          "type_id": 0
        }
      }
    ],
    "pair": [
      {
        "Sequence": {
          "id": "A",
          "type_id": 0
        }
      },
      {
        "Sequence": {
          "id": "B",
          "type_id": 1
        }
      }
    ],
    "special_tokens": {}
  },
  "decoder": null,
  "model": {
    "type": "Unigram",
    "unk_id": 9,
    "vocab": [
      [
        "<|bos|>",
        0.0
      ],
      [
        "<|user_start|>",
        0.0
      ],
      [
        "<|user_end|>",
        0.0
      ],
      [
        "<|assistant_start|>",
        0.0
      ],
      [
        "<|assistant_end|>",
        0.0
      ],
      [
        "<|python_start|>",
        0.0
      ],
      [
        "<|python_end|>",
        0.0
      ],
      [
        "<|output_start|>",
        0.0
      ],
      [
        "<|output_end|>",
        0.0
      ],
      [
        "<|unk|>",
        0.0
      ],
      [
        "s",
        -3.0709134619013767
      ],
      [
        "Ġ",
        -3.2092673369824407
      ],
      [
        "Ġthe",
        -3.3827010772622916
      ],
      [
        ",",
        -3.4313397861185724
      ],
      [
        ".",
        -3.723246823940915
      ],
      [
        "Ġand",
        -3.9247843246964145
      ],
      [
        "Ġof",
        -3.970656773343208
      ],
      [
        "Ġto",
        -3.9717217273183
      ],
      [
        "a",
        -4.048570270477999
      ],
      [
        "ing",
        -4.385705328510294
      ],
      [
        "Ġin",
        -4.471170658376899
      ],
      [
        "Ġis",
        -4.618371583168148
      ],
      [
        "ed",
        -4.852980850956778
      ],
      [
        "'",
        -4.896447419583403
      ],
      [
        "d",
        -4.926344507999081
      ],
      [
        "Ġthat",
        -5.017768788306789
      ],
      [
        "0",
        -5.028581353843446
      ],
      [
        "Ġfor",
        -5.033516232001492
      ],
      [
        "y",
        -5.07053261210816
      ],
      [
        "1",
        -5.1398615060798925
      ],
      [
        "ly",
        -5.178291176252067
      ],
      [
        "Ġare",
        -5.212230432549717
      ],
      [
        ":",
        -5.260913173573924
      ],
      [
        "Ġyou",
        -5.286066300244389
      ],
      [
        "Ġit",
        -5.290132439996668
      ],
      [
        ".Ċ",
        -5.320445948440788
      ],
      [
        ".ĊĊ",
        -5.330891498022103
      ],
      [
        "Ġwith",
        -5.371547137494673
      ],
      [
        "2",
        -5.3764351014012135
      ],
      [
        "Ċ",
        -5.3841602264097865
      ],
      [
        "e",
        -5.449226275207913
      ],
      [
        "Ġbe",
        -5.471085993128469
      ],
      [
        "Ġon",
        -5.484869857156291
      ],
      [
        "Ġcan",
        -5.4965684294731165
      ],
      [
        "Ġas",
        -5.507585226439886
      ],
      [
        "Ġor",
        -5.5090721250991965
      ],
      [
        "t",
        -5.554355878464769
      ],
      [
        "ĊĊ",
        -5.620514548058329
      ],
      [
        "-",
        -5.669746707729836
      ],
      [
        "Ġyour",
        -5.685879499588971
      ],
      [
        "Ġ(",
        -5.701075539611294
      ],
      [
        "\"",
        -5.845508609172338
      ],
      [
        "Ġfrom",
        -5.876448107258449
      ],
      [
        "Ġhave",
        -5.8808611750115904
      ],
      [
        "ĠThe",
        -5.896431737116956
      ],
      [
        "Ġby",
        -5.9636347422588045
      ],
      [
        "ĠI",
        -5.971094620631154
      ],
      [
        "Ġan",
        -5.997970509472063
      ],
      [
        "3",
        -6.010487146707396
      ],
      [
        ")",
        -6.020517149752791
      ],
      [
        "5",
        -6.047635520821785
      ],
      [
        "Ġthis",
        -6.04800127671726
      ],
      [
        "?",
        -6.085844077557395
      ],
      [
        "Ġat",
        -6.096179040652057
      ],
      [
        "Ġnot",
        -6.122019711058396
      ],
      [
        "n",
        -6.126168896345035
      ],
      [
        "Ġwill",
        -6.193758429809943
      ],
      [
        "4",
        -6.219828268063644
      ],
      [
        "Ġtheir",
        -6.221631920681739
      ],
      [
        "Ġmore",
        -6.31803166427413
      ],
      [
        "Ġthey",
        -6.33088362028758
      ],
      [
        "9",
        -6.333829932408717
      ],
      [
        "Ġwas",
        -6.355129791251759
      ],
      [
        "The",
        -6.438875985910139
      ],
      [
        "6",
        -6.461535283442062
      ],
      [
        "Ġwe",
        -6.466045794699157
      ],
      [
        "Ġbut",
        -6.46921760611902
      ],
      [
        "Ġhas",
        -6.486673280132489
      ],
      [
        "Ġwhich",
        -6.4923004477750705
      ],
      [
        "8",
        -6.544419904002657
      ],
      [
        "Ġone",
        -6.544573752488185
      ],
      [
        "Ġalso",
        -6.574263275073889
      ],
      [
        "Question",
        -6.576440787697614
      ],
      [
        "ĠAnswer",
        -6.598654492711129
      ],
      [
        "7",
        -6.615854654567347
      ],
      [
        "ies",
        -6.647591286908005
      ],
      [
        "o",
        -6.648179518646041
      ],
      [
        "Ġall",
        -6.662362127172743
      ],
      [
        "Ġabout",
        -6.668860807525286
      ],
      [
        "Ġother",
        -6.69130920260279
      ],
      [
        "ĠIt",
        -6.705915960710259
      ],
      [
        "Ġwhen",
        -6.714224171320753
      ],
      [
        "Ġthem",
        -6.7695128600811
      ],
      [
        "Ġif",
        -6.769940664887518
      ],
      [
        "ĠA",
        -6.7830078693407945
      ],
      [
        "Ġtime",
        -6.783423736989942
      ],
      [
        "er",
        -6.7946029328855
      ],
      [
        "Ġdo",
        -6.799054397081626
      ],
      [
        "Ġuse",
        -6.802399717832191
      ],
      [
        "Ġinto",
        -6.803123281632798
      ],
      [
        "Ġlike",
        -6.804174222254005
      ],
      [
        "Ġso",
        -6.812879548364583
      ],
      [
        "Ġmay",
        -6.834202622044845
      ],
      [
        "ĠThis",
        -6.847984675401879
      ],
      [
        "Ġsome",
        -6.86043624011109
      ],
      [
        "Ġup",
        -6.896444319157588
      ],
      [
        "Ġthan",
        -6.902329807837024
      ],
      [
        "ĠWhat",
        -6.923402318416249
      ],
      [
        "Ġout",
        -6.92967268904772
      ],
      [
        "i",
        -6.936550320618382
      ],
      [
        "Ġthese",
        -6.939220877388292
      ],
      [
        "Ġthere",
        -6.962526140136713
      ],
      [
        "A",
        -6.963206193483668
      ],
      [
        "r",
        -6.989760514673643
      ],
      [
        "Ġhow",
        -6.992624103002655
      ],
      [
        "Ġwater",
        -6.993195807822511
      ],
      [
        "Ġhelp",
        -6.993891283912104
      ],
      [
        "Ġwhat",
        -7.026442251849311
      ],
      [
        "Ġget",
        -7.0301943815855505
      ],
      [
        "Ġused",
        -7.038836359084462
      ],
      [
        "Ġmost",
        -7.042961646870365
      ],
      [
        "Ġour",
        -7.0496693418126455
      ],
      [
        "Ġwere",
        -7.0582504133650605
      ],
      [
        "Ġmake",
        -7.059774544147132
      ],
      [
        "m",
        -7.08875481225305
      ],
      [
        "Ġsuch",
        -7.097676582316614
      ],
      [
        "ĠIn",
        -7.1054731724730775
      ],
      [
        "on",
        -7.110415833390476
      ],
      [
        "Ġany",
        -7.114105211187743
      ],
      [
        "able",
        -7.154438470754972
      ],
      [
        "Ġbeen",
        -7.15882555075024
      ],
      [
        "Ġpeople",
        -7.174450641756504
      ],
      [
        "Ġnew",
        -7.18359163102402
      ],
      [
        "Ġthrough",
        -7.186182416972997
      ],
      [
        "Ġneed",
        -7.195983836207775
      ],
      [
        ";",
        -7.197073632438064
      ],
      [
        "re",
        -7.225640652673288
      ],
      [
        "Ġwould",
        -7.228577670972351
      ],
      [
        "Ġits",
        -7.232259794193279
      ],
      [
        "Ġshould",
        -7.238928603623821
      ],
      [
        "Ġonly",
        -7.252021838977873
      ],
      [
        "/",
        -7.267603767125612
      ],
      [
        "Ġwho",
        -7.2696379930135056
      ],
      [
        "Ġjust",
        -7.278382075227556
      ],
      [
        "Ġmany",
        -7.2834024602983405
      ],
      [
        "Ġfirst",
        -7.289910281068922
      ],
      [
        "Ġwell",
        -7.290426551399785
      ],
      [
        "Ġover",
        -7.320243313006966
      ],
      [
        "Ġwork",
        -7.3279226457565745
      ],
      [
        "Ġtwo",
        -7.334765960610454
      ],
      [
        "Ġhigh",
        -7.373644202065781
      ],
      [
        "Ġway",
        -7.381940506264202
      ],
      [
        "Ġbetween",
        -7.383045290268823
      ],
      [
        "Ġdifferent",
        -7.384362295012421
      ],
      [
        "Ġsee",
        -7.39084137835755
      ],
      [
        "Ġwhere",
        -7.395850191091387
      ],
      [
        "Ġmy",
        -7.40609261999564
      ],
      [
        "I",
        -7.409996440113243
      ],
      [
        "Ġtake",
        -7.41250046458766
      ],
      [
        "Ġno",
        -7.413043265402532
      ],
      [
        "Ġusing",
        -7.431212735570428
      ],
      [
        "!",
        -7.437303825413055
      ],
      [
        "?Ċ",
        -7.447224035469613
      ],
      [
        "Ġbecause",
        -7.473252968404154
      ],
      [
        "ĠIf",
        -7.481672438600743
      ],
      [
        "Ġlook",
        -7.482526992919368
      ],
      [
        "al",
        -7.491443004223068
      ],
      [
        "l",
        -7.497035478479642
      ],
      [
        "Ġcould",
        -7.506098109943975
      ],
      [
        "Ġeven",
        -7.511087310934466
      ],
      [
        "ĠHow",
        -7.517624307335888
      ],
      [
        "Ġvery",
        -7.520019110543723
      ],
      [
        "Ġpart",
        -7.524601260748188
      ],
      [
        "Ġyears",
        -7.534138904732156
      ],
      [
        "Ġsystem",
        -7.535221176305701
      ],
      [
        "Ġknow",
        -7.542363162044461
      ],
      [
        "Ġmuch",
        -7.568744923695252
      ],
      [
        "Ġgood",
        -7.5688062889222785
      ],
      [
        "Ġeach",
        -7.5709973160137345
      ],
      [
        ").",
        -7.582895584422012
      ],
      [
        "ĠThey",
        -7.583808519871413
      ],
      [
        "Ġhad",
        -7.583932305110077
      ],
      [
        "Ġwant",
        -7.58424759046061
      ],
      [
        "Ġhe",
        -7.585250392670508
      ],
      [
        "ĠâĢĵ",
        -7.587015445113364
      ],
      [
        "c",
        -7.598019585356999
      ],
      [
        "Ġimportant",
        -7.603470495986443
      ],
      [
        "?ĊĊ",
        -7.606297061510853
      ],
      [
        "Ġsmall",
        -7.611811224197091
      ],
      [
        "Ġwhile",
        -7.617495024147301
      ],
      [
        "Ġprovide",
        -7.623222962458639
      ],
      [
        "Ġhis",
        -7.624700693210434
      ],
      [
        "ĠYou",
        -7.633660992170663
      ],
      [
        "Ġhealth",
        -7.635058073473413
      ],
      [
        "Ġprocess",
        -7.643015179833856
      ],
      [
        "Ġdoes",
        -7.64608988011026
      ],
      [
        "Ġfood",
        -7.649206633513945
      ],
      [
        "In",
        -7.65032679698972
      ],
      [
        "Ġlong",
        -7.674703264889272
      ],
      [
        "Ġdon",
        -7.692163333859154
      ],
      [
        "Ġafter",
        -7.697498480163468
      ],
      [
        "Ġthing",
        -7.698611417033607
      ],
      [
        "ever",
        -7.704450853659482
      ],
      [
        "Ġdesign",
        -7.708294998144414
      ],
      [
        "Ġinclude",
        -7.708789728700548
      ],
      [
        "Ġworld",
        -7.712056274048285
      ],
      [
        "ity",
        -7.712161975446465
      ],
      [
        "Ġenergy",
        -7.717362432761446
      ],
      [
        "Ġbefore",
        -7.719308678511837
      ],
      [
        "Ġcell",
        -7.726718273531617
      ],
      [
        "Ġlight",
        -7.727113398324988
      ],
      [
        "Ġaround",
        -7.729879379089537
      ],
      [
        "Ġcome",
        -7.733204119943558
      ],
      [
        "ve",
        -7.737434360798023
      ],
      [
        "Ġcreate",
        -7.749129029547952
      ],
      [
        "Ġduring",
        -7.750157747328363
      ],
      [
        "Ġallow",
        -7.753134172521811
      ],
      [
        "Ġsame",
        -7.757684099097085
      ],
      [
        "made",
        -7.764732049937912
      ],
      [
        "Ġbody",
        -7.779538613518813
      ],
      [
        "ĠB",
        -7.780940895840006
      ],
      [
        "Ġbeing",
        -7.788332422790791
      ],
      [
        "Ġlife",
        -7.789394191096942
      ],
      [
        "%",
        -7.794709785285075
      ],
      [
        "Ġthose",
        -7.795198661308508
      ],
      [
        "Ġdown",
        -7.796518573003683
      ],
      [
        "),",
        -7.818226588735188
      ],
      [
        "Ġplace",
        -7.820350844920387
      ],
      [
        "ĠC",
        -7.820545935941059
      ],
      [
        "Ġfound",
        -7.821675932015518
      ],
      [
        "Ġreal",
        -7.823294248983418
      ],
      [
        "Ġoften",
        -7.829198059596031
      ],
      [
        "Ġcause",
        -7.830340215295045
      ],
      [
        "Ġright",
        -7.831712177050447
      ],
      [
        "Ġdata",
        -7.835508929082062
      ],
      [
        "Ġfind",
        -7.836819353290579
      ],
      [
        "Ġboth",
        -7.843074175876639
      ],
      [
        "Ġbest",
        -7.850343613135312
      ],
      [
        "Ġthink",
        -7.857873532646529
      ],
      [
        "Ġyear",
        -7.86342400388242
      ],
      [
        "Ġback",
        -7.864157598938148
      ],
      [
        "What",
        -7.867853870008071
      ],
      [
        "Ġgreat",
        -7.868590129807734
      ],
      [
        "Ġkeep",
        -7.873765824380243
      ],
      [
        "Ġday",
        -7.877977449752
      ],
      [
        "Ġnumber",
        -7.886717102118066
      ],
      [
        "Ġcommon",
        -7.887987514489945
      ],
      [
        "Ġinformation",
        -7.892048032878002
      ],
      [
        "in",
        -7.895044202037381
      ],
      [
        "ĠWe",
        -7.897779878319335
      ],
      [
        "Ġstudy",
        -7.899807639064166
      ],
      [
        "Ġchange",
        -7.905524135100574
      ],
      [
        "Ġpower",
        -7.91403090489923
      ],
      [
        "ĠFor",
        -7.920939541220411
      ],
      [
        "Ġhome",
        -7.933148863158086
      ],
      [
        "ability",
        -7.9355317105796335
      ],
      [
        "Ġus",
        -7.936510264190474
      ],
      [
        "ll",
        -7.938896355218944
      ],
      [
        "Ġcolor",
        -7.939392184929353
      ],
      [
        "Ġdevelop",
        -7.941900571462005
      ],
      [
        "How",
        -7.950425189330561
      ],
      [
        "Ġmight",
        -7.954853745408435
      ],
      [
        ":Ċ",
        -7.954971501077962
      ],
      [
        "Ġshow",
        -7.969580591044098
      ],
      [
        "Ġlead",
        -7.971168927642914
      ],
      [
        "Ġgo",
        -7.971291831331912
      ],
      [
        "Ġresearch",
        -7.9729293258501475
      ],
      [
        "Ġoff",
        -7.974123375551555
      ],
      [
        "Ġsaid",
        -7.974625818150832
      ],
      [
        "S",
        -7.975366243178895
      ],
      [
        "Ġevery",
        -7.976947584156273
      ],
      [
        "Ġplant",
        -7.977978598515406
      ],
      [
        "Ġown",
        -7.983977574744163
      ],
      [
        "ce",
        -7.988692353343072
      ],
      [
        "ĠThese",
        -7.989360211015157
      ],
      [
        "Ġlarge",
        -7.991383591116207
      ],
      [
        "This",
        -7.993138175435572
      ],
      [
        "Ġbetter",
        -7.9971261771264
      ],
      [
        "Ġnow",
        -7.9980943619478975
      ],
      [
        "Ġsupport",
        -8.001502606262083
      ],
      [
        "Ġform",
        -8.002228054072319
      ],
      [
        "x",
        -8.00702358350068
      ],
      [
        "Ġbecome",
        -8.007201189242796
      ],
      [
        "Ġheat",
        -8.009546315548992
      ],
      [
        "us",
        -8.017315872276841
      ],
      [
        "Ġconsider",
        -8.02071516463557
      ],
      [
        "ness",
        -8.021457061675383
      ],
      [
        "Ġgrow",
        -8.02157176605824
      ],
      [
        "Ġher",
        -8.021714585951932
      ],
      [
        "If",
        -8.021833032023338
      ],
      [
        "Ġfew",
        -8.024514534793235
      ],
      [
        "Ġair",
        -8.027620111320811
      ],
      [
        "Ġexample",
        -8.029236460284359
      ],
      [
        "Ġwithout",
        -8.032590673619143
      ],
      [
        "Ġstudents",
        -8.035967941698175
      ],
      [
        "Ġme",
        -8.03664918120365
      ],
      [
        "um",
        -8.040024632039367
      ],
      [
        "(",
        -8.040729323804753
      ],
      [
        "h",
        -8.042148048817326
      ],
      [
        "ĠTo",
        -8.047000810102112
      ],
      [
        "Ġincrease",
        -8.048310025116297
      ],
      [
        "Ġbase",
        -8.048728465096469
      ],
      [
        "Ġsize",
        -8.055256384370399
      ],
      [
        "Ġstill",
        -8.056377160259128
      ],
      [
        "Ġtype",
        -8.056901996635661
      ],
      [
        "Ġmaking",
        -8.060172908618062
      ],
      [
        "Ġincluding",
        -8.061801317874908
      ],
      [
        "Ġexperience",
        -8.068209690128038
      ],
      [
        ":ĊĊ",
        -8.07036008671471
      ],
      [
        "Ġanimal",
        -8.072543111349722
      ],
      [
        "It",
        -8.073173492104159
      ],
      [
        "Ġcase",
        -8.077107662394333
      ],
      [
        "Ġissue",
        -8.081005781442247
      ],
      [
        "Ġspecies",
        -8.082554551906759
      ],
      [
        "and",
        -8.087959517069478
      ],
      [
        "g",
        -8.088041956648636
      ],
      [
        "Ġend",
        -8.090494799620025
      ],
      [
        "Ġhuman",
        -8.09131842873933
      ],
      [
        "Ġadd",
        -8.092097491517615
      ],
      [
        "Ġgroup",
        -8.092296089887261
      ],
      [
        "Ġless",
        -8.095665490937018
      ],
      [
        "Ġeffect",
        -8.10176935348626
      ],
      [
        "Ġresult",
        -8.104864983509623
      ],
      [
        "...",
        -8.108973358228459
      ],
      [
        "Ġchildren",
        -8.115709686849243
      ],
      [
        "ĠBut",
        -8.123579640567794
      ],
      [
        "Ġthree",
        -8.135622907243558
      ],
      [
        "Ġpoint",
        -8.139033236118852
      ],
      [
        "p",
        -8.146735790869762
      ],
      [
        "Ġlot",
        -8.146974626418194
      ],
      [
        "Ġcontrol",
        -8.150747745620592
      ],
      [
        "Ġdog",
        -8.15478281466209
      ],
      [
        "Ġwithin",
        -8.154991735400694
      ],
      [
        "Ġgive",
        -8.158590860140198
      ],
      [
        "Ġcost",
        -8.16055919683191
      ],
      [
        "Ġoffer",
        -8.162183111970858
      ],
      [
        "Ġsure",
        -8.16271681564447
      ],
      [
        "known",
        -8.164164791429265
      ],
      [
        "ĠAnd",
        -8.165711475948681
      ],
      [
        "Ġunder",
        -8.169306994544625
      ],
      [
        "Ġcalled",
        -8.172453400536924
      ],
      [
        "Ġquestion",
        -8.190024835233224
      ],
      [
        "Ġindividual",
        -8.191251982537214
      ],
      [
        "Ġmain",
        -8.197351351383249
      ],
      [
        "Ġschool",
        -8.200666039294369
      ],
      [
        "Ġsomething",
        -8.207180300731753
      ],
      [
        "th",
        -8.209195723340938
      ],
      [
        "Ġfish",
        -8.210134973427856
      ],
      [
        "Ġset",
        -8.212962885040325
      ],
      [
        "Ġwhy",
        -8.216791089885325
      ],
      [
        "Ġreduce",
        -8.218399585629534
      ],
      [
        "is",
        -8.218657428028719
      ],
      [
        "Ġmust",
        -8.219830503798994
      ],
      [
        "Ġplants",
        -8.220625988387969
      ],
      [
        "Ġfield",
        -8.223059960999244
      ],
      [
        "Ġensure",
        -8.232979785500165
      ],
      [
        "Ġsource",
        -8.235460446826284
      ],
      [
        "ic",
        -8.237006693315346
      ],
      [
        "Ġhard",
        -8.241112940912602
      ],
      [
        "Ġfactor",
        -8.244008879751808
      ],
      [
        "Ġspecific",
        -8.246784464197415
      ],
      [
        "Ġplay",
        -8.248714140266085
      ],
      [
        "Ġtemperature",
        -8.249556221638816
      ],
      [
        "Ġgoing",
        -8.254940924862742
      ],
      [
        "Ġper",
        -8.259437267197704
      ],
      [
        "ĠWhen",
        -8.260579436499699
      ],
      [
        "Ġblood",
        -8.261286614040404
      ],
      [
        "Ġun",
        -8.262677348806859
      ],
      [
        "Ġfollowing",
        -8.265599816408116
      ],
      [
        "Ġlevel",
        -8.26862830086466
      ],
      [
        "D",
        -8.273726498048003
      ],
      [
        "Ġdue",
        -8.2761066689995
      ],
      [
        "Ġcar",
        -8.283503893656079
      ],
      [
        "Ġdevice",
        -8.289642264900301
      ],
      [
        "ĠThere",
        -8.289811274571974
      ],
      [
        "Ġamount",
        -8.292459369251707
      ],
      [
        "Ġlearn",
        -8.298257692648185
      ],
      [
        "Ġhere",
        -8.299836113907567
      ],
      [
        "Ġstart",
        -8.30259284723244
      ],
      [
        "Ġimpact",
        -8.304791274154033
      ],
      [
        "Ġlow",
        -8.304945250726362
      ],
      [
        "Ġpossible",
        -8.305787652737003
      ],
      [
        "Ġvarious",
        -8.30613343239433
      ],
      [
        "Ġsignificant",
        -8.314828323330453
      ],
      [
        "Ġanother",
        -8.318000170758964
      ],
      [
        "Ġmeans",
        -8.31876005648135
      ],
      [
        "Ġcare",
        -8.319907741269652
      ],
      [
        "ĠSo",
        -8.328898815449868
      ],
      [
        "Ġeffective",
        -8.329173172447438
      ],
      [
        "f",
        -8.32938126478378
      ],
      [
        "Ġline",
        -8.330297573578509
      ],
      [
        "Ġprevent",
        -8.332351853003017
      ],
      [
        "Ġspace",
        -8.335628004418666
      ],
      [
        "Ġtreatment",
        -8.337245927657811
      ],
      [
        "Ġstate",
        -8.337883434274865
      ],
      [
        "Ġrequire",
        -8.338489521865766
      ],
      [
        "Ġnatural",
        -8.340703372586646
      ],
      [
        "Ġrange",
        -8.340976351370571
      ],
      [
        "Ġshe",
        -8.341576760258548
      ],
      [
        "Ġpotential",
        -8.342655735907378
      ],
      [
        "Ġalways",
        -8.343605319188232
      ],
      [
        "Ġfeel",
        -8.348350353288044
      ],
      [
        "Ġlittle",
        -8.348370408553105
      ],
      [
        "Ġsecond",
        -8.348738757595997
      ],
      [
        "Ġdid",
        -8.359320154100107
      ],
      [
        "w",
        -8.363750104010947
      ],
      [
        "ĠP",
        -8.369451840105192
      ],
      [
        "Ġdevelopment",
        -8.370665735797335
      ],
      [
        "Ġlast",
        -8.37388814747803
      ],
      [
        "Ġactual",
        -8.374633687841675
      ],
      [
        "Ġenvironment",
        -8.37595555672146
      ],
      [
        "Ġmaterial",
        -8.381924136853002
      ],
      [
        "Ġgeneral",
        -8.38593083933863
      ],
      [
        "ĠS",
        -8.386780936669863
      ],
      [
        "ĠD",
        -8.39235997355552
      ],
      [
        "Ġorder",
        -8.392562825316427
      ],
      [
        "ĠWhich",
        -8.397505112583945
      ],
      [
        "Ġrisk",
        -8.400082144700953
      ],
      [
        "Ġreason",
        -8.404704430558164
      ],
      [
        "Ġcomplete",
        -8.406224371354982
      ],
      [
        "Ġdays",
        -8.406519760362805
      ],
      [
        "Ġavailable",
        -8.406657482746215
      ],
      [
        "Ġcontain",
        -8.406921835620263
      ],
      [
        "ĠM",
        -8.409554891275256
      ],
      [
        "Ġproblem",
        -8.411207556358878
      ],
      [
        "Ġtest",
        -8.415130006634337
      ],
      [
        ",\"",
        -8.417308231200753
      ],
      [
        "Ġdisease",
        -8.418049633049403
      ],
      [
        "Ġquality",
        -8.418595096763909
      ],
      [
        "C",
        -8.42213590740781
      ],
      [
        "less",
        -8.423022046145162
      ],
      [
        "Ġcurrent",
        -8.423276820974475
      ],
      [
        "Ġweek",
        -8.424278520576376
      ],
      [
        "the",
        -8.426058411339927
      ],
      [
        "Ġleave",
        -8.426485164483154
      ],
      [
        "Ġimprove",
        -8.427453759163953
      ],
      [
        "Ġsurface",
        -8.429325615934854
      ],
      [
        "Ġseveral",
        -8.430130184165886
      ],
      [
        "Ġenough",
        -8.430504440811863
      ],
      [
        "Ġage",
        -8.431357367876437
      ],
      [
        "Ġsoil",
        -8.435624900546884
      ],
      [
        "Ġcourse",
        -8.436294860234892
      ],
      [
        "Ġtypes",
        -8.441172343202144
      ],
      [
        "Ġidea",
        -8.442770095332115
      ],
      [
        "Ġcertain",
        -8.443436341167146
      ],
      [
        "Ġessential",
        -8.443824610301801
      ],
      [
        "Ġside",
        -8.444149828491028
      ],
      [
        "Ġareas",
        -8.44991689545008
      ],
      [
        "Ġusually",
        -8.45321366892499
      ],
      [
        "Ġapplication",
        -8.45370321881608
      ],
      [
        "Ġopen",
        -8.456860103550985
      ],
      [
        "Ġlearning",
        -8.456991222498775
      ],
      [
        "Ġfunction",
        -8.457815490466476
      ],
      [
        "Ġ$",
        -8.458090020134197
      ],
      [
        "Ġdamage",
        -8.45840732503288
      ],
      [
        "Ġunderstand",
        -8.458541595519051
      ],
      [
        "Ġtechnology",
        -8.464916940425852
      ],
      [
        "Ġneeds",
        -8.465609507402851
      ],
      [
        "Ġlive",
        -8.468259304622702
      ],
      [
        "Ġ[",
        -8.470944188654926
      ],
      [
        "Ġ&",
        -8.477115856895228
      ],
      [
        "When",
        -8.478819330831598
      ],
      [
        "Ġarea",
        -8.482683771187446
      ],
      [
        "Ġlocal",
        -8.483311984200718
      ],
      [
        "Ġstructure",
        -8.488936282888048
      ],
      [
        "Ġname",
        -8.489513007929123
      ],
      [
        "ĠAs",
        -8.48982701491109
      ],
      [
        "Ġuntil",
        -8.49079757039965
      ],
      [
        "ally",
        -8.491497610655447
      ],
      [
        "Ġperson",
        -8.494626498411254
      ],
      [
        "b",
        -8.498001568871942
      ],
      [
        "Ġtext",
        -8.499654472362497
      ],
      [
        "Ġteam",
        -8.501583969065535
      ],
      [
        "ion",
        -8.506801395403519
      ],
      [
        "Ġmean",
        -8.507482888985049
      ],
      [
        "Ġconditions",
        -8.508922236550845
      ],
      [
        "Ġfree",
        -8.510669376875828
      ],
      [
        "Ġtogether",
        -8.51200929626437
      ],
      [
        "Ġsay",
        -8.513535820508444
      ],
      [
        "Ġprotein",
        -8.515667594123265
      ],
      [
        "Ġtop",
        -8.516361740038331
      ],
      [
        "Ġpressure",
        -8.519735172321848
      ],
      [
        "Ġfull",
        -8.520607720947673
      ],
      [
        "Ġparticular",
        -8.522416222441283
      ],
      [
        "B",
        -8.522722976923882
      ],
      [
        "Ġtechnique",
        -8.523334516149047
      ],
      [
        "Ġsince",
        -8.52590058342513
      ],
      [
        "Ġrate",
        -8.52609461393112
      ],
      [
        "Ġmaintain",
        -8.528437423337177
      ],
      [
        "or",
        -8.530432786855204
      ],
      [
        "Ġproducts",
        -8.53208353478363
      ],
      [
        "Ġmaterials",
        -8.534288484950734
      ],
      [
        "Ġnext",
        -8.537117548781485
      ],
      [
        "ation",
        -8.537454888666
      ],
      [
        "Ġput",
        -8.537623050993952
      ],
      [
        "Ġaway",
        -8.540897181607983
      ],
      [
        "Ġaccess",
        -8.543814771244987
      ],
      [
        "Ġvalue",
        -8.544532027153576
      ],
      [
        "Ġlower",
        -8.545997150902515
      ],
      [
        "Ġanswer",
        -8.546653132651723
      ],
      [
        "Ġweight",
        -8.550055769038286
      ],
      [
        "]",
        -8.550276939312345
      ],
      [
        "ĠBy",
        -8.551188849231801
      ],
      [
        "Ġ=",
        -8.551376390460934
      ],
      [
        "Ġmonth",
        -8.553339708769279
      ],
      [
        "having",
        -8.55416057750525
      ],
      [
        "*",
        -8.555228489288048
      ],
      [
        "ĠThat",
        -8.55875669988879
      ],
      [
        "Ġfamily",
        -8.55899175633942
      ],
      [
        "Ġhand",
        -8.560988782074343
      ],
      [
        "Ġstrong",
        -8.561217920642234
      ],
      [
        "Ġresults",
        -8.56224320548026
      ],
      [
        "Ġpresent",
        -8.56488125465431
      ],
      [
        "Ġrole",
        -8.566493281363922
      ],
      [
        "Ġmethod",
        -8.56760532831764
      ],
      [
        "u",
        -8.568046329446041
      ],
      [
        "Ġnon",
        -8.568710269494979
      ],
      [
        "Ġmodel",
        -8.574416441210271
      ],
      [
        "Ġmakes",
        -8.574960083634302
      ],
      [
        "Ġwhite",
        -8.576855570594386
      ],
      [
        "higher",
        -8.576883100495733
      ],
      [
        "Ġdirect",
        -8.576923275798702
      ],
      [
        "Ġdiet",
        -8.577524348825623
      ],
      [
        "You",
        -8.577720709356754
      ],
      [
        "Ġeye",
        -8.57814164665374
      ],
      [
        "Ġsimple",
        -8.581771352174858
      ],
      [
        "Ġpaper",
        -8.583043571771741
      ],
      [
        "ĠHe",
        -8.583366622530558
      ],
      [
        "Ġsystems",
        -8.583678822091933
      ],
      [
        "le",
        -8.585709714325976
      ],
      [
        "Ġhealthy",
        -8.586785748520814
      ],
      [
        "ĠUniversity",
        -8.587486600048425
      ],
      [
        "Ġvariet",
        -8.589269073670755
      ],
      [
        "Ġkey",
        -8.589585165289277
      ],
      [
        "Ġlet",
        -8.591994367527061
      ],
      [
        "Ġcreat",
        -8.594091548200177
      ],
      [
        "Ġeasy",
        -8.597703248584306
      ],
      [
        "Ġalong",
        -8.598268606051448
      ],
      [
        "Ġlikely",
        -8.602652695488338
      ],
      [
        "Ġmarket",
        -8.603476309602591
      ],
      [
        "Ġcomputer",
        -8.604060446766502
      ],
      [
        "Ġwide",
        -8.605288415029829
      ],
      [
        "Ġavoid",
        -8.60727451227552
      ],
      [
        "âĢĵ",
        -8.607317599421132
      ],
      [
        "Ġoil",
        -8.609564029998573
      ],
      [
        "Ġgame",
        -8.610301644951598
      ],
      [
        "We",
        -8.61357400342733
      ],
      [
        "Ġdoesn",
        -8.615063325656196
      ],
      [
        "Ġprotect",
        -8.617597972161601
      ],
      [
        "Ġsimilar",
        -8.626042300827109
      ],
      [
        "Ġseem",
        -8.626347497238761
      ],
      [
        "self",
        -8.627390972991796
      ],
      [
        "Ġlevels",
        -8.629119756318609
      ],
      [
        "T",
        -8.63072146603508
      ],
      [
        "Ġmove",
        -8.631527158200349
      ],
      [
        "Ġcheck",
        -8.633916875356672
      ],
      [
        "Ġturn",
        -8.636626759431604
      ],
      [
        "Ġbook",
        -8.636923288320386
      ],
      [
        "early",
        -8.636933452733405
      ],
      [
        "Ġperiod",
        -8.638464910183705
      ],
      [
        "Ġtypical",
        -8.638830641396094
      ],
      [
        "Ġsafe",
        -8.639087196212135
      ],
      [
        "Ġdepend",
        -8.639404910798188
      ],
      [
        "Ġworking",
        -8.642529989149807
      ],
      [
        "Ġshort",
        -8.642829131075697
      ],
      [
        "Ġleast",
        -8.644227388366254
      ],
      [
        "Ġagain",
        -8.645204651328614
      ],
      [
        "Ġclean",
        -8.645459778034978
      ],
      [
        "Ġarticle",
        -8.648303836772023
      ],
      [
        "Ġphysical",
        -8.648959235363508
      ],
      [
        "Ġproduction",
        -8.64896665509864
      ],
      [
        "Ġdone",
        -8.649222222539409
      ],
      [
        "Ġunique",
        -8.65013184895265
      ],
      [
        "Ġchanges",
        -8.651154883913716
      ],
      [
        "Ġlimit",
        -8.653375496473767
      ],
      [
        "Ġproblems",
        -8.655934093639857
      ],
      [
        "Ġgrowth",
        -8.658368035544566
      ],
      [
        "Ġrun",
        -8.660730125448623
      ],
      [
        "Ġpopulation",
        -8.661477810740397
      ],
      [
        "Ġaccording",
        -8.66206614889003
      ],
      [
        "Ġprofessional",
        -8.665385702195351
      ],
      [
        "Ġproject",
        -8.66769917895046
      ],
      [
        "Ġfocus",
        -8.6684098007273
      ],
      [
        "Ġgiven",
        -8.66960209118651
      ],
      [
        "There",
        -8.670705318750697
      ],
      [
        "âĢĻs",
        -8.670973584781263
      ],
      [
        "Ġnever",
        -8.671903378036093
      ],
      [
        "Ġchild",
        -8.673886718931124
      ],
      [
        "Ġespecially",
        -8.674452964524662
      ],
      [
        "Ġproduct",
        -8.677032295127407
      ],
      [
        "Ġask",
        -8.679172780479224
      ],
      [
        "stead",
        -8.68376719359502
      ],
      [
        "Ġdifficult",
        -8.685357912212574
      ],
      [
        "Ġfast",
        -8.685488993528647
      ],
      [
        "Ġsuggest",
        -8.686037173500457
      ],
      [
        "Ġcontinue",
        -8.686587049559389
      ],
      [
        "Ġstore",
        -8.687335030139007
      ],
      [
        "out",
        -8.687894959532002
      ],
      [
        "Ġprogram",
        -8.688242084825099
      ],
      [
        "Ġtreat",
        -8.688903569651195
      ],
      [
        "ther",
        -8.68947117822234
      ],
      [
        "Ġplan",
        -8.690908284643514
      ],
      [
        "across",
        -8.692073492009188
      ],
      [
        "Ġsingle",
        -8.6921673065138
      ],
      [
        "Ġsocial",
        -8.6924542986376
      ],
      [
        "Ġdogs",
        -8.693929739818747
      ],
      [
        "Ġclear",
        -8.694689565237411
      ],
      [
        "Ġbusiness",
        -8.698100250279422
      ],
      [
        "ĠWith",
        -8.698332836616858
      ],
      [
        "Ġposition",
        -8.699929942803267
      ],
      [
        "Ġstep",
        -8.700567213068304
      ],
      [
        "Ġbuilding",
        -8.701958338327273
      ],
      [
        "Ġgas",
        -8.702181474351445
      ],
      [
        "Ġmachine",
        -8.705169162014071
      ],
      [
        "an",
        -8.705751329510484
      ],
      [
        "Ġflow",
        -8.705952582592133
      ],
      [
        "Ġtimes",
        -8.708614234945333
      ],
      [
        "Ġunit",
        -8.711186558151564
      ],
      [
        "ĠE",
        -8.71185149853585
      ],
      [
        "Ġskin",
        -8.712316005692859
      ],
      [
        "Ġeat",
        -8.714685517947004
      ],
      [
        "k",
        -8.715871244965033
      ],
      [
        "Ġfuture",
        -8.717006583546615
      ],
      [
        "Ġold",
        -8.718183190368588
      ],
      [
        "âĢĻ",
        -8.719177192426546
      ],
      [
        "Ġclimate",
        -8.720461428862247
      ],
      [
        "Ġclose",
        -8.723189355805403
      ],
      [
        "Ġabove",
        -8.723351499193853
      ],
      [
        "!Ċ",
        -8.727157955284756
      ],
      [
        "ry",
        -8.72937106469761
      ],
      [
        "Ġfact",
        -8.729402979093518
      ],
      [
        "Ġgarden",
        -8.730574856320406
      ],
      [
        "Ġamong",
        -8.730881869278731
      ],
      [
        "Ġground",
        -8.731082152105508
      ],
      [
        "Ġbasic",
        -8.733020894769828
      ],
      [
        "Ġdifference",
        -8.733272346986423
      ],
      [
        "Ġdetermine",
        -8.736300849171517
      ],
      [
        "Ġresearcher",
        -8.736854215292265
      ],
      [
        "Ġbenefits",
        -8.739614500820512
      ],
      [
        "To",
        -8.74012194073498
      ],
      [
        "ĠU",
        -8.7415266415094
      ],
      [
        "Ġheart",
        -8.741664787751233
      ],
      [
        "Ġregular",
        -8.741885119833317
      ],
      [
        "Ġdeep",
        -8.741935850474313
      ],
      [
        "Ġcomponent",
        -8.746052538572684
      ],
      [
        "Ġfar",
        -8.749473046631
      ],
      [
        "Ġbit",
        -8.751852463313185
      ],
      [
        "Ġcontent",
        -8.754783759885166
      ],
      [
        "Ġlove",
        -8.755751917658536
      ],
      [
        "Ġremove",
        -8.75754314287149
      ],
      [
        "Ġchemical",
        -8.757558619086405
      ],
      [
        "Ġscience",
        -8.761083506266672
      ],
      [
        "Ġtry",
        -8.761323204531072
      ],
      [
        "Ġmatter",
        -8.761872311485225
      ],
      [
        "Ġtoday",
        -8.763317610141572
      ],
      [
        "Ġinterest",
        -8.764579167054256
      ],
      [
        "Ġproduce",
        -8.76656842835638
      ],
      [
        "Ġwarm",
        -8.76700138073666
      ],
      [
        "ĠSome",
        -8.768497629690007
      ],
      [
        "Ġbring",
        -8.768708714349813
      ],
      [
        ")ĊĊ",
        -8.768839417816885
      ],
      [
        "Ġtraining",
        -8.769605192850477
      ],
      [
        "Ġwhe",
        -8.771738165143866
      ],
      [
        "Ġcompare",
        -8.773511042641594
      ],
      [
        "Ġsign",
        -8.77504969576388
      ],
      [
        "Ġenjoy",
        -8.777261976342228
      ],
      [
        "Ġpattern",
        -8.7784977984367
      ],
      [
        "Ġlayer",
        -8.779452243908436
      ],
      [
        "Ġsignal",
        -8.782812398611274
      ],
      [
        "Ġhead",
        -8.785623220272006
      ],
      [
        "Ġfour",
        -8.78581174680636
      ],
      [
        "ĠâĢĶ",
        -8.786023915211121
      ],
      [
        "Ġcancer",
        -8.786642807836287
      ],
      [
        "ĠNew",
        -8.787092972297001
      ],
      [
        "Ġmajor",
        -8.787155975903229
      ],
      [
        "ĠYour",
        -8.787301529743313
      ],
      [
        "Ġperformance",
        -8.787566174909749
      ],
      [
        "ĠOn",
        -8.78823396652448
      ],
      [
        "ĠT",
        -8.78859776800028
      ],
      [
        "Ġengine",
        -8.789023082631104
      ],
      [
        "Ġhim",
        -8.789504423458943
      ],
      [
        "Ġread",
        -8.789651421715677
      ],
      [
        "Ġaddition",
        -8.78965588046233
      ],
      [
        "Ġpopular",
        -8.79037654662861
      ],
      [
        "Ġpost",
        -8.791854721048383
      ],
      [
        "Ġpiece",
        -8.792087048268765
      ],
      [
        "Ġbatter",
        -8.794847177890624
      ],
      [
        "Ġimage",
        -8.794911320736722
      ],
      [
        "Ġregion",
        -8.795372287915779
      ],
      [
        "Ġrecent",
        -8.799044385435568
      ],
      [
        "Ġseed",
        -8.799870255141052
      ],
      [
        "Ġstudie",
        -8.801115508688664
      ],
      [
        "Ġbelow",
        -8.803926476722536
      ],
      [
        "Ġmillion",
        -8.804376264190953
      ],
      [
        "\"ĊĊ",
        -8.805130042978105
      ],
      [
        "Ġleft",
        -8.806857389416434
      ],
      [
        "Ġcarbon",
        -8.808055238589844
      ],
      [
        "For",
        -8.811086593955988
      ],
      [
        "Ġcondition",
        -8.811988930312081
      ],
      [
        "Ġcorrect",
        -8.812065057150248
      ],
      [
        "Ġunderstanding",
        -8.813410326522078
      ],
      [
        "Ġfurther",
        -8.818125690756727
      ],
      [
        "Ġperform",
        -8.821368343056985
      ],
      [
        "Ġcold",
        -8.822065476457496
      ],
      [
        "Ġeither",
        -8.82280900021777
      ],
      [
        "Ġchoice",
        -8.823621294437581
      ],
      [
        "Ġbig",
        -8.82366941127574
      ],
      [
        "Ġchallenge",
        -8.825370880707403
      ],
      [
        "Ġnormal",
        -8.829890658390347
      ],
      [
        "Ġsays",
        -8.832923607172013
      ],
      [
        "Ġcat",
        -8.834307389684025
      ],
      [
        "Ġinside",
        -8.834999826400825
      ],
      [
        "Ġnecessary",
        -8.836234099160912
      ],
      [
        "Ġparent",
        -8.836810063616666
      ],
      [
        "Ġyoung",
        -8.837178119777551
      ],
      [
        "Ġskills",
        -8.837515745325415
      ],
      [
        "Ġtoward",
        -8.83812479870685
      ],
      [
        "Ġsound",
        -8.83866517814419
      ],
      [
        "Ġcover",
        -8.839475549655328
      ],
      [
        "Ġtalk",
        -8.840471913774483
      ],
      [
        "Ġnear",
        -8.841293640498503
      ],
      [
        "Ġsun",
        -8.842074182177319
      ],
      [
        "Ġbrain",
        -8.844040898107345
      ],
      [
        "Ġloss",
        -8.844584601290817
      ],
      [
        "Ġgreen",
        -8.845094902015394
      ],
      [
        "ĠNo",
        -8.849911737856154
      ],
      [
        "Ġaffect",
        -8.850426455157146
      ],
      [
        "Ġred",
        -8.853151020569154
      ],
      [
        "Ġcompany",
        -8.85563710125755
      ],
      [
        "Ġtotal",
        -8.855849959303905
      ],
      [
        "Ġfeatures",
        -8.85742326097616
      ],
      [
        "Ġways",
        -8.857892105211581
      ],
      [
        "Ġgenetic",
        -8.858276421386993
      ],
      [
        "Ġindustry",
        -8.860729011308003
      ],
      [
        "Ġappear",
        -8.861138588127371
      ],
      [
        "already",
        -8.86113908538251
      ],
      [
        "Ġhours",
        -8.862028032645107
      ],
      [
        "Ġapproach",
        -8.862388535307357
      ],
      [
        ")Ċ",
        -8.862674041274737
      ],
      [
        "Ġreach",
        -8.8630673191381
      ],
      [
        "Ġbuild",
        -8.864313727749083
      ],
      [
        "Ġflower",
        -8.864790298750318
      ],
      [
        "Ġforce",
        -8.865448453398175
      ],
      [
        "Ġdry",
        -8.865662540105799
      ],
      [
        "Ġthought",
        -8.869918963745475
      ],
      [
        "Ġspeed",
        -8.872521483377074
      ],
      [
        "living",
        -8.873410272145353
      ],
      [
        "Ġconcern",
        -8.87806731269741
      ],
      [
        "ĠH",
        -8.879554624245495
      ],
      [
        "ĠG",
        -8.880842996215176
      ],
      [
        "Ġcommunity",
        -8.880941875037513
      ],
      [
        "Ġtree",
        -8.882123898039133
      ],
      [
        "Ġneeded",
        -8.88356164691653
      ],
      [
        "Ġclass",
        -8.884587658003555
      ],
      [
        "Ġmilk",
        -8.887104124825106
      ],
      [
        "Ġpurpose",
        -8.889071573887348
      ],
      [
        "Ġpositive",
        -8.890301034804814
      ],
      [
        "Ġshape",
        -8.890389259197175
      ],
      [
        "ĠOne",
        -8.891713246815314
      ],
      [
        "Ġhistory",
        -8.892657874299562
      ],
      [
        "Ġremain",
        -8.896915437604319
      ],
      [
        "Ġmind",
        -8.897897433763971
      ],
      [
        "Ġcall",
        -8.898252287548761
      ],
      [
        "Ġreport",
        -8.901656125331142
      ],
      [
        "Ġfuel",
        -8.902569674938233
      ],
      [
        "Ġkind",
        -8.902900598485147
      ],
      [
        "Ġtell",
        -8.903978339104704
      ],
      [
        "ĠAI",
        -8.904677538206531
      ],
      [
        "Ġhouse",
        -8.905252873937286
      ],
      [
        "Ġblack",
        -8.905741328105329
      ],
      [
        "Ġsolution",
        -8.90812882113195
      ],
      [
        "Ġmedical",
        -8.9116107764419
      ],
      [
        "Ġwhole",
        -8.911664735176139
      ],
      [
        "Ġactivities",
        -8.91423530419787
      ],
      [
        "Ġrequired",
        -8.914313517775902
      ],
      [
        "ves",
        -8.914686476766821
      ],
      [
        "Ġlonger",
        -8.914796849332486
      ],
      [
        "Ġuser",
        -8.916245093022768
      ],
      [
        "Ġbehavior",
        -8.916866592624853
      ],
      [
        "Ġnature",
        -8.916960628264501
      ],
      [
        "Ġsomeone",
        -8.917300419304988
      ],
      [
        "Ġcountry",
        -8.92036288048578
      ],
      [
        "Ġdescribe",
        -8.924181071385771
      ],
      [
        "afety",
        -8.926350906780666
      ],
      [
        "Ġbelieve",
        -8.927326456158877
      ],
      [
        ".\"Ċ",
        -8.92811180939701
      ],
      [
        "Ġlanguage",
        -8.93004075719111
      ],
      [
        "Ġpain",
        -8.930110575526786
      ],
      [
        "Ġmeasure",
        -8.930359438933474
      ],
      [
        "Ġknowledge",
        -8.930824164387253
      ],
      [
        "Ġetc",
        -8.931691550690276
      ],
      [
        "Ġfall",
        -8.936334727573804
      ],
      [
        "ish",
        -8.936457143945692
      ],
      [
        "ĠR",
        -8.938250741393318
      ],
      [
        "Ġsleep",
        -8.939570217472657
      ],
      [
        "Ġeasil",
        -8.941475750037302
      ],
      [
        "Ġface",
        -8.942282700015706
      ],
      [
        "Ġauthor",
        -8.942959941055609
      ],
      [
        "Ġentire",
        -8.943325184682296
      ],
      [
        "Ġaction",
        -8.943764419505676
      ],
      [
        "Ġvehicle",
        -8.943981225759064
      ],
      [
        "Ġcool",
        -8.9467944367866
      ],
      [
        "Ġenvironmental",
        -8.94725565121063
      ],
      [
        "gainst",
        -8.947308224141928
      ],
      [
        "ment",
        -8.947694392496146
      ],
      [
        "Ġthough",
        -8.948715412841228
      ],
      [
        "Ġperfect",
        -8.95073420225777
      ],
      [
        "Ġmoney",
        -8.952615085962918
      ],
      [
        "Ġsense",
        -8.9539162608862
      ],
      [
        "Ġexercise",
        -8.954417812581447
      ],
      [
        "Ġpractice",
        -8.955498508464661
      ],
      [
        "ĠV",
        -8.95603126982967
      ],
      [
        "Ġpublic",
        -8.956913643992426
      ],
      [
        "Ġstay",
        -8.957249277103026
      ],
      [
        "Ġtaking",
        -8.95889130081052
      ],
      [
        "it",
        -8.96028399802907
      ],
      [
        "est",
        -8.960393404172258
      ],
      [
        "Ġcrucial",
        -8.960923722036826
      ],
      [
        "Ġpersonal",
        -8.962162831365148
      ],
      [
        ").Ċ",
        -8.962315786661094
      ],
      [
        "Ġcomplex",
        -8.962766927639034
      ],
      [
        "Ġrecord",
        -8.963095794068822
      ],
      [
        "Ġbuy",
        -8.964513122916664
      ],
      [
        "Ġactivity",
        -8.968428190092768
      ],
      [
        "Ġsymptoms",
        -8.968541621080965
      ],
      [
        "Ġmethods",
        -8.969114701821379
      ],
      [
        "Ġassociated",
        -8.96917857101441
      ],
      [
        "Ġslow",
        -8.970023384065662
      ],
      [
        "Ġfollow",
        -8.970224203106545
      ],
      [
        "Ġreceive",
        -8.971412765427695
      ],
      [
        "Ġbalance",
        -8.975290272431998
      ],
      [
        "Ġchoose",
        -8.975981557715457
      ],
      [
        "Ġonline",
        -8.97609344529316
      ],
      [
        "Ġdoing",
        -8.978005889047537
      ],
      [
        "Ġtools",
        -8.978314296255233
      ],
      [
        "Ġterms",
        -8.979272374955283
      ],
      [
        "once",
        -8.981695748346073
      ],
      [
        "Ġtask",
        -8.983014681771817
      ],
      [
        "ĠN",
        -8.988073851697607
      ],
      [
        "Ġoverall",
        -8.990878575321286
      ],
      [
        "Ġlocation",
        -8.992156577709059
      ],
      [
        "Ġtrees",
        -8.9922414905204
      ],
      [
        "Ġcut",
        -8.996150901254822
      ],
      [
        "Ġsample",
        -8.996246746689422
      ],
      [
        "Ġroom",
        -8.996474796568648
      ],
      [
        "âĢĶ",
        -8.999116736313916
      ],
      [
        "ĠAmerican",
        -8.9992643013118
      ],
      [
        "Ġrather",
        -9.000919030937204
      ],
      [
        "Ġresources",
        -9.001179031590675
      ],
      [
        "Ġsea",
        -9.002192019370419
      ],
      [
        "Ġfruit",
        -9.00301504513076
      ],
      [
        "to",
        -9.003617266604449
      ],
      [
        "Ġtarget",
        -9.004121133029136
      ],
      [
        "Ġwomen",
        -9.004299581973976
      ],
      [
        "Ġpaint",
        -9.004892237968708
      ],
      [
        "not",
        -9.007037653280783
      ],
      [
        "Ġpatients",
        -9.008920768900186
      ],
      [
        "Ġaverage",
        -9.009443936599205
      ],
      [
        "Ġrelationship",
        -9.01148468607509
      ],
      [
        "Ġself",
        -9.01240462699498
      ],
      [
        "Ġsolar",
        -9.01326531870654
      ],
      [
        "Ġwinter",
        -9.013987308321049
      ],
      [
        "As",
        -9.015081150375332
      ],
      [
        "Ġmanagement",
        -9.01819594114463
      ],
      [
        "Ġcode",
        -9.018362541333875
      ],
      [
        "Ġam",
        -9.02226361912561
      ],
      [
        "be",
        -9.02370356479586
      ],
      [
        "Ġlarger",
        -9.02497415514733
      ],
      [
        "Ġeffort",
        -9.025477224252263
      ],
      [
        "-base",
        -9.026978441976125
      ],
      [
        "Ġothers",
        -9.027356356599771
      ],
      [
        "Ġvideo",
        -9.02741080035526
      ],
      [
        ".\"",
        -9.02921138535363
      ],
      [
        "Ġgot",
        -9.029497222044377
      ],
      [
        "Ġminutes",
        -9.030018024962274
      ],
      [
        "Ġhot",
        -9.030777951019513
      ],
      [
        "Ġplastic",
        -9.030874426585804
      ],
      [
        "_",
        -9.031115302530104
      ],
      [
        "Ġprobabl",
        -9.03203534381285
      ],
      [
        "Ġselect",
        -9.034743133970451
      ],
      [
        "Ġpast",
        -9.036434980295752
      ],
      [
        "Ġdigital",
        -9.037868780752904
      ],
      [
        "Ġmetal",
        -9.038159505908707
      ],
      [
        "ory",
        -9.041380939614609
      ],
      [
        "Ġlater",
        -9.041603515624216
      ],
      [
        "Ġstress",
        -9.043497729282585
      ],
      [
        "ary",
        -9.043858959173653
      ],
      [
        "Ġspecial",
        -9.045087136829142
      ],
      [
        "Ġstage",
        -9.04675436729766
      ],
      [
        "Ġquickly",
        -9.048071400013992
      ],
      [
        "P",
        -9.048926769606808
      ],
      [
        "Ġnetwork",
        -9.051052280262477
      ],
      [
        "Ġde",
        -9.0514076987916
      ],
      [
        "Ġrelated",
        -9.051466707536171
      ],
      [
        "Ġland",
        -9.051502600409634
      ],
      [
        "Ġhappen",
        -9.051853136577876
      ],
      [
        "Ġguide",
        -9.052469265671723
      ],
      [
        "Ġstop",
        -9.054890108027015
      ],
      [
        "Ġwild",
        -9.058845570923584
      ],
      [
        "Ġtravel",
        -9.059552671128948
      ],
      [
        "Ġmodern",
        -9.060108385150214
      ],
      [
        "Ġseason",
        -9.061505836921857
      ],
      [
        "Ġdiscover",
        -9.062378218116248
      ],
      [
        "Ġfive",
        -9.066060766115434
      ],
      [
        "ĠWhile",
        -9.066607509594515
      ],
      [
        "Ġtraditional",
        -9.067365239061385
      ],
      [
        "Ġglobal",
        -9.068122556884155
      ],
      [
        "Ġregard",
        -9.068661976065798
      ],
      [
        "Ġsimply",
        -9.06885675010482
      ],
      [
        "Ġcontact",
        -9.069690379997873
      ],
      [
        "Ġattention",
        -9.070148212056695
      ],
      [
        "where",
        -9.070722911252997
      ],
      [
        "Ġrelease",
        -9.07089460805236
      ],
      [
        "Ġprimar",
        -9.072133261779957
      ],
      [
        "So",
        -9.072248880135035
      ],
      [
        "however",
        -9.072777660068049
      ],
      [
        "ĠScience",
        -9.073701604392411
      ],
      [
        "Many",
        -9.073818165376782
      ],
      [
        "E",
        -9.074137697782472
      ],
      [
        "Ġlist",
        -9.0749101811178
      ],
      [
        "Ġdegree",
        -9.07616793049592
      ],
      [
        "Ġrelative",
        -9.077195797406883
      ],
      [
        "Ġhumans",
        -9.080423320844442
      ],
      [
        "Ġmovement",
        -9.08158324529516
      ],
      [
        "Ġresponse",
        -9.082300698515166
      ],
      [
        "Ġmultiple",
        -9.082440857534433
      ],
      [
        "Ġact",
        -9.083632138006449
      ],
      [
        "ous",
        -9.085956685913663
      ],
      [
        "Ġservice",
        -9.08600088625202
      ],
      [
        "Ġsite",
        -9.087311952660972
      ],
      [
        "Ġfemale",
        -9.091431940273392
      ],
      [
        "Ġlength",
        -9.092478338480367
      ],
      [
        "Ġoutside",
        -9.09354763158731
      ],
      [
        "âĢ¦",
        -9.093680079171133
      ],
      [
        "Ġwalk",
        -9.094637268031171
      ],
      [
        "Ġreturn",
        -9.094905785007686
      ],
      [
        "Ġterm",
        -9.094934252112411
      ],
      [
        "ĠDNA",
        -9.097878529474205
      ],
      [
        "Ġstrateg",
        -9.101647142415008
      ],
      [
        "Ġequipment",
        -9.102715682852784
      ],
      [
        "ĠAn",
        -9.104606228379645
      ],
      [
        "\\",
        -9.10505049600259
      ],
      [
        "Ġfront",
        -9.105348659204443
      ],
      [
        "Ġconcept",
        -9.10915334439883
      ],
      [
        "Ġwon",
        -9.109521186520666
      ],
      [
        "Ġeducation",
        -9.109611901463074
      ],
      [
        "Ġefficient",
        -9.109950810223811
      ],
      [
        "v",
        -9.110914638870124
      ],
      [
        "Ġadditional",
        -9.11165569965602
      ],
      [
        "ĠHere",
        -9.115244235647996
      ],
      [
        "Ġsugar",
        -9.119429099558904
      ],
      [
        "ĠDo",
        -9.119612832960112
      ],
      [
        "Ġfun",
        -9.120861003689342
      ],
      [
        "Ġsometime",
        -9.121189624558475
      ],
      [
        "Ġalmost",
        -9.121601332133997
      ],
      [
        "Ġproperties",
        -9.122635553077124
      ],
      [
        "Ġhold",
        -9.123697864975018
      ],
      [
        "ĠAll",
        -9.123716146907622
      ],
      [
        "Ġrepresent",
        -9.12469654868551
      ],
      [
        "Ġaddress",
        -9.124777224330698
      ],
      [
        "Ġpet",
        -9.125380405577106
      ],
      [
        "Ġsummer",
        -9.125841711284671
      ],
      [
        "Ġoriginal",
        -9.125948229296466
      ],
      [
        "Ġshare",
        -9.126815936901153
      ],
      [
        "Ġsetting",
        -9.127070605253309
      ],
      [
        "Ġproper",
        -9.129738590317874
      ],
      [
        "Ġprovid",
        -9.130921716576408
      ],
      [
        "Ġservices",
        -9.132011168852964
      ],
      [
        "Ġwaste",
        -9.132388654554989
      ],
      [
        "Ġactive",
        -9.13325224488498
      ],
      [
        "ive",
        -9.13384287666884
      ],
      [
        "Ġoptions",
        -9.135770891634923
      ],
      [
        "Ġrule",
        -9.136521127904032
      ],
      [
        "Ġpay",
        -9.137905685049986
      ],
      [
        "Ġever",
        -9.13926155210965
      ],
      [
        "ĠF",
        -9.139999294214578
      ],
      [
        "Ġhalf",
        -9.14020012105254
      ],
      [
        "Ġexplore",
        -9.140326887350708
      ],
      [
        "|",
        -9.142916870237777
      ],
      [
        "ĠNational",
        -9.14485940100765
      ],
      [
        "ĠEarth",
        -9.144985227124712
      ],
      [
        "Ġreading",
        -9.145506611232506
      ],
      [
        "Ġpercent",
        -9.145593730502725
      ],
      [
        "Ġmass",
        -9.147175103562809
      ],
      [
        "Ġacid",
        -9.147846224367228
      ],
      [
        "Ġachieve",
        -9.148726805288398
      ],
      [
        "Ġrest",
        -9.14886705139008
      ],
      [
        "Ġeyes",
        -9.150075172031904
      ],
      [
        "Ġsuccessful",
        -9.150757017013856
      ],
      [
        "Ġbad",
        -9.151356029327
      ],
      [
        "Ġoperation",
        -9.15172823375715
      ],
      [
        "Ġorganization",
        -9.152012650993472
      ],
      [
        "ĠAt",
        -9.152685729622938
      ],
      [
        "ĠUnited",
        -9.15315047676558
      ],
      [
        "Ġcamera",
        -9.15392016013086
      ],
      [
        "Ġinvolve",
        -9.154666950271476
      ],
      [
        "Ġthemsel",
        -9.154849612214598
      ],
      [
        "Ġeggs",
        -9.157043230253116
      ],
      [
        "Ġaccount",
        -9.15803339471423
      ],
      [
        "Ġenhance",
        -9.158188207042617
      ],
      [
        "Ġbirds",
        -9.160266597461897
      ],
      [
        "+",
        -9.160292636464735
      ],
      [
        "Ġparticle",
        -9.162829841950856
      ],
      [
        "Ġtool",
        -9.162845440816788
      ],
      [
        "Ġplayer",
        -9.16324597789859
      ],
      [
        "Ġfinal",
        -9.164371318967824
      ],
      [
        "Ġwebsite",
        -9.166223969109051
      ],
      [
        "Ġnight",
        -9.166715049896984
      ],
      [
        "Ġnegative",
        -9.167492229814068
      ],
      [
        "by",
        -9.16793695250166
      ],
      [
        "Ġelements",
        -9.16859861251028
      ],
      [
        "Ġsave",
        -9.16943535932564
      ],
      [
        "yourself",
        -9.175893438242664
      ],
      [
        "age",
        -9.176009337551774
      ],
      [
        "Ġvisit",
        -9.176078967217975
      ],
      [
        "Ġisn",
        -9.176440720912248
      ],
      [
        "Ġexplain",
        -9.177186114930327
      ],
      [
        "Ġpre",
        -9.177668534525315
      ],
      [
        "Ġtissue",
        -9.17801368127665
      ],
      [
        "Ġanalysis",
        -9.17860305478544
      ],
      [
        "Ġkids",
        -9.18032552790286
      ],
      [
        "Ġgain",
        -9.180475575103891
      ],
      [
        "Ġquite",
        -9.183408544735736
      ],
      [
        "One",
        -9.184439782007434
      ],
      [
        "Ġprevious",
        -9.184483004684772
      ],
      [
        "Ġart",
        -9.184884932792777
      ],
      [
        "Ġdirection",
        -9.18508828524626
      ],
      [
        "Ġal",
        -9.18658495464218
      ],
      [
        "Ġscientists",
        -9.188666103554551
      ],
      [
        "Ġsensor",
        -9.189097530567778
      ],
      [
        "Ġweather",
        -9.190645825357052
      ],
      [
        "Ġfeet",
        -9.191505549859254
      ],
      [
        "Ġvegetable",
        -9.19485985421282
      ],
      [
        "Ġsupply",
        -9.195080437595774
      ],
      [
        "Ġbehind",
        -9.195668151559692
      ],
      [
        "Ġfresh",
        -9.196248173166394
      ],
      [
        "Ġmeat",
        -9.197491684220498
      ],
      [
        "Ġmentioned",
        -9.198428273239584
      ],
      [
        "Ġexact",
        -9.200988307833912
      ],
      [
        "Ġcenter",
        -9.202359988583323
      ],
      [
        "Ġnote",
        -9.203000934826896
      ],
      [
        "Ġstarted",
        -9.203506629065108
      ],
      [
        "Ġmix",
        -9.204411840374767
      ],
      [
        "Ġfinding",
        -9.206354514540417
      ],
      [
        "Ġyet",
        -9.207193672301628
      ],
      [
        "Ġtrue",
        -9.208694073000984
      ],
      [
        "Ġreduc",
        -9.209451394913405
      ],
      [
        "Ġtrying",
        -9.210507985211702
      ],
      [
        "Ġeverything",
        -9.21153385672567
      ],
      [
        "Ġgenerate",
        -9.211828695202977
      ],
      [
        "Ġfat",
        -9.21596747701723
      ],
      [
        "Ġago",
        -9.217673836839037
      ],
      [
        "Ġmemory",
        -9.218137514041564
      ],
      [
        "Ġexist",
        -9.218616434297804
      ],
      [
        "Ġadvantage",
        -9.221219435495115
      ],
      [
        "Ġfoods",
        -9.226046441904495
      ],
      [
        "Ġwords",
        -9.226495343829225
      ],
      [
        "Ġfit",
        -9.227656584235929
      ],
      [
        "Ġice",
        -9.22817576241076
      ],
      [
        "Why",
        -9.228946329014216
      ],
      [
        "Ġspread",
        -9.229250667218553
      ],
      [
        "Ġdark",
        -9.229391516023544
      ],
      [
        "Ġbacteria",
        -9.229971558210051
      ],
      [
        "ĠAfter",
        -9.230663683581284
      ],
      [
        "Ġpass",
        -9.23185167291859
      ],
      [
        "Ġeasie",
        -9.23308847100609
      ],
      [
        "daily",
        -9.236734163804268
      ],
      [
        "ism",
        -9.238001549372004
      ],
      [
        "Ġstandard",
        -9.238272486896951
      ],
      [
        "Ġcontribute",
        -9.238296235868194
      ],
      [
        "Ġindicate",
        -9.2409970857386
      ],
      [
        "Ġfill",
        -9.244544885745878
      ],
      [
        "Ġbrand",
        -9.247646917634071
      ],
      [
        "cy",
        -9.248684614166526
      ],
      [
        "Ġwood",
        -9.2487794899254
      ],
      [
        "Ġapply",
        -9.249232026751226
      ],
      [
        "Ġconstant",
        -9.24953135768506
      ],
      [
        "Ġmeet",
        -9.249654357493483
      ],
      [
        "Ġcustomer",
        -9.250030932633722
      ],
      [
        "N",
        -9.250150164810194
      ],
      [
        "Ġjob",
        -9.25024827931905
      ],
      [
        "Ġcountr",
        -9.251004996074304
      ],
      [
        "Ġserve",
        -9.252255799601702
      ],
      [
        "Ġcircuit",
        -9.252682438254332
      ],
      [
        "Ġcleaning",
        -9.255148640315292
      ],
      [
        "Ġmodels",
        -9.255810647069923
      ],
      [
        "F",
        -9.255830004722249
      ],
      [
        "Ġwall",
        -9.25816361370862
      ],
      [
        "Ġdrive",
        -9.258203983660682
      ],
      [
        "Ġspring",
        -9.26034878432715
      ],
      [
        "Ġsection",
        -9.262456070143957
      ],
      [
        "Ġcommunication",
        -9.263354865912522
      ],
      [
        "Ġculture",
        -9.2634129344568
      ],
      [
        "Ġexperiment",
        -9.263966070314002
      ],
      [
        "Ġstory",
        -9.263985123393176
      ],
      [
        "Ġmental",
        -9.264407653532729
      ],
      [
        "Ġfeed",
        -9.264588548325538
      ],
      [
        "Ġdidn",
        -9.265625928830426
      ],
      [
        "Ġseparate",
        -9.266728827953198
      ],
      [
        "Ġworks",
        -9.267015344210442
      ],
      [
        "Ġcharacter",
        -9.269137323859333
      ],
      [
        "Ġevidence",
        -9.27027381948109
      ],
      [
        "Ġinfluence",
        -9.27060940640581
      ],
      [
        "Ġoption",
        -9.271532464463435
      ],
      [
        "ĠDr",
        -9.274002771193327
      ],
      [
        "Ġear",
        -9.275953309587914
      ],
      [
        "Ġmedia",
        -9.276153470084957
      ],
      [
        "ĠStates",
        -9.276423003222927
      ],
      [
        "ecause",
        -9.27713781439395
      ],
      [
        "Ġliquid",
        -9.277757289051484
      ],
      [
        ".S",
        -9.277921042906549
      ],
      [
        "Ġefficienc",
        -9.27820706927252
      ],
      [
        "M",
        -9.278262503653073
      ],
      [
        "Ġprotection",
        -9.27875784640964
      ],
      [
        "Ġeveryone",
        -9.279473860549276
      ],
      [
        "Ġextra",
        -9.279732563476548
      ],
      [
        "Ġbreed",
        -9.27998044528815
      ],
      [
        "Ġdistance",
        -9.281666352721494
      ],
      [
        "[",
        -9.28168787032194
      ],
      [
        "Ġfine",
        -9.282869866055734
      ],
      [
        "Ġprovided",
        -9.282904092802038
      ],
      [
        "Ġstyle",
        -9.283391499985992
      ],
      [
        "ĠL",
        -9.283605070369918
      ],
      [
        "Ġmonitor",
        -9.286052823878087
      ],
      [
        "Ġtopic",
        -9.28812333020445
      ],
      [
        "Ġprice",
        -9.289267086930636
      ],
      [
        "Ġaspect",
        -9.290111819981668
      ],
      [
        "Ġsoftware",
        -9.290565970213986
      ],
      [
        "Ġscientific",
        -9.291508934437632
      ],
      [
        "Ġwave",
        -9.29189836075322
      ],
      [
        "Ġinsect",
        -9.292025597104312
      ],
      [
        "Ġcritical",
        -9.292185207716749
      ],
      [
        "Ġcity",
        -9.2951132763353
      ],
      [
        "Ġelectric",
        -9.2953213132107
      ],
      [
        "But",
        -9.296068683214692
      ],
      [
        "Ġtank",
        -9.297076579469294
      ],
      [
        "Ġcharge",
        -9.297102998279232
      ],
      [
        "Ġreview",
        -9.297372255680134
      ],
      [
        "Ġlack",
        -9.29744069208041
      ],
      [
        "H",
        -9.29767219873908
      ],
      [
        "Ġaim",
        -9.298427409986717
      ],
      [
        "Ġblue",
        -9.299280530946175
      ],
      [
        "Ġremember",
        -9.299403829915208
      ],
      [
        "Ġfire",
        -9.299781175019117
      ],
      [
        "Ġsteps",
        -9.300298502769536
      ],
      [
        "Ġelse",
        -9.30123631139817
      ],
      [
        "Ġteacher",
        -9.301851340594387
      ],
      [
        "Ġbenefit",
        -9.303164274496844
      ],
      [
        "ĠSouth",
        -9.3032278714084
      ],
      [
        "Ġproduced",
        -9.304377446908584
      ],
      [
        "lthough",
        -9.304396603662203
      ],
      [
        "Ġidentify",
        -9.30595617847035
      ],
      [
        "Ġprocesses",
        -9.306263790004564
      ],
      [
        "ĠUse",
        -9.307282077921869
      ],
      [
        "Ġcycle",
        -9.307707810089749
      ],
      [
        "Ġeating",
        -9.30772073315874
      ],
      [
        "Ġevent",
        -9.307941108890311
      ],
      [
        "Ġsix",
        -9.308704750475666
      ],
      [
        "Ġsearch",
        -9.310266574814973
      ],
      [
        "Ġgovernment",
        -9.31148794178171
      ],
      [
        "Ġstrength",
        -9.312397985375146
      ],
      [
        "Ġappropriate",
        -9.31402762026934
      ],
      [
        "Ġelectrical",
        -9.314281818834369
      ],
      [
        "Ġdream",
        -9.314321591433028
      ],
      [
        "Ġobject",
        -9.314803038312084
      ],
      [
        "ĠâĢľ",
        -9.314923590609885
      ],
      [
        "Ġdisplay",
        -9.315033003815453
      ],
      [
        "ything",
        -9.316271617512324
      ],
      [
        "Ġtend",
        -9.316618581752746
      ],
      [
        "Ġconduct",
        -9.316865954351575
      ],
      [
        "ĠCan",
        -9.317471470776232
      ],
      [
        "Ġcook",
        -9.317886985394413
      ],
      [
        "Ġdemand",
        -9.319271612021469
      ],
      [
        "Ġexpert",
        -9.319646489358782
      ],
      [
        "Ġmanage",
        -9.320401231413149
      ],
      [
        "Ġstudent",
        -9.321366377417007
      ],
      [
        "Ġrecommended",
        -9.321471538234414
      ],
      [
        "Ġsalt",
        -9.321678579267044
      ],
      [
        "Ġdoctor",
        -9.322056204572718
      ],
      [
        "Ġingredient",
        -9.322215167201444
      ],
      [
        "Ġcollect",
        -9.323561892399857
      ],
      [
        "Ġinstruction",
        -9.323614961658064
      ],
      [
        "Ġcats",
        -9.324373549936672
      ],
      [
        "Ġseries",
        -9.32473440124454
      ],
      [
        "Ġview",
        -9.32831040298694
      ],
      [
        "Ġinvolved",
        -9.32919991066482
      ],
      [
        "Ġwind",
        -9.330939761869688
      ],
      [
        "Ġtips",
        -9.33195736231187
      ],
      [
        "Ġshows",
        -9.333659489722343
      ],
      [
        "ĠK",
        -9.334036406038967
      ],
      [
        "Ġforest",
        -9.337276615817974
      ],
      [
        "Ġpage",
        -9.337747449591676
      ],
      [
        "Ġwatch",
        -9.338485608453755
      ],
      [
        "ĠWorld",
        -9.339314277138566
      ],
      [
        "Ġinstall",
        -9.339869797575684
      ],
      [
        "Ġemission",
        -9.340600922368855
      ],
      [
        "Ġlate",
        -9.340775740885608
      ],
      [
        "Ġroot",
        -9.341459017893792
      ],
      [
        "Ġitems",
        -9.344086388207264
      ],
      [
        "Ġrequirement",
        -9.344114443457222
      ],
      [
        "ĠSchool",
        -9.3453986777433
      ],
      [
        "Ġpoints",
        -9.347173453609273
      ],
      [
        "V",
        -9.349676289182936
      ],
      [
        "ance",
        -9.35064624861631
      ],
      [
        "Ġchance",
        -9.352699011521812
      ],
      [
        "Ġgoal",
        -9.352980160457156
      ],
      [
        "Ġcharacteristic",
        -9.353417007227137
      ],
      [
        "Ġnotice",
        -9.353460942001083
      ],
      [
        "Ġstorage",
        -9.353643298657945
      ],
      [
        "Ġbuilt",
        -9.354665430238184
      ],
      [
        "G",
        -9.35643331517804
      ],
      [
        "Ġscale",
        -9.36003919348935
      ],
      [
        "Ġre",
        -9.361129361055834
      ],
      [
        "Ġword",
        -9.361330882029636
      ],
      [
        "ĠO",
        -9.361486031847484
      ],
      [
        "Ġcauses",
        -9.3642318133608
      ],
      [
        "Ġconnection",
        -9.36447075250922
      ],
      [
        "ĠShe",
        -9.364911082329376
      ],
      [
        "Ġversion",
        -9.365130157852729
      ],
      [
        "Ġimages",
        -9.367844609411131
      ],
      [
        "Ġrepair",
        -9.370438850603184
      ],
      [
        "Ġmaintenance",
        -9.371344735959427
      ],
      [
        "ĠHealth",
        -9.371863022870324
      ],
      [
        "Ġenter",
        -9.372934751530222
      ],
      [
        "ember",
        -9.373213492154314
      ],
      [
        "Ġspot",
        -9.373392109975882
      ],
      [
        "Ġorganic",
        -9.37353005728378
      ],
      [
        "Ġfigure",
        -9.373568759156871
      ],
      [
        "Ġmolecule",
        -9.37530754343155
      ],
      [
        "Ġoutput",
        -9.37594799152577
      ],
      [
        "Ġrunning",
        -9.377626294867174
      ],
      [
        "ĠAmerica",
        -9.377903500681915
      ],
      [
        "Ġmale",
        -9.3796140494889
      ],
      [
        "Ġfrequent",
        -9.384291577826918
      ],
      [
        "man",
        -9.38525060869031
      ],
      [
        "Ġideal",
        -9.385988340970028
      ],
      [
        "Ġfeeling",
        -9.386817738982373
      ],
      [
        "Ġmoving",
        -9.387078972859978
      ],
      [
        "Ġswitch",
        -9.38726636253287
      ],
      [
        "Ġ--",
        -9.38732417834845
      ],
      [
        "Ġreplace",
        -9.387466002556463
      ],
      [
        "companie",
        -9.387998296782024
      ],
      [
        "Ġbird",
        -9.388247163708122
      ],
      [
        "Ġoccur",
        -9.389555391740831
      ],
      [
        "Ġuseful",
        -9.389599686868753
      ],
      [
        "Ġimmediate",
        -9.390331704621206
      ],
      [
        "Ġbreak",
        -9.3905291443057
      ],
      [
        "Ġtaste",
        -9.39076764975951
      ],
      [
        "Ġfilm",
        -9.392576902778458
      ],
      [
        "Ġfeature",
        -9.392906781818931
      ],
      [
        "ĠYes",
        -9.396338740716043
      ],
      [
        "Ġgene",
        -9.396837224365871
      ],
      [
        "ĠMay",
        -9.39690327886438
      ],
      [
        "Ġmembers",
        -9.397210499943982
      ],
      [
        "R",
        -9.397327053593774
      ],
      [
        "Ġbegin",
        -9.397432981948786
      ],
      [
        ">",
        -9.399737640372688
      ],
      [
        "Ġcarry",
        -9.399944959659027
      ],
      [
        "Ġtouch",
        -9.400091415258204
      ],
      [
        "ĠJ",
        -9.400489104439131
      ],
      [
        "ĠAls",
        -9.400621458021952
      ],
      [
        "Ġdecrease",
        -9.401365173677632
      ],
      [
        "Ġinitial",
        -9.401929579791029
      ],
      [
        "Ġsubject",
        -9.403049812723292
      ],
      [
        "Ġfarm",
        -9.404614841224545
      ],
      [
        "Ġclaim",
        -9.404719630424024
      ],
      [
        "ĠResearch",
        -9.405112298688568
      ],
      [
        "Ġequal",
        -9.405161532299584
      ],
      [
        "Ġattack",
        -9.410078678170777
      ],
      [
        "Ġcombination",
        -9.41109370555115
      ],
      [
        "Ġpatient",
        -9.411408042577438
      ],
      [
        "Ġhair",
        -9.412819805952005
      ],
      [
        "Ġglass",
        -9.41309859264236
      ],
      [
        "ĠWhy",
        -9.413923882772249
      ],
      [
        "Ġsoon",
        -9.41404772713473
      ],
      [
        "ĠBe",
        -9.414353468097616
      ],
      [
        "Ġgoe",
        -9.415517378120192
      ],
      [
        "light",
        -9.417509832211085
      ],
      [
        "Ġteeth",
        -9.418328346308664
      ],
      [
        "-to",
        -9.419359244182102
      ],
      [
        "Ġb",
        -9.420875901022963
      ],
      [
        "Ġserious",
        -9.424064676955703
      ],
      [
        "ĠMost",
        -9.425201697096606
      ],
      [
        "ĠFrom",
        -9.425404751763358
      ],
      [
        "Ġpublished",
        -9.42573915369703
      ],
      [
        "Ġobtain",
        -9.427152561924643
      ],
      [
        "Ġworth",
        -9.42730935696524
      ],
      [
        "Ġdetect",
        -9.429886073922868
      ],
      [
        "Ġelectronic",
        -9.431702932891412
      ],
      [
        "Ġpretty",
        -9.434566184350349
      ],
      [
        "Ġpump",
        -9.43460493345556
      ],
      [
        "Ġwear",
        -9.437004178555686
      ],
      [
        "ĠNorth",
        -9.4372685992732
      ],
      [
        "While",
        -9.437541095486251
      ],
      [
        "Ġwrite",
        -9.437819885338245
      ],
      [
        "Ġcount",
        -9.438085303985307
      ],
      [
        "Ġimportanc",
        -9.438190712496503
      ],
      [
        "Ġgeneration",
        -9.438754009347782
      ],
      [
        "Ġtemperatures",
        -9.439141489839374
      ],
      [
        "Using",
        -9.439803710473107
      ],
      [
        "âĢĿ",
        -9.442249381326477
      ],
      [
        "Ġinput",
        -9.443248968509492
      ],
      [
        "Ġbottom",
        -9.4438161213765
      ],
      [
        "Ġdesire",
        -9.443993507819016
      ],
      [
        "Ġfilter",
        -9.443997723823747
      ],
      [
        "Ġcollection",
        -9.444054043872336
      ],
      [
        "Ġsuccess",
        -9.445230850731395
      ],
      [
        "Ġwriting",
        -9.445427071555336
      ],
      [
        "Ġresistance",
        -9.446408226406804
      ],
      [
        "Ġlives",
        -9.44680971474936
      ],
      [
        "Ġnoise",
        -9.44710029730667
      ],
      [
        "mm",
        -9.44721841282103
      ],
      [
        "Ġhope",
        -9.447747401217123
      ],
      [
        "By",
        -9.447747906241972
      ],
      [
        "Ġcouple",
        -9.449346427559725
      ],
      [
        "Ġdiseases",
        -9.449448584144
      ],
      [
        "Ġextend",
        -9.449540842903954
      ],
      [
        "Ġburn",
        -9.450016307272309
      ],
      [
        "Ġdisorder",
        -9.450226861983417
      ],
      [
        "Ġtrack",
        -9.450591679904116
      ],
      [
        "Ġdeath",
        -9.450609647080018
      ],
      [
        "Ġusers",
        -9.452031809338582
      ],
      [
        "Ġenable",
        -9.452243372821307
      ],
      [
        "Ġsoft",
        -9.452510396005644
      ],
      [
        "Ġfile",
        -9.453347000612794
      ],
      [
        "Ġboard",
        -9.453572754117156
      ],
      [
        "Ġcontainer",
        -9.455761275057316
      ],
      [
        "Ġnothing",
        -9.456313772742837
      ],
      [
        "K",
        -9.456945086540458
      ],
      [
        "Ġfinish",
        -9.4571861132492
      ],
      [
        "Ġearth",
        -9.45792293160506
      ],
      [
        "Ġcontext",
        -9.458484791985985
      ],
      [
        "ĠMore",
        -9.458494543164065
      ],
      [
        "Ġreaction",
        -9.45860858158536
      ],
      [
        "Ġexcellen",
        -9.459258526327623
      ],
      [
        "Ġplatform",
        -9.459896588091308
      ],
      [
        "taken",
        -9.45993322931958
      ],
      [
        "Ġvitamin",
        -9.461333968578195
      ],
      [
        "Ġpoor",
        -9.461865227295254
      ],
      [
        "Ġmoment",
        -9.463394068639158
      ],
      [
        "Ġdeliver",
        -9.464513605626928
      ],
      [
        "Ġrich",
        -9.464862588561855
      ],
      [
        "Ġfabric",
        -9.465094111557695
      ],
      [
        "Ġcame",
        -9.46580073927818
      ],
      [
        "ĠOf",
        -9.465877751152927
      ],
      [
        "Ġwire",
        -9.466406620842104
      ],
      [
        "Ġportion",
        -9.466734931409912
      ],
      [
        "Ġsequence",
        -9.467878022467774
      ],
      [
        "Ġ+",
        -9.470121263329323
      ],
      [
        "Ġobjects",
        -9.471556198221313
      ],
      [
        "Ġcooking",
        -9.47200803932166
      ],
      [
        "Ġjoint",
        -9.472233113250056
      ],
      [
        "Ġvisual",
        -9.473714694540805
      ],
      [
        "Can",
        -9.474389050669478
      ],
      [
        "Ġplann",
        -9.474448592536136
      ],
      [
        "Ġprojects",
        -9.47633681253842
      ],
      [
        "Ġencourage",
        -9.476517017329996
      ],
      [
        "more",
        -9.47672820165655
      ],
      [
        "Ġconstruction",
        -9.479642561372897
      ],
      [
        "Ġman",
        -9.480113766525673
      ],
      [
        "Ġcrop",
        -9.480637862442103
      ],
      [
        "Ġyellow",
        -9.481402631196552
      ],
      [
        "Ġincreasing",
        -9.485034013831672
      ],
      [
        "Ġgenes",
        -9.485113575749448
      ],
      [
        "Ġinteraction",
        -9.4860289499162
      ],
      [
        "Ġpair",
        -9.48698362638278
      ],
      [
        "Ġcapacit",
        -9.487136563663762
      ],
      [
        "Ġadjust",
        -9.487434173454698
      ],
      [
        "Ġkill",
        -9.487898482345
      ],
      [
        "ware",
        -9.489265871133703
      ],
      [
        "Ġresponsible",
        -9.4898182274121
      ],
      [
        "Ġbaby",
        -9.489929003704704
      ],
      [
        "ĠOur",
        -9.490892609000198
      ],
      [
        "Ġsuitabl",
        -9.492849359916686
      ],
      [
        "line",
        -9.49357489772994
      ],
      [
        "Ġintroduce",
        -9.494028225735732
      ],
      [
        "Ġready",
        -9.494120502576903
      ],
      [
        "Ġprograms",
        -9.495597347742052
      ],
      [
        "ivity",
        -9.49772868424835
      ],
      [
        "ĠUS",
        -9.49888461468868
      ],
      [
        "Ġprint",
        -9.50163591710436
      ],
      [
        "Ġnumbers",
        -9.503014260857965
      ],
      [
        "Ġmusic",
        -9.503157054461076
      ],
      [
        "$",
        -9.503776798267989
      ],
      [
        "Ġstone",
        -9.503848117670392
      ],
      [
        "Ġupon",
        -9.50589669836008
      ],
      [
        "Ġedge",
        -9.506576490255997
      ],
      [
        "Ġphotograph",
        -9.506837159514005
      ],
      [
        "Ġmineral",
        -9.507303396789991
      ],
      [
        "Ġfund",
        -9.50776441853266
      ],
      [
        "ĠWho",
        -9.508183927146238
      ],
      [
        "Ġvolume",
        -9.50821319491531
      ],
      [
        "Ġdecision",
        -9.511070090721496
      ],
      [
        "Ġsolid",
        -9.51172622481662
      ],
      [
        "Ġpull",
        -9.513930808273289
      ],
      [
        "Ġhear",
        -9.514088172937488
      ],
      [
        "Ġconsist",
        -9.515193103304114
      ],
      [
        "Ġcutting",
        -9.515520747480457
      ],
      [
        "Ġbrown",
        -9.516446695010586
      ],
      [
        "Ġpowerful",
        -9.516752037613005
      ],
      [
        "Ġlesson",
        -9.517760728633617
      ],
      [
        "O",
        -9.518080094377265
      ],
      [
        "Ġevents",
        -9.519201740938527
      ],
      [
        "Ġsituation",
        -9.519697642917382
      ],
      [
        "Ġoxygen",
        -9.521055706816426
      ],
      [
        "immune",
        -9.521507099276189
      ],
      [
        "ĠThen",
        -9.521788273571005
      ],
      [
        "Ġstar",
        -9.522535407671182
      ],
      [
        "Ġhappens",
        -9.525750641549962
      ],
      [
        "Ġvision",
        -9.53125036378182
      ],
      [
        "Ġpractices",
        -9.531324939149542
      ],
      [
        "Ġvary",
        -9.531602386767716
      ],
      [
        "âĢ¢",
        -9.53236745976336
      ],
      [
        "These",
        -9.532480762457316
      ],
      [
        "Ġscreen",
        -9.532492161203484
      ],
      [
        "Ġbeautiful",
        -9.533111029264838
      ],
      [
        "Ġsmooth",
        -9.534784818509593
      ],
      [
        "Ġheavy",
        -9.53645492762729
      ],
      [
        "life",
        -9.538006161215163
      ],
      [
        "Ġsustainabl",
        -9.538550443529097
      ],
      [
        "ĠMy",
        -9.53878728688404
      ],
      [
        "Ġrare",
        -9.539925482794985
      ],
      [
        "Ġobserve",
        -9.54047498097864
      ],
      [
        "Ġsort",
        -9.540545676343562
      ],
      [
        "Ġtable",
        -9.540642130827012
      ],
      [
        "properly",
        -9.541109685768898
      ],
      [
        "-up",
        -9.54131763163193
      ],
      [
        "giving",
        -9.542383378591133
      ],
      [
        "Ġleg",
        -9.543383278595762
      ],
      [
        "Ġteaching",
        -9.544370596184832
      ],
      [
        "Ġvoltage",
        -9.544390264890838
      ],
      [
        "Ġpromote",
        -9.544529619761825
      ],
      [
        "Ġinstance",
        -9.544922184896183
      ],
      [
        "Ġexpensive",
        -9.545355810917982
      ],
      [
        "Ġstem",
        -9.546364318299856
      ],
      [
        "Ġdocument",
        -9.549979911315456
      ],
      [
        "land",
        -9.551785427095108
      ],
      [
        "Ġwrong",
        -9.552051175403813
      ],
      [
        "Ġtherapy",
        -9.552183542270043
      ],
      [
        "Ġlocated",
        -9.552314150020848
      ],
      [
        "Ġpurchase",
        -9.552430671790216
      ],
      [
        "Ġcurrently",
        -9.55257567434517
      ],
      [
        "Ġensur",
        -9.554491950107728
      ],
      [
        "ĠX",
        -9.55613052130295
      ],
      [
        "||",
        -9.556302622138617
      ],
      [
        "one",
        -9.556593772278491
      ],
      [
        "Ġrock",
        -9.557381707379037
      ],
      [
        "Ġrefer",
        -9.55755957112422
      ],
      [
        "Ġvalues",
        -9.557838816058354
      ],
      [
        "Ġrecommend",
        -9.55895573481748
      ],
      [
        "Ġcausing",
        -9.559204026054909
      ],
      [
        "Ġchang",
        -9.55933880145571
      ],
      [
        "Ġconnected",
        -9.559726677641445
      ],
      [
        "ĠW",
        -9.560349473997135
      ],
      [
        "Ġdeal",
        -9.560422000778871
      ],
      [
        "Ġmuscle",
        -9.563742280390668
      ],
      [
        "Ġhandle",
        -9.564250091426237
      ],
      [
        "Ġwonder",
        -9.564706063280797
      ],
      [
        "Ġcombine",
        -9.564844033773053
      ],
      [
        "An",
        -9.566068342973637
      ],
      [
        "Ġadding",
        -9.568996514688102
      ],
      [
        "Ġsolutions",
        -9.56963421938572
      ],
      [
        "Ġcompound",
        -9.57017699046814
      ],
      [
        "care",
        -9.571252799296325
      ],
      [
        "Ġmechanism",
        -9.571367024612478
      ],
      [
        "Ġthird",
        -9.572092506954828
      ],
      [
        "=",
        -9.572485708023898
      ],
      [
        "Ġsecurity",
        -9.572869824843549
      ],
      [
        "Ġadult",
        -9.573219186460346
      ],
      [
        "Ġsevere",
        -9.5742691989195
      ],
      [
        "Ġprinciple",
        -9.574277098770024
      ],
      [
        "L",
        -9.575432954970914
      ],
      [
        "Ġstates",
        -9.575662193233356
      ],
      [
        "applied",
        -9.575895422120844
      ],
      [
        "Ġalternative",
        -9.576483147956074
      ],
      [
        "Ġmen",
        -9.577021884217508
      ],
      [
        "Ġeconomic",
        -9.577519661059208
      ],
      [
        "ĠAdditional",
        -9.578496757129336
      ],
      [
        "Ġgames",
        -9.579124304338048
      ],
      [
        "Ġrise",
        -9.580370145892491
      ],
      [
        "Ġpath",
        -9.580417286749324
      ],
      [
        "Ġaid",
        -9.581928920472055
      ],
      [
        "Ġforward",
        -9.583814898655929
      ],
      [
        "Ġwait",
        -9.585132621753113
      ],
      [
        "Ġpick",
        -9.586854511257616
      ],
      [
        "On",
        -9.586978688885887
      ],
      [
        "Ġelectricity",
        -9.587018604313863
      ],
      [
        "ĠNow",
        -9.587054051031814
      ],
      [
        "Ġcolour",
        -9.587083768020872
      ],
      [
        "Ġinfection",
        -9.58834179440518
      ],
      [
        "Ġreflect",
        -9.588436013253707
      ],
      [
        "Ġconsumption",
        -9.58968877403674
      ],
      [
        ".com",
        -9.590769037376326
      ],
      [
        "Ġfriends",
        -9.59105097912052
      ],
      [
        "ization",
        -9.594335540784524
      ],
      [
        "Ġpush",
        -9.59524258812934
      ],
      [
        "ĠNot",
        -9.596027928268798
      ],
      [
        "Ġcoat",
        -9.59637798273222
      ],
      [
        "Ġroof",
        -9.596493946750506
      ],
      [
        "Ġaccurate",
        -9.596622664461652
      ],
      [
        "Ġcross",
        -9.598101828054013
      ],
      [
        "With",
        -9.600372236904102
      ],
      [
        "ĠâĢ¦",
        -9.602843060523114
      ],
      [
        "Ġvaluable",
        -9.603656276551844
      ],
      [
        "Ġnutrients",
        -9.603704332821737
      ],
      [
        "went",
        -9.603783785299314
      ],
      [
        "And",
        -9.604111063219538
      ],
      [
        "Ġbox",
        -9.605570997950108
      ],
      [
        "ĠCenter",
        -9.605980119854795
      ],
      [
        "Ġreference",
        -9.607625964206632
      ],
      [
        "ĠThei",
        -9.60868766038071
      ],
      [
        "Ġexposure",
        -9.608932029169138
      ],
      [
        "Ġexpect",
        -9.610086897222365
      ],
      [
        "Ġrecognize",
        -9.610172893399264
      ],
      [
        "Ġbone",
        -9.61025631487603
      ],
      [
        "Ġmeaning",
        -9.610442295874437
      ],
      [
        "Ġnest",
        -9.611501532604414
      ],
      [
        "Ġbecame",
        -9.61178541106162
      ],
      [
        "Ġfoot",
        -9.61239467227207
      ],
      [
        "Ġload",
        -9.612477701889
      ],
      [
        "Whether",
        -9.613360834698508
      ],
      [
        "Ġexpression",
        -9.613690243431057
      ],
      [
        "Ġelement",
        -9.614329808352824
      ],
      [
        "took",
        -9.616348137381229
      ],
      [
        "Ġmedication",
        -9.616747015714244
      ],
      [
        "Ġstarting",
        -9.617004218039789
      ],
      [
        "ĠAre",
        -9.617491657890708
      ],
      [
        "Ġflight",
        -9.618245755571271
      ],
      [
        "Ġcoming",
        -9.618261318772984
      ],
      [
        "-term",
        -9.618336415860576
      ],
      [
        "Ġgear",
        -9.619805394080991
      ],
      [
        "Ġreveal",
        -9.620633087784572
      ],
      [
        "Ġestimate",
        -9.621632511878804
      ],
      [
        "Ġpresen",
        -9.62175934462271
      ],
      [
        "Ġhands",
        -9.621924003089012
      ],
      [
        "Ġchain",
        -9.623402833768228
      ],
      [
        "Ġhearing",
        -9.62342657023576
      ],
      [
        "Ġmath",
        -9.6242373686685
      ],
      [
        "Ġsell",
        -9.62676537286961
      ],
      [
        "Do",
        -9.628280831967071
      ],
      [
        "Ġphone",
        -9.628323215525349
      ],
      [
        "Ġhole",
        -9.628591378760518
      ],
      [
        "Ġroad",
        -9.628648189546164
      ],
      [
        "Ġvirus",
        -9.628741321425856
      ],
      [
        "Ġbag",
        -9.629352991993198
      ],
      [
        "Ġproperty",
        -9.63092365747288
      ],
      [
        "Ġjoin",
        -9.631129310060295
      ],
      [
        "Ġvital",
        -9.631235650156816
      ],
      [
        "older",
        -9.63167661094456
      ],
      [
        "Ġmiddle",
        -9.633278452770588
      ],
      [
        "Ġfluid",
        -9.635021715184523
      ],
      [
        "Ġbike",
        -9.636155009204682
      ],
      [
        "of",
        -9.63637028659558
      ],
      [
        "Ġtexture",
        -9.6372118728463
      ],
      [
        "Ġthread",
        -9.637575479309763
      ],
      [
        "Ġexpand",
        -9.639127022611005
      ],
      [
        "lost",
        -9.640127824889127
      ],
      [
        "Ġball",
        -9.640283571120946
      ],
      [
        "Ġhorse",
        -9.640312198056144
      ],
      [
        "Ġadapt",
        -9.640428939465522
      ],
      [
        "Ġcentury",
        -9.64124408645962
      ],
      [
        "Ġled",
        -9.641274191782871
      ],
      [
        "Ġvia",
        -9.643588483864082
      ],
      [
        "Ġconcentration",
        -9.644186809611906
      ],
      [
        "...ĊĊ",
        -9.647137689918884
      ],
      [
        "Ġsustain",
        -9.647418981552647
      ],
      [
        "Ġsub",
        -9.647769266437413
      ],
      [
        "Ġpicture",
        -9.647919015543236
      ],
      [
        "Ġco",
        -9.648801182783648
      ],
      [
        "Ġmotor",
        -9.65007231814063
      ],
      [
        "Ġlaw",
        -9.650222616341264
      ],
      [
        "Ġthus",
        -9.652102973208724
      ],
      [
        "Ġjourney",
        -9.652157034054568
      ],
      [
        "Ġmouth",
        -9.652198759702598
      ],
      [
        "Ġphoto",
        -9.65223773460755
      ],
      [
        "Ġconsistent",
        -9.652346896907275
      ],
      [
        "Ġblock",
        -9.652450826173672
      ],
      [
        "ĠEach",
        -9.65277204540232
      ],
      [
        "ĠOther",
        -9.654958981247738
      ],
      [
        "Some",
        -9.655019852830373
      ],
      [
        "ĠInstitute",
        -9.655263904934165
      ],
      [
        "Ġshift",
        -9.657861945364647
      ],
      [
        "Ġaren",
        -9.658575852783102
      ],
      [
        "yond",
        -9.658858399580632
      ],
      [
        "Ġfight",
        -9.659057205181805
      ],
      [
        "Ġstand",
        -9.661611518629869
      ],
      [
        "Ġmedicine",
        -9.662042934915036
      ],
      [
        "Ġquick",
        -9.662493707259529
      ],
      [
        "Ġhuge",
        -9.662758782181886
      ],
      [
        "Ġtesting",
        -9.662763994457594
      ],
      [
        "Ġnational",
        -9.663257665548944
      ],
      [
        "Ġextremely",
        -9.6632792653479
      ],
      [
        "Ġinteresting",
        -9.663643836937116
      ],
      [
        "Ġstick",
        -9.665920386216593
      ],
      [
        "Ġmatch",
        -9.66644986012042
      ],
      [
        "Ġreported",
        -9.666961223357315
      ],
      [
        "ĠState",
        -9.667030086752064
      ],
      [
        "Step",
        -9.667345533630904
      ],
      [
        "Ġinsight",
        -9.66775032965958
      ],
      [
        "driving",
        -9.667858367518662
      ],
      [
        "-A",
        -9.66803282143681
      ],
      [
        "Ġadvanced",
        -9.668850360574556
      ],
      [
        "Ġdetails",
        -9.669714696737874
      ],
      [
        "anyone",
        -9.67006632730983
      ],
      [
        "Ġmessage",
        -9.670108248038831
      ],
      [
        "Ġfamili",
        -9.670641108169788
      ],
      [
        "ĠNOT",
        -9.670771810681009
      ],
      [
        "Ġoccurs",
        -9.670842338583531
      ],
      [
        "Ġmanufacturer",
        -9.671284434825408
      ],
      [
        "ĠMake",
        -9.671672183116982
      ],
      [
        "Ġcoast",
        -9.673060425669894
      ],
      [
        "Ġcommercial",
        -9.673227418707258
      ],
      [
        "Ġflavor",
        -9.67345211266278
      ],
      [
        "Ġcomfort",
        -9.674547160267087
      ],
      [
        "Ġfeeding",
        -9.67538437028087
      ],
      [
        "inches",
        -9.675474379040327
      ],
      [
        "Ġerror",
        -9.67566438028949
      ],
      [
        "Ġdie",
        -9.67601205942004
      ],
      [
        "Ġhost",
        -9.681329571789496
      ],
      [
        "Ġratio",
        -9.682073521376152
      ],
      [
        "Ġstatement",
        -9.685078656177886
      ],
      [
        "-like",
        -9.686088185235937
      ],
      [
        "Ġadults",
        -9.686256668615496
      ],
      [
        "Ġappearance",
        -9.687033595731563
      ],
      [
        "ĠAccording",
        -9.687491654701994
      ],
      [
        "Ġmulti",
        -9.688561161054844
      ],
      [
        "Ġcap",
        -9.689998663119376
      ],
      [
        "Ġcomfortabl",
        -9.690213800841228
      ],
      [
        "Ġdiscuss",
        -9.690586622980785
      ],
      [
        "Ġabsorb",
        -9.691434989895583
      ],
      [
        "Now",
        -9.691882613921903
      ],
      [
        "Ġaffected",
        -9.6930244418691
      ],
      [
        "haps",
        -9.693698751597168
      ],
      [
        "Ġspeak",
        -9.6946786928813
      ],
      [
        "Ġdepth",
        -9.697032458312052
      ],
      [
        "Ġconnect",
        -9.69800683421207
      ],
      [
        "Ġheight",
        -9.698574067180314
      ],
      [
        "body",
        -9.698831112188824
      ],
      [
        "W",
        -9.700759652554144
      ],
      [
        "Ġletter",
        -9.70109679060333
      ],
      [
        "Ġdistribution",
        -9.701233022322384
      ],
      [
        "Ġdouble",
        -9.701690210719809
      ],
      [
        "Ġdraw",
        -9.702192332458004
      ],
      [
        "Our",
        -9.702554360747683
      ],
      [
        "Ġround",
        -9.70344678979666
      ],
      [
        "Ġdiabetes",
        -9.704545349552388
      ],
      [
        "Ġemergenc",
        -9.70480704552854
      ],
      [
        "head",
        -9.70493555710249
      ],
      [
        "Ġtransition",
        -9.705197155522145
      ],
      [
        "Ġsurrounding",
        -9.705206006521047
      ],
      [
        "Ġopportunit",
        -9.706639027505274
      ],
      [
        "Ġlink",
        -9.707064831394952
      ],
      [
        "Ġanti",
        -9.70752788772628
      ],
      [
        "Ġelectron",
        -9.708398529258318
      ],
      [
        "ĠWater",
        -9.708673398374128
      ],
      [
        "ĠFirst",
        -9.709132116111403
      ],
      [
        "Ġcommand",
        -9.70928420646649
      ],
      [
        "Ġcore",
        -9.709790312467572
      ],
      [
        "Ġalthough",
        -9.71293394160579
      ],
      [
        "Ġcommunit",
        -9.713614375765282
      ],
      [
        "Ġmoistur",
        -9.713818737631351
      ],
      [
        "Ġangle",
        -9.714724147525258
      ],
      [
        "They",
        -9.7148438990665
      ],
      [
        "Ġdriver",
        -9.715125770939396
      ],
      [
        "Ġtherefor",
        -9.716124214581397
      ],
      [
        "Ġbeginning",
        -9.716476863559954
      ],
      [
        "Ġgrain",
        -9.717158490153258
      ],
      [
        "Ġconvert",
        -9.71819926301825
      ],
      [
        "Ġocean",
        -9.719651075694284
      ],
      [
        "Ġstuff",
        -9.71989523657138
      ],
      [
        "Q",
        -9.720424280996632
      ],
      [
        "Ġinternational",
        -9.721071167737218
      ],
      [
        "Ġiron",
        -9.721176888074062
      ],
      [
        "Ġdate",
        -9.722865744797303
      ],
      [
        "Ġimplement",
        -9.723422873690076
      ],
      [
        "Ġsend",
        -9.72365899301924
      ],
      [
        "Ġorganism",
        -9.725035091726582
      ],
      [
        "Ġengage",
        -9.725035708457774
      ],
      [
        "Ġthermal",
        -9.725710649121233
      ],
      [
        "Ġdead",
        -9.728179450218512
      ],
      [
        "Ġcloth",
        -9.72863109982546
      ],
      [
        "Ġgoals",
        -9.730321006767245
      ],
      [
        "Ġattempt",
        -9.730440599861046
      ],
      [
        "ĠLet",
        -9.730522446338744
      ],
      [
        "Here",
        -9.730847318800876
      ],
      [
        "Ġonto",
        -9.731998671339984
      ],
      [
        "Ġcapture",
        -9.732056818901183
      ],
      [
        "Ġplanet",
        -9.734444794247128
      ],
      [
        "About",
        -9.73450794567021
      ],
      [
        "ĠEven",
        -9.73475266130226
      ],
      [
        "Ġtechnologies",
        -9.734982541726676
      ],
      [
        "Ġmedium",
        -9.735134935317385
      ],
      [
        "Ġapproximate",
        -9.73553065940146
      ],
      [
        "ship",
        -9.736709535392771
      ],
      [
        "Ġframe",
        -9.736870830187964
      ],
      [
        "Ġlose",
        -9.7392927078002
      ],
      [
        "Ġbasi",
        -9.739458741642292
      ],
      [
        "Ġspend",
        -9.74037587688236
      ],
      [
        "Ġidentified",
        -9.740730003418475
      ],
      [
        "Ġmarine",
        -9.740751137532392
      ],
      [
        "Ġfavorite",
        -9.740902303616782
      ],
      [
        "Ġpractical",
        -9.742644580823782
      ],
      [
        "Ġchicken",
        -9.743031830103993
      ],
      [
        "Ġraw",
        -9.74362180687044
      ],
      [
        "ĠGerman",
        -9.744569575568065
      ],
      [
        "Ġweb",
        -9.74499607185049
      ],
      [
        "Ġinternal",
        -9.745139277679268
      ],
      [
        "Ġplease",
        -9.74564857092473
      ],
      [
        "Ġmember",
        -9.745928235883486
      ],
      [
        "Ġsaw",
        -9.746940607996294
      ],
      [
        "Ġextract",
        -9.747623928503293
      ],
      [
        "Ġnative",
        -9.748068262239578
      ],
      [
        "ĠTherefor",
        -9.75061924993404
      ],
      [
        "friendly",
        -9.751258978266916
      ],
      [
        "ĠCalifornia",
        -9.751899663069068
      ],
      [
        "z",
        -9.754948042245342
      ],
      [
        "Ġtransport",
        -9.75669815080194
      ],
      [
        "Ġdrawing",
        -9.75745627520463
      ],
      [
        "Ġcars",
        -9.75751007092926
      ],
      [
        "ĠOr",
        -9.758566963420954
      ],
      [
        "Ġalgorithm",
        -9.758571531376806
      ],
      [
        "Ġmagnetic",
        -9.760382618930198
      ],
      [
        "Ġgold",
        -9.762175310165972
      ],
      [
        "#",
        -9.762855943100906
      ],
      [
        "Ġannual",
        -9.76313062939583
      ],
      [
        "Ġmap",
        -9.76350967267468
      ],
      [
        "Ġtransfer",
        -9.763898033395376
      ],
      [
        "Ġfashion",
        -9.764433285687783
      ],
      [
        "Ġfrequency",
        -9.765789773451534
      ],
      [
        "Ġformed",
        -9.766938650226638
      ],
      [
        "ĠHigh",
        -9.770698787353004
      ],
      [
        "Ġfloor",
        -9.770883935747715
      ],
      [
        "expected",
        -9.771918897456697
      ],
      [
        "Ġsquare",
        -9.772930940795618
      ],
      [
        "Ġhit",
        -9.77493294635854
      ],
      [
        "Ġmotion",
        -9.77548740419572
      ],
      [
        "Ġrecipe",
        -9.776652953282458
      ],
      [
        "Ġphase",
        -9.777607658890368
      ],
      [
        "Ġ#",
        -9.778552122502433
      ],
      [
        "Ġflat",
        -9.778710711658375
      ],
      [
        "Ġbackground",
        -9.779970132693546
      ],
      [
        "Ġfly",
        -9.780780598153289
      ],
      [
        "time",
        -9.78087095860916
      ],
      [
        "ĠEnglish",
        -9.781598902185191
      ],
      [
        "Ġhabitat",
        -9.78184003581725
      ],
      [
        "Ġstring",
        -9.782612221782788
      ],
      [
        "Ġharvest",
        -9.782728778535626
      ],
      [
        "Ġrain",
        -9.78334172494214
      ],
      [
        "Ġimprov",
        -9.784945145601544
      ],
      [
        "Ġcheese",
        -9.785287354772278
      ],
      [
        "Ġupdate",
        -9.785956966807827
      ],
      [
        "No",
        -9.786653985366389
      ],
      [
        "Ġalone",
        -9.78685366663496
      ],
      [
        "Ġspecifically",
        -9.78738977322681
      ],
      [
        "ĠUK",
        -9.78743345984748
      ],
      [
        "Ġdifferences",
        -9.789456300989286
      ],
      [
        "ten",
        -9.78988190324539
      ],
      [
        "Ġfinancial",
        -9.790297695046666
      ],
      [
        "Ġprefer",
        -9.791360016948964
      ],
      [
        "Ġinvestment",
        -9.793257981860496
      ],
      [
        "Ġopportunities",
        -9.794479922110812
      ],
      [
        "Ġfacilit",
        -9.794658891297278
      ],
      [
        "Ġbillion",
        -9.794751443360347
      ],
      [
        "spite",
        -9.79555872648312
      ],
      [
        "Ġpreference",
        -9.795905957810312
      ],
      [
        "Ġeducational",
        -9.796833798282211
      ],
      [
        "ritten",
        -9.797006822760853
      ],
      [
        "Ġegg",
        -9.797452181069024
      ],
      [
        "Ġregulation",
        -9.79871125194163
      ],
      [
        "happy",
        -9.799254155027718
      ],
      [
        "Ġnearly",
        -9.799926274810352
      ],
      [
        "fully",
        -9.80235450619389
      ],
      [
        "ĠIndia",
        -9.802447766843386
      ],
      [
        "Ġjournal",
        -9.803226801480443
      ],
      [
        "Ġfunctions",
        -9.80504244929818
      ],
      [
        "Ġancient",
        -9.805573159664124
      ],
      [
        "ial",
        -9.805817828010513
      ],
      [
        "Ġcoffee",
        -9.805880831719229
      ],
      [
        "Ġdynamic",
        -9.807615056995342
      ],
      [
        "Ġadvice",
        -9.808202797977316
      ],
      [
        "Ġlandscape",
        -9.80862163711755
      ],
      [
        "Ġmaximum",
        -9.80926479764182
      ],
      [
        "ĠAfrica",
        -9.812978941985758
      ],
      [
        "Ġboat",
        -9.814131135341796
      ],
      [
        "Ġselection",
        -9.814389433661354
      ],
      [
        "Ġbooks",
        -9.814872745811345
      ],
      [
        "Ġplate",
        -9.816550717564676
      ],
      [
        "Ġdrink",
        -9.81828777738665
      ],
      [
        "Ġpool",
        -9.818391579207882
      ],
      [
        "Ġformation",
        -9.819259150311629
      ],
      [
        "Ġroots",
        -9.819952652248505
      ],
      [
        "Ġatmosphere",
        -9.82103256136448
      ],
      [
        "Ġroutine",
        -9.821100878367234
      ],
      [
        "if",
        -9.821296220346754
      ],
      [
        "Ġtube",
        -9.821839753994984
      ],
      [
        "Answer",
        -9.821886582165554
      ],
      [
        "Ġdirt",
        -9.822906156859936
      ],
      [
        "Ġlisten",
        -9.823345372015908
      ],
      [
        "Ġexpress",
        -9.823816264238378
      ],
      [
        "Ġprivate",
        -9.824258036952552
      ],
      [
        "Ġbodie",
        -9.82511036593462
      ],
      [
        "Ġsecure",
        -9.825599345492972
      ],
      [
        "Ġemploy",
        -9.826133934522243
      ],
      [
        "ĠSince",
        -9.82648807696323
      ],
      [
        "Ġprogress",
        -9.8273878514222
      ],
      [
        "Ġsounds",
        -9.827778941248589
      ],
      [
        "After",
        -9.82828146783872
      ],
      [
        "Ġdemonstrate",
        -9.828704646465049
      ],
      [
        "Ġbegan",
        -9.829072798544797
      ],
      [
        "Ġmelt",
        -9.831729044570892
      ],
      [
        "ĠGreat",
        -9.83173314983242
      ],
      [
        "Ġmiles",
        -9.83176577640838
      ],
      [
        "defined",
        -9.832968871422374
      ],
      [
        "ĠOnc",
        -9.833675514549691
      ],
      [
        "Ġcompost",
        -9.833743868482811
      ],
      [
        "over",
        -9.835681231301075
      ],
      [
        "Ġopening",
        -9.836812179443092
      ],
      [
        "Ġfarmer",
        -9.83840507477412
      ],
      [
        "for",
        -9.838675395396422
      ],
      [
        "That",
        -9.84017434077252
      ],
      [
        "Ġsupplement",
        -9.840255220360085
      ],
      [
        "Ġdental",
        -9.84035078873718
      ],
      [
        "Ġcomment",
        -9.840633759113594
      ],
      [
        "Ġsites",
        -9.843628689128904
      ],
      [
        "Ġobvious",
        -9.845205653496432
      ],
      [
        "ĠJust",
        -9.845384935963676
      ],
      [
        "Ġoutcome",
        -9.846272248517888
      ],
      [
        "Ġowners",
        -9.846483923849624
      ],
      [
        "Ġsmell",
        -9.848003311589686
      ],
      [
        "Ġpainting",
        -9.848288072346143
      ],
      [
        "Ġhighest",
        -9.849696672241176
      ],
      [
        "Ġdiverse",
        -9.849941193319353
      ],
      [
        "Ġsheet",
        -9.850046450348929
      ],
      [
        "ible",
        -9.851033538859488
      ],
      [
        "Ġfriend",
        -9.85272604008054
      ],
      [
        "quality",
        -9.85339108445653
      ],
      [
        "Ġtechnical",
        -9.8535708074189
      ],
      [
        "Ġcard",
        -9.855536900058985
      ],
      [
        "Ġtiny",
        -9.857022950187355
      ],
      [
        "Ġconsume",
        -9.85805514178846
      ],
      [
        "ĠEurope",
        -9.858173655283403
      ],
      [
        "Ġprepare",
        -9.8598440201187
      ],
      [
        "Ġchannel",
        -9.859970548423696
      ],
      [
        "Ġexperiences",
        -9.865700209614722
      ],
      [
        "Ġfailure",
        -9.866111959075509
      ],
      [
        "Ġresource",
        -9.866114322934989
      ],
      [
        "Ġintelligence",
        -9.8661779037313
      ],
      [
        "visible",
        -9.868329658470955
      ],
      [
        "Ġbright",
        -9.868583689610038
      ],
      [
        "Ġartificial",
        -9.869693315347018
      ],
      [
        "Ġsnow",
        -9.869755747481737
      ],
      [
        "Ġprepared",
        -9.870679173416423
      ],
      [
        "Ġpotentially",
        -9.87073458703028
      ],
      [
        "Ġwash",
        -9.870860625514071
      ],
      [
        "wide",
        -9.872182998306908
      ],
      [
        "Ġdrug",
        -9.872279209572223
      ],
      [
        "ers",
        -9.872314368403844
      ],
      [
        "ĠDepartment",
        -9.873146787002664
      ],
      [
        "Ġwindow",
        -9.873487317754249
      ],
      [
        "Ġstrain",
        -9.873521695483914
      ],
      [
        "Ġsteel",
        -9.874807106873462
      ],
      [
        "Ġdoor",
        -9.875056863573263
      ],
      [
        "up",
        -9.875132020205776
      ],
      [
        "Ġmid",
        -9.875252721144816
      ],
      [
        "Ġrobot",
        -9.876154249413538
      ],
      [
        "Ġdrop",
        -9.876372876280794
      ],
      [
        "Ġindustrial",
        -9.876595633709885
      ],
      [
        "Ġtrigger",
        -9.877220961233975
      ],
      [
        "Ġsweet",
        -9.877631194037036
      ],
      [
        "X",
        -9.877902218723182
      ],
      [
        "Ġoffice",
        -9.878889829504814
      ],
      [
        "Ġnumerous",
        -9.878976013946875
      ],
      [
        "Ġearlier",
        -9.879403465532016
      ],
      [
        "Ġlens",
        -9.881237064790453
      ],
      [
        "Ġassess",
        -9.881590532084768
      ],
      [
        "Ġhelpful",
        -9.881662826692573
      ],
      [
        "Ġindependent",
        -9.881709052811871
      ],
      [
        "Ġstaff",
        -9.883577296907635
      ],
      [
        "Ġhour",
        -9.883752449189748
      ],
      [
        "Ġbroad",
        -9.884020061811492
      ],
      [
        "Ġconservation",
        -9.88412473247692
      ],
      [
        "Ġmembrane",
        -9.88424506097701
      ],
      [
        "Ġfiber",
        -9.885737766217762
      ],
      [
        "classes",
        -9.88591227823196
      ],
      [
        "ĠWell",
        -9.887660978408237
      ],
      [
        "ĠDur",
        -9.887963506263503
      ],
      [
        "ĠEvery",
        -9.888058811942624
      ],
      [
        "Ġcentral",
        -9.888076977706415
      ],
      [
        "Ġestablished",
        -9.888676723696296
      ],
      [
        "Ġgrown",
        -9.889139723080266
      ],
      [
        "ian",
        -9.890721075534016
      ],
      [
        "Ġclick",
        -9.890783264816587
      ],
      [
        "Y",
        -9.891984859258397
      ],
      [
        "Ġtold",
        -9.893812960447622
      ],
      [
        "Ġengineering",
        -9.89423927193562
      ],
      [
        "Ġexamples",
        -9.895746957198408
      ],
      [
        "Ġmechanical",
        -9.895974990052132
      ],
      [
        "Ġsession",
        -9.896528513067333
      ],
      [
        "Ġthin",
        -9.897482920002478
      ],
      [
        "Ġsurvey",
        -9.897527139949888
      ],
      [
        "ĠEuropean",
        -9.898388930614228
      ],
      [
        "Ġcultural",
        -9.898738618145543
      ],
      [
        "Ġremov",
        -9.89966327794498
      ],
      [
        "ĠWar",
        -9.900935667688184
      ],
      [
        "Ġscene",
        -9.902085506528149
      ],
      [
        "Ġthick",
        -9.902935560709675
      ],
      [
        "Ġreliabl",
        -9.90306951941966
      ],
      [
        "ĠAustralia",
        -9.903975672745016
      ],
      [
        "Yes",
        -9.904001662714844
      ],
      [
        "ĠChina",
        -9.904142479085994
      ],
      [
        "Ġaliv",
        -9.904440952200346
      ],
      [
        "Ġeventual",
        -9.906670743203208
      ],
      [
        "Ġmaster",
        -9.906793829315466
      ],
      [
        "Ġoccurr",
        -9.906961731806
      ],
      [
        "Ġfollowed",
        -9.907795771467836
      ],
      [
        "Ġgreenhouse",
        -9.907898307663595
      ],
      [
        "Ġteach",
        -9.908148992622476
      ],
      [
        "Ġtrial",
        -9.908576419931869
      ],
      [
        "Ġpollution",
        -9.908825070238407
      ],
      [
        "Ġrespond",
        -9.909041814507294
      ],
      [
        "Ġincreases",
        -9.909217077489082
      ],
      [
        "Ġyield",
        -9.909831262067565
      ],
      [
        "Ġcontinuous",
        -9.91034651033232
      ],
      [
        "ber",
        -9.910855525468136
      ],
      [
        "Ġassist",
        -9.911957555442022
      ],
      [
        "Ġcreative",
        -9.912040414697966
      ],
      [
        "Ġmother",
        -9.912312761634524
      ],
      [
        "Ġblog",
        -9.91232670449508
      ],
      [
        "Ġmuscles",
        -9.912791654062255
      ],
      [
        "Ġbirth",
        -9.912792096868682
      ],
      [
        "Ġskill",
        -9.913653333811862
      ],
      [
        "Ġnamed",
        -9.9155584086244
      ],
      [
        "Ġatom",
        -9.916218199265924
      ],
      [
        "fish",
        -9.916509064683922
      ],
      [
        "Ġagree",
        -9.916667351016788
      ],
      [
        "Ġcontrast",
        -9.91767617618058
      ],
      [
        "Ġdecisions",
        -9.918026820412448
      ],
      [
        "Ġriver",
        -9.918516444130963
      ],
      [
        "-year",
        -9.918792055765447
      ],
      [
        "Ġupper",
        -9.92056469698595
      ],
      [
        "Ġpredict",
        -9.921052702534794
      ],
      [
        "Ġheld",
        -9.921753368242536
      ],
      [
        "Ġspray",
        -9.922321028797777
      ],
      [
        "Ġvariation",
        -9.923883188508608
      ],
      [
        "Ġpest",
        -9.924017549328536
      ],
      [
        "ar",
        -9.924129710145138
      ],
      [
        "Ġroll",
        -9.924751904168764
      ],
      [
        "Ġattract",
        -9.924786045242902
      ],
      [
        "Ġindoor",
        -9.924866410532209
      ],
      [
        "ĠDay",
        -9.924954554267805
      ],
      [
        "Ġoperate",
        -9.925481356739876
      ],
      [
        "Ġformat",
        -9.925999882360257
      ],
      [
        "Ġevolution",
        -9.92688256443245
      ],
      [
        "Ġstraight",
        -9.929050782965188
      ],
      [
        "society",
        -9.9294304334507
      ],
      [
        "ĠOver",
        -9.929734579163592
      ],
      [
        "Ġmanufacturing",
        -9.932385749597367
      ],
      [
        "Ġcomprehensive",
        -9.932467488316174
      ],
      [
        "Ġextreme",
        -9.932601645537147
      ],
      [
        "Ġfan",
        -9.93332276586598
      ],
      [
        "}",
        -9.934547517471769
      ],
      [
        "Ġaware",
        -9.934618030835306
      ],
      [
        "Ġhighlight",
        -9.935376435856348
      ],
      [
        "Ġrelevan",
        -9.93587052650892
      ],
      [
        "Ġharmful",
        -9.936042168057416
      ],
      [
        "Ġeconom",
        -9.936330343096934
      ],
      [
        "Ġformula",
        -9.936345980508817
      ],
      [
        "Ġbrush",
        -9.937358855058932
      ],
      [
        "Ġleak",
        -9.938311426087465
      ],
      [
        "Ġaircraft",
        -9.93833755785504
      ],
      [
        "Ġemotional",
        -9.938898309775226
      ],
      [
        "Ġsit",
        -9.93973629588411
      ],
      [
        "Ġinnovation",
        -9.94141072052141
      ],
      [
        "Ġwar",
        -9.943118382633756
      ],
      [
        "Ġstain",
        -9.943527473113644
      ],
      [
        "Ġsurgery",
        -9.943643301659908
      ],
      [
        "Ġoffering",
        -9.943719640288442
      ],
      [
        "Ġseat",
        -9.944833921792052
      ],
      [
        "wise",
        -9.94518564806158
      ],
      [
        "Ġgrass",
        -9.945304372258208
      ],
      [
        "Ġdetailed",
        -9.946475312898574
      ],
      [
        "Ġdangerous",
        -9.946589836875
      ],
      [
        "Another",
        -9.94720638875315
      ],
      [
        "Ġcream",
        -9.947948807482405
      ],
      [
        "ĠAir",
        -9.95170892561706
      ],
      [
        "Ġprecise",
        -9.952035596136456
      ],
      [
        "Ġcable",
        -9.95208920096507
      ],
      [
        "Ġdust",
        -9.9533813319652
      ],
      [
        "Ġaccept",
        -9.956229527658806
      ],
      [
        "Are",
        -9.956293548523616
      ],
      [
        "Ġsaving",
        -9.95648595877212
      ],
      [
        "Ġdrugs",
        -9.957540728764162
      ],
      [
        "Ġprimari",
        -9.95909004661533
      ],
      [
        "Ġopinion",
        -9.959238153389462
      ],
      [
        "Ġbond",
        -9.960445689550776
      ],
      [
        "which",
        -9.960972473422052
      ],
      [
        "coming",
        -9.96127514891225
      ],
      [
        "Ġdefinition",
        -9.961362926187244
      ],
      [
        "Ġwalls",
        -9.961450336355435
      ],
      [
        "Ġsurvive",
        -9.961516932955456
      ],
      [
        "All",
        -9.961678367394397
      ],
      [
        "Ġexternal",
        -9.961778533027816
      ],
      [
        "Ġoptimal",
        -9.9618781786797
      ],
      [
        "ĠDon",
        -9.961907822352083
      ],
      [
        "Ġrespect",
        -9.962042455676926
      ],
      [
        "ĠClass",
        -9.962559820694093
      ],
      [
        "Ġsaying",
        -9.96256531201674
      ],
      [
        "Ġultimate",
        -9.963016200931929
      ],
      [
        "Ġshell",
        -9.96408810260057
      ],
      [
        "Ġschedule",
        -9.965145505930176
      ],
      [
        "ĠSea",
        -9.96599812297262
      ],
      [
        "ĠSept",
        -9.9662375442677
      ],
      [
        "Ġthreat",
        -9.966238046564724
      ],
      [
        "Ġsmart",
        -9.966396864228775
      ],
      [
        "Ġnation",
        -9.967970688278388
      ],
      [
        "-free",
        -9.968121615671716
      ],
      [
        "Ġconclusion",
        -9.968316962153107
      ],
      [
        "Ġcheap",
        -9.968605409435495
      ],
      [
        "Ġvirtual",
        -9.969102550907088
      ],
      [
        "Ġapp",
        -9.96911769634767
      ],
      [
        "Ġnaturally",
        -9.969677431495931
      ],
      [
        "Ġoutdoor",
        -9.969761614136717
      ],
      [
        "Ġsector",
        -9.969808475868128
      ],
      [
        "Ġlarges",
        -9.969914678831774
      ],
      [
        "-in",
        -9.971206875873722
      ],
      [
        "ĠFood",
        -9.971626196529286
      ],
      [
        "TCG",
        -9.97165923605904
      ],
      [
        "ities",
        -9.97167857144246
      ],
      [
        "Ġhistorical",
        -9.971686759498926
      ],
      [
        "Ġclinical",
        -9.971761311260618
      ],
      [
        "tic",
        -9.97226241298652
      ],
      [
        "Ġstories",
        -9.97292360572516
      ],
      [
        "Ġpossibilit",
        -9.973514456435815
      ],
      [
        "discovered",
        -9.973972392424276
      ],
      [
        "ĠStudent",
        -9.975463959758276
      ],
      [
        "Ġspeaker",
        -9.975652932205104
      ],
      [
        "Ġdiscussion",
        -9.976102104342656
      ],
      [
        "Ġoperat",
        -9.978800512956187
      ],
      [
        "ĠKeep",
        -9.979089713539915
      ],
      [
        "Ġkitchen",
        -9.97916274817744
      ],
      [
        "Ġfundamental",
        -9.979215790903716
      ],
      [
        "Ġwhose",
        -9.980598881827795
      ],
      [
        "Ġexposed",
        -9.98187818755996
      ],
      [
        "Ġexamine",
        -9.982170937084971
      ],
      [
        "ĠDoes",
        -9.982386452924178
      ],
      [
        "Ġbathroom",
        -9.982581652751367
      ],
      [
        "Ġextensive",
        -9.982998646558697
      ],
      [
        "Ġprogramm",
        -9.983678655236712
      ],
      [
        "Ġorange",
        -9.98380075670368
      ],
      [
        "Ġdefine",
        -9.984770417403196
      ],
      [
        "Conclusion",
        -9.986283508053395
      ],
      [
        "ĠDesign",
        -9.98664586420746
      ],
      [
        "Ġreality",
        -9.987107463470826
      ],
      [
        "Ġsubstance",
        -9.98711890366396
      ],
      [
        "ĠWest",
        -9.987851134934957
      ],
      [
        "Ġcup",
        -9.987914858738105
      ],
      [
        "Ġcrack",
        -9.98802509954119
      ],
      [
        "Ġautomatic",
        -9.989565666719823
      ],
      [
        "Ġchoos",
        -9.98979239740252
      ],
      [
        "Ġrealize",
        -9.9902208291649
      ],
      [
        "Ġincredibl",
        -9.990241395065972
      ],
      [
        "Ġmorning",
        -9.991011449287605
      ],
      [
        "Ġsymbol",
        -9.991297030042055
      ],
      [
        "Ġbeneficial",
        -9.99207291821514
      ],
      [
        "Ġnice",
        -9.99262471158982
      ],
      [
        "Ġthousands",
        -9.992693152960722
      ],
      [
        "Ġmeeting",
        -9.992769758529116
      ],
      [
        "Ġrice",
        -9.99377795076106
      ],
      [
        "Ġbottle",
        -9.994214059983715
      ],
      [
        "Ġcomposition",
        -9.994430392001272
      ],
      [
        "Ġdetermin",
        -9.99465102198828
      ],
      [
        "ĠYork",
        -9.995926683308172
      ],
      [
        "Ġstock",
        -9.995966737451148
      ],
      [
        "Ġvs",
        -9.996589111905212
      ],
      [
        "Ġprocedure",
        -9.99712083429662
      ],
      [
        "Ġcreation",
        -9.9972361063751
      ],
      [
        "Ġcontroll",
        -9.999225661856826
      ],
      [
        "Ġinteract",
        -10.000024367235554
      ],
      [
        "Ġrace",
        -10.000105564744594
      ],
      [
        "thing",
        -10.0016693351813
      ],
      [
        "Ġlegal",
        -10.001802268520922
      ],
      [
        "Ġinjury",
        -10.003143552042406
      ],
      [
        "Ġreactions",
        -10.003372423119846
      ],
      [
        "Ġmeal",
        -10.003997008705143
      ],
      [
        "Ġtru",
        -10.004663489731035
      ],
      [
        "Ġrisks",
        -10.004841965910762
      ],
      [
        "Ġtransform",
        -10.005171661152067
      ],
      [
        "Ġbear",
        -10.005325384159768
      ],
      [
        "Ġmixture",
        -10.007135675217684
      ],
      [
        "Ġargument",
        -10.007965162561575
      ],
      [
        "Ġbank",
        -10.010636457039276
      ],
      [
        "Ġplent",
        -10.010721623951031
      ],
      [
        "Ġradiation",
        -10.011599317736865
      ],
      [
        "Ġstandards",
        -10.01160072072
      ],
      [
        "Ġsolve",
        -10.01189506030276
      ],
      [
        "ĠFrench",
        -10.012545768320836
      ],
      [
        "Most",
        -10.013159307276894
      ],
      [
        "ĠRiver",
        -10.013382490431312
      ],
      [
        "ĠBlack",
        -10.013482773278106
      ],
      [
        "Ġengineer",
        -10.013890499168314
      ],
      [
        "Ġanxiet",
        -10.01459566673099
      ],
      [
        "cells",
        -10.014762907309844
      ],
      [
        "Ġtrain",
        -10.014996471376346
      ],
      [
        "Ġpound",
        -10.0150720752635
      ],
      [
        "all",
        -10.016458205571922
      ],
      [
        "Ġslight",
        -10.01700647062718
      ],
      [
        "Ġlabel",
        -10.017040678332128
      ],
      [
        "Ġenzyme",
        -10.017149246410243
      ],
      [
        "Ġboost",
        -10.017655435028525
      ],
      [
        "Ġseven",
        -10.018016759121448
      ],
      [
        "Ġtests",
        -10.018395715004086
      ],
      [
        "Thus",
        -10.0205975321632
      ],
      [
        "Ġtrust",
        -10.021924027042951
      ],
      [
        "Ġguy",
        -10.023760374367164
      ],
      [
        "kept",
        -10.024080889048236
      ],
      [
        "Ġfoundation",
        -10.024499671728805
      ],
      [
        "latest",
        -10.025472551001428
      ],
      [
        "ĠEducation",
        -10.025923337819808
      ],
      [
        "Ġproducing",
        -10.026230895602756
      ],
      [
        "Ġbudget",
        -10.026264628479044
      ],
      [
        "Ġexhibit",
        -10.026729245314272
      ],
      [
        "ring",
        -10.026736045350384
      ],
      [
        "ĠMarch",
        -10.027499850640329
      ],
      [
        "Ġheal",
        -10.027844308922678
      ],
      [
        "Ġvertical",
        -10.028100093380534
      ],
      [
        "ĠService",
        -10.02810581154284
      ],
      [
        "Ġlab",
        -10.02964851196548
      ],
      [
        "Ġcomput",
        -10.030181870450727
      ],
      [
        "/or",
        -10.030824989497518
      ],
      [
        "Ġdensity",
        -10.030844395503198
      ],
      [
        "Ġemail",
        -10.03121429420878
      ],
      [
        "Ġreduction",
        -10.031214863056212
      ],
      [
        "Ġvoice",
        -10.032965851776456
      ],
      [
        "Ġmeter",
        -10.033438321542391
      ],
      [
        "Ġbutton",
        -10.033811031542417
      ],
      [
        "Ġpets",
        -10.034675767591423
      ],
      [
        "Ġcatch",
        -10.035131514171608
      ],
      [
        "Ġaccident",
        -10.035404725842858
      ],
      [
        "Ġdivide",
        -10.036510201730705
      ],
      [
        "Ġsituations",
        -10.037177199231843
      ],
      [
        "Ġthorough",
        -10.039892664350166
      ],
      [
        "Ġinvest",
        -10.039983826345338
      ],
      [
        "%)",
        -10.041934646223506
      ],
      [
        "ĠJune",
        -10.041942690479724
      ],
      [
        "Ġpress",
        -10.042073450543535
      ],
      [
        "Ġpanels",
        -10.043218377491147
      ],
      [
        "Ġbreast",
        -10.04378618203078
      ],
      [
        "side",
        -10.043799718805689
      ],
      [
        "Ġcarefully",
        -10.044567440392086
      ],
      [
        "Ġrough",
        -10.04638344977047
      ],
      [
        "Ġresident",
        -10.048067363696678
      ],
      [
        "water",
        -10.048110205144658
      ],
      [
        "Finally",
        -10.048281795564304
      ],
      [
        "ĠSan",
        -10.0485977061897
      ],
      [
        "Ġisland",
        -10.049057594634789
      ],
      [
        "Ġmission",
        -10.050323507985809
      ],
      [
        "ĠInternational",
        -10.05089944374987
      ],
      [
        "Ġcreature",
        -10.051741604283734
      ],
      [
        "Ġcapabilit",
        -10.052439456588804
      ],
      [
        "Ġblend",
        -10.052780588978823
      ],
      [
        "Ġimprovement",
        -10.053233875672802
      ],
      [
        "Ġcalculate",
        -10.053239853714375
      ],
      [
        "Ġlay",
        -10.053274054759818
      ],
      [
        "Ġharm",
        -10.053380670407527
      ],
      [
        "Ġinterface",
        -10.053633057479807
      ],
      [
        "Ġlifestyle",
        -10.05367744026389
      ],
      [
        "referred",
        -10.054078109763324
      ],
      [
        "Ġfertilizer",
        -10.055296862533222
      ],
      [
        "Ġintake",
        -10.055539349804391
      ],
      [
        "Ġassessment",
        -10.055625384493084
      ],
      [
        "Ġobjective",
        -10.055985626064947
      ],
      [
        "Ġmention",
        -10.05607565590448
      ],
      [
        "My",
        -10.056598692035177
      ],
      [
        "Ġbiological",
        -10.056676212627984
      ],
      [
        "Ġbutter",
        -10.057017623418382
      ],
      [
        "Ġaudio",
        -10.057369270729968
      ],
      [
        "Ġborn",
        -10.057376468789458
      ],
      [
        "Ġpowder",
        -10.05749341620666
      ],
      [
        "Ġdetail",
        -10.05805543731154
      ],
      [
        "Ġdecades",
        -10.05805808537414
      ],
      [
        "dium",
        -10.058218294483003
      ],
      [
        "Ġminimum",
        -10.058284597628948
      ],
      [
        "Ġcollege",
        -10.058629386546752
      ],
      [
        "Ġfossil",
        -10.059245758430755
      ],
      [
        "ility",
        -10.0593228365821
      ],
      [
        "Ġinfections",
        -10.059464148910315
      ],
      [
        "Ġobservation",
        -10.060045365670357
      ],
      [
        "Ġpot",
        -10.061048456674852
      ],
      [
        "Ġbak",
        -10.061331847565633
      ],
      [
        "Ġdrain",
        -10.061630335118082
      ],
      [
        "Ġhospital",
        -10.062236827090729
      ],
      [
        "Ġcalci",
        -10.062241225288368
      ],
      [
        "Ġmill",
        -10.063164279106648
      ],
      [
        "Ġprove",
        -10.0637119110034
      ],
      [
        "Ġsupplie",
        -10.064786445365318
      ],
      [
        "ĠDe",
        -10.064806635346963
      ],
      [
        "Ġclimb",
        -10.065976578627165
      ],
      [
        "Ġfirm",
        -10.066154372914006
      ],
      [
        "Ġcredit",
        -10.066723483773549
      ],
      [
        "Ġstatus",
        -10.066929686277623
      ],
      [
        "Ġinstallation",
        -10.068167629111516
      ],
      [
        "ĠSt",
        -10.068334967407347
      ],
      [
        "Ġgenerator",
        -10.068592397263632
      ],
      [
        "Ġpolicy",
        -10.069228140819288
      ],
      [
        "Ġstroke",
        -10.069658836976728
      ],
      [
        "Ġofficial",
        -10.070774346177952
      ],
      [
        "ĠPark",
        -10.071663313812692
      ],
      [
        "Ġclassroom",
        -10.071691734182377
      ],
      [
        "Ġchapter",
        -10.07244039453557
      ],
      [
        "Your",
        -10.073350162221216
      ],
      [
        "Ġfear",
        -10.073488813834665
      ],
      [
        "Use",
        -10.07409348718344
      ],
      [
        "Ġsuit",
        -10.07426449708584
      ],
      [
        "Ġraise",
        -10.075109430230002
      ],
      [
        "Ġplanting",
        -10.075518829189114
      ],
      [
        "Ġhousehold",
        -10.076228854799504
      ],
      [
        "Ġaudience",
        -10.076408488791603
      ],
      [
        "ĠCanada",
        -10.07738311054597
      ],
      [
        "Ġchallenging",
        -10.077916986608308
      ],
      [
        "Ġstable",
        -10.078984469764452
      ],
      [
        "ĠPlant",
        -10.079885491045072
      ],
      [
        "ĠDog",
        -10.080067425190258
      ],
      [
        "Ġdiversity",
        -10.080367033833202
      ],
      [
        "ĠBoth",
        -10.08054106835158
      ],
      [
        "Ġadvance",
        -10.080644976406225
      ],
      [
        "Ġ<",
        -10.08086222333004
      ],
      [
        "According",
        -10.081004276413047
      ],
      [
        "Ġsensitive",
        -10.081465519767448
      ],
      [
        "Ġhelping",
        -10.081517914724609
      ],
      [
        "Ġmeasured",
        -10.082146038352128
      ],
      [
        "Ġessay",
        -10.082305989706995
      ],
      [
        "Ġtransmission",
        -10.082514483886795
      ],
      [
        "Ġprey",
        -10.08262954652852
      ],
      [
        "Ġdecide",
        -10.084385569266086
      ],
      [
        "Ġacademic",
        -10.084408063698008
      ],
      [
        "Ġorigin",
        -10.086482446022467
      ],
      [
        "ĠIsland",
        -10.086610843745277
      ],
      [
        "Onc",
        -10.08713451004148
      ],
      [
        "Ġpropose",
        -10.087395241253986
      ],
      [
        "Ġevaluate",
        -10.089058825964322
      ],
      [
        "Ġradio",
        -10.089255039311222
      ],
      [
        "Ġfixed",
        -10.08997607142635
      ],
      [
        "Ġinternet",
        -10.09021018216165
      ],
      [
        "that",
        -10.091265501727271
      ],
      [
        "Ġadopt",
        -10.092207538639272
      ],
      [
        "Ġassume",
        -10.09309502564271
      ],
      [
        "Ġleaf",
        -10.093685316494597
      ],
      [
        "Ġcompetition",
        -10.09459996869514
      ],
      [
        "ĠGod",
        -10.095557555590611
      ],
      [
        "Ġshared",
        -10.09585150300004
      ],
      [
        "ĠProgram",
        -10.096104276125152
      ],
      [
        "Ġpuppy",
        -10.096733153888248
      ],
      [
        "Ġwasn",
        -10.097192362259456
      ],
      [
        "ĠJuly",
        -10.09811008438897
      ],
      [
        "at",
        -10.0982824532083
      ],
      [
        "Ġlinked",
        -10.098684047438496
      ],
      [
        "Ġpark",
        -10.099040907356445
      ],
      [
        "Ġtrade",
        -10.099631004885266
      ],
      [
        "-time",
        -10.099732895837114
      ],
      [
        "Ġutilize",
        -10.100319185525857
      ],
      [
        "Ġgrade",
        -10.100605223001512
      ],
      [
        "Ġremote",
        -10.100827443515527
      ],
      [
        "Ġlaser",
        -10.101395849290428
      ],
      [
        "ĠSystem",
        -10.101412713508758
      ],
      [
        "Ġenvironments",
        -10.101979619256388
      ],
      [
        "what",
        -10.102645955825732
      ],
      [
        "Ġwound",
        -10.10390224415703
      ],
      [
        "uary",
        -10.105875630420384
      ],
      [
        "Ġconsideration",
        -10.105973125680023
      ],
      [
        "Ġapart",
        -10.106723601680322
      ],
      [
        "ĠHave",
        -10.106981244374452
      ],
      [
        "ful",
        -10.107499886295924
      ],
      [
        "Ġattend",
        -10.107902407348591
      ],
      [
        "Ġamazing",
        -10.108920908566445
      ],
      [
        "ĠAdd",
        -10.110522923546451
      ],
      [
        "Ġinstrument",
        -10.110527454974848
      ],
      [
        "Ġbrough",
        -10.11152784465876
      ],
      [
        "Ġtail",
        -10.11190429753745
      ],
      [
        "Ġcoal",
        -10.112141366294104
      ],
      [
        "Ġmeasurement",
        -10.112472055098149
      ],
      [
        "Ġconsequence",
        -10.11280915599629
      ],
      [
        "Ġconstruct",
        -10.11295959446386
      ],
      [
        "Ġevolve",
        -10.113133461497542
      ],
      [
        "ĠJohn",
        -10.114091454589
      ],
      [
        "Ġlibrary",
        -10.114299967032618
      ],
      [
        "Ġmode",
        -10.11477653230464
      ],
      [
        "Ġinflammation",
        -10.115513177793677
      ],
      [
        "Ġleaving",
        -10.115513887420512
      ],
      [
        "Ġconfirm",
        -10.115942728093868
      ],
      [
        "ĠFurther",
        -10.116399739479968
      ],
      [
        "Ġtitle",
        -10.11657719546383
      ],
      [
        "Ġkidney",
        -10.117723157344908
      ],
      [
        "Ġnerve",
        -10.117995520770352
      ],
      [
        "Ġawareness",
        -10.118007257671389
      ],
      [
        "Ġconcrete",
        -10.118198398286982
      ],
      [
        "Ġherb",
        -10.119065018293565
      ],
      [
        "Ġlift",
        -10.11948976858614
      ],
      [
        "Ġtight",
        -10.12108427910376
      ],
      [
        "Ġuniverse",
        -10.121290749806352
      ],
      [
        "Ġmold",
        -10.125169360925728
      ],
      [
        "Ġquantum",
        -10.127261838664737
      ],
      [
        "Ġchronic",
        -10.127417297795647
      ],
      [
        "Ġwheel",
        -10.127601342333689
      ],
      [
        "see",
        -10.127628733224252
      ],
      [
        "Ġanalyze",
        -10.127714004017806
      ],
      [
        "ĠGoogle",
        -10.127759992285304
      ],
      [
        "].",
        -10.127800126637135
      ],
      [
        "Ġtoilet",
        -10.128451658821174
      ],
      [
        "Ġestablish",
        -10.1284848411836
      ],
      [
        "More",
        -10.128502892155916
      ],
      [
        "Ġsurfaces",
        -10.128567574687333
      ],
      [
        "acific",
        -10.12891748261995
      ],
      [
        "Ġdi",
        -10.129219407130831
      ],
      [
        "Ġseek",
        -10.129814919080044
      ],
      [
        "Ġbulb",
        -10.13029578978329
      ],
      [
        "ĠBlue",
        -10.131969285334764
      ],
      [
        "ĠII",
        -10.132362563615295
      ],
      [
        "Ġhormone",
        -10.132654429178562
      ],
      [
        "itis",
        -10.132884454090007
      ],
      [
        "Ġrecovery",
        -10.133158168889576
      ],
      [
        "Ġgets",
        -10.133685353064044
      ],
      [
        "Ġuniversit",
        -10.134453082891548
      ],
      [
        "Ġbeauty",
        -10.134579244886131
      ],
      [
        "Ġbarrier",
        -10.134626633501323
      ],
      [
        "Ġshade",
        -10.134965522788626
      ],
      [
        "Ġguideline",
        -10.135809302306448
      ],
      [
        "Ġemployee",
        -10.136290412362015
      ],
      [
        "ĠLake",
        -10.136346859824116
      ],
      [
        "Ġmobile",
        -10.136962549706087
      ],
      [
        "Ġphysic",
        -10.137489730003114
      ],
      [
        "Ġcommitment",
        -10.138451695783926
      ],
      [
        "ĠTechnology",
        -10.138993455637678
      ],
      [
        "Ġhomes",
        -10.139216710770208
      ],
      [
        "Ġdish",
        -10.139496350046493
      ],
      [
        "Ġsediment",
        -10.13959589407753
      ],
      [
        "Ġminimize",
        -10.140256164493175
      ],
      [
        "U",
        -10.140632339028247
      ],
      [
        "Ġshoes",
        -10.140986481076698
      ],
      [
        "Ġrapidly",
        -10.141693191803494
      ],
      [
        "Ġlake",
        -10.143750269423466
      ],
      [
        "Ġcorn",
        -10.143775233062543
      ],
      [
        "ĠLED",
        -10.145244892635809
      ],
      [
        "covered",
        -10.145268769835235
      ],
      [
        "Ġflea",
        -10.145358409900329
      ],
      [
        "Ġparticipants",
        -10.14659557581444
      ],
      [
        "Ġdur",
        -10.14704531577206
      ],
      [
        "Ġcommunicate",
        -10.14783964315984
      ],
      [
        "Ġsufficient",
        -10.147891853151364
      ],
      [
        "Ġexcess",
        -10.149333722476555
      ],
      [
        "Ġquantit",
        -10.1495470564091
      ],
      [
        "Ġzero",
        -10.14990867411758
      ],
      [
        "Ġsuffer",
        -10.15005172441012
      ],
      [
        "Ġmanual",
        -10.150100084472824
      ],
      [
        "Ġbill",
        -10.150254774858322
      ],
      [
        "Ġpercentage",
        -10.150655402453868
      ],
      [
        "Ġnutrition",
        -10.151624124306592
      ],
      [
        "Ġputt",
        -10.15205794558277
      ],
      [
        "ĠWhere",
        -10.153204710340528
      ],
      [
        "Ġworm",
        -10.153843285817029
      ],
      [
        "Ġcustom",
        -10.15456202856577
      ],
      [
        "Ġsouth",
        -10.155047321716776
      ],
      [
        "Ġexplor",
        -10.155197220387922
      ],
      [
        "Ġinner",
        -10.155430926682287
      ],
      [
        "Ġcloser",
        -10.15586590804816
      ],
      [
        "-being",
        -10.156131693250746
      ],
      [
        "Ġdefinite",
        -10.156510992044089
      ],
      [
        "Ġclosed",
        -10.156517355621528
      ],
      [
        "Ġdescription",
        -10.157061160601144
      ],
      [
        "Ġallerg",
        -10.15710084828875
      ],
      [
        "ĠCO",
        -10.159464302949443
      ],
      [
        "Ġwet",
        -10.15984614668076
      ],
      [
        "Ġlaunch",
        -10.160032241682195
      ],
      [
        "Ġemotion",
        -10.160336785901864
      ],
      [
        "ium",
        -10.161184482764453
      ],
      [
        "Ġcareer",
        -10.161440177480852
      ],
      [
        "Ġreplacement",
        -10.163404693847506
      ],
      [
        "Ġbean",
        -10.163754807503036
      ],
      [
        "Ġpanel",
        -10.16477579374677
      ],
      [
        "Ġpassage",
        -10.165094347188145
      ],
      [
        "ĠPeople",
        -10.1659078405445
      ],
      [
        "Ġdistribute",
        -10.167043908393437
      ],
      [
        "Ġrestaurant",
        -10.167081425983328
      ],
      [
        "Ġprior",
        -10.167357869758115
      ],
      [
        "Ġeliminate",
        -10.168054549139864
      ],
      [
        "Ġcalm",
        -10.168743953206912
      ],
      [
        "Ġauto",
        -10.169088564925095
      ],
      [
        "Ġtoxic",
        -10.169989416273628
      ],
      [
        "Ġedit",
        -10.17074693804248
      ],
      [
        "ĠSaudi",
        -10.17112770094909
      ],
      [
        "ĠLike",
        -10.172904020669831
      ],
      [
        "Ġphotos",
        -10.17326845331911
      ],
      [
        "Ġrapid",
        -10.173408426973111
      ],
      [
        "Ġequation",
        -10.173485322347265
      ],
      [
        "ĠGreen",
        -10.174284763188783
      ],
      [
        "Ġdecided",
        -10.175359457972
      ],
      [
        "Ġport",
        -10.17588677693794
      ],
      [
        "Ġstomach",
        -10.175930739368464
      ],
      [
        "Ġbrake",
        -10.17705558006177
      ],
      [
        "ĠArt",
        -10.177187604160968
      ],
      [
        "Ġsmoke",
        -10.177428897089282
      ],
      [
        "Ġchocolate",
        -10.17886502716422
      ],
      [
        "Ġsports",
        -10.17894358386038
      ],
      [
        "ĠCollege",
        -10.17952839974904
      ],
      [
        "ier",
        -10.179903928152516
      ],
      [
        "Ġstarts",
        -10.18041650947248
      ],
      [
        "Ġrocks",
        -10.180857513666954
      ],
      [
        "ĠAfrican",
        -10.181303566290326
      ],
      [
        "Ġappreciate",
        -10.181501503867167
      ],
      [
        "Ġderive",
        -10.181951921595225
      ],
      [
        "Ġweld",
        -10.181982216456792
      ],
      [
        "Ġpresentation",
        -10.183744334646049
      ],
      [
        "Ġmolecular",
        -10.184220761787858
      ],
      [
        "Ġroute",
        -10.184653172983287
      ],
      [
        "Ġattach",
        -10.185612556984346
      ],
      [
        "ĠBrit",
        -10.18584876396258
      ],
      [
        "iness",
        -10.186038772111448
      ],
      [
        "Ġcit",
        -10.18615478165613
      ],
      [
        "ĠOcto",
        -10.186257616305
      ],
      [
        "Ġwhale",
        -10.186843908553776
      ],
      [
        "pH",
        -10.18719571939723
      ],
      [
        "Ġlenses",
        -10.18757527170682
      ],
      [
        "Ġvector",
        -10.18819261813248
      ],
      [
        "Ġpack",
        -10.18825159307617
      ],
      [
        "Ġscore",
        -10.188632691292128
      ],
      [
        "Ġowner",
        -10.189280869697054
      ],
      [
        "Ġworker",
        -10.19018504592412
      ],
      [
        "Ġalcohol",
        -10.19020648068149
      ],
      [
        "Ġmask",
        -10.191227381906302
      ],
      [
        "Ġbar",
        -10.1912944984705
      ],
      [
        "ized",
        -10.19132250755787
      ],
      [
        "Ġprofessor",
        -10.191607869783583
      ],
      [
        "Â°C",
        -10.191818517290464
      ],
      [
        "Ġsegment",
        -10.192549004182007
      ],
      [
        "Ġworry",
        -10.192989646174317
      ],
      [
        "Ġgenerat",
        -10.193416132988215
      ],
      [
        "Ġpan",
        -10.193667752288288
      ],
      [
        "Ġcopper",
        -10.19393040815044
      ],
      [
        "Ġbroken",
        -10.194068011851805
      ],
      [
        "Let",
        -10.194208094160636
      ],
      [
        "weight",
        -10.194871190450034
      ],
      [
        "Ġexchange",
        -10.195596470146404
      ],
      [
        "Ġpure",
        -10.196033621291818
      ],
      [
        "Ġcoral",
        -10.196559768217629
      ],
      [
        "Dur",
        -10.197638962585476
      ],
      [
        "ĠEnergy",
        -10.197755768833186
      ],
      [
        "Ġrely",
        -10.197837704548132
      ],
      [
        "ĠDec",
        -10.198257914590965
      ],
      [
        "Ġreward",
        -10.198769182303597
      ],
      [
        "Ġwhatever",
        -10.199357207524717
      ],
      [
        "Ġkinds",
        -10.199435413720945
      ],
      [
        "ĠGuide",
        -10.199789833133025
      ],
      [
        "Ġshowing",
        -10.200794903116844
      ],
      [
        "First",
        -10.20083179796424
      ],
      [
        "Ġcloud",
        -10.201219653716333
      ],
      [
        "Ġfoster",
        -10.201325129155798
      ],
      [
        "Ġheavi",
        -10.202166079985329
      ],
      [
        "Ġdestroy",
        -10.202222895994872
      ],
      [
        "Ġurban",
        -10.203656423782787
      ],
      [
        "Ġbloom",
        -10.204036957750484
      ],
      [
        "heard",
        -10.204923305791125
      ],
      [
        "Ġpages",
        -10.206390795616633
      ],
      [
        "Ġbug",
        -10.206540316598616
      ],
      [
        "ĠIndian",
        -10.20685438104953
      ],
      [
        "ĠLook",
        -10.206968989617687
      ],
      [
        "Ġalter",
        -10.20789808715001
      ],
      [
        "ĠJanuary",
        -10.20873245309863
      ],
      [
        "Ġretain",
        -10.208940973800685
      ],
      [
        "Ġweak",
        -10.20934456505255
      ],
      [
        "Ġspen",
        -10.209544499140309
      ],
      [
        "Ġcement",
        -10.209744630455049
      ],
      [
        "Ġfunctional",
        -10.209752054953432
      ],
      [
        "Ġnuclear",
        -10.209892325822423
      ],
      [
        "Ġtooth",
        -10.210640051222931
      ],
      [
        "work",
        -10.21081860550812
      ],
      [
        "Ġdetection",
        -10.211084504010117
      ],
      [
        "Ġbreeding",
        -10.21109480684246
      ],
      [
        "Ġexam",
        -10.212064807348364
      ],
      [
        "ĠGet",
        -10.213002349297964
      ],
      [
        "ĠCheck",
        -10.213157570926906
      ],
      [
        "Ġarm",
        -10.213496143495796
      ],
      [
        "otherwise",
        -10.2135430242055
      ],
      [
        "Ġboil",
        -10.21371939412922
      ],
      [
        "Ġvast",
        -10.213945756091183
      ],
      [
        "Ġjump",
        -10.21496568108488
      ],
      [
        "Ġdistinct",
        -10.215183642495234
      ],
      [
        "gone",
        -10.216033382274226
      ],
      [
        "Ġcharg",
        -10.217416535788498
      ],
      [
        "Ġpilot",
        -10.218087446807736
      ],
      [
        "Ġsuper",
        -10.218229757394557
      ],
      [
        "Ġwouldn",
        -10.218899476209168
      ],
      [
        "Ġperspective",
        -10.220367773160548
      ],
      [
        "Ġconfiden",
        -10.220771514274857
      ],
      [
        "Ġspecialize",
        -10.221134496548991
      ],
      [
        "Ġinnovative",
        -10.221813177988093
      ],
      [
        "Ġplays",
        -10.221822243309113
      ],
      [
        "Ġencounter",
        -10.22226288829685
      ],
      [
        "Ġincorporate",
        -10.222345404641842
      ],
      [
        "Ġpackage",
        -10.2224753172494
      ],
      [
        "Ġtrie",
        -10.222674130754958
      ],
      [
        "Ġsex",
        -10.223423182102223
      ],
      [
        "Ġgraph",
        -10.223701499325744
      ],
      [
        "Ġdecline",
        -10.224006866350908
      ],
      [
        "Ġpreparation",
        -10.224225442653822
      ],
      [
        "Ġthrow",
        -10.224454651301048
      ],
      [
        "Ġexcit",
        -10.224612178117898
      ],
      [
        "animals",
        -10.224839606520536
      ],
      [
        "Ġunlike",
        -10.226373137136052
      ],
      [
        "Ġrelax",
        -10.226731250818045
      ],
      [
        "Ġtruck",
        -10.226865941490232
      ],
      [
        "ification",
        -10.226925806847683
      ],
      [
        "Ġbones",
        -10.22813924360375
      ],
      [
        "Ġfelt",
        -10.228193897581804
      ],
      [
        "Ġhunting",
        -10.22893229315396
      ],
      [
        "He",
        -10.230464215550302
      ],
      [
        "ĠQ",
        -10.232833424219915
      ],
      [
        "Ġten",
        -10.23300384773892
      ],
      [
        "Ġbecom",
        -10.233870573055356
      ],
      [
        "Ġreef",
        -10.233887007088311
      ],
      [
        "Ġconsumers",
        -10.233989625679804
      ],
      [
        "Ġrandom",
        -10.23418804536094
      ],
      [
        "ĠâĢ¢",
        -10.23450588061949
      ],
      [
        "Ġbowl",
        -10.2346774806037
      ],
      [
        "Ġpresented",
        -10.234881333115124
      ],
      [
        "Ġrenewable",
        -10.2359942397965
      ],
      [
        "ĠEast",
        -10.236642327619307
      ],
      [
        "ĠTake",
        -10.23694771628746
      ],
      [
        "are",
        -10.23718662779154
      ],
      [
        "like",
        -10.237563903950182
      ],
      [
        "rote",
        -10.23774163477342
      ],
      [
        "Ġlawn",
        -10.237917172747595
      ],
      [
        "Ġreceiv",
        -10.238841470716077
      ],
      [
        "Ġtone",
        -10.238932608656334
      ],
      [
        "Ġabsolute",
        -10.238937551509112
      ],
      [
        "Ġassembl",
        -10.239097497497475
      ],
      [
        "Ġbees",
        -10.23930888845806
      ],
      [
        "ĠChines",
        -10.239368103573437
      ],
      [
        "Ġbigge",
        -10.239481160728143
      ],
      [
        "Ġwish",
        -10.23950227182378
      ],
      [
        "Ġprovider",
        -10.240555536166216
      ],
      [
        "Ġcards",
        -10.241066261315712
      ],
      [
        "gave",
        -10.241219897937192
      ],
      [
        "Share",
        -10.241351383675838
      ],
      [
        "ĠGood",
        -10.241798277558996
      ],
      [
        "Ġdirector",
        -10.2420050040257
      ],
      [
        "Ġblade",
        -10.24211855210375
      ],
      [
        "Ġconversation",
        -10.24278428023863
      ],
      [
        "Ġtall",
        -10.242847700421311
      ],
      [
        "facing",
        -10.24285739255376
      ],
      [
        "Ġsurvival",
        -10.243328463121488
      ],
      [
        "Ġpossibl",
        -10.243403529321412
      ],
      [
        "Ġguess",
        -10.244338481545158
      ],
      [
        "ĠType",
        -10.24506307825522
      ],
      [
        "existing",
        -10.245257962338576
      ],
      [
        "Ġfamous",
        -10.246486123310152
      ],
      [
        "Ġtrip",
        -10.24738727312973
      ],
      [
        "Ġimagine",
        -10.247582314778542
      ],
      [
        "Ġslightl",
        -10.24766017129624
      ],
      [
        "ĠCounty",
        -10.247971869928309
      ],
      [
        "Ġbegins",
        -10.248033040632771
      ],
      [
        "Ġprompt",
        -10.248573220222443
      ],
      [
        "Ġplane",
        -10.248914825229564
      ],
      [
        "Ġapproache",
        -10.24966403913036
      ],
      [
        "Ġfeedback",
        -10.2501924506219
      ],
      [
        "Ġprices",
        -10.250248029500003
      ],
      [
        "Ġsilver",
        -10.250328861025016
      ],
      [
        "Ġtrend",
        -10.250471505783786
      ],
      [
        "Ġaccurac",
        -10.250997008910772
      ],
      [
        "Ġdiscussed",
        -10.252090837742111
      ],
      [
        "Ġintervention",
        -10.252835292304034
      ],
      [
        "Ġcontract",
        -10.253092227106258
      ],
      [
        "Ġworkshop",
        -10.25327008362881
      ],
      [
        "Ġweigh",
        -10.254223677199388
      ],
      [
        "Ġdelicious",
        -10.255426649506502
      ],
      [
        "Ġmark",
        -10.25555738869646
      ],
      [
        "ĠTime",
        -10.255685319326322
      ],
      [
        "Ġgift",
        -10.255739048483054
      ],
      [
        "Ġdownload",
        -10.25590776356248
      ],
      [
        "Ġdatabase",
        -10.256076523403754
      ],
      [
        "\"The",
        -10.256462391950322
      ],
      [
        "Ġloose",
        -10.257724535596132
      ],
      [
        "Ġthrive",
        -10.259053941510045
      ],
      [
        "Ġintended",
        -10.259226477843924
      ],
      [
        "stock",
        -10.259257372932126
      ],
      [
        "Ġnorth",
        -10.259518719359264
      ],
      [
        "Figure",
        -10.259780407297733
      ],
      [
        "Ġexcessive",
        -10.259858614786031
      ],
      [
        "-on",
        -10.259869097005232
      ],
      [
        "Ġarray",
        -10.260060484414447
      ],
      [
        "Ġmice",
        -10.260198089370755
      ],
      [
        "Ġbiggest",
        -10.260899469598971
      ],
      [
        "Ġsecret",
        -10.26103694538214
      ],
      [
        "Ġmajorit",
        -10.261041458751794
      ],
      [
        "Ġdiamond",
        -10.261079964204503
      ],
      [
        "Ġdimension",
        -10.261251541078655
      ],
      [
        "Ġrow",
        -10.261601964815636
      ],
      [
        "ĠJapan",
        -10.263246803943886
      ],
      [
        "Ġmanner",
        -10.263437698722605
      ],
      [
        "Ġ\\(",
        -10.26389057057618
      ],
      [
        "carried",
        -10.264098583380608
      ],
      [
        "Ġzone",
        -10.264550769271851
      ],
      [
        "ĠRed",
        -10.265638621387907
      ],
      [
        "Ġvalve",
        -10.265850555886756
      ],
      [
        "board",
        -10.266163194194672
      ],
      [
        "aging",
        -10.266229166312652
      ],
      [
        "ĠTwo",
        -10.268182968568608
      ],
      [
        "Ġvaccine",
        -10.2688710375617
      ],
      [
        "ĠAssociation",
        -10.269030503985428
      ],
      [
        "Ġwindows",
        -10.26952989158011
      ],
      [
        "Ġworse",
        -10.270220814716485
      ],
      [
        "Ġstation",
        -10.270466197919948
      ],
      [
        "Ġhabits",
        -10.27077804553756
      ],
      [
        "Ġneuron",
        -10.270989310773569
      ],
      [
        "Ġagricultur",
        -10.271712661217071
      ],
      [
        "Ġsold",
        -10.271775057391178
      ],
      [
        "Ġsport",
        -10.272124682092128
      ],
      [
        "Ġdiameter",
        -10.27385921806649
      ],
      [
        "Ġserving",
        -10.2740167894963
      ],
      [
        "Ġsteam",
        -10.274453009503272
      ],
      [
        "Ġconsult",
        -10.274937686216434
      ],
      [
        "Ġcomparison",
        -10.275171682776048
      ],
      [
        "Ġparallel",
        -10.27523411813645
      ],
      [
        "ĠCity",
        -10.275456493130026
      ],
      [
        "Ġshark",
        -10.27606865315296
      ],
      [
        "Ġmassive",
        -10.276233292242258
      ],
      [
        "Ġeight",
        -10.27695606547552
      ],
      [
        "ĠConsider",
        -10.277016330021102
      ],
      [
        "Ġinform",
        -10.277036454738752
      ],
      [
        "Ġalign",
        -10.277359882811409
      ],
      [
        "Ġsharp",
        -10.278529389554892
      ],
      [
        "Ġbelief",
        -10.278564431108798
      ],
      [
        "Ġinjurie",
        -10.27928044970609
      ],
      [
        "industrie",
        -10.279344451654218
      ],
      [
        "Ġhumidit",
        -10.279888294531236
      ],
      [
        "ĠRead",
        -10.281476525973794
      ],
      [
        "Ġvariable",
        -10.28160985255083
      ],
      [
        "Ġcircle",
        -10.282316090913625
      ],
      [
        "{",
        -10.283211048006375
      ],
      [
        "Ġnitrogen",
        -10.283601623780784
      ],
      [
        "Ġregulate",
        -10.283715869638185
      ],
      [
        "Ġhandling",
        -10.28376295141868
      ],
      [
        "Ġshot",
        -10.28400923306474
      ],
      [
        "Ġprinting",
        -10.28445491493163
      ],
      [
        "Ġfix",
        -10.28468647628187
      ],
      [
        "Ġchemistr",
        -10.284905463010183
      ],
      [
        "Ġmountain",
        -10.285867106048748
      ],
      [
        "ĠHouse",
        -10.286058871815644
      ],
      [
        "Ġsubstances",
        -10.286940505856393
      ],
      [
        "Ġpictures",
        -10.287225969109132
      ],
      [
        "with",
        -10.28728984137478
      ],
      [
        "Ġrecycl",
        -10.28740339295202
      ],
      [
        "Ġdiffer",
        -10.28741747994412
      ],
      [
        "ĠAnimal",
        -10.287640228115723
      ],
      [
        "Ġmutation",
        -10.28829989054498
      ],
      [
        "Ġhidden",
        -10.28872302394135
      ],
      [
        "Ġmeasurements",
        -10.289697078931663
      ],
      [
        "Ġtraffic",
        -10.291199869186762
      ],
      [
        "Ġpolitical",
        -10.291834420233322
      ],
      [
        "Ġshar",
        -10.291938435892227
      ],
      [
        "COVID",
        -10.292394513777456
      ],
      [
        "Ġnet",
        -10.29362585880327
      ],
      [
        "ĠThrough",
        -10.293884841311584
      ],
      [
        "rol",
        -10.29421601747856
      ],
      [
        "Ġcurve",
        -10.294654254464376
      ],
      [
        "Ġmild",
        -10.2953447099346
      ],
      [
        "Ġdishe",
        -10.295411314675526
      ],
      [
        "Ġtea",
        -10.29744995396382
      ],
      [
        "Ġcollaboration",
        -10.297660041917538
      ],
      [
        "Ġbreath",
        -10.297672748593351
      ],
      [
        "Ġspin",
        -10.298896296007689
      ],
      [
        "ĠData",
        -10.299344761834416
      ],
      [
        "Ġcareful",
        -10.299755407294796
      ],
      [
        "Ġfamiliar",
        -10.29998991811731
      ],
      [
        "Ġsurprise",
        -10.300342363768891
      ],
      [
        "Ġstrengthen",
        -10.300536362225404
      ],
      [
        "Ġspeech",
        -10.301312751233336
      ],
      [
        "Ġgenome",
        -10.30180356558745
      ],
      [
        "Ġauthors",
        -10.302304815691436
      ],
      [
        "ĠAugust",
        -10.30467622400812
      ],
      [
        "^",
        -10.304968487489106
      ],
      [
        "ĠAC",
        -10.305556804462032
      ],
      [
        "ĠRe",
        -10.306368220735177
      ],
      [
        "Ġcraft",
        -10.306512724893905
      ],
      [
        "Ġindex",
        -10.307706942931098
      ],
      [
        "ĠHuman",
        -10.3077306542774
      ],
      [
        "Ġgrant",
        -10.307983801924772
      ],
      [
        "Ġassociation",
        -10.308506551685648
      ],
      [
        "Ġnose",
        -10.308694756648892
      ],
      [
        "eath",
        -10.30883478746767
      ],
      [
        "Ġoven",
        -10.30898417809926
      ],
      [
        "Ġdiagram",
        -10.310703563540653
      ],
      [
        "Ġcm",
        -10.310825158904468
      ],
      [
        "Ġparticipate",
        -10.310861912846583
      ],
      [
        "Ġstream",
        -10.311604146499516
      ],
      [
        "Ġinspire",
        -10.31185833729537
      ],
      [
        "Ġseal",
        -10.312650697733876
      ],
      [
        "Ġsauce",
        -10.312826734139083
      ],
      [
        "Ġinitiative",
        -10.313068852808378
      ],
      [
        "Ġdepression",
        -10.313408600118612
      ],
      [
        "Ġluck",
        -10.314251803428798
      ],
      [
        "Ġfiles",
        -10.314787830157703
      ],
      [
        "Ġforget",
        -10.315177739161456
      ],
      [
        "Ġmattress",
        -10.31535524308734
      ],
      [
        "Ġmeals",
        -10.3168999256374
      ],
      [
        "Ġdedicate",
        -10.317654619746875
      ],
      [
        "Ġturning",
        -10.317772843225711
      ],
      [
        "Ġhydrogen",
        -10.318008671470343
      ],
      [
        "men",
        -10.31840467124415
      ],
      [
        "Ġbiolog",
        -10.31845279248628
      ],
      [
        "Ġsudden",
        -10.318553491924074
      ],
      [
        "Ġresponsibilit",
        -10.318647796947046
      ],
      [
        "Ġbranch",
        -10.318936344619438
      ],
      [
        "Ġinsurance",
        -10.319172035764767
      ],
      [
        "Ġfair",
        -10.319424120457995
      ],
      [
        "Ġprofile",
        -10.319675859784386
      ],
      [
        "Ġmicro",
        -10.320517017249584
      ],
      [
        "Ġscenario",
        -10.320811031332893
      ],
      [
        "Ġpermanent",
        -10.321750536534662
      ],
      [
        "Ġshapes",
        -10.32188349743457
      ],
      [
        "low",
        -10.3219555066636
      ],
      [
        "ĠAny",
        -10.322191916531311
      ],
      [
        "ĠGroup",
        -10.322811113009127
      ],
      [
        "Ġshop",
        -10.32318723773074
      ],
      [
        "From",
        -10.32335538130128
      ],
      [
        "Ġpeak",
        -10.32438860816983
      ],
      [
        "Ġarrive",
        -10.324445582596669
      ],
      [
        "Ġmining",
        -10.324568737471935
      ],
      [
        "ĠLight",
        -10.32496664750392
      ],
      [
        "chosen",
        -10.325761882298751
      ],
      [
        "Ġmicrowave",
        -10.32590582665726
      ],
      [
        "|Ċ",
        -10.325920285364225
      ],
      [
        "Ġgradual",
        -10.32612728701192
      ],
      [
        "Ġbehaviour",
        -10.326635494163256
      ],
      [
        "ĠLife",
        -10.326846524629213
      ],
      [
        "]Ċ",
        -10.3278326294539
      ],
      [
        "Ġpolicies",
        -10.328377237484828
      ],
      [
        "Ġjuice",
        -10.328492294800204
      ],
      [
        "Ġexplanation",
        -10.328525010889289
      ],
      [
        "Ġbread",
        -10.328919360472234
      ],
      [
        "Ġride",
        -10.328958068506385
      ],
      [
        "Ġpartial",
        -10.329187959132655
      ],
      [
        "Ġsales",
        -10.329560979484125
      ],
      [
        "Ġrecording",
        -10.32963522313118
      ],
      [
        "ĠToday",
        -10.330508571531034
      ],
      [
        "ĠUn",
        -10.330629263681644
      ],
      [
        "Ġvegan",
        -10.331210904919796
      ],
      [
        "Ġconflict",
        -10.33135702668402
      ],
      [
        "Ġdanger",
        -10.331475628892774
      ],
      [
        "ĠHis",
        -10.331888142080224
      ],
      [
        ");",
        -10.33229931155194
      ],
      [
        "Ġrequest",
        -10.332375999764746
      ],
      [
        "Ġleader",
        -10.3331498638544
      ],
      [
        "ur",
        -10.333318592705242
      ],
      [
        "Ġlaborator",
        -10.333322654852209
      ],
      [
        "Ġseeking",
        -10.333414999163102
      ],
      [
        "ioxide",
        -10.333813173593622
      ],
      [
        "Over",
        -10.33420354067936
      ],
      [
        "Ġcluster",
        -10.334211417536562
      ],
      [
        "Ġregister",
        -10.33454597076107
      ],
      [
        "Ġfeather",
        -10.334550816596025
      ],
      [
        "ĠHome",
        -10.335138629395855
      ],
      [
        "Ġclay",
        -10.335510118246503
      ],
      [
        "Before",
        -10.33665131847552
      ],
      [
        "Ġinterior",
        -10.336711808327742
      ],
      [
        "Ġresolution",
        -10.33671379283372
      ],
      [
        "Ġraised",
        -10.338132435031891
      ],
      [
        "Ġmoved",
        -10.339458735577356
      ],
      [
        "Ġdiagnosi",
        -10.339669184583018
      ],
      [
        "Ġprotective",
        -10.341775398393692
      ],
      [
        "Ġturns",
        -10.34223166088302
      ],
      [
        "Ġneck",
        -10.342618484323031
      ],
      [
        "Ġachiev",
        -10.34414300940318
      ],
      [
        "ĠFebr",
        -10.344472476979078
      ],
      [
        "Ġmilitar",
        -10.346008713171416
      ],
      [
        "ĠGeneral",
        -10.34623558654341
      ],
      [
        "Ġrecover",
        -10.34797248641489
      ],
      [
        "Ġloop",
        -10.348143070148955
      ],
      [
        "Ġsets",
        -10.348206185561228
      ],
      [
        "Ġnovel",
        -10.34873369253525
      ],
      [
        "Ġtrouble",
        -10.348812968189565
      ],
      [
        "Ġintroduction",
        -10.348921537559225
      ],
      [
        "Ġgarlic",
        -10.349482742334432
      ],
      [
        "-relate",
        -10.349720531619852
      ],
      [
        "Ġpeer",
        -10.35011529483575
      ],
      [
        "Ġdive",
        -10.35073109217753
      ],
      [
        "Ġsides",
        -10.351554507707508
      ],
      [
        "Ġcoil",
        -10.352238058793294
      ],
      [
        "Ġconventional",
        -10.352330540966657
      ],
      [
        "Ġecosystem",
        -10.352425540383932
      ],
      [
        "Ġdivision",
        -10.352801344081229
      ],
      [
        "ĠSociety",
        -10.353014010572114
      ],
      [
        "ĠPower",
        -10.353307483895149
      ],
      [
        "ĠRemember",
        -10.354086591096948
      ],
      [
        "most",
        -10.354686728025207
      ],
      [
        "Ġopposite",
        -10.355406509376394
      ],
      [
        "Ġcombin",
        -10.35708598890243
      ],
      [
        "Ġicon",
        -10.357159860618893
      ],
      [
        "Ġboundar",
        -10.3572644979974
      ],
      [
        "ions",
        -10.357573159882005
      ],
      [
        "ĠNovember",
        -10.358725638236365
      ],
      [
        "Ġdiagnose",
        -10.359595877068951
      ],
      [
        "Ġcopy",
        -10.35963225288856
      ],
      [
        "Ġcake",
        -10.360155035636762
      ],
      [
        "Ġgadget",
        -10.360217034971036
      ],
      [
        "Ġmeasur",
        -10.362395180537025
      ],
      [
        "Ġtrends",
        -10.3631486445297
      ],
      [
        "Ġantibiotic",
        -10.363448539909866
      ],
      [
        "Ġdut",
        -10.363705764074057
      ],
      [
        "Ġdelay",
        -10.364259459614612
      ],
      [
        "Ġmovie",
        -10.364575426424937
      ],
      [
        "Ġusage",
        -10.364718820674751
      ],
      [
        "Ġlie",
        -10.366760895242464
      ],
      [
        "Ġsent",
        -10.367350259393914
      ],
      [
        "Ġremaining",
        -10.367905567567682
      ],
      [
        "Ġcolon",
        -10.36850206412479
      ],
      [
        "Ġillness",
        -10.369143577557551
      ],
      [
        "Ġcord",
        -10.369152417351206
      ],
      [
        "Ġrear",
        -10.369175645717164
      ],
      [
        "Ġstructural",
        -10.369803114563602
      ],
      [
        "Ġsnake",
        -10.371582135536826
      ],
      [
        "Ġfurniture",
        -10.371602855180113
      ],
      [
        "Ġtransportation",
        -10.371844509576334
      ],
      [
        "ĠMedicine",
        -10.372426794218754
      ],
      [
        "ĠY",
        -10.372609467317483
      ],
      [
        "Ġtie",
        -10.372905643838308
      ],
      [
        "Ġlinear",
        -10.373118261636554
      ],
      [
        "Ġclassic",
        -10.373712483374618
      ],
      [
        "Ġexplains",
        -10.374205254393214
      ],
      [
        "Ġprofit",
        -10.37458526785668
      ],
      [
        "Ġintegrate",
        -10.374707167542176
      ],
      [
        "Ġpartner",
        -10.374772407265024
      ],
      [
        "ley",
        -10.375057374662898
      ],
      [
        "Ġtear",
        -10.375988081550132
      ],
      [
        "ĠChildren",
        -10.376398459836327
      ],
      [
        "from",
        -10.376398764309982
      ],
      [
        "Ġfault",
        -10.37667707678848
      ],
      [
        "ĠJapanese",
        -10.376937620122828
      ],
      [
        "Ġcleaner",
        -10.37701033436277
      ],
      [
        "Ġrotation",
        -10.378537833660689
      ],
      [
        "Ġpromot",
        -10.378887477150796
      ],
      [
        "Ġsexual",
        -10.378991194198273
      ],
      [
        "Ġacids",
        -10.379059237693738
      ],
      [
        "Ġauthorit",
        -10.37940097557624
      ],
      [
        "Ġbranche",
        -10.380348240622402
      ],
      [
        "Ġvideos",
        -10.381294760952532
      ],
      [
        "Ġstretch",
        -10.381862949774018
      ],
      [
        "Ġtaught",
        -10.382464183316984
      ],
      [
        "Ġlights",
        -10.382574919708656
      ],
      [
        "Ġmetals",
        -10.382860537101102
      ],
      [
        "Ġfather",
        -10.38326591567293
      ],
      [
        "Ġwoman",
        -10.383788699738265
      ],
      [
        "Ġbuffer",
        -10.384220926614065
      ],
      [
        "obesity",
        -10.384978888575551
      ],
      [
        "ĠCare",
        -10.385111273300778
      ],
      [
        "Ġinsulation",
        -10.38518192336738
      ],
      [
        "Ġnarrow",
        -10.38558553891059
      ],
      [
        "ĠColor",
        -10.38576939064196
      ],
      [
        "Ġbark",
        -10.38669765268231
      ],
      [
        "everyday",
        -10.38700067861098
      ],
      [
        "Ġincorporat",
        -10.387013417578329
      ],
      [
        "ĠTV",
        -10.38832148105366
      ],
      [
        "making",
        -10.389432492382564
      ],
      [
        "ĠKing",
        -10.389625841474636
      ],
      [
        "Ġcolleague",
        -10.390356325612109
      ],
      [
        "Ġpreserve",
        -10.390363322785952
      ],
      [
        "Ġinfrastructure",
        -10.390715153254389
      ],
      [
        "Ġgase",
        -10.390774714259798
      ],
      [
        "Ġincreasingly",
        -10.391618768949105
      ],
      [
        "rich",
        -10.391985259238364
      ],
      [
        "anagement",
        -10.392082936640966
      ],
      [
        "ĠLearn",
        -10.392132463025751
      ],
      [
        "ĠNature",
        -10.3923267489939
      ],
      [
        "Ġspaces",
        -10.39267683161026
      ],
      [
        "ĠGo",
        -10.392908702079916
      ],
      [
        "Ġplus",
        -10.393104568890331
      ],
      [
        "ĠRNA",
        -10.394048838121076
      ],
      [
        "ĠAnother",
        -10.394491424981531
      ],
      [
        "Does",
        -10.3945604210798
      ],
      [
        "ĠMr",
        -10.394696571604516
      ],
      [
        "Ġvi",
        -10.39498047266715
      ],
      [
        "Ġhoney",
        -10.395095327141066
      ],
      [
        "Ġcrystal",
        -10.395377176798114
      ],
      [
        "ĠAsia",
        -10.39544718938923
      ],
      [
        "Ġorgans",
        -10.39583660139786
      ],
      [
        "Ġengaging",
        -10.396359790642462
      ],
      [
        "Ġdeposit",
        -10.396526445898369
      ],
      [
        "Ġillustrate",
        -10.397049504626205
      ],
      [
        "Not",
        -10.3974259215523
      ],
      [
        "ĠDevelopment",
        -10.398193527093916
      ],
      [
        "tuck",
        -10.398438981587123
      ],
      [
        "Ġmirror",
        -10.399523739744856
      ],
      [
        "Ġhaven",
        -10.400397320323044
      ],
      [
        "Ġgut",
        -10.401092251213704
      ],
      [
        "Ġpink",
        -10.401315739166694
      ],
      [
        "Ġaesthetic",
        -10.402684870211145
      ],
      [
        "Ġpipe",
        -10.40305077150687
      ],
      [
        "Ġequivalent",
        -10.40306347895974
      ],
      [
        "ĠJew",
        -10.40461498595689
      ],
      [
        "Since",
        -10.40524744186595
      ],
      [
        "Ġpose",
        -10.405727723354442
      ],
      [
        "q",
        -10.406482120313283
      ],
      [
        "Ġchart",
        -10.407027295269849
      ],
      [
        "Ġframework",
        -10.407281546062332
      ],
      [
        "Ġliver",
        -10.4079124719473
      ],
      [
        "ĠAct",
        -10.408198871820453
      ],
      [
        "Ġflying",
        -10.408540206981767
      ],
      [
        "trained",
        -10.408655837203922
      ],
      [
        "Ġdairy",
        -10.408835519744237
      ],
      [
        "j",
        -10.409209859533837
      ],
      [
        "Ġmenu",
        -10.409812330380689
      ],
      [
        "Ġdomain",
        -10.410064395747508
      ],
      [
        "bilities",
        -10.410298567080735
      ],
      [
        "Ġmanager",
        -10.410807785261865
      ],
      [
        "Ġink",
        -10.41168767166107
      ],
      [
        "ĠSee",
        -10.412201449018957
      ],
      [
        "Ġwearing",
        -10.412911157247104
      ],
      [
        "Ġtip",
        -10.4130078007681
      ],
      [
        "Ġrobust",
        -10.41316968107698
      ],
      [
        "Ġunderlying",
        -10.413517996650056
      ],
      [
        "Ġcorresponding",
        -10.413613217661464
      ],
      [
        "ĠStart",
        -10.413896510618022
      ],
      [
        "Ġexperienc",
        -10.414042648340024
      ],
      [
        "Ġinstitution",
        -10.414436283192831
      ],
      [
        "Ġprocedures",
        -10.414571314155944
      ],
      [
        "ĠControl",
        -10.415428480098065
      ],
      [
        "Ġguidance",
        -10.416041450365618
      ],
      [
        "expertise",
        -10.416065785137418
      ],
      [
        "Ġprocessor",
        -10.416549706010132
      ],
      [
        "Ġswimming",
        -10.417505243415109
      ],
      [
        "Ġinterview",
        -10.417657136581862
      ],
      [
        "Ġpredators",
        -10.418269009229435
      ],
      [
        "Ġcontribution",
        -10.41901516645202
      ],
      [
        "\"We",
        -10.419470036388836
      ],
      [
        "Ġrat",
        -10.420636578016584
      ],
      [
        "Ġappliance",
        -10.421437809363008
      ],
      [
        "Ġsubstantial",
        -10.422209453450556
      ],
      [
        "Ġreact",
        -10.422843639860371
      ],
      [
        "field",
        -10.422858400674867
      ],
      [
        "ĠTHE",
        -10.4232322853937
      ],
      [
        "this",
        -10.42377554209839
      ],
      [
        "Ġbreathing",
        -10.424350868641731
      ],
      [
        "Ġvacuum",
        -10.424744173222775
      ],
      [
        "Ġmature",
        -10.425247710740582
      ],
      [
        "Ġvelocity",
        -10.42595435966194
      ],
      [
        "Ġfur",
        -10.426911371791125
      ],
      [
        "Ġlock",
        -10.427060106850142
      ],
      [
        "Ġworksheet",
        -10.427936278000557
      ],
      [
        "Ġchamber",
        -10.428051782685474
      ],
      [
        "Ġouter",
        -10.429342325005262
      ],
      [
        "Ġstack",
        -10.429432338779993
      ],
      [
        "Other",
        -10.429508092360155
      ],
      [
        "Ġvibrant",
        -10.430392496758351
      ],
      [
        "end",
        -10.43066075546786
      ],
      [
        "ĠLong",
        -10.430768225365227
      ],
      [
        "Ġreplac",
        -10.431250558192364
      ],
      [
        "ĠEngineer",
        -10.431934131962995
      ],
      [
        "-of",
        -10.432188852556056
      ],
      [
        "@",
        -10.43246788874242
      ],
      [
        "Ġholding",
        -10.43289701839218
      ],
      [
        "Ġlaws",
        -10.433223184498589
      ],
      [
        "Ġblocks",
        -10.433299136676222
      ],
      [
        "Ġminute",
        -10.433332582867196
      ],
      [
        "Ġclothes",
        -10.433702188294491
      ],
      [
        "Ġgrid",
        -10.434279974153238
      ],
      [
        "Ġinvestigate",
        -10.434785505591474
      ],
      [
        "Ġlarva",
        -10.435285441970146
      ],
      [
        "Ġdebri",
        -10.43550899001231
      ],
      [
        "Ġbacterial",
        -10.436417847963856
      ],
      [
        "><",
        -10.436911282621558
      ],
      [
        "ĠFlorida",
        -10.437081152084458
      ],
      [
        "ant",
        -10.437515697615778
      ],
      [
        "Ġclient",
        -10.437529158965662
      ],
      [
        "Ġleaders",
        -10.437755986448783
      ],
      [
        "ĠNatural",
        -10.437759259089487
      ],
      [
        "Ġoral",
        -10.43828599818432
      ],
      [
        "Ġimpossible",
        -10.439748333588753
      ],
      [
        "Ġstruggle",
        -10.439810125506815
      ],
      [
        "Ġapparent",
        -10.44037460117665
      ],
      [
        "Ġmoderate",
        -10.441008858905304
      ],
      [
        "Ġtown",
        -10.441498740321409
      ],
      [
        "Als",
        -10.441969484272004
      ],
      [
        "way",
        -10.44254583528027
      ],
      [
        "Ġagricultural",
        -10.443127085786855
      ],
      [
        "Ġband",
        -10.44315725654016
      ],
      [
        "Ġtrick",
        -10.443535624720802
      ],
      [
        "ĠTry",
        -10.444370373731743
      ],
      [
        "fitness",
        -10.444413467523315
      ],
      [
        "Ġfascinating",
        -10.444842480076696
      ],
      [
        "Ġshoot",
        -10.444888496745625
      ],
      [
        "Ġdesigner",
        -10.44519083629062
      ],
      [
        "Ġlisted",
        -10.44533352043899
      ],
      [
        "Ġthanks",
        -10.44661802723416
      ],
      [
        "Ġtradition",
        -10.446630519223124
      ],
      [
        "Ġ{",
        -10.446632025883485
      ],
      [
        "Ġgrind",
        -10.447742317819005
      ],
      [
        "Ġglucos",
        -10.44779751799746
      ],
      [
        "Ġkit",
        -10.44788269856257
      ],
      [
        "Ġfee",
        -10.449236682462388
      ],
      [
        "ĠIsrael",
        -10.449373855310975
      ],
      [
        "un",
        -10.449754263871077
      ],
      [
        "Ġhappening",
        -10.449885504818866
      ],
      [
        "Ġinteractive",
        -10.450720366173964
      ],
      [
        "Ġcapital",
        -10.451326928184432
      ],
      [
        "Ġfacts",
        -10.4515757472323
      ],
      [
        "Ġnames",
        -10.45169362526169
      ],
      [
        "Ġscratch",
        -10.45225653556058
      ],
      [
        "-the",
        -10.452397042970633
      ],
      [
        "Ġinch",
        -10.453663105451154
      ],
      [
        "...Ċ",
        -10.454172867553794
      ],
      [
        "Ġhorizontal",
        -10.454984003010717
      ],
      [
        "Ġbrief",
        -10.45563991679326
      ],
      [
        "Ġsecondary",
        -10.45588141842411
      ],
      [
        "Ġwonderful",
        -10.455917044007052
      ],
      [
        "Ġknee",
        -10.45664587326144
      ],
      [
        "Ġformer",
        -10.45768836263177
      ],
      [
        "Ġhurt",
        -10.45884353660141
      ],
      [
        "Ġrose",
        -10.458852714351677
      ],
      [
        "]ĊĊ",
        -10.459347082600647
      ],
      [
        "Ġtruth",
        -10.459429385126583
      ],
      [
        "Ġdetermination",
        -10.460321874887928
      ],
      [
        "Ġcoach",
        -10.460444726576132
      ],
      [
        "Ġpai",
        -10.461291056119071
      ],
      [
        "Ġparameters",
        -10.461815306987852
      ],
      [
        "ĠTexa",
        -10.461944209529424
      ],
      [
        "Ġclients",
        -10.461968737887766
      ],
      [
        "Ġpregnanc",
        -10.462241632902517
      ],
      [
        "Ġrid",
        -10.46261533518156
      ],
      [
        "Ġtension",
        -10.463241091806152
      ],
      [
        "Ġsenior",
        -10.463530709825054
      ],
      [
        "Ġease",
        -10.463689010481762
      ],
      [
        "Ġitem",
        -10.463707576935107
      ],
      [
        "loved",
        -10.463793866560296
      ],
      [
        "Ġrepeat",
        -10.46439003549212
      ],
      [
        "Ġlifespan",
        -10.465458885597188
      ],
      [
        "Ġgather",
        -10.466256872636931
      ],
      [
        "Ġclub",
        -10.466258831129222
      ],
      [
        ".[",
        -10.466324585947664
      ],
      [
        "Ġorganize",
        -10.4672666345496
      ],
      [
        "ĠLearning",
        -10.468300923090236
      ],
      [
        "Ġtumor",
        -10.469145597350671
      ],
      [
        "Ġcalories",
        -10.470030295964364
      ],
      [
        "ch",
        -10.470112637213797
      ],
      [
        "Ġregulator",
        -10.470440085492918
      ],
      [
        "ING",
        -10.470703829009976
      ],
      [
        "Ġnutrient",
        -10.470978864029236
      ],
      [
        "Fig",
        -10.471357088923751
      ],
      [
        "?\"",
        -10.471391184965364
      ],
      [
        "Ġdiscomfort",
        -10.471448766105214
      ],
      [
        "Ġproduces",
        -10.471485315947962
      ],
      [
        "ought",
        -10.471986747714626
      ],
      [
        "Ġaward",
        -10.472044694294034
      ],
      [
        "Ġexceptional",
        -10.47237563960553
      ],
      [
        "Ġtheme",
        -10.473350054580948
      ],
      [
        "Ġrespectively",
        -10.473851376759615
      ],
      [
        "ĠHistory",
        -10.473930736443998
      ],
      [
        "Ġartist",
        -10.47398126406975
      ],
      [
        "day",
        -10.474907947715788
      ],
      [
        "Ġcircumstance",
        -10.474923610716434
      ],
      [
        "Ġmarker",
        -10.474967524704605
      ],
      [
        "Ġtailor",
        -10.475236648965446
      ],
      [
        "Ġhundreds",
        -10.47524332945856
      ],
      [
        "Ġmiss",
        -10.475379698992384
      ],
      [
        "Ġoperator",
        -10.475834114525435
      ],
      [
        "Ġcent",
        -10.47620245498764
      ],
      [
        "Ġcharacterize",
        -10.476619705144934
      ],
      [
        "Ġgum",
        -10.478038097517622
      ],
      [
        "dom",
        -10.47815889181154
      ],
      [
        "-old",
        -10.4782997816714
      ],
      [
        "Ġalumin",
        -10.478965891036406
      ],
      [
        "Ġspectrum",
        -10.47979752299965
      ],
      [
        "Ġpop",
        -10.479852673169091
      ],
      [
        "Ġbio",
        -10.480085611004757
      ],
      [
        "Ġwin",
        -10.480095655759358
      ],
      [
        "Ġpond",
        -10.480289014178824
      ],
      [
        "Ġfoam",
        -10.480583797699126
      ],
      [
        "ĠOcean",
        -10.480874245930265
      ],
      [
        "Ġsouthern",
        -10.481600301174314
      ],
      [
        "Ġdepartment",
        -10.481801439441224
      ],
      [
        "sistance",
        -10.482409602730549
      ],
      [
        "Ġnecessar",
        -10.48337698440186
      ],
      [
        "Ġexcept",
        -10.483869157715702
      ],
      [
        "New",
        -10.484371868322327
      ],
      [
        "Ġpotato",
        -10.484436118219222
      ],
      [
        "Ġconsumer",
        -10.484482637718846
      ],
      [
        "Ġobserv",
        -10.484521142951388
      ],
      [
        "Ġyes",
        -10.485453314056878
      ],
      [
        "ĠSpace",
        -10.486282453365114
      ],
      [
        "ĠCommon",
        -10.486983619532705
      ],
      [
        "ĠPlease",
        -10.487546235089384
      ],
      [
        "Ġdramatic",
        -10.487651955745443
      ],
      [
        "Ġintensit",
        -10.487871673696375
      ],
      [
        "Ġenhanc",
        -10.48829994772073
      ],
      [
        "Ġuniform",
        -10.48857465749563
      ],
      [
        "Ġconsum",
        -10.488645644758227
      ],
      [
        "Be",
        -10.488720018045669
      ],
      [
        "such",
        -10.488737208136335
      ],
      [
        "Ġmet",
        -10.489535741032627
      ],
      [
        "ership",
        -10.489948362657945
      ],
      [
        "Ġreache",
        -10.490964712978563
      ],
      [
        "Ġperception",
        -10.491002298022028
      ],
      [
        "rising",
        -10.49107593654008
      ],
      [
        "existence",
        -10.491142570681095
      ],
      [
        "Ġfocuse",
        -10.4919203313475
      ],
      [
        "ĠWild",
        -10.492190602999734
      ],
      [
        "Ġwarning",
        -10.492406364871664
      ],
      [
        "Ġship",
        -10.49263084186249
      ],
      [
        "Ġbite",
        -10.492653188218826
      ],
      [
        "ĠFish",
        -10.49287227572252
      ],
      [
        "Ġartists",
        -10.493723530767276
      ],
      [
        "Ġapparatus",
        -10.494049329238734
      ],
      [
        "Ġcompetitive",
        -10.494581406733914
      ],
      [
        "while",
        -10.494710876580356
      ],
      [
        "ĠApri",
        -10.494819117478944
      ],
      [
        "ĠBiology",
        -10.4949952958864
      ],
      [
        "can",
        -10.495291457876997
      ],
      [
        "Ġvessels",
        -10.495301412955
      ],
      [
        "Ġsignificance",
        -10.496092311626835
      ],
      [
        "Ġdrinking",
        -10.49612395619095
      ],
      [
        "Ġinter",
        -10.496311984740164
      ],
      [
        "ĠInformation",
        -10.496384846328922
      ],
      [
        ";Ċ",
        -10.496669190117515
      ],
      [
        "Ġmeant",
        -10.49682317319994
      ],
      [
        "ĠEngland",
        -10.49700918685316
      ],
      [
        "Ġconscious",
        -10.497408089292012
      ],
      [
        "Ġremoval",
        -10.497492839717276
      ],
      [
        "Ġtough",
        -10.498292113856303
      ],
      [
        "Researchers",
        -10.49888105507446
      ],
      [
        "ĠWhite",
        -10.499159560281594
      ],
      [
        "Ġpackaging",
        -10.49946695189957
      ],
      [
        "Ġcellular",
        -10.49981278691742
      ],
      [
        "ĠDisease",
        -10.50143243300976
      ],
      [
        "ĠFree",
        -10.501514966821736
      ],
      [
        "Ġera",
        -10.50184839722138
      ],
      [
        "Ġmanufacture",
        -10.501919462376687
      ],
      [
        "Ġwidth",
        -10.502826179837784
      ],
      [
        "Imagine",
        -10.502864040890652
      ],
      [
        "Ġdense",
        -10.50294385848672
      ],
      [
        "Ġgiant",
        -10.50320251369018
      ],
      [
        "ĠTest",
        -10.503359151632717
      ],
      [
        "Ġstrip",
        -10.503899256646177
      ],
      [
        "Ġeco",
        -10.50466466182532
      ],
      [
        "Ġmechanic",
        -10.505182269028376
      ],
      [
        "knew",
        -10.50522843864766
      ],
      [
        "Ġplates",
        -10.505934866625417
      ],
      [
        "ĠPart",
        -10.506279359148415
      ],
      [
        "Ġflexible",
        -10.506312667021104
      ],
      [
        "Ġfairly",
        -10.506329941358054
      ],
      [
        "Ġcomplicate",
        -10.506878348361449
      ],
      [
        "Ġtropical",
        -10.506930852629626
      ],
      [
        "Ġbearing",
        -10.507404663487096
      ],
      [
        "Just",
        -10.507450701106144
      ],
      [
        "ĠBefore",
        -10.507797129821697
      ],
      [
        "Ġgentle",
        -10.50855976627812
      ],
      [
[...]
