{
  "version": "1.0",
  "truncation": null,
  "padding": null,
  "added_tokens": [
    {
      "id": 0,
      "content": "<|bos|>",
      "single_word": false,
      "lstrip": false,
      "rstrip": false,
      "normalized": false,
      "special": true
    },
    {
      "id": 1,
      "content": "<|user_start|>",
      "single_word": false,
      "lstrip": false,
      "rstrip": false,
      "normalized": false,
      "special": true
    },
    {
      "id": 2,
      "content": "<|user_end|>",
      "single_word": false,
      "lstrip": false,
      "rstrip": false,
      "normalized": false,
      "special": true
    },
    {
      "id": 3,
      "content": "<|assistant_start|>",
      "single_word": false,
      "lstrip": false,
      "rstrip": false,
      "normalized": false,
      "special": true
    },
    {
      "id": 4,
      "content": "<|assistant_end|>",
      "single_word": false,
      "lstrip": false,
      "rstrip": false,
      "normalized": false,
      "special": true
    },
    {
      "id": 5,
      "content": "<|python_start|>",
      "single_word": false,
      "lstrip": false,
      "rstrip": false,
      "normalized": false,
      "special": true
    },
    {
      "id": 6,
      "content": "<|python_end|>",
      "single_word": false,
      "lstrip": false,
      "rstrip": false,
      "normalized": false,
      "special": true
    },
    {
      "id": 7,
      "content": "<|output_start|>",
      "single_word": false,
      "lstrip": false,
      "rstrip": false,
      "normalized": false,
      "special": true
    },
    {
      "id": 8,
      "content": "<|output_end|>",
      "single_word": false,
      "lstrip": false,
      "rstrip": false,
      "normalized": false,
      "special": true
    },
    {
      "id": 9,
      "content": "<|unk|>",
      "single_word": false,
      "lstrip": false,
      "rstrip": false,
      "normalized": false,
      "special": true
    }
  ],
  "normalizer": null,
  "pre_tokenizer": {
    "type": "Sequence",
    "pretokenizers": [
      {
        "type": "Split",
        "pattern": {
          "Regex": "'(?i:[sdmt]|ll|ve|re)|[^\\r\\n\\p{L}\\p{N}]?+\\p{L}+|\\p{N}{1,2}| ?[^\\s\\p{L}\\p{N}]++[\\r\\n]*|\\s*[\\r\\n]|\\s+(?!\\S)|\\s+"
        },
        "behavior": "Isolated",
        "invert": false
      },
      {
        "type": "ByteLevel",
        "add_prefix_space": false,
        "trim_offsets": true,
        "use_regex": false
      }
    ]
  },
  "post_processor": {
    "type": "TemplateProcessing",
    "single": [
      {
        "Sequence": {
          "id": "A",
          "type_id": 0
        }
      }
    ],
    "pair": [
      {
        "Sequence": {
          "id": "A",
          "type_id": 0
        }
      },
      {
        "Sequence": {
          "id": "B",
          "type_id": 1
        }
      }
    ],
    "special_tokens": {}
  },
  "decoder": null,
  "model": {
    "type": "Unigram",
    "unk_id": 9,
    "vocab": [
      [
        "<|bos|>",
        0.0
      ],
      [
        "<|user_start|>",
        0.0
      ],
      [
        "<|user_end|>",
        0.0
      ],
      [
        "<|assistant_start|>",
        0.0
      ],
      [
        "<|assistant_end|>",
        0.0
      ],
      [
        "<|python_start|>",
        0.0
      ],
      [
        "<|python_end|>",
        0.0
      ],
      [
        "<|output_start|>",
        0.0
      ],
      [
        "<|output_end|>",
        0.0
      ],
      [
        "<|unk|>",
        0.0
      ],
      [
        "Ġ",
        -2.624751209988581
      ],
      [
        "Ġthe",
        -3.38134964789424
      ],
      [
        ",",
        -3.4263305100653767
      ],
      [
        ".",
        -3.711819815500668
      ],
      [
        "s",
        -3.7433929147449305
      ],
      [
        "a",
        -3.8391355072881583
      ],
      [
        "Ġand",
        -3.9224922104396263
      ],
      [
        "Ġto",
        -3.961425438573963
      ],
      [
        "Ġof",
        -3.965006476386977
      ],
      [
        "Ġin",
        -4.478275239829337
      ],
      [
        "Ġis",
        -4.585420270075954
      ],
      [
        "'",
        -4.888385210209764
      ],
      [
        "t",
        -4.997146110686428
      ],
      [
        "Ġthat",
        -5.004834871339398
      ],
      [
        "0",
        -5.012171591251905
      ],
      [
        "Ġfor",
        -5.0301967909109155
      ],
      [
        "1",
        -5.142284873453427
      ],
      [
        "Ġare",
        -5.195684758979526
      ],
      [
        ":",
        -5.224789495001165
      ],
      [
        "Ġyou",
        -5.2823618255007325
      ],
      [
        "Ċ",
        -5.305933237668606
      ],
      [
        ".Ċ",
        -5.3118956132539115
      ],
      [
        "Ġit",
        -5.328893191062205
      ],
      [
        "-",
        -5.334041382222688
      ],
      [
        ".ĊĊ",
        -5.342783708988984
      ],
      [
        "2",
        -5.351243480413018
      ],
      [
        "Ġwith",
        -5.358851099381475
      ],
      [
        "Ġon",
        -5.48648934669122
      ],
      [
        "Ġor",
        -5.4997880612772825
      ],
      [
        "Ġbe",
        -5.4997965550537735
      ],
      [
        "Ġcan",
        -5.503286309242231
      ],
      [
        "Ġas",
        -5.51250588043812
      ],
      [
        "(",
        -5.610931352287663
      ],
      [
        "I",
        -5.625887029283884
      ],
      [
        "i",
        -5.672350607302711
      ],
      [
        "Ġyour",
        -5.675879338476678
      ],
      [
        "o",
        -5.692119845370419
      ],
      [
        "ĊĊ",
        -5.696204124335196
      ],
      [
        "e",
        -5.7067467310281454
      ],
      [
        "\"",
        -5.7138072516630345
      ],
      [
        "ing",
        -5.7893468057910695
      ],
      [
        "Ġhave",
        -5.853198627185028
      ],
      [
        "Ġfrom",
        -5.874836353771112
      ],
      [
        "ĠThe",
        -5.8979057489001985
      ],
      [
        "Ġby",
        -5.952036965559419
      ],
      [
        "d",
        -5.978548216169207
      ],
      [
        "n",
        -5.985214362647
      ],
      [
        "3",
        -5.99088771231898
      ],
      [
        ")",
        -6.001189274793699
      ],
      [
        "Ġan",
        -6.003947931477599
      ],
      [
        "Ġthis",
        -6.034489947256075
      ],
      [
        "5",
        -6.053502378778285
      ],
      [
        "?",
        -6.072006906651158
      ],
      [
        "Ġnot",
        -6.109904418361548
      ],
      [
        "ed",
        -6.139479920710134
      ],
      [
        "A",
        -6.181615013920874
      ],
      [
        "Ġwill",
        -6.194110136629847
      ],
      [
        "4",
        -6.201943322916019
      ],
      [
        "Ġtheir",
        -6.2043215332209645
      ],
      [
        "Ġthey",
        -6.231417443368372
      ],
      [
        "f",
        -6.282383335349854
      ],
      [
        "9",
        -6.302851189918652
      ],
      [
        "Ġmore",
        -6.322307205442009
      ],
      [
        "Ġwas",
        -6.347548007320851
      ],
      [
        "y",
        -6.361370206962022
      ],
      [
        "The",
        -6.390045678298664
      ],
      [
        "6",
        -6.4624928861009625
      ],
      [
        "Ġwe",
        -6.4641687374175465
      ],
      [
        "Ġbut",
        -6.464854047798445
      ],
      [
        "Ġwhich",
        -6.47649635773327
      ],
      [
        "Ġhas",
        -6.479493436668269
      ],
      [
        "8",
        -6.495230611926058
      ],
      [
        "m",
        -6.520144818001349
      ],
      [
        "r",
        -6.562808936916472
      ],
      [
        "Ġone",
        -6.566483819317504
      ],
      [
        "Ġalso",
        -6.5678511108725015
      ],
      [
        "Question",
        -6.569816455350347
      ],
      [
        "ĠAnswer",
        -6.593815560334393
      ],
      [
        "7",
        -6.603826549149337
      ],
      [
        "Ġall",
        -6.643541746757769
      ],
      [
        "Ġabout",
        -6.64475355835595
      ],
      [
        "Ġother",
        -6.698791596820671
      ],
      [
        "ly",
        -6.706552952019328
      ],
      [
        "ĠIt",
        -6.731989519188124
      ],
      [
        "Ġwhen",
        -6.733779897978605
      ],
      [
        "re",
        -6.748069284421359
      ],
      [
        "Ġdo",
        -6.771495532203129
      ],
      [
        "Ġthem",
        -6.784463326574663
      ],
      [
        "Ġtime",
        -6.786423126132355
      ],
      [
        "Ġinto",
        -6.812064916892025
      ],
      [
        "Ġlike",
        -6.812917072107837
      ],
      [
        "ĠThis",
        -6.848418398920909
      ],
      [
        "Ġmay",
        -6.8739211830727225
      ],
      [
        "Ġuse",
        -6.877235177446936
      ],
      [
        "Ġup",
        -6.877778940420189
      ],
      [
        "Ġsome",
        -6.891176735951268
      ],
      [
        "Ġout",
        -6.8997808654030575
      ],
      [
        "Ġthan",
        -6.903306404921247
      ],
      [
        "ĠWhat",
        -6.924704612435029
      ],
      [
        "Ġthese",
        -6.93598054232859
      ],
      [
        "Ġhow",
        -6.944598648643021
      ],
      [
        "Ġthere",
        -6.99327226947106
      ],
      [
        "Ġwater",
        -7.004154389664256
      ],
      [
        "Ġused",
        -7.008999313294563
      ],
      [
        "Ġwhat",
        -7.0171755078014275
      ],
      [
        "Ġour",
        -7.040274599983601
      ],
      [
        "Ġmake",
        -7.079765909642889
      ],
      [
        "ĠIn",
        -7.080288530000399
      ],
      [
        "/",
        -7.0855282621985545
      ],
      [
        "Ġsuch",
        -7.085734374763872
      ],
      [
        "c",
        -7.089680895342347
      ],
      [
        "Ġits",
        -7.09470729566517
      ],
      [
        "Ġwere",
        -7.103953818824795
      ],
      [
        "Ġmost",
        -7.1128106581381605
      ],
      [
        "Ġpeople",
        -7.146558468816073
      ],
      [
        "Ġbeen",
        -7.14981763456651
      ],
      [
        "Ġany",
        -7.167572752859687
      ],
      [
        "Ġhelp",
        -7.181682592954688
      ],
      [
        "Ġshould",
        -7.200093928182406
      ],
      [
        "p",
        -7.2022071775087095
      ],
      [
        "Ġwould",
        -7.211087259263358
      ],
      [
        "Ġget",
        -7.222360763289267
      ],
      [
        "Ġneed",
        -7.22437235858578
      ],
      [
        "Ġonly",
        -7.225606964725607
      ],
      [
        "Ġjust",
        -7.239055821715267
      ],
      [
        "Ġmany",
        -7.256548499409659
      ],
      [
        "Ġwho",
        -7.261677935514182
      ],
      [
        "Ġnew",
        -7.262006604731408
      ],
      [
        "Ġover",
        -7.285994166321094
      ],
      [
        ";",
        -7.28903946598777
      ],
      [
        "Ġtwo",
        -7.301666518597671
      ],
      [
        "l",
        -7.302729039043749
      ],
      [
        "Ġwell",
        -7.317748514452464
      ],
      [
        "g",
        -7.323795890364344
      ],
      [
        "b",
        -7.325902021636381
      ],
      [
        "Ġfirst",
        -7.3277893551070115
      ],
      [
        "in",
        -7.355126609751711
      ],
      [
        "Ġthrough",
        -7.356432989546505
      ],
      [
        "Ġway",
        -7.367458817752691
      ],
      [
        "Ġmy",
        -7.387547985385135
      ],
      [
        "S",
        -7.391517823189568
      ],
      [
        "Ġdifferent",
        -7.3938634199026225
      ],
      [
        "Ġbetween",
        -7.396577415920536
      ],
      [
        "Ġwork",
        -7.411154005676353
      ],
      [
        "he",
        -7.418067506616209
      ],
      [
        "Ġno",
        -7.424508142740544
      ],
      [
        "Ġwhere",
        -7.425300876640545
      ],
      [
        "Ġusing",
        -7.425687314101573
      ],
      [
        "D",
        -7.4360227385942
      ],
      [
        "Ġbecause",
        -7.445429784047237
      ],
      [
        "?Ċ",
        -7.453751162878316
      ],
      [
        "ĠIf",
        -7.469229058179085
      ],
      [
        "h",
        -7.469326070310586
      ],
      [
        "Ġcould",
        -7.480755131869365
      ],
      [
        "Ġvery",
        -7.496420670262499
      ],
      [
        "Ġeven",
        -7.512677769144275
      ],
      [
        "ĠThey",
        -7.5192896359291534
      ],
      [
        "Ġhigh",
        -7.531936087560277
      ],
      [
        "Ġsystem",
        -7.535019657705286
      ],
      [
        "Ġmuch",
        -7.551272502170738
      ],
      [
        "Ġeach",
        -7.552749936286453
      ],
      [
        "In",
        -7.563011019793196
      ],
      [
        "!",
        -7.566787760714963
      ],
      [
        "Ġimportant",
        -7.580962947279257
      ],
      [
        "Ġknow",
        -7.58641158052351
      ],
      [
        "Ġgood",
        -7.589004203995209
      ],
      [
        "?ĊĊ",
        -7.596344823276365
      ],
      [
        "Ġhad",
        -7.601557084118346
      ],
      [
        "Ġyears",
        -7.61944272780384
      ],
      [
        "ĠâĢĵ",
        -7.620219671182747
      ],
      [
        "Ġdoes",
        -7.620401123381367
      ],
      [
        "able",
        -7.628591179963541
      ],
      [
        "ĠYou",
        -7.62912190025164
      ],
      [
        "Ġhis",
        -7.631386555676492
      ],
      [
        "Ġwhile",
        -7.635351022459263
      ],
      [
        "Ġfood",
        -7.637135321225692
      ],
      [
        "on",
        -7.641710735899595
      ],
      [
        "Ġtake",
        -7.64262004537645
      ],
      [
        ").",
        -7.656932193913546
      ],
      [
        "Ġlong",
        -7.657654582310842
      ],
      [
        "Ġdon",
        -7.658228338424847
      ],
      [
        "Ġbeing",
        -7.677893892781603
      ],
      [
        "u",
        -7.67848736314299
      ],
      [
        "ĠC",
        -7.697003721435651
      ],
      [
        "Ġwant",
        -7.698347135300296
      ],
      [
        "Ġafter",
        -7.701327543804913
      ],
      [
        "k",
        -7.702294237880482
      ],
      [
        "Ġsee",
        -7.714222321724344
      ],
      [
        "Ġduring",
        -7.723664839346672
      ],
      [
        "Ġaround",
        -7.725917754253446
      ],
      [
        "or",
        -7.730811981481327
      ],
      [
        "Ġbefore",
        -7.733364328129756
      ],
      [
        "Ġsame",
        -7.735159566014449
      ],
      [
        "Ġthose",
        -7.766759131286664
      ],
      [
        "Ġhealth",
        -7.771278336318211
      ],
      [
        "al",
        -7.774846746715303
      ],
      [
        "Ġoften",
        -7.792236437569596
      ],
      [
        "Ġlife",
        -7.792307854531202
      ],
      [
        "Ġworld",
        -7.792854696776768
      ],
      [
        "Ġboth",
        -7.794998701571771
      ],
      [
        "Ġenergy",
        -7.801108930203286
      ],
      [
        "%",
        -7.801703888875746
      ],
      [
        "Ġdata",
        -7.802897699993659
      ],
      [
        "is",
        -7.804603698312331
      ],
      [
        "What",
        -7.807709546962995
      ],
      [
        "Ġbest",
        -7.815016026848642
      ],
      [
        "Ġback",
        -7.819132027738224
      ],
      [
        "Ġprocess",
        -7.821533090919617
      ],
      [
        "Ġfound",
        -7.826439704123766
      ],
      [
        "Ġbody",
        -7.82884858144072
      ],
      [
        "ve",
        -7.836764328599106
      ],
      [
        "Ġmade",
        -7.839367762354923
      ],
      [
        "ll",
        -7.840734983360242
      ],
      [
        "Ġpart",
        -7.854561055050027
      ],
      [
        "),",
        -7.855715205643739
      ],
      [
        "Ġdown",
        -7.877142853881518
      ],
      [
        "Ġright",
        -7.878157632048081
      ],
      [
        "Ġlight",
        -7.882409593081606
      ],
      [
        "Ġfind",
        -7.882445217327264
      ],
      [
        "Ġsmall",
        -7.885035027303997
      ],
      [
        "ĠFor",
        -7.887277419053595
      ],
      [
        "ĠWe",
        -7.88946596011467
      ],
      [
        "an",
        -7.892915024087282
      ],
      [
        "ĠB",
        -7.90092448332787
      ],
      [
        "Ġyear",
        -7.910874383045185
      ],
      [
        "Ġinformation",
        -7.915768325692957
      ],
      [
        "Ġday",
        -7.916651642120122
      ],
      [
        "T",
        -7.9183122856931565
      ],
      [
        "Ġnumber",
        -7.922489246298285
      ],
      [
        "Ġsaid",
        -7.927611108369042
      ],
      [
        "Ġspecies",
        -7.933627454051074
      ],
      [
        "This",
        -7.946328601284868
      ],
      [
        "Ġprovide",
        -7.951437936105584
      ],
      [
        "x",
        -7.953602520813449
      ],
      [
        ":Ċ",
        -7.963151531780282
      ],
      [
        "Ġmight",
        -7.968601222124823
      ],
      [
        "Ġgo",
        -7.971486132665456
      ],
      [
        "Ġus",
        -7.975367171221565
      ],
      [
        "v",
        -7.97828276934975
      ],
      [
        "Ġme",
        -7.979356734627125
      ],
      [
        "C",
        -7.979407141534077
      ],
      [
        "Ġhome",
        -7.988618387864607
      ],
      [
        "ĠTo",
        -7.993114562864642
      ],
      [
        "Ġpower",
        -7.995048546616221
      ],
      [
        "ĠThese",
        -7.996924307100368
      ],
      [
        "Ġnow",
        -8.001772168514242
      ],
      [
        "Ġbetter",
        -8.002784651317956
      ],
      [
        "Ġresearch",
        -8.010641155368587
      ],
      [
        "=",
        -8.018352628322424
      ],
      [
        "Ġwithout",
        -8.020471619875615
      ],
      [
        "Ġair",
        -8.023461947270903
      ],
      [
        "Ġchange",
        -8.023606352353227
      ],
      [
        "Ġher",
        -8.033618055686091
      ],
      [
        "Ġstill",
        -8.035219347614591
      ],
      [
        "Ġstudents",
        -8.036417112326045
      ],
      [
        "Ġthink",
        -8.03643736935927
      ],
      [
        "Ġexample",
        -8.037531350607352
      ],
      [
        "Ġown",
        -8.042690787981643
      ],
      [
        "If",
        -8.0431585942861
      ],
      [
        "Ġplant",
        -8.044027807218145
      ],
      [
        "Ġlook",
        -8.050526323723094
      ],
      [
        "Ġkeep",
        -8.052431591560472
      ],
      [
        "...",
        -8.05903051507839
      ],
      [
        "Ġincluding",
        -8.059877639449056
      ],
      [
        "Ġtype",
        -8.060160251907805
      ],
      [
        "Ġevery",
        -8.061923866508286
      ],
      [
        "Ġplants",
        -8.066860165513873
      ],
      [
        "Ġmaking",
        -8.068304449887751
      ],
      [
        "How",
        -8.073337555367397
      ],
      [
        "âĢĶ",
        -8.075970782063331
      ],
      [
        "Ġcreate",
        -8.0850832412653
      ],
      [
        "Ġstudy",
        -8.088395281640388
      ],
      [
        "Ġfew",
        -8.091681904734047
      ],
      [
        "Ġdog",
        -8.093212351865812
      ],
      [
        "Ġcommon",
        -8.095188395111565
      ],
      [
        "[",
        -8.097406445491886
      ],
      [
        "th",
        -8.097523354385709
      ],
      [
        "Ġoff",
        -8.101523702140373
      ],
      [
        "and",
        -8.110816884045509
      ],
      [
        "Ġknown",
        -8.115552662644237
      ],
      [
        "Ġless",
        -8.118001206581793
      ],
      [
        "Ġthree",
        -8.122422647019608
      ],
      [
        "Ġlarge",
        -8.12713444182762
      ],
      [
        "Ġcause",
        -8.128453429361368
      ],
      [
        ":ĊĊ",
        -8.129798602940795
      ],
      [
        "ĠBut",
        -8.13263910520665
      ],
      [
        "Ġlot",
        -8.145419876797874
      ],
      [
        "ĠAnd",
        -8.152836615753044
      ],
      [
        "Ġhuman",
        -8.15963149257521
      ],
      [
        "Ġchildren",
        -8.163764809224602
      ],
      [
        "Ġthings",
        -8.166980853064555
      ],
      [
        "Ġsure",
        -8.168084645892124
      ],
      [
        "Ġcontrol",
        -8.174217586112103
      ],
      [
        "Ġmust",
        -8.17565914399195
      ],
      [
        "Ġplace",
        -8.175782706103947
      ],
      [
        "Ġunder",
        -8.176177076616765
      ],
      [
        "Ġset",
        -8.179141954988312
      ],
      [
        "Ġgreat",
        -8.184170442132874
      ],
      [
        "ĠAs",
        -8.18737809210938
      ],
      [
        "ĠHowever",
        -8.188470685161203
      ],
      [
        "Ġcalled",
        -8.192309881118268
      ],
      [
        "Ġwithin",
        -8.19855526691703
      ],
      [
        "ĠSo",
        -8.203325031691138
      ],
      [
        "Ġexperience",
        -8.2097888957272
      ],
      [
        "Ġinclude",
        -8.21230408810168
      ],
      [
        "Ġcar",
        -8.220196125871576
      ],
      [
        "$",
        -8.221167454363796
      ],
      [
        "Ġwhy",
        -8.228475051161295
      ],
      [
        "w",
        -8.231878981582552
      ],
      [
        "Ġreally",
        -8.236782166244739
      ],
      [
        "Ġsomething",
        -8.239309823445003
      ],
      [
        "Ġpoint",
        -8.250798357017015
      ],
      [
        "ĠWhen",
        -8.257610819919815
      ],
      [
        "Ġdue",
        -8.259511587326958
      ],
      [
        "Ġfollowing",
        -8.259582615068352
      ],
      [
        "Ġend",
        -8.260968759805815
      ],
      [
        "B",
        -8.261177082622146
      ],
      [
        "Ġpossible",
        -8.26304483021356
      ],
      [
        "Ġanother",
        -8.26542459953727
      ],
      [
        "Ġform",
        -8.26650523443042
      ],
      [
        "the",
        -8.268588665113773
      ],
      [
        "Ġcome",
        -8.268996116189644
      ],
      [
        "Ġbecome",
        -8.272017239601695
      ],
      [
        "Ġgoing",
        -8.275910442477773
      ],
      [
        "Ġlow",
        -8.278217298750562
      ],
      [
        "Ġnatural",
        -8.280081275842006
      ],
      [
        "Ġlevel",
        -8.283073415383818
      ],
      [
        "Ġrange",
        -8.290298309746404
      ],
      [
        "ers",
        -8.290777355717015
      ],
      [
        "Ġhere",
        -8.29549820931463
      ],
      [
        "ĠHow",
        -8.296345461951987
      ],
      [
        "Ġstart",
        -8.302868458499272
      ],
      [
        "Ġvarious",
        -8.303839938076113
      ],
      [
        "Ġcells",
        -8.307856129225422
      ],
      [
        "Ġcare",
        -8.30831593559843
      ],
      [
        "Ġlittle",
        -8.31250580865991
      ],
      [
        "Ġalways",
        -8.314661353094628
      ],
      [
        "ĠThere",
        -8.315249938219356
      ],
      [
        "Ġspecific",
        -8.329394327452148
      ],
      [
        "Ġmeans",
        -8.330859811387395
      ],
      [
        "Ġspace",
        -8.334123880624922
      ],
      [
        "Ġsize",
        -8.334980577677374
      ],
      [
        "Ġtemperature",
        -8.336045905731014
      ],
      [
        "Ġper",
        -8.336182339566104
      ],
      [
        "Ġblood",
        -8.341228226561109
      ],
      [
        "&",
        -8.342392081469113
      ],
      [
        "Ġdid",
        -8.343203630501264
      ],
      [
        "Ġdesign",
        -8.3480666437568
      ],
      [
        "Ġsupport",
        -8.348234596915855
      ],
      [
        "O",
        -8.357994156151115
      ],
      [
        "Ġpotential",
        -8.364614447637868
      ],
      [
        "Ġsoil",
        -8.366315197469445
      ],
      [
        "Ġshe",
        -8.367164575705777
      ],
      [
        "Ġenvironment",
        -8.372236384346925
      ],
      [
        "Ġavailable",
        -8.3741391928921
      ],
      [
        "P",
        -8.3748656175358
      ],
      [
        "Ġdisease",
        -8.377192259724348
      ],
      [
        "Ġproblem",
        -8.380078186992591
      ],
      [
        "Ġensure",
        -8.381226170372424
      ],
      [
        "Ġheat",
        -8.385419603321273
      ],
      [
        "Ġlearn",
        -8.388131589744175
      ],
      [
        "Ġfeel",
        -8.389454645984165
      ],
      [
        "Ġseveral",
        -8.393637868111153
      ],
      [
        "Ġmain",
        -8.395448875799298
      ],
      [
        "Ġschool",
        -8.397991054524708
      ],
      [
        "Ġlearning",
        -8.399572654317874
      ],
      [
        "Ġgive",
        -8.402350784178717
      ],
      [
        "Ġrisk",
        -8.404815473606641
      ],
      [
        "Ġbased",
        -8.405840622508808
      ],
      [
        "Ġtypes",
        -8.407084406770974
      ],
      [
        "Ġneeds",
        -8.407337615820438
      ],
      [
        "Ġsurface",
        -8.413969752986727
      ],
      [
        "Ġdevelopment",
        -8.415745863427398
      ],
      [
        "W",
        -8.416205810891576
      ],
      [
        "Ġareas",
        -8.416405060802623
      ],
      [
        "M",
        -8.425291744339274
      ],
      [
        "Ġenough",
        -8.426275588776484
      ],
      [
        "Ġusually",
        -8.433037013321055
      ],
      [
        "Ġtext",
        -8.433300421201166
      ],
      [
        "ĠE",
        -8.433527188105899
      ],
      [
        "Ġquality",
        -8.434910686762205
      ],
      [
        "ĠWhich",
        -8.436734202141645
      ],
      [
        "to",
        -8.437639725590651
      ],
      [
        "Ġlast",
        -8.438291483491938
      ],
      [
        "us",
        -8.442054022899157
      ],
      [
        "Ġcolor",
        -8.44322516688277
      ],
      [
        "Ġanimals",
        -8.449387660638404
      ],
      [
        "Ġconditions",
        -8.45187541154909
      ],
      [
        "When",
        -8.456317497287701
      ],
      [
        "Ġside",
        -8.456535509055596
      ],
      [
        "ĠHe",
        -8.462949282974206
      ],
      [
        "Ġgroup",
        -8.463652794938522
      ],
      [
        "Ġorder",
        -8.46678677429912
      ],
      [
        "+",
        -8.469344986714558
      ],
      [
        "Ġtechnology",
        -8.47121645427138
      ],
      [
        "Ġunderstand",
        -8.47315958235869
      ],
      [
        "Ġsystems",
        -8.483647965279918
      ],
      [
        "Ġpressure",
        -8.484927013453845
      ],
      [
        "Ġmaterials",
        -8.493116973255406
      ],
      [
        "Ġsince",
        -8.494385770566376
      ],
      [
        "ĠP",
        -8.496897211320855
      ],
      [
        "Ġperson",
        -8.499524066593615
      ],
      [
        "Ġamount",
        -8.506428407753308
      ],
      [
        "Ġstate",
        -8.507736464097148
      ],
      [
        "]",
        -8.509175593226658
      ],
      [
        "Ġfish",
        -8.509441862045842
      ],
      [
        "Ġtogether",
        -8.510204328452822
      ],
      [
        "Ġimpact",
        -8.51044305476906
      ],
      [
        "Ġcase",
        -8.510704753279768
      ],
      [
        "Ġuntil",
        -8.511944175330749
      ],
      [
        "_",
        -8.51353094298252
      ],
      [
        "Ġnon",
        -8.52191349229883
      ],
      [
        "Ġcurrent",
        -8.522922418416837
      ],
      [
        "Ġoil",
        -8.523005975461903
      ],
      [
        "Ġmaterial",
        -8.524907485709123
      ],
      [
        "Ġsay",
        -8.525190771394444
      ],
      [
        "Ġresult",
        -8.526024209355432
      ],
      [
        "Ġincrease",
        -8.52878229082067
      ],
      [
        "Ġmakes",
        -8.529966827152146
      ],
      [
        "Ġlead",
        -8.531392038859584
      ],
      [
        "Ġfamily",
        -8.532448634485007
      ],
      [
        "You",
        -8.532766912929054
      ],
      [
        "Ġessential",
        -8.539431379791361
      ],
      [
        "it",
        -8.540487844259266
      ],
      [
        "Ġaway",
        -8.540574545289708
      ],
      [
        "Ġlevels",
        -8.540580573650118
      ],
      [
        "Ġproblems",
        -8.54493070097631
      ],
      [
        "Ġput",
        -8.549262789461613
      ],
      [
        "ĠF",
        -8.551383031086337
      ],
      [
        "Ġtop",
        -8.551591449593833
      ],
      [
        "Ġhaving",
        -8.552578797620194
      ],
      [
        "Ġsecond",
        -8.552622334620699
      ],
      [
        "Ġage",
        -8.553203188344147
      ],
      [
        "Ġkey",
        -8.553805086565372
      ],
      [
        "Ġtimes",
        -8.55563835889247
      ],
      [
        "Ġhand",
        -8.556028422595773
      ],
      [
        "Ġnext",
        -8.556596974189747
      ],
      [
        "ĠBy",
        -8.55698719412623
      ],
      [
        "ion",
        -8.557059500904494
      ],
      [
        "Ġfree",
        -8.558061398905824
      ],
      [
        "Ġprevent",
        -8.55946486306624
      ],
      [
        "Ġworking",
        -8.560569279743458
      ],
      [
        "Ġname",
        -8.560799421088651
      ],
      [
        "Ġweight",
        -8.566367928810628
      ],
      [
        "Ġresults",
        -8.567724645271255
      ],
      [
        "Ġreduce",
        -8.569502981948453
      ],
      [
        "ĠM",
        -8.574203327325359
      ],
      [
        "Ġtreatment",
        -8.578475653766686
      ],
      [
        "Ġproducts",
        -8.579014807064507
      ],
      [
        "Ġcourse",
        -8.579264463216942
      ],
      [
        "Ġvalue",
        -8.579551477950627
      ],
      [
        "ĠThat",
        -8.582723219587649
      ],
      [
        "Ġhigher",
        -8.585242127308616
      ],
      [
        "Ġearly",
        -8.586531118469981
      ],
      [
        "Ġteam",
        -8.587878019198465
      ],
      [
        "Ġeasy",
        -8.588191920960453
      ],
      [
        "Ġmethod",
        -8.590579180585205
      ],
      [
        "Ġgrowth",
        -8.59068803929035
      ],
      [
        "We",
        -8.591429530622202
      ],
      [
        "Ġlocal",
        -8.593685802175404
      ],
      [
        "Ġlikely",
        -8.597839801137367
      ],
      [
        "Ġun",
        -8.604988175332211
      ],
      [
        "Ġcomes",
        -8.605330128419457
      ],
      [
        "There",
        -8.606876437582628
      ],
      [
        "ĠR",
        -8.607355499724083
      ],
      [
        "Ġtest",
        -8.609175341024255
      ],
      [
        "Ġactually",
        -8.609329701363738
      ],
      [
        "Ġrole",
        -8.609863989255405
      ],
      [
        "Ġchild",
        -8.6098863210564
      ],
      [
        "Ġdays",
        -8.610551158172937
      ],
      [
        "Ġleast",
        -8.61268855734945
      ],
      [
        "âĢĻs",
        -8.613831998489507
      ],
      [
        "Ġfull",
        -8.6163601792641
      ],
      [
        "ĠUniversity",
        -8.616465301429184
      ],
      [
        "Ġdoesn",
        -8.616486275859488
      ],
      [
        "Ġopen",
        -8.616909114663908
      ],
      [
        "Ġline",
        -8.61752018942114
      ],
      [
        "Ġlower",
        -8.617974284596766
      ],
      [
        "Ġshow",
        -8.61858087554234
      ],
      [
        "Ġsimple",
        -8.618778889380003
      ],
      [
        "Ġhealthy",
        -8.620075357492023
      ],
      [
        "Ġprogram",
        -8.622697373142568
      ],
      [
        "z",
        -8.624134199057616
      ],
      [
        "Ġproject",
        -8.625815463708673
      ],
      [
        "Ġplay",
        -8.628186850374687
      ],
      [
        "*",
        -8.633405905214742
      ],
      [
        "Ġchanges",
        -8.63669755154279
      ],
      [
        "Ġcost",
        -8.642430936034172
      ],
      [
        "Ġfuture",
        -8.642959179890026
      ],
      [
        "Ġunique",
        -8.645727426213874
      ],
      [
        "To",
        -8.647364040595182
      ],
      [
        "Ġthing",
        -8.647682959528662
      ],
      [
        "Ġissues",
        -8.648732423338323
      ],
      [
        "Ġpresent",
        -8.65195750153962
      ],
      [
        "ness",
        -8.657708782479286
      ],
      [
        "Ġfield",
        -8.661034981856186
      ],
      [
        "Ġmodel",
        -8.661227026046907
      ],
      [
        "Ġalong",
        -8.661423794574334
      ],
      [
        "Ġproduction",
        -8.662103678446915
      ],
      [
        "Ġespecially",
        -8.662460085199319
      ],
      [
        "Ġlive",
        -8.664312744805901
      ],
      [
        "Ġcell",
        -8.666103108730267
      ],
      [
        "Ġgrow",
        -8.66785181402584
      ],
      [
        "Ġabove",
        -8.672620794055518
      ],
      [
        "Ġfunction",
        -8.672741827827553
      ],
      [
        "Ġarea",
        -8.67292703241905
      ],
      [
        "Ġacross",
        -8.673481941164562
      ],
      [
        "eat",
        -8.675969063461991
      ],
      [
        "Ġhard",
        -8.679548083480123
      ],
      [
        "Ġdamage",
        -8.683155233751044
      ],
      [
        "Ġadd",
        -8.684124756559495
      ],
      [
        "F",
        -8.684848907784538
      ],
      [
        ")Ċ",
        -8.68599488042865
      ],
      [
        "Ġdogs",
        -8.686538374881852
      ],
      [
        "Ġdone",
        -8.687460639085481
      ],
      [
        "Ġwhite",
        -8.688277047395218
      ],
      [
        "Ġcertain",
        -8.688371924655987
      ],
      [
        "Ġagainst",
        -8.688515210279759
      ],
      [
        "Ġeye",
        -8.690900396809083
      ],
      [
        "Ġsource",
        -8.693581268003939
      ],
      [
        "Ġgiven",
        -8.695467893854905
      ],
      [
        "ĠWith",
        -8.69702484730219
      ],
      [
        "Ġskin",
        -8.699399438710223
      ],
      [
        "Ġsocial",
        -8.703128964933693
      ],
      [
        "âĢĵ",
        -8.704384109597282
      ],
      [
        "Ġsingle",
        -8.705618597011416
      ],
      [
        "Ġnever",
        -8.709612835393456
      ],
      [
        "Ġpaper",
        -8.709708924357212
      ],
      [
        "For",
        -8.711124625295872
      ],
      [
        "E",
        -8.712584429395264
      ],
      [
        "Ġlet",
        -8.716006785959308
      ],
      [
        "Ġdiet",
        -8.723432598608861
      ],
      [
        "ation",
        -8.723896769298106
      ],
      [
        "Ġstep",
        -8.72472192917716
      ],
      [
        "ĠU",
        -8.728090794366032
      ],
      [
        "ĠG",
        -8.731025626872764
      ],
      [
        "Ġold",
        -8.731572642626878
      ],
      [
        "Ġbook",
        -8.732281445222807
      ],
      [
        "Ġtry",
        -8.734144732143722
      ],
      [
        "Ġphysical",
        -8.737840748154115
      ],
      [
        "Ġeffects",
        -8.739412030390344
      ],
      [
        "Ġimprove",
        -8.740426046903929
      ],
      [
        "Ġunderstanding",
        -8.744400009759213
      ],
      [
        "Ġbenefits",
        -8.746515471787095
      ],
      [
        "Ġsimilar",
        -8.748692385389749
      ],
      [
        "Ġreal",
        -8.75036804356832
      ],
      [
        "Ġfact",
        -8.750409388123925
      ],
      [
        "ĠSome",
        -8.750974668619733
      ],
      [
        "Ġconsider",
        -8.751093909857746
      ],
      [
        "ity",
        -8.751106987523462
      ],
      [
        "Ġlooking",
        -8.751339851887543
      ],
      [
        "Ġsignificant",
        -8.753242063836804
      ],
      [
        "Ġclimate",
        -8.75330385237729
      ],
      [
        "V",
        -8.754226004978607
      ],
      [
        "ĠH",
        -8.754595288447243
      ],
      [
        "Ġsays",
        -8.754899253291082
      ],
      [
        "Ġfar",
        -8.755823310790472
      ],
      [
        "Ġothers",
        -8.756119483017473
      ],
      [
        "Ġfactors",
        -8.757850859732258
      ],
      [
        "Ġproduce",
        -8.761214395697332
      ],
      [
        "Ġhead",
        -8.76127337845796
      ],
      [
        "ĠYour",
        -8.76374295128078
      ],
      [
        "Ġtraining",
        -8.763986850170951
      ],
      [
        "R",
        -8.764782604640077
      ],
      [
        "Ġshort",
        -8.768566082550374
      ],
      [
        "ĠNew",
        -8.768858462619864
      ],
      [
        "Ġways",
        -8.769281002154145
      ],
      [
        "Ġeither",
        -8.774849315956535
      ],
      [
        "Ġdesigned",
        -8.775462795255047
      ],
      [
        "Ġmillion",
        -8.776153347402856
      ],
      [
        "!ĊĊ",
        -8.777861318205616
      ],
      [
        "Ġanimal",
        -8.781176954933551
      ],
      [
        "Ġheart",
        -8.783519938248107
      ],
      [
        "K",
        -8.7864742114146
      ],
      [
        "Ġcomputer",
        -8.787465368272004
      ],
      [
        "Ġonce",
        -8.787993067676373
      ],
      [
        "G",
        -8.788893191846654
      ],
      [
        "Ġfurther",
        -8.788909974142662
      ],
      [
        "Ġspeed",
        -8.790719882138387
      ],
      [
        "Ġcat",
        -8.790787113147626
      ],
      [
        "Ġfour",
        -8.791035132450718
      ],
      [
        "Ġaccording",
        -8.791053956274233
      ],
      [
        "Ġaddition",
        -8.791610235898485
      ],
      [
        "Ġparts",
        -8.792961227840498
      ],
      [
        "Ġtoday",
        -8.793347376449612
      ],
      [
        "Ġmove",
        -8.793470942638432
      ],
      [
        "Ġscience",
        -8.79513911844323
      ],
      [
        "Ġground",
        -8.795281613226306
      ],
      [
        "Ġperformance",
        -8.796929157073993
      ],
      [
        "Ġread",
        -8.797869252992294
      ],
      [
        "Ġleft",
        -8.798019486048142
      ],
      [
        "ies",
        -8.802298916998245
      ],
      [
        "Ġoffer",
        -8.803294910515783
      ],
      [
        "Ġgame",
        -8.803520887831224
      ],
      [
        "Ġwhether",
        -8.803570406669532
      ],
      [
        "Ġeffective",
        -8.806144055667893
      ],
      [
        "Ġdifference",
        -8.807370209001888
      ],
      [
        "Ġgetting",
        -8.808962019158649
      ],
      [
        "Ġgas",
        -8.809021909371632
      ],
      [
        "Ġeffect",
        -8.811103652317225
      ],
      [
        "Ġhim",
        -8.812538234234141
      ],
      [
        "Ġproduct",
        -8.814822864461028
      ],
      [
        "Ġallows",
        -8.816308078171819
      ],
      [
        "N",
        -8.81676612544132
      ],
      [
        "Ġnecessary",
        -8.82031747641368
      ],
      [
        "Ġskills",
        -8.824096792764365
      ],
      [
        "Ġvariety",
        -8.824437208058965
      ],
      [
        "Ġaccess",
        -8.824509463852172
      ],
      [
        "Ġbelow",
        -8.824775620198137
      ],
      [
        "Ġindividual",
        -8.825183488348173
      ],
      [
        "Ġclean",
        -8.825270869221807
      ],
      [
        "Ġapproach",
        -8.829724550917263
      ],
      [
        "Ġimage",
        -8.83304800771565
      ],
      [
        "Ġloss",
        -8.833107154938041
      ],
      [
        "Ġquestion",
        -8.833587358909897
      ],
      [
        "ĠL",
        -8.833628165150252
      ],
      [
        "Ġability",
        -8.83424061882205
      ],
      [
        "Ġcontent",
        -8.836875657224345
      ],
      [
        ")ĊĊ",
        -8.836972997410246
      ],
      [
        "Ġavoid",
        -8.8373620018028
      ],
      [
        "Ġtree",
        -8.837706871080613
      ],
      [
        "ĠIs",
        -8.839015507225207
      ],
      [
        "Ġturn",
        -8.840241261704715
      ],
      [
        "Ġbig",
        -8.843051530000785
      ],
      [
        "Ġfocus",
        -8.843693182987767
      ],
      [
        "Ġallow",
        -8.84593194393275
      ],
      [
        "Ġhelps",
        -8.848214365731632
      ],
      [
        "Y",
        -8.849015835897472
      ],
      [
        "Ġalready",
        -8.849095665301473
      ],
      [
        "Ġrate",
        -8.8493586873463
      ],
      [
        "Ġblack",
        -8.849601848857947
      ],
      [
        "Ġlove",
        -8.850094861936817
      ],
      [
        "Ġbrain",
        -8.850409858542303
      ],
      [
        "Ġprovides",
        -8.851559770239152
      ],
      [
        "H",
        -8.852916915204295
      ],
      [
        "Ġhours",
        -8.853206985968113
      ],
      [
        "Ġdry",
        -8.853286341880382
      ],
      [
        "Ġcommunity",
        -8.856474731748513
      ],
      [
        "Ġsafe",
        -8.857261188764086
      ],
      [
        "Ġamong",
        -8.860091474487886
      ],
      [
        "Ġrun",
        -8.8611575902748
      ],
      [
        "Ġsafety",
        -8.861613850400687
      ],
      [
        "ĠAn",
        -8.862340520285105
      ],
      [
        "Ġhistory",
        -8.863102136445525
      ],
      [
        "Ġneeded",
        -8.86397505864296
      ],
      [
        "Ġreason",
        -8.864736582768177
      ],
      [
        "Ġdevelop",
        -8.867262466791182
      ],
      [
        "Ġkind",
        -8.868424491025824
      ],
      [
        "Ġrequire",
        -8.869823404319847
      ],
      [
        "Ġfeatures",
        -8.87109107406241
      ],
      [
        "Ġdoing",
        -8.87431512485019
      ],
      [
        "Ġthough",
        -8.874786485143636
      ],
      [
        "Ġindustry",
        -8.875318651125257
      ],
      [
        "Ġcarbon",
        -8.875474717135349
      ],
      [
        "Ġcheck",
        -8.877001639026043
      ],
      [
        "Ġbit",
        -8.877478393085996
      ],
      [
        "Ġsound",
        -8.88105070204823
      ],
      [
        "Ġinside",
        -8.881648327529204
      ],
      [
        "Ġpublic",
        -8.882714190786032
      ],
      [
        "Ġpain",
        -8.884819636231347
      ],
      [
        "ar",
        -8.886388720551595
      ],
      [
        "ĠOne",
        -8.886459328307087
      ],
      [
        "Ġstructure",
        -8.886813313972807
      ],
      [
        "ĠNo",
        -8.88814455514933
      ],
      [
        "Q",
        -8.888147271813846
      ],
      [
        "Ġarticle",
        -8.88858271371404
      ],
      [
        "le",
        -8.889093068563293
      ],
      [
        "Ġcontinue",
        -8.89104803737182
      ],
      [
        "Ġmean",
        -8.891169663507627
      ],
      [
        "Ġsymptoms",
        -8.892123753326482
      ],
      [
        "Ġknowledge",
        -8.892478106093712
      ],
      [
        "Ġuser",
        -8.892636038279269
      ],
      [
        "Ġseen",
        -8.893598435912192
      ],
      [
        "Ġrequired",
        -8.893808543951742
      ],
      [
        "Ġpopular",
        -8.894632076477864
      ],
      [
        "Ġgarden",
        -8.895899023983732
      ],
      [
        "Ġred",
        -8.896094699936869
      ],
      [
        "Ġmajor",
        -8.896255435663686
      ],
      [
        "Ġidea",
        -8.896279484377336
      ],
      [
        "Ġonline",
        -8.89774990692584
      ],
      [
        "Ġactivities",
        -8.899501583639982
      ],
      [
        "Ġleaves",
        -8.899569930601233
      ],
      [
        "ĠAI",
        -8.90085986111667
      ],
      [
        "Ġbuilding",
        -8.903691314766233
      ],
      [
        "ĠK",
        -8.90408188926417
      ],
      [
        "Ġlonger",
        -8.907602247573937
      ],
      [
        "ĠDo",
        -8.910836699977967
      ],
      [
        "ĠAmerican",
        -8.912276320949216
      ],
      [
        "!Ċ",
        -8.913671965772776
      ],
      [
        "Ġagain",
        -8.916119173622866
      ],
      [
        "Ġbusiness",
        -8.916952695404198
      ],
      [
        "Ġtools",
        -8.922284133182442
      ],
      [
        "Ġresearchers",
        -8.923729196435952
      ],
      [
        "Ġquestions",
        -8.927774145111199
      ],
      [
        "Ġwhole",
        -8.928002395236504
      ],
      [
        "Ġgreen",
        -8.928649900390928
      ],
      [
        "Ġactivity",
        -8.928756468909867
      ],
      [
        "Ġcompany",
        -8.930423164613801
      ],
      [
        "Ġmatter",
        -8.934506297542452
      ],
      [
        "Ġenvironmental",
        -8.935023297433347
      ],
      [
        "Ġtaking",
        -8.93938227706279
      ],
      [
        "Ġgeneral",
        -8.939450713281605
      ],
      [
        "Ġliving",
        -8.940163201354606
      ],
      [
        "Ġvideo",
        -8.941552365048132
      ],
      [
        "Ġsomeone",
        -8.942741643441602
      ],
      [
        "Ġmind",
        -8.943660419317942
      ],
      [
        "Ġnature",
        -8.945189673413394
      ],
      [
        "So",
        -8.946356043418893
      ],
      [
        "Ġmethods",
        -8.947400569685461
      ],
      [
        "Ġclass",
        -8.947617004257635
      ],
      [
        "Ġclose",
        -8.949856874340457
      ],
      [
        "L",
        -8.952329743668841
      ],
      [
        "Ġtypically",
        -8.952331615562805
      ],
      [
        "Ġeasily",
        -8.954804043309215
      ],
      [
        "Ġself",
        -8.956094119723593
      ],
      [
        "Ġperiod",
        -8.957574028446992
      ],
      [
        "man",
        -8.959130101323879
      ],
      [
        "Ġtell",
        -8.960000440048116
      ],
      [
        "Ġmonths",
        -8.96180995036332
      ],
      [
        "Ġever",
        -8.964315332117797
      ],
      [
        "Ġpost",
        -8.965890283512083
      ],
      [
        "Ġpractice",
        -8.968972684333739
      ],
      [
        "Ġindividuals",
        -8.969913529600332
      ],
      [
        "Ġroom",
        -8.972097863669896
      ],
      [
        "Ġhumans",
        -8.972241310944858
      ],
      [
        "Ġclear",
        -8.972293609539443
      ],
      [
        "Ġsolution",
        -8.972439685344066
      ],
      [
        "Ġanswer",
        -8.972583186560714
      ],
      [
        "Ġassociated",
        -8.973496868181734
      ],
      [
        "Ġgrowing",
        -8.973639904994998
      ],
      [
        "Ġtrees",
        -8.974808695598748
      ],
      [
        "Ġdevice",
        -8.975915241020678
      ],
      [
        "Ġaverage",
        -8.976549937197563
      ],
      [
        ".\"ĊĊ",
        -8.97741142690571
      ],
      [
        "Ġcancer",
        -8.97766732401895
      ],
      [
        "Ġmoney",
        -8.979639270807068
      ],
      [
        "Ġmedical",
        -8.980376844844068
      ],
      [
        "Ġetc",
        -8.981802843027026
      ],
      [
        "Ġmanagement",
        -8.981956818126298
      ],
      [
        "Ġmarket",
        -8.984263443882307
      ],
      [
        "Ġconsidered",
        -8.984852064586264
      ],
      [
        "Ġstrong",
        -8.985612687610068
      ],
      [
        "Ġpast",
        -8.987117224401166
      ],
      [
        "Ġoverall",
        -8.987938555409476
      ],
      [
        "Ġservice",
        -8.988853883311494
      ],
      [
        "Ġcold",
        -8.98890031499605
      ],
      [
        "Ġcrucial",
        -8.989891651829623
      ],
      [
        "Ġchoose",
        -8.991463556561877
      ],
      [
        "Ġminutes",
        -8.991842850127103
      ],
      [
        "Ġsense",
        -8.992995764452239
      ],
      [
        "Ġweek",
        -8.993808783426434
      ],
      [
        "Ġrather",
        -8.993977684411789
      ],
      [
        "Ġtechniques",
        -8.9945208355936
      ],
      [
        "Ġpositive",
        -8.99672349297561
      ],
      [
        "Ġdifficult",
        -8.99675960282814
      ],
      [
        "Ġcases",
        -8.997171749196818
      ],
      [
        "Ġhouse",
        -8.997384892101538
      ],
      [
        "Ġpopulation",
        -8.998549006555924
      ],
      [
        "Ġresources",
        -8.999850646496
      ],
      [
        "|",
        -9.000241486923091
      ],
      [
        "Ġbuild",
        -9.002780098751982
      ],
      [
        "ĠAt",
        -9.002973450884978
      ],
      [
        "Ġcomplex",
        -9.002985478310642
      ],
      [
        "Ġcreating",
        -9.008906087419376
      ],
      [
        "Ġcut",
        -9.009200917542763
      ],
      [
        "Ġplan",
        -9.0112833087778
      ],
      [
        "Ġprimary",
        -9.01183840400032
      ],
      [
        "Ġissue",
        -9.011856295205932
      ],
      [
        "Ġhot",
        -9.012460598048088
      ],
      [
        "Ġcondition",
        -9.012952904126196
      ],
      [
        "Ġpatients",
        -9.013197280436009
      ],
      [
        "Ġengine",
        -9.013354611988063
      ],
      [
        "Ġprotein",
        -9.015757091424907
      ],
      [
        "Ġbelieve",
        -9.015998399643063
      ],
      [
        "Ġhowever",
        -9.018338983886606
      ],
      [
        "-based",
        -9.019438448224385
      ],
      [
        "ĠV",
        -9.0195829513743
      ],
      [
        "Ġwomen",
        -9.020323383147357
      ],
      [
        ">",
        -9.021206485509165
      ],
      [
        "Ġcontact",
        -9.021591071560152
      ],
      [
        "Ġtraditional",
        -9.02198314488868
      ],
      [
        "Ġquickly",
        -9.022683259627968
      ],
      [
        "Ġthroughout",
        -9.024052659775034
      ],
      [
        "Ġyourself",
        -9.02587666061822
      ],
      [
        "Ġnear",
        -9.026279178632851
      ],
      [
        "Ġmultiple",
        -9.029486339879073
      ],
      [
        "Ġpet",
        -9.02988776029102
      ],
      [
        "âĢ¢",
        -9.030914203607942
      ],
      [
        "Ġremove",
        -9.032923385334756
      ],
      [
        "Ġoutside",
        -9.03379862377461
      ],
      [
        "ĠN",
        -9.034924327546795
      ],
      [
        "Ġprofessional",
        -9.035280034419737
      ],
      [
        "Ġyoung",
        -9.0374149843596
      ],
      [
        "Ġlayer",
        -9.037465054136248
      ],
      [
        "Ġstress",
        -9.041504922702297
      ],
      [
        "Ġmachine",
        -9.046139307140464
      ],
      [
        "Ġart",
        -9.048502817108217
      ],
      [
        "Ġshape",
        -9.049664582109363
      ],
      [
        "Ġsimply",
        -9.052237433494271
      ],
      [
        "Ġincreased",
        -9.052380742863669
      ],
      [
        "Ġprobably",
        -9.055645599785018
      ],
      [
        "ĠWhile",
        -9.056381089345434
      ],
      [
        "Ġlist",
        -9.0568582281216
      ],
      [
        "Ġdeveloped",
        -9.06034781110866
      ],
      [
        "Ġrelated",
        -9.061502418793706
      ],
      [
        ".\"Ċ",
        -9.062178369148308
      ],
      [
        "Ġspecial",
        -9.062843391507268
      ],
      [
        "Ġflow",
        -9.06330313011331
      ],
      [
        "Ġland",
        -9.065031848720462
      ],
      [
        "Ġcannot",
        -9.066559774489878
      ],
      [
        "Ġoptions",
        -9.067093166973512
      ],
      [
        "Ġnormal",
        -9.06789378247478
      ],
      [
        "Ġcreated",
        -9.070056145545504
      ],
      [
        "Ġfeet",
        -9.070463513593808
      ],
      [
        "Ġbirds",
        -9.070526759538955
      ],
      [
        "Ġtool",
        -9.070661157858511
      ],
      [
        "Ġstudies",
        -9.070916008860475
      ],
      [
        "Ġcall",
        -9.071181103738214
      ],
      [
        "Ġwaste",
        -9.072520836041145
      ],
      [
        "Ġhold",
        -9.077011989975302
      ],
      [
        "Ġwide",
        -9.077247789173036
      ],
      [
        "Ġbehavior",
        -9.079778233825415
      ],
      [
        "Ġparticular",
        -9.08015376150295
      ],
      [
        "Ġauthor",
        -9.08230701807508
      ],
      [
        "Ġalmost",
        -9.08316106333179
      ],
      [
        "Ġeducation",
        -9.08417458908994
      ],
      [
        "Ġwinter",
        -9.084954873689025
      ],
      [
        "Ġposition",
        -9.085369695312728
      ],
      [
        "Ġworks",
        -9.086113468053192
      ],
      [
        "Ġfuel",
        -9.086208792597146
      ],
      [
        "Ġdetermine",
        -9.08762364031019
      ],
      [
        "Ġprotect",
        -9.088534773505575
      ],
      [
        "Ġtotal",
        -9.089654305900236
      ],
      [
        "Ġmodern",
        -9.089722314263128
      ],
      [
        "One",
        -9.089903247974634
      ],
      [
        "Ġthought",
        -9.09179453855482
      ],
      [
        "ĠJ",
        -9.092081528383105
      ],
      [
        "ĠUnited",
        -9.092090563890368
      ],
      [
        "Ġincludes",
        -9.093058692841652
      ],
      [
        "Ġgot",
        -9.09316199407622
      ],
      [
        "Ġinstead",
        -9.095455820765675
      ],
      [
        "Ġsite",
        -9.095508213532142
      ],
      [
        "Ġattention",
        -9.09874823325447
      ],
      [
        "Ġfive",
        -9.099475626239611
      ],
      [
        "Ġhalf",
        -9.099637943027984
      ],
      [
        "Ġdeep",
        -9.100718062545392
      ],
      [
        "Ġelements",
        -9.10099730291286
      ],
      [
        "Ġlarger",
        -9.101645974762652
      ],
      [
        "Ġservices",
        -9.103294242625669
      ],
      [
        "Ġbasic",
        -9.109104573426436
      ],
      [
        "ĠAll",
        -9.109399941787194
      ],
      [
        "#",
        -9.110676529371847
      ],
      [
        "Ġwon",
        -9.111168044004694
      ],
      [
        "Ġchoice",
        -9.113396867701285
      ],
      [
        "Ġlater",
        -9.114444871565707
      ],
      [
        "Ġglobal",
        -9.116173558151884
      ],
      [
        "Ġpersonal",
        -9.11808472557994
      ],
      [
        "Ġmetal",
        -9.119408884724988
      ],
      [
        "Ġmaintain",
        -9.120822950964529
      ],
      [
        "ĠNational",
        -9.12139486296338
      ],
      [
        "Ġcompared",
        -9.122438027542668
      ],
      [
        "Ġchemical",
        -9.12266082247606
      ],
      [
        "âĢ¦",
        -9.123032184964266
      ],
      [
        "ĠDr",
        -9.124797411185702
      ],
      [
        "Ġscientists",
        -9.12497317507723
      ],
      [
        "ĠCan",
        -9.125925693959225
      ],
      [
        "j",
        -9.126085383608077
      ],
      [
        "Ġface",
        -9.126628480592348
      ],
      [
        ").Ċ",
        -9.126890468290732
      ],
      [
        "Ġcode",
        -9.129873057489151
      ],
      [
        "Ġshown",
        -9.130286920507624
      ],
      [
        "Ġsea",
        -9.131570158133494
      ],
      [
        "Ġsometimes",
        -9.132622998463203
      ],
      [
        "Ġproviding",
        -9.13449857777046
      ],
      [
        "Ġapplications",
        -9.135542921510089
      ],
      [
        "Ġanything",
        -9.136376039110331
      ],
      [
        "Ġyet",
        -9.136493233059523
      ],
      [
        "Ġshare",
        -9.136907399851966
      ],
      [
        "Ġeverything",
        -9.137577681050194
      ],
      [
        "Ġstay",
        -9.137780873226925
      ],
      [
        "Ġeyes",
        -9.139874290613934
      ],
      [
        "um",
        -9.14076767629835
      ],
      [
        "Ġtrue",
        -9.140813540685915
      ],
      [
        "Ġcomplete",
        -9.141237107166214
      ],
      [
        "Ġcauses",
        -9.141506458063226
      ],
      [
        "Ġbattery",
        -9.142085242254316
      ],
      [
        "Ġpercent",
        -9.144450090113573
      ],
      [
        "Ġregular",
        -9.145678097808675
      ],
      [
        "Ġweather",
        -9.147808989899524
      ],
      [
        "Ġaffect",
        -9.148415536560965
      ],
      [
        "Ġcountry",
        -9.149071268268123
      ],
      [
        "Ġshows",
        -9.15110923835308
      ],
      [
        "Ġadditional",
        -9.152036762603602
      ],
      [
        "Ġtakes",
        -9.153335899620236
      ],
      [
        "Ġcaused",
        -9.15362473327562
      ],
      [
        "Ġlanguage",
        -9.15410544233976
      ],
      [
        "Ġquite",
        -9.154407839784374
      ],
      [
        "Ġpre",
        -9.154527599139302
      ],
      [
        "Ġgenerally",
        -9.1549562980487
      ],
      [
        "ĠRe",
        -9.158058504950477
      ],
      [
        "Ġequipment",
        -9.16141964875216
      ],
      [
        "ĠHere",
        -9.161464290542622
      ],
      [
        "Ġtaken",
        -9.161583200051483
      ],
      [
        "Ġbacteria",
        -9.162227989751504
      ],
      [
        "Ġcomponents",
        -9.163384386797732
      ],
      [
        "Ġbad",
        -9.164906287665598
      ],
      [
        "Ġstop",
        -9.165027364215064
      ],
      [
        "Ġsoftware",
        -9.165742395888406
      ],
      [
        "Ġanalysis",
        -9.166458672003207
      ],
      [
        "Ġsummer",
        -9.16861776659013
      ],
      [
        "Ġdevices",
        -9.16967094882341
      ],
      [
        "Ġdigital",
        -9.169701295568652
      ],
      [
        "Ġago",
        -9.17049840267198
      ],
      [
        "Ġterm",
        -9.172408212525282
      ],
      [
        "Ġstarted",
        -9.173780074563512
      ],
      [
        "Ġoffers",
        -9.176881863160682
      ],
      [
        "Ġenjoy",
        -9.177652942554165
      ],
      [
        "Ġbring",
        -9.181198702302355
      ],
      [
        "Ġperfect",
        -9.18259299349508
      ],
      [
        "Why",
        -9.18266760457115
      ],
      [
        "Ġforce",
        -9.182932297437054
      ],
      [
        "Ġreading",
        -9.184533335299708
      ],
      [
        "Ġterms",
        -9.185249740020575
      ],
      [
        "ĠEarth",
        -9.186070047436123
      ],
      [
        "Ġtrying",
        -9.187589965926382
      ],
      [
        "Ġitself",
        -9.188435240691184
      ],
      [
        "ĠShe",
        -9.191970330701349
      ],
      [
        "ĠOn",
        -9.19203697044026
      ],
      [
        "Ġthemselves",
        -9.192522383602746
      ],
      [
        "Ġtreat",
        -9.193183882433235
      ],
      [
        "Ġpurpose",
        -9.194445157536387
      ],
      [
        "Ġwarm",
        -9.194708072211142
      ],
      [
        "Ġresponse",
        -9.195782362597509
      ],
      [
        "mm",
        -9.19592535186649
      ],
      [
        "ch",
        -9.197873836692406
      ],
      [
        "Ġfoods",
        -9.19890485158312
      ],
      [
        "Ġprovided",
        -9.198918227658863
      ],
      [
        "Ġproperties",
        -9.201608763838705
      ],
      [
        "Ġkids",
        -9.204902116652638
      ],
      [
        "Ġfollow",
        -9.205170681415323
      ],
      [
        "Ġplastic",
        -9.206254442333304
      ],
      [
        "Ġsignal",
        -9.2069013976692
      ],
      [
        "Ġaction",
        -9.207616513947093
      ],
      [
        "Ġstandard",
        -9.208759771963669
      ],
      [
        "Ġlength",
        -9.209278585577458
      ],
      [
        "Ġnight",
        -9.209630478138552
      ],
      [
        "Ġmentioned",
        -9.210904968003202
      ],
      [
        "Ġdaily",
        -9.2115528043913
      ],
      [
        "ate",
        -9.212005579856568
      ],
      [
        "ĠDNA",
        -9.213518688004832
      ],
      [
        "est",
        -9.215183976722868
      ],
      [
        "Ġwords",
        -9.215327882156162
      ],
      [
        "Ġmass",
        -9.216617663016605
      ],
      [
        "Ġmeat",
        -9.21752553539625
      ],
      [
        "Ġcover",
        -9.218739119258258
      ],
      [
        "Ġseason",
        -9.219108780191174
      ],
      [
        "Ġproper",
        -9.219120916749128
      ],
      [
        "Ġgroups",
        -9.220280936086906
      ],
      [
        "Ġacid",
        -9.22114975329349
      ],
      [
        "Ġoption",
        -9.22181431162538
      ],
      [
        "Ġregion",
        -9.2221185685213
      ],
      [
        "Ġsmaller",
        -9.224471550336949
      ],
      [
        "Ġevidence",
        -9.22483779728711
      ],
      [
        "But",
        -9.22563849976733
      ],
      [
        "Ġwood",
        -9.225901000118608
      ],
      [
        "Ġadded",
        -9.22725002936446
      ],
      [
        "Ġbehind",
        -9.227302214167338
      ],
      [
        "Ġfront",
        -9.22791973330507
      ],
      [
        "Ġsugar",
        -9.227936825453584
      ],
      [
        "Ġfun",
        -9.228356068539853
      ],
      [
        "Ġparticularly",
        -9.2299092829951
      ],
      [
        "Ġeating",
        -9.23078211459112
      ],
      [
        "Ġreach",
        -9.231129128765946
      ],
      [
        "Ġjob",
        -9.232008777605332
      ],
      [
        "Ġexplore",
        -9.233458129865928
      ],
      [
        "ĠStates",
        -9.235609217951485
      ],
      [
        "Ġsteps",
        -9.239829030841337
      ],
      [
        "Ġvehicle",
        -9.239886350618878
      ],
      [
        "Ġrequires",
        -9.241059619309612
      ],
      [
        "Ġstudent",
        -9.241237329477084
      ],
      [
        "Ġuses",
        -9.242046637644137
      ],
      [
        "Ġice",
        -9.244634072143128
      ],
      [
        "Ġdirectly",
        -9.247370262311536
      ],
      [
        "Ġsleep",
        -9.248614768768125
      ],
      [
        "Ġfall",
        -9.250496638155235
      ],
      [
        "--",
        -9.251449898058866
      ],
      [
        "Ġmilk",
        -9.253302435154252
      ],
      [
        "ĠAfter",
        -9.254694618888909
      ],
      [
        "Ġguide",
        -9.25490934084173
      ],
      [
        "Ġapplication",
        -9.255426994746536
      ],
      [
        "Ġenhance",
        -9.256295245114073
      ],
      [
        "Ġparents",
        -9.257931296623523
      ],
      [
        "Ġleading",
        -9.260005644449148
      ],
      [
        "Ġinvolved",
        -9.260203086983791
      ],
      [
        "Ġtowards",
        -9.2603250273694
      ],
      [
        "Ġhighly",
        -9.260929395336854
      ],
      [
        "Ġstory",
        -9.263277590422035
      ],
      [
        "Ġchance",
        -9.266336235911988
      ],
      [
        "Ġentire",
        -9.266831057569824
      ],
      [
        "Ġexercise",
        -9.268160241174298
      ],
      [
        "Ġblue",
        -9.268699065211806
      ],
      [
        "Ġgenetic",
        -9.270727150996318
      ],
      [
        "Ġmeet",
        -9.272800022809756
      ],
      [
        "Ġobject",
        -9.27431938487758
      ],
      [
        "Ġfast",
        -9.274841169461174
      ],
      [
        "Ġeveryone",
        -9.274902149382136
      ],
      [
        "Ġbase",
        -9.275474870363077
      ],
      [
        ").ĊĊ",
        -9.275932238994798
      ],
      [
        "Ġfresh",
        -9.27593950331887
      ],
      [
        "Ġproduced",
        -9.277794765712718
      ],
      [
        "Ġsun",
        -9.278393228018391
      ],
      [
        "Ġrest",
        -9.27853823453009
      ],
      [
        "Ġteeth",
        -9.27926294713121
      ],
      [
        "X",
        -9.279801119385953
      ],
      [
        "Ġidentify",
        -9.280870796557084
      ],
      [
        "ĠâĢľ",
        -9.28196882790839
      ],
      [
        "Ġact",
        -9.28348464627946
      ],
      [
        "Ġgoal",
        -9.285583050701748
      ],
      [
        "Ġword",
        -9.286183977124349
      ],
      [
        "Ġview",
        -9.287385527210022
      ],
      [
        "Ġfit",
        -9.289623323262193
      ],
      [
        "J",
        -9.290043312773497
      ],
      [
        "Ġdiseases",
        -9.290369683693388
      ],
      [
        "Ġsolar",
        -9.292422543304424
      ],
      [
        "Ġal",
        -9.292677273824127
      ],
      [
        "Ġstore",
        -9.293729216708744
      ],
      [
        "Ġunit",
        -9.296490911852027
      ],
      [
        "Ġwebsite",
        -9.29726728207162
      ],
      [
        "Ġdidn",
        -9.29866636740832
      ],
      [
        "Ġbalance",
        -9.299120576762393
      ],
      [
        "Ġbenefit",
        -9.299928898339797
      ],
      [
        "less",
        -9.299947750183394
      ],
      [
        "Ġweeks",
        -9.300374790872704
      ],
      [
        "Ġeasier",
        -9.300448450871055
      ],
      [
        "Ġrecommended",
        -9.30076892228975
      ],
      [
        "Ġcats",
        -9.301005175129628
      ],
      [
        "Ġelectric",
        -9.302662007356156
      ],
      [
        "Ġrecent",
        -9.302850358074554
      ],
      [
        "Ġtend",
        -9.306667529012826
      ],
      [
        "Ġextra",
        -9.306989379028169
      ],
      [
        "Ġreport",
        -9.307330602288232
      ],
      [
        "Ġeggs",
        -9.307937434601952
      ],
      [
        "Ġmodels",
        -9.31100560755558
      ],
      [
        "Ġcolors",
        -9.312203486979463
      ],
      [
        "Ġask",
        -9.31269292266406
      ],
      [
        "be",
        -9.313317408186268
      ],
      [
        "Ġpoints",
        -9.315309496836177
      ],
      [
        "Ġoccur",
        -9.316426158701075
      ],
      [
        "Ġbuy",
        -9.316992405433965
      ],
      [
        "Ġcountries",
        -9.317118509040869
      ],
      [
        "Ġmovement",
        -9.319278068641706
      ],
      [
        "Ġitems",
        -9.321142653553938
      ],
      [
        "Ġsources",
        -9.321369081695682
      ],
      [
        "ĠScience",
        -9.322209172677194
      ],
      [
        "Ġprocesses",
        -9.32377281089693
      ],
      [
        "Ġsave",
        -9.32446332790591
      ],
      [
        "Ġtips",
        -9.325102834119468
      ],
      [
        "Ġwear",
        -9.325218361865966
      ],
      [
        "Ġcontribute",
        -9.325237956750552
      ],
      [
        "âĢĻ",
        -9.326011555130965
      ],
      [
        "Ġimages",
        -9.326431934161924
      ],
      [
        "Ġevent",
        -9.326628280195752
      ],
      [
        "Ġstyle",
        -9.326909649978845
      ],
      [
        "Ġrunning",
        -9.328343272690857
      ],
      [
        "Ġco",
        -9.329166541908108
      ],
      [
        "Ġevents",
        -9.329766846027976
      ],
      [
        "Ġcompletely",
        -9.330452906354118
      ],
      [
        "Ġpatient",
        -9.331144364089878
      ],
      [
        "ĠUS",
        -9.331597293379184
      ],
      [
        "Step",
        -9.333433378051684
      ],
      [
        "Ġlives",
        -9.334036484860052
      ],
      [
        "Ġgreater",
        -9.33554008158643
      ],
      [
        "Ġserve",
        -9.3360510174572
      ],
      [
        "Ġpiece",
        -9.33632269819756
      ],
      [
        "Ġmedia",
        -9.336769302443768
      ],
      [
        "ĠX",
        -9.337008567400368
      ],
      [
        "ter",
        -9.337952864599904
      ],
      [
        "Ġuseful",
        -9.33824807150536
      ],
      [
        "Ġspot",
        -9.33919005002535
      ],
      [
        "Ġcontain",
        -9.341575996638486
      ],
      [
        "Ġfruit",
        -9.342472452516622
      ],
      [
        "ĠAmerica",
        -9.342667471660032
      ],
      [
        "Ġsupply",
        -9.343388190868035
      ],
      [
        "Ġprice",
        -9.344164453588224
      ],
      [
        "Ġcamera",
        -9.344342243633312
      ],
      [
        ".S",
        -9.345218636924471
      ],
      [
        "-to",
        -9.346778156611254
      ],
      [
        "Ġcommunication",
        -9.347040162477676
      ],
      [
        "Ġactive",
        -9.347913476256824
      ],
      [
        "Ġseeds",
        -9.348130981113624
      ],
      [
        "Ġflowers",
        -9.348678416433202
      ],
      [
        "ĠYes",
        -9.349006606365569
      ],
      [
        "Ġproperly",
        -9.352035165867722
      ],
      [
        "Ġcool",
        -9.35391362642754
      ],
      [
        "Ġlocation",
        -9.354948206164538
      ],
      [
        "Ġcorrect",
        -9.356240856202316
      ],
      [
        "Can",
        -9.35720221609881
      ],
      [
        "Ġseries",
        -9.358959752292549
      ],
      [
        "Ġleave",
        -9.361859285774772
      ],
      [
        "Ġorganic",
        -9.36537683910069
      ],
      [
        "ive",
        -9.367222265937388
      ],
      [
        "\\",
        -9.367898925798295
      ],
      [
        "ĠNorth",
        -9.36804227442107
      ],
      [
        "Ġspring",
        -9.368305972086633
      ],
      [
        "Ġfeed",
        -9.370635477020135
      ],
      [
        "Ġaddress",
        -9.370984992780452
      ],
      [
        "Ġefficiency",
        -9.37206970126122
      ],
      [
        "Ġoutput",
        -9.372916514702506
      ],
      [
        "Ġnegative",
        -9.373581056019274
      ],
      [
        "depending",
        -9.373843508305724
      ],
      [
        "Ġgoes",
        -9.37390574086412
      ],
      [
        "Ġtalk",
        -9.37506417211595
      ],
      [
        "Ġscientific",
        -9.37507488293704
      ],
      [
        "Ġmoving",
        -9.376132061242682
      ],
      [
        "Ġpay",
        -9.376573880502042
      ],
      [
        "Ġhair",
        -9.376783511928762
      ],
      [
        "Ġprotection",
        -9.376812473684176
      ],
      [
        "ur",
        -9.377185259052212
      ],
      [
        "Ġcritical",
        -9.378474035673378
      ],
      [
        "Ġmembers",
        -9.378999241494263
      ],
      [
        "While",
        -9.380210778074655
      ],
      [
        "...ĊĊ",
        -9.380252768857652
      ],
      [
        "Ġlines",
        -9.380712736488077
      ],
      [
        "Ġbird",
        -9.381299108188802
      ],
      [
        "Ġchallenges",
        -9.382193141660562
      ],
      [
        "Ġachieve",
        -9.38220964662719
      ],
      [
        "Ġtravel",
        -9.383361685659542
      ],
      [
        "ĠMost",
        -9.384400744303637
      ],
      [
        "Ġgovernment",
        -9.385010835713606
      ],
      [
        "Ġbuilt",
        -9.387581595922056
      ],
      [
        "Ġcompanies",
        -9.387613024195783
      ],
      [
        "Ġwind",
        -9.391339492116666
      ],
      [
        "An",
        -9.391709473318716
      ],
      [
        "Ġtable",
        -9.392091491808358
      ],
      [
        "Ġappropriate",
        -9.392137821356377
      ],
      [
        "Ġmemory",
        -9.392205028163836
      ],
      [
        "Ġbreak",
        -9.392469370530137
      ],
      [
        "Ġtheory",
        -9.393111812493752
      ],
      [
        "Ġfire",
        -9.393380835277403
      ],
      [
        "Ġtemperatures",
        -9.393691149123969
      ],
      [
        "Ġcontains",
        -9.39482620015087
      ],
      [
        "ĠUse",
        -9.39566356828009
      ],
      [
        "Ġdistance",
        -9.39627150969882
      ],
      [
        "By",
        -9.400814134085598
      ],
      [
        "ĠFrom",
        -9.401740981397872
      ],
      [
        "Ġnetwork",
        -9.402902062707186
      ],
      [
        "Ġdeveloping",
        -9.403563547118036
      ],
      [
        "Ġpatterns",
        -9.404551392769744
      ],
      [
        "Ġpage",
        -9.40551719001967
      ],
      [
        "Ġremember",
        -9.40593972667717
      ],
      [
        "Ġallowing",
        -9.406468323855574
      ],
      [
        "ĠBe",
        -9.407131099467492
      ],
      [
        "Ġsub",
        -9.40829971811089
      ],
      [
        "for",
        -9.408499210304145
      ],
      [
        "Ġtaste",
        -9.410624265421664
      ],
      [
        "Ġmental",
        -9.411620773792553
      ],
      [
        "Ġlimited",
        -9.413437218771868
      ],
      [
        "Ġseem",
        -9.413438677834696
      ],
      [
        "Ġlack",
        -9.413479982789166
      ],
      [
        "ĠHealth",
        -9.41485485117921
      ],
      [
        "Ġvalues",
        -9.415326837222098
      ],
      [
        "Ġresistance",
        -9.41569308485112
      ],
      [
        "Ġcommonly",
        -9.415818880612717
      ],
      [
        "Ġusers",
        -9.416248179270116
      ],
      [
        "Ġsearch",
        -9.418383092805149
      ],
      [
        "Ġspread",
        -9.419779078802206
      ],
      [
        "Ġnumbers",
        -9.420946065082004
      ],
      [
        "Ġbottom",
        -9.421394238976315
      ],
      [
        "Ġmaintenance",
        -9.421918598470343
      ],
      [
        "Ġoriginal",
        -9.423107921193257
      ],
      [
        "ling",
        -9.423204807314464
      ],
      [
        "Ġinfection",
        -9.42323420402466
      ],
      [
        "Ġimportance",
        -9.423796223203752
      ],
      [
        "These",
        -9.423851478961096
      ],
      [
        "ĠMy",
        -9.4251937263476
      ],
      [
        "Ġfile",
        -9.425586467988426
      ],
      [
        "Ġprograms",
        -9.42644171216222
      ],
      [
        "Ġhappens",
        -9.4279918224775
      ],
      [
        "Ġprojects",
        -9.428674822659811
      ],
      [
        "Ġseems",
        -9.428863691224324
      ],
      [
        "Ġcenter",
        -9.42895132741776
      ],
      [
        "Ġbegin",
        -9.430305368653425
      ],
      [
        "Ġinterest",
        -9.430799760678592
      ],
      [
        "ĠSchool",
        -9.431331321719028
      ],
      [
        "Ġstrength",
        -9.431425474112595
      ],
      [
        "Ġpretty",
        -9.433524533497078
      ],
      [
        "Ġcame",
        -9.433846339695815
      ],
      [
        "Ġsubject",
        -9.433944139347894
      ],
      [
        "Ġfat",
        -9.434622900501369
      ],
      [
        "Ġvision",
        -9.43510807275539
      ],
      [
        "Ġdirect",
        -9.43529619135446
      ],
      [
        "Ġcosts",
        -9.43591905132477
      ],
      [
        "Ġreasons",
        -9.43625737291922
      ],
      [
        "Ġbaby",
        -9.436430824019784
      ],
      [
        "Ġfine",
        -9.437107081100828
      ],
      [
        "Ġsuccess",
        -9.43748876781827
      ],
      [
        "Ġpublished",
        -9.439085973088238
      ],
      [
        "me",
        -9.43938222306644
      ],
      [
        "Ġslow",
        -9.439578544816404
      ],
      [
        "Ġdeal",
        -9.439753577742351
      ],
      [
        "Ġman",
        -9.440673353243756
      ],
      [
        "Ġwriting",
        -9.441206141180585
      ],
      [
        "Ġcooking",
        -9.441998909553394
      ],
      [
        "ĠResearch",
        -9.4421295801702
      ],
      [
        "Ġstem",
        -9.44376084114812
      ],
      [
        "ĠMany",
        -9.444032514112733
      ],
      [
        "Ġideal",
        -9.444033594678066
      ],
      [
        "Ġdrive",
        -9.444067639137598
      ],
      [
        "Ġwild",
        -9.444116499814154
      ],
      [
        "Ġhands",
        -9.444621951010046
      ],
      [
        "Ġupon",
        -9.445307894945744
      ],
      [
        "Do",
        -9.445778297948165
      ],
      [
        "Ġdark",
        -9.445853631515378
      ],
      [
        "ĠWorld",
        -9.44672515083733
      ],
      [
        "Ġdirection",
        -9.44677694436144
      ],
      [
        "Ġsigns",
        -9.449656700481022
      ],
      [
        "up",
        -9.450406547925684
      ],
      [
        "Ġelectrical",
        -9.451095036250669
      ],
      [
        "of",
        -9.453804540420531
      ],
      [
        "ĠOf",
        -9.45382118401671
      ],
      [
        "Z",
        -9.455281177759684
      ],
      [
        "Ġefficient",
        -9.455614806361895
      ],
      [
        "Ġforms",
        -9.455992843299189
      ],
      [
        "Ġcycle",
        -9.458165717316136
      ],
      [
        "Ġsection",
        -9.459127936341392
      ],
      [
        "Ġhope",
        -9.460358372196527
      ],
      [
        "Ġmeasure",
        -9.46438045576938
      ],
      [
        "Ġbox",
        -9.467081190306228
      ],
      [
        "Ġcity",
        -9.467205891407756
      ],
      [
        "Ġobjects",
        -9.467291612233783
      ],
      [
        "Ġelse",
        -9.468408395265316
      ],
      [
        "Ġstage",
        -9.468666041733648
      ],
      [
        "Ġfinal",
        -9.47030407376447
      ],
      [
        "Ġsustainable",
        -9.473782445851484
      ],
      [
        "age",
        -9.474405256926048
      ],
      [
        "Ġsix",
        -9.475418498306764
      ],
      [
        "Ġready",
        -9.475847744251512
      ],
      [
        "Ġincreasing",
        -9.478048955850264
      ],
      [
        "Ġhappen",
        -9.478231669796608
      ],
      [
        "ally",
        -9.479509102447215
      ],
      [
        "Ġreducing",
        -9.479856301355554
      ],
      [
        "Ġhearing",
        -9.481664274067091
      ],
      [
        "Ġimmune",
        -9.482186170019482
      ],
      [
        "Ġideas",
        -9.48258248538365
      ],
      [
        "Ġinput",
        -9.482919063814562
      ],
      [
        "And",
        -9.483424498168558
      ],
      [
        "Ġcleaning",
        -9.483942936680712
      ],
      [
        "Ġmoment",
        -9.484646430774731
      ],
      [
        "ĠSouth",
        -9.48470331341144
      ],
      [
        "Ġcircuit",
        -9.486014393803025
      ],
      [
        "Ġpromote",
        -9.48625956662858
      ],
      [
        "Ġmusic",
        -9.486462421199704
      ],
      [
        "Ġinvolves",
        -9.487335604566992
      ],
      [
        "Ġpractices",
        -9.48740467296914
      ],
      [
        "Ġfactor",
        -9.489533474573877
      ],
      [
        "Ġtarget",
        -9.489800934503196
      ],
      [
        "ring",
        -9.489938601524896
      ],
      [
        "Ġresponsible",
        -9.491619262009712
      ],
      [
        "Ġstates",
        -9.49215277678702
      ],
      [
        "ĠNot",
        -9.495065292222469
      ],
      [
        "Ġfeature",
        -9.4953081104381
      ],
      [
        "ary",
        -9.496154463593134
      ],
      [
        "Ġsuitable",
        -9.49646436260979
      ],
      [
        "Ġtesting",
        -9.497359204684606
      ],
      [
        "Ġoxygen",
        -9.49925631174222
      ],
      [
        "Ġconstruction",
        -9.501672581445998
      ],
      [
        "ensuring",
        -9.50269351120195
      ],
      [
        "Ġrequirements",
        -9.502759920205726
      ],
      [
        "ĠWhy",
        -9.503489293670984
      ],
      [
        "Ġstorage",
        -9.503707767587768
      ],
      [
        "Ġlate",
        -9.50449631729052
      ],
      [
        "Ġpattern",
        -9.5054595078586
      ],
      [
        "Ġthinking",
        -9.506144896744846
      ],
      [
        "Ġbecomes",
        -9.506429728180342
      ],
      [
        "Ġphase",
        -9.506934068616063
      ],
      [
        "Ġsignificantly",
        -9.508265478904384
      ],
      [
        "ul",
        -9.50861012892286
      ],
      [
        "Ġappear",
        -9.508931015072658
      ],
      [
        "Ġthird",
        -9.510558480440864
      ],
      [
        "Ġnoise",
        -9.511155508833715
      ],
      [
        "Ġfriends",
        -9.51132528479663
      ],
      [
        "Ġtechnique",
        -9.511600045231232
      ],
      [
        "Ġglass",
        -9.514427822901084
      ],
      [
        "Ġrelationship",
        -9.516517678209418
      ],
      [
        "Ġnothing",
        -9.518445528971728
      ],
      [
        "Ġsituation",
        -9.518541353188128
      ],
      [
        "Ġreaction",
        -9.518856099605308
      ],
      [
        "Ġexposure",
        -9.519314926449908
      ],
      [
        "<",
        -9.520349474860865
      ],
      [
        "They",
        -9.522230598747662
      ],
      [
        "Ġroot",
        -9.52250981411705
      ],
      [
        "Ġaccount",
        -9.522627471288011
      ],
      [
        "ment",
        -9.52414264204638
      ],
      [
        "Ġexist",
        -9.525817627440356
      ],
      [
        "Ġsolutions",
        -9.527334528880742
      ],
      [
        "Ġwall",
        -9.527804976488907
      ],
      [
        "ĠOr",
        -9.529493886950322
      ],
      [
        "Ġstarting",
        -9.529708363526758
      ],
      [
        "Ġtook",
        -9.530141870539303
      ],
      [
        "Ġpowerful",
        -9.530382262147878
      ],
      [
        "Ġliquid",
        -9.530574902939916
      ],
      [
        "ĠAre",
        -9.5314665402718
      ],
      [
        "Ġnutrients",
        -9.532101074476172
      ],
      [
        "ĠAlso",
        -9.532445525943078
      ],
      [
        "Ġsetting",
        -9.533884358900076
      ],
      [
        "Ġfilm",
        -9.53500015900502
      ],
      [
        "Ġgives",
        -9.536026873260424
      ],
      [
        "Ġapplied",
        -9.537765751458425
      ],
      [
        ".com",
        -9.539180491505965
      ],
      [
        "Ġsalt",
        -9.53981510728873
      ],
      [
        "Ġmen",
        -9.540079511473223
      ],
      [
        "Ġadding",
        -9.541673616785888
      ],
      [
        "Ġscale",
        -9.542660481117302
      ],
      [
        "Ġiron",
        -9.5434793055233
      ],
      [
        "Ġvisual",
        -9.544947551667349
      ],
      [
        "ability",
        -9.54630115513412
      ],
      [
        "Ġgene",
        -9.54641893080752
      ],
      [
        "Ġingredients",
        -9.546617258822364
      ],
      [
        "Ġlaw",
        -9.54702510844463
      ],
      [
        "Ġvia",
        -9.548119171741211
      ],
      [
        "{",
        -9.548888853175518
      ],
      [
        "With",
        -9.54924522666752
      ],
      [
        "Ġdescribe",
        -9.549316395892625
      ],
      [
        "Ġmonth",
        -9.549628889166843
      ],
      [
        "Ġmuscle",
        -9.549788178075246
      ],
      [
        "Ġheavy",
        -9.550375552809689
      ],
      [
        "Ġjourney",
        -9.555162465690168
      ],
      [
        "Ġcentury",
        -9.557315520068638
      ],
      [
        "Ġdeath",
        -9.558469306700822
      ],
      [
        "Ġsoon",
        -9.559715458880165
      ],
      [
        "Ġapply",
        -9.561078648276652
      ],
      [
        "Ġinteresting",
        -9.561083935607718
      ],
      [
        "Ġdecision",
        -9.561231368975404
      ],
      [
        "ĠOur",
        -9.562353835270448
      ],
      [
        "Ġcurrently",
        -9.562543507993604
      ],
      [
        "Ġcharge",
        -9.564856968728805
      ],
      [
        "Ġwrong",
        -9.565053690735256
      ],
      [
        "ized",
        -9.566254898198538
      ],
      [
        "Ġrich",
        -9.566554905731206
      ],
      [
        "Ġculture",
        -9.566754718077975
      ],
      [
        "Ġsuccessful",
        -9.567206704360126
      ],
      [
        "Ġsoft",
        -9.569391973658409
      ],
      [
        "ent",
        -9.569511058658854
      ],
      [
        "Ġcausing",
        -9.569825580307116
      ],
      [
        "Ġconnected",
        -9.570282357911111
      ],
      [
        "Ġlocated",
        -9.57097437379318
      ],
      [
        "Ġfully",
        -9.57123626996568
      ],
      [
        "Ġfaster",
        -9.571313174029603
      ],
      [
        "ĠTheir",
        -9.573085818998106
      ],
      [
        "ÂŃ",
        -9.573442384788631
      ],
      [
        "Ġreceive",
        -9.574574970295217
      ],
      [
        "Ġcombination",
        -9.574593139485986
      ],
      [
        "Ġsecurity",
        -9.577141115878634
      ],
      [
        "Ġtissue",
        -9.578271816047208
      ],
      [
        "Ġvegetables",
        -9.578845541934108
      ],
      [
        "ous",
        -9.578865013702735
      ],
      [
        "Ġboard",
        -9.579257983191276
      ],
      [
        "per",
        -9.579446743395964
      ],
      [
        "Ġgain",
        -9.5796156120113
      ],
      [
        "Ġexactly",
        -9.57992412408409
      ],
      [
        "Ġanyone",
        -9.581706180539864
      ],
      [
        "Ġgames",
        -9.58261542248123
      ],
      [
        "Ġfrequency",
        -9.582695601697374
      ],
      [
        "Ġearth",
        -9.583770748259854
      ],
      [
        "Ġyellow",
        -9.58629774873716
      ],
      [
        "Ġopportunity",
        -9.586305629834726
      ],
      [
        "ĠWho",
        -9.586414001433177
      ],
      [
        "Ġserious",
        -9.586430877774728
      ],
      [
        "Ġheight",
        -9.588759142657128
      ],
      [
        "Ġpieces",
        -9.58934113813979
      ],
      [
        "Ġexcellent",
        -9.590010285791555
      ],
      [
        "Ġforward",
        -9.590505932961726
      ],
      [
        "Ġvoltage",
        -9.591500454850364
      ],
      [
        "Ġcapacity",
        -9.592798762929952
      ],
      [
        "Ġdescribed",
        -9.593419885597186
      ],
      [
        "Ġeffectively",
        -9.59441779964243
      ],
      [
        "Now",
        -9.594888960422352
      ],
      [
        "Ġtask",
        -9.59489951930608
      ],
      [
        "line",
        -9.596037855006683
      ],
      [
        "Ġstrategies",
        -9.59695484816421
      ],
      [
        "Ġmoisture",
        -9.597742872499731
      ],
      [
        "Ġmeaning",
        -9.598924351133158
      ],
      [
        "Ġmotor",
        -9.599520594136552
      ],
      [
        "Ġmanage",
        -9.601349025166378
      ],
      [
        "Ġreturn",
        -9.60175783059223
      ],
      [
        "Ġaim",
        -9.603019870971274
      ],
      [
        "Ġtherefore",
        -9.604312243247358
      ],
      [
        "-term",
        -9.6050755512892
      ],
      [
        "Ġdisplay",
        -9.60507612766942
      ],
      [
        "ĠMay",
        -9.60601363317494
      ],
      [
        "Ġwrite",
        -9.607641665368837
      ],
      [
        "by",
        -9.6081255875694
      ],
      [
        "Ġbrown",
        -9.608528399904436
      ],
      [
        "Some",
        -9.6088029165318
      ],
      [
        "Ġproperty",
        -9.608890259176334
      ],
      [
        "Ġcoming",
        -9.61001140377276
      ],
      [
        "Ġrecord",
        -9.610171717212154
      ],
      [
        "ĠAdditionally",
        -9.61045525828138
      ],
      [
        "Ġscreen",
        -9.6114918632612
      ],
      [
        "U",
        -9.61310008119236
      ],
      [
        "Ġbecame",
        -9.613510589211415
      ],
      [
        "one",
        -9.61486422650217
      ],
      [
        "Ġtrack",
        -9.61519410993514
      ],
      [
        "Ġincluded",
        -9.615248139109632
      ],
      [
        "Ġreduced",
        -9.61617953080237
      ],
      [
        "Ġperform",
        -9.617019568398089
      ],
      [
        "Ġoccurs",
        -9.61705909484959
      ],
      [
        "Ġinches",
        -9.618045044549447
      ],
      [
        "Ġones",
        -9.61839040838463
      ],
      [
        "Ġbeautiful",
        -9.618749012149458
      ],
      [
        "Ġball",
        -9.619059813434257
      ],
      [
        "âĢĿ",
        -9.619693290498471
      ],
      [
        "Ġprocessing",
        -9.619859794645622
      ],
      [
        "Ġnative",
        -9.62023084713076
      ],
      [
        "ĠOnce",
        -9.620923927195632
      ],
      [
        "Ġtherapy",
        -9.62113071576876
      ],
      [
        "Ġalternative",
        -9.622522936686591
      ],
      [
        "Ġthus",
        -9.623757808757132
      ],
      [
        "Ġvisit",
        -9.624102793216483
      ],
      [
        "Ġphoto",
        -9.626955660680336
      ],
      [
        "Ġsevere",
        -9.627400417204564
      ],
      [
        "Ġtank",
        -9.627579935096438
      ],
      [
        "Ġconcept",
        -9.630160834939696
      ],
      [
        "Ġled",
        -9.630172357097866
      ],
      [
        "Ġfunctions",
        -9.630262115462475
      ],
      [
        "Ġchallenge",
        -9.631321477596844
      ],
      [
        "Ġsteel",
        -9.63153695167683
      ],
      [
        "Ġbeyond",
        -9.631667483841197
      ],
      [
        "Ġsign",
        -9.633232604166563
      ],
      [
        "ĠNow",
        -9.633320745230645
      ],
      [
        "ĠMake",
        -9.635088320728151
      ],
      [
        "we",
        -9.636279040025846
      ],
      [
        "Ġpresence",
        -9.636495365834554
      ],
      [
        "Ġequal",
        -9.637133081031848
      ],
      [
        "Ġadvanced",
        -9.63720064024384
      ],
      [
        "Ġgiving",
        -9.637733412626869
      ],
      [
        "ĠWater",
        -9.637943246579535
      ],
      [
        "ĠBecause",
        -9.638215035186027
      ],
      [
        "Ġanti",
        -9.638625369126697
      ],
      [
        "Ġocean",
        -9.639886704055142
      ],
      [
        "Ġgets",
        -9.640014191935672
      ],
      [
        "Ġcouple",
        -9.640208338972846
      ],
      [
        "Ġmix",
        -9.640988815249727
      ],
      [
        "ization",
        -9.641970155275772
      ],
      [
        "Ġextremely",
        -9.642458571899128
      ],
      [
        "Ġear",
        -9.643845622158668
      ],
      [
        "Ġtouch",
        -9.644108832637013
      ],
      [
        "ĠCo",
        -9.644298503561188
      ],
      [
        "Ġdetails",
        -9.645853398496891
      ],
      [
        "Ġexplain",
        -9.645948545213676
      ],
      [
        "Ġelement",
        -9.646000145001146
      ],
      [
        "Ġpicture",
        -9.6467595426766
      ],
      [
        "ĠEach",
        -9.64813647763693
      ],
      [
        "Ġmulti",
        -9.648195112919122
      ],
      [
        "ĠCenter",
        -9.648646830042628
      ],
      [
        "Ġrelease",
        -9.649127108549129
      ],
      [
        "Ġmiddle",
        -9.649341449355568
      ],
      [
        "ĠOther",
        -9.649453119508165
      ],
      [
        "Ġmaximum",
        -9.6499886199883
      ],
      [
        "Ġphone",
        -9.650197588570462
      ],
      [
        "Ġexpensive",
        -9.650558769992928
      ],
      [
        "Ġrecently",
        -9.65104145869888
      ],
      [
        "Ġworth",
        -9.651644535522626
      ],
      [
        "Ġexpected",
        -9.651854991913243
      ],
      [
        "Ġpoor",
        -9.652531237930608
      ],
      [
        "Ġhandle",
        -9.653398460376184
      ],
      [
        "Ġelectricity",
        -9.653436020124486
      ],
      [
        "Ġplaces",
        -9.653794990984988
      ],
      [
        "Ġteaching",
        -9.65476184936976
      ],
      [
        "Ġhuge",
        -9.654844151413505
      ],
      [
        "Ġroad",
        -9.658076597116604
      ],
      [
        "Ġmotion",
        -9.65832437186922
      ],
      [
        "Ġconsumption",
        -9.658669621468809
      ],
      [
        "Ġhorse",
        -9.659030589695565
      ],
      [
        "Ġbrand",
        -9.659190993711697
      ],
      [
        "Ġprevious",
        -9.659399451783482
      ],
      [
        "Ġkeeping",
        -9.659734591095566
      ],
      [
        "Ġsolid",
        -9.66064725927292
      ],
      [
        "Ġparticles",
        -9.662929849501042
      ],
      [
        "Ġalthough",
        -9.664043804852746
      ],
      [
        "ĠSt",
        -9.664291183387892
      ],
      [
        "Ġlost",
        -9.666853649716774
      ],
      [
        "Ġvolume",
        -9.667888942338482
      ],
      [
        "Ġdoctor",
        -9.66886611782511
      ],
      [
        "Ġolder",
        -9.669605912070969
      ],
      [
        "Ġfemale",
        -9.671468982370747
      ],
      [
        "Ġbone",
        -9.6729458565104
      ],
      [
        "Ġcross",
        -9.672997823724357
      ],
      [
        "Ġslightly",
        -9.673109947572035
      ],
      [
        "Ġcutting",
        -9.67403595782248
      ],
      [
        "Ġversion",
        -9.674329040477083
      ],
      [
        "Ġonto",
        -9.67446568857017
      ],
      [
        "ill",
        -9.675001086125055
      ],
      [
        "Ġexperiment",
        -9.67530281792665
      ],
      [
        "Ġaffected",
        -9.676877028853934
      ],
      [
        "Ġsaw",
        -9.678001266586316
      ],
      [
        "Ġmedium",
        -9.679392079022175
      ],
      [
        "ĠEnglish",
        -9.680254324480185
      ],
      [
        "Ġcommunities",
        -9.68035189201051
      ],
      [
        "Ġsuggest",
        -9.68050735557101
      ],
      [
        "Ġpaint",
        -9.68061022868657
      ],
      [
        "Ġtexture",
        -9.680842032007613
      ],
      [
        "ĠâĢ¦",
        -9.680954299014036
      ],
      [
        "Ġinfluence",
        -9.681272799248127
      ],
      [
        "Ġremain",
        -9.681763694368996
      ],
      [
        "ĠNOT",
        -9.682362565515088
      ],
      [
        "Ġlargest",
        -9.683273579703656
      ],
      [
        "Ġinstance",
        -9.68347510894584
      ],
      [
        "Here",
        -9.68354009886035
      ],
      [
        "Ġweb",
        -9.684841107333824
      ],
      [
        "ĠLet",
        -9.685264116618931
      ],
      [
        "Ġrelatively",
        -9.685958588321409
      ],
      [
        "Ġblock",
        -9.68670942176445
      ],
      [
        "ĠInstitute",
        -9.68749315781729
      ],
      [
        "Ġdraw",
        -9.689179944462348
      ],
      [
        "Ġrise",
        -9.689286772630318
      ],
      [
        "Ġgenes",
        -9.689487452078325
      ],
      [
        "Ġconnection",
        -9.690904879397255
      ],
      [
        "Ġopportunities",
        -9.692393915860958
      ],
      [
        "Ġvaluable",
        -9.692476498058475
      ],
      [
        "Ġfluid",
        -9.693523391408204
      ],
      [
        "Ġchanging",
        -9.694809885858456
      ],
      [
        "Ġtasks",
        -9.695370605220171
      ],
      [
        "Ġcarry",
        -9.695906179682895
      ],
      [
        "Ġcharacteristics",
        -9.69633688485873
      ],
      [
        "Ġsites",
        -9.6973663005568
      ],
      [
        "Ġdegrees",
        -9.697668810223188
      ],
      [
        "Ġdiscovered",
        -9.697841547519676
      ],
      [
        "Ġcomfortable",
        -9.69814957537633
      ],
      [
        "Ġplaced",
        -9.698410339014131
      ],
      [
        "Ġdemand",
        -9.698880628200088
      ],
      [
        "On",
        -9.701222156192252
      ],
      [
        "Ġemissions",
        -9.701756347094909
      ],
      [
        "Ġwalk",
        -9.702687656836234
      ],
      [
        "Ġspend",
        -9.70273052471346
      ],
      [
        "Ġsort",
        -9.703224865733178
      ],
      [
        "Ġevolution",
        -9.703739232659606
      ],
      [
        "Ġcars",
        -9.70382137777294
      ],
      [
        "Ġdepth",
        -9.704997509645544
      ],
      [
        "Ġdriving",
        -9.705000964102815
      ],
      [
        "q",
        -9.706339834824629
      ],
      [
        "Ġsample",
        -9.707191750528292
      ],
      [
        "ĠEven",
        -9.707724802563163
      ],
      [
        "Ġremains",
        -9.708009572912802
      ],
      [
        "Ġstructures",
        -9.708090916419255
      ],
      [
        "Ġflight",
        -9.709574860635811
      ],
      [
        "Ġconservation",
        -9.709733163108844
      ],
      [
        "Ġinitial",
        -9.710121458514491
      ],
      [
        "However",
        -9.7104750773541
      ],
      [
        "ions",
        -9.710554826616692
      ],
      [
        "Ġproteins",
        -9.710715644424967
      ],
      [
        "Ġgoals",
        -9.711200244783186
      ],
      [
        "Ġconstant",
        -9.711235250533116
      ],
      [
        "Ġteachers",
        -9.711519295587516
      ],
      [
        "Ġdate",
        -9.712059136197125
      ],
      [
        "Ġbeginning",
        -9.712985574039685
      ],
      [
        "Ġdepends",
        -9.713789969470078
      ],
      [
        "land",
        -9.713896830385629
      ],
      [
        "aid",
        -9.714084930474227
      ],
      [
        "Ġadults",
        -9.715000303821997
      ],
      [
        "Ġappearance",
        -9.715004021066887
      ],
      [
        "Ġschools",
        -9.71506333220331
      ],
      [
        "Ġlose",
        -9.71512485198806
      ],
      [
        "Ġcommercial",
        -9.71533037123755
      ],
      [
        "Ġtechnologies",
        -9.715691164749858
      ],
      [
        "Ġalone",
        -9.718787829243883
      ],
      [
        "Ġrecommend",
        -9.719143008547013
      ],
      [
        "-in",
        -9.720288107636511
      ],
      [
        "Ġstuff",
        -9.720736275156291
      ],
      [
        "Ġdistribution",
        -9.720978390915958
      ],
      [
        "ĠState",
        -9.722595447181291
      ],
      [
        "Ġstand",
        -9.725080666011532
      ],
      [
        "ĠIndia",
        -9.72722458167613
      ],
      [
        "Ġexamples",
        -9.729158649995016
      ],
      [
        "Ġfigure",
        -9.729185653652804
      ],
      [
        "Ġseed",
        -9.72993297075874
      ],
      [
        "ĠDe",
        -9.72997810281082
      ],
      [
        "Ġresulting",
        -9.730341649564004
      ],
      [
        "Ġexperiences",
        -9.731105276724348
      ],
      [
        "Ġflavor",
        -9.731423666166624
      ],
      [
        "Ġdifferences",
        -9.731964387143528
      ],
      [
        "Ġmeasures",
        -9.73199732995676
      ],
      [
        "Ġcomponent",
        -9.732107421732778
      ],
      [
        "Ġreported",
        -9.732666434336233
      ],
      [
        "ĠMore",
        -9.733474944076178
      ],
      [
        "Ġfoot",
        -9.733651365459089
      ],
      [
        "Ġfeeling",
        -9.733927276595889
      ],
      [
        "-up",
        -9.735668683475854
      ],
      [
        "Ġmale",
        -9.736394171900091
      ],
      [
        "Ġlooks",
        -9.737025618826213
      ],
      [
        "ĠCalifornia",
        -9.737265621826277
      ],
      [
        "Ġbooks",
        -9.73771223701727
      ],
      [
        "Ġselection",
        -9.740831903845912
      ],
      [
        "Ġrepresent",
        -9.74186408104665
      ],
      [
        "Ġincreases",
        -9.742270579507844
      ],
      [
        "Ġhear",
        -9.742492146114014
      ],
      [
        "Ġwent",
        -9.7436011945786
      ],
      [
        "Ġtests",
        -9.744315425592818
      ],
      [
        "Ġbegan",
        -9.74508991302332
      ],
      [
        "Ġdiabetes",
        -9.746827879381284
      ],
      [
        "Ġhabitat",
        -9.747102550537496
      ],
      [
        "Ġfinancial",
        -9.747165117177346
      ],
      [
        "Ġinsects",
        -9.749475905901514
      ],
      [
        "Ġconnect",
        -9.752596659505624
      ],
      [
        "Ġefforts",
        -9.752926085993042
      ],
      [
        "Ġseparate",
        -9.75319607389312
      ],
      [
        "**",
        -9.75423109014044
      ],
      [
        "Ġvary",
        -9.754428458781852
      ],
      [
        "Ġeffort",
        -9.754591470593857
      ],
      [
        "Ġcollection",
        -9.755145630326822
      ],
      [
        "Ġaspects",
        -9.755665766887969
      ],
      [
        "Ġdegree",
        -9.756970525233385
      ],
      [
        "ĠGod",
        -9.757275901130075
      ],
      [
        "No",
        -9.75769252847286
      ],
      [
        "Ġfloor",
        -9.75780679851316
      ],
      [
        "Ġexisting",
        -9.760232450356265
      ],
      [
        "Ġcore",
        -9.760358048041972
      ],
      [
        "Ġnational",
        -9.76066908529246
      ],
      [
        "Ġrules",
        -9.761022093825092
      ],
      [
        "Ġmouth",
        -9.761321413030611
      ],
      [
        "Ġsounds",
        -9.761524764841376
      ],
      [
        "Ġrare",
        -9.76189928781735
      ],
      [
        "Ġplanet",
        -9.762526715893406
      ],
      [
        "ĠFirst",
        -9.762955803378592
      ],
      [
        "Ġplanning",
        -9.763126789483804
      ],
      [
        "@",
        -9.76416554437168
      ],
      [
        "Ġadvantage",
        -9.764317138490645
      ],
      [
        "Ġfavorite",
        -9.764561247621964
      ],
      [
        "Ġactual",
        -9.764612329299236
      ],
      [
        "Ġpick",
        -9.76548529900531
      ],
      [
        "Ġswitch",
        -9.766209978588783
      ],
      [
        "ĠAlthough",
        -9.769265148266973
      ],
      [
        "Ġfinding",
        -9.770321999816598
      ],
      [
        "Ġadult",
        -9.770892742173848
      ],
      [
        "Ġwritten",
        -9.771099138120212
      ],
      [
        "Ġroots",
        -9.771382792213672
      ],
      [
        "Ġapp",
        -9.771937988571462
      ],
      [
        "Ġreview",
        -9.77232199716384
      ],
      [
        "Ġvital",
        -9.772445302836026
      ],
      [
        "Ġoperation",
        -9.774741244926696
      ],
      [
        "Ġmaintaining",
        -9.774841700392924
      ],
      [
        "out",
        -9.774886892060476
      ],
      [
        "Ġframe",
        -9.775282335065048
      ],
      [
        "Ġbreed",
        -9.77530647690832
      ],
      [
        "Ġchicken",
        -9.775359768972676
      ],
      [
        "Ġcontext",
        -9.77704793320301
      ],
      [
        "Ġlink",
        -9.777314808587397
      ],
      [
        "Ġimmediately",
        -9.778539071050178
      ],
      [
        "Ġspecifically",
        -9.780580752215478
      ],
      [
        "Ġprefer",
        -9.780931621115322
      ],
      [
        "Ġload",
        -9.781752372924938
      ],
      [
        "ĠAccording",
        -9.781861568192946
      ],
      [
        "Ġnote",
        -9.782015567382595
      ],
      [
        "Ġreplace",
        -9.782039600212851
      ],
      [
        "Ġquick",
        -9.78259145236329
      ],
      [
        "Ġrock",
        -9.783119125438551
      ],
      [
        "Ġinternal",
        -9.784278286914
      ],
      [
        "Ġallowed",
        -9.784618085807498
      ],
      [
        "Ġformed",
        -9.785126396223792
      ],
      [
        "Ġvirus",
        -9.78581363154854
      ],
      [
        "Ġpopulations",
        -9.786108242590116
      ],
      [
        "Ġplease",
        -9.786406524660926
      ],
      [
        "Ġflat",
        -9.78710246168242
      ],
      [
        "ĠJust",
        -9.788031982133386
      ],
      [
        "That",
        -9.788733332676822
      ],
      [
        "Ġaccurate",
        -9.789573556377407
      ],
      [
        "tic",
        -9.790515693741538
      ],
      [
        "Ġregularly",
        -9.791916484256888
      ],
      [
        "-like",
        -9.792647408432524
      ],
      [
        "Ġinstructions",
        -9.793211099163797
      ],
      [
        "Ġnotice",
        -9.7938975885256
      ],
      [
        "Ġasked",
        -9.79577172766128
      ],
      [
        "Ġpath",
        -9.79794039931042
      ],
      [
        "Ġcovered",
        -9.798086070262205
      ],
      [
        "Ġcentral",
        -9.798322962441205
      ],
      [
        "ha",
        -9.798573737106684
      ],
      [
        "Ġprogress",
        -9.7989509049802
      ],
      [
        "Re",
        -9.8002298779148
      ],
      [
        "Our",
        -9.800288177845
      ],
      [
        "Ġatmosphere",
        -9.800488340427032
      ],
      [
        "Ġfamilies",
        -9.801154016751534
      ],
      [
        "Ġgeneration",
        -9.801584196196227
      ],
      [
        "Ġrepair",
        -9.803090461586065
      ],
      [
        "Ġexpect",
        -9.803093988950444
      ],
      [
        "Ġfilter",
        -9.803535036829391
      ],
      [
        "Ġtopic",
        -9.805029291560992
      ],
      [
        "Ġnearly",
        -9.80526010368862
      ],
      [
        "ĠDon",
        -9.806498759604349
      ],
      [
        "Ġbasis",
        -9.806878824293156
      ],
      [
        "Ġdouble",
        -9.807729328044498
      ],
      [
        "Ġsmooth",
        -9.807850712796608
      ],
      [
        "ĠEurope",
        -9.807870796353487
      ],
      [
        "Ġfeeding",
        -9.80849138949455
      ],
      [
        "Ġcustomers",
        -9.810318341772833
      ],
      [
        "Ġeconomic",
        -9.811725908239358
      ],
      [
        "Ġrates",
        -9.811775332754284
      ],
      [
        "Ġratio",
        -9.812121316639994
      ],
      [
        "ĠTherefore",
        -9.812473737294546
      ],
      [
        "Ġmember",
        -9.812549477782062
      ],
      [
        "Ġgenerate",
        -9.813092911610456
      ],
      [
        "ĠSince",
        -9.81451193578248
      ],
      [
        "Ġsuper",
        -9.814532080919502
      ],
      [
        "Ġselect",
        -9.814755581999911
      ],
      [
        "Ġdrawing",
        -9.815106821577
      ],
      [
        "Ġaudio",
        -9.815282818642228
      ],
      [
        "Ġcustomer",
        -9.815701390734068
      ],
      [
        "Ġregions",
        -9.816182983268972
      ],
      [
        "Ġmolecules",
        -9.818286660610507
      ],
      [
        "Ġbirth",
        -9.819095463931676
      ],
      [
        "Ġowners",
        -9.81971290861034
      ],
      [
        "Ġmarine",
        -9.821494784236672
      ],
      [
        "Ġstaff",
        -9.822174313855792
      ],
      [
        "Ġemotional",
        -9.824311625161837
      ],
      [
        "Ġgrass",
        -9.824408257344112
      ],
      [
        "Ġtiny",
        -9.82466234074841
      ],
      [
        "After",
        -9.82558049385353
      ],
      [
        "Ġfrequently",
        -9.827903462249136
      ],
      [
        "Ġmiles",
        -9.828936296815
      ],
      [
        "ĠDay",
        -9.830110995945311
      ],
      [
        "ĠAfrica",
        -9.83038421786832
      ],
      [
        "Ġcharacter",
        -9.830503231213658
      ],
      [
        "der",
        -9.830671608889745
      ],
      [
        "Ġhour",
        -9.830952596769524
      ],
      [
        "Ġfriend",
        -9.83158070172769
      ],
      [
        "Ġdrug",
        -9.833081852617804
      ],
      [
        "Ġbecoming",
        -9.83451220649142
      ],
      [
        "Ġdoor",
        -9.83487856061078
      ],
      [
        "Ġhappy",
        -9.835559899349375
      ],
      [
        "Answer",
        -9.835776358154645
      ],
      [
        "Ġwindow",
        -9.83681266970344
      ],
      [
        "Ġadvice",
        -9.836844150673338
      ],
      [
        "Ġwatch",
        -9.83722168018888
      ],
      [
        "mer",
        -9.83788707244025
      ],
      [
        "Ġobserved",
        -9.837973102404202
      ],
      [
        "Ġlearned",
        -9.838554988542509
      ],
      [
        "ĠAir",
        -9.838703056732903
      ],
      [
        "Ġwire",
        -9.838756113459382
      ],
      [
        "ĠDepartment",
        -9.839054948637076
      ],
      [
        "Ġbodies",
        -9.839895339300732
      ],
      [
        "Ġrelative",
        -9.840190410135284
      ],
      [
        "ex",
        -9.841355748005746
      ],
      [
        "Ġpass",
        -9.841948951430131
      ],
      [
        "Ġtransfer",
        -9.84206773570499
      ],
      [
        "Ġfashion",
        -9.842513337012209
      ],
      [
        "Ġhelping",
        -9.84360403015699
      ],
      [
        "Ġinternational",
        -9.84407212575846
      ],
      [
        "Another",
        -9.844092513959614
      ],
      [
        "Ġmicro",
        -9.84414107958168
      ],
      [
        "ler",
        -9.845781251356351
      ],
      [
        "Ġidentified",
        -9.845837374970456
      ],
      [
        "Ġlandscape",
        -9.846093908659553
      ],
      [
        "Ġsuggests",
        -9.846740352354006
      ],
      [
        "Ġforest",
        -9.84762903530658
      ],
      [
        "Ġreference",
        -9.848457329032064
      ],
      [
        "Ġregarding",
        -9.84867976260889
      ],
      [
        "Ġimproved",
        -9.849434354802268
      ],
      [
        "Ġwildlife",
        -9.849596505712483
      ],
      [
        "Ġinterested",
        -9.85011767121178
      ],
      [
        "Ġedge",
        -9.850170255522302
      ],
      [
        "Ġdiscuss",
        -9.85086761837399
      ],
      [
        "All",
        -9.851488415043097
      ],
      [
        "Ġwanted",
        -9.851575392640337
      ],
      [
        "Ġplaying",
        -9.851962053297536
      ],
      [
        "Ġsociety",
        -9.852730662478104
      ],
      [
        "Ġstraight",
        -9.853689444041311
      ],
      [
        "Ġorganization",
        -9.85469251653249
      ],
      [
        "Ġpets",
        -9.854998533973076
      ],
      [
        "Ġplayers",
        -9.85533053293986
      ],
      [
        "ĠUK",
        -9.855347883184129
      ],
      [
        "Ġlimit",
        -9.85701399670316
      ],
      [
        "Ġstandards",
        -9.857863396586986
      ],
      [
        "Ġdangerous",
        -9.85855320096723
      ],
      [
        "Ġchain",
        -9.85857057911634
      ],
      [
        "Ġcreative",
        -9.860226666793936
      ],
      [
        "Ġcomfort",
        -9.862661826628097
      ],
      [
        "âĢĻt",
        -9.86304085460655
      ],
      [
        "ĠUsing",
        -9.863498400398358
      ],
      [
        "Ġradio",
        -9.863511272535096
      ],
      [
        "Ġpractical",
        -9.864013331938317
      ],
      [
        "Ġdiverse",
        -9.865487642943233
      ],
      [
        "Ġtrip",
        -9.865928369871646
      ],
      [
        "Ġhelpful",
        -9.865960618115912
      ],
      [
        "Ġexperienced",
        -9.867421073813002
      ],
      [
        "Ġmid",
        -9.867461740262874
      ],
      [
        "Ġresource",
        -9.868904093224554
      ],
      [
        "Ġbackground",
        -9.869236925082715
      ],
      [
        "Ġfly",
        -9.869612706433864
      ],
      [
        "Ġhost",
        -9.869987580818526
      ],
      [
        "Ġstrain",
        -9.871351178833184
      ],
      [
        "Ġkitchen",
        -9.872139090339283
      ],
      [
        "Ġnumerous",
        -9.872506554602298
      ],
      [
        "Ġdrop",
        -9.87346816568482
      ],
      [
        "Ġcomprehensive",
        -9.873989497926944
      ],
      [
        "...Ċ",
        -9.875934966068176
      ],
      [
        "Ġsquare",
        -9.876396490023849
      ],
      [
        "Ġinfections",
        -9.876690658235082
      ],
      [
        "Ġaware",
        -9.87726439542716
      ],
      [
        "Ġchanged",
        -9.878688074300308
      ],
      [
        "-free",
        -9.878944463773752
      ],
      [
        "Ġhit",
        -9.879203253002762
      ],
      [
        "Ġwave",
        -9.8799524622156
      ],
      [
        "Ġlighting",
        -9.880493861927974
      ],
      [
        "ĠAustralia",
        -9.88085423509066
      ],
      [
        "Ġsurvive",
        -9.881250286531666
      ],
      [
        "Ġbillion",
        -9.881705775814178
      ],
      [
        "Ġremoved",
        -9.882097160605149
      ],
      [
        "Ġsend",
        -9.883440641733806
      ],
      [
        "Ġteacher",
        -9.88498031982817
      ],
      [
        "ĠPro",
        -9.885199651111078
      ],
      [
        "Ġreality",
        -9.88545591775594
      ],
      [
        "Ġhealthcare",
        -9.885706202932544
      ],
      [
        "Ġmaybe",
        -9.889049861206043
      ],
      [
        "Ġchemicals",
        -9.889084571837774
      ],
      [
        "Ġfabric",
        -9.889390417557989
      ],
      [
        "Ġanxiety",
        -9.889702486087112
      ],
      [
        "ities",
        -9.890654382507954
      ],
      [
        "Ġmuscles",
        -9.890943711245184
      ],
      [
        "Ġestablished",
        -9.891726600677387
      ],
      [
        "Ġbed",
        -9.892046594157602
      ],
      [
        "ĠAl",
        -9.893115208039426
      ],
      [
        "Ġworked",
        -9.894193418986518
      ],
      [
        "Ġdiscussion",
        -9.895308836238073
      ],
      [
        "Ġcheese",
        -9.896835869493165
      ],
      [
        "ĠCO",
        -9.896850141306729
      ],
      [
        "Ġsurgery",
        -9.89705811586322
      ],
      [
        "Ġpollution",
        -9.897186375026312
      ],
      [
        "Ġfruits",
        -9.897936684471476
      ],
      [
        "ĠYork",
        -9.898320108647695
      ],
      [
        "which",
        -9.899812390475256
      ],
      [
        "Ġegg",
        -9.900885987412092
      ],
      [
        "My",
        -9.901084932148253
      ],
      [
        "Ġalcohol",
        -9.90122931211448
      ],
      [
        "Ġheld",
        -9.9018726729278
      ],
      [
        "Ġdesired",
        -9.90219202317184
      ],
      [
        "Ġapproximately",
        -9.902544156722758
      ],
      [
        "ĠEuropean",
        -9.903730263984674
      ],
      [
        "Ġround",
        -9.904519850184196
      ],
      [
        "Ġreduction",
        -9.905030425551292
      ],
      [
        "ĠChina",
        -9.906250794456428
      ],
      [
        "Ġdefined",
        -9.907076475823176
      ],
      [
        "Ġrisks",
        -9.907301028167208
      ],
      [
        "Ġupper",
        -9.907400790756114
      ],
      [
        "Ġclick",
        -9.908363798618984
      ],
      [
        "Ġbusinesses",
        -9.908545466166393
      ],
      [
        "Ġdie",
        -9.909367774840833
      ],
      [
        "Ġreceived",
        -9.909991922573742
      ],
      [
        "Ġtransmission",
        -9.91056680394595
      ],
      [
        "Ġmorning",
        -9.911442995206896
      ],
      [
        "ke",
        -9.911658460996984
      ],
      [
        "Ġangle",
        -9.912099166168908
      ],
      [
        "Ġconcerns",
        -9.91264961735672
      ],
      [
        "Ġsweet",
        -9.914255819248131
      ],
      [
        "Ġfailure",
        -9.914587240051189
      ],
      [
        "Ġrule",
        -9.914616388442536
      ],
      [
        "Ġsensor",
        -9.914620590607758
      ],
      [
        "Ġextreme",
        -9.91470492851155
      ],
      [
        "Ġtold",
        -9.914895028758457
      ],
      [
        "Ġlegal",
        -9.915093296392662
      ],
      [
        "Ġclassroom",
        -9.91628809113744
      ],
      [
        "Ġflower",
        -9.91706840171116
      ],
      [
        "Ġpair",
        -9.91726802163513
      ],
      [
        "/or",
        -9.917503186439804
      ],
      [
        "Ġthin",
        -9.9175534214682
      ],
      [
        "Ġkill",
        -9.917706046849624
      ],
      [
        "ĠWar",
        -9.918198134540855
      ],
      [
        "ating",
        -9.91838090477487
      ],
      [
        "Ġencourage",
        -9.918912277038658
      ],
      [
        "ĠOver",
        -9.919367061405174
      ],
      [
        "Ġshowed",
        -9.919628064808112
      ],
      [
        "Ġgrown",
        -9.920385560428974
      ],
      [
        "Ġancient",
        -9.920643703476763
      ],
      [
        "ier",
        -9.921326259603344
      ],
      [
        "Ġshade",
        -9.92133658215973
      ],
      [
        "potentially",
        -9.921486169160726
      ],
      [
        "Ġconcrete",
        -9.92186631756902
      ],
      [
        "Ġleaf",
        -9.922273585423936
      ],
      [
        "Ġpurchase",
        -9.922296346960083
      ],
      [
        "Ġbeneficial",
        -9.923143869168904
      ],
      [
        "Ġvehicles",
        -9.92402186571706
      ],
      [
        "Ġdead",
        -9.924641546229251
      ],
      [
        "Ġhighest",
        -9.925124434152004
      ],
      [
        "Ġlab",
        -9.92579110570047
      ],
      [
        "Ġlayers",
        -9.926436021176285
      ],
      [
        "Ġraw",
        -9.926646101151476
      ],
      [
        "Ġengineering",
        -9.92711858607794
      ],
      [
        "Ġgold",
        -9.927236917620895
      ],
      [
        "Ġaircraft",
        -9.92873551222585
      ],
      [
        "ĠHigh",
        -9.92882820171747
      ],
      [
        "Ġvoice",
        -9.92895790326082
      ],
      [
        "Ġclaim",
        -9.928991859870552
      ],
      [
        "ĠWhether",
        -9.92905493011324
      ],
      [
        "Ġperspective",
        -9.92946687350748
      ],
      [
        "Ġsnow",
        -9.92981555255892
      ],
      [
        "Ġprepare",
        -9.930451883909605
      ],
      [
        "Ġheating",
        -9.930521493255045
      ],
      [
        "Ġroof",
        -9.931006131871609
      ],
      [
        "Ġindustrial",
        -9.9312201729208
      ],
      [
        "Ġdental",
        -9.931849582574635
      ],
      [
        "ge",
        -9.932336816504936
      ],
      [
        "Ġmostly",
        -9.93297291871381
      ],
      [
        "||",
        -9.933159055372869
      ],
      [
        "Ġoperations",
        -9.933434136583266
      ],
      [
        "Ġearlier",
        -9.93450816809379
      ],
      [
        "-year",
        -9.934554602818666
      ],
      [
        "Ġwidely",
        -9.934920927644727
      ],
      [
        "Ġsports",
        -9.93508164166166
      ],
      [
        "Ġcareer",
        -9.935278305071352
      ],
      [
        "Ġinjury",
        -9.93583957218594
      ],
      [
        "Ġmeal",
        -9.937315016503527
      ],
      [
        "den",
        -9.937430468452222
      ],
      [
        "Ġheard",
        -9.937685996707602
      ],
      [
        "Ġtalking",
        -9.937938299542669
      ],
      [
        "Ġtypical",
        -9.939003612032687
      ],
      [
        "Ġtransition",
        -9.939102599640998
      ],
      [
        "Ġformation",
        -9.94118609377657
      ],
      [
        "Ġprimarily",
        -9.941283754910035
      ],
      [
        "Ġattack",
        -9.942077356795895
      ],
      [
        "Your",
        -9.942081549683268
      ],
      [
        "Ġwait",
        -9.942455152592483
      ],
      [
        "Ġharmful",
        -9.942547936300612
      ],
      [
        "Ġteach",
        -9.94293302978302
      ],
      [
        "Ġfields",
        -9.94305824379019
      ],
      [
        "Ġsaying",
        -9.943252714520964
      ],
      [
        "Ġnice",
        -9.94343167217063
      ],
      [
        "Ġbike",
        -9.94372397942196
      ],
      [
        "Ġsmell",
        -9.94427879300822
      ],
      [
        "Ġdecisions",
        -9.94510253934939
      ],
      [
        "Ġpump",
        -9.945499131283116
      ],
      [
        "Ġpool",
        -9.946442709185892
      ],
      [
        "Most",
        -9.94675006246638
      ],
      [
        "Ġtransport",
        -9.947220279740792
      ],
      [
        "Ġreleased",
        -9.948199275653264
      ],
      [
        "Ġsignals",
        -9.948372309846604
      ],
      [
        "Ġexposed",
        -9.949384079523307
      ],
      [
        "Ġrespect",
        -9.94948337389229
      ],
      [
        "Ġelectronic",
        -9.94991021337234
      ],
      [
        "Ġclasses",
        -9.9499183338387
      ],
      [
        "ize",
        -9.950186219685047
      ],
      [
        "Ġplatform",
        -9.95026706530849
      ],
      [
        "Ġexperts",
        -9.9507044596985
      ],
      [
        "Ġcultural",
        -9.950827057766402
      ],
      [
        "ĠDuring",
        -9.950868113618313
      ],
      [
        "Ġplanting",
        -9.95304952775236
      ],
      [
        "Ġbiological",
        -9.9534867559344
      ],
      [
        "Ġmother",
        -9.954102522038845
      ],
      [
        "Ġartificial",
        -9.955029229807057
      ],
      [
        "Yes",
        -9.955172376096847
      ],
      [
        "Ġprivate",
        -9.956135082875456
      ],
      [
        "old",
        -9.95651554777018
      ],
      [
        "Ġoffice",
        -9.956872121729576
      ],
      [
        "Ġsettings",
        -9.957129456456196
      ],
      [
        "Ġcapture",
        -9.95790998379733
      ],
      [
        "Ġtoward",
        -9.95821701348662
      ],
      [
        "Ġpolicy",
        -9.958778191709287
      ],
      [
        "way",
        -9.959102920553075
      ],
      [
        "Ġfill",
        -9.959189339586189
      ],
      [
        "men",
        -9.959429659941216
      ],
      [
        "Ġeventually",
        -9.959481982912886
      ],
      [
        "Ġnaturally",
        -9.959589324583527
      ],
      [
        "Ġcomposition",
        -9.959649039654934
      ],
      [
        "Ġrice",
        -9.959771075933087
      ],
      [
        "ĠRiver",
        -9.960160291086202
      ],
      [
        "Ġnamed",
        -9.960633182566765
      ],
      [
        "Ġprint",
        -9.964364606308608
      ],
      [
        "Are",
        -9.964697945513672
      ],
      [
        "Ġamounts",
        -9.96486355844043
      ],
      [
        "}",
        -9.964977097691664
      ],
      [
        "Ġexternal",
        -9.965078951901564
      ],
      [
        "ner",
        -9.965992771512031
      ],
      [
        "Ġmixture",
        -9.966234516397144
      ],
      [
        "Ġpro",
        -9.966321294231344
      ],
      [
        "Ġindicate",
        -9.966583237204883
      ],
      [
        "Ġstrategy",
        -9.967452898681554
      ],
      [
        "Ġmode",
        -9.969020832005372
      ],
      [
        "Ġgrade",
        -9.969201612730986
      ],
      [
        "Ġlatest",
        -9.969347581663618
      ],
      [
        "Ġrelevant",
        -9.969727109360049
      ],
      [
        "Ġdetect",
        -9.971427126144992
      ],
      [
        "Ġorganisms",
        -9.971495490217675
      ],
      [
        "Ġunits",
        -9.971671422203864
      ],
      [
        "Ġmold",
        -9.972022095334724
      ],
      [
        "Ġlights",
        -9.97203031831168
      ],
      [
        "Ġdetailed",
        -9.97318430036723
      ],
      [
        "Ġcard",
        -9.974604668953257
      ],
      [
        "Ġquantum",
        -9.97529801323671
      ],
      [
        "Ġfollowed",
        -9.978005905052193
      ],
      [
        "ĠZ",
        -9.97860558921181
      ],
      [
        "Ġdrugs",
        -9.97886952896122
      ],
      [
        "Ġrelationships",
        -9.980801334912504
      ],
      [
        "Ġbright",
        -9.98189440039476
      ],
      [
        "Ġmedicine",
        -9.98195568727156
      ],
      [
        "ley",
        -9.98223980414172
      ],
      [
        "Ġseek",
        -9.98232606165259
      ],
      [
        "Ġoperating",
        -9.983106872306204
      ],
      [
        "Ġcarefully",
        -9.98367282289466
      ],
      [
        "Once",
        -9.983678125577953
      ],
      [
        "Ġplans",
        -9.985640839438618
      ],
      [
        "capable",
        -9.985844820735174
      ],
      [
        "Ġpull",
        -9.986634759116988
      ],
      [
        "Ġtreated",
        -9.986749689709873
      ],
      [
        "Ġexpression",
        -9.987034118728031
      ],
      [
        "Ġlifestyle",
        -9.987528543244046
      ],
      [
        "ĠCar",
        -9.98822901273972
      ],
      [
        "Ġlens",
        -9.988419258345631
      ],
      [
        "Ġmessage",
        -9.988446999193
      ],
      [
        "Ġdish",
        -9.989420115985304
      ],
      [
        "Ġcount",
        -9.990090571716378
      ],
      [
        "Ġbio",
        -9.991237299202949
      ],
      [
        "Ġfindings",
        -9.991491517326525
      ],
      [
        "Ġemail",
        -9.992995475980612
      ],
      [
        "Ġmagnetic",
        -9.993202548063127
      ],
      [
        "Ġwaves",
        -9.993879056439848
      ],
      [
        "Ġstories",
        -9.994857397240189
      ],
      [
        "ĠFrench",
        -9.995025643061496
      ],
      [
        "Ġbag",
        -9.9951773503944
      ],
      [
        "Ġbeauty",
        -9.995182747436402
      ],
      [
        "Ġstored",
        -9.995559331319786
      ],
      [
        "Ġintroduced",
        -9.995588774667713
      ],
      [
        "Ġreliable",
        -9.995919978153232
      ],
      [
        "Ġadjust",
        -9.99600732110259
      ],
      [
        "Ġdrink",
        -9.996059024347591
      ],
      [
        "Ġdetail",
        -9.996359391033549
      ],
      [
        "-quality",
        -9.996450975756495
      ],
      [
        "ĠCanada",
        -9.996610345073462
      ],
      [
        "ĠSea",
        -9.997002333170505
      ],
      [
        "He",
        -9.997641475084512
      ],
      [
        "Ġthousands",
        -9.998382015845964
      ],
      [
        "Ġsunlight",
        -9.998700234960078
      ],
      [
        "Ġoptimal",
        -9.99889234525044
      ],
      [
        "end",
        -9.99974785208518
      ],
      [
        "Ġconsistent",
        -9.999881950235908
      ],
      [
        "Ġroutine",
        -9.99994028146652
      ],
      [
        "Conclusion",
        -10.000111185946787
      ],
      [
        "Ġrespond",
        -10.000353715198107
      ],
      [
        "Ġadvantages",
        -10.00054224442516
      ],
      [
        "Ġmanufacturing",
        -10.001631745812102
      ],
      [
        "Ġoutdoor",
        -10.00171951926696
      ],
      [
        "Ġfishing",
        -10.002384798122062
      ],
      [
        "Ġwalls",
        -10.00242029596362
      ],
      [
        "Ġchoosing",
        -10.002481488223172
      ],
      [
        "Ġmatch",
        -10.0034868608738
      ],
      [
        "Ġcoat",
        -10.00374559455152
      ],
      [
        "Ġcolour",
        -10.00409715965186
      ],
      [
        "Ġnerve",
        -10.00425344325383
      ],
      [
        "Ġsecure",
        -10.004293995141197
      ],
      [
        "Ġvitamin",
        -10.00539488523892
      ],
      [
        "ĠDoes",
        -10.006048970679538
      ],
      [
        "Ġmachines",
        -10.00636064304854
      ],
      [
        "Ġbrought",
        -10.006391596976156
      ],
      [
        "Ġpowder",
        -10.006815376017752
      ],
      [
        "Ġcredit",
        -10.007500994427188
      ],
      [
        "Ġsamples",
        -10.00763761715461
      ],
      [
        "Ġstone",
        -10.007840098751624
      ],
      [
        "Ġfarmers",
        -10.00819659177619
      ],
      [
        "Ġfiber",
        -10.008504659869638
      ],
      [
        "Ġbatteries",
        -10.008643812183928
      ],
      [
        "Ġbutton",
        -10.00899343513366
      ],
      [
        "Ġconcentration",
        -10.010420376638791
      ],
      [
        "Ġcoffee",
        -10.011274160992809
      ],
      [
        "Ġblog",
        -10.011518788101132
      ],
      [
        "Ġjoint",
        -10.01169468396345
      ],
      [
        "not",
        -10.012373350090668
      ],
      [
        "Ġraise",
        -10.012534302967223
      ],
      [
        "Ġdetermined",
        -10.01305922276989
      ],
      [
        "Ġcontainer",
        -10.01446712352416
      ],
      [
        "Ġmonitoring",
        -10.014540089355284
      ],
      [
        "Ġtooth",
        -10.014797830730858
      ],
      [
        "Ġzero",
        -10.014929409023216
      ],
      [
        "ĠFood",
        -10.01506812408577
      ],
      [
        "my",
        -10.01518945285618
      ],
      [
        "that",
        -10.01583280383281
      ],
      [
        "Ġenter",
        -10.016901677078
      ],
      [
        "Ġhydrogen",
        -10.01725977428317
      ],
      [
        "Ġenvironments",
        -10.017769611341048
      ],
      [
        "Ġhole",
        -10.017869606939792
      ],
      [
        "Ġoffering",
        -10.018524996214746
      ],
      [
        "Ġrain",
        -10.01873777611804
      ],
      [
        "Ġprepared",
        -10.019464731189409
      ],
      [
        "Ġaudience",
        -10.019769394050511
      ],
      [
        "Ġclinical",
        -10.020167755401117
      ],
      [
        "Ġassist",
        -10.02017706781924
      ],
      [
        "-being",
        -10.021746634919378
      ],
      [
        "Finally",
        -10.022079738689442
      ],
      [
        "Ġperformed",
        -10.022171487057092
      ],
      [
        "Ġkept",
        -10.022294538908382
      ],
      [
        "Ġprocedure",
        -10.023428461408502
      ],
      [
        "Ġsurfaces",
        -10.023531658774589
      ],
      [
        "ĠJune",
        -10.023695080483284
      ],
      [
        "Ġlegs",
        -10.024421652721712
      ],
      [
        "Ġcombined",
        -10.024614960670633
      ],
      [
        "Ġorganizations",
        -10.024745938321423
      ],
      [
        "ĠGoogle",
        -10.02478389797496
      ],
      [
        "Many",
        -10.026457625208968
      ],
      [
        "-time",
        -10.02689486359746
      ],
      [
        "Ġsituations",
        -10.027052284241645
      ],
      [
        "Ġmainly",
        -10.027219860604037
      ],
      [
        "Ġintelligence",
        -10.027285715407931
      ],
      [
        "ĠBritish",
        -10.02862437055646
      ],
      [
        "Ġbreeding",
        -10.028836032881884
      ],
      [
        "Ġplate",
        -10.029431428002402
      ],
      [
        "Ġcrop",
        -10.02943228403883
      ],
      [
        "Ġdensity",
        -10.029475122292531
      ],
      [
        "Ġstatus",
        -10.030193616775696
      ],
      [
        "Ġpot",
        -10.030906307749955
      ],
      [
        "Â·",
        -10.03153730165818
      ],
      [
        "Ġextend",
        -10.031942263301806
      ],
      [
        "Ġvalve",
        -10.032147452800835
      ],
      [
        "Ġwar",
        -10.03224677090111
      ],
      [
        "Ġminimum",
        -10.032469593122633
      ],
      [
        "Ġappears",
        -10.033068650862392
      ],
      [
        "Ġmonitor",
        -10.033867700595772
      ],
      [
        "Ġconclusion",
        -10.03448530532368
      ],
      [
        "Ġfight",
        -10.035352342183051
      ],
      [
        "Ġfarm",
        -10.03618361197846
      ],
      [
        "Ġplayer",
        -10.036406245721704
      ],
      [
        "referred",
        -10.0364352423736
      ],
      [
        "Ġaspect",
        -10.036644951292606
      ],
      [
        "Ġeducational",
        -10.037172974683378
      ],
      [
        "ĠMarch",
        -10.037827002891628
      ],
      [
        "Ġcontrast",
        -10.03836810864799
      ],
      [
        "Ġnews",
        -10.038988787168975
      ],
      [
        "Ġprofessionals",
        -10.03917903657647
      ],
      [
        "ĠBlack",
        -10.039890691534264
      ],
      [
        "Ġfear",
        -10.040004095339317
      ],
      [
        "Ġawareness",
        -10.04009628187742
      ],
      [
        "Ġamazing",
        -10.040369283539588
      ],
      [
        "Ġcup",
        -10.040474270475778
      ],
      [
        "Ġattempt",
        -10.04078563699853
      ],
      [
        "Ġactions",
        -10.041267710923195
      ],
      [
        "Ġannual",
        -10.041759544094464
      ],
      [
        "-friendly",
        -10.04212372171744
      ],
      [
        "ĠGreen",
        -10.04218221172032
      ],
      [
        "lin",
        -10.04357310889118
      ],
      [
        "Ġchallenging",
        -10.043660601909275
      ],
      [
        "Ġuniverse",
        -10.04426773125963
      ],
      [
        "ĠJohn",
        -10.044411792476003
      ],
      [
        "Ġmeasured",
        -10.044614588295849
      ],
      [
        "Ġsurrounding",
        -10.045317138765162
      ],
      [
        "Ġapart",
        -10.04666644750434
      ],
      [
        "Ġimproving",
        -10.046870590964604
      ],
      [
        "Ġsell",
        -10.048277415571375
      ],
      [
        "ĠLe",
        -10.049502351217868
      ],
      [
        "Ġscene",
        -10.049816619672225
      ],
      [
        "Ġcook",
        -10.050500389378008
      ],
      [
        "ĠApril",
        -10.050814699807006
      ],
      [
        "ĠWell",
        -10.051903895637937
      ],
      [
        "can",
        -10.05304442446686
      ],
      [
        "Ġplays",
        -10.05313245261523
      ],
      [
        "ver",
        -10.053337034738307
      ],
      [
        "Ġsmart",
        -10.054157965876804
      ],
      [
        "Ġcrops",
        -10.054397515458335
      ],
      [
        "truly",
        -10.054941040885158
      ],
      [
        "Ġmobile",
        -10.055124519293695
      ],
      [
        "focused",
        -10.055387106881325
      ],
      [
        "ĠPeople",
        -10.05691373400276
      ],
      [
        "Ġsequence",
        -10.056982582334548
      ],
      [
        "ance",
        -10.057463962079844
      ],
      [
        "Ġchronic",
        -10.05759320067194
      ],
      [
        "Ġstock",
        -10.059569725635916
      ],
      [
        "Use",
        -10.060121075808746
      ],
      [
        "plenty",
        -10.06179384954586
      ],
      [
        "Ġshowing",
        -10.061811658397026
      ],
      [
        "Ġbar",
        -10.062674164930622
      ],
      [
        "Ġdesigns",
        -10.063358007885384
      ],
      [
        "Ġleads",
        -10.063387437382524
      ],
      [
        "Ġtrade",
        -10.064580189237065
      ],
      [
        "Ġdecide",
        -10.064615783946982
      ],
      [
        "Ġplane",
        -10.064751557536086
      ],
      [
        "Ġgear",
        -10.065279928242102
      ],
      [
        "Ġtail",
        -10.06646705774198
      ],
      [
        "Ġsensitive",
        -10.06682734255818
      ],
      [
        "Ġfundamental",
        -10.06702120641985
      ],
      [
        "Ġstarts",
        -10.06705116433054
      ],
      [
        "ĠInternational",
        -10.067813693309532
      ],
      [
        "ĠSystem",
        -10.068056704445434
      ],
      [
        "Ġtube",
        -10.069102606387409
      ],
      [
        "Ġerror",
        -10.06924096031589
      ],
      [
        "Ġconcern",
        -10.069354510005772
      ],
      [
        "Ġbottle",
        -10.06947352511602
      ],
      [
        "izing",
        -10.070197082744272
      ],
      [
        "ful",
        -10.070254380098174
      ],
      [
        "Ġdecrease",
        -10.070711977530149
      ],
      [
        "Ġriver",
        -10.071084393085991
      ],
      [
        "Ġchoices",
        -10.071346143896584
      ],
      [
        "ĠSan",
        -10.071461756694289
      ],
      [
        "`",
        -10.071504714558394
      ],
      [
        "Ġbite",
        -10.071689101539224
      ],
      [
        "Ġperhaps",
        -10.07194299833702
      ],
      [
        "Ġdust",
        -10.072548753306323
      ],
      [
        "Ġmechanical",
        -10.072549457295368
      ],
      [
        "Ġphotos",
        -10.072562207138352
      ],
      [
        "turned",
        -10.07325413680761
      ],
      [
        "Ġlaser",
        -10.073765981226218
      ],
      [
        "ger",
        -10.075125494574548
      ],
      [
        "Ġwhose",
        -10.07686172273374
      ],
      [
        "Ġdrain",
        -10.077099461338536
      ],
      [
        "ĠGreat",
        -10.078301823347884
      ],
      [
        "Ġmajority",
        -10.078330062898647
      ],
      [
        "time",
        -10.079951161581455
      ],
      [
        "Ġprinting",
        -10.080127359544104
      ],
      [
        "Ġpush",
        -10.080174280991065
      ],
      [
        "Ġmechanism",
        -10.08158274970346
      ],
      [
        "Ġleaving",
        -10.082117195605289
      ],
      [
        "ard",
        -10.082738990592503
      ],
      [
        "Ġstatement",
        -10.083370596256158
      ],
      [
        "ĠGo",
        -10.083804867351676
      ],
      [
        "Ġmission",
        -10.084810972342908
      ],
      [
        "Ġexhibit",
        -10.08527400812959
      ],
      [
        "ĠRed",
        -10.0862022314231
      ],
      [
        "Ġopening",
        -10.087296655066554
      ],
      [
        "Ġchocolate",
        -10.087935358323437
      ],
      [
        "Ġpreviously",
        -10.08808495825356
      ],
      [
        "Ġestimated",
        -10.08878939134792
      ],
      [
        "Ġsolve",
        -10.088967102415834
      ],
      [
        "Ġowner",
        -10.090287603386676
      ],
      [
        "Ġforces",
        -10.0903847516192
      ],
      [
        "Ġattract",
        -10.090982576129235
      ],
      [
        "Ġtreatments",
        -10.091602933997349
      ],
      [
        "Ġfilled",
        -10.093939140889928
      ],
      [
        "ĠHis",
        -10.094521880375504
      ],
      [
        "ĠPark",
        -10.094593935014036
      ],
      [
        "Ġten",
        -10.094877693346932
      ],
      [
        "Ġradiation",
        -10.096410891154363
      ],
      [
        "Ġspeaker",
        -10.096806074933593
      ],
      [
        "ĠBoth",
        -10.0970213927582
      ],
      [
        "Ġportion",
        -10.09735361685458
      ],
      [
        "Ġcatch",
        -10.09892832201938
      ],
      [
        "ten",
        -10.100417748651822
      ],
      [
        "shared",
        -10.100502733280347
      ],
      [
        "Ġselected",
        -10.100666419154322
      ],
      [
        "Ġtrust",
        -10.100914402734078
      ],
      [
        "Ġborn",
        -10.101004741239487
      ],
      [
        "Ġpercentage",
        -10.101663608135656
      ],
      [
        "Ġtechnical",
        -10.10229172875536
      ],
      [
        "Ġgenerated",
        -10.10252378002226
      ],
      [
        "Ġenable",
        -10.102926839354229
      ],
      [
        "Ġvisible",
        -10.103371134750578
      ],
      [
        "Ġwheel",
        -10.104256842703968
      ],
      [
        "Ġshapes",
        -10.1042937545164
      ],
      [
        "Ġrefers",
        -10.106135663083696
      ],
      [
        "Ġbones",
        -10.10666536573073
      ],
      [
        "ĠEnergy",
        -10.107079433457368
      ],
      [
        "Ġessay",
        -10.107426100370294
      ],
      [
        "Ġtried",
        -10.10760159415414
      ],
      [
        "ĠAfrican",
        -10.10760588580257
      ],
      [
        "Ġclothing",
        -10.107654766206611
      ],
      [
        "Ġminerals",
        -10.107942644244284
      ],
      [
        "Ġcreation",
        -10.108710269884646
      ],
      [
        "].",
        -10.108845369386383
      ],
      [
        "Ġconducted",
        -10.109375320114593
      ],
      [
        "Ġgap",
        -10.109739454040582
      ],
      [
        "ĠEducation",
        -10.110553981511249
      ],
      [
        "Ġpainting",
        -10.11235417880393
      ],
      [
        "Ġstable",
        -10.112561561609835
      ],
      [
        "Ġfeedback",
        -10.112637291038713
      ],
      [
        "Ġcm",
        -10.113998005130902
      ],
      [
        "Ġthick",
        -10.114072102443826
      ],
      [
        "chi",
        -10.11417229538936
      ],
      [
        "Ġcertainly",
        -10.116142828397088
      ],
      [
        "Ġinstallation",
        -10.116437514488268
      ],
      [
        "con",
        -10.116593711573843
      ],
      [
        "ated",
        -10.119236086562784
      ],
      [
        "Ġreactions",
        -10.119360531870765
      ],
      [
        "Ġhomes",
        -10.11976772783918
      ],
      [
        "Ġprior",
        -10.11993147388261
      ],
      [
        "ster",
        -10.12069213906618
      ],
      [
        "Ġconsidering",
        -10.120869085106088
      ],
      [
        "-related",
        -10.121800368884886
      ],
      [
        "Ġstar",
        -10.121887918248996
      ],
      [
        "Ġparticipants",
        -10.122853770028948
      ],
      [
        "Ġbudget",
        -10.122951259063262
      ],
      [
        "Ġproducing",
        -10.123075903911271
      ],
      [
        "Ġphotography",
        -10.12361259613561
      ],
      [
        "Ġintake",
        -10.124329510027732
      ],
      [
        "Ġpresented",
        -10.126130855110642
      ],
      [
        "Ġotherwise",
        -10.12682882616004
      ],
      [
        "her",
        -10.1269024384647
      ],
      [
        "Ġkinds",
        -10.127047301743174
      ],
      [
        "Ġagree",
        -10.129355558390008
      ],
      [
        "Ġrecovery",
        -10.12937600811184
      ],
      [
        "Ġsit",
        -10.12964420519148
      ],
      [
        "Ġcompounds",
        -10.12970386839843
      ],
      [
        "Ġdisorders",
        -10.12991840459376
      ],
      [
        "Ġskill",
        -10.130728973886724
      ],
      [
        "Ġmap",
        -10.13079962888433
      ],
      [
        "Ġlabel",
        -10.130978056773658
      ],
      [
        "Let",
        -10.131386589653092
      ],
      [
        "Ġexcessive",
        -10.132047035821776
      ],
      [
        "Ġharm",
        -10.13216206595724
      ],
      [
        "Ġatoms",
        -10.132534902482346
      ],
      [
        "nd",
        -10.13357469097109
      ],
      [
        "Ġcream",
        -10.133925645928812
      ],
      [
        "Ġpurposes",
        -10.136418911080389
      ],
      [
        "First",
        -10.136802397615478
      ],
      [
        "Ġsets",
        -10.137456860207225
      ],
      [
        "Ġinternet",
        -10.137775494130125
      ],
      [
        "min",
        -10.13789589915422
      ],
      [
        "Ġcooling",
        -10.138356054727224
      ],
      [
        "Ġbees",
        -10.138362085885696
      ],
      [
        "Ġelectrons",
        -10.138875915334992
      ],
      [
        "Ġemergency",
        -10.139479913284452
      ],
      [
        "Ġinflammation",
        -10.139700031380924
      ],
      [
        "Ġeight",
        -10.139869798847908
      ],
      [
        "Ġinstall",
        -10.140058168410338
      ],
      [
        "Ġcontrolled",
        -10.14022184275321
      ],
      [
        "Ġconcepts",
        -10.140812602430442
      ],
      [
        "Ġvarieties",
        -10.141130002718723
      ],
      [
        "Ġimpacts",
        -10.141947043414676
      ],
      [
        "but",
        -10.14199356002966
      ],
      [
        "Ġexpand",
        -10.142041608822485
      ],
      [
        "Ġformula",
        -10.14224963035547
      ],
      [
        "Ġvirtual",
        -10.14288985725733
      ],
      [
        "Ġpure",
        -10.143010026492563
      ],
      [
        "Ġpictures",
        -10.14360913187607
      ],
      [
        "ĠJuly",
        -10.143796741780893
      ],
      [
        "Ġengage",
        -10.144352525759802
      ],
      [
        "Ġdescription",
        -10.144423205549106
      ],
      [
        "Ġconsists",
        -10.144567084176773
      ],
      [
        "Ġdefinition",
        -10.14572101395022
      ],
      [
        "Ġnormally",
        -10.145905031974609
      ],
      [
        "Ġwalking",
        -10.145912412356296
      ],
      [
        "Ġaffects",
        -10.146109181964842
      ],
      [
        "Ġfoundation",
        -10.147328578653026
      ],
      [
        "Ġparent",
        -10.147632941858694
      ],
      [
        "Ġsauce",
        -10.147884369990097
      ],
      [
        "ĠKeep",
        -10.148029540097047
      ],
      [
        "ĠCity",
        -10.14902248189413
      ],
      [
        "Ġsurvival",
        -10.149300967083946
      ],
      [
        "Ġwhatever",
        -10.149320829603711
      ],
      [
        "Ġdiversity",
        -10.150429866119966
      ],
      [
        "Ġwouldn",
        -10.151037256817071
      ],
      [
        "Ġprinciples",
        -10.151819304815527
      ],
      [
        "Ġassessment",
        -10.152569162751204
      ],
      [
        "Ġdisorder",
        -10.153270796352556
      ],
      [
        "slowly",
        -10.153292922972232
      ],
      [
        "Ġsuit",
        -10.153563602418012
      ],
      [
        "ĠTake",
        -10.154847346361509
      ],
      [
        "Ġinner",
        -10.156126903101663
      ],
      [
        "Ġclosely",
        -10.156484267468077
      ],
      [
        "Ġexpert",
        -10.1566509759456
      ],
      [
        "Ġnutrition",
        -10.15703730238039
      ],
      [
        "Ġwarming",
        -10.157269928169184
      ],
      [
        "According",
        -10.15896343656765
      ],
      [
        "Ġdamaged",
        -10.15936044618923
      ],
      [
        "Ġensures",
        -10.159963901435663
      ],
      [
        "Ġfunctional",
        -10.160809027369677
      ],
      [
        "Ġcompare",
        -10.161160524328356
      ],
      [
        "Ġcarried",
        -10.162292345817589
      ],
      [
        "Ġdecided",
        -10.16397262369599
      ],
      [
        "let",
        -10.163975653521767
      ],
      [
        "Ġdecades",
        -10.164592858696327
      ],
      [
        "Ġcopper",
        -10.164605703346725
      ],
      [
        "see",
        -10.164730408269143
      ],
      [
        "Ġmixed",
        -10.164921647197744
      ],
      [
        "Ġdepend",
        -10.165123805724855
      ],
      [
        "ĠWest",
        -10.165343192397192
      ],
      [
        "Ġinsights",
        -10.165661670316652
      ],
      [
        "Ġunless",
        -10.165697068549386
      ],
      [
        "Ġboost",
        -10.165820081589423
      ],
      [
        "Ġseeing",
        -10.166470511449909
      ],
      [
        "ĠSeptember",
        -10.167677056129676
      ],
      [
        "Ġchapter",
        -10.167689180671946
      ],
      [
        "Ġbowl",
        -10.167850881689034
      ],
      [
        "Ġexcess",
        -10.168562548337622
      ],
      [
        "Ġholes",
        -10.168856608825187
      ],
      [
        "Ġdishes",
        -10.16925084334456
      ],
      [
        "Ġpress",
        -10.169621927142629
      ],
      [
        "with",
        -10.170390118036584
      ],
      [
        "Ġboat",
        -10.1708116685534
      ],
      [
        "Ġcollege",
        -10.170981037961733
      ],
      [
        "Ġspent",
        -10.171084325735
      ],
      [
        "Ġstick",
        -10.171753075591878
      ],
      [
        "era",
        -10.17240003397788
      ],
      [
        "ĠLa",
        -10.172555812763733
      ],
      [
        "Ġprofessor",
        -10.173262762536908
      ],
      [
        "ĠDi",
        -10.174335745674597
      ],
      [
        "Ġcommunicate",
        -10.174466096965732
      ],
      [
        "Ġtopics",
        -10.174603778650448
      ],
      [
        "Ġshift",
        -10.174798763474495
      ],
      [
        "Ġdemonstrate",
        -10.17487029943388
      ],
      [
        "Ġlinked",
        -10.17523044052394
      ],
      [
        "Ġdiscover",
        -10.175354025701589
      ],
      [
        "Ġinvestment",
        -10.176069154491792
      ],
      [
        "Ġtight",
        -10.177146947004951
      ],
      [
        "Ġdocument",
        -10.177230915934922
      ],
      [
        "ĠII",
        -10.17730061642435
      ],
      [
        "Ġtraffic",
        -10.17776881677081
      ],
      [
        "our",
        -10.17864305361061
      ],
      [
        "from",
        -10.178742237999238
      ],
      [
        "Ġtested",
        -10.17937646583207
      ],
      [
        "Ġdi",
        -10.180210899368287
      ],
      [
        "Ġgreenhouse",
        -10.180376170675297
      ],
      [
        "ium",
        -10.18052101597677
      ],
      [
        "Ġsizes",
        -10.1805847597464
      ],
      [
        "ĠIndian",
        -10.181018865187063
      ],
      [
        "Ġcorrectly",
        -10.181892444834885
      ],
      [
        "Ġacids",
        -10.18237883851684
      ],
      [
        "Ġcontaining",
        -10.183396238577826
      ],
      [
        "Ġrely",
        -10.183527063011711
      ],
      [
        "Ġfossil",
        -10.184640743761792
      ],
      [
        "Ġclearly",
        -10.184785185434407
      ],
      [
        "Ġship",
        -10.185426034020722
      ],
      [
        "Ġfix",
        -10.185456914387188
      ],
      [
        "Ġdistinct",
        -10.186673152107078
      ],
      [
        "Ġbutter",
        -10.186843225124992
      ],
      [
        "Ġpregnancy",
        -10.187694110533224
      ],
      [
        "Ġahead",
        -10.18804193249834
      ],
      [
        "Ġconsume",
        -10.18852265248702
      ],
      [
        "Ġputting",
        -10.189757574210732
      ],
      [
        "Ġhunting",
        -10.190524438397867
      ],
      [
        "Ġshot",
        -10.191192951134738
      ],
      [
        "Ġprey",
        -10.191843896298646
      ],
      [
        "Ġfiles",
        -10.192761595962784
      ],
      [
        "Ġtrain",
        -10.192853588185857
      ],
      [
        "Ġmaster",
        -10.193030780755825
      ],
      [
        "Ġattached",
        -10.193154670507976
      ],
      [
        "Ġbreast",
        -10.19321140152187
      ],
      [
        "Ġfamiliar",
        -10.193245601894583
      ],
      [
        "Ġinteraction",
        -10.194205174037462
      ],
      [
        "Ġmolecular",
        -10.194486580971692
      ],
      [
        "Ġmanner",
        -10.19484505624252
      ],
      [
        "Ġbigger",
        -10.195244368677296
      ],
      [
        "Ġcalcium",
        -10.195538065358882
      ],
      [
        "Ġcloser",
        -10.19633459250561
      ],
      [
        "Ġguidelines",
        -10.196641598085856
      ],
      [
        "Ġrepresents",
        -10.197538249899765
      ],
      [
        "Ġperiods",
        -10.197699644165734
      ],
      [
        "Ġseven",
        -10.198042554144225
      ],
      [
        "Ġtoxic",
        -10.198359474728909
      ],
      [
        "ĠMan",
        -10.198426635409568
      ],
      [
        "Ġmeeting",
        -10.198568559275682
      ],
      [
        "Ġmention",
        -10.199743834041264
      ],
      [
        "Ġthrive",
        -10.199890107898844
      ],
      [
        "Ġmarketing",
        -10.199917353311468
      ],
      [
        "Ġcreatures",
        -10.200431628294686
      ],
      [
        "Ġfirm",
        -10.200616358992097
      ],
      [
        "Ġaccuracy",
        -10.200787475169491
      ],
      [
        "Ġphysics",
        -10.201671586786489
      ],
      [
        "like",
        -10.2021739747346
      ],
      [
        "Ġstomach",
        -10.202218707603802
      ],
      [
        "Ġurban",
        -10.20292917617765
      ],
      [
        "ĠInstead",
        -10.20310575483239
      ],
      [
        "Ġbond",
        -10.204401073380168
      ],
      [
        "Ġcombine",
        -10.204517700769488
      ],
      [
        "Ġrace",
        -10.204979020232871
      ],
      [
        "Ġadapt",
        -10.20562791889214
      ],
      [
        "Ġprices",
        -10.205867017572702
      ],
      [
        "Ġvideos",
        -10.207206883533614
      ],
      [
        "Ġhappened",
        -10.2073163087847
      ],
      [
        "Be",
        -10.208294628743465
      ],
      [
        "Although",
        -10.208648806405591
      ],
      [
        "Ġbuying",
        -10.20865514939232
      ],
      [
        "Ġdefinitely",
        -10.209873546544454
      ],
      [
        "ĠCounty",
        -10.210172629727992
      ],
      [
        "ĠpH",
        -10.210530418028048
      ],
      [
        "Ġturning",
        -10.210742226252837
      ],
      [
        "Ġvast",
        -10.21130122695038
      ],
      [
        "Ġapproaches",
        -10.21138021629787
      ],
      [
        "ĠThus",
        -10.211452063278475
      ],
      [
        "Ġspeak",
        -10.212148379755018
      ],
      [
        "Ġpounds",
        -10.212467575903863
      ],
      [
        "</",
        -10.213630326414602
      ],
      [
        "Ġcreates",
        -10.21369196834917
      ],
      [
        "Ġbroken",
        -10.213973427975024
      ],
      [
        "Ġcomputers",
        -10.214258088000763
      ],
      [
        "Ġdis",
        -10.214433126703716
      ],
      [
        "ze",
        -10.21562969863244
      ],
      [
        "Ġcommand",
        -10.215919000800495
      ],
      [
        "ĠCheck",
        -10.216163590664936
      ],
      [
        "Ġcontract",
        -10.216211918409934
      ],
      [
        "Ġpages",
        -10.217419243625098
      ],
      [
        "Ġroute",
        -10.218757397315468
      ],
      [
        "Ġcareful",
        -10.218799052318367
      ],
      [
        "Ġschedule",
        -10.219786925379102
      ],
      [
        "ĠOctober",
        -10.219895406793558
      ],
      [
        "Ġlesson",
        -10.220014039200784
      ],
      [
        "over",
        -10.220488088947066
      ],
      [
        "Ġfixed",
        -10.221018998220671
      ],
      [
        "From",
        -10.221282758395104
      ],
      [
        "Ġpanel",
        -10.22157113508559
      ],
      [
        "ĠHome",
        -10.222147416611952
      ],
      [
        "Ġlaws",
        -10.22232334872101
      ],
      [
        "Share",
        -10.22236599117499
      ],
      [
        "back",
        -10.222423809618068
      ],
      [
        "Ġacademic",
        -10.22295692641869
      ],
      [
        "Ġbrush",
        -10.223385711734736
      ],
      [
        "Ġlocations",
        -10.2236211626043
      ],
      [
        "Ġmedication",
        -10.223923100329062
      ],
      [
        "Ġtall",
        -10.22443758422489
      ],
      [
        "Ġobtained",
        -10.224608002574406
      ],
      [
        "Ġinteractions",
        -10.224651117573082
      ],
      [
        "ang",
        -10.225419007200715
      ],
      [
        "Ġworry",
        -10.22544632447404
      ],
      [
        "Ġfinish",
        -10.226370529295671
      ],
      [
        "ĠGerman",
        -10.226572835690629
      ],
      [
        "Ġpreserve",
        -10.226783876463845
      ],
      [
        "Moreover",
        -10.227124773249352
      ],
      [
        "Ġpassed",
        -10.22743066430042
      ],
      [
        "Ġinstalled",
        -10.22751437620258
      ],
      [
        "ĠLike",
        -10.227523194947834
      ],
      [
        "Ġintended",
        -10.227784110476694
      ],
      [
        "Ġinter",
        -10.227901391729182
      ],
      [
        "Ġsides",
        -10.228143739670251
      ],
      [
        "ĠAbout",
        -10.228364106004111
      ],
      [
        "Ġfelt",
        -10.228487734248729
      ],
      [
        "Ġsharp",
        -10.228605605470989
      ],
      [
        "Ġjoin",
        -10.229822430275808
      ],
      [
        "Ġeconomy",
        -10.229879984208754
      ],
      [
        "Ġbalanced",
        -10.230036847406694
      ],
      [
        "ĠAugust",
        -10.230580806565396
      ],
      [
        "Ġmeals",
        -10.230940167514587
      ],
      [
        "ĠArt",
        -10.230971938329064
      ],
      [
        "Ġsheet",
        -10.231537256454152
      ],
      [
        "Ġindependent",
        -10.2315677412742
      ],
      [
        "Ġdioxide",
        -10.232543918773109
      ],
      [
        "Ġthermal",
        -10.232809931576828
      ],
      [
        "ĠDesign",
        -10.232990355526374
      ],
      [
        "Ġexact",
        -10.23309097210527
      ],
      [
        "âĢ¦ĊĊ",
        -10.233212787414242
      ],
      [
        "ĠAC",
        -10.233703620159952
      ],
      [
        "Ġworldwide",
        -10.23418382719215
      ],
      [
        "Ġdepression",
        -10.23436547762742
      ],
      [
        "Ġthrow",
        -10.235299592763424
      ],
      [
        "Ġsubstance",
        -10.235983385299969
      ],
      [
        "Ġsold",
        -10.236635742349698
      ],
      [
        "Ġfamous",
        -10.236784965495437
      ],
      [
        "Ġliver",
        -10.236803682021204
      ],
      [
        "Ġprotected",
        -10.236842416132175
      ],
      [
        "Ġsharing",
        -10.237169055732997
      ],
      [
        "Ġdeeper",
        -10.237542713291184
      ],
      [
        "removing",
        -10.238594553501596
      ],
      [
        "Ġrapidly",
        -10.2386714523123
      ],
      [
        "Ġtwice",
        -10.238930129500732
      ],
      [
        "Ġwindows",
        -10.239688913598624
      ],
      [
        "Ġfail",
        -10.239792994930436
      ],
      [
        "Ġwoman",
        -10.239825471034257
      ],
      [
        "ĠCollege",
        -10.239953602372005
      ],
      [
        "Ġsuggested",
        -10.240974444407795
      ],
      [
        "Ġcooked",
        -10.24102172610572
      ],
      [
        "Ġsent",
        -10.24103382584858
      ],
      [
        "Ġcollected",
        -10.24120729044904
      ],
      [
        "Ġinnovative",
        -10.241337905000252
      ],
      [
        "Ġcompound",
        -10.24236420775713
      ],
      [
        "ĠAct",
        -10.242703849538358
      ],
      [
        "ĠControl",
        -10.242869773529849
      ],
      [
        "Ġrecognize",
        -10.24334761604548
      ],
      [
        "ĠJanuary",
        -10.243358096546824
      ],
      [
        "Ġraised",
        -10.243452653680569
      ],
      [
        "Figure",
        -10.24383770723676
      ],
      [
        "Ġsuffer",
        -10.243927742882551
      ],
      [
        "Ġagriculture",
        -10.243953295888886
      ],
      [
        "Ġbegins",
        -10.24433484087814
      ],
      [
        "Ġinjuries",
        -10.244759101437127
      ],
      [
        "Ġbroad",
        -10.244981978985452
      ],
      [
        "Ġneck",
        -10.2463925934354
      ],
      [
        "Ġhabits",
        -10.246852242995612
      ],
      [
        "ĠMe",
        -10.247911889031402
      ],
      [
        "Ġrapid",
        -10.248120736887584
      ],
      [
        "Ġclosed",
        -10.248191642842494
      ],
      [
        "Ġleg",
        -10.24870013086846
      ],
      [
        "Ġturns",
        -10.248968360645446
      ],
      [
        "Ġnitrogen",
        -10.250022829364632
      ],
      [
        "Ġfurniture",
        -10.250621743443777
      ],
      [
        "Ġconvert",
        -10.250661630587992
      ],
      [
        "Ġproduces",
        -10.251361905652736
      ],
      [
        "Ġworkers",
        -10.251432166695562
      ],
      [
        "Ġnames",
        -10.25154044873576
      ],
      [
        "Ġbaking",
        -10.25200230548942
      ],
      [
        "Ġmath",
        -10.25250622609995
      ],
      [
        "^",
        -10.252639219016515
      ],
      [
        "Ġlay",
        -10.252741519985754
      ],
      [
        "Ġshoes",
        -10.253294628950297
      ],
      [
        "Ġpreparation",
        -10.253398007549553
      ],
      [
        "Ġhorses",
        -10.254453078086568
      ],
      [
        "led",
        -10.254577390987071
      ],
      [
        "Ġpreventing",
        -10.255264338425183
      ],
      [
        "ĠWhere",
        -10.255607170415129
      ],
      [
        "ĠChinese",
        -10.255649581641228
      ],
      [
        "Ġmanual",
        -10.255806334630538
      ],
      [
        "ĠCOVID",
        -10.256565950780423
      ],
      [
        "Ġecosystem",
        -10.256873754058926
      ],
      [
        "Ġhardware",
        -10.257373660177564
      ],
      [
        "Ġlawn",
        -10.257563281200804
      ],
      [
        "Ġminimize",
        -10.257674196874468
      ],
      [
        "ĠLife",
        -10.258599740096468
      ],
      [
        "Ġopposite",
        -10.259969567293204
      ],
      [
        "Ġarray",
        -10.260209711626938
      ],
      [
        "Ġwish",
        -10.26057621913326
      ],
      [
        ".[",
        -10.260832346217274
      ],
      [
        "ĠTime",
        -10.261181681070257
      ],
      [
        "ĠTechnology",
        -10.262646134606191
      ],
      [
        "Ġband",
        -10.262649637877065
      ],
      [
        "Ġitem",
        -10.263342034119674
      ],
      [
        "Ġstages",
        -10.26379661560742
      ],
      [
        "Ġoffered",
        -10.2645648371265
      ],
      [
        "ĠPower",
        -10.265142308987455
      ],
      [
        "Ġpests",
        -10.265521933434048
      ],
      [
        "Ġcommitment",
        -10.265706866111008
      ],
      [
        "Ġstability",
        -10.266523883997811
      ],
      [
        "Ġbiggest",
        -10.266701708443078
      ],
      [
        "Ġanswers",
        -10.267023182700212
      ],
      [
        "ĠWhite",
        -10.267190318512986
      ],
      [
        "Ġreports",
        -10.267453537803735
      ],
      [
        "Ġsurvey",
        -10.267511273301256
      ],
      [
        "Ġjournal",
        -10.267575496240203
      ],
      [
        "Ġsustainability",
        -10.268262817058211
      ],
      [
        "Ġdiagnosis",
        -10.268394381660048
      ],
      [
        "Ġexchange",
        -10.268738062325571
      ],
      [
        "Ġrequest",
        -10.26910775647496
      ],
      [
        "Ġbread",
        -10.269379835417892
      ],
      [
        "Ġrecipe",
        -10.27072320721484
      ],
      [
        "pp",
        -10.27085698673622
      ],
      [
        "Ġoperate",
        -10.270904314697972
      ],
      [
        "Ġmedications",
        -10.271017576342002
      ],
      [
        "Ġvariable",
        -10.271364107663253
      ],
      [
        "Ġnose",
        -10.27265956621087
      ],
      [
        "ĠMar",
        -10.27286032368903
      ],
      [
        "Ġseconds",
        -10.274239049539815
      ],
      [
        "Ġtrained",
        -10.274239859773903
      ],
      [
        "Ġcompetition",
        -10.274623018175394
      ],
      [
        "Ġformat",
        -10.274745687323174
      ],
      [
        "Ġoven",
        -10.275072199726235
      ],
      [
        "Ġincreasingly",
        -10.275965259754294
      ],
      [
        "looked",
        -10.276358532671493
      ],
      [
        "Ġdiscovery",
        -10.276578102781622
      ],
      [
        "Ġbiology",
        -10.27658034042873
      ],
      [
        "ĠLearning",
        -10.276653309048404
      ],
      [
        "ĠGuide",
        -10.277320203455298
      ],
      [
        "ĠFlorida",
        -10.277830325195142
      ],
      [
        "Ġcurve",
        -10.27785058071026
      ],
      [
        "Ġdriver",
        -10.278516811779989
      ],
      [
        "Ġexciting",
        -10.278518005361423
      ],
      [
        "ists",
        -10.27899118259332
      ],
      [
        "Ġdiagram",
        -10.278999081406551
      ],
      [
        "Ġdetection",
        -10.27910767263905
      ],
      [
        "work",
        -10.27945830416571
      ],
      [
        "Ġobtain",
        -10.279473905782517
      ],
      [
        "Ġworse",
        -10.280461207265995
      ],
      [
        "ĠProgram",
        -10.280763108760452
      ],
      [
        "Ġcompleted",
        -10.281408488221295
      ],
      [
        "Ġserver",
        -10.281450250217205
      ],
      [
        "Ġdelicious",
        -10.281787393309504
      ],
      [
        "Ġclothes",
        -10.282692901860957
      ],
      [
        "Ġflying",
        -10.283017157362847
      ],
      [
        "Ġdespite",
        -10.28321923831968
      ],
      [
        "ĠCon",
        -10.283409235177322
      ],
      [
        "Ġpeak",
        -10.2834310757635
      ],
      [
        "Ġspray",
        -10.283480324476171
      ],
      [
        "Ġrandom",
        -10.283488424625546
      ],
      [
        "Ġwash",
        -10.28390136320907
      ],
      [
        "Ġtip",
        -10.284065114202187
      ],
      [
        "ĠPlant",
        -10.285031498323368
      ],
      [
        "Ġhistorical",
        -10.285600995654788
      ],
      [
        "Ġdedicated",
        -10.285626942654496
      ],
      [
        "Ġindustries",
        -10.285629815760943
      ],
      [
        "Ġcapabilities",
        -10.286540208110967
      ],
      [
        "Ġnovel",
        -10.286750173517364
      ],
      [
        "Ġequation",
        -10.28683256131374
      ],
      [
        "Ġconventional",
        -10.286871860360105
      ],
      [
        "Ġbelieved",
        -10.287406733510808
      ],
      [
        "Ġfriendly",
        -10.287708221134444
      ],
      [
        "Ġpan",
        -10.287916260353144
      ],
      [
        "ĠAsia",
        -10.288227490837926
      ],
      [
        "Ġfan",
        -10.288873873091449
      ],
      [
        "Ġdiscussed",
        -10.289563060665063
      ],
      [
        "Ġmeasurement",
        -10.290861360644882
      ],
      [
        "Ġarm",
        -10.291142669838576
      ],
      [
        "Ġtea",
        -10.29116311305716
      ],
      [
        "Ġdrinking",
        -10.29140391530104
      ],
      [
        "Ġdanger",
        -10.291493073384318
      ],
      [
        "Ġexplained",
        -10.291772816876236
      ],
      [
        "que",
        -10.291804787238082
      ],
      [
        "Ġsubstances",
        -10.292632462814202
      ],
      [
        "Ġexploring",
        -10.29265401625487
      ],
      [
        "Ġagricultural",
        -10.292697513446264
      ],
      [
        "Ġinsurance",
        -10.292960611743656
      ],
      [
        "ĠTHE",
        -10.293015091421358
      ],
      [
        "Ġsuccessfully",
        -10.293307722816792
      ],
      [
        "Ġconnections",
        -10.293609103113518
      ],
      [
        "Ġregulations",
        -10.293718338819671
      ],
      [
        "Ġgave",
        -10.293724840854049
      ],
      [
        "ung",
        -10.293828638852933
      ],
      [
        "Ġtrouble",
        -10.294108245606616
      ],
      [
        "Ġsouth",
        -10.294141830116326
      ],
      [
        "Ġseeking",
        -10.294627580585106
      ],
      [
        "Ġemotions",
        -10.295271300335944
      ],
      [
        "Those",
        -10.295594608037796
      ],
      [
        "Ġinteract",
        -10.295812439776013
      ],
      [
        "~",
        -10.298058969054246
      ],
      [
        "Ġcharacters",
        -10.298450322104394
      ],
      [
        "Ġemployees",
        -10.298749144077906
      ],
      [
        "Ġthreat",
        -10.299482881475926
      ],
      [
        "Ġlibrary",
        -10.3000143603451
      ],
      [
        "Ġnest",
        -10.30037035054604
      ],
      [
        "Ġdynamic",
        -10.300824700795417
      ],
      [
        "Ġlessons",
        -10.30114900460612
      ],
      [
        "Ġmembrane",
        -10.30119969258948
      ],
      [
        "Ġburn",
        -10.301722171825665
      ],
      [
        "Ġinformed",
        -10.30194284865886
      ],
      [
        "Ġconfidence",
        -10.30212657492016
      ],
      [
        "Ġpreferences",
        -10.302501162021713
      ],
      [
        "Ġassess",
        -10.302731084497358
      ],
      [
        "ĠLED",
        -10.303070551919264
      ],
      [
        "Ġcounter",
        -10.303815248311082
      ],
      [
        "Ġmassive",
        -10.305109194198298
      ],
      [
        "Ġbuildings",
        -10.30523488467022
      ],
      [
        "ĠEast",
        -10.30543351044371
      ],
      [
        "Ġreplaced",
        -10.306266530800348
      ],
      [
        "Ġprogramming",
        -10.306634684212645
      ],
      [
        "Ġzone",
        -10.306803995164495
      ],
      [
        "Ġcollaboration",
        -10.30720979689047
      ],
      [
        "ĠTV",
        -10.30747561235674
      ],
      [
        "Ġconsumers",
        -10.307549723110204
      ],
      [
        "ties",
        -10.308025340566772
      ],
      [
        "Ġremote",
        -10.308240371589983
      ],
      [
        "Ġpackage",
        -10.308275944788027
      ],
      [
        "ĠPre",
        -10.30832930763169
      ],
      [
        "Ġgenome",
        -10.308675067070224
      ],
      [
        "Ġnorth",
        -10.308720806769518
      ],
      [
        "Ġchannel",
        -10.308785006946149
      ],
      [
        "ng",
        -10.309014921134464
      ],
      [
        "Ġguess",
        -10.30906891049187
      ],
      [
        "Ġnutrient",
        -10.30924464343895
      ],
      [
        "Ġexperiments",
        -10.309432990101875
      ],
      [
        "Ġoutcomes",
        -10.309714141699024
      ],
      [
        "-on",
        -10.310516866567292
      ],
      [
        "Ġfair",
        -10.311233052827054
      ],
      [
        "Ġcalories",
        -10.31132742213461
      ],
      [
        "Ġindoor",
        -10.311344550783277
      ],
      [
        "Not",
        -10.312351274801948
      ],
      [
        "Ġmanufacturer",
        -10.312632612824768
      ],
      [
        "ĠIts",
        -10.313803600163505
      ],
      [
        "Ġspaces",
        -10.313957759717873
      ],
      [
        "Ġpossibly",
        -10.31411134924477
      ],
      [
        "ĠSociety",
        -10.314468758700237
      ],
      [
        "Ġmenu",
        -10.315075436349366
      ],
      [
        "Ġusage",
        -10.315088390483124
      ],
      [
        "Ġunderlying",
        -10.315612487365984
      ],
      [
        "Ġconsequences",
        -10.31638563600702
      ],
      [
        "Ġexplanation",
        -10.316479105966906
      ],
      [
        "ĠAssociation",
        -10.316822381945007
      ],
      [
        "Ġrenewable",
        -10.316902699196085
      ],
      [
        "Ġexplains",
        -10.317053531186422
      ],
      [
        "Ġtear",
        -10.317265603069131
      ],
      [
        "ĠStudents",
        -10.319197181428116
      ],
      [
        "Ġinvolve",
        -10.319375536192911
      ],
      [
        "ĠGet",
        -10.319452811445649
      ],
      [
        "ĠTexas",
        -10.319630142131308
      ],
      [
        "Ġillness",
        -10.320331088443831
      ],
      [
        "-of",
        -10.320415431739274
      ],
      [
        "Ġblocks",
        -10.32092042584097
      ],
      [
        "Ġelectron",
        -10.32158054278821
      ],
      [
        "Ġyield",
        -10.321908160593363
      ],
      [
        "Ġimagine",
        -10.32203516094576
      ],
      [
        "Ġprocedures",
        -10.32219672538582
      ],
      [
        "Ġguidance",
        -10.322270975314373
      ],
      [
        "Ġintroduce",
        -10.322476233196433
      ],
      [
        "Ġadequate",
        -10.322489290870717
      ],
      [
        "Ġthread",
        -10.322494431627828
      ],
      [
        "Ġconstantly",
        -10.32307560782006
      ],
      [
        "Ġtrigger",
        -10.323317284300874
      ],
      [
        "ĠLi",
        -10.32333552767717
      ],
      [
        "Ġthoughts",
        -10.32382406194102
      ],
      [
        "Before",
        -10.324430569661216
      ],
      [
        "Ġreduces",
        -10.324982725016548
      ],
      [
        "Ġhandling",
        -10.325592013997058
      ],
      [
        "Ġorigin",
        -10.32581549427966
      ],
      [
        "Ġswimming",
        -10.326583597275404
      ],
      [
        "Ġcoal",
        -10.32665181829028
      ],
      [
        "Ġsex",
        -10.326758434419284
      ],
      [
        "set",
        -10.326909379072095
      ],
      [
        "Ġcorn",
        -10.326993571445383
      ],
      [
        "?\"",
        -10.327781145396251
      ],
      [
        "Ġplayed",
        -10.328933931128915
      ],
      [
        "Ġdiffer",
        -10.328998047027824
      ],
      [
        "Ġprove",
        -10.329111299687357
      ],
      [
        "Ġnotes",
        -10.330212443524696
      ],
      [
        "Ġcompost",
        -10.330945709154706
      ],
      [
        "Ġcoral",
        -10.331147116244066
      ],
      [
        "Ġmovements",
        -10.332238654580005
      ],
      [
        "ĠLook",
        -10.332813089511736
      ],
      [
        "ĠService",
        -10.33338716575966
      ],
      [
        "you",
        -10.334097097953764
      ],
      [
        "Ġrecorded",
        -10.334315040741702
      ],
      [
        "Ġpolitical",
        -10.334399968886792
      ],
      [
        "Ġblend",
        -10.334801674188224
      ],
      [
        "Ġsession",
        -10.335017330045448
      ],
      [
        "Ġrobot",
        -10.335632236722423
      ],
      [
        "Ġinterface",
        -10.335713638797078
      ],
      [
        "Since",
        -10.336135751594004
      ],
      [
        "Ġforests",
        -10.33641784556493
      ],
      [
        "king",
        -10.337142352421049
      ],
      [
        "Ġbasically",
        -10.33745749425983
      ],
      [
        "Ġvaccine",
        -10.337534954431025
      ],
      [
        "Ġdecline",
        -10.338125606932756
      ],
      [
        "Ġregard",
        -10.338422929630116
      ],
      [
        "Ġsport",
        -10.3389251853879
      ],
      [
        "Ġdiameter",
        -10.338929687783942
      ],
      [
        "Ġinterior",
        -10.33963098099568
      ],
      [
        "ker",
        -10.340132539403529
      ],
      [
        "Ġstudying",
        -10.340199632929073
      ],
      [
        "Ġspeech",
        -10.34052367130977
      ],
      [
        "Ġmice",
        -10.34381274789895
      ],
      [
        "Ġinnovation",
        -10.34459994772934
      ],
      [
        "Ġmineral",
        -10.344741318532485
      ],
      [
        "ĠRead",
        -10.344933364854231
      ],
      [
        "ING",
        -10.345343581697929
      ],
      [
        "Ġhoney",
        -10.345814982649005
      ],
      [
        "Ġhumidity",
        -10.347244400484472
      ],
      [
        "Ġsensors",
        -10.347477177748925
      ],
      [
        "Ġproposed",
        -10.34835177195562
      ],
      [
        "Ġpanels",
        -10.34845762388582
      ],
      [
        "Ġsoap",
        -10.348611782619775
      ],
      [
        "Ġforget",
        -10.34885920995487
      ],
      [
        "Ġstructural",
        -10.348863268950794
      ],
      [
        "Ġcontinued",
        -10.3490949538717
      ],
      [
        "Ġhospital",
        -10.34909664714957
      ],
      [
        "Ġmining",
        -10.349295810903518
      ],
      [
        "Ġsector",
        -10.34936710825636
      ],
      [
        "Ġvacuum",
        -10.349781464294818
      ],
      [
        "Ġjuice",
        -10.349804524281335
      ],
      [
        "Ġcoast",
        -10.349938906958691
      ],
      [
        ";Ċ",
        -10.35016885592917
      ],
      [
        "Ġwrote",
        -10.350326196454636
      ],
      [
        "Ġdelivery",
        -10.350409101492405
      ],
      [
        "Ġrocks",
        -10.350628946919366
      ],
      [
        "Ġdownload",
        -10.351111014999251
      ],
      [
        "Ġcollect",
        -10.351267051739292
      ],
      [
        "ĠTwo",
        -10.35181807228818
      ],
      [
        "Ġremaining",
        -10.352005642969935
      ],
      [
        "Ġextensive",
        -10.352167966661176
      ],
      [
        "Ã©",
        -10.35238327708402
      ],
      [
        "ĠSun",
        -10.352738402586576
      ],
      [
        "Ġassume",
        -10.353498165915331
      ],
      [
        "wood",
        -10.35354908262656
      ],
      [
        "ĠToday",
        -10.353661111280111
      ],
      [
        "engaging",
        -10.354140433737964
      ],
      [
        "Ġreplacement",
        -10.354259204777714
      ],
      [
        "ĠGood",
        -10.35517959057639
      ],
      [
        "Ġstring",
        -10.355225419560742
      ],
      [
        "Ġears",
        -10.355318325184896
      ],
      [
        "Ġparallel",
        -10.355969408653866
      ],
      [
        "Ġstores",
        -10.35644960697914
      ],
      [
        "Ġentirely",
        -10.356494096506829
      ],
      [
        "Ġsecondary",
        -10.356799913784952
      ],
      [
        "Ġrecords",
        -10.356982664888571
      ],
      [
        "âĪĴ",
        -10.357369907132403
      ],
      [
        "Ġmechanisms",
        -10.358366500194432
      ],
      [
        "Ġadds",
        -10.358376745454306
      ],
      [
        "Ġbreathing",
        -10.359094617009324
      ],
      [
        "Â°C",
        -10.359187384554916
      ],
      [
        "ĠAdd",
        -10.359391784711816
      ],
      [
        "fish",
        -10.359812825676626
      ],
      [
        "Ġrecycling",
        -10.359862686202964
      ],
      [
        "Ġcities",
        -10.359950347902036
      ],
      [
        "Ġdive",
        -10.360080996262962
      ],
      [
        "Ġindex",
        -10.360125634833222
      ],
      [
        "Ġletter",
        -10.360214435222248
      ],
      [
        "Ġmyself",
        -10.361196686575344
      ],
      [
        "Ġanywhere",
        -10.362476519330466
      ],
      [
        "Ġvegetable",
        -10.36277475430692
      ],
      [
        "Ġintroduction",
        -10.362880388566252
      ],
      [
        "Ġmissing",
        -10.363295575934412
      ],
      [
        "Ġsales",
        -10.363498378390815
      ],
      [
        "ĠNovember",
        -10.363692820450156
      ],
      [
        "all",
        -10.364480643609484
      ],
      [
        "Ġequivalent",
        -10.365530188747844
      ],
      [
        "lies",
        -10.365682291851142
      ],
      [
        "Ġride",
        -10.36571063442562
      ],
      [
        "Ġestablish",
        -10.366804079206853
      ],
      [
        "|Ċ",
        -10.366966614542552
      ],
      [
        "Ġtransportation",
        -10.36698698108095
      ],
      [
        "Ġserving",
        -10.36715974711992
      ],
      [
        "Ġpuppy",
        -10.367953751611989
      ],
      [
        "ĠHave",
        -10.36817634659638
      ],
      [
        "ash",
        -10.368285131321793
      ],
      [
        "Ġstudied",
        -10.36843319766422
      ],
      [
        "Ġcontinuous",
        -10.369744743442084
      ],
      [
        "Ġimprovement",
        -10.370024226952296
      ],
      [
        "Ġtitle",
        -10.37026242617794
      ],
      [
        "Ġpredict",
        -10.370479335360248
      ],
      [
        "Ġorange",
        -10.37076187072124
      ],
      [
        "Ġpipe",
        -10.370902592001013
      ],
      [
        "Ġdirt",
        -10.371122105058332
      ],
      [
        "Ġtrends",
        -10.371340586382484
      ],
      [
        "Ġfacilities",
        -10.371836533458811
      ],
      [
        "ĠRemember",
        -10.37245922211483
      ],
      [
        "Ġdose",
        -10.372532275857948
      ],
      [
        "Ġdebris",
        -10.372828916716008
      ],
      [
        "Ġbranches",
        -10.372968353343603
      ],
      [
        "Ġstrip",
        -10.373001992150297
      ],
      [
        "ĠCare",
        -10.373473247660726
      ],
      [
        "Ġapplying",
        -10.373612744763628
      ],
      [
        "Ġachieved",
        -10.373696827799298
      ],
      [
        "Ġexamine",
        -10.3741994278621
      ],
      [
        "Ġcreativity",
        -10.374281307668646
      ],
      [
        "ĠUn",
        -10.374534499452194
      ],
      [
        "Ġexcept",
        -10.37472852479557
      ],
      [
        "Using",
        -10.37505817774919
      ],
      [
        "Ġcovers",
        -10.375180644119665
      ],
      [
        "Ġsupporting",
        -10.375815321383312
      ],
      [
        "Ġsmoke",
        -10.375948827119482
      ],
      [
        "Ġouter",
        -10.376905017000464
      ],
      [
        "Ġstronger",
        -10.377364809602067
      ],
      [
        "Ġgravity",
        -10.377743671271771
      ],
      [
        "ĠAnother",
        -10.377800252105832
      ],
      [
        "Ġpest",
        -10.377880557820994
      ],
      [
        "Ġconflict",
        -10.378284453582022
      ],
      [
        "Ġreflect",
        -10.378290923397609
      ],
      [
        "ĠDecember",
        -10.378299774144434
      ],
      [
        "Ġlisted",
        -10.378455411431696
      ],
      [
        "Dr",
        -10.37934341074797
      ],
      [
        "Ġopinion",
        -10.379643406069908
      ],
      [
        "Ġtruth",
        -10.3799720205447
      ],
      [
        "Ġbreath",
        -10.380794940357864
      ],
      [
        "Ġaccessible",
        -10.381066364224258
      ],
      [
        "Ġrefer",
        -10.381276102657589
      ],
      [
        "Ġcards",
        -10.381696036937614
      ],
      [
        "don",
        -10.381999457618928
      ],
      [
        "Ġmilitary",
        -10.382180660882993
      ],
      [
        "Ġcon",
        -10.383628202509668
      ],
      [
        "Ġcake",
        -10.383845617726438
      ],
      [
        "Ġfrequent",
        -10.384289667362465
      ],
      [
        "Ġextended",
        -10.384408910187746
      ],
      [
        "wearing",
        -10.384525677583213
      ],
      [
        "ped",
        -10.384882603594438
      ],
      [
        "Ġreward",
        -10.384918316442194
      ],
      [
        "Ġstands",
        -10.38510183100768
      ],
      [
        "Ġhundreds",
        -10.385515558122757
      ],
      [
        "Ġpark",
        -10.385830126808871
      ],
      [
        "Ġsufficient",
        -10.385836657623566
      ],
      [
        "Ġfarming",
        -10.386232775057945
      ],
      [
        "ĠLake",
        -10.386375976471752
      ],
      [
        "ĠDevelopment",
        -10.386558373505329
      ],
      [
        "Ġlenses",
        -10.386865945181016
      ],
      [
        "Ġmetals",
        -10.387008533641596
      ],
      [
        "Ġwin",
        -10.387211236808277
      ],
      [
        "ĠData",
        -10.387775331944937
      ],
      [
        "Ġtropical",
        -10.388186339179262
      ],
      [
        "Ġparameters",
        -10.388220847437118
      ],
      [
        "Ġbehaviors",
        -10.388345826261355
      ],
      [
        "Ġaccept",
        -10.388697376996756
      ],
      [
        "Ġcustom",
        -10.388739474364275
      ],
      [
        "itis",
        -10.390109030366084
      ],
      [
        "ĠGroup",
        -10.39056032020122
      ],
      [
        "Ġstation",
        -10.391015410081724
      ],
      [
        "Ġincorporate",
        -10.3924406137601
      ],
      [
        "Ġprotective",
        -10.392441999558017
      ],
      [
        "Ġloose",
        -10.39263845053674
      ],
      [
        "ants",
        -10.393409366341348
      ],
      [
        "More",
        -10.394521362202331
      ],
      [
        "ĠMa",
        -10.39463489547538
      ],
      [
        "Ġmeasurements",
        -10.395170168550283
      ],
      [
        "ĠEngland",
        -10.395570580979156
      ],
      [
        "Ġimpossible",
        -10.39585139895316
      ],
      [
        "board",
        -10.396413360495393
      ],
      [
        "finally",
        -10.396425240284406
      ],
      [
        "Ġbeans",
        -10.396561345956393
      ],
      [
        "Ġdeliver",
        -10.396700924247748
      ],
      [
        "Ġinfected",
        -10.397395614033972
      ],
      [
        "Ġgone",
        -10.39743905596341
      ],
      [
        "Other",
        -10.397443072141902
      ],
      [
        "ĠFoundation",
        -10.39748601183442
      ],
      [
        "ĠNature",
        -10.397882236154397
      ],
      [
        "ĠProject",
        -10.397953740244866
      ],
      [
        "Ġcognitive",
        -10.397960463002288
      ],
      [
        "Don",
        -10.398653299699475
      ],
      [
        "Ġspecialized",
        -10.398974736100628
      ],
      [
        "\"The",
        -10.399434243462167
      ],
      [
        "moved",
        -10.39948774838287
      ],
      [
        "Ġeveryday",
        -10.399900606186296
      ],
      [
        "ĠPacific",
        -10.399973728598765
      ],
      [
        "Ġvelocity",
        -10.40032973861038
      ],
      [
        "><",
        -10.40052435366831
      ],
      [
        "ĠCat",
        -10.40058788618481
      ],
      [
        "Ġrecording",
        -10.40070011855014
      ],
      [
        "Ġpartner",
        -10.401128724744549
      ],
      [
        "Ġminute",
        -10.401363527061822
      ],
      [
        "Ġindicates",
        -10.401744526146045
      ],
      [
        "Ġlinks",
        -10.401749759449096
      ],
      [
        "Ġease",
        -10.402138470341615
      ],
      [
        "Ġdirector",
        -10.403461837828136
      ],
      [
        "Ġclassic",
        -10.4038998899366
      ],
      [
        "Ġveterinarian",
        -10.40472173333906
      ],
      [
        "Ġedges",
        -10.404818887949476
      ],
      [
        "Ġtire",
        -10.40487651912358
      ],
      [
        "ĠThrough",
        -10.404895027985429
      ],
      [
        "Ġefficiently",
        -10.40504939992043
      ],
      [
        "Ġgardening",
        -10.40518099032316
      ],
      [
        "Ġabsorb",
        -10.405319016111196
      ],
      [
        "ĠLearn",
        -10.405469435571884
      ],
      [
        "Ġassistance",
        -10.40565296276876
      ],
      [
        "Ġmeant",
        -10.406057886291311
      ],
      [
        "Ġsupported",
        -10.406232321931142
      ],
      [
        "Ġoral",
        -10.406678873249197
      ],
      [
        "Ġfeelings",
        -10.406859589200998
      ],
      [
        "ĠJapanese",
        -10.406871523423217
      ],
      [
        "ĠAd",
        -10.407457362559258
      ],
      [
        "Ġreact",
        -10.407669777474284
      ],
      [
        "Ġcomment",
        -10.40804075514327
      ],
      [
        "Ġprecise",
        -10.408240894774398
      ],
      [
        "ĠFebruary",
        -10.408459375874015
      ],
      [
        "ĠHa",
        -10.408597432092732
      ],
      [
        "Ġchosen",
        -10.408681587244082
      ],
      [
        "ence",
        -10.408723952668614
      ],
      [
        "Ġserved",
        -10.408775820781132
      ],
      [
        "ĠEvery",
        -10.40879334986235
      ],
      [
        "Ġremoval",
        -10.409761201434383
      ],
      [
        "Ġmeasuring",
        -10.410103235055349
      ],
      [
        "Ġwashing",
        -10.410283344247356
      ],
      [
        "Ġinstruction",
        -10.410914517355842
      ],
      [
        "Ġknowing",
        -10.41099963617117
      ],
      [
        "Ġresolution",
        -10.411082096682598
      ],
      [
        "ĠUp",
        -10.411115476540717
      ],
      [
        "Ġshock",
        -10.41161986807306
      ],
      [
        "Ġnetworks",
        -10.412343366393507
      ],
      [
        "Ġcable",
        -10.412556031514605
      ],
      [
        "Ġvet",
        -10.413065457029033
      ],
      [
        "Ġrealize",
        -10.413389509879575
      ],
      [
        "ranging",
        -10.413425877449123
      ],
      [
        "Ġcalculate",
        -10.413442642964082
      ],
      [
        "Ġasking",
        -10.413657501837596
      ],
      [
        "Ġhappening",
        -10.414596784474448
      ],
      [
        "light",
        -10.415056210462971
      ],
      [
        "Ġtaught",
        -10.415381356182587
      ],
      [
        "New",
        -10.415387493304364
      ],
      [
        "ĠIsland",
        -10.41605358893896
      ],
      [
        "Ġimplementation",
        -10.416875614814552
      ],
      [
        "Ġresponsibility",
        -10.417274659808996
      ],
      [
        "Ġbear",
        -10.41741238235706
      ],
      [
        "ĠBio",
        -10.417915980686471
      ],
      [
        "Ġdatabase",
        -10.418772506389148
      ],
      [
        "Ġwonder",
        -10.419018319597017
      ],
      [
        "Ġsymbol",
        -10.419206764746466
      ],
      [
        "ĠWork",
        -10.41941532042033
      ],
      [
        "]ĊĊ",
        -10.419892726195071
      ],
      [
        "Ġnorthern",
        -10.420777507757052
      ],
      [
        "Ġsouthern",
        -10.421017850560531
      ],
      [
        "Ġcomparison",
        -10.42169607476189
      ],
      [
        "Ġfemales",
        -10.422114424776376
      ],
      [
        "Ġbelief",
        -10.422136755702905
      ],
      [
        "Ġchemistry",
        -10.422246603838897
      ],
      [
        "Ġbreeds",
        -10.422308354362634
      ],
      [
        "Ġinch",
        -10.422950507566304
      ],
      [
        "Ġharvest",
        -10.423062079342523
      ],
      [
        "Ġexpertise",
        -10.423187261835624
      ],
      [
        "Ġthanks",
        -10.423581761197978
      ],
      [
        "Ġplus",
        -10.42381569353702
      ],
      [
        "Ġwhereas",
        -10.423829422790549
      ],
      [
        "Ġgum",
        -10.423848190001532
      ],
      [
        "Ġconsult",
        -10.42387363387062
      ],
      [
        "Ġobvious",
        -10.424066670689356
      ],
      [
        "Ġgrid",
        -10.424469091249293
      ],
      [
        "]Ċ",
        -10.424754882848582
      ],
      [
        "Ġmild",
        -10.424765686694723
      ],
      [
        "Ġprinciple",
        -10.427172485061606
      ],
      [
        "ĠSee",
        -10.427842241992105
      ],
      [
        "Ġtown",
        -10.42795750804684
      ],
      [
        "fewer",
        -10.428031949900635
      ],
      [
        "Ġfinished",
        -10.428451799861552
      ],
      [
        "Ġparty",
        -10.428801836082371
      ],
      [
        "rate",
        -10.429176069725235
      ],
      [
        "Ġruns",
        -10.429500908041565
      ],
      [
        "Ġvertical",
        -10.429699830004877
      ],
      [
        "ĠKa",
        -10.430115863028393
      ],
      [
        "Ġbags",
        -10.430192585657965
      ],
      [
        "Ġcopy",
        -10.43020228689322
      ],
      [
        "Ġbank",
        -10.4302783210911
      ],
      [
        "Ġseat",
        -10.430513291688968
      ],
      [
        "Ġtissues",
        -10.430710423701088
      ],
      [
        "Ġfascinating",
        -10.43074090210107
      ],
      [
        "ĠPlease",
        -10.431768311085152
      ],
      [
        "Ġgut",
        -10.432360508447012
      ],
      [
        "Ġshell",
        -10.432394505771914
      ],
      [
        "ĠGarden",
        -10.432671198859168
      ],
      [
        "Ġinfrastructure",
        -10.432788314325226
      ],
      [
        "Ġfollows",
        -10.433298644182916
      ],
      [
        "Ġalgorithm",
        -10.433464674302783
      ],
      [
        "ĠChildren",
        -10.43371734030525
      ],
      [
        "Ġpromoting",
        -10.43413848046364
      ],
      [
        "Ġcalls",
        -10.434611446882595
      ],
      [
        "Ġrights",
        -10.43485036979214
      ],
      [
        "ĠSi",
        -10.435930572789664
      ],
      [
        "Ġmolecule",
        -10.435937491443005
      ],
      [
        "Ġhighlight",
        -10.438178403742992
      ],
      [
        "Ġnarrow",
        -10.438316469213529
      ],
      [
        "Ġparticle",
        -10.438766975873596
      ],
      [
        "Ġvitamins",
        -10.43878068808117
      ],
      [
        "ĠManagement",
        -10.439029108151203
      ],
      [
        "Ġartists",
        -10.4391616776222
      ],
      [
        "Ġconcerned",
        -10.43932559612433
      ],
      [
        "cal",
        -10.439608611653613
      ],
      [
        "During",
        -10.440029401746628
      ],
      [
        "ĠHer",
        -10.440177691022187
      ],
      [
        "gen",
        -10.440386259010916
      ],
      [
        "Ġsitting",
        -10.440471365916467
      ],
      [
        "Ġhousehold",
        -10.441940180803414
      ],
      [
        "ĠOcean",
        -10.443763489335533
      ],
      [
        "water",
        -10.443894976845844
      ],
      [
        "Ġwonderful",
        -10.444225426793494
      ],
      [
        "Ġsteam",
        -10.444501597038697
      ],
      [
        "Ġalgorithms",
        -10.44452516430358
      ],
      [
        "-the",
        -10.44535244511856
      ],
      [
        "Ġlisten",
        -10.446077870997287
      ],
      [
        "Ġmanaging",
        -10.446142896507697
      ],
      [
        "ĠSe",
        -10.446355196426396
      ],
      [
        "ED",
        -10.44658023239277
      ],
      [
        "ĠNatural",
        -10.446651733517744
      ],
      [
        "noticed",
        -10.44668965416013
      ],
      [
        "ries",
        -10.446745368402691
      ],
      [
        "Ġstanding",
        -10.446795580052695
      ],
      [
        "Ġmark",
        -10.446825531177169
      ],
      [
        "ĠMo",
        -10.447634070415791
      ],
      [
        "Ġorgans",
        -10.44793850042196
      ],
      [
        "Â°",
        -10.44828189341414
      ],
      [
        "ick",
        -10.448638029749134
      ],
      [
        "Ġcameras",
        -10.448760457670769
      ],
      [
        "Ġultimately",
        -10.449048953594367
      ],
      [
        "ĠSa",
        -10.45005266367785
      ],
      [
        "Ġexercises",
        -10.45085217109784
      ],
      [
        "ĠDog",
        -10.450922215030108
      ],
      [
        "Ġpredators",
        -10.451425469966386
      ],
      [
        "Ġrepeat",
        -10.451702001533736
      ],
      [
        "ĠLight",
        -10.451949276449335
      ],
      [
        "Ġinsulation",
        -10.453048003009606
      ],
      [
        "Ġdivided",
        -10.453413056139835
      ],
      [
        "ĠMc",
        -10.45356267672502
      ],
      [
        "ĠBo",
        -10.45419150450249
      ],
      [
        "Ġsignificance",
        -10.454263215025946
      ],
      [
        "Ġlaboratory",
        -10.454269094071927
      ],
      [
        "ĠBlue",
        -10.454533258490216
      ],
      [
        "Ġsupplies",
        -10.455175019013131
      ],
      [
[...]
