{
  "version": "1.0",
  "truncation": null,
  "padding": null,
  "added_tokens": [
    {
      "id": 0,
      "content": "<|bos|>",
      "single_word": false,
      "lstrip": false,
      "rstrip": false,
      "normalized": false,
      "special": true
    },
    {
      "id": 1,
      "content": "<|user_start|>",
      "single_word": false,
      "lstrip": false,
      "rstrip": false,
      "normalized": false,
      "special": true
    },
    {
      "id": 2,
      "content": "<|user_end|>",
      "single_word": false,
      "lstrip": false,
      "rstrip": false,
      "normalized": false,
      "special": true
    },
    {
      "id": 3,
      "content": "<|assistant_start|>",
      "single_word": false,
      "lstrip": false,
      "rstrip": false,
      "normalized": false,
      "special": true
    },
    {
      "id": 4,
      "content": "<|assistant_end|>",
      "single_word": false,
      "lstrip": false,
      "rstrip": false,
      "normalized": false,
      "special": true
    },
    {
      "id": 5,
      "content": "<|python_start|>",
      "single_word": false,
      "lstrip": false,
      "rstrip": false,
      "normalized": false,
      "special": true
    },
    {
      "id": 6,
      "content": "<|python_end|>",
      "single_word": false,
      "lstrip": false,
      "rstrip": false,
      "normalized": false,
      "special": true
    },
    {
      "id": 7,
      "content": "<|output_start|>",
      "single_word": false,
      "lstrip": false,
      "rstrip": false,
      "normalized": false,
      "special": true
    },
    {
      "id": 8,
      "content": "<|output_end|>",
      "single_word": false,
      "lstrip": false,
      "rstrip": false,
      "normalized": false,
      "special": true
    },
    {
      "id": 9,
      "content": "<|unk|>",
      "single_word": false,
      "lstrip": false,
      "rstrip": false,
      "normalized": false,
      "special": true
    }
  ],
  "normalizer": null,
  "pre_tokenizer": {
    "type": "Sequence",
    "pretokenizers": [
      {
        "type": "Split",
        "pattern": {
          "Regex": "'(?i:[sdmt]|ll|ve|re)|[^\\r\\n\\p{L}\\p{N}]?+\\p{L}+|\\p{N}{1,2}| ?[^\\s\\p{L}\\p{N}]++[\\r\\n]*|\\s*[\\r\\n]|\\s+(?!\\S)|\\s+"
        },
        "behavior": "Isolated",
        "invert": false
      },
      {
        "type": "ByteLevel",
        "add_prefix_space": false,
        "trim_offsets": true,
        "use_regex": false
      }
    ]
  },
  "post_processor": {
    "type": "TemplateProcessing",
    "single": [
      {
        "Sequence": {
          "id": "A",
          "type_id": 0
        }
      }
    ],
    "pair": [
      {
        "Sequence": {
          "id": "A",
          "type_id": 0
        }
      },
      {
        "Sequence": {
          "id": "B",
          "type_id": 1
        }
      }
    ],
    "special_tokens": {}
  },
  "decoder": null,
  "model": {
    "type": "Unigram",
    "unk_id": 9,
    "vocab": [
      [
        "<|bos|>",
        0.0
      ],
      [
        "<|user_start|>",
        0.0
      ],
      [
        "<|user_end|>",
        0.0
      ],
      [
        "<|assistant_start|>",
        0.0
      ],
      [
        "<|assistant_end|>",
        0.0
      ],
      [
        "<|python_start|>",
        0.0
      ],
      [
        "<|python_end|>",
        0.0
      ],
      [
        "<|output_start|>",
        0.0
      ],
      [
        "<|output_end|>",
        0.0
      ],
      [
        "<|unk|>",
        0.0
      ],
      [
        "Ġ",
        -2.1894855149723593
      ],
      [
        "s",
        -3.0595203818309376
      ],
      [
        ",",
        -3.560568957885014
      ],
      [
        "Ġthe",
        -3.5848765083839993
      ],
      [
        ".",
        -3.8300806643509553
      ],
      [
        "a",
        -4.102103929406322
      ],
      [
        "Ġof",
        -4.262690332756707
      ],
      [
        "Ġto",
        -4.387401427144695
      ],
      [
        "Ġand",
        -4.451681238640225
      ],
      [
        "ing",
        -4.498343860351955
      ],
      [
        "d",
        -4.512537138795688
      ],
      [
        "t",
        -4.521873036599283
      ],
      [
        "e",
        -4.555869927952992
      ],
      [
        "y",
        -4.797165827744161
      ],
      [
        "Ġin",
        -4.8072732435575904
      ],
      [
        "o",
        -4.839533579337084
      ],
      [
        "'",
        -5.043247679207727
      ],
      [
        "and",
        -5.085815716457109
      ],
      [
        "Ċ",
        -5.122139723143373
      ],
      [
        "i",
        -5.160797833917368
      ],
      [
        "Ġthat",
        -5.184719450468922
      ],
      [
        "0",
        -5.202770266819485
      ],
      [
        "Ġfor",
        -5.230992166930177
      ],
      [
        "1",
        -5.293882646131632
      ],
      [
        ":",
        -5.3549144581251635
      ],
      [
        "n",
        -5.367835599517287
      ],
      [
        ".ĊĊ",
        -5.413900555868183
      ],
      [
        "ly",
        -5.416350540279229
      ],
      [
        "2",
        -5.468087127563539
      ],
      [
        "Ġyou",
        -5.470669140763306
      ],
      [
        "Ġwith",
        -5.509790114237923
      ],
      [
        "is",
        -5.518592430537229
      ],
      [
        ".Ċ",
        -5.5672867424533266
      ],
      [
        "Ġare",
        -5.666487647246301
      ],
      [
        "Ġbe",
        -5.710335305687389
      ],
      [
        "r",
        -5.712507964492648
      ],
      [
        "Ġis",
        -5.722798799121019
      ],
      [
        "Ġcan",
        -5.738115318721057
      ],
      [
        "on",
        -5.772507095969846
      ],
      [
        "-",
        -5.779813401704244
      ],
      [
        "ed",
        -5.8066082598461275
      ],
      [
        "Ġyour",
        -5.897902912263815
      ],
      [
        "ĊĊ",
        -5.90494632896103
      ],
      [
        "the",
        -5.921898300558738
      ],
      [
        "f",
        -5.961538459761725
      ],
      [
        "(",
        -6.023249268714238
      ],
      [
        "Ġa",
        -6.0237592603806664
      ],
      [
        "to",
        -6.031179232829267
      ],
      [
        "Ġhave",
        -6.033526938317321
      ],
      [
        "Ġfrom",
        -6.072104109628107
      ],
      [
        ")",
        -6.0933151346638805
      ],
      [
        "\"",
        -6.097296938834322
      ],
      [
        "3",
        -6.150151585585791
      ],
      [
        "ĠThe",
        -6.151752197555748
      ],
      [
        "I",
        -6.177517417859159
      ],
      [
        "in",
        -6.208132155225298
      ],
      [
        "5",
        -6.208680672840206
      ],
      [
        "?",
        -6.214209528258472
      ],
      [
        "Ġby",
        -6.2527108191133305
      ],
      [
        "it",
        -6.265026483222039
      ],
      [
        "ĠI",
        -6.285540538233734
      ],
      [
        "Ġthis",
        -6.287003280348316
      ],
      [
        "Ġnot",
        -6.316261524182156
      ],
      [
        "4",
        -6.328631514320342
      ],
      [
        "Ġor",
        -6.340022459143809
      ],
      [
        "Ġwill",
        -6.353113432221237
      ],
      [
        "The",
        -6.367509493177447
      ],
      [
        "Ġtheir",
        -6.377966737060458
      ],
      [
        "of",
        -6.3815447010039446
      ],
      [
        "Ġas",
        -6.410994814765889
      ],
      [
        "Ġan",
        -6.444676388772228
      ],
      [
        "9",
        -6.465928590259415
      ],
      [
        "l",
        -6.471008299114027
      ],
      [
        "Ġwas",
        -6.5315572427212985
      ],
      [
        "Ġmore",
        -6.533063570200355
      ],
      [
        "or",
        -6.59034082562844
      ],
      [
        "6",
        -6.593265012361318
      ],
      [
        "Ġthey",
        -6.617527883625144
      ],
      [
        "A",
        -6.646791278810973
      ],
      [
        "8",
        -6.64829875073438
      ],
      [
        "are",
        -6.676356720170894
      ],
      [
        "Ġbut",
        -6.677094536478393
      ],
      [
        "m",
        -6.684801496284537
      ],
      [
        "Ġwhich",
        -6.7029355251302984
      ],
      [
        "Question",
        -6.726019884642298
      ],
      [
        "Ġhas",
        -6.734879605148658
      ],
      [
        "7",
        -6.743568103023339
      ],
      [
        "Ġwe",
        -6.755238457643559
      ],
      [
        "Ġalso",
        -6.761508035994002
      ],
      [
        "ĠAnswer",
        -6.7927235490302
      ],
      [
        "c",
        -6.829479128057754
      ],
      [
        "Ġwhen",
        -6.877905178960363
      ],
      [
        "Ġabout",
        -6.9153612572053245
      ],
      [
        "Ġit",
        -6.9634094477718325
      ],
      [
        "Ġthem",
        -6.9874189745716375
      ],
      [
        "Ġlike",
        -6.995009113938028
      ],
      [
        "Ġtime",
        -6.996614363572599
      ],
      [
        "Ġneed",
        -6.9970670267729265
      ],
      [
        "h",
        -7.011863688077016
      ],
      [
        "Ġmay",
        -7.045872087170686
      ],
      [
        "Ġinto",
        -7.059900238631057
      ],
      [
        "Ġall",
        -7.060034680395699
      ],
      [
        "Ġout",
        -7.0957695398173435
      ],
      [
        "Ġother",
        -7.098169992030741
      ],
      [
        "Ġsome",
        -7.098237619217086
      ],
      [
        "one",
        -7.102729570615777
      ],
      [
        "Ġhow",
        -7.1112447347161005
      ],
      [
        "Ġon",
        -7.1294480118545955
      ],
      [
        "ĠThis",
        -7.147506102679458
      ],
      [
        "an",
        -7.148258828803193
      ],
      [
        "Ġthere",
        -7.149903932265884
      ],
      [
        "Ġup",
        -7.1501602272522025
      ],
      [
        "g",
        -7.16079687026963
      ],
      [
        "Ġ(",
        -7.165543389893569
      ],
      [
        "Ġwhat",
        -7.16682282349465
      ],
      [
        "ies",
        -7.181400956954132
      ],
      [
        "Ġthan",
        -7.18341813199385
      ],
      [
        "Ġwater",
        -7.203811331506088
      ],
      [
        "Ġuse",
        -7.205748121669057
      ],
      [
        "ĠIt",
        -7.206687379220863
      ],
      [
        "Ġthese",
        -7.218620771689864
      ],
      [
        "ĠA",
        -7.2339243309542365
      ],
      [
        "Ġdo",
        -7.247293588539499
      ],
      [
        "at",
        -7.247534808052473
      ],
      [
        "Ġhelp",
        -7.292459692258362
      ],
      [
        "ĠWhat",
        -7.307689924665786
      ],
      [
        "Ġbeen",
        -7.316001122913212
      ],
      [
        "Ġwould",
        -7.316840659344672
      ],
      [
        "Ġmake",
        -7.319986986754275
      ],
      [
        "Ġwere",
        -7.320778668623173
      ],
      [
        "Ġused",
        -7.356513849481457
      ],
      [
        "Ġany",
        -7.357757225184507
      ],
      [
        "Ġpeople",
        -7.359387494814643
      ],
      [
        "Ġwho",
        -7.360747153580142
      ],
      [
        "Ġmost",
        -7.36299281155773
      ],
      [
        "Ġshould",
        -7.366664800162004
      ],
      [
        "Ġnew",
        -7.367563859732307
      ],
      [
        "ĠIn",
        -7.372476268553751
      ],
      [
        "Ġsuch",
        -7.380236432369724
      ],
      [
        "as",
        -7.397937776127748
      ],
      [
        "b",
        -7.413079248633041
      ],
      [
        "Ġmany",
        -7.431270018106947
      ],
      [
        "Ġjust",
        -7.440038438278171
      ],
      [
        ";",
        -7.448163682957704
      ],
      [
        "What",
        -7.479656407182686
      ],
      [
        "/",
        -7.490843236462558
      ],
      [
        "u",
        -7.491354983140621
      ],
      [
        "Ġbetween",
        -7.495971518618674
      ],
      [
        "Ġdifferent",
        -7.500390278058681
      ],
      [
        "re",
        -7.509196365445309
      ],
      [
        "Ġover",
        -7.514141302264198
      ],
      [
        "Ġhigh",
        -7.519446402704311
      ],
      [
        "Ġget",
        -7.521434426527902
      ],
      [
        "Ġfirst",
        -7.547645999931781
      ],
      [
        "Ġplant",
        -7.549779441473319
      ],
      [
        "Ġwork",
        -7.553588842775893
      ],
      [
        "?Ċ",
        -7.561074427733693
      ],
      [
        "our",
        -7.564610200280443
      ],
      [
        "Ġprovide",
        -7.567773811519279
      ],
      [
        "Ġwell",
        -7.588795638290865
      ],
      [
        "Ġmy",
        -7.598881143517426
      ],
      [
        "able",
        -7.602310020626666
      ],
      [
        "Ġtwo",
        -7.604702197875241
      ],
      [
        "Ġthrough",
        -7.605198357839615
      ],
      [
        "Ġwhere",
        -7.611664710120845
      ],
      [
        "S",
        -7.613338355242256
      ],
      [
        "Ġi",
        -7.614211813829058
      ],
      [
        "Ġbecaus",
        -7.637711291208994
      ],
      [
        "Ġcould",
        -7.647943265990907
      ],
      [
        "!",
        -7.648328295181683
      ],
      [
        "Ġits",
        -7.66297786182945
      ],
      [
        "This",
        -7.677938434343357
      ],
      [
        "p",
        -7.680465334427781
      ],
      [
        "ever",
        -7.68428917029614
      ],
      [
        "Ġday",
        -7.68542063474723
      ],
      [
        "?ĊĊ",
        -7.687081105642514
      ],
      [
        "al",
        -7.706425433072781
      ],
      [
        "Ġlook",
        -7.712245274436043
      ],
      [
        "Ġsystem",
        -7.717410317743151
      ],
      [
        "Ġlong",
        -7.724581621758086
      ],
      [
        "Ġeven",
        -7.726025515415536
      ],
      [
        "Ġknow",
        -7.742794083338705
      ],
      [
        "Ġmuch",
        -7.74947241431032
      ],
      [
        "w",
        -7.756820889140146
      ],
      [
        "Ġevery",
        -7.757223222115091
      ],
      [
        "Ġdoes",
        -7.7623129133293665
      ],
      [
        "us",
        -7.76948350050687
      ],
      [
        "Ġfood",
        -7.770305543887658
      ],
      [
        "Ġhealth",
        -7.774283885626642
      ],
      [
        "Ġway",
        -7.787999587914227
      ],
      [
        "Ġgood",
        -7.796222806347395
      ],
      [
        "ĠThey",
        -7.8015057880197265
      ],
      [
        "Ġone",
        -7.810031053139462
      ],
      [
        "Ġimportant",
        -7.812767393276546
      ],
      [
        ").",
        -7.823181399450361
      ],
      [
        "Ġafter",
        -7.824288164509163
      ],
      [
        "Ġtake",
        -7.824644072257035
      ],
      [
        "es",
        -7.826377025113606
      ],
      [
        "Ġyears",
        -7.830591856758677
      ],
      [
        "C",
        -7.842444916742194
      ],
      [
        "ĠYou",
        -7.844458019617394
      ],
      [
        "Ġbefore",
        -7.846481141698352
      ],
      [
        "How",
        -7.846995644063366
      ],
      [
        "for",
        -7.849877912002266
      ],
      [
        "Ġbeing",
        -7.856100976358932
      ],
      [
        "Ġlevel",
        -7.86267515797864
      ],
      [
        "Ġlarge",
        -7.865397853101438
      ],
      [
        "In",
        -7.874402751829821
      ],
      [
        "Ġhuman",
        -7.876874038295075
      ],
      [
        "D",
        -7.879507571561219
      ],
      [
        "Ġwhile",
        -7.891083150610282
      ],
      [
        "ve",
        -7.896311189578129
      ],
      [
        "Ġsame",
        -7.9022181703114684
      ],
      [
        "Ġusing",
        -7.902683275005692
      ],
      [
        "T",
        -7.903419963728656
      ],
      [
        "Ġhad",
        -7.903462304279536
      ],
      [
        "Ġworld",
        -7.905620381234867
      ],
      [
        "Ġlife",
        -7.908087532119798
      ],
      [
        "Ġwant",
        -7.908422636359765
      ],
      [
        "ness",
        -7.912822304806481
      ],
      [
        "Ġboth",
        -7.914515178257316
      ],
      [
        "Ġdata",
        -7.916332664925179
      ],
      [
        "Ġaround",
        -7.927513095047208
      ],
      [
        "all",
        -7.9306788214598525
      ],
      [
        "ity",
        -7.932703786666234
      ],
      [
        "Ġcause",
        -7.93477172180862
      ],
      [
        "Ġno",
        -7.947032370105087
      ],
      [
        "Ġsee",
        -7.953460930999573
      ],
      [
        "Ġduring",
        -7.962490055843619
      ],
      [
        "Ġdon",
        -7.962714114140127
      ],
      [
        "Ġat",
        -7.964363879926469
      ],
      [
        "Ġmaterial",
        -7.965166136021288
      ],
      [
        "Ġdown",
        -7.966040162897213
      ],
      [
        "x",
        -7.966393288360726
      ],
      [
        "other",
        -7.973328376152808
      ],
      [
        "Ġpart",
        -7.97811043078446
      ],
      [
        "Ġinclude",
        -7.978587089811827
      ],
      [
        "Ġthink",
        -7.980766772145545
      ],
      [
        "Ġthose",
        -7.981333360654555
      ],
      [
        "Ġprocess",
        -7.997626362651866
      ],
      [
        "Ġlight",
        -7.9981547944691505
      ],
      [
        "Ġback",
        -8.005586627468993
      ],
      [
        "Ġfollow",
        -8.006113616766807
      ],
      [
        "ĠâĢĵ",
        -8.008451222526737
      ],
      [
        "Ġsmall",
        -8.01510276071729
      ],
      [
        "Ġcome",
        -8.022228585541292
      ],
      [
        "Ġbody",
        -8.022274561665883
      ],
      [
        "Ġbest",
        -8.026537606430622
      ],
      [
        "Ġstart",
        -8.02980688080391
      ],
      [
        "%",
        -8.030067145354272
      ],
      [
        "Ġfind",
        -8.032965128273645
      ],
      [
        "Ġfound",
        -8.043156198335154
      ],
      [
        "Ġenergy",
        -8.048547383967918
      ],
      [
        "Ġcommon",
        -8.050059772865588
      ],
      [
        "âĢĻ",
        -8.054815225727552
      ],
      [
        "Ġrequire",
        -8.055637404792597
      ],
      [
        "),",
        -8.05684818960943
      ],
      [
        "Ġyear",
        -8.059042128569551
      ],
      [
        "ĠC",
        -8.062772885327965
      ],
      [
        "Ġincrease",
        -8.064191252511701
      ],
      [
        "he",
        -8.06857898466852
      ],
      [
        "if",
        -8.069441968106485
      ],
      [
        "be",
        -8.072239267099778
      ],
      [
        "ĠHow",
        -8.079422411743591
      ],
      [
        "Ġright",
        -8.080905144099646
      ],
      [
        "Ġchange",
        -8.088515672890306
      ],
      [
        "Ġmade",
        -8.089115496444366
      ],
      [
        "Ġshow",
        -8.092377328158221
      ],
      [
        "Ġoften",
        -8.095515334952896
      ],
      [
        "Ġstudents",
        -8.095626975356481
      ],
      [
        "Ġhis",
        -8.097878069862912
      ],
      [
        "that",
        -8.104001216199624
      ],
      [
        "Ġkeep",
        -8.114544197395489
      ],
      [
        "Ġhome",
        -8.115767428816282
      ],
      [
        "Ġinformation",
        -8.117130001397555
      ],
      [
        "ĠWe",
        -8.12682055789054
      ],
      [
        "ĠFor",
        -8.12996857503036
      ],
      [
        "Ġbetter",
        -8.13238721477823
      ],
      [
        "Ġtemperature",
        -8.13298061551615
      ],
      [
        "ĠB",
        -8.133127581383352
      ],
      [
        "Ġsaid",
        -8.141808314393906
      ],
      [
        "by",
        -8.148281958123784
      ],
      [
        "If",
        -8.148811467687327
      ],
      [
        "Ġnumber",
        -8.14901314066276
      ],
      [
        "Ġspecies",
        -8.150068945740792
      ],
      [
        "without",
        -8.158792306032797
      ],
      [
        "Ġresearch",
        -8.160794371351773
      ],
      [
        "Ġour",
        -8.167312925865312
      ],
      [
        "Ġbecome",
        -8.169636892185236
      ],
      [
        "bility",
        -8.171601520722021
      ],
      [
        "Ġcondition",
        -8.177636576217807
      ],
      [
        "Ġgrow",
        -8.179750124909035
      ],
      [
        "Ġstudy",
        -8.181598356986566
      ],
      [
        "Ġexample",
        -8.182200962721414
      ],
      [
        "Ġb",
        -8.18605109650016
      ],
      [
        "Ġpotential",
        -8.187026204628921
      ],
      [
        "less",
        -8.187859771364202
      ],
      [
        "B",
        -8.188627246619784
      ],
      [
        "Ġvery",
        -8.192521339724436
      ],
      [
        "Ġdog",
        -8.198206087093611
      ],
      [
        "Ġgreat",
        -8.200776498529027
      ],
      [
        "Ġmethod",
        -8.201099375417376
      ],
      [
        "Ġarea",
        -8.20319628968328
      ],
      [
        "Ġchildren",
        -8.205753630220805
      ],
      [
        "ĠS",
        -8.207076855855828
      ],
      [
        "Ġso",
        -8.20736755851425
      ],
      [
        "Ġexperience",
        -8.210259300373789
      ],
      [
        "Ġcreate",
        -8.218384833491779
      ],
      [
        "Ġstill",
        -8.22533506959638
      ],
      [
        "Ġschool",
        -8.226224264632862
      ],
      [
        "its",
        -8.227690000096457
      ],
      [
        "each",
        -8.23851472835669
      ],
      [
        "thing",
        -8.23960922646771
      ],
      [
        "Ġmight",
        -8.243704520220906
      ],
      [
        "Ġfew",
        -8.24375967074684
      ],
      [
        "Ġsupport",
        -8.243940479348854
      ],
      [
        "ĠTo",
        -8.246278820857828
      ],
      [
        "Ġcar",
        -8.246650392714082
      ],
      [
        "Ġcontrol",
        -8.249378593688608
      ],
      [
        "Ġgo",
        -8.255890936697401
      ],
      [
        "ĠThese",
        -8.256319301936468
      ],
      [
        "Ġissue",
        -8.259149117560522
      ],
      [
        "Ġair",
        -8.263902306593522
      ],
      [
        "Ġresult",
        -8.264538340817515
      ],
      [
        "Ġinclud",
        -8.26882181365783
      ],
      [
        "Ġdisease",
        -8.273092259888934
      ],
      [
        "Ġgive",
        -8.276338944712617
      ],
      [
        ":ĊĊ",
        -8.282095391317958
      ],
      [
        "Ġunder",
        -8.28407500163421
      ],
      [
        "Ġoff",
        -8.285748441726316
      ],
      [
        "Ġthree",
        -8.29129951085075
      ],
      [
        "Ġdesign",
        -8.292039145562416
      ],
      [
        "Ġreduce",
        -8.298849726430369
      ],
      [
        "Ġpower",
        -8.299061340017065
      ],
      [
        "Ġplace",
        -8.309532120610875
      ],
      [
        "âĢĵ",
        -8.31637540880098
      ],
      [
        "Ġnatural",
        -8.321523330491246
      ],
      [
        "Ġgroup",
        -8.32355568484089
      ],
      [
        "Ġthing",
        -8.324129884346359
      ],
      [
        "Ġenvironment",
        -8.330142385823116
      ],
      [
        "nly",
        -8.332302139514582
      ],
      [
        "Ġreally",
        -8.335970545589582
      ],
      [
        "Ġrisk",
        -8.338382796221742
      ],
      [
        "Ġmust",
        -8.338728680605296
      ],
      [
        "ĠBut",
        -8.341576738824468
      ],
      [
        "Ġcase",
        -8.347074621792785
      ],
      [
        "ation",
        -8.354336921406308
      ],
      [
        "can",
        -8.356964302176905
      ],
      [
        "Ġblood",
        -8.357104364982145
      ],
      [
        "ll",
        -8.35715652391341
      ],
      [
        "Ġwithin",
        -8.358398947389713
      ],
      [
        "Ġtype",
        -8.358870034544198
      ],
      [
        "Ġprevent",
        -8.359119119562326
      ],
      [
        "Ġbenefit",
        -8.36126702866276
      ],
      [
        "âĢĶ",
        -8.364727086472708
      ],
      [
        "Ġquestion",
        -8.365328528299438
      ],
      [
        "When",
        -8.366134893565455
      ],
      [
        "Ġknown",
        -8.370280993230386
      ],
      [
        "this",
        -8.378375397837784
      ],
      [
        "Ġher",
        -8.38178285982675
      ],
      [
        "Ġensure",
        -8.385536324942503
      ],
      [
        "based",
        -8.388907572596784
      ],
      [
        "Ġsoil",
        -8.396263317506772
      ],
      [
        "use",
        -8.402745556408917
      ],
      [
        "Ġanother",
        -8.404978643917804
      ],
      [
        "Ġcalled",
        -8.410557603645938
      ],
      [
        ":Ċ",
        -8.412276599010571
      ],
      [
        "Ġform",
        -8.413805025716737
      ],
      [
        "Ġplay",
        -8.41546833856501
      ],
      [
        "Ġcost",
        -8.416415951280344
      ],
      [
        "ĠAnd",
        -8.420701045363753
      ],
      [
        "Ġwhy",
        -8.431120657084996
      ],
      [
        "Ġeach",
        -8.432305209653904
      ],
      [
        "You",
        -8.434844957821198
      ],
      [
        "Ġpossible",
        -8.442047889126572
      ],
      [
        "Ġsomething",
        -8.444365040037248
      ],
      [
        "ally",
        -8.44791555816196
      ],
      [
        "Ġlead",
        -8.448213799530567
      ],
      [
        "Ġacid",
        -8.44851616748884
      ],
      [
        "Ġamount",
        -8.450151595013837
      ],
      [
        "Ġt",
        -8.453018256140293
      ],
      [
        "ic",
        -8.456017828657153
      ],
      [
        "Ġmaking",
        -8.45764279085153
      ],
      [
        "Ġproject",
        -8.457964662074481
      ],
      [
        "Ġcolor",
        -8.462265089290359
      ],
      [
        "Ġmain",
        -8.465813880512268
      ],
      [
        "very",
        -8.4669039256977
      ],
      [
        "er",
        -8.468207523599254
      ],
      [
        "Ġalways",
        -8.468295982720674
      ],
      [
        "Ġnow",
        -8.472083126728513
      ],
      [
        "Ġproblem",
        -8.472166921665124
      ],
      [
        "!Ċ",
        -8.473911180535762
      ],
      [
        "Ġvarious",
        -8.475242441907755
      ],
      [
        "Ġdue",
        -8.47584846877391
      ],
      [
        "Ġpoint",
        -8.476740822036625
      ],
      [
        "k",
        -8.478421036739025
      ],
      [
        "Ġlearn",
        -8.486456275293117
      ],
      [
        "not",
        -8.492034187879234
      ],
      [
        "um",
        -8.494225050561251
      ],
      [
        "Ġvalue",
        -8.496277297756112
      ],
      [
        "you",
        -8.499841549078653
      ],
      [
        "Ġteam",
        -8.502657571238167
      ],
      [
        "Ġanimals",
        -8.503020522469384
      ],
      [
        "more",
        -8.508883911081
      ],
      [
        "Ġdid",
        -8.510715152566382
      ],
      [
        "Ġcare",
        -8.511801105270898
      ],
      [
        "Ġheat",
        -8.520651974891056
      ],
      [
        "...",
        -8.520697220767882
      ],
      [
        "Ġspecific",
        -8.523741796451592
      ],
      [
        "Ġsource",
        -8.526700945155827
      ],
      [
        "Ġspace",
        -8.529293413907173
      ],
      [
        "Ġsurface",
        -8.532976809691997
      ],
      [
        "Ġlittle",
        -8.533508086191556
      ],
      [
        "Ġdevelopment",
        -8.534327834539395
      ],
      [
        "Ġme",
        -8.534395192331964
      ],
      [
        "v",
        -8.535139255703854
      ],
      [
        "There",
        -8.537229597275061
      ],
      [
        "using",
        -8.537991390827806
      ],
      [
        "E",
        -8.538566286063316
      ],
      [
        "age",
        -8.539265460366792
      ],
      [
        "Ġmean",
        -8.540145373577829
      ],
      [
        "Ġcontain",
        -8.548257828234028
      ],
      [
        "Ġtree",
        -8.55135012084984
      ],
      [
        "Ġth",
        -8.56002622010669
      ],
      [
        "Ġrange",
        -8.561553856742362
      ],
      [
        "ance",
        -8.569420423828573
      ],
      [
        "though",
        -8.57028477690189
      ],
      [
        "O",
        -8.574309899154239
      ],
      [
        "Ġpressure",
        -8.575462555229063
      ],
      [
        "Ġcurrent",
        -8.576565951777063
      ],
      [
        "Ġenough",
        -8.577446152413362
      ],
      [
        "P",
        -8.579730202381477
      ],
      [
        "+",
        -8.580072432848146
      ],
      [
        "Ġlearning",
        -8.58244418978148
      ],
      [
        "Ġsignificant",
        -8.58426815030932
      ],
      [
        "several",
        -8.585996386535953
      ],
      [
        "Ġobject",
        -8.591024731828362
      ],
      [
        "ĠE",
        -8.593265766352168
      ],
      [
        "Ġper",
        -8.594255710122667
      ],
      [
        "ĠSo",
        -8.595589311412528
      ],
      [
        "Ġfeel",
        -8.596347202276604
      ],
      [
        "Ġdevelop",
        -8.600668522201854
      ],
      [
        "Ġavailable",
        -8.60110415637377
      ],
      [
        "Ġgeneral",
        -8.60353957516568
      ],
      [
        "Ġsecond",
        -8.60456683474877
      ],
      [
        "Ġessential",
        -8.608926241449279
      ],
      [
        "Ġcells",
        -8.609004407424802
      ],
      [
        "Ġquality",
        -8.610698243289594
      ],
      [
        "Ġgoing",
        -8.61197123283824
      ],
      [
        "Ġthen",
        -8.612212209317033
      ],
      [
        "th",
        -8.61363778070174
      ],
      [
        "Ġfactor",
        -8.614388528321637
      ],
      [
        "Ġindividual",
        -8.617086229378698
      ],
      [
        "used",
        -8.617953110541618
      ],
      [
        "Ġlive",
        -8.619219663235157
      ],
      [
        "Ġrole",
        -8.621281030144106
      ],
      [
        "Ġproducts",
        -8.624195151659523
      ],
      [
        "ĠWhen",
        -8.624246591262784
      ],
      [
        "Ġimpact",
        -8.626461865060481
      ],
      [
        "Ġend",
        -8.626491482461523
      ],
      [
        "with",
        -8.627981070198256
      ],
      [
        "Ġweek",
        -8.631101437041416
      ],
      [
        "Ġstate",
        -8.634098713886294
      ],
      [
        "Ġhappen",
        -8.638981491593341
      ],
      [
        "Ġleave",
        -8.641062371486253
      ],
      [
        "Ġtogether",
        -8.64244802446073
      ],
      [
        "Ġfunction",
        -8.643635120305774
      ],
      [
        "Ġproblems",
        -8.645215419795292
      ],
      [
        "ion",
        -8.645699104352728
      ],
      [
        "ĠAs",
        -8.646005143909523
      ],
      [
        "having",
        -8.64646841768181
      ],
      [
        "ĠThere",
        -8.647480759953803
      ],
      [
        "Ġmodel",
        -8.650521591119151
      ],
      [
        "Ġallow",
        -8.652042605160275
      ],
      [
        "Ġimprove",
        -8.652656555985292
      ],
      [
        "Ġperson",
        -8.654242576578145
      ],
      [
        "Ġlocal",
        -8.657121066099227
      ],
      [
        "Ġparticular",
        -8.65817480672432
      ],
      [
        "way",
        -8.658445228988612
      ],
      [
        "Ġif",
        -8.659560930546263
      ],
      [
        "Ġtext",
        -8.661206167558127
      ],
      [
        "ĠM",
        -8.663183166840422
      ],
      [
        "Ġunderstand",
        -8.667052003668076
      ],
      [
        "most",
        -8.667087827193747
      ],
      [
        "Ġproduce",
        -8.66713220401758
      ],
      [
        "ĠP",
        -8.668229776275389
      ],
      [
        "Ġname",
        -8.670247710440359
      ],
      [
        "Ġorder",
        -8.670800307464656
      ],
      [
        "Ġmakes",
        -8.670955891795334
      ],
      [
        "Ġcertain",
        -8.673231294044015
      ],
      [
        "Ġtest",
        -8.674366569983302
      ],
      [
        "Ġturn",
        -8.676991320136164
      ],
      [
        "Ġtechnique",
        -8.678243855019032
      ],
      [
        "Ġun",
        -8.680377986604036
      ],
      [
        "Ġsolution",
        -8.680556038175098
      ],
      [
        "Ġopen",
        -8.682406951714816
      ],
      [
        "Ġdiet",
        -8.683625355791264
      ],
      [
        "Ġgarden",
        -8.685129864468625
      ],
      [
        "M",
        -8.68709352006357
      ],
      [
        "=",
        -8.687318183708541
      ],
      [
        "Ġsize",
        -8.689006749853329
      ],
      [
        "Ġhere",
        -8.690130231409242
      ],
      [
        "Ġadd",
        -8.691003761735494
      ],
      [
        "Ġset",
        -8.691926868584522
      ],
      [
        "Ġmaintain",
        -8.692238163886447
      ],
      [
        ")Ċ",
        -8.695706542178025
      ],
      [
        "Ġput",
        -8.698860590298516
      ],
      [
        "Ġprogram",
        -8.700596580697908
      ],
      [
        "Ġpractice",
        -8.70120450151267
      ],
      [
        "Ġfree",
        -8.703295741158229
      ],
      [
        "up",
        -8.704099451652098
      ],
      [
        "how",
        -8.704686563107213
      ],
      [
        "Ġdamage",
        -8.7071253661204
      ],
      [
        "Ġfish",
        -8.709660186880797
      ],
      [
        "Ġweight",
        -8.712093718654767
      ],
      [
        "Ġsince",
        -8.713095098403768
      ],
      [
        "Ġpatient",
        -8.713669462911126
      ],
      [
        "Ġtreatment",
        -8.717867124281641
      ],
      [
        "ĠD",
        -8.720196632416735
      ],
      [
        "ĠWhich",
        -8.720690148192492
      ],
      [
        "Ġuntil",
        -8.721180645073332
      ],
      [
        "Ġdifference",
        -8.724870595657263
      ],
      [
        "Ġresults",
        -8.726148585506872
      ],
      [
        "Ġproper",
        -8.72782643919108
      ],
      [
        "H",
        -8.729973851047923
      ],
      [
        "Ġcourse",
        -8.73003228592191
      ],
      [
        "W",
        -8.734544416641718
      ],
      [
        "Ġalong",
        -8.736903869322584
      ],
      [
        "Ġshe",
        -8.739196248874311
      ],
      [
        "Ġgrowth",
        -8.740722847710519
      ],
      [
        "Ġdirect",
        -8.742781257113185
      ],
      [
        "Ġconsider",
        -8.744200016749462
      ],
      [
        "Ġhand",
        -8.74460033335644
      ],
      [
        "Ġpresent",
        -8.746863354792264
      ],
      [
        "Ġremain",
        -8.750010360742307
      ],
      [
        "Ġnext",
        -8.750071720446732
      ],
      [
        "[",
        -8.754117676891031
      ],
      [
        "ĠSome",
        -8.757460716344434
      ],
      [
        "Ġkind",
        -8.763391153114814
      ],
      [
        "Ġhigher",
        -8.76359432743893
      ],
      [
        "Ġnon",
        -8.763794708438237
      ],
      [
        "Ġterm",
        -8.76428122712834
      ],
      [
        "ar",
        -8.766719488902517
      ],
      [
        "Ġlow",
        -8.769740072415777
      ],
      [
        "Ġskin",
        -8.770626983408585
      ],
      [
        "from",
        -8.778961076701247
      ],
      [
        "Ġsystems",
        -8.780821699744362
      ],
      [
        "Ġfamily",
        -8.780976978203004
      ],
      [
        "ĠHe",
        -8.781384481647693
      ],
      [
        "Ġhard",
        -8.781908224812941
      ],
      [
        "Ġchanges",
        -8.78251128640563
      ],
      [
        "ous",
        -8.783669548409714
      ],
      [
        "Ġaway",
        -8.783724567726196
      ],
      [
        "Ġplan",
        -8.784080792823545
      ],
      [
        "Ġlove",
        -8.78430162544024
      ],
      [
        "Ġchild",
        -8.784514930549827
      ],
      [
        "Ġbusiness",
        -8.786003209860175
      ],
      [
        "self",
        -8.786984720824327
      ],
      [
        "Ġlot",
        -8.789467662544826
      ],
      [
        "Ġsure",
        -8.789886519799895
      ],
      [
        "Ġanimal",
        -8.791827358876521
      ],
      [
        "Ġkey",
        -8.794891472805498
      ],
      [
        "Ġdogs",
        -8.795876236638676
      ],
      [
        "Ġtop",
        -8.797164983070601
      ],
      [
        "Ġavoid",
        -8.797327681702761
      ],
      [
        "Ġshort",
        -8.79836471608769
      ],
      [
        "For",
        -8.798786463194212
      ],
      [
        "ĠBy",
        -8.798968279331687
      ],
      [
        "Ġunique",
        -8.801328649596808
      ],
      [
        "Ġlikely",
        -8.802675093356715
      ],
      [
        "Ġtypes",
        -8.804410319890849
      ],
      [
        "Ġprotein",
        -8.806501805512838
      ],
      [
        "Ġphysical",
        -8.807077705198257
      ],
      [
        "Ġvariet",
        -8.809345368593345
      ],
      [
        ",\"",
        -8.809442042542717
      ],
      [
        "Ġfocus",
        -8.810175490143255
      ],
      [
        "Ġsimilar",
        -8.810428400488998
      ],
      [
        "ĠUniversit",
        -8.810964001495341
      ],
      [
        "Ġtimes",
        -8.81166628404344
      ],
      [
        "Ġdoesn",
        -8.813527295318966
      ],
      [
        "Ġproduction",
        -8.814994014948308
      ],
      [
        "Ġprofessional",
        -8.8153956132205
      ],
      [
        "F",
        -8.817730829980128
      ],
      [
        "Ġeffective",
        -8.818238248664231
      ],
      [
        "ĠThat",
        -8.81997700933701
      ],
      [
        "Ġwide",
        -8.820494001874424
      ],
      [
        "Ġoccur",
        -8.82082486801604
      ],
      [
        "Ġmachine",
        -8.82178595012756
      ],
      [
        "Ġfuture",
        -8.822252710333842
      ],
      [
        "which",
        -8.82515856808693
      ],
      [
        "Ġusual",
        -8.826814618467399
      ],
      [
        "own",
        -8.828138009933767
      ],
      [
        "Ġprotect",
        -8.828504415446304
      ],
      [
        "Ġfuel",
        -8.830143184233098
      ],
      [
        "]",
        -8.83621783823931
      ],
      [
        "Ġsimple",
        -8.836519109438454
      ],
      [
        "&",
        -8.836697328527325
      ],
      [
        "Ġseem",
        -8.840663921625916
      ],
      [
        "Ġmarket",
        -8.84569796313112
      ],
      [
        "Ġactually",
        -8.84577313105926
      ],
      [
        "Ġlast",
        -8.845814217823175
      ],
      [
        "Ġacross",
        -8.8458771124802
      ],
      [
        "Ġcell",
        -8.846586670352242
      ],
      [
        "Ġown",
        -8.846780726982278
      ],
      [
        "have",
        -8.847126608489884
      ],
      [
        "Ġsuggest",
        -8.847310420070848
      ],
      [
        "ce",
        -8.852255166347256
      ],
      [
        "time",
        -8.854180240164748
      ],
      [
        "Ġsafe",
        -8.854307592519174
      ],
      [
        "Ġless",
        -8.855042260910771
      ],
      [
        "Ġside",
        -8.855279135075744
      ],
      [
        "Ġeasy",
        -8.855498316872136
      ],
      [
        "Ġcheck",
        -8.858070797066787
      ],
      [
        "against",
        -8.858561261708841
      ],
      [
        "Ġsocial",
        -8.861147194495882
      ],
      [
        "Ġoffer",
        -8.861213065082518
      ],
      [
        "where",
        -8.861315274413748
      ],
      [
        "Ġenvironmental",
        -8.863335720795986
      ],
      [
        "healthy",
        -8.86373480919094
      ],
      [
        "We",
        -8.864541769810483
      ],
      [
        "Ġtoo",
        -8.866198672332974
      ],
      [
        "Ġimage",
        -8.867277249559162
      ],
      [
        "Ġstep",
        -8.870193893621906
      ],
      [
        "Ġbuilding",
        -8.870550877986023
      ],
      [
        "ĠWith",
        -8.871630658397313
      ],
      [
        "Ġworking",
        -8.872448137223195
      ],
      [
        "Ġespeciall",
        -8.8728615016452
      ],
      [
        "Ġresource",
        -8.875136862660355
      ],
      [
        "Ġface",
        -8.877648932072425
      ],
      [
        "Ġtoday",
        -8.878375929016666
      ],
      [
        "Ġleas",
        -8.879510670396325
      ],
      [
        "Ġreal",
        -8.880271774386342
      ],
      [
        "Ġaffect",
        -8.880873822494419
      ],
      [
        "Ġshare",
        -8.882680761585046
      ],
      [
        "Ġmillion",
        -8.883269585447644
      ],
      [
        "Ġnecessar",
        -8.88376433420538
      ],
      [
        "Ġtraining",
        -8.888693833906434
      ],
      [
        "Ġrecommend",
        -8.889089431913469
      ],
      [
        "Ġfield",
        -8.894251518528332
      ],
      [
        "Ġcomputer",
        -8.8956820433096
      ],
      [
        "Ġpost",
        -8.895698732345412
      ],
      [
        "Ġleft",
        -8.896728961564936
      ],
      [
        "ĠNew",
        -8.899106590993867
      ],
      [
        "Ġdepend",
        -8.89938546090698
      ],
      [
        "Ġrun",
        -8.900049664617265
      ],
      [
        "Ġnever",
        -8.900923419197294
      ],
      [
        "Ġgiven",
        -8.901079466481082
      ],
      [
        "Ġcomponent",
        -8.901526840803676
      ],
      [
        "Ġheart",
        -8.906274843567822
      ],
      [
        "Ġgas",
        -8.907670853297521
      ],
      [
        "Ġpopulation",
        -8.907884990120921
      ],
      [
        "Ġstore",
        -8.908360572636958
      ],
      [
        "ĠAmerican",
        -8.908427865607322
      ],
      [
        "Ġbook",
        -8.90870106046026
      ],
      [
        "Ġsay",
        -8.909744544230868
      ],
      [
        "Ġminute",
        -8.91206113924577
      ],
      [
        "Ġdifficult",
        -8.91241803828217
      ],
      [
        "Ġspeed",
        -8.91285658232276
      ],
      [
        "means",
        -8.914537880115375
      ],
      [
        "Ġfull",
        -8.915071198503494
      ],
      [
        "Ġwhite",
        -8.915229895208359
      ],
      [
        "about",
        -8.916157662896484
      ],
      [
        "N",
        -8.91748171925693
      ],
      [
        "Ġproduct",
        -8.918657099067804
      ],
      [
        "Ġaccording",
        -8.921009123053732
      ],
      [
        "Ġfurther",
        -8.923058260333043
      ],
      [
        "$",
        -8.924329045396984
      ],
      [
        "Ġregular",
        -8.927771005653462
      ],
      [
        "Ġcarbon",
        -8.928029464473918
      ],
      [
        "Ġvehicle",
        -8.928358221193085
      ],
      [
        "Ġcontent",
        -8.928858408079662
      ],
      [
        "Ġreason",
        -8.930715074906212
      ],
      [
        "Ġabove",
        -8.934733554548021
      ],
      [
        "Ġindustry",
        -8.935932264045917
      ],
      [
        "Ġclose",
        -8.936151078196538
      ],
      [
        "Ġeffects",
        -8.938541630340824
      ],
      [
        "Ġnear",
        -8.93882912194243
      ],
      [
        "Ġsingle",
        -8.939343717928766
      ],
      [
        "Ġhe",
        -8.941038819290927
      ],
      [
        "ĠT",
        -8.942046844426741
      ],
      [
        "Ġfar",
        -8.943323159858018
      ],
      [
        "Ġactivities",
        -8.943977541917963
      ],
      [
        "Ġbig",
        -8.945571802218021
      ],
      [
        "ĠYour",
        -8.948195896829663
      ],
      [
        "Ġdry",
        -8.951368525764376
      ],
      [
        "Ġfour",
        -8.95215365995362
      ],
      [
        "Ġtry",
        -8.957605073240954
      ],
      [
        "Ġfeatures",
        -8.957628093573103
      ],
      [
        "Ġ\"",
        -8.958693216527204
      ],
      [
        "Ġfact",
        -8.95917302669506
      ],
      [
        "once",
        -8.959489731801513
      ],
      [
        "Ġeffect",
        -8.959513878752874
      ],
      [
        "get",
        -8.960182417044575
      ],
      [
        "Ġeye",
        -8.960980729159564
      ],
      [
        "Ġstrong",
        -8.962843111275042
      ],
      [
        "Ġengine",
        -8.96464307898206
      ],
      [
        "Ġenjoy",
        -8.965870874904176
      ],
      [
        "Ġvideo",
        -8.966607104364066
      ],
      [
        "Ġnetwork",
        -8.96692218612993
      ],
      [
        "Ġunderstanding",
        -8.967391132831906
      ],
      [
        "Ġexist",
        -8.967554735280789
      ],
      [
        "Ġhours",
        -8.96802176699811
      ],
      [
        "Ġbelieve",
        -8.968087843977695
      ],
      [
        "Ġamong",
        -8.968359526859118
      ],
      [
        "Ġrecent",
        -8.968439146482162
      ],
      [
        "Ġearly",
        -8.96977589681747
      ],
      [
        "Ġus",
        -8.971194498991217
      ],
      [
        "Ġapproach",
        -8.979880747603799
      ],
      [
        "Ġoil",
        -8.980402599947052
      ],
      [
        "Ġparent",
        -8.982160241015624
      ],
      [
        "Ġskills",
        -8.9823862006645
      ],
      [
        "well",
        -8.985775919563828
      ],
      [
        "Ġmanagement",
        -8.98668201733944
      ],
      [
        "Ġaddition",
        -8.98678051161353
      ],
      [
        "Ġmatter",
        -8.988229106566717
      ],
      [
        "Ġbring",
        -8.98860603050923
      ],
      [
        "Ġalready",
        -8.98907681130885
      ],
      [
        "Ġground",
        -8.989986340412834
      ],
      [
        "some",
        -8.991743248385443
      ],
      [
        "Ġbasic",
        -8.994755824378611
      ],
      [
        "Ġinside",
        -8.99934151487558
      ],
      [
        "Ġchoice",
        -9.000269918486683
      ],
      [
        "Ġaccess",
        -9.000470634479326
      ],
      [
        "Ġpaper",
        -9.000898379043766
      ],
      [
        "*",
        -9.001029212524681
      ],
      [
        "Ġpet",
        -9.004159791074756
      ],
      [
        "Ġonl",
        -9.004588307599008
      ],
      [
        "Ġscience",
        -9.014011613732531
      ],
      [
        "your",
        -9.014141615561751
      ],
      [
        "Ġaddress",
        -9.014966070693834
      ],
      [
        "Ġperiod",
        -9.015166549797923
      ],
      [
        "Ġunit",
        -9.015670335518836
      ],
      [
        "Ġcomplex",
        -9.018180870022857
      ],
      [
        "Ġagain",
        -9.018531653856858
      ],
      [
        "Ġexplain",
        -9.018579773153284
      ],
      [
        "Ġsays",
        -9.018656988551475
      ],
      [
        "Ġclear",
        -9.018658352316496
      ],
      [
        "Ġcommunity",
        -9.019064443511184
      ],
      [
        "but",
        -9.021805935072384
      ],
      [
        "Ġline",
        -9.0241479232841
      ],
      [
        "Ġsense",
        -9.024232268767872
      ],
      [
        "Ġbehavior",
        -9.02856481444077
      ],
      [
        "Ġuser",
        -9.028834079527378
      ],
      [
        "ver",
        -9.02909330226036
      ],
      [
        "Ġlower",
        -9.029114013783271
      ],
      [
        "Ġmove",
        -9.029472681989102
      ],
      [
        "ng",
        -9.030690096131853
      ],
      [
        "ĠNo",
        -9.030885921914551
      ],
      [
        "Ġsafety",
        -9.03266979873945
      ],
      [
        "Ġarticle",
        -9.03325059380468
      ],
      [
        "Ġclean",
        -9.033494876286062
      ],
      [
        "Ġassociate",
        -9.038154545881667
      ],
      [
        "Ġresponse",
        -9.038906725461912
      ],
      [
        "Ġshape",
        -9.040587706362622
      ],
      [
        "âĢ¦",
        -9.04491561540692
      ],
      [
        "Ġpublic",
        -9.045373977347772
      ],
      [
        "Ġperformance",
        -9.045813281206405
      ],
      [
        "we",
        -9.04593545264291
      ],
      [
        "Ġanswer",
        -9.04636740749109
      ],
      [
        ").Ċ",
        -9.046856902499158
      ],
      [
        "Ġread",
        -9.04770084311278
      ],
      [
        "Ġparts",
        -9.047743731252458
      ],
      [
        "Ġstay",
        -9.048291832490074
      ],
      [
        "Ġeither",
        -9.048918031157903
      ],
      [
        "Ġthought",
        -9.049534695968216
      ],
      [
        "Ġmilk",
        -9.054309257150305
      ],
      [
        "Ġmention",
        -9.056452585206785
      ],
      [
        "hether",
        -9.057038881325097
      ],
      [
        "Ġo",
        -9.057453390472851
      ],
      [
        "G",
        -9.057637768926742
      ],
      [
        "Ġelectric",
        -9.058411344511192
      ],
      [
        "day",
        -9.059811123684469
      ],
      [
        "Ġconcern",
        -9.060133522190608
      ],
      [
        "nstead",
        -9.060253720616831
      ],
      [
        "Ġclimate",
        -9.060439046874365
      ],
      [
        "Ġcover",
        -9.060586419560304
      ],
      [
        "Ġwomen",
        -9.067250261064595
      ],
      [
        "ive",
        -9.06787202399297
      ],
      [
        "Ġmajor",
        -9.069612754156989
      ],
      [
        "Ġwhole",
        -9.070424297358729
      ],
      [
        "Ġbelow",
        -9.070489034449166
      ],
      [
        "Ġtoward",
        -9.070816705060691
      ],
      [
        "Ġtreat",
        -9.072073430270931
      ],
      [
        "Ġloss",
        -9.072381622877153
      ],
      [
        "Ġsound",
        -9.072829903381296
      ],
      [
        "Ġstructure",
        -9.07470483808779
      ],
      [
        "Ġinterest",
        -9.076031861013856
      ],
      [
        "Ġliving",
        -9.076480033212317
      ],
      [
        "Ġdoing",
        -9.07748084903414
      ],
      [
        "Ġcompany",
        -9.077575656124116
      ],
      [
        "Ġbrain",
        -9.08190523587207
      ],
      [
        "Ġidea",
        -9.086381594822932
      ],
      [
        "Ġmonths",
        -9.089025372461103
      ],
      [
        "Ġexercise",
        -9.090540725003956
      ],
      [
        "Ġadult",
        -9.093145631587657
      ],
      [
        "Ġwaste",
        -9.093852885586854
      ],
      [
        "Ġwarm",
        -9.09432995763558
      ],
      [
        "has",
        -9.094458968310754
      ],
      [
        "they",
        -9.0944987921369
      ],
      [
        "Ġdone",
        -9.095332089035011
      ],
      [
        "Ġhelps",
        -9.095546227733806
      ],
      [
        "Ġresearchers",
        -9.096604441980254
      ],
      [
        "Ġcat",
        -9.097993225344888
      ],
      [
        "Ġreceive",
        -9.098938018202308
      ],
      [
        "such",
        -9.1018460184412
      ],
      [
        "It",
        -9.102569290854746
      ],
      [
        "Ġpositive",
        -9.1029495844719
      ],
      [
        "Ġsugar",
        -9.103884592710235
      ],
      [
        "Ġpopular",
        -9.10423823499631
      ],
      [
        "R",
        -9.107605004001748
      ],
      [
        "Ġbatter",
        -9.110142492194385
      ],
      [
        "Ġstress",
        -9.110383182450946
      ],
      [
        "Ġnature",
        -9.111173460663728
      ],
      [
        "Why",
        -9.11157429672864
      ],
      [
        "Ġtools",
        -9.11192801736462
      ],
      [
        "Ġcontinue",
        -9.113442541867396
      ],
      [
        "Ġmovement",
        -9.114231725050365
      ],
      [
        "z",
        -9.114676058165564
      ],
      [
        "Ġpercent",
        -9.118208010393086
      ],
      [
        "Ġcool",
        -9.119697585742326
      ],
      [
        "ctivity",
        -9.11974331740797
      ],
      [
        "Ġmind",
        -9.120444926635091
      ],
      [
        "his",
        -9.124106127630776
      ],
      [
        "Ġtraditional",
        -9.126550111538268
      ],
      [
        "ĠOne",
        -9.126816515519048
      ],
      [
        "Ġposition",
        -9.127620926535098
      ],
      [
        "Ġcorrect",
        -9.12888511117258
      ],
      [
        ".\"ĊĊ",
        -9.129080238710046
      ],
      [
        "âĢ¢",
        -9.131252431100709
      ],
      [
        "L",
        -9.131598577894042
      ],
      [
        "Ġdetermine",
        -9.135673949414675
      ],
      [
        "Ġoutside",
        -9.136363284193116
      ],
      [
        "quickly",
        -9.137349442073102
      ],
      [
        "Ġdeep",
        -9.137361819993902
      ],
      [
        "Ġbuild",
        -9.138880201624325
      ],
      [
        "ility",
        -9.13939911075025
      ],
      [
        "ting",
        -9.140098646693987
      ],
      [
        "Ġsomeone",
        -9.140229584467596
      ],
      [
        "Ġgame",
        -9.140940647212354
      ],
      [
        "Ġtotal",
        -9.145063984034476
      ],
      [
        "Ġblack",
        -9.145559571143172
      ],
      [
        "Ġhistor",
        -9.146256978027807
      ],
      [
        "Ġsymptoms",
        -9.148127496269698
      ],
      [
        "taking",
        -9.149741888276742
      ],
      [
        "make",
        -9.149882001346896
      ],
      [
        "considered",
        -9.151117253735343
      ],
      [
        "Ġapplications",
        -9.152995801412125
      ],
      [
        "out",
        -9.1548268363717
      ],
      [
        "Ġcold",
        -9.154959809928972
      ],
      [
        "Ġcrucial",
        -9.15769991516913
      ],
      [
        "Ġfruit",
        -9.158020645831073
      ],
      [
        "Ġcancer",
        -9.158329394809734
      ],
      [
        "Ġoverall",
        -9.158531228526456
      ],
      [
        "Ġbalance",
        -9.160452894993671
      ],
      [
        "Ġpast",
        -9.161532204773923
      ],
      [
        "Ġmuscle",
        -9.16367295760939
      ],
      [
        "Ġchoose",
        -9.163882093083346
      ],
      [
        "Ġexplore",
        -9.165610333173513
      ],
      [
        "But",
        -9.16572611456506
      ],
      [
        "Ġaverage",
        -9.167406935276992
      ],
      [
        "ather",
        -9.167754748305384
      ],
      [
        "To",
        -9.167790987361158
      ],
      [
        "Ġyoung",
        -9.169777209376116
      ],
      [
        "Ġpain",
        -9.170631008781797
      ],
      [
        "Ġclass",
        -9.170945435868724
      ],
      [
        "Ġtypically",
        -9.171064546184034
      ],
      [
        "ĠR",
        -9.17313252024968
      ],
      [
        "Ġcamera",
        -9.17384580766642
      ],
      [
        "Ġcall",
        -9.178107789767669
      ],
      [
        "Ġhead",
        -9.179023030589166
      ],
      [
        "Ġplastic",
        -9.179343538734708
      ],
      [
        "Ġfall",
        -9.180085786351558
      ],
      [
        "Ġwinter",
        -9.182510662111817
      ],
      [
        "Ġguide",
        -9.182584765364624
      ],
      [
        "Ġsetting",
        -9.182712852532196
      ],
      [
        "now",
        -9.1836531635512
      ],
      [
        "Ġcut",
        -9.186651969529024
      ],
      [
        "Ġeffort",
        -9.187199994611444
      ],
      [
        "Ġseen",
        -9.187290323535924
      ],
      [
        "Ġperfect",
        -9.187998122507617
      ],
      [
        "Ġentire",
        -9.188338574949157
      ],
      [
        "Ġpersonal",
        -9.188465138124602
      ],
      [
        "Ġglobal",
        -9.18994562180646
      ],
      [
        "Ġidentify",
        -9.190459260172233
      ],
      [
        "like",
        -9.191073608689049
      ],
      [
        "Ġenhance",
        -9.192818834423903
      ],
      [
        "Ġhear",
        -9.19326491732469
      ],
      [
        "Ġservice",
        -9.19668386755458
      ],
      [
        "Ġca",
        -9.196716528680373
      ],
      [
        "One",
        -9.19720385058258
      ],
      [
        "ary",
        -9.199032065671132
      ],
      [
        "Ġcook",
        -9.19922296729452
      ],
      [
        "Ġfive",
        -9.199863686272035
      ],
      [
        "Ġcode",
        -9.200644212895702
      ],
      [
        "Ġfee",
        -9.201672461560268
      ],
      [
        ".\"Ċ",
        -9.204582156486817
      ],
      [
        "Ġgenetic",
        -9.20619564345678
      ],
      [
        "allows",
        -9.20678434924885
      ],
      [
        "Ġtarget",
        -9.207178322215974
      ],
      [
        "Ġforce",
        -9.208045447453872
      ],
      [
        "Ġchicken",
        -9.20923046310878
      ],
      [
        "Ġspecial",
        -9.210226505701335
      ],
      [
        "Ġchemical",
        -9.211611842062208
      ],
      [
        "Ġdesigne",
        -9.212222631992557
      ],
      [
        "le",
        -9.2126508287048
      ],
      [
        "Ġmedical",
        -9.213880837035012
      ],
      [
        "Ġmodern",
        -9.215212794722838
      ],
      [
        "Ġlonge",
        -9.215704007160287
      ],
      [
        "Ġseason",
        -9.21582424393988
      ],
      [
        "Ġprimar",
        -9.215947272429949
      ],
      [
        "throughout",
        -9.216547492334776
      ],
      [
        "Ġappear",
        -9.216856628402464
      ],
      [
        "Ġcontact",
        -9.217219334178754
      ],
      [
        "ĠU",
        -9.217262401506217
      ],
      [
        "Ġal",
        -9.21783651742999
      ],
      [
        "Ġslow",
        -9.218126643481243
      ],
      [
        "ĠSchool",
        -9.218404068543013
      ],
      [
        "Ġsite",
        -9.218806782680794
      ],
      [
        "Ġdetail",
        -9.219048717972202
      ],
      [
        "ities",
        -9.219284688571502
      ],
      [
        "Ġmetal",
        -9.219934335101488
      ],
      [
        "Ġsituation",
        -9.2200613351674
      ],
      [
        "Ġonline",
        -9.220297792086404
      ],
      [
        "Ġbirds",
        -9.221333788466524
      ],
      [
        "Ġrelease",
        -9.221660551333294
      ],
      [
        "than",
        -9.222607300931474
      ],
      [
        "Ġreaction",
        -9.222859097524296
      ],
      [
        "Ġhouse",
        -9.22332804220182
      ],
      [
        "Whil",
        -9.22454878590713
      ],
      [
        "studies",
        -9.2251727180188
      ],
      [
        "any",
        -9.225979572893374
      ],
      [
        "Ġrule",
        -9.226463669695782
      ],
      [
        "Ġrelationship",
        -9.227174187890803
      ],
      [
        "ĠNational",
        -9.227468332119976
      ],
      [
        "Ġgreen",
        -9.227936722856011
      ],
      [
        "Ġdescribe",
        -9.22933760320163
      ],
      [
        "ĠAI",
        -9.23281469767754
      ],
      [
        "Ġmultiple",
        -9.234157742862209
      ],
      [
        "fish",
        -9.235751596902862
      ],
      [
        "_",
        -9.236214320425486
      ],
      [
        "Ġregion",
        -9.23736934564365
      ],
      [
        "Ġknowledge",
        -9.237675101340416
      ],
      [
        "Ġsignal",
        -9.23865981443749
      ],
      [
        "Ġthough",
        -9.238750202823953
      ],
      [
        "Ġsometime",
        -9.239399992156256
      ],
      [
        "Ġproperties",
        -9.239657635248872
      ],
      [
        "Q",
        -9.24058038044564
      ],
      [
        "developed",
        -9.243843482669496
      ],
      [
        "Ġhim",
        -9.244506984473585
      ],
      [
        "Ġdecision",
        -9.24520929691404
      ],
      [
        "yourself",
        -9.245777565207057
      ],
      [
        "Ġcomplete",
        -9.246361729744429
      ],
      [
        "Ġanalysis",
        -9.24693605635934
      ],
      [
        "Ġremove",
        -9.247376321244388
      ],
      [
        "These",
        -9.247788912602322
      ],
      [
        "Ġscientist",
        -9.24836732359464
      ],
      [
        "Ġmoney",
        -9.251004630648136
      ],
      [
        "Ġlet",
        -9.251563477535486
      ],
      [
        "Ġdevice",
        -9.252499221099626
      ],
      [
        "Ġdigital",
        -9.254350086565074
      ],
      [
        "Ġexperiment",
        -9.254522543438558
      ],
      [
        "Ġbase",
        -9.255664916444172
      ],
      [
        "They",
        -9.256407764713538
      ],
      [
        "Ġmonitor",
        -9.257659913506078
      ],
      [
        "ĠN",
        -9.257819096905584
      ],
      [
        "Ġelements",
        -9.259800159116963
      ],
      [
        "Ġmeasure",
        -9.2615856679908
      ],
      [
        "Ġcontribute",
        -9.264322402435251
      ],
      [
        "Ġcompared",
        -9.265337838449293
      ],
      [
        "Ġtool",
        -9.26858037272888
      ],
      [
        "ĠH",
        -9.268886104868724
      ],
      [
        "ĠUnite",
        -9.269453379117865
      ],
      [
        "U",
        -9.2705953786767
      ],
      [
        "Ġwear",
        -9.271111827494328
      ],
      [
        "ĠO",
        -9.2719748382547
      ],
      [
        "Ġprovid",
        -9.273162967621246
      ],
      [
        "Ġexpert",
        -9.27328677887948
      ],
      [
        "Ġfoods",
        -9.275694435295325
      ],
      [
        "two",
        -9.275730123312377
      ],
      [
        "Ġcount",
        -9.27645870984595
      ],
      [
        "Ġtravel",
        -9.278030398691168
      ],
      [
        "Ġinfection",
        -9.278147786682023
      ],
      [
        "Ġrepresent",
        -9.28252254386441
      ],
      [
        "ĠWhil",
        -9.28359576904734
      ],
      [
        "ment",
        -9.283809376365449
      ],
      [
        "Ġachieve",
        -9.285276512114702
      ],
      [
        "Ġoptions",
        -9.2877470506494
      ],
      [
        "Ġinvolve",
        -9.28808091546794
      ],
      [
        "Ġlength",
        -9.28855853526446
      ],
      [
        "Ġbit",
        -9.28858513882468
      ],
      [
        "Ġflower",
        -9.290278870535168
      ],
      [
        "Ġtrue",
        -9.291206257404037
      ],
      [
        "Ġtechnolog",
        -9.291545458397191
      ],
      [
        "Ġflow",
        -9.293009113731694
      ],
      [
        "Ġinvolved",
        -9.29327327697305
      ],
      [
        "Ġauthor",
        -9.295988011377652
      ],
      [
        "Ġbuy",
        -9.29707526967395
      ],
      [
        "Ġrelative",
        -9.297254254915686
      ],
      [
        "Ġstop",
        -9.29812010939832
      ],
      [
        "Ġsuccessful",
        -9.2985306049202
      ],
      [
        "ĠAn",
        -9.299836822217737
      ],
      [
        "Ġapplication",
        -9.301380189607457
      ],
      [
        "Ġsubject",
        -9.302586023752204
      ],
      [
        "ĠHealth",
        -9.30415166903502
      ],
      [
        "Ġeggs",
        -9.30422885771685
      ],
      [
        "Ġattention",
        -9.30511460769804
      ],
      [
        "Ġselect",
        -9.310419888512534
      ],
      [
        "Ġsoftware",
        -9.311404110778469
      ],
      [
        "Ġfast",
        -9.311956432278205
      ],
      [
        "Ġequipment",
        -9.3125536964625
      ],
      [
        "Ġtalk",
        -9.312595378128028
      ],
      [
        "Ġingredient",
        -9.313265399883075
      ],
      [
        "Ġsummer",
        -9.313634783912628
      ],
      [
        "Ġbacteria",
        -9.315413599992768
      ],
      [
        "Ġtrack",
        -9.320049461654175
      ],
      [
        "Ġlanguage",
        -9.32113684842567
      ],
      [
        "Answer",
        -9.322291951826998
      ],
      [
        "being",
        -9.324094245485806
      ],
      [
        "Ġold",
        -9.324640128711138
      ],
      [
        "Ġhold",
        -9.32718411623985
      ],
      [
        "Ġprobabl",
        -9.331322717320475
      ],
      [
        "Ġfinding",
        -9.334593150654335
      ],
      [
        "ything",
        -9.33680907483069
      ],
      [
        "Ġstudent",
        -9.337326965609192
      ],
      [
        "Ġcreat",
        -9.337447304618111
      ],
      [
        "Ġdrive",
        -9.339444681432688
      ],
      [
        "early",
        -9.339867439681491
      ],
      [
        "-base",
        -9.340725566796015
      ],
      [
        "Ġoption",
        -9.340794341313718
      ],
      [
        "ĠMan",
        -9.341176608686853
      ],
      [
        "Ġvisit",
        -9.341204163666095
      ],
      [
        "Ġteacher",
        -9.342089566210865
      ],
      [
        "ĠAll",
        -9.343651395767669
      ],
      [
        "Ġsample",
        -9.344895612696885
      ],
      [
        "Ġreach",
        -9.346716516644758
      ],
      [
        ".\"",
        -9.34768586011117
      ],
      [
        "Ġincreasing",
        -9.348757351202297
      ],
      [
        "Ġfun",
        -9.349070731129624
      ],
      [
        "Ġstory",
        -9.351046055225368
      ],
      [
        "Ġwebsite",
        -9.351283621246129
      ],
      [
        "work",
        -9.352505807911218
      ],
      [
        "were",
        -9.352992538501514
      ],
      [
        "ĠDNA",
        -9.355729709349012
      ],
      [
        "echnology",
        -9.356634446682266
      ],
      [
        "Ġbad",
        -9.35770030752689
      ],
      [
        "Ġblock",
        -9.358000255554405
      ],
      [
        "ĠDo",
        -9.358542907478748
      ],
      [
        "Ġsleep",
        -9.360115620477464
      ],
      [
        "Ġsimpl",
        -9.36021285576188
      ],
      [
        "Ġnegative",
        -9.361052388588558
      ],
      [
        "low",
        -9.36106059415382
      ],
      [
        "Ġweather",
        -9.363636487674158
      ],
      [
        "ach",
        -9.36393214630642
      ],
      [
        "Ġdistance",
        -9.364058187181913
      ],
      [
        "Ġview",
        -9.364665734112426
      ],
      [
        "water",
        -9.364786060306322
      ],
      [
        "Ġextreme",
        -9.365123837392195
      ],
      [
        "ĠStates",
        -9.365153769923584
      ],
      [
        "Ġservices",
        -9.365633942449454
      ],
      [
        "ĠNorth",
        -9.367304534677524
      ],
      [
        "Ġlayer",
        -9.368020188614956
      ],
      [
        "created",
        -9.368923085157409
      ],
      [
        "Ġnutrient",
        -9.36995978641225
      ],
      [
        "Ġevidence",
        -9.370292220544068
      ],
      [
        "Ġplayer",
        -9.370888113521293
      ],
      [
        "Ġconnection",
        -9.371915892323337
      ],
      [
        "Ġnight",
        -9.373407963236495
      ],
      [
        "ry",
        -9.374171254277424
      ],
      [
        "Ġadded",
        -9.37478025762401
      ],
      [
        "V",
        -9.376136568526228
      ],
      [
        "Ġpurpose",
        -9.377991744257857
      ],
      [
        "Ġmeat",
        -9.379029916768513
      ],
      [
        "Ġrelated",
        -9.379330766899676
      ],
      [
        "Ġfarm",
        -9.381182852434163
      ],
      [
        "running",
        -9.38169109314223
      ],
      [
        "Ġadvance",
        -9.38203707608661
      ],
      [
        "Ġbreak",
        -9.382038201599984
      ],
      [
        "Ġcompound",
        -9.382179633950788
      ],
      [
        "ĠâĢľ",
        -9.382916813702158
      ],
      [
        "Ġdrink",
        -9.384673330881805
      ],
      [
        "Ġlocation",
        -9.38476058780769
      ],
      [
        "Ġapply",
        -9.385737955712282
      ],
      [
        "**",
        -9.385806184008793
      ],
      [
        "Ġeducation",
        -9.385876999351089
      ],
      [
        "Ġprice",
        -9.38644015004743
      ],
      [
        "Ġrecord",
        -9.389027079618916
      ],
      [
        "Ġmonth",
        -9.389104445721577
      ],
      [
        "Ġoffers",
        -9.389926094197582
      ],
      [
        "Ġaspect",
        -9.390307594718166
      ],
      [
        "Ġroom",
        -9.391335519605397
      ],
      [
        "Ġwon",
        -9.392469164710992
      ],
      [
        "leading",
        -9.392980500169646
      ],
      [
        "âĢĿ",
        -9.393113656236714
      ],
      [
        "Ġinput",
        -9.39423898525681
      ],
      [
        "Ġgoal",
        -9.3962869008348
      ],
      [
        "Ġnormal",
        -9.396855304082791
      ],
      [
        "Ġindicate",
        -9.39715798939492
      ],
      [
        "Ġdevices",
        -9.39732853217384
      ],
      [
        "Ġmemor",
        -9.398548884599172
      ],
      [
        "Ġconcept",
        -9.400866827584714
      ],
      [
        "Ġcycle",
        -9.400890025772195
      ],
      [
        "Ġthemsel",
        -9.401873904185646
      ],
      [
        "care",
        -9.40197851324743
      ],
      [
        "quite",
        -9.403605098736216
      ],
      [
        "Ġmanage",
        -9.40397823588248
      ],
      [
        "Some",
        -9.403996472327876
      ],
      [
        "Ġreport",
        -9.404769648083844
      ],
      [
        "had",
        -9.404999745050668
      ],
      [
        "Ġcountry",
        -9.405911540174708
      ],
      [
        "words",
        -9.40645021626334
      ],
      [
        "Ġetc",
        -9.406685065165448
      ],
      [
        "Ġsign",
        -9.407344060059932
      ],
      [
        "Ġoutput",
        -9.408522540307468
      ],
      [
        "Ġinfluence",
        -9.4095951687813
      ],
      [
        "Ġcanno",
        -9.409954534689511
      ],
      [
        "Ġspot",
        -9.410104663868172
      ],
      [
        "Ġworks",
        -9.41040715835286
      ],
      [
        "Ġar",
        -9.411303665422768
      ],
      [
        "rying",
        -9.411337229893796
      ],
      [
        "Ġhalf",
        -9.412358445031956
      ],
      [
        "others",
        -9.41405637101756
      ],
      [
        "Ġsmaller",
        -9.414591606760885
      ],
      [
        "Ġadditional",
        -9.416215305418014
      ],
      [
        "ĠG",
        -9.416475860629117
      ],
      [
        "Ġspread",
        -9.416548205822089
      ],
      [
        "Ġha",
        -9.41911251038248
      ],
      [
        "ĠScience",
        -9.419405328813642
      ],
      [
        "old",
        -9.419692859975862
      ],
      [
        "Ġaccount",
        -9.420206440382469
      ],
      [
        "Ġparticle",
        -9.420608750761115
      ],
      [
        "Ġtaken",
        -9.421036061699276
      ],
      [
        "Ġword",
        -9.422146684163035
      ],
      [
        "Ġshown",
        -9.42486793128258
      ],
      [
        "body",
        -9.425784786545126
      ],
      [
        "Ġjob",
        -9.426873052381785
      ],
      [
        "ĠAl",
        -9.43123580331504
      ],
      [
        "Ġactive",
        -9.434366393697058
      ],
      [
        "Ġvolume",
        -9.435389223685313
      ],
      [
        "what",
        -9.435849315605218
      ],
      [
        "ĠAmerica",
        -9.435933616189214
      ],
      [
        "Ġhorse",
        -9.436316464829744
      ],
      [
        "rate",
        -9.436323167183431
      ],
      [
        "Ġfront",
        -9.436332945993964
      ],
      [
        "#",
        -9.436454728693825
      ],
      [
        "Ġefficient",
        -9.43678682375153
      ],
      [
        "ves",
        -9.436795907626824
      ],
      [
        "Ġinsect",
        -9.43913021435348
      ],
      [
        "Ġoperation",
        -9.439219082712416
      ],
      [
        "Ġgenerate",
        -9.440124468293224
      ],
      [
        "Ġseparate",
        -9.440323951441226
      ],
      [
        "Ġdidn",
        -9.440640287596604
      ],
      [
        "So",
        -9.44137049945036
      ],
      [
        "Can",
        -9.441677022821263
      ],
      [
        "line",
        -9.441799045991678
      ],
      [
        "Ġgovernment",
        -9.4449338387852
      ],
      [
        "Ġsalt",
        -9.445254798366872
      ],
      [
        "her",
        -9.44569193556267
      ],
      [
        "Ġattack",
        -9.446121506741887
      ],
      [
        "Ġappropriate",
        -9.44649081033149
      ],
      [
        "Ġlink",
        -9.446737707635185
      ],
      [
        "Ġfinal",
        -9.447008514467331
      ],
      [
        "Ġpre",
        -9.448000752052042
      ],
      [
        "Ġreplace",
        -9.44827957305747
      ],
      [
        "Ġsensor",
        -9.44930019577805
      ],
      [
        "Ġgene",
        -9.449750814396808
      ],
      [
        "will",
        -9.449766187591544
      ],
      [
        "Ġdiscover",
        -9.450315993530204
      ],
      [
        "Ġproduced",
        -9.45161854638532
      ],
      [
        "Ġoriginal",
        -9.452864010509316
      ],
      [
        "Ġmeet",
        -9.454635455187416
      ],
      [
        "Ġdoctor",
        -9.455379760977785
      ],
      [
        "Ġways",
        -9.455803148630627
      ],
      [
        "Ġcenter",
        -9.456285342664392
      ],
      [
        "Ġgreate",
        -9.4568674401233
      ],
      [
        "nd",
        -9.457397298451236
      ],
      [
        "Ġsave",
        -9.458215249948331
      ],
      [
        "sure",
        -9.45919924836002
      ],
      [
        "Ġleaf",
        -9.459223354348874
      ],
      [
        "Ġlist",
        -9.46112890151864
      ],
      [
        "tion",
        -9.46288673897471
      ],
      [
        "Ġscientific",
        -9.463648797011466
      ],
      [
        "Ġspring",
        -9.46393511029482
      ],
      [
        "Ġkids",
        -9.465215272237886
      ],
      [
        "Ġfat",
        -9.466843625863095
      ],
      [
        "Ġeasi",
        -9.46792806124892
      ],
      [
        "Because",
        -9.468576446430433
      ],
      [
        "Ġsupply",
        -9.468668482076694
      ],
      [
        "Ġstandard",
        -9.468911689748658
      ],
      [
        "Ġestimate",
        -9.469428868107158
      ],
      [
        "Ġfeature",
        -9.469544716531898
      ],
      [
        "Ġself",
        -9.469872262935109
      ],
      [
        "Ġeyes",
        -9.469945186199617
      ],
      [
        "And",
        -9.470959661082654
      ],
      [
        "Ġwood",
        -9.473628144429284
      ],
      [
        "Ġchallenges",
        -9.474497200800284
      ],
      [
        "Ġsearch",
        -9.476302312448365
      ],
      [
        "Ġstrength",
        -9.476443717356222
      ],
      [
        "Ġman",
        -9.476501228562864
      ],
      [
        "Ġfeed",
        -9.476602691588004
      ],
      [
        "Ġtank",
        -9.477605421147306
      ],
      [
        "Ġcommunication",
        -9.479523284162775
      ],
      [
        "Ġpay",
        -9.479871689384709
      ],
      [
        "|",
        -9.480505627017738
      ],
      [
        "these",
        -9.481039950604384
      ],
      [
        "Ġ$",
        -9.481083499353009
      ],
      [
        "Ġextra",
        -9.481091083147888
      ],
      [
        "Ġlives",
        -9.482486588381237
      ],
      [
        "Ġlimit",
        -9.4827891225506
      ],
      [
        "making",
        -9.48317442760796
      ],
      [
        "Ġfresh",
        -9.484184744069722
      ],
      [
        "Ġbaby",
        -9.484259859548215
      ],
      [
        "Ġenable",
        -9.484394883323288
      ],
      [
        "last",
        -9.485701979654738
      ],
      [
        "Ġocean",
        -9.486695170256098
      ],
      [
        "Ġmolecule",
        -9.487616033166058
      ],
      [
        "ĠOn",
        -9.488680382058549
      ],
      [
        "Ġlater",
        -9.489394691581309
      ],
      [
        "Ġmainten",
        -9.49005179246478
      ],
      [
        "fully",
        -9.49141254799821
      ],
      [
        "Y",
        -9.49342577264634
      ],
      [
        "Ġago",
        -9.493536501246524
      ],
      [
        "With",
        -9.494343413632922
      ],
      [
        "Ġcompletely",
        -9.494891573895393
      ],
      [
        "Ġsection",
        -9.49515818509503
      ],
      [
        "Ġeating",
        -9.4959375357676
      ],
      [
        "Ġscale",
        -9.497274740481627
      ],
      [
        "Ġsix",
        -9.49764900251794
      ],
      [
        "Ġdisplay",
        -9.498461251484455
      ],
      [
        "Ġ[",
        -9.498957161381837
      ],
      [
        "Ġmodels",
        -9.498973287167136
      ],
      [
        "Ġreturn",
        -9.500373306664482
      ],
      [
        "As",
        -9.50257584266175
      ],
      [
        "Ġsubstance",
        -9.503191694473948
      ],
      [
        "Ġrepair",
        -9.503668682775787
      ],
      [
        "ĠHere",
        -9.504560491606345
      ],
      [
        "Ġsuccess",
        -9.504757257831963
      ],
      [
        "ĠMore",
        -9.505002943128348
      ],
      [
        "Ġtaste",
        -9.505071189346989
      ],
      [
        "Ġask",
        -9.505262657354102
      ],
      [
        "while",
        -9.505408162652486
      ],
      [
        "ĠUse",
        -9.505618721585083
      ],
      [
        "man",
        -9.506838154362992
      ],
      [
        "Ġc",
        -9.5083398019393
      ],
      [
        "Ġwatch",
        -9.508654132263192
      ],
      [
        "Ġideal",
        -9.508691725677329
      ],
      [
        "Ġre",
        -9.511067542129055
      ],
      [
        "Ġfile",
        -9.512157666203818
      ],
      [
        "Ġgain",
        -9.512538133366428
      ],
      [
        "Ġobserve",
        -9.513050170630592
      ],
      [
        "Ġstage",
        -9.51435482224242
      ],
      [
        "\\",
        -9.514809454405189
      ],
      [
        "Ġteeth",
        -9.516726079967915
      ],
      [
        "side",
        -9.517459353801373
      ],
      [
        "Â°",
        -9.51762128763568
      ],
      [
        "]Ċ",
        -9.519616247429411
      ],
      [
        "Ġdirection",
        -9.520355145230852
      ],
      [
        "Ġconstant",
        -9.52063096447367
      ],
      [
        "Ġcutting",
        -9.520883083940737
      ],
      [
        "ĠL",
        -9.520912848081394
      ],
      [
        "Ġmix",
        -9.52186671798162
      ],
      [
        "Ġimages",
        -9.523319108344316
      ],
      [
        "Ġsolar",
        -9.523357130835006
      ],
      [
        "ĠEarth",
        -9.525852293836817
      ],
      [
        "Ġpoints",
        -9.526133232943346
      ],
      [
        "Ġmass",
        -9.526819517872037
      ],
      [
        "Ġcombine",
        -9.52838617064186
      ],
      [
        "over",
        -9.528971663421236
      ],
      [
        "aily",
        -9.529980231397891
      ],
      [
        "Ġorganic",
        -9.531317851455276
      ],
      [
        "Ġseeds",
        -9.532114367248113
      ],
      [
        "--",
        -9.532658452692557
      ],
      [
        "ĠShe",
        -9.532912740170849
      ],
      [
        "Ġnode",
        -9.533365333520706
      ],
      [
        "Ġcritical",
        -9.534224087436671
      ],
      [
        "ĠJ",
        -9.535028001277563
      ],
      [
        "Ġdeath",
        -9.535405814947122
      ],
      [
        "Ġuseful",
        -9.537470450669378
      ],
      [
        "was",
        -9.538768729304236
      ],
      [
        "Ġbegin",
        -9.53986996090932
      ],
      [
        "Ġemission",
        -9.540175566420608
      ],
      [
        "into",
        -9.54049864796318
      ],
      [
        "Ġdefine",
        -9.54236336982408
      ],
      [
        "Ġencourage",
        -9.543183941761134
      ],
      [
        "Ġoxygen",
        -9.543250359853875
      ],
      [
        "Ġitems",
        -9.54416678885643
      ],
      [
        "Ġserve",
        -9.544431465590376
      ],
      [
        "Ġperform",
        -9.54446969377225
      ],
      [
        "Ġpump",
        -9.545335012411432
      ],
      [
        "Ġprocesse",
        -9.546915176506737
      ],
      [
        "Ġfemale",
        -9.547122698989517
      ],
      [
        "Now",
        -9.547168955327503
      ],
      [
        "Ġcircuit",
        -9.548613970121764
      ],
      [
        "Ġfeeling",
        -9.549376649889773
      ],
      [
        "ĠDr",
        -9.549544250401455
      ],
      [
        "Ġelse",
        -9.549767172953054
      ],
      [
        "Ġflight",
        -9.552340405803674
      ],
      [
        "Ġprotection",
        -9.555110864047885
      ],
      [
        "Ġrest",
        -9.555122628114535
      ],
      [
        "Ġtell",
        -9.555147723063987
      ],
      [
        "Ġblue",
        -9.55515490703948
      ],
      [
        "me",
        -9.557425237852948
      ],
      [
        "Ġsteps",
        -9.558113182015443
      ],
      [
        "ries",
        -9.559807659002445
      ],
      [
        "Ġwalk",
        -9.56259797110285
      ],
      [
        "Ġbird",
        -9.563526781561094
      ],
      [
        "Another",
        -9.565670507567106
      ],
      [
        "Ġconduct",
        -9.566746996851933
      ],
      [
        "Ġcentur",
        -9.568071256913257
      ],
      [
        "Ġtakes",
        -9.568158395820044
      ],
      [
        "ĠW",
        -9.56866900402862
      ],
      [
        "Ġremember",
        -9.569007094969615
      ],
      [
        "Ġeasie",
        -9.569228649263165
      ],
      [
        "ĠAfter",
        -9.569238136026216
      ],
      [
        "adding",
        -9.570426817469324
      ],
      [
        "ĠResearch",
        -9.5705621595535
      ],
      [
        "Ġreading",
        -9.570837938438313
      ],
      [
        "That",
        -9.570883116051544
      ],
      [
        "Ġco",
        -9.57401616609244
      ],
      [
        "Ġhandle",
        -9.574540012496074
      ],
      [
        "Ġdecrease",
        -9.574815079046823
      ],
      [
        "Ġdraw",
        -9.57584285147881
      ],
      [
        "ther",
        -9.576150671138317
      ],
      [
        "upon",
        -9.576365694218524
      ],
      [
        "Ġresponsibl",
        -9.576392572004078
      ],
      [
        "ĠSouth",
        -9.57715623804216
      ],
      [
        "ĠBe",
        -9.577529619135884
      ],
      [
        "Ġliquid",
        -9.578177303270056
      ],
      [
        "applied",
        -9.5790738879219
      ],
      [
        "Ġmeal",
        -9.579384300758932
      ],
      [
        "Ġtheory",
        -9.581370602372376
      ],
      [
        "Ġcats",
        -9.581571212044228
      ],
      [
        "Ġred",
        -9.582714248682535
      ],
      [
        "Ġtend",
        -9.585212038039693
      ],
      [
        "allowing",
        -9.585320220958677
      ],
      [
        "Ġfaste",
        -9.586003758851929
      ],
      [
        "Ġgot",
        -9.588261032615735
      ],
      [
        "companie",
        -9.588312168228596
      ],
      [
        "Ġlandscape",
        -9.5886556886379
      ],
      [
        "Step",
        -9.588870495302764
      ],
      [
        "ĠYes",
        -9.589910287224663
      ],
      [
        "Ġcharge",
        -9.59042281510076
      ],
      [
        "Ġhair",
        -9.591464246052617
      ],
      [
        "ĠF",
        -9.591526997428192
      ],
      [
        "Ġversion",
        -9.59157808818049
      ],
      [
        "Ġdetect",
        -9.591609101853615
      ],
      [
        "-to",
        -9.59281174510432
      ],
      [
        "Ġdocument",
        -9.593860172192414
      ],
      [
        "Ġpass",
        -9.594456425885712
      ],
      [
        "Ġbag",
        -9.59463211059028
      ],
      [
        "Ġphone",
        -9.59473454538298
      ],
      [
        "Ġcharacteristic",
        -9.594802929151758
      ],
      [
        "Ġdark",
        -9.595806064884258
      ],
      [
        "Ġmedia",
        -9.597509491229149
      ],
      [
        "Ġplatform",
        -9.597750751759287
      ],
      [
        "-term",
        -9.59800852320192
      ],
      [
        "Ġglass",
        -9.598044550049256
      ],
      [
        "Ġfrequent",
        -9.598523400080811
      ],
      [
        "Ġdrain",
        -9.599431510470357
      ],
      [
        "Ġcollect",
        -9.600037616369027
      ],
      [
        "ĠCan",
        -9.600334200932174
      ],
      [
        ">",
        -9.60036912489004
      ],
      [
        "Ġseries",
        -9.60065886137011
      ],
      [
        "Ġaware",
        -9.600743036719027
      ],
      [
        "Ġfilter",
        -9.600861518579858
      ],
      [
        "Ġcame",
        -9.601698019672202
      ],
      [
        "Ġseek",
        -9.601710978678213
      ],
      [
        "Ġnotice",
        -9.60282953022876
      ],
      [
        "Ġmembers",
        -9.604785327898718
      ],
      [
        "Ġpromote",
        -9.606662899064911
      ],
      [
        "Ġserious",
        -9.607059916826316
      ],
      [
        "Ġstyle",
        -9.608143385447544
      ],
      [
        "ĠWorld",
        -9.60818899875648
      ],
      [
        "Ġcolors",
        -9.6092954141338
      ],
      [
        "Ġdiabetes",
        -9.609534106715875
      ],
      [
        "may",
        -9.609603342495936
      ],
      [
        "Ġenter",
        -9.61113721250872
      ],
      [
        "Ġbuil",
        -9.61198501855755
      ],
      [
        "Ġcarry",
        -9.612271002325224
      ],
      [
        "Ġvisual",
        -9.612833321535067
      ],
      [
        "Ġcombination",
        -9.614409561343264
      ],
      [
        "ually",
        -9.61460507365558
      ],
      [
        "Ġinitial",
        -9.61518573795198
      ],
      [
        "Ġelectrical",
        -9.617442972430352
      ],
      [
        "tips",
        -9.617828760718997
      ],
      [
        "Ġland",
        -9.617888711253634
      ],
      [
        "Ġpoor",
        -9.6191268231856
      ],
      [
        "Ġsustainabl",
        -9.61943810049296
      ],
      [
        "Ġreasons",
        -9.621446270289654
      ],
      [
        "Ġbottom",
        -9.622087564200491
      ],
      [
        "Ġ=",
        -9.624159107662496
      ],
      [
        "Ġengineer",
        -9.625374336215051
      ],
      [
        "Ġcommercial",
        -9.625490240058518
      ],
      [
        "Ġensur",
        -9.625713920273434
      ],
      [
        "Ġlimited",
        -9.626221818737736
      ],
      [
        "Ġmineral",
        -9.626938044139168
      ],
      [
        "Ġalternative",
        -9.627673728786638
      ],
      [
        "Ġever",
        -9.628162948597897
      ],
      [
        "Ġsequence",
        -9.631109607453508
      ],
      [
        "Ġreduc",
        -9.63369551294106
      ],
      [
        "Ġinstance",
        -9.63384856795323
      ],
      [
        "Ġprett",
        -9.635273316454668
      ],
      [
        "ĠUS",
        -9.635555602810726
      ],
      [
        "Ġevents",
        -9.64101125886495
      ],
      [
        "Ġevent",
        -9.641332053590324
      ],
      [
        "Ġdeal",
        -9.642143343296944
      ],
      [
        "Ġframe",
        -9.642995790513432
      ],
      [
        "Ġtouch",
        -9.643219967821617
      ],
      [
        "Ġcloth",
        -9.64385025267002
      ],
      [
        "Ġbrown",
        -9.645235654440166
      ],
      [
        "individuals",
        -9.646519151205029
      ],
      [
        "Ġtissue",
        -9.649860714029646
      ],
      [
        "Ġbrand",
        -9.650094295043344
      ],
      [
        "Ġready",
        -9.650501550228782
      ],
      [
        "Ġpattern",
        -9.650929457196144
      ],
      [
        "ful",
        -9.6576406265888
      ],
      [
        "Ġconnect",
        -9.66015046527663
      ],
      [
        "Ġhope",
        -9.662300696547565
      ],
      [
        "Ġball",
        -9.663396615515047
      ],
      [
        "Ġkill",
        -9.664290842755658
      ],
      [
        "Ġnothing",
        -9.665589630299266
      ],
      [
        "Ġcollection",
        -9.665646588779698
      ],
      [
        "Ġtherefor",
        -9.66724226996092
      ],
      [
        "Ġyellow",
        -9.66728642855077
      ],
      [
        "Ġchance",
        -9.66790705377958
      ],
      [
        "lines",
        -9.668442675131864
      ],
      [
        "-up",
        -9.669120582145442
      ],
      [
        "Ġmode",
        -9.66973031009244
      ],
      [
        "Ġfriends",
        -9.670040286491844
      ],
      [
        "Ġprocedure",
        -9.670072144838418
      ],
      [
        "Ġbox",
        -9.670839435536172
      ],
      [
        "Ġsuitabl",
        -9.671457242382832
      ],
      [
        "Ġwild",
        -9.671786198335548
      ],
      [
        "Ġflavor",
        -9.672698931255834
      ],
      [
        "Ġsun",
        -9.672987169497215
      ],
      [
        "X",
        -9.673035557926031
      ],
      [
        "Ġhearing",
        -9.673327166752408
      ],
      [
        "Ġdesire",
        -9.675450352918094
      ],
      [
        "Ġforest",
        -9.675759465488706
      ],
      [
        "took",
        -9.6771574698713
      ],
      [
        "Ġvary",
        -9.678113002252571
      ],
      [
        "Ġraise",
        -9.678456739909524
      ],
      [
        "ĠMost",
        -9.67996090359579
      ],
      [
        "Ġhands",
        -9.682224276985114
      ],
      [
        "land",
        -9.682492378602404
      ],
      [
        "Ġsupplement",
        -9.682565786967988
      ],
      [
        "Ġrecover",
        -9.683288411136749
      ],
      [
        "ĠK",
        -9.683928494944336
      ],
      [
        "head",
        -9.68393424726326
      ],
      [
        "K",
        -9.684385863789265
      ],
      [
        "Ġprograms",
        -9.686304514782051
      ],
      [
        "Ġrequirements",
        -9.68719675085953
      ],
      [
        "Ġmusic",
        -9.688826113308544
      ],
      [
        "Ġaccurate",
        -9.688828563951
      ],
      [
        "Ġhost",
        -9.689527588422424
      ],
      [
        "testing",
        -9.689556712929068
      ],
      [
        "Ġlocate",
        -9.690103841220395
      ],
      [
        "Ġwriting",
        -9.69078674902438
      ],
      [
        "Ġpowerful",
        -9.691570519522456
      ],
      [
        "their",
        -9.693267136623728
      ],
      [
        "etting",
        -9.695511974852336
      ],
      [
        "related",
        -9.695996948282463
      ],
      [
        "Ġmale",
        -9.696673379413337
      ],
      [
        "right",
        -9.6977571999294
      ],
      [
        "Ġwall",
        -9.697758943112431
      ],
      [
        "Ġcleaning",
        -9.698571615268817
      ],
      [
        "Ġtransport",
        -9.6989072320054
      ],
      [
        "Ġstarte",
        -9.698927783265177
      ],
      [
        "Ġfluid",
        -9.699550946448152
      ],
      [
        "giving",
        -9.699684985241705
      ],
      [
        "even",
        -9.700923387008997
      ],
      [
        "Ġsoft",
        -9.701609764010795
      ],
      [
        "Ġegg",
        -9.70254288921641
      ],
      [
        "Ġintroduce",
        -9.703702743699214
      ],
      [
        "Ġpicture",
        -9.704674607844067
      ],
      [
        "Ġfire",
        -9.704695512026186
      ],
      [
        "By",
        -9.704702401333378
      ],
      [
        "ehind",
        -9.705750131068424
      ],
      [
        "Ġusers",
        -9.705777170444405
      ],
      [
        "xactly",
        -9.706206701060378
      ],
      [
        "Ġthird",
        -9.707077397817336
      ],
      [
        "Ġeffectively",
        -9.707708807165696
      ],
      [
        "Ġadjust",
        -9.70802149024554
      ],
      [
        "Ġbeautiful",
        -9.70862495505162
      ],
      [
        "storage",
        -9.70980454365521
      ],
      [
        "Ġmoisture",
        -9.711273991761336
      ],
      [
        "Ġiron",
        -9.711668889063947
      ],
      [
        "Ġconsistent",
        -9.7119439577089
      ],
      [
        "Ġopportunity",
        -9.7122631643187
      ],
      [
        "Ġnumbers",
        -9.712951413107287
      ],
      [
        "Ġefficiency",
        -9.713108689699254
      ],
      [
        "Ġpurchase",
        -9.713126843616331
      ],
      [
        "Ġfloor",
        -9.71348617818305
      ],
      [
        "Ġsolid",
        -9.713656548552724
      ],
      [
        "Ġlesson",
        -9.714614344618983
      ],
      [
        "Ġapp",
        -9.714744593474332
      ],
      [
        "Ġwrong",
        -9.71486825596041
      ],
      [
        "Ġjourney",
        -9.715049908500884
      ],
      [
        "Ġinteresting",
        -9.718749992304758
      ],
      [
        "Ġdivers",
        -9.721354803566443
      ],
      [
        "Ġpest",
        -9.72150397231432
      ],
      [
        "ĠFrom",
        -9.721789088116724
      ],
      [
        "Ġrapid",
        -9.723670711457547
      ],
      [
        "Ġlack",
        -9.724845793819416
      ],
      [
        "Ġwait",
        -9.725688669090571
      ],
      [
        "Ġalgorithm",
        -9.725970423067242
      ],
      [
        "Ġpublished",
        -9.726994571861816
      ],
      [
        "Ġslight",
        -9.727436074997232
      ],
      [
        "Ġfrequency",
        -9.728188067018433
      ],
      [
        "Ġalcohol",
        -9.72821107462206
      ],
      [
        "Ġresistance",
        -9.729084372226744
      ],
      [
        "Ġobtain",
        -9.72964889022175
      ],
      [
        "Ġdemand",
        -9.729685499240665
      ],
      [
        "Ġcontext",
        -9.731102556356596
      ],
      [
        "ring",
        -9.731995544354438
      ],
      [
        "Ġswitch",
        -9.73412297728135
      ],
      [
        "Ġfine",
        -9.734622688094849
      ],
      [
        "Ġtasks",
        -9.734733681174756
      ],
      [
        "Ġhot",
        -9.735267733649517
      ],
      [
        "âĪĴ",
        -9.735348624932444
      ],
      [
        "Ġmoment",
        -9.736308772302236
      ],
      [
        "Ġpiece",
        -9.739220989624911
      ],
      [
        "do",
        -9.739600400452169
      ],
      [
        "Ġmedication",
        -9.740467522515644
      ],
      [
        "Ġforward",
        -9.740927766841558
      ],
      [
        "Ġexpression",
        -9.741323077101857
      ],
      [
        "Ġrecognize",
        -9.742113751158776
      ],
      [
        "Ġvegetables",
        -9.742686393037348
      ],
      [
        "Ġvitamin",
        -9.743099257424287
      ],
      [
        "Ġmiddle",
        -9.743721560482117
      ],
      [
        "Ġmeaning",
        -9.744503174019156
      ],
      [
        "Ġpage",
        -9.744517948699762
      ],
      [
        "Here",
        -9.748553108990867
      ],
      [
        "ĠMy",
        -9.74866170633355
      ],
      [
        "Ġdiscuss",
        -9.74879641636533
      ],
      [
        "don",
        -9.749203206858835
      ],
      [
        "Ġconsumption",
        -9.74928087258928
      ],
      [
        "wise",
        -9.751329750125652
      ],
      [
        "Ġmessage",
        -9.751637294244734
      ],
      [
        "going",
        -9.752597992040496
      ],
      [
        "ĠCenter",
        -9.752735784003534
      ],
      [
        "there",
        -9.754101272970374
      ],
      [
        "also",
        -9.754116472471583
      ],
      [
        "site",
        -9.754352144290037
      ],
      [
        "Ġlabel",
        -9.755143713656317
      ],
      [
        "Ġgenes",
        -9.75529845085251
      ],
      [
        "Ġstrategi",
        -9.755914207636888
      ],
      [
        "Ġtask",
        -9.756322317956302
      ],
      [
        "Ġfiber",
        -9.756378267000768
      ],
      [
        "ers",
        -9.75712739073792
      ],
      [
        "made",
        -9.757898967160855
      ],
      [
        "Ġexposure",
        -9.757959014918429
      ],
      [
        "Ġrock",
        -9.75798013685672
      ],
      [
        "Ġcapacit",
        -9.757989025252904
      ],
      [
        "Ġsoon",
        -9.758141062957028
      ],
      [
        "Ġculture",
        -9.758145148620386
      ],
      [
        "Ġgeneration",
        -9.760793948515758
      ],
      [
        "Ġw",
        -9.76188625756997
      ],
      [
        "Ġmechanism",
        -9.7620703729222
      ],
      [
        "Ġinternal",
        -9.762540942072796
      ],
      [
        "ice",
        -9.762548529474184
      ],
      [
        "Ġpanel",
        -9.763164570370122
      ],
      [
        "Ġwonder",
        -9.763399128972686
      ],
      [
        "eyond",
        -9.76343197503942
      ],
      [
        "Ġmoving",
        -9.766419067489725
      ],
      [
        "Ġsecurity",
        -9.76745465042978
      ],
      [
        "Ġsea",
        -9.767968840340346
      ],
      [
        "Ġideas",
        -9.768247595698345
      ],
      [
        "Ġseed",
        -9.769231505359036
      ],
      [
        "ĠHowe",
        -9.769260531767518
      ],
      [
        "ĠTheir",
        -9.770492379320029
      ],
      [
        "ship",
        -9.771413103880882
      ],
      [
        "Ġleg",
        -9.771722537241391
      ],
      [
        "Ġextend",
        -9.77201098030081
      ],
      [
        "Ġcomfortabl",
        -9.772141547614549
      ],
      [
        "Ġbone",
        -9.772516058056976
      ],
      [
        "Ġpark",
        -9.772549574840887
      ],
      [
        "written",
        -9.773022158629349
      ],
      [
        "Our",
        -9.773423721954424
      ],
      [
        "Ġdrawing",
        -9.775073737904291
      ],
      [
        "Ġmother",
        -9.775758209275107
      ],
      [
        "Ġconstruction",
        -9.775817517220384
      ],
      [
        "Ġsevere",
        -9.77713131846076
      ],
      [
        "Ġreflect",
        -9.7781147833672
      ],
      [
        "Ġspend",
        -9.779512562991862
      ],
      [
        "Ġdeliver",
        -9.780930710589516
      ],
      [
        "Ġrare",
        -9.781914770330475
      ],
      [
        "alone",
        -9.784900724757794
      ],
      [
        "Ġvital",
        -9.7859622831318
      ],
      [
        "Ġfigure",
        -9.787316714342206
      ],
      [
        "Ġlaw",
        -9.78858056218652
      ],
      [
        "Ġvariable",
        -9.788616397747344
      ],
      [
        "ĠGod",
        -9.789123304246644
      ],
      [
        ".)Ċ",
        -9.7891378882426
      ],
      [
        "Ġroof",
        -9.78985618439006
      ],
      [
        "ĠNot",
        -9.790224254723787
      ],
      [
        "Ġstates",
        -9.791047922931591
      ],
      [
        "Ġrich",
        -9.791899565166624
      ],
      [
        "Ġconvert",
        -9.79340977835664
      ],
      [
        "light",
        -9.79515361211048
      ],
      [
        "Ġjoint",
        -9.79562279130218
      ],
      [
        "expected",
        -9.795743123939507
      ],
      [
        "Ġconcentration",
        -9.796624011475243
      ],
      [
        "After",
        -9.796689047156889
      ],
      [
        "Ġcouple",
        -9.79709583494961
      ],
      [
        "Ġstick",
        -9.798882659642528
      ],
      [
        "ĠAlso",
        -9.798891172841582
      ],
      [
        "Ġthousand",
        -9.799534516293129
      ],
      [
        "Ġheavy",
        -9.801972278948078
      ],
      [
        "Ġmedium",
        -9.802444252321411
      ],
      [
        "Ġaction",
        -9.804257784697562
      ],
      [
        "Ġstuff",
        -9.806105930783724
      ],
      [
        "Ġprevious",
        -9.806558598045232
      ],
      [
        "Ġnote",
        -9.807176967737572
      ],
      [
        "Ġroot",
        -9.80721707388846
      ],
      [
        "Ġrise",
        -9.807994701244862
      ],
      [
        "end",
        -9.80820329072188
      ],
      [
        "Ġimportan",
        -9.808231506287743
      ],
      [
        "Ġwind",
        -9.80903448917878
      ],
      [
        "red",
        -9.809905384245198
      ],
      [
        "Ġtexture",
        -9.810213361265706
      ],
      [
        "let",
        -9.810338288649035
      ],
      [
        "Ġconnected",
        -9.810695565295866
      ],
      [
        "est",
        -9.811455624196515
      ],
      [
        "Ġedge",
        -9.813353073456378
      ],
      [
        "Ġpair",
        -9.814067261718986
      ],
      [
        "Ġassist",
        -9.815159834431633
      ],
      [
        "Ġpaint",
        -9.815263327496826
      ],
      [
        "them",
        -9.81658045255817
      ],
      [
        "Ġp",
        -9.817988979456144
      ],
      [
        "Ġdemonstrate",
        -9.818154295183447
      ],
      [
        "Ġcolour",
        -9.819123665114454
      ],
      [
        "ĠOur",
        -9.820714427434044
      ],
      [
        "Ġrefer",
        -9.821882713795162
      ],
      [
        "Ġcaus",
        -9.822186140683812
      ],
      [
        "Ġroad",
        -9.824247022360844
      ],
      [
        "Ġreview",
        -9.825961079752314
      ],
      [
        "Ġelement",
        -9.826335878361943
      ],
      [
        "Ġlens",
        -9.82719653942971
      ],
      [
        "ĠWhy",
        -9.827348619569978
      ],
      [
        "Ġpath",
        -9.827668509200834
      ],
      [
        "Ġmouth",
        -9.828867056326985
      ],
      [
        "Ġfly",
        -9.82936342137097
      ],
      [
        "just",
        -9.8305353459194
      ],
      [
        "take",
        -9.830649591245251
      ],
      [
        "Ġfoot",
        -9.831228320435134
      ],
      [
        "Ġreported",
        -9.833488989344946
      ],
      [
        "Ġrate",
        -9.83349602580235
      ],
      [
        "Ġcapture",
        -9.83378869931046
      ],
      [
        "Ġfamili",
        -9.834514651041202
      ],
      [
        "Ġtechnologies",
        -9.834555224808003
      ],
      [
        "ĠX",
        -9.8348613883067
      ],
      [
        "here",
        -9.835002973668306
      ],
      [
        "ĠState",
        -9.835036658597373
      ],
      [
        "went",
        -9.835718494527818
      ],
      [
        "Ġsweet",
        -9.83810764567681
      ],
      [
        "when",
        -9.838131688278668
      ],
      [
        "Ġexpensive",
        -9.839707118880526
      ],
      [
        "Ġsmell",
        -9.839834205791496
      ],
      [
        "About",
        -9.84038440828165
      ],
      [
        "Ġwindow",
        -9.841149602731893
      ],
      [
        "ways",
        -9.841179686305324
      ],
      [
        "Ġfinancial",
        -9.841915084090516
      ],
      [
        "Ġcontainer",
        -9.842465991792327
      ],
      [
        "ĠDay",
        -9.84286450863464
      ],
      [
        ".S",
        -9.843069056569698
      ],
      [
        "ĠEnglish",
        -9.843375784373135
      ],
      [
        "ĠOnc",
        -9.843541355419523
      ],
      [
        "Ġwire",
        -9.844239121686602
      ],
      [
        "Ġearth",
        -9.844426288573294
      ],
      [
        "ĠHigh",
        -9.845145451036904
      ],
      [
        "Ġchallenge",
        -9.84562812918552
      ],
      [
        "Ġfair",
        -9.84646842392913
      ],
      [
        "Ġinsight",
        -9.84672572196395
      ],
      [
        "Ġcarrie",
        -9.846841789382186
      ],
      [
        "Ġmulti",
        -9.847799053364234
      ],
      [
        "Ġsurrounding",
        -9.848244614136618
      ],
      [
        "Ġphase",
        -9.848380022630788
      ],
      [
        "Ġpick",
        -9.848479810492911
      ],
      [
        "Ġage",
        -9.8504979103723
      ],
      [
        "Ġm",
        -9.850605893031355
      ],
      [
        "Ġreference",
        -9.850812882853676
      ],
      [
        "Ġvia",
        -9.851639872862457
      ],
      [
        "Ġnoise",
        -9.852157769093065
      ],
      [
        "Ġdepth",
        -9.85249125508068
      ],
      [
        "ĠV",
        -9.852774842680342
      ],
      [
        "Ġsteel",
        -9.852863631651
      ],
      [
        "Ġattempt",
        -9.853604893459444
      ],
      [
        "Ġblade",
        -9.854160512299837
      ],
      [
        "ĠMake",
        -9.855395094169602
      ],
      [
        "...Ċ",
        -9.855815080285858
      ],
      [
        "Ġexamples",
        -9.857569453668646
      ],
      [
        "Ġcheese",
        -9.857744616703563
      ],
      [
        "Ġhapp",
        -9.86259417420337
      ],
      [
        "aught",
        -9.863753165028388
      ],
      [
        "Ġtherap",
        -9.864882137599448
      ],
      [
        "Ġworth",
        -9.866340913532367
      ],
      [
        "Ġgets",
        -9.867046616257166
      ],
      [
        "Ġexpect",
        -9.86943528474062
      ],
      [
        "Ġint",
        -9.86947655350632
      ],
      [
        "ĠOf",
        -9.87416363438837
      ],
      [
        "Ġvirus",
        -9.874169988303668
      ],
      [
        "Ġfunctions",
        -9.874224344002425
      ],
      [
        "Ġgames",
        -9.876228811317674
      ],
      [
        "Ġoutcome",
        -9.876877332632908
      ],
      [
        "Ġsport",
        -9.877765446849526
      ],
      [
        "Ġdynamic",
        -9.878331347417364
      ],
      [
        "Ġdegrees",
        -9.878621008576998
      ],
      [
        "Ġconsumer",
        -9.878850980270242
      ],
      [
        "Ġmental",
        -9.879514889901415
      ],
      [
        "nce",
        -9.87973196246256
      ],
      [
        "ĠLake",
        -9.879748261129148
      ],
      [
        "Ġvision",
        -9.881011323671174
      ],
      [
        "Ġdrug",
        -9.881277446873629
      ],
      [
        "ĠAre",
        -9.88187663978887
      ],
      [
        "Ġgrass",
        -9.881898119740764
      ],
      [
        "Ġidentifie",
        -9.882297482365797
      ],
      [
        "ĠWho",
        -9.883792846895323
      ],
      [
        "often",
        -9.88380867590126
      ],
      [
        "Ġvoltage",
        -9.884324500563489
      ],
      [
        "Ġhydrogen",
        -9.884740157480238
      ],
      [
        "Ġshot",
        -9.887867774235284
      ],
      [
        "Ġclaim",
        -9.88857167484912
      ],
      [
        "Ġpropert",
        -9.889067768216869
      ],
      [
        "Ġregions",
        -9.889225865151287
      ],
      [
        "st",
        -9.89274594127444
      ],
      [
        "Ġexpand",
        -9.893484157026563
      ],
      [
        "Ġhuge",
        -9.89404436700743
      ],
      [
        "Ġhighlight",
        -9.89483461839606
      ],
      [
        "Ġsurvive",
        -9.896147912050342
      ],
      [
        "Ġmatch",
        -9.897160154780256
      ],
      [
        "Ġorganization",
        -9.897218139240636
      ],
      [
        "Ġwanted",
        -9.897967682186136
      ],
      [
        "Ġdouble",
        -9.898185659732876
      ],
      [
        "should",
        -9.898337719450032
      ],
      [
        "Ġheight",
        -9.900770855100896
      ],
      [
        "Ġsurvey",
        -9.901368719581685
      ],
      [
        "Ġwrite",
        -9.90161537319901
      ],
      [
        "Ġsecure",
        -9.902299934373364
      ],
      [
        "board",
        -9.904737553864214
      ],
      [
        "Ġpush",
        -9.906395631508255
      ],
      [
        "Ġaim",
        -9.90682426765818
      ],
      [
        "ily",
        -9.907704544794306
      ],
      [
        "Ġdie",
        -9.909821239885105
      ],
      [
        "Ġcalculate",
        -9.909966733629911
      ],
      [
        "ĠLet",
        -9.910654085296729
      ],
      [
        "Ġperspective",
        -9.911009304857284
      ],
      [
        "Ġstrateg",
        -9.91132590960626
      ],
      [
        "Ġlearned",
        -9.911499873466337
      ],
      [
        "coming",
        -9.911952547196478
      ],
      [
        "no",
        -9.911967937484103
      ],
      [
        "Ġassessment",
        -9.912247699881451
      ],
      [
        "All",
        -9.912795361598617
      ],
      [
        ".com",
        -9.91282225528539
      ],
      [
        "Ġdrop",
        -9.912837104686515
      ],
      [
        "Ġweb",
        -9.913831721588966
      ],
      [
        "Ġpot",
        -9.91435079760384
      ],
      [
        "Ġcatch",
        -9.914619961313456
      ],
      [
        "Ġam",
        -9.915052196893656
      ],
      [
        "lower",
        -9.9150812855574
      ],
      [
        "Your",
        -9.91510539808226
      ],
      [
        "Ġnative",
        -9.916421808945866
      ],
      [
        "Ġinternational",
        -9.91702684961863
      ],
      [
        "Ġmeasures",
        -9.917395045399664
      ],
      [
        "Ġshoot",
        -9.9174394669266
      ],
      [
        "Ġflat",
        -9.917554671332152
      ],
      [
        "Ġexcellent",
        -9.917565227674036
      ],
      [
        "ĠService",
        -9.920040465249722
      ],
      [
        "Ġmaximu",
        -9.92036237504697
      ],
      [
        "Ġappearance",
        -9.920775892113884
      ],
      [
        "Ġhabitat",
        -9.920923044940563
      ],
      [
        "en",
        -9.921027654150002
      ],
      [
        "Ġplanet",
        -9.921207150423449
      ],
      [
        "Ġinstall",
        -9.921457292788835
      ],
      [
        "Ġpractical",
        -9.921799666622064
      ],
      [
        "Ġbar",
        -9.922528236646826
      ],
      [
        "Ġpull",
        -9.92455188109151
      ],
      [
        "Ġquick",
        -9.926304481348732
      ],
      [
        "Ġbiological",
        -9.926455133324511
      ],
      [
        "ĠCO",
        -9.926916445249963
      ],
      [
        "Ġthi",
        -9.926977593148909
      ],
      [
        "Ġerror",
        -9.927242776042796
      ],
      [
        "Ġbackground",
        -9.92869571342741
      ],
      [
        "Ġconservation",
        -9.9288532160304
      ],
      [
        "Ġaffected",
        -9.929274716364606
      ],
      [
        "Ġlose",
        -9.929912563471351
      ],
      [
        "Ġfail",
        -9.930483815824491
      ],
      [
        "ĠWater",
        -9.93088216298569
      ],
      [
        "ĠNOT",
        -9.931373445132696
      ],
      [
        "Ġfarmer",
        -9.932400009720368
      ],
      [
        "king",
        -9.932620463158752
      ],
      [
        "Ġpresen",
        -9.932634202870144
      ],
      [
        "ĠInstitute",
        -9.932866739259694
      ],
      [
        "Ġteaching",
        -9.933130106570918
      ],
      [
        "Ġpieces",
        -9.933171896210196
      ],
      [
        "Ġmeasurement",
        -9.934774175449684
      ],
      [
        "Ġstand",
        -9.935459832703296
      ],
      [
        "Ġthus",
        -9.936115344938068
      ],
      [
        "Ġdead",
        -9.93640476876869
      ],
      [
        "regarding",
        -9.936444649328344
      ],
      [
        "Ġregard",
        -9.937509326772693
      ],
      [
        "ĠUK",
        -9.938522502916811
      ],
      [
        "ĠOr",
        -9.93913694329036
      ],
      [
        "Ġecosystem",
        -9.940933667105387
      ],
      [
        "Ġpredict",
        -9.944535952393109
      ],
      [
        "signs",
        -9.9449688514764
      ],
      [
        "ĠCalifornia",
        -9.945175807590724
      ],
      [
        "action",
        -9.94517867061781
      ],
      [
        "Ġdate",
        -9.946071490829516
      ],
      [
        "Ġimmune",
        -9.946682739133053
      ],
      [
        "Ġadvantage",
        -9.94676733005446
      ],
      [
        "Ġcity",
        -9.947088946764422
      ],
      [
        "Ġequal",
        -9.94721256236668
      ],
      [
        "Ġwa",
        -9.947550327747225
      ],
      [
        "plant",
        -9.947743693615449
      ],
      [
        "Ġexpose",
        -9.948055842847834
      ],
      [
        "Ġvoice",
        -9.948743746220446
      ],
      [
        "Ġscreen",
        -9.949371643326362
      ],
      [
        "Ġprogress",
        -9.94968613963626
      ],
      [
        "Ġmixture",
        -9.949911184962255
      ],
      [
        "Ġplease",
        -9.95081984647016
      ],
      [
        "Ġsmooth",
        -9.951083159826847
      ],
      [
        "Ġoperat",
        -9.951169944822755
      ],
      [
        "-like",
        -9.951634077077138
      ],
      [
        "Ġact",
        -9.952966395190742
      ],
      [
        "people",
        -9.953406786850094
      ],
      [
        "Ġstaff",
        -9.953985793505677
      ],
      [
        "Ġtransfer",
        -9.95405149616244
      ],
      [
        "Ġwildlif",
        -9.954162064438409
      ],
      [
        "ĠNow",
        -9.954934142500136
      ],
      [
        "Ġstructures",
        -9.95503955846666
      ],
      [
        "Ġselection",
        -9.955273294706034
      ],
      [
        "Ġoffice",
        -9.95664538720238
      ],
      [
        "Ġdriver",
        -9.95830698737863
      ],
      [
        "Ġcapabilit",
        -9.958890924602718
      ],
      [
        "-free",
        -9.958975386206257
      ],
      [
        "ization",
        -9.958987017352753
      ],
      [
        "immediately",
        -9.959102856015992
      ],
      [
        "Ġisland",
        -9.95975431073433
      ],
      [
        "Ġvaluable",
        -9.960580387433076
      ],
      [
        "Ġclick",
        -9.961201904013905
      ],
      [
        "Ġbasi",
        -9.961235067037364
      ],
      [
        "ĠMay",
        -9.962877086415403
      ],
      [
        "Ġplann",
        -9.963350957770745
      ],
      [
        "According",
        -9.96477651598518
      ],
      [
        "came",
        -9.964864112626037
      ],
      [
        "Ġequation",
        -9.966464009444662
      ],
      [
        "ĠPlant",
        -9.96725694418951
      ],
      [
        "Ġclasses",
        -9.967589508051464
      ],
      [
        "Ġevolution",
        -9.96793255809672
      ],
      [
        "Most",
        -9.968212168845076
      ],
      [
        "Ġforms",
        -9.968719676121967
      ],
      [
        "Man",
        -9.97007422439161
      ],
      [
        "Ġnational",
        -9.971634119287591
      ],
      [
        "Ġspeak",
        -9.97216627465092
      ],
      [
        "Ġparticipant",
        -9.972210027666556
      ],
      [
        "Ġreveal",
        -9.972850208878665
      ],
      [
        "Ġcoast",
        -9.972947416362665
      ],
      [
        "Use",
        -9.973770104316364
      ],
      [
        "Ġcreative",
        -9.97539429239094
      ],
      [
        "Yes",
        -9.975569958663064
      ],
      [
        "Ġinjur",
        -9.97587750460914
      ],
      [
        "Ġschedule",
        -9.97628739201342
      ],
      [
        "Ġanti",
        -9.976392047468115
      ],
      [
        "Ġadvice",
        -9.97703313774586
      ],
      [
        "Ġbottle",
        -9.977588170501274
      ],
      [
        "Ġshade",
        -9.977837895150088
      ],
      [
        "Ġpossibilit",
        -9.98029996456435
      ],
      [
        "Ġprocessing",
        -9.98193742816763
      ],
      [
        "lot",
        -9.98367792050464
      ],
      [
        "ĠAt",
        -9.983763810049243
      ],
      [
        ".[",
        -9.984684642757006
      ],
      [
        "Ġoptimal",
        -9.985019444263866
      ],
      [
        "ooking",
        -9.98560907235489
      ],
      [
        "Ġroutine",
        -9.98564691644252
      ],
      [
        "Ġbooks",
        -9.985680753199537
      ],
      [
        "Ġgettin",
        -9.98670170213107
      ],
      [
        "Ġdecade",
        -9.987075558808836
      ],
      [
        "led",
        -9.987932636522764
      ],
      [
        "Ġmanufacturer",
        -9.988740976710886
      ],
      [
        "ĠFirst",
        -9.989055833518284
      ],
      [
        "Ġartist",
        -9.990132618443102
      ],
      [
        "Ġsounds",
        -9.990558497223574
      ],
      [
        "patterns",
        -9.9907387100883
      ],
      [
        "Ġdangerous",
        -9.990930531299345
      ],
      [
        "Ġconcrete",
        -9.991123789518676
      ],
      [
        "Ġcustomer",
        -9.991170675923415
      ],
      [
        "Ġbeginning",
        -9.991569419108243
      ],
      [
        "ctober",
        -9.9925155539905
      ],
      [
        "Ġapproximate",
        -9.992627434624808
      ],
      [
        "Ġbillion",
        -9.993155975335782
      ],
      [
        "held",
        -9.99320400444435
      ],
      [
        "Ġs",
        -9.993221583138377
      ],
      [
        "Ġproduc",
        -9.993524550247011
      ],
      [
        "Ġmedicine",
        -9.993718568719569
      ],
      [
        "Ġnumer",
        -9.994871654732874
      ],
      [
        "Ġcomprehensive",
        -9.995245132696276
      ],
      [
        "Ġfashion",
        -9.99529310866266
      ],
      [
        "Ġfill",
        -9.997008438408836
      ],
      [
        "From",
        -9.99718415924108
      ],
      [
        "Ġsquare",
        -9.997517070914611
      ],
      [
        "ĠEven",
        -9.998550011337162
      ],
      [
        "Ġyield",
        -9.999004407038072
      ],
      [
        "Ġtable",
        -9.999182316798224
      ],
      [
        "Ġbirth",
        -9.99992949803926
      ],
      [
        "Ġweed",
        -9.999978284975208
      ],
      [
        "Ġhabit",
        -10.000405031028588
      ],
      [
        "ĠDepartment",
        -10.0006253409716
      ],
      [
        "Ġactual",
        -10.001489875452265
      ],
      [
        "Ġolder",
        -10.00200048417538
      ],
      [
        "Ġstandards",
        -10.002243509650413
      ],
      [
        "Ġengage",
        -10.00255984523847
      ],
      [
        "Ġatmosphere",
        -10.003996584444224
      ],
      [
        "Do",
        -10.004029258239417
      ],
      [
        "Ġclassroom",
        -10.004420795971804
      ],
      [
        "ĠTherefor",
        -10.00451995152784
      ],
      [
        "Ġsports",
        -10.005022768479034
      ],
      [
        "Ġchain",
        -10.005125333816348
      ],
      [
        "ĠâĢĶ",
        -10.00545212604495
      ],
      [
        "Ġcommand",
        -10.006147037800904
      ],
      [
        "Ġhighl",
        -10.00624166897011
      ],
      [
        "cause",
        -10.006659967191474
      ],
      [
        "anyon",
        -10.007697351832228
      ],
      [
        "Ġlegal",
        -10.007762892565948
      ],
      [
        "keep",
        -10.009754352903808
      ],
      [
        "wide",
        -10.01008372166642
      ],
      [
        "Ġroots",
        -10.010556741522258
      ],
      [
        "Ġphotograph",
        -10.011537543819133
      ],
      [
        "Ġannual",
        -10.011860366663315
      ],
      [
        "Ġmanual",
        -10.011971174986291
      ],
      [
        "Ġchemicals",
        -10.013144289508528
      ],
      [
        "am",
        -10.013169857080037
      ],
      [
        "Ġreduction",
        -10.013290662486227
      ],
      [
        "Ġoperate",
        -10.013372739682296
      ],
      [
        "ĠAfrica",
        -10.014105784441815
      ],
      [
        "placed",
        -10.014271834656768
      ],
      [
        "Ġenzyme",
        -10.014420172389295
      ],
      [
        "Ġexternal",
        -10.014441537006803
      ],
      [
        "ge",
        -10.015401245957223
      ],
      [
        "Ġcentral",
        -10.016462852884985
      ],
      [
        "Ġinches",
        -10.016762675787188
      ],
      [
        "Ġmiles",
        -10.017369175813442
      ],
      [
        "ĠIndia",
        -10.017724706789956
      ],
      [
        "ĠOther",
        -10.0180889482843
      ],
      [
        "Ġbreed",
        -10.018731196478807
      ],
      [
        "Ġsub",
        -10.020036905963812
      ],
      [
        "Ġphotos",
        -10.02079421622922
      ],
      [
        "Ġfossil",
        -10.022741889243488
      ],
      [
        "Ġwhe",
        -10.022980940233875
      ],
      [
        "Ġinform",
        -10.023141077792738
      ],
      [
        "Ġconsume",
        -10.023400748313955
      ],
      [
        "Ġmember",
        -10.023530550268816
      ],
      [
        "Ġsort",
        -10.023889054128954
      ],
      [
        "On",
        -10.023956568686229
      ],
      [
        "Ġfriend",
        -10.02417620150451
      ],
      [
        "Ġstraight",
        -10.025915360704165
      ],
      [
        "Ġinstructions",
        -10.026489321658811
      ],
      [
        "Ġmotor",
        -10.0278419053248
      ],
      [
        "Ġhundred",
        -10.028406144094236
      ],
      [
        "Ġsociet",
        -10.028977209755542
      ],
      [
        "ne",
        -10.029248652031406
      ],
      [
        "Ġrecycl",
        -10.030160507090322
      ],
      [
        "Ġdiagram",
        -10.031881993564276
      ],
      [
        "Ġhour",
        -10.032166445343066
      ],
      [
        "heating",
        -10.033467233352994
      ],
      [
        "Ġfavorite",
        -10.033638769961506
      ],
      [
        "ĠPark",
        -10.034541185560844
      ],
      [
        "Ġcloud",
        -10.034799078965056
      ],
      [
        "Ġgrade",
        -10.034827756084796
      ],
      [
        "Ġplaces",
        -10.035617524258654
      ],
      [
        "Ġantibiotic",
        -10.036101698229746
      ],
      [
        "Ġboard",
        -10.03688733301701
      ],
      [
        "Ġimplement",
        -10.03768776274404
      ],
      [
        "oil",
        -10.038326084416903
      ],
      [
        "ĠAustralia",
        -10.038970729016103
      ],
      [
        "Ġeconomic",
        -10.039125487464638
      ],
      [
        "âĢ¦Ċ",
        -10.040372327367605
      ],
      [
        "Ġcup",
        -10.04098581474272
      ],
      [
        "No",
        -10.04191312163665
      ],
      [
        "ĠAccording",
        -10.041922129214583
      ],
      [
        "Ġdistribution",
        -10.042597518312569
      ],
      [
        "Ġsession",
        -10.042859998366565
      ],
      [
        "Ġcustomers",
        -10.043621258379495
      ],
      [
        "Ġchang",
        -10.043979666925154
      ],
      [
        "Ġopportunit",
        -10.045388782237511
      ],
      [
        "Ġcontrast",
        -10.045872227683445
      ],
      [
        "Ġutilize",
        -10.045971896149798
      ],
      [
        "Ġfabric",
        -10.046571925738387
      ],
      [
        "ĠpH",
        -10.047480792320917
      ],
      [
        "Ġsaw",
        -10.04859626995426
      ],
      [
        "Ġemotion",
        -10.04883210587942
      ],
      [
        "Ġonto",
        -10.049093488543704
      ],
      [
        "Ġtransition",
        -10.04946051796782
      ],
      [
        "Ġconclusion",
        -10.051859643421167
      ],
      [
        "Ġstone",
        -10.052663169419075
      ],
      [
        "Ġoffering",
        -10.05406529232264
      ],
      [
        "Ġpasse",
        -10.054201281800763
      ],
      [
        "Ġinterface",
        -10.05437662830306
      ],
      [
        "Ġreliabl",
        -10.054397424981424
      ],
      [
        "try",
        -10.055814111789408
      ],
      [
        "Ġflood",
        -10.05588952229097
      ],
      [
        "Ġbeneficial",
        -10.057599991407145
      ],
      [
        "Ġaccept",
        -10.057632331993934
      ],
      [
        "ĠRNA",
        -10.057824981037273
      ],
      [
        "Ġdiscussion",
        -10.058992582476186
      ],
      [
        "ĠIs",
        -10.059346792250768
      ],
      [
        "Ġgoals",
        -10.059698259985314
      ],
      [
        "Ġse",
        -10.059822604882136
      ],
      [
        "Which",
        -10.059919206076664
      ],
      [
        "uses",
        -10.060300293851183
      ],
      [
        "Ġchocolate",
        -10.060835821707874
      ],
      [
        "city",
        -10.06109369815021
      ],
      [
        "Ġdiscovere",
        -10.061097673483408
      ],
      [
        "Ġfeeding",
        -10.061639494756225
      ],
      [
        "Ġbodie",
        -10.061739036342786
      ],
      [
        "Ġestablish",
        -10.06318503973108
      ],
      [
        "Ġbutton",
        -10.063502488621388
      ],
      [
        "ĠFood",
        -10.063921871359971
      ],
      [
        "Ġbright",
        -10.06432869813505
      ],
      [
        "Ġartificial",
        -10.064628637793264
      ],
      [
        "Ġmembrane",
        -10.06506340633987
      ],
      [
        "Ġblog",
        -10.065218155899371
      ],
      [
        "pecifically",
        -10.065586626342634
      ],
      [
        "ĠRiver",
        -10.066210198053524
      ],
      [
        "Ġprefer",
        -10.06667908570238
      ],
      [
        "Ġagent",
        -10.067080760467796
      ],
      [
        "Ġcomment",
        -10.067272166400254
      ],
      [
        "Ġvirtual",
        -10.06870911748478
      ],
      [
        "Ġlung",
        -10.06888569770191
      ],
      [
        "Ġalmo",
        -10.069032647401364
      ],
      [
        "rought",
        -10.069200831309356
      ],
      [
        "Ġcross",
        -10.070387444346904
      ],
      [
        "kept",
        -10.071043400921493
      ],
      [
        "Ġlibrar",
        -10.07113504589055
      ],
      [
        "Ġmotion",
        -10.071711480244094
      ],
      [
        "Ġsnail",
        -10.072119696783773
      ],
      [
        "Ġ&",
        -10.073681321172876
      ],
      [
        "field",
        -10.075345117846066
      ],
      [
        "Ġsolve",
        -10.075763507933964
      ],
      [
        "Ġmarine",
        -10.076777804821404
      ],
      [
        "Ġdoor",
        -10.077783736415627
      ],
      [
        "Ġestablishe",
        -10.078340717548071
      ],
      [
        "ating",
        -10.078471400760073
      ],
      [
        "through",
        -10.079893669058643
      ],
      [
        "Ġinternet",
        -10.081846419392429
      ],
      [
        "Ġfight",
        -10.08259970760248
      ],
      [
        "my",
        -10.082639137306955
      ],
      [
        "Ġdegree",
        -10.082664378629495
      ],
      [
        "visible",
        -10.08268922017198
      ],
      [
        "Ġthreat",
        -10.08277848108052
      ],
      [
        "Ġwar",
        -10.08280491376314
      ],
      [
        "first",
        -10.083222934617424
      ],
      [
        "Ġsector",
        -10.083678362807092
      ],
      [
        "Ġeducational",
        -10.083716478414146
      ],
      [
        "crops",
        -10.0838714311201
      ],
      [
        "Ġrespect",
        -10.084050127425634
      ],
      [
        "Ġsymbol",
        -10.084931212054832
      ],
      [
        "Ġchalleng",
        -10.086801284783316
      ],
      [
        "Ġfit",
        -10.087603097871394
      ],
      [
        "Ġindustrial",
        -10.08830404565106
      ],
      [
        "Ġvariation",
        -10.088730727430594
      ],
      [
        "ĠUs",
        -10.089993348950635
      ],
      [
        "Ġnice",
        -10.090281409954692
      ],
      [
        "ĠLife",
        -10.09060747203867
      ],
      [
        "Ġemotional",
        -10.091386681433926
      ],
      [
        "ĠYork",
        -10.091739392107645
      ],
      [
        "Ġkitchen",
        -10.091892050960492
      ],
      [
        "Ġtha",
        -10.093816068864871
      ],
      [
        "Ġshell",
        -10.094044196396435
      ],
      [
        "Ġdi",
        -10.09435426761742
      ],
      [
        "Ġplanting",
        -10.094607361308052
      ],
      [
        "Ġeventual",
        -10.095171603734675
      ],
      [
        "Ġbroke",
        -10.095753197741928
      ],
      [
        "Ġshift",
        -10.096435019788672
      ],
      [
        "Ġtopic",
        -10.096457579139834
      ],
      [
        "Ġindependent",
        -10.096514264510006
      ],
      [
        "efore",
        -10.096672673531916
      ],
      [
        "weight",
        -10.096834391365729
      ],
      [
        "ones",
        -10.0984163347089
      ],
      [
        "Ġoutdoor",
        -10.098653864377424
      ],
      [
        "Ġemergenc",
        -10.098693916650513
      ],
      [
        "stock",
        -10.099194449636329
      ],
      [
        "dditionally",
        -10.1003016365472
      ],
      [
        "ĠEuropean",
        -10.100756248428056
      ],
      [
        "ĠRe",
        -10.101308457557288
      ],
      [
        "Ġinnovation",
        -10.102048322984412
      ],
      [
        "Ġharmful",
        -10.10220652674081
      ],
      [
        "Ġart",
        -10.10226014101292
      ],
      [
        "eat",
        -10.103075907186932
      ],
      [
        "Ġtransmission",
        -10.103260068275636
      ],
      [
        "Ġblend",
        -10.103693980920117
      ],
      [
        "Ġfailure",
        -10.104540210081966
      ],
      [
        "Ġelectronic",
        -10.10460730558676
      ],
      [
        "Ġtrigger",
        -10.10558686823035
      ],
      [
        "Ġorganisms",
        -10.105707758717454
      ],
      [
        "ĠAdditional",
        -10.105790065339637
      ],
      [
        "Ġstrain",
        -10.105817133944786
      ],
      [
        "Ġphoto",
        -10.107955281733531
      ],
      [
        "-quality",
        -10.107973918678976
      ],
      [
        "ch",
        -10.108244454054237
      ],
      [
        "ĠOver",
        -10.108579482255614
      ],
      [
        "Are",
        -10.109071928133083
      ],
      [
        "Ġtypical",
        -10.109739393155207
      ],
      [
        "Ġremoved",
        -10.109745077410937
      ],
      [
        "Ġlate",
        -10.110350430486982
      ],
      [
        "Ġcommunit",
        -10.111166959375431
      ],
      [
        "Ġexamine",
        -10.111216521427872
      ],
      [
        "Ġcarefully",
        -10.11190584709289
      ],
      [
        "Ġinvestment",
        -10.112339146529065
      ],
      [
        "Ġatom",
        -10.113744161814877
      ],
      [
        "-friendly",
        -10.113783215901744
      ],
      [
        "ling",
        -10.113786752625217
      ],
      [
        "ought",
        -10.114410276596637
      ],
      [
        "Ġintegrate",
        -10.114518106155028
      ],
      [
        "hap",
        -10.115044596535991
      ],
      [
        "Ġaircraft",
        -10.115748390789475
      ],
      [
        "ĠJust",
        -10.11614144262624
      ],
      [
        "Ġcrop",
        -10.116650707280016
      ],
      [
        "Ġhazard",
        -10.116700858869716
      ],
      [
        "Ġattract",
        -10.11707168353428
      ],
      [
        "Ġcomposition",
        -10.119934900929904
      ],
      [
        "More",
        -10.120072887144133
      ],
      [
        "referred",
        -10.12055340025481
      ],
      [
        "ted",
        -10.121239916482889
      ],
      [
        "Ġpolluti",
        -10.122031029038723
      ],
      [
        "Ġcomfort",
        -10.122434901753078
      ],
      [
        "Ġprint",
        -10.124250147832417
      ],
      [
        "him",
        -10.124294818672102
      ],
      [
        "Ġaudio",
        -10.124807195004175
      ],
      [
        "Ġbecom",
        -10.124913191344753
      ],
      [
        "se",
        -10.125476427006248
      ],
      [
        "Ġobvious",
        -10.126958376712208
      ],
      [
        "Ġmold",
        -10.128620086366428
      ],
      [
        "Ġinstallation",
        -10.128702062934892
      ],
      [
        "Ġcharacter",
        -10.129270532728338
      ],
      [
        "Ġwalls",
        -10.129476409300809
      ],
      [
        "Ġgenome",
        -10.129531691520413
      ],
      [
        "ĠEducation",
        -10.131690997134916
      ],
      [
        "Ġscore",
        -10.132168802535418
      ],
      [
        "Onc",
        -10.13280815787148
      ],
      [
        "Ġfocuse",
        -10.13299520845881
      ],
      [
        "Ġagriculture",
        -10.1340808020022
      ],
      [
        "Ġreward",
        -10.134996928251724
      ],
      [
        "-time",
        -10.135210669708249
      ],
      [
        "Ġinvest",
        -10.13780037274691
      ],
      [
        "Ġsnow",
        -10.13789924010912
      ],
      [
        "Ġpregnanc",
        -10.138871672770753
      ],
      [
        "Ġextract",
        -10.139164064285527
      ],
      [
        "Ġconsequence",
        -10.141122792531169
      ],
      [
        "Ġamazing",
        -10.142418208359963
      ],
      [
        "Ġregulator",
        -10.143060780972146
      ],
      [
        "Ġsend",
        -10.143097523569736
      ],
      [
        "J",
        -10.143469166318267
      ],
      [
        "Ġcoat",
        -10.14426285686588
      ],
      [
        "Ġdivide",
        -10.144973594691091
      ],
      [
        "Ġultimate",
        -10.145203045536764
      ],
      [
        "Ġinteractions",
        -10.145529761291463
      ],
      [
        "Ġcream",
        -10.146037790754807
      ],
      [
        "Ġstar",
        -10.146742135208385
      ],
      [
        "An",
        -10.146982949462185
      ],
      [
        "Ġmorning",
        -10.1471235979585
      ],
      [
        "Ġinteract",
        -10.147708776106136
      ],
      [
        "put",
        -10.147726337025738
      ],
      [
        "Ġcoming",
        -10.148200481436085
      ],
      [
        "Ġdioxide",
        -10.149049195393964
      ],
      [
        "Ġbatteries",
        -10.151349169872825
      ],
      [
        "Ġnews",
        -10.152614350302496
      ],
      [
        "life",
        -10.153589683496598
      ],
      [
        "Ġjoin",
        -10.154270791473682
      ],
      [
        "Ġmelt",
        -10.154330282402784
      ],
      [
        "Ġimprovement",
        -10.154424028412691
      ],
      [
        "Ġhelpful",
        -10.15483167448711
      ],
      [
        "Ġhunting",
        -10.155042542828417
      ],
      [
        "-year",
        -10.15554337266759
      ],
      [
        "Ġcurve",
        -10.155870813456986
      ],
      [
        "Ġstock",
        -10.15588375048093
      ],
      [
        "Ġangle",
        -10.155886714892802
      ],
      [
        "Ġcreature",
        -10.156036323496128
      ],
      [
        "Ġthorough",
        -10.156556937408393
      ],
      [
        "Ġadapt",
        -10.15805126244667
      ],
      [
        "Ġbleed",
        -10.158547413602296
      ],
      [
        "Figure",
        -10.158766618357664
      ],
      [
        "Al",
        -10.159138697159715
      ],
      [
        "/or",
        -10.160703084462687
      ],
      [
        "Ġletter",
        -10.16159549684944
      ],
      [
        "Ġcompost",
        -10.161690813171038
      ],
      [
        "ĠSince",
        -10.16173544477806
      ],
      [
        "wood",
        -10.161773017100312
      ],
      [
        "Ġregulations",
        -10.162124716828432
      ],
      [
        "Ġchannel",
        -10.162335746074042
      ],
      [
        "Ġbaking",
        -10.162945550008768
      ],
      [
        "Ġtechnical",
        -10.16354301911506
      ],
      [
        "group",
        -10.163703795432696
      ],
      [
        "Ġwave",
        -10.163761266273298
      ],
      [
        "Ġtests",
        -10.164824623660335
      ],
      [
        "ĠAir",
        -10.164877562900664
      ],
      [
        "Ġfiles",
        -10.165276075383847
      ],
      [
        "Ġupper",
        -10.165288331227174
      ],
      [
        "Ġmeeting",
        -10.165958093400144
      ],
      [
        "Let",
        -10.16632563007582
      ],
      [
        "tiny",
        -10.166338822979757
      ],
      [
        "Ġbu",
        -10.166987797157775
      ],
      [
        "latest",
        -10.16801795361592
      ],
      [
        "Ġexhibit",
        -10.168579353069568
      ],
      [
        "ried",
        -10.168969053181437
      ],
      [
        "ĠEurope",
        -10.168994079864309
      ],
      [
        "Ġrestaurant",
        -10.169410260372915
      ],
      [
        "Ġowner",
        -10.16966667052286
      ],
      [
        "Ġabsolute",
        -10.17009986448396
      ],
      [
        "Ġpreviously",
        -10.17054803763613
      ],
      [
        "Ġmiss",
        -10.17148729303803
      ],
      [
        "Ġassume",
        -10.17167085850279
      ],
      [
        "Ġdimension",
        -10.171962000536311
      ],
      [
        "Ġversatil",
        -10.172926042663793
      ],
      [
        "Ġstomach",
        -10.17320007786254
      ],
      [
        "Ġmajority",
        -10.174627897199125
      ],
      [
        "Ġprivate",
        -10.17502359954152
      ],
      [
        "Ġowners",
        -10.17519614124539
      ],
      [
        "Ġpounds",
        -10.176360273534469
      ],
      [
        "Ġfille",
        -10.17733985975176
      ],
      [
        "Ġdefinition",
        -10.177706564580674
      ],
      [
        "live",
        -10.178146783753297
      ],
      [
        "Ġagree",
        -10.17933934149486
      ],
      [
        "Ġlab",
        -10.182597879656289
      ],
      [
        "ĠBritish",
        -10.183715005271177
      ],
      [
        "Ġmid",
        -10.183728986406289
      ],
      [
        "Ġgirl",
        -10.18393594471257
      ],
      [
        "Ġpainting",
        -10.185862920865674
      ],
      [
        "Ġearlie",
        -10.185962444743325
      ],
      [
        "ĠStudent",
        -10.186144662298762
      ],
      [
        "Ġopinion",
        -10.186217487540128
      ],
      [
        "range",
        -10.186778484486638
      ],
      [
        "Ġfilm",
        -10.186789262668952
      ],
      [
        "Since",
        -10.187304940973451
      ],
      [
        "Ġexcessive",
        -10.188007555318602
      ],
      [
        "Ġindoor",
        -10.188582145851916
      ],
      [
        "Ġprepare",
        -10.18986566400411
      ],
      [
        "ĠChina",
        -10.189910497273305
      ],
      [
        "Ġload",
        -10.190051225129212
      ],
      [
        "Ġexact",
        -10.190090258565178
      ],
      [
        "long",
        -10.19063705116137
      ],
      [
        "Ġpro",
        -10.190906872571263
      ],
      [
        "Ġice",
        -10.191784210875376
      ],
      [
        "actions",
        -10.192932541671064
      ],
      [
        "Ġcreation",
        -10.193042401189944
      ],
      [
        "Ġzone",
        -10.19317238944348
      ],
      [
        "Ġgift",
        -10.19380249185988
      ],
      [
        "Ġmaster",
        -10.194079611878436
      ],
      [
        "mixed",
        -10.195307755101066
      ],
      [
        "Ġformula",
        -10.195466218436778
      ],
      [
        "Ġminimum",
        -10.195472800601534
      ],
      [
        "Ġprinciples",
        -10.195497451585007
      ],
      [
        "Ġgap",
        -10.195588560798846
      ],
      [
        "Ġcom",
        -10.19756322541476
      ],
      [
        "Ġtooth",
        -10.19814898233944
      ],
      [
        "Ġbreath",
        -10.198675668163864
      ],
      [
        "Ġtopics",
        -10.199473045065108
      ],
      [
        "Ġhistorical",
        -10.199610445871617
      ],
      [
        "Ġbroad",
        -10.199623496210274
      ],
      [
        "ĠCanada",
        -10.20051790845303
      ],
      [
        "Ġwaves",
        -10.201129175539808
      ],
      [
        "ĠEvery",
        -10.2019355956066
      ],
      [
        "Ġaske",
        -10.202025489460905
      ],
      [
        "Ġwheel",
        -10.202351521870298
      ],
      [
        "Ġimprov",
        -10.20244902238344
      ],
      [
        "Ġleak",
        -10.203185828289952
      ],
      [
        "Ġteach",
        -10.203328509069344
      ],
      [
        "lots",
        -10.203413569737638
      ],
      [
        "Ġboat",
        -10.203946752912048
      ],
      [
        "City",
        -10.20406264797584
      ],
      [
        "Ġorigin",
        -10.20467472540436
      ],
      [
        "Ġplent",
        -10.204827661050413
      ],
      [
        "Ġrenewable",
        -10.2058382428217
      ],
      [
        "Ġconsideration",
        -10.206007556809398
      ],
      [
        "need",
        -10.206189851482478
      ],
      [
        "Ġbike",
        -10.206280128822469
      ],
      [
        "Ġassess",
        -10.206327059460389
      ],
      [
        "lost",
        -10.207085667558824
      ],
      [
        "Ġbreast",
        -10.207173756183655
      ],
      [
        "ĠEnergy",
        -10.207976312381176
      ],
      [
        "normally",
        -10.208520967311518
      ],
      [
        "Ġrespond",
        -10.209773339290075
      ],
      [
        "Ġresponsibilit",
        -10.210152301582518
      ],
      [
        "Ġdish",
        -10.210174413111735
      ],
      [
        "Ġcontinuous",
        -10.210208387699153
      ],
      [
        "air",
        -10.210381816971342
      ],
      [
        "Ġintelligence",
        -10.210481700234311
      ],
      [
        "Ġbeauty",
        -10.21054884051335
      ],
      [
        "Ġvessel",
        -10.211294610087103
      ],
      [
        "un",
        -10.21179046689489
      ],
      [
        "Ġcontract",
        -10.212266862564082
      ],
      [
        "mobile",
        -10.212326907192306
      ],
      [
        "Ġcable",
        -10.212656755785158
      ],
      [
        "ĠAfrican",
        -10.213217728404162
      ],
      [
        "Ġnutrition",
        -10.213409848268247
      ],
      [
        "Ġtip",
        -10.213941143822876
      ],
      [
        "Ġresident",
        -10.213999622175193
      ],
      [
        "Ġrealize",
        -10.215383746370811
      ],
      [
        "ĠMarch",
        -10.216502667860176
      ],
      [
        "Ġgoe",
        -10.217168079462931
      ],
      [
        "âĢĻt",
        -10.217774374221769
      ],
      [
        "Ġborder",
        -10.21845083206598
      ],
      [
        "Ġlaser",
        -10.21886115803965
      ],
      [
        "Ġemployee",
        -10.218992356980364
      ],
      [
        "Ġtrain",
        -10.21901400103189
      ],
      [
        "Ġuniverse",
        -10.219803035948278
      ],
      [
        "Ġpathogen",
        -10.220110130800506
      ],
      [
        "Ġdetermined",
        -10.220348136141002
      ],
      [
        "Ġfirm",
        -10.220981267543852
      ],
      [
        "Ġrelevan",
        -10.222243447875009
      ],
      [
        "Ġrain",
        -10.223167670184829
      ],
      [
        "Ġguidelines",
        -10.223506354254202
      ],
      [
        "Ġminimize",
        -10.22366474887151
      ],
      [
        "Ġmutation",
        -10.223967195617044
      ],
      [
        "Ġtube",
        -10.22441625356154
      ],
      [
        "Ġsurvival",
        -10.225031063918916
      ],
      [
        "Ġtru",
        -10.225104002881054
      ],
      [
        "Ġdecide",
        -10.225135041507102
      ],
      [
        "Ġclinical",
        -10.22585738855748
      ],
      [
        "call",
        -10.225913216293886
      ],
      [
        "Ġkidney",
        -10.226154005490898
      ],
      [
        "Ġcoffee",
        -10.226716012733348
      ],
      [
        "Ġabsorb",
        -10.227774572771189
      ],
      [
        "ĠJohn",
        -10.227846860400303
      ],
      [
        "know",
        -10.228639714042348
      ],
      [
        "Ġcircle",
        -10.229266151183062
      ],
      [
        "ĠPeople",
        -10.229935566443432
      ],
      [
        "Ġeliminate",
        -10.230631919832897
      ],
      [
        "First",
        -10.231545487455858
      ],
      [
        "Ġsunlight",
        -10.231677248258777
      ],
      [
        "Ġtrip",
        -10.232403920842266
      ],
      [
        "Ġextensive",
        -10.233155172266931
      ],
      [
        "new",
        -10.234044610951193
      ],
      [
        "Ġtransform",
        -10.234293512153616
      ],
      [
        "diversit",
        -10.237403867553574
      ],
      [
        "Ġcommunicate",
        -10.23782648120303
      ],
      [
        "ĠGoogle",
        -10.237880533347091
      ],
      [
        "Ġbill",
        -10.238218392212255
      ],
      [
        "Ġglucos",
        -10.238585192374824
      ],
      [
        "Ġupdate",
        -10.238655881671516
      ],
      [
        "Ġcore",
        -10.238761582864576
      ],
      [
        "Ġfoundation",
        -10.238895943298468
      ],
      [
        "Ġanxiet",
        -10.239179312090508
      ],
      [
        "Ġma",
        -10.239381024335216
      ],
      [
        "Ġfoster",
        -10.239966222338069
      ],
      [
        "Ġeat",
        -10.240146126923852
      ],
      [
        "Ġshark",
        -10.240715523967411
      ],
      [
        "Ġstatement",
        -10.24189888473405
      ],
      [
        "Ġvarie",
        -10.24240947946786
      ],
      [
        "Ġprior",
        -10.242835591362564
      ],
      [
        "Ġinnovative",
        -10.24400044431203
      ],
      [
        "uring",
        -10.244037413531384
      ],
      [
        "Ġobjective",
        -10.24469888604538
      ],
      [
        "Ġhormone",
        -10.24471278838888
      ],
      [
        "Ġlayers",
        -10.24492971910525
      ],
      [
        "Ġsaying",
        -10.245116406442818
      ],
      [
        "point",
        -10.245626352722892
      ],
      [
        "Ġharvest",
        -10.24616297741128
      ],
      [
        "working",
        -10.247558167088483
      ],
      [
        "Ġmath",
        -10.247625586794983
      ],
      [
        "times",
        -10.247664826331878
      ],
      [
        "Ġgrain",
        -10.248090049067198
      ],
      [
        "Ġspray",
        -10.248233883056866
      ],
      [
        "Ġcareer",
        -10.248371935250528
      ],
      [
        "Ġofficial",
        -10.248447528113394
      ],
      [
        "Ġsauce",
        -10.249206151409169
      ],
      [
        "Ġportion",
        -10.24946961472886
      ],
      [
        "protected",
        -10.249666929768424
      ],
      [
        "ĠApril",
        -10.249743868230432
      ],
      [
        "Ġcard",
        -10.249873579210856
      ],
      [
        "Ġfields",
        -10.250132890743329
      ],
      [
        "Ġanalyze",
        -10.25077957585625
      ],
      [
        "Ġprepared",
        -10.250781700098193
      ],
      [
        "ĠInternational",
        -10.251493316553717
      ],
      [
        "Ġopening",
        -10.252519016947604
      ],
      [
        "ĠKeep",
        -10.25256768569492
      ],
      [
        "ble",
        -10.252845030049649
      ],
      [
        "ĠTh",
        -10.253101285051876
      ],
      [
        "back",
        -10.253942716842325
      ],
      [
        "ĠFurther",
        -10.254465552190318
      ],
      [
        "energy",
        -10.25512823770472
      ],
      [
        "Ġfundamental",
        -10.25546475375096
      ],
      [
        "Ġprimari",
        -10.25584395764178
      ],
      [
        "ĠDon",
        -10.256908680106978
      ],
      [
        "Ġsuper",
        -10.256925668141058
      ],
      [
        "Ġisn",
        -10.257104046107456
      ],
      [
        "Ġcompetition",
        -10.258456342355142
      ],
      [
        "Ġincorporate",
        -10.258490484056278
      ],
      [
        "Ġstation",
        -10.25930279036929
      ],
      [
        "Ġcomparison",
        -10.259681779069576
      ],
      [
        "Ġurban",
        -10.261839514200693
      ],
      [
        "Ġfinish",
        -10.262508914828796
      ],
      [
        "Ġpathway",
        -10.262765122851691
      ],
      [
        "Ġbehaviour",
        -10.264672157060584
      ],
      [
        "Ġchronic",
        -10.265114398923092
      ],
      [
        "ĠWell",
        -10.265489647511844
      ],
      [
        "Ġaudience",
        -10.265529086574697
      ],
      [
        "Ġfund",
        -10.265690162910555
      ],
      [
        "eating",
        -10.266002108841516
      ],
      [
        "Ġarrow",
        -10.26760465375208
      ],
      [
        "Conclusion",
        -10.26779866171668
      ],
      [
        "tic",
        -10.26874091884908
      ],
      [
        "Ġprinter",
        -10.269990368644876
      ],
      [
        "Ġnerve",
        -10.270454034202972
      ],
      [
        "ou",
        -10.27123124149993
      ],
      [
        "ying",
        -10.27288393386694
      ],
      [
        "Ġsaving",
        -10.273011266618884
      ],
      [
        "November",
        -10.273088292932544
      ],
      [
        "Ġexcess",
        -10.273341194997752
      ],
      [
        "rich",
        -10.273556166158755
      ],
      [
        "Ġchoos",
        -10.273807498830086
      ],
      [
        "away",
        -10.274084182790135
      ],
      [
        "Not",
        -10.275461826074626
      ],
      [
        "Ġradio",
        -10.27582775634966
      ],
      [
        "Ġclient",
        -10.276022941737423
      ],
      [
        "Ġconventional",
        -10.27632501372218
      ],
      [
        "Ġbrick",
        -10.276449778992175
      ],
      [
        "Ġprofile",
        -10.27690664915724
      ],
      [
        "Ġorganizations",
        -10.27696506596642
      ],
      [
        "Ġinspire",
        -10.277181837220532
      ],
      [
        "Ġinteraction",
        -10.279145481524536
      ],
      [
        "includ",
        -10.279223754496218
      ],
      [
        "vity",
        -10.279655408978345
      ],
      [
        "Ġstem",
        -10.279789794536676
      ],
      [
        "late",
        -10.280254313520716
      ],
      [
        "Ġparameter",
        -10.280505492089985
      ],
      [
        "Ġinner",
        -10.28133192878755
      ],
      [
        "Ġpackag",
        -10.281509989044554
      ],
      [
        "Ġhousehold",
        -10.282205398810646
      ],
      [
        "Ġfear",
        -10.2826554113781
      ],
      [
        "Ġconstruct",
        -10.283056081949722
      ],
      [
        "Ġsell",
        -10.283511188774266
      ],
      [
        "Ġsmart",
        -10.283805977385867
      ],
      [
        "Ġlaws",
        -10.284149479255335
      ],
      [
        "around",
        -10.284445358132164
      ],
      [
        "Ġgear",
        -10.28453134714502
      ],
      [
        "Ġhorses",
        -10.284754622153494
      ],
      [
        "Ġguid",
        -10.285840759741816
      ],
      [
        "idden",
        -10.28630663366182
      ],
      [
        "ĠWar",
        -10.286378730120598
      ],
      [
        "Ġappeal",
        -10.288503358966196
      ],
      [
        "Ġmask",
        -10.288701763393824
      ],
      [
        "Ġdefinite",
        -10.289044588749356
      ],
      [
        "ground",
        -10.28911394929573
      ],
      [
        "ĠHis",
        -10.28912396259137
      ],
      [
        "Ġharm",
        -10.290341617316182
      ],
      [
        "Ġcultural",
        -10.290701434458942
      ],
      [
        "form",
        -10.290891996219234
      ],
      [
        "Ġprecise",
        -10.291730083958775
      ],
      [
        "Ġtitle",
        -10.291829581755884
      ],
      [
        "Ġsong",
        -10.292682258605469
      ],
      [
        "My",
        -10.293086050588698
      ],
      [
        "Ġconsists",
        -10.293928551059109
      ],
      [
        "men",
        -10.294863010184784
      ],
      [
        "table",
        -10.295029503053089
      ],
      [
        "Ġnamed",
        -10.295294100139913
      ],
      [
        "Ġdecided",
        -10.295736808569938
      ],
      [
        "-in",
        -10.296909427776905
      ],
      [
        "Ġskill",
        -10.297195822626074
      ],
      [
        "Ġcloser",
        -10.297568831560776
      ],
      [
        "Ġemail",
        -10.297642157655126
      ],
      [
        "Ġapart",
        -10.298081850434524
      ],
      [
        "ĠTake",
        -10.298736181415231
      ],
      [
        "j",
        -10.299226697965686
      ],
      [
        "Does",
        -10.299562067390978
      ],
      [
        "tely",
        -10.300801358906924
      ],
      [
        "Ġchose",
        -10.301245439884708
      ],
      [
        "VCA",
        -10.301249207818287
      ],
      [
        "Ġrecorded",
        -10.30198862495108
      ],
      [
        "Ġd",
        -10.302133070250337
      ],
      [
        "nflammation",
        -10.302969235973652
      ],
      [
        "Ġshapes",
        -10.305289605745816
      ],
      [
        "Ġinstitution",
        -10.305948182755586
      ],
      [
        "Ġmap",
        -10.306207442990498
      ],
      [
        "Ġthick",
        -10.30641465360506
      ],
      [
        "ĠJune",
        -10.306913727583431
      ],
      [
        "Ġradiation",
        -10.30691593874518
      ],
      [
        "ty",
        -10.308215484656175
      ],
      [
        "Ġadvantages",
        -10.308615563677565
      ],
      [
        "Ġthrow",
        -10.308786762823154
      ],
      [
        "Ġwoman",
        -10.308844577731888
      ],
      [
        "round",
        -10.309845565957469
      ],
      [
        "Ġuses",
        -10.311279498492588
      ],
      [
        "Ġinstrument",
        -10.311557796527406
      ],
      [
        "becaus",
        -10.311655943786183
      ],
      [
        "Ġspecialize",
        -10.311764878045196
      ],
      [
        "Ġcapabl",
        -10.31248769539424
      ],
      [
        "Ġencounter",
        -10.31285985405374
      ],
      [
        "Ġpictures",
        -10.312999594705923
      ],
      [
        "high",
        -10.313380762072864
      ],
      [
        "Ġorgan",
        -10.313930852375238
      ],
      [
        "ber",
        -10.314047701740623
      ],
      [
        "Ġzero",
        -10.31420251536074
      ],
      [
        "Ġpolicy",
        -10.314239427335387
      ],
      [
        "Ġancient",
        -10.314516683249035
      ],
      [
        "Ġtrust",
        -10.315053448622496
      ],
      [
        "lies",
        -10.315241160706773
      ],
      [
        "He",
        -10.315496395178712
      ],
      [
        "during",
        -10.315728526753189
      ],
      [
        "ĠProgram",
        -10.31593954254668
      ],
      [
        "Ġroute",
        -10.315986905415704
      ],
      [
        "Ġconsult",
        -10.316047780736316
      ],
      [
        "Ġworksheet",
        -10.31610960535378
      ],
      [
        "Ġstroke",
        -10.316203934996008
      ],
      [
        "Ġmanufacturing",
        -10.317137683980471
      ],
      [
        "Ġweigh",
        -10.317170969312157
      ],
      [
        "Ġdetaile",
        -10.317967649207226
      ],
      [
        "Ġpreparation",
        -10.319443748156193
      ],
      [
        "Ġsmoke",
        -10.31969465192164
      ],
      [
        "Ġdatabase",
        -10.320224663976806
      ],
      [
        "ĠDur",
        -10.32045539764595
      ],
      [
        "Ġlift",
        -10.320472584778615
      ],
      [
        "Ġrandom",
        -10.321221872894109
      ],
      [
        "Ġsignals",
        -10.321302349870829
      ],
      [
        "Ġautomatic",
        -10.322063735308245
      ],
      [
        "Ġinitiative",
        -10.322155047790572
      ],
      [
        "Ġderive",
        -10.324265380167663
      ],
      [
        "Ġcalci",
        -10.32432136630952
      ],
      [
        "been",
        -10.32433380858242
      ],
      [
        "Ġconfirm",
        -10.324396497617236
      ],
      [
        "so",
        -10.324644144463862
      ],
      [
        "Ġarchitecture",
        -10.32491680666022
      ],
      [
        "think",
        -10.325150456336852
      ],
      [
        "Ġbarrier",
        -10.326517999572436
      ],
      [
        "Ġburn",
        -10.32717058960752
      ],
      [
        "Ġagricultural",
        -10.327388384497592
      ],
      [
        "Ġdomain",
        -10.327537530703644
      ],
      [
        "order",
        -10.327675868638906
      ],
      [
        "ĠRead",
        -10.327929890194582
      ],
      [
        "Ġjump",
        -10.328548962781657
      ],
      [
        "many",
        -10.329134409781368
      ],
      [
        "case",
        -10.331285363874525
      ],
      [
        "ĠSea",
        -10.331336668533938
      ],
      [
        "Ġexplor",
        -10.331381311633992
      ],
      [
        "ha",
        -10.332828149347964
      ],
      [
        "ĠâĢĺ",
        -10.333560151856087
      ],
      [
        "Ġillness",
        -10.333837182805937
      ],
      [
        "mm",
        -10.334463859930224
      ],
      [
        "ĠAct",
        -10.33535219524359
      ],
      [
        "Ġformat",
        -10.336282850585292
      ],
      [
        "Ġwarming",
        -10.33898676731314
      ],
      [
        "Ġindustries",
        -10.33917434892532
      ],
      [
        "Ġfix",
        -10.339493988205948
      ],
      [
        "Ġsuit",
        -10.340066169017817
      ],
      [
        "gave",
        -10.340130009364488
      ],
      [
        "Ġforces",
        -10.340531864095857
      ],
      [
        "Ġtight",
        -10.341507688063787
      ],
      [
        "Ġperiods",
        -10.343919803785726
      ],
      [
        "known",
        -10.344220062659696
      ],
      [
        "Ġdistinct",
        -10.344434903392454
      ],
      [
        "Ġpropose",
        -10.34580353921504
      ],
      [
        "Ġusage",
        -10.345868625721112
      ],
      [
        "ĠLike",
        -10.346218485132052
      ],
      [
        "Ġregulate",
        -10.34760794727643
      ],
      [
        "Ġremov",
        -10.348603961576345
      ],
      [
        "Ġstring",
        -10.348739249109222
      ],
      [
        "Ġsteam",
        -10.348805353142597
      ],
      [
        "Ġprinting",
        -10.350730259216254
      ],
      [
        "Ġpreserve",
        -10.351201695859698
      ],
      [
        "ĠFoundation",
        -10.35187584889508
      ],
      [
        "place",
        -10.352398938309616
      ],
      [
        "Ġdownload",
        -10.353722662758512
      ],
      [
        "Ġpredator",
        -10.35529623791393
      ],
      [
        "Ġstudie",
        -10.355472107158096
      ],
      [
        "Ġvaccine",
        -10.355497634626293
      ],
      [
        "ĠIndian",
        -10.355673372231378
      ],
      [
        "Ġpromot",
        -10.355675795394614
      ],
      [
        "ĠAdd",
        -10.355824221379352
      ],
      [
        "Ġarray",
        -10.356024968115753
      ],
      [
        "Ġframework",
        -10.356047575363243
      ],
      [
        "Ġsnake",
        -10.35618874066693
      ],
      [
        "Ġbutter",
        -10.356508494822336
      ],
      [
        "Ġrace",
        -10.356698672102564
      ],
      [
        "Ġclothes",
        -10.358107009770816
      ],
      [
        "Ġbond",
        -10.358184096576448
      ],
      [
        "Ġpowder",
        -10.359053219483798
      ],
      [
        "Ġworkshop",
        -10.359165660705296
      ],
      [
        "breaking",
        -10.359327888851224
      ],
      [
        "Ġrequest",
        -10.359421833416024
      ],
      [
        "ties",
        -10.359645111612384
      ],
      [
        "Ġraw",
        -10.35976196957527
      ],
      [
        "ending",
        -10.359930749106532
      ],
      [
        "Ġauto",
        -10.36132170287364
      ],
      [
        "Ġbrush",
        -10.361552514371787
      ],
      [
        "friendly",
        -10.362332640478597
      ],
      [
        "Ġexpress",
        -10.362649879739855
      ],
      [
        "Ġappreciate",
        -10.363237488937369
      ],
      [
        "Ġhospital",
        -10.363307907875887
      ],
      [
        "leas",
        -10.363758856614387
      ],
      [
        "Ġwor",
        -10.364276962836044
      ],
      [
        "Ġnovel",
        -10.364940460272695
      ],
      [
        "@",
        -10.36538595694599
      ],
      [
        "Ġtrouble",
        -10.366381632340136
      ],
      [
        "called",
        -10.366585527998
      ],
      [
        "Ġthrive",
        -10.36703898708901
      ],
      [
        "Ġarrive",
        -10.367790178247049
      ],
      [
        "Ġmammal",
        -10.368112601559062
      ],
      [
        "Ġplate",
        -10.368305874161566
      ],
      [
        "Ġcalculation",
        -10.368407392284496
      ],
      [
        "Ġwish",
        -10.368591569549771
      ],
      [
        "ĠBoth",
        -10.369125798134776
      ],
      [
        "come",
        -10.369293395177156
      ],
      [
        "Ġcontinues",
        -10.369543334520657
      ],
      [
        "Ġbulb",
        -10.369755330693
      ],
      [
        "per",
        -10.371987133395614
      ],
      [
        "Ġelevate",
        -10.372472020946816
      ],
      [
        "Ġevolve",
        -10.372751563082147
      ],
      [
        "Ġtrade",
        -10.372817491832953
      ],
      [
        "Ġstorie",
        -10.37308311672874
      ],
      [
        "Ġsensitive",
        -10.37340870614014
      ],
      [
        "Also",
        -10.373514141101564
      ],
      [
        "Ġsurprise",
        -10.37354267428207
      ],
      [
        "Ġhomes",
        -10.373618511447642
      ],
      [
        "Ġtomato",
        -10.374469626740002
      ],
      [
        "Ġmanner",
        -10.374953683501817
      ],
      [
        "New",
        -10.374995490475394
      ],
      [
        "Ġcollaboration",
        -10.376295767379895
      ],
      [
        "ĠGreat",
        -10.376328184798254
      ],
      [
        "space",
        -10.376786536028169
      ],
      [
        "Ġpool",
        -10.376954912810389
      ],
      [
        "Ġevaluate",
        -10.37762338722945
      ],
      [
        "Ġamino",
        -10.378667141731423
      ],
      [
        "Ġfinishe",
        -10.379020811203496
      ],
      [
        "Ġsharp",
        -10.379412765309056
      ],
      [
        "Ġtrial",
        -10.380411370307444
      ],
      [
        "Ġbi",
        -10.38051526395941
      ],
      [
        "Ġantibod",
        -10.380774766330164
      ],
      [
        "Ġforget",
        -10.38112783244857
      ],
      [
        "Ġsharks",
        -10.382013038956712
      ],
      [
        "Ġsurger",
        -10.3823028078142
      ],
      [
        "Ġseven",
        -10.382800781696895
      ],
      [
        "Ġsignificance",
        -10.383292580565367
      ],
      [
        "Ġconsist",
        -10.383552749495434
      ],
      [
        "help",
        -10.383844123575775
      ],
      [
        "Ġboundar",
        -10.384658507050212
      ],
      [
        "Ġcompare",
        -10.384760436937368
      ],
      [
        "Ġwrot",
        -10.38492116751803
      ],
      [
        "ĠBlack",
        -10.38592799058547
      ],
      [
        "sium",
        -10.386706432325324
      ],
      [
        "Ġcollege",
        -10.386734613323087
      ],
      [
        "stead",
        -10.38923975689875
      ],
      [
        "Ġquantit",
        -10.38995960916281
      ],
      [
        "ĠWeb",
        -10.392536123571684
      ],
      [
        "Ġpurposes",
        -10.393310054367568
      ],
      [
        "Ġscenario",
        -10.393761369436206
      ],
      [
        "Ġcredit",
        -10.395144491201837
      ],
      [
        "Ġopposite",
        -10.395785865083564
      ],
      [
        "Where",
        -10.39626934449745
      ],
      [
        "Ġexpense",
        -10.396688995397184
      ],
      [
        "Ġintake",
        -10.397419631760483
      ],
      [
        "Ġsufficient",
        -10.397588210692602
      ],
      [
        "Ġattache",
        -10.397631744458426
      ],
      [
        "ĠChrist",
        -10.398494153474754
      ],
      [
        "Ġedit",
        -10.398498147842997
      ],
      [
        "Ġcountr",
        -10.398587230528063
      ],
      [
        "Ġinvestigate",
        -10.399373726928328
      ],
      [
        "Ġdiagnose",
        -10.399632679659977
      ],
      [
        "between",
        -10.3998792046278
      ],
      [
        "Have",
        -10.400962512436884
      ],
      [
        "ĠTime",
        -10.400987321640734
      ],
      [
        "cy",
        -10.401389267835723
      ],
      [
        "ĠCounty",
        -10.401761927655564
      ],
      [
        "Ġwindows",
        -10.401918435534268
      ],
      [
        "Understand",
        -10.402420309107113
      ],
      [
        "Every",
        -10.402757335153442
      ],
      [
        "ĠSan",
        -10.403198122993397
      ],
      [
        "Ġvolunteer",
        -10.40320806038621
      ],
      [
        "Ġstatus",
        -10.403274692472577
      ],
      [
        "Ġrecommendation",
        -10.403820543832978
      ],
      [
        "type",
        -10.403902352636331
      ],
      [
        "Ġthread",
        -10.404188737141364
      ],
      [
        "Ġdespi",
        -10.40443191812965
      ],
      [
        "Ġpercentage",
        -10.404652037143684
      ],
      [
        "Ġround",
        -10.405233727719404
      ],
      [
        "Ġrealit",
        -10.405648554936985
      ],
      [
        "Ġreache",
        -10.40625604851003
      ],
      [
        "Ġdepartment",
        -10.406532825024078
      ],
      [
        "Other",
        -10.40654160474774
      ],
      [
        "Ġshar",
        -10.406612206267551
      ],
      [
        "ions",
        -10.406779135887303
      ],
      [
        "Ġdescription",
        -10.408408284849736
      ],
      [
        "Ġwalking",
        -10.409384948866553
      ],
      [
        "Ġlifestyle",
        -10.410295500631516
      ],
      [
        "Ġpepper",
        -10.411691392074433
      ],
      [
        "{",
        -10.41241292305397
      ],
      [
        "Ġpan",
        -10.412978267815324
      ],
      [
        "Ġexcit",
        -10.413303328480149
      ],
      [
        "Ġroll",
        -10.413542603708503
      ],
      [
        "Ġlinked",
        -10.413664618262189
      ],
      [
        "important",
        -10.414197642863916
      ],
      [
        "Ġfault",
        -10.414345739918952
      ],
      [
        "twic",
        -10.414398779114848
      ],
      [
        "Ġalter",
        -10.415018816971829
      ],
      [
        "Ġbug",
        -10.415118484072636
      ],
      [
        "Ġrepeat",
        -10.415327624093706
      ],
      [
        "Ġwouldn",
        -10.415339092239677
      ],
      [
        "ĠThrough",
        -10.415587522207062
      ],
      [
        "Ġprompt",
        -10.415819486418664
      ],
      [
        "Ġacademic",
        -10.416438779421991
      ],
      [
        "Ġengagement",
        -10.4165943124868
      ],
      [
        "Over",
        -10.417849780975772
      ],
      [
        "Ġformation",
        -10.418114391344352
      ],
      [
        "Ġdecline",
        -10.418176598806294
      ],
      [
        "Ġadjustment",
        -10.418182371550422
      ],
      [
        "Ġborn",
        -10.418244988841463
      ],
      [
        "Ġgold",
        -10.418898565423277
      ],
      [
        "Ġlaborator",
        -10.419170914592344
      ],
      [
        "ĠJanuary",
        -10.419657611011946
      ],
      [
        "Ġbreeding",
        -10.419680313769698
      ],
      [
        "experienced",
        -10.419686765402329
      ],
      [
        "Ġadequate",
        -10.42052155040871
      ],
      [
        "Ġessay",
        -10.420617396622909
      ],
      [
        "Ġactivit",
        -10.421619851380315
      ],
      [
        "part",
        -10.422171221646725
      ],
      [
        "Ġparticipate",
        -10.422173809255176
      ],
      [
        "Ġge",
        -10.424906474174565
      ],
      [
        "Ġwhale",
        -10.42491132347072
      ],
      [
        "Ġliver",
        -10.425320055114929
      ],
      [
        "Ġspeech",
        -10.425480622791166
      ],
      [
        "Ġtraffic",
        -10.425692715940633
      ],
      [
        "Ġpossibl",
        -10.426359111029718
      ],
      [
        "Ġriver",
        -10.426631489156248
      ],
      [
        "Ġthin",
        -10.426689381445868
      ],
      [
        "Ġtrait",
        -10.427395720691862
      ],
      [
        "Ġconfidence",
        -10.427597360684912
      ],
      [
        "Ġmanag",
        -10.428100705713945
      ],
      [
        "uary",
        -10.428346458919291
      ],
      [
        "ĠControl",
        -10.429000259097204
      ],
      [
        "types",
        -10.43034945143368
      ],
      [
        "Ġapproaches",
        -10.430384111096355
      ],
      [
        "Ġspeaker",
        -10.430429583338956
      ],
      [
        "Ġbegins",
        -10.431145481857053
      ],
      [
        "Ġreports",
        -10.431394341969067
      ],
      [
        "ically",
        -10.43164898736562
      ],
      [
        "Ġspider",
        -10.431937724860294
      ],
      [
        "Ġrecording",
        -10.432176828555704
      ],
      [
        "Ġdetection",
        -10.432845205107435
      ],
      [
        "accessible",
        -10.432984761900206
      ],
      [
        "ĠWest",
        -10.433558723289227
      ],
      [
        "Ġweld",
        -10.434211629281137
      ],
      [
        "ĠGreen",
        -10.434475671744208
      ],
      [
        "Ġprove",
        -10.43474578893142
      ],
      [
        "Ġcontrolle",
        -10.435618540065947
      ],
      [
        "would",
        -10.436062332657247
      ],
      [
        "ĠFish",
        -10.436330268123784
      ],
      [
        "Health",
        -10.436594952836618
      ],
      [
        "Ġbloom",
        -10.437522223423272
      ],
      [
        "Ġvast",
        -10.438385033204758
      ],
      [
        "ĠIsland",
        -10.439298472020283
      ],
      [
        "ĠPacific",
        -10.439312565455593
      ],
      [
        "then",
        -10.439702501026218
      ],
      [
        "ur",
        -10.43979593251129
      ],
      [
        "Ġimport",
        -10.440122039676227
      ],
      [
        "protein",
        -10.440123340793924
      ],
      [
        "Ġstructural",
        -10.440514215032856
      ],
      [
        "ma",
        -10.44095079292426
      ],
      [
        "Ġperforme",
        -10.441420055411594
      ],
      [
        "Ġdelicious",
        -10.441506916751022
      ],
      [
        "Ġjournal",
        -10.441567314447791
      ],
      [
        "Ġremote",
        -10.442169198531309
      ],
      [
        "Ġratio",
        -10.442414146555013
      ],
      [
        "Ġboost",
        -10.442777392784306
      ],
      [
        "Ġbeg",
        -10.443046507437847
      ],
      [
        "Ġuniversit",
        -10.44336428069126
      ],
      [
        "Ġbeans",
        -10.444280874735158
      ],
      [
        "Ġcalm",
        -10.444501989857995
      ],
      [
        "Ġscratch",
        -10.444755741387487
      ],
      [
        "Ġleader",
        -10.445457138097556
      ],
      [
        "system",
        -10.44559711662634
      ],
      [
        "ĠZ",
        -10.44574013019442
      ],
      [
        "Ġconversation",
        -10.445956566600463
      ],
      [
        "Ġguess",
        -10.446268399351096
      ],
      [
        "Ġdrugs",
        -10.446933667881629
      ],
      [
        "ĠNatur",
        -10.447080388256408
      ],
      [
        "Ġscene",
        -10.448312335738542
      ],
      [
        "Florida",
        -10.44854826544974
      ],
      [
        "Ġpad",
        -10.448634723983387
      ],
      [
        "Ġmovie",
        -10.44894625254578
      ],
      [
        "Ġcoating",
        -10.449101284399408
      ],
      [
        "Ġstands",
        -10.44974974397699
      ],
      [
        "Ġdelay",
        -10.451117714351849
      ],
      [
        "aking",
        -10.451618730863364
      ],
      [
        "Ġpound",
        -10.451675943656968
      ],
      [
        "Ġbreastfeed",
        -10.451814489848577
      ],
      [
        "Ġstable",
        -10.45228924212661
      ],
      [
        "Keep",
        -10.453293856828068
      ],
      [
        "Ġaddresse",
        -10.454023525947424
      ],
      [
        "Ġnest",
        -10.45437972813852
      ],
      [
        "ĠDesign",
        -10.45447456692748
      ],
      [
        "Ġprogramm",
        -10.454810093857002
      ],
      [
        "Ġbreathing",
        -10.454950181787408
      ],
      [
        "Ġcrack",
        -10.455171627563416
      ],
      [
        "Ġdelve",
        -10.455180419266071
      ],
      [
        "go",
        -10.45540122875454
      ],
      [
        "Ġclock",
        -10.45567619499944
      ],
      [
        "ĠHave",
        -10.455724318797746
      ],
      [
        "Ġallergi",
        -10.45594798580531
      ],
      [
        "Ġfertilizer",
        -10.456146711725342
      ],
      [
        "ĠGroup",
        -10.456273783715428
      ],
      [
        "Ġdental",
        -10.456878569216848
      ],
      [
        "Ġfroze",
        -10.456891459239548
      ],
      [
        "Ġrecipe",
        -10.457364777088976
      ],
      [
        "Ġquant",
        -10.457394840230345
      ],
      [
        "Ġpack",
        -10.457637219060372
      ],
      [
        "Ġshirt",
        -10.457637322134168
      ],
      [
        "ĠAsia",
        -10.458435707293331
      ],
      [
        "Ġcompleted",
        -10.458611426551958
      ],
      [
        "ĠAssociation",
        -10.45877000905695
      ],
      [
        "before",
        -10.459216110892774
      ],
      [
        "Ġintricate",
        -10.46017413768291
      ],
      [
        "Ġreact",
        -10.460585826805463
      ],
      [
        "Unfortuna",
        -10.460738880335564
      ],
      [
        "name",
        -10.460888998765787
      ],
      [
        "Ġbigge",
        -10.461057085010385
      ],
      [
        "Ġdiscusse",
        -10.461184809583454
      ],
      [
        "ĠLong",
        -10.461475357867943
      ],
      [
        "Ġflu",
        -10.461543836867362
      ],
      [
        "Ġaccurac",
        -10.461830798488966
      ],
      [
        "Ġterminal",
        -10.461882747286833
      ],
      [
        "look",
        -10.462087959604451
      ],
      [
        "za",
        -10.462393974919042
      ],
      [
        "Ġlake",
        -10.46299571325293
      ],
      [
        "ĠHuman",
        -10.463022304851153
      ],
      [
        "Ġstabilit",
        -10.463258447607632
      ],
      [
        "Ġtutorial",
        -10.463637628258038
      ],
      [
        "chemistry",
        -10.463677595152966
      ],
      [
        "Ġmen",
        -10.463795519545371
      ],
      [
        "Ġouter",
        -10.46442417562166
      ],
      [
        "either",
        -10.46467788607437
      ],
      [
        "Ġnames",
        -10.4655900444003
      ],
      [
        "Ġworse",
        -10.466009070615064
      ],
      [
        "Ġprovider",
        -10.466025289922824
      ],
      [
        "Ġdream",
        -10.466897301042806
      ],
      [
        "Ġpermanent",
        -10.466982170793887
      ],
      [
        "Ġmistake",
        -10.46716961519632
      ],
      [
        "Ġmeasur",
        -10.467652306849494
      ],
      [
        "position",
        -10.467812823122324
      ],
      [
        "Ġaid",
        -10.46804597189082
      ],
      [
        "ĠApple",
        -10.46927734766926
      ],
      [
        "ĠAny",
        -10.469702273765115
      ],
      [
        "Ġdensit",
        -10.47031961814439
      ],
      [
        "Ġjuice",
        -10.4713214556171
      ],
      [
        "ĠNatural",
        -10.471412437390864
      ],
      [
        "Ġcommitment",
        -10.472210438394372
      ],
      [
        "Ġdedicate",
        -10.472607916103389
      ],
      [
        "].",
        -10.473305962237948
      ],
      [
        "Ġplays",
        -10.47331816106264
      ],
      [
        "Ġloop",
        -10.473520735223572
      ],
      [
        "Ġdisorders",
        -10.47381204002044
      ],
      [
        "Ġgreenhouse",
        -10.473850185981764
      ],
      [
        "ĠFrench",
        -10.473999884337136
      ],
      [
        "Ġchapter",
        -10.475017801652548
      ],
      [
        "Ġtraine",
        -10.475246370317851
      ],
      [
        "Ġstronge",
        -10.475578889550764
      ],
      [
        "`",
        -10.475621559076243
      ],
      [
        "Ġmilitar",
        -10.475669721048163
      ],
      [
        "Ġvalve",
        -10.475773037748288
      ],
      [
        "Ġimpacts",
        -10.47621235433252
      ],
      [
        "told",
        -10.47631027836761
      ],
      [
        "Ġbread",
        -10.476426625199052
      ],
      [
        "Ġorange",
        -10.476566475693046
      ],
      [
        "Ġmechanical",
        -10.47728136331062
      ],
      [
        "Ġdust",
        -10.477678379092488
      ],
      [
        "Ġde",
        -10.478579042894951
      ],
      [
        "children",
        -10.479035261561272
      ],
      [
        "ca",
        -10.479076278004673
      ],
      [
        "source",
        -10.479102908725396
      ],
      [
        "Ġbigger",
        -10.479246313851442
      ],
      [
        "ĠSystem",
        -10.479707376654662
      ],
      [
        "ĠClass",
        -10.480556196506829
      ],
      [
        "ĠOpen",
        -10.480825541258348
      ],
      [
        "Ġpuppy",
        -10.481250085402523
      ],
      [
        "Ġshadow",
        -10.481782742534936
      ],
      [
        "Ġfuse",
        -10.481948766537164
      ],
      [
        "Ġcorn",
        -10.482023831249077
      ],
      [
        "OVID",
        -10.482444323146291
      ],
      [
        "Ġbelief",
        -10.482485560011542
      ],
      [
        "Ġprofessor",
        -10.483168183023736
      ],
      [
        "Ġfascinating",
        -10.4837478378531
      ],
      [
        "Ġbee",
        -10.484195164913352
      ],
      [
        "Ġheal",
        -10.484331292908372
      ],
      [
        "Even",
        -10.48470012842114
      ],
      [
        "Ġeconom",
        -10.487323877311416
      ],
      [
        "ĠAgricultur",
        -10.487692185167232
      ],
      [
        "Ġfamous",
        -10.488558154530274
      ],
      [
        "Ġparticipati",
        -10.4886949003136
      ],
      [
        "ĠLight",
        -10.488839327607806
      ],
      [
        "Ġsupplie",
        -10.489599491327615
      ],
      [
        "Ġorganize",
        -10.489714137922515
      ],
      [
        "Ġprey",
        -10.490380443322763
      ],
      [
        "Ġleaders",
        -10.490673557343184
      ],
      [
        "ĠThus",
        -10.491575441254056
      ],
      [
        "Ġattend",
        -10.49181001561224
      ],
      [
        "Ġfeedback",
        -10.491885921293685
      ],
      [
        "Ġcelebrate",
        -10.492073005323054
      ],
      [
        "Ġlifespan",
        -10.493664073828056
      ],
      [
        "room",
        -10.493676111286966
      ],
      [
        "Ġfelt",
        -10.493709309331209
      ],
      [
        "Be",
        -10.493804852497403
      ],
      [
        "\"The",
        -10.493886094842996
      ],
      [
        "box",
        -10.494150902766728
      ],
      [
        "Ġdepression",
        -10.494281263330688
      ],
      [
        "Texas",
        -10.494403501128163
      ],
      [
        "Ġstorm",
        -10.494604479481584
      ],
      [
        "value",
        -10.494780101489813
      ],
      [
        "genes",
        -10.494883347140034
      ],
      [
        "Ġvertical",
        -10.495565368453793
      ],
      [
        "Ġstyles",
        -10.496734425380223
      ],
      [
        "ĠRed",
        -10.497342985262147
      ],
      [
        "Ġtrends",
        -10.498152546473555
      ],
      [
        "Ġbowl",
        -10.498210457493538
      ],
      [
        "power",
        -10.498258330786012
      ],
      [
        "Ġcoral",
        -10.499274746518706
      ],
      [
        "Ġmagnetic",
        -10.499502219664198
      ],
      [
        "Ġlights",
        -10.499741998655423
      ],
      [
        "Ġcu",
        -10.50112192414874
      ],
      [
        "Ġbeer",
        -10.501733169755518
      ],
      [
        "Ġcareful",
        -10.501959900878395
      ],
      [
        "Ġworkers",
        -10.502918863340916
      ],
      [
        "Ġtoxic",
        -10.503327154674436
      ],
      [
        "Ġnose",
        -10.503552452523516
      ],
      [
        "Ġinstalle",
        -10.504011646506989
      ],
      [
        "AI",
        -10.504811988287836
      ],
      [
        "Ġsex",
        -10.505057868756657
      ],
      [
        "Ġcustom",
        -10.507143628728937
      ],
      [
        "after",
        -10.507480889059249
      ],
      [
        "hind",
        -10.508092628857511
      ],
      [
        "Ġcluster",
        -10.508643679716815
      ],
      [
        "Ġdesigns",
        -10.509331087245233
      ],
      [
        "Ġintervention",
        -10.509803759437949
      ],
      [
        "Ġkg",
        -10.510089242306584
      ],
      [
        "Ġeight",
        -10.51021901857272
      ],
      [
        "-level",
        -10.510329050266767
      ],
      [
        "Ġenhanc",
        -10.51051633803112
      ],
      [
        "Ġherb",
        -10.511163769489992
      ],
      [
        "Ġattribute",
        -10.51180253671168
      ],
      [
        "Ġmetabolism",
        -10.51209320241028
      ],
      [
        "Ġhelmet",
        -10.512108982503715
      ],
      [
        "ĠMa",
        -10.513401717959075
      ],
      [
        "Ġpages",
        -10.51361461939132
      ],
      [
        "Ġaesthetic",
        -10.51428163847051
      ],
      [
        "Ġdiffer",
        -10.514690667185333
      ],
      [
        "large",
        -10.514857791809632
      ],
      [
        "Ġcompressor",
        -10.515306158757928
      ],
      [
        "Ġshop",
        -10.515554808417363
      ],
      [
        "Ġvibrant",
        -10.515963724615972
      ],
      [
        "create",
        -10.516091717656902
      ],
      [
        "hat",
        -10.516504332385823
      ],
      [
        "Ġdriv",
        -10.51690686877254
      ],
      [
        "Ġnitrogen",
        -10.517591192504325
      ],
      [
        "Ġmild",
        -10.51788764463168
      ],
      [
        "active",
        -10.518220199818714
      ],
      [
        "Ġhit",
        -10.519142510444096
      ],
      [
        "Ġcolumn",
        -10.520193657002428
      ],
      [
        "Ġtradition",
        -10.521661655731746
      ],
      [
        "Ġanswers",
        -10.521954392358918
      ],
      [
        "Ġmenu",
        -10.522737406634004
      ],
      [
        "Ġshelter",
        -10.523374588073358
      ],
      [
        "Ġclub",
        -10.523411377733073
      ],
      [
        "Ġsecondar",
        -10.523543922825564
      ],
      [
        "Ġshoes",
        -10.523704913178197
      ],
      [
        "Ġbinding",
        -10.524387425638924
      ],
      [
        "level",
        -10.525079147179422
      ],
      [
        "burning",
        -10.52519216371877
      ],
      [
        "Ġsizes",
        -10.525483512445136
      ],
      [
        "article",
        -10.525816221922646
      ],
      [
        "Student",
        -10.52599323759848
      ],
      [
        "Ġdelicate",
        -10.526293710960584
      ],
      [
        "top",
        -10.526456468988629
      ],
      [
        "Ġunlike",
        -10.526466515683992
      ],
      [
        "ĠAugust",
        -10.526510435311929
      ],
      [
        "ĠJuly",
        -10.526763781836635
      ],
      [
        "wimming",
        -10.529192661853788
      ],
      [
        "Ġeveryday",
        -10.529592746618196
      ],
      [
        "Ġcake",
        -10.530071782318814
      ],
      [
        "ĠColor",
        -10.530432334757162
      ],
      [
        "Ġmolecular",
        -10.530845692309503
      ],
      [
        "Ġfamiliar",
        -10.53087561809267
      ],
      [
        "Ġgate",
        -10.531110721833528
      ],
      [
        "Ġdiagnosi",
        -10.532166690262727
      ],
      [
        "Ġmindset",
        -10.532284404837055
      ],
      [
        "ĠEast",
        -10.533148378443387
      ],
      [
        "ĠLook",
        -10.533186551378847
      ],
      [
        "Ġvisitor",
        -10.533716985959586
      ],
      [
        "Ġnarrow",
        -10.53434250605539
      ],
      [
        "Ġextent",
        -10.534731660319828
      ],
      [
        "Ġplug",
        -10.535418966239892
      ],
      [
        "ĠMichigan",
        -10.535563355216947
      ],
      [
        "Ġknew",
        -10.535852951141532
      ],
      [
        "Ġclosed",
        -10.536876112616488
      ],
      [
        "ĠJesu",
        -10.53698617907914
      ],
      [
        "Ġholding",
        -10.537411870228423
      ],
      [
        "area",
        -10.53760770751871
      ],
      [
        "Ġsubsequent",
        -10.537906174034308
      ],
      [
        "Ġpure",
        -10.537969140963575
      ],
      [
        "Ġsuffer",
        -10.538333580441892
      ],
      [
        "difference",
        -10.538523734456168
      ],
      [
        "Ġrealm",
        -10.538898837417808
      ],
      [
        "Ġstream",
        -10.540125933360493
      ],
      [
        "ĠGet",
        -10.540529581036434
      ],
      [
        "Ġclay",
        -10.54074050692074
      ],
      [
        "Ġchamber",
        -10.540893155981106
      ],
      [
        "Ġplot",
        -10.541257828820983
      ],
      [
        "food",
        -10.54240081836742
      ],
      [
        "Ġveterinarian",
        -10.542811962763228
      ],
      [
        "Ġdirector",
        -10.543775828793876
      ],
      [
        "Ġwarning",
        -10.544139428518152
      ],
      [
        "solution",
        -10.545026117205488
      ],
      [
        "Ġrecycle",
        -10.546188884926185
      ],
      [
        "Ġworm",
        -10.54639831372581
      ],
      [
        "Ġgradual",
        -10.546885419687666
      ],
      [
        "Ġfan",
        -10.54714996229475
      ],
      [
        "tree",
        -10.54718581979115
      ],
      [
        "Ġsustainab",
        -10.547226448192164
      ],
      [
        "Ġlarva",
        -10.547539503307602
      ],
      [
        "Ġaluminum",
        -10.547581063083474
      ],
      [
        "Ġcraft",
        -10.547962343534502
      ],
      [
        "Ġfunctional",
        -10.548019045172529
      ],
      [
        "Ġmirror",
        -10.548067532729236
      ],
      [
        "ĠCollege",
        -10.548373588803203
      ],
      [
        "Ġrelief",
        -10.54841621804204
      ],
      [
        "Ġaren",
        -10.54857626221125
      ],
      [
        "Ġprocessor",
        -10.54908187459182
      ],
      [
        "Ġexploration",
        -10.549505849092158
      ],
      [
        "Ġhabitats",
        -10.549629911538345
      ],
      [
        "ification",
        -10.549635842078118
      ],
      [
        "ĉ",
        -10.550027643327605
      ],
      [
        "Ġequivalent",
        -10.550402026338368
      ],
      [
        "Ġpilot",
        -10.550425093426467
      ],
      [
        "Ġdisorder",
        -10.550909407323047
      ],
      [
        "Ġinfant",
        -10.551247510970091
      ],
      [
        "Ġrid",
        -10.551466470028227
      ],
      [
        "Ġgum",
        -10.55159959679624
      ],
      [
        "current",
        -10.552445214421097
      ],
      [
        "Ġdanger",
        -10.552975790919536
      ],
      [
        "off",
        -10.55317278141241
      ],
      [
        "down",
        -10.553963616107572
      ],
      [
        "ĠDog",
        -10.554105185753237
      ],
      [
        "Ġmission",
        -10.55456137848464
      ],
      [
        "Ġrates",
        -10.55577360451177
      ],
      [
        "growth",
        -10.55578412229234
      ],
      [
        "Ġsouth",
        -10.556030955151265
      ],
      [
        "aid",
        -10.5561859762308
      ],
      [
        "ĠLe",
        -10.556218448112045
      ],
      [
        "Ġcopper",
        -10.556585496702947
      ],
      [
        "Ġhoney",
        -10.55731376696051
      ],
      [
        "Ġsides",
        -10.55745887831566
      ],
      [
        "Ġinterior",
        -10.557547633535872
      ],
      [
        "Ġcontribut",
        -10.558391146845029
      ],
      [
        "Ġmo",
        -10.558739292741253
      ],
      [
        "Ġgases",
        -10.558780421596524
      ],
      [
        "Ġtown",
        -10.5594396228604
      ],
      [
        "ĠPh",
        -10.560342073664271
      ],
      [
        "Ġdetermining",
        -10.560342108271984
      ],
      [
        "ĠWhite",
        -10.561140920235696
      ],
      [
        "Ġescape",
        -10.56126126405371
      ],
      [
        "Ġlense",
        -10.56162288448727
      ],
      [
        "ĠWindow",
        -10.56170130802138
      ],
      [
        "Ġethical",
        -10.56171642186582
      ],
      [
        "Ġ#",
        -10.56294106733081
      ],
      [
        "Ġbudget",
        -10.563916432453356
      ],
      [
        "Ġnuclea",
        -10.564764118651398
      ],
      [
        "Ġtransportation",
        -10.564859001302844
      ],
      [
        "ĠRemember",
        -10.56487580069022
      ],
      [
        "Ġtruck",
        -10.565509166420878
      ],
      [
        "DNA",
        -10.565924748639706
      ],
      [
        "ĠSafe",
        -10.566096947720329
      ],
      [
        "Ġdishe",
        -10.566155042184931
      ],
      [
        "Ġassembl",
        -10.567454511704664
      ],
      [
        "Ġexcept",
        -10.56771040513428
      ],
      [
        "list",
        -10.56786633763387
      ],
      [
        "provide",
        -10.56816363713637
      ],
      [
        "could",
        -10.570106460481927
      ],
      [
        "ĠPC",
        -10.57243349583048
      ],
      [
        "Ġexam",
        -10.572607949378993
      ],
      [
        "Researchers",
        -10.572678729935893
      ],
      [
        "Ġprotocol",
        -10.572832539640292
      ],
      [
        "Ġutiliz",
        -10.57284220621236
      ],
      [
        "Ġflavors",
        -10.573624468073817
      ],
      [
        "still",
        -10.573737546480524
      ],
      [
        "Ġrobot",
        -10.57461120259263
      ],
      [
        "ĠII",
        -10.574788289216244
      ],
      [
        "Ġcorresponding",
        -10.574889373083243
      ],
      [
        "Ġneck",
        -10.576204217114135
      ],
      [
        "Ġintroduction",
        -10.57647168694024
      ],
      [
        "Well",
        -10.576617634832434
      ],
      [
        "Ġthermal",
        -10.576883311655765
      ],
      [
        "Ġworry",
        -10.57742424433854
      ],
      [
        "Ġpromise",
        -10.578105259562744
      ],
      [
        "ĠâĢ¦",
        -10.578430893763148
      ],
      [
        "ĠWhere",
        -10.578454093496251
      ],
      [
        "Ġwh",
        -10.579343570522877
      ],
      [
        "itis",
        -10.579564527682011
      ],
      [
        "Ġimagine",
        -10.57983984684456
      ],
      [
        "Ġcharging",
        -10.579883059198885
      ],
      [
        "Ġillustrate",
        -10.580385742026964
      ],
      [
        "Ġinsulin",
        -10.581570057213868
      ],
      [
        "book",
        -10.582401884507552
      ],
      [
        "Ġremarkabl",
        -10.582803861764283
      ],
      [
        "Ġpartial",
        -10.584069506012431
      ],
      [
        "Ġintegration",
        -10.58422859337938
      ],
      [
        "Ġengag",
        -10.58426577224903
      ],
      [
        "Table",
        -10.584436161637775
      ],
      [
        "Ġfederal",
        -10.584548149045188
      ],
      [
        "stones",
        -10.585286892604575
      ],
      [
        "Ġpartner",
        -10.585426652125044
      ],
      [
        "Ġathlete",
        -10.585463281632538
      ],
      [
        "health",
        -10.58555041062165
      ],
      [
        "Ġsodium",
        -10.58560807769052
      ],
      [
        "Ġdeposit",
        -10.586626048130675
      ],
      [
        "Ġbrief",
        -10.587199179592645
      ],
      [
        "availabilit",
        -10.58750446653758
      ],
      [
        "ĠChildren",
        -10.587785569236772
      ],
      [
        "ĠUp",
        -10.588089682366522
      ],
      [
        "Ġcurriculum",
        -10.5880925837319
      ],
      [
        "Ġstruggle",
        -10.588201579353049
      ],
      [
        "Ġdirt",
        -10.588604804731675
      ],
      [
        "Ġdeveloper",
        -10.588759463269398
      ],
      [
        "Ġtea",
        -10.5889932487264
      ],
      [
        "Note",
        -10.589161207468422
      ],
      [
        "Water",
        -10.589983635206432
      ],
      [
        "Ġpassenger",
        -10.59012809452739
      ],
      [
        "Ġfac",
        -10.590296265938637
      ],
      [
        "ical",
        -10.590321939406593
      ],
      [
        "ĠIP",
        -10.59039319108905
      ],
      [
        "Ġpreferences",
        -10.590485756541709
      ],
      [
        "Ġspectrum",
        -10.59059881827541
      ],
      [
        "bacterial",
        -10.591469748509349
      ],
      [
        "Ġallele",
        -10.591718242582909
      ],
      [
        "ĠSA",
        -10.591847736089324
      ],
      [
        "ĠDoes",
        -10.592210134325562
      ],
      [
        "Ġpond",
        -10.592263183734923
      ],
      [
        "ĠCar",
        -10.592366155265424
      ],
      [
        "Ġmining",
        -10.592721594221343
      ],
      [
        "ĠHelp",
        -10.5927692804945
      ],
      [
        "Final",
        -10.59339205402226
      ],
      [
        "spread",
        -10.59342560252673
      ],
      [
        "Ġcement",
        -10.59355852694986
      ],
      [
        "Ġsegment",
        -10.593611835590329
      ],
      [
        "Ġturne",
        -10.594322086996648
      ],
      [
        "Ġdebate",
        -10.594808560045893
      ],
      [
        "Ġargument",
        -10.594922629062728
      ],
      [
        "ĠPlease",
        -10.594922646161496
      ],
      [
        "Ġweak",
        -10.595704122732451
      ],
      [
        "Ġmark",
        -10.595768596315107
      ],
      [
        "Ġloose",
        -10.595917418873212
      ],
      [
        "Ġsudden",
        -10.596606634184582
      ],
      [
        "Ġtax",
        -10.596897443901776
      ],
      [
        "ethanol",
        -10.59720301968413
      ],
      [
        "Don",
        -10.597505310194524
      ],
      [
        "Ġdesigner",
[...]
