{
  "version": "1.0",
  "truncation": null,
  "padding": null,
  "added_tokens": [
    {
      "id": 0,
      "content": "[UNK]",
      "single_word": false,
      "lstrip": false,
      "rstrip": false,
      "normalized": false,
      "special": true
    },
    {
      "id": 1,
      "content": "[CLS]",
      "single_word": false,
      "lstrip": false,
      "rstrip": false,
      "normalized": false,
      "special": true
    },
    {
      "id": 2,
      "content": "[SEP]",
      "single_word": false,
      "lstrip": false,
      "rstrip": false,
      "normalized": false,
      "special": true
    },
    {
      "id": 3,
      "content": "[PAD]",
      "single_word": false,
      "lstrip": false,
      "rstrip": false,
      "normalized": false,
      "special": true
    },
    {
      "id": 4,
      "content": "[MASK]",
      "single_word": false,
      "lstrip": false,
      "rstrip": false,
      "normalized": false,
      "special": true
    }
  ],
  "normalizer": null,
  "pre_tokenizer": {
    "type": "ByteLevel",
    "add_prefix_space": false,
    "trim_offsets": true,
    "use_regex": true
  },
  "post_processor": null,
  "decoder": null,
  "model": {
    "type": "BPE",
    "dropout": null,
    "unk_token": "[UNK]",
    "continuing_subword_prefix": null,
    "end_of_word_suffix": null,
    "fuse_unk": false,
    "byte_fallback": false,
    "ignore_merges": false,
    "vocab": {
      "[UNK]": 0,
      "[CLS]": 1,
      "[SEP]": 2,
      "[PAD]": 3,
      "[MASK]": 4,
      "!": 5,
      "\"": 6,
      "#": 7,
      "$": 8,
      "%": 9,
      "&": 10,
      "'": 11,
      "(": 12,
      ")": 13,
      "*": 14,
      "+": 15,
      ",": 16,
      "-": 17,
      ".": 18,
      "/": 19,
      "0": 20,
      "1": 21,
      "2": 22,
      "3": 23,
      "4": 24,
      "5": 25,
      "6": 26,
      "7": 27,
      "8": 28,
      "9": 29,
      ":": 30,
      ";": 31,
      "<": 32,
      "=": 33,
      ">": 34,
      "?": 35,
      "@": 36,
      "A": 37,
      "B": 38,
      "C": 39,
      "D": 40,
      "E": 41,
      "F": 42,
      "G": 43,
      "H": 44,
      "I": 45,
      "J": 46,
      "K": 47,
      "L": 48,
      "M": 49,
      "N": 50,
      "O": 51,
      "P": 52,
      "Q": 53,
      "R": 54,
      "S": 55,
      "T": 56,
      "U": 57,
      "V": 58,
      "W": 59,
      "X": 60,
      "Y": 61,
      "Z": 62,
      "[": 63,
      "\\": 64,
      "]": 65,
      "^": 66,
      "_": 67,
      "`": 68,
      "a": 69,
      "b": 70,
      "c": 71,
      "d": 72,
      "e": 73,
      "f": 74,
      "g": 75,
      "h": 76,
      "i": 77,
      "j": 78,
      "k": 79,
      "l": 80,
      "m": 81,
      "n": 82,
      "o": 83,
      "p": 84,
      "q": 85,
      "r": 86,
      "s": 87,
      "t": 88,
      "u": 89,
      "v": 90,
      "w": 91,
      "x": 92,
      "y": 93,
      "z": 94,
      "|": 95,
      "}": 96,
      "~": 97,
      "¡": 98,
      "¢": 99,
      "£": 100,
      "¤": 101,
      "¥": 102,
      "¦": 103,
      "§": 104,
      "¨": 105,
      "©": 106,
      "ª": 107,
      "«": 108,
      "¬": 109,
      "®": 110,
      "¯": 111,
      "°": 112,
      "±": 113,
      "²": 114,
      "³": 115,
      "´": 116,
      "µ": 117,
      "¶": 118,
      "·": 119,
      "¸": 120,
      "¹": 121,
      "º": 122,
      "»": 123,
      "¼": 124,
      "½": 125,
      "¾": 126,
      "¿": 127,
      "Â": 128,
      "Ã": 129,
      "Ä": 130,
      "Å": 131,
      "Æ": 132,
      "Ç": 133,
      "È": 134,
      "É": 135,
      "Ê": 136,
      "Ë": 137,
      "Ì": 138,
      "Í": 139,
      "Î": 140,
      "Ï": 141,
      "Ð": 142,
      "Ñ": 143,
      "Ò": 144,
      "Ó": 145,
      "Õ": 146,
      "Ö": 147,
      "×": 148,
      "Ø": 149,
      "Ù": 150,
      "Ú": 151,
      "Û": 152,
      "Ü": 153,
      "à": 154,
      "á": 155,
      "â": 156,
      "ã": 157,
      "ä": 158,
      "å": 159,
      "æ": 160,
      "ç": 161,
      "è": 162,
      "é": 163,
      "ê": 164,
      "ë": 165,
      "ì": 166,
      "í": 167,
      "ï": 168,
      "ð": 169,
      "Ċ": 170,
      "Ġ": 171,
      "Ģ": 172,
      "ģ": 173,
      "Ĥ": 174,
      "ĥ": 175,
      "Ħ": 176,
      "ħ": 177,
      "Ĩ": 178,
      "ĩ": 179,
      "Ī": 180,
      "ī": 181,
      "Ĭ": 182,
      "ĭ": 183,
      "Į": 184,
      "į": 185,
      "İ": 186,
      "ı": 187,
      "Ĳ": 188,
      "ĳ": 189,
      "Ĵ": 190,
      "ĵ": 191,
      "Ķ": 192,
      "ķ": 193,
      "ĸ": 194,
      "Ĺ": 195,
      "ĺ": 196,
      "Ļ": 197,
      "ļ": 198,
      "Ľ": 199,
      "ľ": 200,
      "Ŀ": 201,
      "ŀ": 202,
      "Ł": 203,
      "ł": 204,
      "Ń": 205,
      "Ġt": 206,
      "Ġa": 207,
      "he": 208,
      "in": 209,
      "re": 210,
      "Ġthe": 211,
      "on": 212,
      "er": 213,
      "Ġo": 214,
      "at": 215,
      "Ġs": 216,
      "en": 217,
      "Ġc": 218,
      "es": 219,
      "Ġw": 220,
      "is": 221,
      "nd": 222,
      "or": 223,
      "it": 224,
      "Ġp": 225,
      "ed": 226,
      "al": 227,
      "Ġof": 228,
      "Ġb": 229,
      "Ġf": 230,
      "an": 231,
      "Ġin": 232,
      "ar": 233,
      "ing": 234,
      "ou": 235,
      "Ġm": 236,
      "Ġand": 237,
      "ic": 238,
      "Ġto": 239,
      "ion": 240,
      "Ġd": 241,
      "ro": 242,
      "le": 243,
      "as": 244,
      "Ġh": 245,
      "ent": 246,
      "Ġth": 247,
      "ct": 248,
      "il": 249,
      "Ġe": 250,
      "Ġre": 251,
      "om": 252,
      "Ġn": 253,
      "Ġl": 254,
      "st": 255,
      "ve": 256,
      "ly": 257,
      "Ġbe": 258,
      "ĠT": 259,
      "Ġis": 260,
      "se": 261,
      "ol": 262,
      "ation": 263,
      "Ġg": 264,
      "id": 265,
      "im": 266,
      "ce": 267,
      "ĠA": 268,
      "ut": 269,
      "ra": 270,
      "et": 271,
      "ot": 272,
      "ĠS": 273,
      "ur": 274,
      "ch": 275,
      "Ġfor": 276,
      "ig": 277,
      "ow": 278,
      "âĢ": 279,
      "ĠC": 280,
      "Ġon": 281,
      "Ġthat": 282,
      "ver": 283,
      "Ġu": 284,
      "ĠI": 285,
      "Ġst": 286,
      "ir": 287,
      "am": 288,
      "ul": 289,
      "ay": 290,
      "ad": 291,
      "el": 292,
      "Ġas": 293,
      "ith": 294,
      "her": 295,
      "Ġpro": 296,
      "Ġy": 297,
      "Ġ1": 298,
      "Ġcon": 299,
      "ĠM": 300,
      "Ġan": 301,
      "Ġ(": 302,
      "Ġwith": 303,
      "Ġare": 304,
      "Ġwh": 305,
      "Ġor": 306,
      "ter": 307,
      "ĠP": 308,
      "if": 309,
      "ĠThe": 310,
      "Ġit": 311,
      "Ġal": 312,
      "od": 313,
      "ment": 314,
      "th": 315,
      "ist": 316,
      "ge": 317,
      "op": 318,
      "ate": 319,
      "ĠB": 320,
      "ers": 321,
      "Ġde": 322,
      "ies": 323,
      "ill": 324,
      "ab": 325,
      "ere": 326,
      "ĠH": 327,
      "us": 328,
      "Ġhe": 329,
      "Ġex": 330,
      "res": 331,
      "um": 332,
      "est": 333,
      "ect": 334,
      "ess": 335,
      "Ġby": 336,
      "rom": 337,
      "Ġyou": 338,
      "Ġcom": 339,
      "ld": 340,
      "ity": 341,
      "ore": 342,
      "and": 343,
      "ac": 344,
      "os": 345,
      "Ġsu": 346,
      "Ġat": 347,
      "ri": 348,
      "ĠW": 349,
      "Ġwas": 350,
      "em": 351,
      "ĠD": 352,
      "Ġv": 353,
      "ive": 354,
      "ĠR": 355,
      "ain": 356,
      "nt": 357,
      "ĠE": 358,
      "qu": 359,
      "igh": 360,
      "pp": 361,
      "ant": 362,
      "Ġfrom": 363,
      "ke": 364,
      "ĠF": 365,
      "ud": 366,
      "Ġha": 367,
      "Ġ2": 368,
      "ĠN": 369,
      "oc": 370,
      "ort": 371,
      "iv": 372,
      "Ġch": 373,
      "Ġse": 374,
      "ĠG": 375,
      "Ġne": 376,
      "Ġr": 377,
      "00": 378,
      "Ġnot": 379,
      "ĠL": 380,
      "ure": 381,
      "un": 382,
      "ical": 383,
      "art": 384,
      "Ġcan": 385,
      "ial": 386,
      "Ġhave": 387,
      "og": 388,
      "Ġle": 389,
      "Ġsh": 390,
      "Ġsp": 391,
      "âĢĻ": 392,
      "all": 393,
      "Ġen": 394,
      "ight": 395,
      "ich": 396,
      "Ġthis": 397,
      "pt": 398,
      "ould": 399,
      "rou": 400,
      "ther": 401,
      "The": 402,
      "Ġab": 403,
      "gh": 404,
      "our": 405,
      "'s": 406,
      "ost": 407,
      "ated": 408,
      "ear": 409,
      "ĠJ": 410,
      "ions": 411,
      "Ġwor": 412,
      "ome": 413,
      "du": 414,
      "ine": 415,
      "ĠO": 416,
      "ard": 417,
      "ag": 418,
      "ĠU": 419,
      "out": 420,
      "Ġwe": 421,
      "ast": 422,
      "per": 423,
      "ell": 424,
      "ff": 425,
      "ĠâĢ": 426,
      "ans": 427,
      "Ġim": 428,
      "Ġpl": 429,
      "ec": 430,
      "Ġus": 431,
      "Ġint": 432,
      "Ġtheir": 433,
      "pl": 434,
      "Ġwhich": 435,
      "age": 436,
      "ĠIn": 437,
      "act": 438,
      "ew": 439,
      "ust": 440,
      "Ġ\"": 441,
      "ous": 442,
      "ak": 443,
      "are": 444,
      "ide": 445,
      "Ġk": 446,
      "iz": 447,
      "Ġwhe": 448,
      "ap": 449,
      "ib": 450,
      "Ġ19": 451,
      "ary": 452,
      "Ġcont": 453,
      "Ġall": 454,
      "ia": 455,
      "Ġthey": 456,
      "Ġad": 457,
      "ong": 458,
      "end": 459,
      "Ġinc": 460,
      "cc": 461,
      "Ġdis": 462,
      "ru": 463,
      "ult": 464,
      "ood": 465,
      "ations": 466,
      "Ġwere": 467,
      "Ġres": 468,
      "Ġhas": 469,
      "orm": 470,
      "vel": 471,
      "Ġmore": 472,
      "Ġwill": 473,
      "Ġcomp": 474,
      "ip": 475,
      "ater": 476,
      "ire": 477,
      "Ġdo": 478,
      "ence": 479,
      "Ġcl": 480,
      "Ġother": 481,
      "Ġbut": 482,
      "Ġper": 483,
      "ild": 484,
      "Ġman": 485,
      "ual": 486,
      "ks": 487,
      "so": 488,
      "ry": 489,
      "able": 490,
      "ĠTh": 491,
      "Ġone": 492,
      "ind": 493,
      "ose": 494,
      "ep": 495,
      "ber": 496,
      "ĠSt": 497,
      "ass": 498,
      "Ġhis": 499,
      "ress": 500,
      "ign": 501,
      "ance": 502,
      "Ġar": 503,
      "Ġme": 504,
      "ents": 505,
      "av": 506,
      "reat": 507,
      "au": 508,
      "ach": 509,
      "Ġun": 510,
      "ction": 511,
      "âĢĿ": 512,
      "ase": 513,
      "Ġyour": 514,
      "ish": 515,
      "ord": 516,
      "ice": 517,
      "ount": 518,
      "ition": 519,
      ").": 520,
      "Ġte": 521,
      "ace": 522,
      "Ġalso": 523,
      "ame": 524,
      "Ġj": 525,
      "ub": 526,
      "Ġwho": 527,
      "ory": 528,
      "Ġimp": 529,
      "Ġev": 530,
      "Ġso": 531,
      "Ġpre": 532,
      "ĠK": 533,
      "Ġpart": 534,
      "Ġapp": 535,
      "mer": 536,
      "ens": 537,
      "one": 538,
      "Ġout": 539,
      "ake": 540,
      "ok": 541,
      "Ġabout": 542,
      "ci": 543,
      "very": 544,
      "Ġinf": 545,
      "ime": 546,
      "ack": 547,
      "Ġstud": 548,
      "ound": 549,
      "ite": 550,
      "ree": 551,
      "olog": 552,
      "ors": 553,
      "ces": 554,
      "Ġmay": 555,
      "ĠCh": 556,
      "Ġthan": 557,
      "Ġyear": 558,
      "ang": 559,
      "ue": 560,
      "ian": 561,
      "Ġsy": 562,
      "Ġpe": 563,
      "ie": 564,
      "ric": 565,
      "ates": 566,
      "Ġbeen": 567,
      "Ġup": 568,
      "ĠâĢľ": 569,
      "Ġbec": 570,
      "Ġhad": 571,
      "Ġthem": 572,
      "low": 573,
      "now": 574,
      "Ġcomm": 575,
      "Ġag": 576,
      "Ġrec": 577,
      "Ġits": 578,
      "ail": 579,
      "ile": 580,
      "erv": 581,
      "vers": 582,
      "ays": 583,
      "ike": 584,
      "ph": 585,
      "Ġsome": 586,
      "Ġqu": 587,
      "ough": 588,
      "ĠV": 589,
      "ĠIt": 590,
      "nder": 591,
      "ings": 592,
      "Ġthere": 593,
      "ons": 594,
      "Ġgo": 595,
      "Ġinto": 596,
      "Ġ3": 597,
      "rit": 598,
      "ople": 599,
      "Ġra": 600,
      "tern": 601,
      "lud": 602,
      "iff": 603,
      "Ġwhen": 604,
      "ren": 605,
      "ational": 606,
      "Ġover": 607,
      "ond": 608,
      "Ġsa": 609,
      "Ġ-": 610,
      "ms": 611,
      "Ġthese": 612,
      "Ġtra": 613,
      "ll": 614,
      "rough": 615,
      "Ġwould": 616,
      "Ġ200": 617,
      "te": 618,
      "irst": 619,
      "lic": 620,
      "Ġcol": 621,
      "ject": 622,
      "Ġtime": 623,
      "Ġtw": 624,
      "ally": 625,
      "ove": 626,
      "int": 627,
      "red": 628,
      "Ġnew": 629,
      "ause": 630,
      "Ġro": 631,
      "Ġcons": 632,
      "Ġwork": 633,
      "ific": 634,
      "Ġdes": 635,
      "Ġrep": 636,
      "lect": 637,
      "ĠUn": 638,
      "Ġmost": 639,
      "Ġpeople": 640,
      "hed": 641,
      "ments": 642,
      "ys": 643,
      "Ġuse": 644,
      "Ġbl": 645,
      "we": 646,
      "ities": 647,
      "ĠThis": 648,
      "Ġunder": 649,
      "Ġbet": 650,
      "Ġgen": 651,
      "Ġhow": 652,
      "Ġact": 653,
      "velop": 654,
      "),": 655,
      "Ġdiff": 656,
      "Ġacc": 657,
      "Ġno": 658,
      "Ġsuch": 659,
      "Ġrel": 660,
      "wn": 661,
      "stem": 662,
      "les": 663,
      "ĠY": 664,
      "Ġknow": 665,
      "ook": 666,
      "Ġ20": 667,
      "Ġinclud": 668,
      "ced": 669,
      "alth": 670,
      "Ġonly": 671,
      "Ġany": 672,
      "Ġfirst": 673,
      "ious": 674,
      "Ġtr": 675,
      "ob": 676,
      "Ġif": 677,
      "Ġeff": 678,
      "Ġlike": 679,
      "ative": 680,
      "ning": 681,
      "iss": 682,
      "Ġchild": 683,
      "Ġam": 684,
      "Ġprov": 685,
      "Ġoff": 686,
      "ple": 687,
      "ool": 688,
      "Ġspec": 689,
      "ov": 690,
      "ath": 691,
      "fter": 692,
      "Ġprodu": 693,
      "Ġtwo": 694,
      "ular": 695,
      "Ġour": 696,
      "Ġob": 697,
      "Ġph": 698,
      "ied": 699,
      "Ġused": 700,
      "Ġind": 701,
      "erm": 702,
      "ĠHe": 703,
      "Ġmany": 704,
      "rib": 705,
      "Ġexp": 706,
      "Ġdevelop": 707,
      "ise": 708,
      "Ġpo": 709,
      "ating": 710,
      "cess": 711,
      "Ġwhat": 712,
      "ts": 713,
      "Ġthrough": 714,
      "ark": 715,
      "Ġreg": 716,
      "Ġsc": 717,
      "als": 718,
      "oss": 719,
      "ics": 720,
      "rop": 721,
      "Ġneed": 722,
      "uring": 723,
      "ne": 724,
      "arch": 725,
      "yp": 726,
      "uc": 727,
      "old": 728,
      "..": 729,
      "round": 730,
      "Ġsur": 731,
      "Ġyears": 732,
      "Ġac": 733,
      "Ġatt": 734,
      "Ġfe": 735,
      "Ġdec": 736,
      "Ġsystem": 737,
      "Ġpr": 738,
      "meric": 739,
      "ram": 740,
      "iet": 741,
      "Ġ4": 742,
      "Ġem": 743,
      "oth": 744,
      "Ġass": 745,
      "ble": 746,
      "ution": 747,
      "Ġfl": 748,
      "ng": 749,
      "ink": 750,
      "ible": 751,
      "ased": 752,
      "Ġsub": 753,
      "ited": 754,
      "ange": 755,
      "hen": 756,
      "ful": 757,
      "ert": 758,
      "ade": 759,
      "aw": 760,
      "ten": 761,
      "Ġco": 762,
      "cy": 763,
      "ures": 764,
      "row": 765,
      "fore": 766,
      "In": 767,
      "ility": 768,
      "ower": 769,
      "Ġadd": 770,
      "Ġ5": 771,
      "Ġsupp": 772,
      "Ġhel": 773,
      "Ġ18": 774,
      "gan": 775,
      "ife": 776,
      "sel": 777,
      "Ġshould": 778,
      "Ġpres": 779,
      "Ġrem": 780,
      "ween": 781,
      "own": 782,
      "ists": 783,
      "Ġcould": 784,
      "ĠAmeric": 785,
      "ered": 786,
      "Ġwater": 787,
      "Ġear": 788,
      "land": 789,
      "Ġinv": 790,
      "eth": 791,
      "Ġhelp": 792,
      "Ġrese": 793,
      "hes": 794,
      "Ġdiffere": 795,
      "ident": 796,
      "uch": 797,
      "ĠAs": 798,
      "Ġwell": 799,
      "Ġbetween": 800,
      "Ġsm": 801,
      "ivers": 802,
      "ology": 803,
      "Ġpol": 804,
      "ex": 805,
      "ract": 806,
      "ont": 807,
      "Ġsaid": 808,
      "ormation": 809,
      "ick": 810,
      "ily": 811,
      "its": 812,
      "Ġwhere": 813,
      "Ġhigh": 814,
      "Ġnum": 815,
      "ever": 816,
      "Ġform": 817,
      "chool": 818,
      "Ġfound": 819,
      "Ġher": 820,
      "ural": 821,
      "Ġlar": 822,
      "Ġcent": 823,
      "Ġinter": 824,
      "ft": 825,
      "Ġcount": 826,
      "ines": 827,
      "Ġinst": 828,
      "ants": 829,
      "ict": 830,
      "Ġbu": 831,
      "Ġtrans": 832,
      "Ġafter": 833,
      "Ġ201": 834,
      "Ġref": 835,
      "chn": 836,
      "ins": 837,
      "vern": 838,
      "Ġpub": 839,
      "urn": 840,
      ".\"": 841,
      "Ġpers": 842,
      "ism": 843,
      "Ġmod": 844,
      "ved": 845,
      "ually": 846,
      "eral": 847,
      "Ġcall": 848,
      "Ġed": 849,
      "cent": 850,
      "cer": 851,
      "cept": 852,
      "ef": 853,
      "Ġlong": 854,
      "Ġprog": 855,
      "gy": 856,
      "Ġexam": 857,
      "itt": 858,
      "Ġbecause": 859,
      "Ġdet": 860,
      "ature": 861,
      "other": 862,
      "Ġthose": 863,
      "Ġworld": 864,
      "iew": 865,
      "Ġcar": 866,
      "vent": 867,
      "Ġsim": 868,
      "Ġthen": 869,
      "Ġvery": 870,
      "oy": 871,
      "the": 872,
      "Ġmake": 873,
      "omm": 874,
      "Ġhealth": 875,
      "Ġeven": 876,
      "Th": 877,
      "Ġincre": 878,
      "Ġimport": 879,
      "Ġeffect": 880,
      "Ġhum": 881,
      "Ġjust": 882,
      "Ġdisc": 883,
      "Ġmed": 884,
      "ĠPro": 885,
      "ĠAl": 886,
      "roup": 887,
      "ollow": 888,
      "Ġsee": 889,
      "ically": 890,
      "Ġext": 891,
      "Ġloc": 892,
      "Ġget": 893,
      "ness": 894,
      "ork": 895,
      "Ġinformation": 896,
      "ds": 897,
      "Ġresp": 898,
      "ĠNew": 899,
      "Ġsign": 900,
      "19": 901,
      "ather": 902,
      "get": 903,
      "Ġdist": 904,
      "arm": 905,
      "Ġmon": 906,
      "led": 907,
      "Ġsec": 908,
      "Ġpat": 909,
      "ives": 910,
      "Ġsci": 911,
      "Ġdef": 912,
      "Ġway": 913,
      "Ġ6": 914,
      "Ġgra": 915,
      "Ġshe": 916,
      "Ġresult": 917,
      "ases": 918,
      "ages": 919,
      "||": 920,
      "iron": 921,
      "Ġent": 922,
      "Ġeach": 923,
      "Ġchildren": 924,
      "Ġbeing": 925,
      "Ġca": 926,
      "ĠWh": 927,
      "Ġmade": 928,
      "io": 929,
      "ues": 930,
      "ck": 931,
      "Ġdifferent": 932,
      "aking": 933,
      "Ġright": 934,
      "Ġset": 935,
      "Ġvar": 936,
      "xt": 937,
      "imes": 938,
      "Ġduring": 939,
      "iversity": 940,
      "Ġpartic": 941,
      "Ġfact": 942,
      "Ġmuch": 943,
      "ros": 944,
      "ized": 945,
      "Ġtyp": 946,
      "orn": 947,
      "Ġexper": 948,
      "ĠRe": 949,
      "und": 950,
      "Ġaut": 951,
      "ward": 952,
      "000": 953,
      "ĠAr": 954,
      "Ġart": 955,
      "Ġdep": 956,
      "Ġsame": 957,
      "Ġfam": 958,
      "ruct": 959,
      ".,": 960,
      "ata": 961,
      "Ġrequ": 962,
      "Ġevery": 963,
      "Ġfollow": 964,
      "any": 965,
      "Ġown": 966,
      "ince": 967,
      "ection": 968,
      "con": 969,
      "Ġke": 970,
      "Ġmy": 971,
      "Ġstudy": 972,
      "ale": 973,
      "ĠWe": 974,
      "Ġend": 975,
      "Ġpop": 976,
      "hem": 977,
      "ĠAn": 978,
      "Ġhim": 979,
      "ars": 980,
      "ished": 981,
      "Ġtechn": 982,
      "Ġ199": 983,
      "Ġcre": 984,
      "Ġcommun": 985,
      "iel": 986,
      "Ġstate": 987,
      "Ġlife": 988,
      "gg": 989,
      "Ġgroup": 990,
      "Ġprocess": 991,
      "omen": 992,
      "Ġhist": 993,
      "ran": 994,
      "ĠFor": 995,
      ",\"": 996,
      "ĠâĢĵ": 997,
      "Ġlead": 998,
      "Ġproble": 999,
      "Ġagain": 1000,
      "ices": 1001,
      "ah": 1002,
      "Ġsoc": 1003,
      "ĠSp": 1004,
      "hip": 1005,
      "oh": 1006,
      "ined": 1007,
      "Ġfind": 1008,
      "Ġav": 1009,
      "Ġbefore": 1010,
      "Ġback": 1011,
      "Ġschool": 1012,
      "Ġlevel": 1013,
      "Ġboth": 1014,
      "Ġsmall": 1015,
      "Ġdoes": 1016,
      "ron": 1017,
      "Ġtest": 1018,
      "Ġlear": 1019,
      "imate": 1020,
      "'t": 1021,
      "ty": 1022,
      "ize": 1023,
      "ĠThey": 1024,
      "ury": 1025,
      "ute": 1026,
      "Ġmin": 1027,
      "ting": 1028,
      "Ġgovern": 1029,
      "read": 1030,
      "Ġcur": 1031,
      "ix": 1032,
      "Ġread": 1033,
      "Ġshow": 1034,
      "viron": 1035,
      "irect": 1036,
      "ody": 1037,
      "ven": 1038,
      "Ġocc": 1039,
      "up": 1040,
      "rol": 1041,
      "nce": 1042,
      "Ġexpl": 1043,
      "ĠInd": 1044,
      "Ġnow": 1045,
      "inal": 1046,
      "Ġimportant": 1047,
      "Ġstudents": 1048,
      "Ġmem": 1049,
      ".âĢĿ": 1050,
      "ral": 1051,
      "ĠIf": 1052,
      "Ġcomple": 1053,
      "Ġins": 1054,
      "form": 1055,
      "ially": 1056,
      "Ġma": 1057,
      "ock": 1058,
      "ters": 1059,
      "Ġnumber": 1060,
      "ient": 1061,
      "ier": 1062,
      "Ġfood": 1063,
      "ands": 1064,
      "Ġdi": 1065,
      "âĢĶ": 1066,
      "Ġperson": 1067,
      "Ġest": 1068,
      "Ġgl": 1069,
      "Ġbo": 1070,
      "Ġreport": 1071,
      "Ġthree": 1072,
      "der": 1073,
      "Ġtreat": 1074,
      "Ġsk": 1075,
      "hers": 1076,
      "Ġposs": 1077,
      "Ġstr": 1078,
      "Ġ10": 1079,
      "ulation": 1080,
      "Ġserv": 1081,
      "ides": 1082,
      "Ġgood": 1083,
      "ergy": 1084,
      "ected": 1085,
      "Ġ7": 1086,
      "ving": 1087,
      "Ġresearch": 1088,
      "Ġless": 1089,
      "air": 1090,
      "cl": 1091,
      "Ġdid": 1092,
      "Ġoften": 1093,
      "Ġbel": 1094,
      "ves": 1095,
      "Ġchar": 1096,
      "Ġprot": 1097,
      "ash": 1098,
      "Ġcell": 1099,
      "vironment": 1100,
      "outh": 1101,
      "Ġorgan": 1102,
      "Ġdise": 1103,
      "Ġpower": 1104,
      "Ġlarge": 1105,
      "Ġval": 1106,
      "ĠBut": 1107,
      "Ġplan": 1108,
      "Ġday": 1109,
      "Ġdesign": 1110,
      "ivid": 1111,
      "ave": 1112,
      "ee": 1113,
      "ton": 1114,
      "Ġris": 1115,
      "ouse": 1116,
      "ger": 1117,
      "Ġser": 1118,
      "Ġmain": 1119,
      "Ġ8": 1120,
      "Ġcalled": 1121,
      "Ġret": 1122,
      "Ġhuman": 1123,
      "Ġpublic": 1124,
      "Ġelect": 1125,
      "Ġvis": 1126,
      "ality": 1127,
      "ĠIs": 1128,
      "Ġwhile": 1129,
      "ains": 1130,
      "Ġmust": 1131,
      "Ġusing": 1132,
      "day": 1133,
      "Ġcontin": 1134,
      "ĠAmerican": 1135,
      "ĠHow": 1136,
      "uss": 1137,
      "ull": 1138,
      "Ġdown": 1139,
      "ency": 1140,
      "Ġconf": 1141,
      "rent": 1142,
      "Ġclass": 1143,
      "Ġgreat": 1144,
      "dition": 1145,
      "Ġdata": 1146,
      "akes": 1147,
      "Ġpoint": 1148,
      "Ġtake": 1149,
      "Ġsupport": 1150,
      "ĠUniversity": 1151,
      "ared": 1152,
      "stit": 1153,
      "Ġgrow": 1154,
      "self": 1155,
      "Ġ9": 1156,
      "man": 1157,
      "Ġincluding": 1158,
      "way": 1159,
      "iety": 1160,
      "Ġsol": 1161,
      "orth": 1162,
      "ring": 1163,
      "stand": 1164,
      "osed": 1165,
      "ital": 1166,
      "com": 1167,
      "iqu": 1168,
      "Ġgener": 1169,
      "ĠDe": 1170,
      "10": 1171,
      "Ġactiv": 1172,
      "This": 1173,
      "Ġconsid": 1174,
      "oun": 1175,
      "Ġfun": 1176,
      "bers": 1177,
      "Ġaround": 1178,
      "Ġcommon": 1179,
      "conom": 1180,
      "ax": 1181,
      "Ġexample": 1182,
      "Ġthough": 1183,
      "illion": 1184,
      "itions": 1185,
      "Ġknown": 1186,
      "Ġequ": 1187,
      "Ġop": 1188,
      "oci": 1189,
      "amp": 1190,
      "Ġcour": 1191,
      "de": 1192,
      "raph": 1193,
      "Ġredu": 1194,
      "Ġcle": 1195,
      "Ġcor": 1196,
      "ross": 1197,
      "ries": 1198,
      "iod": 1199,
      "ium": 1200,
      "ians": 1201,
      "ted": 1202,
      "ources": 1203,
      "Ġlook": 1204,
      "Ġadv": 1205,
      "Ġstill": 1206,
      "ĠAnd": 1207,
      "Ġcare": 1208,
      "Ġpercent": 1209,
      "reen": 1210,
      "ĠCon": 1211,
      "Ġmet": 1212,
      "ional": 1213,
      "acter": 1214,
      "Wh": 1215,
      "aterial": 1216,
      "eg": 1217,
      "Ġmat": 1218,
      "Ġgovernment": 1219,
      "Ġdirect": 1220,
      "20": 1221,
      "Ġwrit": 1222,
      "Ġaff": 1223,
      "Ġallow": 1224,
      "ired": 1225,
      "lish": 1226,
      "ination": 1227,
      "ĠUnited": 1228,
      "Ġappro": 1229,
      "ĠRes": 1230,
      "els": 1231,
      "rain": 1232,
      "Ġmil": 1233,
      "Ġfew": 1234,
      "ug": 1235,
      "Ġeduc": 1236,
      "ained": 1237,
      "Ġplace": 1238,
      "Ġlaw": 1239,
      "Ġbody": 1240,
      "ior": 1241,
      "ĠEng": 1242,
      "Ġsom": 1243,
      "ĠThere": 1244,
      "Ġbuild": 1245,
      "Ġquest": 1246,
      "jor": 1247,
      "Ġpresent": 1248,
      "iving": 1249,
      "Ġwomen": 1250,
      "Ġsl": 1251,
      "Ġdem": 1252,
      "agn": 1253,
      "ris": 1254,
      "Ġmight": 1255,
      "hor": 1256,
      "ense": 1257,
      "ization": 1258,
      "ration": 1259,
      "erest": 1260,
      "att": 1261,
      "Ġstart": 1262,
      "iven": 1263,
      "Ġ.": 1264,
      "Ġchang": 1265,
      "Ġproject": 1266,
      "tt": 1267,
      "Ġwar": 1268,
      "Ġgu": 1269,
      "Ġwithout": 1270,
      "ording": 1271,
      "Ġair": 1272,
      "ason": 1273,
      "iver": 1274,
      "ission": 1275,
      "Ġsays": 1276,
      "Ġlight": 1277,
      "ield": 1278,
      "Ġ[": 1279,
      "lished": 1280,
      "Ġarea": 1281,
      "Ġdesc": 1282,
      "ĠStates": 1283,
      "Ġbelie": 1284,
      "gin": 1285,
      "Ġprogram": 1286,
      "less": 1287,
      "Ġland": 1288,
      "Ġwithin": 1289,
      "oms": 1290,
      "ids": 1291,
      "ertain": 1292,
      "arent": 1293,
      "Ġide": 1294,
      "rist": 1295,
      "ĠPh": 1296,
      "Ġbeh": 1297,
      "Ġanother": 1298,
      ",âĢĿ": 1299,
      "ified": 1300,
      "Ġchange": 1301,
      "Ġcap": 1302,
      "Ġdevelopment": 1303,
      "Ġtem": 1304,
      "arc": 1305,
      "ĠCol": 1306,
      "Ġenergy": 1307,
      "Ġpract": 1308,
      "Ġcaus": 1309,
      "âĢĵ": 1310,
      "az": 1311,
      "Ġscient": 1312,
      "Ġdisease": 1313,
      "Ġiss": 1314,
      "ividual": 1315,
      "Ġthink": 1316,
      "Ġpass": 1317,
      "ering": 1318,
      "ption": 1319,
      "angu": 1320,
      "ĠThese": 1321,
      "Ġenvironment": 1322,
      "Ġmaterial": 1323,
      "Ġpur": 1324,
      "bs": 1325,
      "Ġeconom": 1326,
      "Ġagainst": 1327,
      "Ġblood": 1328,
      "ner": 1329,
      "Ġphys": 1330,
      "Ġearly": 1331,
      "rodu": 1332,
      "ological": 1333,
      "atural": 1334,
      "Ġnear": 1335,
      "Ġstand": 1336,
      "Ġlast": 1337,
      "eng": 1338,
      "Ġold": 1339,
      "ision": 1340,
      "ĠAd": 1341,
      "line": 1342,
      "ĠSh": 1343,
      "Ġ15": 1344,
      "to": 1345,
      "ĠNational": 1346,
      "ĠSe": 1347,
      "Ġsever": 1348,
      "Ġleg": 1349,
      "me": 1350,
      "atic": 1351,
      "ets": 1352,
      "Ġbre": 1353,
      "here": 1354,
      "ived": 1355,
      "Ġmajor": 1356,
      "use": 1357,
      "Ġrest": 1358,
      "ccess": 1359,
      "ource": 1360,
      "Ġoper": 1361,
      "Ġprof": 1362,
      "Ġimm": 1363,
      "ograph": 1364,
      "Ġsecond": 1365,
      "Ġbas": 1366,
      "itive": 1367,
      "ently": 1368,
      "ailable": 1369,
      "Ġinclude": 1370,
      "ern": 1371,
      "Ġeas": 1372,
      "Ġident": 1373,
      "Ġ17": 1374,
      "Ġanim": 1375,
      "ww": 1376,
      "Ġmeas": 1377,
      "osp": 1378,
      "Ġhand": 1379,
      "of": 1380,
      "Ġfore": 1381,
      "Ġmen": 1382,
      "Ġunderstand": 1383,
      "Ġproduct": 1384,
      "ĠCl": 1385,
      "Ġspecies": 1386,
      "--": 1387,
      "Ġcontrol": 1388,
      "Ġinterest": 1389,
      "ethod": 1390,
      "Ġindividual": 1391,
      "view": 1392,
      "Ġsym": 1393,
      "alk": 1394,
      "ĠCent": 1395,
      "Ġbro": 1396,
      "Ġele": 1397,
      "Ġunt": 1398,
      "inc": 1399,
      "sy": 1400,
      "ites": 1401,
      "Ġoccur": 1402,
      "Ġter": 1403,
      "omp": 1404,
      "ards": 1405,
      "Ġpos": 1406,
      "Ġlow": 1407,
      "ned": 1408,
      "ote": 1409,
      "Ġopp": 1410,
      "Ġpar": 1411,
      "ats": 1412,
      "ina": 1413,
      "Ġant": 1414,
      "Ġ'": 1415,
      "Ġhistory": 1416,
      "ĠCan": 1417,
      "olution": 1418,
      "Ġdon": 1419,
      "Ġseveral": 1420,
      "ret": 1421,
      "ator": 1422,
      "Ġwant": 1423,
      "âĢľ": 1424,
      "esp": 1425,
      "Ġrisk": 1426,
      "Ġmar": 1427,
      "It": 1428,
      "though": 1429,
      "Ġsay": 1430,
      "Ġorig": 1431,
      "Ġve": 1432,
      "ĠComm": 1433,
      "Ġtre": 1434,
      "ential": 1435,
      "Ġamong": 1436,
      "Ġeng": 1437,
      "ĠYou": 1438,
      "ik": 1439,
      "sp": 1440,
      "Ġ&": 1441,
      "Ġconst": 1442,
      "Ġfour": 1443,
      "Ġexperi": 1444,
      "Ġsince": 1445,
      "Ġet": 1446,
      "ided": 1447,
      "Ġperiod": 1448,
      "ank": 1449,
      "ify": 1450,
      "ability": 1451,
      "Ġplay": 1452,
      "ole": 1453,
      "Ġmove": 1454,
      "lu": 1455,
      "Ġparticular": 1456,
      "Ġimpro": 1457,
      "ĠAt": 1458,
      "ended": 1459,
      "Ġfamily": 1460,
      "eed": 1461,
      "idence": 1462,
      "cing": 1463,
      "ittle": 1464,
      "Ġprop": 1465,
      "Ġhome": 1466,
      "Ġmark": 1467,
      "Ġhere": 1468,
      "Ġbecome": 1469,
      "Ġcurrent": 1470,
      "Ġpot": 1471,
      "ead": 1472,
      "ames": 1473,
      "min": 1474,
      "rap": 1475,
      "Ġorder": 1476,
      "Ġben": 1477,
      "ĠGod": 1478,
      "Ġcountry": 1479,
      "12": 1480,
      "Ġproper": 1481,
      "Ġreal": 1482,
      "18": 1483,
      "Ġavailable": 1484,
      "Ġareas": 1485,
      "ĠEn": 1486,
      "ably": 1487,
      "abor": 1488,
      "urop": 1489,
      "ohn": 1490,
      "Ġlim": 1491,
      "Ġpain": 1492,
      "Ġprovide": 1493,
      "Ġcult": 1494,
      "ining": 1495,
      "ways": 1496,
      "Ġnon": 1497,
      "Ġobject": 1498,
      "Ġmus": 1499,
      "ĠQ": 1500,
      "Ġtoo": 1501,
      "Ġ198": 1502,
      "ĠPl": 1503,
      "Ġaddition": 1504,
      "Ġdev": 1505,
      "...": 1506,
      "Ġpossible": 1507,
      "une": 1508,
      "Ġel": 1509,
      "ĠEx": 1510,
      "par": 1511,
      "ples": 1512,
      "ental": 1513,
      "ences": 1514,
      "Ġanal": 1515,
      "ention": 1516,
      "Ġhig": 1517,
      "Ġpri": 1518,
      "Ġopen": 1519,
      "Ġrece": 1520,
      "irc": 1521,
      "ĠZ": 1522,
      "Ġsocial": 1523,
      "Ġname": 1524,
      "Ġcause": 1525,
      "Ġmethod": 1526,
      "ories": 1527,
      "Ġinvol": 1528,
      "Ġ12": 1529,
      "ĠâĢĶ": 1530,
      "icle": 1531,
      "Ġlangu": 1532,
      "Ġobs": 1533,
      "Ġview": 1534,
      "Ġbest": 1535,
      "Ġtop": 1536,
      "Ġhead": 1537,
      "ĠChrist": 1538,
      "Ġbi": 1539,
      "Ġbetter": 1540,
      "Ġlocal": 1541,
      "iness": 1542,
      "Ġ$": 1543,
      "Ġcost": 1544,
      "ients": 1545,
      "ĠHowever": 1546,
      "Ġbir": 1547,
      "Ġmeans": 1548,
      "Ġmonth": 1549,
      "Ġindu": 1550,
      "ged": 1551,
      "gen": 1552,
      "ilar": 1553,
      "Ġperform": 1554,
      "Ġ0": 1555,
      "Ġche": 1556,
      "ternational": 1557,
      "Ġlater": 1558,
      "urope": 1559,
      "Ġrad": 1560,
      "Ġfollowing": 1561,
      "Ġfre": 1562,
      "Ġdel": 1563,
      "ĠWhen": 1564,
      "resent": 1565,
      "ither": 1566,
      "Ġtri": 1567,
      "Ġtreatment": 1568,
      "eb": 1569,
      "Ġfin": 1570,
      "Ġuntil": 1571,
      "Ġtimes": 1572,
      "Ġfar": 1573,
      "ogn": 1574,
      "rid": 1575,
      "oint": 1576,
      "Ġauthor": 1577,
      "ek": 1578,
      "ware": 1579,
      "ĠAll": 1580,
      "Ġgiven": 1581,
      "iter": 1582,
      "ĠMed": 1583,
      "Ġpolit": 1584,
      "ope": 1585,
      "Ġ16": 1586,
      "Ġbased": 1587,
      "Ġmillion": 1588,
      "Ġcond": 1589,
      "ends": 1590,
      "ised": 1591,
      "Ġothers": 1592,
      "Ġpress": 1593,
      "urther": 1594,
      "ggest": 1595,
      "200": 1596,
      "Ġfac": 1597,
      "Ġcertain": 1598,
      "ling": 1599,
      "Ġrun": 1600,
      "Ġheart": 1601,
      "Ġage": 1602,
      "Ġcal": 1603,
      "pr": 1604,
      "Ġvol": 1605,
      "ĠTo": 1606,
      "Ġcase": 1607,
      "aps": 1608,
      "ĠBrit": 1609,
      "Ġlist": 1610,
      "Ġproblems": 1611,
      "face": 1612,
      "Ġmean": 1613,
      "not": 1614,
      "ĠOn": 1615,
      "Ġcancer": 1616,
      "Ġsignific": 1617,
      "ĠOr": 1618,
      "Ġkeep": 1619,
      "Ġfree": 1620,
      "ills": 1621,
      "Ġnatural": 1622,
      "ĠAf": 1623,
      "ĠEurope": 1624,
      "orld": 1625,
      "Ġsaf": 1626,
      "por": 1627,
      "aken": 1628,
      "Ġlittle": 1629,
      "Ġprevent": 1630,
      "ĠSci": 1631,
      "oid": 1632,
      "Ġseem": 1633,
      "Ġdeath": 1634,
      "Ġbook": 1635,
      "oks": 1636,
      "Ġappear": 1637,
      "ances": 1638,
      "Ġcells": 1639,
      "Ġthings": 1640,
      "Ġable": 1641,
      "ĠJohn": 1642,
      "Ġsuccess": 1643,
      "ĠEar": 1644,
      "11": 1645,
      "50": 1646,
      "Ġsuggest": 1647,
      "Ġcome": 1648,
      "Ġput": 1649,
      "Ġpopulation": 1650,
      "ots": 1651,
      "cial": 1652,
      "Ġcentury": 1653,
      "ploy": 1654,
      "Ġpost": 1655,
      "ĠUS": 1656,
      "Ġproblem": 1657,
      "ured": 1658,
      "Ġhapp": 1659,
      "oph": 1660,
      "Ġrecord": 1661,
      "Ġsw": 1662,
      "orts": 1663,
      "atory": 1664,
      "ression": 1665,
      "Ġcomput": 1666,
      "Ġlo": 1667,
      "ones": 1668,
      "Ġdeterm": 1669,
      "Ġyoung": 1670,
      "Ġstruct": 1671,
      "Ġassoci": 1672,
      "be": 1673,
      "aper": 1674,
      "Ġexist": 1675,
      "Ġplant": 1676,
      "Ġshort": 1677,
      "Ġaccess": 1678,
      "Ġ--": 1679,
      "Ġturn": 1680,
      "Ġ|": 1681,
      "ately": 1682,
      "Ġhowever": 1683,
      "ĠWar": 1684,
      "Ġresearc": 1685,
      "Ġvir": 1686,
      "idd": 1687,
      "As": 1688,
      "Ġalong": 1689,
      "ĠBe": 1690,
      "rug": 1691,
      "Ġspace": 1692,
      "Ġrele": 1693,
      "Ġestab": 1694,
      "pect": 1695,
      "ley": 1696,
      "Ġbus": 1697,
      "Ġdays": 1698,
      "elf": 1699,
      "Ġprom": 1700,
      "ĠTe": 1701,
      "Ġlevels": 1702,
      "\".": 1703,
      "ler": 1704,
      "icult": 1705,
      "over": 1706,
      "Ġdescrib": 1707,
      "Ġcomb": 1708,
      "alf": 1709,
      "ane": 1710,
      "Ġbenef": 1711,
      "lement": 1712,
      "etic": 1713,
      "Ġsystems": 1714,
      "Ġusually": 1715,
      "Ġamount": 1716,
      "ued": 1717,
      "ember": 1718,
      "Ġsing": 1719,
      "work": 1720,
      "mber": 1721,
      "erc": 1722,
      "Ġlet": 1723,
      "We": 1724,
      "Ġill": 1725,
      "Ġfil": 1726,
      "Ġtype": 1727,
      "Ġpast": 1728,
      "vious": 1729,
      "Ġcountries": 1730,
      "Ġhard": 1731,
      "ators": 1732,
      "af": 1733,
      "Ġindust": 1734,
      "by": 1735,
      "ĠGerm": 1736,
      "Ġleast": 1737,
      "most": 1738,
      "ruction": 1739,
      "ored": 1740,
      "ray": 1741,
      "ox": 1742,
      "Ġbecame": 1743,
      "nal": 1744,
      "Ġabove": 1745,
      "ocus": 1746,
      "Ġeducation": 1747,
      "erence": 1748,
      "ument": 1749,
      "ĠGen": 1750,
      "Ġcirc": 1751,
      "Ġleft": 1752,
      "Ġcolle": 1753,
      "Ġlikely": 1754,
      "Ġsimilar": 1755,
      "uture": 1756,
      "ape": 1757,
      "Ġspecial": 1758,
      "Ġdra": 1759,
      "Ġnever": 1760,
      "Ġsignificant": 1761,
      "Ġcreat": 1762,
      "Ġflow": 1763,
      "Ġinvest": 1764,
      "Ġmov": 1765,
      "Ġnational": 1766,
      "Ġclear": 1767,
      "wh": 1768,
      "obal": 1769,
      "Ġgre": 1770,
      "ĠâĢĺ": 1771,
      "isc": 1772,
      "Ġmult": 1773,
      "ott": 1774,
      "aim": 1775,
      "Ġer": 1776,
      "Ġchem": 1777,
      "ending": 1778,
      "ething": 1779,
      "ĠSc": 1780,
      "Ġbegin": 1781,
      "ribut": 1782,
      "ecially": 1783,
      "cle": 1784,
      "Ġresults": 1785,
      "Ġgeneral": 1786,
      "aster": 1787,
      "for": 1788,
      "oman": 1789,
      "Ġcommunity": 1790,
      "ortun": 1791,
      "ĠAfric": 1792,
      "aining": 1793,
      "If": 1794,
      "Ġdri": 1795,
      "Ġ197": 1796,
      "Ġoffic": 1797,
      "Ġcourse": 1798,
      "Ġcharacter": 1799,
      "Ġprim": 1800,
      "ĠGe": 1801,
      "ym": 1802,
      "Ġsite": 1803,
      "ledge": 1804,
      "Ġnext": 1805,
      "Ġplac": 1806,
      "Ġparent": 1807,
      "val": 1808,
      "Ġtoday": 1809,
      "earch": 1810,
      "Ġfunction": 1811,
      "iam": 1812,
      "ges": 1813,
      "edi": 1814,
      "Ġlanguage": 1815,
      "ĠHealth": 1816,
      "Ġchanges": 1817,
      "Ġgr": 1818,
      "ode": 1819,
      "especially": 1820,
      "Ġincrease": 1821,
      "NA": 1822,
      "ĠMay": 1823,
      "ĠWorld": 1824,
      "let": 1825,
      "sw": 1826,
      "ĠGo": 1827,
      "Ġtemper": 1828,
      "Ġconn": 1829,
      "30": 1830,
      "Ġdoct": 1831,
      "Ġenc": 1832,
      "enn": 1833,
      "Ġcrit": 1834,
      "Ġnecess": 1835,
      "Ġfeel": 1836,
      "ĠYork": 1837,
      "artment": 1838,
      "asing": 1839,
      "ilities": 1840,
      "Ġdifficult": 1841,
      "Ġwords": 1842,
      "ication": 1843,
      "ivil": 1844,
      "Ġlearn": 1845,
      "Ġask": 1846,
      "Ġline": 1847,
      "ilt": 1848,
      "Ġ30": 1849,
      "Ġmaking": 1850,
      "ales": 1851,
      "St": 1852,
      "lo": 1853,
      "ublic": 1854,
      "eter": 1855,
      "Ġdiscuss": 1856,
      "ĠWhat": 1857,
      "Ġgive": 1858,
      "ipp": 1859,
      "ours": 1860,
      "right": 1861,
      "Ġdue": 1862,
      "Ġfull": 1863,
      "ively": 1864,
      "duct": 1865,
      "Ġconditions": 1866,
      "Ġfund": 1867,
      "Ġ14": 1868,
      "ĠLe": 1869,
      "ĠCar": 1870,
      "selves": 1871,
      "Ġstudies": 1872,
      "Ġhigher": 1873,
      "Ġrepresent": 1874,
      "Ġside": 1875,
      "Ġbehav": 1876,
      "ĠAmerica": 1877,
      "app": 1878,
      "ober": 1879,
      "Ġaway": 1880,
      "Ġtru": 1881,
      "Ġprofess": 1882,
      "Ġalways": 1883,
      "itor": 1884,
      "agement": 1885,
      "Ġsomething": 1886,
      "ffic": 1887,
      "ormal": 1888,
      "ĠNorth": 1889,
      "Ġfocus": 1890,
      "yd": 1891,
      "rate": 1892,
      "Ġcases": 1893,
      "Ġterm": 1894,
      "ĠMar": 1895,
      "Ġdr": 1896,
      "Ġsubject": 1897,
      "Ġcho": 1898,
      "Ġscience": 1899,
      "Ġcomplete": 1900,
      "Ġpolic": 1901,
      "urch": 1902,
      "Ġkind": 1903,
      "oney": 1904,
      "Ġcr": 1905,
      "acc": 1906,
      "Ġground": 1907,
      "Ġupon": 1908,
      "atch": 1909,
      "Ġbrain": 1910,
      "Ġtoget": 1911,
      "Ġtogether": 1912,
      "Ġdam": 1913,
      "Ġenough": 1914,
      "Ġcity": 1915,
      "Ġstrong": 1916,
      "Ġspecific": 1917,
      "ĠDep": 1918,
      "Ġworks": 1919,
      "Ġteac": 1920,
      "Ġresearchers": 1921,
      "What": 1922,
      "rams": 1923,
      "aves": 1924,
      "Ġsum": 1925,
      "Ġtechnology": 1926,
      "Ġfuture": 1927,
      "Ġhouse": 1928,
      "Ġespecially": 1929,
      "Ġz": 1930,
      "iation": 1931,
      "Ġwhether": 1932,
      "Ġnet": 1933,
      "port": 1934,
      "ĠCal": 1935,
      "ĠAb": 1936,
      "Ġinflu": 1937,
      "omes": 1938,
      "ird": 1939,
      "15": 1940,
      "iting": 1941,
      "ann": 1942,
      "esc": 1943,
      "Ġrespons": 1944,
      "ĠSouth": 1945,
      "Ġey": 1946,
      "ĠJew": 1947,
      "son": 1948,
      "unt": 1949,
      "Ġgroups": 1950,
      "ush": 1951,
      "Ġeffects": 1952,
      ".)": 1953,
      "istic": 1954,
      "Ġlearning": 1955,
      "ĠSome": 1956,
      "Ġhaving": 1957,
      "ison": 1958,
      "yl": 1959,
      "Ġrelig": 1960,
      "Ġconcer": 1961,
      "For": 1962,
      "Ġ196": 1963,
      "Ġpatients": 1964,
      "ĠOne": 1965,
      "sh": 1966,
      "ibr": 1967,
      "Ġobserv": 1968,
      "ĠAm": 1969,
      "There": 1970,
      "SA": 1971,
      "Ġfurther": 1972,
      "Ġconsum": 1973,
      "oot": 1974,
      "Ġapplic": 1975,
      "ptoms": 1976,
      "apt": 1977,
      "ung": 1978,
      "overed": 1979,
      "itary": 1980,
      "ae": 1981,
      "Ġimpact": 1982,
      "Ġacross": 1983,
      "Ġpred": 1984,
      "Ġreturn": 1985,
      "ready": 1986,
      "Ġmembers": 1987,
      "Ġteam": 1988,
      "Ġvarious": 1989,
      "An": 1990,
      "Ġlower": 1991,
      "Ġwind": 1992,
      "ER": 1993,
      "Ġrequire": 1994,
      "ĠRep": 1995,
      "Ġflu": 1996,
      "Ġreason": 1997,
      "13": 1998,
      "Ġtry": 1999,
      "17": 2000,
      "Ġdeveloped": 2001,
      "ĠEnglish": 2002,
      "ĠSo": 2003,
      "Ġquestion": 2004,
      "Ġproduction": 2005,
      "ique": 2006,
      "reg": 2007,
      "rict": 2008,
      "side": 2009,
      "augh": 2010,
      "rated": 2011,
      "Ġtext": 2012,
      "Ġcame": 2013,
      "Ġdrug": 2014,
      "Ġprob": 2015,
      "Ġseen": 2016,
      "sych": 2017,
      "Ġindic": 2018,
      "Ġeither": 2019,
      "amm": 2020,
      "16": 2021,
      "Ġstat": 2022,
      "ĠEarth": 2023,
      "yn": 2024,
      "ĠBl": 2025,
      "verage": 2026,
      "ĠState": 2027,
      "Ġfive": 2028,
      "//": 2029,
      "org": 2030,
      "Ġrather": 2031,
      "aut": 2032,
      "Ġfall": 2033,
      "Ġsurface": 2034,
      "Ġann": 2035,
      "Ġsit": 2036,
      "Ġconsider": 2037,
      "Ġfield": 2038,
      "etimes": 2039,
      "thing": 2040,
      "Ġur": 2041,
      "Ġtaken": 2042,
      "Ġaccording": 2043,
      "ĠAss": 2044,
      "iol": 2045,
      "Ġclose": 2046,
      "ĠThat": 2047,
      "Ġplants": 2048,
      "Ġrights": 2049,
      "ibility": 2050,
      "Ġresources": 2051,
      "Ġevidence": 2052,
      "ires": 2053,
      "ream": 2054,
      "Ġphot": 2055,
      "Ġpolitical": 2056,
      "Ġmot": 2057,
      "14": 2058,
      "ery": 2059,
      "Ġwhy": 2060,
      "ches": 2061,
      "atures": 2062,
      "__": 2063,
      "Ġstates": 2064,
      "Ġ13": 2065,
      "rel": 2066,
      "Ġaccount": 2067,
      "Ġalready": 2068,
      "ification": 2069,
      "Ġmass": 2070,
      "ĠHist": 2071,
      "Ġworking": 2072,
      "ttp": 2073,
      "onst": 2074,
      "Ġclimate": 2075,
      "Ġword": 2076,
      "ĠDr": 2077,
      "ederal": 2078,
      "Ġdest": 2079,
      "aching": 2080,
      "ĠSoc": 2081,
      "Ġdone": 2082,
      "Ġlive": 2083,
      "ried": 2084,
      "Ġfail": 2085,
      "Ġmeet": 2086,
      "osis": 2087,
      "://": 2088,
      "Ġneeds": 2089,
      "ysis": 2090,
      "ournal": 2091,
      "Ġgoing": 2092,
      "ules": 2093,
      "chie": 2094,
      "Ġtoward": 2095,
      "Ġevent": 2096,
      "Ġcreate": 2097,
      "ĠX": 2098,
      "Ġprotect": 2099,
      "Ġdeg": 2100,
      "ington": 2101,
      "Ġrelations": 2102,
      "Ġsource": 2103,
      "Ġsingle": 2104,
      "bon": 2105,
      "Ġri": 2106,
      "Ġmic": 2107,
      "my": 2108,
      "Ġtot": 2109,
      "ĠAust": 2110,
      "Ġrate": 2111,
      "Ġtradition": 2112,
      "Ġhistor": 2113,
      "Ġsens": 2114,
      "ps": 2115,
      "Ġpublished": 2116,
      "Ġrecogn": 2117,
      "rown": 2118,
      "Ġexperience": 2119,
      "oon": 2120,
      "ateg": 2121,
      "illed": 2122,
      "ront": 2123,
      "ĠMan": 2124,
      "Ġess": 2125,
      "Ġrange": 2126,
      "Ġbegan": 2127,
      "Ġinit": 2128,
      "ĠShe": 2129,
      "Ġkey": 2130,
      "Ġarg": 2131,
      "Ġimprove": 2132,
      "hib": 2133,
      "Ġla": 2134,
      "Ġ194": 2135,
      "Ġknowledge": 2136,
      "ĠGu": 2137,
      "Ġmedical": 2138,
      "ĠBritish": 2139,
      "Ġways": 2140,
      "Ġtool": 2141,
      "reme": 2142,
      "stitute": 2143,
      "Ġcollect": 2144,
      "ĠWith": 2145,
      "ĠHis": 2146,
      "Ġoil": 2147,
      "ĠAct": 2148,
      "cient": 2149,
      "itud": 2150,
      "Ġparticip": 2151,
      "Ġabs": 2152,
      "ĠBy": 2153,
      "aring": 2154,
      "Ġred": 2155,
      "Ġdoc": 2156,
      "Ġrole": 2157,
      "Ġhalf": 2158,
      "uation": 2159,
      "ask": 2160,
      "Ġliving": 2161,
      "Ġanimals": 2162,
      "estern": 2163,
      "Ġsent": 2164,
      "gest": 2165,
      "Ġport": 2166,
      "oura": 2167,
      "Ġemploy": 2168,
      "roll": 2169,
      "ule": 2170,
      "Ġhold": 2171,
      "Ġeconomic": 2172,
      "Ġvalue": 2173,
      "Ġdom": 2174,
      "Ġsymptoms": 2175,
      "Ġbelow": 2176,
      "Ġthemselves": 2177,
      "Ġreally": 2178,
      "Ġitself": 2179,
      "Ġ2012": 2180,
      "amin": 2181,
      "Ġphysical": 2182,
      "Ġonce": 2183,
      "Ġwhole": 2184,
      "Ġwhite": 2185,
      "Ġloss": 2186,
      "oll": 2187,
      "Ġincreased": 2188,
      "epend": 2189,
      "Ġbig": 2190,
      "like": 2191,
      "Ġarticle": 2192,
      "Ġtook": 2193,
      "Ġcut": 2194,
      "ened": 2195,
      "Ġdetail": 2196,
      "olic": 2197,
      "Ġaddress": 2198,
      "Ġthought": 2199,
      "Ġcreated": 2200,
      "Ġactivities": 2201,
      "mb": 2202,
      "put": 2203,
      "uel": 2204,
      "ĠPr": 2205,
      "ĠComp": 2206,
      "Ġbusiness": 2207,
      "Ġrepl": 2208,
      "Ġgrowth": 2209,
      "Ġsun": 2210,
      "Ġcannot": 2211,
      "Ġalmost": 2212,
      "Ġconsidered": 2213,
      "Ġbuilding": 2214,
      "):": 2215,
      "Ġtell": 2216,
      "acks": 2217,
      "Ġblack": 2218,
      "Ġwr": 2219,
      "Ġstory": 2220,
      "Ch": 2221,
      "iple": 2222,
      "Ġ2011": 2223,
      "Ġmakes": 2224,
      "Ġnature": 2225,
      "ĠStud": 2226,
      "ĠPres": 2227,
      "Ġactivity": 2228,
      "Ġwide": 2229,
      "Ġsal": 2230,
      "fact": 2231,
      "ĠAg": 2232,
      "Ġfish": 2233,
      "sequ": 2234,
      "opy": 2235,
      "ications": 2236,
      "minist": 2237,
      "apan": 2238,
      "Ġfrequ": 2239,
      "ĠResearch": 2240,
      "Ġtypes": 2241,
      "Ġproducts": 2242,
      "Ġansw": 2243,
      "vere": 2244,
      "Ġsize": 2245,
      "ese": 2246,
      "ables": 2247,
      "Ġmor": 2248,
      "ĠIm": 2249,
      "Ġintrodu": 2250,
      "go": 2251,
      "Ġself": 2252,
      "ights": 2253,
      "Ġ2010": 2254,
      "Ġmodel": 2255,
      "Ġfamil": 2256,
      "Ġgas": 2257,
      "Ġyet": 2258,
      "Ġmonths": 2259,
      "Ġsix": 2260,
      "oses": 2261,
      "Ġrelated": 2262,
      "Ġver": 2263,
      "Ġpaper": 2264,
      "Ġpressure": 2265,
      "pid": 2266,
      "Ġclaim": 2267,
      "empt": 2268,
      "Ġadult": 2269,
      "Ġregion": 2270,
      "Ġopt": 2271,
      "rad": 2272,
      "Ġneeded": 2273,
      "Ġentire": 2274,
      "Ġscientists": 2275,
      "ĠCanad": 2276,
      "Ġmind": 2277,
      "ĠCenter": 2278,
      "Ġweek": 2279,
      "pro": 2280,
      "Ġmodern": 2281,
      "Ġcamp": 2282,
      "Al": 2283,
      "ĠCo": 2284,
      "ney": 2285,
      "itted": 2286,
      "Ġvers": 2287,
      "Ġengine": 2288,
      "Ġstep": 2289,
      "iddle": 2290,
      "ops": 2291,
      "Ġ100": 2292,
      "fer": 2293,
      "Ġachie": 2294,
      "aff": 2295,
      "rect": 2296,
      "Ġcy": 2297,
      "ulations": 2298,
      "ips": 2299,
      "Ġglobal": 2300,
      "igure": 2301,
      "sc": 2302,
      "How": 2303,
      "Ġrecomm": 2304,
      "Ġassociated": 2305,
      "Ġarch": 2306,
      "Ġsuper": 2307,
      "Ġ11": 2308,
      "Ġquestions": 2309,
      "ystem": 2310,
      "Ġneg": 2311,
      "Ġ25": 2312,
      "ivity": 2313,
      "acy": 2314,
      "ene": 2315,
      "ety": 2316,
      "hing": 2317,
      "lor": 2318,
      "Ġbar": 2319,
      "Ġquality": 2320,
      "Ġfri": 2321,
      "Ġaffect": 2322,
      "attle": 2323,
      "Ġlab": 2324,
      "ĠII": 2325,
      "Ġsepar": 2326,
      "Ġprovides": 2327,
      "Ġlay": 2328,
      "Ġcomputer": 2329,
      "uck": 2330,
      "Ġconcept": 2331,
      "Ġprovided": 2332,
      "ume": 2333,
      "Ġrequired": 2334,
      "ival": 2335,
      "aged": 2336,
      "ensive": 2337,
      "Ġ50": 2338,
      "Ã©": 2339,
      "ĠCont": 2340,
      "ai": 2341,
      "Ġearth": 2342,
      "Ġge": 2343,
      "abit": 2344,
      "ĠNo": 2345,
      "ounds": 2346,
      "Ġpotential": 2347,
      "erve": 2348,
      "ma": 2349,
      "Ġpriv": 2350,
      "urs": 2351,
      "iding": 2352,
      "Ġmaterials": 2353,
      "Ġrecent": 2354,
      "Ġpage": 2355,
      "inter": 2356,
      "AR": 2357,
      "Ġever": 2358,
      "Ġchemical": 2359,
      "Ġsure": 2360,
      "ister": 2361,
      "lying": 2362,
      "rie": 2363,
      "Ġparts": 2364,
      "Ġactually": 2365,
      "ES": 2366,
      "Ġlink": 2367,
      "Ġprograms": 2368,
      "irm": 2369,
      "Ġidea": 2370,
      "lands": 2371,
      "Ġmoney": 2372,
      "ript": 2373,
      "ID": 2374,
      "Ġconduct": 2375,
      "ĠJapan": 2376,
      "utions": 2377,
      "To": 2378,
      "ĠTr": 2379,
      "Ġfire": 2380,
      "Ġproduce": 2381,
      "Ġprote": 2382,
      "atter": 2383,
      "chan": 2384,
      "Ġreduce": 2385,
      "Ġpurp": 2386,
      "ĠMin": 2387,
      "Ġspe": 2388,
      "ĠDepartment": 2389,
      "Ġbur": 2390,
      "Ġregard": 2391,
      "Ġcomplex": 2392,
      "ĠPar": 2393,
      "rought": 2394,
      "Ġtotal": 2395,
      "Ġparents": 2396,
      "ched": 2397,
      "Ġdig": 2398,
      "Ġchall": 2399,
      "Ġservices": 2400,
      "eds": 2401,
      "Ġmeasure": 2402,
      "Ġbuilt": 2403,
      "vey": 2404,
      "Ġcoll": 2405,
      "ze": 2406,
      "ply": 2407,
      "Ġsimple": 2408,
      "utes": 2409,
      "When": 2410,
      "bo": 2411,
      "Ġpay": 2412,
      "Ġast": 2413,
      "Ġissues": 2414,
      "iction": 2415,
      "ĠSchool": 2416,
      "ĠHar": 2417,
      "ĠScience": 2418,
      "urity": 2419,
      "ief": 2420,
      "Ġstudent": 2421,
      "Ġsubst": 2422,
      "Ġreported": 2423,
      "Ġemer": 2424,
      "Ġmaint": 2425,
      "Ġsoil": 2426,
      "ging": 2427,
      "ĠWill": 2428,
      "Ġfarm": 2429,
      "Ġhttp": 2430,
      "aries": 2431,
      "Ġsett": 2432,
      "Ġsex": 2433,
      "rench": 2434,
      "Ġenvironmental": 2435,
      "Ġsat": 2436,
      "icine": 2437,
      "ashington": 2438,
      "ricult": 2439,
      "Ġshows": 2440,
      "iment": 2441,
      "cil": 2442,
      "Ġnecessary": 2443,
      "Ġrelative": 2444,
      "Ġliter": 2445,
      "Ġopportun": 2446,
      "Ġskin": 2447,
      "Ġaccept": 2448,
      "Ġreact": 2449,
      "Ġnut": 2450,
      "Ġschools": 2451,
      "ext": 2452,
      "Ġsam": 2453,
      "Ġrev": 2454,
      "Ġdiet": 2455,
      "25": 2456,
      "ores": 2457,
      "Ġgreen": 2458,
      "ump": 2459,
      "ĠJan": 2460,
      "Ġunderstanding": 2461,
      "Ġled": 2462,
      "Ġpractice": 2463,
      "Ġquick": 2464,
      "Ġcondition": 2465,
      "ternal": 2466,
      "mon": 2467,
      "Ġpattern": 2468,
      "Ġheav": 2469,
      "inary": 2470,
      "Ġsurv": 2471,
      "Ġaction": 2472,
      "ĠAfter": 2473,
      "amed": 2474,
      "ucle": 2475,
      "imately": 2476,
      "Ġdeb": 2477,
      "Ġability": 2478,
      "Ġthroughout": 2479,
      "ĠCount": 2480,
      "raft": 2481,
      "Ġservice": 2482,
      "onse": 2483,
      "Ġ2009": 2484,
      "umb": 2485,
      "usion": 2486,
      "Ġhours": 2487,
      "Ġincreasing": 2488,
      "Ġcaused": 2489,
      "AT": 2490,
      "Ġweight": 2491,
      "Ġmilitary": 2492,
      "ĠInf": 2493,
      "ĠPe": 2494,
      "ĠSec": 2495,
      "But": 2496,
      "IV": 2497,
      "Ġmatter": 2498,
      "Ġsense": 2499,
      "Ġ2008": 2500,
      "Ġprevious": 2501,
      "ĠJu": 2502,
      "Ġgreater": 2503,
      "ows": 2504,
      "icles": 2505,
      "ervation": 2506,
      "Ġtar": 2507,
      "Ġorigin": 2508,
      "ĠÂ": 2509,
      "duc": 2510,
      "osition": 2511,
      "atives": 2512,
      "nces": 2513,
      "uary": 2514,
      "order": 2515,
      "Ġmarket": 2516,
      "Ġlot": 2517,
      "stitution": 2518,
      "Ġposition": 2519,
      "Ġsea": 2520,
      "Ġsuff": 2521,
      "Ġtravel": 2522,
      "ached": 2523,
      "Ġwild": 2524,
      "ections": 2525,
      "ĠAug": 2526,
      "Ġeffective": 2527,
      "Ġlonger": 2528,
      "ening": 2529,
      "Ġlate": 2530,
      "lt": 2531,
      "arily": 2532,
      "Ġmanagement": 2533,
      "erous": 2534,
      "izing": 2535,
      "itation": 2536,
      "Ġtrue": 2537,
      "ĠInstitute": 2538,
      "ropri": 2539,
      "Ġfeet": 2540,
      "het": 2541,
      "pril": 2542,
      "Ġpath": 2543,
      "Ġcontact": 2544,
      "Ġcolon": 2545,
      "Ġdiagn": 2546,
      "Ġstandard": 2547,
      "Ġsometimes": 2548,
      "Ġconc": 2549,
      "Ġshall": 2550,
      "ĠEd": 2551,
      "Ġaverage": 2552,
      "Ġdesigned": 2553,
      "Ġinternational": 2554,
      "Ġrelationship": 2555,
      "IN": 2556,
      "ĠKing": 2557,
      "Ġtaking": 2558,
      "Ġterms": 2559,
      "ĠCalif": 2560,
      "Ġforce": 2561,
      "Ġgenerally": 2562,
      "cean": 2563,
      "Ġissue": 2564,
      "ĠEm": 2565,
      "adem": 2566,
      "Ġwritten": 2567,
      "Ġoriginal": 2568,
      "Ġviol": 2569,
      "Ġfat": 2570,
      "Ġens": 2571,
      "Ġfeed": 2572,
      "ades": 2573,
      "Ġapproach": 2574,
      "Ġdoctor": 2575,
      "ĠWashington": 2576,
      "dom": 2577,
      "based": 2578,
      "cies": 2579,
      "Ġdiv": 2580,
      "Ġago": 2581,
      "Ġattempt": 2582,
      "Ġtax": 2583,
      "bor": 2584,
      "Ġfactors": 2585,
      "ĠJune": 2586,
      "ccording": 2587,
      "Ġbelieve": 2588,
      "Ġincludes": 2589,
      "know": 2590,
      "Ġ24": 2591,
      "Ġassess": 2592,
      "ius": 2593,
      "Ġthreat": 2594,
      "Ġjob": 2595,
      "Ġshown": 2596,
      "Ġbehavior": 2597,
      "Ġpopular": 2598,
      "Ġexerc": 2599,
      "rapy": 2600,
      "Ġ=": 2601,
      "ĠAustral": 2602,
      "rew": 2603,
      "Ġproduced": 2604,
      "thern": 2605,
      "Ġsources": 2606,
      "hood": 2607,
      "Ġstructure": 2608,
      "Ġanalysis": 2609,
      "eration": 2610,
      "Ġprobably": 2611,
      "Ġforest": 2612,
      "Ġsoft": 2613,
      "hold": 2614,
      "ĠMarch": 2615,
      "aging": 2616,
      "Ġevents": 2617,
      "new": 2618,
      "Ġcivil": 2619,
      "Ġheld": 2620,
      "Ġattack": 2621,
      "vention": 2622,
      "anced": 2623,
      "oes": 2624,
      "Ġeffic": 2625,
      "ĠSu": 2626,
      "Ġtemperature": 2627,
      "fully": 2628,
      "Ġscientific": 2629,
      "Ġofficial": 2630,
      "199": 2631,
      "ength": 2632,
      "Ġreview": 2633,
      "ornia": 2634,
      "lies": 2635,
      "lex": 2636,
      "lease": 2637,
      "useum": 2638,
      "rial": 2639,
      "Ġestim": 2640,
      "ĠBo": 2641,
      "rim": 2642,
      "ronic": 2643,
      "Ġspread": 2644,
      "istance": 2645,
      "ising": 2646,
      "Ġincluded": 2647,
      "ille": 2648,
      "Ġcolor": 2649,
      "Ġce": 2650,
      "light": 2651,
      "Ġnormal": 2652,
      "Ġdou": 2653,
      "hest": 2654,
      "www": 2655,
      "Ġsou": 2656,
      "leep": 2657,
      "On": 2658,
      "Ġforms": 2659,
      "Ġcoun": 2660,
      "Ġseries": 2661,
      "Ġlog": 2662,
      "ĠFran": 2663,
      "Ġslow": 2664,
      "Ġcarbon": 2665,
      "Ġtown": 2666,
      "Ġindustry": 2667,
      "ressed": 2668,
      "ON": 2669,
      "Ġrespect": 2670,
      "'re": 2671,
      "Ġsqu": 2672,
      "Ġthing": 2673,
      "Ġcit": 2674,
      "istics": 2675,
      "Ġcomes": 2676,
      "Ġinvolved": 2677,
      "Ġimage": 2678,
      "Ġparticularly": 2679,
      "inks": 2680,
      "Ġexc": 2681,
      "Ġsimply": 2682,
      "Ġheat": 2683,
      "eal": 2684,
      "erson": 2685,
      "asc": 2686,
      "amb": 2687,
      "Ġstop": 2688,
      "Ġdispl": 2689,
      "OR": 2690,
      "Ġfa": 2691,
      "ĠWest": 2692,
      "Ġbab": 2693,
      "Ġ2007": 2694,
      "ĠFrench": 2695,
      "Ġcontent": 2696,
      "Ġmechan": 2697,
      "ĠOct": 2698,
      "Ġut": 2699,
      "Ġfem": 2700,
      "Ġinteract": 2701,
      "oly": 2702,
      "Ġestablished": 2703,
      "Ġthous": 2704,
      "ĠPer": 2705,
      "Ġtalk": 2706,
      "aving": 2707,
      "ĠPress": 2708,
      "Ġpoor": 2709,
      "ecause": 2710,
      "ctions": 2711,
      "Ġpict": 2712,
      "Ġuses": 2713,
      "Ġdeep": 2714,
      "You": 2715,
      "issions": 2716,
      "Ġtheory": 2717,
      "Ġnumbers": 2718,
      "ceed": 2719,
      "Ġbring": 2720,
      "Ġmagn": 2721,
      "ĠRiver": 2722,
      "Ġdemonst": 2723,
      "Ġpolicy": 2724,
      "ns": 2725,
      "ĠCong": 2726,
      "Ġindividuals": 2727,
      "Ġmovement": 2728,
      "Ġthus": 2729,
      "Ġvisit": 2730,
      "ĠPresident": 2731,
      "undred": 2732,
      "Ġcontain": 2733,
      "isions": 2734,
      "ev": 2735,
      "ĠDav": 2736,
      "Ġpersonal": 2737,
      "ĠQu": 2738,
      "Ġpoll": 2739,
      "ulated": 2740,
      "Ġdeveloping": 2741,
      "Ġsociety": 2742,
      "Ġreading": 2743,
      "ĠCalifornia": 2744,
      "Ġoutside": 2745,
      "Ġnorth": 2746,
      "haps": 2747,
      "Ġinj": 2748,
      "Ġnation": 2749,
      "Ġvari": 2750,
      "Ġcauses": 2751,
      "ĠChina": 2752,
      "Ġvariety": 2753,
      "itude": 2754,
      "Ġcat": 2755,
      "Ġtraining": 2756,
      "ulate": 2757,
      "Ġap": 2758,
      "Ġ40": 2759,
      "ĠGovern": 2760,
      "ography": 2761,
      "ners": 2762,
      "Ġemb": 2763,
      "Ġlives": 2764,
      "Ġlabor": 2765,
      "ĠWhile": 2766,
      "Ġserious": 2767,
      "Ġinvestig": 2768,
      "Ġwhose": 2769,
      "Ġalthough": 2770,
      "Ġrefer": 2771,
      "ĠPre": 2772,
      "Ġbreak": 2773,
      "Ġonline": 2774,
      "Ġdog": 2775,
      "verse": 2776,
      "Ġindepend": 2777,
      "Ġskills": 2778,
      "Ġmeaning": 2779,
      "Ġsil": 2780,
      "ror": 2781,
      "ider": 2782,
      "ĠIndian": 2783,
      "Ġinstit": 2784,
      "rand": 2785,
      "ĠEduc": 2786,
      "ĠApril": 2787,
      "hern": 2788,
      "ĠMany": 2789,
      "ĠAugust": 2790,
      "Ġmother": 2791,
      "ises": 2792,
      "Ġresponse": 2793,
      "Ġremov": 2794,
      "Ġcompl": 2795,
      "Ġtarget": 2796,
      "ĠRet": 2797,
      "ĠGerman": 2798,
      "ĠSept": 2799,
      "Ġmusic": 2800,
      "Ġbasic": 2801,
      "Ġbirth": 2802,
      "rael": 2803,
      "Ġconsist": 2804,
      "osure": 2805,
      "Ġpsych": 2806,
      "ufact": 2807,
      "yle": 2808,
      "reng": 2809,
      "ibrary": 2810,
      "Ġface": 2811,
      "ĠInternational": 2812,
      "see": 2813,
      "ĠServ": 2814,
      "ads": 2815,
      "ĠIndia": 2816,
      "Ġec": 2817,
      "irit": 2818,
      "ĠPart": 2819,
      "ift": 2820,
      "ĠChar": 2821,
      "\",": 2822,
      "Ġanimal": 2823,
      "Ġmethods": 2824,
      "Ġclean": 2825,
      "Ġdecl": 2826,
      "Ġnight": 2827,
      "ĠEl": 2828,
      "Ġvide": 2829,
      "Ġsold": 2830,
      "overy": 2831,
      "where": 2832,
      "Ġnetwork": 2833,
      "Ġadded": 2834,
      "Ġmiles": 2835,
      "Ġbr": 2836,
      "olec": 2837,
      "Ġcapt": 2838,
      "Ġstri": 2839,
      "Ġetc": 2840,
      "aily": 2841,
      "Ġprimary": 2842,
      "uth": 2843,
      "uge": 2844,
      "Ġi": 2845,
      "ĠCor": 2846,
      "Ġx": 2847,
      "Ġencoura": 2848,
      "Ġcheck": 2849,
      "Ġcontinue": 2850,
      "hel": 2851,
      "AN": 2852,
      "Ġconcent": 2853,
      "22": 2854,
      "ha": 2855,
      "ĠJuly": 2856,
      "Ġsearch": 2857,
      "na": 2858,
      "Ġir": 2859,
      "ĠHistory": 2860,
      "IS": 2861,
      "Ġmount": 2862,
      "Ġmess": 2863,
      "Ġextreme": 2864,
      "Ġwarm": 2865,
      "ĠCons": 2866,
      "Ġimplement": 2867,
      "rast": 2868,
      "ĠEuropean": 2869,
      "Ġprec": 2870,
      "Äģ": 2871,
      "orthern": 2872,
      "Ġtur": 2873,
      "Ġcross": 2874,
      "Ġlack": 2875,
      "Ġbooks": 2876,
      "ternet": 2877,
      "ĠIS": 2878,
      "Ġinteg": 2879,
      "oor": 2880,
      "Ġlarger": 2881,
      "ĠFeb": 2882,
      "ĠApp": 2883,
      "Ġsouth": 2884,
      "Ġcompany": 2885,
      "set": 2886,
      "Ġdeal": 2887,
      "aches": 2888,
      "Ġord": 2889,
      "ĠGl": 2890,
      "Ġwent": 2891,
      "omb": 2892,
      "ĠAc": 2893,
      "Ġwriting": 2894,
      "Ġeat": 2895,
      "Ġvirus": 2896,
      "Ġthird": 2897,
      "ĠMc": 2898,
      "Ġwood": 2899,
      "Ġreceived": 2900,
      "ĠSm": 2901,
      "ribution": 2902,
      "elling": 2903,
      "Ġdocument": 2904,
      "Ġdamage": 2905,
      "Ġmach": 2906,
      "elt": 2907,
      "Ġvacc": 2908,
      "rance": 2909,
      "uman": 2910,
      "ĠAssoci": 2911,
      "ĠMost": 2912,
      "Ġdefin": 2913,
      "Ġelectric": 2914,
      "Ġselect": 2915,
      "He": 2916,
      "Ġtherefore": 2917,
      "ana": 2918,
      "cember": 2919,
      "Ġhealthy": 2920,
      "PA": 2921,
      "Ġfront": 2922,
      "Ġfederal": 2923,
      "wise": 2924,
      "ension": 2925,
      "ĠMe": 2926,
      "Ġadditional": 2927,
      "edia": 2928,
      "ems": 2929,
      "Ġappropri": 2930,
      "Ġwebs": 2931,
      "Ġregular": 2932,
      "Ġnearly": 2933,
      "lier": 2934,
      "ĠProg": 2935,
      "lim": 2936,
      "Ġcompet": 2937,
      "Ġ/": 2938,
      "60": 2939,
      "IC": 2940,
      "Ġsafe": 2941,
      "ino": 2942,
      "Ġste": 2943,
      "ancy": 2944,
      "Ġhundred": 2945,
      "ground": 2946,
      "Ġculture": 2947,
      "Ġcompon": 2948,
      "Ġinstead": 2949,
      "80": 2950,
      "Ġattention": 2951,
      "rab": 2952,
      "Ġimmedi": 2953,
      "Ġwall": 2954,
      "rs": 2955,
      "Ġnucle": 2956,
      "pper": 2957,
      "Ġfru": 2958,
      "Ġavoid": 2959,
      "Ġperm": 2960,
      "ĠHer": 2961,
      "ĠChild": 2962,
      "Ġcoast": 2963,
      "aul": 2964,
      "ĠBar": 2965,
      "40": 2966,
      "cell": 2967,
      "Ġbroad": 2968,
      "Ġlove": 2969,
      "exic": 2970,
      "ls": 2971,
      "Ġjud": 2972,
      "Ġgrowing": 2973,
      "Ġcentral": 2974,
      "Ġcommand": 2975,
      "Ġfav": 2976,
      "Ġleaders": 2977,
      "ĠRec": 2978,
      "ĠWilliam": 2979,
      "ĠNA": 2980,
      "Ġreflect": 2981,
      "oles": 2982,
      "den": 2983,
      "rote": 2984,
      "Ġeasy": 2985,
      "uk": 2986,
      "Ġsoon": 2987,
      "abet": 2988,
      "isms": 2989,
      "Ġsust": 2990,
      "osing": 2991,
      "Ġdoing": 2992,
      "Ġdraw": 2993,
      "rig": 2994,
      "Ġexcept": 2995,
      "astic": 2996,
      "ĠIsrael": 2997,
      "ĠOther": 2998,
      "ilos": 2999,
      "reek": 3000,
      "ĠVir": 3001,
      "Ġstreng": 3002,
      "ĠChristian": 3003,
      "pe": 3004,
      "omet": 3005,
      "Ġseems": 3006,
      "Ġsection": 3007,
      "Ġ21": 3008,
      "ming": 3009,
      "lation": 3010,
      ");": 3011,
      "Ġquite": 3012,
      "Ġmicro": 3013,
      "Ġsafety": 3014,
      "Ġsevere": 3015,
      "Ġprep": 3016,
      "ĠMore": 3017,
      "Ġbeginning": 3018,
      "ĠInt": 3019,
      "Ġhimself": 3020,
      "Ġhar": 3021,
      "Ġidentify": 3022,
      "Ġreve": 3023,
      "imum": 3024,
      "Ġcompan": 3025,
      "Ġdetermine": 3026,
      "estic": 3027,
      "iers": 3028,
      "ĠAmericans": 3029,
      "lection": 3030,
      "Ġcover": 3031,
      "Ġbacter": 3032,
      "year": 3033,
      "Ġeval": 3034,
      "Ġtakes": 3035,
      "ĠInc": 3036,
      "Ġprint": 3037,
      "gar": 3038,
      "lied": 3039,
      "Ġteachers": 3040,
      "Ġideas": 3041,
      "Ġadminist": 3042,
      "rieved": 3043,
      "Ġhor": 3044,
      "23": 3045,
      "Ġmanufact": 3046,
      "Ġshare": 3047,
      "istry": 3048,
      "enced": 3049,
      "used": 3050,
      "ban": 3051,
      "Ġtend": 3052,
      "Ġreligious": 3053,
      "Ġlargest": 3054,
      "Ġbrought": 3055,
      "Ġson": 3056,
      "Ġdescribed": 3057,
      "Ġsites": 3058,
      "ties": 3059,
      "Ġfamilies": 3060,
      "ovember": 3061,
      "Ġspeed": 3062,
      "ama": 3063,
      "ĠMus": 3064,
      "Ġobt": 3065,
      "Ġ2006": 3066,
      "Ġsound": 3067,
      "Ġpositive": 3068,
      "oke": 3069,
      "room": 3070,
      "Ġevolution": 3071,
      "ĠJanuary": 3072,
      "Ġaltern": 3073,
      "Ġtraditional": 3074,
      "ĠAnt": 3075,
      "Ġdirectly": 3076,
      "Ġbal": 3077,
      "Ġmill": 3078,
      "term": 3079,
      "ellow": 3080,
      "mosp": 3081,
      "Ġsus": 3082,
      "ription": 3083,
      "ĠCity": 3084,
      "Ġborn": 3085,
      "Ġrout": 3086,
      "Ġnews": 3087,
      "Ġcorrect": 3088,
      "life": 3089,
      "ying": 3090,
      "ĠAfrica": 3091,
      "ĠAlthough": 3092,
      "bit": 3093,
      "Ġ,": 3094,
      "Ġ193": 3095,
      "Ġproced": 3096,
      "can": 3097,
      "EN": 3098,
      "24": 3099,
      "Ġlaws": 3100,
      "Ġcompared": 3101,
      "Ġhabit": 3102,
      "ruary": 3103,
      "ĠMexic": 3104,
      "ĠEngland": 3105,
      "Ġbenefits": 3106,
      "ields": 3107,
      "Ġforces": 3108,
      "Ġhost": 3109,
      "gn": 3110,
      "Ġprior": 3111,
      "ridge": 3112,
      "Ġsleep": 3113,
      "And": 3114,
      "Ġ23": 3115,
      "Ġlimited": 3116,
      "Ġ2013": 3117,
      "ĠCongress": 3118,
      "Ġefforts": 3119,
      "Ġdoesn": 3120,
      "Ġpoints": 3121,
      "ĠSeptember": 3122,
      "orks": 3123,
      "lin": 3124,
      "erg": 3125,
      "ford": 3126,
      "ĠNe": 3127,
      "ĠSan": 3128,
      "Ġcommunities": 3129,
      "Ġcitiz": 3130,
      "Ġlost": 3131,
      "Ġhumans": 3132,
      "eks": 3133,
      "Ġancient": 3134,
      "Ġbase": 3135,
      "Ġkids": 3136,
      "anks": 3137,
      "Ġdang": 3138,
      "Ġtests": 3139,
      "Ġder": 3140,
      "ĠCounty": 3141,
      "Ġdied": 3142,
      "Ġful": 3143,
      "ĠRuss": 3144,
      "Ġeth": 3145,
      "Ġspeak": 3146,
      "Ġox": 3147,
      "Ġstress": 3148,
      "Ġsupply": 3149,
      "iles": 3150,
      "Ġ2005": 3151,
      "yond": 3152,
      "ĠCanada": 3153,
      "Ġpp": 3154,
      "ĠGeneral": 3155,
      "ĠPol": 3156,
      "Ġprivate": 3157,
      "Ġlands": 3158,
      "ĠAfrican": 3159,
      "ĠOctober": 3160,
      "uments": 3161,
      "Ġdecre": 3162,
      "Ġworkers": 3163,
      "Ġveget": 3164,
      "Ġbott": 3165,
      "Ġarri": 3166,
      "Ġstarted": 3167,
      "ĠJes": 3168,
      "Ġfoods": 3169,
      "ĠChurch": 3170,
      "Ġprogress": 3171,
      "Ġformer": 3172,
      "itte": 3173,
      "Ġdisp": 3174,
      "ham": 3175,
      "Ġactive": 3176,
      "ĠReg": 3177,
      "Ġfather": 3178,
      "inct": 3179,
      "Ġpatient": 3180,
      "Ġcenter": 3181,
      "Ġinterp": 3182,
      "Ġanswer": 3183,
      "ster": 3184,
      "Ġhyd": 3185,
      "ĠDecember": 3186,
      "ĠJewish": 3187,
      "aces": 3188,
      "ĠDo": 3189,
      "Ġking": 3190,
      "Ġinfection": 3191,
      "Ġrapid": 3192,
      "Ġice": 3193,
      "ĠMon": 3194,
      "Ġperformance": 3195,
      "Ġsolar": 3196,
      "Ġbehind": 3197,
      "ondon": 3198,
      "ica": 3199,
      "Ġtold": 3200,
      "Ġagree": 3201,
      "Ġelse": 3202,
      "âĢ¦": 3203,
      "Ġrare": 3204,
      "Ġclin": 3205,
      "Ġtree": 3206,
      "Ġproperty": 3207,
      "mar": 3208,
      "Ġcommer": 3209,
      "Ġ2000": 3210,
      "orders": 3211,
      "Ġrates": 3212,
      "Ġhighly": 3213,
      "aly": 3214,
      "Ġharm": 3215,
      "ĠPark": 3216,
      "ously": 3217,
      "Ġlocated": 3218,
      "Ġcontains": 3219,
      "Ġunc": 3220,
      "Ġtools": 3221,
      "leb": 3222,
      "Ġmedia": 3223,
      "ĠArt": 3224,
      "Ġestablish": 3225,
      "Ġquickly": 3226,
      "Ġuseful": 3227,
      "Ġlength": 3228,
      "Ġgetting": 3229,
      "alled": 3230,
      "ĠTw": 3231,
      "Ġtiss": 3232,
      "Ġcontinued": 3233,
      "ĠCoun": 3234,
      "Ġfile": 3235,
      "ĠRetrieved": 3236,
      "Ġimages": 3237,
      "ĠSch": 3238,
      "Ġdrink": 3239,
      "Ġmid": 3240,
      "asons": 3241,
      "uries": 3242,
      "oming": 3243,
      "Ġhot": 3244,
      "Ġhands": 3245,
      "Ġlooking": 3246,
      "itis": 3247,
      "Ġimpl": 3248,
      "Ġinside": 3249,
      "Ġtrees": 3250,
      "Ġ195": 3251,
      "urg": 3252,
      "ĠGreat": 3253,
      "Ġvit": 3254,
      "Ġcapital": 3255,
      "vest": 3256,
      "Ġ22": 3257,
      "Ġcust": 3258,
      "ĠTra": 3259,
      "arr": 3260,
      "Ġcarry": 3261,
      "Ġleading": 3262,
      "Ġlif": 3263,
      "ĠSociety": 3264,
      "Ġhy": 3265,
      "fficient": 3266,
      "Ġaware": 3267,
      "Ġdifference": 3268,
      "Ġwrote": 3269,
      "One": 3270,
      "ĠHIV": 3271,
      "Ġcontribut": 3272,
      "Ġagricult": 3273,
      "Ġlines": 3274,
      "Ġcard": 3275,
      "ĠFirst": 3276,
      "Ġtransport": 3277,
      "cks": 3278,
      "iency": 3279,
      "Ġrock": 3280,
      "Ġremain": 3281,
      "ĠEast": 3282,
      "Ġbasis": 3283,
      "Ġfight": 3284,
      "ĠEducation": 3285,
      "itect": 3286,
      "ony": 3287,
      "ĠUs": 3288,
      "Ġadults": 3289,
      "lam": 3290,
      "Ġeasily": 3291,
      "Ġbillion": 3292,
      "equ": 3293,
      "arian": 3294,
      "ĠOf": 3295,
      "ĠLaw": 3296,
      "Ġweeks": 3297,
      "apter": 3298,
      "70": 3299,
      "ils": 3300,
      "idents": 3301,
      "Ġnothing": 3302,
      "Ġplaces": 3303,
      "itting": 3304,
      "ospital": 3305,
      "Ġgot": 3306,
      "Ġobjects": 3307,
      "Ġbit": 3308,
      "fect": 3309,
      "ĠWeb": 3310,
      "encies": 3311,
      "Ġdaily": 3312,
      "At": 3313,
      "Ġwa": 3314,
      "Ġang": 3315,
      "hens": 3316,
      "iques": 3317,
      "ĠTechn": 3318,
      "icated": 3319,
      "Ġtransm": 3320,
      "Ġsaw": 3321,
      "Ġdark": 3322,
      "Ġmolec": 3323,
      "Ġachieve": 3324,
      "inated": 3325,
      "rag": 3326,
      "ara": 3327,
      "ĠJournal": 3328,
      "Ġjo": 3329,
      "ĠNovember": 3330,
      "Ġquant": 3331,
      "aters": 3332,
      "Ġdiseases": 3333,
      "ĠSw": 3334,
      "IT": 3335,
      "inese": 3336,
      "Ġcalc": 3337,
      "Ġearlier": 3338,
      "izations": 3339,
      "Ġsomeone": 3340,
      "Ġseason": 3341,
      "Ġfollowed": 3342,
      "Ġdrugs": 3343,
      "orge": 3344,
      "Ġsummer": 3345,
      "Ġprotection": 3346,
      "Ġten": 3347,
      "Ġdry": 3348,
      "Ġtrade": 3349,
      "ED": 3350,
      "Ġcred": 3351,
      "Ġremains": 3352,
      "Ġbad": 3353,
      "Ġfoot": 3354,
      "craft": 3355,
      "Ġfeatures": 3356,
      "men": 3357,
      "Ġfinan": 3358,
      "uff": 3359,
      "head": 3360,
      "Ġep": 3361,
      "Ġvict": 3362,
      "Ġprotein": 3363,
      "water": 3364,
      "ĠPat": 3365,
      "29": 3366,
      "Ġarm": 3367,
      "Ġadop": 3368,
      "Ġdead": 3369,
      "Ġapprox": 3370,
      "âĢ¢": 3371,
      "Ġrecently": 3372,
      "Ġprinc": 3373,
      "ĠNot": 3374,
      "Ġexpect": 3375,
      "Ġmiddle": 3376,
      "ĠMy": 3377,
      "Ġund": 3378,
      "ĠFebruary": 3379,
      "Ġbul": 3380,
      "coh": 3381,
      "Ġinfluence": 3382,
      "Ġmember": 3383,
      "Ġvideo": 3384,
      "Ġfram": 3385,
      "Ġallows": 3386,
      "Ġdemand": 3387,
      "Ġoffer": 3388,
      "Ġdecision": 3389,
      "Ġappropriate": 3390,
      "ĠRo": 3391,
      "hemat": 3392,
      "Ġinstru": 3393,
      "Ġextra": 3394,
      "sect": 3395,
      "ĠUnion": 3396,
      "Ġcourt": 3397,
      "Ġminutes": 3398,
      "ought": 3399,
      "Ġeight": 3400,
      "Ġaspect": 3401,
      "Ġcosts": 3402,
      "Ġcollection": 3403,
      "ĠFrom": 3404,
      "ĠCour": 3405,
      "Ġfuel": 3406,
      "Ġmemory": 3407,
      "Ġnamed": 3408,
      "ocr": 3409,
      "Ġpurpose": 3410,
      "Ġeye": 3411,
      "anish": 3412,
      "Ġunique": 3413,
      "Ġhous": 3414,
      "ender": 3415,
      "ĠBi": 3416,
      "rest": 3417,
      "ĠDay": 3418,
      "Ġcrop": 3419,
      "alt": 3420,
      "Ġcapac": 3421,
      "Ġsituation": 3422,
      "ST": 3423,
      "ari": 3424,
      "Ġchalleng": 3425,
      "Ġdate": 3426,
      "Ġatmosp": 3427,
      "reet": 3428,
      "rogen": 3429,
      "Ġgenetic": 3430,
      "unch": 3431,
      "Ġmultiple": 3432,
      "Ġdestro": 3433,
      "Ġprojects": 3434,
      "Ġstandards": 3435,
      "ipment": 3436,
      "Ġgradu": 3437,
      "Ġadj": 3438,
      "Ġexact": 3439,
      "ologies": 3440,
      "Ġasked": 3441,
      "ĠArch": 3442,
      "By": 3443,
      "sec": 3444,
      "omy": 3445,
      "bl": 3446,
      "Ġvalues": 3447,
      "26": 3448,
      "Ġult": 3449,
      "ĠAssociation": 3450,
      "Ġden": 3451,
      "ula": 3452,
      "Ġexpected": 3453,
      "ĠHouse": 3454,
      "ingu": 3455,
      "Ġwebsite": 3456,
      "AL": 3457,
      "iber": 3458,
      "racy": 3459,
      "Ġstra": 3460,
      "itch": 3461,
      "Ġsequ": 3462,
      "Ġconstruction": 3463,
      "Ġcou": 3464,
      "Ġplaced": 3465,
      "Ġpregn": 3466,
      "rees": 3467,
      "ĠDis": 3468,
      "airs": 3469,
      "Ġolder": 3470,
      "AC": 3471,
      "Ġexercise": 3472,
      "Ġlegal": 3473,
      "Ġelements": 3474,
      "ĠLondon": 3475,
      "Ġalone": 3476,
      "Ġcompanies": 3477,
      "Ġwalk": 3478,
      "Ġsecurity": 3479,
      "Ġcritical": 3480,
      "nov": 3481,
      "Ġreceive": 3482,
      "Ġmission": 3483,
      "ĠYour": 3484,
      "ĠConf": 3485,
      "21": 3486,
      "Ġformed": 3487,
      "wide": 3488,
      "Ġeffort": 3489,
      "abetes": 3490,
      "Ġtable": 3491,
      "inate": 3492,
      "Ġcool": 3493,
      "28": 3494,
      "iot": 3495,
      "Ġgave": 3496,
      "ĠRoman": 3497,
      "aught": 3498,
      "Ġtit": 3499,
      "Ġoccup": 3500,
      "Ġdiscovered": 3501,
      "Ġfast": 3502,
      "Ġplanet": 3503,
      "Ġsoftware": 3504,
      "Ġsurround": 3505,
      "Ġkill": 3506,
      "imal": 3507,
      "Ġeconomy": 3508,
      "off": 3509,
      "Ġrequires": 3510,
      "Ġsch": 3511,
      "Ġbreast": 3512,
      "Ġpan": 3513,
      "Ġenj": 3514,
      "ĠSystem": 3515,
      "iece": 3516,
      "Ġbirds": 3517,
      "ĠEnvironment": 3518,
      "Ġpen": 3519,
      "ĠCouncil": 3520,
      "Ġpack": 3521,
      "ĠSee": 3522,
      "rates": 3523,
      "Ġpresident": 3524,
      "king": 3525,
      "Ġmom": 3526,
      "ittee": 3527,
      "time": 3528,
      "Ġaud": 3529,
      "oted": 3530,
      "Ġessential": 3531,
      "Ġcorn": 3532,
      "Ġapplication": 3533,
      "atin": 3534,
      "Ġsymb": 3535,
      "Ġbeg": 3536,
      "Ġbecomes": 3537,
      "Ġexposure": 3538,
      "ĠDevelop": 3539,
      "27": 3540,
      "Ġ60": 3541,
      "Ġstay": 3542,
      "Ġ2004": 3543,
      "Ġacid": 3544,
      "Ġ28": 3545,
      "Ġadapt": 3546,
      "ĠChinese": 3547,
      "Ġfinal": 3548,
      "Ġbeyond": 3549,
      "Ġrise": 3550,
      "Ġsn": 3551,
      "oring": 3552,
      "ĠKe": 3553,
      "Ġtele": 3554,
      "So": 3555,
      "Ġexec": 3556,
      "izes": 3557,
      "Ġbaby": 3558,
      "Ġensure": 3559,
      "ĠSur": 3560,
      "Ġallowed": 3561,
      "Ġaim": 3562,
      "Ġspirit": 3563,
      "entially": 3564,
      "Ġrain": 3565,
      "aced": 3566,
      "Ġversion": 3567,
      "ĠJesus": 3568,
      "Ġmention": 3569,
      "ĠProt": 3570,
      "gery": 3571,
      "Ġtox": 3572,
      "Ġmonitor": 3573,
      "Ġones": 3574,
      "Ġ2003": 3575,
      "odies": 3576,
      "rition": 3577,
      "enty": 3578,
      "Ġweb": 3579,
      "resh": 3580,
      "Ġteaching": 3581,
      "Ġmis": 3582,
      "Ġrespond": 3583,
      "Ġwinter": 3584,
      "Ġpredict": 3585,
      "Ġgoal": 3586,
      "ĠHigh": 3587,
      "Ġreach": 3588,
      "Ġperhaps": 3589,
      "Ġuser": 3590,
      "ky": 3591,
      "pped": 3592,
      "amer": 3593,
      "ĠDavid": 3594,
      "aid": 3595,
      "gypt": 3596,
      "ĠProgram": 3597,
      "Ġimportance": 3598,
      "Ġgives": 3599,
      "Ġprocesses": 3600,
      "edom": 3601,
      "Ġ26": 3602,
      "ĠUN": 3603,
      "Ex": 3604,
      "Ġreports": 3605,
      "udd": 3606,
      "Ġweather": 3607,
      "cohol": 3608,
      "Ġhope": 3609,
      "Ġroom": 3610,
      "Ġcurrently": 3611,
      "Ġvirt": 3612,
      "atur": 3613,
      "Ġgame": 3614,
      "ype": 3615,
      "Ġappears": 3616,
      "come": 3617,
      "ĠVal": 3618,
      "Ġanything": 3619,
      "Ġanti": 3620,
      "Ġwrite": 3621,
      "ĠJames": 3622,
      "Ġresponsible": 3623,
      "Ġgard": 3624,
      "su": 3625,
      "semb": 3626,
      "Ġhon": 3627,
      "Ġdisplay": 3628,
      "Ġ190": 3629,
      "Ġcold": 3630,
      "Ġball": 3631,
      "Ġanaly": 3632,
      "Ġwoman": 3633,
      "Ġrule": 3634,
      "Ġsmaller": 3635,
      "II": 3636,
      "ixed": 3637,
      "Ġscreen": 3638,
      "Ġsustain": 3639,
      "olar": 3640,
      "back": 3641,
      "resp": 3642,
      "Ġnegative": 3643,
      "eech": 3644,
      "ĠDNA": 3645,
      "ĠTex": 3646,
      "ĠGovernment": 3647,
      "ests": 3648,
      "known": 3649,
      "iar": 3650,
      "Ġlegis": 3651,
      "Ġ27": 3652,
      "Ġstrateg": 3653,
      "vant": 3654,
      "These": 3655,
      "Ġdepend": 3656,
      "Ġtechniques": 3657,
      "irection": 3658,
      "Ġtherapy": 3659,
      "Ġstru": 3660,
      "Ġidentified": 3661,
      "Ġacqu": 3662,
      "phas": 3663,
      "Ġvill": 3664,
      "Ġphilos": 3665,
      "Ġlocation": 3666,
      "Ġfriends": 3667,
      "Ġwon": 3668,
      "Ġtesting": 3669,
      "Ġcopy": 3670,
      "ĠDuring": 3671,
      "ciples": 3672,
      "Ġemot": 3673,
      "Ġoccurs": 3674,
      "Ġequipment": 3675,
      "Ġcode": 3676,
      "erved": 3677,
      "Ġpeace": 3678,
      "rolled": 3679,
      "DA": 3680,
      "Ġrelatively": 3681,
      "Ġtowards": 3682,
      "Ġhelps": 3683,
      "Ġdevice": 3684,
      "Ġriver": 3685,
      "BN": 3686,
      "Ġeyes": 3687,
      "asion": 3688,
      "Ġwaste": 3689,
      "EC": 3690,
      "Ġfear": 3691,
      "Ġgold": 3692,
      "Ġmodels": 3693,
      "ĠPublic": 3694,
      "Ġneigh": 3695,
      "ste": 3696,
      "Ġdevices": 3697,
      "ĠGermany": 3698,
      "ĠRev": 3699,
      "lege": 3700,
      "Ġconsequ": 3701,
      "Ġcontinu": 3702,
      "á¹": 3703,
      "enth": 3704,
      "Ġforeign": 3705,
      "Ġfindings": 3706,
      "Ġsuccessful": 3707,
      "Ġnames": 3708,
      "Ġcultural": 3709,
      "ĠPhil": 3710,
      "Ġegg": 3711,
      "Ġcitizens": 3712,
      "ĠInternet": 3713,
      "ocks": 3714,
      "more": 3715,
      "ĠCommun": 3716,
      "Ġceleb": 3717,
      "ĠVirgin": 3718,
      "Ġhyp": 3719,
      "Ġmajority": 3720,
      "ĠFrance": 3721,
      "Ġaffected": 3722,
      "nes": 3723,
      "Ġenjoy": 3724,
      "Ġmental": 3725,
      "Ġstar": 3726,
      "aint": 3727,
      "ĠGreen": 3728,
      "Pro": 3729,
      "Ġdegree": 3730,
      "bre": 3731,
      "Ġorganization": 3732,
      "vert": 3733,
      "Ġadvant": 3734,
      "Ġhistorical": 3735,
      "oe": 3736,
      "Ġblock": 3737,
      "Ġstatus": 3738,
      "Ġ...": 3739,
      "book": 3740,
      "Ġreduced": 3741,
      "ĠPal": 3742,
      "Ġequal": 3743,
      "oud": 3744,
      "Ġimag": 3745,
      "ĠEven": 3746,
      "fort": 3747,
      "ĠMich": 3748,
      "Ġpet": 3749,
      "ĠRed": 3750,
      "ĠTrans": 3751,
      "Ġmap": 3752,
      "ologist": 3753,
      "Ġoffice": 3754,
      "Ġmut": 3755,
      "aign": 3756,
      "ĠProf": 3757,
      "ĠSim": 3758,
      "Un": 3759,
      "ament": 3760,
      "Ġrules": 3761,
      "ogen": 3762,
      "Ġapplications": 3763,
      "Some": 3764,
      "ĠVol": 3765,
      "ĠAustralia": 3766,
      "Ġproviding": 3767,
      "ĠRober": 3768,
      "oration": 3769,
      "Ġthousands": 3770,
      "ĠMuseum": 3771,
      "90": 3772,
      "cont": 3773,
      "ĠCom": 3774,
      "rief": 3775,
      "ĠNASA": 3776,
      "Ġthinking": 3777,
      "Ġbeaut": 3778,
      "ĠAng": 3779,
      "ĠMod": 3780,
      "antic": 3781,
      "ĠJews": 3782,
      "Ġpassed": 3783,
      "oma": 3784,
      "Ġillust": 3785,
      "Ġfinancial": 3786,
      "Ġbelief": 3787,
      "oday": 3788,
      "Ġexpand": 3789,
      "Ġstaff": 3790,
      "Ġ2001": 3791,
      "che": 3792,
      "Ġcop": 3793,
      "ĠBecause": 3794,
      "Ġcoming": 3795,
      "Ġchurch": 3796,
      "iny": 3797,
      "ĠEgypt": 3798,
      "Ġcompar": 3799,
      "Ġcities": 3800,
      "Ġocean": 3801,
      "Ġroad": 3802,
      "aled": 3803,
      "Ġlat": 3804,
      "Ġbenefit": 3805,
      "ellig": 3806,
      "Ġconflic": 3807,
      "ribute": 3808,
      "itable": 3809,
      "ĠMary": 3810,
      "Ġelectr": 3811,
      "Ġscale": 3812,
      "ĠWater": 3813,
      "ĠSince": 3814,
      "Ġstage": 3815,
      "Ġregions": 3816,
      "ĠMa": 3817,
      "Ġfair": 3818,
      "ibly": 3819,
      "Ġ2002": 3820,
      "ald": 3821,
      "ira": 3822,
      "Ġseven": 3823,
      "Ġexhib": 3824,
      "ida": 3825,
      "Ġpoly": 3826,
      "omas": 3827,
      "ographic": 3828,
      "Ġveh": 3829,
      "Ġgene": 3830,
      "ĠWestern": 3831,
      "Ġnor": 3832,
      "ĠSpec": 3833,
      "Ġeverything": 3834,
      "Ġleaves": 3835,
      "Ġdistance": 3836,
      "iverse": 3837,
      "rations": 3838,
      "Ġbelieved": 3839,
      "Ġworked": 3840,
      "house": 3841,
      "pire": 3842,
      "Ġtrying": 3843,
      "With": 3844,
      "Ġcompletely": 3845,
      "ects": 3846,
      "orms": 3847,
      "Ġdidn": 3848,
      "ĠAccording": 3849,
      "Ġleave": 3850,
      "Ġopportunity": 3851,
      "Ġapproximately": 3852,
      "Ġapplied": 3853,
      "Ġenter": 3854,
      "ĠThen": 3855,
      "Ġtypically": 3856,
      "35": 3857,
      "Ġshowed": 3858,
      "Ġconstruct": 3859,
      "Ġunit": 3860,
      "AS": 3861,
      "Ġchanged": 3862,
      "ĠGeorge": 3863,
      "Ġrecommend": 3864,
      "Ġsurvey": 3865,
      "ĠOff": 3866,
      "Ġbreat": 3867,
      "Ġmag": 3868,
      "Ġpurch": 3869,
      "Ġarchitect": 3870,
      "Ġgoes": 3871,
      "riage": 3872,
      "Ġassist": 3873,
      "Ġdifferences": 3874,
      "Ġexamples": 3875,
      "ĠTexas": 3876,
      "ĠRepublic": 3877,
      "ĠMor": 3878,
      "ĠLord": 3879,
      "ĠOb": 3880,
      "odes": 3881,
      "Ġ186": 3882,
      "Ġseparate": 3883,
      "Ġassum": 3884,
      "Ġinteresting": 3885,
      "Ġillness": 3886,
      "Ġcommercial": 3887,
      "Ġiniti": 3888,
      "Ġmiss": 3889,
      "ĠJer": 3890,
      "idel": 3891,
      "Ġmeasures": 3892,
      "ĠMars": 3893,
      "ĠInter": 3894,
      "Ġswe": 3895,
      "Ġfemale": 3896,
      "Ġdirection": 3897,
      "ĠMiss": 3898,
      "Ġnuclear": 3899,
      "cles": 3900,
      "Ġprin": 3901,
      "Ġdestroy": 3902,
      "pris": 3903,
      "Ar": 3904,
      "Ġreasons": 3905,
      "ĠInst": 3906,
      "Ġadm": 3907,
      "Ġexisting": 3908,
      "Ġrecords": 3909,
      "New": 3910,
      "hors": 3911,
      "Ġfunctions": 3912,
      "Ġpow": 3913,
      "Ġfigure": 3914,
      "78": 3915,
      "Ġobserved": 3916,
      "Ġestimated": 3917,
      "ĠCO": 3918,
      "ĠCollege": 3919,
      "Ġpowerful": 3920,
      "Ġteacher": 3921,
      "Ġpractices": 3922,
      "Ġfaith": 3923,
      "____": 3924,
      "ĠFound": 3925,
      "ĠThus": 3926,
      "Ġbacteria": 3927,
      "atab": 3928,
      "ĠMexico": 3929,
      "ĠISBN": 3930,
      "cious": 3931,
      "ĠBra": 3932,
      "ector": 3933,
      "Ġmig": 3934,
      "Ġcateg": 3935,
      "ience": 3936,
      "Ġeating": 3937,
      "ession": 3938,
      "ensity": 3939,
      "Ġspect": 3940,
      "Ġelement": 3941,
      "ĠCourt": 3942,
      "RE": 3943,
      "wards": 3944,
      "Ġlimit": 3945,
      "load": 3946,
      "Ġreleased": 3947,
      "uls": 3948,
      "ĠPaul": 3949,
      "Ġcreating": 3950,
      "ĠHere": 3951,
      "co": 3952,
      "Ġradio": 3953,
      "Ġsolution": 3954,
      "Ġconstant": 3955,
      "Ġcommonly": 3956,
      "ĠRef": 3957,
      "ĠFl": 3958,
      "Ġshape": 3959,
      "icate": 3960,
      "iments": 3961,
      "que": 3962,
      "ĠLou": 3963,
      "Ġplans": 3964,
      "ero": 3965,
      "Ġjoint": 3966,
      "Ġmoving": 3967,
      "ĠAir": 3968,
      "ĠHuman": 3969,
      "Ġradiation": 3970,
      "Ġ29": 3971,
      "Ġpric": 3972,
      "ĠCath": 3973,
      "Ġmoved": 3974,
      "ĠDec": 3975,
      "ĠJapanese": 3976,
      "force": 3977,
      "osa": 3978,
      "ĠJust": 3979,
      "Ġrat": 3980,
      "Ġdoub": 3981,
      "ĠMount": 3982,
      "pir": 3983,
      "Ġjournal": 3984,
      "ĠNow": 3985,
      "Ġemissions": 3986,
      "Ġnative": 3987,
      "Ġgir": 3988,
      "45": 3989,
      "Ġpresented": 3990,
      "acific": 3991,
      "Ġtreated": 3992,
      "Ġnote": 3993,
      "Ġpresence": 3994,
      "Ġcustom": 3995,
      "Ġsac": 3996,
      "Ġ:": 3997,
      "ĠService": 3998,
      "Ġbound": 3999,
      "Ġwhom": 4000,
      "Ġusers": 4001,
      "orial": 4002,
      "ken": 4003,
      "enge": 4004,
      "Ġbran": 4005,
      "Ġ+": 4006,
      "ding": 4007,
      "Ġsem": 4008,
      "Ġeventually": 4009,
      "ĠLa": 4010,
      "Ġspring": 4011,
      "Ġhom": 4012,
      "Ġmax": 4013,
      "Ġblue": 4014,
      "ean": 4015,
      "ĠFin": 4016,
      "Ġautom": 4017,
      "za": 4018,
      "ĠArmy": 4019,
      "Ġcand": 4020,
      "Ġmer": 4021,
      "cast": 4022,
      "Ġevalu": 4023,
      "Ġbra": 4024,
      "ĠCur": 4025,
      "Ġcru": 4026,
      "Ġphysic": 4027,
      "Ġmaintain": 4028,
      "Ġparty": 4029,
      "ĠPlan": 4030,
      "part": 4031,
      "Ġtum": 4032,
      "icip": 4033,
      "Ġcommunication": 4034,
      "Ġcapacity": 4035,
      "Ġrepe": 4036,
      "ĠAre": 4037,
      "eding": 4038,
      "iable": 4039,
      "....": 4040,
      "ĠTheir": 4041,
      "Ġrich": 4042,
      "Ġstrength": 4043,
      "Ġinstruct": 4044,
      "While": 4045,
      "Ġupper": 4046,
      "Ġreference": 4047,
      "Ġhighest": 4048,
      "'ve": 4049,
      "Ġrob": 4050,
      "Ġpicture": 4051,
      "'ll": 4052,
      "ĠAlso": 4053,
      "Ġwest": 4054,
      "abilities": 4055,
      "ocol": 4056,
      "Ġtrack": 4057,
      "Ġincreases": 4058,
      "erate": 4059,
      "ologists": 4060,
      "Ġcarried": 4061,
      "with": 4062,
      "Ġemphas": 4063,
      "Ġpopulations": 4064,
      "eff": 4065,
      "hy": 4066,
      "igned": 4067,
      "Ġpatterns": 4068,
      "33": 4069,
      "eared": 4070,
      "ĠRich": 4071,
      "rehens": 4072,
      "road": 4073,
      "Ġrelease": 4074,
      "Ġkilled": 4075,
      "Ġsymbol": 4076,
      "Ġdecades": 4077,
      "ulf": 4078,
      "Ġdefined": 4079,
      "related": 4080,
      "bed": 4081,
      "ĠRead": 4082,
      "Ġdiabetes": 4083,
      "ĠMedical": 4084,
      "Ġsuggests": 4085,
      "ĠAv": 4086,
      "Ġprice": 4087,
      "Ġheavy": 4088,
      "Ġtou": 4089,
      "ĠProject": 4090,
      "ords": 4091,
      "HE": 4092,
      "Ġincor": 4093,
      "ĠSen": 4094,
      "Ġchance": 4095
    },
    "merges": [
      [
        "Ġ",
        "t"
      ],
      [
        "Ġ",
        "a"
      ],
      [
        "h",
        "e"
      ],
      [
        "i",
        "n"
      ],
      [
        "r",
        "e"
      ],
      [
        "Ġt",
        "he"
      ],
      [
        "o",
        "n"
      ],
      [
        "e",
        "r"
      ],
      [
        "Ġ",
        "o"
      ],
      [
        "a",
        "t"
      ],
      [
        "Ġ",
        "s"
      ],
      [
        "e",
        "n"
      ],
      [
        "Ġ",
        "c"
      ],
      [
        "e",
        "s"
      ],
      [
        "Ġ",
        "w"
      ],
      [
        "i",
        "s"
      ],
      [
        "n",
        "d"
      ],
      [
        "o",
        "r"
      ],
      [
        "i",
        "t"
      ],
      [
        "Ġ",
        "p"
      ],
      [
        "e",
        "d"
      ],
      [
        "a",
        "l"
      ],
      [
        "Ġo",
        "f"
      ],
      [
        "Ġ",
        "b"
      ],
      [
        "Ġ",
        "f"
      ],
      [
        "a",
        "n"
      ],
      [
        "Ġ",
        "in"
      ],
      [
        "a",
        "r"
      ],
      [
        "in",
        "g"
      ],
      [
        "o",
        "u"
      ],
      [
        "Ġ",
        "m"
      ],
      [
        "Ġa",
        "nd"
      ],
      [
        "i",
        "c"
      ],
      [
        "Ġt",
        "o"
      ],
      [
        "i",
        "on"
      ],
      [
        "Ġ",
        "d"
      ],
      [
        "r",
        "o"
      ],
      [
        "l",
        "e"
      ],
      [
        "a",
        "s"
      ],
      [
        "Ġ",
        "h"
      ],
      [
        "en",
        "t"
      ],
      [
        "Ġt",
        "h"
      ],
      [
        "c",
        "t"
      ],
      [
        "i",
        "l"
      ],
      [
        "Ġ",
        "e"
      ],
      [
        "Ġ",
        "re"
      ],
      [
        "o",
        "m"
      ],
      [
        "Ġ",
        "n"
      ],
      [
        "Ġ",
        "l"
      ],
      [
        "s",
        "t"
      ],
      [
        "v",
        "e"
      ],
      [
        "l",
        "y"
      ],
      [
        "Ġb",
        "e"
      ],
      [
        "Ġ",
        "T"
      ],
      [
        "Ġ",
        "is"
      ],
      [
        "s",
        "e"
      ],
      [
        "o",
        "l"
      ],
      [
        "at",
        "ion"
      ],
      [
        "Ġ",
        "g"
      ],
      [
        "i",
        "d"
      ],
      [
        "i",
        "m"
      ],
      [
        "c",
        "e"
      ],
      [
        "Ġ",
        "A"
      ],
      [
        "u",
        "t"
      ],
      [
        "r",
        "a"
      ],
      [
        "e",
        "t"
      ],
      [
        "o",
        "t"
      ],
      [
        "Ġ",
        "S"
      ],
      [
        "u",
        "r"
      ],
      [
        "c",
        "h"
      ],
      [
        "Ġf",
        "or"
      ],
      [
        "i",
        "g"
      ],
      [
        "o",
        "w"
      ],
      [
        "â",
        "Ģ"
      ],
      [
        "Ġ",
        "C"
      ],
      [
        "Ġ",
        "on"
      ],
      [
        "Ġth",
        "at"
      ],
      [
        "v",
        "er"
      ],
      [
        "Ġ",
        "u"
      ],
      [
        "Ġ",
        "I"
      ],
      [
        "Ġs",
        "t"
      ],
      [
        "i",
        "r"
      ],
      [
        "a",
        "m"
      ],
      [
        "u",
        "l"
      ],
      [
        "a",
        "y"
      ],
      [
        "a",
        "d"
      ],
      [
        "e",
        "l"
      ],
      [
        "Ġa",
        "s"
      ],
      [
        "it",
        "h"
      ],
      [
        "he",
        "r"
      ],
      [
        "Ġp",
        "ro"
      ],
      [
        "Ġ",
        "y"
      ],
      [
        "Ġ",
        "1"
      ],
      [
        "Ġc",
        "on"
      ],
      [
        "Ġ",
        "M"
      ],
      [
        "Ġa",
        "n"
      ],
      [
        "Ġ",
        "("
      ],
      [
        "Ġw",
        "ith"
      ],
      [
        "Ġa",
        "re"
      ],
      [
        "Ġw",
        "h"
      ],
      [
        "Ġo",
        "r"
      ],
      [
        "t",
        "er"
      ],
      [
        "Ġ",
        "P"
      ],
      [
        "i",
        "f"
      ],
      [
        "ĠT",
        "he"
      ],
      [
        "Ġ",
        "it"
      ],
      [
        "Ġa",
        "l"
      ],
      [
        "o",
        "d"
      ],
      [
        "m",
        "ent"
      ],
      [
        "t",
        "h"
      ],
      [
        "is",
        "t"
      ],
      [
        "g",
        "e"
      ],
      [
        "o",
        "p"
      ],
      [
        "at",
        "e"
      ],
      [
        "Ġ",
        "B"
      ],
      [
        "er",
        "s"
      ],
      [
        "Ġd",
        "e"
      ],
      [
        "i",
        "es"
      ],
      [
        "il",
        "l"
      ],
      [
        "a",
        "b"
      ],
      [
        "e",
        "re"
      ],
      [
        "Ġ",
        "H"
      ],
      [
        "u",
        "s"
      ],
      [
        "Ġ",
        "he"
      ],
      [
        "Ġe",
        "x"
      ],
      [
        "re",
        "s"
      ],
      [
        "u",
        "m"
      ],
      [
        "es",
        "t"
      ],
      [
        "e",
        "ct"
      ],
      [
        "es",
        "s"
      ],
      [
        "Ġb",
        "y"
      ],
      [
        "ro",
        "m"
      ],
      [
        "Ġy",
        "ou"
      ],
      [
        "Ġc",
        "om"
      ],
      [
        "l",
        "d"
      ],
      [
        "it",
        "y"
      ],
      [
        "o",
        "re"
      ],
      [
        "a",
        "nd"
      ],
      [
        "a",
        "c"
      ],
      [
        "o",
        "s"
      ],
      [
        "Ġs",
        "u"
      ],
      [
        "Ġa",
        "t"
      ],
      [
        "r",
        "i"
      ],
      [
        "Ġ",
        "W"
      ],
      [
        "Ġw",
        "as"
      ],
      [
        "e",
        "m"
      ],
      [
        "Ġ",
        "D"
      ],
      [
        "Ġ",
        "v"
      ],
      [
        "i",
        "ve"
      ],
      [
        "Ġ",
        "R"
      ],
      [
        "a",
        "in"
      ],
      [
        "n",
        "t"
      ],
      [
        "Ġ",
        "E"
      ],
      [
        "q",
        "u"
      ],
      [
        "ig",
        "h"
      ],
      [
        "p",
        "p"
      ],
      [
        "an",
        "t"
      ],
      [
        "Ġf",
        "rom"
      ],
      [
        "k",
        "e"
      ],
      [
        "Ġ",
        "F"
      ],
      [
        "u",
        "d"
      ],
      [
        "Ġh",
        "a"
      ],
      [
        "Ġ",
        "2"
      ],
      [
        "Ġ",
        "N"
      ],
      [
        "o",
        "c"
      ],
      [
        "or",
        "t"
      ],
      [
        "i",
        "v"
      ],
      [
        "Ġc",
        "h"
      ],
      [
        "Ġs",
        "e"
      ],
      [
        "Ġ",
        "G"
      ],
      [
        "Ġn",
        "e"
      ],
      [
        "Ġ",
        "r"
      ],
      [
        "0",
        "0"
      ],
      [
        "Ġn",
        "ot"
      ],
      [
        "Ġ",
        "L"
      ],
      [
        "u",
        "re"
      ],
      [
        "u",
        "n"
      ],
      [
        "ic",
        "al"
      ],
      [
        "ar",
        "t"
      ],
      [
        "Ġc",
        "an"
      ],
      [
        "i",
        "al"
      ],
      [
        "Ġha",
        "ve"
      ],
      [
        "o",
        "g"
      ],
      [
        "Ġ",
        "le"
      ],
      [
        "Ġs",
        "h"
      ],
      [
        "Ġs",
        "p"
      ],
      [
        "âĢ",
        "Ļ"
      ],
      [
        "al",
        "l"
      ],
      [
        "Ġ",
        "en"
      ],
      [
        "igh",
        "t"
      ],
      [
        "ic",
        "h"
      ],
      [
        "Ġth",
        "is"
      ],
      [
        "p",
        "t"
      ],
      [
        "ou",
        "ld"
      ],
      [
        "r",
        "ou"
      ],
      [
        "t",
        "her"
      ],
      [
        "T",
        "he"
      ],
      [
        "Ġa",
        "b"
      ],
      [
        "g",
        "h"
      ],
      [
        "ou",
        "r"
      ],
      [
        "'",
        "s"
      ],
      [
        "o",
        "st"
      ],
      [
        "at",
        "ed"
      ],
      [
        "e",
        "ar"
      ],
      [
        "Ġ",
        "J"
      ],
      [
        "ion",
        "s"
      ],
      [
        "Ġw",
        "or"
      ],
      [
        "om",
        "e"
      ],
      [
        "d",
        "u"
      ],
      [
        "in",
        "e"
      ],
      [
        "Ġ",
        "O"
      ],
      [
        "ar",
        "d"
      ],
      [
        "a",
        "g"
      ],
      [
        "Ġ",
        "U"
      ],
      [
        "ou",
        "t"
      ],
      [
        "Ġw",
        "e"
      ],
      [
        "as",
        "t"
      ],
      [
        "p",
        "er"
      ],
      [
        "el",
        "l"
      ],
      [
        "f",
        "f"
      ],
      [
        "Ġ",
        "âĢ"
      ],
      [
        "an",
        "s"
      ],
      [
        "Ġ",
        "im"
      ],
      [
        "Ġp",
        "l"
      ],
      [
        "e",
        "c"
      ],
      [
        "Ġu",
        "s"
      ],
      [
        "Ġin",
        "t"
      ],
      [
        "Ġthe",
        "ir"
      ],
      [
        "p",
        "l"
      ],
      [
        "Ġwh",
        "ich"
      ],
      [
        "a",
        "ge"
      ],
      [
        "ĠI",
        "n"
      ],
      [
        "a",
        "ct"
      ],
      [
        "e",
        "w"
      ],
      [
        "u",
        "st"
      ],
      [
        "Ġ",
        "\""
      ],
      [
        "ou",
        "s"
      ],
      [
        "a",
        "k"
      ],
      [
        "a",
        "re"
      ],
      [
        "id",
        "e"
      ],
      [
        "Ġ",
        "k"
      ],
      [
        "i",
        "z"
      ],
      [
        "Ġw",
        "he"
      ],
      [
        "a",
        "p"
      ],
      [
        "i",
        "b"
      ],
      [
        "Ġ1",
        "9"
      ],
      [
        "ar",
        "y"
      ],
      [
        "Ġcon",
        "t"
      ],
      [
        "Ġal",
        "l"
      ],
      [
        "i",
        "a"
      ],
      [
        "Ġthe",
        "y"
      ],
      [
        "Ġa",
        "d"
      ],
      [
        "on",
        "g"
      ],
      [
        "en",
        "d"
      ],
      [
        "Ġin",
        "c"
      ],
      [
        "c",
        "c"
      ],
      [
        "Ġd",
        "is"
      ],
      [
        "r",
        "u"
      ],
      [
        "ul",
        "t"
      ],
      [
        "o",
        "od"
      ],
      [
        "ation",
        "s"
      ],
      [
        "Ġw",
        "ere"
      ],
      [
        "Ġre",
        "s"
      ],
      [
        "Ġh",
        "as"
      ],
      [
        "or",
        "m"
      ],
      [
        "ve",
        "l"
      ],
      [
        "Ġm",
        "ore"
      ],
      [
        "Ġw",
        "ill"
      ],
      [
        "Ġcom",
        "p"
      ],
      [
        "i",
        "p"
      ],
      [
        "at",
        "er"
      ],
      [
        "i",
        "re"
      ],
      [
        "Ġd",
        "o"
      ],
      [
        "en",
        "ce"
      ],
      [
        "Ġc",
        "l"
      ],
      [
        "Ġo",
        "ther"
      ],
      [
        "Ġb",
        "ut"
      ],
      [
        "Ġp",
        "er"
      ],
      [
        "il",
        "d"
      ],
      [
        "Ġm",
        "an"
      ],
      [
        "u",
        "al"
      ],
      [
        "k",
        "s"
      ],
      [
        "s",
        "o"
      ],
      [
        "r",
        "y"
      ],
      [
        "ab",
        "le"
      ],
      [
        "ĠT",
        "h"
      ],
      [
        "Ġon",
        "e"
      ],
      [
        "in",
        "d"
      ],
      [
        "o",
        "se"
      ],
      [
        "e",
        "p"
      ],
      [
        "b",
        "er"
      ],
      [
        "ĠS",
        "t"
      ],
      [
        "as",
        "s"
      ],
      [
        "Ġh",
        "is"
      ],
      [
        "res",
        "s"
      ],
      [
        "ig",
        "n"
      ],
      [
        "an",
        "ce"
      ],
      [
        "Ġa",
        "r"
      ],
      [
        "Ġm",
        "e"
      ],
      [
        "ent",
        "s"
      ],
      [
        "a",
        "v"
      ],
      [
        "re",
        "at"
      ],
      [
        "a",
        "u"
      ],
      [
        "a",
        "ch"
      ],
      [
        "Ġu",
        "n"
      ],
      [
        "ct",
        "ion"
      ],
      [
        "âĢ",
        "Ŀ"
      ],
      [
        "as",
        "e"
      ],
      [
        "Ġyou",
        "r"
      ],
      [
        "is",
        "h"
      ],
      [
        "or",
        "d"
      ],
      [
        "ic",
        "e"
      ],
      [
        "ou",
        "nt"
      ],
      [
        "it",
        "ion"
      ],
      [
        ")",
        "."
      ],
      [
        "Ġt",
        "e"
      ],
      [
        "a",
        "ce"
      ],
      [
        "Ġal",
        "so"
      ],
      [
        "am",
        "e"
      ],
      [
        "Ġ",
        "j"
      ],
      [
        "u",
        "b"
      ],
      [
        "Ġwh",
        "o"
      ],
      [
        "or",
        "y"
      ],
      [
        "Ġim",
        "p"
      ],
      [
        "Ġe",
        "v"
      ],
      [
        "Ġs",
        "o"
      ],
      [
        "Ġp",
        "re"
      ],
      [
        "Ġ",
        "K"
      ],
      [
        "Ġp",
        "art"
      ],
      [
        "Ġa",
        "pp"
      ],
      [
        "m",
        "er"
      ],
      [
        "en",
        "s"
      ],
      [
        "on",
        "e"
      ],
      [
        "Ġo",
        "ut"
      ],
      [
        "a",
        "ke"
      ],
      [
        "o",
        "k"
      ],
      [
        "Ġab",
        "out"
      ],
      [
        "c",
        "i"
      ],
      [
        "ver",
        "y"
      ],
      [
        "Ġin",
        "f"
      ],
      [
        "im",
        "e"
      ],
      [
        "ac",
        "k"
      ],
      [
        "Ġst",
        "ud"
      ],
      [
        "ou",
        "nd"
      ],
      [
        "it",
        "e"
      ],
      [
        "re",
        "e"
      ],
      [
        "ol",
        "og"
      ],
      [
        "or",
        "s"
      ],
      [
        "c",
        "es"
      ],
      [
        "Ġm",
        "ay"
      ],
      [
        "ĠC",
        "h"
      ],
      [
        "Ġth",
        "an"
      ],
      [
        "Ġy",
        "ear"
      ],
      [
        "an",
        "g"
      ],
      [
        "u",
        "e"
      ],
      [
        "i",
        "an"
      ],
      [
        "Ġs",
        "y"
      ],
      [
        "Ġp",
        "e"
      ],
      [
        "i",
        "e"
      ],
      [
        "r",
        "ic"
      ],
      [
        "at",
        "es"
      ],
      [
        "Ġbe",
        "en"
      ],
      [
        "Ġu",
        "p"
      ],
      [
        "ĠâĢ",
        "ľ"
      ],
      [
        "Ġbe",
        "c"
      ],
      [
        "Ġh",
        "ad"
      ],
      [
        "Ġthe",
        "m"
      ],
      [
        "l",
        "ow"
      ],
      [
        "n",
        "ow"
      ],
      [
        "Ġcom",
        "m"
      ],
      [
        "Ġa",
        "g"
      ],
      [
        "Ġre",
        "c"
      ],
      [
        "Ġit",
        "s"
      ],
      [
        "a",
        "il"
      ],
      [
        "i",
        "le"
      ],
      [
        "er",
        "v"
      ],
      [
        "ver",
        "s"
      ],
      [
        "ay",
        "s"
      ],
      [
        "i",
        "ke"
      ],
      [
        "p",
        "h"
      ],
      [
        "Ġs",
        "ome"
      ],
      [
        "Ġ",
        "qu"
      ],
      [
        "ou",
        "gh"
      ],
      [
        "Ġ",
        "V"
      ],
      [
        "ĠI",
        "t"
      ],
      [
        "nd",
        "er"
      ],
      [
        "ing",
        "s"
      ],
      [
        "Ġthe",
        "re"
      ],
      [
        "on",
        "s"
      ],
      [
        "Ġg",
        "o"
      ],
      [
        "Ġint",
        "o"
      ],
      [
        "Ġ",
        "3"
      ],
      [
        "r",
        "it"
      ],
      [
        "op",
        "le"
      ],
      [
        "Ġ",
        "ra"
      ],
      [
        "ter",
        "n"
      ],
      [
        "l",
        "ud"
      ],
      [
        "if",
        "f"
      ],
      [
        "Ġwhe",
        "n"
      ],
      [
        "re",
        "n"
      ],
      [
        "ation",
        "al"
      ],
      [
        "Ġo",
        "ver"
      ],
      [
        "on",
        "d"
      ],
      [
        "Ġs",
        "a"
      ],
      [
        "Ġ",
        "-"
      ],
      [
        "m",
        "s"
      ],
      [
        "Ġthe",
        "se"
      ],
      [
        "Ġt",
        "ra"
      ],
      [
        "l",
        "l"
      ],
      [
        "rou",
        "gh"
      ],
      [
        "Ġw",
        "ould"
      ],
      [
        "Ġ2",
        "00"
      ],
      [
        "t",
        "e"
      ],
      [
        "ir",
        "st"
      ],
      [
        "l",
        "ic"
      ],
      [
        "Ġc",
        "ol"
      ],
      [
        "j",
        "ect"
      ],
      [
        "Ġt",
        "ime"
      ],
      [
        "Ġt",
        "w"
      ],
      [
        "al",
        "ly"
      ],
      [
        "o",
        "ve"
      ],
      [
        "in",
        "t"
      ],
      [
        "re",
        "d"
      ],
      [
        "Ġne",
        "w"
      ],
      [
        "au",
        "se"
      ],
      [
        "Ġ",
        "ro"
      ],
      [
        "Ġcon",
        "s"
      ],
      [
        "Ġwor",
        "k"
      ],
      [
        "if",
        "ic"
      ],
      [
        "Ġd",
        "es"
      ],
      [
        "Ġre",
        "p"
      ],
      [
        "le",
        "ct"
      ],
      [
        "ĠU",
        "n"
      ],
      [
        "Ġm",
        "ost"
      ],
      [
        "Ġpe",
        "ople"
      ],
      [
        "he",
        "d"
      ],
      [
        "ment",
        "s"
      ],
      [
        "y",
        "s"
      ],
      [
        "Ġu",
        "se"
      ],
      [
        "Ġb",
        "l"
      ],
      [
        "w",
        "e"
      ],
      [
        "it",
        "ies"
      ],
      [
        "ĠTh",
        "is"
      ],
      [
        "Ġu",
        "nder"
      ],
      [
        "Ġbe",
        "t"
      ],
      [
        "Ġg",
        "en"
      ],
      [
        "Ġh",
        "ow"
      ],
      [
        "Ġa",
        "ct"
      ],
      [
        "vel",
        "op"
      ],
      [
        ")",
        ","
      ],
      [
        "Ġd",
        "iff"
      ],
      [
        "Ġa",
        "cc"
      ],
      [
        "Ġn",
        "o"
      ],
      [
        "Ġsu",
        "ch"
      ],
      [
        "Ġre",
        "l"
      ],
      [
        "w",
        "n"
      ],
      [
        "st",
        "em"
      ],
      [
        "l",
        "es"
      ],
      [
        "Ġ",
        "Y"
      ],
      [
        "Ġk",
        "now"
      ],
      [
        "o",
        "ok"
      ],
      [
        "Ġ2",
        "0"
      ],
      [
        "Ġinc",
        "lud"
      ],
      [
        "c",
        "ed"
      ],
      [
        "al",
        "th"
      ],
      [
        "Ġon",
        "ly"
      ],
      [
        "Ġan",
        "y"
      ],
      [
        "Ġf",
        "irst"
      ],
      [
        "i",
        "ous"
      ],
      [
        "Ġt",
        "r"
      ],
      [
        "o",
        "b"
      ],
      [
        "Ġ",
        "if"
      ],
      [
        "Ġe",
        "ff"
      ],
      [
        "Ġl",
        "ike"
      ],
      [
        "at",
        "ive"
      ],
      [
        "n",
        "ing"
      ],
      [
        "is",
        "s"
      ],
      [
        "Ġch",
        "ild"
      ],
      [
        "Ġa",
        "m"
      ],
      [
        "Ġpro",
        "v"
      ],
      [
        "Ġof",
        "f"
      ],
      [
        "p",
        "le"
      ],
      [
        "o",
        "ol"
      ],
      [
        "Ġsp",
        "ec"
      ],
      [
        "o",
        "v"
      ],
      [
        "at",
        "h"
      ],
      [
        "f",
        "ter"
      ],
      [
        "Ġpro",
        "du"
      ],
      [
        "Ġtw",
        "o"
      ],
      [
        "ul",
        "ar"
      ],
      [
        "Ġo",
        "ur"
      ],
      [
        "Ġo",
        "b"
      ],
      [
        "Ġp",
        "h"
      ],
      [
        "i",
        "ed"
      ],
      [
        "Ġus",
        "ed"
      ],
      [
        "Ġin",
        "d"
      ],
      [
        "er",
        "m"
      ],
      [
        "ĠH",
        "e"
      ],
      [
        "Ġman",
        "y"
      ],
      [
        "ri",
        "b"
      ],
      [
        "Ġex",
        "p"
      ],
      [
        "Ġde",
        "velop"
      ],
      [
        "is",
        "e"
      ],
      [
        "Ġp",
        "o"
      ],
      [
        "at",
        "ing"
      ],
      [
        "c",
        "ess"
      ],
      [
        "Ġwh",
        "at"
      ],
      [
        "t",
        "s"
      ],
      [
        "Ġth",
        "rough"
      ],
      [
        "ar",
        "k"
      ],
      [
        "Ġre",
        "g"
      ],
      [
        "Ġs",
        "c"
      ],
      [
        "al",
        "s"
      ],
      [
        "os",
        "s"
      ],
      [
        "ic",
        "s"
      ],
      [
        "ro",
        "p"
      ],
      [
        "Ġne",
        "ed"
      ],
      [
        "ur",
        "ing"
      ],
      [
        "n",
        "e"
      ],
      [
        "ar",
        "ch"
      ],
      [
        "y",
        "p"
      ],
      [
        "u",
        "c"
      ],
      [
        "ol",
        "d"
      ],
      [
        ".",
        "."
      ],
      [
        "rou",
        "nd"
      ],
      [
        "Ġs",
        "ur"
      ],
      [
        "Ġyear",
        "s"
      ],
      [
        "Ġa",
        "c"
      ],
      [
        "Ġat",
        "t"
      ],
      [
        "Ġf",
        "e"
      ],
      [
        "Ġde",
        "c"
      ],
      [
        "Ġsy",
        "stem"
      ],
      [
        "Ġp",
        "r"
      ],
      [
        "mer",
        "ic"
      ],
      [
        "ra",
        "m"
      ],
      [
        "i",
        "et"
      ],
      [
        "Ġ",
        "4"
      ],
      [
        "Ġe",
        "m"
      ],
      [
        "ot",
        "h"
      ],
      [
        "Ġas",
        "s"
      ],
      [
        "b",
        "le"
      ],
      [
        "ut",
        "ion"
      ],
      [
        "Ġf",
        "l"
      ],
      [
        "n",
        "g"
      ],
      [
        "in",
        "k"
      ],
      [
        "ib",
        "le"
      ],
      [
        "as",
        "ed"
      ],
      [
        "Ġsu",
        "b"
      ],
      [
        "it",
        "ed"
      ],
      [
        "an",
        "ge"
      ],
      [
        "he",
        "n"
      ],
      [
        "f",
        "ul"
      ],
      [
        "er",
        "t"
      ],
      [
        "ad",
        "e"
      ],
      [
        "a",
        "w"
      ],
      [
        "t",
        "en"
      ],
      [
        "Ġc",
        "o"
      ],
      [
        "c",
        "y"
      ],
      [
        "u",
        "res"
      ],
      [
        "ro",
        "w"
      ],
      [
        "f",
        "ore"
      ],
      [
        "I",
        "n"
      ],
      [
        "il",
        "ity"
      ],
      [
        "ow",
        "er"
      ],
      [
        "Ġad",
        "d"
      ],
      [
        "Ġ",
        "5"
      ],
      [
        "Ġsu",
        "pp"
      ],
      [
        "Ġhe",
        "l"
      ],
      [
        "Ġ1",
        "8"
      ],
      [
        "g",
        "an"
      ],
      [
        "if",
        "e"
      ],
      [
        "se",
        "l"
      ],
      [
        "Ġsh",
        "ould"
      ],
      [
        "Ġp",
        "res"
      ],
      [
        "Ġre",
        "m"
      ],
      [
        "we",
        "en"
      ],
      [
        "ow",
        "n"
      ],
      [
        "ist",
        "s"
      ],
      [
        "Ġc",
        "ould"
      ],
      [
        "ĠA",
        "meric"
      ],
      [
        "ere",
        "d"
      ],
      [
        "Ġw",
        "ater"
      ],
      [
        "Ġe",
        "ar"
      ],
      [
        "l",
        "and"
      ],
      [
        "Ġin",
        "v"
      ],
      [
        "et",
        "h"
      ],
      [
        "Ġhel",
        "p"
      ],
      [
        "Ġre",
        "se"
      ],
      [
        "he",
        "s"
      ],
      [
        "Ġdiff",
        "ere"
      ],
      [
        "id",
        "ent"
      ],
      [
        "u",
        "ch"
      ],
      [
        "ĠA",
        "s"
      ],
      [
        "Ġw",
        "ell"
      ],
      [
        "Ġbet",
        "ween"
      ],
      [
        "Ġs",
        "m"
      ],
      [
        "i",
        "vers"
      ],
      [
        "olog",
        "y"
      ],
      [
        "Ġp",
        "ol"
      ],
      [
        "e",
        "x"
      ],
      [
        "ra",
        "ct"
      ],
      [
        "on",
        "t"
      ],
      [
        "Ġsa",
        "id"
      ],
      [
        "orm",
        "ation"
      ],
      [
        "ic",
        "k"
      ],
      [
        "il",
        "y"
      ],
      [
        "it",
        "s"
      ],
      [
        "Ġwhe",
        "re"
      ],
      [
        "Ġh",
        "igh"
      ],
      [
        "Ġn",
        "um"
      ],
      [
        "e",
        "ver"
      ],
      [
        "Ġfor",
        "m"
      ],
      [
        "ch",
        "ool"
      ],
      [
        "Ġf",
        "ound"
      ],
      [
        "Ġ",
        "her"
      ],
      [
        "ur",
        "al"
      ],
      [
        "Ġl",
        "ar"
      ],
      [
        "Ġc",
        "ent"
      ],
      [
        "Ġin",
        "ter"
      ],
      [
        "f",
        "t"
      ],
      [
        "Ġc",
        "ount"
      ],
      [
        "in",
        "es"
      ],
      [
        "Ġin",
        "st"
      ],
      [
        "ant",
        "s"
      ],
      [
        "ic",
        "t"
      ],
      [
        "Ġb",
        "u"
      ],
      [
        "Ġtr",
        "ans"
      ],
      [
        "Ġa",
        "fter"
      ],
      [
        "Ġ20",
        "1"
      ],
      [
        "Ġre",
        "f"
      ],
      [
        "ch",
        "n"
      ],
      [
        "in",
        "s"
      ],
      [
        "ver",
        "n"
      ],
      [
        "Ġp",
        "ub"
      ],
      [
        "ur",
        "n"
      ],
      [
        ".",
        "\""
      ],
      [
        "Ġp",
        "ers"
      ],
      [
        "is",
        "m"
      ],
      [
        "Ġm",
        "od"
      ],
      [
        "v",
        "ed"
      ],
      [
        "ual",
        "ly"
      ],
      [
        "er",
        "al"
      ],
      [
        "Ġc",
        "all"
      ],
      [
        "Ġ",
        "ed"
      ],
      [
        "c",
        "ent"
      ],
      [
        "c",
        "er"
      ],
      [
        "ce",
        "pt"
      ],
      [
        "e",
        "f"
      ],
      [
        "Ġl",
        "ong"
      ],
      [
        "Ġpro",
        "g"
      ],
      [
        "g",
        "y"
      ],
      [
        "Ġex",
        "am"
      ],
      [
        "it",
        "t"
      ],
      [
        "Ġbec",
        "ause"
      ],
      [
        "Ġd",
        "et"
      ],
      [
        "at",
        "ure"
      ],
      [
        "ot",
        "her"
      ],
      [
        "Ġth",
        "ose"
      ],
      [
        "Ġwor",
        "ld"
      ],
      [
        "i",
        "ew"
      ],
      [
        "Ġc",
        "ar"
      ],
      [
        "v",
        "ent"
      ],
      [
        "Ġs",
        "im"
      ],
      [
        "Ġthe",
        "n"
      ],
      [
        "Ġ",
        "very"
      ],
      [
        "o",
        "y"
      ],
      [
        "t",
        "he"
      ],
      [
        "Ġm",
        "ake"
      ],
      [
        "om",
        "m"
      ],
      [
        "Ġhe",
        "alth"
      ],
      [
        "Ġev",
        "en"
      ],
      [
        "T",
        "h"
      ],
      [
        "Ġinc",
        "re"
      ],
      [
        "Ġimp",
        "ort"
      ],
      [
        "Ġeff",
        "ect"
      ],
      [
        "Ġh",
        "um"
      ],
      [
        "Ġj",
        "ust"
      ],
      [
        "Ġdis",
        "c"
      ],
      [
        "Ġm",
        "ed"
      ],
      [
        "ĠP",
        "ro"
      ],
      [
        "ĠA",
        "l"
      ],
      [
        "rou",
        "p"
      ],
      [
        "ol",
        "low"
      ],
      [
        "Ġse",
        "e"
      ],
      [
        "ical",
        "ly"
      ],
      [
        "Ġex",
        "t"
      ],
      [
        "Ġl",
        "oc"
      ],
      [
        "Ġg",
        "et"
      ],
      [
        "n",
        "ess"
      ],
      [
        "or",
        "k"
      ],
      [
        "Ġinf",
        "ormation"
      ],
      [
        "d",
        "s"
      ],
      [
        "Ġres",
        "p"
      ],
      [
        "ĠN",
        "ew"
      ],
      [
        "Ġs",
        "ign"
      ],
      [
        "1",
        "9"
      ],
      [
        "at",
        "her"
      ],
      [
        "g",
        "et"
      ],
      [
        "Ġd",
        "ist"
      ],
      [
        "ar",
        "m"
      ],
      [
        "Ġm",
        "on"
      ],
      [
        "l",
        "ed"
      ],
      [
        "Ġse",
        "c"
      ],
      [
        "Ġp",
        "at"
      ],
      [
        "iv",
        "es"
      ],
      [
        "Ġs",
        "ci"
      ],
      [
        "Ġde",
        "f"
      ],
      [
        "Ġw",
        "ay"
      ],
      [
        "Ġ",
        "6"
      ],
      [
        "Ġg",
        "ra"
      ],
      [
        "Ġs",
        "he"
      ],
      [
        "Ġres",
        "ult"
      ],
      [
        "as",
        "es"
      ],
      [
        "ag",
        "es"
      ],
      [
        "|",
        "|"
      ],
      [
        "ir",
        "on"
      ],
      [
        "Ġ",
        "ent"
      ],
      [
        "Ġe",
        "ach"
      ],
      [
        "Ġchild",
        "ren"
      ],
      [
        "Ġbe",
        "ing"
      ],
      [
        "Ġc",
        "a"
      ],
      [
        "ĠW",
        "h"
      ],
      [
        "Ġm",
        "ade"
      ],
      [
        "i",
        "o"
      ],
      [
        "u",
        "es"
      ],
      [
        "c",
        "k"
      ],
      [
        "Ġdiffere",
        "nt"
      ],
      [
        "ak",
        "ing"
      ],
      [
        "Ġr",
        "ight"
      ],
      [
        "Ġs",
        "et"
      ],
      [
        "Ġv",
        "ar"
      ],
      [
        "x",
        "t"
      ],
      [
        "im",
        "es"
      ],
      [
        "Ġd",
        "uring"
      ],
      [
        "ivers",
        "ity"
      ],
      [
        "Ġpart",
        "ic"
      ],
      [
        "Ġf",
        "act"
      ],
      [
        "Ġm",
        "uch"
      ],
      [
        "ro",
        "s"
      ],
      [
        "iz",
        "ed"
      ],
      [
        "Ġt",
        "yp"
      ],
      [
        "or",
        "n"
      ],
      [
        "Ġex",
        "per"
      ],
      [
        "ĠR",
        "e"
      ],
      [
        "u",
        "nd"
      ],
      [
        "Ġa",
        "ut"
      ],
      [
        "w",
        "ard"
      ],
      [
        "00",
        "0"
      ],
      [
        "ĠA",
        "r"
      ],
      [
        "Ġar",
        "t"
      ],
      [
        "Ġde",
        "p"
      ],
      [
        "Ġs",
        "ame"
      ],
      [
        "Ġf",
        "am"
      ],
      [
        "ru",
        "ct"
      ],
      [
        ".",
        ","
      ],
      [
        "at",
        "a"
      ],
      [
        "Ġre",
        "qu"
      ],
      [
        "Ġe",
        "very"
      ],
      [
        "Ġf",
        "ollow"
      ],
      [
        "an",
        "y"
      ],
      [
        "Ġo",
        "wn"
      ],
      [
        "in",
        "ce"
      ],
      [
        "ect",
        "ion"
      ],
      [
        "c",
        "on"
      ],
      [
        "Ġ",
        "ke"
      ],
      [
        "Ġm",
        "y"
      ],
      [
        "Ġstud",
        "y"
      ],
      [
        "al",
        "e"
      ],
      [
        "ĠW",
        "e"
      ],
      [
        "Ġen",
        "d"
      ],
      [
        "Ġp",
        "op"
      ],
      [
        "he",
        "m"
      ],
      [
        "ĠA",
        "n"
      ],
      [
        "Ġh",
        "im"
      ],
      [
        "ar",
        "s"
      ],
      [
        "is",
        "hed"
      ],
      [
        "Ġte",
        "chn"
      ],
      [
        "Ġ19",
        "9"
      ],
      [
        "Ġc",
        "re"
      ],
      [
        "Ġcomm",
        "un"
      ],
      [
        "i",
        "el"
      ],
      [
        "Ġst",
        "ate"
      ],
      [
        "Ġl",
        "ife"
      ],
      [
        "g",
        "g"
      ],
      [
        "Ġg",
        "roup"
      ],
      [
        "Ġpro",
        "cess"
      ],
      [
        "om",
        "en"
      ],
      [
        "Ġh",
        "ist"
      ],
      [
        "r",
        "an"
      ],
      [
        "ĠF",
        "or"
      ],
      [
        ",",
        "\""
      ],
      [
        "ĠâĢ",
        "ĵ"
      ],
      [
        "Ġle",
        "ad"
      ],
      [
        "Ġpro",
        "ble"
      ],
      [
        "Ġag",
        "ain"
      ],
      [
        "ic",
        "es"
      ],
      [
        "a",
        "h"
      ],
      [
        "Ġs",
        "oc"
      ],
      [
        "ĠS",
        "p"
      ],
      [
        "h",
        "ip"
      ],
      [
        "o",
        "h"
      ],
      [
        "in",
        "ed"
      ],
      [
        "Ġf",
        "ind"
      ],
      [
        "Ġa",
        "v"
      ],
      [
        "Ġbe",
        "fore"
      ],
      [
        "Ġb",
        "ack"
      ],
      [
        "Ġs",
        "chool"
      ],
      [
        "Ġle",
        "vel"
      ],
      [
        "Ġb",
        "oth"
      ],
      [
        "Ġsm",
        "all"
      ],
      [
        "Ġdo",
        "es"
      ],
      [
        "r",
        "on"
      ],
      [
        "Ġt",
        "est"
      ],
      [
        "Ġle",
        "ar"
      ],
      [
        "im",
        "ate"
      ],
      [
        "'",
        "t"
      ],
      [
        "t",
        "y"
      ],
      [
        "iz",
        "e"
      ],
      [
        "ĠThe",
        "y"
      ],
      [
        "ur",
        "y"
      ],
      [
        "ut",
        "e"
      ],
      [
        "Ġm",
        "in"
      ],
      [
        "t",
        "ing"
      ],
      [
        "Ġgo",
        "vern"
      ],
      [
        "re",
        "ad"
      ],
      [
        "Ġc",
        "ur"
      ],
      [
        "i",
        "x"
      ],
      [
        "Ġre",
        "ad"
      ],
      [
        "Ġsh",
        "ow"
      ],
      [
        "v",
        "iron"
      ],
      [
        "ire",
        "ct"
      ],
      [
        "od",
        "y"
      ],
      [
        "v",
        "en"
      ],
      [
        "Ġo",
        "cc"
      ],
      [
        "u",
        "p"
      ],
      [
        "ro",
        "l"
      ],
      [
        "n",
        "ce"
      ],
      [
        "Ġex",
        "pl"
      ],
      [
        "ĠI",
        "nd"
      ],
      [
        "Ġn",
        "ow"
      ],
      [
        "in",
        "al"
      ],
      [
        "Ġimport",
        "ant"
      ],
      [
        "Ġstud",
        "ents"
      ],
      [
        "Ġm",
        "em"
      ],
      [
        ".",
        "âĢĿ"
      ],
      [
        "r",
        "al"
      ],
      [
        "ĠI",
        "f"
      ],
      [
        "Ġcomp",
        "le"
      ],
      [
        "Ġin",
        "s"
      ],
      [
        "f",
        "orm"
      ],
      [
        "ial",
        "ly"
      ],
      [
        "Ġm",
        "a"
      ],
      [
        "oc",
        "k"
      ],
      [
        "ter",
        "s"
      ],
      [
        "Ġnum",
        "ber"
      ],
      [
        "i",
        "ent"
      ],
      [
        "i",
        "er"
      ],
      [
        "Ġf",
        "ood"
      ],
      [
        "and",
        "s"
      ],
      [
        "Ġd",
        "i"
      ],
      [
        "âĢ",
        "Ķ"
      ],
      [
        "Ġpers",
        "on"
      ],
      [
        "Ġ",
        "est"
      ],
      [
        "Ġg",
        "l"
      ],
      [
        "Ġb",
        "o"
      ],
      [
        "Ġrep",
        "ort"
      ],
      [
        "Ġth",
        "ree"
      ],
      [
        "d",
        "er"
      ],
      [
        "Ġt",
        "reat"
      ],
      [
        "Ġs",
        "k"
      ],
      [
        "her",
        "s"
      ],
      [
        "Ġp",
        "oss"
      ],
      [
        "Ġst",
        "r"
      ],
      [
        "Ġ1",
        "0"
      ],
      [
        "ul",
        "ation"
      ],
      [
        "Ġs",
        "erv"
      ],
      [
        "id",
        "es"
      ],
      [
        "Ġg",
        "ood"
      ],
      [
        "er",
        "gy"
      ],
      [
        "ect",
        "ed"
      ],
      [
        "Ġ",
        "7"
      ],
      [
        "v",
        "ing"
      ],
      [
        "Ġrese",
        "arch"
      ],
      [
        "Ġl",
        "ess"
      ],
      [
        "a",
        "ir"
      ],
      [
        "c",
        "l"
      ],
      [
        "Ġd",
        "id"
      ],
      [
        "Ġof",
        "ten"
      ],
      [
        "Ġbe",
        "l"
      ],
      [
        "v",
        "es"
      ],
      [
        "Ġch",
        "ar"
      ],
      [
        "Ġpro",
        "t"
      ],
      [
        "as",
        "h"
      ],
      [
        "Ġc",
        "ell"
      ],
      [
        "viron",
        "ment"
      ],
      [
        "ou",
        "th"
      ],
      [
        "Ġor",
        "gan"
      ],
      [
        "Ġdis",
        "e"
      ],
      [
        "Ġp",
        "ower"
      ],
      [
        "Ġlar",
        "ge"
      ],
      [
        "Ġv",
        "al"
      ],
      [
        "ĠB",
        "ut"
      ],
      [
        "Ġpl",
        "an"
      ],
      [
        "Ġd",
        "ay"
      ],
      [
        "Ġdes",
        "ign"
      ],
      [
        "iv",
        "id"
      ],
      [
        "a",
        "ve"
      ],
      [
        "e",
        "e"
      ],
      [
        "t",
        "on"
      ],
      [
        "Ġr",
        "is"
      ],
      [
        "ou",
        "se"
      ],
      [
        "g",
        "er"
      ],
      [
        "Ġs",
        "er"
      ],
      [
        "Ġm",
        "ain"
      ],
      [
        "Ġ",
        "8"
      ],
      [
        "Ġcall",
        "ed"
      ],
      [
        "Ġre",
        "t"
      ],
      [
        "Ġhum",
        "an"
      ],
      [
        "Ġpub",
        "lic"
      ],
      [
        "Ġe",
        "lect"
      ],
      [
        "Ġv",
        "is"
      ],
      [
        "al",
        "ity"
      ],
      [
        "ĠI",
        "s"
      ],
      [
        "Ġwh",
        "ile"
      ],
      [
        "ain",
        "s"
      ],
      [
        "Ġm",
        "ust"
      ],
      [
        "Ġus",
        "ing"
      ],
      [
        "d",
        "ay"
      ],
      [
        "Ġcont",
        "in"
      ],
      [
        "ĠAmeric",
        "an"
      ],
      [
        "ĠH",
        "ow"
      ],
      [
        "us",
        "s"
      ],
      [
        "ul",
        "l"
      ],
      [
        "Ġd",
        "own"
      ],
      [
        "en",
        "cy"
      ],
      [
        "Ġcon",
        "f"
      ],
      [
        "re",
        "nt"
      ],
      [
        "Ġcl",
        "ass"
      ],
      [
        "Ġg",
        "reat"
      ],
      [
        "d",
        "ition"
      ],
      [
        "Ġd",
        "ata"
      ],
      [
        "ak",
        "es"
      ],
      [
        "Ġpo",
        "int"
      ],
      [
        "Ġt",
        "ake"
      ],
      [
        "Ġsupp",
        "ort"
      ],
      [
        "ĠUn",
        "iversity"
      ],
      [
        "are",
        "d"
      ],
      [
        "st",
        "it"
      ],
      [
        "Ġg",
        "row"
      ],
      [
        "sel",
        "f"
      ],
      [
        "Ġ",
        "9"
      ],
      [
        "m",
        "an"
      ],
      [
        "Ġinclud",
        "ing"
      ],
      [
        "w",
        "ay"
      ],
      [
        "iet",
        "y"
      ],
      [
        "Ġs",
        "ol"
      ],
      [
        "or",
        "th"
      ],
      [
        "r",
        "ing"
      ],
      [
        "st",
        "and"
      ],
      [
        "os",
        "ed"
      ],
      [
        "it",
        "al"
      ],
      [
        "c",
        "om"
      ],
      [
        "i",
        "qu"
      ],
      [
        "Ġgen",
        "er"
      ],
      [
        "ĠD",
        "e"
      ],
      [
        "1",
        "0"
      ],
      [
        "Ġact",
        "iv"
      ],
      [
        "Th",
        "is"
      ],
      [
        "Ġcons",
        "id"
      ],
      [
        "ou",
        "n"
      ],
      [
        "Ġf",
        "un"
      ],
      [
        "b",
        "ers"
      ],
      [
        "Ġa",
        "round"
      ],
      [
        "Ġcomm",
        "on"
      ],
      [
        "con",
        "om"
      ],
      [
        "a",
        "x"
      ],
      [
        "Ġexam",
        "ple"
      ],
      [
        "Ġth",
        "ough"
      ],
      [
        "ill",
        "ion"
      ],
      [
        "it",
        "ions"
      ],
      [
        "Ġknow",
        "n"
      ],
      [
        "Ġe",
        "qu"
      ],
      [
        "Ġo",
        "p"
      ],
      [
        "oc",
        "i"
      ],
      [
        "am",
        "p"
      ],
      [
        "Ġc",
        "our"
      ],
      [
        "d",
        "e"
      ],
      [
        "ra",
        "ph"
      ],
      [
        "Ġre",
        "du"
      ],
      [
        "Ġc",
        "le"
      ],
      [
        "Ġc",
        "or"
      ],
      [
        "ros",
        "s"
      ],
      [
        "r",
        "ies"
      ],
      [
        "i",
        "od"
      ],
      [
        "i",
        "um"
      ],
      [
        "i",
        "ans"
      ],
      [
        "t",
        "ed"
      ],
      [
        "our",
        "ces"
      ],
      [
        "Ġl",
        "ook"
      ],
      [
        "Ġad",
        "v"
      ],
      [
        "Ġst",
        "ill"
      ],
      [
        "ĠA",
        "nd"
      ],
      [
        "Ġc",
        "are"
      ],
      [
        "Ġper",
        "cent"
      ],
      [
        "re",
        "en"
      ],
      [
        "ĠC",
        "on"
      ],
      [
        "Ġm",
        "et"
      ],
      [
        "ion",
        "al"
      ],
      [
        "act",
        "er"
      ],
      [
        "W",
        "h"
      ],
      [
        "ater",
        "ial"
      ],
      [
        "e",
        "g"
      ],
      [
        "Ġm",
        "at"
      ],
      [
        "Ġgovern",
        "ment"
      ],
      [
        "Ġd",
        "irect"
      ],
      [
        "2",
        "0"
      ],
      [
        "Ġw",
        "rit"
      ],
      [
        "Ġa",
        "ff"
      ],
      [
        "Ġall",
        "ow"
      ],
      [
        "ire",
        "d"
      ],
      [
        "l",
        "ish"
      ],
      [
        "in",
        "ation"
      ],
      [
        "ĠUn",
        "ited"
      ],
      [
        "Ġapp",
        "ro"
      ],
      [
        "ĠR",
        "es"
      ],
      [
        "el",
        "s"
      ],
      [
        "ra",
        "in"
      ],
      [
        "Ġm",
        "il"
      ],
      [
        "Ġf",
        "ew"
      ],
      [
        "u",
        "g"
      ],
      [
        "Ġed",
        "uc"
      ],
      [
        "ain",
        "ed"
      ],
      [
        "Ġpl",
        "ace"
      ],
      [
        "Ġl",
        "aw"
      ],
      [
        "Ġb",
        "ody"
      ],
      [
        "i",
        "or"
      ],
      [
        "ĠE",
        "ng"
      ],
      [
        "Ġs",
        "om"
      ],
      [
        "ĠThe",
        "re"
      ],
      [
        "Ġbu",
        "ild"
      ],
      [
        "Ġqu",
        "est"
      ],
      [
        "j",
        "or"
      ],
      [
        "Ġpres",
        "ent"
      ],
      [
        "iv",
        "ing"
      ],
      [
        "Ġw",
        "omen"
      ],
      [
        "Ġs",
        "l"
      ],
      [
        "Ġde",
        "m"
      ],
      [
        "ag",
        "n"
      ],
      [
        "r",
        "is"
      ],
      [
        "Ġm",
        "ight"
      ],
      [
        "h",
        "or"
      ],
      [
        "en",
        "se"
      ],
      [
        "iz",
        "ation"
      ],
      [
        "r",
        "ation"
      ],
      [
        "ere",
        "st"
      ],
      [
        "at",
        "t"
      ],
      [
        "Ġst",
        "art"
      ],
      [
        "iv",
        "en"
      ],
      [
        "Ġ",
        "."
      ],
      [
        "Ġch",
        "ang"
      ],
      [
        "Ġpro",
        "ject"
      ],
      [
        "t",
        "t"
      ],
      [
        "Ġw",
        "ar"
      ],
      [
        "Ġg",
        "u"
      ],
      [
        "Ġwith",
        "out"
      ],
      [
        "ord",
        "ing"
      ],
      [
        "Ġa",
        "ir"
      ],
      [
        "as",
        "on"
      ],
      [
        "i",
        "ver"
      ],
      [
        "iss",
        "ion"
      ],
      [
        "Ġs",
        "ays"
      ],
      [
        "Ġl",
        "ight"
      ],
      [
        "iel",
        "d"
      ],
      [
        "Ġ",
        "["
      ],
      [
        "l",
        "ished"
      ],
      [
        "Ġare",
        "a"
      ],
      [
        "Ġdes",
        "c"
      ],
      [
        "ĠSt",
        "ates"
      ],
      [
        "Ġbel",
        "ie"
      ],
      [
        "g",
        "in"
      ],
      [
        "Ġprog",
        "ram"
      ],
      [
        "l",
        "ess"
      ],
      [
        "Ġl",
        "and"
      ],
      [
        "Ġwith",
        "in"
      ],
      [
        "om",
        "s"
      ],
      [
        "id",
        "s"
      ],
      [
        "ert",
        "ain"
      ],
      [
        "are",
        "nt"
      ],
      [
        "Ġ",
        "ide"
      ],
      [
        "r",
        "ist"
      ],
      [
        "ĠP",
        "h"
      ],
      [
        "Ġbe",
        "h"
      ],
      [
        "Ġan",
        "other"
      ],
      [
        ",",
        "âĢĿ"
      ],
      [
        "if",
        "ied"
      ],
      [
        "Ġch",
        "ange"
      ],
      [
        "Ġc",
        "ap"
      ],
      [
        "Ġdevelop",
        "ment"
      ],
      [
        "Ġt",
        "em"
      ],
      [
        "ar",
        "c"
      ],
      [
        "ĠC",
        "ol"
      ],
      [
        "Ġen",
        "ergy"
      ],
      [
        "Ġp",
        "ract"
      ],
      [
        "Ġca",
        "us"
      ],
      [
        "âĢ",
        "ĵ"
      ],
      [
        "a",
        "z"
      ],
      [
        "Ġsci",
        "ent"
      ],
      [
        "Ġdise",
        "ase"
      ],
      [
        "Ġis",
        "s"
      ],
      [
        "ivid",
        "ual"
      ],
      [
        "Ġth",
        "ink"
      ],
      [
        "Ġp",
        "ass"
      ],
      [
        "er",
        "ing"
      ],
      [
        "pt",
        "ion"
      ],
      [
        "ang",
        "u"
      ],
      [
        "ĠThe",
        "se"
      ],
      [
        "Ġen",
        "vironment"
      ],
      [
        "Ġm",
        "aterial"
      ],
      [
        "Ġp",
        "ur"
      ],
      [
        "b",
        "s"
      ],
      [
        "Ġe",
        "conom"
      ],
      [
        "Ġagain",
        "st"
      ],
      [
        "Ġbl",
        "ood"
      ],
      [
        "n",
        "er"
      ],
      [
        "Ġph",
        "ys"
      ],
      [
        "Ġear",
        "ly"
      ],
      [
        "ro",
        "du"
      ],
      [
        "olog",
        "ical"
      ],
      [
        "at",
        "ural"
      ],
      [
        "Ġne",
        "ar"
      ],
      [
        "Ġst",
        "and"
      ],
      [
        "Ġl",
        "ast"
      ],
      [
        "en",
        "g"
      ],
      [
        "Ġo",
        "ld"
      ],
      [
        "is",
        "ion"
      ],
      [
        "ĠA",
        "d"
      ],
      [
        "l",
        "ine"
      ],
      [
        "ĠS",
        "h"
      ],
      [
        "Ġ1",
        "5"
      ],
      [
        "t",
        "o"
      ],
      [
        "ĠN",
        "ational"
      ],
      [
        "ĠS",
        "e"
      ],
      [
        "Ġse",
        "ver"
      ],
      [
        "Ġle",
        "g"
      ],
      [
        "m",
        "e"
      ],
      [
        "at",
        "ic"
      ],
      [
        "et",
        "s"
      ],
      [
        "Ġb",
        "re"
      ],
      [
        "he",
        "re"
      ],
      [
        "iv",
        "ed"
      ],
      [
        "Ġma",
        "jor"
      ],
      [
        "u",
        "se"
      ],
      [
        "Ġre",
        "st"
      ],
      [
        "cc",
        "ess"
      ],
      [
        "our",
        "ce"
      ],
      [
        "Ġo",
        "per"
      ],
      [
        "Ġpro",
        "f"
      ],
      [
        "Ġim",
        "m"
      ],
      [
        "og",
        "raph"
      ],
      [
        "Ġsec",
        "ond"
      ],
      [
        "Ġb",
        "as"
      ],
      [
        "it",
        "ive"
      ],
      [
        "ent",
        "ly"
      ],
      [
        "ail",
        "able"
      ],
      [
        "Ġinclud",
        "e"
      ],
      [
        "er",
        "n"
      ],
      [
        "Ġe",
        "as"
      ],
      [
        "Ġ",
        "ident"
      ],
      [
        "Ġ1",
        "7"
      ],
      [
        "Ġan",
        "im"
      ],
      [
        "w",
        "w"
      ],
      [
        "Ġme",
        "as"
      ],
      [
        "os",
        "p"
      ],
      [
        "Ġh",
        "and"
      ],
      [
        "o",
        "f"
      ],
      [
        "Ġf",
        "ore"
      ],
      [
        "Ġm",
        "en"
      ],
      [
        "Ġunder",
        "stand"
      ],
      [
        "Ġprodu",
        "ct"
      ],
      [
        "ĠC",
        "l"
      ],
      [
        "Ġspec",
        "ies"
      ],
      [
        "-",
        "-"
      ],
      [
        "Ġcont",
        "rol"
      ],
      [
        "Ġint",
        "erest"
      ],
      [
        "eth",
        "od"
      ],
      [
        "Ġind",
        "ividual"
      ],
      [
        "v",
        "iew"
      ],
      [
        "Ġsy",
        "m"
      ],
      [
        "al",
        "k"
      ],
      [
        "ĠC",
        "ent"
      ],
      [
        "Ġb",
        "ro"
      ],
      [
        "Ġe",
        "le"
      ],
      [
        "Ġu",
        "nt"
      ],
      [
        "in",
        "c"
      ],
      [
        "s",
        "y"
      ],
      [
        "it",
        "es"
      ],
      [
        "Ġocc",
        "ur"
      ],
      [
        "Ġt",
        "er"
      ],
      [
        "om",
        "p"
      ],
      [
        "ard",
        "s"
      ],
      [
        "Ġp",
        "os"
      ],
      [
        "Ġl",
        "ow"
      ],
      [
        "n",
        "ed"
      ],
      [
        "ot",
        "e"
      ],
      [
        "Ġo",
        "pp"
      ],
      [
        "Ġp",
        "ar"
      ],
      [
        "at",
        "s"
      ],
      [
        "in",
        "a"
      ],
      [
        "Ġan",
        "t"
      ],
      [
        "Ġ",
        "'"
      ],
      [
        "Ġhist",
        "ory"
      ],
      [
        "ĠC",
        "an"
      ],
      [
        "ol",
        "ution"
      ],
      [
        "Ġd",
        "on"
      ],
      [
        "Ġsever",
        "al"
      ],
      [
        "re",
        "t"
      ],
      [
        "at",
        "or"
      ],
      [
        "Ġw",
        "ant"
      ],
      [
        "âĢ",
        "ľ"
      ],
      [
        "es",
        "p"
      ],
      [
        "Ġris",
        "k"
      ],
      [
        "Ġm",
        "ar"
      ],
      [
        "I",
        "t"
      ],
      [
        "th",
        "ough"
      ],
      [
        "Ġs",
        "ay"
      ],
      [
        "Ġor",
        "ig"
      ],
      [
        "Ġ",
        "ve"
      ],
      [
        "ĠC",
        "omm"
      ],
      [
        "Ġt",
        "re"
      ],
      [
        "ent",
        "ial"
      ],
      [
        "Ġam",
        "ong"
      ],
      [
        "Ġen",
        "g"
      ],
      [
        "ĠY",
        "ou"
      ],
      [
        "i",
        "k"
      ],
      [
        "s",
        "p"
      ],
      [
        "Ġ",
        "&"
      ],
      [
        "Ġcon",
        "st"
      ],
      [
        "Ġf",
        "our"
      ],
      [
        "Ġexper",
        "i"
      ],
      [
        "Ġs",
        "ince"
      ],
      [
        "Ġe",
        "t"
      ],
      [
        "id",
        "ed"
      ],
      [
        "Ġper",
        "iod"
      ],
      [
        "an",
        "k"
      ],
      [
        "if",
        "y"
      ],
      [
        "ab",
        "ility"
      ],
      [
        "Ġpl",
        "ay"
      ],
      [
        "o",
        "le"
      ],
      [
        "Ġm",
        "ove"
      ],
      [
        "l",
        "u"
      ],
      [
        "Ġpartic",
        "ular"
      ],
      [
        "Ġimp",
        "ro"
      ],
      [
        "ĠA",
        "t"
      ],
      [
        "end",
        "ed"
      ],
      [
        "Ġfam",
        "ily"
      ],
      [
        "e",
        "ed"
      ],
      [
        "id",
        "ence"
      ],
      [
        "c",
        "ing"
      ],
      [
        "itt",
        "le"
      ],
      [
        "Ġpro",
        "p"
      ],
      [
        "Ġh",
        "ome"
      ],
      [
        "Ġm",
        "ark"
      ],
      [
        "Ġhe",
        "re"
      ],
      [
        "Ġbec",
        "ome"
      ],
      [
        "Ġcur",
        "rent"
      ],
      [
        "Ġp",
        "ot"
      ],
      [
        "e",
        "ad"
      ],
      [
        "am",
        "es"
      ],
      [
        "m",
        "in"
      ],
      [
        "ra",
        "p"
      ],
      [
        "Ġor",
        "der"
      ],
      [
        "Ġb",
        "en"
      ],
      [
        "ĠG",
        "od"
      ],
      [
        "Ġcount",
        "ry"
      ],
      [
        "1",
        "2"
      ],
      [
        "Ġpro",
        "per"
      ],
      [
        "Ġre",
        "al"
      ],
      [
        "1",
        "8"
      ],
      [
        "Ġav",
        "ailable"
      ],
      [
        "Ġare",
        "as"
      ],
      [
        "ĠE",
        "n"
      ],
      [
        "ab",
        "ly"
      ],
      [
        "ab",
        "or"
      ],
      [
        "u",
        "rop"
      ],
      [
        "oh",
        "n"
      ],
      [
        "Ġl",
        "im"
      ],
      [
        "Ġp",
        "ain"
      ],
      [
        "Ġprov",
        "ide"
      ],
      [
        "Ġc",
        "ult"
      ],
      [
        "in",
        "ing"
      ],
      [
        "w",
        "ays"
      ],
      [
        "Ġn",
        "on"
      ],
      [
        "Ġob",
        "ject"
      ],
      [
        "Ġm",
        "us"
      ],
      [
        "Ġ",
        "Q"
      ],
      [
        "Ġto",
        "o"
      ],
      [
        "Ġ19",
        "8"
      ],
      [
        "ĠP",
        "l"
      ],
      [
        "Ġadd",
        "ition"
      ],
      [
        "Ġde",
        "v"
      ],
      [
        "..",
        "."
      ],
      [
        "Ġposs",
        "ible"
      ],
      [
        "un",
        "e"
      ],
      [
        "Ġe",
        "l"
      ],
      [
        "ĠE",
        "x"
      ],
      [
        "p",
        "ar"
      ],
      [
        "pl",
        "es"
      ],
      [
        "ent",
        "al"
      ],
      [
        "en",
        "ces"
      ],
      [
        "Ġan",
        "al"
      ],
      [
        "ent",
        "ion"
      ],
      [
        "Ġh",
        "ig"
      ],
      [
        "Ġp",
        "ri"
      ],
      [
        "Ġop",
        "en"
      ],
      [
        "Ġre",
        "ce"
      ],
      [
        "ir",
        "c"
      ],
      [
        "Ġ",
        "Z"
      ],
      [
        "Ġsoc",
        "ial"
      ],
      [
        "Ġn",
        "ame"
      ],
      [
        "Ġc",
        "ause"
      ],
      [
        "Ġm",
        "ethod"
      ],
      [
        "or",
        "ies"
      ],
      [
        "Ġinv",
        "ol"
      ],
      [
        "Ġ1",
        "2"
      ],
      [
        "ĠâĢ",
        "Ķ"
      ],
      [
        "ic",
        "le"
      ],
      [
        "Ġl",
        "angu"
      ],
      [
        "Ġob",
        "s"
      ],
      [
        "Ġv",
        "iew"
      ],
      [
        "Ġb",
        "est"
      ],
      [
        "Ġto",
        "p"
      ],
      [
        "Ġhe",
        "ad"
      ],
      [
        "ĠCh",
        "rist"
      ],
      [
        "Ġb",
        "i"
      ],
      [
        "Ġbet",
        "ter"
      ],
      [
        "Ġloc",
        "al"
      ],
      [
        "in",
        "ess"
      ],
      [
        "Ġ",
        "$"
      ],
      [
        "Ġc",
        "ost"
      ],
      [
        "i",
        "ents"
      ],
      [
        "ĠHow",
        "ever"
      ],
      [
        "Ġb",
        "ir"
      ],
      [
        "Ġme",
        "ans"
      ],
      [
        "Ġmon",
        "th"
      ],
      [
        "Ġin",
        "du"
      ],
      [
        "g",
        "ed"
      ],
      [
        "g",
        "en"
      ],
      [
        "il",
        "ar"
      ],
      [
        "Ġper",
        "form"
      ],
      [
        "Ġ",
        "0"
      ],
      [
        "Ġc",
        "he"
      ],
      [
        "tern",
        "ational"
      ],
      [
        "Ġl",
        "ater"
      ],
      [
        "urop",
        "e"
      ],
      [
        "Ġra",
        "d"
      ],
      [
        "Ġfollow",
        "ing"
      ],
      [
        "Ġf",
        "re"
      ],
      [
        "Ġd",
        "el"
      ],
      [
        "ĠW",
        "hen"
      ],
      [
        "res",
        "ent"
      ],
      [
        "it",
        "her"
      ],
      [
        "Ġt",
        "ri"
      ],
      [
        "Ġtreat",
        "ment"
      ],
      [
        "e",
        "b"
      ],
      [
        "Ġf",
        "in"
      ],
      [
        "Ġunt",
        "il"
      ],
      [
        "Ġt",
        "imes"
      ],
      [
        "Ġf",
        "ar"
      ],
      [
        "og",
        "n"
      ],
      [
        "r",
        "id"
      ],
      [
        "o",
        "int"
      ],
      [
        "Ġaut",
        "hor"
      ],
      [
        "e",
        "k"
      ],
      [
        "w",
        "are"
      ],
      [
        "ĠA",
        "ll"
      ],
      [
        "Ġg",
        "iven"
      ],
      [
        "it",
        "er"
      ],
      [
        "ĠM",
        "ed"
      ],
      [
        "Ġpol",
        "it"
      ],
      [
        "op",
        "e"
      ],
      [
        "Ġ1",
        "6"
      ],
      [
        "Ġb",
        "ased"
      ],
      [
        "Ġm",
        "illion"
      ],
      [
        "Ġcon",
        "d"
      ],
      [
        "end",
        "s"
      ],
      [
        "is",
        "ed"
      ],
      [
        "Ġother",
        "s"
      ],
      [
        "Ġp",
        "ress"
      ],
      [
        "ur",
        "ther"
      ],
      [
        "gg",
        "est"
      ],
      [
        "2",
        "00"
      ],
      [
        "Ġf",
        "ac"
      ],
      [
        "Ġc",
        "ertain"
      ],
      [
        "l",
        "ing"
      ],
      [
        "Ġr",
        "un"
      ],
      [
        "Ġhe",
        "art"
      ],
      [
        "Ġa",
        "ge"
      ],
      [
        "Ġc",
        "al"
      ],
      [
        "p",
        "r"
      ],
      [
        "Ġv",
        "ol"
      ],
      [
        "ĠT",
        "o"
      ],
      [
        "Ġc",
        "ase"
      ],
      [
        "ap",
        "s"
      ],
      [
        "ĠB",
        "rit"
      ],
      [
        "Ġl",
        "ist"
      ],
      [
        "Ġproble",
        "ms"
      ],
      [
        "f",
        "ace"
      ],
      [
        "Ġme",
        "an"
      ],
      [
        "n",
        "ot"
      ],
      [
        "ĠO",
        "n"
      ],
      [
        "Ġcan",
        "cer"
      ],
      [
        "Ġsign",
        "ific"
      ],
      [
        "ĠO",
        "r"
      ],
      [
        "Ġke",
        "ep"
      ],
      [
        "Ġf",
        "ree"
      ],
      [
        "ill",
        "s"
      ],
      [
        "Ġn",
        "atural"
      ],
      [
        "ĠA",
        "f"
      ],
      [
        "ĠE",
        "urope"
      ],
      [
        "or",
        "ld"
      ],
      [
        "Ġsa",
        "f"
      ],
      [
        "p",
        "or"
      ],
      [
        "ak",
        "en"
      ],
      [
        "Ġl",
        "ittle"
      ],
      [
        "Ġpre",
        "vent"
      ],
      [
        "ĠS",
        "ci"
      ],
      [
        "o",
        "id"
      ],
      [
        "Ġse",
        "em"
      ],
      [
        "Ġde",
        "ath"
      ],
      [
        "Ġb",
        "ook"
      ],
      [
        "o",
        "ks"
      ],
      [
        "Ġapp",
        "ear"
      ],
      [
        "an",
        "ces"
      ],
      [
        "Ġcell",
        "s"
      ],
      [
        "Ġth",
        "ings"
      ],
      [
        "Ġab",
        "le"
      ],
      [
        "ĠJ",
        "ohn"
      ],
      [
        "Ġsu",
        "ccess"
      ],
      [
        "ĠE",
        "ar"
      ],
      [
        "1",
        "1"
      ],
      [
        "5",
        "0"
      ],
      [
        "Ġsu",
        "ggest"
      ],
      [
        "Ġcom",
        "e"
      ],
      [
        "Ġp",
        "ut"
      ],
      [
        "Ġpop",
        "ulation"
      ],
      [
        "ot",
        "s"
      ],
      [
        "c",
        "ial"
      ],
      [
        "Ġcent",
        "ury"
      ],
      [
        "pl",
        "oy"
      ],
      [
        "Ġp",
        "ost"
      ],
      [
        "ĠU",
        "S"
      ],
      [
        "Ġproble",
        "m"
      ],
      [
        "ure",
        "d"
      ],
      [
        "Ġha",
        "pp"
      ],
      [
        "op",
        "h"
      ],
      [
        "Ġrec",
        "ord"
      ],
      [
        "Ġs",
        "w"
      ],
      [
        "ort",
        "s"
      ],
      [
        "at",
        "ory"
      ],
      [
        "ress",
        "ion"
      ],
      [
        "Ġcomp",
        "ut"
      ],
      [
        "Ġl",
        "o"
      ],
      [
        "on",
        "es"
      ],
      [
        "Ġdet",
        "erm"
      ],
      [
        "Ġyou",
        "ng"
      ],
      [
        "Ġst",
        "ruct"
      ],
      [
        "Ġass",
        "oci"
      ],
      [
        "b",
        "e"
      ],
      [
        "a",
        "per"
      ],
      [
        "Ġex",
        "ist"
      ],
      [
        "Ġpl",
        "ant"
      ],
      [
        "Ġsh",
        "ort"
      ],
      [
        "Ġacc",
        "ess"
      ],
      [
        "Ġ-",
        "-"
      ],
      [
        "Ġt",
        "urn"
      ],
      [
        "Ġ",
        "|"
      ],
      [
        "ate",
        "ly"
      ],
      [
        "Ġhow",
        "ever"
      ],
      [
        "ĠW",
        "ar"
      ],
      [
        "Ġrese",
        "arc"
      ],
      [
        "Ġv",
        "ir"
      ],
      [
        "id",
        "d"
      ],
      [
        "A",
        "s"
      ],
      [
        "Ġal",
        "ong"
      ],
      [
        "ĠB",
        "e"
      ],
      [
        "ru",
        "g"
      ],
      [
        "Ġsp",
        "ace"
      ],
      [
        "Ġre",
        "le"
      ],
      [
        "Ġest",
        "ab"
      ],
      [
        "p",
        "ect"
      ],
      [
        "le",
        "y"
      ],
      [
        "Ġb",
        "us"
      ],
      [
        "Ġd",
        "ays"
      ],
      [
        "el",
        "f"
      ],
      [
        "Ġpro",
        "m"
      ],
      [
        "ĠT",
        "e"
      ],
      [
        "Ġlevel",
        "s"
      ],
      [
        "\"",
        "."
      ],
      [
        "l",
        "er"
      ],
      [
        "ic",
        "ult"
      ],
      [
        "o",
        "ver"
      ],
      [
        "Ġdesc",
        "rib"
      ],
      [
        "Ġcom",
        "b"
      ],
      [
        "al",
        "f"
      ],
      [
        "an",
        "e"
      ],
      [
        "Ġben",
        "ef"
      ],
      [
        "le",
        "ment"
      ],
      [
        "et",
        "ic"
      ],
      [
        "Ġsystem",
        "s"
      ],
      [
        "Ġus",
        "ually"
      ],
      [
        "Ġam",
        "ount"
      ],
      [
        "u",
        "ed"
      ],
      [
        "em",
        "ber"
      ],
      [
        "Ġs",
        "ing"
      ],
      [
        "w",
        "ork"
      ],
      [
        "m",
        "ber"
      ],
      [
        "er",
        "c"
      ],
      [
        "Ġle",
        "t"
      ],
      [
        "W",
        "e"
      ],
      [
        "Ġ",
        "ill"
      ],
      [
        "Ġf",
        "il"
      ],
      [
        "Ġtyp",
        "e"
      ],
      [
        "Ġp",
        "ast"
      ],
      [
        "v",
        "ious"
      ],
      [
        "Ġcount",
        "ries"
      ],
      [
        "Ġh",
        "ard"
      ],
      [
        "at",
        "ors"
      ],
      [
        "a",
        "f"
      ],
      [
        "Ġindu",
        "st"
      ],
      [
        "b",
        "y"
      ],
      [
        "ĠG",
        "erm"
      ],
      [
        "Ġle",
        "ast"
      ],
      [
        "m",
        "ost"
      ],
      [
        "ru",
        "ction"
      ],
      [
        "ore",
        "d"
      ],
      [
        "ra",
        "y"
      ],
      [
        "o",
        "x"
      ],
      [
        "Ġbec",
        "ame"
      ],
      [
        "n",
        "al"
      ],
      [
        "Ġab",
        "ove"
      ],
      [
        "oc",
        "us"
      ],
      [
        "Ġeduc",
        "ation"
      ],
      [
        "ere",
        "nce"
      ],
      [
        "u",
        "ment"
      ],
      [
        "ĠG",
        "en"
      ],
      [
        "Ġc",
        "irc"
      ],
      [
        "Ġle",
        "ft"
      ],
      [
        "Ġcol",
        "le"
      ],
      [
        "Ġlike",
        "ly"
      ],
      [
        "Ġsim",
        "ilar"
      ],
      [
        "ut",
        "ure"
      ],
      [
        "ap",
        "e"
      ],
      [
        "Ġspec",
        "ial"
      ],
      [
        "Ġd",
        "ra"
      ],
      [
        "Ġne",
        "ver"
      ],
      [
        "Ġsignific",
        "ant"
      ],
      [
        "Ġc",
        "reat"
      ],
      [
        "Ġf",
        "low"
      ],
      [
        "Ġinv",
        "est"
      ],
      [
        "Ġm",
        "ov"
      ],
      [
        "Ġn",
        "ational"
      ],
      [
        "Ġcle",
        "ar"
      ],
      [
        "w",
        "h"
      ],
      [
        "ob",
        "al"
      ],
      [
        "Ġg",
        "re"
      ],
      [
        "ĠâĢ",
        "ĺ"
      ],
      [
        "is",
        "c"
      ],
      [
        "Ġm",
        "ult"
      ],
      [
        "ot",
        "t"
      ],
      [
        "a",
        "im"
      ],
      [
        "Ġ",
        "er"
      ],
      [
        "Ġc",
        "hem"
      ],
      [
        "end",
        "ing"
      ],
      [
        "eth",
        "ing"
      ],
      [
        "ĠS",
        "c"
      ],
      [
        "Ġbe",
        "gin"
      ],
      [
        "rib",
        "ut"
      ],
      [
        "ec",
        "ially"
      ],
      [
        "c",
        "le"
      ],
      [
        "Ġresult",
        "s"
      ],
      [
        "Ġgen",
        "eral"
      ],
      [
        "as",
        "ter"
      ],
      [
        "f",
        "or"
      ],
      [
        "om",
        "an"
      ],
      [
        "Ġcommun",
        "ity"
      ],
      [
        "ort",
        "un"
      ],
      [
        "ĠAf",
        "ric"
      ],
      [
        "ain",
        "ing"
      ],
      [
        "I",
        "f"
      ],
      [
        "Ġd",
        "ri"
      ],
      [
        "Ġ19",
        "7"
      ],
      [
        "Ġoff",
        "ic"
      ],
      [
        "Ġcour",
        "se"
      ],
      [
        "Ġchar",
        "acter"
      ],
      [
        "Ġpr",
        "im"
      ],
      [
        "ĠG",
        "e"
      ],
      [
        "y",
        "m"
      ],
      [
        "Ġs",
        "ite"
      ],
      [
        "led",
        "ge"
      ],
      [
        "Ġne",
        "xt"
      ],
      [
        "Ġpl",
        "ac"
      ],
      [
        "Ġp",
        "arent"
      ],
      [
        "v",
        "al"
      ],
      [
        "Ġto",
        "day"
      ],
      [
        "ear",
        "ch"
      ],
      [
        "Ġfun",
        "ction"
      ],
      [
        "i",
        "am"
      ],
      [
        "g",
        "es"
      ],
      [
        "ed",
        "i"
      ],
      [
        "Ġlangu",
        "age"
      ],
      [
        "ĠHe",
        "alth"
      ],
      [
        "Ġchang",
        "es"
      ],
      [
        "Ġg",
        "r"
      ],
      [
        "od",
        "e"
      ],
      [
        "esp",
        "ecially"
      ],
      [
        "Ġincre",
        "ase"
      ],
      [
        "N",
        "A"
      ],
      [
        "ĠM",
        "ay"
      ],
      [
        "ĠW",
        "orld"
      ],
      [
        "le",
        "t"
      ],
      [
        "s",
        "w"
      ],
      [
        "ĠG",
        "o"
      ],
      [
        "Ġtem",
        "per"
      ],
      [
        "Ġcon",
        "n"
      ],
      [
        "3",
        "0"
      ],
      [
        "Ġdo",
        "ct"
      ],
      [
        "Ġen",
        "c"
      ],
      [
        "en",
        "n"
      ],
      [
        "Ġc",
        "rit"
      ],
      [
        "Ġne",
        "cess"
      ],
      [
        "Ġfe",
        "el"
      ],
      [
        "ĠY",
        "ork"
      ],
      [
        "art",
        "ment"
      ],
      [
        "as",
        "ing"
      ],
      [
        "il",
        "ities"
      ],
      [
        "Ġdiff",
        "icult"
      ],
      [
        "Ġwor",
        "ds"
      ],
      [
        "ic",
        "ation"
      ],
      [
        "iv",
        "il"
      ],
      [
        "Ġlear",
        "n"
      ],
      [
        "Ġas",
        "k"
      ],
      [
        "Ġl",
        "ine"
      ],
      [
        "il",
        "t"
      ],
      [
        "Ġ3",
        "0"
      ],
      [
        "Ġm",
        "aking"
      ],
      [
        "al",
        "es"
      ],
      [
        "S",
        "t"
      ],
      [
        "l",
        "o"
      ],
      [
        "ub",
        "lic"
      ],
      [
        "et",
        "er"
      ],
      [
        "Ġdisc",
        "uss"
      ],
      [
        "ĠWh",
        "at"
      ],
      [
        "Ġg",
        "ive"
      ],
      [
        "i",
        "pp"
      ],
      [
        "our",
        "s"
      ],
      [
        "r",
        "ight"
      ],
      [
        "Ġd",
        "ue"
      ],
      [
        "Ġf",
        "ull"
      ],
      [
        "ive",
        "ly"
      ],
      [
        "du",
        "ct"
      ],
      [
        "Ġcond",
        "itions"
      ],
      [
        "Ġf",
        "und"
      ],
      [
        "Ġ1",
        "4"
      ],
      [
        "ĠL",
        "e"
      ],
      [
        "ĠC",
        "ar"
      ],
      [
        "sel",
        "ves"
      ],
      [
        "Ġstud",
        "ies"
      ],
      [
        "Ġhig",
        "her"
      ],
      [
        "Ġrep",
        "resent"
      ],
      [
        "Ġs",
        "ide"
      ],
      [
        "Ġbeh",
        "av"
      ],
      [
        "ĠAmeric",
        "a"
      ],
      [
        "a",
        "pp"
      ],
      [
        "o",
        "ber"
      ],
      [
        "Ġa",
        "way"
      ],
      [
        "Ġt",
        "ru"
      ],
      [
        "Ġprof",
        "ess"
      ],
      [
        "Ġal",
        "ways"
      ],
      [
        "it",
        "or"
      ],
      [
        "age",
        "ment"
      ],
      [
        "Ġsom",
        "ething"
      ],
      [
        "ff",
        "ic"
      ],
      [
        "orm",
        "al"
      ],
      [
        "ĠN",
        "orth"
      ],
      [
        "Ġf",
        "ocus"
      ],
      [
        "y",
        "d"
      ],
      [
        "r",
        "ate"
      ],
      [
        "Ġc",
        "ases"
      ],
      [
        "Ġt",
        "erm"
      ],
      [
        "ĠM",
        "ar"
      ],
      [
        "Ġd",
        "r"
      ],
      [
        "Ġsub",
        "ject"
      ],
      [
        "Ġch",
        "o"
      ],
      [
        "Ġsci",
        "ence"
      ],
      [
        "Ġcomple",
        "te"
      ],
      [
        "Ġpol",
        "ic"
      ],
      [
        "ur",
        "ch"
      ],
      [
        "Ġk",
        "ind"
      ],
      [
        "one",
        "y"
      ],
      [
        "Ġc",
        "r"
      ],
      [
        "ac",
        "c"
      ],
      [
        "Ġg",
        "round"
      ],
      [
        "Ġup",
        "on"
      ],
      [
        "at",
        "ch"
      ],
      [
        "Ġb",
        "rain"
      ],
      [
        "Ġto",
        "get"
      ],
      [
        "Ġtoget",
        "her"
      ],
      [
        "Ġd",
        "am"
      ],
      [
        "Ġen",
        "ough"
      ],
      [
        "Ġc",
        "ity"
      ],
      [
        "Ġstr",
        "ong"
      ],
      [
        "Ġspec",
        "ific"
      ],
      [
        "ĠD",
        "ep"
      ],
      [
        "Ġwor",
        "ks"
      ],
      [
        "Ġte",
        "ac"
      ],
      [
        "Ġresearc",
        "hers"
      ],
      [
        "Wh",
        "at"
      ],
      [
        "ra",
        "ms"
      ],
      [
        "av",
        "es"
      ],
      [
        "Ġs",
        "um"
      ],
      [
        "Ġtechn",
        "ology"
      ],
      [
        "Ġf",
        "uture"
      ],
      [
        "Ġh",
        "ouse"
      ],
      [
        "Ġ",
        "especially"
      ],
      [
        "Ġ",
        "z"
      ],
      [
        "i",
        "ation"
      ],
      [
        "Ġwhe",
        "ther"
      ],
      [
        "Ġn",
        "et"
      ],
      [
        "p",
        "ort"
      ],
      [
        "ĠC",
        "al"
      ],
      [
        "ĠA",
        "b"
      ],
      [
        "Ġinf",
        "lu"
      ],
      [
        "om",
        "es"
      ],
      [
        "ir",
        "d"
      ],
      [
        "1",
        "5"
      ],
      [
        "it",
        "ing"
      ],
      [
        "an",
        "n"
      ],
      [
        "es",
        "c"
      ],
      [
        "Ġresp",
        "ons"
      ],
      [
        "ĠS",
        "outh"
      ],
      [
        "Ġe",
        "y"
      ],
      [
        "ĠJ",
        "ew"
      ],
      [
        "s",
        "on"
      ],
      [
        "u",
        "nt"
      ],
      [
        "Ġgroup",
        "s"
      ],
      [
        "us",
        "h"
      ],
      [
        "Ġeffect",
        "s"
      ],
      [
        ".",
        ")"
      ],
      [
        "ist",
        "ic"
      ],
      [
        "Ġlear",
        "ning"
      ],
      [
        "ĠS",
        "ome"
      ],
      [
        "Ġha",
        "ving"
      ],
      [
        "is",
        "on"
      ],
      [
        "y",
        "l"
      ],
      [
        "Ġrel",
        "ig"
      ],
      [
        "Ġcon",
        "cer"
      ],
      [
        "F",
        "or"
      ],
      [
        "Ġ19",
        "6"
      ],
      [
        "Ġpat",
        "ients"
      ],
      [
        "ĠO",
        "ne"
      ],
      [
        "s",
        "h"
      ],
      [
        "ib",
        "r"
      ],
      [
        "Ġobs",
        "erv"
      ],
      [
        "ĠA",
        "m"
      ],
      [
        "The",
        "re"
      ],
      [
        "S",
        "A"
      ],
      [
        "Ġf",
        "urther"
      ],
      [
        "Ġcons",
        "um"
      ],
      [
        "o",
        "ot"
      ],
      [
        "Ġapp",
        "lic"
      ],
      [
        "pt",
        "oms"
      ],
      [
        "a",
        "pt"
      ],
      [
        "un",
        "g"
      ],
      [
        "ove",
        "red"
      ],
      [
        "it",
        "ary"
      ],
      [
        "a",
        "e"
      ],
      [
        "Ġimp",
        "act"
      ],
      [
        "Ġac",
        "ross"
      ],
      [
        "Ġpre",
        "d"
      ],
      [
        "Ġret",
        "urn"
      ],
      [
        "read",
        "y"
      ],
      [
        "Ġmem",
        "bers"
      ],
      [
        "Ġte",
        "am"
      ],
      [
        "Ġvar",
        "ious"
      ],
      [
        "A",
        "n"
      ],
      [
        "Ġl",
        "ower"
      ],
      [
        "Ġw",
        "ind"
      ],
      [
        "E",
        "R"
      ],
      [
        "Ġrequ",
        "ire"
      ],
      [
        "ĠR",
        "ep"
      ],
      [
        "Ġfl",
        "u"
      ],
      [
        "Ġre",
        "ason"
      ],
      [
        "1",
        "3"
      ],
      [
        "Ġt",
        "ry"
      ],
      [
        "1",
        "7"
      ],
      [
        "Ġdevelop",
        "ed"
      ],
      [
        "ĠEng",
        "lish"
      ],
      [
        "ĠS",
        "o"
      ],
      [
        "Ġquest",
        "ion"
      ],
      [
        "Ġprodu",
        "ction"
      ],
      [
        "iqu",
        "e"
      ],
      [
        "re",
        "g"
      ],
      [
        "ric",
        "t"
      ],
      [
        "s",
        "ide"
      ],
      [
        "au",
        "gh"
      ],
      [
        "r",
        "ated"
      ],
      [
        "Ġte",
        "xt"
      ],
      [
        "Ġc",
        "ame"
      ],
      [
        "Ġd",
        "rug"
      ],
      [
        "Ġpro",
        "b"
      ],
      [
        "Ġse",
        "en"
      ],
      [
        "sy",
        "ch"
      ],
      [
        "Ġind",
        "ic"
      ],
      [
        "Ġe",
        "ither"
      ],
      [
        "am",
        "m"
      ],
      [
        "1",
        "6"
      ],
      [
        "Ġst",
        "at"
      ],
      [
        "ĠEar",
        "th"
      ],
      [
        "y",
        "n"
      ],
      [
        "ĠB",
        "l"
      ],
      [
        "ver",
        "age"
      ],
      [
        "ĠSt",
        "ate"
      ],
      [
        "Ġf",
        "ive"
      ],
      [
        "/",
        "/"
      ],
      [
        "or",
        "g"
      ],
      [
        "Ġr",
        "ather"
      ],
      [
        "a",
        "ut"
      ],
      [
        "Ġf",
        "all"
      ],
      [
        "Ġsur",
        "face"
      ],
      [
        "Ġan",
        "n"
      ],
      [
        "Ġs",
        "it"
      ],
      [
        "Ġconsid",
        "er"
      ],
      [
        "Ġf",
        "ield"
      ],
      [
        "et",
        "imes"
      ],
      [
        "th",
        "ing"
      ],
      [
        "Ġ",
        "ur"
      ],
      [
        "Ġt",
        "aken"
      ],
      [
        "Ġacc",
        "ording"
      ],
      [
        "ĠAs",
        "s"
      ],
      [
        "i",
        "ol"
      ],
      [
        "Ġcl",
        "ose"
      ],
      [
        "ĠTh",
        "at"
      ],
      [
        "Ġpl",
        "ants"
      ],
      [
        "Ġright",
        "s"
      ],
      [
        "ib",
        "ility"
      ],
      [
        "Ġres",
        "ources"
      ],
      [
        "Ġev",
        "idence"
      ],
      [
        "i",
        "res"
      ],
      [
        "re",
        "am"
      ],
      [
        "Ġph",
        "ot"
      ],
      [
        "Ġpolit",
        "ical"
      ],
      [
        "Ġm",
        "ot"
      ],
      [
        "1",
        "4"
      ],
      [
        "er",
        "y"
      ],
      [
        "Ġwh",
        "y"
      ],
      [
        "c",
        "hes"
      ],
      [
        "at",
        "ures"
      ],
      [
        "_",
        "_"
      ],
      [
        "Ġst",
        "ates"
      ],
      [
        "Ġ1",
        "3"
      ],
      [
        "re",
        "l"
      ],
      [
        "Ġacc",
        "ount"
      ],
      [
        "Ġal",
        "ready"
      ],
      [
        "ific",
        "ation"
      ],
      [
        "Ġm",
        "ass"
      ],
      [
        "ĠH",
        "ist"
      ],
      [
        "Ġwork",
        "ing"
      ],
      [
        "tt",
        "p"
      ],
      [
        "on",
        "st"
      ],
      [
        "Ġcl",
        "imate"
      ],
      [
        "Ġwor",
        "d"
      ],
      [
        "ĠD",
        "r"
      ],
      [
        "ed",
        "eral"
      ],
      [
        "Ġd",
        "est"
      ],
      [
        "ach",
        "ing"
      ],
      [
        "ĠS",
        "oc"
      ],
      [
        "Ġd",
        "one"
      ],
      [
        "Ġl",
        "ive"
      ],
      [
        "ri",
        "ed"
      ],
      [
        "Ġf",
        "ail"
      ],
      [
        "Ġme",
        "et"
      ],
      [
        "os",
        "is"
      ],
      [
        ":",
        "//"
      ],
      [
        "Ġneed",
        "s"
      ],
      [
        "ys",
        "is"
      ],
      [
        "our",
        "nal"
      ],
      [
        "Ġgo",
        "ing"
      ],
      [
        "ul",
        "es"
      ],
      [
        "ch",
        "ie"
      ],
      [
        "Ġto",
        "ward"
      ],
      [
        "Ġev",
        "ent"
      ],
      [
        "Ġcre",
        "ate"
      ],
      [
        "Ġ",
        "X"
      ],
      [
        "Ġprot",
        "ect"
      ],
      [
        "Ġde",
        "g"
      ],
      [
        "ing",
        "ton"
      ],
      [
        "Ġrel",
        "ations"
      ],
      [
        "Ġs",
        "ource"
      ],
      [
        "Ġsing",
        "le"
      ],
      [
        "b",
        "on"
      ],
      [
        "Ġ",
        "ri"
      ],
      [
        "Ġm",
        "ic"
      ],
      [
        "m",
        "y"
      ],
      [
        "Ġto",
        "t"
      ],
      [
        "ĠA",
        "ust"
      ],
      [
        "Ġr",
        "ate"
      ],
      [
        "Ġtra",
        "dition"
      ],
      [
        "Ġhist",
        "or"
      ],
      [
        "Ġs",
        "ens"
      ],
      [
        "p",
        "s"
      ],
      [
        "Ġpub",
        "lished"
      ],
      [
        "Ġrec",
        "ogn"
      ],
      [
        "ro",
        "wn"
      ],
      [
        "Ġexperi",
        "ence"
      ],
      [
        "o",
        "on"
      ],
      [
        "ate",
        "g"
      ],
      [
        "ill",
        "ed"
      ],
      [
        "r",
        "ont"
      ],
      [
        "ĠM",
        "an"
      ],
      [
        "Ġ",
        "ess"
      ],
      [
        "Ġr",
        "ange"
      ],
      [
        "Ġbe",
        "gan"
      ],
      [
        "Ġin",
        "it"
      ],
      [
        "ĠS",
        "he"
      ],
      [
        "Ġke",
        "y"
      ],
      [
        "Ġar",
        "g"
      ],
      [
        "Ġimpro",
        "ve"
      ],
      [
        "h",
        "ib"
      ],
      [
        "Ġl",
        "a"
      ],
      [
        "Ġ19",
        "4"
      ],
      [
        "Ġknow",
        "ledge"
      ],
      [
        "ĠG",
        "u"
      ],
      [
        "Ġmed",
        "ical"
      ],
      [
        "ĠBrit",
        "ish"
      ],
      [
        "Ġw",
        "ays"
      ],
      [
        "Ġto",
        "ol"
      ],
      [
        "re",
        "me"
      ],
      [
        "stit",
        "ute"
      ],
      [
        "Ġcol",
        "lect"
      ],
      [
        "ĠW",
        "ith"
      ],
      [
        "ĠH",
        "is"
      ],
      [
        "Ġo",
        "il"
      ],
      [
        "ĠA",
        "ct"
      ],
      [
        "ci",
        "ent"
      ],
      [
        "it",
        "ud"
      ],
      [
        "Ġpartic",
        "ip"
      ],
      [
        "Ġab",
        "s"
      ],
      [
        "ĠB",
        "y"
      ],
      [
        "ar",
        "ing"
      ],
      [
        "Ġre",
        "d"
      ],
      [
        "Ġd",
        "oc"
      ],
      [
        "Ġro",
        "le"
      ],
      [
        "Ġh",
        "alf"
      ],
      [
        "u",
        "ation"
      ],
      [
        "as",
        "k"
      ],
      [
        "Ġl",
        "iving"
      ],
      [
        "Ġanim",
        "als"
      ],
      [
        "es",
        "tern"
      ],
      [
        "Ġs",
        "ent"
      ],
      [
        "g",
        "est"
      ],
      [
        "Ġp",
        "ort"
      ],
      [
        "ou",
        "ra"
      ],
      [
        "Ġem",
        "ploy"
      ],
      [
        "ro",
        "ll"
      ],
      [
        "u",
        "le"
      ],
      [
        "Ġh",
        "old"
      ],
      [
        "Ġeconom",
        "ic"
      ],
      [
        "Ġval",
        "ue"
      ],
      [
        "Ġd",
        "om"
      ],
      [
        "Ġsym",
        "ptoms"
      ],
      [
        "Ġbe",
        "low"
      ],
      [
        "Ġthem",
        "selves"
      ],
      [
        "Ġre",
        "ally"
      ],
      [
        "Ġit",
        "self"
      ],
      [
        "Ġ201",
        "2"
      ],
      [
        "am",
        "in"
      ],
      [
        "Ġphys",
        "ical"
      ],
      [
        "Ġon",
        "ce"
      ],
      [
        "Ġwho",
        "le"
      ],
      [
        "Ġwh",
        "ite"
      ],
      [
        "Ġl",
        "oss"
      ],
      [
        "ol",
        "l"
      ],
      [
        "Ġincre",
        "ased"
      ],
      [
        "ep",
        "end"
      ],
      [
        "Ġb",
        "ig"
      ],
      [
        "l",
        "ike"
      ],
      [
        "Ġart",
        "icle"
      ],
      [
        "Ġto",
        "ok"
      ],
      [
        "Ġc",
        "ut"
      ],
      [
        "en",
        "ed"
      ],
      [
        "Ġdet",
        "ail"
      ],
      [
        "ol",
        "ic"
      ],
      [
        "Ġadd",
        "ress"
      ],
      [
        "Ġthough",
        "t"
      ],
      [
        "Ġcre",
        "ated"
      ],
      [
        "Ġactiv",
        "ities"
      ],
      [
        "m",
        "b"
      ],
      [
        "p",
        "ut"
      ],
      [
        "u",
        "el"
      ],
      [
        "ĠP",
        "r"
      ],
      [
        "ĠC",
        "omp"
      ],
      [
        "Ġbus",
        "iness"
      ],
      [
        "Ġre",
        "pl"
      ],
      [
        "Ġgrow",
        "th"
      ],
      [
        "Ġsu",
        "n"
      ],
      [
        "Ġcan",
        "not"
      ],
      [
        "Ġal",
        "most"
      ],
      [
        "Ġconsid",
        "ered"
      ],
      [
        "Ġbuild",
        "ing"
      ],
      [
        ")",
        ":"
      ],
      [
        "Ġt",
        "ell"
      ],
      [
        "ac",
        "ks"
      ],
      [
        "Ġbl",
        "ack"
      ],
      [
        "Ġw",
        "r"
      ],
      [
        "Ġst",
        "ory"
      ],
      [
        "C",
        "h"
      ],
      [
        "ip",
        "le"
      ],
      [
        "Ġ201",
        "1"
      ],
      [
        "Ġm",
        "akes"
      ],
      [
        "Ġn",
        "ature"
      ],
      [
        "ĠSt",
        "ud"
      ],
      [
        "ĠP",
        "res"
      ],
      [
        "Ġactiv",
        "ity"
      ],
      [
        "Ġw",
        "ide"
      ],
      [
        "Ġs",
        "al"
      ],
      [
        "f",
        "act"
      ],
      [
        "ĠA",
        "g"
      ],
      [
        "Ġf",
        "ish"
      ],
      [
        "se",
        "qu"
      ],
      [
        "op",
        "y"
      ],
      [
        "ic",
        "ations"
      ],
      [
        "min",
        "ist"
      ],
      [
        "ap",
        "an"
      ],
      [
        "Ġfre",
        "qu"
      ],
      [
        "ĠRes",
        "earch"
      ],
      [
        "Ġtyp",
        "es"
      ],
      [
        "Ġproduct",
        "s"
      ],
      [
        "Ġan",
        "sw"
      ],
      [
        "ve",
        "re"
      ],
      [
        "Ġs",
        "ize"
      ],
      [
        "es",
        "e"
      ],
      [
        "ab",
        "les"
      ],
      [
        "Ġm",
        "or"
      ],
      [
        "ĠI",
        "m"
      ],
      [
        "Ġint",
        "rodu"
      ],
      [
        "g",
        "o"
      ],
      [
        "Ġs",
        "elf"
      ],
      [
        "ight",
        "s"
      ],
      [
        "Ġ201",
        "0"
      ],
      [
        "Ġmod",
        "el"
      ],
      [
        "Ġfam",
        "il"
      ],
      [
        "Ġg",
        "as"
      ],
      [
        "Ġy",
        "et"
      ],
      [
        "Ġmonth",
        "s"
      ],
      [
        "Ġs",
        "ix"
      ],
      [
        "os",
        "es"
      ],
      [
        "Ġrel",
        "ated"
      ],
      [
        "Ġ",
        "ver"
      ],
      [
        "Ġp",
        "aper"
      ],
      [
        "Ġpress",
        "ure"
      ],
      [
        "p",
        "id"
      ],
      [
        "Ġcl",
        "aim"
      ],
      [
        "em",
        "pt"
      ],
      [
        "Ġad",
        "ult"
      ],
      [
        "Ġreg",
        "ion"
      ],
      [
        "Ġo",
        "pt"
      ],
      [
        "ra",
        "d"
      ],
      [
        "Ġneed",
        "ed"
      ],
      [
        "Ġent",
        "ire"
      ],
      [
        "Ġscient",
        "ists"
      ],
      [
        "ĠCan",
        "ad"
      ],
      [
        "Ġm",
        "ind"
      ],
      [
        "ĠCent",
        "er"
      ],
      [
        "Ġwe",
        "ek"
      ],
      [
        "p",
        "ro"
      ],
      [
        "Ġmod",
        "ern"
      ],
      [
        "Ġc",
        "amp"
      ],
      [
        "A",
        "l"
      ],
      [
        "ĠC",
        "o"
      ],
      [
        "ne",
        "y"
      ],
      [
        "itt",
        "ed"
      ],
      [
        "Ġ",
        "vers"
      ],
      [
        "Ġeng",
        "ine"
      ],
      [
        "Ġst",
        "ep"
      ],
      [
        "idd",
        "le"
      ],
      [
        "op",
        "s"
      ],
      [
        "Ġ1",
        "00"
      ],
      [
        "f",
        "er"
      ],
      [
        "Ġa",
        "chie"
      ],
      [
        "a",
        "ff"
      ],
      [
        "re",
        "ct"
      ],
      [
        "Ġc",
        "y"
      ],
      [
        "ul",
        "ations"
      ],
      [
        "ip",
        "s"
      ],
      [
        "Ġgl",
        "obal"
      ],
      [
        "ig",
        "ure"
      ],
      [
        "s",
        "c"
      ],
      [
        "H",
        "ow"
      ],
      [
        "Ġrec",
        "omm"
      ],
      [
        "Ġassoci",
        "ated"
      ],
      [
        "Ġar",
        "ch"
      ],
      [
        "Ġsu",
        "per"
      ],
      [
        "Ġ1",
        "1"
      ],
      [
        "Ġquest",
        "ions"
      ],
      [
        "y",
        "stem"
      ],
      [
        "Ġne",
        "g"
      ],
      [
        "Ġ2",
        "5"
      ],
      [
        "iv",
        "ity"
      ],
      [
        "ac",
        "y"
      ],
      [
        "en",
        "e"
      ],
      [
        "et",
        "y"
      ],
      [
        "h",
        "ing"
      ],
      [
        "l",
        "or"
      ],
      [
        "Ġb",
        "ar"
      ],
      [
        "Ġqu",
        "ality"
      ],
      [
        "Ġf",
        "ri"
      ],
      [
        "Ġaff",
        "ect"
      ],
      [
        "att",
        "le"
      ],
      [
        "Ġl",
        "ab"
      ],
      [
        "ĠI",
        "I"
      ],
      [
        "Ġse",
        "par"
      ],
      [
        "Ġprov",
        "ides"
      ],
      [
        "Ġl",
        "ay"
      ],
      [
        "Ġcomput",
        "er"
      ],
      [
        "uc",
        "k"
      ],
      [
        "Ġcon",
        "cept"
      ],
      [
        "Ġprov",
        "ided"
      ],
      [
        "um",
        "e"
      ],
      [
        "Ġrequ",
        "ired"
      ],
      [
        "iv",
        "al"
      ],
      [
        "ag",
        "ed"
      ],
      [
        "ens",
        "ive"
      ],
      [
        "Ġ5",
        "0"
      ],
      [
        "Ã",
        "©"
      ],
      [
        "ĠC",
        "ont"
      ],
      [
        "a",
        "i"
      ],
      [
        "Ġear",
        "th"
      ],
      [
        "Ġg",
        "e"
      ],
      [
        "ab",
        "it"
      ],
      [
        "ĠN",
        "o"
      ],
      [
        "ound",
        "s"
      ],
      [
        "Ġpot",
        "ential"
      ],
      [
        "er",
        "ve"
      ],
      [
        "m",
        "a"
      ],
      [
        "Ġpri",
        "v"
      ],
      [
        "ur",
        "s"
      ],
      [
        "id",
        "ing"
      ],
      [
        "Ġmaterial",
        "s"
      ],
      [
        "Ġrec",
        "ent"
      ],
      [
        "Ġp",
        "age"
      ],
      [
        "in",
        "ter"
      ],
      [
        "A",
        "R"
      ],
      [
        "Ġe",
        "ver"
      ],
      [
        "Ġchem",
        "ical"
      ],
      [
        "Ġsu",
        "re"
      ],
      [
        "is",
        "ter"
      ],
      [
        "ly",
        "ing"
      ],
      [
        "ri",
        "e"
      ],
      [
        "Ġpart",
        "s"
      ],
      [
        "Ġact",
        "ually"
      ],
      [
        "E",
        "S"
      ],
      [
        "Ġl",
        "ink"
      ],
      [
        "Ġprog",
        "rams"
      ],
      [
        "ir",
        "m"
      ],
      [
        "Ġide",
        "a"
      ],
      [
        "land",
        "s"
      ],
      [
        "Ġm",
        "oney"
      ],
      [
        "ri",
        "pt"
      ],
      [
        "I",
        "D"
      ],
      [
        "Ġcon",
        "duct"
      ],
      [
        "ĠJ",
        "apan"
      ],
      [
        "ut",
        "ions"
      ],
      [
        "T",
        "o"
      ],
      [
        "ĠT",
        "r"
      ],
      [
        "Ġf",
        "ire"
      ],
      [
        "Ġprodu",
        "ce"
      ],
      [
        "Ġpro",
        "te"
      ],
      [
        "at",
        "ter"
      ],
      [
        "ch",
        "an"
      ],
      [
        "Ġredu",
        "ce"
      ],
      [
        "Ġpur",
        "p"
      ],
      [
        "ĠM",
        "in"
      ],
      [
        "Ġsp",
        "e"
      ],
      [
        "ĠDep",
        "artment"
      ],
      [
        "Ġb",
        "ur"
      ],
      [
        "Ġreg",
        "ard"
      ],
      [
        "Ġcomple",
        "x"
      ],
      [
        "ĠP",
        "ar"
      ],
      [
        "rough",
        "t"
      ],
      [
        "Ġtot",
        "al"
      ],
      [
        "Ġparent",
        "s"
      ],
      [
        "c",
        "hed"
      ],
      [
        "Ġd",
        "ig"
      ],
      [
        "Ġch",
        "all"
      ],
      [
        "Ġserv",
        "ices"
      ],
      [
        "ed",
        "s"
      ],
      [
        "Ġmeas",
        "ure"
      ],
      [
        "Ġbu",
        "ilt"
      ],
      [
        "ve",
        "y"
      ],
      [
        "Ġcol",
        "l"
      ],
      [
        "z",
        "e"
      ],
      [
        "p",
        "ly"
      ],
      [
        "Ġsim",
        "ple"
      ],
      [
        "ut",
        "es"
      ],
      [
        "W",
        "hen"
      ],
      [
        "b",
        "o"
      ],
      [
        "Ġp",
        "ay"
      ],
      [
        "Ġa",
        "st"
      ],
      [
        "Ġiss",
        "ues"
      ],
      [
        "ict",
        "ion"
      ],
      [
        "ĠS",
        "chool"
      ],
      [
        "ĠH",
        "ar"
      ],
      [
        "ĠSci",
        "ence"
      ],
      [
        "ur",
        "ity"
      ],
      [
        "ie",
        "f"
      ],
      [
        "Ġstud",
        "ent"
      ],
      [
        "Ġsub",
        "st"
      ],
      [
        "Ġreport",
        "ed"
      ],
      [
        "Ġe",
        "mer"
      ],
      [
        "Ġmain",
        "t"
      ],
      [
        "Ġso",
        "il"
      ],
      [
        "g",
        "ing"
      ],
      [
        "ĠW",
        "ill"
      ],
      [
        "Ġf",
        "arm"
      ],
      [
        "Ġh",
        "ttp"
      ],
      [
        "ar",
        "ies"
      ],
      [
        "Ġset",
        "t"
      ],
      [
        "Ġse",
        "x"
      ],
      [
        "ren",
        "ch"
      ],
      [
        "Ġenvironment",
        "al"
      ],
      [
        "Ġs",
        "at"
      ],
      [
        "ic",
        "ine"
      ],
      [
        "ash",
        "ington"
      ],
      [
        "ric",
        "ult"
      ],
      [
        "Ġshow",
        "s"
      ],
      [
        "im",
        "ent"
      ],
      [
        "c",
        "il"
      ],
      [
        "Ġnecess",
        "ary"
      ],
      [
        "Ġrel",
        "ative"
      ],
      [
        "Ġl",
        "iter"
      ],
      [
        "Ġopp",
        "ortun"
      ],
      [
        "Ġsk",
        "in"
      ],
      [
        "Ġac",
        "cept"
      ],
      [
        "Ġre",
        "act"
      ],
      [
        "Ġn",
        "ut"
      ],
      [
        "Ġschool",
        "s"
      ],
      [
        "ex",
        "t"
      ],
      [
        "Ġs",
        "am"
      ],
      [
        "Ġre",
        "v"
      ],
      [
        "Ġd",
        "iet"
      ],
      [
        "2",
        "5"
      ],
      [
        "o",
        "res"
      ],
      [
        "Ġg",
        "reen"
      ],
      [
        "um",
        "p"
      ],
      [
        "ĠJ",
        "an"
      ],
      [
        "Ġunderstand",
        "ing"
      ],
      [
        "Ġl",
        "ed"
      ],
      [
        "Ġpract",
        "ice"
      ],
      [
        "Ġqu",
        "ick"
      ],
      [
        "Ġcon",
        "dition"
      ],
      [
        "tern",
        "al"
      ],
      [
        "m",
        "on"
      ],
      [
        "Ġpat",
        "tern"
      ],
      [
        "Ġhe",
        "av"
      ],
      [
        "in",
        "ary"
      ],
      [
        "Ġsur",
        "v"
      ],
      [
        "Ġa",
        "ction"
      ],
      [
        "ĠA",
        "fter"
      ],
      [
        "am",
        "ed"
      ],
      [
        "uc",
        "le"
      ],
      [
        "imate",
        "ly"
      ],
      [
        "Ġde",
        "b"
      ],
      [
        "Ġab",
        "ility"
      ],
      [
        "Ġthrough",
        "out"
      ],
      [
        "ĠC",
        "ount"
      ],
      [
        "ra",
        "ft"
      ],
      [
        "Ġserv",
        "ice"
      ],
      [
        "on",
        "se"
      ],
      [
        "Ġ200",
        "9"
      ],
      [
        "um",
        "b"
      ],
      [
        "us",
        "ion"
      ],
      [
        "Ġh",
        "ours"
      ],
      [
        "Ġincre",
        "asing"
      ],
      [
        "Ġcaus",
        "ed"
      ],
      [
        "A",
        "T"
      ],
      [
        "Ġwe",
        "ight"
      ],
      [
        "Ġmil",
        "itary"
      ],
      [
        "ĠIn",
        "f"
      ],
      [
        "ĠP",
        "e"
      ],
      [
        "ĠS",
        "ec"
      ],
      [
        "B",
        "ut"
      ],
      [
        "I",
        "V"
      ],
      [
        "Ġmat",
        "ter"
      ],
      [
        "Ġs",
        "ense"
      ],
      [
        "Ġ200",
        "8"
      ],
      [
        "Ġpre",
        "vious"
      ],
      [
        "ĠJ",
        "u"
      ],
      [
        "Ġgre",
        "ater"
      ],
      [
        "ow",
        "s"
      ],
      [
        "ic",
        "les"
      ],
      [
        "erv",
        "ation"
      ],
      [
        "Ġt",
        "ar"
      ],
      [
        "Ġorig",
        "in"
      ],
      [
        "Ġ",
        "Â"
      ],
      [
        "du",
        "c"
      ],
      [
        "os",
        "ition"
      ],
      [
        "at",
        "ives"
      ],
      [
        "n",
        "ces"
      ],
      [
        "u",
        "ary"
      ],
      [
        "ord",
        "er"
      ],
      [
        "Ġmark",
        "et"
      ],
      [
        "Ġl",
        "ot"
      ],
      [
        "stit",
        "ution"
      ],
      [
        "Ġpos",
        "ition"
      ],
      [
        "Ġse",
        "a"
      ],
      [
        "Ġsu",
        "ff"
      ],
      [
        "Ġtra",
        "vel"
      ],
      [
        "ac",
        "hed"
      ],
      [
        "Ġw",
        "ild"
      ],
      [
        "ect",
        "ions"
      ],
      [
        "ĠA",
        "ug"
      ],
      [
        "Ġeffect",
        "ive"
      ],
      [
        "Ġlong",
        "er"
      ],
      [
        "en",
        "ing"
      ],
      [
        "Ġl",
        "ate"
      ],
      [
        "l",
        "t"
      ],
      [
        "ar",
        "ily"
      ],
      [
        "Ġman",
        "agement"
      ],
      [
        "er",
        "ous"
      ],
      [
        "iz",
        "ing"
      ],
      [
        "it",
        "ation"
      ],
      [
        "Ġtru",
        "e"
      ],
      [
        "ĠIn",
        "stitute"
      ],
      [
        "rop",
        "ri"
      ],
      [
        "Ġfe",
        "et"
      ],
      [
        "he",
        "t"
      ],
      [
        "pr",
        "il"
      ],
      [
        "Ġp",
        "ath"
      ],
      [
        "Ġcont",
        "act"
      ],
      [
        "Ġcol",
        "on"
      ],
      [
        "Ġdi",
        "agn"
      ],
      [
        "Ġstand",
        "ard"
      ],
      [
        "Ġsom",
        "etimes"
      ],
      [
        "Ġcon",
        "c"
      ],
      [
        "Ġsh",
        "all"
      ],
      [
        "ĠE",
        "d"
      ],
      [
        "Ġa",
        "verage"
      ],
      [
        "Ġdesign",
        "ed"
      ],
      [
        "Ġin",
        "ternational"
      ],
      [
        "Ġrelations",
        "hip"
      ],
      [
        "I",
        "N"
      ],
      [
        "ĠK",
        "ing"
      ],
      [
        "Ġt",
        "aking"
      ],
      [
        "Ġter",
        "ms"
      ],
      [
        "ĠCal",
        "if"
      ],
      [
        "Ġfor",
        "ce"
      ],
      [
        "Ġgener",
        "ally"
      ],
      [
        "ce",
        "an"
      ],
      [
        "Ġiss",
        "ue"
      ],
      [
        "ĠE",
        "m"
      ],
      [
        "ad",
        "em"
      ],
      [
        "Ġwrit",
        "ten"
      ],
      [
        "Ġorig",
        "inal"
      ],
      [
        "Ġv",
        "iol"
      ],
      [
        "Ġf",
        "at"
      ],
      [
        "Ġen",
        "s"
      ],
      [
        "Ġfe",
        "ed"
      ],
      [
        "ad",
        "es"
      ],
      [
        "Ġappro",
        "ach"
      ],
      [
        "Ġdoct",
        "or"
      ],
      [
        "ĠW",
        "ashington"
      ],
      [
        "d",
        "om"
      ],
      [
        "b",
        "ased"
      ],
      [
        "c",
        "ies"
      ],
      [
        "Ġd",
        "iv"
      ],
      [
        "Ġag",
        "o"
      ],
      [
        "Ġatt",
        "empt"
      ],
      [
        "Ġt",
        "ax"
      ],
      [
        "b",
        "or"
      ],
      [
        "Ġfact",
        "ors"
      ],
      [
        "ĠJ",
        "une"
      ],
      [
        "cc",
        "ording"
      ],
      [
        "Ġbelie",
        "ve"
      ],
      [
        "Ġinclud",
        "es"
      ],
      [
        "k",
        "now"
      ],
      [
        "Ġ2",
        "4"
      ],
      [
        "Ġass",
        "ess"
      ],
      [
        "i",
        "us"
      ],
      [
        "Ġth",
        "reat"
      ],
      [
        "Ġj",
        "ob"
      ],
      [
        "Ġsh",
        "own"
      ],
      [
        "Ġbehav",
        "ior"
      ],
      [
        "Ġpop",
        "ular"
      ],
      [
        "Ġex",
        "erc"
      ],
      [
        "rap",
        "y"
      ],
      [
        "Ġ",
        "="
      ],
      [
        "ĠAust",
        "ral"
      ],
      [
        "re",
        "w"
      ],
      [
        "Ġprodu",
        "ced"
      ],
      [
        "ther",
        "n"
      ],
      [
        "Ġs",
        "ources"
      ],
      [
        "h",
        "ood"
      ],
      [
        "Ġstruct",
        "ure"
      ],
      [
        "Ġanal",
        "ysis"
      ],
      [
        "er",
        "ation"
      ],
      [
        "Ġprob",
        "ably"
      ],
      [
        "Ġfore",
        "st"
      ],
      [
        "Ġso",
        "ft"
      ],
      [
        "h",
        "old"
      ],
      [
        "ĠM",
        "arch"
      ],
      [
        "ag",
        "ing"
      ],
      [
        "Ġev",
        "ents"
      ],
      [
        "n",
        "ew"
      ],
      [
        "Ġc",
        "ivil"
      ],
      [
        "Ġhe",
        "ld"
      ],
      [
        "Ġatt",
        "ack"
      ],
      [
        "vent",
        "ion"
      ],
      [
        "an",
        "ced"
      ],
      [
        "o",
        "es"
      ],
      [
        "Ġeff",
        "ic"
      ],
      [
        "ĠS",
        "u"
      ],
      [
        "Ġtemper",
        "ature"
      ],
      [
        "ful",
        "ly"
      ],
      [
        "Ġscient",
        "ific"
      ],
      [
        "Ġoffic",
        "ial"
      ],
      [
        "19",
        "9"
      ],
      [
        "eng",
        "th"
      ],
      [
        "Ġre",
        "view"
      ],
      [
        "orn",
        "ia"
      ],
      [
        "l",
        "ies"
      ],
      [
        "le",
        "x"
      ],
      [
        "le",
        "ase"
      ],
      [
        "use",
        "um"
      ],
      [
        "ri",
        "al"
      ],
      [
        "Ġest",
        "im"
      ],
      [
        "ĠB",
        "o"
      ],
      [
        "r",
        "im"
      ],
      [
        "ron",
        "ic"
      ],
      [
        "Ġsp",
        "read"
      ],
      [
        "ist",
        "ance"
      ],
      [
        "is",
        "ing"
      ],
      [
        "Ġinclud",
        "ed"
      ],
      [
        "il",
        "le"
      ],
      [
        "Ġcol",
        "or"
      ],
      [
        "Ġc",
        "e"
      ],
      [
        "l",
        "ight"
      ],
      [
        "Ġn",
        "ormal"
      ],
      [
        "Ġd",
        "ou"
      ],
      [
        "he",
        "st"
      ],
      [
        "ww",
        "w"
      ],
      [
        "Ġs",
        "ou"
      ],
      [
        "le",
        "ep"
      ],
      [
        "O",
        "n"
      ],
      [
        "Ġfor",
        "ms"
      ],
      [
        "Ġc",
        "oun"
      ],
      [
        "Ġser",
        "ies"
      ],
      [
        "Ġl",
        "og"
      ],
      [
        "ĠF",
        "ran"
      ],
      [
        "Ġs",
        "low"
      ],
      [
        "Ġcar",
        "bon"
      ],
      [
        "Ġto",
        "wn"
      ],
      [
        "Ġindust",
        "ry"
      ],
      [
        "ress",
        "ed"
      ],
      [
        "O",
        "N"
      ],
      [
        "Ġresp",
        "ect"
      ],
      [
        "'",
        "re"
      ],
      [
        "Ġs",
        "qu"
      ],
      [
        "Ġth",
        "ing"
      ],
      [
        "Ġc",
        "it"
      ],
      [
        "ist",
        "ics"
      ],
      [
        "Ġcom",
        "es"
      ],
      [
        "Ġinvol",
        "ved"
      ],
      [
        "Ġim",
        "age"
      ],
      [
        "Ġparticular",
        "ly"
      ],
      [
        "in",
        "ks"
      ],
      [
        "Ġex",
        "c"
      ],
      [
        "Ġsim",
        "ply"
      ],
      [
        "Ġhe",
        "at"
      ],
      [
        "e",
        "al"
      ],
      [
        "ers",
        "on"
      ],
      [
        "as",
        "c"
      ],
      [
        "am",
        "b"
      ],
      [
        "Ġst",
        "op"
      ],
      [
        "Ġdis",
        "pl"
      ],
      [
        "O",
        "R"
      ],
      [
        "Ġf",
        "a"
      ],
      [
        "ĠW",
        "est"
      ],
      [
        "Ġb",
        "ab"
      ],
      [
        "Ġ200",
        "7"
      ],
      [
        "ĠF",
        "rench"
      ],
      [
        "Ġcont",
        "ent"
      ],
      [
        "Ġme",
        "chan"
      ],
      [
        "ĠO",
        "ct"
      ],
      [
        "Ġ",
        "ut"
      ],
      [
        "Ġf",
        "em"
      ],
      [
        "Ġinter",
        "act"
      ],
      [
        "o",
        "ly"
      ],
      [
        "Ġestab",
        "lished"
      ],
      [
        "Ġth",
        "ous"
      ],
      [
        "ĠP",
        "er"
      ],
      [
        "Ġt",
        "alk"
      ],
      [
        "av",
        "ing"
      ],
      [
        "ĠP",
        "ress"
      ],
      [
        "Ġpo",
        "or"
      ],
      [
        "ec",
        "ause"
      ],
      [
        "ct",
        "ions"
      ],
      [
        "Ġp",
        "ict"
      ],
      [
        "Ġus",
        "es"
      ],
      [
        "Ġde",
        "ep"
      ],
      [
        "Y",
        "ou"
      ],
      [
        "iss",
        "ions"
      ],
      [
        "Ġthe",
        "ory"
      ],
      [
        "Ġnum",
        "bers"
      ],
      [
        "ce",
        "ed"
      ],
      [
        "Ġb",
        "ring"
      ],
      [
        "Ġm",
        "agn"
      ],
      [
        "ĠR",
        "iver"
      ],
      [
        "Ġdem",
        "onst"
      ],
      [
        "Ġpolic",
        "y"
      ],
      [
        "n",
        "s"
      ],
      [
        "ĠC",
        "ong"
      ],
      [
        "Ġindividual",
        "s"
      ],
      [
        "Ġmove",
        "ment"
      ],
      [
        "Ġth",
        "us"
      ],
      [
        "Ġvis",
        "it"
      ],
      [
        "ĠPres",
        "ident"
      ],
      [
        "und",
        "red"
      ],
      [
        "Ġcont",
        "ain"
      ],
      [
        "is",
        "ions"
      ],
      [
        "e",
        "v"
      ],
      [
        "ĠD",
        "av"
      ],
      [
        "Ġperson",
        "al"
      ],
      [
        "ĠQ",
        "u"
      ],
      [
        "Ġpol",
        "l"
      ],
      [
        "ul",
        "ated"
      ],
      [
        "Ġdevelop",
        "ing"
      ],
      [
        "Ġsoc",
        "iety"
      ],
      [
        "Ġread",
        "ing"
      ],
      [
        "ĠCalif",
        "ornia"
      ],
      [
        "Ġout",
        "side"
      ],
      [
        "Ġn",
        "orth"
      ],
      [
        "h",
        "aps"
      ],
      [
        "Ġin",
        "j"
      ],
      [
        "Ġn",
        "ation"
      ],
      [
        "Ġvar",
        "i"
      ],
      [
        "Ġcaus",
        "es"
      ],
      [
        "ĠCh",
        "ina"
      ],
      [
        "Ġvar",
        "iety"
      ],
      [
        "itud",
        "e"
      ],
      [
        "Ġc",
        "at"
      ],
      [
        "Ġtra",
        "ining"
      ],
      [
        "ul",
        "ate"
      ],
      [
        "Ġa",
        "p"
      ],
      [
        "Ġ4",
        "0"
      ],
      [
        "ĠGo",
        "vern"
      ],
      [
        "ograph",
        "y"
      ],
      [
        "n",
        "ers"
      ],
      [
        "Ġem",
        "b"
      ],
      [
        "Ġl",
        "ives"
      ],
      [
        "Ġl",
        "abor"
      ],
      [
        "ĠWh",
        "ile"
      ],
      [
        "Ġser",
        "ious"
      ],
      [
        "Ġinvest",
        "ig"
      ],
[...]
