{
  "version": "1.0",
  "truncation": null,
  "padding": null,
  "added_tokens": [
    {
      "id": 0,
      "content": "<|bos|>",
      "single_word": false,
      "lstrip": false,
      "rstrip": false,
      "normalized": false,
      "special": true
    },
    {
      "id": 1,
      "content": "<|user_start|>",
      "single_word": false,
      "lstrip": false,
      "rstrip": false,
      "normalized": false,
      "special": true
    },
    {
      "id": 2,
      "content": "<|user_end|>",
      "single_word": false,
      "lstrip": false,
      "rstrip": false,
      "normalized": false,
      "special": true
    },
    {
      "id": 3,
      "content": "<|assistant_start|>",
      "single_word": false,
      "lstrip": false,
      "rstrip": false,
      "normalized": false,
      "special": true
    },
    {
      "id": 4,
      "content": "<|assistant_end|>",
      "single_word": false,
      "lstrip": false,
      "rstrip": false,
      "normalized": false,
      "special": true
    },
    {
      "id": 5,
      "content": "<|python_start|>",
      "single_word": false,
      "lstrip": false,
      "rstrip": false,
      "normalized": false,
      "special": true
    },
    {
      "id": 6,
      "content": "<|python_end|>",
      "single_word": false,
      "lstrip": false,
      "rstrip": false,
      "normalized": false,
      "special": true
    },
    {
      "id": 7,
      "content": "<|output_start|>",
      "single_word": false,
      "lstrip": false,
      "rstrip": false,
      "normalized": false,
      "special": true
    },
    {
      "id": 8,
      "content": "<|output_end|>",
      "single_word": false,
      "lstrip": false,
      "rstrip": false,
      "normalized": false,
      "special": true
    },
    {
      "id": 9,
      "content": "<|unk|>",
      "single_word": false,
      "lstrip": false,
      "rstrip": false,
      "normalized": false,
      "special": true
    }
  ],
  "normalizer": null,
  "pre_tokenizer": {
    "type": "Sequence",
    "pretokenizers": [
      {
        "type": "Split",
        "pattern": {
          "Regex": "'(?i:[sdmt]|ll|ve|re)|[^\\r\\n\\p{L}\\p{N}]?+\\p{L}+|\\p{N}{1,2}| ?[^\\s\\p{L}\\p{N}]++[\\r\\n]*|\\s*[\\r\\n]|\\s+(?!\\S)|\\s+"
        },
        "behavior": "Isolated",
        "invert": false
      },
      {
        "type": "ByteLevel",
        "add_prefix_space": false,
        "trim_offsets": true,
        "use_regex": false
      }
    ]
  },
  "post_processor": {
    "type": "TemplateProcessing",
    "single": [
      {
        "Sequence": {
          "id": "A",
          "type_id": 0
        }
      }
    ],
    "pair": [
      {
        "Sequence": {
          "id": "A",
          "type_id": 0
        }
      },
      {
        "Sequence": {
          "id": "B",
          "type_id": 1
        }
      }
    ],
    "special_tokens": {}
  },
  "decoder": null,
  "model": {
    "type": "BPE",
    "dropout": null,
    "unk_token": "<|unk|>",
    "continuing_subword_prefix": null,
    "end_of_word_suffix": null,
    "fuse_unk": false,
    "byte_fallback": false,
    "ignore_merges": false,
    "vocab": {
      "<|bos|>": 0,
      "<|user_start|>": 1,
      "<|user_end|>": 2,
      "<|assistant_start|>": 3,
      "<|assistant_end|>": 4,
      "<|python_start|>": 5,
      "<|python_end|>": 6,
      "<|output_start|>": 7,
      "<|output_end|>": 8,
      "<|unk|>": 9,
      "!": 10,
      "\"": 11,
      "#": 12,
      "$": 13,
      "%": 14,
      "&": 15,
      "'": 16,
      "(": 17,
      ")": 18,
      "*": 19,
      "+": 20,
      ",": 21,
      "-": 22,
      ".": 23,
      "/": 24,
      "0": 25,
      "1": 26,
      "2": 27,
      "3": 28,
      "4": 29,
      "5": 30,
      "6": 31,
      "7": 32,
      "8": 33,
      "9": 34,
      ":": 35,
      ";": 36,
      "<": 37,
      "=": 38,
      ">": 39,
      "?": 40,
      "@": 41,
      "A": 42,
      "B": 43,
      "C": 44,
      "D": 45,
      "E": 46,
      "F": 47,
      "G": 48,
      "H": 49,
      "I": 50,
      "J": 51,
      "K": 52,
      "L": 53,
      "M": 54,
      "N": 55,
      "O": 56,
      "P": 57,
      "Q": 58,
      "R": 59,
      "S": 60,
      "T": 61,
      "U": 62,
      "V": 63,
      "W": 64,
      "X": 65,
      "Y": 66,
      "Z": 67,
      "[": 68,
      "\\": 69,
      "]": 70,
      "^": 71,
      "_": 72,
      "`": 73,
      "a": 74,
      "b": 75,
      "c": 76,
      "d": 77,
      "e": 78,
      "f": 79,
      "g": 80,
      "h": 81,
      "i": 82,
      "j": 83,
      "k": 84,
      "l": 85,
      "m": 86,
      "n": 87,
      "o": 88,
      "p": 89,
      "q": 90,
      "r": 91,
      "s": 92,
      "t": 93,
      "u": 94,
      "v": 95,
      "w": 96,
      "x": 97,
      "y": 98,
      "z": 99,
      "{": 100,
      "|": 101,
      "}": 102,
      "~": 103,
      "¡": 104,
      "¢": 105,
      "£": 106,
      "¤": 107,
      "¥": 108,
      "¦": 109,
      "§": 110,
      "¨": 111,
      "©": 112,
      "ª": 113,
      "«": 114,
      "¬": 115,
      "®": 116,
      "¯": 117,
      "°": 118,
      "±": 119,
      "²": 120,
      "³": 121,
      "´": 122,
      "µ": 123,
      "¶": 124,
      "·": 125,
      "¸": 126,
      "¹": 127,
      "º": 128,
      "»": 129,
      "¼": 130,
      "½": 131,
      "¾": 132,
      "¿": 133,
      "À": 134,
      "Á": 135,
      "Â": 136,
      "Ã": 137,
      "Ä": 138,
      "Å": 139,
      "Æ": 140,
      "Ç": 141,
      "È": 142,
      "É": 143,
      "Ê": 144,
      "Ë": 145,
      "Ì": 146,
      "Í": 147,
      "Î": 148,
      "Ï": 149,
      "Ð": 150,
      "Ñ": 151,
      "Ò": 152,
      "Ó": 153,
      "Ô": 154,
      "Õ": 155,
      "Ö": 156,
      "×": 157,
      "Ø": 158,
      "Ù": 159,
      "Ú": 160,
      "Û": 161,
      "Ü": 162,
      "Ý": 163,
      "Þ": 164,
      "ß": 165,
      "à": 166,
      "á": 167,
      "â": 168,
      "ã": 169,
      "ä": 170,
      "å": 171,
      "æ": 172,
      "ç": 173,
      "è": 174,
      "é": 175,
      "ê": 176,
      "ë": 177,
      "ì": 178,
      "í": 179,
      "î": 180,
      "ï": 181,
      "ð": 182,
      "ñ": 183,
      "ò": 184,
      "ó": 185,
      "ô": 186,
      "õ": 187,
      "ö": 188,
      "÷": 189,
      "ø": 190,
      "ù": 191,
      "ú": 192,
      "û": 193,
      "ü": 194,
      "ý": 195,
      "þ": 196,
      "ÿ": 197,
      "Ā": 198,
      "ā": 199,
      "Ă": 200,
      "ă": 201,
      "Ą": 202,
      "ą": 203,
      "Ć": 204,
      "ć": 205,
      "Ĉ": 206,
      "ĉ": 207,
      "Ċ": 208,
      "ċ": 209,
      "Č": 210,
      "č": 211,
      "Ď": 212,
      "ď": 213,
      "Đ": 214,
      "đ": 215,
      "Ē": 216,
      "ē": 217,
      "Ĕ": 218,
      "ĕ": 219,
      "Ė": 220,
      "ė": 221,
      "Ę": 222,
      "ę": 223,
      "Ě": 224,
      "ě": 225,
      "Ĝ": 226,
      "ĝ": 227,
      "Ğ": 228,
      "ğ": 229,
      "Ġ": 230,
      "ġ": 231,
      "Ģ": 232,
      "ģ": 233,
      "Ĥ": 234,
      "ĥ": 235,
      "Ħ": 236,
      "ħ": 237,
      "Ĩ": 238,
      "ĩ": 239,
      "Ī": 240,
      "ī": 241,
      "Ĭ": 242,
      "ĭ": 243,
      "Į": 244,
      "į": 245,
      "İ": 246,
      "ı": 247,
      "Ĳ": 248,
      "ĳ": 249,
      "Ĵ": 250,
      "ĵ": 251,
      "Ķ": 252,
      "ķ": 253,
      "ĸ": 254,
      "Ĺ": 255,
      "ĺ": 256,
      "Ļ": 257,
      "ļ": 258,
      "Ľ": 259,
      "ľ": 260,
      "Ŀ": 261,
      "ŀ": 262,
      "Ł": 263,
      "ł": 264,
      "Ń": 265,
      "Ġt": 266,
      "Ġa": 267,
      "in": 268,
      "he": 269,
      "re": 270,
      "on": 271,
      "Ġthe": 272,
      "er": 273,
      "Ġs": 274,
      "at": 275,
      "Ġc": 276,
      "Ġo": 277,
      "es": 278,
      "en": 279,
      "Ġw": 280,
      "nd": 281,
      "it": 282,
      "ing": 283,
      "is": 284,
      "Ġp": 285,
      "or": 286,
      "Ġb": 287,
      "Ġf": 288,
      "ou": 289,
      "al": 290,
      "an": 291,
      "Ġm": 292,
      "ed": 293,
      "Ġto": 294,
      "Ġof": 295,
      "Ġin": 296,
      "ar": 297,
      "Ġd": 298,
      "Ġand": 299,
      "ion": 300,
      "ic": 301,
      "le": 302,
      "ro": 303,
      "as": 304,
      "Ġth": 305,
      "Ġh": 306,
      "ct": 307,
      "Ġe": 308,
      "ent": 309,
      "Ġl": 310,
      "ve": 311,
      "il": 312,
      "Ġre": 313,
      "om": 314,
      "us": 315,
      "Ġis": 316,
      "Ġn": 317,
      ".Ċ": 318,
      "et": 319,
      "Ġy": 320,
      "ly": 321,
      "Ġg": 322,
      "Ġyou": 323,
      "ot": 324,
      "ow": 325,
      "Ġbe": 326,
      "ut": 327,
      "im": 328,
      "ĠT": 329,
      "id": 330,
      "st": 331,
      "ol": 332,
      "ig": 333,
      "ce": 334,
      "Ġfor": 335,
      "ra": 336,
      "ĠA": 337,
      "ch": 338,
      "ation": 339,
      "ur": 340,
      "ĠI": 341,
      "Ġon": 342,
      "Ġst": 343,
      "Ġthat": 344,
      "ir": 345,
      "ver": 346,
      "el": 347,
      "ul": 348,
      "Ġit": 349,
      "ith": 350,
      "Ġare": 351,
      "ay": 352,
      "Ġpro": 353,
      "se": 354,
      "if": 355,
      "Ġwith": 356,
      "am": 357,
      "Ġan": 358,
      "ĠS": 359,
      "Ġor": 360,
      "Ġas": 361,
      "est": 362,
      ".ĊĊ": 363,
      "Ġcon": 364,
      "her": 365,
      "ĠC": 366,
      "Ġal": 367,
      "od": 368,
      "ĊĊ": 369,
      "ad": 370,
      "un": 371,
      "ter": 372,
      "Ġcan": 373,
      "ke": 374,
      "Ġwh": 375,
      "ge": 376,
      "ĠThe": 377,
      "ure": 378,
      "ab": 379,
      "ate": 380,
      "ess": 381,
      "Ġex": 382,
      "ill": 383,
      "um": 384,
      "Ġcom": 385,
      "Ġha": 386,
      "ĠW": 387,
      "ant": 388,
      "Ġhe": 389,
      "pe": 390,
      "ore": 391,
      "ers": 392,
      "igh": 393,
      "qu": 394,
      "th": 395,
      "'s": 396,
      "em": 397,
      "ive": 398,
      "Ġus": 399,
      "ies": 400,
      "Ġv": 401,
      "Ġyour": 402,
      "op": 403,
      "ity": 404,
      "Ġwe": 405,
      "ac": 406,
      "ain": 407,
      "ment": 408,
      "ĠM": 409,
      "os": 410,
      "Ġde": 411,
      "ist": 412,
      "ĠP": 413,
      "ld": 414,
      "rom": 415,
      "Ġne": 416,
      "Ġ(": 417,
      "ĠB": 418,
      "ect": 419,
      "Ġen": 420,
      "pp": 421,
      "Ġsu": 422,
      "Ġch": 423,
      "Ġse": 424,
      "Ġr": 425,
      "Ġat": 426,
      "Ġsh": 427,
      "ial": 428,
      "iv": 429,
      "ort": 430,
      "ight": 431,
      "Ġhave": 432,
      "Ġfrom": 433,
      "Ġle": 434,
      "oc": 435,
      "ĠH": 436,
      "ĠD": 437,
      "og": 438,
      "Ġby": 439,
      "res": 440,
      "nt": 441,
      "Ġpl": 442,
      "and": 443,
      "Ġnot": 444,
      "per": 445,
      "art": 446,
      "ĠF": 447,
      "ud": 448,
      "ust": 449,
      "all": 450,
      "ical": 451,
      "Ġthis": 452,
      "ome": 453,
      "ri": 454,
      "rou": 455,
      "Ġab": 456,
      "act": 457,
      "Ġu": 458,
      "ĠE": 459,
      "ould": 460,
      "ide": 461,
      "out": 462,
      "Ġma": 463,
      "ns": 464,
      "pt": 465,
      "ost": 466,
      "ĠR": 467,
      "ine": 468,
      "Ġim": 469,
      "Ġwas": 470,
      "ions": 471,
      "du": 472,
      "Ġdo": 473,
      "ard": 474,
      "ell": 475,
      "ich": 476,
      "pl": 477,
      "Ġwhe": 478,
      "gh": 479,
      "red": 480,
      "âĢ": 481,
      "Ġint": 482,
      "Ġk": 483,
      "Ġwor": 484,
      "Ġwill": 485,
      "our": 486,
      "ff": 487,
      "iz": 488,
      "ther": 489,
      "Ġtheir": 490,
      "Ġthey": 491,
      "ĠN": 492,
      "Ġcomp": 493,
      "ast": 494,
      "age": 495,
      "The": 496,
      "ater": 497,
      "ood": 498,
      "Ġad": 499,
      "king": 500,
      "ĠL": 501,
      "Ġall": 502,
      "ĠG": 503,
      "Ġmore": 504,
      "able": 505,
      "ag": 506,
      "ated": 507,
      "ks": 508,
      "end": 509,
      "ult": 510,
      "ere": 511,
      "ally": 512,
      "hat": 513,
      "ans": 514,
      "Ġcont": 515,
      "ĠO": 516,
      "oo": 517,
      "ib": 518,
      "Ġbut": 519,
      "Ġso": 520,
      "ind": 521,
      "wer": 522,
      "Ġinc": 523,
      "ous": 524,
      "estion": 525,
      "Ġme": 526,
      "Ġcl": 527,
      "so": 528,
      "Ġj": 529,
      "ip": 530,
      "ry": 531,
      "ru": 532,
      "ep": 533,
      "Ġte": 534,
      "Qu": 535,
      "ance": 536,
      "Ġres": 537,
      "Ġ\"": 538,
      "ike": 539,
      "cc": 540,
      "Ġhas": 541,
      "orm": 542,
      "ong": 543,
      "Ġdis": 544,
      "Ġwhich": 545,
      "are": 546,
      "vel": 547,
      "Ġsp": 548,
      "Ġout": 549,
      "ations": 550,
      "Ġun": 551,
      "ear": 552,
      "Ġimp": 553,
      "Ġother": 554,
      "nswer": 555,
      "Question": 556,
      "ie": 557,
      "Ġone": 558,
      "ction": 559,
      "his": 560,
      "Ġalso": 561,
      "av": 562,
      "very": 563,
      "ents": 564,
      "ĠAnswer": 565,
      "20": 566,
      "ice": 567,
      "ase": 568,
      "one": 569,
      "Ġman": 570,
      "ence": 571,
      "Ġspe": 572,
      "Ġtim": 573,
      "reat": 574,
      "ign": 575,
      "aus": 576,
      "'t": 577,
      "ĠU": 578,
      "ĠIn": 579,
      "ace": 580,
      "ass": 581,
      "ary": 582,
      "ens": 583,
      "ack": 584,
      "ap": 585,
      "Ġfe": 586,
      "Ġthem": 587,
      "Ġper": 588,
      "ach": 589,
      "Ġabout": 590,
      "ition": 591,
      "ors": 592,
      "ĠIt": 593,
      "Ġsc": 594,
      "low": 595,
      "Ġup": 596,
      "Ġlike": 597,
      "Ġev": 598,
      "Ġpre": 599,
      "ress": 600,
      "Ġro": 601,
      "iff": 602,
      "Ġsome": 603,
      "ile": 604,
      "Ġsy": 605,
      "ia": 606,
      "Ġwhen": 607,
      "ire": 608,
      "ound": 609,
      "Ġqu": 610,
      "now": 611,
      "ces": 612,
      "ue": 613,
      "Ġpart": 614,
      "ose": 615,
      "ite": 616,
      "Ġif": 617,
      "ild": 618,
      "Ġcol": 619,
      "ame": 620,
      "te": 621,
      "ak": 622,
      "Ġneed": 623,
      "Ġinto": 624,
      "..": 625,
      "Ġdiff": 626,
      "Ġhow": 627,
      "Ġtime": 628,
      "form": 629,
      "ber": 630,
      "ĠY": 631,
      "Ġuse": 632,
      "Ġapp": 633,
      "Ġthan": 634,
      "ric": 635,
      "Ġtra": 636,
      "ĠThis": 637,
      "Ġbec": 638,
      "Ġits": 639,
      "Ġmay": 640,
      "Ġar": 641,
      "row": 642,
      "ail": 643,
      "Ġhel": 644,
      "ays": 645,
      "Ġthere": 646,
      "lect": 647,
      "ings": 648,
      "ause": 649,
      "ĠWhat": 650,
      "Ġpe": 651,
      "ll": 652,
      "Ġover": 653,
      "Ġbl": 654,
      "Ġrec": 655,
      "Ġany": 656,
      "nder": 657,
      "ific": 658,
      "ree": 659,
      "ond": 660,
      "Ġbet": 661,
      "Ġthese": 662,
      "Ġhelp": 663,
      "Ġcomm": 664,
      "Ġco": 665,
      "Ġspec": 666,
      "cess": 667,
      "ating": 668,
      "als": 669,
      "Ġdes": 670,
      "les": 671,
      "stem": 672,
      "ord": 673,
      "hy": 674,
      "ough": 675,
      "ang": 676,
      "Ġcons": 677,
      "int": 678,
      "Ġknow": 679,
      "Ġind": 680,
      "ory": 681,
      "Ġtr": 682,
      "we": 683,
      "Ġget": 684,
      "olog": 685,
      "ish": 686,
      "Ġwater": 687,
      "Ġgo": 688,
      "Ġstud": 689,
      "ake": 690,
      "rough": 691,
      "ons": 692,
      "ature": 693,
      "ular": 694,
      "ĠâĢ": 695,
      "ĠJ": 696,
      "ove": 697,
      "Ġgen": 698,
      "Ġused": 699,
      "Ġsa": 700,
      "ari": 701,
      "Ġprodu": 702,
      "Ġeff": 703,
      "ub": 704,
      "Ġam": 705,
      "Ġwhat": 706,
      "Ġdiffere": 707,
      "Ġoff": 708,
      "ount": 709,
      "vers": 710,
      "ck": 711,
      "Ġfl": 712,
      "Ġwere": 713,
      "Ġact": 714,
      "ting": 715,
      "Ġmost": 716,
      "ook": 717,
      "Ġunder": 718,
      "erg": 719,
      "round": 720,
      "ople": 721,
      "Ġnew": 722,
      "ms": 723,
      "erv": 724,
      "Ġra": 725,
      "Ġyear": 726,
      "Ġour": 727,
      "Ġsuch": 728,
      "ick": 729,
      "ning": 730,
      "Ġwho": 731,
      "ates": 732,
      "ne": 733,
      "Ġacc": 734,
      "Ġprov": 735,
      "lud": 736,
      "Ġadd": 737,
      "ject": 738,
      "Ġsystem": 739,
      "ient": 740,
      "Ġmake": 741,
      "Ġcar": 742,
      "alth": 743,
      "ple": 744,
      "Ġshould": 745,
      "Ġsm": 746,
      "ility": 747,
      "oth": 748,
      "Ġag": 749,
      "ĠSt": 750,
      "Ġtw": 751,
      "xt": 752,
      "eth": 753,
      "uring": 754,
      "10": 755,
      "Ġwould": 756,
      "Ġbeen": 757,
      "Ġpeople": 758,
      "Ġem": 759,
      "ful": 760,
      "Ġno": 761,
      "ange": 762,
      "irst": 763,
      "Ġthrough": 764,
      "Ġwork": 765,
      "Ġmy": 766,
      "oss": 767,
      "Ġpr": 768,
      "ments": 769,
      "Ġinclud": 770,
      "Ġjust": 771,
      "hes": 772,
      "Ġdi": 773,
      "ph": 774,
      "Ġty": 775,
      "ced": 776,
      "ise": 777,
      "ark": 778,
      "ble": 779,
      "Ġonly": 780,
      "ĠK": 781,
      "Ġpo": 782,
      "ics": 783,
      "Ġrel": 784,
      "ities": 785,
      "Ġinter": 786,
      "Ġhigh": 787,
      "ov": 788,
      "ob": 789,
      "ĠV": 790,
      "Ġplant": 791,
      "velop": 792,
      "ower": 793,
      "its": 794,
      "ative": 795,
      "Ġreg": 796,
      "19": 797,
      "ten": 798,
      "Ġ-": 799,
      "hen": 800,
      "Ġke": 801,
      "Ġmany": 802,
      "Ġsur": 803,
      "own": 804,
      "ible": 805,
      "Ġob": 806,
      "chn": 807,
      "fore": 808,
      "tain": 809,
      "Ġdifferent": 810,
      "old": 811,
      "Ġdoes": 812,
      "Ġbu": 813,
      "Ġtwo": 814,
      "ience": 815,
      "fter": 816,
      "Ġrem": 817,
      "Ġwell": 818,
      "Ġexper": 819,
      "ual": 820,
      "hed": 821,
      "ract": 822,
      "ased": 823,
      "Ġche": 824,
      "Ġwhere": 825,
      "Ġhealth": 826,
      "ink": 827,
      "Ġtrans": 828,
      "ween": 829,
      "ren": 830,
      "Ġac": 831,
      "Ġdevelop": 832,
      "ram": 833,
      "uch": 834,
      "ize": 835,
      "get": 836,
      "Ġfirst": 837,
      "Ġmod": 838,
      "Ġrep": 839,
      "Ġinv": 840,
      "cy": 841,
      "Ġlong": 842,
      "lic": 843,
      "ft": 844,
      "rit": 845,
      "Ġvari": 846,
      "Ġbetween": 847,
      "00": 848,
      "Ġsupp": 849,
      "Ġimport": 850,
      "ade": 851,
      "ife": 852,
      "mer": 853,
      "ually": 854,
      "Ġsim": 855,
      "Ġbecause": 856,
      "Ġcould": 857,
      "Ġvery": 858,
      "Ġprocess": 859,
      "Ġway": 860,
      "Ġcre": 861,
      "Ġusing": 862,
      "Ġdec": 863,
      "Ġdet": 864,
      "Ġgrow": 865,
      "atter": 866,
      "In": 867,
      "ution": 868,
      "Ġeven": 869,
      "Ġthen": 870,
      "ĠIf": 871,
      "Ġinf": 872,
      "ts": 873,
      "Ġinst": 874,
      "ential": 875,
      "ĠCh": 876,
      "Ġass": 877,
      "Ġfood": 878,
      "rib": 879,
      "gan": 880,
      "erm": 881,
      "arch": 882,
      "Ġevery": 883,
      "ergy": 884,
      "ically": 885,
      "?Ċ": 886,
      "Ġtechn": 887,
      "iqu": 888,
      "ef": 889,
      "ps": 890,
      "Ġatt": 891,
      "ever": 892,
      "ĠHow": 893,
      "ĠThey": 894,
      "Ġph": 895,
      "Ġmain": 896,
      "wn": 897,
      "ins": 898,
      "ily": 899,
      "ural": 900,
      "ines": 901,
      "iron": 902,
      "Ġlight": 903,
      "ious": 904,
      "--": 905,
      "Ġsk": 906,
      "iss": 907,
      "Ġeffect": 908,
      "'re": 909,
      "pect": 910,
      "ĠYou": 911,
      "Ġnum": 912,
      "arm": 913,
      "oy": 914,
      "Ġgra": 915,
      "Ġrequ": 916,
      "Ġrese": 917,
      "Ġmuch": 918,
      "ool": 919,
      "Ġsub": 920,
      "Ġext": 921,
      "Ġsign": 922,
      "ures": 923,
      ").": 924,
      "Ġsee": 925,
      "Ġhad": 926,
      "Ġlar": 927,
      "ron": 928,
      "Ġhum": 929,
      "Ġform": 930,
      "Ġexp": 931,
      "gg": 932,
      "Ġsol": 933,
      "Ġhis": 934,
      "Ġmin": 935,
      "Ġins": 936,
      "ian": 937,
      "Ġexam": 938,
      "Ġgood": 939,
      "Ġgener": 940,
      "uc": 941,
      "Ġloc": 942,
      "Ġfun": 943,
      "Ġeach": 944,
      "Ġsmall": 945,
      "Ġdisc": 946,
      "Ġfind": 947,
      "Ġback": 948,
      "Ġimportant": 949,
      "ollow": 950,
      "cial": 951,
      "Ġincre": 952,
      "Ġyears": 953,
      "Ġdon": 954,
      "Ġdog": 955,
      "Ġset": 956,
      "Ġlear": 957,
      "ology": 958,
      "ness": 959,
      "stand": 960,
      "ody": 961,
      "vent": 962,
      "Ġcle": 963,
      "ruct": 964,
      "other": 965,
      "Ġear": 966,
      "?ĊĊ": 967,
      "ath": 968,
      "ety": 969,
      "Ġafter": 970,
      "ĠWh": 971,
      "Ġwant": 972,
      "ĠâĢĵ": 973,
      "),": 974,
      "Ġpres": 975,
      "Ġwhile": 976,
      "viron": 977,
      "ix": 978,
      "ata": 979,
      "ues": 980,
      "Ġenergy": 981,
      "urn": 982,
      "Ġelect": 983,
      "Ġstart": 984,
      "Ġve": 985,
      "ied": 986,
      "ational": 987,
      "Ġpers": 988,
      "Ġresult": 989,
      "Ġfound": 990,
      "ĠAs": 991,
      "Ġdesign": 992,
      "Ġav": 993,
      "Ġcur": 994,
      "Ġfact": 995,
      "Ġgl": 996,
      "ros": 997,
      "ec": 998,
      "Ġchild": 999,
      "Ġtake": 1000,
      "elf": 1001,
      "ality": 1002,
      "aterial": 1003,
      "ock": 1004,
      "Ġart": 1005,
      "ĠUn": 1006,
      "Ġair": 1007,
      "tle": 1008,
      "ption": 1009,
      "Ġref": 1010,
      "ices": 1011,
      "Ġbeing": 1012,
      "Ġmed": 1013,
      "Ġcomple": 1014,
      "ists": 1015,
      "Ġlevel": 1016,
      "Ġcall": 1017,
      "Ġduring": 1018,
      "Ġhand": 1019,
      "Ġdist": 1020,
      "Ġdep": 1021,
      "Ġher": 1022,
      "Ġfollow": 1023,
      "Ġsame": 1024,
      "Ġpartic": 1025,
      "Ġpot": 1026,
      "Ġworld": 1027,
      "ident": 1028,
      "Ġcell": 1029,
      "ets": 1030,
      "Ġbefore": 1031,
      "ages": 1032,
      "Ġcor": 1033,
      "ases": 1034,
      "Ġeas": 1035,
      "Ġshe": 1036,
      "Ġaround": 1037,
      "Ġbr": 1038,
      "Ġexpl": 1039,
      "els": 1040,
      ".\"": 1041,
      "eg": 1042,
      "nce": 1043,
      "ider": 1044,
      "ds": 1045,
      "Ġallow": 1046,
      "Ġinform": 1047,
      "Ġdown": 1048,
      "Ġmaterial": 1049,
      "Ġtem": 1050,
      "Ġown": 1051,
      "Ġbre": 1052,
      "vironment": 1053,
      "Ġproble": 1054,
      "Ġchar": 1055,
      "ew": 1056,
      "Ġbo": 1057,
      "Ġthose": 1058,
      "dition": 1059,
      "12": 1060,
      "cl": 1061,
      "Ġsec": 1062,
      "omm": 1063,
      "chool": 1064,
      "ized": 1065,
      "ĠWe": 1066,
      "Ġshow": 1067,
      "ys": 1068,
      "io": 1069,
      "Ġboth": 1070,
      "Ġmon": 1071,
      "air": 1072,
      "Ġent": 1073,
      "Ġprog": 1074,
      "ives": 1075,
      "Ġlife": 1076,
      "Ġlead": 1077,
      "Ġbest": 1078,
      "Ġtyp": 1079,
      "rop": 1080,
      "Ġstr": 1081,
      "ale": 1082,
      "ection": 1083,
      "ĠFor": 1084,
      "ng": 1085,
      "ides": 1086,
      "rol": 1087,
      "Ġval": 1088,
      "ork": 1089,
      "Ġright": 1090,
      "Ġplay": 1091,
      "Ġdata": 1092,
      "Ġpower": 1093,
      "Ġredu": 1094,
      "Ġtoo": 1095,
      "ather": 1096,
      "ining": 1097,
      "ward": 1098,
      "Ġoften": 1099,
      "Ġvis": 1100,
      "Ġed": 1101,
      "ted": 1102,
      "Ġmade": 1103,
      "Ġkeep": 1104,
      "iel": 1105,
      "Ġdr": 1106,
      "read": 1107,
      "Ġaut": 1108,
      "ien": 1109,
      "Ġpop": 1110,
      "ier": 1111,
      "Ġend": 1112,
      "aw": 1113,
      "cer": 1114,
      "rent": 1115,
      "Ġread": 1116,
      "Ġcat": 1117,
      "ull": 1118,
      "bs": 1119,
      ":Ċ": 1120,
      "Ġanim": 1121,
      "ving": 1122,
      "Ġunderstand": 1123,
      "ited": 1124,
      "Ġsom": 1125,
      "ium": 1126,
      "ĠHe": 1127,
      "Ġmet": 1128,
      "ty": 1129,
      "Ġadv": 1130,
      "Ġbody": 1131,
      "ger": 1132,
      "Ġless": 1133,
      "hys": 1134,
      "Ġtest": 1135,
      "up": 1136,
      "Ġday": 1137,
      "iving": 1138,
      "iew": 1139,
      "Ġperson": 1140,
      "ĠAl": 1141,
      "imate": 1142,
      "Ġcommon": 1143,
      "Ġcare": 1144,
      "ave": 1145,
      "Ġproduct": 1146,
      "Ġgu": 1147,
      "acter": 1148,
      "Ġprot": 1149,
      "ethod": 1150,
      "Ġorgan": 1151,
      "ids": 1152,
      "Ġposs": 1153,
      "ved": 1154,
      "Ġnumber": 1155,
      "ital": 1156,
      "ined": 1157,
      "ute": 1158,
      "ivers": 1159,
      "Ġcommun": 1160,
      "Ġlit": 1161,
      "Ġenvironment": 1162,
      "oci": 1163,
      "Ġsaid": 1164,
      "Ġresp": 1165,
      "ĠPro": 1166,
      "ason": 1167,
      ",\"": 1168,
      "Ġhome": 1169,
      "Ġeng": 1170,
      "Ġinformation": 1171,
      "Ġequ": 1172,
      "perature": 1173,
      "-b": 1174,
      "cept": 1175,
      "eng": 1176,
      "led": 1177,
      "ots": 1178,
      "ars": 1179,
      "the": 1180,
      "aking": 1181,
      "Ġdef": 1182,
      "any": 1183,
      "reen": 1184,
      "cing": 1185,
      "cent": 1186,
      "ĠThese": 1187,
      "Ġap": 1188,
      "Ġtreat": 1189,
      "Ġlook": 1190,
      "ves": 1191,
      "ivid": 1192,
      "Ġproper": 1193,
      "Ġpoint": 1194,
      "What": 1195,
      "rap": 1196,
      "Ġnow": 1197,
      "Ġspecies": 1198,
      "Ġbra": 1199,
      "way": 1200,
      "ands": 1201,
      "Ġsupport": 1202,
      "Ġdid": 1203,
      "Ġ'": 1204,
      "Ġmethod": 1205,
      "ional": 1206,
      "Ġbetter": 1207,
      "ash": 1208,
      "tern": 1209,
      "Ġpain": 1210,
      "15": 1211,
      "Ġcent": 1212,
      "Ġfam": 1213,
      "ven": 1214,
      "Ġmight": 1215,
      "ict": 1216,
      "18": 1217,
      "Ġplan": 1218,
      "Ġstudy": 1219,
      "Ġserv": 1220,
      "Ġgreat": 1221,
      "Ġresearch": 1222,
      "ivity": 1223,
      "con": 1224,
      "der": 1225,
      "ĠBut": 1226,
      "Ġgrou": 1227,
      "Ġens": 1228,
      "Ġprovide": 1229,
      "itions": 1230,
      "Ġsaf": 1231,
      "Ġben": 1232,
      "-s": 1233,
      "kes": 1234,
      "Ġclass": 1235,
      "ĠTh": 1236,
      "Ġpol": 1237,
      "Ġcreat": 1238,
      "Ġwithout": 1239,
      "Ġdire": 1240,
      "How": 1241,
      "Ġtemperature": 1242,
      "Ġlarge": 1243,
      "Ġhy": 1244,
      "Ġop": 1245,
      "Ġstill": 1246,
      "This": 1247,
      "âĢĻ": 1248,
      "ator": 1249,
      "hers": 1250,
      "Ġocc": 1251,
      "ired": 1252,
      "ants": 1253,
      "ole": 1254,
      "...": 1255,
      "ways": 1256,
      "ĠAn": 1257,
      "und": 1258,
      "Ġplants": 1259,
      "day": 1260,
      "ability": 1261,
      "Ġexample": 1262,
      "Ġhuman": 1263,
      "Ġaff": 1264,
      "ĠTo": 1265,
      "Ġprof": 1266,
      "ior": 1267,
      "Ġstudents": 1268,
      "Ġpur": 1269,
      "Ġide": 1270,
      "Ġimpro": 1271,
      "itive": 1272,
      "hip": 1273,
      "ulation": 1274,
      "Ġcreate": 1275,
      "ism": 1276,
      "Ġtext": 1277,
      "me": 1278,
      "Ġtop": 1279,
      "Ġperform": 1280,
      "Ġris": 1281,
      "Ġpos": 1282,
      "inal": 1283,
      "ify": 1284,
      "ĠThere": 1285,
      "ention": 1286,
      "ert": 1287,
      "Ġincluding": 1288,
      "ĠAnd": 1289,
      "Ġbeh": 1290,
      "Ġmem": 1291,
      "ead": 1292,
      "ering": 1293,
      "Ġiss": 1294,
      ":ĊĊ": 1295,
      "cle": 1296,
      "Ġhapp": 1297,
      "If": 1298,
      "less": 1299,
      "Ġey": 1300,
      "Ġchang": 1301,
      "Ġchange": 1302,
      "Ġcurrent": 1303,
      "Ġdise": 1304,
      "ince": 1305,
      "30": 1306,
      "Ġsl": 1307,
      "atural": 1308,
      "Ġmaking": 1309,
      "Ġthree": 1310,
      "Ġopt": 1311,
      "-f": 1312,
      "Ġthink": 1313,
      "icle": 1314,
      "Ġbuild": 1315,
      "Ġcontrol": 1316,
      "here": 1317,
      "ĠSc": 1318,
      "Ġthough": 1319,
      "ross": 1320,
      "Ġfew": 1321,
      "Ġthings": 1322,
      "ared": 1323,
      "It": 1324,
      "Ġwithin": 1325,
      "pr": 1326,
      "Ġpract": 1327,
      "Ġphys": 1328,
      "Ġdig": 1329,
      "Ġdra": 1330,
      "oid": 1331,
      "line": 1332,
      "Ġagain": 1333,
      "oms": 1334,
      "Ġknown": 1335,
      "Ġtype": 1336,
      "Ġcaus": 1337,
      "Ġschool": 1338,
      "ield": 1339,
      "Ġarea": 1340,
      "Ġmust": 1341,
      "ĠCon": 1342,
      "ording": 1343,
      "Ġbas": 1344,
      "ters": 1345,
      "ouse": 1346,
      "Ġrun": 1347,
      "Ġlow": 1348,
      "Ġcontain": 1349,
      "ĠAd": 1350,
      "Ġplace": 1351,
      "ats": 1352,
      "rodu": 1353,
      "Ġbenef": 1354,
      "11": 1355,
      "Ġess": 1356,
      "Ġpat": 1357,
      "Ġident": 1358,
      "Ġbel": 1359,
      "Ġcause": 1360,
      "Ġflow": 1361,
      "Ġser": 1362,
      "ĠHowever": 1363,
      "Ġcal": 1364,
      "Ġconf": 1365,
      "Ġsw": 1366,
      "Ġfeel": 1367,
      "omp": 1368,
      "de": 1369,
      "co": 1370,
      "ique": 1371,
      "ral": 1372,
      "ner": 1373,
      "Ġcount": 1374,
      "Ġindivid": 1375,
      "Ġmeas": 1376,
      "Ġproject": 1377,
      "Ġdev": 1378,
      "Ġdel": 1379,
      "ware": 1380,
      "Ġcalled": 1381,
      "Ġchildren": 1382,
      "Ġappro": 1383,
      "ooking": 1384,
      "apt": 1385,
      "Ġsour": 1386,
      "Ġele": 1387,
      "'ll": 1388,
      "iness": 1389,
      "ern": 1390,
      "ental": 1391,
      "Ġlearn": 1392,
      "Ġmus": 1393,
      "meric": 1394,
      "Ġmark": 1395,
      "Ġhard": 1396,
      "Ġconst": 1397,
      "ĠWhen": 1398,
      "Ġclean": 1399,
      "gen": 1400,
      "Ġsure": 1401,
      "ax": 1402,
      "Ġpotential": 1403,
      "-t": 1404,
      "Ġanother": 1405,
      "Ġtry": 1406,
      "Ġbi": 1407,
      "Ġwhy": 1408,
      "Ġprevent": 1409,
      "Ġsurf": 1410,
      "Ġcost": 1411,
      "Ġheat": 1412,
      "Ġcontin": 1413,
      "Ġobject": 1414,
      "etic": 1415,
      "Ġdam": 1416,
      "ination": 1417,
      "ething": 1418,
      "Ġsignific": 1419,
      "Ġreally": 1420,
      "50": 1421,
      "Ġreal": 1422,
      "Ġconn": 1423,
      "Ġphot": 1424,
      "erest": 1425,
      "iversity": 1426,
      "Ġfollowing": 1427,
      "ense": 1428,
      "ization": 1429,
      "ertain": 1430,
      "aring": 1431,
      "ĠSo": 1432,
      "iven": 1433,
      "Ġinvol": 1434,
      "Ġbir": 1435,
      "Ġspecific": 1436,
      "uss": 1437,
      "Ġdue": 1438,
      "Ġavail": 1439,
      "ex": 1440,
      "br": 1441,
      "ling": 1442,
      "Ġsit": 1443,
      "Ġhere": 1444,
      "'ve": 1445,
      "ank": 1446,
      "ently": 1447,
      "Ġwee": 1448,
      "Ġmult": 1449,
      "Ġpar": 1450,
      "Ġfunction": 1451,
      "Ġconsider": 1452,
      "Ġcap": 1453,
      "Ġcolor": 1454,
      "Ġoper": 1455,
      "ime": 1456,
      "Ġtre": 1457,
      "ug": 1458,
      "Ġinclude": 1459,
      "Ġmove": 1460,
      "Ġable": 1461,
      "atch": 1462,
      "Ġpub": 1463,
      "Ġvarious": 1464,
      "Ġexperience": 1465,
      "oot": 1466,
      "ĠPl": 1467,
      "ĠAmeric": 1468,
      "Ġlot": 1469,
      "Ġappe": 1470,
      "Ġsomething": 1471,
      "ape": 1472,
      "Ġgr": 1473,
      "Ġstand": 1474,
      "Ġnatural": 1475,
      "Ġcour": 1476,
      "Ġrest": 1477,
      "__": 1478,
      "Ġ=": 1479,
      "Ġsal": 1480,
      "Ġdirect": 1481,
      "ills": 1482,
      "Ġaddition": 1483,
      "Ġsize": 1484,
      "olution": 1485,
      "Ġlittle": 1486,
      "land": 1487,
      "Ġpress": 1488,
      "Ġsun": 1489,
      "Ġsay": 1490,
      "Ġcy": 1491,
      "Ġcond": 1492,
      "Ġstate": 1493,
      "ients": 1494,
      "ished": 1495,
      "St": 1496,
      "port": 1497,
      "Ġcomput": 1498,
      "ration": 1499,
      "osed": 1500,
      "Ġhead": 1501,
      "ĠIs": 1502,
      "ĠAr": 1503,
      "ected": 1504,
      "Ġfree": 1505,
      "Ġstep": 1506,
      "Ġtool": 1507,
      "Ġcells": 1508,
      "Ġanal": 1509,
      "aves": 1510,
      "Ġold": 1511,
      "Ġsever": 1512,
      "Ġlast": 1513,
      "thing": 1514,
      "Ġbecome": 1515,
      "ered": 1516,
      "Ġest": 1517,
      "Ġhig": 1518,
      "Ġlet": 1519,
      "Ġput": 1520,
      "Ġpossible": 1521,
      "Ġcomb": 1522,
      "Ġamount": 1523,
      "oes": 1524,
      "iver": 1525,
      "of": 1526,
      "Ġspace": 1527,
      "Ġel": 1528,
      "Ġstruct": 1529,
      "ane": 1530,
      "Ġimpact": 1531,
      "Ġlim": 1532,
      "Ġant": 1533,
      "ends": 1534,
      "Ġcr": 1535,
      "Ġsoil": 1536,
      "Ġapplic": 1537,
      "work": 1538,
      "Ġsecond": 1539,
      "Ġalways": 1540,
      "ĠEx": 1541,
      "Ġareas": 1542,
      "akes": 1543,
      "Ġneeds": 1544,
      "oad": 1545,
      "Ġpresent": 1546,
      "Ġopen": 1547,
      "Ġvol": 1548,
      "Ġfeature": 1549,
      "16": 1550,
      "Ġfil": 1551,
      "ocus": 1552,
      "over": 1553,
      "Ġprogram": 1554,
      "Ġscient": 1555,
      "Ġmeans": 1556,
      "au": 1557,
      "Ġprom": 1558,
      "Ġpass": 1559,
      "Ġret": 1560,
      "Ġbased": 1561,
      "ode": 1562,
      "cul": 1563,
      "Ġavailable": 1564,
      "ĠĠ": 1565,
      "Ġcome": 1566,
      "Ġgoing": 1567,
      "Ġseveral": 1568,
      "Ġdevelopment": 1569,
      "Ġprovid": 1570,
      "ified": 1571,
      "Ġmean": 1572,
      "ox": 1573,
      "Ġsym": 1574,
      "Ġsystems": 1575,
      "13": 1576,
      "bers": 1577,
      "ending": 1578,
      "Ġsignificant": 1579,
      "Ġunt": 1580,
      "iod": 1581,
      "14": 1582,
      "ush": 1583,
      "Ġes": 1584,
      "aper": 1585,
      "----": 1586,
      "Ġpost": 1587,
      "Ġcut": 1588,
      "Ġfin": 1589,
      "ances": 1590,
      "Ġinterest": 1591,
      "put": 1592,
      "ilar": 1593,
      "Ġmaterials": 1594,
      "gn": 1595,
      "az": 1596,
      "ccess": 1597,
      "Ġ[": 1598,
      "Ġrange": 1599,
      "Ġrequire": 1600,
      "arc": 1601,
      "Ġimm": 1602,
      "NA": 1603,
      "ĠSh": 1604,
      "-d": 1605,
      "ards": 1606,
      "Ġnut": 1607,
      "ote": 1608,
      "ieve": 1609,
      "Ġparticular": 1610,
      "Ġproblem": 1611,
      "eds": 1612,
      "ended": 1613,
      "ton": 1614,
      "ĠWhich": 1615,
      "ication": 1616,
      "be": 1617,
      "ries": 1618,
      "Ġchem": 1619,
      "Ġspecial": 1620,
      "Ġindust": 1621,
      "Ġoccur": 1622,
      "ably": 1623,
      "Ġtimes": 1624,
      "Ġblood": 1625,
      "Ġtypes": 1626,
      "Ġcir": 1627,
      "orn": 1628,
      "aces": 1629,
      "Ġhist": 1630,
      "Ġcertain": 1631,
      "ours": 1632,
      "-c": 1633,
      "ones": 1634,
      "âĢĶ": 1635,
      "Ġfish": 1636,
      "ips": 1637,
      "Ġdesc": 1638,
      "Ġusually": 1639,
      "fort": 1640,
      "outh": 1641,
      "af": 1642,
      "pecial": 1643,
      "urther": 1644,
      "Ġgive": 1645,
      "ateg": 1646,
      "Ġteam": 1647,
      "Ġeffective": 1648,
      "As": 1649,
      "Ġbus": 1650,
      "ems": 1651,
      "Ġessential": 1652,
      "Ġdeterm": 1653,
      "'m": 1654,
      "omes": 1655,
      "ring": 1656,
      "Ġbeg": 1657,
      "Ġmakes": 1658,
      "Ġprote": 1659,
      "ples": 1660,
      "Ġdem": 1661,
      "ency": 1662,
      "Ġmonth": 1663,
      "ological": 1664,
      "ories": 1665,
      "ocial": 1666,
      "arent": 1667,
      "Ġprofess": 1668,
      "Ġconditions": 1669,
      "Ġfre": 1670,
      "ĠCl": 1671,
      "Ġfocus": 1672,
      "Ġensure": 1673,
      "inc": 1674,
      "Ġkey": 1675,
      "ĠRe": 1676,
      "Ġquality": 1677,
      "Ġgroup": 1678,
      "Ġrisk": 1679,
      "We": 1680,
      "Ġopp": 1681,
      "-p": 1682,
      "ah": 1683,
      "Ġanimals": 1684,
      "atic": 1685,
      "Ġz": 1686,
      "ires": 1687,
      "Ġaccess": 1688,
      "ĠCan": 1689,
      "ustom": 1690,
      "Ġtechnology": 1691,
      "Ġnear": 1692,
      "Ġcho": 1693,
      "Ġeffic": 1694,
      "Ġbig": 1695,
      "Ġlevels": 1696,
      "Ġline": 1697,
      "ĠRes": 1698,
      "Ġdisease": 1699,
      "Ġet": 1700,
      "Ġreport": 1701,
      "Ġsurface": 1702,
      "Ġenough": 1703,
      "ee": 1704,
      "22": 1705,
      "amp": 1706,
      "alk": 1707,
      "ables": 1708,
      "aut": 1709,
      "par": 1710,
      "17": 1711,
      "Ġmot": 1712,
      ")Ċ": 1713,
      "oring": 1714,
      "Ġlearning": 1715,
      "ĠInd": 1716,
      "yl": 1717,
      "Ġuntil": 1718,
      "ision": 1719,
      "Ġmach": 1720,
      "Ġwind": 1721,
      "iting": 1722,
      "ames": 1723,
      "Ġresults": 1724,
      "Ġsens": 1725,
      "oose": 1726,
      "Ġorder": 1727,
      "Ġworks": 1728,
      "arden": 1729,
      "Ġprim": 1730,
      "Ġlist": 1731,
      "Ġeduc": 1732,
      "Ġside": 1733,
      "asing": 1734,
      "Ġlocal": 1735,
      "Ġproblems": 1736,
      "Ġoil": 1737,
      "uture": 1738,
      "Ġfamily": 1739,
      "view": 1740,
      "You": 1741,
      "Ġmil": 1742,
      "Ġ$": 1743,
      "Ġlay": 1744,
      "Ġnon": 1745,
      "Ġcult": 1746,
      "ĠThat": 1747,
      "ains": 1748,
      "Ġ&": 1749,
      "Ġmill": 1750,
      "Ġcou": 1751,
      "Ġweight": 1752,
      "ounds": 1753,
      "When": 1754,
      "inter": 1755,
      "Ġtoget": 1756,
      "Ġtogether": 1757,
      "Ġkind": 1758,
      "por": 1759,
      "ury": 1760,
      "ĠNew": 1761,
      "hor": 1762,
      "ately": 1763,
      "ĠWith": 1764,
      "Ġengine": 1765,
      "omen": 1766,
      "ym": 1767,
      "Ġcomplete": 1768,
      "lu": 1769,
      "Ġsing": 1770,
      "Ġmic": 1771,
      "Ġimprove": 1772,
      "ĠBy": 1773,
      "Ġshort": 1774,
      "Ġmaintain": 1775,
      "aster": 1776,
      "Ġlab": 1777,
      "Ġhigher": 1778,
      "Ġrecomm": 1779,
      "Ġworking": 1780,
      "lection": 1781,
      "Ġleast": 1782,
      "fer": 1783,
      "Ġrele": 1784,
      "Ġname": 1785,
      "Ġturn": 1786,
      "Ġsince": 1787,
      "Ġnet": 1788,
      "ators": 1789,
      "Ġsuccess": 1790,
      "Ġincrease": 1791,
      "Ġperiod": 1792,
      "Ġconsum": 1793,
      "self": 1794,
      "fact": 1795,
      "Ġnext": 1796,
      "Ġsugg": 1797,
      "Ġenc": 1798,
      "Ġaway": 1799,
      "Ġhaving": 1800,
      "let": 1801,
      "bon": 1802,
      "ĠBe": 1803,
      "Ġbehav": 1804,
      "pecially": 1805,
      "Ġrepl": 1806,
      "Ġground": 1807,
      "Ġter": 1808,
      "Ġcourse": 1809,
      "ret": 1810,
      "imes": 1811,
      "Ġdays": 1812,
      "ĠUniversity": 1813,
      "Ġchanges": 1814,
      "oint": 1815,
      "duct": 1816,
      "utes": 1817,
      "ray": 1818,
      "erc": 1819,
      "Ġfeed": 1820,
      "Ġtru": 1821,
      "Ġmov": 1822,
      "-l": 1823,
      "ump": 1824,
      "Ġindic": 1825,
      "Ġrad": 1826,
      "Ġearly": 1827,
      ")ĊĊ": 1828,
      "ither": 1829,
      "ored": 1830,
      "40": 1831,
      "Ġskin": 1832,
      "Ġactually": 1833,
      "ann": 1834,
      "Ġmeasure": 1835,
      "Ġbro": 1836,
      "Ġcomes": 1837,
      "Ġnecess": 1838,
      "ĠDe": 1839,
      "ER": 1840,
      "Ġmar": 1841,
      "Ġcharacter": 1842,
      "Ġsuggest": 1843,
      "Ġgrowth": 1844,
      "agement": 1845,
      "Ġeasy": 1846,
      "Ġleg": 1847,
      "Ġfac": 1848,
      "Ġactiv": 1849,
      "25": 1850,
      "Ġcase": 1851,
      "Ġquick": 1852,
      "jor": 1853,
      "ember": 1854,
      "Ġalong": 1855,
      "not": 1856,
      "icult": 1857,
      "ogn": 1858,
      "âĢĻs": 1859,
      "Ġassoci": 1860,
      "An": 1861,
      "Ġmarket": 1862,
      "Ġtur": 1863,
      "agn": 1864,
      "oney": 1865,
      "Ġchall": 1866,
      "Ġresour": 1867,
      "âĢ¦": 1868,
      "Ġdry": 1869,
      "-m": 1870,
      "astic": 1871,
      "Ġsimilar": 1872,
      "izing": 1873,
      "Ġfuture": 1874,
      "Ġlikely": 1875,
      "Ġobs": 1876,
      "Ġnever": 1877,
      "Ġpressure": 1878,
      "ĠAt": 1879,
      "Ġdigital": 1880,
      "Ġwrit": 1881,
      ",Ċ": 1882,
      "Ġsocial": 1883,
      "Ġhim": 1884,
      "Ġorig": 1885,
      "osp": 1886,
      "Ġprotect": 1887,
      "ised": 1888,
      "Ġfield": 1889,
      "Ġothers": 1890,
      "though": 1891,
      "Ġinvest": 1892,
      "Ġdogs": 1893,
      "Ġrece": 1894,
      "Ġreduce": 1895,
      "Ġtraining": 1896,
      "Ġste": 1897,
      "Ġproducts": 1898,
      "Ġloss": 1899,
      "Ġstrong": 1900,
      "Ġfull": 1901,
      "chan": 1902,
      "Ġprob": 1903,
      "ĠSe": 1904,
      "Ġbatter": 1905,
      "There": 1906,
      "Ġissues": 1907,
      "hem": 1908,
      "Ġcustom": 1909,
      "Ġnorm": 1910,
      "Ġans": 1911,
      "atory": 1912,
      "iple": 1913,
      "Ġlower": 1914,
      "rect": 1915,
      "ffic": 1916,
      "ooks": 1917,
      "ott": 1918,
      "Ġi": 1919,
      "Ġeye": 1920,
      "Ġcirc": 1921,
      "Ġthing": 1922,
      "Ġreact": 1923,
      "Ġtreatment": 1924,
      "Ġsimple": 1925,
      "Ġpast": 1926,
      "Ġred": 1927,
      "Ġ.": 1928,
      "vious": 1929,
      "usion": 1930,
      "ression": 1931,
      "Ġespecially": 1932,
      "ipp": 1933,
      "Ġfar": 1934,
      "Ġreason": 1935,
      "ches": 1936,
      "Ġunique": 1937,
      "ĠCol": 1938,
      "Ġdoesn": 1939,
      "Ġhealthy": 1940,
      "Ġfri": 1941,
      "Ġacross": 1942,
      "Ġsoft": 1943,
      "Ġrole": 1944,
      "Ġmodel": 1945,
      "Ġfore": 1946,
      "Ġflu": 1947,
      "Ġabs": 1948,
      "aging": 1949,
      "Ġdiet": 1950,
      "Ġmajor": 1951,
      "ustain": 1952,
      "bo": 1953,
      "ĠZ": 1954,
      "Ġways": 1955,
      "idence": 1956,
      "Ġuser": 1957,
      "ask": 1958,
      "Ġresearc": 1959,
      "Ġstra": 1960,
      "Ġage": 1961,
      "Ġcompon": 1962,
      "Ġsingle": 1963,
      "most": 1964,
      "Ġbusiness": 1965,
      "Ġcra": 1966,
      "Ġgre": 1967,
      "igns": 1968,
      "ived": 1969,
      "60": 1970,
      "ĠBl": 1971,
      ".,": 1972,
      "light": 1973,
      "Ġvide": 1974,
      "Ġpie": 1975,
      "orth": 1976,
      "Ġdone": 1977,
      "ibility": 1978,
      "Ġcheck": 1979,
      "Ġunderstanding": 1980,
      "Ġinteract": 1981,
      "Ġhelps": 1982,
      "Ġpred": 1983,
      "Ġfrequ": 1984,
      "fect": 1985,
      "uro": 1986,
      "Ġsuper": 1987,
      "oor": 1988,
      "com": 1989,
      "Ġfactors": 1990,
      "Ġabove": 1991,
      "Ġvir": 1992,
      "Ġsum": 1993,
      "amm": 1994,
      "Ġvalue": 1995,
      "Ġgame": 1996,
      "ĠEn": 1997,
      "ilities": 1998,
      "Ġclear": 1999,
      "Ġbook": 2000,
      "Ġfour": 2001,
      "Ġmind": 2002,
      "!ĊĊ": 2003,
      "Ġleft": 2004,
      "Ġdesigned": 2005,
      "Ġaffect": 2006,
      "Ġeat": 2007,
      "ster": 2008,
      "Ġimage": 2009,
      "Ġdiscuss": 2010,
      "ĠSome": 2011,
      "hing": 2012,
      "Ġavoid": 2013,
      "Ġhouse": 2014,
      "Ġcomplex": 2015,
      "ont": 2016,
      "ising": 2017,
      "Ġaccording": 2018,
      "lement": 2019,
      "verage": 2020,
      "ĠâĢĶ": 2021,
      "Ġveh": 2022,
      "joy": 2023,
      "ler": 2024,
      "nal": 2025,
      "Ġgarden": 2026,
      "Ġbit": 2027,
      "Ġagainst": 2028,
      "ĠTe": 2029,
      "anced": 2030,
      "Ġcool": 2031,
      "Ġdamage": 2032,
      "Ġsafe": 2033,
      "Ġproduction": 2034,
      "ream": 2035,
      "ĠWor": 2036,
      "Ġcontrib": 2037,
      "Ġscience": 2038,
      "Ġdifficult": 2039,
      "ope": 2040,
      "yle": 2041,
      "ission": 2042,
      "Ġrespons": 2043,
      "Ġpopular": 2044,
      "Ġgreen": 2045,
      "yn": 2046,
      "ledge": 2047,
      "uals": 2048,
      "Ġemb": 2049,
      "Ġphysical": 2050,
      "Ġbegin": 2051,
      "Ġwar": 2052,
      "ortun": 2053,
      "Ġdetail": 2054,
      "Ġweek": 2055,
      "Ġlive": 2056,
      "ploy": 2057,
      "ik": 2058,
      "lish": 2059,
      "Ġwarm": 2060,
      "Ġpatter": 2061,
      "ales": 2062,
      "Ġmole": 2063,
      "Ġamong": 2064,
      "Ġach": 2065,
      "ĠSp": 2066,
      "Ġblack": 2067,
      "Ġperformance": 2068,
      "lished": 2069,
      "Ġwide": 2070,
      "Ġpaper": 2071,
      "Ġegg": 2072,
      "eter": 2073,
      "une": 2074,
      "Ġeffects": 2075,
      "Ġsays": 2076,
      "ufact": 2077,
      "Ġterm": 2078,
      "Ġwood": 2079,
      "ensive": 2080,
      "Ġthin": 2081,
      "Ġvers": 2082,
      "etimes": 2083,
      "Ġwr": 2084,
      "Ġexce": 2085,
      "Ġgiven": 2086,
      "Ġrepres": 2087,
      "arget": 2088,
      "ĠInst": 2089,
      "Ġpercent": 2090,
      "Ġchemical": 2091,
      "Ġcomputer": 2092,
      "Ġelectric": 2093,
      "Ġhyd": 2094,
      "Ġland": 2095,
      "Ġmass": 2096,
      "Ġonce": 2097,
      "Ġfurther": 2098,
      "ĠOn": 2099,
      "ruction": 2100,
      "side": 2101,
      "to": 2102,
      "Ġregular": 2103,
      "Ġclose": 2104,
      "Ġlooking": 2105,
      "ried": 2106,
      "21": 2107,
      "Ġsource": 2108,
      "Ġbal": 2109,
      "Ġpublic": 2110,
      "Ġsubst": 2111,
      "ores": 2112,
      "Ġyoung": 2113,
      "orts": 2114,
      "ung": 2115,
      "ĠPh": 2116,
      "Ġmatter": 2117,
      "Ġmechan": 2118,
      "Ġdeg": 2119,
      "Ġbenefits": 2120,
      "Ġoffer": 2121,
      "Ġinit": 2122,
      "Ġeither": 2123,
      "Ġexist": 2124,
      "Ġheart": 2125,
      "Ġclimate": 2126,
      "Ġparts": 2127,
      "Ġwhite": 2128,
      "ĠUS": 2129,
      "Ġenjoy": 2130,
      "estions": 2131,
      "Ġenh": 2132,
      "ĠYour": 2133,
      "24": 2134,
      "avor": 2135,
      "Ġallows": 2136,
      "ready": 2137,
      "Ġstress": 2138,
      "iation": 2139,
      "lying": 2140,
      "Ġer": 2141,
      "Ġview": 2142,
      "Ġexpect": 2143,
      "Ġgetting": 2144,
      "Ġtoday": 2145,
      "Ġquestion": 2146,
      "utions": 2147,
      "Ġdescrib": 2148,
      "Ġox": 2149,
      "Ġprovides": 2150,
      "ĠOr": 2151,
      "ilt": 2152,
      "Ġproduce": 2153,
      "Ġwhether": 2154,
      "iques": 2155,
      "ditional": 2156,
      "Ġhappen": 2157,
      "Ġcru": 2158,
      "itch": 2159,
      "ule": 2160,
      "Ġselect": 2161,
      "**": 2162,
      "Ġill": 2163,
      "Ġhold": 2164,
      "Ġfeatures": 2165,
      "ows": 2166,
      "Ġut": 2167,
      "Ġge": 2168,
      "man": 2169,
      "Ġresearchers": 2170,
      "ĠEng": 2171,
      "Ġmo": 2172,
      "imum": 2173,
      "ength": 2174,
      "ina": 2175,
      "Ġcoll": 2176,
      "ding": 2177,
      "80": 2178,
      "Ġalready": 2179,
      "Ġpurp": 2180,
      "âĢĵ": 2181,
      "Ġability": 2182,
      "aken": 2183,
      "conom": 2184,
      "Ġcrit": 2185,
      "eral": 2186,
      "Ġskills": 2187,
      "ges": 2188,
      "Ġhor": 2189,
      "Ġlif": 2190,
      "obal": 2191,
      "ograp": 2192,
      "Ġrecord": 2193,
      "To": 2194,
      "roll": 2195,
      "wards": 2196,
      "rate": 2197,
      "Ġdoing": 2198,
      "angu": 2199,
      "Ġneeded": 2200,
      "Ch": 2201,
      "rown": 2202,
      "Ġarticle": 2203,
      "Ġvariety": 2204,
      "ĠNo": 2205,
      "Ġpet": 2206,
      "Ġindustry": 2207,
      "augh": 2208,
      "uck": 2209,
      "alf": 2210,
      "ystem": 2211,
      "Ġbacter": 2212,
      "Ġexperim": 2213,
      "Ġpersonal": 2214,
      "Ġnecessary": 2215,
      "Ġparent": 2216,
      "ification": 2217,
      "Ġtell": 2218,
      "idd": 2219,
      "Ġstop": 2220,
      "vert": 2221,
      "For": 2222,
      "!Ċ": 2223,
      "Ġhistory": 2224,
      "for": 2225,
      "rel": 2226,
      "Ġfall": 2227,
      "Ġmanufact": 2228,
      "Ġactivity": 2229,
      "Ġindividual": 2230,
      "reng": 2231,
      "ĠEar": 2232,
      "ysis": 2233,
      "Ġpan": 2234,
      "ĠAll": 2235,
      "Ġstructure": 2236,
      "Ġauthor": 2237,
      "resh": 2238,
      "sp": 2239,
      "Ġhab": 2240,
      "Ġbreak": 2241,
      "Ġtarget": 2242,
      "Ġexperien": 2243,
      "Ġbelow": 2244,
      "Ġmagn": 2245,
      "ĠOne": 2246,
      "Ġanimal": 2247,
      "Ġopportun": 2248,
      "Ġcondition": 2249,
      "Ġgas": 2250,
      "Ġbrain": 2251,
      "Wh": 2252,
      "nces": 2253,
      "istic": 2254,
      "Ġinside": 2255,
      "Ġevent": 2256,
      "Ġwild": 2257,
      "Ġlonger": 2258,
      "Ġmethods": 2259,
      "lex": 2260,
      "Ġleaves": 2261,
      "Ġspeed": 2262,
      "Ġdifference": 2263,
      "Ġsle": 2264,
      "Ġcommunity": 2265,
      "ging": 2266,
      "Ġhot": 2267,
      "ĠAI": 2268,
      "Ġrequired": 2269,
      "Ġhours": 2270,
      "ront": 2271,
      "ply": 2272,
      "Ġveget": 2273,
      "by": 2274,
      "gar": 2275,
      "Ġapproach": 2276,
      "Ġsustain": 2277,
      "ptoms": 2278,
      "Ġpositive": 2279,
      "Ġdraw": 2280,
      "Ġappear": 2281,
      "Ġsound": 2282,
      "ises": 2283,
      "Ġprint": 2284,
      "Ġexerc": 2285,
      "inary": 2286,
      "edi": 2287,
      "Ġask": 2288,
      "Ġslow": 2289,
      "Ġknowledge": 2290,
      "Ġsn": 2291,
      "Ġwhole": 2292,
      "Ġconnect": 2293,
      "ĠIm": 2294,
      "Ġsafety": 2295,
      "ze": 2296,
      "Ġfu": 2297,
      "aches": 2298,
      "Ġidea": 2299,
      "upp": 2300,
      "sel": 2301,
      "ming": 2302,
      "Ġmention": 2303,
      "Ġcarbon": 2304,
      "imal": 2305,
      "Ġcontent": 2306,
      "Ġelectr": 2307,
      "Ġever": 2308,
      "aling": 2309,
      "aps": 2310,
      "Ġprop": 2311,
      "Ġmix": 2312,
      "Ġtools": 2313,
      "ene": 2314,
      "ney": 2315,
      "ae": 2316,
      "Ġonline": 2317,
      "raph": 2318,
      "Ġdeep": 2319,
      "Ġgrowing": 2320,
      "Ġlove": 2321,
      "use": 2322,
      "osis": 2323,
      "Ġtot": 2324,
      "ibr": 2325,
      "Ġbuy": 2326,
      "ites": 2327,
      "Ġsmo": 2328,
      "app": 2329,
      "Ġfit": 2330,
      "Ġaddress": 2331,
      "ery": 2332,
      "ĠCent": 2333,
      "Ġconcer": 2334,
      "Ġpath": 2335,
      "Ġcorrect": 2336,
      "urs": 2337,
      "reme": 2338,
      "Ġseen": 2339,
      "ties": 2340,
      "Ġactivities": 2341,
      "ĠAmerican": 2342,
      "Ġliving": 2343,
      "Ġindividuals": 2344,
      "Ġmonths": 2345,
      "Ġsqu": 2346,
      "Ġperfect": 2347,
      "illed": 2348,
      "Ġneg": 2349,
      "Ġgeneral": 2350,
      "Ġpay": 2351,
      "Ġgot": 2352,
      "ged": 2353,
      "fully": 2354,
      "Ġtechniques": 2355,
      "Ġhumans": 2356,
      "selves": 2357,
      "Ġsam": 2358,
      "uff": 2359,
      "ird": 2360,
      "Ġcold": 2361,
      "Ġencou": 2362,
      "23": 2363,
      "Ġstreng": 2364,
      "ura": 2365,
      "Ġintrodu": 2366,
      "Ġfat": 2367,
      "Ġmen": 2368,
      "Ġprec": 2369,
      "Ġresources": 2370,
      "Al": 2371,
      "mon": 2372,
      "erence": 2373,
      "Ġcontact": 2374,
      ".\"ĊĊ": 2375,
      "ument": 2376,
      "Ġrate": 2377,
      "Ġtypically": 2378,
      "Ġassociated": 2379,
      "mit": 2380,
      "Ġrelations": 2381,
      "Ġbar": 2382,
      "Ġtree": 2383,
      "erve": 2384,
      "ĠNe": 2385,
      "Ġport": 2386,
      "Ġinteg": 2387,
      "Ġbase": 2388,
      "ĠShe": 2389,
      "Ġrecogn": 2390,
      "Ġidentify": 2391,
      "Ġobserv": 2392,
      "Ġeconom": 2393,
      "Ġstrateg": 2394,
      "ume": 2395,
      "Ġmat": 2396,
      "osing": 2397,
      "Ġjour": 2398,
      "Ġoverall": 2399,
      "Ġcompany": 2400,
      "Ġquestions": 2401,
      "##": 2402,
      "just": 2403,
      "Ġcam": 2404,
      "Ġnature": 2405,
      "urope": 2406,
      "amin": 2407,
      "ured": 2408,
      "Ġsepar": 2409,
      "Ġchalleng": 2410,
      "Ġfru": 2411,
      "Ġextra": 2412,
      "Ġanswer": 2413,
      "rig": 2414,
      "Ġexc": 2415,
      "idered": 2416,
      "verse": 2417,
      "aching": 2418,
      "Ġhowever": 2419,
      "Ġtravel": 2420,
      "aving": 2421,
      "Ġbuilding": 2422,
      "Ġself": 2423,
      "Ġremov": 2424,
      "cri": 2425,
      "Ġprimary": 2426,
      "Ġentire": 2427,
      "Ġtaking": 2428,
      "Ġrather": 2429,
      "Ġvideo": 2430,
      "ĠQu": 2431,
      "ese": 2432,
      "Ġcreated": 2433,
      "iency": 2434,
      "Ġmoney": 2435,
      "Ġroom": 2436,
      "Ġmultiple": 2437,
      "Ġprotein": 2438,
      "Ġeasily": 2439,
      "Ġcases": 2440,
      "Ġisn": 2441,
      "Ġcrucial": 2442,
      "Ġdispl": 2443,
      "Ġbeaut": 2444,
      "Ġsitu": 2445,
      "So": 2446,
      "Ġstay": 2447,
      "Ġsolar": 2448,
      "het": 2449,
      "Ġmicro": 2450,
      "Ġlater": 2451,
      "umb": 2452,
      "Ġminutes": 2453,
      "Ġnight": 2454,
      "Ġseason": 2455,
      "Ġquant": 2456,
      "Ġcomfort": 2457,
      "Ġbring": 2458,
      "rug": 2459,
      "Ġthroughout": 2460,
      "Ġaud": 2461,
      "ĠComm": 2462,
      "Ġnormal": 2463,
      "Ġconsidered": 2464,
      "Ġetc": 2465,
      "Ġnetwork": 2466,
      "Ġenvironmental": 2467,
      "ĠAm": 2468,
      "ĠComp": 2469,
      "ĠDNA": 2470,
      "ĠX": 2471,
      "ĠUnited": 2472,
      "Ġtend": 2473,
      "rams": 2474,
      "Ġsomeone": 2475,
      "ĠWhile": 2476,
      "Ġwebs": 2477,
      "Ġinstall": 2478,
      "Th": 2479,
      "Ġsat": 2480,
      "ĠCar": 2481,
      "Ġcannot": 2482,
      "Ġmodern": 2483,
      "icles": 2484,
      "Ġinflu": 2485,
      "Ġmachine": 2486,
      "aged": 2487,
      "Ġservice": 2488,
      "Ġoptions": 2489,
      "Ġbad": 2490,
      "Ġfarm": 2491,
      "aced": 2492,
      "Ġsolution": 2493,
      "Ġsite": 2494,
      "lease": 2495,
      "Ġlaw": 2496,
      "Ġfram": 2497,
      "Ġresist": 2498,
      "Ġsymptoms": 2499,
      "Ġadvant": 2500,
      "Ġthought": 2501,
      ".\"Ċ": 2502,
      "Ġposition": 2503,
      "Ġla": 2504,
      "Ġcancer": 2505,
      "90": 2506,
      "Ġfund": 2507,
      "anguage": 2508,
      "ĠEurope": 2509,
      "Ġestab": 2510,
      "ĠNational": 2511,
      "ulations": 2512,
      "Ġmax": 2513,
      "Ġdeveloped": 2514,
      "Ġcreating": 2515,
      "sect": 2516,
      "ival": 2517,
      "Ġlarger": 2518,
      "Ġconcept": 2519,
      "Ġmeet": 2520,
      "Ġsimply": 2521,
      "Ġpatients": 2522,
      "Ġprobably": 2523,
      "Ġmanagement": 2524,
      "Ġprep": 2525,
      "ĠAf": 2526,
      "Ġrelationship": 2527,
      "room": 2528,
      "Ġwall": 2529,
      "Ġyourself": 2530,
      "Ġprofessional": 2531,
      "Ġjob": 2532,
      "ison": 2533,
      "Ġbehavior": 2534,
      "Ġpack": 2535,
      "Ġharm": 2536,
      "Ġrepresent": 2537,
      "70": 2538,
      "Ġissue": 2539,
      "Ġcover": 2540,
      "Ġwaste": 2541,
      "Ġsubject": 2542,
      "Ġfoot": 2543,
      "Ġheav": 2544,
      "Ġpractice": 2545,
      "Ġaverage": 2546,
      "oh": 2547,
      "Ġemploy": 2548,
      "Ġincreasing": 2549,
      "itud": 2550,
      "ils": 2551,
      "Ġuses": 2552,
      "Ġfeet": 2553,
      "Ġforce": 2554,
      "Ġchoose": 2555,
      "Ġincreased": 2556,
      "lor": 2557,
      "rated": 2558,
      "Ġscientists": 2559,
      "Ġtraditional": 2560,
      "Ġremain": 2561,
      "Ġsleep": 2562,
      "Ġsil": 2563,
      "Ġstory": 2564,
      "Ġrob": 2565,
      "aily": 2566,
      "Ġpopulation": 2567,
      "Ġapplications": 2568,
      "ĠDr": 2569,
      "earch": 2570,
      "ift": 2571,
      "abor": 2572,
      "pro": 2573,
      "Ġdevice": 2574,
      "Ġbab": 2575,
      "Ġappl": 2576,
      "Ġaltern": 2577,
      "Ġgover": 2578,
      "itor": 2579,
      "Ġconsist": 2580,
      "ĠLe": 2581,
      "aim": 2582,
      "Ġcollect": 2583,
      "Ġteac": 2584,
      "Ġquickly": 2585,
      "ctor": 2586,
      "Ġshape": 2587,
      "-in": 2588,
      "Ġvac": 2589,
      "ops": 2590,
      "Ġchoice": 2591,
      "Ġcook": 2592,
      "ĠMed": 2593,
      "Ġrelated": 2594,
      "Ġalmost": 2595,
      "Ġcompet": 2596,
      "Ġing": 2597,
      "ronic": 2598,
      "Ġwomen": 2599,
      "Ġface": 2600,
      "cks": 2601,
      ").Ċ": 2602,
      "acks": 2603,
      "Ġwa": 2604,
      "Ġextreme": 2605,
      "Ġelements": 2606,
      "Ġcapt": 2607,
      "Ġann": 2608,
      "onst": 2609,
      "oses": 2610,
      "Ġparticip": 2611,
      "Ġdom": 2612,
      "Ġincludes": 2613,
      "Ġgenerally": 2614,
      "Ġeducation": 2615,
      "Ġshows": 2616,
      "Ġfem": 2617,
      "ipment": 2618,
      "Ġsurv": 2619,
      "Ġdevices": 2620,
      "Ġbattery": 2621,
      "ned": 2622,
      "Ġstarted": 2623,
      "Ġmillion": 2624,
      "Ġexact": 2625,
      "Ġglobal": 2626,
      "-w": 2627,
      "cular": 2628,
      "rior": 2629,
      ").ĊĊ": 2630,
      "Ġexplain": 2631,
      "Ġeyes": 2632,
      "Ġefficient": 2633,
      "onse": 2634,
      "ĠDo": 2635,
      "Ġsense": 2636,
      "âĢĿ": 2637,
      "-based": 2638,
      "Ġpoll": 2639,
      "Ġshown": 2640,
      "Ġoutside": 2641,
      "aff": 2642,
      "Ġcauses": 2643,
      "Ġtrees": 2644,
      "Ġsometimes": 2645,
      "ĠStates": 2646,
      "Ġcompan": 2647,
      "IN": 2648,
      "erous": 2649,
      "Ġfive": 2650,
      "Ġfire": 2651,
      "Ġeverything": 2652,
      "ES": 2653,
      "itable": 2654,
      "izes": 2655,
      "Ġir": 2656,
      "Ġgroups": 2657,
      "Ġkids": 2658,
      "ief": 2659,
      "01": 2660,
      "Ġyet": 2661,
      "Ġcountry": 2662,
      "ĠAfric": 2663,
      "Ġinstead": 2664,
      "cean": 2665,
      "Ġseem": 2666,
      "Ġcompared": 2667,
      "Ġadult": 2668,
      "Ad": 2669,
      "Ġbur": 2670,
      "Ġremove": 2671,
      "Ġservices": 2672,
      "Ġwond": 2673,
      "ively": 2674,
      "Ġbul": 2675,
      "oll": 2676,
      "ĠHere": 2677,
      "plic": 2678,
      "Ġspread": 2679,
      "Ġanalysis": 2680,
      "Ġoption": 2681,
      "Ex": 2682,
      "elling": 2683,
      "Ġwinter": 2684,
      "Ġbasic": 2685,
      "Ġproviding": 2686,
      "Ġinvolved": 2687,
      "ellow": 2688,
      "Ġdetermine": 2689,
      "Ġautom": 2690,
      "ipe": 2691,
      "ĠCal": 2692,
      "Ġbacteria": 2693,
      "AR": 2694,
      "go": 2695,
      "mb": 2696,
      "Ġstudies": 2697,
      "ĠTr": 2698,
      "Ġadapt": 2699,
      "Ġintern": 2700,
      "Ġconduct": 2701,
      "Ġsmaller": 2702,
      "ground": 2703,
      "ians": 2704,
      "Ġvehicle": 2705,
      "Ġtakes": 2706,
      "ĠEarth": 2707,
      "Ġhabit": 2708,
      "Ġplastic": 2709,
      "Ġcop": 2710,
      "ules": 2711,
      "val": 2712,
      "eding": 2713,
      "Ġcolors": 2714,
      "Ġtri": 2715,
      "Ġbox": 2716,
      "Ġprovided": 2717,
      "urity": 2718,
      "Ġthemselves": 2719,
      "Ġproperties": 2720,
      "Ġhalf": 2721,
      "rict": 2722,
      "cre": 2723,
      "Ġlength": 2724,
      "ON": 2725,
      "igure": 2726,
      "ĠCo": 2727,
      "Ġattention": 2728,
      "Ġtaken": 2729,
      "where": 2730,
      "Ġapplication": 2731,
      "Ġtotal": 2732,
      "Ġones": 2733,
      "ights": 2734,
      "Ġanything": 2735,
      "Ġfoods": 2736,
      "Ġwon": 2737,
      "ests": 2738,
      "ĠCons": 2739,
      "Ġprevious": 2740,
      "ography": 2741,
      "Ġgovern": 2742,
      "Ġfront": 2743,
      "ement": 2744,
      "Ġmentioned": 2745,
      ".S": 2746,
      "ĠUs": 2747,
      "Ġweather": 2748,
      "Ġtrying": 2749,
      "aries": 2750,
      "Ġdest": 2751,
      "imately": 2752,
      "Ġstandard": 2753,
      "Ġmedical": 2754,
      "One": 2755,
      "ched": 2756,
      "Ġwords": 2757,
      "Ġregard": 2758,
      "hib": 2759,
      "Ġpict": 2760,
      "ĠOf": 2761,
      "Ġoffers": 2762,
      "zy": 2763,
      "ĠPr": 2764,
      "ervation": 2765,
      "ditionally": 2766,
      "hern": 2767,
      "ropri": 2768,
      "\\n": 2769,
      "ĠDes": 2770,
      "Ġitself": 2771,
      "Ġfuel": 2772,
      "cies": 2773,
      "isms": 2774,
      "Ġpoly": 2775,
      "asons": 2776,
      "--------": 2777,
      "Ġevidence": 2778,
      "Ġdiagn": 2779,
      "Ġrelative": 2780,
      "Ġ+": 2781,
      "Ġfail": 2782,
      "arily": 2783,
      "Ġdark": 2784,
      "Ġaspect": 2785,
      "Ġice": 2786,
      "att": 2787,
      "Ġlink": 2788,
      "Ġglass": 2789,
      "Ġmetal": 2790,
      "OT": 2791,
      "ctions": 2792,
      "rad": 2793,
      "Ġsea": 2794,
      "Ġrequires": 2795,
      "Ġec": 2796,
      "aste": 2797,
      "Ġfresh": 2798,
      "ED": 2799,
      "Ġsources": 2800,
      "Ġcode": 2801,
      "icy": 2802,
      "Ġbirds": 2803,
      "ension": 2804,
      "Ġequipment": 2805,
      "ĠCont": 2806,
      "Ġfast": 2807,
      "Ġroad": 2808,
      "water": 2809,
      "Ġur": 2810,
      "Ġgain": 2811,
      "Ġang": 2812,
      "Ġtrue": 2813,
      "ĠMy": 2814,
      "Ġago": 2815,
      "Ġbelieve": 2816,
      "ID": 2817,
      "Ġquite": 2818,
      "Ġcomponents": 2819,
      "Ġadded": 2820,
      "Ġfib": 2821,
      "Ġstrength": 2822,
      "Ġmedic": 2823,
      "Ġcamer": 2824,
      "nov": 2825,
      "orage": 2826,
      "istics": 2827,
      "Ġfamil": 2828,
      "Ġarr": 2829,
      "____": 2830,
      "Ġnutri": 2831,
      "like": 2832,
      "icial": 2833,
      "Ġsugar": 2834,
      "Ġmedia": 2835,
      "Ġresponse": 2836,
      "Ġdrug": 2837,
      "Ġevolution": 2838,
      "ners": 2839,
      "Ġinput": 2840,
      "ecause": 2841,
      "Ġencoura": 2842,
      "head": 2843,
      "Ġther": 2844,
      "Ġacid": 2845,
      "eb": 2846,
      "Ġ--": 2847,
      "Ġearth": 2848,
      "Ġcaused": 2849,
      "Ġmoist": 2850,
      "Ġpurpose": 2851,
      "ext": 2852,
      "rogen": 2853,
      "Ġalg": 2854,
      "Ġball": 2855,
      "Ġassist": 2856,
      "Pro": 2857,
      "ĠMan": 2858,
      "Ġachieve": 2859,
      "Ġnumbers": 2860,
      "ley": 2861,
      "\",": 2862,
      "gest": 2863,
      "alking": 2864,
      "Ġaccount": 2865,
      "Ġbott": 2866,
      "Ġspring": 2867,
      "Ġbehind": 2868,
      "ĠAfter": 2869,
      "osition": 2870,
      "Ġreading": 2871,
      "aks": 2872,
      "yp": 2873,
      "Ġleading": 2874,
      "ai": 2875,
      "cles": 2876,
      "Ġadjust": 2877,
      "Ġshare": 2878,
      "Ġregion": 2879,
      "Ġtransform": 2880,
      "ociety": 2881,
      "Ġparticularly": 2882,
      "Ġsearch": 2883,
      "Ġlanguage": 2884,
      "Ġrot": 2885,
      "Ġweeks": 2886,
      "Â°": 2887,
      "Ġbed": 2888,
      "Ġproduced": 2889,
      "sh": 2890,
      "Ġcommunication": 2891,
      "ograph": 2892,
      "03": 2893,
      "orpor": 2894,
      "Ġconcent": 2895,
      "Ġimages": 2896,
      "tenance": 2897,
      "Ġutil": 2898,
      "Ġterms": 2899,
      "Ġimplement": 2900,
      "AS": 2901,
      "Ġinsect": 2902,
      "anks": 2903,
      "ĠApp": 2904,
      "ĠHealth": 2905,
      "oon": 2906,
      "ricult": 2907,
      "Ġlog": 2908,
      "Ġexplore": 2909,
      "vant": 2910,
      "Ġnegative": 2911,
      "Ġinj": 2912,
      "Ġstudent": 2913,
      "Ġdefin": 2914,
      "Ġcontinu": 2915,
      "Ġreach": 2916,
      "ĠNorth": 2917,
      "onds": 2918,
      "Ġgenetic": 2919,
      "Ġemerg": 2920,
      "min": 2921,
      "-h": 2922,
      "ĠYes": 2923,
      "Ġmess": 2924,
      "Ġful": 2925,
      "Ġevents": 2926,
      "Ġexercise": 2927,
      "epend": 2928,
      "inct": 2929,
      "ĠAb": 2930,
      "uit": 2931,
      "....": 2932,
      "Ġadditional": 2933,
      "Ġaware": 2934,
      "oles": 2935,
      "Ġ,": 2936,
      "rapy": 2937,
      "AT": 2938,
      "Ġsix": 2939,
      "Ġmom": 2940,
      "ocks": 2941,
      "Ġpoints": 2942,
      "Ġeggs": 2943,
      "ygen": 2944,
      "Ġdistrib": 2945,
      "ĠâĢľ": 2946,
      "Ġinitial": 2947,
      "Ġmor": 2948,
      "==": 2949,
      "Ġgames": 2950,
      "Ġstat": 2951,
      "ĠNot": 2952,
      "Ġdirectly": 2953,
      "nter": 2954,
      "ellig": 2955,
      "Ġprocesses": 2956,
      "ma": 2957,
      "ino": 2958,
      "Ġswe": 2959,
      "Ġdaily": 2960,
      "Ġselection": 2961,
      "raft": 2962,
      "isc": 2963,
      "Ġrout": 2964,
      "rid": 2965,
      "ccording": 2966,
      "Ġdrive": 2967,
      "overed": 2968,
      "Ġconstant": 2969,
      "Ġsoftware": 2970,
      "clusion": 2971,
      "otic": 2972,
      "ĠSchool": 2973,
      "Ġtransport": 2974,
      "Ġtable": 2975,
      "Ġload": 2976,
      "ĠGen": 2977,
      "ĠPre": 2978,
      "Ġassess": 2979,
      "Ġcontinue": 2980,
      "ĠAre": 2981,
      "Ġ/": 2982,
      "Ġelse": 2983,
      "Ġliqu": 2984,
      "Ġmodels": 2985,
      "ĠMay": 2986,
      "Ġprinc": 2987,
      "iring": 2988,
      "ĠCO": 2989,
      "Cl": 2990,
      "ĠScience": 2991,
      "Ġsteps": 2992,
      "Sh": 2993,
      "Ġdri": 2994,
      "sequ": 2995,
      "Ġmeat": 2996,
      "Ġbuilt": 2997,
      "Ġprior": 2998,
      "Ġkit": 2999,
      "Ġguid": 3000,
      "wh": 3001,
      "illing": 3002,
      "Ġtheory": 3003,
      "Ġblue": 3004,
      "Ġemot": 3005,
      "vey": 3006,
      "Ġspeak": 3007,
      "Ġdecre": 3008,
      "Ġwebsite": 3009,
      "Ġtiss": 3010,
      "Ġcountries": 3011,
      "Ġabsor": 3012,
      "iny": 3013,
      "Ġvit": 3014,
      "itute": 3015,
      "Ġscientific": 3016,
      "Ġlo": 3017,
      "Ġrunning": 3018,
      "reg": 3019,
      "Ġstore": 3020,
      "Ġdistance": 3021,
      "Ġpaint": 3022,
      "li": 3023,
      "rast": 3024,
      "Ġaction": 3025,
      "oph": 3026,
      "Ġgreater": 3027,
      "But": 3028,
      "ĠStud": 3029,
      "Ġcycle": 3030,
      "ÂŃ": 3031,
      "Ġeasier": 3032,
      "Ġrecommended": 3033,
      "-g": 3034,
      "Why": 3035,
      "Ġdou": 3036,
      "sc": 3037,
      "'d": 3038,
      "ĠMost": 3039,
      "-st": 3040,
      "osure": 3041,
      "Ġdeath": 3042,
      "term": 3043,
      "artment": 3044,
      "Ġappropri": 3045,
      "itation": 3046,
      "ĠThen": 3047,
      "Ġclaim": 3048,
      "Ġsummer": 3049,
      "ening": 3050,
      "emic": 3051,
      "Ġdiseases": 3052,
      "oe": 3053,
      "ĠMore": 3054,
      "Ġreview": 3055,
      "Ġlocation": 3056,
      "Ġtemperatures": 3057,
      "ancy": 3058,
      "iddle": 3059,
      "rum": 3060,
      "rist": 3061,
      "Ġtou": 3062,
      "Ġcity": 3063,
      "Ġrespect": 3064,
      "Ġuseful": 3065,
      "Ġitems": 3066,
      "Ġingred": 3067,
      "rition": 3068,
      "ences": 3069,
      "Ġhar": 3070,
      "imin": 3071,
      "Ġpret": 3072,
      "Ġactive": 3073,
      "Ġcompletely": 3074,
      "Ġrecommend": 3075,
      "Is": 3076,
      "Ġlines": 3077,
      "Ġanaly": 3078,
      "Ġelectrical": 3079,
      "Ġprefer": 3080,
      "Ġideas": 3081,
      "Ġfa": 3082,
      "Ġtowards": 3083,
      "mber": 3084,
      "ĠMe": 3085,
      "istry": 3086,
      "Ġrecent": 3087,
      "AN": 3088,
      "Ġeating": 3089,
      "unch": 3090,
      "Ġdeal": 3091,
      "Ġscreen": 3092,
      "Ġreflect": 3093,
      "Ġsus": 3094,
      "ĠSouth": 3095,
      "Ġdiam": 3096,
      "itude": 3097,
      "pid": 3098,
      "Ġcame": 3099,
      "iles": 3100,
      "Ã©": 3101,
      "alu": 3102,
      "ĠTra": 3103,
      "ulate": 3104,
      "Ġhair": 3105,
      "new": 3106,
      "Ġdidn": 3107,
      "Ġtalk": 3108,
      "Ġinstruct": 3109,
      "elt": 3110,
      "come": 3111,
      "Ġoutput": 3112,
      "Ġhighly": 3113,
      "eep": 3114,
      "Ġtips": 3115,
      "Ġparents": 3116,
      "rial": 3117,
      "ynam": 3118,
      "Ġbalance": 3119,
      "Ġaim": 3120,
      "Ġsigns": 3121,
      "ĠGu": 3122,
      "cules": 3123,
      "Ġreturn": 3124,
      "ades": 3125,
      "ĠGo": 3126,
      "28": 3127,
      "Ġhorse": 3128,
      "zz": 3129,
      "Ġcard": 3130,
      "Ġdoc": 3131,
      "Ġvalues": 3132,
      "Ġgoal": 3133,
      "ĠGe": 3134,
      "ĠAust": 3135,
      "ĠInt": 3136,
      "Ġgene": 3137,
      "Ġlives": 3138,
      "Ġcapac": 3139,
      "Ġeveryone": 3140,
      "Ġfert": 3141,
      "Ġmental": 3142,
      "Ġrefer": 3143,
      "Can": 3144,
      "ĠMany": 3145,
      "ensity": 3146,
      "Ġefficiency": 3147,
      "more": 3148,
      "Ġunit": 3149,
      "Ġobjects": 3150,
      "ĠAmerica": 3151,
      "Ġstorage": 3152,
      "Ġpatterns": 3153,
      "iable": 3154,
      "load": 3155,
      "Ġsequ": 3156,
      "ĠReg": 3157,
      "ĠAss": 3158,
      "omet": 3159,
      "iful": 3160,
      "onal": 3161,
      "abet": 3162,
      "Ġupon": 3163,
      "oming": 3164,
      "Ġvisit": 3165,
      "arr": 3166,
      "fficient": 3167,
      "vere": 3168,
      "Ġbreat": 3169,
      "odies": 3170,
      "ightly": 3171,
      "Ġcarry": 3172,
      "Ġguide": 3173,
      "vest": 3174,
      "volution": 3175,
      "Ġdang": 3176,
      "IS": 3177,
      "Ġcats": 3178,
      "Ġoxygen": 3179,
      "Ġstri": 3180,
      "Ġbecomes": 3181,
      "Ġarg": 3182,
      "Ġmemory": 3183,
      "Ġmembers": 3184,
      "Ġproteins": 3185,
      "ĠMar": 3186,
      "Ġdeveloping": 3187,
      "ĠDep": 3188,
      "Ġword": 3189,
      "ĠFrom": 3190,
      "Ġblock": 3191,
      "overy": 3192,
      "Ġsand": 3193,
      "Ġenhance": 3194,
      "Ġproced": 3195,
      "Ġbrand": 3196,
      "atur": 3197,
      "Ġflowers": 3198,
      "Ġmovement": 3199,
      "sy": 3200,
      "asks": 3201,
      "ĠPe": 3202,
      "Ġobtain": 3203,
      "rec": 3204,
      "Ġimportance": 3205,
      "Ġdetect": 3206,
      "35": 3207,
      "Ġthreat": 3208,
      "Ġroot": 3209,
      "...ĊĊ": 3210,
      "Ġserious": 3211,
      "Ġpiece": 3212,
      "irm": 3213,
      "Ġseeds": 3214,
      "02": 3215,
      "rees": 3216,
      "irt": 3217,
      "acy": 3218,
      "Ġsignal": 3219,
      "Ġcontains": 3220,
      "iding": 3221,
      "Ġstyle": 3222,
      "Ġseems": 3223,
      "Ġcalcul": 3224,
      "Con": 3225,
      "Ġpick": 3226,
      "uted": 3227,
      "Ġmeaning": 3228,
      "Ġwriting": 3229,
      "Ġdepending": 3230,
      "oration": 3231,
      "Ġcritical": 3232,
      "Ġlayer": 3233,
      "Ġreplace": 3234,
      "Ġfriend": 3235,
      "Ġlat": 3236,
      "Ġgar": 3237,
      "Ġcompanies": 3238,
      "Ġx": 3239,
      "Ġlands": 3240,
      "Ġorganic": 3241,
      "Ġcommonly": 3242,
      "Ġprotection": 3243,
      "ĠResearch": 3244,
      "Ġoriginal": 3245,
      "Ġdisplay": 3246,
      "Ġmoving": 3247,
      "aly": 3248,
      "Ġce": 3249,
      "asc": 3250,
      "Ġforms": 3251,
      "Ġusers": 3252,
      "issions": 3253,
      "Be": 3254,
      "Ġult": 3255,
      "Ġfix": 3256,
      "Ġpurch": 3257,
      ".com": 3258,
      "26": 3259,
      "fl": 3260,
      "Ġspect": 3261,
      "Ġvisual": 3262,
      "Ġimmedi": 3263,
      "Ġmilk": 3264,
      "Ġrock": 3265,
      "Ġtherm": 3266,
      "rs": 3267,
      "Ġmaintenance": 3268,
      "Ġallowing": 3269,
      "-e": 3270,
      "oun": 3271,
      "life": 3272,
      "Ġsupply": 3273,
      "uge": 3274,
      "rops": 3275,
      "Ġproperly": 3276,
      "Ġprojects": 3277,
      "-to": 3278,
      "Ġcosts": 3279,
      "pping": 3280,
      "Ġkn": 3281,
      "Ġseries": 3282,
      "Ġbroad": 3283,
      "Ġleave": 3284,
      "Ġnothing": 3285,
      "ucle": 3286,
      "Ġgovernment": 3287,
      "32": 3288,
      "AC": 3289,
      "rew": 3290,
      "ror": 3291,
      "ĠChe": 3292,
      "Ġfavor": 3293,
      "Ġinvestig": 3294,
      "atives": 3295,
      "Ġhun": 3296,
      "ĠWhy": 3297,
      "Ġthick": 3298,
      "order": 3299,
      "airs": 3300,
      "Ġwear": 3301,
      "Ġhands": 3302,
      "ields": 3303,
      "Ġbenefit": 3304,
      "Ġpublished": 3305,
      "Ġteeth": 3306,
      "Ġaccur": 3307,
      "Ġdemonst": 3308,
      "bol": 3309,
      "ĠSm": 3310,
      "Ġexcess": 3311,
      "Ġvary": 3312,
      "rag": 3313,
      "umin": 3314,
      "Ġbaby": 3315,
      "08": 3316,
      "ĠâĢ¦": 3317,
      "Ġprice": 3318,
      "Ġlimited": 3319,
      "Ġchallenges": 3320,
      "cking": 3321,
      "Ġreasons": 3322,
      "Ġlimit": 3323,
      "otes": 3324,
      "iate": 3325,
      "ĠAir": 3326,
      "27": 3327,
      "Ġlens": 3328,
      "Ġstation": 3329,
      "Ġhearing": 3330,
      "Ġpretty": 3331,
      "iet": 3332,
      "Ġcry": 3333,
      "hens": 3334,
      "Ġvision": 3335,
      "ober": 3336,
      "inks": 3337,
      "icate": 3338,
      "Ġhope": 3339,
      "ifically": 3340,
      "ĠHigh": 3341,
      "Ġplat": 3342,
      "Ġorigin": 3343,
      "Ġfriends": 3344,
      "Ġfine": 3345,
      "ologies": 3346,
      "Ġpatient": 3347,
      "Ġvirus": 3348,
      "Ġpow": 3349,
      "ached": 3350,
      "ĠGra": 3351,
      "ĠIntern": 3352,
      "Ġprograms": 3353,
      "OR": 3354,
      "Ġsurround": 3355,
      "Ġinvolves": 3356,
      "Ġappropriate": 3357,
      "Ġmount": 3358,
      "ĠĠĠĠ": 3359,
      "Ġinteresting": 3360,
      "Ġcross": 3361,
      "Ġmob": 3362,
      "ections": 3363,
      "Ġcontroll": 3364,
      "Ġbill": 3365,
      "Ġhost": 3366,
      "cient": 3367,
      "wor": 3368,
      "acing": 3369,
      "Ġgets": 3370,
      "mosp": 3371,
      "Ġtail": 3372,
      "ĠWater": 3373,
      "ibly": 3374,
      "Ġready": 3375,
      "Ġcentury": 3376,
      "ls": 3377,
      "empt": 3378,
      "Ġinfection": 3379,
      "cription": 3380,
      "Ġpen": 3381,
      "ocol": 3382,
      "Ġtub": 3383,
      "Ġinnov": 3384,
      "abric": 3385,
      "Ġadding": 3386,
      "wise": 3387,
      "Ġstates": 3388,
      "ivate": 3389,
      "Ġbirth": 3390,
      "ĠWorld": 3391,
      "craft": 3392,
      "eration": 3393,
      "Ġbag": 3394,
      "odes": 3395,
      "Ġmusic": 3396,
      "ĠPer": 3397,
      "Ġsuff": 3398,
      "Ġgoes": 3399,
      "hood": 3400,
      "Ġgives": 3401,
      "Ġarch": 3402,
      "\".": 3403,
      "Ġcooking": 3404,
      "Ġattract": 3405,
      "Ġideal": 3406,
      "Ġfinal": 3407,
      "Ġforest": 3408,
      "Ġmolecules": 3409,
      "yond": 3410,
      "hyd": 3411,
      "Ġdepend": 3412,
      "With": 3413,
      "Ġcamp": 3414,
      "Ġlate": 3415,
      "ĠUse": 3416,
      "Ġsection": 3417,
      "Ġexpress": 3418,
      "Ġthinking": 3419,
      "Ġhappens": 3420,
      "Ġresponsible": 3421,
      "ixt": 3422,
      "Ġpage": 3423,
      "Ġshap": 3424,
      "Ġincorpor": 3425,
      "Ġaccept": 3426,
      "Ġgradu": 3427,
      "Ġcenter": 3428,
      "Ġsalt": 3429,
      "Ġcurrently": 3430,
      "By": 3431,
      "na": 3432,
      "ester": 3433,
      "Ġliquid": 3434,
      "Ġexcell": 3435,
      "Ġremember": 3436,
      "At": 3437,
      "Ġpoor": 3438,
      "Ġsuitable": 3439,
      "rier": 3440,
      "Ġcleaning": 3441,
      "These": 3442,
      "hol": 3443,
      "ipl": 3444,
      "Ġcloth": 3445,
      "Ġpractices": 3446,
      "Ġwatch": 3447,
      "Ġevalu": 3448,
      "ero": 3449,
      "Ġsent": 3450,
      "Ġlack": 3451,
      "board": 3452,
      "abetes": 3453,
      "tage": 3454,
      "Ġweb": 3455,
      "Ġsoon": 3456,
      "Ġfactor": 3457,
      "Ġmuscle": 3458,
      "ogen": 3459,
      "Ġsave": 3460,
      "Ġboard": 3461,
      "Ġprogress": 3462,
      "Ġflex": 3463,
      "Ġbeautiful": 3464,
      "cop": 3465,
      "Ġmother": 3466,
      "Ġrich": 3467,
      "tings": 3468,
      "ĠMon": 3469,
      "Ġstarting": 3470,
      "Ġtook": 3471,
      "aur": 3472,
      "lege": 3473,
      "Ġheavy": 3474,
      "cast": 3475,
      "set": 3476,
      "ulated": 3477,
      "back": 3478,
      "apter": 3479,
      "Ġbound": 3480,
      "ĠArt": 3481,
      "Ġmaximum": 3482,
      "ashion": 3483,
      "Ġdirection": 3484,
      "Ġeth": 3485,
      "Ġtask": 3486,
      "Ġbird": 3487,
      "rates": 3488,
      "Ġpull": 3489,
      "pper": 3490,
      "Ġlocated": 3491,
      "Ġsustainable": 3492,
      "rick": 3493,
      "met": 3494,
      "Ġchick": 3495,
      "Ġschools": 3496,
      "Ġoccurs": 3497,
      "45": 3498,
      "cape": 3499,
      "ok": 3500,
      "ĠÂ": 3501,
      "Ġtechnique": 3502,
      "AM": 3503,
      "mission": 3504,
      "rought": 3505,
      "Ġsolutions": 3506,
      "ister": 3507,
      "Ġstructures": 3508,
      "On": 3509,
      "eed": 3510,
      "Ġtank": 3511,
      "EN": 3512,
      "Ġexactly": 3513,
      "inking": 3514,
      "Ġcharge": 3515,
      ".g": 3516,
      "ula": 3517,
      "Ġjo": 3518,
      "Ġcausing": 3519,
      "Ġmanufacture": 3520,
      "And": 3521,
      "bor": 3522,
      "Ġ\\": 3523,
      "ĠAlso": 3524,
      "Ġmoisture": 3525,
      "Ġtransfer": 3526,
      "standing": 3527,
      "Ġbecame": 3528,
      "amed": 3529,
      "Ġwrong": 3530,
      "Ġfully": 3531,
      "ĠAustral": 3532,
      "Ġep": 3533,
      "ĠGod": 3534,
      "Ġver": 3535,
      "Ġgenes": 3536,
      "While": 3537,
      "ĠLet": 3538,
      "Ġconstruction": 3539,
      "He": 3540,
      "ieved": 3541,
      "ran": 3542,
      "05": 3543,
      "onic": 3544,
      "orith": 3545,
      "Ġensuring": 3546,
      "-term": 3547,
      "Ġintellig": 3548,
      "Ġpieces": 3549,
      "ĠNow": 3550,
      "Ġrare": 3551,
      "ĠWho": 3552,
      "Ġcombination": 3553,
      "Ġapplied": 3554,
      "ping": 3555,
      "ĠAc": 3556,
      "Ġvia": 3557,
      "ĠLear": 3558,
      "ĠOur": 3559,
      "Ġopportunity": 3560,
      "hel": 3561,
      "Ġplaces": 3562,
      "arian": 3563,
      "omb": 3564,
      "Ġrequirements": 3565,
      "Ġfruit": 3566,
      "pan": 3567,
      "imize": 3568,
      "Ġapply": 3569,
      "Ġculture": 3570,
      "oud": 3571,
      "ching": 3572,
      "duc": 3573,
      "Ġstraight": 3574,
      "uk": 3575,
      "Ġdiscovered": 3576,
      "Ġelement": 3577,
      "sych": 3578,
      "dd": 3579,
      "Ġcommer": 3580,
      "Ġexperiment": 3581,
      "lands": 3582,
      "pite": 3583,
      "Ġexamples": 3584,
      "Ġsetting": 3585,
      "Ġaqu": 3586,
      "alt": 3587,
      "Ġmiss": 3588,
      "Ġsignificantly": 3589,
      "Ġfrequency": 3590,
      "Ġingredients": 3591,
      "31": 3592,
      "Ġbottom": 3593,
      "ĠTheir": 3594,
      "Ġocean": 3595,
      "Ġoutd": 3596,
      "Ġreducing": 3597,
      "Ġreaction": 3598,
      "Ġseed": 3599,
      "ĠEach": 3600,
      "atoes": 3601,
      "ada": 3602,
      "Ġdescribed": 3603,
      "Ġcollabor": 3604,
      "Ġaren": 3605,
      "Ġblog": 3606,
      "Ġast": 3607,
      "Ġatmosp": 3608,
      "Ġclin": 3609,
      "Ġtrack": 3610,
      "Ġcapacity": 3611,
      "Ġconvers": 3612,
      "ĠOver": 3613,
      "Ġfunctions": 3614,
      "Ġspot": 3615,
      "Ġcamera": 3616,
      "Ġplatform": 3617,
      "II": 3618,
      "Ġwire": 3619,
      "isions": 3620,
      "Ġfabric": 3621,
      "Ġgold": 3622,
      "imens": 3623,
      "ĠAg": 3624,
      "Ġsolid": 3625,
      "hether": 3626,
      "Ġbud": 3627,
      "Ġrat": 3628,
      "Ġnotice": 3629,
      "ender": 3630,
      "ĠAdditionally": 3631,
      "Im": 3632,
      "ana": 3633,
      "Ġreve": 3634,
      "ffect": 3635,
      "Ġdisp": 3636,
      "Ġplanet": 3637,
      "Ġresistance": 3638,
      "rim": 3639,
      "ĠJoh": 3640,
      "ball": 3641,
      "ened": 3642,
      "They": 3643,
      "erences": 3644,
      "Ġroll": 3645,
      "Ġagricult": 3646,
      "ĠGl": 3647,
      "Ġexpert": 3648,
      "Ġbehavi": 3649,
      "Ġmouth": 3650,
      "Ġmotor": 3651,
      "Ġfro": 3652,
      "Ġcommercial": 3653,
      "Ġmag": 3654,
      "omy": 3655,
      "Ġincreases": 3656,
      "ĠWest": 3657,
      "Ġvalu": 3658,
      "Ġreceive": 3659,
      "Ġvacc": 3660,
      "Ġled": 3661,
      "Ġgiving": 3662,
      "Ġgraph": 3663,
      "Ġpowerful": 3664,
      "Ġswitch": 3665,
      "roup": 3666,
      "Ġund": 3667,
      "Ġworth": 3668,
      "Ġinches": 3669,
      "Ġnutrients": 3670,
      "||": 3671,
      "aters": 3672,
      "ament": 3673,
      "Ġbran": 3674,
      "Ġeffectively": 3675,
      "ĠSim": 3676,
      "ĠRem": 3677,
      "ĠOnce": 3678,
      "vity": 3679,
      "onding": 3680,
      "right": 3681,
      "Ġanyone": 3682,
      "Ġdemand": 3683,
      "29": 3684,
      "char": 3685,
      "Ġjoint": 3686,
      "Ġnews": 3687,
      "Ġsmooth": 3688,
      "zing": 3689,
      "Ġcars": 3690,
      "Ġinstance": 3691,
      "ha": 3692,
      "ĠBrit": 3693,
      "Ġapprox": 3694,
      "Ġcomponent": 3695,
      "ously": 3696,
      "Ġarm": 3697,
      "Ġsuccessful": 3698,
      "Ġtaste": 3699,
      "Ġdead": 3700,
      "ĠBecause": 3701,
      "Ġpregn": 3702,
      "fish": 3703,
      "Ġfurn": 3704,
      "Ġstage": 3705,
      "Ġimag": 3706,
      "Step": 3707,
      "ĠWorks": 3708,
      "Ġthr": 3709,
      "Ġalthough": 3710,
      "Ġcoast": 3711,
      "ony": 3712,
      "ĠDis": 3713,
      "Ġrapid": 3714,
      "Ġpattern": 3715,
      "Ġmoment": 3716,
      "07": 3717,
      "Ġround": 3718,
      "Ġcommit": 3719,
      "Ġinfl": 3720,
      "Now": 3721,
      "Ġestim": 3722,
      "Ġsituation": 3723,
      "Pl": 3724,
      "Ġbrown": 3725,
      "Ġnutrition": 3726,
      "ĠRec": 3727,
      "Some": 3728,
      "Ġinsp": 3729,
      "Ġparticles": 3730,
      "AL": 3731,
      "Ġexpand": 3732,
      "cling": 3733,
      "Ġsecurity": 3734,
      "04": 3735,
      "inger": 3736,
      "Ġcontext": 3737,
      "Ġattempt": 3738,
      "ĠCenter": 3739,
      "Ġthird": 3740,
      "Ġcoming": 3741,
      "osystem": 3742,
      "Ġalternative": 3743,
      "key": 3744,
      "Ġrain": 3745,
      "IG": 3746,
      "Ġsevere": 3747,
      "Ġtherefore": 3748,
      "Ġowners": 3749,
      "Ġexpected": 3750,
      "Ġvegetables": 3751,
      "oman": 3752,
      "raction": 3753,
      "Ġtesting": 3754,
      "gs": 3755,
      "lebr": 3756,
      "Ġprocessing": 3757,
      "rehens": 3758,
      "Ġfile": 3759,
      "Ġthus": 3760,
      "Ġgrass": 3761,
      "Ġadvantage": 3762,
      "ĠTH": 3763,
      "unction": 3764,
      "ĠBi": 3765,
      "hetic": 3766,
      "hold": 3767,
      "ancing": 3768,
      "09": 3769,
      "Ġwalk": 3770,
      "Ġfaster": 3771,
      "Ġthous": 3772,
      "ided": 3773,
      "pped": 3774,
      "Ġscale": 3775,
      "Ġdifferences": 3776,
      "Ġexpensive": 3777,
      "Ġsites": 3778,
      "Ġalgorith": 3779,
      "Ġfertil": 3780,
      "Ġexcellent": 3781,
      "Ġtasks": 3782,
      "resp": 3783,
      "Ġopportunities": 3784,
      "enn": 3785,
      "Ġevol": 3786,
      "Ġindepend": 3787,
      "Ġreported": 3788,
      "uries": 3789,
      "Ġrelease": 3790,
      "hest": 3791,
      "Ġbow": 3792,
      "Ġnav": 3793,
      "Ġrules": 3794,
      "apan": 3795,
      "oors": 3796,
      "enge": 3797,
      "Ġlooks": 3798,
      "Ġ...": 3799,
      "Ġfoss": 3800,
      "Ġder": 3801,
      "Ġresid": 3802,
      "Ġdecision": 3803,
      "Ġphotos": 3804,
      "ams": 3805,
      "Ġsynt": 3806,
      "ails": 3807,
      "Ġslightly": 3808,
      "Ġvoltage": 3809,
      "Ġfight": 3810,
      "Ġyellow": 3811,
      "ĠNOT": 3812,
      "ĠIts": 3813,
      "Ġ:": 3814,
      "Ġdetails": 3815,
      "Ġvolume": 3816,
      "Ġdynam": 3817,
      "Ġextremely": 3818,
      "bit": 3819,
      "iar": 3820,
      "Ġtit": 3821,
      "âĢ¢": 3822,
      "Ġbooks": 3823,
      "06": 3824,
      "IC": 3825,
      "Res": 3826,
      "xi": 3827,
      "iment": 3828,
      "Ġplayers": 3829,
      "ĠAlthough": 3830,
      "Ġaffected": 3831,
      "ĠIndia": 3832,
      "off": 3833,
      "Ġreprodu": 3834,
      "Ġhandle": 3835,
      "Ġ*": 3836,
      "Ġforward": 3837,
      "ĠOther": 3838,
      "ĠTechn": 3839,
      "uration": 3840,
      "abol": 3841,
      "Ġpref": 3842,
      "Ġtrend": 3843,
      "Ġdegrees": 3844,
      "Ġwonder": 3845,
      "Re": 3846,
      "Ġeffort": 3847,
      "Ġnoise": 3848,
      "hesis": 3849,
      "iction": 3850,
      "Ġsymbol": 3851,
      "Ġwrite": 3852,
      "ĠBlack": 3853,
      "ancial": 3854,
      "rain": 3855,
      "Ġteachers": 3856,
      "Ġtissue": 3857,
      "Ġdoor": 3858,
      "ipes": 3859,
      "...Ċ": 3860,
      "ĠJust": 3861,
      "Ġsaw": 3862,
      "Ġversion": 3863,
      "ĠInstitute": 3864,
      "Ġinterf": 3865,
      "Ġmagnetic": 3866,
      "iant": 3867,
      "Ġtherapy": 3868,
      "Ġfair": 3869,
      "Ġbasis": 3870,
      "iforn": 3871,
      "Do": 3872,
      "Ġwin": 3873,
      "Ġmis": 3874,
      "Ġmale": 3875,
      "Ġlighting": 3876,
      "ĠTw": 3877,
      "ĠSol": 3878,
      "Ġsex": 3879,
      "Ġroots": 3880,
      "Ġtrig": 3881,
      "ĠState": 3882,
      "Ġincluded": 3883,
      "Ġmedium": 3884,
      "Ġdepends": 3885,
      "Ġcutting": 3886,
      "ĠAct": 3887,
      "Ġhyp": 3888,
      "Ġtox": 3889,
      "ĠPar": 3890,
      "Ġmonit": 3891,
      "Ġappearance": 3892,
      "Ġwel": 3893,
      "Ġadvanced": 3894,
      "Ġmid": 3895,
      "ĠServ": 3896,
      "Ġchance": 3897,
      "Ġrecy": 3898,
      "Ġconnection": 3899,
      "cohol": 3900,
      "Ġconnected": 3901,
      "Ġcharacteristics": 3902,
      "Ġrecently": 3903,
      "Ġfinding": 3904,
      "Ġequal": 3905,
      "Ġdeb": 3906,
      "Ġproperty": 3907,
      "Ġbeyond": 3908,
      "urt": 3909,
      "ĠWar": 3910,
      "Ġrise": 3911,
      "Ġcontribute": 3912,
      "Ġfemale": 3913,
      "Ġrelatively": 3914,
      "tes": 3915,
      "Ġsort": 3916,
      "Ġwent": 3917,
      "Ġpump": 3918,
      "Ġhuge": 3919,
      "Ġadop": 3920,
      "Ġshar": 3921,
      "Ġplaced": 3922,
      "inding": 3923,
      "Ġpresence": 3924,
      "Ġbegan": 3925,
      "ĠEm": 3926,
      "Ġbreast": 3927,
      "Ġpicture": 3928,
      "know": 3929,
      "ille": 3930,
      "Ġstuff": 3931,
      "ĠChrist": 3932,
      "Ġimmune": 3933,
      "ST": 3934,
      "Ġremains": 3935,
      "Ġdriving": 3936,
      "Ġju": 3937,
      "Ġexisting": 3938,
      "Un": 3939,
      "Ġdat": 3940,
      "amb": 3941,
      "Ġrates": 3942,
      "Ġestablish": 3943,
      "ifornia": 3944,
      "wers": 3945,
      "Ġonto": 3946,
      "Ġdocument": 3947,
      "ĠFl": 3948,
      "Ġolder": 3949,
      "Ġexposure": 3950,
      "Ġliter": 3951,
      "Ġcomfortable": 3952,
      "ying": 3953,
      "Ġnative": 3954,
      "Ġnucle": 3955,
      "Ġstre": 3956,
      "anging": 3957,
      "Ġmaintaining": 3958,
      "IT": 3959,
      "ĠMod": 3960,
      "ĠRed": 3961,
      "ificial": 3962,
      "Ġtechnologies": 3963,
      "Ġdistinct": 3964,
      "Ġreduced": 3965,
      "Ġfluid": 3966,
      "-up": 3967,
      "Ġsociety": 3968,
      "Ġsmart": 3969,
      "Ġattack": 3970,
      "Ġbackground": 3971,
      "75": 3972,
      "bing": 3973,
      "Ġfashion": 3974,
      "Ġmiddle": 3975,
      "Ġdie": 3976,
      "Ġnote": 3977,
      "Ġlights": 3978,
      "Ġkeeping": 3979,
      "ET": 3980,
      "Ġbodies": 3981,
      "ĠEnglish": 3982,
      "bi": 3983,
      "gram": 3984,
      "haps": 3985,
      "Ġdiscover": 3986,
      "Ġstream": 3987,
      "Ġphone": 3988,
      "Ġtests": 3989,
      "Ph": 3990,
      "enty": 3991,
      "ĠSw": 3992,
      "Ġanti": 3993,
      "ublic": 3994,
      "Ġflight": 3995,
      "Ġlabor": 3996,
      "Ġtouch": 3997,
      "55": 3998,
      "Ġchanging": 3999,
      "Ġeconomic": 4000,
      "lier": 4001,
      "ĠFirst": 4002,
      "Ġexperiences": 4003,
      "Ġdiv": 4004,
      "abilities": 4005,
      "Ġagg": 4006,
      "ban": 4007,
      "ups": 4008,
      "Ġsold": 4009,
      "Ġinfluence": 4010,
      "Ġinstructions": 4011,
      "ye": 4012,
      "ĠEven": 4013,
      "Ġregions": 4014,
      "Ġjourney": 4015,
      "Ġaspects": 4016,
      "ressive": 4017,
      "36": 4018,
      "Ġstick": 4019,
      "plant": 4020,
      "Ġteaching": 4021,
      "ĠSystem": 4022,
      "que": 4023,
      "Ġcalc": 4024,
      "Ġstrategies": 4025,
      "Ġecosystem": 4026,
      "izations": 4027,
      "Ġmanage": 4028,
      "Ġspecifically": 4029,
      "ras": 4030,
      "Ġ|": 4031,
      "oma": 4032,
      "Ġheight": 4033,
      "Ġconsumption": 4034,
      "Ġfamilies": 4035,
      "Ġ{": 4036,
      "omic": 4037,
      "ĠMin": 4038,
      "ĠUK": 4039,
      "rench": 4040,
      "Ġphase": 4041,
      "Ġmachines": 4042,
      "ype": 4043,
      "iling": 4044,
      "Ġupd": 4045,
      "clus": 4046,
      "Ġhistor": 4047,
      "Ġwritten": 4048,
      "Ġframe": 4049,
      "Ġpopulations": 4050,
      "ĠAfrica": 4051,
      "xiety": 4052,
      "-C": 4053,
      "Ġdate": 4054,
      "ĠGerm": 4055,
      "Ġsounds": 4056,
      "estic": 4057,
      "orders": 4058,
      "Ġmeasures": 4059,
      "Ġcouple": 4060,
      "Ġobserved": 4061,
      "isp": 4062,
      "ĠAccording": 4063,
      "Ġcove": 4064,
      "Ġparam": 4065,
      "Ġseparate": 4066,
      "Ġsnow": 4067,
      "itis": 4068,
      "gery": 4069,
      "undred": 4070,
      "Ġcateg": 4071,
      "ulf": 4072,
      "Ġcircuit": 4073,
      "ĠCalifornia": 4074,
      "43": 4075,
      "95": 4076,
      "fess": 4077,
      "ares": 4078,
      "erate": 4079,
      "Ġmut": 4080,
      "Ġded": 4081,
      "Ġcommunities": 4082,
      "ĠPhot": 4083,
      "can": 4084,
      "hop": 4085,
      "Ġchann": 4086,
      "ĠUnder": 4087,
      "itect": 4088,
      "Ġtooth": 4089,
      "Ġbutter": 4090,
      "AD": 4091,
      "care": 4092,
      "ilit": 4093,
      "Ġcompar": 4094,
      "Ġfeeling": 4095,
      "EC": 4096,
      "ken": 4097,
      "otics": 4098,
      "Ġlargest": 4099,
      "Ġlost": 4100,
      "Ġallerg": 4101,
      "Ġdiabetes": 4102,
      "Ġswim": 4103,
      "Ġnearly": 4104,
      "Ġmotion": 4105,
      "Ġcelebr": 4106,
      "Ġwet": 4107,
      "ĠJapan": 4108,
      "-y": 4109,
      "och": 4110,
      "Ġnit": 4111,
      "Ġclim": 4112,
      "Ġdepth": 4113,
      "Ġrice": 4114,
      "Ġflavor": 4115,
      "cil": 4116,
      "ndom": 4117,
      "Ġgun": 4118,
      "ocal": 4119,
      "Ġiron": 4120,
      "semb": 4121,
      "Ġdegree": 4122,
      "PS": 4123,
      "Ġ#": 4124,
      "Ġcollection": 4125,
      "Ġcentral": 4126,
      "Ġelimin": 4127,
      "Ġillust": 4128,
      "ĠMake": 4129,
      "Ġconservation": 4130,
      "Ġplease": 4131,
      "icking": 4132,
      "Ġcomprehens": 4133,
      "Ġcolour": 4134,
      "Ġflat": 4135,
      "Ġrisks": 4136,
      "Ġspir": 4137,
      "aught": 4138,
      "Ġtrou": 4139,
      "Ġphen": 4140,
      "Ġboost": 4141,
      "Ġpractical": 4142,
      "Ġinsects": 4143,
      "Ġdistribution": 4144,
      "Ġimmediately": 4145,
      "Ġcovered": 4146,
      "used": 4147,
      "iverse": 4148,
      "bed": 4149,
      "ica": 4150,
      "Ġbright": 4151,
      "Ġplanning": 4152,
      "oly": 4153,
      "Ġpromot": 4154,
      "Ġbatteries": 4155,
      "riend": 4156,
      "Ġfung": 4157,
      "Ġmatch": 4158,
      "celer": 4159,
      "Ġdoctor": 4160,
      "Ġresulting": 4161,
      "Ġsurpr": 4162,
      "Ġgrown": 4163,
      "Ġmiles": 4164,
      "uary": 4165,
      "ios": 4166,
      "ss": 4167,
      "osph": 4168,
      "vironments": 4169,
      "Ġserve": 4170,
      "Ġchemicals": 4171,
      "Ġsess": 4172,
      "icks": 4173,
      "quality": 4174,
      "ĠDi": 4175,
      "ĠDon": 4176,
      "Ġkill": 4177,
      "Ġhelping": 4178,
      "ipped": 4179,
      "EM": 4180,
      "Ġexec": 4181,
      "Ġaircraft": 4182,
      "pril": 4183,
      "99": 4184,
      "Ġspend": 4185,
      "Ġapprec": 4186,
      "ashing": 4187,
      "Ġasked": 4188,
      "ĠUsing": 4189,
      "33": 4190,
      "wing": 4191,
      "ette": 4192,
      "Ġstaff": 4193,
      "Ġheating": 4194,
      "ĠRep": 4195,
      "chen": 4196,
      "Ġbone": 4197,
      "unk": 4198,
      "Ġvital": 4199,
      "Ġhit": 4200,
      "Ġstret": 4201,
      "ĠQ": 4202,
      "Ġclos": 4203,
      "-le": 4204,
      "pen": 4205,
      "irect": 4206,
      "Ġdivers": 4207,
      "Ġtiny": 4208,
      "Ġpil": 4209,
      "ĠPart": 4210,
      "Ġhappy": 4211,
      "Ġrepair": 4212,
      "Ġantib": 4213,
      "Ġfinancial": 4214,
      "Ġsuggests": 4215,
      "Ġcustomers": 4216,
      "No": 4217,
      "Ġhear": 4218,
      "ĠRead": 4219,
      "Ġinterested": 4220,
      "Ġelectricity": 4221,
      "Ġpsych": 4222,
      "Ġburn": 4223,
      "Ġrandom": 4224,
      "Ġidentified": 4225,
      "Ġcultural": 4226,
      "Ġvehicles": 4227,
      "Ġaccurate": 4228,
      "Ġvaluable": 4229,
      "]ĊĊ": 4230,
      "flow": 4231,
      "ĠAut": 4232,
      "ĠPark": 4233,
      "Ġfilter": 4234,
      "ĠSec": 4235,
      "Ġbreed": 4236,
      "Ġcustomer": 4237,
      "Ġbeginning": 4238,
      "Ġexperienced": 4239,
      "ixture": 4240,
      "encies": 4241,
      "Ġwaves": 4242,
      "Ġestablished": 4243,
      "Ġfields": 4244,
      "Ġchanged": 4245,
      "Ġvirt": 4246,
      "Ġformed": 4247,
      "Ġpolit": 4248,
      "However": 4249,
      "OS": 4250,
      "ogle": 4251,
      "place": 4252,
      "ishing": 4253,
      "urance": 4254,
      "Ġconver": 4255,
      "Ġgeneration": 4256,
      "Ġpromote": 4257,
      "Ġhundred": 4258,
      "Ġrid": 4259,
      "Ġrub": 4260,
      "Ġhabitat": 4261,
      "inally": 4262,
      "Ġmel": 4263,
      "oday": 4264,
      "umber": 4265,
      "Ġdish": 4266,
      "Ġelectronic": 4267,
      "Ġprofession": 4268,
      "Des": 4269,
      "book": 4270,
      "ny": 4271,
      "uild": 4272,
      "Ġcontrast": 4273,
      "Ġgoals": 4274,
      "azing": 4275,
      "ĠSte": 4276,
      "ums": 4277,
      "Ġmaybe": 4278,
      "Ġfloor": 4279,
      "ses": 4280,
      "ĠYork": 4281,
      "print": 4282,
      "Ġsunsp": 4283,
      "Ġatmosphere": 4284,
      "Ġdescri": 4285,
      "Ġsample": 4286,
      "ĠEuropean": 4287,
      "orial": 4288,
      "elines": 4289,
      "Ġalone": 4290,
      "Ġweak": 4291,
      "itely": 4292,
      "Ġchallenge": 4293,
      "?\"": 4294,
      "Ġpal": 4295,
      "Ġenvironments": 4296,
      "ĠEduc": 4297,
      "Ġpool": 4298,
      "Ġelectron": 4299,
      "iples": 4300,
      "ĠSince": 4301,
      "Ġemp": 4302,
      "Ġallowed": 4303,
      "ĠTrans": 4304,
      "ped": 4305,
      "Ġfle": 4306,
      "Ġstim": 4307,
      "izer": 4308,
      "-like": 4309,
      "Ġadvantages": 4310,
      "ux": 4311,
      "Ġcred": 4312,
      "Ġpa": 4313,
      "rupt": 4314,
      "Ġkil": 4315,
      "Ġblo": 4316,
      "Ġefforts": 4317,
      "aled": 4318,
      "ivil": 4319,
      "âĢĻt": 4320,
      "Ġâ": 4321,
      "Ġforces": 4322,
      "Ġdiverse": 4323,
      "Ġcreative": 4324,
      "bre": 4325,
      "pre": 4326,
      "Ġnational": 4327,
      "ĠTherefore": 4328,
      "Ġoperations": 4329,
      "Ġencourage": 4330,
      "time": 4331,
      "ĠMarch": 4332,
      "ought": 4333,
      "Ġmostly": 4334,
      "Ġcorresp": 4335,
      "Ġsquare": 4336,
      "Ġjournal": 4337,
      "ees": 4338,
      "Ġscen": 4339,
      "Ġactual": 4340,
      "ternal": 4341,
      "Ġcounter": 4342,
      "ibrary": 4343,
      "Ġnavig": 4344,
      "alse": 4345,
      "ĠCle": 4346,
      "Ġfeeding": 4347,
      "atically": 4348,
      "outhern": 4349,
      "Ġminimum": 4350,
      "-sh": 4351,
      "Ġfavorite": 4352,
      "nam": 4353,
      "ffee": 4354,
      "Ġconsult": 4355,
      "med": 4356,
      "Ġtalking": 4357,
      "Ġwave": 4358,
      "Ġanxiety": 4359,
      "Ġhighlight": 4360,
      "Ġedge": 4361,
      "Ġwildlife": 4362,
      "Ġquantum": 4363,
      "OL": 4364,
      "Ġstru": 4365,
      "Ġoperation": 4366,
      "Ġwidely": 4367,
      "dom": 4368,
      "Ġtom": 4369,
      "Ġhour": 4370,
      "Ġrelax": 4371,
      "Ġsatis": 4372,
      "tion": 4373,
      "Ġdust": 4374,
      "Ġemissions": 4375,
      "Ġsweet": 4376,
      "Ġdrop": 4377,
      "ĠSu": 4378,
      "Ġsports": 4379,
      "Ġmanufacturing": 4380,
      "Ġtold": 4381,
      "eters": 4382,
      "Ġexhib": 4383,
      "Ġclasses": 4384,
      "Ġsteam": 4385,
      "Ġregularly": 4386,
      "ky": 4387,
      "Ġcore": 4388,
      "iter": 4389,
      "Ġfear": 4390,
      "aser": 4391,
      "Ġbecoming": 4392,
      "Ġoccas": 4393,
      "Ġeventually": 4394,
      "Ġmobile": 4395,
      ".e": 4396,
      "Ġpair": 4397,
      "Ġvi": 4398,
      "Ġneut": 4399,
      "ĠHer": 4400,
      "Ġworked": 4401,
      "Ġsignals": 4402,
      "Ġcup": 4403,
      "Ġvibr": 4404,
      "Ġwanted": 4405,
      "Ġmarine": 4406,
      "Ġsamples": 4407,
      "Ġlose": 4408,
      "ĠKeep": 4409,
      "\\u": 4410,
      "Ġalcohol": 4411,
      "ĠWill": 4412,
      "Ġradio": 4413,
      "body": 4414,
      "Ġpounds": 4415,
      "pec": 4416,
      "ĠChar": 4417,
      "Ġtopic": 4418,
      "That": 4419,
      "word": 4420,
      "ads": 4421,
      "ĠChild": 4422,
      "Ġrespond": 4423,
      "65": 4424,
      "Ġrule": 4425,
      "Ġresource": 4426,
      "Ġplate": 4427,
      "Ġmap": 4428,
      "Ġoffice": 4429,
      "All": 4430,
      "Ġign": 4431,
      "Ġpets": 4432,
      "Ġfigure": 4433,
      "cell": 4434,
      "oughly": 4435,
      "Ġaccum": 4436,
      "ĠChina": 4437,
      "Ġcryst": 4438,
      "known": 4439,
      "Ab": 4440,
      "ĠFood": 4441,
      "Ġgenerate": 4442,
      "Ġplaying": 4443,
      "minist": 4444,
      "ĠDepartment": 4445,
      "/or": 4446,
      "Ġpric": 4447,
      "Ġshop": 4448,
      "Ġsettings": 4449,
      "ava": 4450,
      "Ġadvance": 4451,
      "Ġregarding": 4452,
      "che": 4453,
      "Ġrepe": 4454,
      "Ġshoes": 4455,
      "Ġfarmers": 4456,
      "Ġfasc": 4457,
      "eties": 4458,
      "inder": 4459,
      "Ġpotentially": 4460,
      "related": 4461,
      "oice": 4462,
      "Ġpix": 4463,
      "Ġstock": 4464,
      "Ġstandards": 4465,
      "Ġcraft": 4466,
      "Ġtax": 4467,
      "phas": 4468,
      "Ġexpression": 4469,
      "ded": 4470,
      "Ġpush": 4471,
      "formation": 4472,
      "ING": 4473,
      "Here": 4474,
      "Ġfed": 4475,
      "Ġfol": 4476,
      "iments": 4477,
      "Another": 4478,
      "Ġpredict": 4479,
      "Ġplays": 4480,
      "ource": 4481,
      "Ġsche": 4482,
      "Ġmember": 4483,
      "mar": 4484,
      "Ġsod": 4485,
      "itary": 4486,
      "Ġfilm": 4487,
      "Ġmit": 4488,
      "orthern": 4489,
      "Ġenter": 4490,
      "Ġadvice": 4491,
      "Ġorganization": 4492,
      "Ġinvolve": 4493,
      "Ġteacher": 4494,
      "Ġadults": 4495,
      "Ġchicken": 4496,
      "After": 4497,
      "alle": 4498,
      "Ġthread": 4499,
      "Ġlov": 4500,
      "Ġfrequently": 4501,
      "Ġfill": 4502,
      "Ġreality": 4503,
      "ĠWhether": 4504,
      "ĠDuring": 4505,
      "ifying": 4506,
      "-quality": 4507,
      "Ġmold": 4508,
      "ĠEvery": 4509,
      "Ġkid": 4510,
      "Ġdiss": 4511,
      "Ġveter": 4512,
      "Ġhydro": 4513,
      "crete": 4514,
      "uce": 4515,
      "ĠCur": 4516,
      "Ġheld": 4517,
      "ĠOct": 4518,
      "Ġstar": 4519,
      "ĠCom": 4520,
      "Ġmetabol": 4521,
      "Ġinflamm": 4522,
      "uman": 4523,
      "ida": 4524,
      "ĠPres": 4525,
      "Ġqual": 4526,
      "ologist": 4527,
      "Ġtransition": 4528,
      "iences": 4529,
      "Ġhighest": 4530,
      "Ġprimarily": 4531,
      "Ġapproximately": 4532,
      ".[": 4533,
      "house": 4534,
      "wood": 4535,
      "Ġgear": 4536,
      "rome": 4537,
      "Ġuns": 4538,
      "ĠJan": 4539,
      "Ġdrink": 4540,
      "Ġdouble": 4541,
      "ĠPeople": 4542,
      "Int": 4543,
      "uth": 4544,
      "Ġreleased": 4545,
      "My": 4546,
      "ira": 4547,
      "ued": 4548,
      "Ġroof": 4549,
      "lectric": 4550,
      "Ġlearned": 4551,
      "Ġmorning": 4552,
      "bl": 4553,
      "iers": 4554,
      "inating": 4555,
      "Ġmist": 4556,
      "icated": 4557,
      "ĠAC": 4558,
      "ĠEd": 4559,
      "Ġinternal": 4560,
      "Ġassign": 4561,
      "Ġaudio": 4562,
      "Ġdangerous": 4563,
      "olute": 4564,
      "Ġdecisions": 4565,
      "ĠClass": 4566,
      "OU": 4567,
      "Our": 4568,
      "Ġten": 4569,
      "attle": 4570,
      "Ġtypical": 4571,
      "Ġamounts": 4572,
      "ĠGreen": 4573,
      "Ġremoved": 4574,
      "Ġinternet": 4575,
      "38": 4576,
      "ager": 4577,
      "Ġnumerous": 4578,
      "Ġshel": 4579,
      "Ġleaders": 4580,
      "Ġfruits": 4581,
      "aturally": 4582,
      "Ġneigh": 4583,
      "Ġkg": 4584,
      "crib": 4585,
      "rant": 4586,
      "ĠDay": 4587,
      "Ġsyn": 4588,
      ".)": 4589,
      "48": 4590,
      "ĠCount": 4591,
      "Ġsurgery": 4592,
      "Ġleads": 4593,
      "Ġapart": 4594,
      "Ġmuscles": 4595,
      "Ġwalls": 4596,
      "Ġthor": 4597,
      "Ġcomplic": 4598,
      "Ġchain": 4599,
      "Ġacceler": 4600,
      "Ġextract": 4601,
      "Ġphysics": 4602,
      "ĠEnvironment": 4603,
      "iced": 4604,
      "Ġimproved": 4605,
      "Ġcrops": 4606,
      "ishes": 4607,
      "ĠCD": 4608,
      "Ġshoot": 4609,
      "ĠHist": 4610,
      "rows": 4611,
      "weight": 4612,
      "Ġspl": 4613,
      "Ġmamm": 4614,
      "Ġunits": 4615,
      "Ġfollowed": 4616,
      "><": 4617,
      "ey": 4618,
      "erals": 4619,
      "Ġincred": 4620,
      "Ġtrust": 4621,
      "Ġofficial": 4622,
      "Ġgrade": 4623,
      "Ġsteel": 4624,
      "Ġbusinesses": 4625,
      "riendly": 4626,
      "Ġmig": 4627,
      "iveness": 4628,
      "lets": 4629,
      "Ġhous": 4630,
      "othes": 4631,
      "ĠSur": 4632,
      "ander": 4633,
      "Ġdefined": 4634,
      "Ġsaying": 4635,
      "Ġcomprehensive": 4636,
      "lies": 4637,
      "Ġsav": 4638,
      "rote": 4639,
      "olf": 4640,
      "Ġflav": 4641,
      "Ġreliable": 4642,
      "brid": 4643,
      "oxide": 4644,
      "Ġfly": 4645,
      "icro": 4646,
      "Ġstem": 4647,
      "Ġconcentration": 4648,
      "ste": 4649,
      "Ġinfections": 4650,
      "Ġshowed": 4651,
      "Ġindicate": 4652,
      "Ġdrugs": 4653,
      "Ġthousands": 4654,
      "Ġdura": 4655,
      "Ġclick": 4656,
      "ĠJohn": 4657,
      "-S": 4658,
      "equ": 4659,
      "Ġsizes": 4660,
      "Ġconsequ": 4661,
      "Ġmeal": 4662,
      "Ġdesigns": 4663,
      "Ġvisible": 4664,
      "####": 4665,
      "works": 4666,
      "RE": 4667,
      "Ġple": 4668,
      "Ġgir": 4669,
      "ĠAnt": 4670,
      "osite": 4671,
      "Ġorganisms": 4672,
      "Ġoptim": 4673,
      "!!": 4674,
      "Ġsem": 4675,
      "ĠSun": 4676,
      "ĠBra": 4677,
      "ĠDog": 4678,
      "asts": 4679,
      "Ġdesired": 4680,
      "ĠAfrican": 4681,
      "ĠApril": 4682,
      "Ġfindings": 4683,
      "cont": 4684,
      "-free": 4685,
      "Ġlayers": 4686,
      "Ġconsistent": 4687,
      "Ġtun": 4688,
      "Ġshell": 4689,
      "Ġbrought": 4690,
      "Ġelectro": 4691,
      "Ġindustrial": 4692,
      "Ġtruly": 4693,
      "Ġembod": 4694,
      "Ġsell": 4695,
      "atever": 4696,
      "Ġvent": 4697,
      "ĠPC": 4698,
      "allow": 4699,
      "agram": 4700,
      "Ġraw": 4701,
      "AP": 4702,
      "Ġhomes": 4703,
      "Ġhosp": 4704,
      "opl": 4705,
      "Ġoffering": 4706,
      "force": 4707,
      "Ġbeauty": 4708,
      "Ġmaster": 4709,
      "Ġdental": 4710,
      "Ġdensity": 4711,
      "Ġtraffic": 4712,
      "ĠVal": 4713,
      "pective": 4714,
      "ĠAny": 4715,
      "pring": 4716,
      "Ġreceived": 4717,
      "Ġdrawing": 4718,
      "Ġharmful": 4719,
      "ĠST": 4720,
      "ector": 4721,
      "Ġworry": 4722,
      "Ġprivate": 4723,
      "Ġphoto": 4724,
      "rance": 4725,
      "Ġtoward": 4726,
      "Ġstories": 4727,
      "Ġcontract": 4728,
      "Ġeducational": 4729,
      "Ġpupp": 4730,
      "uting": 4731,
      "eline": 4732,
      "ĠBar": 4733,
      "Ġdigest": 4734,
      "Ġbiological": 4735,
      "Ġangle": 4736,
      "rans": 4737,
      "iler": 4738,
      "Ġancient": 4739,
      "ĠHar": 4740,
      "Ġtrain": 4741,
      "ĠEnergy": 4742,
      "Ġprecise": 4743,
      "Ġinternational": 4744,
      "nes": 4745,
      "Ġholes": 4746,
      "idity": 4747,
      "Ġwhose": 4748,
      "ĠWell": 4749,
      "Ġpainting": 4750,
      "Ġintroduced": 4751,
      "cript": 4752,
      "which": 4753,
      "Ġharvest": 4754,
      "Ġmonitoring": 4755,
      "-re": 4756,
      "cers": 4757,
      "Ġconc": 4758,
      "Ġhaz": 4759,
      "ĠDoes": 4760,
      "Ġcreation": 4761,
      "Ġexception": 4762,
      ";Ċ": 4763,
      "ius": 4764,
      "rating": 4765,
      "Ġcul": 4766,
      "icious": 4767,
      "ĠMet": 4768,
      "Ġsecure": 4769,
      "Us": 4770,
      "chers": 4771,
      "lev": 4772,
      "Ġcontinues": 4773,
      "Ġmechanical": 4774,
      "Ġintelligence": 4775,
      "Ġmixture": 4776,
      "Ġnice": 4777,
      "Ġconven": 4778,
      "ĠWind": 4779,
      "Ġpollution": 4780,
      "iture": 4781,
      "Ġhelpful": 4782,
      "urthermore": 4783,
      "Ġ<": 4784,
      "Ġlots": 4785,
      "Ġstored": 4786,
      "ĠHis": 4787,
      "ĠGreat": 4788,
      "Ġsurfaces": 4789,
      "Ġturned": 4790,
      "Ġmedicine": 4791,
      "Ġclothing": 4792,
      "uly": 4793,
      "Ġartificial": 4794,
      "ico": 4795,
      "Ġhon": 4796,
      "Ġnan": 4797,
      "ifier": 4798,
      "Ġassum": 4799,
      "Ġcarefully": 4800,
      "Ġwait": 4801,
      "zyme": 4802,
      "isher": 4803,
      "estyle": 4804,
      "ĠMac": 4805,
      "ĠPol": 4806,
      "Ġwindow": 4807,
      "Ġsituations": 4808,
      "Ġkitchen": 4809,
      "rus": 4810,
      "ĠpH": 4811,
      "Ġstone": 4812,
      "Ġprem": 4813,
      "Ġradiation": 4814,
      "oster": 4815,
      "Ġteach": 4816,
      "Ġearlier": 4817,
      "Ġdetermined": 4818,
      "Ġdetailed": 4819,
      "-year": 4820,
      "Bl": 4821,
      "anes": 4822,
      "orses": 4823,
      "Ġrelig": 4824,
      "Ġobvious": 4825,
      "Ġexposed": 4826,
      "Ġsets": 4827,
      "Ġmolecular": 4828,
      "Ġtour": 4829,
      "Ġhole": 4830,
      "Ġcompost": 4831,
      "Ġplanting": 4832,
      "Ġpurposes": 4833,
      "Ġdestro": 4834,
      "Ġlatest": 4835,
      "Ġpul": 4836,
      "emy": 4837,
      "anges": 4838,
      "Ġhealthcare": 4839,
      "roduction": 4840,
      "Ġdomin": 4841,
      "ato": 4842,
      "Ġcand": 4843,
      "eling": 4844,
      "Ġvs": 4845,
      "Ġcoffee": 4846,
      "Ġacqu": 4847,
      "wide": 4848,
      "za": 4849,
      "Ġbike": 4850,
      "Ġhorm": 4851,
      "Ġnamed": 4852,
      "ighter": 4853,
      "ache": 4854,
      "ĠLab": 4855,
      "Ġscr": 4856,
      "Ġtransmission": 4857,
      "Ġformation": 4858,
      "Ġreference": 4859,
      "Ġcreatures": 4860,
      "Ġzero": 4861,
      "Ġkinds": 4862,
      "Ġarchitect": 4863,
      "ĠAustralia": 4864,
      "Ġoptimal": 4865,
      "Ġmeasured": 4866,
      "Ġprocedure": 4867,
      "ĠAv": 4868,
      "ulating": 4869,
      "Ġampl": 4870,
      "Ġbrush": 4871,
      "ĠProgram": 4872,
      "Ġcooling": 4873,
      "42": 4874,
      "Ġcrop": 4875,
      "acking": 4876,
      "Ġactions": 4877,
      "Ġtexture": 4878,
      "En": 4879,
      "ĠGet": 4880,
      "Ġroutine": 4881,
      "PI": 4882,
      "umn": 4883,
      "ĠWhere": 4884,
      "Ġexperts": 4885,
      "Ġmainly": 4886,
      "vention": 4887,
      "Ġpolicy": 4888,
      "Ġcapable": 4889,
      "hab": 4890,
      "Ġnames": 4891,
      "Ġemphas": 4892,
      "ĠÎ": 4893,
      "Ġtrained": 4894,
      "Ġratio": 4895,
      "ION": 4896,
      "mary": 4897,
      "ometimes": 4898,
      "Ġuniverse": 4899,
      "Ġtreatments": 4900,
      "Ġinteraction": 4901,
      "Ġillness": 4902,
      "part": 4903,
      "Ġion": 4904,
      "Ġdin": 4905,
      "Ġreactions": 4906,
      "Ġmessage": 4907,
      "ek": 4908,
      "anation": 4909,
      "otton": 4910,
      "ĠUp": 4911,
      "ologists": 4912,
      "Ġwest": 4913,
      "Ġlic": 4914,
      "umps": 4915,
      "Ġvess": 4916,
      "Ġbeneficial": 4917,
      "Ġsurvive": 4918,
      "Ġemotional": 4919,
      "Ġsequence": 4920,
      "Your": 4921,
      "lt": 4922,
      "change": 4923,
      "ĠBoth": 4924,
      "Ġarray": 4925,
      "Ġcoord": 4926,
      "Ġproducing": 4927,
      "-be": 4928,
      "Ġdrain": 4929,
      "Ġlaws": 4930,
      "Ġpreviously": 4931,
      "ĠDesign": 4932,
      "Most": 4933,
      "Ġoperating": 4934,
      "Ġstatus": 4935,
      "Ġprinciples": 4936,
      "Ġsunspot": 4937,
      "Ġstrugg": 4938,
      "Ġaw": 4939,
      "heets": 4940,
      "icip": 4941,
      "ented": 4942,
      "amental": 4943,
      "ĠBo": 4944,
      "Ġwheel": 4945,
      "ĠAssoci": 4946,
      "ĠEducation": 4947,
      "uzz": 4948,
      "Ġstro": 4949,
      "ĠCity": 4950,
      "ressed": 4951,
      "Ġconcerns": 4952,
      "Ġ)": 4953,
      "inations": 4954,
      "Ġdecl": 4955,
      "Ġmonitor": 4956,
      "Ġperformed": 4957,
      "Ġconstruct": 4958,
      "====": 4959,
      "44": 4960,
      "Ġcart": 4961,
      "Ġcert": 4962,
      "Ġdu": 4963,
      "stract": 4964,
      "aming": 4965,
      "asses": 4966,
      "Ġelev": 4967,
      "gra": 4968,
      "Ġnaturally": 4969,
      "ĠCor": 4970,
      "Ġtransl": 4971,
      "Ġmode": 4972,
      "Ġessay": 4973,
      "Ġengineering": 4974,
      "ĠDevelop": 4975,
      "ĠConsider": 4976,
      "Ġdefinitely": 4977,
      "Ġvitamin": 4978,
      "Ġfault": 4979,
      "ĠBritish": 4980,
      "ris": 4981,
      "Ġshad": 4982,
      "Ġtrade": 4983,
      "Ġopin": 4984,
      "ylase": 4985,
      "].": 4986,
      "cember": 4987,
      "Ġconclusion": 4988,
      "Ġleaf": 4989,
      "Ġcolon": 4990,
      "roscop": 4991,
      "Ġdeliver": 4992,
      "ĠExpl": 4993,
      "hemat": 4994,
      "Ġrelationships": 4995,
      "Ġawareness": 4996,
      "Ġdro": 4997,
      "see": 4998,
      "Ġexperiments": 4999,
      "Ġprinting": 5000,
      "Ġstrategy": 5001,
      "Ġskill": 5002,
      "ructure": 5003,
      "Ġmulti": 5004,
      "Ġfiles": 5005,
      "Ġerror": 5006,
      "Ġprepared": 5007,
      "cap": 5008,
      "ulum": 5009,
      "Ġshared": 5010,
      "Ġrefers": 5011,
      "Ġensures": 5012,
      "Ġrelevant": 5013,
      "Ġversat": 5014,
      "ĠGoogle": 5015,
      "Ġclinical": 5016,
      "eper": 5017,
      "Ġpartners": 5018,
      "ĠIndian": 5019,
      "Ġdescribe": 5020,
      "ĠInternational": 5021,
      "iance": 5022,
      "Ġfig": 5023,
      "Ġneck": 5024,
      "active": 5025,
      "Ġcompr": 5026,
      "Ġcoal": 5027,
      "Ġlegal": 5028,
      "mitted": 5029,
      "Ġthermal": 5030,
      "34": 5031,
      "Over": 5032,
      "Ġtried": 5033,
      "Ġisol": 5034,
      "Ġgall": 5035,
      "ĠInter": 5036,
      "Ġrecovery": 5037,
      "Ġtrial": 5038,
      "Ġacad": 5039,
      "Ġafford": 5040,
      "Ġiniti": 5041,
      "ypes": 5042,
      "Ġfossil": 5043,
      "Answer": 5044,
      "with": 5045,
      "Ġeight": 5046,
      "ĠAug": 5047,
      "Ġcompl": 5048,
      "antic": 5049,
      "asting": 5050,
      "ĠProfess": 5051,
      "Ġfold": 5052,
      "raw": 5053,
      "Ġexternal": 5054,
      "ĠPhys": 5055,
      "Ġcompounds": 5056,
      "ormal": 5057,
      "Ġcoat": 5058,
      "----------------": 5059,
      "Ġbath": 5060,
      "Ġborn": 5061,
      "Ġplenty": 5062,
      "ĠFeb": 5063,
      "Ġotherwise": 5064,
      "Ġlandscape": 5065,
      "Ġphenomen": 5066,
      "yd": 5067,
      "Ġvert": 5068,
      "Ġwaters": 5069,
      "Ġdream": 5070,
      "osen": 5071,
      "Ġneural": 5072,
      "Ġship": 5073,
      "Ġjump": 5074,
      "Ġcheese": 5075,
      "Ġpresented": 5076,
      "Ġchoosing": 5077,
      "ĠAbout": 5078,
      "Ġdiversity": 5079,
      "SA": 5080,
      "cious": 5081,
      "Ġfo": 5082,
      "ception": 5083,
      "ĠIns": 5084,
      "Ġassemb": 5085,
      "Ġabund": 5086,
      "Ġflo": 5087,
      "Ġkept": 5088,
      "Ġsimpl": 5089,
      "Ġplayer": 5090,
      "Ġcombined": 5091,
      "ocolate": 5092,
      "vis": 5093,
      "idth": 5094,
      "ĠSk": 5095,
      "Ġchol": 5096,
      "rief": 5097,
      "ĠOut": 5098,
      "Ġgluc": 5099,
      "Ġsunlight": 5100,
      "Ġannual": 5101,
      "ĠEl": 5102,
      "Ġinjury": 5103,
      "my": 5104,
      "Ġsides": 5105,
      "ĠEast": 5106,
      "Ġshowing": 5107,
      "porary": 5108,
      "Ġbillion": 5109,
      "ias": 5110,
      "rest": 5111,
      "Ġden": 5112,
      "add": 5113,
      "Ġheard": 5114,
      "ĠHel": 5115,
      "ptember": 5116,
      "ventional": 5117,
      "Many": 5118,
      "OM": 5119,
      "Once": 5120,
      "yles": 5121,
      "org": 5122,
      "ĠMark": 5123,
      "Ġspin": 5124,
      "tered": 5125,
      "Ġstarts": 5126,
      "Ġappears": 5127,
      "Ġimpacts": 5128,
      "Ġfocused": 5129,
      "\"The": 5130,
      "itting": 5131,
      "Ġflower": 5132,
      "Ġchoices": 5133,
      "Ġsurrounding": 5134,
      "Are": 5135,
      "DA": 5136,
      "ta": 5137,
      "Ġplans": 5138,
      "Ġamazing": 5139,
      "ĠCanada": 5140,
      "zen": 5141,
      "Ġmac": 5142,
      "ĠSaf": 5143,
      "erson": 5144,
      "Ġleaving": 5145,
      "going": 5146,
      "Ġfiber": 5147,
      "Ġshapes": 5148,
      "mark": 5149,
      "omach": 5150,
      "Ġconcrete": 5151,
      "Ġupper": 5152,
      "Ġadvent": 5153,
      "Ġextensive": 5154,
      "Ġminerals": 5155,
      "Ġmembr": 5156,
      "59": 5157,
      "hus": 5158,
      "Ġpure": 5159,
      "Ġband": 5160,
      "ĠFrench": 5161,
      "Ġbutton": 5162,
      "Ġdownload": 5163,
      "Ġcrus": 5164,
      "Ar": 5165,
      "mm": 5166,
      "sec": 5167,
      "Ġwasn": 5168,
      "ruary": 5169,
      "ĠKing": 5170,
      "Ġcatch": 5171,
      "Ġsurvival": 5172,
      "Ġpregnancy": 5173,
      "Ġtum": 5174,
      "Ġbond": 5175,
      "stone": 5176,
      "ĠLED": 5177,
      "ube": 5178,
      "Ġchallenging": 5179,
      "ĠAng": 5180,
      "Ġspent": 5181,
      "Ġparticipants": 5182,
      "Ġreferred": 5183,
      "Comp": 5184,
      "PA": 5185,
      "Ġpests": 5186,
      "ĠAdd": 5187,
      "Ġinteractions": 5188,
      "idden": 5189,
      "Ġhol": 5190,
      "ĠSal": 5191,
      "Ġpotatoes": 5192,
      "Ġimproving": 5193,
      "Ġtreated": 5194,
      "ĠPlan": 5195,
      "Ġguidelines": 5196,
      "Ġspirit": 5197,
      "Ġfrag": 5198,
      "Ġcreates": 5199,
      "-friendly": 5200,
      "Ġrestaur": 5201,
      "Ġclosely": 5202,
      "Ġlifestyle": 5203,
      "Ġpurchase": 5204,
      "Ġoutdoor": 5205,
      "IV": 5206,
      "Se": 5207,
      "Ġsmell": 5208,
      "Ġnovel": 5209,
      "Ġsensitive": 5210,
      "Ġlegs": 5211,
      "hemical": 5212,
      "Ġhom": 5213,
      "Ġscrew": 5214,
      "Ġfundamental": 5215,
      "Ġobtained": 5216,
      "Ġestimated": 5217,
      "Ġemail": 5218,
      "Ġcontainer": 5219,
      "Ġfunctional": 5220,
      "fortun": 5221,
      "Ġtight": 5222,
      "Ġsensor": 5223,
      "Ġmajority": 5224,
      "Ġprepare": 5225,
      "Ġtoxic": 5226,
      "ingu": 5227,
      "Ġexcept": 5228,
      "Ġsufficient": 5229,
      "ĠRiver": 5230,
      "-the": 5231,
      "37": 5232,
      "des": 5233,
      "oke": 5234,
      "Ġsend": 5235,
      "ceed": 5236,
      "Ġshot": 5237,
      "aked": 5238,
      "Ġbreeding": 5239,
      "Ġabsolute": 5240,
      "Ġdoub": 5241,
      "51": 5242,
      "Ġsed": 5243,
      "Ġreduces": 5244,
      "Ġorganizations": 5245,
      "Ġconsidering": 5246,
      "Ġfishing": 5247,
      "MS": 5248,
      "Ġtall": 5249,
      "Ġcm": 5250,
      "erent": 5251,
      "Ġproduces": 5252,
      "Ġherb": 5253,
      "Ġhappened": 5254,
      "LE": 5255,
      "Ġseg": 5256,
      "ĠGroup": 5257,
      "Ġrequest": 5258,
      "Ġconcepts": 5259,
      "Ġdatab": 5260,
      "Ġbones": 5261,
      "ĠMex": 5262,
      "ĠJune": 5263,
      "Ġowner": 5264,
      "Ġmechanism": 5265,
      "Ġspeaker": 5266,
      "gy": 5267,
      "Ġcit": 5268,
      "Ġhop": 5269,
      "Ġchronic": 5270,
      "Ġdecor": 5271,
      "Ġelectrons": 5272,
      "Ġprofessionals": 5273,
      "Pre": 5274,
      "Ġenzyme": 5275,
      "ĠRuss": 5276,
      "Ġblocks": 5277,
      "Ġcream": 5278,
      "ĠOctober": 5279,
      "Ġrein": 5280,
      "Ġnurs": 5281,
      "ossible": 5282,
      "Ġmining": 5283,
      "Ġsheet": 5284,
      "Ġperiods": 5285,
      "ipping": 5286,
      "ĠColor": 5287,
      "Ġemergency": 5288,
      "Ġindependent": 5289,
      "53": 5290,
      "Yes": 5291,
      "Ġax": 5292,
      "Ġpark": 5293,
      "Ġrenew": 5294,
      "Ġnest": 5295,
      "rowing": 5296,
      "Ġcovers": 5297,
      "ovember": 5298,
      "Ġseeing": 5299,
      "ewel": 5300,
      "Ġapproaches": 5301,
      "Ġselected": 5302,
      "rust": 5303,
      "organ": 5304,
      "Ġlaser": 5305,
      "Ġenable": 5306,
      "ardens": 5307,
      "Ġagre": 5308,
      "ĠAsia": 5309,
      "Ġreduction": 5310,
      "-time": 5311,
      "Ġconcern": 5312,
      "39": 5313,
      "rot": 5314,
      "Ġcomposition": 5315,
      "Ġspaces": 5316,
      "ĠSub": 5317,
      "ĠSupp": 5318,
      "Ġincl": 5319,
      "ĠInc": 5320,
      "Ġbegins": 5321,
      "rich": 5322,
      "Ġahead": 5323,
      "uts": 5324,
      "Ġdecades": 5325,
      "Ġbalanced": 5326,
      "ĠOrgan": 5327,
      "ech": 5328,
      "gin": 5329,
      "Ġtut": 5330,
      "Ġaer": 5331,
      "Ġmild": 5332,
      "Ġspray": 5333,
      "Ġrow": 5334,
      "oyal": 5335,
      "Ġcareer": 5336,
      "-D": 5337,
      "64": 5338,
      "Ġcab": 5339,
      "Ġcollege": 5340,
      "Ġanswers": 5341,
      "Ġfailure": 5342,
      "Ġfamiliar": 5343,
      "96": 5344,
      "ĠDec": 5345,
      "ournal": 5346,
      "orms": 5347,
      "Ġperhaps": 5348,
      "Ġinsights": 5349,
      "-Ċ": 5350,
      "dent": 5351,
      "Ġfelt": 5352,
      "Ġmath": 5353,
      "ĠCare": 5354,
      "ĠHave": 5355,
      "dule": 5356,
      "Ġlocations": 5357,
      "Ġdrag": 5358,
      "Ġurban": 5359,
      "Ġtor": 5360,
      "Ġbot": 5361,
      "Ġnorth": 5362,
      "ĠSch": 5363,
      "ĠRob": 5364,
      "Ġcommand": 5365,
      "paration": 5366,
      "Ġrepresents": 5367,
      "Ġbudget": 5368,
      "More": 5369,
      "Ġstable": 5370,
      "acters": 5371,
      "ĠLike": 5372,
      "ĠObs": 5373,
      "apers": 5374,
      "Ġcarried": 5375,
      "Ġtechnical": 5376,
      "Ġpassed": 5377,
      "Ġvideos": 5378,
      "Ġpowder": 5379,
      "85": 5380,
      "cule": 5381,
      "|Ċ": 5382,
      "heet": 5383,
      "ĠSan": 5384,
      "Ġdecided": 5385,
      "Ġstring": 5386,
      "Ġcomputers": 5387,
      "Ġprompt": 5388,
      "what": 5389,
      "orous": 5390,
      "uter": 5391,
      "Ġshift": 5392,
      "ially": 5393,
      "Ġgravity": 5394,
      "Ġgenerated": 5395,
      "Ġpanel": 5396,
      "uracy": 5397,
      "Conclusion": 5398,
      "Ġvirtual": 5399,
      "92": 5400,
      "Ġfilled": 5401,
      "ĠFact": 5402,
      "ibilities": 5403,
      "Ġconfig": 5404,
      "Ġfacilit": 5405,
      "Ġturns": 5406,
      "Ġpercentage": 5407,
      "Ġslowly": 5408,
      "ev": 5409,
      "Ġsouth": 5410,
      "Ġremote": 5411,
      "Ġoccup": 5412,
      "First": 5413,
      "orter": 5414,
      "Ġinstit": 5415,
      "conduct": 5416,
      "Ġclassroom": 5417,
      "Ġexciting": 5418,
      "Ġpictures": 5419,
      "west": 5420,
      "ctors": 5421,
      "Ġnerv": 5422,
      "ĠMc": 5423,
      "illa": 5424,
      "ĠFlor": 5425,
      "ĠGold": 5426,
      "ĠUE": 5427,
      "ĠMedic": 5428,
      "Ġtrip": 5429,
      "laugh": 5430,
      "Ġaid": 5431,
      "Ġwoman": 5432,
      "Ġwhatever": 5433,
      "ĠLight": 5434,
      "Ġsport": 5435,
      "Ġacids": 5436,
      "Ġwants": 5437,
      "Ġrefrig": 5438,
      "ĠThus": 5439,
      "41": 5440,
      "Ġvel": 5441,
      "asp": 5442,
      "ĠFound": 5443,
      "iber": 5444,
      "Ġunivers": 5445,
      "Ġseek": 5446,
      "Ġdamaged": 5447,
      "Ġhydrogen": 5448,
      "________": 5449,
      "Ġsharp": 5450,
      "Ġpin": 5451,
      "Ġdress": 5452,
      "iled": 5453,
      "Ġstomach": 5454,
      "Ġalign": 5455,
      "acific": 5456,
      "Ġmilitary": 5457,
      "Ġsuggested": 5458,
      "Ġwarming": 5459,
      "Ġlinked": 5460,
      "Ġbreath": 5461,
      "Ġagriculture": 5462,
      "unity": 5463,
      "ĠDecember": 5464,
      "Ġpolitical": 5465,
      "81": 5466,
      "Get": 5467,
      "ĠDav": 5468,
      "Ġmineral": 5469,
      "Ġnormally": 5470,
      "ĠCheck": 5471,
      "Ġfurniture": 5472,
      "Let": 5473,
      "ĠLife": 5474,
      "Ġindicates": 5475,
      "ĠInstead": 5476,
      "Ġconducted": 5477,
      "Ġcontrolled": 5478,
      "-th": 5479,
      "98": 5480,
      "no": 5481,
      "rations": 5482,
      "Ġpill": 5483,
      "ĠFe": 5484,
      "Ġfoundation": 5485,
      "Ġhousehold": 5486,
      "Ġcalcium": 5487,
      "):": 5488,
      "EL": 5489,
      "Ġrecept": 5490,
      "Ġvast": 5491,
      "osa": 5492,
      "hyl": 5493,
      "Ġworkers": 5494,
      "Ġparas": 5495,
      "ridge": 5496,
      "Ġinflammation": 5497,
      "72": 5498,
      "vents": 5499,
      "Ġdivid": 5500,
      "irds": 5501,
      "ĠBas": 5502,
      "airy": 5503,
      "Ġbelieved": 5504,
      "ii": 5505,
      "Ġban": 5506,
      "Ġindu": 5507,
      "arant": 5508,
      "roid": 5509,
      "Ġdisorders": 5510,
      "ropical": 5511,
      "Ġcalories": 5512,
      "Ġstatement": 5513,
      "Ġcertainly": 5514,
      "ault": 5515,
      "edia": 5516,
      "ĠPower": 5517,
      "ptions": 5518,
      "Ġwash": 5519,
      "play": 5520,
      "Ġmeant": 5521,
      "ĠExper": 5522,
      "Ġcopy": 5523,
      "ĠService": 5524,
      "Ġdedicated": 5525,
      "Ġglucose": 5526,
      "bles": 5527,
      "asure": 5528,
      "igen": 5529,
      "iration": 5530,
      "Ġatoms": 5531,
      "Ġnotes": 5532,
      "Ġunless": 5533,
      "Ġinterp": 5534,
      "Ġaffects": 5535,
      "Ġdriver": 5536,
      "New": 5537,
      "Ġlung": 5538,
      "ado": 5539,
      "ĠBet": 5540,
      "Ġintended": 5541,
      "Ġbroken": 5542,
      "Ġremoving": 5543,
      "vol": 5544,
      "apor": 5545,
      "ĠJuly": 5546,
      "Ġdepos": 5547,
      "Ġenthus": 5548,
      "Ġtested": 5549,
      "Ġreports": 5550,
      "ĠEngine": 5551,
      "61": 5552,
      "comes": 5553,
      "Ġwrote": 5554,
      "Ġrights": 5555,
      "Ġconfirm": 5556,
      "Ġturning": 5557,
      "Ġemployees": 5558,
      "Ġinjuries": 5559,
      "56": 5560,
      "lim": 5561,
      "Ġye": 5562,
      "ansion": 5563,
      "Ġpreserv": 5564,
      "Ġbelong": 5565,
      "Ġdiscussed": 5566,
      "Ġentirely": 5567,
      "ographic": 5568,
      "Ġtap": 5569,
      "Ġnerve": 5570,
      "Ġgro": 5571,
      "Ġstability": 5572,
      "irus": 5573,
      "earchers": 5574,
      "Ġattrib": 5575,
      "Ġlock": 5576,
      "Although": 5577,
      "fortunately": 5578,
      "itors": 5579,
      "Ġsurvey": 5580,
      "Ġsaliv": 5581,
      "Ġeconomy": 5582,
      "Ġfemales": 5583,
      "Ġlenses": 5584,
      "dden": 5585,
      "Ġtrigger": 5586,
      "Ġmal": 5587,
      "Ġlbs": 5588,
      "uments": 5589,
      "Ġcompleted": 5590,
      "Ġclearly": 5591,
      "Ġcloser": 5592,
      "ND": 5593,
      "win": 5594,
      "requ": 5595,
      "arn": 5596,
      "Ġhorses": 5597,
      "ĠII": 5598,
      "eless": 5599,
      "ĠSociety": 5600,
      "aint": 5601,
      "ĠUV": 5602,
      "Ġflood": 5603,
      "Ġaccuracy": 5604,
      "Ġcharacters": 5605,
      "Ġtopics": 5606,
      "Ġincreasingly": 5607,
      "Ġdiagnosis": 5608,
      "imensional": 5609,
      "Ġfur": 5610,
      "arity": 5611,
      "Ġstores": 5612,
      "riculum": 5613,
      "Ġhelped": 5614,
      "Ġmoved": 5615,
      "Ġdiscussion": 5616,
      "Ġpreferences": 5617,
      "-being": 5618,
      "-M": 5619,
      "PU": 5620,
      "Ġshed": 5621,
      "Ġble": 5622,
      "Ġtoler": 5623,
      "Ġsudden": 5624,
      "ĠDiff": 5625,
      "hips": 5626,
      "Ġdecrease": 5627,
      "/s": 5628,
      "ama": 5629,
      "Ġvul": 5630,
      "ĠNet": 5631,
      "ario": 5632,
      "Ġmeeting": 5633,
      "esterol": 5634,
      "46": 5635,
      "ugg": 5636,
      "inated": 5637,
      "etics": 5638,
      "Ġseven": 5639,
      "Ġopening": 5640,
      "Ġbuying": 5641,
      "Ġaudience": 5642,
      "Ġfer": 5643,
      "Ġrevolution": 5644,
      "ĠLa": 5645,
      "Ġreserv": 5646,
      "Ġresolution": 5647,
      "Ġcareful": 5648,
      "Ġconfidence": 5649,
      "Ġsustainability": 5650,
      "Ġprocedures": 5651,
      "\":": 5652,
      "mp": 5653,
      "rical": 5654,
      "ĠIP": 5655,
      "Ġphosph": 5656,
      "Ġsolve": 5657,
      "Ġseconds": 5658,
      "Ġfinish": 5659,
      "Ġcities": 5660,
      "Ġspots": 5661,
      "Ġbiod": 5662,
      "bohyd": 5663,
      "Ġhoriz": 5664,
      "Ġinstalled": 5665,
      "Ġnitrogen": 5666,
      "Dr": 5667,
      "Not": 5668,
      "Under": 5669,
      "iam": 5670,
      "Ġaest": 5671,
      "Ġtow": 5672,
      "Ġgather": 5673,
      "Ġvoice": 5674,
      "Ġclothes": 5675,
      "Ġraise": 5676,
      "Ġmixed": 5677,
      "Ġcorrectly": 5678,
      "ĠControl": 5679,
      "ĠTwo": 5680,
      "From": 5681,
      "aul": 5682,
      "Ġitem": 5683,
      "Ġintake": 5684,
      "Ġperman": 5685,
      "ĠKnow": 5686,
      "ework": 5687,
      "Ġguess": 5688,
      "Ġmarketing": 5689,
      "ĠSeptember": 5690,
      "Ġpolymer": 5691,
      "Ġalgorithm": 5692,
      "97": 5693,
      "According": 5694,
      "Ġflying": 5695,
      "Ġexclus": 5696,
      "rie": 5697,
      "Ġstudied": 5698,
      "Ġbigger": 5699,
      "Ġrecorded": 5700,
      "Ġmedications": 5701,
      "ĠLearning": 5702,
      "AI": 5703,
      "DS": 5704,
      "iest": 5705,
      "Ġdirt": 5706,
      "lements": 5707,
      "Ġord": 5708,
      "anted": 5709,
      "Ġchlor": 5710,
      "rue": 5711,
      "Ġmanner": 5712,
      "ĠProt": 5713,
      "Ġengage": 5714,
      "Ġcontaining": 5715,
      "Ġcooked": 5716,
      "Ġcopper": 5717,
      "Ġprices": 5718,
      "VID": 5719,
      "ait": 5720,
      "Ġsou": 5721,
      "ĠAT": 5722,
      "ĠMain": 5723,
      "oche": 5724,
      "Ġwouldn": 5725,
      "Ġoperate": 5726,
      "Ġsubstance": 5727,
      "but": 5728,
      "Ġcotton": 5729,
      "Ġagree": 5730,
      "Ġformula": 5731,
      "cope": 5732,
      "CH": 5733,
      "uum": 5734,
      "atric": 5735,
      "Ġwalking": 5736,
      "Ġchocolate": 5737,
      "ĠHome": 5738,
      "Ġraised": 5739,
      "Ġputting": 5740,
      "Ġcapture": 5741,
      "Ġarrange": 5742,
      "gl": 5743,
      "iated": 5744,
      "kin": 5745,
      "rooms": 5746,
      "Ġloose": 5747,
      "ĠDet": 5748,
      "Ġears": 5749,
      "Ġlooked": 5750,
      "Ġbelief": 5751,
      "Ġcapabilities": 5752,
      "Ġcampa": 5753,
      "Ġdestroy": 5754,
      "ĠFebruary": 5755,
      "-related": 5756,
      ";ĊĊ": 5757,
      "Ġpipe": 5758,
      "Ġgave": 5759,
      "Ġenab": 5760,
      "Ġpossibly": 5761,
      "Ġhabitats": 5762,
      "Use": 5763,
      "Ġath": 5764,
      "ara": 5765,
      "ĠStep": 5766,
      "Ġcreativity": 5767,
      "Ġinfluen": 5768,
      "uminum": 5769,
      "Ġcorresponding": 5770,
      "-of": 5771,
      "Ġbio": 5772,
      "ota": 5773,
      "Ġconvey": 5774,
      "that": 5775,
      "outs": 5776,
      "Ġinterior": 5777,
      "well": 5778,
      "Ġclosed": 5779,
      "Ġmanual": 5780,
      "',": 5781,
      "47": 5782,
      "nect": 5783,
      "Ġtag": 5784,
      "Ġblow": 5785,
      "ĠSl": 5786,
      "Ġadminist": 5787,
      "Ġconsists": 5788,
      "Ġvarieties": 5789,
      "Ġsupplement": 5790,
      "Ġstudying": 5791,
      "Ġthoughts": 5792,
      "ĠĠĠ": 5793,
      "Â°C": 5794,
      "ĠJanuary": 5795,
      "ĠCounty": 5796,
      "Sp": 5797,
      "ifies": 5798,
      "Ġcolle": 5799,
      "Ġexploring": 5800,
      "Ġsupported": 5801,
      "Cont": 5802,
      "Ġ>": 5803,
      "Ġfather": 5804,
      "Ġcompare": 5805,
      "Ġconflic": 5806,
      "Ġsubstances": 5807,
      "Ġportion": 5808,
      "63": 5809,
      "een": 5810,
      "point": 5811,
      "Ġunc": 5812,
      "obe": 5813,
      "ĠThrough": 5814,
      "App": 5815,
      "BD": 5816,
      "Ġinch": 5817,
      "Ġinner": 5818,
      "Ġmeals": 5819,
      "Ġadds": 5820,
      "inese": 5821,
      "ĠPlant": 5822,
      "Ġmillions": 5823,
      "Ġconnections": 5824,
      "Ġdynamic": 5825,
      "CD": 5826,
      "Ġfirm": 5827,
      "Ġdram": 5828,
      "Ġstands": 5829,
      "ĠPacific": 5830,
      "Ġran": 5831,
      "Ġcompound": 5832,
      "Ġjack": 5833,
      "Ġdishes": 5834,
      "Ġfacts": 5835,
      "Ġcalls": 5836,
      "Ġmeasurements": 5837,
      "Ġinstallation": 5838,
      "Ġassessment": 5839,
      "Ġpilot": 5840,
      "-B": 5841,
      "62": 5842,
      "inate": 5843,
      "eries": 5844,
      "ctic": 5845,
      "Ġluck": 5846,
      "Ġfewer": 5847,
      "aws": 5848,
      "Ġcommunicate": 5849,
      "ĠAnother": 5850,
      "Ġchemistry": 5851,
      "Ġlabel": 5852,
      "Ġinnovative": 5853,
      "ĠFlorida": 5854,
      "54": 5855,
      "AB": 5856,
      "ample": 5857,
      "Ġadequ": 5858,
      "pected": 5859,
      "Ġextended": 5860,
      "Ġworldwide": 5861,
      "Ġdrinking": 5862,
      "Ġwindows": 5863,
      "Ġrapidly": 5864,
      "Ġhistorical": 5865,
      "cid": 5866,
      "how": 5867,
      "men": 5868,
      "Ġlinks": 5869,
      "Ġforget": 5870,
      "Ġwearing": 5871,
      "Ġdeeper": 5872,
      "ivation": 5873,
      "ĠOcean": 5874,
      "Ġaccident": 5875,
      "oves": 5876,
      "Ġstronger": 5877,
      "Ġmathemat": 5878,
      "arge": 5879,
      "ĠSet": 5880,
      "Ġexplains": 5881,
      "Ġrecognize": 5882,
      "Ġviol": 5883,
      "ĠAugust": 5884,
      "Cons": 5885,
      "lines": 5886,
      "athy": 5887,
      "Ġshif": 5888,
      "ocity": 5889,
      "Ġwashing": 5890,
      "Ġspr": 5891,
      "ifications": 5892,
      "Ġlesson": 5893,
      "Ġmechanisms": 5894,
      "Ġoxid": 5895,
      "Sc": 5896,
      "fall": 5897,
      "Ġproport": 5898,
      "Ġchrom": 5899,
      "Ġjud": 5900,
      "Ġsubs": 5901,
      "ugs": 5902,
      "Ġprofessor": 5903,
      "Ġpanels": 5904,
      "allel": 5905,
      "Ġsong": 5906,
      "Ġcards": 5907,
      "Ġclus": 5908,
      "phone": 5909,
      "Ġdiscovery": 5910,
      "Ġletter": 5911,
      "Ġsuperconduct": 5912,
      "ĠEngland": 5913,
      "-level": 5914,
      "pet": 5915,
      "ĠTake": 5916,
      "Ġformer": 5917,
      "amins": 5918,
      "ĠPort": 5919,
      "Ġinvestment": 5920,
      "Ġcholesterol": 5921,
      "isation": 5922,
      "Ġmes": 5923,
      "arter": 5924,
      "idents": 5925,
      "cel": 5926,
      "Ġoffered": 5927,
      "Ġfamous": 5928,
      "Ġphysic": 5929,
      "Ġhardware": 5930,
      "Ġpassion": 5931,
      "Ġmanufacturer": 5932,
      "ffective": 5933,
      "ynt": 5934,
      "Ġfinger": 5935,
      "Ġinhib": 5936,
      "ĠWild": 5937,
      "emperature": 5938,
      "ĠNovember": 5939,
      "reek": 5940,
      "arium": 5941,
      "oys": 5942,
      "Ġinsurance": 5943,
      "Ġconsume": 5944,
      "Ġperfectly": 5945,
      "-n": 5946,
      "Rem": 5947,
      "Ġnose": 5948,
      "ĠToday": 5949,
      "unt": 5950,
      "Ġdespite": 5951,
      "Ġteams": 5952,
      "Ġglasses": 5953,
      "ivery": 5954,
      "oper": 5955,
      "Ġbiology": 5956,
      "Ġsuccessfully": 5957,
      "ĠCollege": 5958,
      "Ġexcessive": 5959,
      "Ġflexibility": 5960,
      "Ġod": 5961,
      "ener": 5962,
      "road": 5963,
      "Ġreward": 5964,
      "ĠBen": 5965,
      "Ġrig": 5966,
      "Ġvariable": 5967,
      "Ġperspective": 5968,
      "Ġsignificance": 5969,
      "Ġreplaced": 5970,
      "nel": 5971,
      "zer": 5972,
      "Ġcos": 5973,
      "Ġpages": 5974,
      "alled": 5975,
      "Ġmedication": 5976,
      "Ġplayed": 5977,
      "Ġplane": 5978,
      "Ġembra": 5979,
      "Ġevolved": 5980,
      "Ġpuppy": 5981,
      "AF": 5982,
      "US": 5983,
      "ka": 5984,
      "xid": 5985,
      "Ġsick": 5986,
      "Ġcere": 5987,
      "Ġstages": 5988,
      "ĠCre": 5989,
      "ĠElect": 5990,
      "Ġimpossible": 5991,
      "Ġpreparation": 5992,
      "Ġhyper": 5993,
      "Ġmassive": 5994,
      "Ġtitle": 5995,
      "52": 5996,
      "hors": 5997,
      "mers": 5998,
      "Ġretain": 5999,
      "Ġnar": 6000,
      "Ġnation": 6001,
      "ritis": 6002,
      "Ġdecide": 6003,
      "Ġengines": 6004,
      "Ġbrake": 6005,
      "Ġsalmon": 6006,
      "Ġmolecule": 6007,
      "Ġcompetition": 6008,
      "49": 6009,
      "RI": 6010,
      "tical": 6011,
      "Ġcivil": 6012,
      "Ġpig": 6013,
      "Ġliver": 6014,
      "Ġyog": 6015,
      "ĠSpe": 6016,
      "Ġweigh": 6017,
      "acc": 6018,
      "ĠDel": 6019,
      "eren": 6020,
      "Ġknowing": 6021,
      "Ġrace": 6022,
      "Ġtwice": 6023,
      "Ġengaging": 6024,
      "arsh": 6025,
      "Ġserves": 6026,
      "Ġembodiments": 6027,
      "Ġvulner": 6028,
      "Just": 6029,
      "bal": 6030,
      "inn": 6031,
      "olar": 6032,
      "ĠPlease": 6033,
      "Ġjewel": 6034,
      "aker": 6035,
      "ondon": 6036,
      "Ġcontinuous": 6037,
      "Ġsusp": 6038,
      "Ġdescription": 6039,
      "Ġmembrane": 6040,
      "ochester": 6041,
      "De": 6042,
      "oons": 6043,
      "urb": 6044,
      "Ġprol": 6045,
      "ints": 6046,
      "Ġinstruction": 6047,
      "Ġsecret": 6048,
      "ĠProject": 6049,
      "Ġruns": 6050,
      "Ġdelay": 6051,
      "Ġrecognition": 6052,
      "Ġhunting": 6053,
      "ĠRemember": 6054,
      "Ġstreet": 6055,
      "TS": 6056,
      "rors": 6057,
      "uis": 6058,
      "Ġwish": 6059,
      "ionally": 6060,
      "Ġcomment": 6061,
      "Ġoutcomes": 6062,
      "ĠInf": 6063,
      "akers": 6064,
      "Ġinformed": 6065,
      "Ġcharging": 6066,
      "Ġpurs": 6067,
      "cover": 6068,
      "Ġbabies": 6069,
      "ĠGuide": 6070,
      "Ġtrends": 6071,
      "()": 6072,
      "Te": 6073,
      "zym": 6074,
      "atin": 6075,
      "Ġstyles": 6076,
      "Ġusage": 6077,
      "ĠMult": 6078,
      "ocking": 6079,
      "Ġcontamin": 6080,
      "appe": 6081,
      "Ġunderlying": 6082,
      "Ġemotions": 6083,
      "you": 6084,
      "Ġcable": 6085,
      "Ġyield": 6086,
      "ĠTer": 6087,
      "Ġenables": 6088,
      "ieving": 6089,
      "Ġrecipe": 6090,
      "Ġeveryday": 6091,
      "Ġattached": 6092,
      "Ġbasically": 6093,
      "Ġpreventing": 6094,
      "ĠArch": 6095,
      "Ġfinally": 6096,
      "Ġprobability": 6097,
      "Expl": 6098,
      ",âĢĿ": 6099,
      "ham": 6100,
      "Ġinject": 6101,
      "ilos": 6102,
      "ocation": 6103,
      "Ġadvert": 6104,
      "ĠStart": 6105,
      "Ġinsul": 6106,
      "bris": 6107,
      "Ġindustries": 6108,
      "rigation": 6109,
      "Ġtube": 6110,
      "Ġeliminate": 6111,
      "mal": 6112,
      "Ġrely": 6113,
      "unning": 6114,
      "Ġhaven": 6115,
      "ĠWashing": 6116,
      "Ġsupporting": 6117,
      "Ġbuildings": 6118,
      "Ġphotography": 6119,
      "Ġsatell": 6120,
      "Ġnutrient": 6121,
      "Ġmissing": 6122,
      "Ġvibrant": 6123,
      "Ġschedule": 6124,
      "Ġacademic": 6125,
      "Ġmission": 6126,
      "Ġlik": 6127,
      "using": 6128,
      "Ġpros": 6129,
      "Ġnoted": 6130,
      "Ġunlike": 6131,
      "Ġthanks": 6132,
      "exp": 6133,
      "Ġnetworks": 6134,
      "Ġselecting": 6135,
      "ĠStudents": 6136,
      "Ġfriendly": 6137,
      "Ġcomparison": 6138,
      "//": 6139,
      "uits": 6140,
      "Ġbaking": 6141,
      "Ġconventional": 6142,
      "ĠâĢ¢": 6143,
      "Ġmyster": 6144,
      "Ġbugs": 6145,
      "Ġsupplies": 6146,
      "Ġseeking": 6147,
      "Ġpossess": 6148,
      "71": 6149,
      "alks": 6150,
      "Ġtoys": 6151,
      "ĠCy": 6152,
      "Ġintest": 6153,
      "Ġresil": 6154,
      "Ġtrim": 6155,
      "Ġattacks": 6156,
      "Ġprotected": 6157,
      "overn": 6158,
      "Ġopposite": 6159,
      "Ġbowl": 6160,
      "Ġculinary": 6161,
      "aj": 6162,
      "cest": 6163,
      "oom": 6164,
      "sm": 6165,
      "iders": 6166,
      "terior": 6167,
      "ĠBre": 6168,
      "Ġseam": 6169,
      "Ġscan": 6170,
      "Ġminute": 6171,
      "Ġentry": 6172,
      "Ġproductivity": 6173,
      "Ġcontainers": 6174,
      "Ġintroduction": 6175,
      "Ġdiamond": 6176,
      "Or": 6177,
      "TH": 6178,
      "Ġsouthern": 6179,
      "ocy": 6180,
      "udd": 6181,
      "Ġworse": 6182,
      "Ġprey": 6183,
      "Ġattend": 6184,
      "Ġhumidity": 6185,
      "Ġjuice": 6186,
      "ĠAssociation": 6187,
      "-on": 6188,
      "},Ċ": 6189,
      "othe": 6190,
      "ĠIN": 6191,
      "Ġstars": 6192,
      "Ġriver": 6193,
      "Ġclock": 6194,
      "Ġserved": 6195,
      "Ġrobots": 6196,
      "Ġdefinition": 6197,
      "ĠMoreover": 6198,
      "down": 6199,
      "rite": 6200,
      "zed": 6201,
      "itivity": 6202,
      "Ġchosen": 6203,
      "ĠFurthermore": 6204,
      "Ġinvention": 6205,
      "Ġsilver": 6206,
      "67": 6207,
      "82": 6208,
      "inction": 6209,
      "rab": 6210,
      "ĠSee": 6211,
      "ĠWork": 6212,
      "Ġdisorder": 6213,
      "Ġregulations": 6214,
      "Ġwhereas": 6215,
      "Ġdelicious": 6216,
      "Ġmovements": 6217,
      "ĠSea": 6218,
      "Ġsafely": 6219,
      "Ġhospital": 6220,
      "ĠSn": 6221,
      "Ġdebris": 6222,
      "Ġends": 6223,
      "Ġparty": 6224,
      "Ġages": 6225,
      "ĠWhite": 6226,
      "Ġkeeps": 6227,
      "Ġpolic": 6228,
      "charge": 6229,
      "ĠWindows": 6230,
      "Ġtires": 6231,
      "Ġson": 6232,
      "itches": 6233,
      "icted": 6234,
      "Ġbear": 6235,
      "ĠCam": 6236,
      "Ġhem": 6237,
      "Ġanywhere": 6238,
      "Ġdepression": 6239,
      "Ġsensors": 6240,
      "ognitive": 6241,
      "Ġremaining": 6242,
      "Ġprinciple": 6243,
      "Ġbehaviour": 6244,
      "Ġpromoting": 6245,
      "itage": 6246,
      "astern": 6247,
      "ctive": 6248,
      "ĠTV": 6249,
      "Ġoral": 6250,
      "Ġchair": 6251,
      "Ġatom": 6252,
      "Ġunw": 6253,
      "ĠJournal": 6254,
      "Ġcarbohyd": 6255,
      "Ġarticles": 6256,
      "Ġmeters": 6257,
      "Ġprogramming": 6258,
      "Ġscratch": 6259,
      "alysis": 6260,
      "Ġring": 6261,
      "Ġhandling": 6262,
      "Ġfollows": 6263,
      "Ġdrivers": 6264,
      "Ġreplacement": 6265,
      "Ġagricultural": 6266,
      "ĠTHE": 6267,
      "ĠTechnology": 6268,
      "Ġhundreds": 6269,
      "asive": 6270,
      "eles": 6271,
      "ĠCat": 6272,
      "Ġsharing": 6273,
      "ĠOff": 6274,
      "Ġformat": 6275,
      "Ġparticle": 6276,
      "Ġstanding": 6277,
      "-pro": 6278,
      "ymph": 6279,
      "ĠBefore": 6280,
      "Ġexercises": 6281,
      "Ġcollected": 6282,
      "Ġexplained": 6283,
      "Ġconstantly": 6284,
      "Ġcredit": 6285,
      "CO": 6286,
      "Ġnorthern": 6287,
      "stood": 6288,
      "ĠAS": 6289,
      "Ġride": 6290,
      "Ġkne": 6291,
      "Ġregul": 6292,
      "Ġnuts": 6293,
      "Ġspecialized": 6294,
      "Ġbiggest": 6295,
      "Ġturb": 6296,
      "Ġinteractive": 6297,
      "Ġfixed": 6298,
      "ĠInternet": 6299,
      "Ġsatisf": 6300,
      "gans": 6301,
      "enior": 6302,
      "ora": 6303,
      "Ġchapter": 6304,
      "ĠGarden": 6305,
      "angle": 6306,
      "Ġknows": 6307,
      "Ġcorn": 6308,
      "Ġfacilities": 6309,
      "Ġproposed": 6310,
      "Ġbranch": 6311,
      "Ġenthusi": 6312,
      "58": 6313,
      "Comm": 6314,
      "Me": 6315,
      "bility": 6316,
      "Ġtheore": 6317,
      "eria": 6318,
      "Ġhoney": 6319,
      "ĠMich": 6320,
      "ago": 6321,
      "Ġdioxide": 6322,
      "Ġfeedback": 6323,
      "Ġfascinating": 6324,
      "ĠHistory": 6325,
      "Le": 6326,
      "iform": 6327,
      "ĠNav": 6328,
      "Ġoverl": 6329,
      "ĠAmericans": 6330,
      "agnetic": 6331,
      "Ġholds": 6332,
      "Ġhabits": 6333,
      "Ġloop": 6334,
      "Ġultimately": 6335,
      "ouncil": 6336,
      "RO": 6337,
      "gers": 6338,
      "Ġmales": 6339,
      "asy": 6340,
      "Ġorange": 6341,
      "riers": 6342,
      "Ġsales": 6343,
      "Ġaccessible": 6344,
      "Before": 6345,
      "Ġparameters": 6346,
      "Ġvelocity": 6347,
      "Reg": 6348,
      "hent": 6349,
      "Ġpup": 6350,
      "ĠTest": 6351,
      "osal": 6352,
      "ĠRef": 6353,
      "Ġcycles": 6354,
      "Ġintegrated": 6355,
      "Ġefficiently": 6356,
      "Ġpixels": 6357,
      "zymes": 6358,
      "bur": 6359,
      "Ġtick": 6360,
      "Ġstain": 6361,
      "Ġhealing": 6362,
      "ĠLake": 6363,
      "Ġunus": 6364,
      "Ġindoor": 6365,
      "Ġdelivery": 6366,
      "Ġcameras": 6367,
      "ounced": 6368,
      "-F": 6369,
      "ikes": 6370,
      "Ġcas": 6371,
      "Ġpest": 6372,
      "ompl": 6373,
      "ĠIS": 6374,
      "izers": 6375,
      "ĠNatural": 6376,
      "Ġpeak": 6377,
      "Ġtransp": 6378,
      "ĠChinese": 6379,
      "Ġexpansion": 6380,
      "Ġbreathing": 6381,
      "Ġalgorithms": 6382,
      "-A": 6383,
      "Ġoven": 6384,
      "thritis": 6385,
      "Ġseat": 6386,
      "ĠOpen": 6387,
      "Ġequival": 6388,
      "Ġsecondary": 6389,
      "Ġcrack": 6390,
      "ĠCommon": 6391,
      "rastructure": 6392,
      "Ġsession": 6393,
      "ĠClean": 6394,
      "erior": 6395,
      "Ġbrief": 6396,
      "ĠSometimes": 6397,
      "Ġchart": 6398,
      "ĠLondon": 6399,
      "Ġamb": 6400,
      "phones": 6401,
      "Ġvariation": 6402,
      "Ġdetection": 6403,
      "Ġminimize": 6404,
      "Ġequation": 6405,
      "Ġresponses": 6406,
      "Ġhappening": 6407,
      "Ġstroke": 6408,
      "Ġinterpret": 6409,
      "76": 6410,
      "comp": 6411,
      "lin": 6412,
      "Ġalt": 6413,
      "Ġspectrum": 6414,
      "uilding": 6415,
      "ĠChildren": 6416,
      "cher": 6417,
      "ĠÃ": 6418,
      "abil": 6419,
      "Ġneur": 6420,
      "ĠDef": 6421,
      "Ġchest": 6422,
      "Ġcheap": 6423,
      "Ġinstrum": 6424,
      "Ġbrid": 6425,
      "Ġbrings": 6426,
      "Ġterrit": 6427,
      "Ġcircum": 6428,
      "Ġidentifying": 6429,
      "Ġrobot": 6430,
      "Ġexpertise": 6431,
      "Ġbehaviors": 6432,
      "ker": 6433,
      "Ġ**": 6434,
      "Ġton": 6435,
      "Ġtables": 6436,
      "ndrome": 6437,
      "Ġtown": 6438,
      "Ġbees": 6439,
      "advant": 6440,
      "ĠPat": 6441,
      "ĠRel": 6442,
      "Ġclay": 6443,
      "Ġcouldn": 6444,
      "Ġedges": 6445,
      "ĠAtl": 6446,
      "Ġabsorb": 6447,
      "Ġvitamins": 6448,
      "Ġaims": 6449,
      "Ġlaboratory": 6450,
      "Ġveterin": 6451,
      "ĠDevelopment": 6452,
      "Ġopinion": 6453,
      "91": 6454,
      "vin": 6455,
      "âĪ": 6456,
      "ĠMus": 6457,
      "Ġscene": 6458,
      "ricks": 6459,
      "Ġvariations": 6460,
      "Ġdistingu": 6461,
      "ĠScient": 6462,
      "Ġsubstant": 6463,
      "Ġrecords": 6464,
      "Ġdatabase": 6465,
      "Ġrefriger": 6466,
      "mic": 6467,
      "ceans": 6468,
      "ĠMicro": 6469,
      "osion": 6470,
      "ĠRet": 6471,
      "Ġrocks": 6472,
      "Ġapplying": 6473,
      "Ġzone": 6474,
      "Ġindicator": 6475,
      "Ġmountain": 6476,
      "Ġchannel": 6477,
      "fe": 6478,
      "omfort": 6479,
      "ĠTime": 6480,
      "Ġexchange": 6481,
      "Ġshade": 6482,
      "Ġwilling": 6483,
      "ĠLook": 6484,
      "aped": 6485,
      "Ġmeasuring": 6486,
      "Ġdiameter": 6487,
      "Ind": 6488,
      "lers": 6489,
      "esity": 6490,
      "istan": 6491,
      "ĠDist": 6492,
      "ogram": 6493,
      "ĠOb": 6494,
      "ĠOh": 6495,
      "Ġpoison": 6496,
      "rence": 6497,
      "Ġlessons": 6498,
      "Ġserver": 6499,
      "Ġretur": 6500,
      "LL": 6501,
      "col": 6502,
      "oids": 6503,
      "Ġions": 6504,
      "atus": 6505,
      "Ġdim": 6506,
      "Ġlibrary": 6507,
      "ĠFree": 6508,
      "Ġartists": 6509,
      "Ġdefic": 6510,
      "Ġsitting": 6511,
      "Ġrestrict": 6512,
      "Ġmoves": 6513,
      "hemistry": 6514,
      "ĠManagement": 6515,
      "94": 6516,
      "inity": 6517,
      "Ġcast": 6518,
      "Ġgone": 6519,
      "Ġgardens": 6520,
      "ola": 6521,
      "Ġstarch": 6522,
      "antly": 6523,
      "ĠBr": 6524,
      "Ġremark": 6525,
      "Ġvariables": 6526,
      "Ġexistence": 6527,
      "arbon": 6528,
      "Ġbeef": 6529,
      "Ġstations": 6530,
      "useum": 6531,
      "Ġlawn": 6532,
      "ĠLearn": 6533,
      "Ġecosystems": 6534,
      "Ġtropical": 6535,
      "Ġcock": 6536,
      "Ġwing": 6537,
      "itter": 6538,
      "Ġfav": 6539,
      "ĠTur": 6540,
      "urch": 6541,
      "ources": 6542,
      "cycle": 6543,
      "Ġminim": 6544,
      "Ġminimal": 6545,
      "Ġphotograp": 6546,
      "Ġdetermining": 6547,
      "Ġflexible": 6548,
      "Ġrecycl": 6549,
      "ĠProfessor": 6550,
      "Ġrenewable": 6551,
      "ĠFoundation": 6552,
      "-se": 6553,
      "Ġsight": 6554,
      "Ġdried": 6555,
      "Ġdoll": 6556,
      "Ġease": 6557,
      "Ġlived": 6558,
      "ĠBel": 6559,
      "ĠBay": 6560,
      "Ġsubsequ": 6561,
      "Ġlisten": 6562,
      "Ġinterface": 6563,
      "Every": 6564,
      "son": 6565,
      "Ġcoc": 6566,
      "icon": 6567,
      "usiness": 6568,
      "Ġgently": 6569,
      "Ġseal": 6570,
      "Ġshut": 6571,
      "Ġexplanation": 6572,
      "rolog": 6573,
      "Ġpossibility": 6574,
      "Ġmoon": 6575,
      "Ġfitness": 6576,
      "Ġvacuum": 6577,
      "Ġwonderful": 6578,
      "ĠGerman": 6579,
      "Ġantibi": 6580,
      "Ġconsequences": 6581,
      "lock": 6582,
      "Ġske": 6583,
      "Ġcrow": 6584,
      "esides": 6585,
      "ĠMat": 6586,
      "ĠHuman": 6587,
      "ĠEvolution": 6588,
      "Ġrecipes": 6589,
      "Ġsauce": 6590,
      "ioxid": 6591,
      "Ġimprovement": 6592,
      "Ġvegetable": 6593,
      "Ġirrit": 6594,
      "Ġbulbs": 6595,
      "Ġimagine": 6596,
      "Ġtutorial": 6597,
      "normal": 6598,
      "pact": 6599,
      "uing": 6600,
      "Ġcro": 6601,
      "itory": 6602,
      "iratory": 6603,
      "estone": 6604,
      "Ġcloud": 6605,
      "Ġmyself": 6606,
      "Ġsupposed": 6607,
      "Ġeffectiveness": 6608,
      "Ġgoods": 6609,
      "Ġfeelings": 6610,
      "Ġconsumers": 6611,
      "Ġfrequent": 6612,
      "Ġresponsibility": 6613,
      "Ġachieved": 6614,
      "aughter": 6615,
      "Ġconcerned": 6616,
      "Ġalgae": 6617,
      "Ġvaccine": 6618,
      "Ġswimming": 6619,
      "Rec": 6620,
      "lings": 6621,
      "ĠMount": 6622,
      "Ġnoticed": 6623,
      "rix": 6624,
      "Ġunf": 6625,
      "Ġmanaging": 6626,
      "Ġinterview": 6627,
      "Ġmeasurement": 6628,
      "Ġguidance": 6629,
      "ĠSimilar": 6630,
      "88": 6631,
      "Ġ...ĊĊ": 6632,
      "Ġtast": 6633,
      "onge": 6634,
      "ĠCouncil": 6635,
      "ĠFind": 6636,
      "Ġkm": 6637,
      "Ġappoint": 6638,
      "Ġpeace": 6639,
      "Ġvet": 6640,
      "Ġcommunic": 6641,
      "Ġsupports": 6642,
      "Ġpolar": 6643,
      "ĠExp": 6644,
      "Ġdependent": 6645,
      "amps": 6646,
      "Ġkilled": 6647,
      "Ġouter": 6648,
      "Ġtraits": 6649,
      "Ġrelation": 6650,
      "ĠPlay": 6651,
      "ĠCentral": 6652,
      "Ġfunding": 6653,
      "Ġbranches": 6654,
      "\"Ċ": 6655,
      ".D": 6656,
      "top": 6657,
      "oura": 6658,
      "ĠAM": 6659,
      "amily": 6660,
      "Ġvict": 6661,
      "ivated": 6662,
      "âĢĭ": 6663,
      "Ġclassic": 6664,
      "Ġcontrols": 6665,
      "ĠJapanese": 6666,
      "pecific": 6667,
      "86": 6668,
      "ini": 6669,
      "Ġsector": 6670,
      "Ġment": 6671,
      "Ġdent": 6672,
      "Ġdairy": 6673,
      "Ġrev": 6674,
      "unte": 6675,
      "Ġweap": 6676,
      "Ġsuit": 6677,
      "Ġacts": 6678,
      "Ġgreatly": 6679,
      "Ġexperimental": 6680,
      "Ġcontinued": 6681,
      "Ġtissues": 6682,
      "CS": 6683,
      "pes": 6684,
      "Ġpel": 6685,
      "Ġlies": 6686,
      "Ġcann": 6687,
      "Ġclient": 6688,
      "Ġfeels": 6689,
      "Ġtheme": 6690,
      "Ġtruth": 6691,
      "Ġcorner": 6692,
      "-sc": 6693,
      "Ġpropag": 6694,
      "Ġcardi": 6695,
      "Ġforests": 6696,
      "Ġderived": 6697,
      "Ġreached": 6698,
      "ĠFrance": 6699,
      "Ġimplic": 6700,
      "Ġclients": 6701,
      "Ġinfected": 6702,
      "ĠConst": 6703,
      "Ġtransportation": 6704,
      "Ġbags": 6705,
      "Ġtrouble": 6706,
      "Ġpaid": 6707,
      "Ġloved": 6708,
      "Ġversatile": 6709,
      "-P": 6710,
      "-ch": 6711,
      "68": 6712,
      "Ġpun": 6713,
      "icing": 6714,
      "oto": 6715,
      "ĠPost": 6716,
      "ĠHaw": 6717,
      "perm": 6718,
      "Ġintric": 6719,
      "ĠGood": 6720,
      "Ġremed": 6721,
      "Inst": 6722,
      "Ġsky": 6723,
      "Ġentertain": 6724,
      "azon": 6725,
      "Ġlinear": 6726,
      "Ġoils": 6727,
      "Ġinnovation": 6728,
      "ĠAcad": 6729,
      "Ġrear": 6730,
      "ĠPet": 6731,
      "pling": 6732,
      "ague": 6733,
      "Ġunknown": 6734,
      "Ġaccompl": 6735,
      "ĠVir": 6736,
      "Ġplanted": 6737,
      "Ġgrows": 6738,
      "Ġparallel": 6739,
      "Ġnecessarily": 6740,
      "Ġremoval": 6741,
      "Ġautomatically": 6742,
      "Ġassistance": 6743,
      "Ġpreferred": 6744,
      "Ġcollaboration": 6745,
      "haust": 6746,
      "Ġcoastal": 6747,
      "ĠMedicine": 6748,
      "box": 6749,
      "inent": 6750,
      "Ġsch": 6751,
      "edom": 6752,
      "otal": 6753,
      "eli": 6754,
      "uning": 6755,
      "ĠHol": 6756,
      "agers": 6757,
      "anged": 6758,
      "Ġgenerations": 6759,
      "Ġprecision": 6760,
      "Ġthrive": 6761,
      "Don": 6762,
      "Ġgal": 6763,
      "stream": 6764,
      "Ġancest": 6765,
      "ĠOF": 6766,
      "Ġarms": 6767,
      "Ġattach": 6768,
      "Ġdiscomfort": 6769,
      "Ġguarant": 6770,
      "Ġfinished": 6771,
      "Ġmenu": 6772,
      "Ġirrigation": 6773,
      "ĠCOVID": 6774,
      "ĠEnvironmental": 6775,
      "Ġdivided": 6776,
      "-res": 6777,
      "73": 6778,
      "89": 6779,
      "from": 6780,
      "Ġtip": 6781,
      "alian": 6782,
      "Ġmir": 6783,
      "Ġdil": 6784,
      "ĠIll": 6785,
      "ĠExt": 6786,
      "ĠRochester": 6787,
      "Ġintense": 6788,
      "ĠNature": 6789,
      "Ġcompress": 6790,
      "Ġscore": 6791,
      "Ġgrain": 6792,
      "Ġartist": 6793,
      "ĠConf": 6794,
      "ĠShould": 6795,
      "Ġcultures": 6796,
      "Ġjobs": 6797,
      "Ġ-->": 6798,
      "ĠRegular": 6799,
      "Ġincorporating": 6800,
      "Ġmagic": 6801,
      "Pe": 6802,
      "orrect": 6803,
      "Ġproof": 6804,
      "Ġchips": 6805,
      "ĠHouse": 6806,
      "Ġgrand": 6807,
      "Ġmini": 6808,
      "Ġvalid": 6809,
      "Ġphotograph": 6810,
      "âĢ¦ĊĊ": 6811,
      "Ġgreenhouse": 6812,
      "Che": 6813,
      "Ġtaught": 6814,
      "Ġmature": 6815,
      "Ġgent": 6816,
      "ĠRober": 6817,
      "Ġprinter": 6818,
      "Ġdecline": 6819,
      "Ġauthors": 6820,
      "exas": 6821,
      "Ġflavors": 6822,
      "Ġvertical": 6823,
      "PT": 6824,
      "uous": 6825,
      "Ġmice": 6826,
      "roph": 6827,
      "Ġenzymes": 6828,
      "Ġcontem": 6829,
      "atively": 6830,
      "Ġbuck": 6831,
      "Ġserving": 6832,
      "coming": 6833,
      "ĠMedical": 6834,
      "Ġchannels": 6835,
      "CC": 6836,
      "Since": 6837,
      "ican": 6838,
      "Ġgut": 6839,
      "ĠMuseum": 6840,
      "Ġindex": 6841,
      "Ġinfrastructure": 6842,
      "Ġprofile": 6843,
      "Ġfunctionality": 6844,
      "ontal": 6845,
      "Ġargument": 6846,
      "Ġboundaries": 6847,
      "Ġjoin": 6848,
      "ĠWestern": 6849,
      "Ã¡": 6850,
      "Ġore": 6851,
      "ĠCH": 6852,
      "Ġvill": 6853,
      "Ġabilities": 6854,
      "Ġcompact": 6855,
      "Ġuniversity": 6856,
      "Ġdiagram": 6857,
      "Ġphilos": 6858,
      "Ġbread": 6859,
      "Ġcharged": 6860,
      "Ġheads": 6861,
      "Ġfocuses": 6862,
      "Ġfertilizer": 6863,
      "ĠUnderstanding": 6864,
      "ĠMexico": 6865,
      "-T": 6866,
      "bits": 6867,
      "pm": 6868,
      "Ġwidth": 6869,
      "Ġped": 6870,
      "rays": 6871,
      "ĠMill": 6872,
      "Ġplus": 6873,
      "Ġknew": 6874,
      "ĠYear": 6875,
      "ĠVol": 6876,
      "Ġbreaks": 6877,
      "Ġharder": 6878,
      "Ġstrand": 6879,
      "Ġpredators": 6880,
      "Ġdomestic": 6881,
      "Ġmanufacturers": 6882,
      "Ġbiodiversity": 6883,
      "Ġpolicies": 6884,
      "\"ĊĊ": 6885,
      "Ġham": 6886,
      "oding": 6887,
      "Ġdeer": 6888,
      "Ġmanip": 6889,
      "Ġrealize": 6890,
      "Ġprotective": 6891,
      "Ġgardening": 6892,
      "apping": 6893,
      "Ġframework": 6894,
      "Ġplatforms": 6895,
      "gal": 6896,
      "Ġshock": 6897,
      "Ġunderstood": 6898,
      "Ġcattle": 6899,
      "Ġtreats": 6900,
      "Ġcourses": 6901,
      "Ġantioxid": 6902,
      "Ġoccurred": 6903,
      "Ġcircle": 6904,
      "Ġparticipate": 6905,
      "Ġsuscept": 6906,
      "Ġsodium": 6907,
      "74": 6908,
      "Pr": 6909,
      "la": 6910,
      "Ġmer": 6911,
      "Ġbeans": 6912,
      "Ġongoing": 6913,
      "ĠMiss": 6914,
      "ĠData": 6915,
      "ella": 6916,
      "Ġcolours": 6917,
      "Ġhealthier": 6918,
      "Ġequipped": 6919,
      "Ġrecognized": 6920,
      "Ġsubjects": 6921,
      "Ġcommitment": 6922,
      "Ġneutral": 6923,
      "Ġjewelry": 6924,
      "ford": 6925,
      "uel": 6926,
      "ingly": 6927,
      "rob": 6928,
      "ĠSqu": 6929,
      "Ġintensity": 6930,
      "ĠIsland": 6931,
      "Ġlisted": 6932,
      "Ġcompetitive": 6933,
      "Ġburning": 6934,
      "Ġrecommendations": 6935,
      "Ġgradually": 6936,
      "-day": 6937,
      ".m": 6938,
      "AA": 6939,
      "BS": 6940,
      "Ġtet": 6941,
      "alm": 6942,
      "ĠPublic": 6943,
      "ĠGr": 6944,
      "Ġoverw": 6945,
      "Ġrelief": 6946,
      "Ġobst": 6947,
      "Ġshowc": 6948,
      "Ġappeal": 6949,
      "Ġradi": 6950,
      "Ġwooden": 6951,
      "rimp": 6952,
      "Ġadequate": 6953,
      "anish": 6954,
      "Ġdense": 6955,
      "ĠSum": 6956,
      "Ġprovider": 6957,
      "Ġdied": 6958,
      "Ġcurriculum": 6959,
      "ĠThose": 6960,
      "Ġnearby": 6961,
      "Ġholding": 6962,
      "ĠÂ·": 6963,
      "EE": 6964,
      "EH": 6965,
      "then": 6966,
      "under": 6967,
      "Ġwine": 6968,
      "Ġalter": 6969,
      "Ġshorter": 6970,
      "ocr": 6971,
      "Ġresol": 6972,
      "Ġblend": 6973,
      "ords": 6974,
      "ĠStr": 6975,
      "Ġcrew": 6976,
      "Ġinsulation": 6977,
      "Ġcomplexity": 6978,
      "Ġregardless": 6979,
      "Ġathlet": 6980,
      "ĠWashington": 6981,
      "Ġpairs": 6982,
      "Ġfan": 6983,
      "Ġhidden": 6984,
      "ppers": 6985,
      "ĠLong": 6986,
      "Ġtrad": 6987,
      "Ġflour": 6988,
      "Ġmetals": 6989,
      "Ġobservations": 6990,
      "Ġcalculate": 6991,
      "Ġstretch": 6992,
      "born": 6993,
      "hi": 6994,
      "hav": 6995,
      "asters": 6996,
      "Ġyes": 6997,
      "irty": 6998,
      "Ġexhaust": 6999,
      "ĠMor": 7000,
      "lder": 7001,
      "ĠFore": 7002,
      "agine": 7003,
      "Ġauto": 7004,
      "Ġdifficulty": 7005,
      "Ġviews": 7006,
      "Ġdissol": 7007,
      "sis": 7008,
      "Ġmood": 7009,
      "ascular": 7010,
      "Ġlymph": 7011,
      "ĠMot": 7012,
      "Ġplug": 7013,
      "rip": 7014,
      "ĠEss": 7015,
      "ĠRNA": 7016,
      "Ġbreeds": 7017,
      "Ġstrain": 7018,
      "Ġvessels": 7019,
      "77": 7020,
      "mble": 7021,
      "wo": 7022,
      "adian": 7023,
      "istant": 7024,
      "ĠFalse": 7025,
      "berg": 7026,
      "Ġcapital": 7027,
      "Ġrecycling": 7028,
      "Ġnuclear": 7029,
      "Ġappreciate": 7030,
      "Ġcomplicated": 7031,
      "78": 7032,
      "Where": 7033,
      "Ġcaught": 7034,
      "Ġcognitive": 7035,
      "orge": 7036,
      "ĠBig": 7037,
      "Ġgrains": 7038,
      "Ġminor": 7039,
      "Ġcomplement": 7040,
      "Ġbreaking": 7041,
      "Ġquantity": 7042,
      "Share": 7043,
      "Ġhazard": 7044,
      "uzzle": 7045,
      "Ġequivalent": 7046,
      "-E": 7047,
      "57": 7048,
      "DF": 7049,
      "Read": 7050,
      "ĠTry": 7051,
      "rape": 7052,
      "heric": 7053,
      "Ġtracking": 7054,
      "Ġextend": 7055,
      "Ġinspect": 7056,
      "Ġeditor": 7057,
      "Ġfacing": 7058,
      "ĠPhil": 7059,
      "Also": 7060,
      "Ġwatching": 7061,
      "OC": 7062,
      "Ġbonds": 7063,
      "Ġasking": 7064,
      "ading": 7065,
      "angered": 7066,
      "Ġlaun": 7067,
      "Ġgirl": 7068,
      "tt": 7069,
      "Ġsoci": 7070,
      "Ġyouth": 7071,
      "uls": 7072,
      "Ġcomments": 7073,
      "oget": 7074,
      "Ġunable": 7075,
      "Ġspeaking": 7076,
      "Ġreput": 7077,
      "Ġextent": 7078,
      "Ġcoral": 7079,
      "Ġdefect": 7080,
      "ĠPlace": 7081,
      "Ġcomputing": 7082,
      "Ġsuffer": 7083,
      "-shaped": 7084,
      ".C": 7085,
      "Ġpond": 7086,
      "Ġduration": 7087,
      "Ġhur": 7088,
      "etime": 7089,
      "urse": 7090,
      "mentation": 7091,
      "ĠPen": 7092,
      "Ġchances": 7093,
      "ĠLaw": 7094,
      "Ġmanaged": 7095,
      "ĠVis": 7096,
      "forest": 7097,
      "ĠNews": 7098,
      "Ġfarming": 7099,
      "Ġthoroughly": 7100,
      "Ġpermanent": 7101,
      "\"We": 7102,
      "Other": 7103,
      "``": 7104,
      "itt": 7105,
      "ounce": 7106,
      "Ġreef": 7107,
      "ĠSil": 7108,
      "Ġconvert": 7109,
      "Ġaluminum": 7110,
      "ĠForm": 7111,
      "earing": 7112,
      "Ġpartner": 7113,
      "Ġregist": 7114,
      "ĠWeb": 7115,
      "lessly": 7116,
      "Ġprevention": 7117,
      "Ġconsumer": 7118,
      "Ġindicators": 7119,
      "Ġimplementation": 7120,
      "Ġsessions": 7121,
      "Ġexhibit": 7122,
      "66": 7123,
      "fly": 7124,
      "gien": 7125,
      "Ġbattle": 7126,
      "ĠTexas": 7127,
      "quit": 7128,
      "ĠMal": 7129,
      "Ġsoap": 7130,
      "Ġdisk": 7131,
      "Ġassume": 7132,
      "Ġtechnological": 7133,
      "Ġleader": 7134,
      "Ġfilters": 7135,
      "Ġprotecting": 7136,
      "Ġwaiting": 7137,
      "Ġfederal": 7138,
      "87": 7139,
      "fit": 7140,
      "Ġtherap": 7141,
      "Ġsan": 7142,
      "Ġov": 7143,
      "Ġbought": 7144,
      "Ġorgans": 7145,
      "Ġvan": 7146,
      "Ġchief": 7147,
      "Ġneedle": 7148,
      "Ġexploration": 7149,
      "ĠSciences": 7150,
      "Ġviral": 7151,
      "Ġlifes": 7152,
      "Ġbacterial": 7153,
      "Ġresistant": 7154,
      "Ġfairly": 7155,
      "Ġmammals": 7156,
      "Ġok": 7157,
      "Ġfaces": 7158,
      "omin": 7159,
      "etal": 7160,
      "imer": 7161,
      "ĠMr": 7162,
      "ĠNote": 7163,
      "ĠGre": 7164,
      "Ġroles": 7165,
      "Ġprotocol": 7166,
      "ĠSpace": 7167,
      "Ġexperiencing": 7168,
      "Which": 7169,
      "cribed": 7170,
      "Ġarchitecture": 7171,
      "Ġabsolutely": 7172,
      "Does": 7173,
      "Rel": 7174,
      "Ġdive": 7175,
      "ĠPan": 7176,
      "ĠEqu": 7177,
      "ĠNor": 7178,
      "ieves": 7179,
      "ĠStand": 7180,
      "ĠVe": 7181,
      "Ġengagement": 7182,
      "Ġpopularity": 7183,
      "Ġviruses": 7184,
      "IM": 7185,
      "Lear": 7186,
      "Ġpapers": 7187,
      "reatment": 7188,
      "Ġcataly": 7189,
      "Ġidentification": 7190,
      "Ġera": 7191,
      "Ġgeomet": 7192,
      "Ġimplemented": 7193,
      "Ġabsorption": 7194,
      "Keep": 7195,
      "Of": 7196,
      "band": 7197,
      "Ġol": 7198,
      "Ġfant": 7199,
      "Ġmere": 7200,
      "uses": 7201,
      "ĠDise": 7202,
      "Ġamylase": 7203,
      "Ġassistant": 7204,
      "ĠPhotos": 7205,
      "Ġallergies": 7206,
      "roscopy": 7207,
      "Ġunusual": 7208,
      "sor": 7209,
      "Ġfisher": 7210,
      "ĠDar": 7211,
      "ĠDig": 7212,
      "reating": 7213,
      "Ġsched": 7214,
      "Ġcheaper": 7215,
      "Ġlimits": 7216,
      "Ġutilize": 7217,
      "........": 7218,
      "Ġexpressed": 7219,
      "Ġneighb": 7220,
      "Ġdigestive": 7221,
      "Ġconclud": 7222,
      "Ġdoubt": 7223,
      "iability": 7224,
      "Ġtrick": 7225,
      "Ġdealing": 7226,
      "ogs": 7227,
      "Ġimpl": 7228,
      "ourse": 7229,
      "ultane": 7230,
      "Ġcoy": 7231,
      "Ġboat": 7232,
      "Ġdefine": 7233,
      "Ġlargely": 7234,
      "Ġhimself": 7235,
      "ĠBlue": 7236,
      "Ġbulb": 7237,
      "Ġmessages": 7238,
      "Ġdemonstrate": 7239,
      "Ġepis": 7240,
      "Ġconversation": 7241,
      "ĠGermany": 7242,
      "Using": 7243,
      "den": 7244,
      "Ġmine": 7245,
      "Ġyard": 7246,
      "Ġgiant": 7247,
      "ĠMag": 7248,
      "osomes": 7249,
      "Ġcomprom": 7250,
      "Ġproven": 7251,
      "Ġpersist": 7252,
      "afe": 7253,
      "Ġessentially": 7254,
      "Ġholid": 7255,
      "PR": 7256,
      "Ġtanks": 7257,
      "Ġom": 7258,
      "Ġoceans": 7259,
      "Ġprove": 7260,
      "ĠMax": 7261,
      "Ġenerg": 7262,
      "Ġshouldn": 7263,
      "Ġcenturies": 7264,
      "Ġcategory": 7265,
      "Ġcitiz": 7266,
      "iology": 7267,
      "lo": 7268,
      "mas": 7269,
      "Ġtape": 7270,
      "Ġpose": 7271,
      "cture": 7272,
      "urrent": 7273,
      "amic": 7274,
      "ods": 7275,
      "ĠPers": 7276,
      "Ġneu": 7277,
      "duction": 7278,
      "ĠInformation": 7279,
      "Ġpossibilities": 7280,
      "Ġtreating": 7281,
      "Ġcombat": 7282,
      "Any": 7283,
      "-old": 7284,
      "EO": 7285,
      "Ġmouse": 7286,
      "Ġthrow": 7287,
      "ĠSocial": 7288,
      "ĠFin": 7289,
      "Ġrecording": 7290,
      "Ġpriv": 7291,
      "Ġregulation": 7292,
      "Ġcellular": 7293,
      "Ġauthent": 7294,
      "ĠProv": 7295,
      "Ġhybrid": 7296,
      "Ġobjective": 7297,
      "Ġincredibly": 7298,
      "ĠDavid": 7299,
      "Ġcampaign": 7300,
      "Ġinsulin": 7301,
      "93": 7302,
      "During": 7303,
      "Ġsac": 7304,
      "Ġcow": 7305,
      "Ġpink": 7306,
      "Ġeco": 7307,
      "Ġstack": 7308,
      "ĠSym": 7309,
      "Ġjoy": 7310,
      "velength": 7311,
      "Ġwatering": 7312,
      "Ġdescribes": 7313,
      "Ġprinted": 7314,
      "Ġsmoke": 7315,
      "scill": 7316,
      "Ġaccurately": 7317,
      "Ġoutdoors": 7318,
      "ĠSecond": 7319,
      "Ġfoam": 7320,
      "Ġnervous": 7321,
      "Ġfing": 7322,
      "omer": 7323,
      "agues": 7324,
      "Ġdisappe": 7325,
      "Ġperce": 7326,
      "Ġrab": 7327,
      "Ġmarkets": 7328,
      "Stud": 7329,
      "Ġdrying": 7330,
      "Ġevaluation": 7331,
      "Ġnutritional": 7332,
      "Ġcandid": 7333,
      "Ġgentle": 7334,
      "-R": 7335,
      "Am": 7336,
      "Ġmort": 7337,
      "Ġstorm": 7338,
      "amination": 7339,
      "ĠWood": 7340,
      "ivest": 7341,
      "Ġimaging": 7342,
      "astics": 7343,
      "inds": 7344,
      "Ġprocessed": 7345,
      "Ġpresents": 7346,
      "ocket": 7347,
      "ĠThanks": 7348,
      "ĠAmazon": 7349,
      "Ġearthqu": 7350,
      "Ġinitially": 7351,
      "Ġyeast": 7352,
      "Ġbite": 7353,
      "Ġfrust": 7354,
      "edge": 7355,
      "Ġexists": 7356,
      "ophy": 7357,
      "ideo": 7358,
      "Ġsole": 7359,
      "Ġsyndrome": 7360,
      "Ġoffs": 7361,
      "Ġaccomp": 7362,
      "ommod": 7363,
      "ĠForce": 7364,
      "ĠProcess": 7365,
      "Ġdirector": 7366,
      "ĠReview": 7367,
      "Ġobserve": 7368,
      "Ġdiamonds": 7369,
      "Ġdebate": 7370,
      ".âĢĿ": 7371,
      "field": 7372,
      "rument": 7373,
      "ville": 7374,
      "Ġsections": 7375,
      "Ġloud": 7376,
      "ĠTop": 7377,
      "umes": 7378,
      "ĠRad": 7379,
      "Ġtea": 7380,
      "akistan": 7381,
      "Ġapparent": 7382,
      "Ġconscious": 7383,
      "Ġgrid": 7384,
      "Ġcombine": 7385,
      "Ġenhancing": 7386,
      "ĠGeneral": 7387,
      "Ġclaims": 7388,
      "Ġreviews": 7389,
      "Ġconversion": 7390,
      "Ġaggressive": 7391,
      "Ġdurability": 7392,
      "Ġwestern": 7393,
      "Ġinstruments": 7394,
      "-a": 7395,
      "HS": 7396,
      "]Ċ": 7397,
      "ael": 7398,
      "Ġmask": 7399,
      "Ġnarr": 7400,
      "ĠAR": 7401,
      "Ġstems": 7402,
      "osquit": 7403,
      "Ġdisadvant": 7404,
      "enses": 7405,
      "Ġblank": 7406,
      "Ġobesity": 7407,
      "Ġconfident": 7408,
      "Ġbiom": 7409,
      "Ġvolunte": 7410,
      "Ġimmediate": 7411,
      "Ġmetabolism": 7412,
      "Ġconvenient": 7413,
      "Ġcabin": 7414,
      "mia": 7415,
      "tic": 7416,
      "Ġca": 7417,
      "Ġbare": 7418,
      "Ġdial": 7419,
      "ilation": 7420,
      "ĠCS": 7421,
      "ells": 7422,
      "Ġworn": 7423,
      "Ġprone": 7424,
      "Ġidentity": 7425,
      "Ġcalm": 7426,
      "Ġeleg": 7427,
      "Ġavailability": 7428,
      "Ġcycling": 7429,
      "ĠOnly": 7430,
      "Ġseparation": 7431,
      "Ġanalyze": 7432,
      "ĠAgricult": 7433,
      "Understanding": 7434,
      ".'": 7435,
      "fast": 7436,
      "pread": 7437,
      "van": 7438,
      "Ã¼": 7439,
      "Ġwings": 7440,
      "Ġpy": 7441,
      "Ġfilling": 7442,
      "Ġfraction": 7443,
      "Ġhang": 7444,
      "Ġgaming": 7445,
      "otype": 7446,
      "Ġmaps": 7447,
      "Ġoffic": 7448,
      "althy": 7449,
      "Ġgreatest": 7450,
      "Ġfocusing": 7451,
      "Ġencounter": 7452,
      "Ġintegr": 7453,
      "Ġbringing": 7454,
      "Ġdecreased": 7455,
      "Ġliterature": 7456,
      "-and": 7457,
      "69": 7458,
      "],": 7459,
      "Ġtro": 7460,
      "ĠAD": 7461,
      "istor": 7462,
      "Ġrib": 7463,
      "Ġships": 7464,
      "eping": 7465,
      "Ġmodified": 7466,
      "Ġinfest": 7467,
      "efits": 7468,
      "Ġrespiratory": 7469,
      "Ġpollen": 7470,
      "Ġleadership": 7471,
      "Ġhousing": 7472,
      "Ġvulnerable": 7473,
      "ogether": 7474,
      "IP": 7475,
      "lation": 7476,
      "oral": 7477,
      "Ġmm": 7478,
      "Ġgases": 7479,
      "idian": 7480,
      "Ġleak": 7481,
      "Ġrod": 7482,
      "Ġcarrier": 7483,
      "Ġmyth": 7484,
      "Ġpresentation": 7485,
      "Ġdietary": 7486,
      "Ġyounger": 7487,
      "Ġrespectively": 7488,
      "Ġaffordable": 7489,
      "BC": 7490,
      "Ġcav": 7491,
      "icul": 7492,
      "Ġlake": 7493,
      "Ġrect": 7494,
      "ĠAcc": 7495,
      "Ġstated": 7496,
      "Ġvib": 7497,
      "atures": 7498,
      "Ġaccommod": 7499,
      "plete": 7500,
      "Ġdigestion": 7501,
      "ĠIsra": 7502,
      "Ġfreedom": 7503,
      "Ġwebsites": 7504,
      "Ġsuffering": 7505,
      "Ġevaluate": 7506,
      "ĠCurrent": 7507,
      "Ġneighbor": 7508,
      "Ġnarrow": 7509,
      "Because": 7510,
      "May": 7511,
      "oir": 7512,
      "uber": 7513,
      "hered": 7514,
      "Ġsperm": 7515,
      "Ġbol": 7516,
      "Ġbeach": 7517,
      "ĠSuch": 7518,
      "anta": 7519,
      "ĠPract": 7520,
      "Ġdoctors": 7521,
      "ags": 7522,
      "Ġresc": 7523,
      "ĠKore": 7524,
      "Ġinvent": 7525,
      "Ġdetected": 7526,
      "-by": 7527,
      "while": 7528,
      "Ġcarrying": 7529,
      "Ġjoints": 7530,
      "ivestock": 7531,
      "Gen": 7532,
      "IER": 7533,
      "atches": 7534,
      "Ġdies": 7535,
      "ĠCost": 7536,
      "Ġplot": 7537,
      "oving": 7538,
      "Ġinfect": 7539,
      "Ġinvolving": 7540,
      "Ġcrust": 7541,
      "Ġcharacteristic": 7542,
      "Ġexcited": 7543,
      "Ġcovering": 7544,
      "Ġevolutionary": 7545,
      "ĠAustralian": 7546,
      "Ġveterinarian": 7547,
      "Ġintricate": 7548,
      "(s": 7549,
      "LA": 7550,
      "Â®": 7551,
      "erts": 7552,
      "Ġmud": 7553,
      "this": 7554,
      "Ġdeploy": 7555,
      "ĠFollow": 7556,
      "ria": 7557,
      "ĠGovern": 7558,
      "Ġclub": 7559,
      "luding": 7560,
      "Ġbuff": 7561,
      "Ġdepartment": 7562,
      "Ġdelicate": 7563,
      "Ġstructural": 7564,
      "Ġcris": 7565,
      "ĠWorksheets": 7566,
      "Ġincredible": 7567,
      "Ġfigures": 7568,
      "Ġassembly": 7569,
      "LER": 7570,
      "cal": 7571,
      "Ġcater": 7572,
      "Ġreaches": 7573,
      "pection": 7574,
      "ĠFigure": 7575,
      "Ġdesk": 7576,
      "cknow": 7577,
      "owners": 7578,
      "Ġexamine": 7579,
      "Ġcorpor": 7580,
      "ega": 7581,
      "Ġguy": 7582,
      "Ġbask": 7583,
      "Ġdirections": 7584,
      "Ġestimate": 7585,
      "Ġtells": 7586,
      "Ġroads": 7587,
      "Ġgained": 7588,
      "working": 7589,
      "ĠSafety": 7590,
      "-H": 7591,
      "hene": 7592,
      "orks": 7593,
      "Ġdrops": 7594,
      "Ġabuse": 7595,
      "Ġtiming": 7596,
      "Ġsomewhere": 7597,
      "Ġflash": 7598,
      "Ġoptical": 7599,
      "-dimensional": 7600,
      "Ġalternatives": 7601,
      "Ġsynthesis": 7602,
      "-L": 7603,
      "tles": 7604,
      "era": 7605,
      "ston": 7606,
      "ĠMo": 7607,
      "ĠMem": 7608,
      "ults": 7609,
      "Ġreson": 7610,
      "Ġprevents": 7611,
      "Ġempt": 7612,
      "Ġscientist": 7613,
      "Ġtruck": 7614,
      "ĠAtt": 7615,
      "Ġvisitors": 7616,
      "Ġlandscap": 7617,
      "Ġethical": 7618,
      "Ġrubber": 7619,
      "Ġdurable": 7620,
      "Ġtough": 7621,
      "asm": 7622,
      "Ġlip": 7623,
      "Ġgender": 7624,
      "Ġstir": 7625,
      "mented": 7626,
      "ĠMil": 7627,
      "ĠPress": 7628,
      "ostic": 7629,
      "ĠNut": 7630,
      "Ġcomposed": 7631,
      "berry": 7632,
      "Ġdesire": 7633,
      "Ġgray": 7634,
      "iances": 7635,
      "Ġdiscipl": 7636,
      "Ġposts": 7637,
      "Ġmovie": 7638,
      "Ġdeaths": 7639,
      "Ġthreats": 7640,
      "ĠSmith": 7641,
      "Ġastron": 7642,
      "Ġcrystal": 7643,
      "Ġphenomenon": 7644,
      "Fe": 7645,
      "Have": 7646,
      "Sim": 7647,
      "Tra": 7648,
      "Water": 7649,
      "Ġtire": 7650,
      "Ġmul": 7651,
      "ctu": 7652,
      "ĠTool": 7653,
      "ĠAp": 7654,
      "ĠPot": 7655,
      "ĠBro": 7656,
      "Ġdisrupt": 7657,
      "Ġscar": 7658,
      "Ġvolcan": 7659,
      "Ġaquatic": 7660,
      "-cl": 7661,
      "OW": 7662,
      "nial": 7663,
      "Ġille": 7664,
      "heat": 7665,
      "Ġwires": 7666,
      "Ġreb": 7667,
      "Ġnor": 7668,
      "Ġgast": 7669,
      "Ġshrimp": 7670,
      "ĠGal": 7671,
      "tee": 7672,
      "weed": 7673,
      "Ġourselves": 7674,
      "Ġprocessor": 7675,
      "Ġmarks": 7676,
      "Ġmixing": 7677,
      "Ġboxes": 7678,
      "Ġutilizing": 7679,
      "Ġgarlic": 7680,
      "ĠBiology": 7681,
      "Ġnavigate": 7682,
      "About": 7683,
      "dy": 7684,
      "fol": 7685,
      "such": 7686,
      "omas": 7687,
      "stances": 7688,
      "Ġstead": 7689,
      "Ġvaries": 7690,
      "ĠFace": 7691,
      "Ġspending": 7692,
      "ĠUN": 7693,
      "ĠUlt": 7694,
      "Ġtwist": 7695,
      "idespread": 7696,
      "certain": 7697,
      "Ġpassing": 7698,
      "Ġintroduce": 7699,
      "Ġadapted": 7700,
      "Ġincorporate": 7701,
      "Ġfrozen": 7702,
      "Ġhypot": 7703,
      "Ġsemi": 7704,
      "Ġdrainage": 7705,
      "Make": 7706,
      "ij": 7707,
      "iking": 7708,
      "ya": 7709,
      "Ġsenior": 7710,
      "Ġpand": 7711,
      "Ġbee": 7712,
      "uled": 7713,
      "Ġranging": 7714,
      "Ġshall": 7715,
      "ivating": 7716,
      "rub": 7717,
      "Ġformal": 7718,
      "aterials": 7719,
      "Ġrising": 7720,
      "Ġletters": 7721,
      "ushing": 7722,
      "Ġescape": 7723,
      "Ġlistening": 7724,
      "Ġwavelength": 7725,
      "Ġwondering": 7726,
      "Ġthickness": 7727,
      "Ġrecycled": 7728,
      ".org": 7729,
      "Figure": 7730,
      "Ġtension": 7731,
      "Ġsulf": 7732,
      "Ġcake": 7733,
      "itution": 7734,
      "itness": 7735,
      "Ġusual": 7736,
      "ĠMach": 7737,
      "Ġuniform": 7738,
      "Ġquiet": 7739,
      "ĠAnimal": 7740,
      "ports": 7741,
      "Ġinterests": 7742,
      "Ġworkshop": 7743,
      "Ġaffecting": 7744,
      "Ġlaunch": 7745,
      "Ġmitig": 7746,
      "fra": 7747,
      "night": 7748,
      "Ġreverse": 7749,
      "Ġgerm": 7750,
      "ĠAND": 7751,
      "elly": 7752,
      "amples": 7753,
      "ĠBest": 7754,
      "ĠBusiness": 7755,
      "ĠDC": 7756,
      "ĠFinally": 7757,
      "Ġdoors": 7758,
      "Ġoutcome": 7759,
      "Ġblind": 7760,
      "ooked": 7761,
      "obile": 7762,
      "Ġchecking": 7763,
      "Ġsimultane": 7764,
      "arming": 7765,
      "Ġforming": 7766,
      "ĠUnion": 7767,
      "Ġreaders": 7768,
      "Ġadvis": 7769,
      "ĠAdv": 7770,
      "Ġtotally": 7771,
      "Ġoriginally": 7772,
      "Ġrevealed": 7773,
      "Ġlifespan": 7774,
      "83": 7775,
      "Col": 7776,
      "ĠCamp": 7777,
      "tery": 7778,
      "ĠBook": 7779,
      "Ġtrail": 7780,
      "ĠJew": 7781,
      "Ġregional": 7782,
      "Ġgrab": 7783,
      "ĠUnlike": 7784,
      "Ġconsideration": 7785,
      "Ġcaps": 7786,
      "Ġcouns": 7787,
      "Ġintelligent": 7788,
      "Ġcategories": 7789,
      "Ġtomatoes": 7790,
      "Ġrepeated": 7791,
      "Ġremarkable": 7792,
      "IR": 7793,
      "bage": 7794,
      "ked": 7795,
      "yard": 7796,
      "Ġcash": 7797,
      "Ġoscill": 7798,
      "Ġdating": 7799,
      "ĠTrue": 7800,
      "ĠBal": 7801,
      "Ġcham": 7802,
      "pled": 7803,
      "ĠNon": 7804,
      "Ġtele": 7805,
      "Ġdecay": 7806,
      "Ġorganized": 7807,
      "Ġsensitivity": 7808,
      "Ġreceiving": 7809,
      "Ġcirculation": 7810,
      "Ġtender": 7811,
      "ĠSmall": 7812,
      "ogenic": 7813,
      "Ġoverwhel": 7814,
      "/m": 7815,
      "Dis": 7816,
      "medi": 7817,
      "Ġrender": 7818,
      "ĠMass": 7819,
      "ĠJames": 7820,
      "Ġdecade": 7821,
      "Ġgrad": 7822,
      "Ġsheets": 7823,
      "Ġcyl": 7824,
      "Ġfacility": 7825,
      "Ġenhanced": 7826,
      "Like": 7827,
      "ua": 7828,
      "Ġbears": 7829,
      "Ġking": 7830,
      "Ġworst": 7831,
      "ĠNAS": 7832,
      "ĠOpt": 7833,
      "Ġfeather": 7834,
      "Ġgenome": 7835,
      "Ġvegan": 7836,
      "Ġsuperior": 7837,
      "Ġsearching": 7838,
      "Ġpriorit": 7839,
      "Ġreturned": 7840,
      "Ġneurons": 7841,
      "Ġimplications": 7842,
      "ĠAcademy": 7843,
      "Ġlaunched": 7844,
      "IERLER": 7845,
      "-cent": 7846,
      "-off": 7847,
      "FA": 7848,
      "ZIERLER": 7849,
      "face": 7850,
      "wear": 7851,
      "ena": 7852,
      "Ġbank": 7853,
      "Ġbinding": 7854,
      "Ġmand": 7855,
      "icago": 7856,
      "ĠMiddle": 7857,
      "Ġsomewhat": 7858,
      "Ġshoulder": 7859,
      "Ġmoderate": 7860,
      "Ġdriven": 7861,
      "Ġphysically": 7862,
      "Ġfalls": 7863,
      "Ġshaped": 7864,
      "ENT": 7865,
      "ĠDogs": 7866,
      "Ġcrusher": 7867,
      "Ġrestaurant": 7868,
      "Ġwidespread": 7869,
      "Ġpestic": 7870,
      "Ġreaching": 7871,
      "ett": 7872,
      "ĠType": 7873,
      "Ġfort": 7874,
      "ĠSustain": 7875,
      "Ġalb": 7876,
      "ĠBu": 7877,
      "Ġkin": 7878,
      "ĠGulf": 7879,
      "Ġspeech": 7880,
      "Ġcolumn": 7881,
      "Ġvalve": 7882,
      "Ġendangered": 7883,
      "Ġpositions": 7884,
      "Ġreplacing": 7885,
      "Ġlift": 7886,
      "ĠGener": 7887,
      "ochond": 7888,
      "tra": 7889,
      "Ġ;": 7890,
      "rem": 7891,
      "Ġpip": 7892,
      "eting": 7893,
      "sts": 7894,
      "ĠMart": 7895,
      "plate": 7896,
      "Ġovercome": 7897,
      "ĠâĢĺ": 7898,
      "Ġagencies": 7899,
      "Ġhygien": 7900,
      "Ġsoils": 7901,
      "Ġwarning": 7902,
      "Ġversions": 7903,
      "Ġbrands": 7904,
      "Ġknife": 7905,
      "Ġvarying": 7906,
      "Ġtorque": 7907,
      "Ġcolleagues": 7908,
      "Ġcrisis": 7909,
      "-O": 7910,
      "-r": 7911,
      "Ġtack": 7912,
      "onom": 7913,
      "Ġpit": 7914,
      "Ġlosing": 7915,
      "owns": 7916,
      "Ġstabil": 7917,
      "ĠOR": 7918,
      "Ġconserv": 7919,
      "Ġregulate": 7920,
      "everal": 7921,
      "ĠScott": 7922,
      "Ġwarmer": 7923,
      "ĠSpanish": 7924,
      "Ġfurnace": 7925,
      "Ġsexual": 7926,
      "ĠRobert": 7927,
      "Ġoffspring": 7928,
      "??": 7929,
      "YEH": 7930,
      "oop": 7931,
      "pie": 7932,
      "Ġtort": 7933,
      "iner": 7934,
      "Ġwra": 7935,
      "uty": 7936,
      "utive": 7937,
      "Ġorbit": 7938,
      "uma": 7939,
      "Ġhence": 7940,
      "Ġplates": 7941,
      "ĠLim": 7942,
      "ulture": 7943,
      "formance": 7944,
      "Ġrecover": 7945,
      "Ġaging": 7946,
      "Ġphr": 7947,
      "dered": 7948,
      "ediatric": 7949,
      "ki": 7950,
      "Ġsaving": 7951,
      "Ġcub": 7952,
      "Ġstrict": 7953,
      "Ġroughly": 7954,
      "Ġcoverage": 7955,
      "Ġinvasive": 7956,
      "Ġinsight": 7957,
      "Ġanalys": 7958,
      "Ġvegetation": 7959,
      "ĠCompany": 7960,
      "Ġrepresented": 7961,
      "ĠDespite": 7962,
      "ukary": 7963,
      "Ġpregnant": 7964,
      "forcement": 7965,
      "Ġbottle": 7966,
      "Ġenabling": 7967,
      "ĠVirgin": 7968,
      "Ġ%": 7969,
      "Ġwider": 7970,
      "alg": 7971,
      "icide": 7972,
      "asma": 7973,
      "Ġgap": 7974,
      "amil": 7975,
      "Ġdehyd": 7976,
      "ĠBer": 7977,
      "Ġamino": 7978,
      "Ġexamination": 7979,
      "Ġdesigning": 7980,
      "Ġfactory": 7981,
      "Ġdelight": 7982,
      "Ġconsumed": 7983,
      "Ġdisplays": 7984,
      "Ġheavily": 7985,
      "Ġrobust": 7986,
      "Ġroute": 7987,
      "Ġpriority": 7988,
      "Ġdanger": 7989,
      "Ġadventure": 7990,
      "han": 7991,
      "vit": 7992,
      "Ġ...Ċ": 7993,
      "Ġtrib": 7994,
      "Ġpor": 7995,
      "orph": 7996,
      "Ġdrought": 7997,
      "Ġisland": 7998,
      "Ġstunning": 7999,
      "ulator": 8000,
      "ĠBack": 8001,
      "ĠRoyal": 8002,
      "Ġwheels": 8003,
      "Ġblade": 8004,
      "Ġspecified": 8005,
      "Ġwherein": 8006,
      "Ġadvances": 8007,
      "Ġcycl": 8008,
      "Ġanalog": 8009,
      "Ġcontributing": 8010,
      "Ġpaying": 8011,
      "Ġpackage": 8012,
      "Ġemployed": 8013,
      "Ġspeakers": 8014,
      "Ġfossils": 8015,
      "ĠSuper": 8016,
      ",ĊĊ": 8017,
      "IF": 8018,
      "UT": 8019,
      "mo": 8020,
      "itan": 8021,
      "oured": 8022,
      "roat": 8023,
      "Ġstuck": 8024,
      "Ġranges": 8025,
      "rium": 8026,
      "ĠNC": 8027,
      "Ġtransmit": 8028,
      "Ġmodule": 8029,
      "Ġpharm": 8030,
      "Ġcontained": 8031,
      "Ġmuse": 8032,
      "anned": 8033,
      "itudes": 8034,
      "Ġdemonstrated": 8035,
      "ĠGrade": 8036,
      "imensions": 8037,
      "Ġtab": 8038,
      "Ġdys": 8039,
      "Ġlux": 8040,
      "Ġnode": 8041,
      "ĠTre": 8042,
      "ĠMS": 8043,
      "Ġindoors": 8044,
      "Ġfluids": 8045,
      "Ġdegrad": 8046,
      "Ġrotation": 8047,
      "ĠApple": 8048,
      "Ġattractive": 8049,
      "Ġfighting": 8050,
      "Ġsatisfact": 8051,
      "Ġreligious": 8052,
      "-Ch": 8053,
      "84": 8054,
      "Ġaward": 8055,
      "Ġcups": 8056,
      "Ġfif": 8057,
      "Ġhus": 8058,
      "Ġrose": 8059,
      "ailed": 8060,
      "Ġindeed": 8061,
      "taining": 8062,
      "Ġpots": 8063,
      "Ġdrinks": 8064,
      "Ġcalor": 8065,
      "ĠZe": 8066,
      "Ġaquarium": 8067,
      "ĠServices": 8068,
      "########": 8069,
      "Ġabundance": 8070,
      "ĠAtlantic": 8071,
      "rapeut": 8072,
      "Ġfingers": 8073,
      "enth": 8074,
      "Ġconj": 8075,
      "arded": 8076,
      "Ġcolored": 8077,
      "Ġregister": 8078,
      "Ġspecialist": 8079,
      "Ġlogic": 8080,
      "Ġcalculated": 8081,
      "Ġjoined": 8082,
      "Ġsynthetic": 8083,
      "Ġshopping": 8084,
      "Ġinstitutions": 8085,
      "df": 8086,
      "Ġtons": 8087,
      "Ġow": 8088,
      "Ġgly": 8089,
      "Ġriding": 8090,
      "Ġincome": 8091,
      "Ġspan": 8092,
      "Ġschem": 8093,
      "Ġinstrument": 8094,
      "Ġsetup": 8095,
      "Ġpreserve": 8096,
      "Ġpreparing": 8097,
      "Ġlimitations": 8098,
      "ĠPresident": 8099,
      "AG": 8100,
      "Even": 8101,
      "OD": 8102,
      "UM": 8103,
      "Well": 8104,
      "do": 8105,
      "rane": 8106,
      "Ġselling": 8107,
      "Ġbrows": 8108,
      "Ġfost": 8109,
      "Ġfats": 8110,
      "Ġfalse": 8111,
      "oli": 8112,
      "amine": 8113,
      "umbers": 8114,
      "Ġven": 8115,
      "Ġvom": 8116,
      "ĠMa": 8117,
      "alls": 8118,
      "Ġgrams": 8119,
      "ĠProper": 8120,
      "Ġrealized": 8121,
      "ĠDev": 8122,
      "Ġlosses": 8123,
      "Ġcircuits": 8124,
      "Ġchecked": 8125,
      "anguages": 8126,
      "ĠConservation": 8127,
      "Finally": 8128,
      "RNA": 8129,
      "bra": 8130,
      "lar": 8131,
      "Ġtone": 8132,
      "Ġtheories": 8133,
      "Ġsale": 8134,
      "ometer": 8135,
      "Ġnone": 8136,
      "Ġgem": 8137,
      "Ġbeet": 8138,
      "utch": 8139,
      "ĠID": 8140,
      "Ġsuc": 8141,
      "Ġaccidents": 8142,
      "Ġcurve": 8143,
      "Ġcuts": 8144,
      "azine": 8145,
      "Ġfatty": 8146,
      "Ġbroadcast": 8147,
      "ĠGlobal": 8148,
      "Ġaesthetic": 8149,
      "erennial": 8150,
      "Red": 8151,
      "hire": 8152,
      "Ġtile": 8153,
      "Ġcables": 8154,
      "ĠBur": 8155,
      "Ġperforming": 8156,
      "Ġfunctioning": 8157,
      "Ġsummary": 8158,
      "Ġtargets": 8159,
      "Ġsmoking": 8160,
      "attice": 8161,
      "Ġboundary": 8162,
      "Ġkidney": 8163,
      "Ġexceptional": 8164,
      "Aut": 8165,
      "pat": 8166,
      "was": 8167,
      "Ġtal": 8168,
      "arb": 8169,
      "aria": 8170,
      "Ġda": 8171,
      "Ġhal": 8172,
      "Ġnurse": 8173,
      "ĠHand": 8174,
      "Ġcompat": 8175,
      "Ġfeat": 8176,
      "ĠChange": 8177,
      "ĠChoose": 8178,
      "ĠYoung": 8179,
      "Ġvector": 8180,
      "Ġboil": 8181,
      "Ġorganism": 8182,
      "oxic": 8183,
      "ĠClimate": 8184,
      "Ġfacial": 8185,
      "Ġstrongly": 8186,
      "Ġforecast": 8187,
      "Ġexpectations": 8188,
      "proof": 8189,
      "ĠStudies": 8190,
      "flies": 8191
    },
    "merges": [
      [
        "Ġ",
        "t"
      ],
      [
        "Ġ",
        "a"
      ],
      [
        "i",
        "n"
      ],
      [
        "h",
        "e"
      ],
      [
        "r",
        "e"
      ],
      [
        "o",
        "n"
      ],
      [
        "Ġt",
        "he"
      ],
      [
        "e",
        "r"
      ],
      [
        "Ġ",
        "s"
      ],
      [
        "a",
        "t"
      ],
      [
        "Ġ",
        "c"
      ],
      [
        "Ġ",
        "o"
      ],
      [
        "e",
        "s"
      ],
      [
        "e",
        "n"
      ],
      [
        "Ġ",
        "w"
      ],
      [
        "n",
        "d"
      ],
      [
        "i",
        "t"
      ],
      [
        "in",
        "g"
      ],
      [
        "i",
        "s"
      ],
      [
        "Ġ",
        "p"
      ],
      [
        "o",
        "r"
      ],
      [
        "Ġ",
        "b"
      ],
      [
        "Ġ",
        "f"
      ],
      [
        "o",
        "u"
      ],
      [
        "a",
        "l"
      ],
      [
        "a",
        "n"
      ],
      [
        "Ġ",
        "m"
      ],
      [
        "e",
        "d"
      ],
      [
        "Ġt",
        "o"
      ],
      [
        "Ġo",
        "f"
      ],
      [
        "Ġ",
        "in"
      ],
      [
        "a",
        "r"
      ],
      [
        "Ġ",
        "d"
      ],
      [
        "Ġa",
        "nd"
      ],
      [
        "i",
        "on"
      ],
      [
        "i",
        "c"
      ],
      [
        "l",
        "e"
      ],
      [
        "r",
        "o"
      ],
      [
        "a",
        "s"
      ],
      [
        "Ġt",
        "h"
      ],
      [
        "Ġ",
        "h"
      ],
      [
        "c",
        "t"
      ],
      [
        "Ġ",
        "e"
      ],
      [
        "en",
        "t"
      ],
      [
        "Ġ",
        "l"
      ],
      [
        "v",
        "e"
      ],
      [
        "i",
        "l"
      ],
      [
        "Ġ",
        "re"
      ],
      [
        "o",
        "m"
      ],
      [
        "u",
        "s"
      ],
      [
        "Ġ",
        "is"
      ],
      [
        "Ġ",
        "n"
      ],
      [
        ".",
        "Ċ"
      ],
      [
        "e",
        "t"
      ],
      [
        "Ġ",
        "y"
      ],
      [
        "l",
        "y"
      ],
      [
        "Ġ",
        "g"
      ],
      [
        "Ġy",
        "ou"
      ],
      [
        "o",
        "t"
      ],
      [
        "o",
        "w"
      ],
      [
        "Ġb",
        "e"
      ],
      [
        "u",
        "t"
      ],
      [
        "i",
        "m"
      ],
      [
        "Ġ",
        "T"
      ],
      [
        "i",
        "d"
      ],
      [
        "s",
        "t"
      ],
      [
        "o",
        "l"
      ],
      [
        "i",
        "g"
      ],
      [
        "c",
        "e"
      ],
      [
        "Ġf",
        "or"
      ],
      [
        "r",
        "a"
      ],
      [
        "Ġ",
        "A"
      ],
      [
        "c",
        "h"
      ],
      [
        "at",
        "ion"
      ],
      [
        "u",
        "r"
      ],
      [
        "Ġ",
        "I"
      ],
      [
        "Ġ",
        "on"
      ],
      [
        "Ġs",
        "t"
      ],
      [
        "Ġth",
        "at"
      ],
      [
        "i",
        "r"
      ],
      [
        "v",
        "er"
      ],
      [
        "e",
        "l"
      ],
      [
        "u",
        "l"
      ],
      [
        "Ġ",
        "it"
      ],
      [
        "it",
        "h"
      ],
      [
        "Ġa",
        "re"
      ],
      [
        "a",
        "y"
      ],
      [
        "Ġp",
        "ro"
      ],
      [
        "s",
        "e"
      ],
      [
        "i",
        "f"
      ],
      [
        "Ġw",
        "ith"
      ],
      [
        "a",
        "m"
      ],
      [
        "Ġa",
        "n"
      ],
      [
        "Ġ",
        "S"
      ],
      [
        "Ġo",
        "r"
      ],
      [
        "Ġa",
        "s"
      ],
      [
        "es",
        "t"
      ],
      [
        ".Ċ",
        "Ċ"
      ],
      [
        "Ġc",
        "on"
      ],
      [
        "he",
        "r"
      ],
      [
        "Ġ",
        "C"
      ],
      [
        "Ġa",
        "l"
      ],
      [
        "o",
        "d"
      ],
      [
        "Ċ",
        "Ċ"
      ],
      [
        "a",
        "d"
      ],
      [
        "u",
        "n"
      ],
      [
        "t",
        "er"
      ],
      [
        "Ġc",
        "an"
      ],
      [
        "k",
        "e"
      ],
      [
        "Ġw",
        "h"
      ],
      [
        "g",
        "e"
      ],
      [
        "ĠT",
        "he"
      ],
      [
        "u",
        "re"
      ],
      [
        "a",
        "b"
      ],
      [
        "at",
        "e"
      ],
      [
        "es",
        "s"
      ],
      [
        "Ġe",
        "x"
      ],
      [
        "il",
        "l"
      ],
      [
        "u",
        "m"
      ],
      [
        "Ġc",
        "om"
      ],
      [
        "Ġh",
        "a"
      ],
      [
        "Ġ",
        "W"
      ],
      [
        "an",
        "t"
      ],
      [
        "Ġ",
        "he"
      ],
      [
        "p",
        "e"
      ],
      [
        "o",
        "re"
      ],
      [
        "er",
        "s"
      ],
      [
        "ig",
        "h"
      ],
      [
        "q",
        "u"
      ],
      [
        "t",
        "h"
      ],
      [
        "'",
        "s"
      ],
      [
        "e",
        "m"
      ],
      [
        "i",
        "ve"
      ],
      [
        "Ġ",
        "us"
      ],
      [
        "i",
        "es"
      ],
      [
        "Ġ",
        "v"
      ],
      [
        "Ġyou",
        "r"
      ],
      [
        "o",
        "p"
      ],
      [
        "it",
        "y"
      ],
      [
        "Ġw",
        "e"
      ],
      [
        "a",
        "c"
      ],
      [
        "a",
        "in"
      ],
      [
        "m",
        "ent"
      ],
      [
        "Ġ",
        "M"
      ],
      [
        "o",
        "s"
      ],
      [
        "Ġd",
        "e"
      ],
      [
        "is",
        "t"
      ],
      [
        "Ġ",
        "P"
      ],
      [
        "l",
        "d"
      ],
      [
        "ro",
        "m"
      ],
      [
        "Ġn",
        "e"
      ],
      [
        "Ġ",
        "("
      ],
      [
        "Ġ",
        "B"
      ],
      [
        "e",
        "ct"
      ],
      [
        "Ġ",
        "en"
      ],
      [
        "p",
        "p"
      ],
      [
        "Ġs",
        "u"
      ],
      [
        "Ġc",
        "h"
      ],
      [
        "Ġs",
        "e"
      ],
      [
        "Ġ",
        "r"
      ],
      [
        "Ġa",
        "t"
      ],
      [
        "Ġs",
        "h"
      ],
      [
        "i",
        "al"
      ],
      [
        "i",
        "v"
      ],
      [
        "or",
        "t"
      ],
      [
        "igh",
        "t"
      ],
      [
        "Ġha",
        "ve"
      ],
      [
        "Ġf",
        "rom"
      ],
      [
        "Ġ",
        "le"
      ],
      [
        "o",
        "c"
      ],
      [
        "Ġ",
        "H"
      ],
      [
        "Ġ",
        "D"
      ],
      [
        "o",
        "g"
      ],
      [
        "Ġb",
        "y"
      ],
      [
        "re",
        "s"
      ],
      [
        "n",
        "t"
      ],
      [
        "Ġp",
        "l"
      ],
      [
        "a",
        "nd"
      ],
      [
        "Ġn",
        "ot"
      ],
      [
        "p",
        "er"
      ],
      [
        "ar",
        "t"
      ],
      [
        "Ġ",
        "F"
      ],
      [
        "u",
        "d"
      ],
      [
        "us",
        "t"
      ],
      [
        "al",
        "l"
      ],
      [
        "ic",
        "al"
      ],
      [
        "Ġth",
        "is"
      ],
      [
        "om",
        "e"
      ],
      [
        "r",
        "i"
      ],
      [
        "r",
        "ou"
      ],
      [
        "Ġa",
        "b"
      ],
      [
        "a",
        "ct"
      ],
      [
        "Ġ",
        "u"
      ],
      [
        "Ġ",
        "E"
      ],
      [
        "ou",
        "ld"
      ],
      [
        "id",
        "e"
      ],
      [
        "ou",
        "t"
      ],
      [
        "Ġm",
        "a"
      ],
      [
        "n",
        "s"
      ],
      [
        "p",
        "t"
      ],
      [
        "o",
        "st"
      ],
      [
        "Ġ",
        "R"
      ],
      [
        "in",
        "e"
      ],
      [
        "Ġ",
        "im"
      ],
      [
        "Ġw",
        "as"
      ],
      [
        "ion",
        "s"
      ],
      [
        "d",
        "u"
      ],
      [
        "Ġd",
        "o"
      ],
      [
        "ar",
        "d"
      ],
      [
        "el",
        "l"
      ],
      [
        "ic",
        "h"
      ],
      [
        "p",
        "l"
      ],
      [
        "Ġw",
        "he"
      ],
      [
        "g",
        "h"
      ],
      [
        "re",
        "d"
      ],
      [
        "â",
        "Ģ"
      ],
      [
        "Ġin",
        "t"
      ],
      [
        "Ġ",
        "k"
      ],
      [
        "Ġw",
        "or"
      ],
      [
        "Ġw",
        "ill"
      ],
      [
        "ou",
        "r"
      ],
      [
        "f",
        "f"
      ],
      [
        "i",
        "z"
      ],
      [
        "t",
        "her"
      ],
      [
        "Ġthe",
        "ir"
      ],
      [
        "Ġthe",
        "y"
      ],
      [
        "Ġ",
        "N"
      ],
      [
        "Ġcom",
        "p"
      ],
      [
        "as",
        "t"
      ],
      [
        "a",
        "ge"
      ],
      [
        "T",
        "he"
      ],
      [
        "at",
        "er"
      ],
      [
        "o",
        "od"
      ],
      [
        "Ġa",
        "d"
      ],
      [
        "k",
        "ing"
      ],
      [
        "Ġ",
        "L"
      ],
      [
        "Ġal",
        "l"
      ],
      [
        "Ġ",
        "G"
      ],
      [
        "Ġm",
        "ore"
      ],
      [
        "ab",
        "le"
      ],
      [
        "a",
        "g"
      ],
      [
        "at",
        "ed"
      ],
      [
        "k",
        "s"
      ],
      [
        "en",
        "d"
      ],
      [
        "ul",
        "t"
      ],
      [
        "e",
        "re"
      ],
      [
        "al",
        "ly"
      ],
      [
        "h",
        "at"
      ],
      [
        "an",
        "s"
      ],
      [
        "Ġcon",
        "t"
      ],
      [
        "Ġ",
        "O"
      ],
      [
        "o",
        "o"
      ],
      [
        "i",
        "b"
      ],
      [
        "Ġb",
        "ut"
      ],
      [
        "Ġs",
        "o"
      ],
      [
        "in",
        "d"
      ],
      [
        "w",
        "er"
      ],
      [
        "Ġin",
        "c"
      ],
      [
        "ou",
        "s"
      ],
      [
        "est",
        "ion"
      ],
      [
        "Ġm",
        "e"
      ],
      [
        "Ġc",
        "l"
      ],
      [
        "s",
        "o"
      ],
      [
        "Ġ",
        "j"
      ],
      [
        "i",
        "p"
      ],
      [
        "r",
        "y"
      ],
      [
        "r",
        "u"
      ],
      [
        "e",
        "p"
      ],
      [
        "Ġt",
        "e"
      ],
      [
        "Q",
        "u"
      ],
      [
        "an",
        "ce"
      ],
      [
        "Ġre",
        "s"
      ],
      [
        "Ġ",
        "\""
      ],
      [
        "i",
        "ke"
      ],
      [
        "c",
        "c"
      ],
      [
        "Ġh",
        "as"
      ],
      [
        "or",
        "m"
      ],
      [
        "on",
        "g"
      ],
      [
        "Ġd",
        "is"
      ],
      [
        "Ġwh",
        "ich"
      ],
      [
        "a",
        "re"
      ],
      [
        "ve",
        "l"
      ],
      [
        "Ġs",
        "p"
      ],
      [
        "Ġo",
        "ut"
      ],
      [
        "ation",
        "s"
      ],
      [
        "Ġ",
        "un"
      ],
      [
        "e",
        "ar"
      ],
      [
        "Ġim",
        "p"
      ],
      [
        "Ġo",
        "ther"
      ],
      [
        "ns",
        "wer"
      ],
      [
        "Qu",
        "estion"
      ],
      [
        "i",
        "e"
      ],
      [
        "Ġon",
        "e"
      ],
      [
        "ct",
        "ion"
      ],
      [
        "h",
        "is"
      ],
      [
        "Ġal",
        "so"
      ],
      [
        "a",
        "v"
      ],
      [
        "ver",
        "y"
      ],
      [
        "ent",
        "s"
      ],
      [
        "ĠA",
        "nswer"
      ],
      [
        "2",
        "0"
      ],
      [
        "ic",
        "e"
      ],
      [
        "as",
        "e"
      ],
      [
        "on",
        "e"
      ],
      [
        "Ġm",
        "an"
      ],
      [
        "en",
        "ce"
      ],
      [
        "Ġs",
        "pe"
      ],
      [
        "Ġt",
        "im"
      ],
      [
        "re",
        "at"
      ],
      [
        "ig",
        "n"
      ],
      [
        "a",
        "us"
      ],
      [
        "'",
        "t"
      ],
      [
        "Ġ",
        "U"
      ],
      [
        "ĠI",
        "n"
      ],
      [
        "a",
        "ce"
      ],
      [
        "as",
        "s"
      ],
      [
        "ar",
        "y"
      ],
      [
        "en",
        "s"
      ],
      [
        "ac",
        "k"
      ],
      [
        "a",
        "p"
      ],
      [
        "Ġf",
        "e"
      ],
      [
        "Ġthe",
        "m"
      ],
      [
        "Ġp",
        "er"
      ],
      [
        "a",
        "ch"
      ],
      [
        "Ġab",
        "out"
      ],
      [
        "it",
        "ion"
      ],
      [
        "or",
        "s"
      ],
      [
        "ĠI",
        "t"
      ],
      [
        "Ġs",
        "c"
      ],
      [
        "l",
        "ow"
      ],
      [
        "Ġu",
        "p"
      ],
      [
        "Ġl",
        "ike"
      ],
      [
        "Ġe",
        "v"
      ],
      [
        "Ġp",
        "re"
      ],
      [
        "res",
        "s"
      ],
      [
        "Ġ",
        "ro"
      ],
      [
        "if",
        "f"
      ],
      [
        "Ġs",
        "ome"
      ],
      [
        "i",
        "le"
      ],
      [
        "Ġs",
        "y"
      ],
      [
        "i",
        "a"
      ],
      [
        "Ġwhe",
        "n"
      ],
      [
        "i",
        "re"
      ],
      [
        "ou",
        "nd"
      ],
      [
        "Ġ",
        "qu"
      ],
      [
        "n",
        "ow"
      ],
      [
        "c",
        "es"
      ],
      [
        "u",
        "e"
      ],
      [
        "Ġp",
        "art"
      ],
      [
        "o",
        "se"
      ],
      [
        "it",
        "e"
      ],
      [
        "Ġ",
        "if"
      ],
      [
        "il",
        "d"
      ],
      [
        "Ġc",
        "ol"
      ],
      [
        "am",
        "e"
      ],
      [
        "t",
        "e"
      ],
      [
        "a",
        "k"
      ],
      [
        "Ġne",
        "ed"
      ],
      [
        "Ġint",
        "o"
      ],
      [
        ".",
        "."
      ],
      [
        "Ġd",
        "iff"
      ],
      [
        "Ġh",
        "ow"
      ],
      [
        "Ġtim",
        "e"
      ],
      [
        "f",
        "orm"
      ],
      [
        "b",
        "er"
      ],
      [
        "Ġ",
        "Y"
      ],
      [
        "Ġus",
        "e"
      ],
      [
        "Ġa",
        "pp"
      ],
      [
        "Ġth",
        "an"
      ],
      [
        "r",
        "ic"
      ],
      [
        "Ġt",
        "ra"
      ],
      [
        "ĠT",
        "his"
      ],
      [
        "Ġbe",
        "c"
      ],
      [
        "Ġit",
        "s"
      ],
      [
        "Ġm",
        "ay"
      ],
      [
        "Ġa",
        "r"
      ],
      [
        "ro",
        "w"
      ],
      [
        "a",
        "il"
      ],
      [
        "Ġhe",
        "l"
      ],
      [
        "ay",
        "s"
      ],
      [
        "Ġthe",
        "re"
      ],
      [
        "le",
        "ct"
      ],
      [
        "ing",
        "s"
      ],
      [
        "aus",
        "e"
      ],
      [
        "ĠW",
        "hat"
      ],
      [
        "Ġp",
        "e"
      ],
      [
        "l",
        "l"
      ],
      [
        "Ġo",
        "ver"
      ],
      [
        "Ġb",
        "l"
      ],
      [
        "Ġre",
        "c"
      ],
      [
        "Ġan",
        "y"
      ],
      [
        "nd",
        "er"
      ],
      [
        "if",
        "ic"
      ],
      [
        "re",
        "e"
      ],
      [
        "on",
        "d"
      ],
      [
        "Ġb",
        "et"
      ],
      [
        "Ġthe",
        "se"
      ],
      [
        "Ġhel",
        "p"
      ],
      [
        "Ġcom",
        "m"
      ],
      [
        "Ġc",
        "o"
      ],
      [
        "Ġspe",
        "c"
      ],
      [
        "c",
        "ess"
      ],
      [
        "at",
        "ing"
      ],
      [
        "al",
        "s"
      ],
      [
        "Ġd",
        "es"
      ],
      [
        "l",
        "es"
      ],
      [
        "st",
        "em"
      ],
      [
        "or",
        "d"
      ],
      [
        "h",
        "y"
      ],
      [
        "ou",
        "gh"
      ],
      [
        "an",
        "g"
      ],
      [
        "Ġcon",
        "s"
      ],
      [
        "in",
        "t"
      ],
      [
        "Ġk",
        "now"
      ],
      [
        "Ġin",
        "d"
      ],
      [
        "or",
        "y"
      ],
      [
        "Ġt",
        "r"
      ],
      [
        "w",
        "e"
      ],
      [
        "Ġg",
        "et"
      ],
      [
        "ol",
        "og"
      ],
      [
        "is",
        "h"
      ],
      [
        "Ġw",
        "ater"
      ],
      [
        "Ġg",
        "o"
      ],
      [
        "Ġst",
        "ud"
      ],
      [
        "a",
        "ke"
      ],
      [
        "rou",
        "gh"
      ],
      [
        "on",
        "s"
      ],
      [
        "at",
        "ure"
      ],
      [
        "ul",
        "ar"
      ],
      [
        "Ġ",
        "âĢ"
      ],
      [
        "Ġ",
        "J"
      ],
      [
        "o",
        "ve"
      ],
      [
        "Ġg",
        "en"
      ],
      [
        "Ġus",
        "ed"
      ],
      [
        "Ġs",
        "a"
      ],
      [
        "ar",
        "i"
      ],
      [
        "Ġpro",
        "du"
      ],
      [
        "Ġe",
        "ff"
      ],
      [
        "u",
        "b"
      ],
      [
        "Ġa",
        "m"
      ],
      [
        "Ġwh",
        "at"
      ],
      [
        "Ġdiff",
        "ere"
      ],
      [
        "Ġof",
        "f"
      ],
      [
        "ou",
        "nt"
      ],
      [
        "ver",
        "s"
      ],
      [
        "c",
        "k"
      ],
      [
        "Ġf",
        "l"
      ],
      [
        "Ġwe",
        "re"
      ],
      [
        "Ġa",
        "ct"
      ],
      [
        "t",
        "ing"
      ],
      [
        "Ġm",
        "ost"
      ],
      [
        "oo",
        "k"
      ],
      [
        "Ġu",
        "nder"
      ],
      [
        "er",
        "g"
      ],
      [
        "rou",
        "nd"
      ],
      [
        "op",
        "le"
      ],
      [
        "Ġne",
        "w"
      ],
      [
        "m",
        "s"
      ],
      [
        "er",
        "v"
      ],
      [
        "Ġ",
        "ra"
      ],
      [
        "Ġy",
        "ear"
      ],
      [
        "Ġo",
        "ur"
      ],
      [
        "Ġsu",
        "ch"
      ],
      [
        "ic",
        "k"
      ],
      [
        "n",
        "ing"
      ],
      [
        "Ġwh",
        "o"
      ],
      [
        "at",
        "es"
      ],
      [
        "n",
        "e"
      ],
      [
        "Ġa",
        "cc"
      ],
      [
        "Ġpro",
        "v"
      ],
      [
        "l",
        "ud"
      ],
      [
        "Ġad",
        "d"
      ],
      [
        "j",
        "ect"
      ],
      [
        "Ġsy",
        "stem"
      ],
      [
        "i",
        "ent"
      ],
      [
        "Ġma",
        "ke"
      ],
      [
        "Ġc",
        "ar"
      ],
      [
        "al",
        "th"
      ],
      [
        "p",
        "le"
      ],
      [
        "Ġsh",
        "ould"
      ],
      [
        "Ġs",
        "m"
      ],
      [
        "il",
        "ity"
      ],
      [
        "ot",
        "h"
      ],
      [
        "Ġa",
        "g"
      ],
      [
        "ĠS",
        "t"
      ],
      [
        "Ġt",
        "w"
      ],
      [
        "x",
        "t"
      ],
      [
        "et",
        "h"
      ],
      [
        "ur",
        "ing"
      ],
      [
        "1",
        "0"
      ],
      [
        "Ġw",
        "ould"
      ],
      [
        "Ġbe",
        "en"
      ],
      [
        "Ġpe",
        "ople"
      ],
      [
        "Ġe",
        "m"
      ],
      [
        "f",
        "ul"
      ],
      [
        "Ġn",
        "o"
[...]
