{
  "version": "1.0",
  "truncation": null,
  "padding": null,
  "added_tokens": [
    {
      "id": 0,
      "content": "<|bos|>",
      "single_word": false,
      "lstrip": false,
      "rstrip": false,
      "normalized": false,
      "special": true
    },
    {
      "id": 1,
      "content": "<|user_start|>",
      "single_word": false,
      "lstrip": false,
      "rstrip": false,
      "normalized": false,
      "special": true
    },
    {
      "id": 2,
      "content": "<|user_end|>",
      "single_word": false,
      "lstrip": false,
      "rstrip": false,
      "normalized": false,
      "special": true
    },
    {
      "id": 3,
      "content": "<|assistant_start|>",
      "single_word": false,
      "lstrip": false,
      "rstrip": false,
      "normalized": false,
      "special": true
    },
    {
      "id": 4,
      "content": "<|assistant_end|>",
      "single_word": false,
      "lstrip": false,
      "rstrip": false,
      "normalized": false,
      "special": true
    },
    {
      "id": 5,
      "content": "<|python_start|>",
      "single_word": false,
      "lstrip": false,
      "rstrip": false,
      "normalized": false,
      "special": true
    },
    {
      "id": 6,
      "content": "<|python_end|>",
      "single_word": false,
      "lstrip": false,
      "rstrip": false,
      "normalized": false,
      "special": true
    },
    {
      "id": 7,
      "content": "<|output_start|>",
      "single_word": false,
      "lstrip": false,
      "rstrip": false,
      "normalized": false,
      "special": true
    },
    {
      "id": 8,
      "content": "<|output_end|>",
      "single_word": false,
      "lstrip": false,
      "rstrip": false,
      "normalized": false,
      "special": true
    },
    {
      "id": 9,
      "content": "<|unk|>",
      "single_word": false,
      "lstrip": false,
      "rstrip": false,
      "normalized": false,
      "special": true
    }
  ],
  "normalizer": null,
  "pre_tokenizer": {
    "type": "Sequence",
    "pretokenizers": [
      {
        "type": "Split",
        "pattern": {
          "Regex": "'(?i:[sdmt]|ll|ve|re)|[^\\r\\n\\p{L}\\p{N}]?+\\p{L}+|\\p{N}{1,2}| ?[^\\s\\p{L}\\p{N}]++[\\r\\n]*|\\s*[\\r\\n]|\\s+(?!\\S)|\\s+"
        },
        "behavior": "Isolated",
        "invert": false
      },
      {
        "type": "ByteLevel",
        "add_prefix_space": false,
        "trim_offsets": true,
        "use_regex": false
      }
    ]
  },
  "post_processor": {
    "type": "TemplateProcessing",
    "single": [
      {
        "Sequence": {
          "id": "A",
          "type_id": 0
        }
      }
    ],
    "pair": [
      {
        "Sequence": {
          "id": "A",
          "type_id": 0
        }
      },
      {
        "Sequence": {
          "id": "B",
          "type_id": 1
        }
      }
    ],
    "special_tokens": {}
  },
  "decoder": null,
  "model": {
    "type": "Unigram",
    "unk_id": 9,
    "vocab": [
      [
        "<|bos|>",
        0.0
      ],
      [
        "<|user_start|>",
        0.0
      ],
      [
        "<|user_end|>",
        0.0
      ],
      [
        "<|assistant_start|>",
        0.0
      ],
      [
        "<|assistant_end|>",
        0.0
      ],
      [
        "<|python_start|>",
        0.0
      ],
      [
        "<|python_end|>",
        0.0
      ],
      [
        "<|output_start|>",
        0.0
      ],
      [
        "<|output_end|>",
        0.0
      ],
      [
        "<|unk|>",
        0.0
      ],
      [
        "s",
        -2.919593454493304
      ],
      [
        "Ġthe",
        -3.4016112853379425
      ],
      [
        ",",
        -3.450517594461447
      ],
      [
        "Ġ",
        -3.745353297918024
      ],
      [
        ".",
        -3.756799491026469
      ],
      [
        "Ġand",
        -3.9432716257215006
      ],
      [
        "Ġof",
        -3.9741242290480834
      ],
      [
        "Ġto",
        -3.998490464640597
      ],
      [
        "Ġa",
        -4.127317606360286
      ],
      [
        "ing",
        -4.238385165688438
      ],
      [
        "Ġin",
        -4.470478693642505
      ],
      [
        "Ġis",
        -4.642444910806315
      ],
      [
        "ed",
        -4.659224594663321
      ],
      [
        "y",
        -4.871322054609566
      ],
      [
        "d",
        -4.8904991235666095
      ],
      [
        "'",
        -4.932747662781811
      ],
      [
        "ly",
        -5.008841256481228
      ],
      [
        "Ġfor",
        -5.044130569484938
      ],
      [
        "Ġthat",
        -5.048024674917761
      ],
      [
        "0",
        -5.058677318042395
      ],
      [
        "1",
        -5.144293391770191
      ],
      [
        "Ġare",
        -5.236431455447667
      ],
      [
        "e",
        -5.268546213595762
      ],
      [
        ":",
        -5.28596243513317
      ],
      [
        "Ġyou",
        -5.288757235651447
      ],
      [
        "Ġit",
        -5.314401043241089
      ],
      [
        ".ĊĊ",
        -5.3245823674717485
      ],
      [
        "Ġbe",
        -5.344276785708637
      ],
      [
        ".Ċ",
        -5.363329667535568
      ],
      [
        "Ġwith",
        -5.3814345178647685
      ],
      [
        "2",
        -5.38648846996246
      ],
      [
        "Ċ",
        -5.397461620952713
      ],
      [
        "t",
        -5.421888517174558
      ],
      [
        "Ġon",
        -5.472804874055523
      ],
      [
        "Ġor",
        -5.515563647023054
      ],
      [
        "Ġcan",
        -5.51585370812869
      ],
      [
        "ĊĊ",
        -5.530443531652985
      ],
      [
        "-",
        -5.575028343734202
      ],
      [
        "Ġyour",
        -5.694496977608763
      ],
      [
        "Ġ(",
        -5.716567911389141
      ],
      [
        "Ġas",
        -5.761715767424596
      ],
      [
        "\"",
        -5.820719869400943
      ],
      [
        "ĠThe",
        -5.858124708189102
      ],
      [
        "Ġhave",
        -5.880929998786748
      ],
      [
        "Ġfrom",
        -5.892280362390858
      ],
      [
        "Ġby",
        -5.953958464834129
      ],
      [
        "?",
        -5.957306599903555
      ],
      [
        "ĠI",
        -6.008005889452992
      ],
      [
        "Ġan",
        -6.012069343656513
      ],
      [
        "3",
        -6.032352548433064
      ],
      [
        ")",
        -6.040644570052677
      ],
      [
        "Ġthis",
        -6.077140490469116
      ],
      [
        "5",
        -6.084060236564209
      ],
      [
        "Ġat",
        -6.14293441526954
      ],
      [
        "Ġnot",
        -6.143547421765666
      ],
      [
        "Ġwill",
        -6.206379376418413
      ],
      [
        "a",
        -6.220162163442682
      ],
      [
        "Ġtheir",
        -6.223861865871495
      ],
      [
        "4",
        -6.240221986932767
      ],
      [
        "n",
        -6.260150922972862
      ],
      [
        "9",
        -6.334774973835923
      ],
      [
        "Ġmore",
        -6.335612085872899
      ],
      [
        "Ġwas",
        -6.351635412309459
      ],
      [
        "Ġthey",
        -6.396921720245814
      ],
      [
        "er",
        -6.419370310934434
      ],
      [
        "The",
        -6.463493586467882
      ],
      [
        "6",
        -6.486254680759318
      ],
      [
        "Ġwhich",
        -6.489400744404529
      ],
      [
        "ies",
        -6.4953372895130315
      ],
      [
        "Ġhas",
        -6.498593963084316
      ],
      [
        "Ġbut",
        -6.499522112430837
      ],
      [
        "Ġwe",
        -6.499878023979672
      ],
      [
        "8",
        -6.569391596968677
      ],
      [
        "Ġone",
        -6.581537852109978
      ],
      [
        "Ġalso",
        -6.598728560435525
      ],
      [
        "Question",
        -6.610758492763294
      ],
      [
        "ĠAnswer",
        -6.635402065251689
      ],
      [
        "ĠA",
        -6.652575875468319
      ],
      [
        "7",
        -6.66123194628517
      ],
      [
        "Ġlike",
        -6.685657862093185
      ],
      [
        "Ġother",
        -6.688601030478052
      ],
      [
        "Ġall",
        -6.690685923447422
      ],
      [
        "Ġabout",
        -6.694695191174159
      ],
      [
        "on",
        -6.719654717530696
      ],
      [
        "Ġwhen",
        -6.734129635216126
      ],
      [
        "o",
        -6.740412817031926
      ],
      [
        "ĠIt",
        -6.742833614328298
      ],
      [
        "i",
        -6.7632380600092805
      ],
      [
        "Ġthem",
        -6.775967395083132
      ],
      [
        "Ġtime",
        -6.799796163970335
      ],
      [
        "Ġinto",
        -6.802593925678817
      ],
      [
        "r",
        -6.806986118149485
      ],
      [
        "Ġif",
        -6.809763712909753
      ],
      [
        "Ġdo",
        -6.817195874313651
      ],
      [
        "Ġso",
        -6.829992034236067
      ],
      [
        "Ġuse",
        -6.83022068489017
      ],
      [
        "h",
        -6.841457871783296
      ],
      [
        "Ġsome",
        -6.849756498621353
      ],
      [
        "Ġmay",
        -6.858452416323008
      ],
      [
        "ĠThis",
        -6.859238336868474
      ],
      [
        "Ġup",
        -6.861460705830572
      ],
      [
        "Ġhow",
        -6.895616260034862
      ],
      [
        "Ġthan",
        -6.92192750045133
      ],
      [
        "Ġout",
        -6.943767874293657
      ],
      [
        "A",
        -6.945867685171619
      ],
      [
        "al",
        -6.948506006394215
      ],
      [
        "ĠWhat",
        -6.949158812424027
      ],
      [
        "Ġthese",
        -6.968587101297828
      ],
      [
        "Ġwater",
        -6.969940637411511
      ],
      [
        "Ġhelp",
        -6.972801814209587
      ],
      [
        "m",
        -6.979326940071463
      ],
      [
        "Ġneed",
        -6.9913622627678045
      ],
      [
        "Ġthere",
        -6.995693233358947
      ],
      [
        "l",
        -7.003493871619826
      ],
      [
        "able",
        -7.040712022664032
      ],
      [
        "Ġwhat",
        -7.052605169586139
      ],
      [
        "Ġwere",
        -7.053166768541187
      ],
      [
        "Ġmost",
        -7.059818628132955
      ],
      [
        "Ġour",
        -7.063643141196673
      ],
      [
        "Ġused",
        -7.0687759028194534
      ],
      [
        "ĠIn",
        -7.074502121828823
      ],
      [
        "Ġmake",
        -7.080585842829658
      ],
      [
        ";",
        -7.09713896373154
      ],
      [
        "Ġsuch",
        -7.09847472223206
      ],
      [
        "/",
        -7.143221606505941
      ],
      [
        "re",
        -7.171703444659208
      ],
      [
        "Ġany",
        -7.177451942625435
      ],
      [
        "Ġget",
        -7.186877698034333
      ],
      [
        "Ġthrough",
        -7.186939621018411
      ],
      [
        "Ġnew",
        -7.19202067762779
      ],
      [
        "Ġbeen",
        -7.19296276038224
      ],
      [
        "Ġwho",
        -7.207447178059612
      ],
      [
        "Ġpeople",
        -7.219517728543668
      ],
      [
        "Ġfirst",
        -7.244438929314981
      ],
      [
        "Ġshould",
        -7.255306652075545
      ],
      [
        "ity",
        -7.257071221913831
      ],
      [
        "Ġhigh",
        -7.266714088931391
      ],
      [
        "Ġwould",
        -7.269559867117572
      ],
      [
        "Ġits",
        -7.2870742488045614
      ],
      [
        "Ġwork",
        -7.2910711681214195
      ],
      [
        "Ġsystem",
        -7.293906652130268
      ],
      [
        "Ġover",
        -7.294264805198079
      ],
      [
        "Ġonly",
        -7.30313210437197
      ],
      [
        "?Ċ",
        -7.303860816092369
      ],
      [
        "cause",
        -7.316058477995554
      ],
      [
        "Ġus",
        -7.31857655742683
      ],
      [
        "Ġmany",
        -7.319342923731183
      ],
      [
        "Ġwell",
        -7.337159861434371
      ],
      [
        "Ġjust",
        -7.35667445890042
      ],
      [
        "Ġtwo",
        -7.370334521750111
      ],
      [
        "Ġdifferent",
        -7.370396484919109
      ],
      [
        "c",
        -7.372789716916342
      ],
      [
        "Ġway",
        -7.386437990705762
      ],
      [
        "Ġbetween",
        -7.386912351979941
      ],
      [
        "Ġsee",
        -7.399422934077368
      ],
      [
        "I",
        -7.40409217431554
      ],
      [
        "!",
        -7.415056604597439
      ],
      [
        "Ġwhere",
        -7.429961665414167
      ],
      [
        "Ġtake",
        -7.432568063394667
      ],
      [
        "Ġno",
        -7.452814990932012
      ],
      [
        "Ġmy",
        -7.464930954375541
      ],
      [
        "ever",
        -7.487824185453965
      ],
      [
        "Ġpart",
        -7.500490126651881
      ],
      [
        "Ġlook",
        -7.501614911526861
      ],
      [
        "Ġchange",
        -7.502433441095345
      ],
      [
        "Ġeven",
        -7.511780143038191
      ],
      [
        "ĠIf",
        -7.514002548849971
      ],
      [
        "Ġcould",
        -7.515626661522919
      ],
      [
        "ce",
        -7.519739426503186
      ],
      [
        "Ġcell",
        -7.528235208557072
      ],
      [
        "Ġvery",
        -7.535746147422582
      ],
      [
        "Ġhe",
        -7.5388825980954834
      ],
      [
        "Ġhis",
        -7.541427250828402
      ],
      [
        "ĠHow",
        -7.548874161768577
      ],
      [
        "Ġknow",
        -7.560621644701911
      ],
      [
        "Ġmuc",
        -7.573121089822653
      ],
      [
        "Ġhad",
        -7.573219192910724
      ],
      [
        ").",
        -7.580269678268245
      ],
      [
        "Ġwant",
        -7.583740938145757
      ],
      [
        "Ġsmall",
        -7.58784340457427
      ],
      [
        "Ġgood",
        -7.589756729041854
      ],
      [
        "ĠâĢĵ",
        -7.590946784858101
      ],
      [
        "Ġhealth",
        -7.59238475773456
      ],
      [
        "Ġthen",
        -7.594942952006981
      ],
      [
        "in",
        -7.597615524864242
      ],
      [
        "ĠC",
        -7.598930110363979
      ],
      [
        "Ġeach",
        -7.599637720597187
      ],
      [
        "Ġwhile",
        -7.6123006368625745
      ],
      [
        "Ġmean",
        -7.626009551426209
      ],
      [
        "Ġprocess",
        -7.634621624649117
      ],
      [
        "Ġimportant",
        -7.639749850417704
      ],
      [
        "S",
        -7.644683091319718
      ],
      [
        "ĠThey",
        -7.64966673275614
      ],
      [
        "In",
        -7.65311744726731
      ],
      [
        "Ġenergy",
        -7.657966523676245
      ],
      [
        "Ġprovide",
        -7.665861292381337
      ],
      [
        "Ġdoes",
        -7.668428840132802
      ],
      [
        "ve",
        -7.669062971078866
      ],
      [
        "Ġyears",
        -7.674465852409222
      ],
      [
        "Ġlong",
        -7.675276405493446
      ],
      [
        "ĠYou",
        -7.676707078278501
      ],
      [
        "Ġdesign",
        -7.688252720921104
      ],
      [
        "Ġthing",
        -7.695270408676976
      ],
      [
        "Ġafter",
        -7.705767544047913
      ],
      [
        "Ġfood",
        -7.713978789081588
      ],
      [
        "Ġworld",
        -7.716564854161596
      ],
      [
        "ic",
        -7.719261140807571
      ],
      [
        "g",
        -7.722527436685227
      ],
      [
        "made",
        -7.729603803456281
      ],
      [
        "Ġbefore",
        -7.739034275368056
      ],
      [
        "Ġduring",
        -7.745380355318069
      ],
      [
        "Ġcome",
        -7.747614226591176
      ],
      [
        "Ġlevel",
        -7.749780035607554
      ],
      [
        "Ġlife",
        -7.753322594899018
      ],
      [
        "Ġaround",
        -7.757230427824413
      ],
      [
        "Ġallow",
        -7.757875341041088
      ],
      [
        "Ġdon",
        -7.759630280609811
      ],
      [
        "Ġbody",
        -7.765137555957386
      ],
      [
        "Ġdown",
        -7.773032358612782
      ],
      [
        "Ġreal",
        -7.774439674485417
      ],
      [
        "Ġcreate",
        -7.793050862150295
      ],
      [
        "ĠB",
        -7.8025553943024
      ],
      [
        "%",
        -7.804171085820484
      ],
      [
        "Ġform",
        -7.8049925806779585
      ],
      [
        "Ġlight",
        -7.815134643189229
      ],
      [
        "Ġhuman",
        -7.819347658250574
      ],
      [
        "Ġsame",
        -7.819837451558398
      ],
      [
        "),",
        -7.820190712066132
      ],
      [
        "x",
        -7.826488502256979
      ],
      [
        "Ġgreat",
        -7.830091759434529
      ],
      [
        "Ġbeing",
        -7.830465455237267
      ],
      [
        "Ġkeep",
        -7.835059973317749
      ],
      [
        "Ġinclude",
        -7.837432837925029
      ],
      [
        "Ġstudent",
        -7.839963333395421
      ],
      [
        "Ġshow",
        -7.840630486563888
      ],
      [
        "Ġplace",
        -7.841038175530056
      ],
      [
        "Ġfind",
        -7.842630720449628
      ],
      [
        "Ġthose",
        -7.843302797939607
      ],
      [
        "Ġoften",
        -7.847642057403331
      ],
      [
        "Ġfound",
        -7.848167511035579
      ],
      [
        "Ġyear",
        -7.848697118700711
      ],
      [
        "Ġdata",
        -7.85484611025976
      ],
      [
        "Ġbest",
        -7.85606985870326
      ],
      [
        "Ġright",
        -7.857434372047599
      ],
      [
        "Ġback",
        -7.86143081781054
      ],
      [
        "Ġnumber",
        -7.86603120063363
      ],
      [
        "is",
        -7.867282753505239
      ],
      [
        "Ġboth",
        -7.867364007071701
      ],
      [
        "Ġexample",
        -7.867853722121528
      ],
      [
        "ness",
        -7.868356327393167
      ],
      [
        "ĠWe",
        -7.868715808098147
      ],
      [
        "Ġday",
        -7.873527420503096
      ],
      [
        "Ġstudy",
        -7.885894091373167
      ],
      [
        "Ġexperience",
        -7.894709578095019
      ],
      [
        "Ġthink",
        -7.894853375955843
      ],
      [
        "Ġcolor",
        -7.895171214629539
      ],
      [
        "Ġinformation",
        -7.899022187903942
      ],
      [
        "Ġcause",
        -7.90115113383983
      ],
      [
        "ĠFor",
        -7.90980811026519
      ],
      [
        "f",
        -7.916365942264868
      ],
      [
        ":Ċ",
        -7.918149722831552
      ],
      [
        "What",
        -7.920048859151927
      ],
      [
        "Ġcommon",
        -7.923233008579461
      ],
      [
        "Ġpower",
        -7.925016568577195
      ],
      [
        "um",
        -7.94141597816051
      ],
      [
        "Ġrequire",
        -7.942014479025998
      ],
      [
        "Ġmight",
        -7.942329703758075
      ],
      [
        "Ġhome",
        -7.944335118713227
      ],
      [
        "Ġdevelop",
        -7.947360079496056
      ],
      [
        "ion",
        -7.949095363082784
      ],
      [
        "How",
        -7.949690662865387
      ],
      [
        "Ġinclud",
        -7.95013986059692
      ],
      [
        "Ġresearch",
        -7.953583002536412
      ],
      [
        "ll",
        -7.956131143704412
      ],
      [
        "Ġown",
        -7.972193123631207
      ],
      [
        "ĠThese",
        -7.973988724552409
      ],
      [
        "Ġstart",
        -7.978223447610007
      ],
      [
        "Ġlead",
        -7.9808909860056385
      ],
      [
        "ability",
        -7.9844141025652515
      ],
      [
        "Ġanimal",
        -7.986016714953291
      ],
      [
        "Ġproduct",
        -7.990699182523565
      ],
      [
        "Ġlarge",
        -7.992426878349721
      ],
      [
        "Ġoff",
        -7.996007210195457
      ],
      [
        "Ġbetter",
        -7.997116905312022
      ],
      [
        "Ġsize",
        -8.00334771277556
      ],
      [
        "Ġgo",
        -8.006964165974175
      ],
      [
        "le",
        -8.007225924253298
      ],
      [
        "p",
        -8.011949040844161
      ],
      [
        "Ġconsider",
        -8.014624737050799
      ],
      [
        "Ġnow",
        -8.014740538901194
      ],
      [
        "Ġbecome",
        -8.015162781535626
      ],
      [
        "Ġunder",
        -8.024415256706327
      ],
      [
        "Ġsaid",
        -8.027829687441184
      ],
      [
        "Ġcar",
        -8.028956541963979
      ],
      [
        "Ġwithout",
        -8.029166550244973
      ],
      [
        "Ġsupport",
        -8.034815037306368
      ],
      [
        "Ġair",
        -8.03565661454774
      ],
      [
        "Ġgrow",
        -8.038945254684407
      ],
      [
        "This",
        -8.039824033004438
      ],
      [
        "(",
        -8.040002753427597
      ],
      [
        "Ġtemperature",
        -8.04105313844232
      ],
      [
        "Ġfew",
        -8.041152483460582
      ],
      [
        "Ġher",
        -8.043852860802698
      ],
      [
        "Ġun",
        -8.044173229861656
      ],
      [
        "Ġevery",
        -8.044405496953246
      ],
      [
        "Ġsay",
        -8.046879042395744
      ],
      [
        "ĠS",
        -8.051028338891161
      ],
      [
        "Ġincrease",
        -8.059759809536764
      ],
      [
        "If",
        -8.061381733590615
      ],
      [
        "D",
        -8.062604779554157
      ],
      [
        "ation",
        -8.065397228535414
      ],
      [
        "Ġtype",
        -8.0657100622184
      ],
      [
        "Ġresult",
        -8.065922692410089
      ],
      [
        "Ġme",
        -8.0664594222442
      ],
      [
        "Ġpoint",
        -8.068444922637823
      ],
      [
        "ĠTo",
        -8.072606991216002
      ],
      [
        "th",
        -8.072696159538285
      ],
      [
        "Ġplant",
        -8.076113721114147
      ],
      [
        "Ġstill",
        -8.080004153739726
      ],
      [
        "Ġmaking",
        -8.08063468009476
      ],
      [
        "Ġheat",
        -8.081013908585133
      ],
      [
        "us",
        -8.081571827904469
      ],
      [
        "...",
        -8.083977650562922
      ],
      [
        "Ġend",
        -8.084321285333003
      ],
      [
        "Ġchildren",
        -8.08639239637116
      ],
      [
        "Ġset",
        -8.090478854953457
      ],
      [
        "Ġw",
        -8.09082872494361
      ],
      [
        "Ġadd",
        -8.091003534238283
      ],
      [
        "C",
        -8.09262622610932
      ],
      [
        "or",
        -8.093613647834587
      ],
      [
        "Ġspecific",
        -8.093762476024843
      ],
      [
        "Ġagain",
        -8.099905196550914
      ],
      [
        ":ĊĊ",
        -8.106656441577805
      ],
      [
        "Ġcase",
        -8.106940283521332
      ],
      [
        "Ġbase",
        -8.108342264041086
      ],
      [
        "Ġthree",
        -8.119258266163994
      ],
      [
        "Ġdog",
        -8.119914477631687
      ],
      [
        "Ġissue",
        -8.120066337168197
      ],
      [
        "Ġplay",
        -8.121540606615508
      ],
      [
        "It",
        -8.12209745024707
      ],
      [
        "Ġfish",
        -8.125879277106584
      ],
      [
        "Ġcalled",
        -8.129649443490704
      ],
      [
        "Ġgroup",
        -8.13019401502047
      ],
      [
        "Ġtoo",
        -8.130254692195887
      ],
      [
        "Ġspecies",
        -8.132824635050284
      ],
      [
        "and",
        -8.144869485511345
      ],
      [
        "known",
        -8.14588716012474
      ],
      [
        "Ġless",
        -8.145895305417744
      ],
      [
        "Ġwithin",
        -8.147062152983956
      ],
      [
        "ĠD",
        -8.14903373694729
      ],
      [
        "ĠBut",
        -8.149352705571808
      ],
      [
        "est",
        -8.152837537903391
      ],
      [
        "Ġeffect",
        -8.153924669717583
      ],
      [
        "b",
        -8.154020583882328
      ],
      [
        "ĠM",
        -8.15968776179469
      ],
      [
        "Ġgive",
        -8.161079958865265
      ],
      [
        "Ġmethod",
        -8.164187097408814
      ],
      [
        "Ġlot",
        -8.165756470603672
      ],
      [
        "Ġschool",
        -8.168527092907159
      ],
      [
        "Ġplants",
        -8.169852782823405
      ],
      [
        "Ġarea",
        -8.172153822683713
      ],
      [
        "Ġpotential",
        -8.172459452943382
      ],
      [
        "B",
        -8.178406028660671
      ],
      [
        "Ġindividual",
        -8.179456539694154
      ],
      [
        "an",
        -8.188309234146608
      ],
      [
        "Ġcost",
        -8.195530746549133
      ],
      [
        "using",
        -8.196363486529979
      ],
      [
        "Ġoffer",
        -8.197162355280733
      ],
      [
        "ĠAnd",
        -8.200093882580916
      ],
      [
        "Ġcontrol",
        -8.20316477975549
      ],
      [
        "Ġmain",
        -8.209832884401916
      ],
      [
        "u",
        -8.213160777780836
      ],
      [
        "Ġsomething",
        -8.216981420525475
      ],
      [
        "Ġhard",
        -8.219713771667085
      ],
      [
        "Ġsure",
        -8.223841711924727
      ],
      [
        "Ġlow",
        -8.22744147773812
      ],
      [
        "Ġnatural",
        -8.229494707456638
      ],
      [
        "Ġlearn",
        -8.230307251225254
      ],
      [
        "ive",
        -8.231820442550866
      ],
      [
        "Ġmust",
        -8.235149024623034
      ],
      [
        "ally",
        -8.236493971671564
      ],
      [
        "Ġsource",
        -8.236545805852845
      ],
      [
        "Ġwhy",
        -8.237312846654223
      ],
      [
        "Ġear",
        -8.244530960656615
      ],
      [
        "Ġper",
        -8.245192683054903
      ],
      [
        "Ġsecond",
        -8.247246589355168
      ],
      [
        "Ġgoing",
        -8.248286232814507
      ],
      [
        "Ġsignificant",
        -8.249818244703247
      ],
      [
        "ĠP",
        -8.253034015706808
      ],
      [
        "Ġrisk",
        -8.260850461888426
      ],
      [
        "Ġquestion",
        -8.260878400519218
      ],
      [
        "Ġensure",
        -8.266906622146767
      ],
      [
        "Ġproject",
        -8.267167513327564
      ],
      [
        "Ġfactor",
        -8.267770108395611
      ],
      [
        "Ġcat",
        -8.269344019571918
      ],
      [
        "Ġimpact",
        -8.27535193288787
      ],
      [
        "ĠWhen",
        -8.28154963917728
      ],
      [
        "Ġ[",
        -8.282798907306306
      ],
      [
        "Ġcurrent",
        -8.288618687534992
      ],
      [
        "ĠThere",
        -8.29117669988306
      ],
      [
        "Ġfull",
        -8.291738347836386
      ],
      [
        "Ġpossible",
        -8.294088118385499
      ],
      [
        "Ġtest",
        -8.295973584190719
      ],
      [
        "Ġbenefit",
        -8.296636776599968
      ],
      [
        "Ġspace",
        -8.299278640325081
      ],
      [
        "Ġreduce",
        -8.300035248097222
      ],
      [
        "Ġdue",
        -8.301861245048762
      ],
      [
        "Ġfield",
        -8.308035818406891
      ],
      [
        "Ġprevent",
        -8.308567667321519
      ],
      [
        "Ġvarious",
        -8.31269545196477
      ],
      [
        "ĠSo",
        -8.31602318617209
      ],
      [
        "Ġdevice",
        -8.317626480486025
      ],
      [
        "ry",
        -8.319670204495104
      ],
      [
        "Ġamount",
        -8.324303232826397
      ],
      [
        "Ġblood",
        -8.325691734404812
      ],
      [
        "Ġeffective",
        -8.32789492135974
      ],
      [
        "Ġreason",
        -8.330803152994719
      ],
      [
        "Ġmaterial",
        -8.333799027003415
      ],
      [
        "Ġhere",
        -8.333991826206042
      ],
      [
        "]",
        -8.340710551048094
      ],
      [
        "Ġalway",
        -8.346819923915817
      ],
      [
        "Ġanother",
        -8.349070647235106
      ],
      [
        "Ġrange",
        -8.349194553312003
      ],
      [
        "Ġal",
        -8.352799839771642
      ],
      [
        "Ġfollowing",
        -8.354943535376968
      ],
      [
        "Ġfeel",
        -8.363276266010352
      ],
      [
        "Ġeasi",
        -8.363393587196905
      ],
      [
        "Ġline",
        -8.366428651218687
      ],
      [
        "Ġlittle",
        -8.366564121761694
      ],
      [
        "Ġlast",
        -8.368267691061796
      ],
      [
        "Ġcare",
        -8.370318394456971
      ],
      [
        "Ġqualit",
        -8.370367411460833
      ],
      [
        "ĠT",
        -8.372317591787048
      ],
      [
        "Ġtreatment",
        -8.372742497779566
      ],
      [
        "Ġgeneral",
        -8.375491986885194
      ],
      [
        "Ġdisease",
        -8.375722724989332
      ],
      [
        "Ġidea",
        -8.37615663694222
      ],
      [
        "Ġdevelopment",
        -8.376699605725259
      ],
      [
        "Ġstate",
        -8.379195464580492
      ],
      [
        "Ġorder",
        -8.383520315964057
      ],
      [
        "Ġshe",
        -8.38405485020868
      ],
      [
        "less",
        -8.390272356059974
      ],
      [
        "the",
        -8.390808494806873
      ],
      [
        "Ġdid",
        -8.391347620964275
      ],
      [
        "Ġage",
        -8.396506139846128
      ],
      [
        "Ġside",
        -8.409698736438571
      ],
      [
        "T",
        -8.413491707434062
      ],
      [
        "Ġpaper",
        -8.416436403660501
      ],
      [
        "Ġavailable",
        -8.417842123496953
      ],
      [
        "Ġservice",
        -8.422379869989031
      ],
      [
        "Ġcontain",
        -8.423310654404581
      ],
      [
        "Ġproblem",
        -8.425255529054237
      ],
      [
        "Ġactual",
        -8.429244095037113
      ],
      [
        "Ġtext",
        -8.430431071442914
      ],
      [
        "Ġseveral",
        -8.431696346913618
      ],
      [
        "Ġcomplete",
        -8.441068882312475
      ],
      [
        "ĠE",
        -8.441592474443368
      ],
      [
        "Ġsurface",
        -8.44240884031522
      ],
      [
        "Ġtypes",
        -8.444777670493831
      ],
      [
        "Ġopen",
        -8.44773310755722
      ],
      [
        "Ġweek",
        -8.447875902156248
      ],
      [
        "Ġfunction",
        -8.449406039168377
      ],
      [
        "Ġsoil",
        -8.450725732404354
      ],
      [
        "Ġusually",
        -8.453814903936294
      ],
      [
        "Ġenvironment",
        -8.456344449009801
      ],
      [
        ",\"",
        -8.460211288612713
      ],
      [
        "Ġstructure",
        -8.465203675747269
      ],
      [
        "Ġ$",
        -8.465552513653115
      ],
      [
        "Ġmonth",
        -8.46602985005513
      ],
      [
        "Ġtechnology",
        -8.468625978952138
      ],
      [
        "Ġenough",
        -8.472588759428467
      ],
      [
        "ĠWhich",
        -8.47282167937118
      ],
      [
        "Ġdifference",
        -8.484199600191918
      ],
      [
        "Ġunderstand",
        -8.48564748572209
      ],
      [
        "Ġlearning",
        -8.48582232409952
      ],
      [
        "Ġwide",
        -8.488431003337645
      ],
      [
        "Ġparticular",
        -8.488878655540695
      ],
      [
        "Ġweight",
        -8.489002401753568
      ],
      [
        "Ġdamage",
        -8.49312430809266
      ],
      [
        "Ġunti",
        -8.493413243206197
      ],
      [
        "Ġanswer",
        -8.493637623569107
      ],
      [
        "Ġ&",
        -8.494284189354621
      ],
      [
        "Ġessential",
        -8.495971110333173
      ],
      [
        "When",
        -8.503710627210875
      ],
      [
        "ĠAs",
        -8.505847173549425
      ],
      [
        "Ġimprove",
        -8.506335105609516
      ],
      [
        "Ġapplication",
        -8.507250923889718
      ],
      [
        "ĠBy",
        -8.509405983031714
      ],
      [
        "Ġvalue",
        -8.509618579600872
      ],
      [
        "Ġprotein",
        -8.51009542735429
      ],
      [
        "Ġmodel",
        -8.511509736326218
      ],
      [
        "Ġcertain",
        -8.5121841648396
      ],
      [
        "Ġconditions",
        -8.516020947328986
      ],
      [
        "Ġoption",
        -8.519214120214155
      ],
      [
        "Ġtop",
        -8.519772470987135
      ],
      [
        "Ġcourse",
        -8.520079093701575
      ],
      [
        "Ġrole",
        -8.520515572213505
      ],
      [
        "Ġnon",
        -8.521169268919248
      ],
      [
        "Ġleave",
        -8.521374460860832
      ],
      [
        "Ġteam",
        -8.524147241191416
      ],
      [
        "Ġpresent",
        -8.525224183777748
      ],
      [
        "ĠU",
        -8.52542619879264
      ],
      [
        "Ġmaterials",
        -8.528217647287326
      ],
      [
        "Ġinvolve",
        -8.530305146666748
      ],
      [
        "Ġalong",
        -8.532345366395955
      ],
      [
        "Ġareas",
        -8.536786844592758
      ],
      [
        "Ġtechnique",
        -8.538047881672107
      ],
      [
        "Ġfamily",
        -8.538452617253885
      ],
      [
        "having",
        -8.545512215889215
      ],
      [
        "Ġterm",
        -8.545984595842562
      ],
      [
        "Ġfree",
        -8.54599414414681
      ],
      [
        "self",
        -8.547577490655147
      ],
      [
        "Ġname",
        -8.54928232460893
      ],
      [
        "Ġaway",
        -8.550261502455818
      ],
      [
        "Ġmaintain",
        -8.550597830875109
      ],
      [
        "Ġnext",
        -8.552422425117047
      ],
      [
        "k",
        -8.553013719773897
      ],
      [
        "Ġold",
        -8.556080032810604
      ],
      [
        "Ġhand",
        -8.557172455342993
      ],
      [
        "Ġvariet",
        -8.55760880087433
      ],
      [
        "Ġnear",
        -8.560195507275772
      ],
      [
        "Ġrate",
        -8.5612591865392
      ],
      [
        "Ġhour",
        -8.562751697917975
      ],
      [
        "Ġsince",
        -8.563909168994186
      ],
      [
        "ĠHe",
        -8.564267684926776
      ],
      [
        "Ġput",
        -8.565576996766442
      ],
      [
        "Ġlocal",
        -8.565833861778486
      ],
      [
        "Ġcommunit",
        -8.567600520000195
      ],
      [
        "Ġresults",
        -8.570891200188337
      ],
      [
        "Ġpressure",
        -8.571058929310414
      ],
      [
        "ment",
        -8.571160645408344
      ],
      [
        "Ġperson",
        -8.574580684899892
      ],
      [
        "Ġ=",
        -8.575665193724603
      ],
      [
        "ĠUniversity",
        -8.577187738306998
      ],
      [
        "*",
        -8.58085616876237
      ],
      [
        "Ġkey",
        -8.581581281379902
      ],
      [
        "Ġmarket",
        -8.583528405874823
      ],
      [
        "Ġlive",
        -8.584956763003023
      ],
      [
        "Ġstrong",
        -8.58590551294971
      ],
      [
        "Ġtogether",
        -8.589050420762852
      ],
      [
        "Ġeasy",
        -8.590788248050695
      ],
      [
        "Ġeye",
        -8.592598843415631
      ],
      [
        "Ġneeds",
        -8.593418114024981
      ],
      [
        "Ġbatter",
        -8.595313207952145
      ],
      [
        "P",
        -8.597387720079272
      ],
      [
        "Ġaccording",
        -8.598022790521394
      ],
      [
        "Ġfocus",
        -8.598241328064656
      ],
      [
        "Ġproduce",
        -8.600147315550963
      ],
      [
        "Ġlower",
        -8.601691468791348
      ],
      [
        "Ġdirect",
        -8.60355386662983
      ],
      [
        "Ġunit",
        -8.60472427896005
      ],
      [
        "Ġposition",
        -8.605683663624372
      ],
      [
        "Ġquick",
        -8.610407753990177
      ],
      [
        "You",
        -8.611391474732585
      ],
      [
        "out",
        -8.614879895335395
      ],
      [
        "ĠThat",
        -8.61575874235464
      ],
      [
        "Ġfollow",
        -8.61996689333475
      ],
      [
        "Ġflow",
        -8.62091650041497
      ],
      [
        "Ġproblems",
        -8.623049049819238
      ],
      [
        "Ġdepend",
        -8.625295673479304
      ],
      [
        "Ġcheck",
        -8.627608354328263
      ],
      [
        "Ġlet",
        -8.628735047321078
      ],
      [
        "Ġgrowth",
        -8.628911933796886
      ],
      [
        "Ġkind",
        -8.629782614894058
      ],
      [
        "Ġturn",
        -8.62981025132912
      ],
      [
        "Ġmakes",
        -8.632755648893832
      ],
      [
        "Ġprotect",
        -8.636307792736709
      ],
      [
        "Ġshort",
        -8.637577618697573
      ],
      [
        "Ġdays",
        -8.640684777401184
      ],
      [
        "Ġphysical",
        -8.642412528276852
      ],
      [
        "Ġunique",
        -8.643627560619027
      ],
      [
        "We",
        -8.644151301100308
      ],
      [
        "Ġworking",
        -8.645209609289271
      ],
      [
        "Ġtypical",
        -8.646386375450613
      ],
      [
        "en",
        -8.646672942598446
      ],
      [
        "Ġperiod",
        -8.647186742789273
      ],
      [
        "Ġhealthy",
        -8.648780390004614
      ],
      [
        "ĠH",
        -8.649089978141502
      ],
      [
        "Ġgiven",
        -8.65049092075349
      ],
      [
        "Ġrun",
        -8.651410014662662
      ],
      [
        "ĠN",
        -8.652257417824465
      ],
      [
        "Ġseem",
        -8.654306209528547
      ],
      [
        "Ġfast",
        -8.65529031302706
      ],
      [
        "Ġlimit",
        -8.655597066997146
      ],
      [
        "Ġclean",
        -8.6556093053949
      ],
      [
        "Ġmachine",
        -8.65721517882128
      ],
      [
        "Ġskin",
        -8.657347948308606
      ],
      [
        "Ġavoid",
        -8.657747250048766
      ],
      [
        "Ġcomputer",
        -8.657868988008246
      ],
      [
        "Ġsafe",
        -8.65991012133547
      ],
      [
        "âĢĵ",
        -8.660527635317054
      ],
      [
        "Ġsimple",
        -8.66073695227049
      ],
      [
        "Ġtreat",
        -8.662460297587131
      ],
      [
        "Ġdiet",
        -8.662741966181603
      ],
      [
        "ĠWith",
        -8.664036955102489
      ],
      [
        "w",
        -8.664265241028684
      ],
      [
        "Ġcreat",
        -8.664304996455398
      ],
      [
        "Ġaccess",
        -8.66573975010413
      ],
      [
        "Ġfuture",
        -8.667183436641597
      ],
      [
        "Ġprogram",
        -8.668087026536218
      ],
      [
        "Ġcontinue",
        -8.668311369806116
      ],
      [
        "age",
        -8.669603529316591
      ],
      [
        "Ġdone",
        -8.670431825157491
      ],
      [
        "ĠG",
        -8.671953157474508
      ],
      [
        "Ġamong",
        -8.672135945751904
      ],
      [
        "Ġmove",
        -8.676550382073577
      ],
      [
        "Ġgame",
        -8.677231471721662
      ],
      [
        "Ġgas",
        -8.67861614020441
      ],
      [
        "Ġlove",
        -8.678948935604495
      ],
      [
        "Ġarticle",
        -8.679869917631628
      ],
      [
        "Ġbusiness",
        -8.680006908134722
      ],
      [
        "Ġsingle",
        -8.685470725848546
      ],
      [
        "Ġstore",
        -8.686480489325271
      ],
      [
        "Ġoil",
        -8.68781127301147
      ],
      [
        "Ġdoesn",
        -8.688878927495763
      ],
      [
        "Ġleast",
        -8.690575462412031
      ],
      [
        "Ġtraining",
        -8.691171753665532
      ],
      [
        "Ġprofessional",
        -8.69170592268419
      ],
      [
        "Ġplan",
        -8.692903987935406
      ],
      [
        "Ġdifficult",
        -8.69352022607675
      ],
      [
        "Ġproduction",
        -8.694896935982445
      ],
      [
        "Ġchild",
        -8.696412225382494
      ],
      [
        ".\"",
        -8.69746009059952
      ],
      [
        "Ġsuggest",
        -8.701435372318542
      ],
      [
        "Ġnecessar",
        -8.702319318390312
      ],
      [
        "Ġcover",
        -8.703254969803957
      ],
      [
        "Ġground",
        -8.711668450114443
      ],
      [
        "Ġwhite",
        -8.713113515233236
      ],
      [
        "Ġregion",
        -8.7147835847023
      ],
      [
        "Ġhim",
        -8.714821984747969
      ],
      [
        "Ġpopulation",
        -8.714933194193824
      ],
      [
        "Ġabove",
        -8.715235399835546
      ],
      [
        "Ġhead",
        -8.718620912619944
      ],
      [
        "Ġbasic",
        -8.720310623974141
      ],
      [
        ".\"Ċ",
        -8.720408893524652
      ],
      [
        "ĠOn",
        -8.722404761045794
      ],
      [
        "There",
        -8.724900549306195
      ],
      [
        "Ġclose",
        -8.725789131349051
      ],
      [
        "Ġfact",
        -8.726450300129603
      ],
      [
        "Ġgarden",
        -8.727448655862935
      ],
      [
        "Ġsocial",
        -8.729180622563646
      ],
      [
        "Ġask",
        -8.732797575027304
      ],
      [
        "Ġwarm",
        -8.733108560751642
      ],
      [
        "Ġresearcher",
        -8.733407421102152
      ],
      [
        "Ġsimilar",
        -8.734739946997637
      ],
      [
        "Ġclimate",
        -8.73502458222832
      ],
      [
        "Ġpost",
        -8.736705995273073
      ],
      [
        "Ġbuilding",
        -8.737548255767626
      ],
      [
        "Ġexist",
        -8.737633579467673
      ],
      [
        "Ġdogs",
        -8.739049436304729
      ],
      [
        "Ġresource",
        -8.739464710341103
      ],
      [
        "Ġlayer",
        -8.739554368586852
      ],
      [
        "ous",
        -8.739959991302147
      ],
      [
        "ĠâĢĶ",
        -8.740249595696916
      ],
      [
        "higher",
        -8.740547540493939
      ],
      [
        "Ġnever",
        -8.740768859536903
      ],
      [
        "Ġregular",
        -8.742051586481129
      ],
      [
        "Ġstep",
        -8.742162740268704
      ],
      [
        "Ġbit",
        -8.744294078707643
      ],
      [
        "Ġmajor",
        -8.745151227795882
      ],
      [
        "ĠNew",
        -8.745966238369716
      ],
      [
        "Ġbook",
        -8.748413202878314
      ],
      [
        "Ġrecommend",
        -8.750737487124544
      ],
      [
        "Ġpopular",
        -8.752346560043499
      ],
      [
        "Ġeat",
        -8.753504106615612
      ],
      [
        "Ġcomponent",
        -8.75825834461825
      ],
      [
        "To",
        -8.758390981479021
      ],
      [
        "Ġespecially",
        -8.759615505720078
      ],
      [
        "stead",
        -8.760667166189876
      ],
      [
        "ĠSome",
        -8.761482170570009
      ],
      [
        ")ĊĊ",
        -8.763643389523972
      ],
      [
        "Ġsound",
        -8.76411238722824
      ],
      [
        "Ġelectric",
        -8.766846957957384
      ],
      [
        "hether",
        -8.767661906819814
      ],
      [
        "Ġtoday",
        -8.767912903371167
      ],
      [
        "Ġcontent",
        -8.771107135605568
      ],
      [
        "Ġsignal",
        -8.771409136131343
      ],
      [
        "Ġpattern",
        -8.77231123064757
      ],
      [
        "Ġdetermine",
        -8.772761326661094
      ],
      [
        "Ġface",
        -8.773605944047176
      ],
      [
        "Ġbring",
        -8.773996764583629
      ],
      [
        "Ġscience",
        -8.774125197548944
      ],
      [
        "!Ċ",
        -8.775827287827447
      ],
      [
        "Ġclear",
        -8.77591832032906
      ],
      [
        "Ġsun",
        -8.777573462373853
      ],
      [
        "Ġcancer",
        -8.777850225694936
      ],
      [
        "Ġdeep",
        -8.778899761269257
      ],
      [
        "Ġread",
        -8.77976685897486
      ],
      [
        "Ġtoward",
        -8.782101381968705
      ],
      [
        "Ġtry",
        -8.782481167909863
      ],
      [
        "Ġsite",
        -8.78263111774313
      ],
      [
        "Ġinterest",
        -8.784731991449107
      ],
      [
        "Ġmatter",
        -8.785461408135632
      ],
      [
        "E",
        -8.785820672958181
      ],
      [
        "Ġpiece",
        -8.788248275220745
      ],
      [
        "Ġshape",
        -8.79062631993939
      ],
      [
        "either",
        -8.790630294707512
      ],
      [
        "Ġleft",
        -8.790944764774132
      ],
      [
        "Ġfour",
        -8.793808967293243
      ],
      [
        "Ġtotal",
        -8.794688309234058
      ],
      [
        "Ġperform",
        -8.796968706774646
      ],
      [
        "Ġstudie",
        -8.797395997106758
      ],
      [
        "ĠBe",
        -8.798466299385499
      ],
      [
        "Ġimage",
        -8.799579011749731
      ],
      [
        "Ġred",
        -8.80086639676528
      ],
      [
        "Ġmind",
        -8.802092457268758
      ],
      [
        "Ġremove",
        -8.80320936531622
      ],
      [
        "Ġyoung",
        -8.803537306067533
      ],
      [
        "Ġchemical",
        -8.803726601688725
      ],
      [
        "Ġcountry",
        -8.804826672750966
      ],
      [
        "Ġtimes",
        -8.806983103023118
      ],
      [
        "Ġaffect",
        -8.80788322048764
      ],
      [
        "Ġaddition",
        -8.808322577264377
      ],
      [
        "Ġbrain",
        -8.812624090793967
      ],
      [
        "Ġchoice",
        -8.813694975997205
      ],
      [
        "Ġseed",
        -8.815387687845632
      ],
      [
        "Ġunderstanding",
        -8.815588951743111
      ],
      [
        "Ġbelow",
        -8.816243739017164
      ],
      [
        "to",
        -8.816396772712281
      ],
      [
        "Ġenjoy",
        -8.818891151804248
      ],
      [
        "Ġheart",
        -8.819939505437137
      ],
      [
        ")Ċ",
        -8.820288357321608
      ],
      [
        "Ġsolar",
        -8.820637592652355
      ],
      [
        "ĠYour",
        -8.822784215476396
      ],
      [
        "Ġrecent",
        -8.82449436937597
      ],
      [
        "Ġliv",
        -8.826970700930858
      ],
      [
        "Ġbig",
        -8.827583951791304
      ],
      [
        "Ġcall",
        -8.832756248031728
      ],
      [
        "Ġsign",
        -8.834015793015922
      ],
      [
        "ary",
        -8.835262594033207
      ],
      [
        "Ġfeatures",
        -8.83628220187438
      ],
      [
        "Ġcold",
        -8.839119379921407
      ],
      [
        "Ġperformance",
        -8.840478823550047
      ],
      [
        "not",
        -8.840655825942163
      ],
      [
        "Ġparent",
        -8.841062933299263
      ],
      [
        "Ġapproach",
        -8.844103077311754
      ],
      [
        "Ġcorrect",
        -8.846070267028843
      ],
      [
        "ĠState",
        -8.847940423749165
      ],
      [
        "For",
        -8.848024215033913
      ],
      [
        "ready",
        -8.848497489273983
      ],
      [
        "Ġbelieve",
        -8.85038783370174
      ],
      [
        "Ġgoal",
        -8.851705579409895
      ],
      [
        "Ġtree",
        -8.851744898041144
      ],
      [
        "Ġhistory",
        -8.853141539689755
      ],
      [
        "Ġgett",
        -8.853335112070978
      ],
      [
        "M",
        -8.853581866930462
      ],
      [
        "Ġmillion",
        -8.854514267201736
      ],
      [
        "Ġinside",
        -8.854989613823518
      ],
      [
        "Ġdream",
        -8.8565226733596
      ],
      [
        "Ġchallenge",
        -8.859975106901409
      ],
      [
        "Ġconcern",
        -8.861194514968416
      ],
      [
        "Ġnormal",
        -8.861599004225582
      ],
      [
        "Ġgenetic",
        -8.861850784985327
      ],
      [
        "Ġloss",
        -8.862063595064066
      ],
      [
        "ish",
        -8.863473157201412
      ],
      [
        "Ġfurther",
        -8.863539719340915
      ],
      [
        "Ġfar",
        -8.864682940969239
      ],
      [
        "Ġclass",
        -8.867086498532156
      ],
      [
        "Ġengine",
        -8.867739364894081
      ],
      [
        "Ġreach",
        -8.868623410408995
      ],
      [
        "ĠV",
        -8.869344135512737
      ],
      [
        "it",
        -8.869716919543912
      ],
      [
        "across",
        -8.872351385857995
      ],
      [
        "Ġshare",
        -8.87293731745843
      ],
      [
        "Ġappear",
        -8.874126919911095
      ],
      [
        "Ġskills",
        -8.876188363761054
      ],
      [
        "N",
        -8.878645882214286
      ],
      [
        "Ġdiscover",
        -8.879901225002868
      ],
      [
        "Ġmention",
        -8.880529693391729
      ],
      [
        "ĠR",
        -8.884633016354668
      ],
      [
        "Ġp",
        -8.88522299344036
      ],
      [
        "ĠNo",
        -8.885344910780132
      ],
      [
        "Ġcode",
        -8.88726127838375
      ],
      [
        "Ġtalk",
        -8.890010945868797
      ],
      [
        "Ġauthor",
        -8.891352963882346
      ],
      [
        "ĠOne",
        -8.895019372919355
      ],
      [
        "ers",
        -8.899280891198483
      ],
      [
        "Ġreport",
        -8.899702327717776
      ],
      [
        "Ġways",
        -8.903090411586849
      ],
      [
        "Ġcompany",
        -8.90401716839236
      ],
      [
        "Ġforce",
        -8.90484267327825
      ],
      [
        "Ġcarbon",
        -8.905291094082664
      ],
      [
        "Ġremain",
        -8.906682982263817
      ],
      [
        "Ġfall",
        -8.90705516954758
      ],
      [
        "Ġsomeone",
        -8.90930712727775
      ],
      [
        "Ġmedical",
        -8.910892777499448
      ],
      [
        "ar",
        -8.911597528524556
      ],
      [
        "Ġflower",
        -8.913969692109262
      ],
      [
        "Ġpersonal",
        -8.91595747882257
      ],
      [
        "Ġcondition",
        -8.916355522690306
      ],
      [
        "Ġhouse",
        -8.916957401084446
      ],
      [
        "Ġactivities",
        -8.917273518465933
      ],
      [
        "Ġgreen",
        -8.917277101575124
      ],
      [
        "Ġdry",
        -8.918718132311042
      ],
      [
        "by",
        -8.919470591408743
      ],
      [
        "âĢĻs",
        -8.921285804378057
      ],
      [
        "Ġvideo",
        -8.922550261263659
      ],
      [
        "Ġre",
        -8.922880344020484
      ],
      [
        "Ġlate",
        -8.925179678928815
      ],
      [
        "Ġpurpose",
        -8.926129144011231
      ],
      [
        "Ġindustry",
        -8.926304048677029
      ],
      [
        "ĠAI",
        -8.928975098712897
      ],
      [
        "Ġstandard",
        -8.931247802243634
      ],
      [
        "Ġrelationship",
        -8.93216572043406
      ],
      [
        "taking",
        -8.932725237227944
      ],
      [
        "v",
        -8.9345001764907
      ],
      [
        "Ġuser",
        -8.935135672387599
      ],
      [
        "Ġthought",
        -8.935237032126476
      ],
      [
        "z",
        -8.93567068643383
      ],
      [
        "Ġdescribe",
        -8.936540044260182
      ],
      [
        "Ġtell",
        -8.936991973602037
      ],
      [
        "Ġperfect",
        -8.937316719195781
      ],
      [
        "Ġaction",
        -8.939104592058591
      ],
      [
        "Ġmix",
        -8.942931554005348
      ],
      [
        "Ġstay",
        -8.943498809931016
      ],
      [
        "Ġcrucial",
        -8.943536889110698
      ],
      [
        "Ġslow",
        -8.944200964294097
      ],
      [
        "Ġknowledge",
        -8.944985599212625
      ],
      [
        "ves",
        -8.946832381234842
      ],
      [
        "Ġpain",
        -8.947642418562722
      ],
      [
        "Ġlocation",
        -8.948066315652
      ],
      [
        "Ġsolution",
        -8.94818203976066
      ],
      [
        "Ġspeed",
        -8.94910785579373
      ],
      [
        "Ġpractice",
        -8.952561437101725
      ],
      [
        "âĢĻ",
        -8.953295033108432
      ],
      [
        "ĠL",
        -8.954929481068367
      ],
      [
        "be",
        -8.955233206101845
      ],
      [
        "Ġlanguage",
        -8.9552553928761
      ],
      [
        "Ġbehavior",
        -8.955291919095831
      ],
      [
        "Ġetc",
        -8.95775609184549
      ],
      [
        "Ġmeasure",
        -8.958923610706925
      ],
      [
        "Ġbuild",
        -8.962452817437002
      ],
      [
        "Ġentire",
        -8.96408563484728
      ],
      [
        "Ġsense",
        -8.964423853945949
      ],
      [
        "Ġproper",
        -8.965020112356154
      ],
      [
        "ĠAmerican",
        -8.967660751984145
      ],
      [
        "Ġlonger",
        -8.968580694271996
      ],
      [
        "Ġmoney",
        -8.969230154047692
      ],
      [
        "Ġsimpl",
        -8.969427507878251
      ],
      [
        "Ġoverall",
        -8.970708498443813
      ],
      [
        "Ġdoing",
        -8.97096526964026
      ],
      [
        "Ġblack",
        -8.974691386408889
      ],
      [
        "Ġroom",
        -8.975506730271892
      ],
      [
        "Ġassociate",
        -8.9768004813024
      ],
      [
        "Ġcomplex",
        -8.97979269738184
      ],
      [
        "Ġnetwork",
        -8.98314891691188
      ],
      [
        "Ġrecord",
        -8.985953631474281
      ],
      [
        "Ġpublic",
        -8.986326074024667
      ],
      [
        "As",
        -8.989349939492453
      ],
      [
        "ory",
        -8.990344173693902
      ],
      [
        "G",
        -8.992228314922658
      ],
      [
        "Ġlist",
        -8.993328067100258
      ],
      [
        "Ġtarget",
        -8.994200269088683
      ],
      [
        "Ġactivity",
        -8.995376537282002
      ],
      [
        "Ġsea",
        -8.995906652557794
      ],
      [
        "Ġsleep",
        -8.997025623898235
      ],
      [
        "man",
        -9.000195294199132
      ],
      [
        "Ġeffort",
        -9.00053872356782
      ],
      [
        "Ġwinter",
        -9.001305291495166
      ],
      [
        "Ġselect",
        -9.001881554761674
      ],
      [
        "Ġpositive",
        -9.001942984366014
      ],
      [
        "Ġtraditional",
        -9.003702347946632
      ],
      [
        "Ġwhole",
        -9.004037396588917
      ],
      [
        "Ġexercise",
        -9.004339320639536
      ],
      [
        "Ġenvironmental",
        -9.007250240283406
      ],
      [
        "Ġscientist",
        -9.007843759393
      ],
      [
        "Ġbuy",
        -9.010034840452615
      ],
      [
        "Ġhot",
        -9.010674742421443
      ],
      [
        "Ġthough",
        -9.011773203093249
      ],
      [
        "Ġpage",
        -9.011837007699718
      ],
      [
        "âĢĶ",
        -9.01255035082266
      ],
      [
        "Ġoperation",
        -9.013449928017298
      ],
      [
        "Ġspecial",
        -9.016733544996432
      ],
      [
        "Ġchoose",
        -9.017436125662504
      ],
      [
        "Ġself",
        -9.02168633045828
      ],
      [
        "ĠWhile",
        -9.023644148110414
      ],
      [
        "Ġwomen",
        -9.024043590414085
      ],
      [
        "Ġlater",
        -9.025438117352182
      ],
      [
        "Ġglobal",
        -9.025548762077973
      ],
      [
        "Ġfee",
        -9.027034331949306
      ],
      [
        "Ġbalance",
        -9.02770038795854
      ],
      [
        "afety",
        -9.02877076958802
      ],
      [
        "Ġfit",
        -9.029288994235497
      ],
      [
        "Ġopportunit",
        -9.029402439811644
      ],
      [
        "Ġreceive",
        -9.030841671957983
      ],
      [
        "Ġnature",
        -9.030849822237998
      ],
      [
        "Ġbegin",
        -9.03092185936032
      ],
      [
        "Ġmetal",
        -9.031350850212917
      ],
      [
        "Ġpatients",
        -9.032654172304998
      ],
      [
        "Ġeggs",
        -9.03437555039578
      ],
      [
        "ĠDo",
        -9.035922126017926
      ],
      [
        "F",
        -9.03627310576998
      ],
      [
        "ĠF",
        -9.037675377960907
      ],
      [
        "Ġfuel",
        -9.037731370233832
      ],
      [
        "Ġprimar",
        -9.038626650612567
      ],
      [
        "Ġexpert",
        -9.039318761414329
      ],
      [
        "Ġvehicle",
        -9.039323451332
      ],
      [
        "Ġstage",
        -9.040058472299208
      ],
      [
        "Ġstress",
        -9.042843583150477
      ],
      [
        "Ġsummer",
        -9.044913968535605
      ],
      [
        "ĠScience",
        -9.044934230831704
      ],
      [
        "ĠK",
        -9.04621026799084
      ],
      [
        "Ġtask",
        -9.04649847162244
      ],
      [
        "Ġfront",
        -9.046606201365332
      ],
      [
        "Ġlarger",
        -9.050522805813074
      ],
      [
        "Ġexplain",
        -9.05053445481226
      ],
      [
        "Ġfruit",
        -9.051901591407791
      ],
      [
        "Ġtravel",
        -9.053176149131508
      ],
      [
        "Ġtissue",
        -9.054771882215675
      ],
      [
        "Ġrelative",
        -9.056247261610302
      ],
      [
        "Ġgot",
        -9.057610868769585
      ],
      [
        "Ġsymptoms",
        -9.058513294756962
      ],
      [
        "Ġcut",
        -9.060414620008244
      ],
      [
        "Ġcool",
        -9.06464180590056
      ],
      [
        "Ġmanagement",
        -9.065026400645454
      ],
      [
        "Ġfresh",
        -9.06556222218429
      ],
      [
        "Ġrelated",
        -9.06738206628523
      ],
      [
        "So",
        -9.06832912513664
      ],
      [
        "ful",
        -9.07164027913858
      ],
      [
        "Ġtools",
        -9.071746917200702
      ],
      [
        "Ġpast",
        -9.072236306559024
      ],
      [
        "O",
        -9.075627139308953
      ],
      [
        "Ġsuccessful",
        -9.075879920920048
      ],
      [
        "Ġresponse",
        -9.078895935084828
      ],
      [
        "_",
        -9.083085736066325
      ],
      [
        "Ġlength",
        -9.083202945419067
      ],
      [
        "Ġview",
        -9.083935438447728
      ],
      [
        "Ġwood",
        -9.085378225509483
      ],
      [
        "ĠNational",
        -9.086534483857156
      ],
      [
        "Ġminutes",
        -9.087130181642683
      ],
      [
        "Ġidentify",
        -9.087365557671951
      ],
      [
        "Ġothers",
        -9.08835275709009
      ],
      [
        "Ġoriginal",
        -9.088671581540677
      ],
      [
        "Ġfive",
        -9.089103294959182
      ],
      [
        "Ġstrateg",
        -9.090095190257388
      ],
      [
        "Ġwaste",
        -9.091510764880288
      ],
      [
        "Ġmodern",
        -9.092002297179633
      ],
      [
        "Ġpay",
        -9.09281163779297
      ],
      [
        "-base",
        -9.092882585043942
      ],
      [
        "Ġefficient",
        -9.094310436035537
      ],
      [
        "Ġland",
        -9.09487775360869
      ],
      [
        "Ġreturn",
        -9.095513402029862
      ],
      [
        "Ġprobabl",
        -9.095514199490594
      ],
      [
        "bility",
        -9.096799630954278
      ],
      [
        "where",
        -9.097147440314313
      ],
      [
        "Ġproperties",
        -9.09767443183436
      ],
      [
        "Ġaverage",
        -9.098512679551192
      ],
      [
        "Ġsubject",
        -9.099213699165508
      ],
      [
        "Ġitem",
        -9.100686606520782
      ],
      [
        "ĠHere",
        -9.100739624024026
      ],
      [
        "cy",
        -9.101312473983413
      ],
      [
        "Ġaddress",
        -9.10197278959348
      ],
      [
        "Ġanalysis",
        -9.102635717254676
      ],
      [
        "Ġcenter",
        -9.103431419616925
      ],
      [
        "Ġdirection",
        -9.10361426995993
      ],
      [
        "Ġwall",
        -9.106138537809075
      ],
      [
        "ĠAn",
        -9.106367406213622
      ],
      [
        "Ġhappen",
        -9.106481973586494
      ],
      [
        "Ġaccount",
        -9.10957012871965
      ],
      [
        "H",
        -9.109682642345486
      ],
      [
        "Ġmilk",
        -9.111713990307504
      ],
      [
        "Ġguide",
        -9.111837319007774
      ],
      [
        "Ġplastic",
        -9.112193497839517
      ],
      [
        "Ġregard",
        -9.112482222372051
      ],
      [
        "Ġact",
        -9.116133989444128
      ],
      [
        "Ġattention",
        -9.118533520234829
      ],
      [
        "Ġhold",
        -9.119424070433393
      ],
      [
        "Ġseason",
        -9.11965151408562
      ],
      [
        "Ġsometime",
        -9.119755917306748
      ],
      [
        "Ġcycle",
        -9.119982563356162
      ],
      [
        "Ġdegree",
        -9.120689051273086
      ],
      [
        "âĢ¦",
        -9.120808939433395
      ],
      [
        "Ġmovement",
        -9.121866786925969
      ],
      [
        "Ġactive",
        -9.124558862655093
      ],
      [
        "Ġincreasing",
        -9.126479576887274
      ],
      [
        "Many",
        -9.1268938190182
      ],
      [
        ").Ċ",
        -9.128436045826012
      ],
      [
        "Ġpre",
        -9.12902839099241
      ],
      [
        "Ġeducation",
        -9.12983198146089
      ],
      [
        "[",
        -9.130294475286512
      ],
      [
        "Ġconcept",
        -9.13029908500612
      ],
      [
        "Ġrepresent",
        -9.13110199650665
      ],
      [
        "Ġjob",
        -9.131239998471871
      ],
      [
        "Ġexplore",
        -9.131820099635451
      ],
      [
        "Ġhalf",
        -9.13267256999826
      ],
      [
        "ism",
        -9.132774786335146
      ],
      [
        "ĠDNA",
        -9.134445034897928
      ],
      [
        "Ġart",
        -9.13454013499211
      ],
      [
        "Ġstop",
        -9.134897640223407
      ],
      [
        "online",
        -9.135477974040334
      ],
      [
        "Ġthemsel",
        -9.137167494387487
      ],
      [
        "Ġdi",
        -9.13906031514411
      ],
      [
        "Ġadditional",
        -9.139143176208538
      ],
      [
        "Ġweather",
        -9.14010961516843
      ],
      [
        "ĠAt",
        -9.144183646462777
      ],
      [
        "Ġcontact",
        -9.147687082819097
      ],
      [
        "Ġliquid",
        -9.148628533839837
      ],
      [
        "Ġever",
        -9.1505746966933
      ],
      [
        "Ġisn",
        -9.151865643010709
      ],
      [
        "Ġmultiple",
        -9.152075137875189
      ],
      [
        "Ġtank",
        -9.152428672697532
      ],
      [
        "Ġwalk",
        -9.152800336521294
      ],
      [
        "Ġreading",
        -9.153586499742964
      ],
      [
        "Ġelements",
        -9.154643686533758
      ],
      [
        "+",
        -9.154850686820204
      ],
      [
        "Ġnegative",
        -9.1549016716635
      ],
      [
        "Ġvisit",
        -9.15566182466956
      ],
      [
        "Ġcompare",
        -9.156756146261284
      ],
      [
        "Ġstorage",
        -9.15686722529244
      ],
      [
        "Ġalmost",
        -9.15717631249563
      ],
      [
        "Ġsugar",
        -9.157336145285177
      ],
      [
        "Ġfinal",
        -9.157444416984266
      ],
      [
        "Ġgovernment",
        -9.159099537361268
      ],
      [
        "Ġmodels",
        -9.159508578584994
      ],
      [
        "Ġsetting",
        -9.1615040416735
      ],
      [
        "Ġoutside",
        -9.162043733355675
      ],
      [
        "Ġbreed",
        -9.16208517774859
      ],
      [
        "Ġreview",
        -9.162344320307898
      ],
      [
        "Ġculture",
        -9.16264255999755
      ],
      [
        "Ġrelease",
        -9.165566722061406
      ],
      [
        "Ġbad",
        -9.16602807858336
      ],
      [
        "Ġam",
        -9.166557099883292
      ],
      [
        "Ġcommunication",
        -9.168385178461527
      ],
      [
        "Ġfun",
        -9.169159224740932
      ],
      [
        "land",
        -9.16941925533143
      ],
      [
        "Ġreduc",
        -9.169537831702678
      ],
      [
        "Ġice",
        -9.171601197148558
      ],
      [
        "Ġdigital",
        -9.171620880699024
      ],
      [
        "ĠO",
        -9.172456668188488
      ],
      [
        "Ġfinding",
        -9.17292912257408
      ],
      [
        "Ġrule",
        -9.173120095774076
      ],
      [
        "Ġwon",
        -9.173862084219586
      ],
      [
        "Ġpass",
        -9.173897625568538
      ],
      [
        "Ġgain",
        -9.175995900619034
      ],
      [
        "Ġplayer",
        -9.178488357591265
      ],
      [
        "V",
        -9.178860208958142
      ],
      [
        "Ġquite",
        -9.17943118343457
      ],
      [
        "K",
        -9.179602721886724
      ],
      [
        "Ġmental",
        -9.179677317307332
      ],
      [
        "Ġsample",
        -9.184130795985467
      ],
      [
        "at",
        -9.1849761270864
      ],
      [
        "Ġseparate",
        -9.185652340670014
      ],
      [
        "Ġscientific",
        -9.186174083743085
      ],
      [
        "ĠEarth",
        -9.188409047146322
      ],
      [
        "Ġpercent",
        -9.18849702627843
      ],
      [
        "Ġcharacter",
        -9.190429363347269
      ],
      [
        "Ġdetail",
        -9.190789825011736
      ],
      [
        "Ġtool",
        -9.19084806449658
      ],
      [
        "Ġprovid",
        -9.191896922169176
      ],
      [
        "ance",
        -9.193363946300764
      ],
      [
        "Ġblock",
        -9.19381560242842
      ],
      [
        "Ġserve",
        -9.19381961620378
      ],
      [
        "Ġstarted",
        -9.195638692901948
      ],
      [
        "Ġdeliver",
        -9.19684848408837
      ],
      [
        "Ġbirds",
        -9.197360134875954
      ],
      [
        "Ġcity",
        -9.197368314475042
      ],
      [
        "Ġsave",
        -9.198702176038273
      ],
      [
        "Ġhear",
        -9.19899708729362
      ],
      [
        "Ġnight",
        -9.199695504940562
      ],
      [
        "Ġsalt",
        -9.19982759845096
      ],
      [
        "ĠAll",
        -9.19985065578128
      ],
      [
        "Ġorganization",
        -9.200141973519337
      ],
      [
        "Ġblue",
        -9.202523239090858
      ],
      [
        "Ġprevious",
        -9.203729221980003
      ],
      [
        "Why",
        -9.20409530836185
      ],
      [
        "Ġbehind",
        -9.204754937887888
      ],
      [
        "Ġbacteria",
        -9.206575626300184
      ],
      [
        "Ġpet",
        -9.21006339101991
      ],
      [
        "Ġenhance",
        -9.211488899978912
      ],
      [
        "Ġwords",
        -9.21234869697285
      ],
      [
        "Ġachieve",
        -9.213320496414248
      ],
      [
        "Ġinstruction",
        -9.213391871247516
      ],
      [
        "Ġgenerate",
        -9.213473280504072
      ],
      [
        "ĠUnited",
        -9.21605303896599
      ],
      [
        "Ġmass",
        -9.217793147830152
      ],
      [
        "daily",
        -9.217975390094397
      ],
      [
        "Ġprice",
        -9.220544042064285
      ],
      [
        "Ġvegetable",
        -9.221293407123207
      ],
      [
        "Ġevent",
        -9.221462298961706
      ],
      [
        "Ġinfluence",
        -9.22151969717636
      ],
      [
        "Ġdark",
        -9.225402981560425
      ],
      [
        "Ġspring",
        -9.22567850687535
      ],
      [
        "R",
        -9.226878719692458
      ],
      [
        "Ġcountr",
        -9.22768123439934
      ],
      [
        "Ġenter",
        -9.228907765589238
      ],
      [
        "ĠW",
        -9.229120472730784
      ],
      [
        "Ġconduct",
        -9.2291695070932
      ],
      [
        "Ġequipment",
        -9.231372150553195
      ],
      [
        "Ġcamera",
        -9.23304272094666
      ],
      [
        "Ġportion",
        -9.233262648507392
      ],
      [
        "Ġsupply",
        -9.233467471632906
      ],
      [
        "light",
        -9.23370444950434
      ],
      [
        "Ġmeet",
        -9.234203604848563
      ],
      [
        "ything",
        -9.23551261898868
      ],
      [
        "Ġtend",
        -9.235694047604389
      ],
      [
        "Ġprotection",
        -9.237060841861693
      ],
      [
        "Ġacid",
        -9.238538920539323
      ],
      [
        "Ġwild",
        -9.238807262177648
      ],
      [
        "Ġstory",
        -9.238995165842962
      ],
      [
        "Ġtrees",
        -9.239551293362512
      ],
      [
        "Ġexperiment",
        -9.240097391502369
      ],
      [
        "ĠSouth",
        -9.240272225596264
      ],
      [
        "Ġevidence",
        -9.243528171978015
      ],
      [
        "Ġaim",
        -9.24366129654613
      ],
      [
        "Ġeyes",
        -9.244100833084762
      ],
      [
        "Ġglass",
        -9.246570562724848
      ],
      [
        "Ġrest",
        -9.246577138022948
      ],
      [
        "ĠCan",
        -9.246817197821455
      ],
      [
        "Ġteacher",
        -9.2486491489151
      ],
      [
        "Ġwebsite",
        -9.248705396068464
      ],
      [
        "Ġyet",
        -9.248950865059324
      ],
      [
        "Ġindicate",
        -9.250361021338982
      ],
      [
        "Ġfill",
        -9.252218997437035
      ],
      [
        "Ġdistance",
        -9.255356067559193
      ],
      [
        "Ġinsect",
        -9.25701951576462
      ],
      [
        "Ġsection",
        -9.260007065046544
      ],
      [
        "Ġkids",
        -9.261061839629487
      ],
      [
        "line",
        -9.261537894748017
      ],
      [
        "Ġadvantage",
        -9.265744888076457
      ],
      [
        "Ġextra",
        -9.26624735213909
      ],
      [
        "Ġbrand",
        -9.266439243355457
      ],
      [
        "Ġfeed",
        -9.266531108637
      ],
      [
        "ĠDr",
        -9.266755584084136
      ],
      [
        "One",
        -9.266906038697588
      ],
      [
        "Ġefficienc",
        -9.269124884251491
      ],
      [
        "Ġharm",
        -9.269406973950788
      ],
      [
        "Ġeverything",
        -9.269770309738943
      ],
      [
        "Ġdisorder",
        -9.270876849318682
      ],
      [
        "Ġpaint",
        -9.271461568456957
      ],
      [
        "Ġeveryone",
        -9.273047961812829
      ],
      [
        "Ġdidn",
        -9.27374527333592
      ],
      [
        "Ġmeat",
        -9.274023129774797
      ],
      [
        "Ġnote",
        -9.274333973542989
      ],
      [
        "mm",
        -9.274664275322372
      ],
      [
        "ĠWorld",
        -9.274705536857216
      ],
      [
        "Ġdisplay",
        -9.277068007230191
      ],
      [
        "ĠAfter",
        -9.27722662521256
      ],
      [
        "Ġtrue",
        -9.278205820604745
      ],
      [
        "Ġmedia",
        -9.27848214044215
      ],
      [
        "Ġlack",
        -9.280249503900324
      ],
      [
        "Ġspread",
        -9.280728509528467
      ],
      [
        "Ġsoftware",
        -9.283426474966133
      ],
      [
        "Ġsearch",
        -9.28377208009831
      ],
      [
        "Ġsteps",
        -9.28901606115991
      ],
      [
        "Ġcritical",
        -9.28936947093217
      ],
      [
        "Ġcharge",
        -9.28978101765432
      ],
      [
        "Ġextend",
        -9.29112268044382
      ],
      [
        "Ġcontribute",
        -9.292548770045048
      ],
      [
        "Ġroot",
        -9.292994547263184
      ],
      [
        "Ġelectrical",
        -9.294712675735113
      ],
      [
        "ember",
        -9.296728312047192
      ],
      [
        "Ġswitch",
        -9.2968284989378
      ],
      [
        "Ġfilm",
        -9.297583862519089
      ],
      [
        "Ġexact",
        -9.297719695523089
      ],
      [
        "Ġjoint",
        -9.298782436052427
      ],
      [
        "Ġadvance",
        -9.30227317263445
      ],
      [
        "Ġmath",
        -9.3023440728711
      ],
      [
        "Ġago",
        -9.30291558447755
      ],
      [
        "Ġstyle",
        -9.304268149794307
      ],
      [
        "Ġprocesses",
        -9.30623150522238
      ],
      [
        "Ġaspect",
        -9.306781362922472
      ],
      [
        "Ġconstant",
        -9.306982699946182
      ],
      [
        "Ġprovided",
        -9.30768937853739
      ],
      [
        "Ġb",
        -9.308137329636128
      ],
      [
        "Ġstrength",
        -9.30830933409846
      ],
      [
        "ĠUS",
        -9.310074682376062
      ],
      [
        "lthough",
        -9.310778884672988
      ],
      [
        "Ġdemand",
        -9.312184802029458
      ],
      [
        "ĠJ",
        -9.314909231711832
      ],
      [
        "Ġearth",
        -9.315446797786
      ],
      [
        "Ġcollect",
        -9.31712730823482
      ],
      [
        "Ġwatch",
        -9.317582368607004
      ],
      [
        "Ġinstall",
        -9.318101559635831
      ],
      [
        "Ġcustomer",
        -9.320692823796898
      ],
      [
        "Ġexpect",
        -9.320727850804431
      ],
      [
        "Ġfilter",
        -9.323430083371012
      ],
      [
        "Ġde",
        -9.32459100854036
      ],
      [
        "ĠSchool",
        -9.324830152681646
      ],
      [
        "Ġproduced",
        -9.32638665554052
      ],
      [
        "Ġfat",
        -9.32677361217607
      ],
      [
        "Ġmale",
        -9.326898973119526
      ],
      [
        "Ġtopic",
        -9.328293794329875
      ],
      [
        "Ġdraw",
        -9.329740832231249
      ],
      [
        "Ġdrive",
        -9.330061772838835
      ],
      [
        ".S",
        -9.331838978245054
      ],
      [
        "Ġfund",
        -9.332928082745966
      ],
      [
        "Ġremember",
        -9.334959342266044
      ],
      [
        "Ġeating",
        -9.338781886817536
      ],
      [
        "ĠShe",
        -9.34251626886028
      ],
      [
        "Ġbuilt",
        -9.343083362852145
      ],
      [
        "Ġelse",
        -9.34334559067824
      ],
      [
        "Ġwriting",
        -9.344352388669575
      ],
      [
        "Ġtrying",
        -9.346233032079803
      ],
      [
        "Ġapply",
        -9.346473812077155
      ],
      [
        "Ġgene",
        -9.348826294408592
      ],
      [
        "Ġpublished",
        -9.350034194898132
      ],
      [
        "ĠResearch",
        -9.35110891982072
      ],
      [
        "Ġfeature",
        -9.351843701999002
      ],
      [
        "Ġspend",
        -9.353193685201743
      ],
      [
        "yourself",
        -9.354151963702463
      ],
      [
        "Ġwrite",
        -9.354394803587075
      ],
      [
        "But",
        -9.355114171729426
      ],
      [
        "Ġestablish",
        -9.355132290773229
      ],
      [
        "Ġobtain",
        -9.35701557744795
      ],
      [
        "Ġoutput",
        -9.357499417333646
      ],
      [
        "Ġpoints",
        -9.358615546196178
      ],
      [
        "Ġcook",
        -9.358668705194932
      ],
      [
        "ĠMay",
        -9.3601352069028
      ],
      [
        "Ġinitial",
        -9.362790557501915
      ],
      [
        "Ġfine",
        -9.363647224348554
      ],
      [
        "Ġpoor",
        -9.363734321368767
      ],
      [
        "Ġrequirement",
        -9.365615673064298
      ],
      [
        "Ġhope",
        -9.367744788346272
      ],
      [
        "Ġsoon",
        -9.368559774841412
      ],
      [
        "ĠUse",
        -9.368900926409436
      ],
      [
        "L",
        -9.36925825320026
      ],
      [
        "Ġman",
        -9.36959484666199
      ],
      [
        "Ġequal",
        -9.371453457649771
      ],
      [
        "Ġfire",
        -9.372341266704671
      ],
      [
        "ĠMore",
        -9.373214664965534
      ],
      [
        "Ġmemory",
        -9.375178709606836
      ],
      [
        "Ġseries",
        -9.37868283871246
      ],
      [
        "ite",
        -9.379577766566568
      ],
      [
        "Ġattack",
        -9.379963076002834
      ],
      [
        "Ġsix",
        -9.381773584884945
      ],
      [
        "Q",
        -9.382035248858775
      ],
      [
        "ĠMost",
        -9.38218338820662
      ],
      [
        "Ġcontainer",
        -9.382548446384774
      ],
      [
        "Ġcauses",
        -9.383623246149762
      ],
      [
        "Ġcount",
        -9.384929233699255
      ],
      [
        "Ġdoctor",
        -9.386898565182864
      ],
      [
        "Ġbreak",
        -9.387014621014837
      ],
      [
        "Ġfoods",
        -9.387179563970664
      ],
      [
        "Ġworks",
        -9.388469627498075
      ],
      [
        "Ġmaintenance",
        -9.389740920289633
      ],
      [
        "Ġwind",
        -9.38979391201108
      ],
      [
        "Ġclaim",
        -9.392972375715647
      ],
      [
        "Ġfeeling",
        -9.3931022328295
      ],
      [
        "Ġimmun",
        -9.39312323127458
      ],
      [
        "Ġnutrient",
        -9.394280439596542
      ],
      [
        "Ġword",
        -9.3943109248227
      ],
      [
        "Ġtaste",
        -9.39525275119447
      ],
      [
        "like",
        -9.395287103848869
      ],
      [
        "Ġstem",
        -9.396201077234004
      ],
      [
        "Ġrat",
        -9.396264403504397
      ],
      [
        "Ġideal",
        -9.396500900910777
      ],
      [
        "Ġparticle",
        -9.39663414625038
      ],
      [
        "W",
        -9.398887631059315
      ],
      [
        "Ġmanage",
        -9.400609815171302
      ],
      [
        "Ġappropriate",
        -9.400777398289044
      ],
      [
        "Ġgenes",
        -9.403974405835132
      ],
      [
        "Ġfigure",
        -9.406876374551132
      ],
      [
        "Ġimportanc",
        -9.407434772424669
      ],
      [
        "Ġimmediate",
        -9.407794070419271
      ],
      [
        "Ġchance",
        -9.407796167771153
      ],
      [
        "Ġserious",
        -9.408161114636822
      ],
      [
        "Ġcircuit",
        -9.408211826380963
      ],
      [
        "ather",
        -9.40926307657782
      ],
      [
        "Ġmoving",
        -9.40959621621904
      ],
      [
        "Ġinput",
        -9.409691963082231
      ],
      [
        "Ġtrack",
        -9.410190067259816
      ],
      [
        "Ġsuccess",
        -9.411122017416504
      ],
      [
        "Ġfrequent",
        -9.41189784789984
      ],
      [
        "Ġcombination",
        -9.411978645475031
      ],
      [
        "Ġrunn",
        -9.41459628673559
      ],
      [
        "Ġsequence",
        -9.415355590554078
      ],
      [
        "Ġcapacit",
        -9.416265540146052
      ],
      [
        "more",
        -9.416322208079183
      ],
      [
        "Ġnotice",
        -9.418476806375754
      ],
      [
        "Ġyellow",
        -9.418565924516178
      ],
      [
        "Ġmonitor",
        -9.418604641253529
      ],
      [
        "Ġlives",
        -9.419278899757998
      ],
      [
        "Ġdeal",
        -9.419408973968174
      ],
      [
        "Ġcharacteristic",
        -9.420068876768628
      ],
      [
        "Ġpatient",
        -9.420606850537466
      ],
      [
        "Ġ--",
        -9.42206894505852
      ],
      [
        "Ġapplie",
        -9.422480037420796
      ],
      [
        "X",
        -9.423142460932471
      ],
      [
        "Ġuseful",
        -9.423635793754302
      ],
      [
        "Ġdeath",
        -9.424084015268567
      ],
      [
        "Ġreplace",
        -9.424828455941183
      ],
      [
        "Ġenable",
        -9.4265234316222
      ],
      [
        "Ġdiseases",
        -9.428757731253835
      ],
      [
        "Ġbottom",
        -9.429024013521506
      ],
      [
        "Ġspot",
        -9.430109425368125
      ],
      [
        "Ġingredient",
        -9.430477978496874
      ],
      [
        "Ġscale",
        -9.430759217086251
      ],
      [
        "Ġwear",
        -9.433960472053936
      ],
      [
        "Ġconnection",
        -9.434796358679735
      ],
      [
        "ĠHealth",
        -9.435401009686316
      ],
      [
        "Ġmembers",
        -9.43666549395454
      ],
      [
        "Ġgoe",
        -9.436908071127194
      ],
      [
        "ĠYes",
        -9.439015760649774
      ],
      [
        "Ġtherapy",
        -9.439175114014905
      ],
      [
        "Can",
        -9.44029093101511
      ],
      [
        "Ġcouple",
        -9.440739488671326
      ],
      [
        "nother",
        -9.441203560238556
      ],
      [
        "ch",
        -9.44208857321429
      ],
      [
        "Ġrapid",
        -9.4427905446303
      ],
      [
        "Ġusers",
        -9.443050170139044
      ],
      [
        "Ġtips",
        -9.44340899414074
      ],
      [
        "Ġkill",
        -9.44388880024758
      ],
      [
        "Ġslight",
        -9.444141278954486
      ],
      [
        "Ġvolume",
        -9.446042826750014
      ],
      [
        "-to",
        -9.44619589844388
      ],
      [
        "Ġevents",
        -9.447032909871902
      ],
      [
        "Ġoccur",
        -9.447076104571645
      ],
      [
        "Ġmolecule",
        -9.44721558614591
      ],
      [
        "Ġresponsibl",
        -9.44752114190948
      ],
      [
        "Ġsituation",
        -9.449331354315603
      ],
      [
        "Ġconnect",
        -9.449589154631216
      ],
      [
        "Ġrock",
        -9.449680529538114
      ],
      [
        "Ġleg",
        -9.450048458875765
      ],
      [
        "Ġvitamin",
        -9.450119651639918
      ],
      [
        "ization",
        -9.451252291600705
      ],
      [
        "Ġshows",
        -9.452131384891056
      ],
      [
        "Ġdecrease",
        -9.453061566082551
      ],
      [
        "Ġgear",
        -9.4532414288754
      ],
      [
        "ĠX",
        -9.454950533299357
      ],
      [
        "Ġmineral",
        -9.456260249786403
      ],
      [
        "ĠFrom",
        -9.456657773147512
      ],
      [
        "Ġ+",
        -9.458118850360062
      ],
      [
        "ĠWhy",
        -9.460412707398383
      ],
      [
        "ĠAmerica",
        -9.46046997019674
      ],
      [
        "Ġemission",
        -9.461496234742125
      ],
      [
        "Ġpretty",
        -9.461761085765737
      ],
      [
        "ium",
        -9.461987752516354
      ],
      [
        "Ġfarm",
        -9.463821213328472
      ],
      [
        "Ġplatform",
        -9.464137519740005
      ],
      [
        "By",
        -9.465133770141634
      ],
      [
        "Ġco",
        -9.466076058035146
      ],
      [
        "Ġscreen",
        -9.467405734979886
      ],
      [
        "Ġimages",
        -9.46850364597246
      ],
      [
        "An",
        -9.470258277554713
      ],
      [
        "Ġsoft",
        -9.4705691969572
      ],
      [
        "Ġdecision",
        -9.47172177557351
      ],
      [
        "Ġanti",
        -9.47183338558185
      ],
      [
        "Ġteeth",
        -9.472137100073118
      ],
      [
        "Ġmeasurement",
        -9.472788003824409
      ],
      [
        "Ġaccept",
        -9.473040560157926
      ],
      [
        "Ġpair",
        -9.475984630463271
      ],
      [
        "Ġorganic",
        -9.47636123530961
      ],
      [
        "On",
        -9.47686310762307
      ],
      [
        "Ġmusic",
        -9.47703827796622
      ],
      [
        "Ġhandle",
        -9.477314263091715
      ],
      [
        "companie",
        -9.4782271281773
      ],
      [
        "âĢ¢",
        -9.478478888387167
      ],
      [
        "Ġelectronic",
        -9.480153696294671
      ],
      [
        "While",
        -9.480774105722633
      ],
      [
        "Ġrich",
        -9.481335849750703
      ],
      [
        "Ġdocument",
        -9.482608694062137
      ],
      [
        "Using",
        -9.483249351887068
      ],
      [
        "Ġcareful",
        -9.483271683824004
      ],
      [
        "Ġworth",
        -9.483308970166473
      ],
      [
        "Ġnothing",
        -9.484144688949392
      ],
      [
        ">",
        -9.485182083104092
      ],
      [
        "Ġpump",
        -9.485686867552031
      ],
      [
        "Ġcarry",
        -9.48616576159517
      ],
      [
        "Ġnumbers",
        -9.487935785466831
      ],
      [
        "Ġedge",
        -9.489630558795298
      ],
      [
        "=",
        -9.490530751732916
      ],
      [
        "Ġhair",
        -9.491140355820676
      ],
      [
        "ware",
        -9.491404098793137
      ],
      [
        "Ġcleaning",
        -9.492070465745812
      ],
      [
        "Ġsub",
        -9.496163748330744
      ],
      [
        "Ġversion",
        -9.496778053588796
      ],
      [
        "Ġbone",
        -9.49760793158438
      ],
      [
        "ĠAls",
        -9.497989098858412
      ],
      [
        "Ġbeautiful",
        -9.498379463146549
      ],
      [
        "Ġprograms",
        -9.498693033992218
      ],
      [
        "Ġgeneration",
        -9.49915971256626
      ],
      [
        "Ġfemale",
        -9.50004872716763
      ],
      [
        "ĠOur",
        -9.50097579982356
      ],
      [
        "Ġbird",
        -9.50162977432469
      ],
      [
        "Ġdetect",
        -9.50222768614966
      ],
      [
        "Ġexcellen",
        -9.50260647780799
      ],
      [
        "Ġfabric",
        -9.50279403593839
      ],
      [
        "Ġdate",
        -9.503626863896375
      ],
      [
        "Ġplann",
        -9.503895904461752
      ],
      [
        "Ġadjust",
        -9.50488584939032
      ],
      [
        "Ġtouch",
        -9.507430490516178
      ],
      [
        "Ġconstruction",
        -9.507682267998971
      ],
      [
        "Ġvary",
        -9.508287477788844
      ],
      [
        "Ġpurchase",
        -9.508776136252257
      ],
      [
        "Ġencourage",
        -9.509059845494155
      ],
      [
        "Ġprocedure",
        -9.51177956571138
      ],
      [
        "ĠWho",
        -9.511831198309425
      ],
      [
        "Ġshift",
        -9.513130153031629
      ],
      [
        "Ġchang",
        -9.513727927558095
      ],
      [
        "Ġvisual",
        -9.513936769404342
      ],
      [
        "came",
        -9.515896298469364
      ],
      [
        "Ġwave",
        -9.516006950057436
      ],
      [
        "ial",
        -9.517357188222231
      ],
      [
        "Ġtable",
        -9.517729457033465
      ],
      [
        "Ġaccurate",
        -9.518551975070386
      ],
      [
        "Ġphotograph",
        -9.51860496719549
      ],
      [
        "Ġbrown",
        -9.51902224080568
      ],
      [
        "Ġfrequenc",
        -9.519198997196185
      ],
      [
        "ĠCO",
        -9.52059153481158
      ],
      [
        "Ġobject",
        -9.52279734729028
      ],
      [
        "care",
        -9.524699550488368
      ],
      [
        "Ġmoment",
        -9.525018074976003
      ],
      [
        "one",
        -9.525420977869622
      ],
      [
        "Ġsuitabl",
        -9.52560581280287
      ],
      [
        "Ġfeeding",
        -9.526381562511885
      ],
      [
        "Ġextract",
        -9.526841391027908
      ],
      [
        "Ġsensor",
        -9.526861695465282
      ],
      [
        "Ġboard",
        -9.531283351536931
      ],
      [
        "Ġstring",
        -9.531587972837618
      ],
      [
        "Ġrefer",
        -9.534894765629288
      ],
      [
        "Ġalternative",
        -9.535230784558491
      ],
      [
        "ĠâĢ¦",
        -9.53565807949014
      ],
      [
        "Ġaid",
        -9.536542161159838
      ],
      [
        "Ġstone",
        -9.538093434367095
      ],
      [
        "ture",
        -9.53821748562018
      ],
      [
        "Ġobjects",
        -9.53849464393977
      ],
      [
        "Ġbathroom",
        -9.538606279612242
      ],
      [
        "ĠAdditional",
        -9.539117695720917
      ],
      [
        "Ġload",
        -9.539493282632868
      ],
      [
        "Ġconnected",
        -9.540608035183263
      ],
      [
        "ĠNorth",
        -9.54180071238564
      ],
      [
        "Ġensur",
        -9.542096450991425
      ],
      [
        "ĠSaudi",
        -9.542760161763232
      ],
      [
        "Ġbike",
        -9.54386691539094
      ],
      [
        "Ġheavy",
        -9.544189818962153
      ],
      [
        "went",
        -9.545817444768607
      ],
      [
        "Ġprinciple",
        -9.545862895520976
      ],
      [
        "up",
        -9.545931087003645
      ],
      [
        "Ġcolour",
        -9.54603931179313
      ],
      [
        "tic",
        -9.548565211527878
      ],
      [
        "#",
        -9.549218496434726
      ],
      [
        "Ġvalues",
        -9.549915810079955
      ],
      [
        "Ġsmooth",
        -9.55000446030395
      ],
      [
        "Ġrare",
        -9.55034005846134
      ],
      [
        "Ġpull",
        -9.55064510754076
      ],
      [
        "Ġresistance",
        -9.550681844938904
      ],
      [
        "Ġsort",
        -9.551234666059864
      ],
      [
        "Ġeconomic",
        -9.55167957758403
      ],
      [
        "ĠOf",
        -9.554146864829296
      ],
      [
        "Ġbox",
        -9.554966445995746
      ],
      [
        "Ġbaby",
        -9.55630995337874
      ],
      [
        "Ġteaching",
        -9.557412590536943
      ],
      [
        "Ġcame",
        -9.557519414194363
      ],
      [
        "Ġsustainabl",
        -9.557577074701165
      ],
      [
        "Ġfile",
        -9.558653512879914
      ],
      [
        "Ġsolid",
        -9.558868617771743
      ],
      [
        "Ġfinish",
        -9.559414577156373
      ],
      [
        "Ġsevere",
        -9.559771789454803
      ],
      [
        "Ġcompar",
        -9.56074395017734
      ],
      [
        "Ġhole",
        -9.560927924826627
      ],
      [
        "Ġwire",
        -9.561680230269278
      ],
      [
        "ian",
        -9.563368989604012
      ],
      [
        "Ġexpens",
        -9.56366149578475
      ],
      [
        "Ġpromote",
        -9.563895590079625
      ],
      [
        "Ġcrop",
        -9.56409243877034
      ],
      [
        "Ġthousand",
        -9.56412467674249
      ],
      [
        "Ġmen",
        -9.564311065120815
      ],
      [
        "-term",
        -9.564321829762177
      ],
      [
        "Ġvision",
        -9.564433959054876
      ],
      [
        "Ġprint",
        -9.5644448402928
      ],
      [
        "Ġforward",
        -9.565294741676125
      ],
      [
        "ĠOr",
        -9.565906282333762
      ],
      [
        "her",
        -9.567196259997043
      ],
      [
        "once",
        -9.568161337603351
      ],
      [
        "Ġburn",
        -9.568415515642783
      ],
      [
        "Ġdefine",
        -9.570384671790723
      ],
      [
        "Ġrecognize",
        -9.570397892638944
      ],
      [
        "ritten",
        -9.57108467361962
      ],
      [
        "Ġinteraction",
        -9.571551790292917
      ],
      [
        "Ġwait",
        -9.571877905910704
      ],
      [
        "uch",
        -9.573091211963042
      ],
      [
        "Ġadapt",
        -9.573130717081552
      ],
      [
        "Ġroad",
        -9.57407818714721
      ],
      [
        "Ġpowerful",
        -9.574168606017796
      ],
      [
        "Ġcausing",
        -9.57555633517986
      ],
      [
        "Ġreveal",
        -9.576149779165345
      ],
      [
        "Ġnoise",
        -9.57658555563039
      ],
      [
        "Ġlocate",
        -9.57892702656757
      ],
      [
        "Ġconsist",
        -9.579894225707378
      ],
      [
        "Ġadding",
        -9.580351576332248
      ],
      [
        "ĠRe",
        -9.58221109984266
      ],
      [
        "Ġmulti",
        -9.582271965473858
      ],
      [
        "Ġvaluable",
        -9.582556454105418
      ],
      [
        "Ġpicture",
        -9.582924825950116
      ],
      [
        "Ġcap",
        -9.58405383587251
      ],
      [
        "Ġfiber",
        -9.58418098623773
      ],
      [
        "Ġreference",
        -9.587730051731612
      ],
      [
        "U",
        -9.589726010513116
      ],
      [
        "Ġwrong",
        -9.59087470303404
      ],
      [
        "Ġinsight",
        -9.591802647748548
      ],
      [
        "Ġopening",
        -9.592091549218086
      ],
      [
        "Ġready",
        -9.592387034073052
      ],
      [
        "Ġcross",
        -9.59241928522971
      ],
      [
        "Ġhappens",
        -9.593450028575424
      ],
      [
        "Ġrecover",
        -9.594166683076622
      ],
      [
        "Ġtesting",
        -9.594701312318684
      ],
      [
        "Ġmechanism",
        -9.595170012487191
      ],
      [
        "ĠCenter",
        -9.595765043816275
      ],
      [
        "ur",
        -9.596350396882942
      ],
      [
        "side",
        -9.596695374458664
      ],
      [
        "These",
        -9.59696411806591
      ],
      [
        "giving",
        -9.598707358890298
      ],
      [
        "Ġcooking",
        -9.598857344338445
      ],
      [
        "Ġled",
        -9.59982698907486
      ],
      [
        "Ġflavor",
        -9.59983191054402
      ],
      [
        "Ġrepair",
        -9.600021039312368
      ],
      [
        "Ġinfection",
        -9.60037326324351
      ],
      [
        "ĠWar",
        -9.600413903485617
      ],
      [
        "Ġinternational",
        -9.6005785698306
      ],
      [
        "Ġadult",
        -9.602490063907489
      ],
      [
        "Ġinstance",
        -9.602546267823232
      ],
      [
        "Ġstar",
        -9.602860501292716
      ],
      [
        "Ġcutting",
        -9.603411260897914
      ],
      [
        "\\",
        -9.603989670060349
      ],
      [
        "Now",
        -9.605096120469137
      ],
      [
        "Ġmuscle",
        -9.60555041672513
      ],
      [
        "Ġpick",
        -9.607542778690876
      ],
      [
        "of",
        -9.607603035835195
      ],
      [
        "head",
        -9.608539591781112
      ],
      [
        ".com",
        -9.60882120784262
      ],
      [
        "ĠNow",
        -9.609441864711648
      ],
      [
        "if",
        -9.609983734407226
      ],
      [
        "ĠNot",
        -9.610685635232006
      ],
      [
        "Ġpractices",
        -9.61074927139597
      ],
      [
        "Ġpath",
        -9.612195442219978
      ],
      [
        "Ġstick",
        -9.612303349201149
      ],
      [
        "Ġthird",
        -9.612661612828026
      ],
      [
        "Ġexpand",
        -9.612734256909768
      ],
      [
        "Ġcommand",
        -9.61313081993742
      ],
      [
        "lost",
        -9.613455985563135
      ],
      [
        "ĠEach",
        -9.614662204135929
      ],
      [
        "ĠMy",
        -9.61642540258339
      ],
      [
        "...ĊĊ",
        -9.616707300573598
      ],
      [
        "Ġpush",
        -9.617006082267316
      ],
      [
        "over",
        -9.617082011531885
      ],
      [
        "Ġhost",
        -9.617141113977045
      ],
      [
        "Ġmatch",
        -9.618662013288525
      ],
      [
        "Ġsnow",
        -9.619757090660247
      ],
      [
        "Ġmiddle",
        -9.62063459123414
      ],
      [
        "With",
        -9.622684402516274
      ],
      [
        "Ġcollection",
        -9.62274929893726
      ],
      [
        "Ġoccurs",
        -9.62419471110394
      ],
      [
        "ence",
        -9.624481568322608
      ],
      [
        "Ġlesson",
        -9.627673821643
      ],
      [
        "Ġrise",
        -9.627802940658288
      ],
      [
        "Do",
        -9.627838280121516
      ],
      [
        "Ġthus",
        -9.628465424104265
      ],
      [
        "ĠâĢľ",
        -9.628587572342871
      ],
      [
        "Ġphase",
        -9.630501373534791
      ],
      [
        "Ġvirus",
        -9.630538802776432
      ],
      [
        "Ġnational",
        -9.630796247007352
      ],
      [
        "water",
        -9.631915448116883
      ],
      [
        "Ġwonder",
        -9.632102757327882
      ],
      [
        "ĠFirst",
        -9.632692232139874
      ],
      [
        "Ġbackground",
        -9.632737300524068
      ],
      [
        "Ġoxygen",
        -9.632910384053393
      ],
      [
        "Ġeducational",
        -9.633934586265369
      ],
      [
        "Ġestimate",
        -9.634261732209342
      ],
      [
        "-up",
        -9.634771952732148
      ],
      [
        "Ġthermal",
        -9.635905098455822
      ],
      [
        "Ġflight",
        -9.63671190105268
      ],
      [
        "Ġround",
        -9.637381597226495
      ],
      [
        "Ġcentury",
        -9.637534355200284
      ],
      [
        "Ġbasi",
        -9.637693855326235
      ],
      [
        "Ġintroduce",
        -9.638262792273258
      ],
      [
        "Ġsecurity",
        -9.638522678739047
      ],
      [
        "Ġvia",
        -9.638805107267103
      ],
      [
        "all",
        -9.638967335347374
      ],
      [
        "Ġorganism",
        -9.639816312465443
      ],
      [
        "Ġdepth",
        -9.640858499304438
      ],
      [
        "aught",
        -9.642097748744163
      ],
      [
        "Ġframe",
        -9.642242195850589
      ],
      [
        "Ġaffected",
        -9.642602588234457
      ],
      [
        "Ġconsistent",
        -9.64523311394146
      ],
      [
        "Ġdental",
        -9.645390964741818
      ],
      [
        "Ġcompound",
        -9.647404217151124
      ],
      [
        "Ġjoin",
        -9.648846388185332
      ],
      [
        "inches",
        -9.65005498086817
      ],
      [
        "Ġspeak",
        -9.650192199965588
      ],
      [
        "ĠAccording",
        -9.65048310609298
      ],
      [
        "Ġocean",
        -9.650647867114207
      ],
      [
        "ĠThei",
        -9.651147656632752
      ],
      [
        "Ġstand",
        -9.65171001116153
      ],
      [
        "Ġcup",
        -9.652048531173389
      ],
      [
        "Ġcoast",
        -9.652114085056244
      ],
      [
        "Ġreaction",
        -9.653172845620926
      ],
      [
        "no",
        -9.653355429754322
      ],
      [
        "Ġgold",
        -9.653404086172497
      ],
      [
        "Ġreflect",
        -9.654498331924389
      ],
      [
        "haps",
        -9.654736444549574
      ],
      [
        "diabetes",
        -9.65509604960089
      ],
      [
        "Ġnest",
        -9.655385159747762
      ],
      [
        "ĠInstitute",
        -9.655568403336051
      ],
      [
        "Ġmessage",
        -9.655622090103924
      ],
      [
        "Ġletter",
        -9.656084879224224
      ],
      [
        "Ġconsumption",
        -9.658082381471663
      ],
      [
        "Ġmedicine",
        -9.658241226461444
      ],
      [
        "Ġflat",
        -9.659060780767724
      ],
      [
        "Ġobserve",
        -9.659308094316504
      ],
      [
        "Ġflea",
        -9.660257440019578
      ],
      [
        "Ġgreenhouse",
        -9.66029817814801
      ],
      [
        "Ġtexture",
        -9.660608685652418
      ],
      [
        "Ġphone",
        -9.661327831824384
      ],
      [
        "Ġcoming",
        -9.661656034185828
      ],
      [
        "Ġjournal",
        -9.662149042138656
      ],
      [
        "Ġvital",
        -9.665516872127448
      ],
      [
        "Ġegg",
        -9.666419348174234
      ],
      [
        "And",
        -9.66731607372001
      ],
      [
        "Ġreported",
        -9.667349737855307
      ],
      [
        "Ġelement",
        -9.668603211452709
      ],
      [
        "Ġcoat",
        -9.668852079830202
      ],
      [
        "Ġfoot",
        -9.671641002940452
      ],
      [
        "Ġwar",
        -9.672101648595971
      ],
      [
        "âĢĿ",
        -9.672107950306124
      ],
      [
        "Ġdrawing",
        -9.672627131928753
      ],
      [
        "ber",
        -9.672852864272237
      ],
      [
        "Ġsend",
        -9.67615551121201
      ],
      [
        "Ġbright",
        -9.676359245321205
      ],
      [
        "ship",
        -9.677060536592997
      ],
      [
        "Ġfriends",
        -9.67789578896631
      ],
      [
        "ized",
        -9.678328580048548
      ],
      [
        "Some",
        -9.678607789639852
      ],
      [
        "Ġconvert",
        -9.67932138848382
      ],
      [
        "Ġdrain",
        -9.681210738723504
      ],
      [
        "Ġappearance",
        -9.682635139539812
      ],
      [
        "Ġfluid",
        -9.683099977309489
      ],
      [
        "Ġexpress",
        -9.684060500915724
      ],
      [
        "Ġmouth",
        -9.684301523937286
      ],
      [
        "Ġplate",
        -9.685284659760343
      ],
      [
        "Ġpresen",
        -9.685652115191502
      ],
      [
        "Ġsell",
        -9.68632014584055
      ],
      [
        "held",
        -9.687781101523017
      ],
      [
        "%)",
        -9.68834583125157
      ],
      [
        "ĠOther",
        -9.688584282114125
      ],
      [
        "Ġproperty",
        -9.689199875640716
      ],
      [
        "Ġphoto",
        -9.689272958117456
      ],
      [
        "Ġrain",
        -9.690026047951164
      ],
      [
        "Ġalgorithm",
        -9.69179739499782
      ],
      [
        "Ġdur",
        -9.69227066014478
      ],
      [
        "Ġerror",
        -9.692677301752584
      ],
      [
        "Ġdouble",
        -9.693864865338078
      ],
      [
        "Ġmember",
        -9.694005783283384
      ],
      [
        "Ġbag",
        -9.6943420566236
      ],
      [
        "Ġforest",
        -9.694566922536213
      ],
      [
        "Ġdesire",
        -9.69464325441233
      ],
      [
        "ĠWater",
        -9.69564533783692
      ],
      [
        "Ġexpression",
        -9.6969575250004
      ],
      [
        "Ġcontext",
        -9.697097373348058
      ],
      [
        "Ġvoltage",
        -9.697931888799424
      ],
      [
        "Step",
        -9.698946374479933
      ],
      [
        "ese",
        -9.699421091658577
      ],
      [
        "ok",
        -9.69973445463132
      ],
      [
        "Ġlink",
        -9.69999844280897
      ],
      [
        "Ġcore",
        -9.702382445992438
      ],
      [
        "Ġiron",
        -9.704253716916496
      ],
      [
        "Ġmother",
        -9.704487493267218
      ],
      [
        "Be",
        -9.704641339466155
      ],
      [
        "ĠAre",
        -9.704712477633498
      ],
      [
        "Ġlose",
        -9.705663155694625
      ],
      [
        "Ġfavorite",
        -9.70797615804926
      ],
      [
        "life",
        -9.71318747043956
      ],
      [
        "Ġfamili",
        -9.71367275182176
      ],
      [
        "Whether",
        -9.71406439521288
      ],
      [
        "Ġ#",
        -9.714526584357056
      ],
      [
        "ĠSt",
        -9.716714642199008
      ],
      [
        "Ġinteresting",
        -9.71718947466665
      ],
      [
        "Ġbirth",
        -9.71769384013122
      ],
      [
        "Ġmanufactur",
        -9.718900994386551
      ],
      [
        "Ġtechnologies",
        -9.719031550163752
      ],
      [
        "Ġmid",
        -9.7193733767864
      ],
      [
        "Ġhearing",
        -9.72126710728912
      ],
      [
        "Ġmeaning",
        -9.721391082268909
      ],
      [
        "Ġcombine",
        -9.721528155458458
      ],
      [
        "Ġjourney",
        -9.721613645918191
      ],
      [
        "Ġdriv",
        -9.722645109407184
      ],
      [
        "Ġdiscuss",
        -9.72313189264283
      ],
      [
        "Ġseat",
        -9.723731466498512
      ],
      [
        "Ġbeginning",
        -9.724419824143496
      ],
      [
        "Ġpreference",
        -9.724426641840846
      ],
      [
        "ĠEnglish",
        -9.724662344966296
      ],
      [
        "anyone",
        -9.726400046850983
      ],
      [
        "Ġsaw",
        -9.727127579514129
      ],
      [
        "Ġhands",
        -9.728529293743945
      ],
      [
        "fish",
        -9.728967401689694
      ],
      [
        "Ġadults",
        -9.730196591481224
      ],
      [
        "Ġinvestment",
        -9.730345607424765
      ],
      [
        "Ġcomment",
        -9.731388621039205
      ],
      [
        "Ġimplement",
        -9.735484320925597
      ],
      [
        "Ġtransition",
        -9.735616594806691
      ],
      [
        "ivity",
        -9.735767604353814
      ],
      [
        "ĠIndia",
        -9.73821055562272
      ],
      [
        "Ġoutcome",
        -9.73840575524615
      ],
      [
        "Ġdetermin",
        -9.739097625715011
      ],
      [
        "Ġaren",
        -9.739544315305595
      ],
      [
        "taken",
        -9.741193478238149
      ],
      [
        "older",
        -9.741660079838134
      ],
      [
        "Ġcontroll",
        -9.742672798453878
      ],
      [
        "Ġimprov",
        -9.743806768273071
      ],
      [
        "Ġdistribution",
        -9.743933503043456
      ],
      [
        "Ġsurrounding",
        -9.744058852024583
      ],
      [
        "Ġhuge",
        -9.744150927525972
      ],
      [
        "Ġstation",
        -9.744892327931902
      ],
      [
        "Ġchain",
        -9.744894021358848
      ],
      [
        "Ġfight",
        -9.745102888462489
      ],
      [
        "Y",
        -9.745135098204663
      ],
      [
        "ĠAfrica",
        -9.745280996998266
      ],
      [
        "Ġupper",
        -9.745776428630217
      ],
      [
        "Ġweb",
        -9.746699507891226
      ],
      [
        "Ġchicken",
        -9.747022807721738
      ],
      [
        "Ġcompost",
        -9.747496970303558
      ],
      [
        "Ġspin",
        -9.74841760338212
      ],
      [
        "Ġratio",
        -9.74864098286204
      ],
      [
        "efore",
        -9.749120585844237
      ],
      [
        "-like",
        -9.749254510706322
      ],
      [
        "Ġtrigger",
        -9.749888109119173
      ],
      [
        "Ġgrass",
        -9.750100019784366
      ],
      [
        "Ġpractical",
        -9.751847173459598
      ],
      [
        "Ġclient",
        -9.752512598821887
      ],
      [
        "Ġconcentration",
        -9.755219553266112
      ],
      [
        "Ġlaw",
        -9.755277903028333
      ],
      [
        "Here",
        -9.755319656445629
      ],
      [
        "ĠMake",
        -9.755322192792091
      ],
      [
        "Ġmarine",
        -9.756637499177808
      ],
      [
        "Ġreferr",
        -9.757532422602408
      ],
      [
        "body",
        -9.757934396706544
      ],
      [
        "Ġangle",
        -9.758137964987844
      ],
      [
        "Ġbegan",
        -9.75859951116874
      ],
      [
        "ĠAl",
        -9.759354302580151
      ],
      [
        "Ġdirt",
        -9.760902285612604
      ],
      [
        "Ġpassage",
        -9.760947661526105
      ],
      [
        "Ġextremely",
        -9.761109568543626
      ],
      [
        "Ġmotor",
        -9.761223904003089
      ],
      [
        "Ġwash",
        -9.761623301621746
      ],
      [
        "Ġartist",
        -9.763613342486808
      ],
      [
        "Ġdiamond",
        -9.76406604644086
      ],
      [
        "ĠNOT",
        -9.764145000965025
      ],
      [
        "Ġheight",
        -9.7642067108895
      ],
      [
        "About",
        -9.764301542876767
      ],
      [
        "ĠGerman",
        -9.765501152917276
      ],
      [
        "Ġemploy",
        -9.76710006462957
      ],
      [
        "Ġprivate",
        -9.767158097448872
      ],
      [
        "Ġengage",
        -9.767163363473657
      ],
      [
        "Ġtrain",
        -9.767181211310058
      ],
      [
        "Ġsuit",
        -9.767850740295156
      ],
      [
        "Ġmoistur",
        -9.768301264952074
      ],
      [
        "ĠEven",
        -9.774763162515873
      ],
      [
        "Ġplanet",
        -9.77485931718222
      ],
      [
        "Ġmiles",
        -9.775961964943896
      ],
      [
        "Ġcomfortabl",
        -9.776109279130164
      ],
      [
        "Ġfloor",
        -9.777061117992982
      ],
      [
        "Ġorange",
        -9.777107891375104
      ],
      [
        "ility",
        -9.777714052863487
      ],
      [
        "Ġapp",
        -9.780797712176676
      ],
      [
        "Ġhorse",
        -9.78094049611564
      ],
      [
        "Ġthread",
        -9.781121235941594
      ],
      [
        "Ġsolutions",
        -9.782630612504333
      ],
      [
        "Ġhapp",
        -9.78305758565888
      ],
      [
        "Ġsurger",
        -9.783520687564335
      ],
      [
        "Ġroof",
        -9.784992637944187
      ],
      [
        "ĠUK",
        -9.786597126754415
      ],
      [
        "Ġmanufacturer",
        -9.787440412689072
      ],
      [
        "Ġmedium",
        -9.78821391898062
      ],
      [
        "Ġonto",
        -9.789792076295656
      ],
      [
        "Our",
        -9.789847290289623
      ],
      [
        "Ġexposure",
        -9.790670870973594
      ],
      [
        "friendly",
        -9.794189593303969
      ],
      [
        "$",
        -9.794798036542048
      ],
      [
        "ier",
        -9.794860884742825
      ],
      [
        "Ġtherefor",
        -9.795418670011156
      ],
      [
        "Ġconsumer",
        -9.795779932795837
      ],
      [
        "Ġstates",
        -9.796451706031696
      ],
      [
        "Ġdemonstrate",
        -9.797008150731212
      ],
      [
        "}",
        -9.797646226058449
      ],
      [
        "Ġraw",
        -9.797698005415189
      ],
      [
        "ble",
        -9.797823258573985
      ],
      [
        "Ġpress",
        -9.797843051939326
      ],
      [
        "Ġattempt",
        -9.7987930151537
      ],
      [
        "Ġsteel",
        -9.79926334052708
      ],
      [
        "Ġfinancial",
        -9.799281922393517
      ],
      [
        "No",
        -9.800516529007837
      ],
      [
        "Ġdriver",
        -9.800791492073913
      ],
      [
        "Ġmotion",
        -9.80135498643861
      ],
      [
        "Ġbodie",
        -9.80195135287072
      ],
      [
        "Ġharvest",
        -9.802168532258923
      ],
      [
        "Ġchannel",
        -9.802459969084598
      ],
      [
        "ĠJust",
        -9.803031610855966
      ],
      [
        "Ġsecure",
        -9.803403166734668
      ],
      [
        "ĠTherefor",
        -9.804936651575066
      ],
      [
        "ĠLet",
        -9.805651163066646
      ],
      [
        "Ġcamp",
        -9.807228366407209
      ],
      [
        "Ġplease",
        -9.80735985449302
      ],
      [
        "for",
        -9.807545506435694
      ],
      [
        "Ġabsorb",
        -9.80872031004838
      ],
      [
        "Ġregulation",
        -9.809612858704316
      ],
      [
        "Ġlens",
        -9.811071656898562
      ],
      [
        "Ġsheet",
        -9.81290923188481
      ],
      [
        "tiny",
        -9.813164642844049
      ],
      [
        "Ġcomfort",
        -9.814174018443378
      ],
      [
        "Ġgrain",
        -9.81490382043578
      ],
      [
        "Ġidentified",
        -9.81530072194312
      ],
      [
        "Ġadvi",
        -9.816396600692496
      ],
      [
        "wide",
        -9.816474304389477
      ],
      [
        "Ġbudget",
        -9.816875664889055
      ],
      [
        "Ġtube",
        -9.817863589226636
      ],
      [
        "Ġcapture",
        -9.818248069245003
      ],
      [
        "Ġrecipe",
        -9.820002607539362
      ],
      [
        "Ġsustain",
        -9.82067815942678
      ],
      [
        "Ġinternal",
        -9.820770239867931
      ],
      [
        "Ġformula",
        -9.821531762784993
      ],
      [
        "ĠSince",
        -9.82294840845957
      ],
      [
        "Ġriver",
        -9.82482655346363
      ],
      [
        "Ġcommercial",
        -9.825615736762868
      ],
      [
        "Ġgrade",
        -9.825803382979634
      ],
      [
        "Ġstock",
        -9.825832127048058
      ],
      [
        "Ġfriend",
        -9.825936095432109
      ],
      [
        "Ġupdate",
        -9.82666161136695
      ],
      [
        "Ġmin",
        -9.82806133636202
      ],
      [
        "Ġbillion",
        -9.829687443606437
      ],
      [
        "Ġannual",
        -9.829840935533923
      ],
      [
        "Ġapproximate",
        -9.831369473754062
      ],
      [
        "Ġclinical",
        -9.83164372417472
      ],
      [
        "ĠEuropean",
        -9.8317159506896
      ],
      [
        "Ġmedication",
        -9.832027387654144
      ],
      [
        "Ġrace",
        -9.833259138730044
      ],
      [
        "ĠHigh",
        -9.833592097271543
      ],
      [
        "Ġtoilet",
        -9.83549062231548
      ],
      [
        "Ġatmosphere",
        -9.835517061955509
      ],
      [
        "Ġancient",
        -9.835587017349154
      ],
      [
        "-year",
        -9.83564311924766
      ],
      [
        "Ġhunt",
        -9.835844192288947
      ],
      [
        "Ġsociet",
        -9.835990289465997
      ],
      [
        "They",
        -9.836565571670072
      ],
      [
        "Ġalthough",
        -9.837339919096896
      ],
      [
        "Ġsession",
        -9.839073820634129
      ],
      [
        "Ġboat",
        -9.84223206265533
      ],
      [
        "ĠBlue",
        -9.842308056390308
      ],
      [
        "Ġelectron",
        -9.844379313996091
      ],
      [
        "After",
        -9.845523725012892
      ],
      [
        "ĠUn",
        -9.845662409328192
      ],
      [
        "Ġweld",
        -9.84597910247298
      ],
      [
        "Ġselection",
        -9.845999625107156
      ],
      [
        "Ġdrink",
        -9.846413864939557
      ],
      [
        "Ġdynamic",
        -9.846434432058423
      ],
      [
        "Ġnative",
        -9.846556202602288
      ],
      [
        "Ġpredict",
        -9.846981513554226
      ],
      [
        "Ġcrack",
        -9.847328699869736
      ],
      [
        "Ġcomput",
        -9.847829017200242
      ],
      [
        "ant",
        -9.848429767273377
      ],
      [
        "Ġblog",
        -9.848473471179382
      ],
      [
        "Ġremov",
        -9.848708546649206
      ],
      [
        "Ġstuff",
        -9.848720792330631
      ],
      [
        "Ġhit",
        -9.84879833710136
      ],
      [
        "Ġdie",
        -9.849215607524467
      ],
      [
        "Ġdrop",
        -9.850616986608864
      ],
      [
        "Ġnumerous",
        -9.850632025423351
      ],
      [
        "Ġreliabl",
        -9.850659749477302
      ],
      [
        "Ġprogress",
        -9.85086274824073
      ],
      [
        "Ġprefer",
        -9.852136011473874
      ],
      [
        "Ġgadget",
        -9.8537666157591
      ],
      [
        "Ġ|",
        -9.853821074673672
      ],
      [
        "Ġmiss",
        -9.854487810492056
      ],
      [
        "Ġsquare",
        -9.854726931299512
      ],
      [
        "Ġsit",
        -9.855178013270663
      ],
      [
        "Ġmechanical",
        -9.856943011361803
      ],
      [
        "Ġearlier",
        -9.857317944034213
      ],
      [
        "Ġball",
        -9.857727683202937
      ],
      [
        "Ġdivers",
        -9.858787435983162
      ],
      [
        "ĠCalifornia",
        -9.861337416337935
      ],
      [
        "li",
        -9.862718413974294
      ],
      [
        "-in",
        -9.862816278652913
      ],
      [
        "time",
        -9.863038153350791
      ],
      [
        "Ġassess",
        -9.863103597942509
      ],
      [
        "Ġmap",
        -9.864192264207922
      ],
      [
        "ĠGreat",
        -9.86492565188992
      ],
      [
        "Ġrid",
        -9.8652612158511
      ],
      [
        "Ġclimb",
        -9.866107472481865
      ],
      [
        "Ġclick",
        -9.866991012184425
      ],
      [
        "Ġpollution",
        -9.86731549541796
      ],
      [
        "Ġmembrane",
        -9.867603369838877
      ],
      [
        "Ġassist",
        -9.86831026836601
      ],
      [
        "ĠYork",
        -9.86839918639292
      ],
      [
        "Ġmaximum",
        -9.86971928874772
      ],
      [
        "Ġdead",
        -9.870776113207848
      ],
      [
        "Ġstatement",
        -9.870919151403797
      ],
      [
        "Ġfailure",
        -9.872795990768868
      ],
      [
        "Ġmuscles",
        -9.872973892143436
      ],
      [
        "Ġstain",
        -9.873053063712508
      ],
      [
        "Ġsupplement",
        -9.873086739635696
      ],
      [
        "ĠOver",
        -9.87419357598212
      ],
      [
        "Ġroots",
        -9.876539307837916
      ],
      [
        "Ġroutine",
        -9.876728525256134
      ],
      [
        "Ġport",
        -9.876908860779924
      ],
      [
        "ĠWell",
        -9.878111785815172
      ],
      [
        "Ġconsume",
        -9.8788484539645
      ],
      [
        "properly",
        -9.879604982563777
      ],
      [
        "ten",
        -9.88000964705343
      ],
      [
        "Ġpanels",
        -9.880896749519591
      ],
      [
        "Ġobvious",
        -9.88294306937672
      ],
      [
        "Ġsymbol",
        -9.883253555104954
      ],
      [
        "Ġsounds",
        -9.88365933883567
      ],
      [
        "Ġcheap",
        -9.886817707817412
      ],
      [
        "Ġstaff",
        -9.888914520951886
      ],
      [
        "Ġformat",
        -9.890087626401243
      ],
      [
        "ĠLos",
        -9.89081233793293
      ],
      [
        "ĠDesign",
        -9.89098924691198
      ],
      [
        "Ġcreative",
        -9.891705677608757
      ],
      [
        "Ġtransfer",
        -9.892314703437846
      ],
      [
        "Ġindependent",
        -9.896776872692485
      ],
      [
        "ĠArabia",
        -9.896928563228713
      ],
      [
        "Ġclasse",
        -9.89810706385558
      ],
      [
        "Ġthick",
        -9.89819810517274
      ],
      [
        "Ġvs",
        -9.898786525683116
      ],
      [
        "Ġgrown",
        -9.89955451903801
      ],
      [
        "ĠFrench",
        -9.90050451972427
      ],
      [
        "Ġattach",
        -9.901562102941206
      ],
      [
        "Ġprogramm",
        -9.901676266319566
      ],
      [
        "Ġscene",
        -9.902099795296955
      ],
      [
        "ĠDepartment",
        -9.90260990546209
      ],
      [
        "Ġcentral",
        -9.903225527689386
      ],
      [
        "Ġdetailed",
        -9.90458205697981
      ],
      [
        "Ġcoffee",
        -9.905831736942144
      ],
      [
        "Ġnice",
        -9.90584320087573
      ],
      [
        "Ġdivide",
        -9.906420389703172
      ],
      [
        "Ġtrial",
        -9.908098618406717
      ],
      [
        "Ġfunctions",
        -9.90860093474924
      ],
      [
        "Ġbottle",
        -9.908618290239543
      ],
      [
        "Ġthin",
        -9.909192390546655
      ],
      [
        "Ġaircraft",
        -9.909380555383429
      ],
      [
        "Ġtransport",
        -9.909381871353103
      ],
      [
        "ĠDur",
        -9.909940772234744
      ],
      [
        "Ġfacilit",
        -9.91152928523552
      ],
      [
        "Ġdecisions",
        -9.91257734773888
      ],
      [
        "Ġcloth",
        -9.912927361479092
      ],
      [
        "Ġengineering",
        -9.913063115199208
      ],
      [
        "Ġaware",
        -9.913966336378008
      ],
      [
        "Ġemergenc",
        -9.914037323321216
      ],
      [
        "Ġgames",
        -9.914540513985129
      ],
      [
        "Ġrocks",
        -9.91461689646392
      ],
      [
        "il",
        -9.914950622252128
      ],
      [
        "Ġindustrial",
        -9.915086456017749
      ],
      [
        "Are",
        -9.915350900267777
      ],
      [
        "Ġshell",
        -9.915458262979428
      ],
      [
        "Ġfashion",
        -9.915629638934302
      ],
      [
        "Ġbroad",
        -9.91762326080196
      ],
      [
        "Ġexamine",
        -9.918346549523685
      ],
      [
        "wise",
        -9.920460930944309
      ],
      [
        "ge",
        -9.922103111016389
      ],
      [
        "Ġmovie",
        -9.92374897774807
      ],
      [
        "Ġeventual",
        -9.924233533265538
      ],
      [
        "Ġhelpful",
        -9.924788798962355
      ],
      [
        "That",
        -9.92530530146896
      ],
      [
        "Ġfan",
        -9.925339190733284
      ],
      [
        "Ġartificial",
        -9.926122839019053
      ],
      [
        "Ġlisten",
        -9.926426264945546
      ],
      [
        "Ġprepared",
        -9.927383621435103
      ],
      [
        "Ġprepare",
        -9.927792917460415
      ],
      [
        "alone",
        -9.92872308628162
      ],
      [
        "ĠEvery",
        -9.929553859072772
      ],
      [
        "Ġsweet",
        -9.929868348150062
      ],
      [
        "ily",
        -9.929889824767574
      ],
      [
        "Ġpuppy",
        -9.931228482315918
      ],
      [
        "Ġconclusion",
        -9.93211350257324
      ],
      [
        "Ġcomprehensive",
        -9.93235615955249
      ],
      [
        "Ġprecise",
        -9.932399210373726
      ],
      [
        "ĠEurope",
        -9.93253154420227
      ],
      [
        "Ġwalls",
        -9.932581013072046
      ],
      [
        "ĠDay",
        -9.932691105018108
      ],
      [
        "Ġcultural",
        -9.933539772514353
      ],
      [
        "ate",
        -9.933652597134463
      ],
      [
        "Ġmelt",
        -9.933661003907034
      ],
      [
        "ĠJuly",
        -9.935862686446498
      ],
      [
        "Ġcontrast",
        -9.936061077514893
      ],
      [
        "Ġformation",
        -9.936808989144964
      ],
      [
        "Ġoptimal",
        -9.936826497739254
      ],
      [
        "pril",
        -9.93736416139724
      ],
      [
        "Ġinterface",
        -9.9389277165748
      ],
      [
        "ĠHave",
        -9.939369098619268
      ],
      [
        "Ġbooks",
        -9.94080419546233
      ],
      [
        "Ġanxiet",
        -9.940917829945375
      ],
      [
        "Ġextensive",
        -9.942360598016696
      ],
      [
        "Ġradio",
        -9.942416861140044
      ],
      [
        "Ġpack",
        -9.942426665909668
      ],
      [
        "Ġindoor",
        -9.943178697781423
      ],
      [
        "Ġstories",
        -9.943347844796396
      ],
      [
        "Ġborn",
        -9.943378872031053
      ],
      [
        "Ġschedule",
        -9.943573951194931
      ],
      [
        "ĠAir",
        -9.943592425968088
      ],
      [
        "Ġvertical",
        -9.94376096038159
      ],
      [
        "Ġnamed",
        -9.94408472319557
      ],
      [
        "Ġdoor",
        -9.944188261546143
      ],
      [
        "ĠAustralia",
        -9.944846053191895
      ],
      [
        "Ġsurvey",
        -9.94578583664707
      ],
      [
        "Ġnation",
        -9.945853132132836
      ],
      [
        "go",
        -9.94652420875868
      ],
      [
        "Ġagree",
        -9.949622635724005
      ],
      [
        "ĠJune",
        -9.950786395044968
      ],
      [
        "Ġsubstance",
        -9.95084013936409
      ],
      [
        "Ġcable",
        -9.953146917010097
      ],
      [
        "ĠBlack",
        -9.954106562504876
      ],
      [
        "ĠFood",
        -9.955626908957145
      ],
      [
        "j",
        -9.955768084337944
      ],
      [
        "Ġheal",
        -9.956038602392107
      ],
      [
        "Ġhistorical",
        -9.957427969716704
      ],
      [
        "Ġmaster",
        -9.957832841293406
      ],
      [
        "Ġteach",
        -9.95799907010993
      ],
      [
        "ring",
        -9.95918215702706
      ],
      [
        "Ġultimate",
        -9.959650476127234
      ],
      [
        "Ġcontinuous",
        -9.95969025650732
      ],
      [
        "Ġobjective",
        -9.960061255155637
      ],
      [
        "Ġcreation",
        -9.960922439119212
      ],
      [
        "Ġhighlight",
        -9.960998210760472
      ],
      [
        "Ġsurvive",
        -9.961946194851166
      ],
      [
        "low",
        -9.962581046913431
      ],
      [
        "Ġdrug",
        -9.962846919285624
      ],
      [
        "Ġchronic",
        -9.962906152711032
      ],
      [
        "Ġkitchen",
        -9.96314872492534
      ],
      [
        "Ġradiation",
        -9.963179736377649
      ],
      [
        "Ġexposed",
        -9.963536749258834
      ],
      [
        "All",
        -9.963993643167235
      ],
      [
        "Ġpound",
        -9.964616784620956
      ],
      [
        "Ġrelevan",
        -9.966221766067992
      ],
      [
        "Ġcredit",
        -9.968031861406391
      ],
      [
        "Ġdrugs",
        -9.96819684101948
      ],
      [
        "Ġemotional",
        -9.968674565532387
      ],
      [
        "ĠOnc",
        -9.969359995810676
      ],
      [
        "Ġoperate",
        -9.96973251512476
      ],
      [
        "ical",
        -9.970465253116584
      ],
      [
        "Ġextreme",
        -9.971039089462971
      ],
      [
        "ĠTime",
        -9.971865874129987
      ],
      [
        "ĠDoes",
        -9.97259660000844
      ],
      [
        "Ġfoundation",
        -9.97279958540813
      ],
      [
        "Ġfarmer",
        -9.973006007810708
      ],
      [
        "Ġoffice",
        -9.973275960229657
      ],
      [
        "Ġmeeting",
        -9.97560902756246
      ],
      [
        "ĠSea",
        -9.975749191620787
      ],
      [
        "Ġexhibit",
        -9.97598394084701
      ],
      [
        "ma",
        -9.976094226681852
      ],
      [
        "Ġcard",
        -9.976765338966842
      ],
      [
        "Ġallerg",
        -9.977207945975776
      ],
      [
        "ul",
        -9.977218592122364
      ],
      [
        "Ġbidet",
        -9.977258323769169
      ],
      [
        "Ġstraight",
        -9.977524616815275
      ],
      [
        "ible",
        -9.97860124650026
      ],
      [
        "Ġtrust",
        -9.978674834014008
      ],
      [
        "Ġyield",
        -9.980815240678798
      ],
      [
        "Ġhormone",
        -9.98103374422628
      ],
      [
        "Ġsaving",
        -9.981064747756571
      ],
      [
        "Ġvirtual",
        -9.98146721986314
      ],
      [
        "Ġapparatus",
        -9.981554063710348
      ],
      [
        "J",
        -9.98236980723659
      ],
      [
        "Ġsmart",
        -9.982400512347889
      ],
      [
        "ĠDon",
        -9.982727545395829
      ],
      [
        "Ġskill",
        -9.983458358862178
      ],
      [
        "Ġcatch",
        -9.983525726302355
      ],
      [
        "Ġthreat",
        -9.984201570721684
      ],
      [
        "Ġpipe",
        -9.984393802642211
      ],
      [
        "||",
        -9.9844866341277
      ],
      [
        "Ġexternal",
        -9.984779793990835
      ],
      [
        "Ġpest",
        -9.985435757891224
      ],
      [
        "Ġengineer",
        -9.985799156005092
      ],
      [
        "Ġbank",
        -9.986011378698189
      ],
      [
        "Ġpool",
        -9.986309197520688
      ],
      [
        "Ġevolution",
        -9.987247189991924
      ],
      [
        "ard",
        -9.987298045829654
      ],
      [
        "ĠJohn",
        -9.987342872894596
      ],
      [
        "ĠIsrael",
        -9.987899075541703
      ],
      [
        "Ġopinion",
        -9.98797093898314
      ],
      [
        "Ġsmell",
        -9.987974573756842
      ],
      [
        "Ġsector",
        -9.988049605403866
      ],
      [
        "Ġdangerous",
        -9.988088035058407
      ],
      [
        "Ġstrain",
        -9.98876188658122
      ],
      [
        "related",
        -9.989016468714778
      ],
      [
        "].",
        -9.989804064124415
      ],
      [
        "Ġeconom",
        -9.991496798198234
      ],
      [
        "Ġfear",
        -9.991583015564776
      ],
      [
        "Ġoccurr",
        -9.991596645820737
      ],
      [
        "-free",
        -9.992125994460768
      ],
      [
        "oxide",
        -9.992239589257483
      ],
      [
        "ĠChina",
        -9.992312148659586
      ],
      [
        "Ġtechnical",
        -9.992754277615813
      ],
      [
        "Ġfly",
        -9.993364103382955
      ],
      [
        "Ġlitera",
        -9.993377247316165
      ],
      [
        "Ġinjury",
        -9.993827023110438
      ],
      [
        "Ġpossibilit",
        -9.995178208088388
      ],
      [
        "Ġpainting",
        -9.996184705366764
      ],
      [
        "Ġargument",
        -9.996294358698304
      ],
      [
        "aging",
        -9.996627207772397
      ],
      [
        "Ġbar",
        -9.998150013889184
      ],
      [
        "Ġsolve",
        -9.998386288208003
      ],
      [
        "Ġplent",
        -9.998806706553973
      ],
      [
        "Ġessay",
        -9.998933606340591
      ],
      [
        "Ġlab",
        -10.001072943385502
      ],
      [
        "Ġsupplie",
        -10.001857830016634
      ],
      [
        "Ġoffering",
        -10.003028165435378
      ],
      [
        "co",
        -10.003670721892814
      ],
      [
        "are",
        -10.004019176521098
      ],
      [
        "Ġrespect",
        -10.00570362556964
      ],
      [
        "Ġinvest",
        -10.006178561033064
      ],
      [
        "Ġhousehold",
        -10.006246488587765
      ],
      [
        "kept",
        -10.006392167295278
      ],
      [
        "Ġdensity",
        -10.007552737290888
      ],
      [
        "Ġtri",
        -10.00775891783876
      ],
      [
        "Ġaccident",
        -10.008907993620738
      ],
      [
        "Ġmagnetic",
        -10.00898857279538
      ],
      [
        "Ġbeneficia",
        -10.009886712204633
      ],
      [
        "ĠSept",
        -10.010713768186598
      ],
      [
        "Ġship",
        -10.011525300912268
      ],
      [
        "work",
        -10.011953464465702
      ],
      [
        "Ġchoos",
        -10.012135107034815
      ],
      [
        "Ġcareer",
        -10.013123504900786
      ],
      [
        "Ġrespond",
        -10.01339711362874
      ],
      [
        "coming",
        -10.01363237442986
      ],
      [
        "Ġdiscussion",
        -10.01450851589263
      ],
      [
        "Ġoutdoor",
        -10.014690015868124
      ],
      [
        "Ġroll",
        -10.01547291179389
      ],
      [
        "Ġlandscape",
        -10.017973934807085
      ],
      [
        "ĠInternational",
        -10.020590938797966
      ],
      [
        "Ġlay",
        -10.02148102369176
      ],
      [
        "Ġtru",
        -10.02154946036766
      ],
      [
        "ĠRiver",
        -10.021620930351924
      ],
      [
        "Ġspeaker",
        -10.02432351030723
      ],
      [
        "Ġdomain",
        -10.024735045059344
      ],
      [
        "Ġisland",
        -10.025118474492793
      ],
      [
        "ĠService",
        -10.025313432423928
      ],
      [
        "Ġplane",
        -10.026462062228443
      ],
      [
        "Ġwindow",
        -10.026525295557368
      ],
      [
        "Ġrough",
        -10.027500390947534
      ],
      [
        "facing",
        -10.028613000245414
      ],
      [
        "way",
        -10.029061905404411
      ],
      [
        "Ġink",
        -10.030479227227556
      ],
      [
        "ĠHouse",
        -10.03062393426334
      ],
      [
        "Ġhabitat",
        -10.030944166265328
      ],
      [
        "ĠDog",
        -10.031337586939122
      ],
      [
        "Ġbear",
        -10.03194338450033
      ],
      [
        "Ġintelligence",
        -10.032022399076556
      ],
      [
        "Ġvoice",
        -10.032992929889131
      ],
      [
        "ĠProgram",
        -10.033735463118644
      ],
      [
        "ĠWest",
        -10.035127628096388
      ],
      [
        "Ġconservation",
        -10.03546125986714
      ],
      [
        "Ġparticipant",
        -10.035774063287397
      ],
      [
        "Ġcheese",
        -10.035939649038887
      ],
      [
        "Ġdecades",
        -10.0362980243949
      ],
      [
        "dium",
        -10.03633440452472
      ],
      [
        "ĠPhoto",
        -10.036590083554458
      ],
      [
        "ĠKeep",
        -10.036817459577469
      ],
      [
        "Ġchose",
        -10.037121803174164
      ],
      [
        "Ġseven",
        -10.037162147145963
      ],
      [
        "Ġtold",
        -10.038790933140366
      ],
      [
        "{",
        -10.038836760394004
      ],
      [
        "Ġsuper",
        -10.039140784926207
      ],
      [
        "Ġvariation",
        -10.03975115547827
      ],
      [
        "Ġacademic",
        -10.04034783937606
      ],
      [
        "Ġstatus",
        -10.04040272243986
      ],
      [
        "Ġatom",
        -10.043431245725484
      ],
      [
        "ĠPark",
        -10.04358895924489
      ],
      [
        "Ġconfirm",
        -10.043846307577926
      ],
      [
        "Ġpercentage",
        -10.044612619680116
      ],
      [
        "Ġlabel",
        -10.044641959277913
      ],
      [
        "am",
        -10.045216733192888
      ],
      [
        "Ġmeal",
        -10.045580684422546
      ],
      [
        "ification",
        -10.0456910524979
      ],
      [
        "ĠStudent",
        -10.046808199128431
      ],
      [
        "Ġvessel",
        -10.0471385799914
      ],
      [
        "Ġmicrowave",
        -10.047309004579262
      ],
      [
        "Ġlifestyle",
        -10.047312723088965
      ],
      [
        "Ġcomposition",
        -10.047408949945684
      ],
      [
        "Ġbutton",
        -10.048295676091955
      ],
      [
        "Ġprey",
        -10.04835396999071
      ],
      [
        "Ġlaunch",
        -10.049041162852731
      ],
      [
        "Ġcit",
        -10.049260310024652
      ],
      [
        "Ġhomes",
        -10.049721236016223
      ],
      [
        "Ġconstruct",
        -10.050759790556132
      ],
      [
        "Ġtransform",
        -10.051119680629988
      ],
      [
        "Ġcapabilit",
        -10.051279438220032
      ],
      [
        "ĠGod",
        -10.05190255566268
      ],
      [
        "Ġmeter",
        -10.053165761668588
      ],
      [
        "Ġbecom",
        -10.053640807748884
      ],
      [
        "Ġchallenging",
        -10.054928706625432
      ],
      [
        "Ġcombin",
        -10.055675522818456
      ],
      [
        "Ġequation",
        -10.055718623253927
      ],
      [
        "Ġfirm",
        -10.056081610125824
      ],
      [
        "ĠArt",
        -10.058638069710248
      ],
      [
        "Ġadopt",
        -10.05883151434747
      ],
      [
        "ĠMarch",
        -10.059332972260634
      ],
      [
        "ĠCanada",
        -10.059339161267909
      ],
      [
        "Ġaudio",
        -10.061001982702455
      ],
      [
        "ley",
        -10.06163225717622
      ],
      [
        "Ġprimari",
        -10.06192918891416
      ],
      [
        "Ġfossil",
        -10.062637019783438
      ],
      [
        "Ġdesir",
        -10.062710124048614
      ],
      [
        "Ġgenerator",
        -10.062746117239463
      ],
      [
        "Ġinstallation",
        -10.06315366916014
      ],
      [
        "Ġincreases",
        -10.06317976400158
      ],
      [
        "Ġreceiv",
        -10.06481698482035
      ],
      [
        "Ġpets",
        -10.065268859569125
      ],
      [
        "Ġorigin",
        -10.065407797316118
      ],
      [
        "According",
        -10.065890823330722
      ],
      [
        "Ġchamber",
        -10.066890355377748
      ],
      [
        "Ġsex",
        -10.06692379040512
      ],
      [
        "Ġtail",
        -10.06702698749528
      ],
      [
        "-time",
        -10.067147394942058
      ],
      [
        "Ġdivision",
        -10.06717498497127
      ],
      [
        "Ġgut",
        -10.069561198423164
      ],
      [
        "Ġsaying",
        -10.069940092852274
      ],
      [
        "ĠEducation",
        -10.069969004808904
      ],
      [
        "ĠCount",
        -10.070437053362962
      ],
      [
        "Ġlegal",
        -10.07064119059208
      ],
      [
        "Ġbreast",
        -10.070642912469506
      ],
      [
        "/or",
        -10.07092940036024
      ],
      [
        "Ġdut",
        -10.070940358402458
      ],
      [
        "ĠCo",
        -10.071788819145944
      ],
      [
        "ĠLook",
        -10.072807802183052
      ],
      [
        "Ġweigh",
        -10.07371922167188
      ],
      [
        "Ġquantit",
        -10.07381146751556
      ],
      [
        "Answer",
        -10.073905246773007
      ],
      [
        "Most",
        -10.073942393306329
      ],
      [
        "Ġbak",
        -10.074178978777178
      ],
      [
        "More",
        -10.074296914637934
      ],
      [
        "Ġagent",
        -10.07539001076664
      ],
      [
        "Ġtight",
        -10.07573290753444
      ],
      [
        "Ġdistribute",
        -10.076633850193216
      ],
      [
        "Ġhospital",
        -10.077368921958971
      ],
      [
        "ĠBot",
        -10.077458738645191
      ],
      [
        "Ġrealize",
        -10.077606788807731
      ],
      [
        "Ġhumid",
        -10.078060619245155
      ],
      [
        "Ġbinocular",
        -10.0780911679802
      ],
      [
        "Ġnerve",
        -10.078111547067076
      ],
      [
        "Ġvisibl",
        -10.078159592640269
      ],
      [
        "Ġchocolate",
        -10.078646600132013
      ],
      [
        "Ġpolicy",
        -10.0800228838643
      ],
      [
        "Ġseek",
        -10.080042856481713
      ],
      [
        "Ġsituations",
        -10.081110027936024
      ],
      [
        "Ġpark",
        -10.081847253852288
      ],
      [
        "Ġsteam",
        -10.081952774489212
      ],
      [
        "which",
        -10.081953772278156
      ],
      [
        "ĠZ",
        -10.08278300736768
      ],
      [
        "|",
        -10.083008070464416
      ],
      [
        "ĠFurther",
        -10.083023115952516
      ],
      [
        "Ġmold",
        -10.083957803285571
      ],
      [
        "Ġlie",
        -10.084030871495193
      ],
      [
        "formed",
        -10.08413684403513
      ],
      [
        "Onc",
        -10.084301403507306
      ],
      [
        "Ġdish",
        -10.084322885915842
      ],
      [
        "Ġbrough",
        -10.084730519767255
      ],
      [
        "Ġattract",
        -10.08533536642582
      ],
      [
        "Ġthorough",
        -10.085977593498008
      ],
      [
        "Ġinnovation",
        -10.086142091154912
      ],
      [
        "Ġcalci",
        -10.086571157011264
      ],
      [
        "Ġconcrete",
        -10.087140800720864
      ],
      [
        "Ġaudience",
        -10.087179051138753
      ],
      [
        "Ġcream",
        -10.087672952429031
      ],
      [
        "Ġstable",
        -10.08778163554566
      ],
      [
        "Ġdust",
        -10.08856860369162
      ],
      [
        "Ġrenewable",
        -10.089190399490109
      ],
      [
        "Ġbrush",
        -10.090715575803126
      ],
      [
        "Ġgirl",
        -10.091024355246208
      ],
      [
        "ha",
        -10.09150753405017
      ],
      [
        "Ġfertilizer",
        -10.09163007440906
      ],
      [
        "ĠJanuary",
        -10.09263055806479
      ],
      [
        "Ġremote",
        -10.094271497802175
      ],
      [
        "Ġmorning",
        -10.094274941909266
      ],
      [
        "Ġevolve",
        -10.094354495642998
      ],
      [
        "Ġmixture",
        -10.09459589601082
      ],
      [
        "Ġbutter",
        -10.095393420533703
      ],
      [
        "ĠKing",
        -10.09577014379692
      ],
      [
        "Ġpot",
        -10.097341108139332
      ],
      [
        "Ġowners",
        -10.098426601299035
      ],
      [
        "ĠGuide",
        -10.09861733126391
      ],
      [
        "Ġinfections",
        -10.098646530500003
      ],
      [
        "Ġimprovement",
        -10.098866937014725
      ],
      [
        "Ġplanting",
        -10.098875959590552
      ],
      [
        "Ġraise",
        -10.098976118310569
      ],
      [
        "Ġassessment",
        -10.099177955720595
      ],
      [
        "Ġsuffer",
        -10.099550113314391
      ],
      [
        "Ġshar",
        -10.099880449115734
      ],
      [
        "Ġlinked",
        -10.099910780810609
      ],
      [
        "uary",
        -10.100130537818556
      ],
      [
        "Ġdecide",
        -10.100732915492603
      ],
      [
        "Ġleaving",
        -10.101947746709634
      ],
      [
        "Ġevaluate",
        -10.102571456388644
      ],
      [
        "Ġ\\",
        -10.10263757764722
      ],
      [
        "ĠDec",
        -10.103369532461905
      ],
      [
        "Your",
        -10.103806813257838
      ],
      [
        "Ġseal",
        -10.10398917601405
      ],
      [
        "Ġemail",
        -10.104351459181022
      ],
      [
        "Ġpure",
        -10.105909194462686
      ],
      [
        "Ġspen",
        -10.106038574091135
      ],
      [
        "Ġcloser",
        -10.106530950402188
      ],
      [
        "ĠAdd",
        -10.106843636557045
      ],
      [
        "Ġband",
        -10.107909672165036
      ],
      [
        "Ġminimize",
        -10.109209286585664
      ],
      [
        "ĠTechnolog",
        -10.109579626103503
      ],
      [
        "ĠIndian",
        -10.109755260932197
      ],
      [
        "Ġinflammation",
        -10.110031635347394
      ],
      [
        "Ġrobot",
        -10.110055434551027
      ],
      [
        "Ġdecided",
        -10.11015057973741
      ],
      [
        "Ġreduction",
        -10.110187245198231
      ],
      [
        "Ġstroke",
        -10.111550273697013
      ],
      [
        "Ġshoes",
        -10.11239790244116
      ],
      [
        "ĠGreen",
        -10.1125263208658
      ],
      [
        "Ġfundamental",
        -10.113883039773036
      ],
      [
        "Ġuniverse",
        -10.114093009157992
      ],
      [
        "Ġamazing",
        -10.114095937786733
      ],
      [
        "Ġheavi",
        -10.114173550474597
      ],
      [
        "Ġcalculate",
        -10.11565325317903
      ],
      [
        "Ġlift",
        -10.116136679796746
      ],
      [
        "Yes",
        -10.117765893145526
      ],
      [
        "ling",
        -10.118496948291485
      ],
      [
        "Ġlenses",
        -10.118554843698496
      ],
      [
        "Ġguy",
        -10.118635353435437
      ],
      [
        "Ġca",
        -10.119380927351353
      ],
      [
        "Ġcommunicate",
        -10.120988056834635
      ],
      [
        "Ġemotion",
        -10.121085015664644
      ],
      [
        "wareness",
        -10.121386615272447
      ],
      [
        "ĠBrit",
        -10.122293378476984
      ],
      [
        "Ġdefinition",
        -10.123411754112745
      ],
      [
        "Ġapart",
        -10.12409984957543
      ],
      [
        "Ġconsideration",
        -10.124856389272685
      ],
      [
        "^",
        -10.12570967617322
      ],
      [
        "Ġcommitment",
        -10.126424538493698
      ],
      [
        "Ġincredibl",
        -10.126540407382466
      ],
      [
        "Ġpropose",
        -10.126613308884757
      ],
      [
        "rote",
        -10.126647192700169
      ],
      [
        "Ġbill",
        -10.127382454287591
      ],
      [
        "Ġwheel",
        -10.1276484451641
      ],
      [
        "Ġarm",
        -10.12963750034156
      ],
      [
        "Ġspray",
        -10.1305239604323
      ],
      [
        "Ġclassroom",
        -10.13056927306872
      ],
      [
        "Ġlarges",
        -10.13195297216455
      ],
      [
        "Ġbroken",
        -10.132109528353698
      ],
      [
        "Ġtoxic",
        -10.133032697341427
      ],
      [
        "Ġattend",
        -10.133381962086112
      ],
      [
        "Ġsensitive",
        -10.133764663054718
      ],
      [
        "Ġvaccine",
        -10.134968764496405
      ],
      [
        "ĠIsland",
        -10.135016742241856
      ],
      [
        "Ġhabits",
        -10.135066427074538
      ],
      [
        "Ġguideline",
        -10.1355724314167
      ],
      [
        "Ġzone",
        -10.135618242922636
      ],
      [
        "what",
        -10.13609330969282
      ],
      [
        "Ġpowder",
        -10.13624054704534
      ],
      [
        "ng",
        -10.138092458860648
      ],
      [
        "Ġinteract",
        -10.138460511387628
      ],
      [
        "Ġvi",
        -10.138560222582717
      ],
      [
        "Ġneuron",
        -10.1393293824184
      ],
      [
        "Ġrear",
        -10.13949949100046
      ],
      [
        "He",
        -10.140014691842923
      ],
      [
        "ball",
        -10.140411465107654
      ],
      [
        "Ġshade",
        -10.141117706691103
      ],
      [
        "Re",
        -10.143102750317484
      ],
      [
        "board",
        -10.143164351482936
      ],
      [
        "ĠPeople",
        -10.143978501827627
      ],
      [
        "Ġrecycl",
        -10.14483246468304
      ],
      [
        "Ġprices",
        -10.144855150051397
      ],
      [
        "Ġproduc",
        -10.147051202892602
      ],
      [
        "Ġinternet",
        -10.147256771550964
      ],
      [
        "ĠGo",
        -10.150514800060318
      ],
      [
        "Ġmicro",
        -10.152576343920805
      ],
      [
        "Ġvector",
        -10.152721510229366
      ],
      [
        "Ġlock",
        -10.153104895924804
      ],
      [
        "Ġfunctional",
        -10.155372197086256
      ],
      [
        "Ġcreature",
        -10.155744126974716
      ],
      [
        "Ġobservation",
        -10.155947737943444
      ],
      [
        "Ġleak",
        -10.15631982483613
      ],
      [
        "Ġloop",
        -10.156664165220882
      ],
      [
        "Ġboil",
        -10.156671372558378
      ],
      [
        "Ġresident",
        -10.156880586417923
      ],
      [
        "ĠLike",
        -10.157095382490269
      ],
      [
        "Ġdigesti",
        -10.157133956092627
      ],
      [
        "Ġmice",
        -10.157199506727988
      ],
      [
        "Ġ\\(",
        -10.157994659991724
      ],
      [
        "ĠOcto",
        -10.15850416695613
      ],
      [
        "Ġexcess",
        -10.159669548488525
      ],
      [
        "Ġnutrition",
        -10.159808280184269
      ],
      [
        "Ġclosed",
        -10.159939688619277
      ],
      [
        "ĠType",
        -10.15996913201714
      ],
      [
        "Ġcompetition",
        -10.160093144555056
      ],
      [
        "Ġmountain",
        -10.160723804338502
      ],
      [
        "Ġfail",
        -10.160728698560296
      ],
      [
        "Dur",
        -10.16089520822071
      ],
      [
        "Ġblend",
        -10.162500566697164
      ],
      [
        "ĠWhere",
        -10.16283167097869
      ],
      [
        "Ġedit",
        -10.164444546502844
      ],
      [
        "Ġbiological",
        -10.16487661892074
      ],
      [
        "that",
        -10.165829242848826
      ],
      [
        "Ġcoal",
        -10.166171190053522
      ],
      [
        "Ġofficial",
        -10.16624484261822
      ],
      [
        "]Ċ",
        -10.167549375317106
      ],
      [
        "Ġmeasured",
        -10.167814091662088
      ],
      [
        "Ġsouth",
        -10.1684972677826
      ],
      [
        "Ġprompt",
        -10.168498561962616
      ],
      [
        "Ġminimum",
        -10.168500538631418
      ],
      [
        "Ġchapter",
        -10.1689711827504
      ],
      [
        "Ġwasn",
        -10.16907293191906
      ],
      [
        "Ġmark",
        -10.169302045934668
      ],
      [
        "Ġprofessor",
        -10.16969218070106
      ],
      [
        "Ġsong",
        -10.17013169406879
      ],
      [
        "My",
        -10.170557652515566
      ],
      [
        "Ġtitle",
        -10.171639843219891
      ],
      [
        "Ġprior",
        -10.17166505010836
      ],
      [
        "Ġpanel",
        -10.172047636010443
      ],
      [
        "Ġconsequence",
        -10.17280884938088
      ],
      [
        "Ġoperat",
        -10.172927233571984
      ],
      [
        "Ġgraph",
        -10.173620311489518
      ],
      [
        "expected",
        -10.174424055069236
      ],
      [
        "Ġpresentation",
        -10.174442157449665
      ],
      [
        "gone",
        -10.17479860174654
      ],
      [
        "ĠPart",
        -10.175767784297616
      ],
      [
        "Ġexplor",
        -10.1760680805496
      ],
      [
        "Ġzero",
        -10.176447248477402
      ],
      [
        "Ġemployee",
        -10.177178208917043
      ],
      [
        "Ġalign",
        -10.178396618823385
      ],
      [
        "ĠWork",
        -10.179232358108772
      ],
      [
        "Ġinner",
        -10.180522525437269
      ],
      [
        "Ġintroduc",
        -10.18062364135314
      ],
      [
        "Ġnorth",
        -10.181285150328067
      ],
      [
        "Ġcalm",
        -10.181745570289756
      ],
      [
        "men",
        -10.1818442083345
      ],
      [
        "ĠEnergy",
        -10.181959810512854
      ],
      [
        "ĠSystem",
        -10.182397592395422
      ],
      [
        "Ġfelt",
        -10.182602386626264
      ],
      [
        "Ġboost",
        -10.183554886423988
      ],
      [
        "Ġtension",
        -10.183721384947564
      ],
      [
        "weight",
        -10.183794871790695
      ],
      [
        "Ġexcessive",
        -10.183978072222438
      ],
      [
        "Ġderive",
        -10.18418797454459
      ],
      [
        "que",
        -10.184512730930408
      ],
      [
        "Ġsold",
        -10.1846657114736
      ],
      [
        "Ġappreciate",
        -10.185041172953644
      ],
      [
        "Ġbond",
        -10.18541313887584
      ],
      [
        "Ġ<",
        -10.185667269198074
      ],
      [
        "ĠâĢ¢",
        -10.18595291284636
      ],
      [
        "took",
        -10.18596849195882
      ],
      [
        "ĠJew",
        -10.186456049968248
      ],
      [
        "Conclusion",
        -10.188188815769736
      ],
      [
        "ington",
        -10.189192223094514
      ],
      [
        "Ġeliminate",
        -10.18981539162376
      ],
      [
        "Ġaccurac",
        -10.190238453661422
      ],
      [
        "Ġassociation",
        -10.190450534704944
      ],
      [
        "Ġutilize",
        -10.190566998407052
      ],
      [
        "Ġtrip",
        -10.19077394032876
      ],
      [
        "innovative",
        -10.19079454458183
      ],
      [
        "net",
        -10.191242081406791
      ],
      [
        "Ġautomatic",
        -10.191584604013752
      ],
      [
        "Ġnet",
        -10.191715112582187
      ],
      [
        "Ġmild",
        -10.19184353713582
      ],
      [
        "Ġinstrument",
        -10.192048835430183
      ],
      [
        "Ġtooth",
        -10.19444382494445
      ],
      [
        "Ġretain",
        -10.194666536999543
      ],
      [
        "un",
        -10.19477442184368
      ],
      [
        "Ġweak",
        -10.195627453171785
      ],
      [
        "Ġgrant",
        -10.1964925183855
      ],
      [
        "Ġanalyze",
        -10.19660011513579
      ],
      [
        "hi",
        -10.197320048226253
      ],
      [
        "Ġleaf",
        -10.197469006751597
      ],
      [
        "Ġsnake",
        -10.199070850836238
      ],
      [
        "Ġsufficient",
        -10.19953168656627
      ],
      [
        "Ġdescription",
        -10.199771884458391
      ],
      [
        "Ġlaser",
        -10.199888736088162
      ],
      [
        "ca",
        -10.200997506731
      ],
      [
        ".F",
        -10.201418085335275
      ],
      [
        "Ġtrade",
        -10.201572817940136
      ],
      [
        "itis",
        -10.203369884247955
      ],
      [
        "ER",
        -10.203432453598252
      ],
      [
        "Ġrely",
        -10.20394286122205
      ],
      [
        "Ġroute",
        -10.203943566326412
      ],
      [
        "Ġscore",
        -10.2041801506824
      ],
      [
        "Ġreplacement",
        -10.204528461965186
      ],
      [
        "ĠTake",
        -10.204882455088544
      ],
      [
        "Ġsports",
        -10.206531275170056
      ],
      [
        "Ġstorm",
        -10.207255729875552
      ],
      [
        "iness",
        -10.207403244545198
      ],
      [
        "Ġbeauty",
        -10.208272320428277
      ],
      [
        "Ġenzyme",
        -10.208291919567388
      ],
      [
        "Ġuniversit",
        -10.208468235274989
      ],
      [
        "Ġprove",
        -10.20847546898884
      ],
      [
        "Ġphysic",
        -10.208481160565778
      ],
      [
        "Ġvast",
        -10.208533075644803
      ],
      [
        "Ġbio",
        -10.209419430944616
      ],
      [
        "Ġchemistr",
        -10.209619790745965
      ],
      [
        "ĠRed",
        -10.210723362971734
      ],
      [
        "Ġexchange",
        -10.211034478863288
      ],
      [
        "field",
        -10.211161695618651
      ],
      [
        "Use",
        -10.211199137494312
      ],
      [
        "Ġbloom",
        -10.212461633412842
      ],
      [
        "Ġsnail",
        -10.21246197414495
      ],
      [
        "Ġresponsibilit",
        -10.212628665381695
      ],
      [
        "Ġinsurance",
        -10.21263974750316
      ],
      [
        "Ġpartner",
        -10.212748451084249
      ],
      [
        "Ġdepression",
        -10.212874493097017
      ],
      [
        "Ġtrick",
        -10.213095794718244
      ],
      [
        "Ġcontract",
        -10.213132024337142
      ],
      [
        "ĠÂ·",
        -10.21458901071398
      ],
      [
        "Ġjump",
        -10.21499813701744
      ],
      [
        "Ġthrow",
        -10.215048072694804
      ],
      [
        "Ġassume",
        -10.21530369565644
      ],
      [
        "VID",
        -10.21550792773576
      ],
      [
        "Ġwish",
        -10.2156397168499
      ],
      [
        "Ġarrive",
        -10.216479463818562
      ],
      [
        "Ġrandom",
        -10.216967141032212
      ],
      [
        "Ġtea",
        -10.217432316908624
      ],
      [
        "Ġeight",
        -10.217479017347287
      ],
      [
        "ĠCollege",
        -10.217682140264824
      ],
      [
        "Ġpilot",
        -10.217904646808242
      ],
      [
        "Ġunlike",
        -10.218410750430332
      ],
      [
        "ities",
        -10.219144527588483
      ],
      [
        "Ġtent",
        -10.220465482975255
      ],
      [
        "ĠCheck",
        -10.22055735736428
      ],
      [
        "op",
        -10.220865183157038
      ],
      [
        "ĠTwo",
        -10.22116258211509
      ],
      [
        "ĠPlant",
        -10.22149201058318
      ],
      [
        "Â°C",
        -10.221721454338754
      ],
      [
        "Ġprovider",
        -10.221747217889526
      ],
      [
        "Ġinterior",
        -10.222040162821958
      ],
      [
        "Ġbi",
        -10.22213063661608
      ],
      [
        "Ġmanual",
        -10.222152576163484
      ],
      [
        ".G",
        -10.223243570694644
      ],
      [
        "Ġlake",
        -10.223528508543188
      ],
      [
        "ĠClass",
        -10.223894045884784
      ],
      [
        "Ġvariable",
        -10.224476675748804
      ],
      [
        "ĠDe",
        -10.225566534184566
      ],
      [
        "ver",
        -10.225763212470952
      ],
      [
        "Ġcollaboration",
        -10.226094818430512
      ],
      [
        "Ġdatabase",
        -10.226157437227904
      ],
      [
        "Ġfixed",
        -10.22642641823533
      ],
      [
        "Ġbones",
        -10.227055641741757
      ],
      [
        "ĠCamp",
        -10.227891320407869
      ],
      [
        "Ġmolecular",
        -10.227982100163745
      ],
      [
        "Ġpan",
        -10.228346576361512
      ],
      [
        "Ġobserv",
        -10.22856984693932
      ],
      [
        "First",
        -10.229697702844852
      ],
      [
        "Over",
        -10.229788887367448
      ],
      [
        "-quali",
        -10.229826925768563
      ],
      [
        "Ġbarrier",
        -10.230607885199603
      ],
      [
        "Ġarray",
        -10.230663268230211
      ],
      [
        "Ġten",
        -10.230711171097152
      ],
      [
        "Ġgenerat",
        -10.23079088145379
      ],
      [
        "Ġdecline",
        -10.23133826500084
      ],
      [
        "ĠExcel",
        -10.231471624431665
      ],
      [
        "how",
        -10.23188976357551
      ],
      [
        "Ġbreeding",
        -10.233363252557783
      ],
      [
        "ter",
        -10.234103844682796
      ],
      [
        "Ġintake",
        -10.234554033909587
      ],
      [
        "otherwise",
        -10.234605444374855
      ],
      [
        "Ġputt",
        -10.235878478457137
      ],
      [
        "Ġphotos",
        -10.23591309087882
      ],
      [
        "Ġperspective",
        -10.23609638466463
      ],
      [
        "Ġlinear",
        -10.236291300566354
      ],
      [
        "ĠPro",
        -10.236526683909863
      ],
      [
        "Ġapproache",
        -10.23871842884905
      ],
      [
        "Ġrelie",
        -10.239768992902311
      ],
      [
        "Ġencounter",
        -10.239798060175302
      ],
      [
        "-be",
        -10.23991864210848
      ],
      [
        "Ġdefinite",
        -10.240243191643398
      ],
      [
        "Ġmask",
        -10.240777087131832
      ],
      [
        "Ġshop",
        -10.242265844423482
      ],
      [
        "Ġdestroy",
        -10.242623838215296
      ],
      [
        "ĠToday",
        -10.243203125549767
      ],
      [
        "Ġmission",
        -10.243271176330705
      ],
      [
        "Ġinjurie",
        -10.243352491027023
      ],
      [
        "ĠFebr",
        -10.243435428216332
      ],
      [
        "ĠAnimal",
        -10.244287236484476
      ],
      [
        "Ġbreath",
        -10.244288330037389
      ],
      [
        "Ġluck",
        -10.244448449092388
      ],
      [
        "Ġmanner",
        -10.244548694282267
      ],
      [
        "Ġsurvival",
        -10.2448139268437
      ],
      [
        "can",
        -10.246289321344168
      ],
      [
        "ĠRead",
        -10.247524721328
      ],
      [
        "ÂŃ",
        -10.249815571542026
      ],
      [
        "Ġworker",
        -10.250165219983394
      ],
      [
        "Ġsurfaces",
        -10.251277230631386
      ],
      [
        "ĠData",
        -10.251450030970728
      ],
      [
        "Ġplates",
        -10.252684675773676
      ],
      [
        "Ġknee",
        -10.25308081805301
      ],
      [
        "Ġinter",
        -10.253552906280476
      ],
      [
        "Ġsudden",
        -10.25375179661568
      ],
      [
        "Ġcomparison",
        -10.253752980794443
      ],
      [
        "Ġalter",
        -10.253934883006227
      ],
      [
        "-on",
        -10.254076156937051
      ],
      [
        "Ġstrengthen",
        -10.254223164176324
      ],
      [
        "Ġurban",
        -10.255151329085331
      ],
      [
        "Ġserving",
        -10.25531132886316
      ],
      [
        "Ġtrend",
        -10.2560406885534
      ],
      [
        "Ġdimension",
        -10.256829093235998
      ],
      [
        "ĠLa",
        -10.257117083720283
      ],
      [
        "Ġloose",
        -10.257462053983833
      ],
      [
        "Ġcolon",
        -10.25749976772554
      ],
      [
        "Ġdistinct",
        -10.25800069636452
      ],
      [
        "Ġintervention",
        -10.25844778817255
      ],
      [
        "Ġdownload",
        -10.25858708359456
      ],
      [
        "Ġcollege",
        -10.259193101467762
      ],
      [
        "Ġincorporate",
        -10.259980128179985
      ],
      [
        "Ġgase",
        -10.26010199547022
      ],
      [
        "MS",
        -10.26117611493412
      ],
      [
        "day",
        -10.261520256148271
      ],
      [
        "ĠEast",
        -10.262736577022553
      ],
      [
        "Ġwet",
        -10.263334530887846
      ],
      [
        "Ġdiagnosi",
        -10.263792321417291
      ],
      [
        "Ġbean",
        -10.264221150395276
      ],
      [
        "ent",
        -10.264611345287944
      ],
      [
        "Ġfix",
        -10.265915967514951
      ],
      [
        "Ġcharg",
        -10.266674493422377
      ],
      [
        "ĠGoogle",
        -10.267494557557944
      ],
      [
        "Ġstomach",
        -10.267930417311591
      ],
      [
        "right",
        -10.26798478685796
      ],
      [
        "Ġsent",
        -10.268322686025556
      ],
      [
        "Ġgradual",
        -10.26846434800078
      ],
      [
        "Ġprinting",
        -10.26866747368764
      ],
      [
        "Ġmobile",
        -10.26877553621927
      ],
      [
        "Ġhorizontal",
        -10.268780109197646
      ],
      [
        "Ġpresented",
        -10.269109705844556
      ],
      [
        "eath",
        -10.269895772940735
      ],
      [
        "Ġassembl",
        -10.269953900501632
      ],
      [
        "Ġsharp",
        -10.271752540039518
      ],
      [
        "Ġrow",
        -10.27176010368613
      ],
      [
        "Ġhandling",
        -10.273708787404662
      ],
      [
        "Ġparallel",
        -10.274102666805424
      ],
      [
        "Ġpeer",
        -10.274293113018944
      ],
      [
        "ĠHome",
        -10.2761983313307
      ],
      [
        "Ġbowl",
        -10.27730012741813
      ],
      [
        "Ġworry",
        -10.277560748724998
      ],
      [
        "ĠII",
        -10.277747061381165
      ],
      [
        "Ġworkshop",
        -10.27778280717055
      ],
      [
        "Ġgift",
        -10.277860085751216
      ],
      [
        "ĠLearn",
        -10.27845231484952
      ],
      [
        "Ġpolitical",
        -10.279484594398925
      ],
      [
        "ural",
        -10.280808236653195
      ],
      [
        "Ġsecret",
        -10.281100649524843
      ],
      [
        "Ġfather",
        -10.282426399738098
      ],
      [
        "Ġlaborator",
        -10.28295311828152
      ],
      [
        "Ġthrive",
        -10.28309858544588
      ],
      [
        "Ġauto",
        -10.283626421737198
      ],
      [
        "ĠThu",
        -10.28401730790759
      ],
      [
        "Ġpro",
        -10.284066638587962
      ],
      [
        "ĠChin",
        -10.285883641768567
      ],
      [
        "Ġcorresponding",
        -10.285935752096671
      ],
      [
        "ĠY",
        -10.287111152153324
      ],
      [
        "Ġmassive",
        -10.287860157027962
      ],
      [
        "Ġdiversity",
        -10.28817529713924
      ],
      [
        "Ġclay",
        -10.288888416786742
      ],
      [
        "ĠStep",
        -10.289411273858644
      ],
      [
        "Z",
        -10.289861199342386
      ],
      [
        "Ġrice",
        -10.291340000098687
      ],
      [
        "ĠHis",
        -10.291601657070116
      ],
      [
        "Ġpreparation",
        -10.291960003404556
      ],
      [
        "Ġgav",
        -10.2922760158939
      ],
      [
        "Ġconfiden",
        -10.292769129707702
      ],
      [
        "Ġbug",
        -10.29340535989743
      ],
      [
        "ĠColor",
        -10.29370895547692
      ],
      [
        "Ġdirector",
        -10.29371912520065
      ],
      [
        "Ġvalve",
        -10.294076814676298
      ],
      [
        "Ġincorporat",
        -10.295305663219146
      ],
      [
        "Ġcustom",
        -10.295520620303371
      ],
      [
        "Ġspecialize",
        -10.29560030335566
      ],
      [
        "Ġdeposit",
        -10.29621640835328
      ],
      [
        "ĠGood",
        -10.296216756862584
      ],
      [
        "ĠLight",
        -10.296702851800944
      ],
      [
        "Ġconversation",
        -10.296829578083493
      ],
      [
        "Ġworse",
        -10.297419363545425
      ],
      [
        "Ġcoach",
        -10.297743978668674
      ],
      [
        "Ġsexual",
        -10.29838354097976
      ],
      [
        "Ġenvironments",
        -10.299176680298189
      ],
      [
        "Ġadequate",
        -10.299256606781846
      ],
      [
        "Ġfold",
        -10.300307153229046
      ],
      [
        "Ġplus",
        -10.300838152844218
      ],
      [
        "ership",
        -10.301068525309454
      ],
      [
        "stock",
        -10.301672397890885
      ],
      [
        "Ġdiameter",
        -10.301730147508792
      ],
      [
        "Ġfoster",
        -10.302154394833622
      ],
      [
        "Ġbelief",
        -10.302531839424978
      ],
      [
        "Ġsides",
        -10.302997581131102
      ],
      [
        "wood",
        -10.303450446423106
      ],
      [
        "Ġprofile",
        -10.304693946943718
      ],
      [
        "Ġbigge",
        -10.305105878113224
      ],
      [
        "Ġwidth",
        -10.305499942057144
      ],
      [
        "Ġtrouble",
        -10.30561535329658
      ],
      [
        "Let",
        -10.305746883504597
      ],
      [
        "Ġrecording",
        -10.306384490751428
      ],
      [
        "Ġraised",
        -10.306466378077817
      ],
      [
        "Ġdanger",
        -10.30648786712787
      ],
      [
        "Ġconflict",
        -10.306648592402109
      ],
      [
        "Ġhazard",
        -10.306648612800585
      ],
      [
        "Ġframework",
        -10.306735697097515
      ],
      [
        "Ġreactions",
        -10.306880245938142
      ],
      [
        "Ġvegan",
        -10.30744856894231
      ],
      [
        "ĠConsider",
        -10.307468556287889
      ],
      [
        "ĠAssociation",
        -10.307923070355493
      ],
      [
        "Ġworm",
        -10.30829906263124
      ],
      [
        "Ġmistake",
        -10.309667831487266
      ],
      [
        "Ġinvestigat",
        -10.30982680597466
      ],
      [
        "with",
        -10.31110791811272
      ],
      [
        "Ġscenario",
        -10.311599088254628
      ],
      [
        "Ġdelicious",
        -10.311603413937128
      ],
      [
        "Ġnarrow",
        -10.311608739421184
      ],
      [
        "Ġbiggest",
        -10.311845473308342
      ],
      [
        "Ġabsolute",
        -10.312063565223356
      ],
      [
        "axis",
        -10.312179908173768
      ],
      [
        "Ġdespi",
        -10.31280556863272
      ],
      [
        "Ġsilver",
        -10.313355184766896
      ],
      [
        "Ġtwi",
        -10.313360208569083
      ],
      [
        "Ġfamous",
        -10.31360373458242
      ],
      [
        "Ġscratch",
        -10.31380192532021
      ],
      [
        "ĠSun",
        -10.314397346905686
      ],
      [
        "Ġimagine",
        -10.315310016779977
      ],
      [
        "ĠAct",
        -10.315584685426286
      ],
      [
        "Ġguess",
        -10.31658174792292
      ],
      [
        "Ġantibiotic",
        -10.31658387875632
      ],
      [
        "Ġexcit",
        -10.316735753546444
      ],
      [
        "Ġshark",
        -10.316809798164748
      ],
      [
        "ĠSan",
        -10.31683949425007
      ],
      [
        "Ġfiles",
        -10.317367787034671
      ],
      [
        "Ġdiscussed",
        -10.317384522933729
      ],
      [
        "Ġfair",
        -10.318330695141723
      ],
      [
        "Ġcraft",
        -10.31861268635548
      ],
      [
        "@",
        -10.32102358386464
      ],
      [
        "Ġpose",
        -10.32127096719479
      ],
      [
        "Ġinitiative",
        -10.321629574706522
      ],
      [
        "Ġperception",
        -10.322519420302545
      ],
      [
        "Ġtear",
        -10.323450688213573
      ],
      [
        "Ġmoderate",
        -10.323539855345343
      ],
      [
        "Ġera",
        -10.323805983575925
      ],
      [
        "Ġcellular",
        -10.325045181226464
      ],
      [
        "Ġtraffic",
        -10.326120204279846
      ],
      [
        "Ġclub",
        -10.326601232599234
      ],
      [
        "Ġorgans",
        -10.326778054109344
      ],
      [
        "Ġopposite",
        -10.32693562812004
      ],
      [
        "Ġspecialist",
        -10.327171041169962
      ],
      [
        "Ġnovel",
        -10.32729389897696
      ],
      [
        "Ġcoil",
        -10.327634427468464
      ],
      [
        "From",
        -10.328082388333256
      ],
      [
        "Ġsport",
        -10.328850330766702
      ],
      [
        "\"The",
        -10.329582164900224
      ],
      [
        "ĠRemember",
        -10.330593627245952
      ],
      [
        "Ġshapes",
        -10.331006693003316
      ],
      [
        "ĠNote",
        -10.331897574711297
      ],
      [
        "ĠLife",
        -10.332070489547124
      ],
      [
        "Ġpermanent",
        -10.332269732012785
      ],
      [
        "Ġgenome",
        -10.333282710491222
      ],
      [
        "Ġherb",
        -10.33343324650965
      ],
      [
        "Ġwindows",
        -10.334040517205375
      ],
      [
        "Ġsurprise",
        -10.336725984933718
      ],
      [
        "Ġhidden",
        -10.336741714237956
      ],
      [
        "Ġdetection",
        -10.337546255186115
      ],
      [
        "Ġmeasur",
        -10.338312946778924
      ],
      [
        "Ġcloud",
        -10.339639594907004
      ],
      [
        "Ġfamiliar",
        -10.340852942160694
      ],
      [
        "ĠGeneral",
        -10.341467488970585
      ],
      [
        "Ġwhatever",
        -10.34156091392941
      ],
      [
        "ut",
        -10.341946124420806
      ],
      [
        "Ġregulate",
        -10.342811856572116
      ],
      [
        "Ġbuffer",
        -10.342833823667377
      ],
      [
        "ĠChildren",
        -10.343136177599506
      ],
      [
        "Ġcow",
        -10.343486407835911
      ],
      [
        "Ġterminal",
        -10.343513641998102
      ],
      [
        "Ġrotation",
        -10.343578347440369
      ],
      [
        "Ġtire",
        -10.343812778299352
      ],
      [
        "rich",
        -10.343955065451816
      ],
      [
        "Ġecosystem",
        -10.344592273767372
      ],
      [
        "Ġturning",
        -10.345044129528503
      ],
      [
        "Ġpreserve",
        -10.34584275381734
      ],
      [
        "Ġflying",
        -10.346948974467647
      ],
      [
        "Ġmirror",
        -10.346956231459297
      ],
      [
        "Ġsales",
        -10.347096839236038
      ],
      [
        "Ġrobust",
        -10.347271604612764
      ],
      [
        "Ġsmoke",
        -10.347323125218468
      ],
      [
        "Ġpromot",
        -10.347522744280964
      ],
      [
        "Ġmoved",
        -10.34754474058483
      ],
      [
        "Ġlibrary",
        -10.347646746197244
      ],
      [
        "Ġorientation",
        -10.347668886347146
      ],
      [
        "ĠCat",
        -10.347919604015146
      ],
      [
        "Ġbrief",
        -10.348860082441655
      ],
      [
        "Ġcurve",
        -10.349201231191213
      ],
      [
        "ĠUp",
        -10.3493539117865
      ],
      [
        "Ġpolic",
        -10.3495979432356
      ],
      [
        "Ġsubstances",
        -10.35015347043635
      ],
      [
        "back",
        -10.350522247776368
      ],
      [
        "Ġ@",
        -10.350733833648702
      ],
      [
        "Ġtown",
        -10.35146262865473
      ],
      [
        "Ġrelax",
        -10.351796037364496
      ],
      [
        "ĠTree",
        -10.3518856359477
      ],
      [
        "Ġinterview",
        -10.352091742352366
      ],
      [
        "Ġnitrogen",
        -10.352119314268062
      ],
      [
        "Ġimplant",
        -10.352121270833065
      ],
      [
        "Ġease",
        -10.352133836569514
      ],
      [
        "Ġintended",
        -10.352816849082224
      ],
      [
        "ner",
        -10.352866755387916
      ],
      [
        "Ġinsert",
        -10.353110792914748
      ],
      [
        "Ġregister",
        -10.353167578389264
      ],
      [
        "Ġmount",
        -10.353214462154977
      ],
      [
        "Ġintroduction",
        -10.353305984292518
      ],
      [
        "Ġvolunteer",
        -10.353416193770336
      ],
      [
        "Ġfeedback",
        -10.35428567278078
      ],
      [
        "Ġstream",
        -10.355919293918747
      ],
      [
        "ĠOcean",
        -10.356141494439804
      ],
      [
        "Ġagricultur",
        -10.356384002821432
      ],
      [
        "Ġcm",
        -10.356567047036831
      ],
      [
        "Ġexam",
        -10.356705661541868
      ],
      [
        "Ġclassic",
        -10.356947171398168
      ],
      [
        "ĠStart",
        -10.357044914954049
      ],
      [
        "Ġdiagnose",
        -10.357278923812691
      ],
      [
        "Ġexplanation",
        -10.357313045455909
      ],
      [
        "Ġrose",
        -10.35758239856438
      ],
      [
        "Ġtransistor",
        -10.35761089346492
      ],
      [
        "Ġfeather",
        -10.35781265599255
      ],
      [
        "Ġindex",
        -10.358224985937635
      ],
      [
        "Ġpredators",
        -10.358470654735171
      ],
      [
        "Ġfault",
        -10.35862399045589
      ],
      [
        "Ġcleaner",
        -10.358706062735886
      ],
      [
        "Ġmine",
        -10.360242927224968
      ],
      [
        "ĠThrough",
        -10.36141539158762
      ],
      [
        "Ġillness",
        -10.362229238238012
      ],
      [
        "&",
        -10.362351259690602
      ],
      [
        "Ġcrystal",
        -10.362410876979908
      ],
      [
        "Ġdiffer",
        -10.362412680220176
      ],
      [
        "Ġblade",
        -10.362516464187667
      ],
      [
        "Ġspeech",
        -10.36264053246701
      ],
      [
        "Ġinteractive",
        -10.362852211191484
      ],
      [
        "Ġjuice",
        -10.362933224560908
      ],
      [
        "Ġsenior",
        -10.36332917652318
      ],
      [
        "ĠMedicine",
        -10.363329307639027
      ],
      [
        "Ġcord",
        -10.364026785436252
      ],
      [
        "ĠRussian",
        -10.364697573806716
      ],
      [
        "Ġglucos",
        -10.365038443687698
      ],
      [
        "ĠNovemb",
        -10.365451748170962
      ],
      [
        "Ġbread",
        -10.365726392573578
      ],
      [
        "Ġshot",
        -10.36646238220619
      ],
      [
        "dom",
        -10.36651624153875
      ],
      [
        "Ġholding",
        -10.36703527075052
      ],
      [
        "Ġdedicat",
        -10.367380584626869
      ],
      [
        "Ġtradition",
        -10.368025820533482
      ],
      [
        "ĠGet",
        -10.368721049653407
      ],
      [
        "Ġtruck",
        -10.369199498514616
      ],
      [
        "Ġprotective",
        -10.370301661941728
      ],
      [
        "ĠDevelopment",
        -10.370329443510531
      ],
      [
        "?\"",
        -10.370342043107447
      ],
      [
        "Ġrecogniz",
        -10.370760776893746
      ],
      [
        "ĠAugust",
        -10.371173828608198
      ],
      [
        "Ġplug",
        -10.371252492953936
      ],
      [
        "ĠWhite",
        -10.371338523467948
      ],
      [
        "Ġseeking",
        -10.371726077456934
      ],
      [
        "Ġshed",
        -10.37174141302009
      ],
      [
        "Ġcopy",
        -10.372654681472852
      ],
      [
        "Ġfascinating",
        -10.373003196638386
      ],
      [
        "ĠAny",
        -10.373037956364223
      ],
      [
        "Ġtall",
        -10.373540397736129
      ],
      [
        "Ġoven",
        -10.373765276749658
      ],
      [
        "Ġcompact",
        -10.37461975652558
      ],
      [
        "Ġrespectively",
        -10.375155099624603
      ],
      [
        "Ġcircle",
        -10.37515960403366
      ],
      [
        ");",
        -10.375282198031138
      ],
      [
        "Ġturns",
        -10.375351637752484
      ],
      [
        "Figure",
        -10.375735679355811
      ],
      [
        "Ġusage",
        -10.376474053634624
      ],
      [
        "Ġboy",
        -10.377207140854232
      ],
      [
        "Ġconsult",
        -10.377886237293916
      ],
      [
        "Ġprinter",
        -10.378019878642524
      ],
      [
        "Ġtumor",
        -10.378290689761725
      ],
      [
        "ĠGreek",
        -10.378331491673917
      ],
      [
        "Ġyeast",
        -10.378356652994457
      ],
      [
        "Ġscrew",
        -10.378377887121548
      ],
      [
        "Ġpossibl",
        -10.379791912226434
      ],
      [
        "ĠGP",
        -10.380429399771431
      ],
      [
        "Ġrepeat",
        -10.38079218167562
      ],
      [
        "off",
        -10.380963197407716
      ],
      [
        "Ġpackage",
        -10.381015635207458
      ],
      [
        "ĠTen",
        -10.381265183962617
      ],
      [
        "Share",
        -10.38157391348031
      ],
      [
        "industrie",
        -10.38192551405222
      ],
      [
        "thing",
        -10.383255521188635
      ],
      [
        "Ġdense",
        -10.383911486829124
      ],
      [
        "Ġwoman",
        -10.384197604326491
      ],
      [
        "Ġsolubl",
        -10.384451159870636
      ],
      [
        "Ġsouthern",
        -10.384459828254828
      ],
      [
        "Ġinvestigate",
        -10.384585958962065
      ],
      [
        "most",
        -10.385050732547953
      ],
      [
        "ĠPaul",
        -10.385180449316646
      ],
      [
        "ĠWash",
        -10.386094113830604
      ],
      [
        "ious",
        -10.386731840827622
      ],
      [
        "Ġreward",
        -10.386755545968512
      ],
      [
        "Ġhydrogen",
        -10.387837532760894
      ],
      [
        "Ġdairy",
        -10.388995563928836
      ],
      [
        "Ġsauce",
        -10.38906027756502
      ],
      [
        "Ġinsulation",
        -10.389142489647831
      ],
      [
        "Ġcoral",
        -10.38915376698891
      ],
      [
        "Ġwouldn",
        -10.389262211430315
      ],
      [
        "Ġnose",
        -10.38941946465619
      ],
      [
        "ĠGarden",
        -10.390221179682614
      ],
      [
        "Ġtone",
        -10.39029116922199
      ],
      [
        "ĠâĢĵĊ",
        -10.390371146879245
      ],
      [
        "Ġsediment",
        -10.390592958638006
      ],
      [
        "cross",
        -10.391416747389984
      ],
      [
        "Ġneck",
        -10.391516113690454
      ],
      [
        "Ġmature",
        -10.391555860283937
      ],
      [
        "Ġbridge",
        -10.393357041936724
      ],
      [
        "Ġholiday",
        -10.39433341283097
      ],
      [
        "Ġaquarium",
        -10.394334350223543
      ],
      [
        "Ġdiagram",
        -10.394664420477705
      ],
      [
        "Ġbreathing",
        -10.394931497437003
      ],
      [
        "Ġcluster",
        -10.395057036599486
      ],
      [
        "Ġmutation",
        -10.395349933829015
      ],
      [
        "Ġforget",
        -10.395492869797163
      ],
      [
        "Ġmilitar",
        -10.395583587605554
      ],
      [
        "ĠJapan",
        -10.39591701751866
      ],
      [
        "âĢĭ",
        -10.396544208866969
      ],
      [
        "Ġwashing",
        -10.397249601552554
      ],
      [
        "ĠMr",
        -10.3975281450184
      ],
      [
        "ĠPower",
        -10.397532992415334
      ],
      [
        "Ġpond",
        -10.39815754387604
      ],
      [
        "ĠDavid",
        -10.398352622074963
      ],
      [
        "anagement",
        -10.39841488047263
      ],
      [
        "everyday",
        -10.398454281244302
      ],
      [
        "Ġachiev",
        -10.39876788468469
      ],
      [
        "Ġauthors",
        -10.399665971055908
      ],
      [
        "Ġathlete",
        -10.399738870826493
      ],
      [
        "Ġhousing",
        -10.399873179258329
      ],
      [
        "ĠUnderstanding",
        -10.399996873332029
      ],
      [
        "Ġgam",
        -10.400060376078024
      ],
      [
        "Ġwherea",
        -10.400905398638328
      ],
      [
        "Ġstack",
        -10.403120868507468
      ],
      [
        "Ġproven",
        -10.403371920971264
      ],
      [
        "Ġassign",
        -10.403781085761942
      ],
      [
        "Ġflexi",
        -10.40390066465868
      ],
      [
        "Ġreache",
        -10.404921315681586
      ],
      [
        "Ġride",
        -10.40498410738341
      ],
      [
        "Ġtransmission",
        -10.405183307874076
      ],
      [
        "ĠModel",
        -10.405988083246832
      ],
      [
        "he",
        -10.406724018207823
      ],
      [
        "Ġcris",
        -10.40750086953814
      ],
      [
        "Ġsew",
        -10.408161346867702
      ],
      [
        "bacterial",
        -10.408557868877404
      ],
      [
        "ĠFish",
        -10.409132245045985
      ],
      [
        "Ġeco",
        -10.409158108978248
      ],
      [
        "Ġinch",
        -10.410377155837484
      ],
      [
        "Ġinfrastructure",
        -10.410642295406134
      ],
      [
        "Ġprofit",
        -10.410644683161362
      ],
      [
        "Ġliver",
        -10.410797481383776
      ],
      [
        "Ġbite",
        -10.412183793000686
      ],
      [
        "ill",
        -10.412847044360554
      ],
      [
        "Ġpackag",
        -10.412888684467266
      ],
      [
        "tion",
        -10.413234425997071
      ],
      [
        "Ġstructural",
        -10.41366197889137
      ],
      [
        "See",
        -10.414788741394716
      ],
      [
        "Ġinspire",
        -10.415139049036636
      ],
      [
        "Ġcartridge",
        -10.416132752161136
      ],
      [
        "Ġhurt",
        -10.416132898093023
      ],
      [
        "Ġguidance",
        -10.4161609669566
      ],
      [
        "Ġbiolog",
        -10.41617077479572
      ],
      [
        "-the",
        -10.416177000949268
      ],
      [
        "Ġspiritual",
        -10.416514494201907
      ],
      [
        "upon",
        -10.416794793128158
      ],
      [
        "ach",
        -10.416875408250574
      ],
      [
        "ĠEngland",
        -10.417007049056288
      ],
      [
        ".[",
        -10.420574493550056
      ],
      [
        "we",
        -10.420645253595069
      ],
      [
        "Ġdrill",
        -10.421693194184344
      ],
      [
        "sistance",
        -10.42186360944499
      ],
      [
        "Ġfurni",
        -10.421908514451305
      ],
      [
        "Ġimpossible",
        -10.422538663321845
      ],
      [
        "ĠCar",
        -10.422734748469516
      ],
      [
        "Ġmode",
        -10.423529020651689
      ],
      [
        "Ġdive",
        -10.42480818620718
      ],
      [
        "ĠInformation",
        -10.42498326433993
      ],
      [
        "ius",
        -10.425778626443169
      ],
      [
        "Ġremaining",
        -10.426394950020764
      ],
      [
        "Ġanalyz",
        -10.427211909672042
      ],
      [
        "Ġdistrict",
        -10.427285829471884
      ],
      [
        "Ġrequest",
        -10.427961451088905
      ],
      [
        "ĠTHE",
        -10.428057228083292
      ],
      [
        "Ġdesigner",
        -10.428188461519865
      ],
      [
        "ĠHuman",
        -10.428266878234025
      ],
      [
        "ĠAfrican",
        -10.428353196428226
      ],
      [
        "ĠCare",
        -10.429276340853365
      ],
      [
        "Ġexplains",
        -10.42942597514941
      ],
      [
        "Ġoral",
        -10.429630292791632
      ],
      [
        "Ġcavit",
        -10.429685331736357
      ],
      [
        "Ġtrends",
        -10.430075113345548
      ],
      [
        "Ġpictures",
        -10.430467357622057
      ],
      [
        "ĠGive",
        -10.431954076064567
      ],
      [
        "Not",
        -10.43213160815116
      ],
      [
        "Ġlifespan",
        -10.432807643017195
      ],
      [
        "Ġwearing",
        -10.433312933270685
      ],
      [
        "see",
        -10.4340175085295
      ],
      [
        "ative",
        -10.43422538786346
      ],
      [
        "Ġpink",
        -10.434292394017216
      ],
      [
        "-old",
        -10.434792486709082
      ],
      [
        "Ġpurchas",
        -10.435021466889529
      ],
      [
        "Ġmanager",
        -10.436076582902093
      ],
      [
        "Ġincome",
        -10.43640901355754
      ],
      [
        "Ġtie",
        -10.43650003085978
      ],
      [
        "Ġapple",
        -10.437197217449407
      ],
      [
        "tuck",
        -10.437793102789229
      ],
      [
        "Ġquote",
        -10.43808531692423
      ],
      [
        "Ġdress",
        -10.438120638000656
      ],
      [
        "Ġcolleague",
        -10.438417564066944
      ],
      [
        "Ġinvention",
        -10.438644509645927
      ],
      [
        "Ġlisted",
        -10.438734893623607
      ],
      [
        "carried",
        -10.439387707982558
      ],
      [
        "ĠFIG",
        -10.440562917030036
      ],
      [
        "Ġparticipate",
        -10.440622534826
      ],
      [
        "Ġpen",
        -10.44077065600034
      ],
      [
        "Ġflood",
        -10.441161945406822
      ],
      [
        "Ġtropical",
        -10.441545060008387
      ],
      [
        "Ġtap",
        -10.442134001307464
      ],
      [
        "Ġvelocity",
        -10.442224877399893
      ],
      [
        "Ġminimal",
        -10.442610308653403
      ],
      [
        "Ġmoon",
        -10.443229633786752
      ],
      [
        "Ġacids",
        -10.443323441473886
      ],
      [
        "rising",
        -10.443750974630849
      ],
      [
        "Ġengaging",
        -10.444067295417254
      ],
      [
        "Ġcopper",
        -10.444978848032322
      ],
      [
        "Ġintensit",
        -10.445162115349234
      ],
      [
        "Ġpersonalized",
        -10.445279223534934
      ],
      [
        "Ġvulnerab",
        -10.445653115173688
      ],
      [
        "ĠMan",
        -10.44570284333613
      ],
      [
        "ĠChristian",
        -10.446059925485416
      ],
      [
        "Ġmoral",
        -10.44757176748496
      ],
      [
        "Ġinstitution",
        -10.44788293209654
      ],
      [
        "ler",
        -10.44810379189371
      ],
      [
        "]ĊĊ",
        -10.448283111911188
      ],
      [
        "ĠAsia",
        -10.448644720419471
      ],
      [
        "Ġexperienc",
        -10.449087645736588
      ],
      [
        "Ġinform",
        -10.44938708907312
      ],
      [
        "ĠRNA",
        -10.449753164529469
      ],
      [
        "ĠFinal",
        -10.4518905577423
      ],
      [
        "ĠSee",
        -10.452350057706692
      ],
      [
        "Ġowner",
        -10.45406541720438
      ],
      [
        "Ġutiliz",
        -10.454727044733628
      ],
      [
        "Ġconventional",
        -10.45526350937429
      ],
      [
        "Ġwhale",
        -10.455468617868142
      ],
      [
        "ĠDragon",
        -10.455565774684093
      ],
      [
        "Ġsubstantial",
        -10.455793180958633
      ],
      [
        "Ġdramatic",
        -10.45638305673325
      ],
      [
        "Ġpixel",
        -10.456800178163014
      ],
      [
        "ĠKnow",
        -10.45710501188255
      ],
      [
        "Ġpartial",
        -10.45726513960345
      ],
      [
        "Ġouter",
        -10.458058060822562
      ],
      [
        "Ġreplac",
        -10.458420520662733
      ],
      [
        "Ġcorn",
        -10.459927899851536
      ],
      [
        "ward",
        -10.459943822031912
      ],
      [
        "Ġtip",
        -10.460828150286794
      ],
      [
        "Ġmajorit",
        -10.460839538926288
      ],
      [
        "Ġultra",
        -10.46084691165743
      ],
      [
        "Ġbulb",
        -10.461164113329732
      ],
      [
        "Ġnorthern",
        -10.461214624311712
      ],
      [
        "Ġnail",
        -10.461220564913257
      ],
      [
        "Ġlarva",
        -10.461225251181322
      ],
      [
        "ĠProject",
        -10.461848908326946
      ],
      [
        "ĠMuseum",
        -10.461868643377514
      ],
      [
        "Ġquiet",
        -10.461986921296678
      ],
      [
        "Ġgram",
        -10.46602903800986
      ],
      [
        "Ġearn",
        -10.46661600604848
      ],
      [
        "Ġworksheet",
        -10.46710533563224
      ],
      [
        "Ġleaders",
        -10.467134129965832
      ],
      [
        "Ġsignificance",
        -10.46716598500758
      ],
      [
        "Ġapparent",
        -10.46791195444066
      ],
      [
        "...Ċ",
        -10.46793049434347
      ],
      [
        "Ġtough",
        -10.467942405221034
      ],
      [
        "ĠPleas",
        -10.468107290170328
      ],
      [
        "Ġpregnanc",
        -10.468339986252676
      ],
      [
        "but",
        -10.468627114821391
      ],
      [
        "Ġpeak",
        -10.470506544836288
      ],
      [
        "ĠLearning",
        -10.471337924970404
      ],
      [
        "Als",
        -10.471456129927846
      ],
      [
        "Ġtheme",
        -10.471540394752523
      ],
      [
        "obesity",
        -10.472928220702563
      ],
      [
        "pH",
        -10.47331695376186
      ],
      [
        "Ġstretch",
        -10.473425137581565
      ],
      [
        "Ġgland",
        -10.4734778070323
      ],
      [
        "Ġbees",
        -10.473723485894508
      ],
      [
        "Ġicon",
        -10.474065983517868
      ],
      [
        "Ġchromosome",
        -10.474141162157302
      ],
      [
        "Ġcontribut",
        -10.476306792200738
      ],
      [
        "Ġhundreds",
        -10.476315808177391
      ],
      [
        "Ġhappening",
        -10.476927972855671
      ],
      [
        "Ġreact",
        -10.47700373411032
      ],
      [
        "gar",
        -10.477520039875971
      ],
      [
        "Ġvariant",
        -10.477588409347836
      ],
      [
        "Ġstands",
        -10.478269561056884
      ],
      [
        "Ġcounter",
        -10.478359938083887
      ],
      [
        "Ġreef",
        -10.478662860606702
      ],
      [
        "Ġrating",
        -10.47872584378153
      ],
      [
        "Ġsitting",
        -10.47895377955528
      ],
      [
        "Does",
        -10.478983408658303
      ],
      [
        "Ġpollen",
        -10.479609671763486
      ],
      [
        "Ġlinks",
        -10.479719384278816
      ],
      [
        "Ġquantum",
        -10.479756450909136
      ],
      [
        "let",
        -10.479806132619792
      ],
      [
        "Ġcombat",
        -10.479818988511717
      ],
      [
        "Ġscope",
        -10.479858537516357
      ],
      [
        "Don",
        -10.47991647864525
      ],
      [
        "ĠCommon",
        -10.480728217821794
      ],
      [
        "Ã©",
        -10.481324983020414
      ],
      [
        "you",
        -10.481840833341916
      ],
      [
        "Ġdomestic",
        -10.48198255994896
      ],
      [
        "Ġabilit",
        -10.482081889776191
      ],
      [
        "Ġvari",
        -10.48258318682856
      ],
      [
        "Dr",
        -10.48397878484363
      ],
      [
        "Since",
        -10.48436093937629
      ],
      [
        "Ġrestaurant",
        -10.48453511802727
      ],
      [
        "Ġdollar",
        -10.484557380653452
      ],
      [
        "Ġcompressor",
        -10.484754664745775
      ],
      [
        "Ġcards",
        -10.484877525385269
      ],
      [
        "Ġcontribution",
        -10.485142053421391
      ],
      [
        "Ġunusual",
        -10.486241509093873
      ],
      [
        "Ġspaces",
        -10.486356337265924
      ],
      [
        "ĠDC",
        -10.486611657879063
      ],
      [
        "Ġfisher",
        -10.487098693527132
      ],
      [
        "Ġillustrate",
        -10.48721649436171
      ],
      [
        "Ġpacket",
        -10.487814113536253
      ],
      [
        "ions",
        -10.488010583593418
      ],
      [
        "Ġwor",
        -10.488497682797792
      ],
      [
        "Ġstruggle",
        -10.488859887496089
      ],
      [
        "New",
        -10.489727624606974
      ],
      [
        "while",
        -10.490450461235843
      ],
      [
        "ĠSociety",
        -10.49046397582493
      ],
      [
        "ka",
        -10.49046831622214
      ],
      [
        "Ġalcohol",
        -10.490797499933246
      ],
      [
        "-shape",
        -10.490934743500215
      ],
      [
        "Ġkidney",
        -10.491112357994414
      ],
      [
        "Ġcent",
        -10.4915668253466
      ],
      [
        "Ġsegment",
        -10.491669568790863
      ],
      [
        "Ġpotter",
        -10.491801051969968
      ],
      [
        "ĠInternet",
        -10.491847351687188
      ],
      [
        "Ġcake",
        -10.491860605388467
      ],
      [
        "Ġempty",
        -10.492113100145051
      ],
      [
        "hipping",
        -10.492231205211898
      ],
      [
        "Ġasthma",
        -10.492783122528053
      ],
      [
        "ĠEngineer",
        -10.493311776698562
      ],
      [
        "Ġhang",
        -10.493489394607966
      ],
      [
        "Ġorgan",
        -10.494181732129364
      ],
      [
        "-of",
        -10.494612576752438
      ],
      [
        "ice",
        -10.495838070617983
      ],
      [
        "ĠSpace",
        -10.495915892325604
      ],
      [
        "from",
        -10.496620385604013
      ],
      [
        "Ġtruth",
        -10.49679792300433
      ],
      [
        "Ġformal",
        -10.496822281698346
      ],
      [
        "Ġwonderful",
        -10.497045277624505
      ],
      [
        "Ġuniform",
        -10.497666563817573
      ],
      [
        "Ġattractive",
        -10.497963176059956
      ],
      [
        "Ġconsum",
        -10.498260424561936
      ],
      [
        "Ġbark",
        -10.498548832314492
      ],
      [
        "Ġmeals",
        -10.498628391748206
      ],
      [
        "ĠMa",
        -10.498950074709844
      ],
      [
        "Ġplac",
        -10.50090350036363
      ],
      [
        "ĠAC",
        -10.502063288173783
      ],
      [
        "Ġcategory",
        -10.502392685992008
      ],
      [
        "Ġtailor",
        -10.502884958397022
      ],
      [
        "Ġcircumstance",
        -10.502912074593745
      ],
      [
        "Ġbath",
        -10.503436208484436
      ],
      [
        "Ġgrid",
        -10.503593049219631
      ],
      [
        "ĠLondon",
        -10.503639297877688
      ],
      [
        "Ġcorner",
        -10.503850896819884
      ],
      [
        "Ġcharacterize",
        -10.50389386272374
      ],
      [
[...]
