{
  "version": "1.0",
  "truncation": null,
  "padding": null,
  "added_tokens": [
    {
      "id": 0,
      "content": "[UNK]",
      "single_word": false,
      "lstrip": false,
      "rstrip": false,
      "normalized": false,
      "special": true
    },
    {
      "id": 1,
      "content": "[CLS]",
      "single_word": false,
      "lstrip": false,
      "rstrip": false,
      "normalized": false,
      "special": true
    },
    {
      "id": 2,
      "content": "[SEP]",
      "single_word": false,
      "lstrip": false,
      "rstrip": false,
      "normalized": false,
      "special": true
    },
    {
      "id": 3,
      "content": "[PAD]",
      "single_word": false,
      "lstrip": false,
      "rstrip": false,
      "normalized": false,
      "special": true
    },
    {
      "id": 4,
      "content": "[MASK]",
      "single_word": false,
      "lstrip": false,
      "rstrip": false,
      "normalized": false,
      "special": true
    },
    {
      "id": 5,
      "content": "endoftextbehere",
      "single_word": false,
      "lstrip": false,
      "rstrip": false,
      "normalized": false,
      "special": true
    }
  ],
  "normalizer": null,
  "pre_tokenizer": {
    "type": "ByteLevel",
    "add_prefix_space": false,
    "trim_offsets": true,
    "use_regex": true
  },
  "post_processor": null,
  "decoder": null,
  "model": {
    "type": "BPE",
    "dropout": null,
    "unk_token": "[UNK]",
    "continuing_subword_prefix": null,
    "end_of_word_suffix": null,
    "fuse_unk": false,
    "byte_fallback": false,
    "ignore_merges": false,
    "vocab": {
      "[UNK]": 0,
      "[CLS]": 1,
      "[SEP]": 2,
      "[PAD]": 3,
      "[MASK]": 4,
      "endoftextbehere": 5,
      "!": 6,
      "\"": 7,
      "#": 8,
      "$": 9,
      "%": 10,
      "&": 11,
      "'": 12,
      "(": 13,
      ")": 14,
      "*": 15,
      "+": 16,
      ",": 17,
      "-": 18,
      ".": 19,
      "/": 20,
      "0": 21,
      "1": 22,
      "2": 23,
      "3": 24,
      "4": 25,
      "5": 26,
      "6": 27,
      "7": 28,
      "8": 29,
      "9": 30,
      ":": 31,
      ";": 32,
      "<": 33,
      "=": 34,
      ">": 35,
      "?": 36,
      "@": 37,
      "A": 38,
      "B": 39,
      "C": 40,
      "D": 41,
      "E": 42,
      "F": 43,
      "G": 44,
      "H": 45,
      "I": 46,
      "J": 47,
      "K": 48,
      "L": 49,
      "M": 50,
      "N": 51,
      "O": 52,
      "P": 53,
      "Q": 54,
      "R": 55,
      "S": 56,
      "T": 57,
      "U": 58,
      "V": 59,
      "W": 60,
      "X": 61,
      "Y": 62,
      "Z": 63,
      "[": 64,
      "\\": 65,
      "]": 66,
      "^": 67,
      "_": 68,
      "`": 69,
      "a": 70,
      "b": 71,
      "c": 72,
      "d": 73,
      "e": 74,
      "f": 75,
      "g": 76,
      "h": 77,
      "i": 78,
      "j": 79,
      "k": 80,
      "l": 81,
      "m": 82,
      "n": 83,
      "o": 84,
      "p": 85,
      "q": 86,
      "r": 87,
      "s": 88,
      "t": 89,
      "u": 90,
      "v": 91,
      "w": 92,
      "x": 93,
      "y": 94,
      "z": 95,
      "|": 96,
      "}": 97,
      "~": 98,
      "¡": 99,
      "¢": 100,
      "£": 101,
      "¤": 102,
      "¥": 103,
      "¦": 104,
      "§": 105,
      "¨": 106,
      "©": 107,
      "ª": 108,
      "«": 109,
      "¬": 110,
      "®": 111,
      "¯": 112,
      "°": 113,
      "±": 114,
      "²": 115,
      "³": 116,
      "´": 117,
      "µ": 118,
      "¶": 119,
      "·": 120,
      "¸": 121,
      "¹": 122,
      "º": 123,
      "»": 124,
      "¼": 125,
      "½": 126,
      "¾": 127,
      "¿": 128,
      "Â": 129,
      "Ã": 130,
      "Ä": 131,
      "Å": 132,
      "Æ": 133,
      "Ç": 134,
      "È": 135,
      "É": 136,
      "Ê": 137,
      "Ë": 138,
      "Ì": 139,
      "Í": 140,
      "Î": 141,
      "Ï": 142,
      "Ð": 143,
      "Ñ": 144,
      "Ò": 145,
      "Ó": 146,
      "Õ": 147,
      "Ö": 148,
      "×": 149,
      "Ø": 150,
      "Ù": 151,
      "Ú": 152,
      "Û": 153,
      "Ü": 154,
      "à": 155,
      "á": 156,
      "â": 157,
      "ã": 158,
      "ä": 159,
      "å": 160,
      "æ": 161,
      "ç": 162,
      "è": 163,
      "é": 164,
      "ê": 165,
      "ë": 166,
      "ì": 167,
      "í": 168,
      "ï": 169,
      "ð": 170,
      "Ċ": 171,
      "Ġ": 172,
      "Ģ": 173,
      "ģ": 174,
      "Ĥ": 175,
      "ĥ": 176,
      "Ħ": 177,
      "ħ": 178,
      "Ĩ": 179,
      "ĩ": 180,
      "Ī": 181,
      "ī": 182,
      "Ĭ": 183,
      "ĭ": 184,
      "Į": 185,
      "į": 186,
      "İ": 187,
      "ı": 188,
      "Ĳ": 189,
      "ĳ": 190,
      "Ĵ": 191,
      "ĵ": 192,
      "Ķ": 193,
      "ķ": 194,
      "ĸ": 195,
      "Ĺ": 196,
      "ĺ": 197,
      "Ļ": 198,
      "ļ": 199,
      "Ľ": 200,
      "ľ": 201,
      "Ŀ": 202,
      "ŀ": 203,
      "Ł": 204,
      "ł": 205,
      "Ń": 206,
      "Ġt": 207,
      "Ġa": 208,
      "he": 209,
      "in": 210,
      "re": 211,
      "Ġthe": 212,
      "on": 213,
      "er": 214,
      "Ġo": 215,
      "at": 216,
      "Ġs": 217,
      "en": 218,
      "Ġc": 219,
      "es": 220,
      "Ġw": 221,
      "is": 222,
      "nd": 223,
      "or": 224,
      "it": 225,
      "Ġp": 226,
      "ed": 227,
      "al": 228,
      "Ġof": 229,
      "Ġb": 230,
      "Ġf": 231,
      "an": 232,
      "Ġin": 233,
      "ar": 234,
      "ing": 235,
      "ou": 236,
      "Ġm": 237,
      "Ġand": 238,
      "ic": 239,
      "Ġto": 240,
      "ion": 241,
      "Ġd": 242,
      "ro": 243,
      "le": 244,
      "as": 245,
      "Ġh": 246,
      "ent": 247,
      "Ġth": 248,
      "ct": 249,
      "il": 250,
      "Ġe": 251,
      "Ġre": 252,
      "om": 253,
      "Ġn": 254,
      "Ġl": 255,
      "st": 256,
      "ve": 257,
      "ly": 258,
      "Ġbe": 259,
      "ĠT": 260,
      "Ġis": 261,
      "se": 262,
      "ol": 263,
      "ation": 264,
      "Ġg": 265,
      "id": 266,
      "im": 267,
      "ce": 268,
      "ĠA": 269,
      "ut": 270,
      "ra": 271,
      "et": 272,
      "ot": 273,
      "ĠS": 274,
      "ur": 275,
      "ch": 276,
      "Ġfor": 277,
      "ig": 278,
      "ow": 279,
      "âĢ": 280,
      "ĠC": 281,
      "Ġon": 282,
      "Ġthat": 283,
      "ver": 284,
      "Ġu": 285,
      "ĠI": 286,
      "Ġst": 287,
      "ir": 288,
      "am": 289,
      "ul": 290,
      "ay": 291,
      "ad": 292,
      "el": 293,
      "Ġas": 294,
      "ith": 295,
      "her": 296,
      "Ġpro": 297,
      "Ġy": 298,
      "Ġ1": 299,
      "Ġcon": 300,
      "ĠM": 301,
      "Ġan": 302,
      "Ġ(": 303,
      "Ġwith": 304,
      "Ġare": 305,
      "Ġwh": 306,
      "Ġor": 307,
      "ter": 308,
      "ĠP": 309,
      "if": 310,
      "ĠThe": 311,
      "Ġit": 312,
      "Ġal": 313,
      "od": 314,
      "ment": 315,
      "th": 316,
      "ist": 317,
      "ge": 318,
      "op": 319,
      "ate": 320,
      "ĠB": 321,
      "ers": 322,
      "Ġde": 323,
      "ies": 324,
      "ill": 325,
      "ab": 326,
      "ere": 327,
      "ĠH": 328,
      "us": 329,
      "Ġhe": 330,
      "Ġex": 331,
      "res": 332,
      "um": 333,
      "est": 334,
      "ect": 335,
      "ess": 336,
      "Ġby": 337,
      "rom": 338,
      "Ġyou": 339,
      "Ġcom": 340,
      "ld": 341,
      "ity": 342,
      "ore": 343,
      "and": 344,
      "ac": 345,
      "os": 346,
      "Ġsu": 347,
      "Ġat": 348,
      "ri": 349,
      "ĠW": 350,
      "Ġwas": 351,
      "em": 352,
      "ĠD": 353,
      "Ġv": 354,
      "ive": 355,
      "ĠR": 356,
      "ain": 357,
      "nt": 358,
      "ĠE": 359,
      "qu": 360,
      "igh": 361,
      "pp": 362,
      "ant": 363,
      "Ġfrom": 364,
      "ke": 365,
      "ĠF": 366,
      "ud": 367,
      "Ġha": 368,
      "Ġ2": 369,
      "ĠN": 370,
      "oc": 371,
      "ort": 372,
      "iv": 373,
      "Ġch": 374,
      "Ġse": 375,
      "ĠG": 376,
      "Ġne": 377,
      "Ġr": 378,
      "00": 379,
      "Ġnot": 380,
      "ĠL": 381,
      "ure": 382,
      "un": 383,
      "ical": 384,
      "art": 385,
      "Ġcan": 386,
      "ial": 387,
      "Ġhave": 388,
      "og": 389,
      "Ġle": 390,
      "Ġsh": 391,
      "Ġsp": 392,
      "âĢĻ": 393,
      "all": 394,
      "Ġen": 395,
      "ight": 396,
      "ich": 397,
      "Ġthis": 398,
      "pt": 399,
      "ould": 400,
      "rou": 401,
      "ther": 402,
      "The": 403,
      "Ġab": 404,
      "gh": 405,
      "our": 406,
      "'s": 407,
      "ost": 408,
      "ated": 409,
      "ear": 410,
      "ĠJ": 411,
      "ions": 412,
      "Ġwor": 413,
      "ome": 414,
      "du": 415,
      "ine": 416,
      "ĠO": 417,
      "ard": 418,
      "ag": 419,
      "ĠU": 420,
      "out": 421,
      "Ġwe": 422,
      "ast": 423,
      "per": 424,
      "ell": 425,
      "ff": 426,
      "ĠâĢ": 427,
      "ans": 428,
      "Ġim": 429,
      "Ġpl": 430,
      "ec": 431,
      "Ġus": 432,
      "Ġint": 433,
      "Ġtheir": 434,
      "pl": 435,
      "Ġwhich": 436,
      "age": 437,
      "ĠIn": 438,
      "act": 439,
      "ew": 440,
      "ust": 441,
      "Ġ\"": 442,
      "ous": 443,
      "ak": 444,
      "are": 445,
      "ide": 446,
      "Ġk": 447,
      "iz": 448,
      "Ġwhe": 449,
      "ap": 450,
      "ib": 451,
      "Ġ19": 452,
      "ary": 453,
      "Ġcont": 454,
      "Ġall": 455,
      "ia": 456,
      "Ġthey": 457,
      "Ġad": 458,
      "ong": 459,
      "end": 460,
      "Ġinc": 461,
      "cc": 462,
      "Ġdis": 463,
      "ru": 464,
      "ult": 465,
      "ood": 466,
      "ations": 467,
      "Ġwere": 468,
      "Ġres": 469,
      "Ġhas": 470,
      "orm": 471,
      "vel": 472,
      "Ġmore": 473,
      "Ġwill": 474,
      "Ġcomp": 475,
      "ip": 476,
      "ater": 477,
      "ire": 478,
      "Ġdo": 479,
      "ence": 480,
      "Ġcl": 481,
      "Ġother": 482,
      "Ġbut": 483,
      "Ġper": 484,
      "ild": 485,
      "Ġman": 486,
      "ual": 487,
      "ks": 488,
      "so": 489,
      "ry": 490,
      "able": 491,
      "ĠTh": 492,
      "Ġone": 493,
      "ind": 494,
      "ose": 495,
      "ep": 496,
      "ber": 497,
      "ĠSt": 498,
      "ass": 499,
      "Ġhis": 500,
      "ress": 501,
      "ign": 502,
      "ance": 503,
      "Ġar": 504,
      "Ġme": 505,
      "ents": 506,
      "av": 507,
      "reat": 508,
      "au": 509,
      "ach": 510,
      "Ġun": 511,
      "ction": 512,
      "âĢĿ": 513,
      "ase": 514,
      "Ġyour": 515,
      "ish": 516,
      "ord": 517,
      "ice": 518,
      "ount": 519,
      "ition": 520,
      ").": 521,
      "Ġte": 522,
      "ace": 523,
      "Ġalso": 524,
      "ame": 525,
      "Ġj": 526,
      "ub": 527,
      "Ġwho": 528,
      "ory": 529,
      "Ġimp": 530,
      "Ġev": 531,
      "Ġso": 532,
      "Ġpre": 533,
      "ĠK": 534,
      "Ġpart": 535,
      "Ġapp": 536,
      "mer": 537,
      "ens": 538,
      "one": 539,
      "Ġout": 540,
      "ake": 541,
      "ok": 542,
      "Ġabout": 543,
      "ci": 544,
      "very": 545,
      "Ġinf": 546,
      "ime": 547,
      "ack": 548,
      "Ġstud": 549,
      "ound": 550,
      "ite": 551,
      "ree": 552,
      "olog": 553,
      "ors": 554,
      "ces": 555,
      "Ġmay": 556,
      "ĠCh": 557,
      "Ġthan": 558,
      "Ġyear": 559,
      "ang": 560,
      "ue": 561,
      "ian": 562,
      "Ġsy": 563,
      "Ġpe": 564,
      "ie": 565,
      "ric": 566,
      "ates": 567,
      "Ġbeen": 568,
      "Ġup": 569,
      "ĠâĢľ": 570,
      "Ġbec": 571,
      "Ġhad": 572,
      "Ġthem": 573,
      "low": 574,
      "now": 575,
      "Ġcomm": 576,
      "Ġag": 577,
      "Ġrec": 578,
      "Ġits": 579,
      "ail": 580,
      "ile": 581,
      "erv": 582,
      "vers": 583,
      "ays": 584,
      "ike": 585,
      "ph": 586,
      "Ġsome": 587,
      "Ġqu": 588,
      "ough": 589,
      "ĠV": 590,
      "ĠIt": 591,
      "nder": 592,
      "ings": 593,
      "Ġthere": 594,
      "ons": 595,
      "Ġgo": 596,
      "Ġinto": 597,
      "Ġ3": 598,
      "rit": 599,
      "ople": 600,
      "Ġra": 601,
      "tern": 602,
      "lud": 603,
      "iff": 604,
      "Ġwhen": 605,
      "ren": 606,
      "ational": 607,
      "Ġover": 608,
      "ond": 609,
      "Ġsa": 610,
      "Ġ-": 611,
      "ms": 612,
      "Ġthese": 613,
      "Ġtra": 614,
      "ll": 615,
      "rough": 616,
      "Ġwould": 617,
      "Ġ200": 618,
      "te": 619,
      "irst": 620,
      "lic": 621,
      "Ġcol": 622,
      "ject": 623,
      "Ġtime": 624,
      "Ġtw": 625,
      "ally": 626,
      "ove": 627,
      "int": 628,
      "red": 629,
      "Ġnew": 630,
      "ause": 631,
      "Ġro": 632,
      "Ġcons": 633,
      "Ġwork": 634,
      "ific": 635,
      "Ġdes": 636,
      "Ġrep": 637,
      "lect": 638,
      "ĠUn": 639,
      "Ġmost": 640,
      "Ġpeople": 641,
      "hed": 642,
      "ments": 643,
      "ys": 644,
      "Ġuse": 645,
      "Ġbl": 646,
      "we": 647,
      "ities": 648,
      "ĠThis": 649,
      "Ġunder": 650,
      "Ġbet": 651,
      "Ġgen": 652,
      "Ġhow": 653,
      "Ġact": 654,
      "velop": 655,
      "),": 656,
      "Ġdiff": 657,
      "Ġacc": 658,
      "Ġno": 659,
      "Ġsuch": 660,
      "Ġrel": 661,
      "wn": 662,
      "stem": 663,
      "les": 664,
      "ĠY": 665,
      "Ġknow": 666,
      "ook": 667,
      "Ġ20": 668,
      "Ġinclud": 669,
      "ced": 670,
      "alth": 671,
      "Ġonly": 672,
      "Ġany": 673,
      "Ġfirst": 674,
      "ious": 675,
      "Ġtr": 676,
      "ob": 677,
      "Ġif": 678,
      "Ġeff": 679,
      "Ġlike": 680,
      "ative": 681,
      "ning": 682,
      "iss": 683,
      "Ġchild": 684,
      "Ġam": 685,
      "Ġprov": 686,
      "Ġoff": 687,
      "ple": 688,
      "ool": 689,
      "Ġspec": 690,
      "ov": 691,
      "ath": 692,
      "fter": 693,
      "Ġprodu": 694,
      "Ġtwo": 695,
      "ular": 696,
      "Ġour": 697,
      "Ġob": 698,
      "Ġph": 699,
      "ied": 700,
      "Ġused": 701,
      "Ġind": 702,
      "erm": 703,
      "ĠHe": 704,
      "Ġmany": 705,
      "rib": 706,
      "Ġexp": 707,
      "Ġdevelop": 708,
      "ise": 709,
      "Ġpo": 710,
      "ating": 711,
      "cess": 712,
      "Ġwhat": 713,
      "ts": 714,
      "Ġthrough": 715,
      "ark": 716,
      "Ġreg": 717,
      "Ġsc": 718,
      "als": 719,
      "oss": 720,
      "ics": 721,
      "rop": 722,
      "Ġneed": 723,
      "uring": 724,
      "ne": 725,
      "arch": 726,
      "yp": 727,
      "uc": 728,
      "old": 729,
      "..": 730,
      "round": 731,
      "Ġsur": 732,
      "Ġyears": 733,
      "Ġac": 734,
      "Ġatt": 735,
      "Ġfe": 736,
      "Ġdec": 737,
      "Ġsystem": 738,
      "Ġpr": 739,
      "meric": 740,
      "ram": 741,
      "iet": 742,
      "Ġ4": 743,
      "Ġem": 744,
      "oth": 745,
      "Ġass": 746,
      "ble": 747,
      "ution": 748,
      "Ġfl": 749,
      "ng": 750,
      "ink": 751,
      "ible": 752,
      "ased": 753,
      "Ġsub": 754,
      "ited": 755,
      "ange": 756,
      "hen": 757,
      "ful": 758,
      "ert": 759,
      "ade": 760,
      "aw": 761,
      "ten": 762,
      "Ġco": 763,
      "cy": 764,
      "ures": 765,
      "row": 766,
      "fore": 767,
      "In": 768,
      "ility": 769,
      "ower": 770,
      "Ġadd": 771,
      "Ġ5": 772,
      "Ġsupp": 773,
      "Ġhel": 774,
      "Ġ18": 775,
      "gan": 776,
      "ife": 777,
      "sel": 778,
      "Ġshould": 779,
      "Ġpres": 780,
      "Ġrem": 781,
      "ween": 782,
      "own": 783,
      "ists": 784,
      "Ġcould": 785,
      "ĠAmeric": 786,
      "ered": 787,
      "Ġwater": 788,
      "Ġear": 789,
      "land": 790,
      "Ġinv": 791,
      "eth": 792,
      "Ġhelp": 793,
      "Ġrese": 794,
      "hes": 795,
      "Ġdiffere": 796,
      "ident": 797,
      "uch": 798,
      "ĠAs": 799,
      "Ġwell": 800,
      "Ġbetween": 801,
      "Ġsm": 802,
      "ivers": 803,
      "ology": 804,
      "Ġpol": 805,
      "ex": 806,
      "ract": 807,
      "ont": 808,
      "Ġsaid": 809,
      "ormation": 810,
      "ick": 811,
      "ily": 812,
      "its": 813,
      "Ġwhere": 814,
      "Ġhigh": 815,
      "Ġnum": 816,
      "ever": 817,
      "Ġform": 818,
      "chool": 819,
      "Ġfound": 820,
      "Ġher": 821,
      "ural": 822,
      "Ġlar": 823,
      "Ġcent": 824,
      "Ġinter": 825,
      "ft": 826,
      "Ġcount": 827,
      "ines": 828,
      "Ġinst": 829,
      "ants": 830,
      "ict": 831,
      "Ġbu": 832,
      "Ġtrans": 833,
      "Ġafter": 834,
      "Ġ201": 835,
      "Ġref": 836,
      "chn": 837,
      "ins": 838,
      "vern": 839,
      "Ġpub": 840,
      "urn": 841,
      ".\"": 842,
      "Ġpers": 843,
      "ism": 844,
      "Ġmod": 845,
      "ved": 846,
      "ually": 847,
      "eral": 848,
      "Ġcall": 849,
      "Ġed": 850,
      "cent": 851,
      "cer": 852,
      "cept": 853,
      "ef": 854,
      "Ġlong": 855,
      "Ġprog": 856,
      "gy": 857,
      "Ġexam": 858,
      "itt": 859,
      "Ġbecause": 860,
      "Ġdet": 861,
      "ature": 862,
      "other": 863,
      "Ġthose": 864,
      "Ġworld": 865,
      "iew": 866,
      "Ġcar": 867,
      "vent": 868,
      "Ġsim": 869,
      "Ġthen": 870,
      "Ġvery": 871,
      "oy": 872,
      "the": 873,
      "Ġmake": 874,
      "omm": 875,
      "Ġhealth": 876,
      "Ġeven": 877,
      "Th": 878,
      "Ġincre": 879,
      "Ġimport": 880,
      "Ġeffect": 881,
      "Ġhum": 882,
      "Ġjust": 883,
      "Ġdisc": 884,
      "Ġmed": 885,
      "ĠPro": 886,
      "ĠAl": 887,
      "roup": 888,
      "ollow": 889,
      "Ġsee": 890,
      "ically": 891,
      "Ġext": 892,
      "Ġloc": 893,
      "Ġget": 894,
      "ness": 895,
      "ork": 896,
      "Ġinformation": 897,
      "ds": 898,
      "Ġresp": 899,
      "ĠNew": 900,
      "Ġsign": 901,
      "19": 902,
      "ather": 903,
      "get": 904,
      "Ġdist": 905,
      "arm": 906,
      "Ġmon": 907,
      "led": 908,
      "Ġsec": 909,
      "Ġpat": 910,
      "ives": 911,
      "Ġsci": 912,
      "Ġdef": 913,
      "Ġway": 914,
      "Ġ6": 915,
      "Ġgra": 916,
      "Ġshe": 917,
      "Ġresult": 918,
      "ases": 919,
      "ages": 920,
      "||": 921,
      "iron": 922,
      "Ġent": 923,
      "Ġeach": 924,
      "Ġchildren": 925,
      "Ġbeing": 926,
      "Ġca": 927,
      "ĠWh": 928,
      "Ġmade": 929,
      "io": 930,
      "ues": 931,
      "ck": 932,
      "Ġdifferent": 933,
      "aking": 934,
      "Ġright": 935,
      "Ġset": 936,
      "Ġvar": 937,
      "xt": 938,
      "imes": 939,
      "Ġduring": 940,
      "iversity": 941,
      "Ġpartic": 942,
      "Ġfact": 943,
      "Ġmuch": 944,
      "ros": 945,
      "ized": 946,
      "Ġtyp": 947,
      "orn": 948,
      "Ġexper": 949,
      "ĠRe": 950,
      "und": 951,
      "Ġaut": 952,
      "ward": 953,
      "000": 954,
      "ĠAr": 955,
      "Ġart": 956,
      "Ġdep": 957,
      "Ġsame": 958,
      "Ġfam": 959,
      "ruct": 960,
      ".,": 961,
      "ata": 962,
      "Ġrequ": 963,
      "Ġevery": 964,
      "Ġfollow": 965,
      "any": 966,
      "Ġown": 967,
      "ince": 968,
      "ection": 969,
      "con": 970,
      "Ġke": 971,
      "Ġmy": 972,
      "Ġstudy": 973,
      "ale": 974,
      "ĠWe": 975,
      "Ġend": 976,
      "Ġpop": 977,
      "hem": 978,
      "ĠAn": 979,
      "Ġhim": 980,
      "ars": 981,
      "ished": 982,
      "Ġtechn": 983,
      "Ġ199": 984,
      "Ġcre": 985,
      "Ġcommun": 986,
      "iel": 987,
      "Ġstate": 988,
      "Ġlife": 989,
      "gg": 990,
      "Ġgroup": 991,
      "Ġprocess": 992,
      "omen": 993,
      "Ġhist": 994,
      "ran": 995,
      "ĠFor": 996,
      ",\"": 997,
      "ĠâĢĵ": 998,
      "Ġlead": 999,
      "Ġproble": 1000,
      "Ġagain": 1001,
      "ices": 1002,
      "ah": 1003,
      "Ġsoc": 1004,
      "ĠSp": 1005,
      "hip": 1006,
      "oh": 1007,
      "ined": 1008,
      "Ġfind": 1009,
      "Ġav": 1010,
      "Ġbefore": 1011,
      "Ġback": 1012,
      "Ġschool": 1013,
      "Ġlevel": 1014,
      "Ġboth": 1015,
      "Ġsmall": 1016,
      "Ġdoes": 1017,
      "ron": 1018,
      "Ġtest": 1019,
      "Ġlear": 1020,
      "imate": 1021,
      "'t": 1022,
      "ty": 1023,
      "ize": 1024,
      "ĠThey": 1025,
      "ury": 1026,
      "ute": 1027,
      "Ġmin": 1028,
      "ting": 1029,
      "Ġgovern": 1030,
      "read": 1031,
      "Ġcur": 1032,
      "ix": 1033,
      "Ġread": 1034,
      "Ġshow": 1035,
      "viron": 1036,
      "irect": 1037,
      "ody": 1038,
      "ven": 1039,
      "Ġocc": 1040,
      "up": 1041,
      "rol": 1042,
      "nce": 1043,
      "Ġexpl": 1044,
      "ĠInd": 1045,
      "Ġnow": 1046,
      "inal": 1047,
      "Ġimportant": 1048,
      "Ġstudents": 1049,
      "Ġmem": 1050,
      ".âĢĿ": 1051,
      "ral": 1052,
      "ĠIf": 1053,
      "Ġcomple": 1054,
      "Ġins": 1055,
      "form": 1056,
      "ially": 1057,
      "Ġma": 1058,
      "ock": 1059,
      "ters": 1060,
      "Ġnumber": 1061,
      "ient": 1062,
      "ier": 1063,
      "Ġfood": 1064,
      "ands": 1065,
      "Ġdi": 1066,
      "âĢĶ": 1067,
      "Ġperson": 1068,
      "Ġest": 1069,
      "Ġgl": 1070,
      "Ġbo": 1071,
      "Ġreport": 1072,
      "Ġthree": 1073,
      "der": 1074,
      "Ġtreat": 1075,
      "Ġsk": 1076,
      "hers": 1077,
      "Ġposs": 1078,
      "Ġstr": 1079,
      "Ġ10": 1080,
      "ulation": 1081,
      "Ġserv": 1082,
      "ides": 1083,
      "Ġgood": 1084,
      "ergy": 1085,
      "ected": 1086,
      "Ġ7": 1087,
      "ving": 1088,
      "Ġresearch": 1089,
      "Ġless": 1090,
      "air": 1091,
      "cl": 1092,
      "Ġdid": 1093,
      "Ġoften": 1094,
      "Ġbel": 1095,
      "ves": 1096,
      "Ġchar": 1097,
      "Ġprot": 1098,
      "ash": 1099,
      "Ġcell": 1100,
      "vironment": 1101,
      "outh": 1102,
      "Ġorgan": 1103,
      "Ġdise": 1104,
      "Ġpower": 1105,
      "Ġlarge": 1106,
      "Ġval": 1107,
      "ĠBut": 1108,
      "Ġplan": 1109,
      "Ġday": 1110,
      "Ġdesign": 1111,
      "ivid": 1112,
      "ave": 1113,
      "ee": 1114,
      "ton": 1115,
      "Ġris": 1116,
      "ouse": 1117,
      "ger": 1118,
      "Ġser": 1119,
      "Ġmain": 1120,
      "Ġ8": 1121,
      "Ġcalled": 1122,
      "Ġret": 1123,
      "Ġhuman": 1124,
      "Ġpublic": 1125,
      "Ġelect": 1126,
      "Ġvis": 1127,
      "ality": 1128,
      "ĠIs": 1129,
      "Ġwhile": 1130,
      "ains": 1131,
      "Ġmust": 1132,
      "Ġusing": 1133,
      "day": 1134,
      "Ġcontin": 1135,
      "ĠAmerican": 1136,
      "ĠHow": 1137,
      "uss": 1138,
      "ull": 1139,
      "Ġdown": 1140,
      "ency": 1141,
      "Ġconf": 1142,
      "rent": 1143,
      "Ġclass": 1144,
      "Ġgreat": 1145,
      "dition": 1146,
      "Ġdata": 1147,
      "akes": 1148,
      "Ġpoint": 1149,
      "Ġtake": 1150,
      "Ġsupport": 1151,
      "ĠUniversity": 1152,
      "ared": 1153,
      "stit": 1154,
      "Ġgrow": 1155,
      "self": 1156,
      "Ġ9": 1157,
      "man": 1158,
      "Ġincluding": 1159,
      "way": 1160,
      "iety": 1161,
      "Ġsol": 1162,
      "orth": 1163,
      "ring": 1164,
      "stand": 1165,
      "osed": 1166,
      "ital": 1167,
      "com": 1168,
      "iqu": 1169,
      "Ġgener": 1170,
      "ĠDe": 1171,
      "10": 1172,
      "Ġactiv": 1173,
      "This": 1174,
      "Ġconsid": 1175,
      "oun": 1176,
      "Ġfun": 1177,
      "bers": 1178,
      "Ġaround": 1179,
      "Ġcommon": 1180,
      "conom": 1181,
      "ax": 1182,
      "Ġexample": 1183,
      "Ġthough": 1184,
      "illion": 1185,
      "itions": 1186,
      "Ġknown": 1187,
      "Ġequ": 1188,
      "Ġop": 1189,
      "oci": 1190,
      "amp": 1191,
      "Ġcour": 1192,
      "de": 1193,
      "raph": 1194,
      "Ġredu": 1195,
      "Ġcle": 1196,
      "Ġcor": 1197,
      "ross": 1198,
      "ries": 1199,
      "iod": 1200,
      "ium": 1201,
      "ians": 1202,
      "ted": 1203,
      "ources": 1204,
      "Ġlook": 1205,
      "Ġadv": 1206,
      "Ġstill": 1207,
      "ĠAnd": 1208,
      "Ġcare": 1209,
      "Ġpercent": 1210,
      "reen": 1211,
      "ĠCon": 1212,
      "Ġmet": 1213,
      "ional": 1214,
      "acter": 1215,
      "Wh": 1216,
      "aterial": 1217,
      "eg": 1218,
      "Ġmat": 1219,
      "Ġgovernment": 1220,
      "Ġdirect": 1221,
      "20": 1222,
      "Ġwrit": 1223,
      "Ġaff": 1224,
      "Ġallow": 1225,
      "ired": 1226,
      "lish": 1227,
      "ination": 1228,
      "ĠUnited": 1229,
      "Ġappro": 1230,
      "ĠRes": 1231,
      "els": 1232,
      "rain": 1233,
      "Ġmil": 1234,
      "Ġfew": 1235,
      "ug": 1236,
      "Ġeduc": 1237,
      "ained": 1238,
      "Ġplace": 1239,
      "Ġlaw": 1240,
      "Ġbody": 1241,
      "ior": 1242,
      "ĠEng": 1243,
      "Ġsom": 1244,
      "ĠThere": 1245,
      "Ġbuild": 1246,
      "Ġquest": 1247,
      "jor": 1248,
      "Ġpresent": 1249,
      "iving": 1250,
      "Ġwomen": 1251,
      "Ġsl": 1252,
      "Ġdem": 1253,
      "agn": 1254,
      "ris": 1255,
      "Ġmight": 1256,
      "hor": 1257,
      "ense": 1258,
      "ization": 1259,
      "ration": 1260,
      "erest": 1261,
      "att": 1262,
      "Ġstart": 1263,
      "iven": 1264,
      "Ġ.": 1265,
      "Ġchang": 1266,
      "Ġproject": 1267,
      "tt": 1268,
      "Ġwar": 1269,
      "Ġgu": 1270,
      "Ġwithout": 1271,
      "ording": 1272,
      "Ġair": 1273,
      "ason": 1274,
      "iver": 1275,
      "ission": 1276,
      "Ġsays": 1277,
      "Ġlight": 1278,
      "ield": 1279,
      "Ġ[": 1280,
      "lished": 1281,
      "Ġarea": 1282,
      "Ġdesc": 1283,
      "ĠStates": 1284,
      "Ġbelie": 1285,
      "gin": 1286,
      "Ġprogram": 1287,
      "less": 1288,
      "Ġland": 1289,
      "Ġwithin": 1290,
      "oms": 1291,
      "ids": 1292,
      "ertain": 1293,
      "arent": 1294,
      "Ġide": 1295,
      "rist": 1296,
      "ĠPh": 1297,
      "Ġbeh": 1298,
      "Ġanother": 1299,
      ",âĢĿ": 1300,
      "ified": 1301,
      "Ġchange": 1302,
      "Ġcap": 1303,
      "Ġdevelopment": 1304,
      "Ġtem": 1305,
      "arc": 1306,
      "ĠCol": 1307,
      "Ġenergy": 1308,
      "Ġpract": 1309,
      "Ġcaus": 1310,
      "âĢĵ": 1311,
      "az": 1312,
      "Ġscient": 1313,
      "Ġdisease": 1314,
      "Ġiss": 1315,
      "ividual": 1316,
      "Ġthink": 1317,
      "Ġpass": 1318,
      "ering": 1319,
      "ption": 1320,
      "angu": 1321,
      "ĠThese": 1322,
      "Ġenvironment": 1323,
      "Ġmaterial": 1324,
      "Ġpur": 1325,
      "bs": 1326,
      "Ġeconom": 1327,
      "Ġagainst": 1328,
      "Ġblood": 1329,
      "ner": 1330,
      "Ġphys": 1331,
      "Ġearly": 1332,
      "rodu": 1333,
      "ological": 1334,
      "atural": 1335,
      "Ġnear": 1336,
      "Ġstand": 1337,
      "Ġlast": 1338,
      "eng": 1339,
      "Ġold": 1340,
      "ision": 1341,
      "ĠAd": 1342,
      "line": 1343,
      "ĠSh": 1344,
      "Ġ15": 1345,
      "to": 1346,
      "ĠNational": 1347,
      "ĠSe": 1348,
      "Ġsever": 1349,
      "Ġleg": 1350,
      "me": 1351,
      "atic": 1352,
      "ets": 1353,
      "Ġbre": 1354,
      "here": 1355,
      "ived": 1356,
      "Ġmajor": 1357,
      "use": 1358,
      "Ġrest": 1359,
      "ccess": 1360,
      "ource": 1361,
      "Ġoper": 1362,
      "Ġprof": 1363,
      "Ġimm": 1364,
      "ograph": 1365,
      "Ġsecond": 1366,
      "Ġbas": 1367,
      "itive": 1368,
      "ently": 1369,
      "ailable": 1370,
      "Ġinclude": 1371,
      "ern": 1372,
      "Ġeas": 1373,
      "Ġident": 1374,
      "Ġ17": 1375,
      "Ġanim": 1376,
      "ww": 1377,
      "Ġmeas": 1378,
      "osp": 1379,
      "Ġhand": 1380,
      "of": 1381,
      "Ġfore": 1382,
      "Ġmen": 1383,
      "Ġunderstand": 1384,
      "Ġproduct": 1385,
      "ĠCl": 1386,
      "Ġspecies": 1387,
      "--": 1388,
      "Ġcontrol": 1389,
      "Ġinterest": 1390,
      "ethod": 1391,
      "Ġindividual": 1392,
      "view": 1393,
      "Ġsym": 1394,
      "alk": 1395,
      "ĠCent": 1396,
      "Ġbro": 1397,
      "Ġele": 1398,
      "Ġunt": 1399,
      "inc": 1400,
      "sy": 1401,
      "ites": 1402,
      "Ġoccur": 1403,
      "Ġter": 1404,
      "omp": 1405,
      "ards": 1406,
      "Ġpos": 1407,
      "Ġlow": 1408,
      "ned": 1409,
      "ote": 1410,
      "Ġopp": 1411,
      "Ġpar": 1412,
      "ats": 1413,
      "ina": 1414,
      "Ġant": 1415,
      "Ġ'": 1416,
      "Ġhistory": 1417,
      "ĠCan": 1418,
      "olution": 1419,
      "Ġdon": 1420,
      "Ġseveral": 1421,
      "ret": 1422,
      "ator": 1423,
      "Ġwant": 1424,
      "âĢľ": 1425,
      "esp": 1426,
      "Ġrisk": 1427,
      "Ġmar": 1428,
      "It": 1429,
      "though": 1430,
      "Ġsay": 1431,
      "Ġorig": 1432,
      "Ġve": 1433,
      "ĠComm": 1434,
      "Ġtre": 1435,
      "ential": 1436,
      "Ġamong": 1437,
      "Ġeng": 1438,
      "ĠYou": 1439,
      "ik": 1440,
      "sp": 1441,
      "Ġ&": 1442,
      "Ġconst": 1443,
      "Ġfour": 1444,
      "Ġexperi": 1445,
      "Ġsince": 1446,
      "Ġet": 1447,
      "ided": 1448,
      "Ġperiod": 1449,
      "ank": 1450,
      "ify": 1451,
      "ability": 1452,
      "Ġplay": 1453,
      "ole": 1454,
      "Ġmove": 1455,
      "lu": 1456,
      "Ġparticular": 1457,
      "Ġimpro": 1458,
      "ĠAt": 1459,
      "ended": 1460,
      "Ġfamily": 1461,
      "eed": 1462,
      "idence": 1463,
      "cing": 1464,
      "ittle": 1465,
      "Ġprop": 1466,
      "Ġhome": 1467,
      "Ġmark": 1468,
      "Ġhere": 1469,
      "Ġbecome": 1470,
      "Ġcurrent": 1471,
      "Ġpot": 1472,
      "ead": 1473,
      "ames": 1474,
      "min": 1475,
      "rap": 1476,
      "Ġorder": 1477,
      "Ġben": 1478,
      "ĠGod": 1479,
      "Ġcountry": 1480,
      "12": 1481,
      "Ġproper": 1482,
      "Ġreal": 1483,
      "18": 1484,
      "Ġavailable": 1485,
      "Ġareas": 1486,
      "ĠEn": 1487,
      "ably": 1488,
      "abor": 1489,
      "urop": 1490,
      "ohn": 1491,
      "Ġlim": 1492,
      "Ġpain": 1493,
      "Ġprovide": 1494,
      "Ġcult": 1495,
      "ining": 1496,
      "ways": 1497,
      "Ġnon": 1498,
      "Ġobject": 1499,
      "Ġmus": 1500,
      "ĠQ": 1501,
      "Ġtoo": 1502,
      "Ġ198": 1503,
      "ĠPl": 1504,
      "Ġaddition": 1505,
      "Ġdev": 1506,
      "...": 1507,
      "Ġpossible": 1508,
      "une": 1509,
      "Ġel": 1510,
      "ĠEx": 1511,
      "par": 1512,
      "ples": 1513,
      "ental": 1514,
      "ences": 1515,
      "Ġanal": 1516,
      "ention": 1517,
      "Ġhig": 1518,
      "Ġpri": 1519,
      "Ġopen": 1520,
      "Ġrece": 1521,
      "irc": 1522,
      "ĠZ": 1523,
      "Ġsocial": 1524,
      "Ġname": 1525,
      "Ġcause": 1526,
      "Ġmethod": 1527,
      "ories": 1528,
      "Ġinvol": 1529,
      "Ġ12": 1530,
      "ĠâĢĶ": 1531,
      "icle": 1532,
      "Ġlangu": 1533,
      "Ġobs": 1534,
      "Ġview": 1535,
      "Ġbest": 1536,
      "Ġtop": 1537,
      "Ġhead": 1538,
      "ĠChrist": 1539,
      "Ġbi": 1540,
      "Ġbetter": 1541,
      "Ġlocal": 1542,
      "iness": 1543,
      "Ġ$": 1544,
      "Ġcost": 1545,
      "ients": 1546,
      "ĠHowever": 1547,
      "Ġbir": 1548,
      "Ġmeans": 1549,
      "Ġmonth": 1550,
      "Ġindu": 1551,
      "ged": 1552,
      "gen": 1553,
      "ilar": 1554,
      "Ġperform": 1555,
      "Ġ0": 1556,
      "Ġche": 1557,
      "ternational": 1558,
      "Ġlater": 1559,
      "urope": 1560,
      "Ġrad": 1561,
      "Ġfollowing": 1562,
      "Ġfre": 1563,
      "Ġdel": 1564,
      "ĠWhen": 1565,
      "resent": 1566,
      "ither": 1567,
      "Ġtri": 1568,
      "Ġtreatment": 1569,
      "eb": 1570,
      "Ġfin": 1571,
      "Ġuntil": 1572,
      "Ġtimes": 1573,
      "Ġfar": 1574,
      "ogn": 1575,
      "rid": 1576,
      "oint": 1577,
      "Ġauthor": 1578,
      "ek": 1579,
      "ware": 1580,
      "ĠAll": 1581,
      "Ġgiven": 1582,
      "iter": 1583,
      "ĠMed": 1584,
      "Ġpolit": 1585,
      "ope": 1586,
      "Ġ16": 1587,
      "Ġbased": 1588,
      "Ġmillion": 1589,
      "Ġcond": 1590,
      "ends": 1591,
      "ised": 1592,
      "Ġothers": 1593,
      "Ġpress": 1594,
      "urther": 1595,
      "ggest": 1596,
      "200": 1597,
      "Ġfac": 1598,
      "Ġcertain": 1599,
      "ling": 1600,
      "Ġrun": 1601,
      "Ġheart": 1602,
      "Ġage": 1603,
      "Ġcal": 1604,
      "pr": 1605,
      "Ġvol": 1606,
      "ĠTo": 1607,
      "Ġcase": 1608,
      "aps": 1609,
      "ĠBrit": 1610,
      "Ġlist": 1611,
      "Ġproblems": 1612,
      "face": 1613,
      "Ġmean": 1614,
      "not": 1615,
      "ĠOn": 1616,
      "Ġcancer": 1617,
      "Ġsignific": 1618,
      "ĠOr": 1619,
      "Ġkeep": 1620,
      "Ġfree": 1621,
      "ills": 1622,
      "Ġnatural": 1623,
      "ĠAf": 1624,
      "ĠEurope": 1625,
      "orld": 1626,
      "Ġsaf": 1627,
      "por": 1628,
      "aken": 1629,
      "Ġlittle": 1630,
      "Ġprevent": 1631,
      "ĠSci": 1632,
      "oid": 1633,
      "Ġseem": 1634,
      "Ġdeath": 1635,
      "Ġbook": 1636,
      "oks": 1637,
      "Ġappear": 1638,
      "ances": 1639,
      "Ġcells": 1640,
      "Ġthings": 1641,
      "Ġable": 1642,
      "ĠJohn": 1643,
      "Ġsuccess": 1644,
      "ĠEar": 1645,
      "11": 1646,
      "50": 1647,
      "Ġsuggest": 1648,
      "Ġcome": 1649,
      "Ġput": 1650,
      "Ġpopulation": 1651,
      "ots": 1652,
      "cial": 1653,
      "Ġcentury": 1654,
      "ploy": 1655,
      "Ġpost": 1656,
      "ĠUS": 1657,
      "Ġproblem": 1658,
      "ured": 1659,
      "Ġhapp": 1660,
      "oph": 1661,
      "Ġrecord": 1662,
      "Ġsw": 1663,
      "orts": 1664,
      "atory": 1665,
      "ression": 1666,
      "Ġcomput": 1667,
      "Ġlo": 1668,
      "ones": 1669,
      "Ġdeterm": 1670,
      "Ġyoung": 1671,
      "Ġstruct": 1672,
      "Ġassoci": 1673,
      "be": 1674,
      "aper": 1675,
      "Ġexist": 1676,
      "Ġplant": 1677,
      "Ġshort": 1678,
      "Ġaccess": 1679,
      "Ġ--": 1680,
      "Ġturn": 1681,
      "Ġ|": 1682,
      "ately": 1683,
      "Ġhowever": 1684,
      "ĠWar": 1685,
      "Ġresearc": 1686,
      "Ġvir": 1687,
      "idd": 1688,
      "As": 1689,
      "Ġalong": 1690,
      "ĠBe": 1691,
      "rug": 1692,
      "Ġspace": 1693,
      "Ġrele": 1694,
      "Ġestab": 1695,
      "pect": 1696,
      "ley": 1697,
      "Ġbus": 1698,
      "Ġdays": 1699,
      "elf": 1700,
      "Ġprom": 1701,
      "ĠTe": 1702,
      "Ġlevels": 1703,
      "\".": 1704,
      "ler": 1705,
      "icult": 1706,
      "over": 1707,
      "Ġdescrib": 1708,
      "Ġcomb": 1709,
      "alf": 1710,
      "ane": 1711,
      "Ġbenef": 1712,
      "lement": 1713,
      "etic": 1714,
      "Ġsystems": 1715,
      "Ġusually": 1716,
      "Ġamount": 1717,
      "ued": 1718,
      "ember": 1719,
      "Ġsing": 1720,
      "work": 1721,
      "mber": 1722,
      "erc": 1723,
      "Ġlet": 1724,
      "We": 1725,
      "Ġill": 1726,
      "Ġfil": 1727,
      "Ġtype": 1728,
      "Ġpast": 1729,
      "vious": 1730,
      "Ġcountries": 1731,
      "Ġhard": 1732,
      "ators": 1733,
      "af": 1734,
      "Ġindust": 1735,
      "by": 1736,
      "ĠGerm": 1737,
      "Ġleast": 1738,
      "most": 1739,
      "ruction": 1740,
      "ored": 1741,
      "ray": 1742,
      "ox": 1743,
      "Ġbecame": 1744,
      "nal": 1745,
      "Ġabove": 1746,
      "ocus": 1747,
      "Ġeducation": 1748,
      "erence": 1749,
      "ument": 1750,
      "ĠGen": 1751,
      "Ġcirc": 1752,
      "Ġleft": 1753,
      "Ġcolle": 1754,
      "Ġlikely": 1755,
      "Ġsimilar": 1756,
      "uture": 1757,
      "ape": 1758,
      "Ġspecial": 1759,
      "Ġdra": 1760,
      "Ġnever": 1761,
      "Ġsignificant": 1762,
      "Ġcreat": 1763,
      "Ġflow": 1764,
      "Ġinvest": 1765,
      "Ġmov": 1766,
      "Ġnational": 1767,
      "Ġclear": 1768,
      "wh": 1769,
      "obal": 1770,
      "Ġgre": 1771,
      "ĠâĢĺ": 1772,
      "isc": 1773,
      "Ġmult": 1774,
      "ott": 1775,
      "aim": 1776,
      "Ġer": 1777,
      "Ġchem": 1778,
      "ending": 1779,
      "ething": 1780,
      "ĠSc": 1781,
      "Ġbegin": 1782,
      "ribut": 1783,
      "ecially": 1784,
      "cle": 1785,
      "Ġresults": 1786,
      "Ġgeneral": 1787,
      "aster": 1788,
      "for": 1789,
      "oman": 1790,
      "Ġcommunity": 1791,
      "ortun": 1792,
      "ĠAfric": 1793,
      "aining": 1794,
      "If": 1795,
      "Ġdri": 1796,
      "Ġ197": 1797,
      "Ġoffic": 1798,
      "Ġcourse": 1799,
      "Ġcharacter": 1800,
      "Ġprim": 1801,
      "ĠGe": 1802,
      "ym": 1803,
      "Ġsite": 1804,
      "ledge": 1805,
      "Ġnext": 1806,
      "Ġplac": 1807,
      "Ġparent": 1808,
      "val": 1809,
      "Ġtoday": 1810,
      "earch": 1811,
      "Ġfunction": 1812,
      "iam": 1813,
      "ges": 1814,
      "edi": 1815,
      "Ġlanguage": 1816,
      "ĠHealth": 1817,
      "Ġchanges": 1818,
      "Ġgr": 1819,
      "ode": 1820,
      "especially": 1821,
      "Ġincrease": 1822,
      "NA": 1823,
      "ĠMay": 1824,
      "ĠWorld": 1825,
      "let": 1826,
      "sw": 1827,
      "ĠGo": 1828,
      "Ġtemper": 1829,
      "Ġconn": 1830,
      "30": 1831,
      "Ġdoct": 1832,
      "Ġenc": 1833,
      "enn": 1834,
      "Ġcrit": 1835,
      "Ġnecess": 1836,
      "Ġfeel": 1837,
      "ĠYork": 1838,
      "artment": 1839,
      "asing": 1840,
      "ilities": 1841,
      "Ġdifficult": 1842,
      "Ġwords": 1843,
      "ication": 1844,
      "ivil": 1845,
      "Ġlearn": 1846,
      "Ġask": 1847,
      "Ġline": 1848,
      "ilt": 1849,
      "Ġ30": 1850,
      "Ġmaking": 1851,
      "ales": 1852,
      "St": 1853,
      "lo": 1854,
      "ublic": 1855,
      "eter": 1856,
      "Ġdiscuss": 1857,
      "ĠWhat": 1858,
      "Ġgive": 1859,
      "ipp": 1860,
      "ours": 1861,
      "right": 1862,
      "Ġdue": 1863,
      "Ġfull": 1864,
      "ively": 1865,
      "duct": 1866,
      "Ġconditions": 1867,
      "Ġfund": 1868,
      "Ġ14": 1869,
      "ĠLe": 1870,
      "ĠCar": 1871,
      "selves": 1872,
      "Ġstudies": 1873,
      "Ġhigher": 1874,
      "Ġrepresent": 1875,
      "Ġside": 1876,
      "Ġbehav": 1877,
      "ĠAmerica": 1878,
      "app": 1879,
      "ober": 1880,
      "Ġaway": 1881,
      "Ġtru": 1882,
      "Ġprofess": 1883,
      "Ġalways": 1884,
      "itor": 1885,
      "agement": 1886,
      "Ġsomething": 1887,
      "ffic": 1888,
      "ormal": 1889,
      "ĠNorth": 1890,
      "Ġfocus": 1891,
      "yd": 1892,
      "rate": 1893,
      "Ġcases": 1894,
      "Ġterm": 1895,
      "ĠMar": 1896,
      "Ġdr": 1897,
      "Ġsubject": 1898,
      "Ġcho": 1899,
      "Ġscience": 1900,
      "Ġcomplete": 1901,
      "Ġpolic": 1902,
      "urch": 1903,
      "Ġkind": 1904,
      "oney": 1905,
      "Ġcr": 1906,
      "acc": 1907,
      "Ġground": 1908,
      "Ġupon": 1909,
      "atch": 1910,
      "Ġbrain": 1911,
      "Ġtoget": 1912,
      "Ġtogether": 1913,
      "Ġdam": 1914,
      "Ġenough": 1915,
      "Ġcity": 1916,
      "Ġstrong": 1917,
      "Ġspecific": 1918,
      "ĠDep": 1919,
      "Ġworks": 1920,
      "Ġteac": 1921,
      "Ġresearchers": 1922,
      "What": 1923,
      "rams": 1924,
      "aves": 1925,
      "Ġsum": 1926,
      "Ġtechnology": 1927,
      "Ġfuture": 1928,
      "Ġhouse": 1929,
      "Ġespecially": 1930,
      "Ġz": 1931,
      "iation": 1932,
      "Ġwhether": 1933,
      "Ġnet": 1934,
      "port": 1935,
      "ĠCal": 1936,
      "ĠAb": 1937,
      "Ġinflu": 1938,
      "omes": 1939,
      "ird": 1940,
      "15": 1941,
      "iting": 1942,
      "ann": 1943,
      "esc": 1944,
      "Ġrespons": 1945,
      "ĠSouth": 1946,
      "Ġey": 1947,
      "ĠJew": 1948,
      "son": 1949,
      "unt": 1950,
      "Ġgroups": 1951,
      "ush": 1952,
      "Ġeffects": 1953,
      ".)": 1954,
      "istic": 1955,
      "Ġlearning": 1956,
      "ĠSome": 1957,
      "Ġhaving": 1958,
      "ison": 1959,
      "yl": 1960,
      "Ġrelig": 1961,
      "Ġconcer": 1962,
      "For": 1963,
      "Ġ196": 1964,
      "Ġpatients": 1965,
      "ĠOne": 1966,
      "sh": 1967,
      "ibr": 1968,
      "Ġobserv": 1969,
      "ĠAm": 1970,
      "There": 1971,
      "SA": 1972,
      "Ġfurther": 1973,
      "Ġconsum": 1974,
      "oot": 1975,
      "Ġapplic": 1976,
      "ptoms": 1977,
      "apt": 1978,
      "ung": 1979,
      "overed": 1980,
      "itary": 1981,
      "ae": 1982,
      "Ġimpact": 1983,
      "Ġacross": 1984,
      "Ġpred": 1985,
      "Ġreturn": 1986,
      "ready": 1987,
      "Ġmembers": 1988,
      "Ġteam": 1989,
      "Ġvarious": 1990,
      "An": 1991,
      "Ġlower": 1992,
      "Ġwind": 1993,
      "ER": 1994,
      "Ġrequire": 1995,
      "ĠRep": 1996,
      "Ġflu": 1997,
      "Ġreason": 1998,
      "13": 1999,
      "Ġtry": 2000,
      "17": 2001,
      "Ġdeveloped": 2002,
      "ĠEnglish": 2003,
      "ĠSo": 2004,
      "Ġquestion": 2005,
      "Ġproduction": 2006,
      "ique": 2007,
      "reg": 2008,
      "rict": 2009,
      "side": 2010,
      "augh": 2011,
      "rated": 2012,
      "Ġtext": 2013,
      "Ġcame": 2014,
      "Ġdrug": 2015,
      "Ġprob": 2016,
      "Ġseen": 2017,
      "sych": 2018,
      "Ġindic": 2019,
      "Ġeither": 2020,
      "amm": 2021,
      "16": 2022,
      "Ġstat": 2023,
      "ĠEarth": 2024,
      "yn": 2025,
      "ĠBl": 2026,
      "verage": 2027,
      "ĠState": 2028,
      "Ġfive": 2029,
      "//": 2030,
      "org": 2031,
      "Ġrather": 2032,
      "aut": 2033,
      "Ġfall": 2034,
      "Ġsurface": 2035,
      "Ġann": 2036,
      "Ġsit": 2037,
      "Ġconsider": 2038,
      "Ġfield": 2039,
      "etimes": 2040,
      "thing": 2041,
      "Ġur": 2042,
      "Ġtaken": 2043,
      "Ġaccording": 2044,
      "ĠAss": 2045,
      "iol": 2046,
      "Ġclose": 2047,
      "ĠThat": 2048,
      "Ġplants": 2049,
      "Ġrights": 2050,
      "ibility": 2051,
      "Ġresources": 2052,
      "Ġevidence": 2053,
      "ires": 2054,
      "ream": 2055,
      "Ġphot": 2056,
      "Ġpolitical": 2057,
      "Ġmot": 2058,
      "14": 2059,
      "ery": 2060,
      "Ġwhy": 2061,
      "ches": 2062,
      "atures": 2063,
      "__": 2064,
      "Ġstates": 2065,
      "Ġ13": 2066,
      "rel": 2067,
      "Ġaccount": 2068,
      "Ġalready": 2069,
      "ification": 2070,
      "Ġmass": 2071,
      "ĠHist": 2072,
      "Ġworking": 2073,
      "ttp": 2074,
      "onst": 2075,
      "Ġclimate": 2076,
      "Ġword": 2077,
      "ĠDr": 2078,
      "ederal": 2079,
      "Ġdest": 2080,
      "aching": 2081,
      "ĠSoc": 2082,
      "Ġdone": 2083,
      "Ġlive": 2084,
      "ried": 2085,
      "Ġfail": 2086,
      "Ġmeet": 2087,
      "osis": 2088,
      "://": 2089,
      "Ġneeds": 2090,
      "ysis": 2091,
      "ournal": 2092,
      "Ġgoing": 2093,
      "ules": 2094,
      "chie": 2095,
      "Ġtoward": 2096,
      "Ġevent": 2097,
      "Ġcreate": 2098,
      "ĠX": 2099,
      "Ġprotect": 2100,
      "Ġdeg": 2101,
      "ington": 2102,
      "Ġrelations": 2103,
      "Ġsource": 2104,
      "Ġsingle": 2105,
      "bon": 2106,
      "Ġri": 2107,
      "Ġmic": 2108,
      "my": 2109,
      "Ġtot": 2110,
      "ĠAust": 2111,
      "Ġrate": 2112,
      "Ġtradition": 2113,
      "Ġhistor": 2114,
      "Ġsens": 2115,
      "ps": 2116,
      "Ġpublished": 2117,
      "Ġrecogn": 2118,
      "rown": 2119,
      "Ġexperience": 2120,
      "oon": 2121,
      "ateg": 2122,
      "illed": 2123,
      "ront": 2124,
      "ĠMan": 2125,
      "Ġess": 2126,
      "Ġrange": 2127,
      "Ġbegan": 2128,
      "Ġinit": 2129,
      "ĠShe": 2130,
      "Ġkey": 2131,
      "Ġarg": 2132,
      "Ġimprove": 2133,
      "hib": 2134,
      "Ġla": 2135,
      "Ġ194": 2136,
      "Ġknowledge": 2137,
      "ĠGu": 2138,
      "Ġmedical": 2139,
      "ĠBritish": 2140,
      "Ġways": 2141,
      "Ġtool": 2142,
      "reme": 2143,
      "stitute": 2144,
      "Ġcollect": 2145,
      "ĠWith": 2146,
      "ĠHis": 2147,
      "Ġoil": 2148,
      "ĠAct": 2149,
      "cient": 2150,
      "itud": 2151,
      "Ġparticip": 2152,
      "Ġabs": 2153,
      "ĠBy": 2154,
      "aring": 2155,
      "Ġred": 2156,
      "Ġdoc": 2157,
      "Ġrole": 2158,
      "Ġhalf": 2159,
      "uation": 2160,
      "ask": 2161,
      "Ġliving": 2162,
      "Ġanimals": 2163,
      "estern": 2164,
      "Ġsent": 2165,
      "gest": 2166,
      "Ġport": 2167,
      "oura": 2168,
      "Ġemploy": 2169,
      "roll": 2170,
      "ule": 2171,
      "Ġhold": 2172,
      "Ġeconomic": 2173,
      "Ġvalue": 2174,
      "Ġdom": 2175,
      "Ġsymptoms": 2176,
      "Ġbelow": 2177,
      "Ġthemselves": 2178,
      "Ġreally": 2179,
      "Ġitself": 2180,
      "Ġ2012": 2181,
      "amin": 2182,
      "Ġphysical": 2183,
      "Ġonce": 2184,
      "Ġwhole": 2185,
      "Ġwhite": 2186,
      "Ġloss": 2187,
      "oll": 2188,
      "Ġincreased": 2189,
      "epend": 2190,
      "Ġbig": 2191,
      "like": 2192,
      "Ġarticle": 2193,
      "Ġtook": 2194,
      "Ġcut": 2195,
      "ened": 2196,
      "Ġdetail": 2197,
      "olic": 2198,
      "Ġaddress": 2199,
      "Ġthought": 2200,
      "Ġcreated": 2201,
      "Ġactivities": 2202,
      "mb": 2203,
      "put": 2204,
      "uel": 2205,
      "ĠPr": 2206,
      "ĠComp": 2207,
      "Ġbusiness": 2208,
      "Ġrepl": 2209,
      "Ġgrowth": 2210,
      "Ġsun": 2211,
      "Ġcannot": 2212,
      "Ġalmost": 2213,
      "Ġconsidered": 2214,
      "Ġbuilding": 2215,
      "):": 2216,
      "Ġtell": 2217,
      "acks": 2218,
      "Ġblack": 2219,
      "Ġwr": 2220,
      "Ġstory": 2221,
      "Ch": 2222,
      "iple": 2223,
      "Ġ2011": 2224,
      "Ġmakes": 2225,
      "Ġnature": 2226,
      "ĠStud": 2227,
      "ĠPres": 2228,
      "Ġactivity": 2229,
      "Ġwide": 2230,
      "Ġsal": 2231,
      "fact": 2232,
      "ĠAg": 2233,
      "Ġfish": 2234,
      "sequ": 2235,
      "opy": 2236,
      "ications": 2237,
      "minist": 2238,
      "apan": 2239,
      "Ġfrequ": 2240,
      "ĠResearch": 2241,
      "Ġtypes": 2242,
      "Ġproducts": 2243,
      "Ġansw": 2244,
      "vere": 2245,
      "Ġsize": 2246,
      "ese": 2247,
      "ables": 2248,
      "Ġmor": 2249,
      "ĠIm": 2250,
      "Ġintrodu": 2251,
      "go": 2252,
      "Ġself": 2253,
      "ights": 2254,
      "Ġ2010": 2255,
      "Ġmodel": 2256,
      "Ġfamil": 2257,
      "Ġgas": 2258,
      "Ġyet": 2259,
      "Ġmonths": 2260,
      "Ġsix": 2261,
      "oses": 2262,
      "Ġrelated": 2263,
      "Ġver": 2264,
      "Ġpaper": 2265,
      "Ġpressure": 2266,
      "pid": 2267,
      "Ġclaim": 2268,
      "empt": 2269,
      "Ġadult": 2270,
      "Ġregion": 2271,
      "Ġopt": 2272,
      "rad": 2273,
      "Ġneeded": 2274,
      "Ġentire": 2275,
      "Ġscientists": 2276,
      "ĠCanad": 2277,
      "Ġmind": 2278,
      "ĠCenter": 2279,
      "Ġweek": 2280,
      "pro": 2281,
      "Ġmodern": 2282,
      "Ġcamp": 2283,
      "Al": 2284,
      "ĠCo": 2285,
      "ney": 2286,
      "itted": 2287,
      "Ġvers": 2288,
      "Ġengine": 2289,
      "Ġstep": 2290,
      "iddle": 2291,
      "ops": 2292,
      "Ġ100": 2293,
      "fer": 2294,
      "Ġachie": 2295,
      "aff": 2296,
      "rect": 2297,
      "Ġcy": 2298,
      "ulations": 2299,
      "ips": 2300,
      "Ġglobal": 2301,
      "igure": 2302,
      "sc": 2303,
      "How": 2304,
      "Ġrecomm": 2305,
      "Ġassociated": 2306,
      "Ġarch": 2307,
      "Ġsuper": 2308,
      "Ġ11": 2309,
      "Ġquestions": 2310,
      "ystem": 2311,
      "Ġneg": 2312,
      "Ġ25": 2313,
      "ivity": 2314,
      "acy": 2315,
      "ene": 2316,
      "ety": 2317,
      "hing": 2318,
      "lor": 2319,
      "Ġbar": 2320,
      "Ġquality": 2321,
      "Ġfri": 2322,
      "Ġaffect": 2323,
      "attle": 2324,
      "Ġlab": 2325,
      "ĠII": 2326,
      "Ġsepar": 2327,
      "Ġprovides": 2328,
      "Ġlay": 2329,
      "Ġcomputer": 2330,
      "uck": 2331,
      "Ġconcept": 2332,
      "Ġprovided": 2333,
      "ume": 2334,
      "Ġrequired": 2335,
      "ival": 2336,
      "aged": 2337,
      "ensive": 2338,
      "Ġ50": 2339,
      "Ã©": 2340,
      "ĠCont": 2341,
      "ai": 2342,
      "Ġearth": 2343,
      "Ġge": 2344,
      "abit": 2345,
      "ĠNo": 2346,
      "ounds": 2347,
      "Ġpotential": 2348,
      "erve": 2349,
      "ma": 2350,
      "Ġpriv": 2351,
      "urs": 2352,
      "iding": 2353,
      "Ġmaterials": 2354,
      "Ġrecent": 2355,
      "Ġpage": 2356,
      "inter": 2357,
      "AR": 2358,
      "Ġever": 2359,
      "Ġchemical": 2360,
      "Ġsure": 2361,
      "ister": 2362,
      "lying": 2363,
      "rie": 2364,
      "Ġparts": 2365,
      "Ġactually": 2366,
      "ES": 2367,
      "Ġlink": 2368,
      "Ġprograms": 2369,
      "irm": 2370,
      "Ġidea": 2371,
      "lands": 2372,
      "Ġmoney": 2373,
      "ript": 2374,
      "ID": 2375,
      "Ġconduct": 2376,
      "ĠJapan": 2377,
      "utions": 2378,
      "To": 2379,
      "ĠTr": 2380,
      "Ġfire": 2381,
      "Ġproduce": 2382,
      "Ġprote": 2383,
      "atter": 2384,
      "chan": 2385,
      "Ġreduce": 2386,
      "Ġpurp": 2387,
      "ĠMin": 2388,
      "Ġspe": 2389,
      "ĠDepartment": 2390,
      "Ġbur": 2391,
      "Ġregard": 2392,
      "Ġcomplex": 2393,
      "ĠPar": 2394,
      "rought": 2395,
      "Ġtotal": 2396,
      "Ġparents": 2397,
      "ched": 2398,
      "Ġdig": 2399,
      "Ġchall": 2400,
      "Ġservices": 2401,
      "eds": 2402,
      "Ġmeasure": 2403,
      "Ġbuilt": 2404,
      "vey": 2405,
      "Ġcoll": 2406,
      "ze": 2407,
      "ply": 2408,
      "Ġsimple": 2409,
      "utes": 2410,
      "When": 2411,
      "bo": 2412,
      "Ġpay": 2413,
      "Ġast": 2414,
      "Ġissues": 2415,
      "iction": 2416,
      "ĠSchool": 2417,
      "ĠHar": 2418,
      "ĠScience": 2419,
      "urity": 2420,
      "ief": 2421,
      "Ġstudent": 2422,
      "Ġsubst": 2423,
      "Ġreported": 2424,
      "Ġemer": 2425,
      "Ġmaint": 2426,
      "Ġsoil": 2427,
      "ging": 2428,
      "ĠWill": 2429,
      "Ġfarm": 2430,
      "Ġhttp": 2431,
      "aries": 2432,
      "Ġsett": 2433,
      "Ġsex": 2434,
      "rench": 2435,
      "Ġenvironmental": 2436,
      "Ġsat": 2437,
      "icine": 2438,
      "ashington": 2439,
      "ricult": 2440,
      "Ġshows": 2441,
      "iment": 2442,
      "cil": 2443,
      "Ġnecessary": 2444,
      "Ġrelative": 2445,
      "Ġliter": 2446,
      "Ġopportun": 2447,
      "Ġskin": 2448,
      "Ġaccept": 2449,
      "Ġreact": 2450,
      "Ġnut": 2451,
      "Ġschools": 2452,
      "ext": 2453,
      "Ġsam": 2454,
      "Ġrev": 2455,
      "Ġdiet": 2456,
      "25": 2457,
      "ores": 2458,
      "Ġgreen": 2459,
      "ump": 2460,
      "ĠJan": 2461,
      "Ġunderstanding": 2462,
      "Ġled": 2463,
      "Ġpractice": 2464,
      "Ġquick": 2465,
      "Ġcondition": 2466,
      "ternal": 2467,
      "mon": 2468,
      "Ġpattern": 2469,
      "Ġheav": 2470,
      "inary": 2471,
      "Ġsurv": 2472,
      "Ġaction": 2473,
      "ĠAfter": 2474,
      "amed": 2475,
      "ucle": 2476,
      "imately": 2477,
      "Ġdeb": 2478,
      "Ġability": 2479,
      "Ġthroughout": 2480,
      "ĠCount": 2481,
      "raft": 2482,
      "Ġservice": 2483,
      "onse": 2484,
      "Ġ2009": 2485,
      "umb": 2486,
      "usion": 2487,
      "Ġhours": 2488,
      "Ġincreasing": 2489,
      "Ġcaused": 2490,
      "AT": 2491,
      "Ġweight": 2492,
      "Ġmilitary": 2493,
      "ĠInf": 2494,
      "ĠPe": 2495,
      "ĠSec": 2496,
      "But": 2497,
      "IV": 2498,
      "Ġmatter": 2499,
      "Ġsense": 2500,
      "Ġ2008": 2501,
      "Ġprevious": 2502,
      "ĠJu": 2503,
      "Ġgreater": 2504,
      "ows": 2505,
      "icles": 2506,
      "ervation": 2507,
      "Ġtar": 2508,
      "Ġorigin": 2509,
      "ĠÂ": 2510,
      "duc": 2511,
      "osition": 2512,
      "atives": 2513,
      "nces": 2514,
      "uary": 2515,
      "order": 2516,
      "Ġmarket": 2517,
      "Ġlot": 2518,
      "stitution": 2519,
      "Ġposition": 2520,
      "Ġsea": 2521,
      "Ġsuff": 2522,
      "Ġtravel": 2523,
      "ached": 2524,
      "Ġwild": 2525,
      "ections": 2526,
      "ĠAug": 2527,
      "Ġeffective": 2528,
      "Ġlonger": 2529,
      "ening": 2530,
      "Ġlate": 2531,
      "lt": 2532,
      "arily": 2533,
      "Ġmanagement": 2534,
      "erous": 2535,
      "izing": 2536,
      "itation": 2537,
      "Ġtrue": 2538,
      "ĠInstitute": 2539,
      "ropri": 2540,
      "Ġfeet": 2541,
      "het": 2542,
      "pril": 2543,
      "Ġpath": 2544,
      "Ġcontact": 2545,
      "Ġcolon": 2546,
      "Ġdiagn": 2547,
      "Ġstandard": 2548,
      "Ġsometimes": 2549,
      "Ġconc": 2550,
      "Ġshall": 2551,
      "ĠEd": 2552,
      "Ġaverage": 2553,
      "Ġdesigned": 2554,
      "Ġinternational": 2555,
      "Ġrelationship": 2556,
      "IN": 2557,
      "ĠKing": 2558,
      "Ġtaking": 2559,
      "Ġterms": 2560,
      "ĠCalif": 2561,
      "Ġforce": 2562,
      "Ġgenerally": 2563,
      "cean": 2564,
      "Ġissue": 2565,
      "ĠEm": 2566,
      "adem": 2567,
      "Ġwritten": 2568,
      "Ġoriginal": 2569,
      "Ġviol": 2570,
      "Ġfat": 2571,
      "Ġens": 2572,
      "Ġfeed": 2573,
      "ades": 2574,
      "Ġapproach": 2575,
      "Ġdoctor": 2576,
      "ĠWashington": 2577,
      "dom": 2578,
      "based": 2579,
      "cies": 2580,
      "Ġdiv": 2581,
      "Ġago": 2582,
      "Ġattempt": 2583,
      "Ġtax": 2584,
      "bor": 2585,
      "Ġfactors": 2586,
      "ĠJune": 2587,
      "ccording": 2588,
      "Ġbelieve": 2589,
      "Ġincludes": 2590,
      "know": 2591,
      "Ġ24": 2592,
      "Ġassess": 2593,
      "ius": 2594,
      "Ġthreat": 2595,
      "Ġjob": 2596,
      "Ġshown": 2597,
      "Ġbehavior": 2598,
      "Ġpopular": 2599,
      "Ġexerc": 2600,
      "rapy": 2601,
      "Ġ=": 2602,
      "ĠAustral": 2603,
      "rew": 2604,
      "Ġproduced": 2605,
      "thern": 2606,
      "Ġsources": 2607,
      "hood": 2608,
      "Ġstructure": 2609,
      "Ġanalysis": 2610,
      "eration": 2611,
      "Ġprobably": 2612,
      "Ġforest": 2613,
      "Ġsoft": 2614,
      "hold": 2615,
      "ĠMarch": 2616,
      "aging": 2617,
      "Ġevents": 2618,
      "new": 2619,
      "Ġcivil": 2620,
      "Ġheld": 2621,
      "Ġattack": 2622,
      "vention": 2623,
      "anced": 2624,
      "oes": 2625,
      "Ġeffic": 2626,
      "ĠSu": 2627,
      "Ġtemperature": 2628,
      "fully": 2629,
      "Ġscientific": 2630,
      "Ġofficial": 2631,
      "199": 2632,
      "ength": 2633,
      "Ġreview": 2634,
      "ornia": 2635,
      "lies": 2636,
      "lex": 2637,
      "lease": 2638,
      "useum": 2639,
      "rial": 2640,
      "Ġestim": 2641,
      "ĠBo": 2642,
      "rim": 2643,
      "ronic": 2644,
      "Ġspread": 2645,
      "istance": 2646,
      "ising": 2647,
      "Ġincluded": 2648,
      "ille": 2649,
      "Ġcolor": 2650,
      "Ġce": 2651,
      "light": 2652,
      "Ġnormal": 2653,
      "Ġdou": 2654,
      "hest": 2655,
      "www": 2656,
      "Ġsou": 2657,
      "leep": 2658,
      "On": 2659,
      "Ġforms": 2660,
      "Ġcoun": 2661,
      "Ġseries": 2662,
      "Ġlog": 2663,
      "ĠFran": 2664,
      "Ġslow": 2665,
      "Ġcarbon": 2666,
      "Ġtown": 2667,
      "Ġindustry": 2668,
      "ressed": 2669,
      "ON": 2670,
      "Ġrespect": 2671,
      "'re": 2672,
      "Ġsqu": 2673,
      "Ġthing": 2674,
      "Ġcit": 2675,
      "istics": 2676,
      "Ġcomes": 2677,
      "Ġinvolved": 2678,
      "Ġimage": 2679,
      "Ġparticularly": 2680,
      "inks": 2681,
      "Ġexc": 2682,
      "Ġsimply": 2683,
      "Ġheat": 2684,
      "eal": 2685,
      "erson": 2686,
      "asc": 2687,
      "amb": 2688,
      "Ġstop": 2689,
      "Ġdispl": 2690,
      "OR": 2691,
      "Ġfa": 2692,
      "ĠWest": 2693,
      "Ġbab": 2694,
      "Ġ2007": 2695,
      "ĠFrench": 2696,
      "Ġcontent": 2697,
      "Ġmechan": 2698,
      "ĠOct": 2699,
      "Ġut": 2700,
      "Ġfem": 2701,
      "Ġinteract": 2702,
      "oly": 2703,
      "Ġestablished": 2704,
      "Ġthous": 2705,
      "ĠPer": 2706,
      "Ġtalk": 2707,
      "aving": 2708,
      "ĠPress": 2709,
      "Ġpoor": 2710,
      "ecause": 2711,
      "ctions": 2712,
      "Ġpict": 2713,
      "Ġuses": 2714,
      "Ġdeep": 2715,
      "You": 2716,
      "issions": 2717,
      "Ġtheory": 2718,
      "Ġnumbers": 2719,
      "ceed": 2720,
      "Ġbring": 2721,
      "Ġmagn": 2722,
      "ĠRiver": 2723,
      "Ġdemonst": 2724,
      "Ġpolicy": 2725,
      "ns": 2726,
      "ĠCong": 2727,
      "Ġindividuals": 2728,
      "Ġmovement": 2729,
      "Ġthus": 2730,
      "Ġvisit": 2731,
      "ĠPresident": 2732,
      "undred": 2733,
      "Ġcontain": 2734,
      "isions": 2735,
      "ev": 2736,
      "ĠDav": 2737,
      "Ġpersonal": 2738,
      "ĠQu": 2739,
      "Ġpoll": 2740,
      "ulated": 2741,
      "Ġdeveloping": 2742,
      "Ġsociety": 2743,
      "Ġreading": 2744,
      "ĠCalifornia": 2745,
      "Ġoutside": 2746,
      "Ġnorth": 2747,
      "haps": 2748,
      "Ġinj": 2749,
      "Ġnation": 2750,
      "Ġvari": 2751,
      "Ġcauses": 2752,
      "ĠChina": 2753,
      "Ġvariety": 2754,
      "itude": 2755,
      "Ġcat": 2756,
      "Ġtraining": 2757,
      "ulate": 2758,
      "Ġap": 2759,
      "Ġ40": 2760,
      "ĠGovern": 2761,
      "ography": 2762,
      "ners": 2763,
      "Ġemb": 2764,
      "Ġlives": 2765,
      "Ġlabor": 2766,
      "ĠWhile": 2767,
      "Ġserious": 2768,
      "Ġinvestig": 2769,
      "Ġwhose": 2770,
      "Ġalthough": 2771,
      "Ġrefer": 2772,
      "ĠPre": 2773,
      "Ġbreak": 2774,
      "Ġonline": 2775,
      "Ġdog": 2776,
      "verse": 2777,
      "Ġindepend": 2778,
      "Ġskills": 2779,
      "Ġmeaning": 2780,
      "Ġsil": 2781,
      "ror": 2782,
      "ider": 2783,
      "ĠIndian": 2784,
      "Ġinstit": 2785,
      "rand": 2786,
      "ĠEduc": 2787,
      "ĠApril": 2788,
      "hern": 2789,
      "ĠMany": 2790,
      "ĠAugust": 2791,
      "Ġmother": 2792,
      "ises": 2793,
      "Ġresponse": 2794,
      "Ġremov": 2795,
      "Ġcompl": 2796,
      "Ġtarget": 2797,
      "ĠRet": 2798,
      "ĠGerman": 2799,
      "ĠSept": 2800,
      "Ġmusic": 2801,
      "Ġbasic": 2802,
      "Ġbirth": 2803,
      "rael": 2804,
      "Ġconsist": 2805,
      "osure": 2806,
      "Ġpsych": 2807,
      "ufact": 2808,
      "yle": 2809,
      "reng": 2810,
      "ibrary": 2811,
      "Ġface": 2812,
      "ĠInternational": 2813,
      "see": 2814,
      "ĠServ": 2815,
      "ads": 2816,
      "ĠIndia": 2817,
      "Ġec": 2818,
      "irit": 2819,
      "ĠPart": 2820,
      "ift": 2821,
      "ĠChar": 2822,
      "\",": 2823,
      "Ġanimal": 2824,
      "Ġmethods": 2825,
      "Ġclean": 2826,
      "Ġdecl": 2827,
      "Ġnight": 2828,
      "ĠEl": 2829,
      "Ġvide": 2830,
      "Ġsold": 2831,
      "overy": 2832,
      "where": 2833,
      "Ġnetwork": 2834,
      "Ġadded": 2835,
      "Ġmiles": 2836,
      "Ġbr": 2837,
      "olec": 2838,
      "Ġcapt": 2839,
      "Ġstri": 2840,
      "Ġetc": 2841,
      "aily": 2842,
      "Ġprimary": 2843,
      "uth": 2844,
      "uge": 2845,
      "Ġi": 2846,
      "ĠCor": 2847,
      "Ġx": 2848,
      "Ġencoura": 2849,
      "Ġcheck": 2850,
      "Ġcontinue": 2851,
      "hel": 2852,
      "AN": 2853,
      "Ġconcent": 2854,
      "22": 2855,
      "ha": 2856,
      "ĠJuly": 2857,
      "Ġsearch": 2858,
      "na": 2859,
      "Ġir": 2860,
      "ĠHistory": 2861,
      "IS": 2862,
      "Ġmount": 2863,
      "Ġmess": 2864,
      "Ġextreme": 2865,
      "Ġwarm": 2866,
      "ĠCons": 2867,
      "Ġimplement": 2868,
      "rast": 2869,
      "ĠEuropean": 2870,
      "Ġprec": 2871,
      "Äģ": 2872,
      "orthern": 2873,
      "Ġtur": 2874,
      "Ġcross": 2875,
      "Ġlack": 2876,
      "Ġbooks": 2877,
      "ternet": 2878,
      "ĠIS": 2879,
      "Ġinteg": 2880,
      "oor": 2881,
      "Ġlarger": 2882,
      "ĠFeb": 2883,
      "ĠApp": 2884,
      "Ġsouth": 2885,
      "Ġcompany": 2886,
      "set": 2887,
      "Ġdeal": 2888,
      "aches": 2889,
      "Ġord": 2890,
      "ĠGl": 2891,
      "Ġwent": 2892,
      "omb": 2893,
      "ĠAc": 2894,
      "Ġwriting": 2895,
      "Ġeat": 2896,
      "Ġvirus": 2897,
      "Ġthird": 2898,
      "ĠMc": 2899,
      "Ġwood": 2900,
      "Ġreceived": 2901,
      "ĠSm": 2902,
      "ribution": 2903,
      "elling": 2904,
      "Ġdocument": 2905,
      "Ġdamage": 2906,
      "Ġmach": 2907,
      "elt": 2908,
      "Ġvacc": 2909,
      "rance": 2910,
      "uman": 2911,
      "ĠAssoci": 2912,
      "ĠMost": 2913,
      "Ġdefin": 2914,
      "Ġelectric": 2915,
      "Ġselect": 2916,
      "He": 2917,
      "Ġtherefore": 2918,
      "ana": 2919,
      "cember": 2920,
      "Ġhealthy": 2921,
      "PA": 2922,
      "Ġfront": 2923,
      "Ġfederal": 2924,
      "wise": 2925,
      "ension": 2926,
      "ĠMe": 2927,
      "Ġadditional": 2928,
      "edia": 2929,
      "ems": 2930,
      "Ġappropri": 2931,
      "Ġwebs": 2932,
      "Ġregular": 2933,
      "Ġnearly": 2934,
      "lier": 2935,
      "ĠProg": 2936,
      "lim": 2937,
      "Ġcompet": 2938,
      "Ġ/": 2939,
      "60": 2940,
      "IC": 2941,
      "Ġsafe": 2942,
      "ino": 2943,
      "Ġste": 2944,
      "ancy": 2945,
      "Ġhundred": 2946,
      "ground": 2947,
      "Ġculture": 2948,
      "Ġcompon": 2949,
      "Ġinstead": 2950,
      "80": 2951,
      "Ġattention": 2952,
      "rab": 2953,
      "Ġimmedi": 2954,
      "Ġwall": 2955,
      "rs": 2956,
      "Ġnucle": 2957,
      "pper": 2958,
      "Ġfru": 2959,
      "Ġavoid": 2960,
      "Ġperm": 2961,
      "ĠHer": 2962,
      "ĠChild": 2963,
      "Ġcoast": 2964,
      "aul": 2965,
      "ĠBar": 2966,
      "40": 2967,
      "cell": 2968,
      "Ġbroad": 2969,
      "Ġlove": 2970,
      "exic": 2971,
      "ls": 2972,
      "Ġjud": 2973,
      "Ġgrowing": 2974,
      "Ġcentral": 2975,
      "Ġcommand": 2976,
      "Ġfav": 2977,
      "Ġleaders": 2978,
      "ĠRec": 2979,
      "ĠWilliam": 2980,
      "ĠNA": 2981,
      "Ġreflect": 2982,
      "oles": 2983,
      "den": 2984,
      "rote": 2985,
      "Ġeasy": 2986,
      "uk": 2987,
      "Ġsoon": 2988,
      "abet": 2989,
      "isms": 2990,
      "Ġsust": 2991,
      "osing": 2992,
      "Ġdoing": 2993,
      "Ġdraw": 2994,
      "rig": 2995,
      "Ġexcept": 2996,
      "astic": 2997,
      "ĠIsrael": 2998,
      "ĠOther": 2999,
      "ilos": 3000,
      "reek": 3001,
      "ĠVir": 3002,
      "Ġstreng": 3003,
      "ĠChristian": 3004,
      "pe": 3005,
      "omet": 3006,
      "Ġseems": 3007,
      "Ġsection": 3008,
      "Ġ21": 3009,
      "ming": 3010,
      "lation": 3011,
      ");": 3012,
      "Ġquite": 3013,
      "Ġmicro": 3014,
      "Ġsafety": 3015,
      "Ġsevere": 3016,
      "Ġprep": 3017,
      "ĠMore": 3018,
      "Ġbeginning": 3019,
      "ĠInt": 3020,
      "Ġhimself": 3021,
      "Ġhar": 3022,
      "Ġidentify": 3023,
      "Ġreve": 3024,
      "imum": 3025,
      "Ġcompan": 3026,
      "Ġdetermine": 3027,
      "estic": 3028,
      "iers": 3029,
      "ĠAmericans": 3030,
      "lection": 3031,
      "Ġcover": 3032,
      "Ġbacter": 3033,
      "year": 3034,
      "Ġeval": 3035,
      "Ġtakes": 3036,
      "ĠInc": 3037,
      "Ġprint": 3038,
      "gar": 3039,
      "lied": 3040,
      "Ġteachers": 3041,
      "Ġideas": 3042,
      "Ġadminist": 3043,
      "rieved": 3044,
      "Ġhor": 3045,
      "23": 3046,
      "Ġmanufact": 3047,
      "Ġshare": 3048,
      "istry": 3049,
      "enced": 3050,
      "used": 3051,
      "ban": 3052,
      "Ġtend": 3053,
      "Ġreligious": 3054,
      "Ġlargest": 3055,
      "Ġbrought": 3056,
      "Ġson": 3057,
      "Ġdescribed": 3058,
      "Ġsites": 3059,
      "ties": 3060,
      "Ġfamilies": 3061,
      "ovember": 3062,
      "Ġspeed": 3063,
      "ama": 3064,
      "ĠMus": 3065,
      "Ġobt": 3066,
      "Ġ2006": 3067,
      "Ġsound": 3068,
      "Ġpositive": 3069,
      "oke": 3070,
      "room": 3071,
      "Ġevolution": 3072,
      "ĠJanuary": 3073,
      "Ġaltern": 3074,
      "Ġtraditional": 3075,
      "ĠAnt": 3076,
      "Ġdirectly": 3077,
      "Ġbal": 3078,
      "Ġmill": 3079,
      "term": 3080,
      "ellow": 3081,
      "mosp": 3082,
      "Ġsus": 3083,
      "ription": 3084,
      "ĠCity": 3085,
      "Ġborn": 3086,
      "Ġrout": 3087,
      "Ġnews": 3088,
      "Ġcorrect": 3089,
      "life": 3090,
      "ying": 3091,
      "ĠAfrica": 3092,
      "ĠAlthough": 3093,
      "bit": 3094,
      "Ġ,": 3095,
      "Ġ193": 3096,
      "Ġproced": 3097,
      "can": 3098,
      "EN": 3099,
      "24": 3100,
      "Ġlaws": 3101,
      "Ġcompared": 3102,
      "Ġhabit": 3103,
      "ruary": 3104,
      "ĠMexic": 3105,
      "ĠEngland": 3106,
      "Ġbenefits": 3107,
      "ields": 3108,
      "Ġforces": 3109,
      "Ġhost": 3110,
      "gn": 3111,
      "Ġprior": 3112,
      "ridge": 3113,
      "Ġsleep": 3114,
      "And": 3115,
      "Ġ23": 3116,
      "Ġlimited": 3117,
      "Ġ2013": 3118,
      "ĠCongress": 3119,
      "Ġefforts": 3120,
      "Ġdoesn": 3121,
      "Ġpoints": 3122,
      "ĠSeptember": 3123,
      "orks": 3124,
      "lin": 3125,
      "erg": 3126,
      "ford": 3127,
      "ĠNe": 3128,
      "ĠSan": 3129,
      "Ġcommunities": 3130,
      "Ġcitiz": 3131,
      "Ġlost": 3132,
      "Ġhumans": 3133,
      "eks": 3134,
      "Ġancient": 3135,
      "Ġbase": 3136,
      "Ġkids": 3137,
      "anks": 3138,
      "Ġdang": 3139,
      "Ġtests": 3140,
      "Ġder": 3141,
      "ĠCounty": 3142,
      "Ġdied": 3143,
      "Ġful": 3144,
      "ĠRuss": 3145,
      "Ġeth": 3146,
      "Ġspeak": 3147,
      "Ġox": 3148,
      "Ġstress": 3149,
      "Ġsupply": 3150,
      "iles": 3151,
      "Ġ2005": 3152,
      "yond": 3153,
      "ĠCanada": 3154,
      "Ġpp": 3155,
      "ĠGeneral": 3156,
      "ĠPol": 3157,
      "Ġprivate": 3158,
      "Ġlands": 3159,
      "ĠAfrican": 3160,
      "ĠOctober": 3161,
      "uments": 3162,
      "Ġdecre": 3163,
      "Ġworkers": 3164,
      "Ġveget": 3165,
      "Ġbott": 3166,
      "Ġarri": 3167,
      "Ġstarted": 3168,
      "ĠJes": 3169,
      "Ġfoods": 3170,
      "ĠChurch": 3171,
      "Ġprogress": 3172,
      "Ġformer": 3173,
      "itte": 3174,
      "Ġdisp": 3175,
      "ham": 3176,
      "Ġactive": 3177,
      "ĠReg": 3178,
      "Ġfather": 3179,
      "inct": 3180,
      "Ġpatient": 3181,
      "Ġcenter": 3182,
      "Ġinterp": 3183,
      "Ġanswer": 3184,
      "ster": 3185,
      "Ġhyd": 3186,
      "ĠDecember": 3187,
      "ĠJewish": 3188,
      "aces": 3189,
      "ĠDo": 3190,
      "Ġking": 3191,
      "Ġinfection": 3192,
      "Ġrapid": 3193,
      "Ġice": 3194,
      "ĠMon": 3195,
      "Ġperformance": 3196,
      "Ġsolar": 3197,
      "Ġbehind": 3198,
      "ondon": 3199,
      "ica": 3200,
      "Ġtold": 3201,
      "Ġagree": 3202,
      "Ġelse": 3203,
      "âĢ¦": 3204,
      "Ġrare": 3205,
      "Ġclin": 3206,
      "Ġtree": 3207,
      "Ġproperty": 3208,
      "mar": 3209,
      "Ġcommer": 3210,
      "Ġ2000": 3211,
      "orders": 3212,
      "Ġrates": 3213,
      "Ġhighly": 3214,
      "aly": 3215,
      "Ġharm": 3216,
      "ĠPark": 3217,
      "ously": 3218,
      "Ġlocated": 3219,
      "Ġcontains": 3220,
      "Ġunc": 3221,
      "Ġtools": 3222,
      "leb": 3223,
      "Ġmedia": 3224,
      "ĠArt": 3225,
      "Ġestablish": 3226,
      "Ġquickly": 3227,
      "Ġuseful": 3228,
      "Ġlength": 3229,
      "Ġgetting": 3230,
      "alled": 3231,
      "ĠTw": 3232,
      "Ġtiss": 3233,
      "Ġcontinued": 3234,
      "ĠCoun": 3235,
      "Ġfile": 3236,
      "ĠRetrieved": 3237,
      "Ġimages": 3238,
      "ĠSch": 3239,
      "Ġdrink": 3240,
      "Ġmid": 3241,
      "asons": 3242,
      "uries": 3243,
      "oming": 3244,
      "Ġhot": 3245,
      "Ġhands": 3246,
      "Ġlooking": 3247,
      "itis": 3248,
      "Ġimpl": 3249,
      "Ġinside": 3250,
      "Ġtrees": 3251,
      "Ġ195": 3252,
      "urg": 3253,
      "ĠGreat": 3254,
      "Ġvit": 3255,
      "Ġcapital": 3256,
      "vest": 3257,
      "Ġ22": 3258,
      "Ġcust": 3259,
      "ĠTra": 3260,
      "arr": 3261,
      "Ġcarry": 3262,
      "Ġleading": 3263,
      "Ġlif": 3264,
      "ĠSociety": 3265,
      "Ġhy": 3266,
      "fficient": 3267,
      "Ġaware": 3268,
      "Ġdifference": 3269,
      "Ġwrote": 3270,
      "One": 3271,
      "ĠHIV": 3272,
      "Ġcontribut": 3273,
      "Ġagricult": 3274,
      "Ġlines": 3275,
      "Ġcard": 3276,
      "ĠFirst": 3277,
      "Ġtransport": 3278,
      "cks": 3279,
      "iency": 3280,
      "Ġrock": 3281,
      "Ġremain": 3282,
      "ĠEast": 3283,
      "Ġbasis": 3284,
      "Ġfight": 3285,
      "ĠEducation": 3286,
      "itect": 3287,
      "ony": 3288,
      "ĠUs": 3289,
      "Ġadults": 3290,
      "lam": 3291,
      "Ġeasily": 3292,
      "Ġbillion": 3293,
      "equ": 3294,
      "arian": 3295,
      "ĠOf": 3296,
      "ĠLaw": 3297,
      "Ġweeks": 3298,
      "apter": 3299,
      "70": 3300,
      "ils": 3301,
      "idents": 3302,
      "Ġnothing": 3303,
      "Ġplaces": 3304,
      "itting": 3305,
      "ospital": 3306,
      "Ġgot": 3307,
      "Ġobjects": 3308,
      "Ġbit": 3309,
      "fect": 3310,
      "ĠWeb": 3311,
      "encies": 3312,
      "Ġdaily": 3313,
      "At": 3314,
      "Ġwa": 3315,
      "Ġang": 3316,
      "hens": 3317,
      "iques": 3318,
      "ĠTechn": 3319,
      "icated": 3320,
      "Ġtransm": 3321,
      "Ġsaw": 3322,
      "Ġdark": 3323,
      "Ġmolec": 3324,
      "Ġachieve": 3325,
      "inated": 3326,
      "rag": 3327,
      "ara": 3328,
      "ĠJournal": 3329,
      "Ġjo": 3330,
      "ĠNovember": 3331,
      "Ġquant": 3332,
      "aters": 3333,
      "Ġdiseases": 3334,
      "ĠSw": 3335,
      "IT": 3336,
      "inese": 3337,
      "Ġcalc": 3338,
      "Ġearlier": 3339,
      "izations": 3340,
      "Ġsomeone": 3341,
      "Ġseason": 3342,
      "Ġfollowed": 3343,
      "Ġdrugs": 3344,
      "orge": 3345,
      "Ġsummer": 3346,
      "Ġprotection": 3347,
      "Ġten": 3348,
      "Ġdry": 3349,
      "Ġtrade": 3350,
      "ED": 3351,
      "Ġcred": 3352,
      "Ġremains": 3353,
      "Ġbad": 3354,
      "Ġfoot": 3355,
      "craft": 3356,
      "Ġfeatures": 3357,
      "men": 3358,
      "Ġfinan": 3359,
      "uff": 3360,
      "head": 3361,
      "Ġep": 3362,
      "Ġvict": 3363,
      "Ġprotein": 3364,
      "water": 3365,
      "ĠPat": 3366,
      "29": 3367,
      "Ġarm": 3368,
      "Ġadop": 3369,
      "Ġdead": 3370,
      "Ġapprox": 3371,
      "âĢ¢": 3372,
      "Ġrecently": 3373,
      "Ġprinc": 3374,
      "ĠNot": 3375,
      "Ġexpect": 3376,
      "Ġmiddle": 3377,
      "ĠMy": 3378,
      "Ġund": 3379,
      "ĠFebruary": 3380,
      "Ġbul": 3381,
      "coh": 3382,
      "Ġinfluence": 3383,
      "Ġmember": 3384,
      "Ġvideo": 3385,
      "Ġfram": 3386,
      "Ġallows": 3387,
      "Ġdemand": 3388,
      "Ġoffer": 3389,
      "Ġdecision": 3390,
      "Ġappropriate": 3391,
      "ĠRo": 3392,
      "hemat": 3393,
      "Ġinstru": 3394,
      "Ġextra": 3395,
      "sect": 3396,
      "ĠUnion": 3397,
      "Ġcourt": 3398,
      "Ġminutes": 3399,
      "ought": 3400,
      "Ġeight": 3401,
      "Ġaspect": 3402,
      "Ġcosts": 3403,
      "Ġcollection": 3404,
      "ĠFrom": 3405,
      "ĠCour": 3406,
      "Ġfuel": 3407,
      "Ġmemory": 3408,
      "Ġnamed": 3409,
      "ocr": 3410,
      "Ġpurpose": 3411,
      "Ġeye": 3412,
      "anish": 3413,
      "Ġunique": 3414,
      "Ġhous": 3415,
      "ender": 3416,
      "ĠBi": 3417,
      "rest": 3418,
      "ĠDay": 3419,
      "Ġcrop": 3420,
      "alt": 3421,
      "Ġcapac": 3422,
      "Ġsituation": 3423,
      "ST": 3424,
      "ari": 3425,
      "Ġchalleng": 3426,
      "Ġdate": 3427,
      "Ġatmosp": 3428,
      "reet": 3429,
      "rogen": 3430,
      "Ġgenetic": 3431,
      "unch": 3432,
      "Ġmultiple": 3433,
      "Ġdestro": 3434,
      "Ġprojects": 3435,
      "Ġstandards": 3436,
      "ipment": 3437,
      "Ġgradu": 3438,
      "Ġadj": 3439,
      "Ġexact": 3440,
      "ologies": 3441,
      "Ġasked": 3442,
      "ĠArch": 3443,
      "By": 3444,
      "sec": 3445,
      "omy": 3446,
      "bl": 3447,
      "Ġvalues": 3448,
      "26": 3449,
      "Ġult": 3450,
      "ĠAssociation": 3451,
      "Ġden": 3452,
      "ula": 3453,
      "Ġexpected": 3454,
      "ĠHouse": 3455,
      "ingu": 3456,
      "Ġwebsite": 3457,
      "AL": 3458,
      "iber": 3459,
      "racy": 3460,
      "Ġstra": 3461,
      "itch": 3462,
      "Ġsequ": 3463,
      "Ġconstruction": 3464,
      "Ġcou": 3465,
      "Ġplaced": 3466,
      "Ġpregn": 3467,
      "rees": 3468,
      "ĠDis": 3469,
      "airs": 3470,
      "Ġolder": 3471,
      "AC": 3472,
      "Ġexercise": 3473,
      "Ġlegal": 3474,
      "Ġelements": 3475,
      "ĠLondon": 3476,
      "Ġalone": 3477,
      "Ġcompanies": 3478,
      "Ġwalk": 3479,
      "Ġsecurity": 3480,
      "Ġcritical": 3481,
      "nov": 3482,
      "Ġreceive": 3483,
      "Ġmission": 3484,
      "ĠYour": 3485,
      "ĠConf": 3486,
      "21": 3487,
      "Ġformed": 3488,
      "wide": 3489,
      "Ġeffort": 3490,
      "abetes": 3491,
      "Ġtable": 3492,
      "inate": 3493,
      "Ġcool": 3494,
      "28": 3495,
      "iot": 3496,
      "Ġgave": 3497,
      "ĠRoman": 3498,
      "aught": 3499,
      "Ġtit": 3500,
      "Ġoccup": 3501,
      "Ġdiscovered": 3502,
      "Ġfast": 3503,
      "Ġplanet": 3504,
      "Ġsoftware": 3505,
      "Ġsurround": 3506,
      "Ġkill": 3507,
      "imal": 3508,
      "Ġeconomy": 3509,
      "off": 3510,
      "Ġrequires": 3511,
      "Ġsch": 3512,
      "Ġbreast": 3513,
      "Ġpan": 3514,
      "Ġenj": 3515,
      "ĠSystem": 3516,
      "iece": 3517,
      "Ġbirds": 3518,
      "ĠEnvironment": 3519,
      "Ġpen": 3520,
      "ĠCouncil": 3521,
      "Ġpack": 3522,
      "ĠSee": 3523,
      "rates": 3524,
      "Ġpresident": 3525,
      "king": 3526,
      "Ġmom": 3527,
      "ittee": 3528,
      "time": 3529,
      "Ġaud": 3530,
      "oted": 3531,
      "Ġessential": 3532,
      "Ġcorn": 3533,
      "Ġapplication": 3534,
      "atin": 3535,
      "Ġsymb": 3536,
      "Ġbeg": 3537,
      "Ġbecomes": 3538,
      "Ġexposure": 3539,
      "ĠDevelop": 3540,
      "27": 3541,
      "Ġ60": 3542,
      "Ġstay": 3543,
      "Ġ2004": 3544,
      "Ġacid": 3545,
      "Ġ28": 3546,
      "Ġadapt": 3547,
      "ĠChinese": 3548,
      "Ġfinal": 3549,
      "Ġbeyond": 3550,
      "Ġrise": 3551,
      "Ġsn": 3552,
      "oring": 3553,
      "ĠKe": 3554,
      "Ġtele": 3555,
      "So": 3556,
      "Ġexec": 3557,
      "izes": 3558,
      "Ġbaby": 3559,
      "Ġensure": 3560,
      "ĠSur": 3561,
      "Ġallowed": 3562,
      "Ġaim": 3563,
      "Ġspirit": 3564,
      "entially": 3565,
      "Ġrain": 3566,
      "aced": 3567,
      "Ġversion": 3568,
      "ĠJesus": 3569,
      "Ġmention": 3570,
      "ĠProt": 3571,
      "gery": 3572,
      "Ġtox": 3573,
      "Ġmonitor": 3574,
      "Ġones": 3575,
      "Ġ2003": 3576,
      "odies": 3577,
      "rition": 3578,
      "enty": 3579,
      "Ġweb": 3580,
      "resh": 3581,
      "Ġteaching": 3582,
      "Ġmis": 3583,
      "Ġrespond": 3584,
      "Ġwinter": 3585,
      "Ġpredict": 3586,
      "Ġgoal": 3587,
      "ĠHigh": 3588,
      "Ġreach": 3589,
      "Ġperhaps": 3590,
      "Ġuser": 3591,
      "ky": 3592,
      "pped": 3593,
      "amer": 3594,
      "ĠDavid": 3595,
      "aid": 3596,
      "gypt": 3597,
      "ĠProgram": 3598,
      "Ġimportance": 3599,
      "Ġgives": 3600,
      "Ġprocesses": 3601,
      "edom": 3602,
      "Ġ26": 3603,
      "ĠUN": 3604,
      "Ex": 3605,
      "Ġreports": 3606,
      "udd": 3607,
      "Ġweather": 3608,
      "cohol": 3609,
      "Ġhope": 3610,
      "Ġroom": 3611,
      "Ġcurrently": 3612,
      "Ġvirt": 3613,
      "atur": 3614,
      "Ġgame": 3615,
      "ype": 3616,
      "Ġappears": 3617,
      "come": 3618,
      "ĠVal": 3619,
      "Ġanything": 3620,
      "Ġanti": 3621,
      "Ġwrite": 3622,
      "ĠJames": 3623,
      "Ġresponsible": 3624,
      "Ġgard": 3625,
      "su": 3626,
      "semb": 3627,
      "Ġhon": 3628,
      "Ġdisplay": 3629,
      "Ġ190": 3630,
      "Ġcold": 3631,
      "Ġball": 3632,
      "Ġanaly": 3633,
      "Ġwoman": 3634,
      "Ġrule": 3635,
      "Ġsmaller": 3636,
      "II": 3637,
      "ixed": 3638,
      "Ġscreen": 3639,
      "Ġsustain": 3640,
      "olar": 3641,
      "back": 3642,
      "resp": 3643,
      "Ġnegative": 3644,
      "eech": 3645,
      "ĠDNA": 3646,
      "ĠTex": 3647,
      "ĠGovernment": 3648,
      "ests": 3649,
      "known": 3650,
      "iar": 3651,
      "Ġlegis": 3652,
      "Ġ27": 3653,
      "Ġstrateg": 3654,
      "vant": 3655,
      "These": 3656,
      "Ġdepend": 3657,
      "Ġtechniques": 3658,
      "irection": 3659,
      "Ġtherapy": 3660,
      "Ġstru": 3661,
      "Ġidentified": 3662,
      "Ġacqu": 3663,
      "phas": 3664,
      "Ġvill": 3665,
      "Ġphilos": 3666,
      "Ġlocation": 3667,
      "Ġfriends": 3668,
      "Ġwon": 3669,
      "Ġtesting": 3670,
      "Ġcopy": 3671,
      "ĠDuring": 3672,
      "ciples": 3673,
      "Ġemot": 3674,
      "Ġoccurs": 3675,
      "Ġequipment": 3676,
      "Ġcode": 3677,
      "erved": 3678,
      "Ġpeace": 3679,
      "rolled": 3680,
      "DA": 3681,
      "Ġrelatively": 3682,
      "Ġtowards": 3683,
      "Ġhelps": 3684,
      "Ġdevice": 3685,
      "Ġriver": 3686,
      "BN": 3687,
      "Ġeyes": 3688,
      "asion": 3689,
      "Ġwaste": 3690,
      "EC": 3691,
      "Ġfear": 3692,
      "Ġgold": 3693,
      "Ġmodels": 3694,
      "ĠPublic": 3695,
      "Ġneigh": 3696,
      "ste": 3697,
      "Ġdevices": 3698,
      "ĠGermany": 3699,
      "ĠRev": 3700,
      "lege": 3701,
      "Ġconsequ": 3702,
      "Ġcontinu": 3703,
      "á¹": 3704,
      "enth": 3705,
      "Ġforeign": 3706,
      "Ġfindings": 3707,
      "Ġsuccessful": 3708,
      "Ġnames": 3709,
      "Ġcultural": 3710,
      "ĠPhil": 3711,
      "Ġegg": 3712,
      "Ġcitizens": 3713,
      "ĠInternet": 3714,
      "ocks": 3715,
      "more": 3716,
      "ĠCommun": 3717,
      "Ġceleb": 3718,
      "ĠVirgin": 3719,
      "Ġhyp": 3720,
      "Ġmajority": 3721,
      "ĠFrance": 3722,
      "Ġaffected": 3723,
      "nes": 3724,
      "Ġenjoy": 3725,
      "Ġmental": 3726,
      "Ġstar": 3727,
      "aint": 3728,
      "ĠGreen": 3729,
      "Pro": 3730,
      "Ġdegree": 3731,
      "bre": 3732,
      "Ġorganization": 3733,
      "vert": 3734,
      "Ġadvant": 3735,
      "Ġhistorical": 3736,
      "oe": 3737,
      "Ġblock": 3738,
      "Ġstatus": 3739,
      "Ġ...": 3740,
      "book": 3741,
      "Ġreduced": 3742,
      "ĠPal": 3743,
      "Ġequal": 3744,
      "oud": 3745,
      "Ġimag": 3746,
      "ĠEven": 3747,
      "fort": 3748,
      "ĠMich": 3749,
      "Ġpet": 3750,
      "ĠRed": 3751,
      "ĠTrans": 3752,
      "Ġmap": 3753,
      "ologist": 3754,
      "Ġoffice": 3755,
      "Ġmut": 3756,
      "aign": 3757,
      "ĠProf": 3758,
      "ĠSim": 3759,
      "Un": 3760,
      "ament": 3761,
      "Ġrules": 3762,
      "ogen": 3763,
      "Ġapplications": 3764,
      "Some": 3765,
      "ĠVol": 3766,
      "ĠAustralia": 3767,
      "Ġproviding": 3768,
      "ĠRober": 3769,
      "oration": 3770,
      "Ġthousands": 3771,
      "ĠMuseum": 3772,
      "90": 3773,
      "cont": 3774,
      "ĠCom": 3775,
      "rief": 3776,
      "ĠNASA": 3777,
      "Ġthinking": 3778,
      "Ġbeaut": 3779,
      "ĠAng": 3780,
      "ĠMod": 3781,
      "antic": 3782,
      "ĠJews": 3783,
      "Ġpassed": 3784,
      "oma": 3785,
      "Ġillust": 3786,
      "Ġfinancial": 3787,
      "Ġbelief": 3788,
      "oday": 3789,
      "Ġexpand": 3790,
      "Ġstaff": 3791,
      "Ġ2001": 3792,
      "che": 3793,
      "Ġcop": 3794,
      "ĠBecause": 3795,
      "Ġcoming": 3796,
      "Ġchurch": 3797,
      "iny": 3798,
      "ĠEgypt": 3799,
      "Ġcompar": 3800,
      "Ġcities": 3801,
      "Ġocean": 3802,
      "Ġroad": 3803,
      "aled": 3804,
      "Ġlat": 3805,
      "Ġbenefit": 3806,
      "ellig": 3807,
      "Ġconflic": 3808,
      "ribute": 3809,
      "itable": 3810,
      "ĠMary": 3811,
      "Ġelectr": 3812,
      "Ġscale": 3813,
      "ĠWater": 3814,
      "ĠSince": 3815,
      "Ġstage": 3816,
      "Ġregions": 3817,
      "ĠMa": 3818,
      "Ġfair": 3819,
      "ibly": 3820,
      "Ġ2002": 3821,
      "ald": 3822,
      "ira": 3823,
      "Ġseven": 3824,
      "Ġexhib": 3825,
      "ida": 3826,
      "Ġpoly": 3827,
      "omas": 3828,
      "ographic": 3829,
      "Ġveh": 3830,
      "Ġgene": 3831,
      "ĠWestern": 3832,
      "Ġnor": 3833,
      "ĠSpec": 3834,
      "Ġeverything": 3835,
      "Ġleaves": 3836,
      "Ġdistance": 3837,
      "iverse": 3838,
      "rations": 3839,
      "Ġbelieved": 3840,
      "Ġworked": 3841,
      "house": 3842,
      "pire": 3843,
      "Ġtrying": 3844,
      "With": 3845,
      "Ġcompletely": 3846,
      "ects": 3847,
      "orms": 3848,
      "Ġdidn": 3849,
      "ĠAccording": 3850,
      "Ġleave": 3851,
      "Ġopportunity": 3852,
      "Ġapproximately": 3853,
      "Ġapplied": 3854,
      "Ġenter": 3855,
      "ĠThen": 3856,
      "Ġtypically": 3857,
      "35": 3858,
      "Ġshowed": 3859,
      "Ġconstruct": 3860,
      "Ġunit": 3861,
      "AS": 3862,
      "Ġchanged": 3863,
      "ĠGeorge": 3864,
      "Ġrecommend": 3865,
      "Ġsurvey": 3866,
      "ĠOff": 3867,
      "Ġbreat": 3868,
      "Ġmag": 3869,
      "Ġpurch": 3870,
      "Ġarchitect": 3871,
      "Ġgoes": 3872,
      "riage": 3873,
      "Ġassist": 3874,
      "Ġdifferences": 3875,
      "Ġexamples": 3876,
      "ĠTexas": 3877,
      "ĠRepublic": 3878,
      "ĠMor": 3879,
      "ĠLord": 3880,
      "ĠOb": 3881,
      "odes": 3882,
      "Ġ186": 3883,
      "Ġseparate": 3884,
      "Ġassum": 3885,
      "Ġinteresting": 3886,
      "Ġillness": 3887,
      "Ġcommercial": 3888,
      "Ġiniti": 3889,
      "Ġmiss": 3890,
      "ĠJer": 3891,
      "idel": 3892,
      "Ġmeasures": 3893,
      "ĠMars": 3894,
      "ĠInter": 3895,
      "Ġswe": 3896,
      "Ġfemale": 3897,
      "Ġdirection": 3898,
      "ĠMiss": 3899,
      "Ġnuclear": 3900,
      "cles": 3901,
      "Ġprin": 3902,
      "Ġdestroy": 3903,
      "pris": 3904,
      "Ar": 3905,
      "Ġreasons": 3906,
      "ĠInst": 3907,
      "Ġadm": 3908,
      "Ġexisting": 3909,
      "Ġrecords": 3910,
      "New": 3911,
      "hors": 3912,
      "Ġfunctions": 3913,
      "Ġpow": 3914,
      "Ġfigure": 3915,
      "78": 3916,
      "Ġobserved": 3917,
      "Ġestimated": 3918,
      "ĠCO": 3919,
      "ĠCollege": 3920,
      "Ġpowerful": 3921,
      "Ġteacher": 3922,
      "Ġpractices": 3923,
      "Ġfaith": 3924,
      "____": 3925,
      "ĠFound": 3926,
      "ĠThus": 3927,
      "Ġbacteria": 3928,
      "atab": 3929,
      "ĠMexico": 3930,
      "ĠISBN": 3931,
      "cious": 3932,
      "ĠBra": 3933,
      "ector": 3934,
      "Ġmig": 3935,
      "Ġcateg": 3936,
      "ience": 3937,
      "Ġeating": 3938,
      "ession": 3939,
      "ensity": 3940,
      "Ġspect": 3941,
      "Ġelement": 3942,
      "ĠCourt": 3943,
      "RE": 3944,
      "wards": 3945,
      "Ġlimit": 3946,
      "load": 3947,
      "Ġreleased": 3948,
      "uls": 3949,
      "ĠPaul": 3950,
      "Ġcreating": 3951,
      "ĠHere": 3952,
      "co": 3953,
      "Ġradio": 3954,
      "Ġsolution": 3955,
      "Ġconstant": 3956,
      "Ġcommonly": 3957,
      "ĠRef": 3958,
      "ĠFl": 3959,
      "Ġshape": 3960,
      "icate": 3961,
      "iments": 3962,
      "que": 3963,
      "ĠLou": 3964,
      "Ġplans": 3965,
      "ero": 3966,
      "Ġjoint": 3967,
      "Ġmoving": 3968,
      "ĠAir": 3969,
      "ĠHuman": 3970,
      "Ġradiation": 3971,
      "Ġ29": 3972,
      "Ġpric": 3973,
      "ĠCath": 3974,
      "Ġmoved": 3975,
      "ĠDec": 3976,
      "ĠJapanese": 3977,
      "force": 3978,
      "osa": 3979,
      "ĠJust": 3980,
      "Ġrat": 3981,
      "Ġdoub": 3982,
      "ĠMount": 3983,
      "pir": 3984,
      "Ġjournal": 3985,
      "ĠNow": 3986,
      "Ġemissions": 3987,
      "Ġnative": 3988,
      "Ġgir": 3989,
      "45": 3990,
      "Ġpresented": 3991,
      "acific": 3992,
      "Ġtreated": 3993,
      "Ġnote": 3994,
      "Ġpresence": 3995,
      "Ġcustom": 3996,
      "Ġsac": 3997,
      "Ġ:": 3998,
      "ĠService": 3999,
      "Ġbound": 4000,
      "Ġwhom": 4001,
      "Ġusers": 4002,
      "orial": 4003,
      "ken": 4004,
      "enge": 4005,
      "Ġbran": 4006,
      "Ġ+": 4007,
      "ding": 4008,
      "Ġsem": 4009,
      "Ġeventually": 4010,
      "ĠLa": 4011,
      "Ġspring": 4012,
      "Ġhom": 4013,
      "Ġmax": 4014,
      "Ġblue": 4015,
      "ean": 4016,
      "ĠFin": 4017,
      "Ġautom": 4018,
      "za": 4019,
      "ĠArmy": 4020,
      "Ġcand": 4021,
      "Ġmer": 4022,
      "cast": 4023,
      "Ġevalu": 4024,
      "Ġbra": 4025,
      "ĠCur": 4026,
      "Ġcru": 4027,
      "Ġphysic": 4028,
      "Ġmaintain": 4029,
      "Ġparty": 4030,
      "ĠPlan": 4031,
      "part": 4032,
      "Ġtum": 4033,
      "icip": 4034,
      "Ġcommunication": 4035,
      "Ġcapacity": 4036,
      "Ġrepe": 4037,
      "ĠAre": 4038,
      "eding": 4039,
      "iable": 4040,
      "....": 4041,
      "ĠTheir": 4042,
      "Ġrich": 4043,
      "Ġstrength": 4044,
      "Ġinstruct": 4045,
      "While": 4046,
      "Ġupper": 4047,
      "Ġreference": 4048,
      "Ġhighest": 4049,
      "'ve": 4050,
      "Ġrob": 4051,
      "Ġpicture": 4052,
      "'ll": 4053,
      "ĠAlso": 4054,
      "Ġwest": 4055,
      "abilities": 4056,
      "ocol": 4057,
      "Ġtrack": 4058,
      "Ġincreases": 4059,
      "erate": 4060,
      "ologists": 4061,
      "Ġcarried": 4062,
      "with": 4063,
      "Ġemphas": 4064,
      "Ġpopulations": 4065,
      "eff": 4066,
      "hy": 4067,
      "igned": 4068,
      "Ġpatterns": 4069,
      "33": 4070,
      "eared": 4071,
      "ĠRich": 4072,
      "rehens": 4073,
      "road": 4074,
      "Ġrelease": 4075,
      "Ġkilled": 4076,
      "Ġsymbol": 4077,
      "Ġdecades": 4078,
      "ulf": 4079,
      "Ġdefined": 4080,
      "related": 4081,
      "bed": 4082,
      "ĠRead": 4083,
      "Ġdiabetes": 4084,
      "ĠMedical": 4085,
      "Ġsuggests": 4086,
      "ĠAv": 4087,
      "Ġprice": 4088,
      "Ġheavy": 4089,
      "Ġtou": 4090,
      "ĠProject": 4091,
      "ords": 4092,
      "HE": 4093,
      "Ġincor": 4094,
      "ĠSen": 4095,
      "Ġchance": 4096,
      "Ġoperations": 4097,
      "cers": 4098,
      "raw": 4099,
      "imens": 4100,
      "Ġstream": 4101,
      "Ġvisual": 4102,
      "gency": 4103,
      "Ġmale": 4104,
      "All": 4105,
      "Ġvia": 4106,
      "ĠEach": 4107,
      "ĠDevelopment": 4108,
      "Ġbox": 4109,
      "Ġfully": 4110,
      "Ġtissue": 4111,
      "Ġfig": 4112,
      "Ġprofessional": 4113,
      "rome": 4114,
      "ĠArab": 4115,
      "Ġsouthern": 4116,
      "Ġign": 4117,
      "Ġeducational": 4118,
      "uild": 4119,
      "Ġexpress": 4120,
      "Ġenh": 4121,
      "Ġpersons": 4122,
      "Ġfresh": 4123,
      "ĠGreek": 4124,
      "mark": 4125,
      "Ġbank": 4126,
      "Ġteach": 4127,
      "Ġworth": 4128,
      "Ġincome": 4129,
      "omic": 4130,
      "Ġtransfer": 4131,
      "ĠDem": 4132,
      "apers": 4133,
      "Ġturned": 4134,
      "Ġmedicine": 4135,
      "Ġwond": 4136,
      "Ġmeeting": 4137,
      "Ġiron": 4138,
      "Ġweak": 4139,
      "Ġ1990": 4140,
      "Ġexplain": 4141,
      "Ġplanning": 4142,
      "ET": 4143,
      "Ġmob": 4144,
      "Ġcook": 4145,
      "Ġnoted": 4146,
      "Ġlived": 4147,
      "Ġpiece": 4148,
      "Ġspeech": 4149,
      "Ġimmediately": 4150,
      "Ġsurgery": 4151,
      "essel": 4152,
      "Ġrunning": 4153,
      "ortion": 4154,
      "Ġunivers": 4155,
      "Ġfavor": 4156,
      "ĠPeople": 4157,
      "Ġtro": 4158,
      "Ġgiving": 4159,
      "Ġalt": 4160,
      "Ġunits": 4161,
      "Ġorganizations": 4162,
      "rant": 4163,
      "Ġactual": 4164,
      "Ġtruth": 4165,
      "clus": 4166,
      "Ġfields": 4167,
      "Ġreligion": 4168,
      "ĠRel": 4169,
      "Ġacadem": 4170,
      "Ġalcohol": 4171,
      "Ġcontract": 4172,
      "Ġslight": 4173,
      "aling": 4174,
      "Ġsexual": 4175,
      "ĠUse": 4176,
      "ht": 4177,
      "75": 4178,
      "Ġwatch": 4179,
      "Ġdram": 4180,
      "west": 4181,
      "Ġfriend": 4182,
      "ago": 4183,
      "Ġperfect": 4184,
      "Ġproperties": 4185,
      "ĠLear": 4186,
      "Ġindustrial": 4187,
      "Ġfactor": 4188,
      "ped": 4189,
      "Ã¡": 4190,
      "Ġnorthern": 4191,
      "Ġdetails": 4192,
      "orage": 4193,
      "Ġactions": 4194,
      "Ġlearned": 4195,
      "leg": 4196,
      "Ġoverall": 4197,
      "key": 4198,
      "Ġchoice": 4199,
      "otes": 4200,
      "After": 4201,
      "Ġisn": 4202,
      "ams": 4203,
      "essor": 4204,
      "ĠDes": 4205,
      "win": 4206,
      "RO": 4207,
      "olved": 4208,
      "Ġattract": 4209,
      "Ġconducted": 4210,
      "Ġrul": 4211,
      "Ġcoal": 4212,
      "Ġterrit": 4213,
      "Ġintroduced": 4214,
      "Ġgraph": 4215,
      "ĠVirginia": 4216,
      "Ġlib": 4217,
      "Ġinsect": 4218,
      "Ġprofessor": 4219,
      "Ġmal": 4220,
      "Ġmouth": 4221,
      "ĠIslam": 4222,
      "Ġannual": 4223,
      "respond": 4224,
      "ĠCivil": 4225,
      "Ġgrant": 4226,
      "Ġcontext": 4227,
      "Ġresource": 4228,
      "Ġfeature": 4229,
      "Ġclinical": 4230,
      "Ġdisorder": 4231,
      "eces": 4232,
      "Ġmoment": 4233,
      "Ġbattle": 4234,
      "Ġgenes": 4235,
      "Ġpages": 4236,
      "Ġbuildings": 4237,
      "Ġcreation": 4238,
      "Ph": 4239,
      "ĠMart": 4240,
      "Ġserved": 4241,
      "Ġsigns": 4242,
      "ĠMic": 4243,
      "ĠAut": 4244,
      "rick": 4245,
      "porary": 4246,
      "Ġserve": 4247,
      "Ġinstance": 4248,
      "Ġstories": 4249,
      "ĠPacific": 4250,
      "ĠOur": 4251,
      "Ġdistribution": 4252,
      "Americ": 4253,
      "ĠDon": 4254,
      "iful": 4255,
      "Ġflood": 4256,
      "Ġstructures": 4257,
      "iant": 4258,
      "Ġfruit": 4259,
      "Ad": 4260,
      "Ġreprodu": 4261,
      "ĠNews": 4262,
      "ii": 4263,
      "ube": 4264,
      "Ġmathemat": 4265,
      "ophy": 4266,
      "Ġsugar": 4267,
      "Ġcampaign": 4268,
      "36": 4269,
      "oyal": 4270,
      "nam": 4271,
      "Ġindependent": 4272,
      "Is": 4273,
      "oice": 4274,
      "Ġphen": 4275,
      "gra": 4276,
      "char": 4277,
      "ĠChildren": 4278,
      "lick": 4279,
      "Ġfilm": 4280,
      "ĠTur": 4281,
      "ĠSpace": 4282,
      "rupt": 4283,
      "ux": 4284,
      "Ġesc": 4285,
      "ample": 4286,
      "Ġreached": 4287,
      "ĠMedicine": 4288,
      "change": 4289,
      "Ġconv": 4290,
      "Ġeveryone": 4291,
      "Ġstation": 4292,
      "ocal": 4293,
      "iance": 4294,
      "Ġconsumption": 4295,
      "astern": 4296,
      "Ġminor": 4297,
      "ĠBlack": 4298,
      "Ġcry": 4299,
      "Ġeast": 4300,
      "Ġbone": 4301,
      "Ġletter": 4302,
      "ĠSpanish": 4303,
      "See": 4304,
      "Ġstim": 4305,
      "Ġwrong": 4306,
      "Ġalternative": 4307,
      "Ġwaters": 4308,
      "They": 4309,
      "ees": 4310,
      "Ġdu": 4311,
      "Ġauthority": 4312,
      "gl": 4313,
      "ett": 4314,
      "ifically": 4315,
      "itness": 4316,
      "AM": 4317,
      "ĠPort": 4318,
      "ander": 4319,
      "ensus": 4320,
      "Ġsteps": 4321,
      "Ġauthors": 4322,
      "ĠMat": 4323,
      "ĠAtl": 4324,
      "ĠIsland": 4325,
      "Ġclearly": 4326,
      "Ġdisorders": 4327,
      "Ġatmosphere": 4328,
      "Ġopin": 4329,
      "Ġconservation": 4330,
      "Ġgeneration": 4331,
      "Ġforward": 4332,
      "Ġvessel": 4333,
      "ares": 4334,
      "ĠAsia": 4335,
      "ingly": 4336,
      "ĠSun": 4337,
      "Ġdivid": 4338,
      "ĠChe": 4339,
      "Ġdiscussion": 4340,
      "Ġmilk": 4341,
      "Ġboard": 4342,
      "Ġpolicies": 4343,
      "Ġtransl": 4344,
      "Ġbehavi": 4345,
      "Ġelim": 4346,
      "Â°": 4347,
      "Ġfreedom": 4348,
      "ĠHen": 4349,
      "Ġnumerous": 4350,
      "ault": 4351,
      "Ġvision": 4352,
      "Ġdigital": 4353,
      "which": 4354,
      "ĠEv": 4355,
      "Ġconvers": 4356,
      "tical": 4357,
      "vision": 4358,
      "Ġcovered": 4359,
      "Ġfailure": 4360,
      "Ġ80": 4361,
      "Ġchoose": 4362,
      "ager": 4363,
      "Ġdegrees": 4364,
      "Ġtrib": 4365,
      "ĠBritain": 4366,
      "isher": 4367,
      "Ġaccur": 4368,
      "that": 4369,
      "Ġarr": 4370,
      "Ġstyle": 4371,
      "Ġremember": 4372,
      "Ġefficient": 4373,
      "Ġdepression": 4374,
      "Ġoffers": 4375,
      "Ġdetermined": 4376,
      "Ġsitu": 4377,
      "Ġfamous": 4378,
      "Ġextremely": 4379,
      "ĠNet": 4380,
      "itz": 4381,
      "Ġtechnologies": 4382,
      "Res": 4383,
      "Ġantib": 4384,
      "Ġproposed": 4385,
      "Ġabsor": 4386,
      "ĠFore": 4387,
      "Ġmachine": 4388,
      "Ġ1999": 4389,
      "Sp": 4390,
      "Ġremained": 4391,
      "Ġcollabor": 4392,
      "Ġfrequently": 4393,
      "Ġrace": 4394,
      "Ġremoved": 4395,
      "Ġneu": 4396,
      "Ġinitial": 4397,
      "Ġtask": 4398,
      "Ġple": 4399,
      "Ġwear": 4400,
      "ressive": 4401,
      "ĠBay": 4402,
      "ĠFlor": 4403,
      "ĠTest": 4404,
      "ĠUnder": 4405,
      "ĠMal": 4406,
      "Ġcontrast": 4407,
      "name": 4408,
      "ĠCommission": 4409,
      "Ġnotes": 4410,
      "anging": 4411,
      "Ġcounter": 4412,
      "Ġpartners": 4413,
      "works": 4414,
      "Ġisol": 4415,
      "Ġperformed": 4416,
      "Ġopportunities": 4417,
      "Ġcomponents": 4418,
      "Ġhuge": 4419,
      "Ġliterature": 4420,
      "Ġfert": 4421,
      "Ġchief": 4422,
      "Ġcircum": 4423,
      "aped": 4424,
      "Ġrot": 4425,
      "Ġwidely": 4426,
      "Ġvary": 4427,
      "med": 4428,
      "ville": 4429,
      "ĠRobert": 4430,
      "Ġhousehold": 4431,
      "Ġreb": 4432,
      "ĠBer": 4433,
      "ĠOver": 4434,
      "Ġdesp": 4435,
      "Ġconclud": 4436,
      "Be": 4437,
      "Ġofficials": 4438,
      "Ġvitamin": 4439,
      "Ġhair": 4440,
      "iox": 4441,
      "berg": 4442,
      "Ġguide": 4443,
      "38": 4444,
      "Ġmessage": 4445,
      "ching": 4446,
      "Ġexperiment": 4447,
      "Ġbottom": 4448,
      "Ġwanted": 4449,
      "Ġresistance": 4450,
      "Ġelectricity": 4451,
      "aughter": 4452,
      "198": 4453,
      "Ġliqu": 4454,
      "ĠMuslim": 4455,
      "ĠLatin": 4456,
      "Ġgrass": 4457,
      "Ġtemperatures": 4458,
      "atric": 4459,
      "atically": 4460,
      "Ġitems": 4461,
      "Ġdistinct": 4462,
      "ias": 4463,
      "Ġsav": 4464,
      "Ġinform": 4465,
      "othes": 4466,
      "Ġapply": 4467,
      "cipl": 4468,
      "oo": 4469,
      "Ġpick": 4470,
      "aste": 4471,
      "ĠMass": 4472,
      "Ġqual": 4473,
      "Ġresulting": 4474,
      "ĠJud": 4475,
      "Ġcombination": 4476,
      "ĠInformation": 4477,
      "ij": 4478,
      "Ġexcess": 4479,
      "ounced": 4480,
      "Ġ189": 4481,
      "ĠCD": 4482,
      "Ġrequirements": 4483,
      "zz": 4484,
      "Ġship": 4485,
      "Ġhomes": 4486,
      "Ġbodies": 4487,
      "Ġimmune": 4488,
      "ĠLouis": 4489,
      "bert": 4490,
      "uted": 4491,
      "Ġkept": 4492,
      "ĠSer": 4493,
      "Ġinstitutions": 4494,
      "Ġdoll": 4495,
      "Ġurban": 4496,
      "well": 4497,
      "Ġburn": 4498,
      "raction": 4499,
      "Ġkid": 4500,
      "pping": 4501,
      "US": 4502,
      "Ġhospital": 4503,
      "Ġhear": 4504,
      "Ġintended": 4505,
      "Ġreplace": 4506,
      "PS": 4507,
      "arrow": 4508,
      "ĠFood": 4509,
      "Ġhelped": 4510,
      "Ġplease": 4511,
      "Ġvolunt": 4512,
      "aus": 4513,
      "Ġstrugg": 4514,
      "Ġfoss": 4515,
      "Ġbalance": 4516,
      "Sh": 4517,
      "Ġconfirm": 4518,
      "ios": 4519,
      "Ġsave": 4520,
      "ĠIts": 4521,
      "Ġenem": 4522,
      "met": 4523,
      "That": 4524,
      "rence": 4525,
      "oting": 4526,
      "ria": 4527,
      "Ġdyn": 4528,
      "ya": 4529,
      "erences": 4530,
      "Ġsquare": 4531,
      "Ġdirector": 4532,
      "Ġsand": 4533,
      "ygen": 4534,
      "CC": 4535,
      "olid": 4536,
      "umn": 4537,
      "IDS": 4538,
      "48": 4539,
      "ĠSocial": 4540,
      "From": 4541,
      "ien": 4542,
      "ĠDirect": 4543,
      "Ġreferred": 4544,
      "Ġpil": 4545,
      "ĠLibrary": 4546,
      "Ġoccurred": 4547,
      "Ġprices": 4548,
      "ĠCentral": 4549,
      "ception": 4550,
      "kin": 4551,
      "unction": 4552,
      "Ġorganic": 4553,
      "Ġpi": 4554,
      "ĠDiv": 4555,
      "Ġtrend": 4556,
      "vis": 4557,
      "Ġcorrespond": 4558,
      "Ġdatab": 4559,
      "Ġarmy": 4560,
      "ĠCarol": 4561,
      "uit": 4562,
      "Ġoperation": 4563,
      "ributed": 4564,
      "Ġforced": 4565,
      "Ġstatement": 4566,
      "Ġglass": 4567,
      "Ġsort": 4568,
      "Ġcompleted": 4569,
      "Ġmo": 4570,
      "Ġinh": 4571,
      "Ġ35": 4572,
      "chers": 4573,
      "ĠMr": 4574,
      "rian": 4575,
      "ĠPhys": 4576,
      "Ġdrive": 4577,
      "Ġisland": 4578,
      "Ġprinciples": 4579,
      "Ġ90": 4580,
      "ĠThomas": 4581,
      "Ġspent": 4582,
      "Ġtrou": 4583,
      "lar": 4584,
      "Ġgod": 4585,
      "Ġbecoming": 4586,
      "Although": 4587,
      "Ġcoord": 4588,
      "Ġarticles": 4589,
      "ĠNav": 4590,
      "Ġfinding": 4591,
      "ras": 4592,
      "Ġrecommended": 4593,
      "iring": 4594,
      "Ġsignificantly": 4595,
      "Ġdecided": 4596,
      "ĠLabor": 4597,
      "Ġintellig": 4598,
      "Ġupd": 4599,
      "Ġtoxic": 4600,
      "Ġcycle": 4601,
      "van": 4602,
      "ĠSy": 4603,
      "Ġexposed": 4604,
      "Ġyourself": 4605,
      "ĠOffice": 4606,
      "Ġclasses": 4607,
      "ishes": 4608,
      "Ġinterpret": 4609,
      "rum": 4610,
      "Ġclassroom": 4611,
      "osystem": 4612,
      "ĠColumb": 4613,
      "Ġbill": 4614,
      "Ġnovel": 4615,
      "Ġdie": 4616,
      "RI": 4617,
      "Ġlinks": 4618,
      "ĠWhite": 4619,
      "Ġfine": 4620,
      "Ġgain": 4621,
      "Ġbed": 4622,
      "Ġanyone": 4623,
      "opes": 4624,
      "Ġviolence": 4625,
      "Ġdecisions": 4626,
      "ĠCatholic": 4627,
      "Ġcharacteristics": 4628,
      "ĠSub": 4629,
      "Ġstorage": 4630,
      "Ġuniverse": 4631,
      "Ġwestern": 4632,
      "Ġmanner": 4633,
      "ndrome": 4634,
      "Ġappoint": 4635,
      "ĠCharles": 4636,
      "Ġhur": 4637,
      "rog": 4638,
      "ĠWild": 4639,
      "Ġ188": 4640,
      "Ġ#": 4641,
      "Ġwin": 4642,
      "Ġbelong": 4643,
      "istan": 4644,
      "Ġsusp": 4645,
      "Ġlanguages": 4646,
      "Ġvolume": 4647,
      "Ġfarmers": 4648,
      "Ġsample": 4649,
      "Ġgoals": 4650,
      "Ġexistence": 4651,
      "Ġwealth": 4652,
      "ĠMil": 4653,
      "ĠAcadem": 4654,
      "Ġcomment": 4655,
      "ĠOrgan": 4656,
      "nel": 4657,
      "Ġlung": 4658,
      "ĠSou": 4659,
      "amental": 4660,
      "Ġmuscle": 4661,
      "ĠTechnology": 4662,
      "ĠFederal": 4663,
      "Ġhappen": 4664,
      "Ġpreviously": 4665,
      "ĠWork": 4666,
      "ĠGra": 4667,
      "Ġagg": 4668,
      "ieties": 4669,
      "Ġsaying": 4670,
      "Ġreturned": 4671,
      "Ġhour": 4672,
      "Ġdrop": 4673,
      "Ġlic": 4674,
      "Ġrail": 4675,
      "Ġbrother": 4676,
      "inf": 4677,
      "itors": 4678,
      "Ġdro": 4679,
      "Ġconnection": 4680,
      "oviet": 4681,
      "Ġquar": 4682,
      "Ġmostly": 4683,
      "Ġ70": 4684,
      "Ġfif": 4685,
      "Ġstarting": 4686,
      "ĠSal": 4687,
      "Ġcra": 4688,
      "46": 4689,
      "Ġdescribe": 4690,
      "CO": 4691,
      "Ġnations": 4692,
      "Ġaspects": 4693,
      "ĠFoundation": 4694,
      "ael": 4695,
      "Ġsong": 4696,
      "Ġmere": 4697,
      "Ġheard": 4698,
      "cycl": 4699,
      "Ġthick": 4700,
      "Ġreality": 4701,
      "Ġcausing": 4702,
      "mal": 4703,
      "Ġlargely": 4704,
      "Ġastron": 4705,
      "rans": 4706,
      "Ġnav": 4707,
      "ded": 4708,
      "Ġcere": 4709,
      "oking": 4710,
      "band": 4711,
      "cest": 4712,
      "Ġunf": 4713,
      "Ġstrategies": 4714,
      "Ġstars": 4715,
      "ĠOld": 4716,
      "Ġmeant": 4717,
      "Ġstore": 4718,
      "Ġgun": 4719,
      "Ġprepar": 4720,
      "ĠWind": 4721,
      "ĠEnergy": 4722,
      "ĠMet": 4723,
      "Ġchemicals": 4724,
      "pat": 4725,
      "Ġtour": 4726,
      "ĠSam": 4727,
      "Ġmetal": 4728,
      "och": 4729,
      "Ġsupported": 4730,
      "Ġsufficient": 4731,
      "Ġprison": 4732,
      "Ġpal": 4733,
      "Ġprepared": 4734,
      "Ġsecret": 4735,
      "Ġ1998": 4736,
      "isp": 4737,
      "Ġinnov": 4738,
      "Ġexpression": 4739,
      "Ġchanging": 4740,
      "Ġinternal": 4741,
      "Ġvictim": 4742,
      "Ġfort": 4743,
      "Ġround": 4744,
      "htm": 4745,
      "ÃŃ": 4746,
      "Ġded": 4747,
      "ota": 4748,
      "ĠDise": 4749,
      "Ġremove": 4750,
      "Ġdetect": 4751,
      "Ġcollege": 4752,
      "Ġwet": 4753,
      "Ġexplore": 4754,
      "Ġcharge": 4755,
      "Ġvaccine": 4756,
      "Ġwife": 4757,
      "otic": 4758,
      "uration": 4759,
      "ĠEnvironmental": 4760,
      "Ġmeat": 4761,
      "Ġconver": 4762,
      "ĠWhy": 4763,
      "rus": 4764,
      "Ġrisks": 4765,
      "wood": 4766,
      "iveness": 4767,
      "ĠSmith": 4768,
      "ĠUK": 4769,
      "32": 4770,
      "rep": 4771,
      "ears": 4772,
      "icial": 4773,
      "ado": 4774,
      "Ġscen": 4775,
      "Ġdiss": 4776,
      "Ġconcern": 4777,
      "Ġnutri": 4778,
      "Ġclick": 4779,
      "ĠCompany": 4780,
      "Ġaid": 4781,
      "igen": 4782,
      "Ġbackground": 4783,
      "ormally": 4784,
      "âĢĿ.": 4785,
      "Ġlayer": 4786,
      "Ġsatell": 4787,
      "LE": 4788,
      "Ġapparent": 4789,
      "Ġdomestic": 4790,
      "ĠBas": 4791,
      "ĠDist": 4792,
      "Ġamounts": 4793,
      "Ġadvantage": 4794,
      "Ġassessment": 4795,
      "Ġbiological": 4796,
      "cript": 4797,
      "Ġcomprehens": 4798,
      "37": 4799,
      "what": 4800,
      "Ġtrial": 4801,
      "mit": 4802,
      "iology": 4803,
      "ented": 4804,
      "ĠLet": 4805,
      "39": 4806,
      "100": 4807,
      "Ġsubstant": 4808,
      "oper": 4809,
      "Ġpret": 4810,
      "Ġadvanced": 4811,
      "Ġfacilities": 4812,
      "pective": 4813,
      "Ġpark": 4814,
      "Ġpun": 4815,
      "roke": 4816,
      "Ġchronic": 4817,
      "ĠJose": 4818,
      "illing": 4819,
      "Ġsignal": 4820,
      "aker": 4821,
      "ĠHistor": 4822,
      "Ġengineering": 4823,
      "Ab": 4824,
      "Ġtim": 4825,
      "Ġextent": 4826,
      "lements": 4827,
      "Many": 4828,
      "Ġchallenge": 4829,
      "Ġsurpris": 4830,
      "ĠHol": 4831,
      "rows": 4832,
      "Ġencourage": 4833,
      "Ġfol": 4834,
      "Ġinterested": 4835,
      "Ġincorpor": 4836,
      "Ġcris": 4837,
      "Ġsynt": 4838,
      "Ġobvious": 4839,
      "Ġexperts": 4840,
      "Ġ1997": 4841,
      "hetic": 4842,
      "Ġchallenges": 4843,
      "ĠGroup": 4844,
      "Ġemail": 4845,
      "ĠMac": 4846,
      "Ġoffered": 4847,
      "Ġbrief": 4848,
      "ĠFre": 4849,
      "Ġgarden": 4850,
      "ructure": 4851,
      "Ġprimarily": 4852,
      "idelines": 4853,
      "ĠConstitution": 4854,
      "ĠFlorida": 4855,
      "Ġtechnical": 4856,
      "ague": 4857,
      "utive": 4858,
      "Ġcontinues": 4859,
      "Ġexactly": 4860,
      "isation": 4861,
      "Ġexcell": 4862,
      "icit": 4863,
      "Ġcombined": 4864,
      "ĠMark": 4865,
      "icon": 4866,
      "ĠMont": 4867,
      "According": 4868,
      "tle": 4869,
      "ulating": 4870,
      "Ġpurposes": 4871,
      "ĠLife": 4872,
      "aj": 4873,
      "Ġprefer": 4874,
      "Ġsnow": 4875,
      "Ġindicate": 4876,
      "Ġfinally": 4877,
      "ĠDef": 4878,
      "Ġgets": 4879,
      "Ġleader": 4880,
      "alle": 4881,
      "Ġ185": 4882,
      "Ġload": 4883,
      "zing": 4884,
      "Ġregarding": 4885,
      "Ġdisapp": 4886,
      "roph": 4887,
      "ĠSoviet": 4888,
      "akers": 4889,
      "Ġraised": 4890,
      "Ġmort": 4891,
      "field": 4892,
      "Ġsamples": 4893,
      "Ġclos": 4894,
      "lamm": 4895,
      "ship": 4896,
      "44": 4897,
      "Ġtechnique": 4898,
      "Ġ1980": 4899,
      "ey": 4900,
      "Ġpollution": 4901,
      "Ġweap": 4902,
      "Ġwww": 4903,
      "ulum": 4904,
      "ĠRights": 4905,
      "Ġinfections": 4906,
      ".;": 4907,
      "ait": 4908,
      "Ġsolid": 4909,
      "Ġinvolve": 4910,
      "76": 4911,
      "ĠMD": 4912,
      "liam": 4913,
      "ĠDi": 4914,
      "Ġcore": 4915,
      "Ġhabitat": 4916,
      "Ġsyn": 4917,
      "Most": 4918,
      "ĠBudd": 4919,
      "Cl": 4920,
      "igation": 4921,
      "cience": 4922,
      "Ġbird": 4923,
      "Other": 4924,
      "Ġmel": 4925,
      "ossible": 4926,
      "Ġmentioned": 4927,
      "Ġready": 4928,
      "No": 4929,
      "Ġprocedure": 4930,
      "Ġadjust": 4931,
      "col": 4932,
      "ĠMem": 4933,
      "Ġsuggested": 4934,
      "Ġreaction": 4935,
      "Ġoxygen": 4936,
      "iling": 4937,
      "abb": 4938,
      "Ġkm": 4939,
      "Ġmarriage": 4940,
      "ĠWil": 4941,
      ".|": 4942,
      "itage": 4943,
      "ĠQue": 4944,
      "Ġbuy": 4945,
      "Ġcamer": 4946,
      "OS": 4947,
      "BC": 4948,
      "ss": 4949,
      "Ġoutput": 4950,
      "Ġkil": 4951,
      "Ġreducing": 4952,
      "Ġsetting": 4953,
      "Ġconnected": 4954,
      "Ġbatter": 4955,
      "ilit": 4956,
      "ĠBen": 4957,
      "ĠMiddle": 4958,
      "Ġdetailed": 4959,
      "Ġdefinition": 4960,
      "Ġnutrition": 4961,
      "rier": 4962,
      "ĠLake": 4963,
      "ĠKore": 4964,
      "Ġrecognized": 4965,
      "Ġdrinking": 4966,
      "Ġmorning": 4967,
      "Ġyouth": 4968,
      "Ġrecorded": 4969,
      "Ġâ": 4970,
      "ĠSl": 4971,
      "Ġdouble": 4972,
      "ixt": 4973,
      "Ġportion": 4974,
      "ested": 4975,
      "Ġgreatest": 4976,
      "Ġlandsc": 4977,
      "Ġ*": 4978,
      "Ġcast": 4979,
      "nic": 4980,
      "Ġseed": 4981,
      "Ġdiscover": 4982,
      "ping": 4983,
      "ĠSecond": 4984,
      "Ġtrig": 4985,
      "Ġimproved": 4986,
      "Ġclim": 4987,
      "crib": 4988,
      "tion": 4989,
      "rating": 4990,
      "ĠBook": 4991,
      "rolog": 4992,
      "Ġmanufacture": 4993,
      "Ġconflict": 4994,
      "Ġappeared": 4995,
      "ĠStand": 4996,
      "Ġsed": 4997,
      "Ġinput": 4998,
      "ĠCle": 4999,
      "Ġ1996": 5000,
      "Ġlinked": 5001,
      "state": 5002,
      "Ġstrate": 5003,
      "Ġdangerous": 5004,
      "Ġdiagnosis": 5005,
      "Ġstrategy": 5006,
      "Ġhorm": 5007,
      "Ġpover": 5008,
      "EL": 5009,
      "Ġfiles": 5010,
      "Ġfundamental": 5011,
      "rust": 5012,
      "Ġformation": 5013,
      "Ġparticipants": 5014,
      "Ġpieces": 5015,
      "Ġjobs": 5016,
      "Ġexperiences": 5017,
      "Ġlooked": 5018,
      "Ġpoverty": 5019,
      "Ġoptions": 5020,
      "ĠTwo": 5021,
      "Ġeasier": 5022,
      "Ġsubsequ": 5023,
      "Ġcenturies": 5024,
      "Ġphenomen": 5025,
      "31": 5026,
      "Ġperman": 5027,
      "olars": 5028,
      "Ġindex": 5029,
      "ĠReview": 5030,
      "More": 5031,
      "Ġstudied": 5032,
      "ishing": 5033,
      "des": 5034,
      "Ġagencies": 5035,
      "Ġargument": 5036,
      "ĠBur": 5037,
      "34": 5038,
      "ĠElect": 5039,
      "Ġtroops": 5040,
      "olute": 5041,
      "----": 5042,
      "ifying": 5043,
      "Ġshar": 5044,
      "ĠHenry": 5045,
      "Ġroot": 5046,
      "ĠUp": 5047,
      "osite": 5048,
      "Ġcontaining": 5049,
      "Ġcredit": 5050,
      "born": 5051,
      "Ġheight": 5052,
      "Ġshowing": 5053,
      "standing": 5054,
      "Ġinstrument": 5055,
      "liament": 5056,
      "Ġexplan": 5057,
      "Ġfelt": 5058,
      "Ġconnect": 5059,
      "ĠBel": 5060,
      "agues": 5061,
      "Ġinstall": 5062,
      "Ġhundreds": 5063,
      "mat": 5064,
      "Ġvast": 5065,
      "ĠEconom": 5066,
      "Ġconsult": 5067,
      "Ġowners": 5068,
      "Ġhappens": 5069,
      "Ġconcerns": 5070,
      "ball": 5071,
      "fall": 5072,
      "ibl": 5073,
      "cyclop": 5074,
      "inet": 5075,
      "Ġotherwise": 5076,
      "Ġhyper": 5077,
      "Ġspot": 5078,
      "ĠNor": 5079,
      "ĠFranc": 5080,
      "inating": 5081,
      "point": 5082,
      "Ġrapidly": 5083,
      "Ġmotion": 5084,
      "Ġbegins": 5085,
      "ĠPM": 5086,
      "ĠKen": 5087,
      "Ġagricultural": 5088,
      "Ġvul": 5089,
      "ĠTer": 5090,
      "Ġsen": 5091,
      "iled": 5092,
      "mp": 5093,
      "Ġther": 5094,
      "ĠAp": 5095,
      "Ġcertainly": 5096,
      "Ġrevolution": 5097,
      "Ġattacks": 5098,
      "ĠSea": 5099,
      "Ġoperating": 5100,
      "Ġpolice": 5101,
      "Ġtested": 5102,
      "Ġmulti": 5103,
      "Ġbright": 5104,
      "Ġassemb": 5105,
      "ortunately": 5106,
      "reed": 5107,
      "urance": 5108,
      "ĠDar": 5109,
      "AP": 5110,
      "Ġgames": 5111,
      "Ġkinds": 5112,
      "aks": 5113,
      "Ġgall": 5114,
      "Ġseek": 5115,
      "rich": 5116,
      "Ġsalt": 5117,
      "Ġacademic": 5118,
      "ĠHel": 5119,
      "Ġmeasured": 5120,
      "amily": 5121,
      "Ġcollected": 5122,
      "Ġgal": 5123,
      "ĠPers": 5124,
      "espite": 5125,
      "Ġletters": 5126,
      "Ġunderst": 5127,
      "Ġlooks": 5128,
      "ĠWomen": 5129,
      "Ġexpert": 5130,
      "Ġdivided": 5131,
      "board": 5132,
      "Ġresponsibility": 5133,
      "Ġhaz": 5134,
      "Ġ31": 5135,
      "Ġgrand": 5136,
      "rosc": 5137,
      "ogle": 5138,
      "ĠScient": 5139,
      "Ġfunding": 5140,
      "oughly": 5141,
      "Ġjour": 5142,
      "OT": 5143,
      "Ġsubjects": 5144,
      "ellect": 5145,
      "Ġemergency": 5146,
      "Ġclaims": 5147,
      "Ġinjury": 5148,
      "Ġband": 5149,
      "ĠCommittee": 5150,
      "Ġadvance": 5151,
      "ĠBoth": 5152,
      "ĠBible": 5153,
      "gal": 5154,
      "Ġcogn": 5155,
      "Ġban": 5156,
      "Ġdocuments": 5157,
      "Ġpromote": 5158,
      "ocratic": 5159,
      "Ġdiscovery": 5160,
      "Ġaircraft": 5161,
      "Ġelev": 5162,
      "Ġplayed": 5163,
      "DF": 5164,
      "Ġpul": 5165,
      "Ġancest": 5166,
      "care": 5167,
      "Ġdut": 5168,
      "Ġflight": 5169,
      "Ġnan": 5170,
      "Ġgar": 5171,
      "Ġproteins": 5172,
      "ĠMo": 5173,
      "Ġ45": 5174,
      "Ġmountain": 5175,
      "Ġslightly": 5176,
      "burg": 5177,
      "Ġmainly": 5178,
      "Ġperiods": 5179,
      "Ġcontem": 5180,
      "Ġinvolves": 5181,
      "Ġharvest": 5182,
      "Ġphase": 5183,
      "ĠRome": 5184,
      "Ġcontrolled": 5185,
      "tes": 5186,
      "Ġyellow": 5187,
      "iders": 5188,
      "unk": 5189,
      "Ġobtained": 5190,
      "do": 5191,
      "Ġsoldiers": 5192,
      "eria": 5193,
      "ĠAN": 5194,
      "ĠPsych": 5195,
      "Ġpractical": 5196,
      "ĠIll": 5197,
      "ropical": 5198,
      "Ġparticles": 5199,
      "ĠAdminist": 5200,
      "Ġeggs": 5201,
      "Ġtopic": 5202,
      "Ġfrequency": 5203,
      "osen": 5204,
      "Ġresist": 5205,
      "49": 5206,
      "ĠStudents": 5207,
      "Ġfle": 5208,
      "roc": 5209,
      "ĠPri": 5210,
      "Ġprocessing": 5211,
      "ĠOnce": 5212,
      "ĠOp": 5213,
      "Ġecosystem": 5214,
      "Ġgovernments": 5215,
      "ĠFrank": 5216,
      "Ġcrops": 5217,
      "othing": 5218,
      "65": 5219,
      "AD": 5220,
      "Ġsend": 5221,
      "Ġmoon": 5222,
      "Ġcandid": 5223,
      "Ġlibrary": 5224,
      "Ġneighbor": 5225,
      "ĠCanadian": 5226,
      "Ġwarming": 5227,
      "Ġregional": 5228,
      "bal": 5229,
      "ctic": 5230,
      "Ġlatter": 5231,
      "Ġresidents": 5232,
      "anges": 5233,
      "omin": 5234,
      "Ġconvent": 5235,
      "Ġmoral": 5236,
      "Ġdistrict": 5237,
      "ĠControl": 5238,
      "Ġallowing": 5239,
      "American": 5240,
      "Ġtaught": 5241,
      "ĠÃ": 5242,
      "Ġleads": 5243,
      "Ġbond": 5244,
      "celer": 5245,
      "Ġrural": 5246,
      "ĠSuch": 5247,
      "iest": 5248,
      "ĠSte": 5249,
      "oto": 5250,
      "Ġfamiliar": 5251,
      "Ġstock": 5252,
      "Ġrelevant": 5253,
      "ura": 5254,
      "Ġhearing": 5255,
      "ĠRem": 5256,
      "Ġthin": 5257,
      "Ġshell": 5258,
      "Ġmist": 5259,
      "Ġpray": 5260,
      "Ġstem": 5261,
      "Ġreduction": 5262,
      "Ġproperly": 5263,
      "ictionary": 5264,
      "Ġaccepted": 5265,
      "Ġbud": 5266,
      "uable": 5267,
      "Ġgrade": 5268,
      "Now": 5269,
      "ava": 5270,
      "Ġtypical": 5271,
      "ompl": 5272,
      "Ġknew": 5273,
      "Ġadvoc": 5274,
      "Ġdogs": 5275,
      "rem": 5276,
      "ĠNature": 5277,
      "Ġbeautiful": 5278,
      "CR": 5279,
      "ĠAlex": 5280,
      "ĠPost": 5281,
      "Ġmotor": 5282,
      "Ġtransform": 5283,
      "Ġtried": 5284,
      "Ġincreasingly": 5285,
      "Ġconstitution": 5286,
      "Ġelectrical": 5287,
      "apes": 5288,
      "atever": 5289,
      "Ġefficiency": 5290,
      "Ġclosely": 5291,
      "Ġdepth": 5292,
      "Ġrenew": 5293,
      "Ġexplains": 5294,
      "ION": 5295,
      "ĠSum": 5296,
      "Ġinstruction": 5297,
      "Ġ<": 5298,
      "Ġnewsp": 5299,
      "Ġflag": 5300,
      "Ġtitle": 5301,
      "going": 5302,
      "Ġgirls": 5303,
      "Ġfigures": 5304,
      "ĠSouthern": 5305,
      "500": 5306,
      "Ġconcerned": 5307,
      "Ġeffectively": 5308,
      "Ġstated": 5309,
      "ĠOcean": 5310,
      "Ġ1995": 5311,
      "Ġstone": 5312,
      "add": 5313,
      "umber": 5314,
      "iced": 5315,
      "Ġplastic": 5316,
      "Ġrand": 5317,
      "Ġrelationships": 5318,
      "ctor": 5319,
      "ĠIr": 5320,
      "war": 5321,
      "Ġconcepts": 5322,
      "ĠPan": 5323,
      "Ġfloor": 5324,
      "Ġadvice": 5325,
      "Ġ1970": 5326,
      "anged": 5327,
      "Ġfailed": 5328,
      "acters": 5329,
      "ĠSom": 5330,
      "Ġages": 5331,
      "Ġobl": 5332,
      "Ġexperienced": 5333,
      "Ġsides": 5334,
      "Ġinterview": 5335,
      "Ġviews": 5336,
      "pidem": 5337,
      "Ġmonitoring": 5338,
      "Ġmamm": 5339,
      "Ġopened": 5340,
      "ipped": 5341,
      "from": 5342,
      "normal": 5343,
      "eters": 5344,
      "Ġexplained": 5345,
      "Con": 5346,
      "Ġcomponent": 5347,
      "active": 5348,
      "Ġtrust": 5349,
      "ĠReport": 5350,
      "Ġrandom": 5351,
      "ĠSaf": 5352,
      "rete": 5353,
      "Ġteeth": 5354,
      "Ġdistingu": 5355,
      "Ġliquid": 5356,
      "ada": 5357,
      "Ġconsists": 5358,
      "Ġlit": 5359,
      "eck": 5360,
      "aur": 5361,
      "ĠDel": 5362,
      "ĠTherefore": 5363,
      "lers": 5364,
      "avery": 5365,
      "ansas": 5366,
      "Ġimmig": 5367,
      "Ġmillions": 5368,
      "De": 5369,
      "Ġinterests": 5370,
      "ĠTreat": 5371,
      "Ġstorm": 5372,
      "However": 5373,
      "Ġselection": 5374,
      "Ġlatest": 5375,
      "Ġtreatments": 5376,
      "erves": 5377,
      "ails": 5378,
      "Ġfollows": 5379,
      "Ġstraight": 5380,
      "Ġprofession": 5381,
      "Ġnarrow": 5382,
      "Ġoriginally": 5383,
      "ston": 5384,
      "Ġdepending": 5385,
      "Ġpossess": 5386,
      "Ġfocused": 5387,
      "Gen": 5388,
      "Ġdoctors": 5389,
      "á¹Ń": 5390,
      "dden": 5391,
      "Ġvent": 5392,
      "ĠCamb": 5393,
      "ĠNatural": 5394,
      "ĠWall": 5395,
      "Ġfit": 5396,
      "ĠPenn": 5397,
      "MS": 5398,
      "Ġunless": 5399,
      "Ġdespite": 5400,
      "ĠCarolina": 5401,
      "Ġ>": 5402,
      "Ġhunt": 5403,
      "ĠAnn": 5404,
      "Ġwonder": 5405,
      "ĠOx": 5406,
      "Ġoption": 5407,
      "Ġchann": 5408,
      "Ġarms": 5409,
      "Ġspecifically": 5410,
      "ĠEngine": 5411,
      "kins": 5412,
      "Ġdeaths": 5413,
      "95": 5414,
      "uous": 5415,
      "Ġmaster": 5416,
      "clusion": 5417,
      "ĠToday": 5418,
      "ĠPeter": 5419,
      "imer": 5420,
      "rants": 5421,
      "ĠWell": 5422,
      "47": 5423,
      "Ġpaid": 5424,
      "asks": 5425,
      "Ġsustainable": 5426,
      "Ġauthorities": 5427,
      "Ġselected": 5428,
      "Ġsurrounding": 5429,
      "Ġdynam": 5430,
      "ĠFort": 5431,
      "Ġagency": 5432,
      "Ġinterf": 5433,
      "Ġprinciple": 5434,
      "gov": 5435,
      "abil": 5436,
      "ĠRussia": 5437,
      "zen": 5438,
      "Ġdecline": 5439,
      "spec": 5440,
      "ona": 5441,
      "osal": 5442,
      "ĠChic": 5443,
      "Ġshel": 5444,
      "Ġinches": 5445,
      "Ġvegetables": 5446,
      "place": 5447,
      "Ġprevention": 5448,
      "Ġhouses": 5449,
      "Ġchapter": 5450,
      "Ġfirm": 5451,
      "ĠAnother": 5452,
      "Ġfell": 5453,
      "Ġonto": 5454,
      "Ġtwenty": 5455,
      "Ġhit": 5456,
      "Ġindeed": 5457,
      "Ġdecade": 5458,
      "ĠAD": 5459,
      "inding": 5460,
      "Ġpregnancy": 5461,
      "Ġaccompl": 5462,
      "Ġsatis": 5463,
      "Ġcomfort": 5464,
      "Ind": 5465,
      "Ġbow": 5466,
      "ĠEvery": 5467,
      "enses": 5468,
      "anguage": 5469,
      "Ġdatabase": 5470,
      "Ġseeds": 5471,
      "Ġshared": 5472,
      "Ġfacts": 5473,
      "Ġalg": 5474,
      "Ġtherap": 5475,
      "ĠCamp": 5476,
      "Ġsudden": 5477,
      "ING": 5478,
      "ĠJoseph": 5479,
      "Ġexternal": 5480,
      "ĠDan": 5481,
      "HO": 5482,
      "Ġsin": 5483,
      "Ġliver": 5484,
      "Ġcalls": 5485,
      "ogue": 5486,
      "Ġnotice": 5487,
      "ĠClass": 5488,
      "Ġmath": 5489,
      "ache": 5490,
      "Ġhappened": 5491,
      "Ġanx": 5492,
      "].": 5493,
      "down": 5494,
      "asure": 5495,
      "Ġwildlife": 5496,
      "body": 5497,
      "ĠStreet": 5498,
      "During": 5499,
      "Ġreject": 5500,
      "Ġwalls": 5501,
      "Ġvisible": 5502,
      "Ġprocedures": 5503,
      "under": 5504,
      "ĠFurther": 5505,
      "Ġgoods": 5506,
      "Ġleaving": 5507,
      "gment": 5508,
      "EP": 5509,
      "Ġmyth": 5510,
      "ĠTimes": 5511,
      "Ġflat": 5512,
      "roid": 5513,
      "Ġhelping": 5514,
      "Ġfrag": 5515,
      "hist": 5516,
      "Ġadopted": 5517,
      "Ġdial": 5518,
      "resents": 5519,
      "Ġspl": 5520,
      "Ġforests": 5521,
      "Im": 5522,
      "riculum": 5523,
      "ny": 5524,
      "rison": 5525,
      "Ġcolleagues": 5526,
      "Ġimpossible": 5527,
      "ĠRussian": 5528,
      "aud": 5529,
      "ective": 5530,
      "Ġcharacters": 5531,
      "ĠTem": 5532,
      "Ġroll": 5533,
      "Ġthousand": 5534,
      "onic": 5535,
      "Ġsector": 5536,
      "Ġentirely": 5537,
      "ĠST": 5538,
      "iated": 5539,
      "Ġlaboratory": 5540,
      "stream": 5541,
      "Ġgrown": 5542,
      "Ġpaint": 5543,
      "ĠProfessor": 5544,
      "Ġderived": 5545,
      "Ġprincip": 5546,
      "gent": 5547,
      "Ġaccomp": 5548,
      "Ġnit": 5549,
      "Ġconsequences": 5550,
      "ĠLand": 5551,
      "Ġsyndrome": 5552,
      "ĠStudies": 5553,
      "othe": 5554,
      "Ġneut": 5555,
      "earchers": 5556,
      "Ġprotected": 5557,
      "Ġpure": 5558,
      "Ġpip": 5559,
      "ĠRichard": 5560,
      "Ġcommit": 5561,
      "exp": 5562,
      "last": 5563,
      "Ġequival": 5564,
      "Ġcrisis": 5565,
      "Ġmaximum": 5566,
      "Ġexcellent": 5567,
      "Ġdim": 5568,
      "ĠNations": 5569,
      "Ġadequ": 5570,
      "ĠBC": 5571,
      "Ġmuseum": 5572,
      "Ġju": 5573,
      "luding": 5574,
      "amil": 5575,
      "icks": 5576,
      "ĠBro": 5577,
      "hi": 5578,
      "Se": 5579,
      "Ġappearance": 5580,
      "Ġkn": 5581,
      "ĠRevolution": 5582,
      "Ġdoubt": 5583,
      "Ġsuc": 5584,
      "ĠLeg": 5585,
      "Ġadministration": 5586,
      "ini": 5587,
      "alse": 5588,
      "but": 5589,
      "Ġcircumst": 5590,
      "Ġvote": 5591,
      "Ġexpressed": 5592,
      "Ġfeeling": 5593,
      "Ġutil": 5594,
      "inction": 5595,
      "Ġsubs": 5596,
      "Ġplat": 5597,
      "Ġawareness": 5598,
      "ĠAcademy": 5599,
      "Ġraise": 5600,
      "Ġpotentially": 5601,
      "Ġopinion": 5602,
      "á¸": 5603,
      "Ġsick": 5604,
      "Ġfaster": 5605,
      "Ġsets": 5606,
      "Ġintellect": 5607,
      "Ġcareer": 5608,
      "Ġ1960": 5609,
      "Ġvillage": 5610,
      "ses": 5611,
      "inn": 5612,
      "ĠDisc": 5613,
      "ĠRad": 5614,
      "RC": 5615,
      "Pl": 5616,
      "heast": 5617,
      "Ġcardi": 5618,
      "ĠMill": 5619,
      "inity": 5620,
      "Ġabsolute": 5621,
      "reci": 5622,
      "Ġclosed": 5623,
      "Ġmanage": 5624,
      "Ġremaining": 5625,
      "01": 5626,
      "Ġcapable": 5627,
      "Ġunknown": 5628,
      "ĠColumbia": 5629,
      "Ġmassive": 5630,
      "Ġspiritual": 5631,
      "mic": 5632,
      "alian": 5633,
      "Ġextensive": 5634,
      "ĠValley": 5635,
      "Ġformal": 5636,
      "ĠCancer": 5637,
      "wo": 5638,
      "Ġgender": 5639,
      "Ġlisted": 5640,
      "Our": 5641,
      "Ġinfected": 5642,
      "aturally": 5643,
      "no": 5644,
      "ĠPub": 5645,
      "Ġpoet": 5646,
      "Here": 5647,
      "Ġorganisms": 5648,
      "Ġcritic": 5649,
      "Ġprecise": 5650,
      "Ġminimum": 5651,
      "Ġpossibly": 5652,
      "zy": 5653,
      "Ġvulner": 5654,
      "Ġcorpor": 5655,
      "ercury": 5656,
      "99": 5657,
      "Ġideal": 5658,
      "Ġtiny": 5659,
      "olf": 5660,
      "Ġmedications": 5661,
      "Ġeastern": 5662,
      "Ġpig": 5663,
      "agers": 5664,
      "Ġstret": 5665,
      "uses": 5666,
      "Ġagriculture": 5667,
      "Ġidentity": 5668,
      "Ġaccurate": 5669,
      "Ġvoice": 5670,
      "Ġlesson": 5671,
      "Ġsolutions": 5672,
      "ĠBet": 5673,
      "ĠBank": 5674,
      "Ġdiscrim": 5675,
      "Ġpossibility": 5676,
      "Ġgreatly": 5677,
      "pan": 5678,
      "ĠOh": 5679,
      "Ġrepresents": 5680,
      "ĠYet": 5681,
      "Ġsky": 5682,
      "Ġintroduction": 5683,
      "Ġarrived": 5684,
      "pass": 5685,
      "such": 5686,
      "Ġextended": 5687,
      "Ġelection": 5688,
      "Ġhorse": 5689,
      "Ġsounds": 5690,
      "ĠAbout": 5691,
      "Ġaf": 5692,
      "Ġnine": 5693,
      "Ġorganized": 5694,
      "Ġmarine": 5695,
      "ĠProv": 5696,
      "irty": 5697,
      "Ġcontribute": 5698,
      "Ġwave": 5699,
      "Ġod": 5700,
      "Ġrepresented": 5701,
      "ĠTor": 5702,
      "ansion": 5703,
      "encing": 5704,
      "Ġassistance": 5705,
      "Ġrefers": 5706,
      "Ġnormally": 5707,
      "Ġlose": 5708,
      "iform": 5709,
      "Ġvalid": 5710,
      "'m": 5711,
      "long": 5712,
      "Ġlik": 5713,
      "Ġexperiments": 5714,
      "ih": 5715,
      "Ġhus": 5716,
      "ĠIII": 5717,
      "Ġdust": 5718,
      "Ġscholars": 5719,
      "Ġfossil": 5720,
      "ĠMad": 5721,
      "Ġexchange": 5722,
      "Ġinsp": 5723,
      "Ġsan": 5724,
      "ĠHall": 5725,
      "Ġplate": 5726,
      "Ġrepeated": 5727,
      "Ġfib": 5728,
      "ĠCommon": 5729,
      "Ġfluid": 5730,
      "inger": 5731,
      "rovers": 5732,
      "ĠIndians": 5733,
      "ĠOnly": 5734,
      "cher": 5735,
      "Ġabuse": 5736,
      "Ġelectronic": 5737,
      "Ġ300": 5738,
      "55": 5739,
      "Ġissued": 5740,
      "Ġmarked": 5741,
      "tic": 5742,
      "Ġspend": 5743,
      "throp": 5744,
      "âĢĿ,": 5745,
      "Ġmur": 5746,
      "ki": 5747,
      "Ġdescription": 5748,
      "isters": 5749,
      "Ġworldwide": 5750,
      "ĠOut": 5751,
      "athy": 5752,
      "umin": 5753,
      "Ġdiam": 5754,
      "Ġdestroyed": 5755,
      "idden": 5756,
      "Ġdaughter": 5757,
      "Ġtrain": 5758,
      "Ġdiscussed": 5759,
      "ĠManagement": 5760,
      "Ġcontained": 5761,
      "Ġexpensive": 5762,
      "Ġpictures": 5763,
      "Ġmagnetic": 5764,
      "Ġnetworks": 5765,
      "Ġlaun": 5766,
      "uilding": 5767,
      "Ġkeeping": 5768,
      "ĠIN": 5769,
      "Ġphotograph": 5770,
      "Ġdescribes": 5771,
      "Ġfounded": 5772,
      "Ġimper": 5773,
      "cyclopedia": 5774,
      "Ġ500": 5775,
      "ca": 5776,
      "free": 5777,
      "asp": 5778,
      "79": 5779,
      "orrow": 5780,
      "ola": 5781,
      "ĠNorthern": 5782,
      "ework": 5783,
      "Ġobservations": 5784,
      "ĠAtlantic": 5785,
      "Figure": 5786,
      "ĠStat": 5787,
      "Ġsimpl": 5788,
      "ĠGal": 5789,
      "Ġrestrict": 5790,
      "ĠInstead": 5791,
      "Ġcomprehensive": 5792,
      "ĠEnd": 5793,
      "Ġunlike": 5794,
      "Ġcert": 5795,
      "Ġdepends": 5796,
      "Ġimpacts": 5797,
      "ĠHeb": 5798,
      "itan": 5799,
      "Ġera": 5800,
      "Ġlimits": 5801,
      "ĠMichael": 5802,
      "ĠBrown": 5803,
      "Ġbrown": 5804,
      "Ġsurvival": 5805,
      "EM": 5806,
      "Ġimmun": 5807,
      "Ġreform": 5808,
      "Ġdeliver": 5809,
      "Ġmix": 5810,
      "Ġcomputers": 5811,
      "Ġflex": 5812,
      "Ġoccasion": 5813,
      "Ġax": 5814,
      "Ġtrials": 5815,
      "opyright": 5816,
      "Ġcounty": 5817,
      "level": 5818,
      "iah": 5819,
      "stein": 5820,
      "organ": 5821,
      "Ġdepos": 5822,
      "Ġmarried": 5823,
      "ĠClin": 5824,
      "Re": 5825,
      "ĠLike": 5826,
      "eer": 5827,
      "TS": 5828,
      "rine": 5829,
      "Ġtrad": 5830,
      "Ġsupplies": 5831,
      "IL": 5832,
      "Ġparties": 5833,
      "Ġperspective": 5834,
      "Ġsod": 5835,
      "icians": 5836,
      "Ġrevealed": 5837,
      "Ġestimates": 5838,
      "ĠSupp": 5839,
      "esity": 5840,
      "ureau": 5841,
      "Why": 5842,
      "Ġmovements": 5843,
      "Ġthy": 5844,
      "oln": 5845,
      "rors": 5846,
      "Ġfly": 5847,
      "Ġrein": 5848,
      "Ġguidelines": 5849,
      "Ġble": 5850,
      "ĠSciences": 5851,
      "Ġsecondary": 5852,
      "Ġacceler": 5853,
      "Ġapproaches": 5854,
      "azine": 5855,
      "aph": 5856,
      "ctive": 5857,
      "anta": 5858,
      "Ġrub": 5859,
      "64": 5860,
      "ĠGlobal": 5861,
      "iate": 5862,
      "Ġremark": 5863,
      "Ġpump": 5864,
      "orter": 5865,
      "Ġproducing": 5866,
      "Ġshot": 5867,
      "Ġunderstood": 5868,
      "Ġdebate": 5869,
      "Ã³": 5870,
      "hemical": 5871,
      "ĠLab": 5872,
      "ĠBoard": 5873,
      "My": 5874,
      "osc": 5875,
      "Ġflowers": 5876,
      "Another": 5877,
      "UN": 5878,
      "Ġconcentration": 5879,
      "mas": 5880,
      "indu": 5881,
      "ĠLu": 5882,
      "Ġaffects": 5883,
      "Ġagreement": 5884,
      "called": 5885,
      "Ġ1994": 5886,
      "Ġacts": 5887,
      "ĠIran": 5888,
      "Ġpra": 5889,
      "example": 5890,
      "rob": 5891,
      "ĠGold": 5892,
      "ena": 5893,
      "urb": 5894,
      "prise": 5895,
      "Ġlegisl": 5896,
      "Ġdiscipl": 5897,
      "Ġtells": 5898,
      "Ġmolecules": 5899,
      "quar": 5900,
      "elled": 5901,
      "Ġcouple": 5902,
      "hand": 5903,
      "reland": 5904,
      "Ġprem": 5905,
      "ĠAgricult": 5906,
      "rastructure": 5907,
      "Ġapart": 5908,
      "inations": 5909,
      "Ġinvestment": 5910,
      "Ġpush": 5911,
      "Ġvaluable": 5912,
      "88": 5913,
      "Ġtopics": 5914,
      "Ġrecognize": 5915,
      "Ġlabel": 5916,
      "ĠSecret": 5917,
      "ĠMS": 5918,
      "ĠAustralian": 5919,
      "74": 5920,
      "ye": 5921,
      "ĠStudy": 5922,
      "comm": 5923,
      "ario": 5924,
      "Ġdiox": 5925,
      "pre": 5926,
      "ycl": 5927,
      "ocracy": 5928,
      "Ġtow": 5929,
      "Ġsurf": 5930,
      "Ġformat": 5931,
      "ĠColor": 5932,
      "ĠUsing": 5933,
      "Ġtwice": 5934,
      "Ġlegislation": 5935,
      "Ġaren": 5936,
      "ĠDisease": 5937,
      "olve": 5938,
      "ĠRoyal": 5939,
      "Ġreplaced": 5940,
      "Ġattached": 5941,
      "Ġneither": 5942,
      "ĠKh": 5943,
      "Ġobtain": 5944,
      "Ġcomments": 5945,
      "Ġachieved": 5946,
      "Ġinstitution": 5947,
      "Ġsituations": 5948,
      "Ġenemy": 5949,
      "Ġwire": 5950,
      "Ġworse": 5951,
      "ĠThose": 5952,
      "umes": 5953,
      "Ġtun": 5954,
      "Ġopening": 5955,
      "ĠPower": 5956,
      "ĠEmpire": 5957,
      "cium": 5958,
      "ĠParis": 5959,
      "awn": 5960,
      "teen": 5961,
      "Ġadministr": 5962,
      "Ġvehicle": 5963,
      "05": 5964,
      "ĠWood": 5965,
      "oster": 5966,
      "Ġerror": 5967,
      "oral": 5968,
      "Ġforth": 5969,
      "hips": 5970,
      "Ġinject": 5971,
      "Ġsubstance": 5972,
      "ĠAdministration": 5973,
      "Ġaw": 5974,
      "ĠVict": 5975,
      "obe": 5976,
      "Ġslowly": 5977,
      "Ġleadership": 5978,
      "Ġmoist": 5979,
      "kes": 5980,
      "Ġamb": 5981,
      "ĠExpl": 5982,
      "Ġcoastal": 5983,
      "Ġdecrease": 5984,
      "ĠCap": 5985,
      "ĠLib": 5986,
      "Ġphr": 5987,
      "Ġgrav": 5988,
      "Ġimmediate": 5989,
      "imental": 5990,
      "Ġjustice": 5991,
      "Ġroof": 5992,
      "Ġbudget": 5993,
      "aska": 5994,
      "Ġsequence": 5995,
      "ĠEastern": 5996,
      "?\"": 5997,
      "Ġagreed": 5998,
      "ĠChicago": 5999,
      "Ġadding": 6000,
      "Ġbroken": 6001,
      "Ġfu": 6002,
      "Ġlov": 6003,
      "Ġsupplement": 6004,
      "ancing": 6005,
      "Ġbear": 6006,
      "Ġunus": 6007,
      "Ġdefic": 6008,
      "Ġfruits": 6009,
      "Ġwid": 6010,
      "usal": 6011,
      "aine": 6012,
      "Ġtraffic": 6013,
      "Ġlaunch": 6014,
      "Te": 6015,
      "ulin": 6016,
      "elesc": 6017,
      "ĠHaw": 6018,
      "Ġchain": 6019,
      "ulty": 6020,
      "Ġfilled": 6021,
      "phone": 6022,
      "Ġdin": 6023,
      "ĠAgency": 6024,
      "everal": 6025,
      "Ġcart": 6026,
      "Cont": 6027,
      "Ġspok": 6028,
      "cription": 6029,
      "Ġblog": 6030,
      "CD": 6031,
      "Ġwindow": 6032,
      "incoln": 6033,
      "Ġmaps": 6034,
      "Ġchart": 6035,
      "Ġaer": 6036,
      "Ġfract": 6037,
      "Ġstored": 6038,
      "Ġborder": 6039,
      "Ġedge": 6040,
      "Ġphone": 6041,
      "press": 6042,
      "iral": 6043,
      "Ġhoriz": 6044,
      "aria": 6045,
      "Ġremote": 6046,
      "Ġdefe": 6047,
      "Ġterritory": 6048,
      "Ġelected": 6049,
      "Ġcup": 6050,
      "Ġsucceed": 6051,
      "Ġships": 6052,
      "Ġallerg": 6053,
      "Ġnone": 6054,
      "ĠProp": 6055,
      "andon": 6056,
      "Ġbones": 6057,
      "Ġexists": 6058,
      "Ġplaying": 6059,
      "ĠIreland": 6060,
      "Ġmotiv": 6061,
      "bran": 6062,
      "ester": 6063,
      "eline": 6064,
      "Ġmuscles": 6065,
      "Ġdiversity": 6066,
      "ĠHoly": 6067,
      "Ġfewer": 6068,
      "bur": 6069,
      "ato": 6070,
      "ĠGeorg": 6071,
      "omach": 6072,
      "iana": 6073,
      "Ġparalle": 6074,
      "Ġinflamm": 6075,
      "Ġshut": 6076,
      "Ġentry": 6077,
      "ML": 6078,
      "hma": 6079,
      "ĠId": 6080,
      "77": 6081,
      "Ġprohib": 6082,
      "sey": 6083,
      "Ġdeclared": 6084,
      "Ġinstruments": 6085,
      "Ġpretty": 6086,
      "Ġcrim": 6087,
      "Ġphilosophy": 6088,
      "Ġdepartment": 6089,
      "Ġrequest": 6090,
      "Ġnecessarily": 6091,
      "Ġvessels": 6092,
      "Dr": 6093,
      "Ġing": 6094,
      "Ġ36": 6095,
      "Ġsensitive": 6096,
      "heric": 6097,
      "ĠMartin": 6098,
      "irds": 6099,
      "agon": 6100,
      "Ġintake": 6101,
      "ka": 6102,
      "ĠAS": 6103,
      "anda": 6104,
      "Ġabund": 6105,
      "ifies": 6106,
      "Ġjoined": 6107,
      "Ġtail": 6108,
      "Since": 6109,
      "itudes": 6110,
      "tenance": 6111,
      "Ġemotional": 6112,
      "eenth": 6113,
      "Ġyield": 6114,
      "BS": 6115,
      "ĠMag": 6116,
      "Ġrecovery": 6117,
      "Ġgenerated": 6118,
      "ĠGoogle": 6119,
      "ĠSol": 6120,
      "oston": 6121,
      "Ġsell": 6122,
      "ĠGuide": 6123,
      "Ġcontrovers": 6124,
      "ifications": 6125,
      "Ġsmoke": 6126,
      "Ġproduces": 6127,
      "ĠResources": 6128,
      "42": 6129,
      "ĠLong": 6130,
      "ĠOF": 6131,
      "Ġschem": 6132,
      "ĠUSA": 6133,
      "Ġassign": 6134,
      "Ġsuffering": 6135,
      "Ġelectron": 6136,
      "Ġhelpful": 6137,
      "Ġmechanism": 6138,
      "Ġwaves": 6139,
      "Ġequivalent": 6140,
      "rd": 6141,
      "ta": 6142,
      "mary": 6143,
      "Ġsomewhat": 6144,
      "Ġdelay": 6145,
      "atal": 6146,
      "Ġmanaged": 6147,
      "ĠRock": 6148,
      "ooth": 6149,
      "Ġtalking": 6150,
      "43": 6151,
      "Ġdioxide": 6152,
      "Ġconstit": 6153,
      "Ġgrew": 6154,
      "Ġpermanent": 6155,
      "Ġresolution": 6156,
      "IA": 6157,
      "acts": 6158,
      "Ġresulted": 6159,
      "CS": 6160,
      "Ġran": 6161,
      "Ġcircumstances": 6162,
      "Ġindicates": 6163,
      "Ġwitness": 6164,
      "Ġnaturally": 6165,
      "Ġgather": 6166,
      "ĠTHE": 6167,
      "Ġfold": 6168,
      "Ġcomposition": 6169,
      "Ġrivers": 6170,
      "ĠForest": 6171,
      "ĠAtt": 6172,
      "Ġseeing": 6173,
      "Ã¼": 6174,
      "Ġsight": 6175,
      "Ġhem": 6176,
      "Ġgalax": 6177,
      "Ġfighting": 6178,
      "Ġvolcan": 6179,
      "ĠServices": 6180,
      "Ġimplementation": 6181,
      "Ġwel": 6182,
      "lets": 6183,
      "Ġmetab": 6184,
      "ediatric": 6185,
      "igenous": 6186,
      "86": 6187,
      "ĠBr": 6188,
      "Ġlandscape": 6189,
      "ĠGood": 6190,
      "%)": 6191,
      "Ġmobile": 6192,
      "Us": 6193,
      "ĠPage": 6194,
      "ĠLearning": 6195,
      "upp": 6196,
      "Ġemployed": 6197,
      "ĠConst": 6198,
      "Ġannounced": 6199,
      "ascular": 6200,
      "pread": 6201,
      "ĠSup": 6202,
      "Ġtoler": 6203,
      "ĠStep": 6204,
      "Ġcars": 6205,
      "Do": 6206,
      "Ġdollars": 6207,
      "85": 6208,
      "Ġconsistent": 6209,
      "Ġphysics": 6210,
      "Ġarrest": 6211,
      "ĠHebrew": 6212,
      "Ġhero": 6213,
      "ĠNaz": 6214,
      "Ġinvent": 6215,
      "Ġsurvive": 6216,
      "Ġstudying": 6217,
      "idespread": 6218,
      "Ġdoor": 6219,
      "Ġdriving": 6220,
      "Ġsignals": 6221,
      "Stud": 6222,
      "Ġtouch": 6223,
      "ĠCast": 6224,
      "ificial": 6225,
      "ĠAny": 6226,
      "Ġspeaking": 6227,
      "DP": 6228,
      "Note": 6229,
      "ugh": 6230,
      "Ġnutrients": 6231,
      "Ġarchitecture": 6232,
      "Ġmit": 6233,
      "ĠViet": 6234,
      "Ġopposite": 6235,
      "ĠForce": 6236,
      "Ġpref": 6237,
      "ĠHome": 6238,
      "ĠClimate": 6239,
      "Ġcatch": 6240,
      "ishop": 6241,
      "Ġ32": 6242,
      "Ġsuffer": 6243,
      "Ġtransmission": 6244,
      "Ġtal": 6245,
      "Ġappreci": 6246,
      "Ġcognitive": 6247,
      "Ġanswers": 6248,
      "ĠData": 6249,
      "Ġroots": 6250,
      "ĠEarly": 6251,
      "Ġextract": 6252,
      "ĠSpain": 6253,
      "osion": 6254,
      "Ġentered": 6255,
      "inder": 6256,
      "ĠTop": 6257,
      "ibilities": 6258,
      "Ġmedium": 6259,
      "flow": 6260,
      "Ġnurs": 6261,
      "Ġarter": 6262,
      "Ġrising": 6263,
      "Ġhistoric": 6264,
      "Ġlocations": 6265,
      "Ġdifficulty": 6266,
      "Ġgone": 6267,
      "ailed": 6268,
      "tra": 6269,
      "ĠAccess": 6270,
      "Ġsatellite": 6271,
      "Ġconventional": 6272,
      "Ġabandon": 6273,
      "Ġfertil": 6274,
      "CT": 6275,
      "utch": 6276,
      "'d": 6277,
      "Ġbio": 6278,
      "Ġpassage": 6279,
      "ĠFree": 6280,
      "Ġdecide": 6281,
      "vard": 6282,
      "Ġstages": 6283,
      "Ġaccounts": 6284,
      "ucky": 6285,
      "angered": 6286,
      "Ġsuccessfully": 6287,
      "Ġearthqu": 6288,
      "Last": 6289,
      "pet": 6290,
      "ĠThrough": 6291,
      "Ġedition": 6292,
      "ĠDivision": 6293,
      "Ġrid": 6294,
      "Ġgreenhouse": 6295,
      "Ġblow": 6296,
      "Ġcarefully": 6297,
      "ĠCult": 6298,
      "Ġfoundation": 6299,
      "Ġserver": 6300,
      "erior": 6301,
      "Ġ1992": 6302,
      "een": 6303,
      "rat": 6304,
      "ĠRob": 6305,
      "Ġlect": 6306,
      "Ġswitch": 6307,
      "ĠFour": 6308,
      "ĠBre": 6309,
      "Ġpublication": 6310,
      "Ġphotos": 6311,
      "Ġ1993": 6312,
      "ĠDistrict": 6313,
      "Â·": 6314,
      "Ġpowers": 6315,
      "Ġcos": 6316,
      "osph": 6317,
      "vironments": 6318,
      "ita": 6319,
      "Ġchildhood": 6320,
      "gu": 6321,
      "Ġtasks": 6322,
      "Ġuniversity": 6323,
      ".'": 6324,
      "Ġfixed": 6325,
      "Ġfacilit": 6326,
      "En": 6327,
      "Ġstreet": 6328,
      "Ġgenerate": 6329,
      "ĠPop": 6330,
      "ĠParty": 6331,
      "Ġintelligence": 6332,
      "Ġalle": 6333,
      "ĠExt": 6334,
      "comes": 6335,
      "Ġdomin": 6336,
      "Ġtransportation": 6337,
      "yal": 6338,
      "ĠÐ": 6339,
      "Ġregist": 6340,
      "Ġlies": 6341,
      "while": 6342,
      "Ġwish": 6343,
      "Ġemployment": 6344,
      "Ġinsects": 6345,
      "Ġends": 6346,
      "Ġoutl": 6347,
      "Ġcenters": 6348,
      "Ġbomb": 6349,
      "ĠAst": 6350,
      "Ġdiverse": 6351,
      "Ġzone": 6352,
      "Ġindependence": 6353,
      "produ": 6354,
      "zed": 6355,
      "Ġpercentage": 6356,
      "Ġcamera": 6357,
      "wing": 6358,
      "Ġpromin": 6359,
      "Ġlaunched": 6360,
      "Ġuns": 6361,
      "Ġcommission": 6362,
      "inking": 6363,
      "Ġdestruction": 6364,
      "Ġcontamin": 6365,
      "Ġestimate": 6366,
      "rary": 6367,
      "Ġfill": 6368,
      "Ġsigned": 6369,
      "Ġbiology": 6370,
      "Ġpolitics": 6371,
      "Ġvital": 6372,
      "Ġbag": 6373,
      "Ġmedic": 6374,
      "Ġmedication": 6375,
      "Ġattend": 6376,
      "Ġplatform": 6377,
      "Ġunable": 6378,
      "Ġaccum": 6379,
      "Ġdrawn": 6380,
      "Ġdiagnosed": 6381,
      "CL": 6382,
      "Ġnearby": 6383,
      "stone": 6384,
      "Ġseemed": 6385,
      "car": 6386,
      "icide": 6387,
      "Ġrocks": 6388,
      "ua": 6389,
      "Ġepidem": 6390,
      "igan": 6391,
      "Ġcurriculum": 6392,
      "orses": 6393,
      "Ġprepare": 6394,
      "89": 6395,
      "Ġchrom": 6396,
      "Ġdivision": 6397,
      "hop": 6398,
      "Ġinfrastructure": 6399,
      "Ġapproved": 6400,
      "Ġpoison": 6401,
      "Ġsupposed": 6402,
      "Ġmand": 6403,
      "oir": 6404,
      "Ġminim": 6405,
      "Ġknows": 6406,
      "Ġcong": 6407,
      "Ġweapons": 6408,
      "Ġwhatever": 6409,
      "ĠItaly": 6410,
      "Ġethnic": 6411,
      "fish": 6412,
      "71": 6413,
      "Ġprove": 6414,
      "Ġtruly": 6415,
      "Ġhypothes": 6416,
      "Ġantibiot": 6417,
      "ighter": 6418,
      "Ġregulations": 6419,
      "73": 6420,
      "Ġdepart": 6421,
      "athe": 6422,
      "ĠCare": 6423,
      "Ġcrew": 6424,
      "venue": 6425,
      "Ġ150": 6426,
      "dis": 6427,
      "ocation": 6428,
      "Ġintellectual": 6429,
      "Ġstroke": 6430,
      "ĠGard": 6431,
      "Ġdemonstrated": 6432,
      "ĠScott": 6433,
      "ĠLincoln": 6434,
      "Ġtips": 6435,
      "Ġsmoking": 6436,
      "tts": 6437,
      "ĠKnow": 6438,
      "Ġhusband": 6439,
      "ceived": 6440,
      "Ġstomach": 6441,
      "ĠDu": 6442,
      "Ġreaders": 6443,
      "Ġyounger": 6444,
      "ashion": 6445,
      "rot": 6446,
      "adel": 6447,
      "achuse": 6448,
      "alysis": 6449,
      "arant": 6450,
      "Ġsecure": 6451,
      "Ġultimately": 6452,
      "Ġacres": 6453,
      "UR": 6454,
      "Ġchosen": 6455,
      "ĠGree": 6456,
      "abled": 6457,
      "Ġinjuries": 6458,
      "Ġenhance": 6459,
      "eor": 6460,
      "ĠFe": 6461,
      "Ġcomparison": 6462,
      "isted": 6463,
      "Ġfalse": 6464,
      "Ġsharing": 6465,
      "Ġmerely": 6466,
      "Ġpull": 6467,
      "Ġstands": 6468,
      "Ġmechanisms": 6469,
      "Ġpounds": 6470,
      "Ġthor": 6471,
      "itter": 6472,
      "Ġhop": 6473,
      "Ġslaves": 6474,
      "Ġregularly": 6475,
      "ĠVis": 6476,
      "Ġ75": 6477,
      "earing": 6478,
      "top": 6479,
      "ora": 6480,
      "ditional": 6481,
      "IP": 6482,
      "OL": 6483,
      "achusetts": 6484,
      "erals": 6485,
      "Ġroute": 6486,
      "Ġcloser": 6487,
      "Ġcolumn": 6488,
      "Ġpregnant": 6489,
      "May": 6490,
      "Ġleaf": 6491,
      "liest": 6492,
      "?âĢĿ": 6493,
      "Can": 6494,
      "72": 6495,
      "sen": 6496,
      "Ġclust": 6497,
      "Ġparam": 6498,
      "Ġconscious": 6499,
      "ĠPrince": 6500,
      "cribed": 6501,
      "Ġinfant": 6502,
      "Ġsupports": 6503,
      "zil": 6504,
      "ymph": 6505,
      "Ġarrange": 6506,
      "Ġended": 6507,
      "scale": 6508,
      "Ġfeeding": 6509,
      "Ġexplanation": 6510,
      "ĠHill": 6511,
      "Ġroutine": 6512,
      "41": 6513,
      "Ġcolors": 6514,
      "then": 6515,
      "Ġdream": 6516,
      "Ġstick": 6517,
      "eers": 6518,
      "Ġwidespread": 6519,
      "Ġmild": 6520,
      "Ġdoi": 6521,
      "Ġsole": 6522,
      "Ġmanufacturing": 6523,
      "ĠDou": 6524,
      "ĠOxford": 6525,
      "ĠJeff": 6526,
      "Ġmathematics": 6527,
      "Ġpositions": 6528,
      "Ġruns": 6529,
      "Ġproved": 6530,
      "66": 6531,
      "Ġdensity": 6532,
      "ella": 6533,
      "lvan": 6534,
      "Ġmice": 6535,
      "Ġimproving": 6536,
      "Ġinhib": 6537,
      "Ġrecip": 6538,
      "Ġconstructed": 6539,
      "Ġeld": 6540,
      "Ġnegot": 6541,
      "stract": 6542,
      "Ġsections": 6543,
      "Ġorient": 6544,
      "ĠBoston": 6545,
      "Ġexpansion": 6546,
      "uter": 6547,
      "Ġfever": 6548,
      "Ġtons": 6549,
      "Ġrelation": 6550,
      "acing": 6551,
      "ints": 6552,
      "Ġinvolving": 6553,
      "Ġrecognition": 6554,
      "asive": 6555,
      "Ġov": 6556,
      "aser": 6557,
      "Ġcalcium": 6558,
      "html": 6559,
      "02": 6560,
      "Ġacknow": 6561,
      "Ġratio": 6562,
      "ults": 6563,
      "Ġvehicles": 6564,
      "Ġstre": 6565,
      "Ġmatters": 6566,
      "ivery": 6567,
      "Ġlessons": 6568,
      "Ġtransition": 6569,
      "ĠDirector": 6570,
      "ĠOhio": 6571,
      "ĠNative": 6572,
      "cul": 6573,
      "ima": 6574,
      "Ġcultiv": 6575,
      "Ġemployees": 6576,
      "sylvan": 6577,
      "Ġfunds": 6578,
      "Ġobst": 6579,
      "Ã¶": 6580,
      "asters": 6581,
      "Ġmixed": 6582,
      "ĠSat": 6583,
      "ĠBill": 6584,
      "Ġveter": 6585,
      "ĠExper": 6586,
      "Ġrefuge": 6587,
      "Ġaward": 6588,
      "Ġabnormal": 6589,
      "apse": 6590,
      "ĠScot": 6591,
      "Ġorbit": 6592,
      "ounded": 6593,
      "ĠDet": 6594,
      "Ġagents": 6595,
      "Ġscan": 6596,
      "Ġ65": 6597,
      "Ġhonor": 6598,
      "Ġ1950": 6599,
      "Ġ(\"": 6600,
      "weight": 6601,
      "Ġexamine": 6602,
      "06": 6603,
      "Ġneur": 6604,
      "RA": 6605,
      "ĠCre": 6606,
      "Ġprev": 6607,
      "Ġfeelings": 6608,
      "Ġcm": 6609,
      "ĠFamily": 6610,
      "ĠConn": 6611,
      "ĠKingdom": 6612,
      "Ġprincipal": 6613,
      "ano": 6614,
      "Int": 6615,
      "ĠEth": 6616,
      "gans": 6617,
      "irt": 6618,
      "Ġcloud": 6619,
      "issipp": 6620,
      "Ġchoices": 6621,
      "olester": 6622,
      "etics": 6623,
      "Ġcreative": 6624,
      "Ġille": 6625,
      "antly": 6626,
      "ployment": 6627,
      "Ġjoin": 6628,
      "erent": 6629,
      "Rec": 6630,
      "bour": 6631,
      "Ġdedicated": 6632,
      "Qu": 6633,
      "ude": 6634,
      "Ġundert": 6635,
      "Ġflo": 6636,
      "Ġcapture": 6637,
      "Ġanxiety": 6638,
      "Ġhydrogen": 6639,
      "cons": 6640,
      "Ġstanding": 6641,
      "power": 6642,
      "Ġdesire": 6643,
      "Ġproportion": 6644,
      "Ġsteel": 6645,
      "Ġ1991": 6646,
      "Ġsentence": 6647,
      "Ġinner": 6648,
      "Ġregul": 6649,
      "ĠItalian": 6650,
      "Ġadequate": 6651,
      "uing": 6652,
      "ĠEff": 6653,
      "isco": 6654,
      "itative": 6655,
      "Ġsought": 6656,
      "Ġenvironments": 6657,
      "ĠEncyclopedia": 6658,
      "IG": 6659,
      "Med": 6660,
      "Ġprotocol": 6661,
      "ĠPalest": 6662,
      "ĠLaboratory": 6663,
      "Pe": 6664,
      "Ġspending": 6665,
      "ĠMassachusetts": 6666,
      "ĠSupreme": 6667,
      "08": 6668,
      "Of": 6669,
      "Ġboys": 6670,
      "how": 6671,
      "Ġsubm": 6672,
      "Ġmeters": 6673,
      "AA": 6674,
      "urrent": 6675,
      "ĠMer": 6676,
      "ĠEp": 6677,
      "ĠAP": 6678,
      "Ġmaintenance": 6679,
      "Ġafford": 6680,
      "Ġfourth": 6681,
      "Ġoperate": 6682,
      "04": 6683,
      "Ġbread": 6684,
      "Ġclaimed": 6685,
      "ĠSpecial": 6686,
      "Ġingred": 6687,
      "ĠIP": 6688,
      "Ġscript": 6689,
      "Ġcourses": 6690,
      "ĠCoast": 6691,
      "',": 6692,
      "Ġhousing": 6693,
      "Ġtumor": 6694,
      "alls": 6695,
      "Ġprompt": 6696,
      "ĠAIDS": 6697,
      "Ġpron": 6698,
      "omer": 6699,
      "operation": 6700,
      "acco": 6701,
      "Ġevaluation": 6702,
      "Ġtelevision": 6703,
      "ĠVer": 6704,
      "olesterol": 6705,
      "rey": 6706,
      "ĠVictor": 6707,
      "03": 6708,
      "Ġtall": 6709,
      "Ġscene": 6710,
      "Ġdesigns": 6711,
      "emia": 6712,
      "Ġoverl": 6713,
      "Ġindicated": 6714,
      "Ġturns": 6715,
      "ypes": 6716,
      "Ġscientist": 6717,
      "ĠPolic": 6718,
      "Ġstring": 6719,
      "Ġcontrols": 6720,
      "Ġincl": 6721,
      "teb": 6722,
      "ĠAngel": 6723,
      "Ġsweet": 6724,
      "Ġconsiderable": 6725,
      "09": 6726,
      "eper": 6727,
      "anc": 6728,
      "ĠDen": 6729,
      "Ġshift": 6730,
      "Bl": 6731,
      "Ġbanks": 6732,
      "Ġfacility": 6733,
      "Ġlayers": 6734,
      "Ġsurve": 6735,
      "Ġrank": 6736,
      "Ġcomposed": 6737,
      "Ġpreval": 6738,
      "Ġbabies": 6739,
      "Ġkidney": 6740,
      "abric": 6741,
      "Ġeditor": 6742,
      "otion": 6743,
      "she": 6744,
      "Ġwants": 6745,
      "Ġplus": 6746,
      "ĠNov": 6747,
      "Ġnerve": 6748,
      "xts": 6749,
      "Ġlegs": 6750,
      "Ġopposed": 6751,
      "ĠAmong": 6752,
      "IM": 6753,
      "Ġartists": 6754,
      "sylvania": 6755,
      "orous": 6756,
      "Ġnarr": 6757,
      "ady": 6758,
      "ishment": 6759,
      "Ġintervention": 6760,
      "Ġofficers": 6761,
      "ritis": 6762,
      "erman": 6763,
      "Ġtube": 6764,
      "Ġthoughts": 6765,
      "ĠDesign": 6766,
      "va": 6767,
      "ĠWik": 6768,
      "issippi": 6769,
      "Ġru": 6770,
      "Ġsports": 6771,
      "Ġpair": 6772,
      "Ġconsumers": 6773,
      "Ġburning": 6774,
      "Ġwilling": 6775,
      "Ġholding": 6776,
      "Ġahead": 6777,
      "Ġcards": 6778,
      "Ġsupporting": 6779,
      "Ġparticipate": 6780,
      "Ġcaptured": 6781,
      "SS": 6782,
      "mes": 6783,
      "Ġobesity": 6784,
      "Ġslavery": 6785,
      "Ġstrongly": 6786,
      "Go": 6787,
      "http": 6788,
      "arth": 6789,
      "Ġlin": 6790,
      "Ġhappy": 6791,
      "Ġchest": 6792,
      "Ġparticipation": 6793,
      "Because": 6794,
      "Ġneck": 6795,
      "Ġterror": 6796,
      "Ġdefense": 6797,
      "ĠMinister": 6798,
      "Ġstruggle": 6799,
      "Ġlie": 6800,
      "Ġjourney": 6801,
      "ĠSurvey": 6802,
      "Ġphysician": 6803,
      "bing": 6804,
      "Ġhun": 6805,
      "Ġoral": 6806,
      "Ġappeal": 6807,
      ":||": 6808,
      "Ġnest": 6809,
      "Ġexclus": 6810,
      "Ġenable": 6811,
      "Ġconserv": 6812,
      "erted": 6813,
      "ĠConfed": 6814,
      "ĠAge": 6815,
      "Ġevil": 6816,
      "ading": 6817,
      "Ġchick": 6818,
      "Ġid": 6819,
      "Ġsuitable": 6820,
      "Ġwriter": 6821,
      "Ġinher": 6822,
      "lishing": 6823,
      "Ġtropical": 6824,
      "Ġcompounds": 6825,
      "Ġfrequent": 6826,
      "Ġreader": 6827,
      "Ġsacr": 6828,
      "Ġgenerations": 6829,
      "Ġcombat": 6830,
      "uh": 6831,
      "onia": 6832,
      "Ġpapers": 6833,
      "abits": 6834,
      "occ": 6835,
      "Ġpeak": 6836,
      "Ġautism": 6837,
      "ĠNavy": 6838,
      "uality": 6839,
      "Ġreceiving": 6840,
      "Ġtrip": 6841,
      "ivered": 6842,
      "including": 6843,
      "Ġimprovement": 6844,
      "ĠBab": 6845,
      "Ġunderlying": 6846,
      "Ġlisten": 6847,
      "Ġdownload": 6848,
      "Ġbiggest": 6849,
      "ipping": 6850,
      "ĠWhe": 6851,
      "Ġsolve": 6852,
      "Ġcreates": 6853,
      "Ġexplo": 6854,
      "gs": 6855,
      "ĠMen": 6856,
      "ĠMake": 6857,
      "Ġdisaster": 6858,
      "Ġrarely": 6859,
      "ushed": 6860,
      "Ġmeasurements": 6861,
      "ĠTime": 6862,
      "Ġcutting": 6863,
      "Ġframe": 6864,
      "ĠPlease": 6865,
      "Ġreserved": 6866,
      "Ġmicrosc": 6867,
      "ĠFund": 6868,
      "Ġparallel": 6869,
      "alm": 6870,
      "arn": 6871,
      "eless": 6872,
      "oples": 6873,
      "ĠBig": 6874,
      "Ġaccident": 6875,
      "ette": 6876,
      "Ġnewly": 6877,
      "Ġmodified": 6878,
      "Ġordered": 6879,
      "Ġcompetition": 6880,
      "Ġteen": 6881,
      "uts": 6882,
      "Ġstrict": 6883,
      "ĠLar": 6884,
      "ĠâĢ¦": 6885,
      "Comp": 6886,
      "oven": 6887,
      "Ġtrained": 6888,
      "Ġappointed": 6889,
      "Ġboy": 6890,
      "Ġattempts": 6891,
      "hav": 6892,
      "pd": 6893,
      "Ġvictims": 6894,
      "Ġcrime": 6895,
      "hyth": 6896,
      "ĠSil": 6897,
      "inson": 6898,
      "Ġhandle": 6899,
      "Ġwheat": 6900,
      "Ġassociation": 6901,
      "yc": 6902,
      "Ġpurchase": 6903,
      "Ġinstructions": 6904,
      "ĠSk": 6905,
      "Ġfishing": 6906,
      "la": 6907,
      "\")": 6908,
      "Ġresponses": 6909,
      "Ġbusinesses": 6910,
      "Ġtrouble": 6911,
      "ĠPennsylvania": 6912,
      "Ġmaintained": 6913,
      "Ġdemonstrate": 6914,
      "Ġmales": 6915,
      "Ġwasn": 6916,
      "Ġconqu": 6917,
      "Ġexceed": 6918,
      "ĠKansas": 6919,
      "Ġcultures": 6920,
      "ĠGeorgia": 6921,
      "Ġplanned": 6922,
      "ĠSing": 6923,
      "Ġconference": 6924,
      "esis": 6925,
      "Ġstations": 6926,
      "ĠGulf": 6927,
      "Ġmembran": 6928,
      "Ġreactions": 6929,
      "ĠRom": 6930,
      "herent": 6931,
      "urt": 6932,
      "ĠGrand": 6933,
      "Ġcommitted": 6934,
      "Ġmolecular": 6935,
      "Ġmeth": 6936,
      "ĠWildlife": 6937,
      "fortunately": 6938,
      "Ġtheories": 6939,
      "riers": 6940,
      "Ġhole": 6941,
      "Ġrig": 6942,
      "ĠDarwin": 6943,
      "ĠFather": 6944,
      "Ġinteraction": 6945,
      "Ġsubsequent": 6946,
      "Ġsubstances": 6947,
      "ĠWindows": 6948,
      "ĠChange": 6949,
      "Ġcriteria": 6950,
      "Ġcav": 6951,
      "Ġsilver": 6952,
      "ums": 6953,
      "Ġring": 6954,
      "ĠWho": 6955,
      "Ġdirected": 6956,
      "Ġtheore": 6957,
      "ricts": 6958,
      "Ġbiod": 6959,
      "etary": 6960,
      "Ġrecommendations": 6961,
      "Ġsubstantial": 6962,
      "itals": 6963,
      "ĠAM": 6964,
      "izer": 6965,
      "Ġlaid": 6966,
      "usalem": 6967,
      "illa": 6968,
      "Ġguarant": 6969,
      "Ġcited": 6970,
      "Ġfurn": 6971,
      "Ġislands": 6972,
      "ĠKent": 6973,
      "ĠMississippi": 6974,
      "ĠTre": 6975,
      "aded": 6976,
      "Ġresident": 6977,
      "Ġplanets": 6978,
      "ĠPrevention": 6979,
      "Ġcryst": 6980,
      "peror": 6981,
      "Ġzero": 6982,
      "Over": 6983,
      "ĠList": 6984,
      "Ġplane": 6985,
      "iat": 6986,
      "heimer": 6987,
      "ĠEc": 6988,
      "ĠLin": 6989,
      "Ġcovers": 6990,
      "Ġske": 6991,
      "inally": 6992,
      "Ġsup": 6993,
      "Ġsoul": 6994,
      "ĠSenate": 6995,
      "amination": 6996,
      "ourage": 6997,
      "Ġcontemporary": 6998,
      "word": 6999,
      "ĠTV": 7000,
      "ĠMah": 7001,
      "Ġmanif": 7002,
      "Ġrow": 7003,
      "erty": 7004,
      "IR": 7005,
      "mail": 7006,
      "Ġpreced": 7007,
      "Don": 7008,
      "Ġfro": 7009,
      "Ġdrawing": 7010,
      "Ġbreathing": 7011,
      "plant": 7012,
      "adelph": 7013,
      "Ġpestic": 7014,
      "acher": 7015,
      "Ġmarkets": 7016,
      "ether": 7017,
      "ĠJohnson": 7018,
      "Ġholds": 7019,
      "umps": 7020,
      "Ġconcluded": 7021,
      "sets": 7022,
      "Ġswim": 7023,
      "Ġrecept": 7024,
      "Ġdose": 7025,
      "Ġoutbre": 7026,
      "Ġfairly": 7027,
      "ĠSir": 7028,
      "Ġaudience": 7029,
      "Your": 7030,
      "Ġcrucial": 7031,
      "Ġplays": 7032,
      "Ġphoto": 7033,
      "Ġmanip": 7034,
      "Ġstarts": 7035,
      "Ġuniversal": 7036,
      "Ġcentre": 7037,
      "medi": 7038,
      "Ġoptim": 7039,
      "Ġfasc": 7040,
      "Ġbranch": 7041,
      "Ġprofessionals": 7042,
      "Ġtub": 7043,
      "Ġintegrated": 7044,
      "Or": 7045,
      "akistan": 7046,
      "Ġbutter": 7047,
      "ĠWhere": 7048,
      "ĠEPA": 7049,
      "ĠColorado": 7050,
      "Ġlots": 7051,
      "using": 7052,
      "osh": 7053,
      "ĠLanguage": 7054,
      "inite": 7055,
      "ĠJul": 7056,
      "Ġgranted": 7057,
      "],": 7058,
      "yr": 7059,
      "Ġconven": 7060,
      "Ġarts": 7061,
      "Ġframework": 7062,
      "Not": 7063,
      "iary": 7064,
      "Ġproceed": 7065,
      "ĠAdv": 7066,
      "Ġdanger": 7067,
      "Ġsuperior": 7068,
      "Ġenforce": 7069,
      "Ġdefine": 7070,
      "net": 7071,
      "cel": 7072,
      "Ġbeliefs": 7073,
      "Ġearliest": 7074,
      "Ġdigest": 7075,
      "ani": 7076,
      "69": 7077,
      "Ġdelivered": 7078,
      "ĠIrish": 7079,
      "adelphia": 7080,
      "Ġroughly": 7081,
      "Ġvisitors": 7082,
      "Ġcarrying": 7083,
      "ĠSecretary": 7084,
      "Ġunusual": 7085,
      "Ġcommunications": 7086,
      ")|": 7087,
      "Ġcategories": 7088,
      "Ġmachines": 7089,
      "Ġcrow": 7090,
      "ĠChristians": 7091,
      "Ġdelivery": 7092,
      "Read": 7093,
      "Ġjur": 7094,
      "Ġregarded": 7095,
      "AB": 7096,
      "forest": 7097,
      "arsh": 7098,
      "Ġcircle": 7099,
      "anes": 7100,
      "ĠObama": 7101,
      "eping": 7102,
      "Ġtexts": 7103,
      "Ġrelief": 7104,
      "Ġexped": 7105,
      "Ġengaged": 7106,
      "Ġharmful": 7107,
      "fl": 7108,
      "Ġwalking": 7109,
      "Ġcoff": 7110,
      "Ġdrought": 7111,
      "ĠFair": 7112,
      "ĠJac": 7113,
      "roduction": 7114,
      "Ġdebt": 7115,
      "ĠDictionary": 7116,
      "Ġelectro": 7117,
      "Ġbridge": 7118,
      "ĠMel": 7119,
      "Ġmoves": 7120,
      "Ġhorses": 7121,
      "Ġstable": 7122,
      "Ġorgans": 7123,
      "Ġlibr": 7124,
      "Ġcompris": 7125,
      "Ġassigned": 7126,
      "Ġconcerning": 7127,
      "ĠSuper": 7128,
      "Ġbehaviour": 7129,
      "CP": 7130,
      "etime": 7131,
      "Ġcommittee": 7132,
      "Ġfemales": 7133,
      "Ġbranches": 7134,
      "Ġpool": 7135,
      "rous": 7136,
      "Ġusage": 7137,
      "Ġpresentation": 7138,
      "Ġcontroll": 7139,
      "Ġpainting": 7140,
      "Ġshop": 7141,
      "Ġthreatened": 7142,
      "Am": 7143,
      "sell": 7144,
      "Ġscar": 7145,
      "ĠBrazil": 7146,
      "Ġcategory": 7147,
      "Ġholid": 7148,
      "otton": 7149,
      "ĠPract": 7150,
      "Ġmode": 7151,
      "ĠJerusalem": 7152,
      "Ġalter": 7153,
      "theless": 7154,
      "Ġturning": 7155,
      "Ġkilomet": 7156,
      "Ġproof": 7157,
      "ĠPet": 7158,
      "ĠAsian": 7159,
      "ĠConservation": 7160,
      "orph": 7161,
      "Ġhazard": 7162,
      "Ġprogramming": 7163,
      "Ġputting": 7164,
      "feed": 7165,
      "gi": 7166,
      "Ġorb": 7167,
      "ruption": 7168,
      "Ġsuffered": 7169,
      "Ġcholesterol": 7170,
      "Ġpermission": 7171,
      "uracy": 7172,
      "Ġcolour": 7173,
      "Ġwhereas": 7174,
      "Ġrespir": 7175,
      "Ġaqu": 7176,
      "Ġevolved": 7177,
      "Ġdistributed": 7178,
      "Ġath": 7179,
      "isdom": 7180,
      "ĠFigure": 7181,
      "ĠIslamic": 7182,
      "Ġvulnerable": 7183,
      "Ġstead": 7184,
      "Ġintense": 7185,
      "Ġblocks": 7186,
      "Ġseeking": 7187,
      "Ġsheet": 7188,
      "ĠÂ©": 7189,
      "ĠHam": 7190,
      "raining": 7191,
      "Ġvel": 7192,
      "adder": 7193,
      "ifts": 7194,
      "ĠHospital": 7195,
      "Ġsenior": 7196,
      "First": 7197,
      "ĠYoung": 7198,
      "Ġconsumer": 7199,
      "ala": 7200,
      "Ġdiscrimination": 7201,
      "bar": 7202,
      "ĠHy": 7203,
      "Ġcham": 7204,
      "ograp": 7205,
      "Ġinterpre": 7206,
      "ĠThough": 7207,
      "Ġquarter": 7208,
      "Le": 7209,
      "itivity": 7210,
      "68": 7211,
      "istent": 7212,
      "prof": 7213,
      "ĠSecurity": 7214,
      "unicip": 7215,
      "Ġ400": 7216,
      "07": 7217,
      "Ġearn": 7218,
      "Ġwriters": 7219,
      "ĠZeal": 7220,
      "Ġexamination": 7221,
      "Ġobjective": 7222,
      "Ġton": 7223,
      "Ġfed": 7224,
      "Ġpassing": 7225,
      "59": 7226,
      "iological": 7227,
      "Ġminute": 7228,
      "Ġskill": 7229,
      "regon": 7230,
      "ĠSwed": 7231,
      "Ġconclusion": 7232,
      "Ġequally": 7233,
      "Ġbattery": 7234,
      "Ġinstalled": 7235,
      "Ġinvestigation": 7236,
      "uzz": 7237,
      "ĠSund": 7238,
      "Ġfinds": 7239,
      "Ġtaxes": 7240,
      "Ġviruses": 7241,
      "ĠâĨ": 7242,
      "Ġsurfaces": 7243,
      "Ġopposition": 7244,
      "ĠCorps": 7245,
      "Ġlifest": 7246,
      "li": 7247,
      "Ġroads": 7248,
      "Ġuncertain": 7249,
      "Ġcattle": 7250,
      "Ġinterpretation": 7251,
      "Ġusual": 7252,
      "Ġraw": 7253,
      "Ġslave": 7254,
      "Ġsignificance": 7255,
      "Ġjudge": 7256,
      "Ġarchae": 7257,
      "ENT": 7258,
      "ĠCambridge": 7259,
      "Ġcats": 7260,
      "Ġengage": 7261,
      "Ġwithd": 7262,
      "Ġdisabilities": 7263,
      "Ġ33": 7264,
      "Ġ48": 7265,
      "ĠDig": 7266,
      "Ġcircuit": 7267,
      "Ġexception": 7268,
      "mod": 7269,
      "ĠGr": 7270,
      "Ġwarning": 7271,
      "Ġconfirmed": 7272,
      "Ġmm": 7273,
      "Ġcolonies": 7274,
      "inois": 7275,
      "ĠConference": 7276,
      "requ": 7277,
      "abul": 7278,
      "ĠConvention": 7279,
      "Ġfashion": 7280,
      "Ġseat": 7281,
      "Ġourselves": 7282,
      "hesis": 7283,
      "aneous": 7284,
      "Ġinfluenced": 7285,
      "UT": 7286,
      "Ð°": 7287,
      "olesc": 7288,
      "Ġpharm": 7289,
      "Ġdamaged": 7290,
      "Ġfluor": 7291,
      "raham": 7292,
      "Ġsettled": 7293,
      "ĠPolit": 7294,
      "ĠProtection": 7295,
      "ĠTim": 7296,
      "Ġongoing": 7297,
      "ĠSafety": 7298,
      "Ġescape": 7299,
      "Ġment": 7300,
      "Ġdischar": 7301,
      "Even": 7302,
      "ĠYear": 7303,
      "elfare": 7304,
      "ĠNetwork": 7305,
      "ĠFrancisco": 7306,
      "ĠZealand": 7307,
      "Ed": 7308,
      "Ġclothing": 7309,
      "Ġ38": 7310,
      "ĠHarvard": 7311,
      "vation": 7312,
      "Ġenorm": 7313,
      "Ġinterface": 7314,
      "ipedia": 7315,
      "ĠOper": 7316,
      "Ġtowns": 7317,
      "Ġexamined": 7318,
      "Ġtight": 7319,
      "Ġelsewhere": 7320,
      "ĠEr": 7321,
      "Ġunion": 7322,
      "Ġessentially": 7323,
      "Ġceremon": 7324,
      "Ġrab": 7325,
      "Ġcareful": 7326,
      "rox": 7327,
      "ĠPo": 7328,
      "Ġbrings": 7329,
      "Ġwait": 7330,
      "yles": 7331,
      "Ġchlor": 7332,
      "ptions": 7333,
      "endment": 7334,
      "'.": 7335,
      "enza": 7336,
      "asty": 7337,
      "Ġbreeding": 7338,
      "ographical": 7339,
      "ĠCommunity": 7340,
      "odox": 7341,
      "agan": 7342,
      "Ġowner": 7343,
      "ĠMichigan": 7344,
      "raq": 7345,
      "ĠCub": 7346,
      "ĠDO": 7347,
      "Ġartificial": 7348,
      "Ġserving": 7349,
      "HA": 7350,
      "sm": 7351,
      "Ġmatch": 7352,
      "ĠMicro": 7353,
      "Ġisolated": 7354,
      "Ġtemple": 7355,
      "Ġrice": 7356,
      "pling": 7357,
      "def": 7358,
      "Ġhosp": 7359,
      "Ġoutcomes": 7360,
      "Ġcommunicate": 7361,
      "Â®": 7362,
      "Ġabsence": 7363,
      "John": 7364,
      "irth": 7365,
      "Ġconcentrations": 7366,
      "Ġimplications": 7367,
      "CE": 7368,
      "Ġcolonial": 7369,
      "sue": 7370,
      "utrition": 7371,
      "Ġtransp": 7372,
      "Ġspacecraft": 7373,
      "Ġinteractions": 7374,
      "elescope": 7375,
      "idance": 7376,
      "ĠMoon": 7377,
      "aked": 7378,
      "Ġarray": 7379,
      "ĠSpring": 7380,
      "Ġfalls": 7381,
      "Ġspectrum": 7382,
      "orted": 7383,
      "Ġforg": 7384,
      "Ġrespectively": 7385,
      "ĠPhiladelphia": 7386,
      "isk": 7387,
      "ĠTom": 7388,
      "ĠSar": 7389,
      "ĠOrganization": 7390,
      "Ġdefend": 7391,
      "orig": 7392,
      "Ġtooth": 7393,
      "ĠThree": 7394,
      "Ġempt": 7395,
      "Ġtransf": 7396,
      "Ġstatistics": 7397,
      "Ġargued": 7398,
      "Ġemphasis": 7399,
      "Ġcharged": 7400,
      "Ġdramatic": 7401,
      "ooking": 7402,
      "Ġgrain": 7403,
      "Ġfabric": 7404,
      "Ġtargets": 7405,
      "58": 7406,
      "night": 7407,
      "real": 7408,
      "Ġrational": 7409,
      "ĠAdd": 7410,
      "Ġvac": 7411,
      "Ġhighlight": 7412,
      "ommod": 7413,
      "Ġ1989": 7414,
      "Ġfunctional": 7415,
      "Ġbatt": 7416,
      "olt": 7417,
      "ostic": 7418,
      "Ġartist": 7419,
      "Ġlists": 7420,
      "outs": 7421,
      "Ġevaluate": 7422,
      "Ġfest": 7423,
      "ĠSym": 7424,
      "Ġcontinuous": 7425,
      "Ġbehaviors": 7426,
      "ĠPakistan": 7427,
      "Ġblind": 7428,
      "Ġangle": 7429,
      "zheimer": 7430,
      "Ġgradually": 7431,
      "rint": 7432,
      "Ġacids": 7433,
      "Ġcourts": 7434,
      "Ġ1930": 7435,
      "Ġtract": 7436,
      "Ġcounsel": 7437,
      "Ġcriminal": 7438,
      "bles": 7439,
      "Ġgro": 7440,
      "Ġcalling": 7441,
      "ĠParliament": 7442,
      "Ġmine": 7443,
      "rowing": 7444,
      "class": 7445,
      "ĠCreat": 7446,
      "Ġconcrete": 7447,
      "Ġencouraged": 7448,
      "Ġmortality": 7449,
      "ĠAri": 7450,
      "Ġparas": 7451,
      "azing": 7452,
      "Ġvolt": 7453,
      "Ġflav": 7454,
      "Ġbeings": 7455,
      "Ġgiant": 7456,
      "Ġsettlement": 7457,
      "Ġmountains": 7458,
      "Ġevolutionary": 7459,
      "Ġinhabit": 7460,
      "Ġreliable": 7461,
      "Ġassume": 7462,
      "ĠBefore": 7463,
      "Ġhabits": 7464,
      "Ġviewed": 7465,
      "bec": 7466,
      "urches": 7467,
      ")||": 7468,
      "Ġconnections": 7469,
      "ounce": 7470,
      "Ġorders": 7471,
      "ĠAff": 7472,
      "itual": 7473,
      "Ġouter": 7474,
      "Ġvariable": 7475,
      "ĠAND": 7476,
      "ĠPolicy": 7477,
      "Ġvirtual": 7478,
      "ĠAcc": 7479,
      "ĠAuthor": 7480,
      "Ġrealize": 7481,
      "Ġepis": 7482,
      "Ġpup": 7483,
      "ĠBul": 7484,
      "una": 7485,
      "ĠIV": 7486,
      "Ġworship": 7487,
      "ĠCentre": 7488,
      "Ġfilter": 7489,
      "Ġmac": 7490,
      "ollowing": 7491,
      "About": 7492,
      "ĠGar": 7493,
      "Ġheads": 7494,
      "uber": 7495,
      "Ġcopyright": 7496,
      "ĠHim": 7497,
      "icted": 7498,
      "ounter": 7499,
      "Ġprinted": 7500,
      "ĠHave": 7501,
      "ocy": 7502,
      "Ġseconds": 7503,
      "enger": 7504,
      "Ġbath": 7505,
      "idity": 7506,
      "Ġnoise": 7507,
      "Ġdiameter": 7508,
      "ĠArctic": 7509,
      "Ã±": 7510,
      "Ġtaste": 7511,
      "ĠObs": 7512,
      "Ġfinished": 7513,
      "ĠCorn": 7514,
      "Ġobservation": 7515,
      "ĠBooks": 7516,
      "Ġsevent": 7517,
      "vi": 7518,
      "Ġinn": 7519,
      "oul": 7520,
      "Ġpolar": 7521,
      "Ġconfidence": 7522,
      "Ġvoc": 7523,
      "Ġrose": 7524,
      "ditionally": 7525,
      "istical": 7526,
      "Ġtank": 7527,
      "Ġlake": 7528,
      "Ġmothers": 7529,
      "ologic": 7530,
      "Ġacute": 7531,
      "Ġcorner": 7532,
      "writ": 7533,
      "ĠBattle": 7534,
      "Ġguard": 7535,
      "Ġbeneficial": 7536,
      "Ġmercury": 7537,
      "eren": 7538,
      "Ġ1988": 7539,
      "Ġaccessible": 7540,
      "Ġ1940": 7541,
      "ĠExp": 7542,
      "Ġasthma": 7543,
      "Ġcancers": 7544,
      "Ġplain": 7545,
      "Ġmissing": 7546,
      "ĠKorea": 7547,
      "Ġasking": 7548,
      "ĠIllinois": 7549,
      "rection": 7550,
      "orith": 7551,
      "aints": 7552,
      "ĠStar": 7553,
      "ĠEU": 7554,
      "Ġroyal": 7555,
      "Ġfarming": 7556,
      "rays": 7557,
      "achers": 7558,
      "ĠOregon": 7559,
      "Ġjump": 7560,
      "Ġinfants": 7561,
      "Ġadds": 7562,
      "ĠModern": 7563,
      "Ġpy": 7564,
      "Ġpilot": 7565,
      ".).": 7566,
      "esides": 7567,
      "ĠGall": 7568,
      "Ġmessages": 7569,
      "edu": 7570,
      "Ġinternet": 7571,
      "Ġkit": 7572,
      "aired": 7573,
      "icious": 7574,
      "Ġnose": 7575,
      "ĠPass": 7576,
      "Ġpert": 7577,
      "Ġprovider": 7578,
      "Ġduty": 7579,
      "Ġcompare": 7580,
      "Ġaccuracy": 7581,
      "Ġprominent": 7582,
      "EF": 7583,
      "Ġdemands": 7584,
      "ĠChristmas": 7585,
      "Ġbegun": 7586,
      "ouri": 7587,
      "ĠSand": 7588,
      "opic": 7589,
      "just": 7590,
      "Ġmos": 7591,
      "ĠWrit": 7592,
      "Ġmicrob": 7593,
      "mond": 7594,
      "ĠColon": 7595,
      "hent": 7596,
      "Ġflash": 7597,
      "roat": 7598,
      "ĠDespite": 7599,
      "Ġmeal": 7600,
      "Ġinsurance": 7601,
      "Ġdependent": 7602,
      "Ġflying": 7603,
      "Ġwine": 7604,
      "Ġcontributed": 7605,
      "Ġscreening": 7606,
      "Lear": 7607,
      "hea": 7608,
      "ĠOnline": 7609,
      "Ġexpanded": 7610,
      "ĠEqu": 7611,
      "ĠEdward": 7612,
      "Col": 7613,
      "ao": 7614,
      "Ġsharp": 7615,
      "ĠGet": 7616,
      "Ġwrites": 7617,
      "Ġimplemented": 7618,
      "Ġdys": 7619,
      "Ġchemistry": 7620,
      "otherapy": 7621,
      "athered": 7622,
      "Ġstuff": 7623,
      "Ġgases": 7624,
      "ĠEst": 7625,
      "Ġom": 7626,
      "ĠBureau": 7627,
      "Ġintest": 7628,
      "Ġdetected": 7629,
      "usiness": 7630,
      "Ġoldest": 7631,
      "reated": 7632,
      "Ġbuff": 7633,
      "ĠPlant": 7634,
      "Ġcharacterized": 7635,
      "Ġseparated": 7636,
      "oding": 7637,
      "ĠJustice": 7638,
      "Ġsodium": 7639,
      "National": 7640,
      "eness": 7641,
      "Ġdefinite": 7642,
      "Ġfellow": 7643,
      "ĠDC": 7644,
      "ĠVen": 7645,
      "ĠInit": 7646,
      "Ġeffectiveness": 7647,
      "Ġentit": 7648,
      "Ġfulf": 7649,
      "ĠHand": 7650,
      "Ġnerv": 7651,
      "Ġconfig": 7652,
      "Ġphenomenon": 7653,
      "Ġshock": 7654,
      "Ġsmooth": 7655,
      "Ġlabour": 7656,
      "á¸į": 7657,
      "Ġcaught": 7658,
      "ĠRh": 7659,
      "Ġagent": 7660,
      "Ġpresents": 7661,
      "OC": 7662,
      "Ġprovince": 7663,
      "archy": 7664,
      "Ġboost": 7665,
      "ouds": 7666,
      "Ġgained": 7667,
      "Ġacquired": 7668,
      "ĠSometimes": 7669,
      "making": 7670,
      "2008": 7671,
      "Art": 7672,
      "ourse": 7673,
      "century": 7674,
      "Ġinflammation": 7675,
      "Ġ39": 7676,
      "thodox": 7677,
      "Let": 7678,
      "ĠWord": 7679,
      "Ġformula": 7680,
      "was": 7681,
      "Ġles": 7682,
      "sts": 7683,
      "2012": 7684,
      "Ġurine": 7685,
      "________": 7686,
      "Ġstimul": 7687,
      "53": 7688,
      "mann": 7689,
      "Ġkilling": 7690,
      "Ġmining": 7691,
      "Ġresearcher": 7692,
      "Ġbringing": 7693,
      "Ġpit": 7694,
      "Ġflour": 7695,
      "Ġcoverage": 7696,
      "Ġtissues": 7697,
      "Ġcollaboration": 7698,
      "Ġpartner": 7699,
      "56": 7700,
      "oons": 7701,
      "ĠJo": 7702,
      "oric": 7703,
      "ulpt": 7704,
      "ĠKar": 7705,
      "ĠHeart": 7706,
      "Ġmechanical": 7707,
      "Ġnewspaper": 7708,
      "uther": 7709,
      "ĠWal": 7710,
      "ogether": 7711,
      "Ġexperimental": 7712,
      "HS": 7713,
      "Ġchair": 7714,
      "Ġoffering": 7715,
      "Ġsched": 7716,
      "Ġdistricts": 7717,
      "Ġpersonnel": 7718,
      "Ġordinary": 7719,
      "Ġcooling": 7720,
      "Ġgap": 7721,
      "Ġengineers": 7722,
      "ĠIraq": 7723,
      "Ġdifficulties": 7724,
      "Ġmeasurement": 7725,
      "ixture": 7726,
      "rong": 7727,
      "ĠUt": 7728,
      "Ġkne": 7729,
      "ventions": 7730,
      "Ġturb": 7731,
      "ĠEngineering": 7732,
      "omed": 7733,
      "Ġimaging": 7734,
      "Ġcomplicated": 7735,
      "%.": 7736,
      "ĠAlzheimer": 7737,
      "Ġfeedback": 7738,
      "ĠPot": 7739,
      "Ġheavily": 7740,
      ".]": 7741,
      "Per": 7742,
      "Ġvan": 7743,
      "Ġdescript": 7744,
      "Ġneighborhood": 7745,
      "ĠChapter": 7746,
      "amine": 7747,
      "Ġinitially": 7748,
      "Part": 7749,
      "ĠÎ": 7750,
      "Ġped": 7751,
      "Ġfer": 7752,
      "ĠCreek": 7753,
      "ĠNote": 7754,
      "oured": 7755,
      "ĠSection": 7756,
      "Ġworst": 7757,
      "Ġ34": 7758,
      "Ġobserve": 7759,
      "Ġerrors": 7760,
      "apor": 7761,
      "Ġsubt": 7762,
      "Ġpointed": 7763,
      "Ġbeauty": 7764,
      "Ġdates": 7765,
      "ĠLo": 7766,
      "Ġpeoples": 7767,
      "Ġflows": 7768,
      "Ġexecutive": 7769,
      "Ġtumors": 7770,
      "Ġfisher": 7771,
      "Ġitem": 7772,
      "ĠOtt": 7773,
      "Ġowned": 7774,
      "Ġmathematical": 7775,
      "era": 7776,
      "Ġmg": 7777,
      "ĠMcC": 7778,
      "Ġaccompan": 7779,
      "ĠChief": 7780,
      "Ġindustries": 7781,
      "2010": 7782,
      "Ġfunded": 7783,
      "Ġpreparation": 7784,
      "urning": 7785,
      "Ġarguments": 7786,
      "Today": 7787,
      "ĠPC": 7788,
      "Ġoutcome": 7789,
      "Ġbless": 7790,
      "Ġ;": 7791,
      "Ġsatisf": 7792,
      "Ġcas": 7793,
      "Ġtob": 7794,
      "Ġextend": 7795,
      "Ġengines": 7796,
      "riday": 7797,
      "ĠTestament": 7798,
      "Ġmedicines": 7799,
      "EE": 7800,
      "hyd": 7801,
      "ĠPen": 7802,
      "abeth": 7803,
      "amps": 7804,
      "Ġaddressed": 7805,
      "ĠChristianity": 7806,
      "Ġevident": 7807,
      "ailability": 7808,
      "Ġsettings": 7809,
      "fts": 7810,
      "Ġexhibit": 7811,
      "Ġapparently": 7812,
      "Ġholes": 7813,
      "ĠSign": 7814,
      "Ġspin": 7815,
      "aneously": 7816,
      "Ġdrain": 7817,
      "Ġdriven": 7818,
      "ĠIndust": 7819,
      "Ġrenewable": 7820,
      "ĠLow": 7821,
      "aret": 7822,
      "Ġcalories": 7823,
      "ĠAssess": 7824,
      "gers": 7825,
      "olk": 7826,
      "Ġuniform": 7827,
      "Ġconj": 7828,
      "Ġoccurring": 7829,
      "Ġdecreased": 7830,
      "zer": 7831,
      "quir": 7832,
      "hus": 7833,
      "Ġbelieves": 7834,
      "Ġessay": 7835,
      "Ġtrends": 7836,
      "Ġfiber": 7837,
      "Ġrect": 7838,
      "omers": 7839,
      "ĠFred": 7840,
      "Ġbeat": 7841,
      "Ġstores": 7842,
      "Ġdesired": 7843,
      "haust": 7844,
      "âĢĻ.": 7845,
      "Ġofficer": 7846,
      "Ġcycl": 7847,
      "ĠAgriculture": 7848,
      "arents": 7849,
      "Ġargue": 7850,
      "Ġestablishment": 7851,
      "ĠHawai": 7852,
      "gon": 7853,
      "ĠNon": 7854,
      "Ġaged": 7855,
      "Ġvertical": 7856,
      "Ġrefused": 7857,
      "Ġreveal": 7858,
      "63": 7859,
      "Ġpros": 7860,
      "ĠLittle": 7861,
      "Ġtea": 7862,
      "Ġtreating": 7863,
      "Ġconsideration": 7864,
      "rin": 7865,
      "elve": 7866,
      "ĠBush": 7867,
      "Ġadvert": 7868,
      "Ġvariation": 7869,
      "Ġfacing": 7870,
      "Ġdealing": 7871,
      "Ġritual": 7872,
      "Ġrepair": 7873,
      "ĠHeritage": 7874,
      "Ġcovering": 7875,
      "ĠFinally": 7876,
      "Every": 7877,
      "UL": 7878,
      "ricane": 7879,
      "ackson": 7880,
      "Ġbreath": 7881,
      "OM": 7882,
      "Ġphotographs": 7883,
      "western": 7884,
      "sex": 7885,
      "otal": 7886,
      "Ġexisted": 7887,
      "icular": 7888,
      "uten": 7889,
      "ami": 7890,
      "Ġdemocracy": 7891,
      "lymp": 7892,
      "Ġpreventing": 7893,
      "Ġimagine": 7894,
      "Ġserves": 7895,
      "Once": 7896,
      "emb": 7897,
      "Ġliterary": 7898,
      "ĠRoad": 7899,
      "Ġvirtually": 7900,
      "ĠLos": 7901,
      "ĠGovernor": 7902,
      "Ġcorrel": 7903,
      "pes": 7904,
      "Ġhormone": 7905,
      "Ġhunting": 7906,
      "Ġgluc": 7907,
      "Ġcopper": 7908,
      "Ġassumed": 7909,
      "Ġroles": 7910,
      "Ġfaced": 7911,
      "Ġinformed": 7912,
      "kind": 7913,
      "ĠIce": 7914,
      "Ġforget": 7915,
      "eli": 7916,
      "Ġteams": 7917,
      "Ġdomain": 7918,
      "Ġnitrogen": 7919,
      "ĠFact": 7920,
      "ĠNever": 7921,
      "Ġchap": 7922,
      "Ġoverw": 7923,
      "ontal": 7924,
      "erly": 7925,
      "asts": 7926,
      "Ġeru": 7927,
      "ĠCurrent": 7928,
      "Ġupdated": 7929,
      "ĠHistorical": 7930,
      "emic": 7931,
      "Ġmyst": 7932,
      "2009": 7933,
      "Ġdropped": 7934,
      "Ġye": 7935,
      "pled": 7936,
      "Ġcompens": 7937,
      "ĠTable": 7938,
      "Ġadvis": 7939,
      "Ġversions": 7940,
      "Ġtobacco": 7941,
      "Ġft": 7942,
      "Ġvarieties": 7943,
      "Ġfaculty": 7944,
      "rite": 7945,
      "Ġsession": 7946,
      "Ġidentification": 7947,
      "People": 7948,
      "Hist": 7949,
      "ĠMinistry": 7950,
      "Ġmaintaining": 7951,
      "Ġaccommod": 7952,
      "Ġsurge": 7953,
      "Ġminerals": 7954,
      "Ġlowest": 7955,
      "Pre": 7956,
      "Ġsmart": 7957,
      "Ġillegal": 7958,
      "yer": 7959,
      "iger": 7960,
      "ĠLiter": 7961,
      "ĠQuest": 7962,
      "Ġtranslation": 7963,
      "Ġviolent": 7964,
      "Ġstopped": 7965,
      "health": 7966,
      "Ġrely": 7967,
      "Ġtheme": 7968,
      "bean": 7969,
      "Ġvariations": 7970,
      "foot": 7971,
      "Ġreward": 7972,
      "ivest": 7973,
      "Ġrepresentation": 7974,
      "Ġmigration": 7975,
      "olving": 7976,
      "ĠCross": 7977,
      "Ġelections": 7978,
      "Comm": 7979,
      "ORD": 7980,
      "67": 7981,
      "ceans": 7982,
      "Ġtribes": 7983,
      "ĠOpen": 7984,
      "Ġlogic": 7985,
      "inent": 7986,
      "ĠMethod": 7987,
      "this": 7988,
      "Ġ37": 7989,
      "Ġforming": 7990,
      "Ġalgorith": 7991,
      "Ġprosp": 7992,
      "ĠLight": 7993,
      "Ġdisk": 7994,
      "apping": 7995,
      "98": 7996,
      "ogs": 7997,
      "ĠHit": 7998,
      "Ġinterior": 7999,
      "Ġradical": 8000,
      "Ġlymph": 8001,
      "regation": 8002,
      "Ġinsulin": 8003,
      "2007": 8004,
      "Ġconstantly": 8005,
      "after": 8006,
      "Ġpin": 8007,
      "Ġdetection": 8008,
      "Ġmoisture": 8009,
      "ĠPy": 8010,
      "ĠOrig": 8011,
      "rical": 8012,
      "Ġspecified": 8013,
      "iability": 8014,
      "Ġcommitment": 8015,
      "Ġfought": 8016,
      "Ġstrike": 8017,
      "Ġchromos": 8018,
      "Ġclar": 8019,
      "plete": 8020,
      "Ġvisited": 8021,
      "orters": 8022,
      "Ġreaching": 8023,
      "Ġguidance": 8024,
      "Ġpoetry": 8025,
      "istant": 8026,
      "ĠDie": 8027,
      "ildren": 8028,
      "atively": 8029,
      "Ġconsidering": 8030,
      "Ġimprovements": 8031,
      "ĠCy": 8032,
      "Ġheating": 8033,
      "rive": 8034,
      "Ġthereby": 8035,
      "Ġplayers": 8036,
      "Ġfavorite": 8037,
      "Ġspoken": 8038,
      "bel": 8039,
      "Ġnom": 8040,
      "ĠDrug": 8041,
      "Ġsport": 8042,
      "ĠMissouri": 8043,
      "She": 8044,
      "Ġracial": 8045,
      "uled": 8046,
      "Ġobjectives": 8047,
      "Ġinitiative": 8048,
      "Rep": 8049,
      "alo": 8050,
      "IF": 8051,
      "opher": 8052,
      "Ġeveryday": 8053,
      "Ġstronger": 8054,
      "Ġstreets": 8055,
      "ricted": 8056,
      "Ġdisturb": 8057,
      "Ġcouncil": 8058,
      "Ġtraditions": 8059,
      "Ġdeer": 8060,
      "Ġanalys": 8061,
      "Ġlosses": 8062,
      "Ġpsychological": 8063,
      "Ġlifestyle": 8064,
      "Ġspons": 8065,
      "allow": 8066,
      "ĠStan": 8067,
      "Ġcarb": 8068,
      "Ġstatements": 8069,
      "Ġirrig": 8070,
      "onents": 8071,
      "itamin": 8072,
      "through": 8073,
      "ĠDiff": 8074,
      "ĠEconomic": 8075,
      "lines": 8076,
      "Ġbrand": 8077,
      "ĠDoc": 8078,
      "ecess": 8079,
      "Ġaccord": 8080,
      "ogy": 8081,
      "Ġcreatures": 8082,
      "Ġremoval": 8083,
      "ĠQueen": 8084,
      "chnology": 8085,
      "Ġmarks": 8086,
      "ĠDutch": 8087,
      "Ġperception": 8088,
      "Ġdraft": 8089,
      "Ð¾": 8090,
      "Ġrecover": 8091,
      "Ġproven": 8092,
      "Ġhence": 8093,
      "ĠJr": 8094,
      "Ġmusical": 8095,
      "eries": 8096,
      "imp": 8097,
      "ĠBack": 8098,
      "dule": 8099,
      "eh": 8100,
      "you": 8101,
      "itarian": 8102,
      "Ġcharacteristic": 8103,
      "Ġfocuses": 8104,
      "Ġpond": 8105,
      "ĠEss": 8106,
      "ensed": 8107,
      "Ġsimult": 8108,
      "ersonal": 8109,
      "Ġchannel": 8110,
      "ĠField": 8111,
      "Ġintent": 8112,
      "Ġgenome": 8113,
      "Ġdecor": 8114,
      "Ġmineral": 8115,
      "Ġ1986": 8116,
      "Ġenormous": 8117,
      "Ref": 8118,
      "mers": 8119,
      "ĠSeveral": 8120,
      "icity": 8121,
      "âĢĺ": 8122,
      "Ġreferences": 8123,
      "Ġburied": 8124,
      "being": 8125,
      "Ġfalling": 8126,
      "62": 8127,
      "isd": 8128,
      "Ġmir": 8129,
      "Ġpreserve": 8130,
      "Ġmeasuring": 8131,
      "Ġcolony": 8132,
      "ivestock": 8133,
      "iture": 8134,
      "ĠWorks": 8135,
      "ĠLee": 8136,
      "Ġexercises": 8137,
      "asant": 8138,
      "Ġscore": 8139,
      "ĠMuslims": 8140,
      "Ġthanks": 8141,
      "Ġgravity": 8142,
      "52": 8143,
      "ba": 8144,
      "bra": 8145,
      "Ġsons": 8146,
      "Ġsales": 8147,
      "adow": 8148,
      "Ġstructural": 8149,
      "Ġcab": 8150,
      "quit": 8151,
      "rav": 8152,
      "ĠCard": 8153,
      "ĠCapt": 8154,
      "ĠMult": 8155,
      "ĠFire": 8156,
      "Ġcontribution": 8157,
      "vernment": 8158,
      "Ġnervous": 8159,
      "Ġtort": 8160,
      "aming": 8161,
      "ĠMA": 8162,
      "izabeth": 8163,
      "Ġcoffee": 8164,
      "54": 8165,
      "Ġscores": 8166,
      "sembly": 8167,
      "Ġ1920": 8168,
      "Ġadolesc": 8169,
      "ĠSystems": 8170,
      "Ġfarms": 8171,
      "Ġcooking": 8172,
      "Ġuniversities": 8173,
      "Ġresid": 8174,
      "Ġprey": 8175,
      "Ġoptical": 8176,
      "nesota": 8177,
      "Ġphrase": 8178,
      "CA": 8179,
      "Ġcotton": 8180,
      "Ġplenty": 8181,
      "Ġsculpt": 8182,
      "Ġaimed": 8183,
      "Ġcorresponding": 8184,
      "Ġfet": 8185,
      "Ġatoms": 8186,
      "Ġlights": 8187,
      "ĠUr": 8188,
      "ĠAlaska": 8189,
      "Ġdivine": 8190,
      "Ġarmed": 8191,
      "worth": 8192,
      "CH": 8193,
      "Ġtables": 8194,
      "Ġachievement": 8195,
      "Ġassembly": 8196,
      "Mar": 8197,
      "non": 8198,
      "ĠTO": 8199,
      "ĠHor": 8200,
      "soft": 8201,
      "Ġoccupied": 8202,
      "vin": 8203,
      "atial": 8204,
      "aka": 8205,
      "Ġgram": 8206,
      "ĠOlymp": 8207,
      "ĠVietnam": 8208,
      "ĠTri": 8209,
      "thritis": 8210,
      "ĠOl": 8211,
      "Ġtempor": 8212,
      "icy": 8213,
      "Ġgent": 8214,
      "Ġinfect": 8215,
      "Ġtrem": 8216,
      "Ġcandidate": 8217,
      "92": 8218,
      "Ġwisdom": 8219,
      "ĠRail": 8220,
      "ĠSunday": 8221,
      "ĠMoreover": 8222,
      "Ġvictory": 8223,
      "ĠCP": 8224,
      "Ġresc": 8225,
      "ĠNeu": 8226,
      "Ġeliminate": 8227,
      "Ġremarkable": 8228,
      "iop": 8229,
      "Ġseg": 8230,
      "Ġunp": 8231,
      "Ġgrounds": 8232,
      "Ġven": 8233,
      "Ġextension": 8234,
      "Ġcollections": 8235,
      "Ġpanel": 8236,
      "Ġinspired": 8237,
      "Ġearthquake": 8238,
      "Ġworry": 8239,
      "onday": 8240,
      "Ġlanding": 8241,
      "Source": 8242,
      "hedule": 8243,
      "ĠPoint": 8244,
      "Ġemerging": 8245,
      "ĠSimilar": 8246,
      "ĠScotland": 8247,
      "Ġmaybe": 8248,
      "Ġhardware": 8249,
      "ĠTake": 8250,
      "Ġshapes": 8251,
      "thew": 8252,
      "Ġdistant": 8253,
      "Ġcontinuing": 8254,
      "chen": 8255,
      "ailing": 8256,
      "Ġpoem": 8257,
      "Ġremind": 8258,
      "Ġtag": 8259,
      "sis": 8260,
      "Ġsupplements": 8261,
      "Ġoccas": 8262,
      "Researchers": 8263,
      "Ġwing": 8264,
      "Ġgrid": 8265,
      "Ġthermal": 8266,
      "BM": 8267,
      "ĠMid": 8268,
      "Ġendangered": 8269,
      "nedy": 8270,
      "Ġoblig": 8271,
      "ribe": 8272,
      "Ġsitting": 8273,
      "ali": 8274,
      "Ġwindows": 8275,
      "Ġquantity": 8276,
      "Ġspoke": 8277,
      "Ġcontents": 8278,
      "coming": 8279,
      "Ġcopies": 8280,
      "OD": 8281,
      "kl": 8282,
      "run": 8283,
      "Ġintensity": 8284,
      "angle": 8285,
      "Ġdesert": 8286,
      "Ġattitude": 8287,
      "Ġfuels": 8288,
      "mun": 8289,
      "Ġrelax": 8290,
      "ghan": 8291,
      "ubs": 8292,
      "ycling": 8293,
      "ĠCop": 8294,
      "ĠFace": 8295,
      "ĠIslands": 8296,
      "Ġinteractive": 8297,
      "Ġbreed": 8298,
      "Ġwinds": 8299,
      "Ġalive": 8300,
      "ĠWay": 8301,
      "ptic": 8302,
      "ropol": 8303,
      "Ġtemporary": 8304,
      "Ġembry": 8305,
      "Ġthreats": 8306,
      "uma": 8307,
      "ĠForm": 8308,
      "outheast": 8309,
      "ati": 8310,
      "ilation": 8311,
      "Ġentitled": 8312,
      "gence": 8313,
      "essions": 8314,
      "Ġexploration": 8315,
      "ĠLouisiana": 8316,
      "lected": 8317,
      "Ġdiag": 8318,
      "ĠBang": 8319,
      "Ġquiet": 8320,
      "Ġdietary": 8321,
      "imensional": 8322,
      "Ġhall": 8323,
      "ĠSS": 8324,
      "Ġshoot": 8325,
      "Ġreporting": 8326,
      "2004": 8327,
      "Ġassociate": 8328,
      "ĠAbraham": 8329,
      "ĠAL": 8330,
      "Ġexcessive": 8331,
      "Ġlaser": 8332,
      "ĠCa": 8333,
      "ĠJackson": 8334,
      ".âĢĻ": 8335,
      "zo": 8336,
      "Ġprotecting": 8337,
      "ĠFurthermore": 8338,
      "61": 8339,
      "Ġcure": 8340,
      "ĠFar": 8341,
      "Ġwheel": 8342,
      "endar": 8343,
      "Ġgeomet": 8344,
      "Ġstreams": 8345,
      "Ġecosystems": 8346,
      "Ġreviewed": 8347,
      "ĠAlexander": 8348,
      "Ġdirections": 8349,
      "da": 8350,
      "Ġthr": 8351,
      "Ġshore": 8352,
      ".||": 8353,
      "ĠAT": 8354,
      "eting": 8355,
      "Ġstood": 8356,
      "Ġincident": 8357,
      "ymes": 8358,
      "Ġhypothesis": 8359,
      "unicipal": 8360,
      "Ġevening": 8361,
      "2005": 8362,
      "ĠMexican": 8363,
      "abulary": 8364,
      "App": 8365,
      "Ġtor": 8366,
      "Ġknowing": 8367,
      "Ġdress": 8368,
      "Ġexhaust": 8369,
      "Ġraising": 8370,
      "irms": 8371,
      "Ġvariables": 8372,
      "Ġminister": 8373,
      "print": 8374,
      "EG": 8375,
      "velt": 8376,
      "Ġ55": 8377,
      "Ġreduces": 8378,
      "2006": 8379,
      "borne": 8380,
      "Ġstrengthen": 8381,
      "Ġrelie": 8382,
      "Ġcontributions": 8383,
      "Ã¤": 8384,
      "Ġhidden": 8385,
      "Ġadverse": 8386,
      "Ġpriority": 8387,
      "ador": 8388,
      "ieval": 8389,
      "Ġboat": 8390,
      "aterials": 8391,
      "Ġconversion": 8392,
      "airy": 8393,
      "Ġdism": 8394,
      "Ġclassical": 8395,
      "Ð¸": 8396,
      "onym": 8397,
      "Ġcensus": 8398,
      "Ġmoderate": 8399,
      "Ġdevast": 8400,
      "Ġcomplications": 8401,
      "ĠCDC": 8402,
      "MA": 8403,
      "Ġmouse": 8404,
      "ols": 8405,
      "ĠAR": 8406,
      "pert": 8407,
      "Ġloved": 8408,
      "also": 8409,
      "ĠStation": 8410,
      "ovascular": 8411,
      "Ġprogramme": 8412,
      "ĠMaryland": 8413,
      "esh": 8414,
      "rooms": 8415,
      "Ġanywhere": 8416,
      "Ġcooperation": 8417,
      "Ġfur": 8418,
      "ifice": 8419,
      "Ġreasonable": 8420,
      "about": 8421,
      "ials": 8422,
      "Ġregulation": 8423,
      "Ġ1987": 8424,
      "2000": 8425,
      "Ġwelfare": 8426,
      "Ġpion": 8427,
      "ĠNob": 8428,
      "Ġnotion": 8429,
      "ĠNY": 8430,
      "Ġdisability": 8431,
      "rene": 8432,
      "claim": 8433,
      "Ġgraduate": 8434,
      "Ġvoltage": 8435,
      "lete": 8436,
      "Ġranging": 8437,
      "ĠSpirit": 8438,
      "ĠMinnesota": 8439,
      "Ġsediment": 8440,
      "Ġsect": 8441,
      "ĠLead": 8442,
      "action": 8443,
      "ĠIndepend": 8444,
      "rings": 8445,
      "Ġlens": 8446,
      "Ġstones": 8447,
      "Ġpreserved": 8448,
      "ĠArea": 8449,
      "Ġmetabol": 8450,
      "econ": 8451,
      "ĠSaint": 8452,
      "ocial": 8453,
      "osevelt": 8454,
      "obile": 8455,
      "Ġpsychology": 8456,
      "Ġwaiting": 8457,
      "Ġmi": 8458,
      "anger": 8459,
      "Ġglac": 8460,
      "Ġaims": 8461,
      "Ġtrigger": 8462,
      "Ġbiodiversity": 8463,
      "ĠBa": 8464,
      "ĠFind": 8465,
      "Ġthirty": 8466,
      "Ġconclus": 8467,
      "Ġvot": 8468,
      "hemistry": 8469,
      "ĠWithout": 8470,
      "800": 8471,
      "Ġdental": 8472,
      "aying": 8473,
      "Ġsacred": 8474,
      "Ġrhyth": 8475,
      "Ġsocieties": 8476,
      "ĠColl": 8477,
      "Ġpursu": 8478,
      "Ġholy": 8479,
      "Ġflower": 8480,
      "ĠAgain": 8481,
      "Ġhoney": 8482,
      "Ġentering": 8483,
      "ells": 8484,
      "ologically": 8485,
      "Ġheritage": 8486,
      "Ġliteracy": 8487,
      "Ġtransmitted": 8488,
      "ĠTurk": 8489,
      "Ġconversation": 8490,
      "Ġvegetation": 8491,
      "Ġgast": 8492,
      "Ġadvent": 8493,
      "ĠVolume": 8494,
      "Ġweakness": 8495,
      "Ġdynamic": 8496,
      "Ġcompound": 8497,
      "Ġindigenous": 8498,
      "Ġsubsid": 8499,
      "Ġoverwhel": 8500,
      "ician": 8501,
      "ĠHait": 8502,
      "Ġol": 8503,
      "oded": 8504,
      "ĠLess": 8505,
      "oga": 8506,
      "oline": 8507,
      "Ġgrains": 8508,
      "Ġsunlight": 8509,
      "Ġclouds": 8510,
      "2011": 8511,
      "green": 8512,
      "Ġbrows": 8513,
      "Ġfatal": 8514,
      "opl": 8515,
      "Ġcomprom": 8516,
      "uting": 8517,
      "aws": 8518,
      "Ġcoc": 8519,
      "ocity": 8520,
      "ĠRelig": 8521,
      "ĠAsk": 8522,
      "ranean": 8523,
      "2003": 8524,
      "ĠAntar": 8525,
      "Ġtong": 8526,
      "Ġinvasion": 8527,
      "Ġattempted": 8528,
      "Ġcort": 8529,
      "Ġdesignated": 8530,
      "Ġidentifying": 8531,
      "Ġautomatically": 8532,
      "51": 8533,
      "Ġvillages": 8534,
      "Ġlungs": 8535,
      "Ġneurons": 8536,
      "Ġcraft": 8537,
      "oli": 8538,
      "ustain": 8539,
      "Ġpromise": 8540,
      "Ġreign": 8541,
      "57": 8542,
      "uits": 8543,
      "Ä«": 8544,
      "Ġchurches": 8545,
      "books": 8546,
      "MP": 8547,
      "ĠSem": 8548,
      "ĠEll": 8549,
      "Ġparad": 8550,
      "Ġkingdom": 8551,
      "Ġcord": 8552,
      "Ġmagazine": 8553,
      "Ġcustomers": 8554,
      "asm": 8555,
      "ruit": 8556,
      "Ġreproductive": 8557,
      "Ġantibiotics": 8558,
      "96": 8559,
      "made": 8560,
      "arly": 8561,
      "Ġ42": 8562,
      "Â©": 8563,
      "Ġalph": 8564,
      "ĠNO": 8565,
      "Ġclock": 8566,
      "enter": 8567,
      "text": 8568,
      "Ġhappening": 8569,
      "Ġprotective": 8570,
      "Ġmanufacturers": 8571,
      "ĠKennedy": 8572,
      "Ġmammals": 8573,
      "ga": 8574,
      "Ġmood": 8575,
      "Ġlogical": 8576,
      "Scient": 8577,
      "Ġunw": 8578,
      "Ġhospitals": 8579,
      "EA": 8580,
      "Ġreturns": 8581,
      "Ġhouseholds": 8582,
      "riend": 8583,
      "ysical": 8584,
      "Ġabandoned": 8585,
      "itory": 8586,
      "Ġdeeper": 8587,
      "otype": 8588,
      "ĠAllah": 8589,
      "Ġirrit": 8590,
      "Ġcorrectly": 8591,
      "Click": 8592,
      "Ġtens": 8593,
      "ĠFed": 8594,
      "Ġprisoners": 8595,
      "Ġconverted": 8596,
      "Ġpill": 8597,
      "zes": 8598,
      "anted": 8599,
      "ĠLew": 8600,
      "ĠIndeed": 8601,
      "fe": 8602,
      "iva": 8603,
      "Ġbigger": 8604,
      "Ġpurchased": 8605,
      "ĠHitler": 8606,
      "Sc": 8607,
      "aning": 8608,
      "Ġobser": 8609,
      "uy": 8610,
      "Ġplot": 8611,
      "Ġneutral": 8612,
      "utation": 8613,
      "Ġsciences": 8614,
      "Ġavailability": 8615,
      "ĠStandard": 8616,
      "ket": 8617,
      "Ġgathered": 8618,
      "Ġhealthcare": 8619,
      "Ġsaved": 8620,
      "cking": 8621,
      "Ġinfluenza": 8622,
      "ĠMountain": 8623,
      "Ġtechnological": 8624,
      "Ġ1985": 8625,
      "Ġadapted": 8626,
      "HD": 8627,
      "erts": 8628,
      "ĠAndrew": 8629,
      "ocated": 8630,
      "rix": 8631,
      "Ġdefault": 8632,
      "Ġsensitivity": 8633,
      "Health": 8634,
      "ĠWilson": 8635,
      "host": 8636,
      "ĠMur": 8637,
      "Ġsuddenly": 8638,
      "agle": 8639,
      "Ġovercome": 8640,
      "oys": 8641,
      "Ġdoses": 8642,
      "Ġ120": 8643,
      "ĠMax": 8644,
      "ĠPope": 8645,
      "Sm": 8646,
      "zona": 8647,
      "Ġtelling": 8648,
      "Ġsuscept": 8649,
      "Ġempty": 8650,
      "Ġphosph": 8651,
      "CN": 8652,
      "Ġstability": 8653,
      "Ġmanager": 8654,
      "Ġsteam": 8655,
      "ĠWilliams": 8656,
      "ĠâĨĳ": 8657,
      "Ġthread": 8658,
      "ifted": 8659,
      "Ġ978": 8660,
      "Ġdescend": 8661,
      "Ġecological": 8662,
      "ugg": 8663,
      "Ġsoph": 8664,
      "ila": 8665,
      "Ġlun": 8666,
      "Ġspaces": 8667,
      "Ġuncle": 8668,
      "Ġresemb": 8669,
      "Ġcalculated": 8670,
      "ĠCode": 8671,
      "ĠEmer": 8672,
      "Ġ43": 8673,
      "Ġ44": 8674,
      "ĠArts": 8675,
      "Ġguess": 8676,
      "Ġtick": 8677,
      "Ġchose": 8678,
      "Ġplayer": 8679,
      "Ġpropag": 8680,
      "Ġatmospheric": 8681,
      "Ġglucose": 8682,
      "Ge": 8683,
      "shaped": 8684,
      "Copyright": 8685,
      "PD": 8686,
      "Ġexplicit": 8687,
      "Ġbene": 8688,
      "Ġathlet": 8689,
      "Ġnice": 8690,
      "agraph": 8691,
      "Ġprime": 8692,
      "ĠEgyptian": 8693,
      "Ġdominant": 8694,
      "brid": 8695,
      "Ġmixture": 8696,
      "Ġreplacement": 8697,
      "Ġdetermining": 8698,
      "operative": 8699,
      "Ġancestors": 8700,
      "Ġadvantages": 8701,
      "Ġtip": 8702,
      "Ġcran": 8703,
      "neys": 8704,
      "ĠImp": 8705,
      "Ġcollapse": 8706,
      "Ġfifth": 8707,
      "TH": 8708,
      "ĠCA": 8709,
      "Ġrealized": 8710,
      "Ġrepresentative": 8711,
      "Ġgirl": 8712,
      "zyme": 8713,
      "Ġproviders": 8714,
      "ĠMarine": 8715,
      "Ġcrown": 8716,
      "eut": 8717,
      "Ġwars": 8718,
      "ĠJefferson": 8719,
      "ĠAngeles": 8720,
      "pos": 8721,
      "Ġrecre": 8722,
      "Ġingredients": 8723,
      "leton": 8724,
      "aren": 8725,
      "osex": 8726,
      "Ġcomfortable": 8727,
      ",'": 8728,
      "wan": 8729,
      "Ġmissions": 8730,
      "asy": 8731,
      "aternal": 8732,
      "Ġrecon": 8733,
      "LA": 8734,
      "ĠTown": 8735,
      "ĠPur": 8736,
      "uscript": 8737,
      "Ġcommod": 8738,
      "Ġattribut": 8739,
      "ĠRoosevelt": 8740,
      "Ġboundaries": 8741,
      "Ġfra": 8742,
      "ĠCirc": 8743,
      "Ġeleph": 8744,
      "hester": 8745,
      "Ġbeneath": 8746,
      "Under": 8747,
      "bury": 8748,
      "rons": 8749,
      "attered": 8750,
      "Ġoccasionally": 8751,
      "Ġincidence": 8752,
      "Ġregardless": 8753,
      "Ġdance": 8754,
      "asma": 8755,
      "Ġmeteor": 8756,
      "Ġfix": 8757,
      "aya": 8758,
      "Ġsees": 8759,
      "Ġaddresses": 8760,
      "ĠElizabeth": 8761,
      "mm": 8762,
      "Ġhier": 8763,
      "ĠLater": 8764,
      "Ġpatent": 8765,
      "Ġorigins": 8766,
      "ĠReading": 8767,
      "ĠMess": 8768,
      "Ġunem": 8769,
      "Ġmagnitude": 8770,
      "Ġlivestock": 8771,
      "duction": 8772,
      "oked": 8773,
      "Ġauthent": 8774,
      "agnetic": 8775,
      "Ġsongs": 8776,
      "ĠCat": 8777,
      "ĠOs": 8778,
      "ĠVan": 8779,
      "ĠBlue": 8780,
      "vals": 8781,
      "imen": 8782,
      "Ġquantities": 8783,
      "ĠDaniel": 8784,
      "Back": 8785,
      "Cons": 8786,
      "iously": 8787,
      "Ġdegrad": 8788,
      "ĠKentucky": 8789,
      "Two": 8790,
      "athan": 8791,
      "Ġenthus": 8792,
      "ĠDavis": 8793,
      "umer": 8794,
      "ĠDown": 8795,
      "ĠBiology": 8796,
      "Ġbare": 8797,
      "sem": 8798,
      "ĠAssembly": 8799,
      "Ġannually": 8800,
      "Ġreflected": 8801,
      "eller": 8802,
      "issance": 8803,
      "Ġdiarr": 8804,
      "atories": 8805,
      "Ġacknowled": 8806,
      "Ġwise": 8807,
      "ĠID": 8808,
      "ĠDoes": 8809,
      "âĢĻ,": 8810,
      "Ġdistinction": 8811,
      "Ġinspir": 8812,
      "OP": 8813,
      "amins": 8814,
      "Ġreserv": 8815,
      "Ġrepresenting": 8816,
      "Ġsoils": 8817,
      "Ġfires": 8818,
      "Ġabol": 8819,
      "Ġempire": 8820,
      "Ġcelebrated": 8821,
      "Ġlecture": 8822,
      "Ġinhabitants": 8823,
      "Ġconvert": 8824,
      "Ġabstract": 8825,
      "Ġparticle": 8826,
      "Ġaffecting": 8827,
      "GE": 8828,
      "ois": 8829,
      "ĠSon": 8830,
      "neum": 8831,
      "Post": 8832,
      "gic": 8833,
      "Ġpairs": 8834,
      "ipher": 8835,
      "Ġaudio": 8836,
      "97": 8837,
      "Ġbibl": 8838,
      "ĠOffic": 8839,
      "ĠAlbert": 8840,
      "ĠReference": 8841,
      "ĠAvoid": 8842,
      "Ġmeals": 8843,
      "Ġerect": 8844,
      "rait": 8845,
      "Ġdisrupt": 8846,
      "Ġprivile": 8847,
      "Ġpries": 8848,
      "Ġ1984": 8849,
      "Ġminority": 8850,
      "ĠAction": 8851,
      "ĠLast": 8852,
      "Ġprecip": 8853,
      "Ġ)": 8854,
      "arks": 8855,
      "ĠFish": 8856,
      "Ġlighting": 8857,
      "Ġanticip": 8858,
      "Ġmovie": 8859,
      "Ġinnovation": 8860,
      "ĠSanta": 8861,
      "Sec": 8862,
      "Ġrestore": 8863,
      "Ġguns": 8864,
      "Then": 8865,
      "Ġclay": 8866,
      "pow": 8867,
      "Ġtut": 8868,
      "Ġidentical": 8869,
      "Ġprayer": 8870,
      "uan": 8871,
      "inian": 8872,
      "Ġreverse": 8873,
      "Ġentertain": 8874,
      "Ġ95": 8875,
      "Ġadvances": 8876,
      "ĠCentury": 8877,
      "ĠSamuel": 8878,
      "ĠTemple": 8879,
      "Ġdinosa": 8880,
      "Ġmerch": 8881,
      "ĠDev": 8882,
      "Ġoperated": 8883,
      "Ġhabitats": 8884,
      "Ġtransferred": 8885,
      "angel": 8886,
      "awa": 8887,
      "Ġbehavioral": 8888,
      "Ġcirculation": 8889,
      "Ġheaven": 8890,
      "oves": 8891,
      "ĠAsh": 8892,
      "ĠPeace": 8893,
      "Ġvaccines": 8894,
      "Rel": 8895,
      "Ġcough": 8896,
      "Ġhat": 8897,
      "Ġblo": 8898,
      "Ġgrows": 8899,
      "Ġemotions": 8900,
      "di": 8901,
      "ctors": 8902,
      "Just": 8903,
      "ĠSqu": 8904,
      "Ġjudgment": 8905,
      "Ġhopes": 8906,
      "Ġdriver": 8907,
      "Ġlifetime": 8908,
      "Ġimmigrants": 8909,
      "94": 8910,
      "ĠSpecies": 8911,
      "Car": 8912,
      "Eng": 8913,
      "ĠHa": 8914,
      "iative": 8915,
      "Ġbutton": 8916,
      "Ġgovernor": 8917,
      "Ġconsciousness": 8918,
      "feeding": 8919,
      "iph": 8920,
      "Ġclassic": 8921,
      "Ġruled": 8922,
      "omon": 8923,
      "who": 8924,
      "Ġinvestigate": 8925,
      "erally": 8926,
      "enh": 8927,
      "ĠClick": 8928,
      "ighth": 8929,
      "Ġliterally": 8930,
      "Ġsurprised": 8931,
      "irus": 8932,
      "Ġproductivity": 8933,
      "Ġconsumed": 8934,
      "Ġtelephone": 8935,
      "Ġemerged": 8936,
      "Ġseriously": 8937,
      "Ġrobot": 8938,
      "Ġrespiratory": 8939,
      "Ġschedule": 8940,
      "arians": 8941,
      "Ġbears": 8942,
      "ref": 8943,
      "Ġkeeps": 8944,
      "Ġpreferred": 8945,
      "idal": 8946,
      "Ġdiscussions": 8947,
      "imensions": 8948,
      "Ġbleeding": 8949,
      "Ġaccompanied": 8950,
      "ĠContin": 8951,
      "Ġsuspect": 8952,
      "ĠModel": 8953,
      "Ġelectrons": 8954,
      "Ġwatching": 8955,
      "Ġconstitutional": 8956,
      "ĠUnfortunately": 8957,
      "Ġampl": 8958,
      "Ġchallenging": 8959,
      "inth": 8960,
      "Ġdense": 8961,
      "section": 8962,
      "thur": 8963,
      "Ġgods": 8964,
      ".:": 8965,
      "Ġstrain": 8966,
      "Ġprocessed": 8967,
      "Ġdisplayed": 8968,
      "Ġunlikely": 8969,
      "Ġoceans": 8970,
      "Ġweigh": 8971,
      "Ġsurg": 8972,
      "Ġinvention": 8973,
      "Ġdeeply": 8974,
      "ĠKeep": 8975,
      "Ġdimin": 8976,
      "Ġmold": 8977,
      "Ġrestaur": 8978,
      "DS": 8979,
      "Os": 8980,
      "Ġ1981": 8981,
      "ĠStandards": 8982,
      "TA": 8983,
      "ĠWales": 8984,
      "Ġdiffer": 8985,
      "91": 8986,
      "Ġclient": 8987,
      "Ġclassified": 8988,
      "ĠFriday": 8989,
      "ĠGre": 8990,
      "Ġmilit": 8991,
      "Ġmembrane": 8992,
      "Ġmanifest": 8993,
      "ĠCost": 8994,
      "ĠPortug": 8995,
      "Ġburned": 8996,
      "Ġsister": 8997,
      "Ġ600": 8998,
      "Ġphilosoph": 8999,
      "fast": 9000,
      "Ġexpedition": 9001,
      "atus": 9002,
      "Inf": 9003,
      "icking": 9004,
      "Ġutility": 9005,
      "ĠProtest": 9006,
      "ĠHop": 9007,
      "rency": 9008,
      "Ġbroadcast": 9009,
      "ĠJersey": 9010,
      "Ġdramatically": 9011,
      "ĠArizona": 9012,
      "Ġherb": 9013,
      "Ġequality": 9014,
      "Ġfaces": 9015,
      "Ġ1979": 9016,
      "Ġsurvived": 9017,
      "Ġdocumented": 9018,
      "Ġinvolvement": 9019,
      "Ġjurisd": 9020,
      "Where": 9021,
      "omatic": 9022,
      "ĠNeg": 9023,
      "ĠAssessment": 9024,
      "87": 9025,
      "icts": 9026,
      "ĠType": 9027,
      "Ġpriest": 9028,
      "aware": 9029,
      "ĠDemocratic": 9030,
      "ĠPMID": 9031,
      "Ġdiscipline": 9032,
      "inates": 9033,
      "ĠFDA": 9034,
      "Ġmutations": 9035,
      "Ġholiday": 9036,
      ".),": 9037,
      "cre": 9038,
      "they": 9039,
      "Ġhumanity": 9040,
      "Ġtranslated": 9041,
      "Ðµ": 9042,
      "Ġcapabilities": 9043,
      "Ġverb": 9044,
      "ĠMarsh": 9045,
      "Ġinequ": 9046,
      "Ġash": 9047,
      "Ġvs": 9048,
      "Ġcheap": 9049,
      "door": 9050,
      "unct": 9051,
      "Ġincred": 9052,
      "Ġcouldn": 9053,
      "Ġcave": 9054,
      "uesday": 9055,
      "Ġ1983": 9056,
      "Before": 9057,
      "Ġpale": 9058,
      "Ġstyles": 9059,
      "Ġ1982": 9060,
      "ĠCheck": 9061,
      "Ġsplit": 9062,
      "ais": 9063,
      "ĠMath": 9064,
      "aven": 9065,
      "Ġperforming": 9066,
      "ĠHispan": 9067,
      "ĠJacob": 9068,
      "Ġ`": 9069,
      "Ġbees": 9070,
      "Ġ||": 9071,
      "Ġmile": 9072,
      "Ġunn": 9073,
      "Ġvaried": 9074,
      "Ġexciting": 9075,
      "Ġster": 9076,
      "izers": 9077,
      "Ġinsight": 9078,
      "Ġposted": 9079,
      "Ġcitizen": 9080,
      "ĠArabic": 9081,
      "acent": 9082,
      "iterranean": 9083,
      "har": 9084,
      "Ġwat": 9085,
      "isition": 9086,
      "rose": 9087,
      "Ġteens": 9088,
      "Ġforecast": 9089,
      "rity": 9090,
      "ico": 9091,
      "Ġdies": 9092,
      "Ġreaches": 9093,
      "ĠOS": 9094,
      "Ġunderground": 9095,
      "Ġintroduce": 9096,
      "93": 9097,
      "Ġincent": 9098,
      "ospel": 9099,
      "Ġexhibition": 9100,
      "ometer": 9101,
      "ĠSolar": 9102,
      "Ġsuit": 9103,
      "Ġextraord": 9104,
      "irable": 9105,
      "oil": 9106,
      "olves": 9107,
      "2001": 9108,
      "Ġsummary": 9109,
      "Ġ1945": 9110,
      "Ġcampus": 9111,
      "Ġtact": 9112,
      "ĠMoses": 9113,
      "ĠBuilding": 9114,
      "Ġhealing": 9115,
      "Ġlibraries": 9116,
      "Ġinch": 9117,
      "Ġreconst": 9118,
      "Ġdipl": 9119,
      "Ġeducators": 9120,
      "Ġversus": 9121,
      "Ġpermitted": 9122,
      "zymes": 9123,
      "emeter": 9124,
      "Ġhaven": 9125,
      "ĠIndones": 9126,
      "Ġpasses": 9127,
      "ĠTenn": 9128,
      "Ġpartly": 9129,
      "Ġreadily": 9130,
      "Ġcuts": 9131,
      "Ġsymbols": 9132,
      "Ġalarm": 9133,
      "ĠBon": 9134,
      "ĠJones": 9135,
      "Ġstrange": 9136,
      "Ġaggressive": 9137,
      "Get": 9138,
      "Ġcow": 9139,
      "ĠFarm": 9140,
      "ĠHur": 9141,
      "rue": 9142,
      "Ġsoy": 9143,
      "Ġmarg": 9144,
      "ĠClinical": 9145,
      "ught": 9146,
      "icing": 9147,
      "ĠJon": 9148,
      "erving": 9149,
      "teenth": 9150,
      "Ġproducers": 9151,
      "iscons": 9152,
      "Ġmeetings": 9153,
      "ĠMajor": 9154,
      "Ġliberal": 9155,
      "ĠTreatment": 9156,
      "Ġadministrative": 9157,
      "Ġprinting": 9158,
      "ogenic": 9159,
      "Ġpartnership": 9160,
      "Ġcontamination": 9161,
      "Ġregime": 9162,
      "Ġremed": 9163,
      "Ġconsequence": 9164,
      "Ġarise": 9165,
      "Sim": 9166,
      "iography": 9167,
      "Ġspray": 9168,
      "ĠHead": 9169,
      "Ġtreaty": 9170,
      "page": 9171,
      "Ġcul": 9172,
      "Ġease": 9173,
      "ĠLy": 9174,
      "Ġpersonality": 9175,
      "Ġprofound": 9176,
      "Ġbacterial": 9177,
      "isconsin": 9178,
      "trans": 9179,
      "ieth": 9180,
      "Ġrestricted": 9181,
      "Ġstruck": 9182,
      "Ġpace": 9183,
      "Ġtom": 9184,
      "ĠTro": 9185,
      "Ġreveals": 9186,
      "300": 9187,
      "ohyd": 9188,
      "Ġ^": 9189,
      "onal": 9190,
      "Ġamazing": 9191,
      "Ġbroke": 9192,
      "Ġvolunteers": 9193,
      "Each": 9194,
      "Ġpubl": 9195,
      "ĠPhD": 9196,
      "Ġpredicted": 9197,
      "Ġfing": 9198,
      "Ġninet": 9199,
      "Ġeverywhere": 9200,
      "Ġwings": 9201,
      "Ġlob": 9202,
      "Ġenlar": 9203,
      "Ġattitudes": 9204,
      "comp": 9205,
      "ĠPerhaps": 9206,
      "Ġcatal": 9207,
      "Ġscholar": 9208,
      "owa": 9209,
      "isting": 9210,
      "Ġtwelve": 9211,
      "Ġminds": 9212,
      "havior": 9213,
      "Ã´": 9214,
      "Ġdict": 9215,
      "Ġcurve": 9216,
[...]
