{
  "version": "1.0",
  "truncation": null,
  "padding": null,
  "added_tokens": [
    {
      "id": 0,
      "content": "<|bos|>",
      "single_word": false,
      "lstrip": false,
      "rstrip": false,
      "normalized": false,
      "special": true
    },
    {
      "id": 1,
      "content": "<|user_start|>",
      "single_word": false,
      "lstrip": false,
      "rstrip": false,
      "normalized": false,
      "special": true
    },
    {
      "id": 2,
      "content": "<|user_end|>",
      "single_word": false,
      "lstrip": false,
      "rstrip": false,
      "normalized": false,
      "special": true
    },
    {
      "id": 3,
      "content": "<|assistant_start|>",
      "single_word": false,
      "lstrip": false,
      "rstrip": false,
      "normalized": false,
      "special": true
    },
    {
      "id": 4,
      "content": "<|assistant_end|>",
      "single_word": false,
      "lstrip": false,
      "rstrip": false,
      "normalized": false,
      "special": true
    },
    {
      "id": 5,
      "content": "<|python_start|>",
      "single_word": false,
      "lstrip": false,
      "rstrip": false,
      "normalized": false,
      "special": true
    },
    {
      "id": 6,
      "content": "<|python_end|>",
      "single_word": false,
      "lstrip": false,
      "rstrip": false,
      "normalized": false,
      "special": true
    },
    {
      "id": 7,
      "content": "<|output_start|>",
      "single_word": false,
      "lstrip": false,
      "rstrip": false,
      "normalized": false,
      "special": true
    },
    {
      "id": 8,
      "content": "<|output_end|>",
      "single_word": false,
      "lstrip": false,
      "rstrip": false,
      "normalized": false,
      "special": true
    },
    {
      "id": 9,
      "content": "<|unk|>",
      "single_word": false,
      "lstrip": false,
      "rstrip": false,
      "normalized": false,
      "special": true
    }
  ],
  "normalizer": null,
  "pre_tokenizer": {
    "type": "Sequence",
    "pretokenizers": [
      {
        "type": "Split",
        "pattern": {
          "Regex": "'(?i:[sdmt]|ll|ve|re)|[^\\r\\n\\p{L}\\p{N}]?+\\p{L}+|\\p{N}{1,2}| ?[^\\s\\p{L}\\p{N}]++[\\r\\n]*|\\s*[\\r\\n]|\\s+(?!\\S)|\\s+"
        },
        "behavior": "Isolated",
        "invert": false
      },
      {
        "type": "ByteLevel",
        "add_prefix_space": false,
        "trim_offsets": true,
        "use_regex": false
      }
    ]
  },
  "post_processor": {
    "type": "TemplateProcessing",
    "single": [
      {
        "Sequence": {
          "id": "A",
          "type_id": 0
        }
      }
    ],
    "pair": [
      {
        "Sequence": {
          "id": "A",
          "type_id": 0
        }
      },
      {
        "Sequence": {
          "id": "B",
          "type_id": 1
        }
      }
    ],
    "special_tokens": {}
  },
  "decoder": null,
  "model": {
    "type": "Unigram",
    "unk_id": 9,
    "vocab": [
      [
        "<|bos|>",
        0.0
      ],
      [
        "<|user_start|>",
        0.0
      ],
      [
        "<|user_end|>",
        0.0
      ],
      [
        "<|assistant_start|>",
        0.0
      ],
      [
        "<|assistant_end|>",
        0.0
      ],
      [
        "<|python_start|>",
        0.0
      ],
      [
        "<|python_end|>",
        0.0
      ],
      [
        "<|output_start|>",
        0.0
      ],
      [
        "<|output_end|>",
        0.0
      ],
      [
        "<|unk|>",
        0.0
      ],
      [
        "s",
        -2.9441744468273594
      ],
      [
        "Ġthe",
        -3.4397442392088973
      ],
      [
        ",",
        -3.5004019972247757
      ],
      [
        "Ġ",
        -3.501644987619562
      ],
      [
        ".",
        -3.7712701381853897
      ],
      [
        "Ġand",
        -3.9745724578629336
      ],
      [
        "Ġto",
        -4.027052497860494
      ],
      [
        "Ġof",
        -4.0292325409437435
      ],
      [
        "Ġa",
        -4.139287264298588
      ],
      [
        "ing",
        -4.316074037614081
      ],
      [
        "Ġin",
        -4.51027990210145
      ],
      [
        "Ġis",
        -4.6513988362153125
      ],
      [
        "ed",
        -4.674363870056757
      ],
      [
        "d",
        -4.877245922712145
      ],
      [
        "y",
        -4.893575643900613
      ],
      [
        "e",
        -4.96610362101365
      ],
      [
        "'",
        -4.971701046680728
      ],
      [
        "ly",
        -5.046857538218827
      ],
      [
        "0",
        -5.054431063877274
      ],
      [
        "Ġthat",
        -5.076690766522644
      ],
      [
        "Ġfor",
        -5.086868912108967
      ],
      [
        "Ċ",
        -5.198285826126799
      ],
      [
        "t",
        -5.22640052507132
      ],
      [
        "1",
        -5.22924254631052
      ],
      [
        ":",
        -5.260582879015143
      ],
      [
        "Ġare",
        -5.290109129428352
      ],
      [
        "Ġwith",
        -5.32454615832806
      ],
      [
        ".Ċ",
        -5.336568147189061
      ],
      [
        "Ġbe",
        -5.3448351148907225
      ],
      [
        "Ġit",
        -5.36690522846588
      ],
      [
        "Ġyou",
        -5.375925600874
      ],
      [
        ".ĊĊ",
        -5.3855152684751
      ],
      [
        "-",
        -5.449213513837016
      ],
      [
        "2",
        -5.453555096823303
      ],
      [
        "Ġon",
        -5.509681626815906
      ],
      [
        "Ġor",
        -5.547421996011765
      ],
      [
        "Ġcan",
        -5.549528030190677
      ],
      [
        "ĊĊ",
        -5.57968764247536
      ],
      [
        "Ġyour",
        -5.706241570301474
      ],
      [
        "Ġ(",
        -5.789294427398602
      ],
      [
        "Ġas",
        -5.8069755021715
      ],
      [
        "a",
        -5.833000949681605
      ],
      [
        "n",
        -5.847515765512281
      ],
      [
        "\"",
        -5.854308143149668
      ],
      [
        "ĠThe",
        -5.9042460767969835
      ],
      [
        "Ġfrom",
        -5.918203573116928
      ],
      [
        "Ġhave",
        -5.926604103179212
      ],
      [
        "?",
        -5.991056410168602
      ],
      [
        "Ġby",
        -6.0051899584080495
      ],
      [
        "ĠI",
        -6.029043581148814
      ],
      [
        ")",
        -6.0345438699314755
      ],
      [
        "Ġan",
        -6.064188329046823
      ],
      [
        "3",
        -6.113031800674298
      ],
      [
        "Ġthis",
        -6.115466090019121
      ],
      [
        "5",
        -6.124675426795008
      ],
      [
        "Ġnot",
        -6.156736240430465
      ],
      [
        "r",
        -6.1663182057029395
      ],
      [
        "Ġat",
        -6.212940407595282
      ],
      [
        "Ġwill",
        -6.243912041809441
      ],
      [
        "Ġtheir",
        -6.268282793024838
      ],
      [
        "o",
        -6.28431080388699
      ],
      [
        "4",
        -6.296595513079794
      ],
      [
        "er",
        -6.315807166505339
      ],
      [
        "i",
        -6.358063765986472
      ],
      [
        "9",
        -6.361326210752564
      ],
      [
        "Ġmore",
        -6.415185889684487
      ],
      [
        "Ġwas",
        -6.418645556190867
      ],
      [
        "Ġthey",
        -6.43020403955768
      ],
      [
        "on",
        -6.447310894259973
      ],
      [
        "ies",
        -6.448769616089891
      ],
      [
        "The",
        -6.46531967382173
      ],
      [
        "Ġbut",
        -6.507236977928432
      ],
      [
        "Ġhas",
        -6.520678051445316
      ],
      [
        "Ġwhich",
        -6.5327041757829285
      ],
      [
        "Ġwe",
        -6.557307092312108
      ],
      [
        "6",
        -6.573824713437471
      ],
      [
        "Question",
        -6.601026482589255
      ],
      [
        "Ġalso",
        -6.612124148145872
      ],
      [
        "Ġone",
        -6.616527383498996
      ],
      [
        "8",
        -6.632244553491585
      ],
      [
        "ĠAnswer",
        -6.633733739985852
      ],
      [
        "m",
        -6.687776504552303
      ],
      [
        "ĠA",
        -6.688039744744305
      ],
      [
        "about",
        -6.692632488854697
      ],
      [
        "7",
        -6.697427548829719
      ],
      [
        "re",
        -6.72668832570047
      ],
      [
        "Ġall",
        -6.72879179697623
      ],
      [
        "Ġother",
        -6.760074531310176
      ],
      [
        "A",
        -6.77515178094767
      ],
      [
        "ĠIt",
        -6.784083141220062
      ],
      [
        "Ġsome",
        -6.794066385192828
      ],
      [
        "Ġwhen",
        -6.79592257381047
      ],
      [
        "al",
        -6.811081740364623
      ],
      [
        "Ġif",
        -6.835251028757627
      ],
      [
        "l",
        -6.848404291526391
      ],
      [
        "Ġuse",
        -6.854109781981689
      ],
      [
        "Ġso",
        -6.855700952310698
      ],
      [
        "Ġtime",
        -6.856040161991929
      ],
      [
        "Ġup",
        -6.85637182134586
      ],
      [
        "Ġdo",
        -6.858635985210993
      ],
      [
        "Ġmay",
        -6.865369895282768
      ],
      [
        "Ġthem",
        -6.867128514386559
      ],
      [
        "Ġinto",
        -6.871266621406477
      ],
      [
        "c",
        -6.8867365598599815
      ],
      [
        "Ġlike",
        -6.888879253694526
      ],
      [
        "Ġhow",
        -6.891705122149103
      ],
      [
        "ĠThis",
        -6.91735146435952
      ],
      [
        "ĠWhat",
        -6.95376871903216
      ],
      [
        "Ġthan",
        -6.962572467307192
      ],
      [
        "in",
        -6.9663686750276135
      ],
      [
        "Ġout",
        -6.980940932920703
      ],
      [
        "able",
        -6.9811556429323165
      ],
      [
        "Ġthese",
        -6.987084621881232
      ],
      [
        "ĠIn",
        -7.002471164687092
      ],
      [
        "Ġwhat",
        -7.024537283272943
      ],
      [
        "Ġwater",
        -7.040128227312177
      ],
      [
        "Ġthere",
        -7.050538154745825
      ],
      [
        "Ġused",
        -7.078268149717667
      ],
      [
        "Ġour",
        -7.087804714523218
      ],
      [
        "Ġneed",
        -7.12339562947354
      ],
      [
        "Ġsuch",
        -7.129196993809094
      ],
      [
        "Ġmost",
        -7.133511919852735
      ],
      [
        "Ġmake",
        -7.134563316108096
      ],
      [
        "g",
        -7.164045114887481
      ],
      [
        "Ġany",
        -7.164798870096796
      ],
      [
        "Ġwere",
        -7.1670137432709815
      ],
      [
        "Ġbeen",
        -7.1829597725031995
      ],
      [
        "Ġnew",
        -7.200637126666141
      ],
      [
        "Ġpeople",
        -7.206364742614481
      ],
      [
        "/",
        -7.21315975078088
      ],
      [
        "Ġsystem",
        -7.215312412559284
      ],
      [
        "Ġget",
        -7.236075848531927
      ],
      [
        "I",
        -7.240010754623377
      ],
      [
        "Ġover",
        -7.243396982667974
      ],
      [
        "Ġhelp",
        -7.253836146889265
      ],
      [
        "ity",
        -7.270206026877853
      ],
      [
        "ce",
        -7.273566075348516
      ],
      [
        "Ġshould",
        -7.274204578443836
      ],
      [
        "Ġjust",
        -7.291398000042451
      ],
      [
        "Ġonly",
        -7.295925748340791
      ],
      [
        ";",
        -7.296278332979144
      ],
      [
        "Ġwould",
        -7.299143737387983
      ],
      [
        "or",
        -7.30222012802191
      ],
      [
        "?Ċ",
        -7.303750237739131
      ],
      [
        "cause",
        -7.305743169480845
      ],
      [
        "Ġwho",
        -7.319479901293841
      ],
      [
        "Ġmany",
        -7.326720441391785
      ],
      [
        "Ġits",
        -7.333488913710493
      ],
      [
        "Ġhigh",
        -7.340248752852194
      ],
      [
        "Ġtwo",
        -7.354639602865893
      ],
      [
        "f",
        -7.368817385238961
      ],
      [
        "ĠC",
        -7.371843613445545
      ],
      [
        "Ġwell",
        -7.376524177045336
      ],
      [
        "Ġfirst",
        -7.403480348351284
      ],
      [
        "Ġno",
        -7.412304476505801
      ],
      [
        "Ġway",
        -7.413474463662688
      ],
      [
        "Ġlong",
        -7.421152122114187
      ],
      [
        "Ġbetween",
        -7.423934332185768
      ],
      [
        "ever",
        -7.427625949148361
      ],
      [
        "Ġthrough",
        -7.438774772206266
      ],
      [
        "Ġtake",
        -7.447077317513347
      ],
      [
        "b",
        -7.461278813560252
      ],
      [
        "Ġmy",
        -7.461957682188597
      ],
      [
        "ion",
        -7.462169474504064
      ],
      [
        "p",
        -7.46230246675518
      ],
      [
        "Ġwork",
        -7.465831771553406
      ],
      [
        "Ġsee",
        -7.475594021899212
      ],
      [
        "Ġgo",
        -7.476333516452273
      ],
      [
        "Ġwhere",
        -7.47939665983116
      ],
      [
        "Ġdifferent",
        -7.480482300825734
      ],
      [
        "h",
        -7.480970517752803
      ],
      [
        "Ġprovide",
        -7.481354683176709
      ],
      [
        "!",
        -7.486757912212999
      ],
      [
        "is",
        -7.490111204506576
      ],
      [
        "Ġevery",
        -7.496714625284216
      ],
      [
        "ĠS",
        -7.5058949442579
      ],
      [
        "ve",
        -7.506135845561483
      ],
      [
        "Ġcould",
        -7.513002046949586
      ],
      [
        "very",
        -7.51580182773953
      ],
      [
        "Ġusing",
        -7.516535647201286
      ],
      [
        "Ġhe",
        -7.518799001585679
      ],
      [
        "ic",
        -7.522574669384552
      ],
      [
        "ĠIf",
        -7.532977016791358
      ],
      [
        "um",
        -7.538554378511202
      ],
      [
        "ĠB",
        -7.539545168894174
      ],
      [
        "ĠHow",
        -7.5414554704587555
      ],
      [
        "le",
        -7.5430885321162275
      ],
      [
        "Ġeven",
        -7.557268583464655
      ],
      [
        "ation",
        -7.564305455203428
      ],
      [
        "S",
        -7.573043561627163
      ],
      [
        "ĠThey",
        -7.573908976770337
      ],
      [
        "In",
        -7.586290534772745
      ],
      [
        "Ġmuch",
        -7.599898509180197
      ],
      [
        "Ġhealth",
        -7.620879589863078
      ],
      [
        ").",
        -7.634187334097814
      ],
      [
        "u",
        -7.646377846576381
      ],
      [
        "Ġchange",
        -7.65120861088472
      ],
      [
        "while",
        -7.653593195499998
      ],
      [
        "Ġwant",
        -7.656821072487518
      ],
      [
        "Ġhad",
        -7.6572828379238915
      ],
      [
        "Ġimportant",
        -7.659731568422343
      ],
      [
        "Ġgood",
        -7.663644485736748
      ],
      [
        "Ġsmall",
        -7.670413081595383
      ],
      [
        "ĠâĢĵ",
        -7.6721936355257006
      ],
      [
        "Ġcause",
        -7.677153686561462
      ],
      [
        "Ġhis",
        -7.679267580515311
      ],
      [
        "Ġdoes",
        -7.681432481446811
      ],
      [
        "Ġprocess",
        -7.686413797665579
      ],
      [
        "out",
        -7.687079696232458
      ],
      [
        "Ġknow",
        -7.687912692279665
      ],
      [
        "Ġfood",
        -7.68982768866254
      ],
      [
        "Ġyears",
        -7.690074304511851
      ],
      [
        "Ġeach",
        -7.693073840641269
      ],
      [
        "an",
        -7.693229869026316
      ],
      [
        "ĠYou",
        -7.697148458973768
      ],
      [
        "ll",
        -7.703335243072384
      ],
      [
        "Ġarea",
        -7.707921505273014
      ],
      [
        "D",
        -7.716546188121156
      ],
      [
        "us",
        -7.727160737276105
      ],
      [
        "Ġafter",
        -7.735541044057702
      ],
      [
        "Ġdesign",
        -7.745760718694202
      ],
      [
        "Ġstart",
        -7.746202153909135
      ],
      [
        "Ġlevel",
        -7.750080161640262
      ],
      [
        "Ġworld",
        -7.759912815639733
      ],
      [
        "C",
        -7.770474685888116
      ],
      [
        "around",
        -7.773071539978691
      ],
      [
        "Ġcreate",
        -7.777273006079137
      ],
      [
        "k",
        -7.7787651885860045
      ],
      [
        "Ġlarge",
        -7.78950011473048
      ],
      [
        "Ġdata",
        -7.790721903102274
      ],
      [
        "Ġfound",
        -7.793568404344104
      ],
      [
        "made",
        -7.796081504371181
      ],
      [
        "B",
        -7.796991337473285
      ],
      [
        "Ġdon",
        -7.800255306228477
      ],
      [
        "th",
        -7.802589028098282
      ],
      [
        "ers",
        -7.8035702496854045
      ],
      [
        "Ġlife",
        -7.80462781697434
      ],
      [
        "Ġbefore",
        -7.807332149233802
      ],
      [
        "Ġsam",
        -7.815189707201138
      ],
      [
        "Ġoften",
        -7.817734616137648
      ],
      [
        "%",
        -7.821914997875885
      ],
      [
        "Ġproblem",
        -7.822282255282015
      ],
      [
        "Ġthose",
        -7.822351849842367
      ],
      [
        "Ġthing",
        -7.824490558972798
      ],
      [
        "Ġboth",
        -7.837554934160486
      ],
      [
        "Ġun",
        -7.843149265674112
      ],
      [
        "ĠP",
        -7.849855622728672
      ],
      [
        "Ġmaterial",
        -7.85118224133424
      ],
      [
        "Ġhuman",
        -7.857057951830043
      ],
      [
        "and",
        -7.858669058785414
      ],
      [
        "Ġlight",
        -7.860162783812001
      ],
      [
        "en",
        -7.862198969207327
      ],
      [
        "Ġright",
        -7.86526623173647
      ],
      [
        "Ġallow",
        -7.873934856942303
      ],
      [
        "Ġenergy",
        -7.87605384937044
      ],
      [
        "Ġbody",
        -7.876441456468063
      ],
      [
        "Ġlook",
        -7.877962104694581
      ],
      [
        "Ġnumber",
        -7.880927049638698
      ],
      [
        "Ġpart",
        -7.880960718751757
      ],
      [
        "Ġback",
        -7.887446199356315
      ],
      [
        "Ġplace",
        -7.888989155672221
      ],
      [
        "ness",
        -7.892681315670648
      ],
      [
        "Ġform",
        -7.894618356731213
      ],
      [
        "Ġkeep",
        -7.895645957174553
      ],
      [
        "Ġdown",
        -7.89865415353276
      ],
      [
        "Ġanimal",
        -7.898819579850727
      ],
      [
        "Ġcommon",
        -7.901024619025063
      ],
      [
        "it",
        -7.901085264432362
      ],
      [
        "Ġbeing",
        -7.901611160712781
      ],
      [
        "),",
        -7.907695113258226
      ],
      [
        "Ġinformation",
        -7.909725360022855
      ],
      [
        "What",
        -7.912529480711279
      ],
      [
        "Ġexample",
        -7.91916478268342
      ],
      [
        "Ġyear",
        -7.934432521478164
      ],
      [
        "(",
        -7.935303858714598
      ],
      [
        "Ġbest",
        -7.936554839540212
      ],
      [
        "during",
        -7.939185064908251
      ],
      [
        "Ġincrease",
        -7.940499904399266
      ],
      [
        "ĠFor",
        -7.940641846394241
      ],
      [
        "Ġfind",
        -7.940822066909772
      ],
      [
        "one",
        -7.943530422616119
      ],
      [
        "ĠE",
        -7.943677395286045
      ],
      [
        "Ġunder",
        -7.948143178312426
      ],
      [
        "ĠWe",
        -7.948865989787647
      ],
      [
        "Ġinclude",
        -7.963153030140954
      ],
      [
        "Ġlead",
        -7.965209816049769
      ],
      [
        "Ġshow",
        -7.968762911770531
      ],
      [
        "Ġplant",
        -7.97653672156676
      ],
      [
        "Ġadd",
        -7.97706764325152
      ],
      [
        "Ġme",
        -7.977143089943678
      ],
      [
        ":Ċ",
        -7.977972973194376
      ],
      [
        "Ġday",
        -7.982454890598685
      ],
      [
        "Ġsay",
        -7.983669450920337
      ],
      [
        "Ġmain",
        -7.987978391146693
      ],
      [
        "Ġtest",
        -7.990626207497775
      ],
      [
        "Ġresearch",
        -7.994253484393185
      ],
      [
        "ĠF",
        -7.996985704137635
      ],
      [
        "Ġal",
        -8.005208213267592
      ],
      [
        "Ġexperience",
        -8.00673361578746
      ],
      [
        "Ġus",
        -8.006953162024654
      ],
      [
        "ĠD",
        -8.007773745570832
      ],
      [
        "ĠTo",
        -8.010697954705364
      ],
      [
        "v",
        -8.01269687777592
      ],
      [
        "Ġsaid",
        -8.019433071122403
      ],
      [
        "est",
        -8.020826389408885
      ],
      [
        "Ġpower",
        -8.02136518663572
      ],
      [
        "How",
        -8.028715628083955
      ],
      [
        "Ġmight",
        -8.033306409717325
      ],
      [
        "Ġspecies",
        -8.034559836880543
      ],
      [
        "Ġhome",
        -8.039595604054103
      ],
      [
        "ĠThese",
        -8.039775241803195
      ],
      [
        "Ġstudy",
        -8.04037928628057
      ],
      [
        "Ġsupport",
        -8.041930003695937
      ],
      [
        "ĠT",
        -8.046057466950629
      ],
      [
        "Ġher",
        -8.04869570792868
      ],
      [
        "Ġnow",
        -8.054027836460449
      ],
      [
        "ĠM",
        -8.057156966233768
      ],
      [
        "Ġfew",
        -8.05807437838388
      ],
      [
        "Ġown",
        -8.066885728575388
      ],
      [
        "Ġbetter",
        -8.068418245184786
      ],
      [
        "Ġstill",
        -8.07468054035433
      ],
      [
        "Ġgreat",
        -8.074893484068301
      ],
      [
        "Ġgrow",
        -8.077661225815415
      ],
      [
        "x",
        -8.07776098746486
      ],
      [
        "Ġper",
        -8.088819191197288
      ],
      [
        "Ġproduct",
        -8.089024434425282
      ],
      [
        "self",
        -8.090066945135243
      ],
      [
        "Ġcase",
        -8.092117006591241
      ],
      [
        "Ġbase",
        -8.092208625100923
      ],
      [
        "Ġplants",
        -8.095275584591185
      ],
      [
        "Ġincluding",
        -8.100434693456435
      ],
      [
        "...",
        -8.10672717435585
      ],
      [
        "ment",
        -8.112174004997028
      ],
      [
        "Ġoff",
        -8.113042569884161
      ],
      [
        "Ġnatural",
        -8.115423841382805
      ],
      [
        "Ġcontrol",
        -8.118124957592002
      ],
      [
        "This",
        -8.119046666869489
      ],
      [
        "Ġend",
        -8.11933604797408
      ],
      [
        "Ġcar",
        -8.125289810942878
      ],
      [
        "Ġstudents",
        -8.12624788209063
      ],
      [
        "Ġset",
        -8.130728424901335
      ],
      [
        "Ġthink",
        -8.133199214233208
      ],
      [
        "Ġrisk",
        -8.134675262043482
      ],
      [
        "Ġeffect",
        -8.148674946454998
      ],
      [
        "T",
        -8.150358892288352
      ],
      [
        "Ġagain",
        -8.150422364529657
      ],
      [
        "Ġissue",
        -8.15063847793056
      ],
      [
        "ability",
        -8.154989970305657
      ],
      [
        "F",
        -8.157513624071909
      ],
      [
        "Ġless",
        -8.158964090995923
      ],
      [
        "Ġknown",
        -8.160940613903929
      ],
      [
        "Ġmethod",
        -8.163111485611523
      ],
      [
        "ary",
        -8.163804292087685
      ],
      [
        "Ġtype",
        -8.165875220850944
      ],
      [
        "If",
        -8.166362108109604
      ],
      [
        "Ġdog",
        -8.168034626657025
      ],
      [
        "Ġspecific",
        -8.168236976553796
      ],
      [
        "Ġprevent",
        -8.170572490452505
      ],
      [
        "Ġmaking",
        -8.170702221080674
      ],
      [
        "Ġoffer",
        -8.17149278420937
      ],
      [
        "Ġtemperature",
        -8.171726480780364
      ],
      [
        "ĠBut",
        -8.173910573617738
      ],
      [
        "Ġcurrent",
        -8.177921370084409
      ],
      [
        "Ġchildren",
        -8.179681798554263
      ],
      [
        "Ġresult",
        -8.18365330323468
      ],
      [
        "Ġsize",
        -8.183745344990111
      ],
      [
        "Ġsoil",
        -8.189772923169722
      ],
      [
        "Ġtoo",
        -8.192484683966779
      ],
      [
        "It",
        -8.195108841007883
      ],
      [
        "Ġpotential",
        -8.196506101829986
      ],
      [
        "Ġindividual",
        -8.198626656576295
      ],
      [
        "Ġair",
        -8.199911320220497
      ],
      [
        "ive",
        -8.202263281647037
      ],
      [
        "Ġear",
        -8.204327826971237
      ],
      [
        "Ġgive",
        -8.208264495183919
      ],
      [
        "Ġgroup",
        -8.211880249752799
      ],
      [
        "less",
        -8.221528778135468
      ],
      [
        "Ġmodel",
        -8.224453350244284
      ],
      [
        "Ġmust",
        -8.224534246293247
      ],
      [
        "Ġprogram",
        -8.226132538136579
      ],
      [
        "the",
        -8.229252951532942
      ],
      [
        "Ġthree",
        -8.231455757494501
      ],
      [
        "Ġheat",
        -8.232633134127461
      ],
      [
        "Ġsurface",
        -8.234270324491064
      ],
      [
        "Ġline",
        -8.235136729742255
      ],
      [
        "P",
        -8.236690317953745
      ],
      [
        "Ġvalue",
        -8.238374490002634
      ],
      [
        "Ġfish",
        -8.24106835083618
      ],
      [
        "ĠSo",
        -8.24715435883644
      ],
      [
        "Ġlow",
        -8.247710607292944
      ],
      [
        "Ġpoint",
        -8.252647507268044
      ],
      [
        "Ġsure",
        -8.256999115800287
      ],
      [
        "ry",
        -8.25755387807082
      ],
      [
        "ĠR",
        -8.259510205409969
      ],
      [
        ":ĊĊ",
        -8.264796750430012
      ],
      [
        "âĢĻ",
        -8.266201216141244
      ],
      [
        "Ġdevelop",
        -8.268992737532283
      ],
      [
        "Ġblood",
        -8.27048049188953
      ],
      [
        "Ġdue",
        -8.270701593075238
      ],
      [
        "Ġcome",
        -8.271314704035225
      ],
      [
        "Ġproject",
        -8.271711771959861
      ],
      [
        "Ġwithin",
        -8.274235850886448
      ],
      [
        "Ġspace",
        -8.282713428054386
      ],
      [
        "E",
        -8.284297784738428
      ],
      [
        "Ġreduce",
        -8.288894727487762
      ],
      [
        "Ġlearn",
        -8.292134895165905
      ],
      [
        "Ġclose",
        -8.293192181902729
      ],
      [
        "Ġwhy",
        -8.295596268182944
      ],
      [
        "Ġbecome",
        -8.29595928427436
      ],
      [
        "ĠWhen",
        -8.296393007831355
      ],
      [
        "Ġweek",
        -8.306264131987858
      ],
      [
        "Ġvarious",
        -8.309876263880584
      ],
      [
        "Ġensure",
        -8.310192299870547
      ],
      [
        "ĠAnd",
        -8.31316743490748
      ],
      [
        "Ġfunction",
        -8.315510739439667
      ],
      [
        "Ġrange",
        -8.316505447437171
      ],
      [
        "ĠThere",
        -8.31768644069485
      ],
      [
        "Ġfield",
        -8.31875800733992
      ],
      [
        "Ġcost",
        -8.320310801491363
      ],
      [
        "Ġplay",
        -8.322018593815995
      ],
      [
        "Ġschool",
        -8.32423179471406
      ],
      [
        "Ġdisease",
        -8.325804151398938
      ],
      [
        "Ġcalled",
        -8.326329962588797
      ],
      [
        "Ġusual",
        -8.330576703843203
      ],
      [
        "w",
        -8.331842756253856
      ],
      [
        "Ġreally",
        -8.333845554780707
      ],
      [
        "M",
        -8.340604796348774
      ],
      [
        "Ġimpact",
        -8.344025840018631
      ],
      [
        "Ġname",
        -8.344137943390026
      ],
      [
        "Ġamount",
        -8.344349202796286
      ],
      [
        "Ġbenefit",
        -8.346473272044436
      ],
      [
        "Ġcolor",
        -8.34971271988357
      ],
      [
        "Ġsource",
        -8.355189260612674
      ],
      [
        "day",
        -8.36043118652546
      ],
      [
        "Ġenvironment",
        -8.368181604237215
      ],
      [
        "Ġstate",
        -8.368300205761669
      ],
      [
        "ally",
        -8.36959041786838
      ],
      [
        "Ġfollowing",
        -8.3699548160474
      ],
      [
        "Ġpossible",
        -8.370109153502227
      ],
      [
        "Ġcare",
        -8.3701796430176
      ],
      [
        "Ġtry",
        -8.373474302272623
      ],
      [
        "Ġdevice",
        -8.373523973592324
      ],
      [
        "Ġhere",
        -8.374229006315241
      ],
      [
        "Ġde",
        -8.37639917158591
      ],
      [
        "Ġlot",
        -8.378470935876134
      ],
      [
        "ch",
        -8.384380664210912
      ],
      [
        "ĠW",
        -8.386304904674752
      ],
      [
        "ĠH",
        -8.387021720528082
      ],
      [
        "Ġmeans",
        -8.390931497522107
      ],
      [
        "Ġtreatment",
        -8.393795182973154
      ],
      [
        "Ġhard",
        -8.396937515666274
      ],
      [
        "Ġactual",
        -8.399286962618708
      ],
      [
        "Ġ$",
        -8.404074445667243
      ],
      [
        "Ġcells",
        -8.405662625594953
      ],
      [
        "z",
        -8.40823472215815
      ],
      [
        "Ġshe",
        -8.40917292245104
      ],
      [
        "Ġsignificant",
        -8.410002459256127
      ],
      [
        "Ġrequire",
        -8.411262675761497
      ],
      [
        "to",
        -8.412275554027715
      ],
      [
        "at",
        -8.416033590790128
      ],
      [
        "Ġdid",
        -8.416510167648745
      ],
      [
        "Ġorder",
        -8.417478640784656
      ],
      [
        "Ġtree",
        -8.418988521131904
      ],
      [
        "Ġlearning",
        -8.419187978141254
      ],
      [
        "Ġimage",
        -8.4192344356975
      ],
      [
        "something",
        -8.419742276871617
      ],
      [
        "Ġaffect",
        -8.424018265482175
      ],
      [
        "Ġopen",
        -8.427649225297992
      ],
      [
        "Ġlittle",
        -8.427923477168575
      ],
      [
        "Ġcontain",
        -8.43543065720366
      ],
      [
        "Ġlast",
        -8.438443670001014
      ],
      [
        "Ġnear",
        -8.439090652104046
      ],
      [
        "ĠHe",
        -8.442166101873577
      ],
      [
        "N",
        -8.443203941111346
      ],
      [
        "Ġavailable",
        -8.444337540799461
      ],
      [
        "Ġoption",
        -8.448613623212093
      ],
      [
        "technology",
        -8.449151392507128
      ],
      [
        "alway",
        -8.449845469013901
      ],
      [
        ",\"",
        -8.452142974980642
      ],
      [
        "ĠWhich",
        -8.45425721330813
      ],
      [
        "Ġleave",
        -8.454592643387095
      ],
      [
        "Ġgeneral",
        -8.45492804952882
      ],
      [
        "Ġoil",
        -8.457598930251518
      ],
      [
        "ar",
        -8.465308466648295
      ],
      [
        "Ġperson",
        -8.46568488007173
      ],
      [
        "Ġimprove",
        -8.466818994783939
      ],
      [
        "Ġdevelopment",
        -8.471735033225844
      ],
      [
        "ĠG",
        -8.474229263469542
      ],
      [
        "ous",
        -8.482177180273641
      ],
      [
        "Ġessential",
        -8.486030386893468
      ],
      [
        "Ġcomplete",
        -8.48871660655627
      ],
      [
        "Ġfeel",
        -8.489138343272781
      ],
      [
        "Ġcertain",
        -8.491308771274518
      ],
      [
        "Ġuntil",
        -8.492846250218957
      ],
      [
        "Ġside",
        -8.49384182791493
      ],
      [
        "Ġturn",
        -8.4961069844388
      ],
      [
        "Ġseveral",
        -8.497047897815946
      ],
      [
        "Ġquality",
        -8.497198292930463
      ],
      [
        "Ġ=",
        -8.500183090284185
      ],
      [
        "Ġw",
        -8.500868672963755
      ],
      [
        "Ġeffective",
        -8.502216356359652
      ],
      [
        "Ġrate",
        -8.504687211012568
      ],
      [
        "Ġlive",
        -8.505235873921151
      ],
      [
        "ĠU",
        -8.507555852712976
      ],
      [
        "ĠUniversity",
        -8.509270485763054
      ],
      [
        "ĠAs",
        -8.510200990006348
      ],
      [
        "Ġfree",
        -8.514847605657895
      ],
      [
        "Ġcourse",
        -8.516487234497589
      ],
      [
        "G",
        -8.51688888826629
      ],
      [
        "Ġgarden",
        -8.517154242390848
      ],
      [
        "Ġhand",
        -8.520236267390516
      ],
      [
        "enough",
        -8.522083204921534
      ],
      [
        "ĠBe",
        -8.523320417727826
      ],
      [
        "Ġpressure",
        -8.528344901429573
      ],
      [
        "Ġparticular",
        -8.52939171514076
      ],
      [
        "Ġunderstand",
        -8.529873996967462
      ],
      [
        "Ġcommunit",
        -8.53082129031126
      ],
      [
        "Ġconsider",
        -8.530893291662867
      ],
      [
        "age",
        -8.532010790557987
      ],
      [
        "Ġpatient",
        -8.533874023504612
      ],
      [
        "hether",
        -8.537234709167441
      ],
      [
        "Ġtext",
        -8.542140298714964
      ],
      [
        "Ġterm",
        -8.5427517694168
      ],
      [
        "Ġlocal",
        -8.542898743830605
      ],
      [
        "Ġpresent",
        -8.543142640461387
      ],
      [
        "Ġdifference",
        -8.5433515558706
      ],
      [
        "Ġconditions",
        -8.544205801103116
      ],
      [
        "ur",
        -8.54546098570707
      ],
      [
        "*",
        -8.546641916025
      ],
      [
        "Ġgrowth",
        -8.550337146410694
      ],
      [
        "Ġchild",
        -8.550350696423248
      ],
      [
        "Ġwide",
        -8.551593073096125
      ],
      [
        "H",
        -8.55180247168863
      ],
      [
        "Ġteam",
        -8.55295106226757
      ],
      [
        "Ġsolution",
        -8.556396300293098
      ],
      [
        "W",
        -8.559630508229402
      ],
      [
        "Ġfamily",
        -8.563000232392731
      ],
      [
        "Ġcheck",
        -8.563132645813551
      ],
      [
        "ĠL",
        -8.563765552992667
      ],
      [
        "Ġneeds",
        -8.569286340646475
      ],
      [
        "Ġtypes",
        -8.569796645623043
      ],
      [
        "Ġnon",
        -8.572281596395978
      ],
      [
        "Ġfocus",
        -8.573000601224958
      ],
      [
        "Ġdiet",
        -8.575812555598999
      ],
      [
        "Ġkey",
        -8.578248452193943
      ],
      [
        "Ġsince",
        -8.578672331651816
      ],
      [
        "Ġeye",
        -8.581171534707183
      ],
      [
        "Ġput",
        -8.582500753328038
      ],
      [
        "When",
        -8.586645341449255
      ],
      [
        "Ġmeasure",
        -8.58745844783948
      ],
      [
        "Ġtop",
        -8.59124511859186
      ],
      [
        "K",
        -8.59280210984548
      ],
      [
        "ĠRe",
        -8.596179206777315
      ],
      [
        "Ġobject",
        -8.596234299531732
      ],
      [
        "Ġevent",
        -8.596351241915198
      ],
      [
        "Ġcat",
        -8.596608863970184
      ],
      [
        "Ġalong",
        -8.597415026886608
      ],
      [
        "Ġaccess",
        -8.597855428356006
      ],
      [
        "ĠBy",
        -8.598481426029542
      ],
      [
        "Ġhappen",
        -8.59899006897012
      ],
      [
        "ĠWith",
        -8.599844443493243
      ],
      [
        "Ġaway",
        -8.601861209146133
      ],
      [
        "L",
        -8.602600213249058
      ],
      [
        "Ġlower",
        -8.60518334244854
      ],
      [
        "ance",
        -8.608056636649073
      ],
      [
        "!Ċ",
        -8.6093679118403
      ],
      [
        "Ġshort",
        -8.61035779797415
      ],
      [
        "Ġstructure",
        -8.61338129564505
      ],
      [
        "Ġprotect",
        -8.615770498471353
      ],
      [
        "You",
        -8.616607888180102
      ],
      [
        "Ġcover",
        -8.62191818128661
      ],
      [
        "Ġmarket",
        -8.622702891350828
      ],
      [
        "Ġ&",
        -8.623832435497334
      ],
      [
        "Ġhigher",
        -8.624547683214484
      ],
      [
        "Ġvariet",
        -8.626968511869292
      ],
      [
        "Ġnature",
        -8.628244641138801
      ],
      [
        "Ġproper",
        -8.62904600262954
      ],
      [
        "Ġremain",
        -8.62915606109484
      ],
      [
        "Ġweight",
        -8.62968271762297
      ],
      [
        "Ġrole",
        -8.63027649121543
      ],
      [
        "Ġseem",
        -8.632238713839122
      ],
      [
        "ĠThat",
        -8.635631269083165
      ],
      [
        "Ġnormal",
        -8.64283229743133
      ],
      [
        "Ġpopulation",
        -8.646297412118962
      ],
      [
        "Ġtogether",
        -8.64844318924385
      ],
      [
        "Ġunique",
        -8.649256727186401
      ],
      [
        "Ġsimple",
        -8.650466676226838
      ],
      [
        "Ġclear",
        -8.650764329815061
      ],
      [
        "Ġrun",
        -8.652356604391592
      ],
      [
        "Ġtypical",
        -8.655549994587297
      ],
      [
        "Ġground",
        -8.656259408599976
      ],
      [
        "Ġmakes",
        -8.660544888977931
      ],
      [
        "Ġfuture",
        -8.660845982632251
      ],
      [
        "Ġlet",
        -8.662443234012805
      ],
      [
        "Ġdays",
        -8.665541616032366
      ],
      [
        "next",
        -8.665803735414704
      ],
      [
        "though",
        -8.666500715453719
      ],
      [
        "Ġsimilar",
        -8.668388999537841
      ],
      [
        "Ġworking",
        -8.668646220871608
      ],
      [
        "We",
        -8.669842193578265
      ],
      [
        "having",
        -8.670189018219418
      ],
      [
        "Ġsecond",
        -8.672531992922192
      ],
      [
        "R",
        -8.672878409704314
      ],
      [
        "especial",
        -8.6730839217163
      ],
      [
        "Ġage",
        -8.673673594965694
      ],
      [
        "ĠN",
        -8.674262544409965
      ],
      [
        "Ġdirect",
        -8.67558517496465
      ],
      [
        "Ġreal",
        -8.675619086952867
      ],
      [
        "Ġcomes",
        -8.675715867154445
      ],
      [
        "Ġforce",
        -8.676269986980953
      ],
      [
        "Ġsafe",
        -8.677040330451984
      ],
      [
        "ĠJ",
        -8.679105386857469
      ],
      [
        "Ġhim",
        -8.68325824811187
      ],
      [
        "not",
        -8.687911860919156
      ],
      [
        "Ġsuggest",
        -8.689466656603104
      ],
      [
        "thing",
        -8.693030552274259
      ],
      [
        "Ġeasy",
        -8.693486136553375
      ],
      [
        "Ġperiod",
        -8.694112588950087
      ],
      [
        "There",
        -8.696564197979846
      ],
      [
        "Ġfull",
        -8.697167322646482
      ],
      [
        "Ġhealthy",
        -8.697332806015936
      ],
      [
        "Ġcancer",
        -8.69748639727379
      ],
      [
        "Ġresults",
        -8.698730490741266
      ],
      [
        "Ġchemical",
        -8.700320816055601
      ],
      [
        "Ġbalance",
        -8.700663749203128
      ],
      [
        "Ġdepend",
        -8.700682915464235
      ],
      [
        "O",
        -8.701180994988775
      ],
      [
        "Ġlikely",
        -8.70465687972081
      ],
      [
        "Ġphysical",
        -8.705075297643639
      ],
      [
        "Ġold",
        -8.705465188654664
      ],
      [
        "Ġproduce",
        -8.706406755132516
      ],
      [
        "V",
        -8.707580288341187
      ],
      [
        "Ġclean",
        -8.708087462933879
      ],
      [
        "Ġfollow",
        -8.708210636208154
      ],
      [
        "Ġplan",
        -8.708690081611856
      ],
      [
        "Ġcontinue",
        -8.708922675563215
      ],
      [
        "Ġfactors",
        -8.709317289447771
      ],
      [
        "Ġmove",
        -8.711318043154803
      ],
      [
        "Ġheart",
        -8.711676758648125
      ],
      [
        "Ġgas",
        -8.71442993373046
      ],
      [
        "Ġskin",
        -8.714788306277859
      ],
      [
        "To",
        -8.715815751236285
      ],
      [
        "Ġfact",
        -8.716716949319817
      ],
      [
        "ful",
        -8.718183736883695
      ],
      [
        "Ġanswer",
        -8.720397917567773
      ],
      [
        "Ġask",
        -8.722935875795592
      ],
      [
        "ĠAl",
        -8.723238673099697
      ],
      [
        "Ġmillion",
        -8.723867437354837
      ],
      [
        "Ġbuilding",
        -8.726318800111047
      ],
      [
        "Ġdoesn",
        -8.7271516299604
      ],
      [
        "Ġp",
        -8.728425047497733
      ],
      [
        "Ġdamage",
        -8.730171198397944
      ],
      [
        "ĠK",
        -8.730738144047992
      ],
      [
        "ĠYour",
        -8.732600344565677
      ],
      [
        "Ġblack",
        -8.732646695484569
      ],
      [
        "Ġpaper",
        -8.735582802327805
      ],
      [
        "Ġlove",
        -8.73957458751355
      ],
      [
        "Ġnever",
        -8.741168225861587
      ],
      [
        "Ġsea",
        -8.742246839919758
      ],
      [
        "Ġpublic",
        -8.744880282337025
      ],
      [
        "Ġactivit",
        -8.748544790184638
      ],
      [
        "stead",
        -8.749161913256913
      ],
      [
        "Ġclimate",
        -8.749217651417256
      ],
      [
        "Ġdifficult",
        -8.750376982533197
      ],
      [
        "_",
        -8.751018752880459
      ],
      [
        "Ġstep",
        -8.752214133161658
      ],
      [
        "Ġdry",
        -8.753974483617831
      ],
      [
        "Ġcreat",
        -8.754493421106012
      ],
      [
        "nother",
        -8.755268961730998
      ],
      [
        "Ġabove",
        -8.757503380151563
      ],
      [
        "most",
        -8.758254065841095
      ],
      [
        "Ġlist",
        -8.761716493574896
      ],
      [
        "For",
        -8.762856607049596
      ],
      [
        "Ġinterest",
        -8.763273158171579
      ],
      [
        "Ġscience",
        -8.763275925726258
      ],
      [
        "Ġproduction",
        -8.764417861632488
      ],
      [
        "Ġresource",
        -8.765393474865618
      ],
      [
        "ĠNo",
        -8.76640971202293
      ],
      [
        "Ġnecessar",
        -8.766990469311907
      ],
      [
        "âĢĶ",
        -8.767235994772498
      ],
      [
        "Ġloss",
        -8.768908531166442
      ],
      [
        "Ġacross",
        -8.771511377158271
      ],
      [
        "Ġkind",
        -8.772377753272231
      ],
      [
        "Ġbatter",
        -8.773015975795218
      ],
      [
        "Ġstrong",
        -8.773389042505707
      ],
      [
        "Ġbook",
        -8.775318780011416
      ],
      [
        "Ġrecommend",
        -8.77608791920411
      ],
      [
        "Ġarticle",
        -8.776125962406415
      ],
      [
        "Ġhead",
        -8.779012428856106
      ],
      [
        "Ġreason",
        -8.77911223504752
      ],
      [
        "Ġtimes",
        -8.782604348153132
      ],
      [
        "Ġwhite",
        -8.788605795536823
      ],
      [
        "least",
        -8.788693764820497
      ],
      [
        "Ġcontent",
        -8.789014589553245
      ],
      [
        "Ġdogs",
        -8.789302990186364
      ],
      [
        "ĠNew",
        -8.790526485909751
      ],
      [
        "Ġsocial",
        -8.790794091297343
      ],
      [
        "ian",
        -8.792101199073606
      ],
      [
        "Ġcell",
        -8.793578410047257
      ],
      [
        "Ġmatter",
        -8.794185630685135
      ],
      [
        "Ġremove",
        -8.795403113672187
      ],
      [
        "Ġgiven",
        -8.795929656632671
      ],
      [
        "Ġdiscover",
        -8.798905085640758
      ],
      [
        "ĠSome",
        -8.800998660773654
      ],
      [
        "another",
        -8.801645994533272
      ],
      [
        "Ġeat",
        -8.801711319790748
      ],
      [
        "Ġcondition",
        -8.802169940516308
      ],
      [
        "Ġbit",
        -8.80243241936795
      ],
      [
        "Ġposition",
        -8.80290607935408
      ],
      [
        "be",
        -8.80312058367215
      ],
      [
        "man",
        -8.803909620893867
      ],
      [
        "either",
        -8.805568557599162
      ],
      [
        "]",
        -8.806065441830658
      ],
      [
        "Ġbring",
        -8.807439553470285
      ],
      [
        "ĠV",
        -8.811500136612064
      ],
      [
        "Ġwarm",
        -8.812451317779812
      ],
      [
        "Ġmean",
        -8.813136901522432
      ],
      [
        "Ġsingle",
        -8.814188270194984
      ],
      [
        "Ġamong",
        -8.816403566572667
      ],
      [
        "Ġaddition",
        -8.81833931517393
      ],
      [
        "Ġyoung",
        -8.820707040926203
      ],
      [
        "Ġaccording",
        -8.822271517378105
      ],
      [
        "Ġrecent",
        -8.82439165097098
      ],
      [
        "ate",
        -8.826681187247166
      ],
      [
        "Ġdone",
        -8.826895611238495
      ],
      [
        "Ġread",
        -8.827659450363587
      ],
      [
        "ish",
        -8.827759604965827
      ],
      [
        "ĠO",
        -8.828226804989535
      ],
      [
        ")Ċ",
        -8.829520801004382
      ],
      [
        "Ġvideo",
        -8.830109337727423
      ],
      [
        "Ġquestion",
        -8.830764822798958
      ],
      [
        "Ġfar",
        -8.830792102888953
      ],
      [
        "Ġstore",
        -8.833307603669809
      ],
      [
        "coming",
        -8.835634114117196
      ],
      [
        "Ġprotein",
        -8.840189939772376
      ],
      [
        "Ġregion",
        -8.840635195307211
      ],
      [
        "ĠAmerican",
        -8.840737062186552
      ],
      [
        "Ġavoid",
        -8.84103526186497
      ],
      [
        "ĠAn",
        -8.8442520671001
      ],
      [
        "Ġparent",
        -8.846109638777968
      ],
      [
        "Ġenvironmental",
        -8.847332005946694
      ],
      [
        "Ġroom",
        -8.847505226410131
      ],
      [
        "Ġmajor",
        -8.85118720604672
      ],
      [
        "Ġexist",
        -8.852380830885407
      ],
      [
        "ten",
        -8.85541750512158
      ],
      [
        "Ġgame",
        -8.860600236713632
      ],
      [
        "Ġspeed",
        -8.862652854673009
      ],
      [
        "Ġwomen",
        -8.86292061396265
      ],
      [
        ")ĊĊ",
        -8.863564921407207
      ],
      [
        "Ġstandard",
        -8.86390283302823
      ],
      [
        "Ġsugar",
        -8.865309493471699
      ],
      [
        "Ġfall",
        -8.865592611039649
      ],
      [
        "Ġsignal",
        -8.866009583345122
      ],
      [
        "Ġleft",
        -8.867259454735871
      ],
      [
        "Ġmetal",
        -8.86846271149574
      ],
      [
        "Ġcomputer",
        -8.868612511471504
      ],
      [
        "Ġappear",
        -8.86866482420231
      ],
      [
        "ĠâĢĶ",
        -8.870860333008263
      ],
      [
        "Ġreach",
        -8.871723751269837
      ],
      [
        "Ġtraining",
        -8.872281505765873
      ],
      [
        "Ġunderstanding",
        -8.874574888460744
      ],
      [
        "Ġpost",
        -8.874594943391696
      ],
      [
        "Ġenjoy",
        -8.878524890879085
      ],
      [
        "ves",
        -8.879726111882267
      ],
      [
        "Ġaction",
        -8.88006155793789
      ],
      [
        "Ġgreen",
        -8.880287612705047
      ],
      [
        "Ġminute",
        -8.880957383668244
      ],
      [
        "Ġpet",
        -8.884179876787595
      ],
      [
        "Ġpattern",
        -8.884594366776913
      ],
      [
        "Ġadult",
        -8.885834552008752
      ],
      [
        "Ġfit",
        -8.887695631845894
      ],
      [
        "Ġreport",
        -8.88985371565375
      ],
      [
        "Ġfour",
        -8.890021420825192
      ],
      [
        "Ġred",
        -8.890462896001681
      ],
      [
        "Ġthought",
        -8.890512996657423
      ],
      [
        "Ġpersonal",
        -8.89088165452361
      ],
      [
        "Ġstress",
        -8.891452861501417
      ],
      [
        "Ġassociate",
        -8.893460127700262
      ],
      [
        "Ġdeep",
        -8.89412996663007
      ],
      [
        "Ġbelieve",
        -8.896353609182949
      ],
      [
        "Ġmention",
        -8.898142306854334
      ],
      [
        "Ġshare",
        -8.9018111803277
      ],
      [
        "Ġapproach",
        -8.902107200176353
      ],
      [
        "Ġfurther",
        -8.903024202663424
      ],
      [
        "Ġskills",
        -8.904414313970914
      ],
      [
        "Ġflower",
        -8.905064634656867
      ],
      [
        "Ġperform",
        -8.905399622928307
      ],
      [
        "Ġpurpose",
        -8.90578277990774
      ],
      [
        "ory",
        -8.906816398782716
      ],
      [
        "Ġlooking",
        -8.907483816268785
      ],
      [
        "Ġrequired",
        -8.90794226883219
      ],
      [
        "Ġmaintain",
        -8.908354916092398
      ],
      [
        "Ġunit",
        -8.910877103566106
      ],
      [
        "Ġface",
        -8.911416262899927
      ],
      [
        "Ġmoney",
        -8.913000755928167
      ],
      [
        "Ġmachine",
        -8.915827424021629
      ],
      [
        "ma",
        -8.917526675192201
      ],
      [
        "Ġresearcher",
        -8.920005887888806
      ],
      [
        "Ġbasic",
        -8.9212266062751
      ],
      [
        "Ġreceive",
        -8.922774310374468
      ],
      [
        "Ġstudie",
        -8.923403251675333
      ],
      [
        "Ġbrain",
        -8.924113987076403
      ],
      [
        "Ġbusiness",
        -8.92587697036226
      ],
      [
        "Ġpre",
        -8.926206457261847
      ],
      [
        "Ġpositive",
        -8.926982152077873
      ],
      [
        "Ġsun",
        -8.927126966593363
      ],
      [
        "Ġtoward",
        -8.929098031252968
      ],
      [
        "Ġwild",
        -8.929158251420645
      ],
      [
        "Ġlayer",
        -8.929563120050073
      ],
      [
        "ĠDo",
        -8.931383590896974
      ],
      [
        "Ġservice",
        -8.932058084354887
      ],
      [
        "Ġtalk",
        -8.93227582119749
      ],
      [
        "Ġbig",
        -8.932452562505219
      ],
      [
        "Ġaverage",
        -8.93260743648182
      ],
      [
        "Ġorganic",
        -8.933136622086472
      ],
      [
        "Ġcold",
        -8.933849937454276
      ],
      [
        "Ġ[",
        -8.93461106975861
      ],
      [
        "Ġmonths",
        -8.935344394240305
      ],
      [
        "ent",
        -8.938854775877434
      ],
      [
        "Ġinfection",
        -8.938980805627846
      ],
      [
        "Ġpain",
        -8.939601237146466
      ],
      [
        "online",
        -8.939695678575013
      ],
      [
        "Ġliving",
        -8.9398072575067
      ],
      [
        "Ġrecord",
        -8.941438312518557
      ],
      [
        "Ġfruit",
        -8.941944133440106
      ],
      [
        "So",
        -8.942292463438848
      ],
      [
        "Ġindustr",
        -8.943150727579738
      ],
      [
        "Ġsymptoms",
        -8.943905223663668
      ],
      [
        "Ġinput",
        -8.943938467209062
      ],
      [
        "Ġtreat",
        -8.944177969299783
      ],
      [
        "taking",
        -8.945955682688634
      ],
      [
        "Ġchallenge",
        -8.94815007020594
      ],
      [
        "Ġwalk",
        -8.94918802476867
      ],
      [
        "Ġelectric",
        -8.95128294521051
      ],
      [
        "Ġinside",
        -8.952523255072084
      ],
      [
        "Ġperformance",
        -8.95331933740041
      ],
      [
        "Ġtell",
        -8.955371575857011
      ],
      [
        "Ġgetting",
        -8.956497865024245
      ],
      [
        "up",
        -8.958656936946443
      ],
      [
        "Ġbuy",
        -8.963043186195803
      ],
      [
        "ne",
        -8.965461489257983
      ],
      [
        "Ġcontact",
        -8.96574605621047
      ],
      [
        "Ġscientist",
        -8.966457122925192
      ],
      [
        "Ġhistor",
        -8.969372960031281
      ],
      [
        "by",
        -8.969841186894342
      ],
      [
        "tic",
        -8.9711094803131
      ],
      [
        "Ġcut",
        -8.971135485975312
      ],
      [
        "Ġcool",
        -8.971610842063546
      ],
      [
        "Ġseason",
        -8.972434761565728
      ],
      [
        "ember",
        -8.972942817168743
      ],
      [
        "Ġknowledge",
        -8.976892181157659
      ],
      [
        "Ġcarbon",
        -8.977031039199346
      ],
      [
        "Ġview",
        -8.978797651844804
      ],
      [
        "Ġbelow",
        -8.980963863598333
      ],
      [
        "ĠOne",
        -8.98100285303838
      ],
      [
        "Ġflow",
        -8.982183664977224
      ],
      [
        "refore",
        -8.982459025621763
      ],
      [
        "land",
        -8.983202879570989
      ],
      [
        "Ġmedical",
        -8.9843595683496
      ],
      [
        "Ġsense",
        -8.985607831025042
      ],
      [
        "Ġways",
        -8.986476927974802
      ],
      [
        "Ġplastic",
        -8.987839234606307
      ],
      [
        "ok",
        -8.988459037676982
      ],
      [
        "ctivities",
        -8.989435731049108
      ],
      [
        "am",
        -8.996156645279608
      ],
      [
        "Ġbuild",
        -8.996241893160505
      ],
      [
        "Ġperfect",
        -8.99668651209365
      ],
      [
        "Ġidea",
        -8.997882045335434
      ],
      [
        "Ġcall",
        -8.99937559870515
      ],
      [
        "Ġprovid",
        -8.99950292002559
      ],
      [
        "ant",
        -9.000152792970272
      ],
      [
        "already",
        -9.002294460872388
      ],
      [
        "Ġsound",
        -9.005441649037417
      ],
      [
        "Ġshape",
        -9.006155604625175
      ],
      [
        "Ġbehavior",
        -9.006926684965471
      ],
      [
        "Ġland",
        -9.007540806941677
      ],
      [
        "Ġclass",
        -9.008100939431564
      ],
      [
        "Ġtools",
        -9.008906001501114
      ],
      [
        "Ġentire",
        -9.011625169103867
      ],
      [
        "Ġstay",
        -9.011917516128747
      ],
      [
        "Ġstage",
        -9.011924112477304
      ],
      [
        "Ġprofessional",
        -9.01210992792998
      ],
      [
        "Ġitem",
        -9.0133671847307
      ],
      [
        "Ġselect",
        -9.014531991467926
      ],
      [
        "Ġfeatures",
        -9.015282361305616
      ],
      [
        "Ġfuel",
        -9.016216599225586
      ],
      [
        "ĠUnit",
        -9.016442606677472
      ],
      [
        "Ġpercent",
        -9.017040129117603
      ],
      [
        "Ġnetwork",
        -9.01719382189177
      ],
      [
        "Ġparts",
        -9.017723330298333
      ],
      [
        "Ġmanagement",
        -9.018596281802004
      ],
      [
        "her",
        -9.019287360341558
      ],
      [
        "Ġpay",
        -9.021579145932105
      ],
      [
        "Ġfarm",
        -9.022004455221298
      ],
      [
        "Ġconsidered",
        -9.022800741603389
      ],
      [
        "il",
        -9.022858579309757
      ],
      [
        "U",
        -9.02305473582808
      ],
      [
        "Ġself",
        -9.023184030723312
      ],
      [
        "Ġpopular",
        -9.02344575437548
      ],
      [
        "Ġbegin",
        -9.023556076873287
      ],
      [
        "Ġcompany",
        -9.024141864135204
      ],
      [
        "Ġauthor",
        -9.024799669688017
      ],
      [
        "Ġhours",
        -9.025592317074466
      ],
      [
        "Ġpast",
        -9.026008149713444
      ],
      [
        "Ġmind",
        -9.026066261828564
      ],
      [
        "Ġopportunit",
        -9.026944854013886
      ],
      [
        "Ġcrucial",
        -9.026945731784942
      ],
      [
        "ter",
        -9.027765881453274
      ],
      [
        "Ġdetermine",
        -9.028164696597578
      ],
      [
        "Ġoverall",
        -9.030109820963428
      ],
      [
        "Ġdoing",
        -9.030199738956608
      ],
      [
        "Ġlanguage",
        -9.032058141088758
      ],
      [
        "Ġprice",
        -9.033492766179956
      ],
      [
        ".\"Ċ",
        -9.034355123513588
      ],
      [
        "Ġreturn",
        -9.035541743424876
      ],
      [
        "Y",
        -9.038757207775372
      ],
      [
        "Ġglobal",
        -9.039925844461711
      ],
      [
        ".\"ĊĊ",
        -9.04128093592722
      ],
      [
        "Ġdi",
        -9.042378766013432
      ],
      [
        "+",
        -9.04360306249549
      ],
      [
        "âĢĵ",
        -9.043938549212722
      ],
      [
        "Ġuser",
        -9.0446997136285
      ],
      [
        "ling",
        -9.048731497279103
      ],
      [
        "Ġinvolve",
        -9.050660571253108
      ],
      [
        "Ġhouse",
        -9.050921059155051
      ],
      [
        "afety",
        -9.051653619144997
      ],
      [
        "Ġquickly",
        -9.054538419211717
      ],
      [
        "Ġcorrect",
        -9.054581565485794
      ],
      [
        ").Ċ",
        -9.055133943795102
      ],
      [
        "hind",
        -9.055963812723636
      ],
      [
        "Ġspecial",
        -9.056402520992902
      ],
      [
        "Ġwhole",
        -9.057056081701246
      ],
      [
        "Ġresponse",
        -9.058824052313692
      ],
      [
        "Ġmovement",
        -9.059339886417632
      ],
      [
        "Ġwear",
        -9.059825406725867
      ],
      [
        "Ġcomplex",
        -9.06072925157779
      ],
      [
        "ge",
        -9.062400797120675
      ],
      [
        "Ġstrateg",
        -9.062431511722464
      ],
      [
        "Ġeducation",
        -9.063777072306449
      ],
      [
        "Ġprint",
        -9.066955758554656
      ],
      [
        "Ġstop",
        -9.067290973000944
      ],
      [
        "Ġrelative",
        -9.06814796546428
      ],
      [
        "Ġbreak",
        -9.068448914935605
      ],
      [
        "Ġtraditional",
        -9.068459220369508
      ],
      [
        "Ġchoose",
        -9.069964036452772
      ],
      [
        "Ġsetting",
        -9.07146284686263
      ],
      [
        "Ġserve",
        -9.072286019405468
      ],
      [
        "Ġeasily",
        -9.07289693951222
      ],
      [
        "Ġdescribe",
        -9.07512504506458
      ],
      [
        "Ġthroughout",
        -9.075252637660284
      ],
      [
        "Ġgot",
        -9.07635637929073
      ],
      [
        "âĢ¦",
        -9.079169098716678
      ],
      [
        "Ġwinter",
        -9.08355509386972
      ],
      [
        "Ġmix",
        -9.08491617684223
      ],
      [
        "Ġtask",
        -9.088044960356315
      ],
      [
        "Ġglass",
        -9.090340047460224
      ],
      [
        "Ġmonitor",
        -9.091266895683615
      ],
      [
        "Ġrelated",
        -9.091776400777285
      ],
      [
        "Ġetc",
        -9.092155174874694
      ],
      [
        "ism",
        -9.092403160481677
      ],
      [
        "Ġact",
        -9.092492676971643
      ],
      [
        "ĠCan",
        -9.092933137575118
      ],
      [
        "Ġothers",
        -9.094547643186374
      ],
      [
        "Ġcode",
        -9.094797810761872
      ],
      [
        "Ġthough",
        -9.095025575970766
      ],
      [
        "Ġplayer",
        -9.096684642479424
      ],
      [
        "-base",
        -9.097240596037466
      ],
      [
        "ĠWhil",
        -9.097242020484927
      ],
      [
        "Ġb",
        -9.097982155883065
      ],
      [
        "Ġengine",
        -9.099036529428474
      ],
      [
        "Ġaddress",
        -9.099530160246127
      ],
      [
        "Ġmodern",
        -9.10131908814256
      ],
      [
        "Ġelements",
        -9.10506523461066
      ],
      [
        "Ġlimit",
        -9.105109829291544
      ],
      [
        "Ġmultiple",
        -9.105658125940716
      ],
      [
        "Ġwaste",
        -9.106341775550224
      ],
      [
        "Ġstatement",
        -9.107914863491096
      ],
      [
        "Ġoutside",
        -9.108055833769214
      ],
      [
        "Ġvisit",
        -9.108561474208994
      ],
      [
        "Ġwall",
        -9.109676497396435
      ],
      [
        "Ġactive",
        -9.110461091805394
      ],
      [
        "Ġrelationship",
        -9.11186763856398
      ],
      [
        "Ġprobabl",
        -9.117122086740372
      ],
      [
        "Ġprimary",
        -9.119521928601213
      ],
      [
        "mm",
        -9.12056152113755
      ],
      [
        "where",
        -9.12096317539254
      ],
      [
        "Ġsoftware",
        -9.121097079718323
      ],
      [
        "Ġrelease",
        -9.121356583456384
      ],
      [
        "Ġlength",
        -9.121865360100507
      ],
      [
        "Ġbad",
        -9.124083844413786
      ],
      [
        "ĠDr",
        -9.124383598229889
      ],
      [
        "ĠAt",
        -9.12514726272796
      ],
      [
        "Ġtechniques",
        -9.126968263757233
      ],
      [
        "Ġfeed",
        -9.1277195058001
      ],
      [
        "im",
        -9.127944879331109
      ],
      [
        "Ġincreasing",
        -9.12804200582573
      ],
      [
        "if",
        -9.129158639644304
      ],
      [
        "Ġfire",
        -9.131376385078353
      ],
      [
        "Ġoriginal",
        -9.13139084842949
      ],
      [
        "Ġdaily",
        -9.131916293143444
      ],
      [
        "Ġsubject",
        -9.133656914971857
      ],
      [
        "Ġcamera",
        -9.134180960020824
      ],
      [
        "Ġpractice",
        -9.134697919002647
      ],
      [
        "Ġever",
        -9.13601079181355
      ],
      [
        "J",
        -9.136898998805908
      ],
      [
        "Ġeyes",
        -9.137529860359592
      ],
      [
        "Ġexplore",
        -9.137624763566226
      ],
      [
        "Ġbirds",
        -9.137980749477398
      ],
      [
        "Ġregard",
        -9.138170579652568
      ],
      [
        "ence",
        -9.139246394679278
      ],
      [
        "Ġwebsite",
        -9.13975156242956
      ],
      [
        "Ġgenetic",
        -9.140951970658511
      ],
      [
        "Ġexpert",
        -9.141312843340565
      ],
      [
        "Ġice",
        -9.141790911564952
      ],
      [
        "Ġtotal",
        -9.142252096365416
      ],
      [
        "Ġequipment",
        -9.142927104162894
      ],
      [
        "Ġart",
        -9.143585274365703
      ],
      [
        "Ġexplain",
        -9.145152657222614
      ],
      [
        "Ġfeet",
        -9.145160227080371
      ],
      [
        "Ġcountry",
        -9.145798490954537
      ],
      [
        "Ġattention",
        -9.146209366912636
      ],
      [
        "Ġsensor",
        -9.147324846929315
      ],
      [
        "ĠHere",
        -9.147992348918832
      ],
      [
        "Ġextreme",
        -9.149211588603062
      ],
      [
        "ĠEarth",
        -9.149444312386722
      ],
      [
        "no",
        -9.15079409149605
      ],
      [
        "ĠOn",
        -9.150988165434896
      ],
      [
        "Ġrat",
        -9.15199815818443
      ],
      [
        "Ġslow",
        -9.153118536060404
      ],
      [
        "Ġbreed",
        -9.153751931193176
      ],
      [
        "simply",
        -9.155075570539996
      ],
      [
        "Ġquestions",
        -9.155230359909895
      ],
      [
        "Ġacid",
        -9.157062322751935
      ],
      [
        "As",
        -9.158082959899412
      ],
      [
        "ĠNational",
        -9.158083724098049
      ],
      [
        "Ġhelps",
        -9.15850883839081
      ],
      [
        "Ġachieve",
        -9.15946232623621
      ],
      [
        "Ġweather",
        -9.159561052364577
      ],
      [
        "Ġregular",
        -9.161486111299542
      ],
      [
        "Ġsite",
        -9.162081274011586
      ],
      [
        "Ġspread",
        -9.166668590295377
      ],
      [
        "Ġdigital",
        -9.168543034740878
      ],
      [
        "Ġblue",
        -9.168696652258536
      ],
      [
        "Ġsleep",
        -9.171105847452624
      ],
      [
        "Ġreduc",
        -9.172174893620472
      ],
      [
        "co",
        -9.172340145494928
      ],
      [
        "Ġrepresent",
        -9.172611954686351
      ],
      [
        "\\",
        -9.173999924842288
      ],
      [
        "Ġmilk",
        -9.17782145135278
      ],
      [
        "Ġam",
        -9.178535547701122
      ],
      [
        "Ġfast",
        -9.1841870544803
      ],
      [
        "Why",
        -9.18433215618851
      ],
      [
        "Ġbaby",
        -9.186391786565324
      ],
      [
        "Ġanalysis",
        -9.186633054530496
      ],
      [
        "Ġyet",
        -9.188102180488675
      ],
      [
        "Ġexercise",
        -9.189128391118665
      ],
      [
        "Ġrock",
        -9.190421008921016
      ],
      [
        "Ġtissue",
        -9.191331849641642
      ],
      [
        "ul",
        -9.191432643604806
      ],
      [
        "Ġidentify",
        -9.193414584791888
      ],
      [
        "Ġprevious",
        -9.193414617632294
      ],
      [
        "Ġadditional",
        -9.19352272441871
      ],
      [
        "Ġgain",
        -9.195136709619712
      ],
      [
        "Ġthemsel",
        -9.198859917814936
      ],
      [
        "Ġhold",
        -9.199005228123902
      ],
      [
        "Ġcenter",
        -9.1993080391547
      ],
      [
        "Ġbrand",
        -9.199380536963751
      ],
      [
        "Ġanything",
        -9.200990674920996
      ],
      [
        "Ġhalf",
        -9.20358271229306
      ],
      [
        "Ġorganization",
        -9.2046668873161
      ],
      [
        "Ġsummer",
        -9.20782572468028
      ],
      [
        "Ġfive",
        -9.208138822629143
      ],
      [
        "Ġconcept",
        -9.209678753158665
      ],
      [
        "Ġteeth",
        -9.20971072425112
      ],
      [
        "Ġsometime",
        -9.21005055502858
      ],
      [
        "Ġdrive",
        -9.210121026004067
      ],
      [
        "ĠDe",
        -9.210353360690682
      ],
      [
        "Ġcustomer",
        -9.211667439331505
      ],
      [
        "Ġdecision",
        -9.213063145630688
      ],
      [
        "ized",
        -9.216260178670517
      ],
      [
        "quite",
        -9.216282541002233
      ],
      [
        "Ġoutput",
        -9.216385189743022
      ],
      [
        "ill",
        -9.21671168249895
      ],
      [
        "Ġtool",
        -9.216980540382462
      ],
      [
        "Ġlater",
        -9.218426756046911
      ],
      [
        "Ġago",
        -9.219678822832996
      ],
      [
        "Ġguide",
        -9.222112064862465
      ],
      [
        "Ġphase",
        -9.222235877296889
      ],
      [
        "Ġbird",
        -9.224418360783057
      ],
      [
        "Ġreading",
        -9.2244596343989
      ],
      [
        "Ġstudent",
        -9.22451505205041
      ],
      [
        "ier",
        -9.224688021981615
      ],
      [
        "Ġco",
        -9.227593391412316
      ],
      [
        "ĠAll",
        -9.228006687194622
      ],
      [
        "Ġexact",
        -9.22840975471988
      ],
      [
        "Ġfun",
        -9.229329890043392
      ],
      [
        "Ġfile",
        -9.232552335194129
      ],
      [
        "Ġfactor",
        -9.23329252305444
      ],
      [
        ">",
        -9.234211465282124
      ],
      [
        "Ġchoice",
        -9.234880098477657
      ],
      [
        "Ġhot",
        -9.238888640349796
      ],
      [
        "ĠX",
        -9.2401056678059
      ],
      [
        "Ġadvantage",
        -9.241078253050286
      ],
      [
        "Ġmass",
        -9.242065143946164
      ],
      [
        "Ġgenerate",
        -9.245696775989394
      ],
      [
        "Ġsuccessful",
        -9.250286770643996
      ],
      [
        "DNA",
        -9.250451858693058
      ],
      [
        "Ġbank",
        -9.25070983342506
      ],
      [
        "Ġnegative",
        -9.251047265270827
      ],
      [
        "ver",
        -9.25121054834142
      ],
      [
        "Ġwon",
        -9.25302977899582
      ],
      [
        "Ġfemale",
        -9.253403838511383
      ],
      [
        "Ġpass",
        -9.254477207222346
      ],
      [
        "Ġvehicle",
        -9.25650496467116
      ],
      [
        "Ġtravel",
        -9.25692520969625
      ],
      [
        "ber",
        -9.257163833216548
      ],
      [
        "Ġfresh",
        -9.257632468447252
      ],
      [
        "One",
        -9.257795706679062
      ],
      [
        "Ġnight",
        -9.25798622134776
      ],
      [
        "Ġcaus",
        -9.25807951246135
      ],
      [
        ".S",
        -9.26169730083934
      ],
      [
        "Ġhear",
        -9.261774771176997
      ],
      [
        "Ġisn",
        -9.26384336992444
      ],
      [
        "Ġman",
        -9.265088236914496
      ],
      [
        "Ġocean",
        -9.26511313493427
      ],
      [
        "Ġservices",
        -9.265681717379689
      ],
      [
        "Ġspring",
        -9.266943730102897
      ],
      [
        "ĠSt",
        -9.267501352083654
      ],
      [
        "Ġdirection",
        -9.267796556045072
      ],
      [
        "Ġtable",
        -9.269105044920206
      ],
      [
        "Ġdistance",
        -9.269232772580647
      ],
      [
        "un",
        -9.269247482506136
      ],
      [
        "=",
        -9.269748778753865
      ],
      [
        "ĠAfter",
        -9.269821051653576
      ],
      [
        "Ġfinal",
        -9.27104719574836
      ],
      [
        "ible",
        -9.272243346396747
      ],
      [
        "X",
        -9.273206197802343
      ],
      [
        "ĠJapan",
        -9.273259127257052
      ],
      [
        "Ġappropriate",
        -9.273525914627209
      ],
      [
        "ĠHealth",
        -9.273918742983344
      ],
      [
        "Ġtarget",
        -9.274735926196616
      ],
      [
        "per",
        -9.27618757132985
      ],
      [
        "Ġconcern",
        -9.277234932080564
      ],
      [
        "Ġiron",
        -9.277688852119535
      ],
      [
        "ĠStates",
        -9.277949092133838
      ],
      [
        "Ġdidn",
        -9.279127415003718
      ],
      [
        "Ġextra",
        -9.279424020344416
      ],
      [
        "Ġboard",
        -9.282255607916102
      ],
      [
        "Ġcountr",
        -9.2852526831613
      ],
      [
        "Ġefficient",
        -9.28536632560327
      ],
      [
        "ĠShe",
        -9.286063242080788
      ],
      [
        "Ġapplications",
        -9.286600413690682
      ],
      [
        "Ġapplication",
        -9.287986646891124
      ],
      [
        "over",
        -9.289163273392584
      ],
      [
        "ĠâĢľ",
        -9.28937444812248
      ],
      [
        "Ġcommunication",
        -9.289692508595936
      ],
      [
        "Ġdrink",
        -9.290464953342529
      ],
      [
        "Ġcircuit",
        -9.291351426663402
      ],
      [
        "Ġdisplay",
        -9.291538208669897
      ],
      [
        "me",
        -9.29175409106664
      ],
      [
        "gan",
        -9.292377712383528
      ],
      [
        "Ġfill",
        -9.293694093606408
      ],
      [
        "ization",
        -9.29836169461198
      ],
      [
        "Ġfront",
        -9.2985136571756
      ],
      [
        "Ġconstant",
        -9.29953718074372
      ],
      [
        "Ġconduct",
        -9.300871578597263
      ],
      [
        "Be",
        -9.301389323495364
      ],
      [
        "Ġsub",
        -9.302184690941854
      ],
      [
        "cy",
        -9.303342770782074
      ],
      [
        "Ġcompar",
        -9.30380473780076
      ],
      [
        "Ġleg",
        -9.304018779147302
      ],
      [
        "[",
        -9.306649175362782
      ],
      [
        "Ġdoctor",
        -9.306937306528583
      ],
      [
        "Ġ+",
        -9.307052460226052
      ],
      [
        "fish",
        -9.307754688586874
      ],
      [
        "iv",
        -9.30798723915084
      ],
      [
        "Ġgovernment",
        -9.308754565983431
      ],
      [
        "Ġbacteria",
        -9.308807312428277
      ],
      [
        "ĠCo",
        -9.309993749140911
      ],
      [
        "Ġpage",
        -9.310008758045552
      ],
      [
        "Ġequal",
        -9.310482514723368
      ],
      [
        "Ġaccount",
        -9.310567470126106
      ],
      [
        "ĠAI",
        -9.310673375934332
      ],
      [
        "Ġharm",
        -9.31114607168481
      ],
      [
        "Ġinfluence",
        -9.312661961866516
      ],
      [
        "Ġblock",
        -9.3129302586287
      ],
      [
        "ĠUS",
        -9.313720692661049
      ],
      [
        "Ġapplie",
        -9.314518174949946
      ],
      [
        "Ġload",
        -9.316103796460926
      ],
      [
        "Ġtrue",
        -9.31669057554873
      ],
      [
        "line",
        -9.31790324706383
      ],
      [
        "Ġreaction",
        -9.318445689947335
      ],
      [
        "Ġwords",
        -9.320677075064827
      ],
      [
        "Ġfriend",
        -9.322160223311334
      ],
      [
        "Ġdur",
        -9.323639026362248
      ],
      [
        "Ġmeet",
        -9.32374946674219
      ],
      [
        "Ġliquid",
        -9.323830766866624
      ],
      [
        "Ġestablish",
        -9.323858022707157
      ],
      [
        "Ġcomponents",
        -9.32407940448504
      ],
      [
        "Ġrice",
        -9.324313199346602
      ],
      [
        "Ġfine",
        -9.324888638681117
      ],
      [
        "Ġrest",
        -9.325117334425828
      ],
      [
        "Ġteacher",
        -9.325654055322564
      ],
      [
        "Ġindicate",
        -9.328528876608935
      ],
      [
        "Ġreview",
        -9.328729177514422
      ],
      [
        "Ġsustainabl",
        -9.32898948327949
      ],
      [
        "light",
        -9.330558068320665
      ],
      [
        "Ġdark",
        -9.331413554335434
      ],
      [
        "Ġeasie",
        -9.333296199875972
      ],
      [
        "Ġnoise",
        -9.333310107521758
      ],
      [
        "Ġdiscuss",
        -9.334668750977038
      ],
      [
        "Ġprocesse",
        -9.335680123786322
      ],
      [
        "Ġapply",
        -9.336103799836328
      ],
      [
        "ng",
        -9.336182276420878
      ],
      [
        "of",
        -9.337826124941202
      ],
      [
        "Ġpromote",
        -9.337899310502737
      ],
      [
        "go",
        -9.341719033793584
      ],
      [
        "Ġcarry",
        -9.341876469765676
      ],
      [
        "Ġchance",
        -9.342872596568771
      ],
      [
        "Ġsolar",
        -9.343177144011632
      ],
      [
        "Ġkids",
        -9.343246802936305
      ],
      [
        "Ġbox",
        -9.343689929226755
      ],
      [
        "An",
        -9.34388951674741
      ],
      [
        "Ġhole",
        -9.34665781689424
      ],
      [
        "Ġevidence",
        -9.346732122375496
      ],
      [
        "Ġnotice",
        -9.347951441440152
      ],
      [
        "Ġdiseases",
        -9.348004485375364
      ],
      [
        "Ġfix",
        -9.348486008733872
      ],
      [
        "Ġoccur",
        -9.348831392067016
      ],
      [
        "Ġcharge",
        -9.349438034466887
      ],
      [
        "Ġproduced",
        -9.349830283975685
      ],
      [
        "ĠMore",
        -9.350536645824151
      ],
      [
        "Ġsuccess",
        -9.351836369791307
      ],
      [
        "Ġserious",
        -9.3525303844617
      ],
      [
        "Ġmoment",
        -9.35265016774218
      ],
      [
        "Ġlink",
        -9.352935761705137
      ],
      [
        "ĠNorth",
        -9.353536879503256
      ],
      [
        "Ġwind",
        -9.354668056843668
      ],
      [
        "Ġmembers",
        -9.35519738090818
      ],
      [
        "Ġsave",
        -9.35703113100233
      ],
      [
        "Ġwatch",
        -9.358131970078588
      ],
      [
        "Ġlack",
        -9.36037858368092
      ],
      [
        "Ġvisual",
        -9.360571641796314
      ],
      [
        "Ġmale",
        -9.360699447777415
      ],
      [
        "Ġanti",
        -9.360741038207504
      ],
      [
        "Ġwave",
        -9.36255566596944
      ],
      [
        "side",
        -9.36352061601221
      ],
      [
        "Ġattack",
        -9.363826290211744
      ],
      [
        "Ġmedia",
        -9.364099097889175
      ],
      [
        "Ġsupply",
        -9.366868386963551
      ],
      [
        "âĢĿ",
        -9.367631113920575
      ],
      [
        "ĠGo",
        -9.367747334484967
      ],
      [
        "Their",
        -9.368167314492908
      ],
      [
        "ha",
        -9.369215812370072
      ],
      [
        "for",
        -9.36982439987991
      ],
      [
        "But",
        -9.36995518662835
      ],
      [
        "Ġmonth",
        -9.370397017340125
      ],
      [
        "Ġfeature",
        -9.370694334851152
      ],
      [
        "Ġrunning",
        -9.37114398780638
      ],
      [
        "Ġexperiment",
        -9.372546133898828
      ],
      [
        "Ġfat",
        -9.373100547688791
      ],
      [
        "Â°",
        -9.37414626422571
      ],
      [
        "Ġstem",
        -9.374419025122142
      ],
      [
        "Ġmental",
        -9.374693279462711
      ],
      [
        "Ġstyle",
        -9.376204661798711
      ],
      [
        "ĠYes",
        -9.377950770572935
      ],
      [
        "Ġpest",
        -9.378883976539882
      ],
      [
        "Ġlocation",
        -9.379433704946909
      ],
      [
        "Ġfilter",
        -9.382117886723549
      ],
      [
        "Ġalternative",
        -9.3821482978437
      ],
      [
        "Ġeggs",
        -9.383638121430447
      ],
      [
        "Ġelse",
        -9.386130096080176
      ],
      [
        "Ġstand",
        -9.387459774257248
      ],
      [
        "Ġword",
        -9.387805263383552
      ],
      [
        "Ġaspect",
        -9.388162460317332
      ],
      [
        "lu",
        -9.390016026486444
      ],
      [
        "Ġpoor",
        -9.390307874213155
      ],
      [
        "Ġdeal",
        -9.390469608823672
      ],
      [
        "Ġpiece",
        -9.391803859156203
      ],
      [
        "Ġpick",
        -9.392161932444193
      ],
      [
        "Ġextend",
        -9.392178440325774
      ],
      [
        "Ġculture",
        -9.392519282934003
      ],
      [
        "Ġfoot",
        -9.392834542675468
      ],
      [
        "life",
        -9.393985664654046
      ],
      [
        "ical",
        -9.3942011459327
      ],
      [
        "ĠSouth",
        -9.395404921745913
      ],
      [
        "Ġpull",
        -9.396234610238928
      ],
      [
        "Ġcontribute",
        -9.397071588444591
      ],
      [
        "ĠUse",
        -9.397264223670769
      ],
      [
        "Ġbuilt",
        -9.397654215051285
      ],
      [
        "Ġmuscle",
        -9.398480083610105
      ],
      [
        "Ġoperation",
        -9.398707786835155
      ],
      [
        "ĠOr",
        -9.399719684619486
      ],
      [
        "ĠCenter",
        -9.401848216976903
      ],
      [
        "Ġlives",
        -9.402788279121328
      ],
      [
        "Ġmusic",
        -9.40424765461671
      ],
      [
        "Ġstrength",
        -9.404583971233246
      ],
      [
        "Ġmanage",
        -9.404663216078848
      ],
      [
        "Ġcompare",
        -9.405667627655248
      ],
      [
        "ese",
        -9.405827121173672
      ],
      [
        "Ġcombination",
        -9.406625308070147
      ],
      [
        "more",
        -9.406917379774766
      ],
      [
        "Ġpropert",
        -9.406979129890372
      ],
      [
        "Ġvision",
        -9.407077048851662
      ],
      [
        "Ġroot",
        -9.407456626485722
      ],
      [
        "ather",
        -9.408205464137245
      ],
      [
        "Ġsmooth",
        -9.408476837688385
      ],
      [
        "wa",
        -9.409202664282876
      ],
      [
        "Ġcount",
        -9.409935153977823
      ],
      [
        "$",
        -9.411368518668231
      ],
      [
        "Ġbag",
        -9.41272012083015
      ],
      [
        "Ġaim",
        -9.412855770886994
      ],
      [
        "Ġimmun",
        -9.414006993941976
      ],
      [
        "Ġideal",
        -9.414429668029427
      ],
      [
        "ĠResearch",
        -9.414481500190307
      ],
      [
        "Ġparticle",
        -9.418452653927018
      ],
      [
        "Ġraise",
        -9.420290053798118
      ],
      [
        "Ġgreater",
        -9.421665833301075
      ],
      [
        "Ġscientific",
        -9.422282492212698
      ],
      [
        "op",
        -9.422341134534182
      ],
      [
        "Ġvitamin",
        -9.42372315712749
      ],
      [
        "ĠAmerica",
        -9.424262862089714
      ],
      [
        "Whil",
        -9.424348870656884
      ],
      [
        ".\"",
        -9.4245131085367
      ],
      [
        "Ġstory",
        -9.425170178589532
      ],
      [
        "Ġtaste",
        -9.425519154266718
      ],
      [
        "Ġspot",
        -9.42623560338783
      ],
      [
        "Ġdetect",
        -9.42683012872024
      ],
      [
        "Ġeating",
        -9.427165155945191
      ],
      [
        "With",
        -9.428647603176485
      ],
      [
        "Ġconsist",
        -9.429125862173128
      ],
      [
        "Ġjob",
        -9.42925341540204
      ],
      [
        "Ġgoe",
        -9.429657320152806
      ],
      [
        "Ġhair",
        -9.42967627468104
      ],
      [
        "Ġsearch",
        -9.431389159079352
      ],
      [
        "Ġenter",
        -9.43149930904146
      ],
      [
        "Can",
        -9.432443112033631
      ],
      [
        "-to",
        -9.432705282861882
      ],
      [
        "Ġlate",
        -9.433730497307751
      ],
      [
        "Ġsoft",
        -9.435357257673196
      ],
      [
        "Ġelectrical",
        -9.435359361264524
      ],
      [
        "Ġmechanism",
        -9.43557274985881
      ],
      [
        "Ġworks",
        -9.435952336882648
      ],
      [
        "Ġtransport",
        -9.437698843508011
      ],
      [
        "Ġshows",
        -9.437850438098636
      ],
      [
        "Ġgoal",
        -9.439530771616496
      ],
      [
        "Ġclaim",
        -9.439729453682515
      ],
      [
        "Ġdeath",
        -9.439906865975644
      ],
      [
        "Ġplanet",
        -9.439920899785598
      ],
      [
        "Ġball",
        -9.440465148743732
      ],
      [
        "Ġinstall",
        -9.441228832073396
      ],
      [
        "Ġemission",
        -9.44141379982752
      ],
      [
        "Ġcompound",
        -9.44193023935864
      ],
      [
        "Ġhost",
        -9.442717868177796
      ],
      [
        "Ġwood",
        -9.443186400938572
      ],
      [
        "ard",
        -9.443946088547172
      ],
      [
        "companie",
        -9.444046321243572
      ],
      [
        "ke",
        -9.444155762343971
      ],
      [
        "ial",
        -9.445598781664597
      ],
      [
        "ĠFrom",
        -9.445633932185988
      ],
      [
        "Ġcritical",
        -9.449556379357768
      ],
      [
        "Ġhope",
        -9.450544005953953
      ],
      [
        "Ġdecrease",
        -9.450581403996733
      ],
      [
        "Each",
        -9.450842576951729
      ],
      [
        "Ġcharacter",
        -9.450953121246089
      ],
      [
        "Ġflavor",
        -9.451163353208862
      ],
      [
        "Ġphone",
        -9.45121498071774
      ],
      [
        "Ġensur",
        -9.45163316504291
      ],
      [
        "Ġelement",
        -9.452478327323869
      ],
      [
        "Ġnumbers",
        -9.452716683965056
      ],
      [
        "Ġscale",
        -9.453233242285396
      ],
      [
        "Ġuseful",
        -9.455258293586226
      ],
      [
        "end",
        -9.455268227185538
      ],
      [
        "tenance",
        -9.456268787891076
      ],
      [
        "Ġcharacteristic",
        -9.457582958731734
      ],
      [
        "Ġvegetables",
        -9.457840839380758
      ],
      [
        "ating",
        -9.459042981603355
      ],
      [
        "ru",
        -9.459743335021365
      ],
      [
        "Ġinvolved",
        -9.460529102642736
      ],
      [
        "Ġslight",
        -9.460872738304518
      ],
      [
        "Ġsix",
        -9.46176235160872
      ],
      [
        "Ġsign",
        -9.46262152187924
      ],
      [
        "Ġbottom",
        -9.46622574336468
      ],
      [
        "Ġimmediate",
        -9.46622574937941
      ],
      [
        "ĠMost",
        -9.466359879627165
      ],
      [
        "ĠScience",
        -9.466618525482252
      ],
      [
        "Ġtend",
        -9.46831890760378
      ],
      [
        "Ġmeat",
        -9.469166017116953
      ],
      [
        "Ġcontainer",
        -9.46949542950582
      ],
      [
        "Ġrefer",
        -9.470549382452322
      ],
      [
        "Ġrequirements",
        -9.470760605818612
      ],
      [
        "Ġdraw",
        -9.471465165751802
      ],
      [
        "ca",
        -9.471740573578424
      ],
      [
        "Ġgeneration",
        -9.471740997650432
      ],
      [
        "Ġexpect",
        -9.472085329869143
      ],
      [
        "Ġburn",
        -9.472312843891972
      ],
      [
        "ï¿½",
        -9.473785309212246
      ],
      [
        "Ġdisorder",
        -9.474339478034096
      ],
      [
        "Ġpair",
        -9.474777655727166
      ],
      [
        "ĠMany",
        -9.477189792048613
      ],
      [
        "Ġcollect",
        -9.47795025741743
      ],
      [
        "Ġscreen",
        -9.478520067583354
      ],
      [
        "Ġcrop",
        -9.479996769225965
      ],
      [
        "Ġaccurate",
        -9.480936912464212
      ],
      [
        "Q",
        -9.481319868675444
      ],
      [
        "ize",
        -9.481398881367657
      ],
      [
        "Ġcycle",
        -9.481449053464958
      ],
      [
        "Ġversion",
        -9.481658811248067
      ],
      [
        "Ġcolors",
        -9.48277163228484
      ],
      [
        "Ġerror",
        -9.48315028985212
      ],
      [
        "Ġmulti",
        -9.484809522470751
      ],
      [
        "Ġoxygen",
        -9.485183015535505
      ],
      [
        "Ġnote",
        -9.485267494222876
      ],
      [
        "Ġvary",
        -9.485506524223045
      ],
      [
        "ĠWho",
        -9.486270395636652
      ],
      [
        "Ġconsumpti",
        -9.486536721532335
      ],
      [
        "Ġrich",
        -9.487585989401158
      ],
      [
        "Ġfoods",
        -9.487632305570862
      ],
      [
        "Ġmoving",
        -9.48827409011151
      ],
      [
        "Ġseparate",
        -9.488330877495
      ],
      [
        "Ġadjust",
        -9.488516928474262
      ],
      [
        "Ġinitial",
        -9.490347770554164
      ],
      [
        "Ġhandle",
        -9.490390915328891
      ],
      [
        "Al",
        -9.490523579292727
      ],
      [
        "tro",
        -9.490646252980202
      ],
      [
        "ĠAdditional",
        -9.492751222597494
      ],
      [
        "ture",
        -9.494014464639138
      ],
      [
        "ĠSchool",
        -9.494582334853945
      ],
      [
        "Ġsigns",
        -9.497615481894336
      ],
      [
        "Ġtips",
        -9.499143022688072
      ],
      [
        "Ġsteps",
        -9.499531800081396
      ],
      [
        "Ġalcohol",
        -9.5015537982356
      ],
      [
        "Ġmeal",
        -9.503263731369405
      ],
      [
        "Ġfloor",
        -9.506060096094716
      ],
      [
        "Ġfeeling",
        -9.506367452402037
      ],
      [
        "Ġtank",
        -9.50711898332935
      ],
      [
        "he",
        -9.507181474120792
      ],
      [
        "Ġcats",
        -9.507525222844148
      ],
      [
        "Ġinstruction",
        -9.5080902390391
      ],
      [
        "ĠWorld",
        -9.509301884785213
      ],
      [
        "Ġresponsibl",
        -9.50946586874949
      ],
      [
        "Ġvariable",
        -9.510097646628466
      ],
      [
        "Ġlandscape",
        -9.51013828155191
      ],
      [
        "time",
        -9.511022009540037
      ],
      [
        "Ġinteresting",
        -9.511094018761291
      ],
      [
        "Ġforest",
        -9.511269304129874
      ],
      [
        "Ġfrequent",
        -9.51236481972279
      ],
      [
        "Z",
        -9.51322051947241
      ],
      [
        "Ġtouch",
        -9.513888633887802
      ],
      [
        "Ġsection",
        -9.513981859958752
      ],
      [
        "Ġcity",
        -9.515238064811513
      ],
      [
        "Ġestimate",
        -9.515789831039578
      ],
      [
        "Ġsevere",
        -9.517011956351826
      ],
      [
        "Ġdate",
        -9.518850000928
      ],
      [
        "Ġresistance",
        -9.519297017533898
      ],
      [
        "Ġheavy",
        -9.520544964243772
      ],
      [
        "Ġencourage",
        -9.520840979780695
      ],
      [
        "Ġlaw",
        -9.521078094830008
      ],
      [
        "Ġrise",
        -9.523153883393448
      ],
      [
        "Ġmeasurement",
        -9.524602171117614
      ],
      [
        "Ġcap",
        -9.52497461081838
      ],
      [
        "Ġprett",
        -9.526195703451574
      ],
      [
        "Ġmotor",
        -9.52699397437078
      ],
      [
        "itis",
        -9.527340400096652
      ],
      [
        "Ġprotection",
        -9.527662610237163
      ],
      [
        "Re",
        -9.527741490744503
      ],
      [
        "Ġcareful",
        -9.528144026956692
      ],
      [
        "Ġcame",
        -9.5283976935843
      ],
      [
        "ĠNow",
        -9.52945934253753
      ],
      [
        "ĠLa",
        -9.529886117842274
      ],
      [
        "Ġefficienc",
        -9.530717917763347
      ],
      [
        "Ġwire",
        -9.532208929542904
      ],
      [
        "li",
        -9.53233762230109
      ],
      [
        "Ġrepair",
        -9.535444604183835
      ],
      [
        "Ġpath",
        -9.538737501236998
      ],
      [
        "ification",
        -9.538826184020463
      ],
      [
        "Ġpoints",
        -9.538964001571976
      ],
      [
        "hi",
        -9.539043722882855
      ],
      [
        "Ġfigure",
        -9.54041991187286
      ],
      [
        "Ġbar",
        -9.541377016151497
      ],
      [
        "Ġvolume",
        -9.54196365496134
      ],
      [
        "Ġpublished",
        -9.542384817429031
      ],
      [
        "Ġpush",
        -9.54250449490835
      ],
      [
        "ĠMy",
        -9.544157544714151
      ],
      [
        "Ġstick",
        -9.545349920205563
      ],
      [
        "Ġadapt",
        -9.546384332833444
      ],
      [
        "ium",
        -9.548246103546171
      ],
      [
        "Ġyellow",
        -9.548381606574903
      ],
      [
        "Ġenable",
        -9.549046644143594
      ],
      [
        "Ġwait",
        -9.549552080709052
      ],
      [
        "Ġaccept",
        -9.551477523874272
      ],
      [
        "-term",
        -9.552137120525394
      ],
      [
        "Ġconstruction",
        -9.552229982630845
      ],
      [
        "Ġnutrients",
        -9.55227588371974
      ],
      [
        "ĠWhy",
        -9.552501087792155
      ],
      [
        "Ġarm",
        -9.55250659957512
      ],
      [
        "Ġimplement",
        -9.55375892654812
      ],
      [
        "Ġstorage",
        -9.554566926168768
      ],
      [
        "Ġsituation",
        -9.55655518090819
      ],
      [
        "ure",
        -9.557345994235805
      ],
      [
        "ĠCon",
        -9.55812555320588
      ],
      [
        "Ġmessage",
        -9.55949951257634
      ],
      [
        "Ġdeveloping",
        -9.559925201590245
      ],
      [
        "therapy",
        -9.56070609149089
      ],
      [
        "By",
        -9.5608381502703
      ],
      [
        "Ġingredients",
        -9.562194054003395
      ],
      [
        "Ġphoto",
        -9.562408170161298
      ],
      [
        "Ġnothing",
        -9.563167795788058
      ],
      [
        "Ġsteel",
        -9.563841169370471
      ],
      [
        "ĠOf",
        -9.564583400298554
      ],
      [
        "Ġideas",
        -9.565372315302984
      ],
      [
        "Ġseeds",
        -9.565683762977816
      ],
      [
        "lost",
        -9.56588805915353
      ],
      [
        "Ġremember",
        -9.56624207380282
      ],
      [
        "Ġinstance",
        -9.566252560402924
      ],
      [
        "ated",
        -9.567850597349416
      ],
      [
        "Ġpractices",
        -9.568061162095573
      ],
      [
        "Ġfilm",
        -9.568660326189825
      ],
      [
        "Ġangle",
        -9.569088687460246
      ],
      [
        "Ġtechnique",
        -9.569089751631129
      ],
      [
        "Ġenhance",
        -9.56926994325221
      ],
      [
        "care",
        -9.569621262708427
      ],
      [
        "Ġexcellent",
        -9.56983279766975
      ],
      [
        "Ġready",
        -9.56998864765676
      ],
      [
        "ĠNot",
        -9.570400721808578
      ],
      [
        "Ġseek",
        -9.570478838937833
      ],
      [
        "Ġimportan",
        -9.570684788285632
      ],
      [
        "}",
        -9.571497867061897
      ],
      [
        "Ġmen",
        -9.57182719627306
      ],
      [
        "Ġ--",
        -9.572612314829431
      ],
      [
        "Ġmedication",
        -9.57348841051556
      ],
      [
        "These",
        -9.574059132719476
      ],
      [
        "ĠOur",
        -9.574765213698324
      ],
      [
        "Ġwriting",
        -9.575277583550914
      ],
      [
        "Ġjourney",
        -9.575915582790586
      ],
      [
        "Ġdemand",
        -9.576310173909498
      ],
      [
        "Ġtrain",
        -9.577303613914168
      ],
      [
        "Ġserie",
        -9.577384987347893
      ],
      [
        "Ġframe",
        -9.577442309666417
      ],
      [
        "Ġfund",
        -9.578415311770254
      ],
      [
        "Ġpredict",
        -9.57877935567836
      ],
      [
        "Ġusers",
        -9.578830500575975
      ],
      [
        "And",
        -9.578910691320695
      ],
      [
        "Ġwonder",
        -9.580498858981244
      ],
      [
        "Ġrare",
        -9.58085966537693
      ],
      [
        "Ġadopt",
        -9.58339512603251
      ],
      [
        "Ġhearing",
        -9.587168747769644
      ],
      [
        "Ġpaint",
        -9.587628643149428
      ],
      [
        "iabetes",
        -9.588297493789302
      ],
      [
        "ide",
        -9.589166168040204
      ],
      [
        "Ġobtain",
        -9.590603730932374
      ],
      [
        "Ġseed",
        -9.59179571516131
      ],
      [
        "Ġwrong",
        -9.595548330831612
      ],
      [
        "Ġexposure",
        -9.595582839752064
      ],
      [
        "der",
        -9.596098325920568
      ],
      [
        "Ġkill",
        -9.596120280238733
      ],
      [
        "Ġbigge",
        -9.59709790899091
      ],
      [
        "Ġbeautiful",
        -9.598034711248236
      ],
      [
        "On",
        -9.598509409160716
      ],
      [
        "Ġchicken",
        -9.599056246456698
      ],
      [
        "Some",
        -9.60075064261406
      ],
      [
        "Ġprinciple",
        -9.601326747388145
      ],
      [
        "Do",
        -9.601657746840804
      ],
      [
        "ĠInstitute",
        -9.605510864539784
      ],
      [
        "Ġcoast",
        -9.606432681457912
      ],
      [
        "Ġforward",
        -9.607920847409227
      ],
      [
        "ĠBlack",
        -9.609469551149168
      ],
      [
        "Ġmeaning",
        -9.609834365320156
      ],
      [
        "Ġclick",
        -9.610536003312486
      ],
      [
        "Ġoutdoor",
        -9.610624732243014
      ],
      [
        "Ġswitch",
        -9.610837430190198
      ],
      [
        "Ġgiv",
        -9.612652308731686
      ],
      [
        "Ġfriends",
        -9.61304503205548
      ],
      [
        "Ġmagnetic",
        -9.61420578850144
      ],
      [
        "bi",
        -9.61439445515816
      ],
      [
        "Ġpurchase",
        -9.61439931925504
      ],
      [
        "Ġanyone",
        -9.614901502707406
      ],
      [
        "Ġpicture",
        -9.615975639915424
      ],
      [
        "ow",
        -9.616246938672711
      ],
      [
        "Ġearth",
        -9.617729933151276
      ],
      [
        "Pro",
        -9.617788543145233
      ],
      [
        "Ġconvert",
        -9.618066936295088
      ],
      [
        "Ġdefine",
        -9.61940051886076
      ],
      [
        "Ġcapacit",
        -9.621386046025863
      ],
      [
        "ĠMo",
        -9.622568416440137
      ],
      [
        "Ġsend",
        -9.622603415927555
      ],
      [
        "Ġled",
        -9.623717418306068
      ],
      [
        "Ġreasons",
        -9.623875652088367
      ],
      [
        "Ġsubstance",
        -9.624016421931996
      ],
      [
        "Ġheight",
        -9.625529413008923
      ],
      [
        "Ġmemor",
        -9.62672358158897
      ],
      [
        "Ġbrown",
        -9.626943391701737
      ],
      [
        "ĠPer",
        -9.62894762971742
      ],
      [
        "Ġsample",
        -9.629453100291038
      ],
      [
        "Ġmouth",
        -9.631737405843728
      ],
      [
        "Ġhit",
        -9.63238483774564
      ],
      [
        "ĠSystem",
        -9.63264963978919
      ],
      [
        "-up",
        -9.63339718339073
      ],
      [
        "low",
        -9.634051792458102
      ],
      [
        "ĠY",
        -9.634275388654174
      ],
      [
        "our",
        -9.63452211795548
      ],
      [
        "Ġsolid",
        -9.63541596621626
      ],
      [
        "Ġflight",
        -9.635794758445948
      ],
      [
        "Ġradio",
        -9.636060334005132
      ],
      [
        "Ġconsumer",
        -9.636523159105636
      ],
      [
        "Ġsuper",
        -9.637157260787518
      ],
      [
        "Ġreflect",
        -9.639192177314284
      ],
      [
        "Ġbone",
        -9.639453503571724
      ],
      [
        "Ġroad",
        -9.639856775209502
      ],
      [
        "Ġthousand",
        -9.641183390959387
      ],
      [
        "Ġhands",
        -9.641306311360877
      ],
      [
        "Ġinteraction",
        -9.641922513365516
      ],
      [
        "ĠPro",
        -9.642781818097564
      ],
      [
        "expensive",
        -9.64305930978335
      ],
      [
        "Ġcooking",
        -9.643280672301607
      ],
      [
        "Ġsort",
        -9.643937809426513
      ],
      [
        "way",
        -9.644080521852006
      ],
      [
        "thus",
        -9.645279309111496
      ],
      [
        "Ġdegrees",
        -9.64593126332409
      ],
      [
        "Ġmaximum",
        -9.646384954305349
      ],
      [
        "spite",
        -9.64666986626964
      ],
      [
        "Ġoccurs",
        -9.646920632641695
      ],
      [
        "Ġpowerful",
        -9.647382210606125
      ],
      [
        "j",
        -9.647439390188604
      ],
      [
        "ative",
        -9.6485213723498
      ],
      [
        "Ġthird",
        -9.648996011311109
      ],
      [
        "Ġidentifie",
        -9.64984755182967
      ],
      [
        "Ġcloth",
        -9.64998244705262
      ],
      [
        "tra",
        -9.650330670357832
      ],
      [
        "Ġtrack",
        -9.651691006876728
      ],
      [
        "Ġcoat",
        -9.65189190753152
      ],
      [
        "Ġfaster",
        -9.651929196417235
      ],
      [
        "Ġaid",
        -9.65233522515167
      ],
      [
        "Ġelectronic",
        -9.652437201150123
      ],
      [
        "Ġlegal",
        -9.652999019498823
      ],
      [
        "Ġcentury",
        -9.654239006036754
      ],
      [
        "Ġconnection",
        -9.654576707453977
      ],
      [
        "Ġfully",
        -9.654615807084832
      ],
      [
        "Ġmeter",
        -9.654843305551076
      ],
      [
        "ities",
        -9.659895950573311
      ],
      [
        "Ġwrite",
        -9.660024977830153
      ],
      [
        "Ġconnect",
        -9.660111234604468
      ],
      [
        "Ġcolour",
        -9.660876349399985
      ],
      [
        "Ġeconomic",
        -9.661808475285484
      ],
      [
        "Ġworth",
        -9.662791219609744
      ],
      [
        "ut",
        -9.663788990383942
      ],
      [
        "Ġfamilies",
        -9.66480651579612
      ],
      [
        "ship",
        -9.665594898591314
      ],
      [
        "Ġlocated",
        -9.667786011409856
      ],
      [
        "Ġdis",
        -9.66779775102174
      ],
      [
        "Ġsalt",
        -9.668097897288057
      ],
      [
        "ang",
        -9.668995157650407
      ],
      [
        "mp",
        -9.669571786090522
      ],
      [
        "vi",
        -9.669670373027552
      ],
      [
        "ĠNOT",
        -9.670035384298805
      ],
      [
        "Ġmotion",
        -9.67042465115659
      ],
      [
        "Ġcleaning",
        -9.670427266729169
      ],
      [
        "Ġsuit",
        -9.670616131469997
      ],
      [
        "ĠOther",
        -9.671674574505438
      ],
      [
        "Ġplatform",
        -9.672812479167728
      ],
      [
        "Ġdeliver",
        -9.673325864375762
      ],
      [
        "-in",
        -9.673408557895524
      ],
      [
        "ĠMe",
        -9.67427505380007
      ],
      [
        "Ġsell",
        -9.674672277712869
      ],
      [
        "Ġmatch",
        -9.675609860630086
      ],
      [
        "body",
        -9.676442745254176
      ],
      [
        "Ġvia",
        -9.6764977823624
      ],
      [
        "Ġpractical",
        -9.676587894801276
      ],
      [
        "Ġstone",
        -9.677573396163726
      ],
      [
        "Step",
        -9.677927444732555
      ],
      [
        "Ġfrequenc",
        -9.678090579562234
      ],
      [
        "Ġspend",
        -9.679025879289604
      ],
      [
        "Ġapp",
        -9.679279044021657
      ],
      [
        "Ġquick",
        -9.679831384930829
      ],
      [
        "water",
        -9.680068431295958
      ],
      [
        "Ġfair",
        -9.68088249544722
      ],
      [
        "Ġhuge",
        -9.681371644906676
      ],
      [
        "Ġpieces",
        -9.681375333749491
      ],
      [
        "Ġsaw",
        -9.68220539136894
      ],
      [
        "Ġreported",
        -9.682759368691835
      ],
      [
        "Ġround",
        -9.683302737033053
      ],
      [
        "Ġpump",
        -9.683489344807027
      ],
      [
        "Ġcross",
        -9.68418786711819
      ],
      [
        "Now",
        -9.68459925205012
      ],
      [
        "Ġpark",
        -9.684889961898945
      ],
      [
        "Ġbeyond",
        -9.689008273305667
      ],
      [
        "Ġmarine",
        -9.689059255590845
      ],
      [
        "Ġshift",
        -9.690086897981011
      ],
      [
        "Ġdivers",
        -9.6901181742392
      ],
      [
        "Ġgrass",
        -9.690402817272616
      ],
      [
        "Ġcutting",
        -9.690542315662816
      ],
      [
        "Ġ#",
        -9.690832080760329
      ],
      [
        "Ġshoe",
        -9.69172620277926
      ],
      [
        "About",
        -9.692158060269804
      ],
      [
        "ĠIndia",
        -9.692997760357198
      ],
      [
        "Ġfinish",
        -9.693348502405572
      ],
      [
        "Ġreveal",
        -9.69445940324742
      ],
      [
        "Ġgenes",
        -9.69469198453714
      ],
      [
        "#",
        -9.698023411953528
      ],
      [
        "Ġtexture",
        -9.69903818443527
      ],
      [
        "Ġformat",
        -9.700765808480906
      ],
      [
        "Ġpool",
        -9.701457489924472
      ],
      [
        "Ġfarmer",
        -9.701900490736984
      ],
      [
        "Ġgold",
        -9.702382618795266
      ],
      [
        "ĠZ",
        -9.702542849660704
      ],
      [
        "ĠState",
        -9.70333333306219
      ],
      [
        "Ġsustain",
        -9.704007851731332
      ],
      [
        "Ġinternational",
        -9.705466841241972
      ],
      [
        "Ġ|",
        -9.705687571409534
      ],
      [
        "Ġreplace",
        -9.705816117936342
      ],
      [
        "Ġleaf",
        -9.708111979803157
      ],
      [
        "Ġstates",
        -9.708227365024191
      ],
      [
        "Ġcouple",
        -9.708232854703471
      ],
      [
        "ĠMay",
        -9.70831241416118
      ],
      [
        "ĠWater",
        -9.7089643248064
      ],
      [
        "Ġsweet",
        -9.709910615689571
      ],
      [
        "Ġnational",
        -9.710558631761865
      ],
      [
        "efore",
        -9.710722880488824
      ],
      [
        "Ġgenome",
        -9.71101085824074
      ],
      [
        "ĠAre",
        -9.713098630199289
      ],
      [
        "Ġdetails",
        -9.714632179611232
      ],
      [
        "Ġstation",
        -9.716519384535047
      ],
      [
        "ck",
        -9.71688151061992
      ],
      [
        "Ġdegree",
        -9.71707612327056
      ],
      [
        "Ġcommercial",
        -9.718365319742205
      ],
      [
        "haps",
        -9.719227401858728
      ],
      [
        "pril",
        -9.71941818833703
      ],
      [
        "Ġsecurit",
        -9.719789076767828
      ],
      [
        "Ġgene",
        -9.719901127539725
      ],
      [
        "Ġadvanced",
        -9.72060994967498
      ],
      [
        "Ġexpand",
        -9.7216069063913
      ],
      [
        "uch",
        -9.721673459142252
      ],
      [
        "Ġcontext",
        -9.722168313353803
      ],
      [
        "Ġplanning",
        -9.722306246132677
      ],
      [
        "went",
        -9.723267974602344
      ],
      [
        "Ġfashion",
        -9.72415940893665
      ],
      [
        "ĠLet",
        -9.72469488323938
      ],
      [
        "Ġdecade",
        -9.725021921230406
      ],
      [
        "Ġfluid",
        -9.725045782461043
      ],
      [
        "Ġincluded",
        -9.727093323555366
      ],
      [
        "ĠRo",
        -9.727816693733022
      ],
      [
        "Ġinsects",
        -9.727967708508867
      ],
      [
        "Ġmap",
        -9.728453420791457
      ],
      [
        "Ġrecognize",
        -9.72939074596128
      ],
      [
        "Ġspeak",
        -9.733049114476216
      ],
      [
        "Ġfavorite",
        -9.733516959684874
      ],
      [
        "ex",
        -9.734382252046062
      ],
      [
        "Ġmin",
        -9.7346989978516
      ],
      [
        "Ġrace",
        -9.73490505599498
      ],
      [
        "ĠAls",
        -9.735062892145686
      ],
      [
        "Ġcombine",
        -9.7354972308195
      ],
      [
        "society",
        -9.735842091450554
      ],
      [
        "Ġsquare",
        -9.736365114094816
      ],
      [
        "aught",
        -9.736956222304272
      ],
      [
        "Ġvoltage",
        -9.739281464479202
      ],
      [
        "Ġbright",
        -9.739291988083416
      ],
      [
        "He",
        -9.73996785913625
      ],
      [
        "que",
        -9.740548904850886
      ],
      [
        "ĠLi",
        -9.742202285482922
      ],
      [
        "Ġbutton",
        -9.742335866344408
      ],
      [
        "ĠEurope",
        -9.74247512419436
      ],
      [
        "Ġdocument",
        -9.742795822750608
      ],
      [
        "ions",
        -9.743045173954108
      ],
      [
        "Ġalone",
        -9.744527162354164
      ],
      [
        "Ġoutcome",
        -9.745252219025716
      ],
      [
        "Ġchang",
        -9.745951358581006
      ],
      [
        "Ġpresen",
        -9.747184314056764
      ],
      [
        "ug",
        -9.747326232294522
      ],
      [
        "-free",
        -9.747488590198143
      ],
      [
        "Ġbecomes",
        -9.747745702696289
      ],
      [
        "Ġcollection",
        -9.74803448242004
      ],
      [
        "ĠLearn",
        -9.748754594052844
      ],
      [
        "oid",
        -9.74883114931607
      ],
      [
        "Ġcon",
        -9.749269762107648
      ],
      [
        "work",
        -9.751019795494816
      ],
      [
        "Ġdrawing",
        -9.751202112399437
      ],
      [
        "ner",
        -9.752249630019488
      ],
      [
        "ph",
        -9.752361556114764
      ],
      [
        "Our",
        -9.753184030463752
      ],
      [
        "Ġlabel",
        -9.753982645304028
      ],
      [
        "Ġflat",
        -9.754039625042497
      ],
      [
        "Ġsurger",
        -9.7543822730319
      ],
      [
        "Ġhabit",
        -9.755048415636546
      ],
      [
        "uc",
        -9.755893901581938
      ],
      [
        "Ġlesson",
        -9.755959678893165
      ],
      [
        "Ġevolution",
        -9.756473309838348
      ],
      [
        "Ġtechnologie",
        -9.756537383468618
      ],
      [
        "Ġbreath",
        -9.757155042698331
      ],
      [
        "Ġsoon",
        -9.757588131327362
      ],
      [
        "Ġsurrounding",
        -9.758271690692563
      ],
      [
        "Ġwash",
        -9.758381050010968
      ],
      [
        "Ġï¿½",
        -9.759395884220186
      ],
      [
        "Ġannual",
        -9.75945763824043
      ],
      [
        "Ġplease",
        -9.760458794883174
      ],
      [
        "Ġthinking",
        -9.76054190987031
      ],
      [
        "Ġfabric",
        -9.760764767576577
      ],
      [
        "ĠUs",
        -9.761900064738022
      ],
      [
        "Ġstaff",
        -9.762379610777751
      ],
      [
        "we",
        -9.763594703201829
      ],
      [
        "<",
        -9.764601065742983
      ],
      [
        "all",
        -9.764663411879202
      ],
      [
        "Ġcup",
        -9.765381212298076
      ],
      [
        "lin",
        -9.765420947669709
      ],
      [
        ".com",
        -9.7657854940476
      ],
      [
        "Ġdriv",
        -9.766003571999756
      ],
      [
        "ĠAccording",
        -9.767264147434824
      ],
      [
        "Ġlargest",
        -9.767350341497108
      ],
      [
        "Ġhabitat",
        -9.7684228484164
      ],
      [
        "Ġschedule",
        -9.76876867359866
      ],
      [
        "Ġattempt",
        -9.771981305317162
      ],
      [
        "Ġrain",
        -9.77298063788994
      ],
      [
        "Ġengage",
        -9.773857140254853
      ],
      [
        "Ġmiddle",
        -9.77416272682412
      ],
      [
        "Ġvital",
        -9.77417189231616
      ],
      [
        "pe",
        -9.77421411422614
      ],
      [
        "Ġcomment",
        -9.774262517545866
      ],
      [
        "Ġemploy",
        -9.774827523501642
      ],
      [
        "Ġprefer",
        -9.776349310875046
      ],
      [
        "ĠJust",
        -9.7782422282272
      ],
      [
        "Ġorganism",
        -9.77828478318176
      ],
      [
        "Ġmolecule",
        -9.778460891680728
      ],
      [
        "Ġstuff",
        -9.78010812690637
      ],
      [
        "Ġvoice",
        -9.78126995360671
      ],
      [
        "Ġvaluable",
        -9.781411372475713
      ],
      [
        "Ġcomfort",
        -9.782119318350448
      ],
      [
        "Ġpound",
        -9.783332819564787
      ],
      [
        "Ġletter",
        -9.78354987098646
      ],
      [
        "Ġapproximate",
        -9.7840597929867
      ],
      [
        "-like",
        -9.784122091299064
      ],
      [
        "Ġteaching",
        -9.784155197942589
      ],
      [
        "Ġconnected",
        -9.784812954073807
      ],
      [
        "ley",
        -9.785001768886506
      ],
      [
        "Ġtiny",
        -9.785009796745571
      ],
      [
        "Ġskate",
        -9.785095847011764
      ],
      [
        "came",
        -9.785122315200407
      ],
      [
        "Ġinjur",
        -9.78544572535851
      ],
      [
        "che",
        -9.786793896654892
      ],
      [
        "ring",
        -9.788355034562436
      ],
      [
        "Ġaren",
        -9.789368330645962
      ],
      [
        "held",
        -9.790661194276607
      ],
      [
        "ĠCO",
        -9.790916449363
      ],
      [
        "ural",
        -9.790934364911935
      ],
      [
        "ists",
        -9.790939556536758
      ],
      [
        "Ġsuitabl",
        -9.792186968606394
      ],
      [
        "Ġmoistur",
        -9.792373031029094
      ],
      [
        "Ġquant",
        -9.792593690323145
      ],
      [
        "Ġtransform",
        -9.795688942177016
      ],
      [
        "Ġfight",
        -9.796333358686134
      ],
      [
        "ĠMake",
        -9.796764681718225
      ],
      [
        "ĠCalifornia",
        -9.796851680037644
      ],
      [
        "Ġcentral",
        -9.79732173494843
      ],
      [
        "older",
        -9.79813705080104
      ],
      [
        "PS",
        -9.798167716816248
      ],
      [
        "Ġcheckbook",
        -9.79829898384041
      ],
      [
        "Ġsecure",
        -9.800290239553131
      ],
      [
        "Ġmold",
        -9.802343424748887
      ],
      [
        "Ġproperty",
        -9.802503666552056
      ],
      [
        "Ġtube",
        -9.802707203924356
      ],
      [
        "Ġeffort",
        -9.803115229459744
      ],
      [
        "Ġtrip",
        -9.80435980695443
      ],
      [
        "ub",
        -9.804567215437004
      ],
      [
        "No",
        -9.804909214134906
      ],
      [
        "Ġinternal",
        -9.80650085655213
      ],
      [
        "Ġcomponent",
        -9.809895376357476
      ],
      [
        "Ġbackground",
        -9.810565966288385
      ],
      [
        "Ġsites",
        -9.811113684266498
      ],
      [
        "Ġfacilit",
        -9.811424489286022
      ],
      [
        "Ġpress",
        -9.811442065279602
      ],
      [
        "Ġga",
        -9.811761771657054
      ],
      [
        "Ġvirus",
        -9.811881210298449
      ],
      [
        "Ġcream",
        -9.812507251832267
      ],
      [
        "Ġhour",
        -9.81652851754951
      ],
      [
        "Ġtri",
        -9.818137114061244
      ],
      [
        "Ġfeeding",
        -9.818655413657291
      ],
      [
        "Ġfinding",
        -9.81915480599117
      ],
      [
        "Ġexternal",
        -9.819628115403669
      ],
      [
        "Ġassess",
        -9.819653629366387
      ],
      [
        "Ġimprov",
        -9.821386515637652
      ],
      [
        "ĠWar",
        -9.82159476016271
      ],
      [
        "Ġthin",
        -9.821922316251351
      ],
      [
        "Ġoptimal",
        -9.82272707312723
      ],
      [
        "Answer",
        -9.823894634793708
      ],
      [
        "izing",
        -9.823998545463487
      ],
      [
        "Ġfertilizer",
        -9.824560452351523
      ],
      [
        "Ġloop",
        -9.825220581594133
      ],
      [
        "Ġbasi",
        -9.825771839909626
      ],
      [
        "Ġhapp",
        -9.826326231527736
      ],
      [
        "Ġseal",
        -9.827560770413951
      ],
      [
        "Ġobserve",
        -9.827565750354232
      ],
      [
        "ĠNa",
        -9.828173330001912
      ],
      [
        "pp",
        -9.828460533230272
      ],
      [
        "ĠDon",
        -9.82851499361844
      ],
      [
        "Ġregularly",
        -9.829050028323934
      ],
      [
        "Ġshot",
        -9.829352197387148
      ],
      [
        "Ġstock",
        -9.830916319271092
      ],
      [
        "Ġhorse",
        -9.831983585928212
      ],
      [
        "Ġpanel",
        -9.832488582688
      ],
      [
        "ble",
        -9.83361696853516
      ],
      [
        "Ġexpress",
        -9.833958819494049
      ],
      [
        "Ġlaunch",
        -9.835255411411644
      ],
      [
        "fer",
        -9.835278272178249
      ],
      [
        "Ġbond",
        -9.835282128305746
      ],
      [
        "Ġdriver",
        -9.8354712600106
      ],
      [
        "Ġcable",
        -9.83583805813914
      ],
      [
        "ĠAustralia",
        -9.837496529497084
      ],
      [
        "ĠAfrica",
        -9.837596821049994
      ],
      [
        "Ġdie",
        -9.837752715167923
      ],
      [
        "Ġconsistent",
        -9.83821597636169
      ],
      [
        "Ġalgorithm",
        -9.839135345831885
      ],
      [
        "Ġconservation",
        -9.839599600842105
      ],
      [
        "âĢ¢",
        -9.84005419623416
      ],
      [
        "ĠCar",
        -9.840976657433275
      ],
      [
        "**",
        -9.841398647586036
      ],
      [
        "Ġmedium",
        -9.841739460483884
      ],
      [
        "They",
        -9.84297282015748
      ],
      [
        "Ġboat",
        -9.84384303519613
      ],
      [
        "Ġblade",
        -9.8447664658863
      ],
      [
        "Ġedge",
        -9.847169352396556
      ],
      [
        "Ġintroduce",
        -9.84823054202452
      ],
      [
        "like",
        -9.848322628557618
      ],
      [
        "ĠâĢ¢",
        -9.849450153991324
      ],
      [
        "Ġcapture",
        -9.850838533192764
      ],
      [
        "Ġfinancial",
        -9.851120239875552
      ],
      [
        "Ġdangerous",
        -9.851264556445113
      ],
      [
        "Ġlose",
        -9.85298668781041
      ],
      [
        "Ġtransfer",
        -9.854174046883015
      ],
      [
        "Ġdental",
        -9.854463345239484
      ],
      [
        "ĠDepartment",
        -9.855269823346958
      ],
      [
        "Ġmember",
        -9.85635777158603
      ],
      [
        "Ġatmosphere",
        -9.856368303584029
      ],
      [
        "Ġcreative",
        -9.856896469538473
      ],
      [
        "Ġcareer",
        -9.856986047114816
      ],
      [
        "ĠPark",
        -9.858029573576388
      ],
      [
        "Ġefforts",
        -9.85843748283395
      ],
      [
        "Ġartist",
        -9.860245818539962
      ],
      [
        "Ġbeginning",
        -9.86085618806771
      ],
      [
        "Here",
        -9.86269153017168
      ],
      [
        "ĠHigh",
        -9.863251565831812
      ],
      [
        "Ġsmart",
        -9.864002691660236
      ],
      [
        "Ġbeauty",
        -9.864002700127536
      ],
      [
        "Ġyield",
        -9.864003070565284
      ],
      [
        "ĠGerman",
        -9.864028482881508
      ],
      [
        "Ġhighlight",
        -9.8651096478501
      ],
      [
        "Ġcomfortable",
        -9.866008753035112
      ],
      [
        "Ġcomprehensive",
        -9.86738375346902
      ],
      [
        "inches",
        -9.868859344881852
      ],
      [
        "Ġmid",
        -9.868939313796428
      ],
      [
        "Ġratio",
        -9.868958155629825
      ],
      [
        "ĠEl",
        -9.869524642706873
      ],
      [
        "nic",
        -9.869636032295071
      ],
      [
        "Ġha",
        -9.870201173134754
      ],
      [
        "Ġgrade",
        -9.870622100013104
      ],
      [
        "ĠFirst",
        -9.871301649363556
      ],
      [
        "ĠEnglish",
        -9.87196417988967
      ],
      [
        "Ġrespond",
        -9.873646812593664
      ],
      [
        "Ġbeneficial",
        -9.873774624039324
      ],
      [
        "Ġselection",
        -9.875275225763898
      ],
      [
        "ĠGreen",
        -9.875306769003082
      ],
      [
        "ĠSince",
        -9.875695009546982
      ],
      [
        "Ġpot",
        -9.87628691304248
      ],
      [
        "{",
        -9.876454998968985
      ],
      [
        "Ġvalve",
        -9.877073606838913
      ],
      [
        "ĠOnc",
        -9.877421111464727
      ],
      [
        "Ġdepth",
        -9.877549043037927
      ],
      [
        "Ġremov",
        -9.877687358446003
      ],
      [
        "ĠFood",
        -9.877957260930202
      ],
      [
        "Ġsurvey",
        -9.878457643223038
      ],
      [
        "Ġdoor",
        -9.879143731588002
      ],
      [
        "ĠDec",
        -9.88032259275606
      ],
      [
        "Ġappearance",
        -9.880852797620946
      ],
      [
        "Ġdouble",
        -9.881340227296242
      ],
      [
        "Ġheal",
        -9.881912268859764
      ],
      [
        "Ġcore",
        -9.88196060758803
      ],
      [
        "Ġonto",
        -9.882025700443403
      ],
      [
        "ĠAir",
        -9.882852415283342
      ],
      [
        "Ġmedicine",
        -9.88311695093216
      ],
      [
        "Ġgames",
        -9.88452258878342
      ],
      [
        "aging",
        -9.886762040868245
      ],
      [
        "Ġplate",
        -9.887590983596429
      ],
      [
        "Ġreference",
        -9.889223470305671
      ],
      [
        "Ġgrain",
        -9.889597917088167
      ],
      [
        "Ġdead",
        -9.890164707191012
      ],
      [
        "ĠEvery",
        -9.891509395197684
      ],
      [
        "Ġcorn",
        -9.89156759524619
      ],
      [
        "ways",
        -9.891822440577414
      ],
      [
        "ĠChina",
        -9.892634959250447
      ],
      [
        "Ġatom",
        -9.89281343955209
      ],
      [
        "Ġthreat",
        -9.8932117269492
      ],
      [
        "Ġcoffee",
        -9.893609967409358
      ],
      [
        "Ġpollution",
        -9.893682926894105
      ],
      [
        "Ġnative",
        -9.893720446584824
      ],
      [
        "Ġweigh",
        -9.895144120330428
      ],
      [
        "Ġcarrie",
        -9.895634458023816
      ],
      [
        "ĠAdd",
        -9.896189875810046
      ],
      [
        "Ġcrops",
        -9.896523309755208
      ],
      [
        "Ġfail",
        -9.896831967330602
      ],
      [
        "My",
        -9.896882724745236
      ],
      [
        "Ġparameter",
        -9.89695988171202
      ],
      [
        "Ġemail",
        -9.897017962009793
      ],
      [
        "ĠEven",
        -9.897030762926924
      ],
      [
        "Ġdistribution",
        -9.897178434858263
      ],
      [
        "Ġbirth",
        -9.897217088855042
      ],
      [
        "ĠNature",
        -9.89906670529301
      ],
      [
        "Ġchannel",
        -9.899753901652552
      ],
      [
        "field",
        -9.90034553551971
      ],
      [
        "Ġconcentration",
        -9.900397428781703
      ],
      [
        "Ġstatus",
        -9.900511244985848
      ],
      [
        "taken",
        -9.900787314432437
      ],
      [
        "ĠUK",
        -9.901062406525009
      ],
      [
        "Ġship",
        -9.903030630136495
      ],
      [
        "Ġmuscles",
        -9.903317463264402
      ],
      [
        "Ġaware",
        -9.904662938072942
      ],
      [
        "Ġroutine",
        -9.90487934227805
      ],
      [
        "Ġharvest",
        -9.905505811379218
      ],
      [
        "Ġgear",
        -9.90707139556083
      ],
      [
        "Ġsuffer",
        -9.907206588457711
      ],
      [
        "ĠâĢ¦",
        -9.907231512476516
      ],
      [
        "Ġmicro",
        -9.90822270859088
      ],
      [
        "Ġinsight",
        -9.908294982817548
      ],
      [
        "Ġhelpful",
        -9.909817551166572
      ],
      [
        "Ġindependent",
        -9.910210846209402
      ],
      [
        "Ġknee",
        -9.91044603117088
      ],
      [
        "Ġpack",
        -9.911019689747995
      ],
      [
        "Ġtopic",
        -9.912272280690374
      ],
      [
        "Ġabsorb",
        -9.912286447467492
      ],
      [
        "Ġbroad",
        -9.912517355082398
      ],
      [
        "Ġmode",
        -9.912776806230347
      ],
      [
        "ze",
        -9.913529290399516
      ],
      [
        "Ġcurve",
        -9.91450839390252
      ],
      [
        "-year",
        -9.914756897167138
      ],
      [
        "Ġdemonstrate",
        -9.914804392475675
      ],
      [
        "Ġminerals",
        -9.91495984238906
      ],
      [
        "ĠHa",
        -9.915437295987369
      ],
      [
        "Ġroll",
        -9.9156573535347
      ],
      [
        "Ġlisten",
        -9.91577927026658
      ],
      [
        "ING",
        -9.915805859151927
      ],
      [
        "Ġdrop",
        -9.91639907084778
      ],
      [
        "Ġmaintaining",
        -9.916411134954094
      ],
      [
        "Ġmiles",
        -9.916992565688169
      ],
      [
        "Ġperspective",
        -9.91725969472578
      ],
      [
        "Ġmark",
        -9.920169333183775
      ],
      [
        "Ġnitrogen",
        -9.920340968972582
      ],
      [
        "Ġdrain",
        -9.92058231933346
      ],
      [
        "Ġjoin",
        -9.921130794588148
      ],
      [
        "Ġagricultur",
        -9.921380324067172
      ],
      [
        "Ġprogress",
        -9.921513216005325
      ],
      [
        "Ġfiber",
        -9.92175898999656
      ],
      [
        "osis",
        -9.922628865023675
      ],
      [
        "Ġattach",
        -9.922945920964937
      ],
      [
        "Ġpossibilit",
        -9.924126563644071
      ],
      [
        "Ġfear",
        -9.924201841321413
      ],
      [
        "Ġpipe",
        -9.924401108964766
      ],
      [
        "Ġdesire",
        -9.924863973163705
      ],
      [
        "Ġspeaker",
        -9.92488109226508
      ],
      [
        "That",
        -9.925367676679958
      ],
      [
        "Ġpolicy",
        -9.925430556253446
      ],
      [
        "Ġcatch",
        -9.926586372306147
      ],
      [
        "min",
        -9.926783461791985
      ],
      [
        "Ġclient",
        -9.927569060049592
      ],
      [
        "Ġtrigger",
        -9.927569282525852
      ],
      [
        "Ġnest",
        -9.928297583856274
      ],
      [
        "Ġprepared",
        -9.92945335897152
      ],
      [
        "Ġlay",
        -9.929699288579156
      ],
      [
        "Ġinter",
        -9.930583773669332
      ],
      [
        "Ġrespect",
        -9.93075354605909
      ],
      [
        "Ġrelevan",
        -9.931029276420528
      ],
      [
        "Ġcommand",
        -9.93103398522805
      ],
      [
        "Ġnerve",
        -9.93107926380134
      ],
      [
        "Ġblog",
        -9.931396985804056
      ],
      [
        "Ġweb",
        -9.931903873238696
      ],
      [
        "After",
        -9.932291041387256
      ],
      [
        "Ġengineering",
        -9.932817622002473
      ],
      [
        "Ġfunctional",
        -9.93290490459827
      ],
      [
        "Dr",
        -9.93310156473492
      ],
      [
        "Ġaudio",
        -9.933611160132156
      ],
      [
        "ile",
        -9.933920215683903
      ],
      [
        "Ġadvice",
        -9.934501811215709
      ],
      [
        "board",
        -9.935881342227278
      ],
      [
        "Ġeconom",
        -9.935921698450812
      ],
      [
        "Ġpro",
        -9.936183939641918
      ],
      [
        "Ġnutrient",
        -9.938001756614906
      ],
      [
        "ER",
        -9.9383391465636
      ],
      [
        "Ġprivate",
        -9.938911169254997
      ],
      [
        "Ġskill",
        -9.940278858394748
      ],
      [
        "Ġport",
        -9.940977244271906
      ],
      [
        "Ġagree",
        -9.94128059570825
      ],
      [
        "Ġlung",
        -9.941510133850024
      ],
      [
        "Ġstain",
        -9.942393073436904
      ],
      [
        "Ġtitle",
        -9.942907011705127
      ],
      [
        "Ġeducational",
        -9.94442038491087
      ],
      [
        "Ġdecline",
        -9.94461316321975
      ],
      [
        "Ġtechnical",
        -9.94499232564086
      ],
      [
        "Ġbillion",
        -9.945691689948651
      ],
      [
        "Ġtrust",
        -9.94599751046444
      ],
      [
        "related",
        -9.946654453614755
      ],
      [
        "Ġbodie",
        -9.946739724271524
      ],
      [
        "ĠQ",
        -9.947286456297771
      ],
      [
        "Ġspin",
        -9.947624030025075
      ],
      [
        "ĠEuropean",
        -9.948332605694617
      ],
      [
        "Ġcook",
        -9.948635555972237
      ],
      [
        "Ġgoals",
        -9.94879550179368
      ],
      [
        "Ġcultural",
        -9.94912550413111
      ],
      [
        "car",
        -9.949719510813656
      ],
      [
        "ĠSea",
        -9.950111247164791
      ],
      [
        "Ġbio",
        -9.95073610918456
      ],
      [
        "Ġthick",
        -9.951271905862251
      ],
      [
        "Ġroots",
        -9.951324084950532
      ],
      [
        "hu",
        -9.952525265617004
      ],
      [
        "ĠInternational",
        -9.953274956467649
      ],
      [
        "can",
        -9.954924002139707
      ],
      [
        "Ġwindow",
        -9.956258491801044
      ],
      [
        "Ġupper",
        -9.956591755910967
      ],
      [
        "Ġgrown",
        -9.956905654348937
      ],
      [
        "Ġcit",
        -9.957136804695406
      ],
      [
        "Ġbiological",
        -9.958237825537328
      ],
      [
        "ĠEducation",
        -9.959058375322854
      ],
      [
        "Ġparticipant",
        -9.95915059369024
      ],
      [
        "Ġmixture",
        -9.959335706742092
      ],
      [
        "ĠIsland",
        -9.959489274839324
      ],
      [
        "how",
        -9.95977478064943
      ],
      [
        "king",
        -9.95985372963398
      ],
      [
        "let",
        -9.96002041302328
      ],
      [
        "ler",
        -9.960641293322556
      ],
      [
        "Ġsession",
        -9.960644684137126
      ],
      [
        "Ġdiscussion",
        -9.960790547529822
      ],
      [
        "limited",
        -9.961629933312569
      ],
      [
        "ĠOver",
        -9.961676598186008
      ],
      [
        "Ġoven",
        -9.962782095053406
      ],
      [
        "ĠDuring",
        -9.962929677642183
      ],
      [
        "Ġfundamental",
        -9.963442850546024
      ],
      [
        "Ġprimari",
        -9.963775167641709
      ],
      [
        "Ġoperate",
        -9.963845596939544
      ],
      [
        "Ġjoint",
        -9.964554201410348
      ],
      [
        "Ġbooks",
        -9.965012699424332
      ],
      [
        "Ġwrit",
        -9.96711034876147
      ],
      [
        "Ġsit",
        -9.967519722717014
      ],
      [
        "Ġstorm",
        -9.968176056102148
      ],
      [
        "Ġbear",
        -9.969239921450203
      ],
      [
        "Ġstraight",
        -9.96949905650693
      ],
      [
        "Ġpropose",
        -9.969967732635729
      ],
      [
        "||",
        -9.969974016558051
      ],
      [
        "Ġportion",
        -9.970791147598458
      ],
      [
        "Ġblend",
        -9.970908986840064
      ],
      [
        "ĠDay",
        -9.97097926852694
      ],
      [
        "ĠUn",
        -9.970999532447646
      ],
      [
        "Ġimprovement",
        -9.971259044462707
      ],
      [
        "Ġdrug",
        -9.971654520868366
      ],
      [
        "ster",
        -9.971725573701798
      ],
      [
        "Ġpets",
        -9.972155370884876
      ],
      [
        "Ġcredit",
        -9.972503305434548
      ],
      [
        "Ġreferr",
        -9.972560768257765
      ],
      [
        "Ġrules",
        -9.972973152845633
      ],
      [
        "Ġartificial",
        -9.973513482271972
      ],
      [
        "Ġcollege",
        -9.973513504074518
      ],
      [
        "Ġfinger",
        -9.973571180291486
      ],
      [
        "are",
        -9.974339417887446
      ],
      [
        "Ġma",
        -9.975314907026302
      ],
      [
        "Ġbill",
        -9.975400620513348
      ],
      [
        "ĠMarch",
        -9.975648882246327
      ],
      [
        "Ġsequence",
        -9.97697687077542
      ],
      [
        "Ġancient",
        -9.977136682191752
      ],
      [
        "Ġpregnancy",
        -9.97873881086722
      ],
      [
        "Ġpilot",
        -9.978772729695882
      ],
      [
        "with",
        -9.979917950701234
      ],
      [
        "Ġradiation",
        -9.98080905202514
      ],
      [
        "Ġorigin",
        -9.980998320653054
      ],
      [
        "Ġtransition",
        -9.981059654047286
      ],
      [
        "-friendl",
        -9.98129252485724
      ],
      [
        "ware",
        -9.9816229267624
      ],
      [
        "Ġcm",
        -9.982052705684977
      ],
      [
        "Ġstrain",
        -9.982350152444411
      ],
      [
        "ĠKa",
        -9.982881557322589
      ],
      [
        "Ġsports",
        -9.982902763184944
      ],
      [
        "Ġrequest",
        -9.984436667440413
      ],
      [
        "Ġdefinition",
        -9.986074551990413
      ],
      [
        "Ġallerg",
        -9.9877291559497
      ],
      [
        "Ġconclusion",
        -9.988090158955398
      ],
      [
        "Ġcompost",
        -9.989254773048724
      ],
      [
        "Ġbreeding",
        -9.989654870969094
      ],
      [
        "men",
        -9.990171078331416
      ],
      [
        "Ġprocedure",
        -9.990479690614052
      ],
      [
        "wide",
        -9.991056995219054
      ],
      [
        "Pa",
        -9.991675887775044
      ],
      [
        "Ġbread",
        -9.991817116443748
      ],
      [
        "Ġdetail",
        -9.992360267111664
      ],
      [
        "gen",
        -9.992406949691803
      ],
      [
        "Ġsurvive",
        -9.99255138763344
      ],
      [
        "ibility",
        -9.992981524330292
      ],
      [
        "Ġattract",
        -9.994391975373498
      ],
      [
        "Ġtraffic",
        -9.995478280913732
      ],
      [
        "Ġemployee",
        -9.99551281307755
      ],
      [
        "Ġborn",
        -9.996001364509157
      ],
      [
        "/or",
        -9.996215105690332
      ],
      [
        "that",
        -9.997233046458664
      ],
      [
        "Ġenzyme",
        -9.997563773370864
      ],
      [
        "ka",
        -9.998407967717416
      ],
      [
        "Ġbones",
        -9.998451592566395
      ],
      [
        "what",
        -9.998970489769718
      ],
      [
        "Ġelectron",
        -9.999139136648225
      ],
      [
        "Ġconfirm",
        -9.999155884217076
      ],
      [
        "Ġrelax",
        -9.999163045209636
      ],
      [
        "Ġprovider",
        -9.999893150197074
      ],
      [
        "Ġeventually",
        -9.999940690187817
      ],
      [
        "Ġfindings",
        -10.000957160468698
      ],
      [
        "diversity",
        -10.001041106137322
      ],
      [
        "Ġtru",
        -10.001399949915148
      ],
      [
        "cal",
        -10.001981431944271
      ],
      [
        "lan",
        -10.002003961575031
      ],
      [
        "Ġassembl",
        -10.0026752076136
      ],
      [
        "Ġoffice",
        -10.002716097668978
      ],
      [
        "Ġvariation",
        -10.002873372500318
      ],
      [
        "kin",
        -10.003906799818589
      ],
      [
        "Ġzone",
        -10.004188696981792
      ],
      [
        "tion",
        -10.004639972898708
      ],
      [
        "Ġowners",
        -10.005740788094148
      ],
      [
        "Ġthrow",
        -10.006536011627112
      ],
      [
        "Ġvirtual",
        -10.006604701868712
      ],
      [
        "Ġsounds",
        -10.00783818578369
      ],
      [
        "Ġwar",
        -10.008240513209834
      ],
      [
        "Ġindoor",
        -10.00825615479923
      ],
      [
        "bility",
        -10.008591138846418
      ],
      [
        "ĠRiver",
        -10.008695649195667
      ],
      [
        "Ġextract",
        -10.00909732723238
      ],
      [
        "Ġtooth",
        -10.009498220110755
      ],
      [
        "Ġprepare",
        -10.01023054815358
      ],
      [
        "act",
        -10.010683115902872
      ],
      [
        "Ġpercentage",
        -10.010879753050489
      ],
      [
        "Ġcontinuous",
        -10.014224228808445
      ],
      [
        "Ġexcessive",
        -10.01432726845182
      ],
      [
        "-quality",
        -10.014394521883046
      ],
      [
        "ail",
        -10.015319449738207
      ],
      [
        "Ġnice",
        -10.015756537241565
      ],
      [
        "ĠPo",
        -10.016315370560084
      ],
      [
        "Ġraw",
        -10.016329429067294
      ],
      [
        "Ġsnake",
        -10.017886687694592
      ],
      [
        "ches",
        -10.018172633907415
      ],
      [
        "ĠGa",
        -10.018238061585816
      ],
      [
        "Ġtwi",
        -10.018273874441505
      ],
      [
        "Ġcalculate",
        -10.018477904328376
      ],
      [
        "ĠProgram",
        -10.020505156735652
      ],
      [
        "Ġleak",
        -10.02152102241703
      ],
      [
        "Ġcreature",
        -10.021918936656157
      ],
      [
        "Ġphotograph",
        -10.02203291563032
      ],
      [
        "ĠLED",
        -10.022243043053312
      ],
      [
        "ĠSan",
        -10.022610105609363
      ],
      [
        "Ġrid",
        -10.02274122190263
      ],
      [
        "Ġbusinesses",
        -10.022771638472804
      ],
      [
        "ĠLife",
        -10.023019441677164
      ],
      [
        "pl",
        -10.024055919651676
      ],
      [
        "Ġoperat",
        -10.024718575215442
      ],
      [
        "Ġemergenc",
        -10.024757566444782
      ],
      [
        "Ġnumerou",
        -10.02548566901222
      ],
      [
        "ĠSept",
        -10.026316903181758
      ],
      [
        "book",
        -10.026671609135128
      ],
      [
        "Ġegg",
        -10.030384807508192
      ],
      [
        "Ġformation",
        -10.030869549649443
      ],
      [
        "va",
        -10.031724583702058
      ],
      [
        "ĠYork",
        -10.03312212173742
      ],
      [
        "Ġmorning",
        -10.033127628273606
      ],
      [
        "Ġafford",
        -10.033127738673503
      ],
      [
        "Ġreduction",
        -10.033273015804635
      ],
      [
        "@",
        -10.0333611905798
      ],
      [
        "Ġengineer",
        -10.034136365120826
      ],
      [
        "Ġfoundation",
        -10.034172050031447
      ],
      [
        "brough",
        -10.035259149297865
      ],
      [
        "Ġsupplement",
        -10.036967527539217
      ],
      [
        "Ġcomposition",
        -10.036998347571323
      ],
      [
        "Ġroof",
        -10.037002349212738
      ],
      [
        "Ġlens",
        -10.038473313945222
      ],
      [
        "Are",
        -10.040395313020456
      ],
      [
        "Ġassessment",
        -10.041204812041752
      ],
      [
        "Ġmechanical",
        -10.041303879504811
      ],
      [
        "Ġlatest",
        -10.041377707077356
      ],
      [
        "Ġsheet",
        -10.042365552996692
      ],
      [
        "ik",
        -10.042830969357633
      ],
      [
        "Ġoffering",
        -10.04331841326902
      ],
      [
        "Ġwet",
        -10.043327709234692
      ],
      [
        "ĠMan",
        -10.044077362759424
      ],
      [
        "ĠHave",
        -10.044172772655486
      ],
      [
        "Ġclasse",
        -10.045527240930069
      ],
      [
        "Ġexpression",
        -10.045684989174443
      ],
      [
        "ĠCa",
        -10.046249778109168
      ],
      [
        "ov",
        -10.046703537631563
      ],
      [
        "ĠRa",
        -10.04732662673969
      ],
      [
        "Ġsport",
        -10.047896757922228
      ],
      [
        "Ġjournal",
        -10.04803460792292
      ],
      [
        "Ġobvious",
        -10.048605435337016
      ],
      [
        "Ġworry",
        -10.048786730192116
      ],
      [
        "ĠBar",
        -10.048818775654658
      ],
      [
        "Ġawarenes",
        -10.049114586586944
      ],
      [
        "ĠChine",
        -10.04960547019216
      ],
      [
        "All",
        -10.04970271702755
      ],
      [
        "ger",
        -10.049812437302176
      ],
      [
        "Ġexhibit",
        -10.05151828660152
      ],
      [
        "Ġshar",
        -10.051900251465074
      ],
      [
        "Ġillness",
        -10.052527779394335
      ],
      [
        "Ġmission",
        -10.053131126284285
      ],
      [
        "ction",
        -10.053375921170431
      ],
      [
        "Ġnation",
        -10.05388204455764
      ],
      [
        "Ġmanufactur",
        -10.05476725132162
      ],
      [
        "Ġcalci",
        -10.05489250394918
      ],
      [
        "Ġchalleng",
        -10.054906126039814
      ],
      [
        "ĠJul",
        -10.05495131637458
      ],
      [
        "ĠGreat",
        -10.055075469735725
      ],
      [
        "Ġchanged",
        -10.055389403526416
      ],
      [
        "ĠDog",
        -10.055808568251782
      ],
      [
        "Ġhormone",
        -10.056423369852912
      ],
      [
        "Ġdedicat",
        -10.056433105259764
      ],
      [
        "een",
        -10.057047750972446
      ],
      [
        "ĠSa",
        -10.05821350963464
      ],
      [
        "Ġwhose",
        -10.058291167857735
      ],
      [
        "ĠService",
        -10.0587985330655
      ],
      [
        "Ġten",
        -10.05959940299999
      ],
      [
        "Ġrule",
        -10.059809955926596
      ],
      [
        "Ġjump",
        -10.060362993776003
      ],
      [
        "Conclusion",
        -10.06038562241965
      ],
      [
        "Januar",
        -10.060476587158217
      ],
      [
        "ĠWell",
        -10.061341629901271
      ],
      [
        "kept",
        -10.062115691971297
      ],
      [
        "Ġlock",
        -10.06218894588466
      ],
      [
        "Ġowner",
        -10.062645370606685
      ],
      [
        "Ġassist",
        -10.062649530918602
      ],
      [
        "Ġfly",
        -10.063796188624304
      ],
      [
        "Â",
        -10.064231091880767
      ],
      [
        "ĠGod",
        -10.064291093173525
      ],
      [
        "Ġencounter",
        -10.06431296273236
      ],
      [
        "ven",
        -10.064367056127171
      ],
      [
        "Ġmeeting",
        -10.064706071629118
      ],
      [
        "Ġprofessionals",
        -10.06484534957465
      ],
      [
        "ĠAsia",
        -10.065435380666711
      ],
      [
        "Ġmineral",
        -10.065783336749362
      ],
      [
        "ĠSun",
        -10.067070465991955
      ],
      [
        "Ġregulation",
        -10.067242854967116
      ],
      [
        "Ġtight",
        -10.067976568077455
      ],
      [
        "Ġremote",
        -10.068281203555143
      ],
      [
        "Ġinnovation",
        -10.068281221763318
      ],
      [
        "Ġsentence",
        -10.068370874073498
      ],
      [
        "Ġnutrition",
        -10.068567079445144
      ],
      [
        "ach",
        -10.068921063660513
      ],
      [
        "Ġteach",
        -10.070126969550955
      ],
      [
        "ĠCanada",
        -10.070314899635818
      ],
      [
        "Ġstorie",
        -10.070440628858195
      ],
      [
        "hildren",
        -10.070490869593968
      ],
      [
        "ĠKeep",
        -10.071939096615472
      ],
      [
        "Ġimplant",
        -10.07228141837216
      ],
      [
        "Ġworked",
        -10.072532686723498
      ],
      [
        "Ġexamine",
        -10.072750996388462
      ],
      [
        "Ġhospital",
        -10.073226721539935
      ],
      [
        "Ġweed",
        -10.07344471392888
      ],
      [
        "Ġplane",
        -10.074239938174866
      ],
      [
        "Ġexplor",
        -10.07530701923896
      ],
      [
        "-be",
        -10.07575752697911
      ],
      [
        "|",
        -10.076286771378244
      ],
      [
        "Ġgum",
        -10.076560976567515
      ],
      [
        "Ġearlier",
        -10.076844089292658
      ],
      [
        "Ġcard",
        -10.07700983527072
      ],
      [
        "Ġcreation",
        -10.078228968083
      ],
      [
        "ĠType",
        -10.078326006408195
      ],
      [
        "ĠDoes",
        -10.080233221061556
      ],
      [
        "Ġinvestment",
        -10.080532102994816
      ],
      [
        "Ġzero",
        -10.080543878961445
      ],
      [
        "Ġreplacement",
        -10.080719532649267
      ],
      [
        "Ġreliabl",
        -10.081109832680504
      ],
      [
        "ĠSe",
        -10.0812413688281
      ],
      [
        "Ġchain",
        -10.081798225089964
      ],
      [
        "Ġinteract",
        -10.081863897324064
      ],
      [
        "Ġsp",
        -10.083429875740226
      ],
      [
        "Ġdish",
        -10.084257707385344
      ],
      [
        "Ġmanual",
        -10.084411628122044
      ],
      [
        "Ġdepression",
        -10.084446617682657
      ],
      [
        "Ġconsume",
        -10.087383534361091
      ],
      [
        "Ġtrend",
        -10.087653946254308
      ],
      [
        "Ġbottle",
        -10.08836305126288
      ],
      [
        "Ġchoos",
        -10.088402654140614
      ],
      [
        "Ġinternet",
        -10.088410629672229
      ],
      [
        "cor",
        -10.088453469005469
      ],
      [
        "Ġhundred",
        -10.090059608761988
      ],
      [
        "Ġsecret",
        -10.091591076515318
      ],
      [
        "Ġemotional",
        -10.091739139351798
      ],
      [
        "ĠStart",
        -10.091789614926194
      ],
      [
        "Your",
        -10.091927153075927
      ],
      [
        "Ġlibrar",
        -10.092271139408792
      ],
      [
        "Ġultimate",
        -10.092427210587978
      ],
      [
        "Ġclassroom",
        -10.092493302764304
      ],
      [
        "Ġpreference",
        -10.092588998592138
      ],
      [
        "Ġnode",
        -10.0928093794119
      ],
      [
        "Ġisland",
        -10.09281432996428
      ],
      [
        "oxide",
        -10.09350294872899
      ],
      [
        "Ġobservation",
        -10.093631330363104
      ],
      [
        "off",
        -10.093708433466803
      ],
      [
        "RE",
        -10.094097815229258
      ],
      [
        "Ġspray",
        -10.09477739947852
      ],
      [
        "ĠFurther",
        -10.09560963201282
      ],
      [
        "Ġphotos",
        -10.09564431028222
      ],
      [
        "Ġfirm",
        -10.096510122729082
      ],
      [
        "Ġtumor",
        -10.096510343178757
      ],
      [
        "Ġstable",
        -10.096971127887004
      ],
      [
        "Ġlift",
        -10.097605009699516
      ],
      [
        "Many",
        -10.0977049607668
      ],
      [
        "expected",
        -10.098234207822298
      ],
      [
        "which",
        -10.099344512968312
      ],
      [
        "ĠMa",
        -10.099706427449076
      ],
      [
        "Ġdivide",
        -10.100527820973834
      ],
      [
        "Ġchronic",
        -10.100607218169344
      ],
      [
        "ping",
        -10.101319833417584
      ],
      [
        "Ġdensity",
        -10.101371266832125
      ],
      [
        "Ġadvance",
        -10.101663826321666
      ],
      [
        "ren",
        -10.101774672191514
      ],
      [
        "Ġaircraft",
        -10.101774826455571
      ],
      [
        "Ġsensitive",
        -10.10177942128374
      ],
      [
        "amp",
        -10.101884785251102
      ],
      [
        "Ġagent",
        -10.10195952384852
      ],
      [
        "ĠTE",
        -10.102148938834716
      ],
      [
        "ĠCity",
        -10.103281484434834
      ],
      [
        "&",
        -10.103403466657632
      ],
      [
        "Ġcheap",
        -10.104724975474245
      ],
      [
        "acific",
        -10.10472570890006
      ],
      [
        "Ġdetermined",
        -10.10516626876651
      ],
      [
        "Ġboost",
        -10.106316352533614
      ],
      [
        "OS",
        -10.106770166704557
      ],
      [
        "ĠTime",
        -10.106807398470837
      ],
      [
        "Ġseat",
        -10.107167691514418
      ],
      [
        "rate",
        -10.10732186232093
      ],
      [
        "Ġdeposit",
        -10.107877676688709
      ],
      [
        "Most",
        -10.108019920699196
      ],
      [
        "port",
        -10.10847840461778
      ],
      [
        "chi",
        -10.108752544049878
      ],
      [
        "Ġmelt",
        -10.10897232489819
      ],
      [
        "ĠVi",
        -10.109968050736832
      ],
      [
        "ĠLo",
        -10.110903850942943
      ],
      [
        "Ġdetailed",
        -10.111166109186025
      ],
      [
        "Ġconsideration",
        -10.111385859903653
      ],
      [
        "ĠGarden",
        -10.111512424752444
      ],
      [
        "Ġband",
        -10.112718535422458
      ],
      [
        "Ġcheese",
        -10.11300325760979
      ],
      [
        "Ġcalm",
        -10.113061850163945
      ],
      [
        "Ġsnow",
        -10.113558504412543
      ],
      [
        "Ġsaying",
        -10.113563468622193
      ],
      [
        "Ġincredibl",
        -10.113823360699415
      ],
      [
        "Ġfurni",
        -10.114159942960995
      ],
      [
        "uck",
        -10.114414439276448
      ],
      [
        "Ġstar",
        -10.115046329131427
      ],
      [
        "ĠNov",
        -10.116937021417137
      ],
      [
        "ĠPe",
        -10.11702134642435
      ],
      [
        "Ġopinion",
        -10.117170780153351
      ],
      [
        "Ġminimum",
        -10.117171052910082
      ],
      [
        "ĠBo",
        -10.117806438174554
      ],
      [
        "ĠDi",
        -10.118557688186112
      ],
      [
        "resistant",
        -10.118616805425615
      ],
      [
        "Ġregister",
        -10.118788472409468
      ],
      [
        "Ġdrugs",
        -10.11932459405391
      ],
      [
        "Ġmother",
        -10.12102903089334
      ],
      [
        "accurac",
        -10.121355079695723
      ],
      [
        "Ġrubber",
        -10.121626001026817
      ],
      [
        "Ġsurvival",
        -10.121725978701908
      ],
      [
        "Ġpeak",
        -10.12187591378489
      ],
      [
        "Ġinterface",
        -10.122116508174546
      ],
      [
        "Ġvi",
        -10.12228219345096
      ],
      [
        "Ġtreated",
        -10.122653210826185
      ],
      [
        "Yes",
        -10.122734873266904
      ],
      [
        "Ġplent",
        -10.122855815207291
      ],
      [
        "Ġstretch",
        -10.122866177345134
      ],
      [
        "Ġmaster",
        -10.123444461995453
      ],
      [
        "ward",
        -10.124990135025495
      ],
      [
        "wood",
        -10.125284803665018
      ],
      [
        "Ġvaccine",
        -10.125556488221733
      ],
      [
        "Ġexchange",
        -10.125569239045143
      ],
      [
        "Ġshop",
        -10.126073290458915
      ],
      [
        "Ġwish",
        -10.12681323585759
      ],
      [
        "Ġpin",
        -10.12711632617435
      ],
      [
        "Ġcapabilit",
        -10.12861769917214
      ],
      [
        "Ġaccident",
        -10.129130786242117
      ],
      [
        "onic",
        -10.129470123682662
      ],
      [
        "Ġequation",
        -10.129775986903311
      ],
      [
        "Ġlarva",
        -10.129836116920004
      ],
      [
        "Ġvertical",
        -10.12988695718022
      ],
      [
        "Ġapart",
        -10.130134224023031
      ],
      [
        "Ġspecialize",
        -10.13085344396882
      ],
      [
        "ĠLe",
        -10.131056225919377
      ],
      [
        "Ġreli",
        -10.131997553904384
      ],
      [
        "Ġurban",
        -10.1340157463061
      ],
      [
        "Ġgravit",
        -10.134028659903096
      ],
      [
        "Ġhousehold",
        -10.134117755117185
      ],
      [
        "Ġlifestyle",
        -10.134153025127024
      ],
      [
        "Ġindustrial",
        -10.134281598797912
      ],
      [
        "Ġdamaged",
        -10.134458062083423
      ],
      [
        "ĠPeople",
        -10.134836300379543
      ],
      [
        "Ġlie",
        -10.136184623913447
      ],
      [
        "Ġfiles",
        -10.136387125594212
      ],
      [
        "Co",
        -10.137548821133418
      ],
      [
        "Ġclimb",
        -10.137781077919232
      ],
      [
        "Ġkitchen",
        -10.13826871536116
      ],
      [
        "mas",
        -10.13832462682326
      ],
      [
        "Ġdirt",
        -10.1383466343313
      ],
      [
        "ped",
        -10.138657824410732
      ],
      [
        "Ġcontrolle",
        -10.139465957732646
      ],
      [
        "Ġeliminate",
        -10.141725564079188
      ],
      [
        "Ġforests",
        -10.142061479299509
      ],
      [
        "Ġpowder",
        -10.142542038068392
      ],
      [
        "Ġguideline",
        -10.14353145751958
      ],
      [
        "Ġargument",
        -10.143835130643438
      ],
      [
        "Ġgraph",
        -10.144927908761485
      ],
      [
        "mer",
        -10.145033970394568
      ],
      [
        "Ġtire",
        -10.145952550890907
      ],
      [
        "Ġbath",
        -10.146213514530334
      ],
      [
        "nxiety",
        -10.146718606858933
      ],
      [
        "Ġconsequence",
        -10.146833852401638
      ],
      [
        "Ġamazing",
        -10.146834048781274
      ],
      [
        "Ġextensive",
        -10.146842420233092
      ],
      [
        "Ġprogramming",
        -10.146947429415068
      ],
      [
        "Ġcrystal",
        -10.147192985644624
      ],
      [
        "Ġminimize",
        -10.147446515618668
      ],
      [
        "âĢĻt",
        -10.147503000188484
      ],
      [
        "Ġbike",
        -10.148126734238485
      ],
      [
        "ology",
        -10.148412730990998
      ],
      [
        "Ġcontrast",
        -10.148537751930789
      ],
      [
        "rising",
        -10.148538992902523
      ],
      [
        "Ġchose",
        -10.148586981093947
      ],
      [
        "Ġpainting",
        -10.14900522355807
      ],
      [
        "Ġdecide",
        -10.149768030905712
      ],
      [
        "ĠPlant",
        -10.150433809771734
      ],
      [
        "Ġvehicles",
        -10.150514777991592
      ],
      [
        "Ġhi",
        -10.15051731213591
      ],
      [
        "ĠTexas",
        -10.15108283126638
      ],
      [
        "Ġuniversit",
        -10.1511442578423
      ],
      [
        "Ġprompt",
        -10.151144627196974
      ],
      [
        "Ġbudget",
        -10.151152292953658
      ],
      [
        "Ġsufficient",
        -10.151245378931442
      ],
      [
        "Ġfamiliar",
        -10.151635218756685
      ],
      [
        "net",
        -10.151822849470063
      ],
      [
        "Ġbug",
        -10.152857628615733
      ],
      [
        "exposed",
        -10.152924507003888
      ],
      [
        "Ġpesticide",
        -10.15322004090774
      ],
      [
        "Ġenvironments",
        -10.153670890444245
      ],
      [
        "definitely",
        -10.154176711634868
      ],
      [
        "Ġbat",
        -10.154478375289347
      ],
      [
        "Use",
        -10.154737368371444
      ],
      [
        "Ġconventional",
        -10.155165590153592
      ],
      [
        "Ġleaving",
        -10.155473206912696
      ],
      [
        "Ġguy",
        -10.15547530131822
      ],
      [
        "AS",
        -10.157009462057069
      ],
      [
        "Ġbees",
        -10.157092686691724
      ],
      [
        "Ġsamples",
        -10.157920159815651
      ],
      [
        "Ġsolve",
        -10.1580547188305
      ],
      [
        "Ġvarie",
        -10.159113182860748
      ],
      [
        "Ġsymbol",
        -10.159438704568704
      ],
      [
        "Ã©",
        -10.159812117336209
      ],
      [
        "Ġstomach",
        -10.159821088813572
      ],
      [
        "ash",
        -10.16005801425182
      ],
      [
        "ĠFlorida",
        -10.16232060070584
      ],
      [
        "Ġkg",
        -10.162704496496945
      ],
      [
        "set",
        -10.163700231770958
      ],
      [
        "pro",
        -10.164164518085938
      ],
      [
        "Ġsaving",
        -10.164188374051632
      ],
      [
        "Ġsmell",
        -10.16422589741092
      ],
      [
        "Ġabsolute",
        -10.164934494093458
      ],
      [
        "Ġgirl",
        -10.165485177674622
      ],
      [
        "Ġcraft",
        -10.165666007196805
      ],
      [
        "Ġcrack",
        -10.165714529511677
      ],
      [
        "ĠThu",
        -10.166398232202257
      ],
      [
        "Ġrough",
        -10.1666974758076
      ],
      [
        "Ġbrush",
        -10.167053402077451
      ],
      [
        "Ġcloud",
        -10.16751002435078
      ],
      [
        "Ġflour",
        -10.168593956644152
      ],
      [
        "Ġfailure",
        -10.16866454636454
      ],
      [
        "Ġeight",
        -10.16867314150592
      ],
      [
        "Ġstream",
        -10.16904155220767
      ],
      [
        "Ġsituations",
        -10.16912081883262
      ],
      [
        "Ġshade",
        -10.170469577369817
      ],
      [
        "tely",
        -10.171725642222585
      ],
      [
        "Ġdesir",
        -10.172029784787808
      ],
      [
        "Ġprofessor",
        -10.172979094946603
      ],
      [
        "Ġcompetition",
        -10.172987856063887
      ],
      [
        "Ġdownload",
        -10.173121115247866
      ],
      [
        "Ġintake",
        -10.173403813273476
      ],
      [
        "use",
        -10.173593659103368
      ],
      [
        "ose",
        -10.173660147339566
      ],
      [
        "ĠHome",
        -10.17373624256456
      ],
      [
        "stone",
        -10.173845941574804
      ],
      [
        "Ġriver",
        -10.174269734632515
      ],
      [
        "Ġlayers",
        -10.175332548959403
      ],
      [
        "Ġproduc",
        -10.175945255097812
      ],
      [
        "Ġthorough",
        -10.1774038796265
      ],
      [
        "Ġcomparison",
        -10.177406337381878
      ],
      [
        "Ġgreenhouse",
        -10.177505367397682
      ],
      [
        "Ġtrick",
        -10.177655055661802
      ],
      [
        "Ġ...Ċ",
        -10.178431009799649
      ],
      [
        "group",
        -10.178587926682528
      ],
      [
        "Ġplanting",
        -10.179261408062374
      ],
      [
        "ĠSee",
        -10.179696421431178
      ],
      [
        "Ġshowing",
        -10.179767961557456
      ],
      [
        "dom",
        -10.181027764915632
      ],
      [
        "Ġfeather",
        -10.181902970284035
      ],
      [
        "round",
        -10.183955714012168
      ],
      [
        "ĠBoth",
        -10.184295132015649
      ],
      [
        "Ġintroduc",
        -10.184488896790644
      ],
      [
        "ious",
        -10.185198635013752
      ],
      [
        "wise",
        -10.185338571843076
      ],
      [
        "Ġrealize",
        -10.185764632959687
      ],
      [
        "Ġprecise",
        -10.186312616403404
      ],
      [
        "Ġthread",
        -10.186321389833862
      ],
      [
        "Ġinitiative",
        -10.186362140246535
      ],
      [
        "q",
        -10.187120866137867
      ],
      [
        "Ġedit",
        -10.187779506464372
      ],
      [
        "Ġquantit",
        -10.187973718086395
      ],
      [
        "Ġmanag",
        -10.18830123116052
      ],
      [
        "some",
        -10.188967635557391
      ],
      [
        "ĠGet",
        -10.189253191843685
      ],
      [
        "uff",
        -10.189978577700352
      ],
      [
        "IT",
        -10.19037513419173
      ],
      [
        "Ġcomputers",
        -10.190865916348336
      ],
      [
        "ĠGood",
        -10.191553086055189
      ],
      [
        "According",
        -10.192303894557869
      ],
      [
        "Ġahead",
        -10.192823188561936
      ],
      [
        "More",
        -10.19398406197908
      ],
      [
        "Ġtall",
        -10.19455555849326
      ],
      [
        "-time",
        -10.194748766390504
      ],
      [
        "Ġfossil",
        -10.197178666268332
      ],
      [
        "Ġcreativ",
        -10.197753571399506
      ],
      [
        "ership",
        -10.19845479269356
      ],
      [
        "Ġdistinct",
        -10.199545412284971
      ],
      [
        "Ġflood",
        -10.199736274692054
      ],
      [
        "Ġantenna",
        -10.199828486067553
      ],
      [
        "Ġappreciate",
        -10.199875969001036
      ],
      [
        "Ġtrace",
        -10.199917520222268
      ],
      [
        "red",
        -10.20097150738234
      ],
      [
        "from",
        -10.20232244129003
      ],
      [
        "ĠCare",
        -10.202554709043543
      ],
      [
        "Ġofficial",
        -10.20422474857686
      ],
      [
        "Ġreward",
        -10.204409803620614
      ],
      [
        "ham",
        -10.205765273385497
      ],
      [
        "Ġexcit",
        -10.206291328821807
      ],
      [
        "Ġsong",
        -10.208477326533544
      ],
      [
        "ick",
        -10.208742314796488
      ],
      [
        "ĠSociet",
        -10.208937968519416
      ],
      [
        "Ġherb",
        -10.20998311485734
      ],
      [
        "Ġbite",
        -10.2101527715177
      ],
      [
        "Ġbean",
        -10.21291686586141
      ],
      [
        "Ġvisibl",
        -10.213546877921962
      ],
      [
        "ES",
        -10.214871787642751
      ],
      [
        "ĠJune",
        -10.21500333660076
      ],
      [
        "Ġupdate",
        -10.216229600305002
      ],
      [
        "Ġbreast",
        -10.218120047528911
      ],
      [
        "Ġstructural",
        -10.218134060811892
      ],
      [
        "Ġorange",
        -10.218202329622724
      ],
      [
        "head",
        -10.218299813740646
      ],
      [
        "Ġstroke",
        -10.218306532471104
      ],
      [
        "Ġcalories",
        -10.218566972308947
      ],
      [
        "Ġboil",
        -10.218987896728766
      ],
      [
        "Ġcontract",
        -10.219031933380188
      ],
      [
        "Ġtrial",
        -10.219862839402738
      ],
      [
        "Ġtear",
        -10.220564246637814
      ],
      [
        "ual",
        -10.220688630263172
      ],
      [
        "Ġmolecular",
        -10.220927001692562
      ],
      [
        "but",
        -10.22202330198389
      ],
      [
        "form",
        -10.222108730552506
      ],
      [
        "Ġacademic",
        -10.222763044018064
      ],
      [
        "Ġpond",
        -10.222859145613548
      ],
      [
        "ĠStep",
        -10.223398778711951
      ],
      [
        "Ġhistorical",
        -10.223817288455168
      ],
      [
        "nel",
        -10.22415949096873
      ],
      [
        "biology",
        -10.22442353057642
      ],
      [
        "Ġoral",
        -10.22446133124134
      ],
      [
        "pH",
        -10.224830819309084
      ],
      [
        "Ġcompos",
        -10.225929234940182
      ],
      [
        "Ġformula",
        -10.226751782738283
      ],
      [
        "Ġplus",
        -10.2269101661315
      ],
      [
        "Ġputt",
        -10.22711501223822
      ],
      [
        "Ġlots",
        -10.22790333768848
      ],
      [
        "Ġtrade",
        -10.228103667053087
      ],
      [
        "Ġhydrogen",
        -10.22924047682087
      ],
      [
        "ĠBritish",
        -10.229365840099511
      ],
      [
        "Ġcopy",
        -10.23085492678738
      ],
      [
        "Ġdigesti",
        -10.230887312968722
      ],
      [
        "Ġprior",
        -10.230997097496047
      ],
      [
        "Ġbelt",
        -10.231672812893278
      ],
      [
        "Ġguess",
        -10.232124221557138
      ],
      [
        "ĠAugust",
        -10.23257177623136
      ],
      [
        "ĠTake",
        -10.23265912401092
      ],
      [
        "Ġsouth",
        -10.233019981567091
      ],
      [
        "Ġlawn",
        -10.23334342609142
      ],
      [
        "Ġconstruct",
        -10.233897535969046
      ],
      [
        "-of",
        -10.234623683439928
      ],
      [
        "AND",
        -10.234756761331164
      ],
      [
        "ĠFrench",
        -10.23506563618478
      ],
      [
        "ĠEnergy",
        -10.236521275341213
      ],
      [
        "Ġlab",
        -10.2369598441605
      ],
      [
        "Ġmistake",
        -10.238591619043174
      ],
      [
        "Ġnorth",
        -10.240856694766109
      ],
      [
        "Ġsediment",
        -10.2414991417509
      ],
      [
        "Ġmobile",
        -10.241501888943905
      ],
      [
        "Ġinnovative",
        -10.241503733513916
      ],
      [
        "Ġmammal",
        -10.241566944639244
      ],
      [
        "rap",
        -10.241603659371156
      ],
      [
        "Ġguid",
        -10.241758599309565
      ],
      [
        "ĠAny",
        -10.241877288064972
      ],
      [
        "Ġtea",
        -10.242368822276536
      ],
      [
        "Ġspen",
        -10.242694679104924
      ],
      [
        "Ġoxidati",
        -10.242756260026864
      ],
      [
        "Ġimagine",
        -10.243317628783572
      ],
      [
        "ĠIndian",
        -10.243643705003793
      ],
      [
        "Ġbroken",
        -10.24464207730829
      ],
      [
        "gar",
        -10.245493786411348
      ],
      [
        "Ġpictures",
        -10.24550056790206
      ],
      [
        "ene",
        -10.2460556894478
      ],
      [
        "Ġtrouble",
        -10.246241900347291
      ],
      [
        "Ġkidney",
        -10.24625392762849
      ],
      [
        "ĠOcto",
        -10.246904391607645
      ],
      [
        "iness",
        -10.24731540412527
      ],
      [
        "Ġvelocit",
        -10.247490375483387
      ],
      [
        "Ġrecovery",
        -10.24790828132248
      ],
      [
        "Ġcustom",
        -10.249003987666573
      ],
      [
        "Ġclinical",
        -10.249694394451485
      ],
      [
        "Ġattribute",
        -10.25016686803895
      ],
      [
        "Ġconsult",
        -10.250240458933938
      ],
      [
        "Ġtoxic",
        -10.250520359369988
      ],
      [
        "ought",
        -10.250935234226333
      ],
      [
        "Ġequivalent",
        -10.251000160646626
      ],
      [
        "Ġidentit",
        -10.251009882675124
      ],
      [
        "Ġscene",
        -10.251325104767076
      ],
      [
        "ong",
        -10.252335155022411
      ],
      [
        "Ġhelping",
        -10.252858211823895
      ],
      [
        "Ġsent",
        -10.253203346478848
      ],
      [
        "Ġwouldn",
        -10.253780039132817
      ],
      [
        "ĠCheck",
        -10.254253265792135
      ],
      [
        "back",
        -10.25485672838861
      ],
      [
        "bar",
        -10.25507756116626
      ],
      [
        "Ġrecipe",
        -10.255729670839523
      ],
      [
        "Ġcooked",
        -10.255738038921448
      ],
      [
        "Ġchocolate",
        -10.25578485501102
      ],
      [
        "Ma",
        -10.256149235682695
      ],
      [
        "ĠJohn",
        -10.256645592398511
      ],
      [
        "ĠWhere",
        -10.25740310654183
      ],
      [
        "Ġdecided",
        -10.257633587772348
      ],
      [
        "ĠWork",
        -10.257850764161091
      ],
      [
        "Ġinstrument",
        -10.258319152069706
      ],
      [
        "mar",
        -10.258470528992357
      ],
      [
        "Ro",
        -10.259935387606763
      ],
      [
        "Ġsurprise",
        -10.26059254088076
      ],
      [
        "Ġpredator",
        -10.260603848821102
      ],
      [
        "Ġbulb",
        -10.260612919456303
      ],
      [
        "Ġfan",
        -10.261534093560108
      ],
      [
        "Ġprotective",
        -10.262016701733229
      ],
      [
        "Ġteams",
        -10.262039572309646
      ],
      [
        "har",
        -10.262460953760808
      ],
      [
        "Ġattend",
        -10.265155524096436
      ],
      [
        "Ġintervention",
        -10.265423462017845
      ],
      [
        "Ġsteam",
        -10.265424367909144
      ],
      [
        "Ġbowl",
        -10.265782099763582
      ],
      [
        "ack",
        -10.265809196573782
      ],
      [
        "Ġpink",
        -10.266349120146655
      ],
      [
        "ulation",
        -10.266622103514944
      ],
      [
        "Ġinvest",
        -10.268188613651736
      ],
      [
        "Ġgase",
        -10.270085944725473
      ],
      [
        "Ġbarrier",
        -10.270278388196058
      ],
      [
        "Ġincorporate",
        -10.27052321150869
      ],
      [
        "Ġpackage",
        -10.270750846061674
      ],
      [
        "Ġmodule",
        -10.270826543187631
      ],
      [
        "Ġbutter",
        -10.271157948581504
      ],
      [
        "ung",
        -10.27184862411118
      ],
      [
        "Ġphysics",
        -10.27242045447676
      ],
      [
        "ĠPower",
        -10.272584563544084
      ],
      [
        "Ġbab",
        -10.27303953338598
      ],
      [
        "Ġshell",
        -10.273123100215344
      ],
      [
        "well",
        -10.273228270845513
      ],
      [
        "Let",
        -10.273467522435212
      ],
      [
        "ĠGuide",
        -10.273914144205865
      ],
      [
        "ĠAr",
        -10.274951287042008
      ],
      [
        "Ġinstitution",
        -10.275156238622763
      ],
      [
        "Ġsudden",
        -10.275167700273856
      ],
      [
        "Ġimport",
        -10.27547012275221
      ],
      [
        "Ġtrail",
        -10.276302277853723
      ],
      [
        "Ġdynamic",
        -10.276388023557022
      ],
      [
        "lic",
        -10.276734493312118
      ],
      [
        "-on",
        -10.277336545130202
      ],
      [
        "ĠPi",
        -10.27749785841642
      ],
      [
        "Ġuniverse",
        -10.277659239636511
      ],
      [
        "Ġliver",
        -10.277890482393795
      ],
      [
        "Ġpan",
        -10.277931748532058
      ],
      [
        "ĠTechnology",
        -10.27932987066768
      ],
      [
        "Ġvast",
        -10.280216080632677
      ],
      [
        "History",
        -10.28048935334436
      ],
      [
        "Ġincorporat",
        -10.280719006317968
      ],
      [
        "ĠBr",
        -10.281095058406144
      ],
      [
        "Ġyouth",
        -10.281429684614562
      ],
      [
        "Ġhazard",
        -10.281962881337796
      ],
      [
        "AL",
        -10.282224635041052
      ],
      [
        "Ġfault",
        -10.282424850908704
      ],
      [
        "Ġwheel",
        -10.28348826228023
      ],
      [
        "tri",
        -10.2839925696825
      ],
      [
        "Ġecosystem",
        -10.284409530735749
      ],
      [
        "ĠEast",
        -10.285227386189945
      ],
      [
        "Ġseven",
        -10.285832301209515
      ],
      [
        "ified",
        -10.28604037519714
      ],
      [
        "ĠPa",
        -10.286114144843198
      ],
      [
        "Ġderive",
        -10.286563719905658
      ],
      [
        "Ġrepeat",
        -10.287370173862922
      ],
      [
        "Ġmis",
        -10.287473254037144
      ],
      [
        "Ġsupplie",
        -10.289270723584265
      ],
      [
        "part",
        -10.289707402821222
      ],
      [
        "ker",
        -10.289799650392602
      ],
      [
        "Ġspirit",
        -10.289896307978188
      ],
      [
        "Ġthreaten",
        -10.289926005836172
      ],
      [
        "Ġlaser",
        -10.290087464313611
      ],
      [
        "ĠChe",
        -10.290583899877792
      ],
      [
        "ĠCollege",
        -10.291704414651072
      ],
      [
        "eath",
        -10.292429956048322
      ],
      [
        "ĠSu",
        -10.2925850179033
      ],
      [
        "abl",
        -10.293781824833715
      ],
      [
        "ĠWest",
        -10.29440804599227
      ],
      [
        "ell",
        -10.294837147209416
      ],
      [
        "Ġturtle",
        -10.294911102950724
      ],
      [
        "ÂŃ",
        -10.294917338537465
      ],
      [
        "ĠWild",
        -10.294957816376954
      ],
      [
        "Ġfeedback",
        -10.295023563469318
      ],
      [
        "New",
        -10.29504683740222
      ],
      [
        "ĠRed",
        -10.2953839581588
      ],
      [
        "Ġinner",
        -10.295461409794823
      ],
      [
        "Ġroute",
        -10.29599237554094
      ],
      [
        "Ġpolitical",
        -10.296099540187743
      ],
      [
        "Onc",
        -10.296102606517902
      ],
      [
        "Ġtail",
        -10.296955581517404
      ],
      [
        "mat",
        -10.297079923861004
      ],
      [
        "Ġmountain",
        -10.297123341482015
      ],
      [
        "otherwise",
        -10.297309667393003
      ],
      [
        "].",
        -10.297791610708376
      ],
      [
        "LE",
        -10.298707988454796
      ],
      [
        "Ġadventure",
        -10.298997214484904
      ],
      [
        "ĠAfrican",
        -10.29950985170034
      ],
      [
        "Ġintelligence",
        -10.299909565012598
      ],
      [
        "Ġgradual",
        -10.299910606364488
      ],
      [
        "rad",
        -10.299934514075806
      ],
      [
        "rich",
        -10.300975661601278
      ],
      [
        "Ġchoices",
        -10.301090100058705
      ],
      [
        "Ġdust",
        -10.301092990519129
      ],
      [
        "ĠHo",
        -10.301393406841488
      ],
      [
        "Ġusage",
        -10.301945159751686
      ],
      [
        "ĠCat",
        -10.301988454653284
      ],
      [
        "ĠNi",
        -10.302131334675815
      ],
      [
        "Ġloose",
        -10.302248402929791
      ],
      [
        "ï¿½ï¿½",
        -10.3026830002847
      ],
      [
        "ĠPre",
        -10.30405858050574
      ],
      [
        "Ġminimal",
        -10.304150406607144
      ],
      [
        "Ġdiagnosis",
        -10.305116944861789
      ],
      [
        "Ġhardware",
        -10.305249426208237
      ],
      [
        "Ġspaces",
        -10.30552112199812
      ],
      [
        "Ġinsulati",
        -10.305948891365189
      ],
      [
        "ari",
        -10.30668634977935
      ],
      [
        "ĠWashington",
        -10.307200536946
      ],
      [
        "ĠHer",
        -10.307348115004109
      ],
      [
        "Ġdigest",
        -10.307787505433955
      ],
      [
        "Ġrapid",
        -10.308581936445222
      ],
      [
        "Ġplug",
        -10.30898338779076
      ],
      [
        "Hi",
        -10.30914882325814
      ],
      [
        "Ġpose",
        -10.309304873453955
      ],
      [
        "Ġtransmission",
        -10.310006837695044
      ],
      [
        "Ġmild",
        -10.310156000649124
      ],
      [
        "Ġlaws",
        -10.31022521258081
      ],
      [
        "Ġvegetable",
        -10.31056697796764
      ],
      [
        "Ġalter",
        -10.310715842803171
      ],
      [
        "Ġgap",
        -10.31106958135594
      ],
      [
        "Ġflu",
        -10.3114614012237
      ],
      [
        "Ġpermanent",
        -10.311477208509649
      ],
      [
        "Ġgrant",
        -10.311514863729506
      ],
      [
        "ĠLook",
        -10.312176369775823
      ],
      [
        "ĠFe",
        -10.312451254052093
      ],
      [
        "ĠBlue",
        -10.312663333796037
      ],
      [
        "ĠHis",
        -10.31280126059983
      ],
      [
        "Ġdirector",
        -10.314863627642492
      ],
      [
        "Ġdelicious",
        -10.315074773089371
      ],
      [
        "Ġswimming",
        -10.315076272348689
      ],
      [
        "Ġcolumn",
        -10.315076811900934
      ],
      [
        "Ġtrait",
        -10.315083116719247
      ],
      [
        "Ġdiffer",
        -10.315312690310613
      ],
      [
        "ĠSpace",
        -10.315561768696297
      ],
      [
        "you",
        -10.315566577216426
      ],
      [
        "Ġcamp",
        -10.315648968933338
      ],
      [
        "Ġscore",
        -10.315865683473143
      ],
      [
        "Ġinstallation",
        -10.31631293159996
      ],
      [
        "Ġforget",
        -10.317050030565332
      ],
      [
        "Ġopening",
        -10.317272495286042
      ],
      [
        "Ġadequate",
        -10.317492400624186
      ],
      [
        "Ġedges",
        -10.317912471247745
      ],
      [
        "AD",
        -10.317943955117457
      ],
      [
        "Ġcoal",
        -10.31852526992792
      ],
      [
        "ĠGoogle",
        -10.31877301479567
      ],
      [
        "?\"",
        -10.319523188113951
      ],
      [
        "Ġlinked",
        -10.319570749624338
      ],
      [
        "Ġpen",
        -10.31964584763065
      ],
      [
        "Ġfoster",
        -10.32017700114604
      ],
      [
        "Ġheavi",
        -10.320178514541036
      ],
      [
        "Ġnutritional",
        -10.320346271656655
      ],
      [
        "Ġincome",
        -10.321108300899406
      ],
      [
        "ĠRemember",
        -10.322005670675251
      ],
      [
        "cle",
        -10.32220426355944
      ],
      [
        "ĠHuman",
        -10.323275464988484
      ],
      [
        "Researchers",
        -10.323760452117517
      ],
      [
        "ĠStudent",
        -10.32395917876552
      ],
      [
        "Ġtopics",
        -10.323994264412224
      ],
      [
        "Ġgenerat",
        -10.324012028590824
      ],
      [
        "Ġorganize",
        -10.324026193509711
      ],
      [
        "Ġaudience",
        -10.325291584085283
      ],
      [
        "ĠAssociation",
        -10.32533704116684
      ],
      [
        "Ġcommunicate",
        -10.3253478481953
      ],
      [
        "right",
        -10.325402986267996
      ],
      [
        "Ġplays",
        -10.325927352623244
      ],
      [
        "Ġpreparation",
        -10.326487794235994
      ],
      [
        "Ġrapidly",
        -10.326720647121835
      ],
      [
        "ox",
        -10.32685876141798
      ],
      [
        "Ġsharp",
        -10.327033092954252
      ],
      [
        "...Ċ",
        -10.330204745391402
      ],
      [
        "Ġpadd",
        -10.330326544976009
      ],
      [
        "Ġdiagram",
        -10.330446459937807
      ],
      [
        "Ġinflammation",
        -10.330447782871772
      ],
      [
        "Ġbathroom",
        -10.330473055901283
      ],
      [
        "Ġmask",
        -10.330635289400846
      ],
      [
        "Ð",
        -10.330757714394172
      ],
      [
        "Ġbleed",
        -10.330937429539173
      ],
      [
        "Ġworse",
        -10.331963001327685
      ],
      [
        "ĠThrough",
        -10.33204085601329
      ],
      [
        "Ġparticipate",
        -10.332286601139112
      ],
      [
        "ĠEar",
        -10.332406884961378
      ],
      [
        "Ġweak",
        -10.33285363869117
      ],
      [
        "Ġwasn",
        -10.334364497832237
      ],
      [
        "Ġmeasuring",
        -10.33562760411722
      ],
      [
        "Ðµ",
        -10.335878608811765
      ],
      [
        "Ġ{",
        -10.33605897390531
      ],
      [
        "log",
        -10.337076885581377
      ],
      [
        "ĠLike",
        -10.337153080865413
      ],
      [
        "jo",
        -10.337208946818729
      ],
      [
        "Ġagricultural",
        -10.337579644390646
      ],
      [
        "Ġboundar",
        -10.337585007543684
      ],
      [
        "Ġro",
        -10.338103346637388
      ],
      [
        "Ġwings",
        -10.338956955206305
      ],
      [
        "Ġthrive",
        -10.33902975736564
      ],
      [
        "Ġthermal",
        -10.339395510365256
      ],
      [
        "ĠWeb",
        -10.339701423450748
      ],
      [
        "Ġtown",
        -10.340069982380584
      ],
      [
        "Ġmiss",
        -10.340695215620109
      ],
      [
        "Ġcategori",
        -10.34076856676714
      ],
      [
        "ĠPhotoshop",
        -10.340836337319349
      ],
      [
        "Ġrandom",
        -10.34085246365076
      ],
      [
        "Ġprofit",
        -10.340856343013854
      ],
      [
        "Ġtropical",
        -10.340902205672286
      ],
      [
        "Ġmanner",
        -10.341076255755528
      ],
      [
        "ET",
        -10.34132189407243
      ],
      [
        "cu",
        -10.34156766373652
      ],
      [
        "ĠGu",
        -10.342039750925302
      ],
      [
        "Ġassume",
        -10.343017593805072
      ],
      [
        "ade",
        -10.34330005592266
      ],
      [
        "ĠOcean",
        -10.34394028623278
      ],
      [
        "ura",
        -10.345267137466989
      ],
      [
        "La",
        -10.34542847377448
      ],
      [
        "Ġsauce",
        -10.346056815187437
      ],
      [
        "Ġdiameter",
        -10.346071700593626
      ],
      [
        "Ġgift",
        -10.346072930614447
      ],
      [
        "Ġcavit",
        -10.346507441843622
      ],
      [
        "Ġmassive",
        -10.346900946371203
      ],
      [
        "imp",
        -10.34716088882529
      ],
      [
        "Ġkm",
        -10.347560400394972
      ],
      [
        "Ġj",
        -10.348636669723607
      ],
      [
        "Ġtie",
        -10.349065451301367
      ],
      [
        "Con",
        -10.34992597408585
      ],
      [
        "Ġpure",
        -10.35088633567791
      ],
      [
        "Ġengaging",
        -10.351334708404512
      ],
      [
        "Ġspider",
        -10.351335078585048
      ],
      [
        "Ġworkshop",
        -10.351384195027345
      ],
      [
        "Ġparasite",
        -10.35161680602885
      ],
      [
        "Ġdose",
        -10.352374692877058
      ],
      [
        "Ġquote",
        -10.35251280295504
      ],
      [
        "intended",
        -10.353836224198089
      ],
      [
        "Ġinjuries",
        -10.354139887923894
      ],
      [
        "ĠWi",
        -10.354738098327406
      ],
      [
        "qua",
        -10.354978893718398
      ],
      [
        "\"The",
        -10.355195515112658
      ],
      [
        "Ġachiev",
        -10.355386572774854
      ],
      [
        "ect",
        -10.355845705316447
      ],
      [
        "ĠRead",
        -10.35597367129646
      ],
      [
        "Ġprey",
        -10.356522070750554
      ],
      [
        ".[",
        -10.356550174462043
      ],
      [
        "com",
        -10.35655573192362
      ],
      [
        "Ġdream",
        -10.356626756459493
      ],
      [
        "Ġpotato",
        -10.35662742982988
      ],
      [
        "Ġbelief",
        -10.356628437809595
      ],
      [
        "Ġanimation",
        -10.356629869300145
      ],
      [
        "ĠDisease",
        -10.356634809324994
      ],
      [
        "ĠAM",
        -10.35752729809533
      ],
      [
        "ĠCommon",
        -10.357787850294873
      ],
      [
        "Ġpossibl",
        -10.357971965307373
      ],
      [
        "Ġindustrie",
        -10.35828604490887
      ],
      [
        "IN",
        -10.358428440331531
      ],
      [
        "Ġdetermin",
        -10.358555860392585
      ],
      [
        "Ġrely",
        -10.358675773950193
      ],
      [
        "From",
        -10.358753487403463
      ],
      [
        "Ġexcess",
        -10.361672593330349
      ],
      [
        "Ġrestaurant",
        -10.361944818100758
      ],
      [
        "Ġinterior",
        -10.3619748018953
      ],
      [
        "ĠVer",
        -10.362333028156556
      ],
      [
        "app",
        -10.362606931328074
      ],
      [
        "ĠLu",
        -10.363200266339527
      ],
      [
        "ebru",
        -10.36337490432786
      ],
      [
        "rry",
        -10.36416597790488
      ],
      [
        "old",
        -10.36430591019002
      ],
      [
        "Ġauto",
        -10.365043545324363
      ],
      [
        "Ġsight",
        -10.365782806629667
      ],
      [
        "ĠLondon",
        -10.367292578565117
      ],
      [
        "Ġlitter",
        -10.367329318538568
      ],
      [
        "Ġcollaboration",
        -10.36742174238665
      ],
      [
        "ĠEngl",
        -10.367668319525157
      ],
      [
        "Ġfelt",
        -10.36818391288169
      ],
      [
        "Ġbi",
        -10.368406740721998
      ],
      [
        "Ġsmok",
        -10.369292731355989
      ],
      [
        "Since",
        -10.369543252556804
      ],
      [
        "dministration",
        -10.36965161903136
      ],
      [
        "Ġdesigner",
        -10.36988430849183
      ],
      [
        "Even",
        -10.369925733269133
      ],
      [
        "ĠMar",
        -10.37023725304244
      ],
      [
        "air",
        -10.371295858911488
      ],
      [
        "ĠDesign",
        -10.372435938827682
      ],
      [
        "Ã",
        -10.3725186595296
      ],
      [
        "Ġdelay",
        -10.372845885124129
      ],
      [
        "Ġpar",
        -10.372964778850918
      ],
      [
        "Ġcord",
        -10.37301301379838
      ],
      [
        "Ġopposite",
        -10.373308834620271
      ],
      [
        "Ġsector",
        -10.37332279523089
      ],
      [
        "Ġadjustment",
        -10.373400244817203
      ],
      [
        "ĠControl",
        -10.373582441915886
      ],
      [
        "Ġcow",
        -10.373618603744443
      ],
      [
        "ED",
        -10.374079259308315
      ],
      [
        "Ġstring",
        -10.374869873252951
      ],
      [
        "Ġwin",
        -10.375334799489742
      ],
      [
        "see",
        -10.376472098139953
      ],
      [
        "Ġconsum",
        -10.376713687423486
      ],
      [
        "Ġfloat",
        -10.376981495916748
      ],
      [
        "ĠAct",
        -10.377438174756094
      ],
      [
        "rom",
        -10.377543525925866
      ],
      [
        "surance",
        -10.377553579143866
      ],
      [
        "Ġnervous",
        -10.37807416497706
      ],
      [
        "ĠNatural",
        -10.378902935242008
      ],
      [
        "Ġabilit",
        -10.379096424101444
      ],
      [
        "Str",
        -10.379392794661612
      ],
      [
        "Ġphilosoph",
        -10.379511203649445
      ],
      [
        "ĠChrist",
        -10.381500663303148
      ],
      [
        "Ġex",
        -10.38208420328633
      ],
      [
        "Ġeco",
        -10.382345404803733
      ],
      [
        "Ġevaluate",
        -10.382780391798256
      ],
      [
        "Ġdanger",
        -10.383300653294
      ],
      [
        "Ġsegment",
        -10.383509026016425
      ],
      [
        "Ġgender",
        -10.383514501331838
      ],
      [
        "Ġnarrow",
        -10.383526081975106
      ],
      [
        "Ġperception",
        -10.383648689314224
      ],
      [
        "ĠLight",
        -10.383666255192026
      ],
      [
        "Ġalert",
        -10.3837709183642
      ],
      [
        "Ġlake",
        -10.38377893019794
      ],
      [
        "ĠGeneral",
        -10.383864474019926
      ],
      [
        "Ġvibrant",
        -10.383877029464031
      ],
      [
        "Ġsmoke",
        -10.384396831106466
      ],
      [
        "ĠBa",
        -10.385292959321887
      ],
      [
        "Ġautomat",
        -10.38533996098464
      ],
      [
        "ĠLaw",
        -10.385420514886611
      ],
      [
        "ĠGreek",
        -10.385679641812708
      ],
      [
        "ja",
        -10.385942001748804
      ],
      [
        "AM",
        -10.38650773690926
      ],
      [
        "han",
        -10.386599787434442
      ],
      [
        "Ġpresentation",
        -10.38680521169614
      ],
      [
        "Ġorgans",
        -10.386952423035034
      ],
      [
        "Ġwoman",
        -10.387347506682609
      ],
      [
        "Ġprove",
        -10.38738217789447
      ],
      [
        "ĠArt",
        -10.388749246722206
      ],
      [
        "Ġfacing",
        -10.388981744363525
      ],
      [
        "Ġalign",
        -10.38939631408107
      ],
      [
        "Ġobserv",
        -10.390040009082789
      ],
      [
        "$\\",
        -10.390253262176394
      ],
      [
        "Ġsink",
        -10.390314670937906
      ],
      [
        "Ġprogramme",
        -10.390335092307213
      ],
      [
        "Ġshoot",
        -10.390636355028615
      ],
      [
        "Ġmanufacturers",
        -10.391332748449958
      ],
      [
        "Ġserver",
        -10.391394145286274
      ],
      [
        "Ġexperienc",
        -10.39141449124044
      ],
      [
        "ĠConsider",
        -10.391604423152398
      ],
      [
        "Ġinsect",
        -10.391802253123553
      ],
      [
        "Ġdiagnose",
        -10.391823838678295
      ],
      [
        "ĠAnimal",
        -10.391901501911898
      ],
      [
        "Ġsex",
        -10.391920059837986
      ],
      [
        "Ġneck",
        -10.391980814808829
      ],
      [
        "ĠEx",
        -10.392159261586649
      ],
      [
        "Ġmovie",
        -10.392517870702113
      ],
      [
        "Ġaward",
        -10.392645035401298
      ],
      [
        "Ġkit",
        -10.392721913700152
      ],
      [
        "Ġcomput",
        -10.393104819255852
      ],
      [
        "Ġfence",
        -10.393430833919606
      ],
      [
        "%)",
        -10.3945340637288
      ],
      [
        "ĠEngineer",
        -10.395270227306549
      ],
      [
        "ST",
        -10.396020365436977
      ],
      [
        "Ġlimitation",
        -10.396370615618691
      ],
      [
        "sistance",
        -10.397362757477856
      ],
      [
        "Ġavailabil",
        -10.397811766715808
      ],
      [
        "bra",
        -10.397945307114425
      ],
      [
        "Ġmissing",
        -10.398691739692296
      ],
      [
        "qui",
        -10.399253906675316
      ],
      [
        "Ġferment",
        -10.400009378617408
      ],
      [
        "Ġmo",
        -10.40005335679244
      ],
      [
        "Ġauthors",
        -10.40022126002082
      ],
      [
        "Ġcircle",
        -10.400281883984468
      ],
      [
        "Ġspectr",
        -10.40090998891574
      ],
      [
        "Ġpathway",
        -10.401208347712352
      ],
      [
        "Ġtax",
        -10.402065743867674
      ],
      [
        "Ġformer",
        -10.403084066378756
      ],
      [
        "Ġrealit",
        -10.40328901350324
      ],
      [
        "Ġrecover",
        -10.403697844158897
      ],
      [
        "MS",
        -10.40466897235526
      ],
      [
        "Ġsales",
        -10.405208316913107
      ],
      [
        "ĠProject",
        -10.405414569026984
      ],
      [
        "Ġcoral",
        -10.405613664888058
      ],
      [
        "Ġunlike",
        -10.406238265231996
      ],
      [
        "Ġnet",
        -10.406410167927303
      ],
      [
        "Ġbridge",
        -10.40647594622232
      ],
      [
        "Ġarrive",
        -10.406499044553106
      ],
      [
        "top",
        -10.407106513150126
      ],
      [
        "my",
        -10.408809587530174
      ],
      [
        "Ġdishe",
        -10.409069040967564
      ],
      [
        "AP",
        -10.409354650779196
      ],
      [
        "Ġhunting",
        -10.409543100403347
      ],
      [
        "Ġecosystems",
        -10.409586731011348
      ],
      [
        "Ġcharacterize",
        -10.409786345123871
      ],
      [
        "Ġlense",
        -10.41007116436599
      ],
      [
        "Ġanalyze",
        -10.410153846296764
      ],
      [
        "Ġreverse",
        -10.410324462443146
      ],
      [
        "ĠTHE",
        -10.41045819407741
      ],
      [
        "ĠInterne",
        -10.410791530395317
      ],
      [
        "ĠGra",
        -10.411590328548709
      ],
      [
        "Ġsexual",
        -10.41254727075624
      ],
      [
        "Ġcontribut",
        -10.413454308744983
      ],
      [
        "Ġpolic",
        -10.413558481974295
      ],
      [
        "istic",
        -10.413840796329673
      ],
      [
        "ĠSi",
        -10.414817926158731
      ],
      [
        "Tra",
        -10.415121371075257
      ],
      [
        "ĠGen",
        -10.415178994591743
      ],
      [
        "Ġcombin",
        -10.415299932872928
      ],
      [
        "Ġconfidence",
        -10.415397187167194
      ],
      [
        "SE",
        -10.4162146698652
      ],
      [
        "Ġconversation",
        -10.416752922091192
      ],
      [
        "Ġantibiotic",
        -10.41678871672239
      ],
      [
        "Ġborder",
        -10.41680419017715
      ],
      [
        "Ġfascinat",
        -10.416833018815137
      ],
      [
        "Ġvet",
        -10.41716948557038
      ],
      [
        "Not",
        -10.417261969749848
      ],
      [
        "bl",
        -10.41938946574418
      ],
      [
        "Ġgather",
        -10.420355564218948
      ],
      [
        "Ġpitch",
        -10.42044709472977
      ],
      [
        "Â·",
        -10.420572237621116
      ],
      [
        "Ġmutation",
        -10.42141840730122
      ],
      [
        "Ġswim",
        -10.422341579836267
      ],
      [
        "Ġguarantee",
        -10.422402634804955
      ],
      [
        "Ġdescription",
        -10.422402697751773
      ],
      [
        "Ġchapter",
        -10.422402704294615
      ],
      [
        "Ġecological",
        -10.422565462778964
      ],
      [
        "Ġemotion",
        -10.423438516226522
      ],
      [
        "Ġaggressive",
        -10.423714141432754
      ],
      [
        "Ġneutral",
        -10.424017982690652
      ],
      [
        "qu",
        -10.424364304690195
      ],
      [
        "Ġshapes",
        -10.424708870866082
      ],
      [
        "ĠMi",
        -10.424773602278322
      ],
      [
        "gone",
        -10.425739708205926
      ],
      [
        "ground",
        -10.42667331170712
      ],
      [
        "Ġmajorit",
        -10.427550640415165
      ],
      [
        "Ġmath",
        -10.427627114205606
      ],
      [
        "Ġcourt",
        -10.427716118124884
      ],
      [
[...]
