{
  "version": "1.0",
  "truncation": null,
  "padding": null,
  "added_tokens": [
    {
      "id": 0,
      "content": "<|bos|>",
      "single_word": false,
      "lstrip": false,
      "rstrip": false,
      "normalized": false,
      "special": true
    },
    {
      "id": 1,
      "content": "<|user_start|>",
      "single_word": false,
      "lstrip": false,
      "rstrip": false,
      "normalized": false,
      "special": true
    },
    {
      "id": 2,
      "content": "<|user_end|>",
      "single_word": false,
      "lstrip": false,
      "rstrip": false,
      "normalized": false,
      "special": true
    },
    {
      "id": 3,
      "content": "<|assistant_start|>",
      "single_word": false,
      "lstrip": false,
      "rstrip": false,
      "normalized": false,
      "special": true
    },
    {
      "id": 4,
      "content": "<|assistant_end|>",
      "single_word": false,
      "lstrip": false,
      "rstrip": false,
      "normalized": false,
      "special": true
    },
    {
      "id": 5,
      "content": "<|python_start|>",
      "single_word": false,
      "lstrip": false,
      "rstrip": false,
      "normalized": false,
      "special": true
    },
    {
      "id": 6,
      "content": "<|python_end|>",
      "single_word": false,
      "lstrip": false,
      "rstrip": false,
      "normalized": false,
      "special": true
    },
    {
      "id": 7,
      "content": "<|output_start|>",
      "single_word": false,
      "lstrip": false,
      "rstrip": false,
      "normalized": false,
      "special": true
    },
    {
      "id": 8,
      "content": "<|output_end|>",
      "single_word": false,
      "lstrip": false,
      "rstrip": false,
      "normalized": false,
      "special": true
    },
    {
      "id": 9,
      "content": "<|unk|>",
      "single_word": false,
      "lstrip": false,
      "rstrip": false,
      "normalized": false,
      "special": true
    }
  ],
  "normalizer": null,
  "pre_tokenizer": {
    "type": "Sequence",
    "pretokenizers": [
      {
        "type": "Split",
        "pattern": {
          "Regex": "'(?i:[sdmt]|ll|ve|re)|[^\\r\\n\\p{L}\\p{N}]?+\\p{L}+|\\p{N}{1,2}| ?[^\\s\\p{L}\\p{N}]++[\\r\\n]*|\\s*[\\r\\n]|\\s+(?!\\S)|\\s+"
        },
        "behavior": "Isolated",
        "invert": false
      },
      {
        "type": "ByteLevel",
        "add_prefix_space": false,
        "trim_offsets": true,
        "use_regex": false
      }
    ]
  },
  "post_processor": {
    "type": "TemplateProcessing",
    "single": [
      {
        "Sequence": {
          "id": "A",
          "type_id": 0
        }
      }
    ],
    "pair": [
      {
        "Sequence": {
          "id": "A",
          "type_id": 0
        }
      },
      {
        "Sequence": {
          "id": "B",
          "type_id": 1
        }
      }
    ],
    "special_tokens": {}
  },
  "decoder": {
    "type": "ByteLevel",
    "add_prefix_space": true,
    "trim_offsets": true,
    "use_regex": true
  },
  "model": {
    "type": "Unigram",
    "unk_id": 9,
    "vocab": [
      [
        "<|bos|>",
        -1.0
      ],
      [
        "<|user_start|>",
        -1.0
      ],
      [
        "<|user_end|>",
        -1.0
      ],
      [
        "<|assistant_start|>",
        -1.0
      ],
      [
        "<|assistant_end|>",
        -1.0
      ],
      [
        "<|python_start|>",
        -1.0
      ],
      [
        "<|python_end|>",
        -1.0
      ],
      [
        "<|output_start|>",
        -1.0
      ],
      [
        "<|output_end|>",
        -1.0
      ],
      [
        "<|unk|>",
        -1.0
      ],
      [
        "Ġav",
        -1.0
      ],
      [
        "Ġdrywall",
        -1.0
      ],
      [
        "_m",
        -1.0
      ],
      [
        "irs",
        -1.0
      ],
      [
        "Ġpermission",
        -1.0
      ],
      [
        "Ġbatch",
        -1.0
      ],
      [
        "Ġimpe",
        -1.0
      ],
      [
        "ala",
        -1.0
      ],
      [
        "Ġtyrosine",
        -1.0
      ],
      [
        "renewable",
        -1.0
      ],
      [
        "Ġreported",
        -1.0
      ],
      [
        "borough",
        -1.0
      ],
      [
        "ĠRN",
        -1.0
      ],
      [
        "eta",
        -1.0
      ],
      [
        "(R",
        -1.0
      ],
      [
        "Ġsheets",
        -1.0
      ],
      [
        "ĠEnjoy",
        -1.0
      ],
      [
        "ĠIslands",
        -1.0
      ],
      [
        "Ġkoi",
        -1.0
      ],
      [
        "gus",
        -1.0
      ],
      [
        "wl",
        -1.0
      ],
      [
        "ĠUruguay",
        -1.0
      ],
      [
        "Ġflash",
        -1.0
      ],
      [
        "Ġlawsuit",
        -1.0
      ],
      [
        "Aff",
        -1.0
      ],
      [
        "ĠFolk",
        -1.0
      ],
      [
        "Ä±",
        -1.0
      ],
      [
        "cation",
        -1.0
      ],
      [
        "ĠNorthern",
        -1.0
      ],
      [
        "ugs",
        -1.0
      ],
      [
        "Ġresemblance",
        -1.0
      ],
      [
        "Ġspi",
        -1.0
      ],
      [
        "VER",
        -1.0
      ],
      [
        "rosion",
        -1.0
      ],
      [
        "blood",
        -1.0
      ],
      [
        "-function",
        -1.0
      ],
      [
        "Ġtales",
        -1.0
      ],
      [
        "Ġgadget",
        -1.0
      ],
      [
        "Ġpackaged",
        -1.0
      ],
      [
        "Ġtrivial",
        -1.0
      ],
      [
        "Ġstep",
        -1.0
      ],
      [
        "hee",
        -1.0
      ],
      [
        "-gen",
        -1.0
      ],
      [
        "ĠYankees",
        -1.0
      ],
      [
        "Ġinvaders",
        -1.0
      ],
      [
        "ĠVI",
        -1.0
      ],
      [
        "Ġgaze",
        -1.0
      ],
      [
        "Ġlower",
        -1.0
      ],
      [
        "Ġofficial",
        -1.0
      ],
      [
        "dimensional",
        -1.0
      ],
      [
        "ĠCrown",
        -1.0
      ],
      [
        "fa",
        -1.0
      ],
      [
        "ulum",
        -1.0
      ],
      [
        "ĠPotential",
        -1.0
      ],
      [
        "Ġimper",
        -1.0
      ],
      [
        "Ġbites",
        -1.0
      ],
      [
        "Ġarrested",
        -1.0
      ],
      [
        "Ġinfects",
        -1.0
      ],
      [
        "Ġdict",
        -1.0
      ],
      [
        "Ġdug",
        -1.0
      ],
      [
        "Ġindigenous",
        -1.0
      ],
      [
        "Ġbis",
        -1.0
      ],
      [
        "Additionally",
        -1.0
      ],
      [
        "Ġillustrates",
        -1.0
      ],
      [
        "ĠSapphire",
        -1.0
      ],
      [
        "ĠAppro",
        -1.0
      ],
      [
        "-chip",
        -1.0
      ],
      [
        "Ġfor",
        -1.0
      ],
      [
        "ando",
        -1.0
      ],
      [
        "lead",
        -1.0
      ],
      [
        "ĠTwe",
        -1.0
      ],
      [
        "ĠTrail",
        -1.0
      ],
      [
        "ĠND",
        -1.0
      ],
      [
        "Ġimpaired",
        -1.0
      ],
      [
        "Ġvisits",
        -1.0
      ],
      [
        "Ġclinically",
        -1.0
      ],
      [
        "-Royce",
        -1.0
      ],
      [
        "Ġcube",
        -1.0
      ],
      [
        "February",
        -1.0
      ],
      [
        "Ġservice",
        -1.0
      ],
      [
        "ulmonary",
        -1.0
      ],
      [
        "Jun",
        -1.0
      ],
      [
        "ĠLoss",
        -1.0
      ],
      [
        "lap",
        -1.0
      ],
      [
        "pa",
        -1.0
      ],
      [
        "bre",
        -1.0
      ],
      [
        "?\"Ċ",
        -1.0
      ],
      [
        "FT",
        -1.0
      ],
      [
        "Ġdistal",
        -1.0
      ],
      [
        "Ġfoothills",
        -1.0
      ],
      [
        "Ġactin",
        -1.0
      ],
      [
        "Ġunintended",
        -1.0
      ],
      [
        "Ġlathe",
        -1.0
      ],
      [
        "Ġpetals",
        -1.0
      ],
      [
        "Ġtreadmill",
        -1.0
      ],
      [
        "Ġlivelihoods",
        -1.0
      ],
      [
        "Ġsignificant",
        -1.0
      ],
      [
        "Ġtester",
        -1.0
      ],
      [
        "Ġordered",
        -1.0
      ],
      [
        "Ġzoos",
        -1.0
      ],
      [
        "ĠNine",
        -1.0
      ],
      [
        "Ġwindow",
        -1.0
      ],
      [
        "Ġscalar",
        -1.0
      ],
      [
        "chant",
        -1.0
      ],
      [
        "Ġinvestors",
        -1.0
      ],
      [
        "ĠLar",
        -1.0
      ],
      [
        "Ġan",
        -1.0
      ],
      [
        "Ġconveys",
        -1.0
      ],
      [
        "km",
        -1.0
      ],
      [
        "security",
        -1.0
      ],
      [
        "social",
        -1.0
      ],
      [
        "Ġoverdose",
        -1.0
      ],
      [
        "Ġinvisible",
        -1.0
      ],
      [
        "ĠOutcomes",
        -1.0
      ],
      [
        "Ġeagerly",
        -1.0
      ],
      [
        "Bob",
        -1.0
      ],
      [
        "PB",
        -1.0
      ],
      [
        "-S",
        -1.0
      ],
      [
        "things",
        -1.0
      ],
      [
        "Ġwinner",
        -1.0
      ],
      [
        "Ġbreaches",
        -1.0
      ],
      [
        "Ġblocks",
        -1.0
      ],
      [
        "Ġbeehive",
        -1.0
      ],
      [
        "WS",
        -1.0
      ],
      [
        "Ġslave",
        -1.0
      ],
      [
        "Ġmonuments",
        -1.0
      ],
      [
        "Ġculinary",
        -1.0
      ],
      [
        "Ġdissolution",
        -1.0
      ],
      [
        "who",
        -1.0
      ],
      [
        "Ġinterpret",
        -1.0
      ],
      [
        "Ġpredecessor",
        -1.0
      ],
      [
        "Ġdefrost",
        -1.0
      ],
      [
        "oco",
        -1.0
      ],
      [
        "Ġpainters",
        -1.0
      ],
      [
        ".com",
        -1.0
      ],
      [
        "Ġnymphs",
        -1.0
      ],
      [
        "Ġprayers",
        -1.0
      ],
      [
        "Ġdebut",
        -1.0
      ],
      [
        "Ġinertia",
        -1.0
      ],
      [
        "Ġtranslucent",
        -1.0
      ],
      [
        "acre",
        -1.0
      ],
      [
        "format",
        -1.0
      ],
      [
        "vec",
        -1.0
      ],
      [
        "Ġstarvation",
        -1.0
      ],
      [
        "Go",
        -1.0
      ],
      [
        "ĠJobs",
        -1.0
      ],
      [
        "Ġlau",
        -1.0
      ],
      [
        "Ġnonlinear",
        -1.0
      ],
      [
        "Ġcases",
        -1.0
      ],
      [
        "Ġingenuity",
        -1.0
      ],
      [
        "ĠFord",
        -1.0
      ],
      [
        "ĠUbuntu",
        -1.0
      ],
      [
        "ĠHap",
        -1.0
      ],
      [
        "Ġslows",
        -1.0
      ],
      [
        "ĠWar",
        -1.0
      ],
      [
        "05",
        -1.0
      ],
      [
        "Ġsavvy",
        -1.0
      ],
      [
        "Sand",
        -1.0
      ],
      [
        "ĠCake",
        -1.0
      ],
      [
        "Ġdipole",
        -1.0
      ],
      [
        "ĠConcept",
        -1.0
      ],
      [
        "ĠDrop",
        -1.0
      ],
      [
        "ĠFinally",
        -1.0
      ],
      [
        "coal",
        -1.0
      ],
      [
        "ĠBlue",
        -1.0
      ],
      [
        "-headed",
        -1.0
      ],
      [
        "Ġspiral",
        -1.0
      ],
      [
        "inc",
        -1.0
      ],
      [
        "Ġinsulating",
        -1.0
      ],
      [
        "ĠIll",
        -1.0
      ],
      [
        "sau",
        -1.0
      ],
      [
        "Ġlimit",
        -1.0
      ],
      [
        "Ġomni",
        -1.0
      ],
      [
        "Ġtyp",
        -1.0
      ],
      [
        "sci",
        -1.0
      ],
      [
        "Ġimmediately",
        -1.0
      ],
      [
        "FI",
        -1.0
      ],
      [
        "Ġdiscoveries",
        -1.0
      ],
      [
        "Ġhawks",
        -1.0
      ],
      [
        "âĢĶthat",
        -1.0
      ],
      [
        "ãĥ³",
        -1.0
      ],
      [
        "Į",
        -1.0
      ],
      [
        "Ġtit",
        -1.0
      ],
      [
        "ptic",
        -1.0
      ],
      [
        "Ġlayout",
        -1.0
      ],
      [
        "Ġfeatured",
        -1.0
      ],
      [
        "Ġvirulence",
        -1.0
      ],
      [
        "morphism",
        -1.0
      ],
      [
        "ĠLincoln",
        -1.0
      ],
      [
        "Ġshoots",
        -1.0
      ],
      [
        "ĠAbu",
        -1.0
      ],
      [
        "etus",
        -1.0
      ],
      [
        "ĠAudubon",
        -1.0
      ],
      [
        "Ġadapter",
        -1.0
      ],
      [
        "ĠSchu",
        -1.0
      ],
      [
        "Ġworsening",
        -1.0
      ],
      [
        "ĠHat",
        -1.0
      ],
      [
        "Ġmotorcycles",
        -1.0
      ],
      [
        "bbing",
        -1.0
      ],
      [
        "Ġunsightly",
        -1.0
      ],
      [
        "Ġfigured",
        -1.0
      ],
      [
        "Ġirradi",
        -1.0
      ],
      [
        "\\)",
        -1.0
      ],
      [
        "Ġdates",
        -1.0
      ],
      [
        "ĠOptions",
        -1.0
      ],
      [
        "ĠSalvador",
        -1.0
      ],
      [
        "ĠHouston",
        -1.0
      ],
      [
        "Ġorchestra",
        -1.0
      ],
      [
        "ĠEmi",
        -1.0
      ],
      [
        "Ġdual",
        -1.0
      ],
      [
        "Ġclocks",
        -1.0
      ],
      [
        "Ġstaple",
        -1.0
      ],
      [
        "ivism",
        -1.0
      ],
      [
        "Av",
        -1.0
      ],
      [
        "your",
        -1.0
      ],
      [
        "{\\",
        -1.0
      ],
      [
        "Sec",
        -1.0
      ],
      [
        "Ġresearches",
        -1.0
      ],
      [
        "ĠPortable",
        -1.0
      ],
      [
        "ĠMethod",
        -1.0
      ],
      [
        "Ġactivists",
        -1.0
      ],
      [
        "Ġasking",
        -1.0
      ],
      [
        "ĠPlatinum",
        -1.0
      ],
      [
        "Ġremove",
        -1.0
      ],
      [
        "iot",
        -1.0
      ],
      [
        "families",
        -1.0
      ],
      [
        "Hot",
        -1.0
      ],
      [
        "ĠAsh",
        -1.0
      ],
      [
        "Personal",
        -1.0
      ],
      [
        "ĠSunday",
        -1.0
      ],
      [
        "cose",
        -1.0
      ],
      [
        "ĠLouisiana",
        -1.0
      ],
      [
        "Ġcomfy",
        -1.0
      ],
      [
        "ĠRobot",
        -1.0
      ],
      [
        "Ġplugged",
        -1.0
      ],
      [
        "Ġrelaxation",
        -1.0
      ],
      [
        "Ġnotified",
        -1.0
      ],
      [
        "ĠRough",
        -1.0
      ],
      [
        "Ġcucumbers",
        -1.0
      ],
      [
        "Ġsprawl",
        -1.0
      ],
      [
        "ĠWorld",
        -1.0
      ],
      [
        "float",
        -1.0
      ],
      [
        "Bed",
        -1.0
      ],
      [
        "ĠExample",
        -1.0
      ],
      [
        "Ġsexes",
        -1.0
      ],
      [
        "Ġlaw",
        -1.0
      ],
      [
        "ĠTask",
        -1.0
      ],
      [
        "Ġcollected",
        -1.0
      ],
      [
        "ta",
        -1.0
      ],
      [
        "Ġterritory",
        -1.0
      ],
      [
        "ĠCurry",
        -1.0
      ],
      [
        "Ġconverted",
        -1.0
      ],
      [
        "ĠPilot",
        -1.0
      ],
      [
        "Ġdenominator",
        -1.0
      ],
      [
        "Ġprokaryotes",
        -1.0
      ],
      [
        "Ġliving",
        -1.0
      ],
      [
        "Ġembarrassed",
        -1.0
      ],
      [
        "Ġjump",
        -1.0
      ],
      [
        "Ġtransitional",
        -1.0
      ],
      [
        "Ġinfrequent",
        -1.0
      ],
      [
        "Ġpreventing",
        -1.0
      ],
      [
        "Ġdanger",
        -1.0
      ],
      [
        "Ġsyn",
        -1.0
      ],
      [
        "cyto",
        -1.0
      ],
      [
        "Ġaeration",
        -1.0
      ],
      [
        "Ġutil",
        -1.0
      ],
      [
        "ĠCoral",
        -1.0
      ],
      [
        "Ġswine",
        -1.0
      ],
      [
        "ĠNEED",
        -1.0
      ],
      [
        "Ġautomobiles",
        -1.0
      ],
      [
        "Ġsled",
        -1.0
      ],
      [
        "Ġchihuahua",
        -1.0
      ],
      [
        "Ġext",
        -1.0
      ],
      [
        "ington",
        -1.0
      ],
      [
        "Ġvital",
        -1.0
      ],
      [
        "Ġunless",
        -1.0
      ],
      [
        "uss",
        -1.0
      ],
      [
        "Ġblisters",
        -1.0
      ],
      [
        "ĠStroke",
        -1.0
      ],
      [
        "Ġclo",
        -1.0
      ],
      [
        "-system",
        -1.0
      ],
      [
        "storm",
        -1.0
      ],
      [
        "ĠShop",
        -1.0
      ],
      [
        "Ġstealth",
        -1.0
      ],
      [
        "Concept",
        -1.0
      ],
      [
        "ĠContact",
        -1.0
      ],
      [
        "Ġanticipate",
        -1.0
      ],
      [
        "ĠMRSA",
        -1.0
      ],
      [
        "ĠBel",
        -1.0
      ],
      [
        "Ġmeasured",
        -1.0
      ],
      [
        "Ġwhile",
        -1.0
      ],
      [
        "ĠItalian",
        -1.0
      ],
      [
        "-volt",
        -1.0
      ],
      [
        "Ġcompetent",
        -1.0
      ],
      [
        "woods",
        -1.0
      ],
      [
        "avo",
        -1.0
      ],
      [
        "ĠEnzymes",
        -1.0
      ],
      [
        "Ġservings",
        -1.0
      ],
      [
        "Mexican",
        -1.0
      ],
      [
        "nourished",
        -1.0
      ],
      [
        "Ġkillers",
        -1.0
      ],
      [
        "Ġunbiased",
        -1.0
      ],
      [
        "Ġinnovative",
        -1.0
      ],
      [
        "%",
        -1.0
      ],
      [
        "Ġdislodge",
        -1.0
      ],
      [
        "math",
        -1.0
      ],
      [
        "ĠWhy",
        -1.0
      ],
      [
        "Ġuneven",
        -1.0
      ],
      [
        "Ġdefined",
        -1.0
      ],
      [
        "Ġmerchant",
        -1.0
      ],
      [
        "Qui",
        -1.0
      ],
      [
        "Ġviolation",
        -1.0
      ],
      [
        "Ġvirus",
        -1.0
      ],
      [
        "asi",
        -1.0
      ],
      [
        "ĠWorkshop",
        -1.0
      ],
      [
        "tized",
        -1.0
      ],
      [
        "ĠSap",
        -1.0
      ],
      [
        "ĠFrequently",
        -1.0
      ],
      [
        "ĠLeave",
        -1.0
      ],
      [
        "three",
        -1.0
      ],
      [
        "ishing",
        -1.0
      ],
      [
        "\"They",
        -1.0
      ],
      [
        "Ġhaplo",
        -1.0
      ],
      [
        "ĠSucculent",
        -1.0
      ],
      [
        "Ġarmy",
        -1.0
      ],
      [
        "Ġanomalous",
        -1.0
      ],
      [
        "Ġknitting",
        -1.0
      ],
      [
        "Ġarmor",
        -1.0
      ],
      [
        "Ġapp",
        -1.0
      ],
      [
        "Ġfalcon",
        -1.0
      ],
      [
        "ĠSher",
        -1.0
      ],
      [
        "ĠWithin",
        -1.0
      ],
      [
        "Ð°",
        -1.0
      ],
      [
        "Ġassessed",
        -1.0
      ],
      [
        "Ġturbo",
        -1.0
      ],
      [
        "ming",
        -1.0
      ],
      [
        "Ġaround",
        -1.0
      ],
      [
        "Ġsilt",
        -1.0
      ],
      [
        "ĠWait",
        -1.0
      ],
      [
        "-efficacy",
        -1.0
      ],
      [
        "Ġpublication",
        -1.0
      ],
      [
        "Of",
        -1.0
      ],
      [
        "Ġrecognizes",
        -1.0
      ],
      [
        "-D",
        -1.0
      ],
      [
        "ĠCommand",
        -1.0
      ],
      [
        "RM",
        -1.0
      ],
      [
        "OM",
        -1.0
      ],
      [
        "IUCN",
        -1.0
      ],
      [
        "Ġepisodic",
        -1.0
      ],
      [
        "Ġresearch",
        -1.0
      ],
      [
        "ive",
        -1.0
      ],
      [
        "Ġintegral",
        -1.0
      ],
      [
        "Ġsatisfaction",
        -1.0
      ],
      [
        "uary",
        -1.0
      ],
      [
        "Ġspa",
        -1.0
      ],
      [
        "Embrace",
        -1.0
      ],
      [
        "avour",
        -1.0
      ],
      [
        "nard",
        -1.0
      ],
      [
        "Ġpumice",
        -1.0
      ],
      [
        "Ġprojector",
        -1.0
      ],
      [
        "doi",
        -1.0
      ],
      [
        "Ġinfo",
        -1.0
      ],
      [
        "++",
        -1.0
      ],
      [
        "Ġunstable",
        -1.0
      ],
      [
        "ĠFoundation",
        -1.0
      ],
      [
        "Ġfull",
        -1.0
      ],
      [
        "ĠStack",
        -1.0
      ],
      [
        "ĠMoham",
        -1.0
      ],
      [
        "â",
        -1.0
      ],
      [
        "ulent",
        -1.0
      ],
      [
        "Ġsentences",
        -1.0
      ],
      [
        "ĠIl",
        -1.0
      ],
      [
        "Ç",
        -1.0
      ],
      [
        "Ġebook",
        -1.0
      ],
      [
        "ĠNGOs",
        -1.0
      ],
      [
        "Ġbotanical",
        -1.0
      ],
      [
        "rez",
        -1.0
      ],
      [
        "Regardless",
        -1.0
      ],
      [
        "ĠGenesis",
        -1.0
      ],
      [
        "ĠWag",
        -1.0
      ],
      [
        "cian",
        -1.0
      ],
      [
        "Ġhues",
        -1.0
      ],
      [
        "Ġseventh",
        -1.0
      ],
      [
        "num",
        -1.0
      ],
      [
        "ĠMaltese",
        -1.0
      ],
      [
        "floxacin",
        -1.0
      ],
      [
        "furor",
        -1.0
      ],
      [
        "Ġdrape",
        -1.0
      ],
      [
        "Ġmessaging",
        -1.0
      ],
      [
        "Ġunparalleled",
        -1.0
      ],
      [
        "Ġdisorder",
        -1.0
      ],
      [
        "flora",
        -1.0
      ],
      [
        "ĠEffects",
        -1.0
      ],
      [
        "Ġstator",
        -1.0
      ],
      [
        "Ġmains",
        -1.0
      ],
      [
        "ĠDAW",
        -1.0
      ],
      [
        ".\"ĊĊ",
        -1.0
      ],
      [
        "Ġlet",
        -1.0
      ],
      [
        "CA",
        -1.0
      ],
      [
        "Soc",
        -1.0
      ],
      [
        "ettes",
        -1.0
      ],
      [
        "Animal",
        -1.0
      ],
      [
        "fort",
        -1.0
      ],
      [
        "Ġpicked",
        -1.0
      ],
      [
        "Ġdiamond",
        -1.0
      ],
      [
        "Ġcampaign",
        -1.0
      ],
      [
        "Ġjaws",
        -1.0
      ],
      [
        "tyl",
        -1.0
      ],
      [
        "/E",
        -1.0
      ],
      [
        "Ġtone",
        -1.0
      ],
      [
        "ĠGua",
        -1.0
      ],
      [
        "Ġconductivity",
        -1.0
      ],
      [
        "Ġtougher",
        -1.0
      ],
      [
        "Ġthumb",
        -1.0
      ],
      [
        "Ġgod",
        -1.0
      ],
      [
        "Ġfloating",
        -1.0
      ],
      [
        "Ġdispersion",
        -1.0
      ],
      [
        "Myth",
        -1.0
      ],
      [
        "ġ",
        -1.0
      ],
      [
        "Ġpreventable",
        -1.0
      ],
      [
        "ĠWilliam",
        -1.0
      ],
      [
        "Ġrex",
        -1.0
      ],
      [
        "Ġoccurs",
        -1.0
      ],
      [
        "ĠBir",
        -1.0
      ],
      [
        "visual",
        -1.0
      ],
      [
        "ĠThroughout",
        -1.0
      ],
      [
        "ĠIntro",
        -1.0
      ],
      [
        "ĠTerritory",
        -1.0
      ],
      [
        "FDA",
        -1.0
      ],
      [
        "sequent",
        -1.0
      ],
      [
        "Ġreverse",
        -1.0
      ],
      [
        "Five",
        -1.0
      ],
      [
        "/day",
        -1.0
      ],
      [
        "-pressure",
        -1.0
      ],
      [
        "dom",
        -1.0
      ],
      [
        "ĠHygiene",
        -1.0
      ],
      [
        "Ġwont",
        -1.0
      ],
      [
        "Maybe",
        -1.0
      ],
      [
        "Ġscenery",
        -1.0
      ],
      [
        "Ġpersonal",
        -1.0
      ],
      [
        "ĠHaven",
        -1.0
      ],
      [
        "Ġknot",
        -1.0
      ],
      [
        "Ġprospect",
        -1.0
      ],
      [
        "ows",
        -1.0
      ],
      [
        "Integ",
        -1.0
      ],
      [
        "Ġbooth",
        -1.0
      ],
      [
        "Ġfrontier",
        -1.0
      ],
      [
        "Ġholly",
        -1.0
      ],
      [
        "ĠPurpose",
        -1.0
      ],
      [
        "Ġnegotiation",
        -1.0
      ],
      [
        "Ġspace",
        -1.0
      ],
      [
        "tant",
        -1.0
      ],
      [
        "Ġtoll",
        -1.0
      ],
      [
        "ĠAtlanta",
        -1.0
      ],
      [
        "Ġdowntown",
        -1.0
      ],
      [
        "coming",
        -1.0
      ],
      [
        "Conservation",
        -1.0
      ],
      [
        "Ġreverb",
        -1.0
      ],
      [
        "Ġhoof",
        -1.0
      ],
      [
        "rei",
        -1.0
      ],
      [
        "Ġnanoscale",
        -1.0
      ],
      [
        "Int",
        -1.0
      ],
      [
        "Ġtruly",
        -1.0
      ],
      [
        "Communication",
        -1.0
      ],
      [
        "iii",
        -1.0
      ],
      [
        "World",
        -1.0
      ],
      [
        "Ġfoam",
        -1.0
      ],
      [
        "Der",
        -1.0
      ],
      [
        "ĠArthritis",
        -1.0
      ],
      [
        "Ġornament",
        -1.0
      ],
      [
        "Ġshowed",
        -1.0
      ],
      [
        "gree",
        -1.0
      ],
      [
        "Ġregimen",
        -1.0
      ],
      [
        "Ġturkeys",
        -1.0
      ],
      [
        "atch",
        -1.0
      ],
      [
        "Determining",
        -1.0
      ],
      [
        "eter",
        -1.0
      ],
      [
        "Ġinnate",
        -1.0
      ],
      [
        "organic",
        -1.0
      ],
      [
        "Ġtribal",
        -1.0
      ],
      [
        "Ġadequate",
        -1.0
      ],
      [
        "ĠAyurvedic",
        -1.0
      ],
      [
        "'a",
        -1.0
      ],
      [
        "Ġtold",
        -1.0
      ],
      [
        "Transfer",
        -1.0
      ],
      [
        "Ġfinches",
        -1.0
      ],
      [
        "Swa",
        -1.0
      ],
      [
        "ĠSchedule",
        -1.0
      ],
      [
        "Ġviewpoints",
        -1.0
      ],
      [
        "ĠMint",
        -1.0
      ],
      [
        "Ġcli",
        -1.0
      ],
      [
        "ĠSky",
        -1.0
      ],
      [
        "Evidence",
        -1.0
      ],
      [
        "Ġbranded",
        -1.0
      ],
      [
        "Ġsanit",
        -1.0
      ],
      [
        "cott",
        -1.0
      ],
      [
        "May",
        -1.0
      ],
      [
        "Visit",
        -1.0
      ],
      [
        "Report",
        -1.0
      ],
      [
        "findmyf",
        -1.0
      ],
      [
        "Ġdiscourage",
        -1.0
      ],
      [
        "Ġcontradict",
        -1.0
      ],
      [
        "Ġaerosols",
        -1.0
      ],
      [
        "ĠSir",
        -1.0
      ],
      [
        "genes",
        -1.0
      ],
      [
        "Ġbunny",
        -1.0
      ],
      [
        "Ġancestral",
        -1.0
      ],
      [
        "Ġbilateral",
        -1.0
      ],
      [
        "ĠProm",
        -1.0
      ],
      [
        "Ġdissolving",
        -1.0
      ],
      [
        "PD",
        -1.0
      ],
      [
        "Ġurban",
        -1.0
      ],
      [
        "ĠTypes",
        -1.0
      ],
      [
        "Ġ+",
        -1.0
      ],
      [
        "Ġwarms",
        -1.0
      ],
      [
        "dynamics",
        -1.0
      ],
      [
        "Ġborrow",
        -1.0
      ],
      [
        "ĠLoop",
        -1.0
      ],
      [
        "Ġlocated",
        -1.0
      ],
      [
        "Ġmortar",
        -1.0
      ],
      [
        "Ġcompounds",
        -1.0
      ],
      [
        "Ġsocializing",
        -1.0
      ],
      [
        "ĠRoofing",
        -1.0
      ],
      [
        "ĠGreenhouse",
        -1.0
      ],
      [
        "Ġcaribou",
        -1.0
      ],
      [
        "Ġhomozygous",
        -1.0
      ],
      [
        "without",
        -1.0
      ],
      [
        "West",
        -1.0
      ],
      [
        "Ġstomach",
        -1.0
      ],
      [
        "ĠGO",
        -1.0
      ],
      [
        "ĠHart",
        -1.0
      ],
      [
        "Ġparity",
        -1.0
      ],
      [
        "Plants",
        -1.0
      ],
      [
        "Ġhoodie",
        -1.0
      ],
      [
        "ĠET",
        -1.0
      ],
      [
        "ĠLocate",
        -1.0
      ],
      [
        "Ġneurons",
        -1.0
      ],
      [
        "ĠTrout",
        -1.0
      ],
      [
        "Ġwastewater",
        -1.0
      ],
      [
        "a",
        -1.0
      ],
      [
        "Ġwavelengths",
        -1.0
      ],
      [
        "Mountain",
        -1.0
      ],
      [
        "Ġaddition",
        -1.0
      ],
      [
        "Earth",
        -1.0
      ],
      [
        "Ġcytoplasm",
        -1.0
      ],
      [
        "Analysis",
        -1.0
      ],
      [
        "Ġswab",
        -1.0
      ],
      [
        "ìĦ",
        -1.0
      ],
      [
        "ĠUltra",
        -1.0
      ],
      [
        "Ġcalling",
        -1.0
      ],
      [
        "Ġgrade",
        -1.0
      ],
      [
        "Ġexecuted",
        -1.0
      ],
      [
        "Ġwatt",
        -1.0
      ],
      [
        "ĠHTML",
        -1.0
      ],
      [
        "Louis",
        -1.0
      ],
      [
        "ĠBlog",
        -1.0
      ],
      [
        "Ġterrains",
        -1.0
      ],
      [
        "ĠFall",
        -1.0
      ],
      [
        "ĠVirginia",
        -1.0
      ],
      [
        "Ġoxides",
        -1.0
      ],
      [
        "Ġhard",
        -1.0
      ],
      [
        "ĠSalmon",
        -1.0
      ],
      [
        "Ġquotient",
        -1.0
      ],
      [
        "osomes",
        -1.0
      ],
      [
        "ĠKelly",
        -1.0
      ],
      [
        "ĠFrederick",
        -1.0
      ],
      [
        "Laser",
        -1.0
      ],
      [
        "ellar",
        -1.0
      ],
      [
        "Sn",
        -1.0
      ],
      [
        "Ġcore",
        -1.0
      ],
      [
        "Ġpiping",
        -1.0
      ],
      [
        "Eye",
        -1.0
      ],
      [
        "Ġautomating",
        -1.0
      ],
      [
        "AGE",
        -1.0
      ],
      [
        "Ġflu",
        -1.0
      ],
      [
        "ulin",
        -1.0
      ],
      [
        "Ġaugment",
        -1.0
      ],
      [
        "ĠJournal",
        -1.0
      ],
      [
        ":",
        -1.0
      ],
      [
        "Ġsling",
        -1.0
      ],
      [
        "ĠSurface",
        -1.0
      ],
      [
        "orn",
        -1.0
      ],
      [
        "Ġutterly",
        -1.0
      ],
      [
        "Ġphil",
        -1.0
      ],
      [
        "ĠOyster",
        -1.0
      ],
      [
        "empt",
        -1.0
      ],
      [
        "Honey",
        -1.0
      ],
      [
        "Ġtent",
        -1.0
      ],
      [
        "Ġshut",
        -1.0
      ],
      [
        "Navigating",
        -1.0
      ],
      [
        "Ġpangolin",
        -1.0
      ],
      [
        "Ġloft",
        -1.0
      ],
      [
        "Ġsulfuric",
        -1.0
      ],
      [
        "ges",
        -1.0
      ],
      [
        "Ġcreamy",
        -1.0
      ],
      [
        "Ġsetbacks",
        -1.0
      ],
      [
        "Ġdollars",
        -1.0
      ],
      [
        "Ġenlarge",
        -1.0
      ],
      [
        "acle",
        -1.0
      ],
      [
        "Ġtug",
        -1.0
      ],
      [
        "ĠNeptune",
        -1.0
      ],
      [
        "Brain",
        -1.0
      ],
      [
        "ister",
        -1.0
      ],
      [
        "Ġanatomy",
        -1.0
      ],
      [
        "ĠKel",
        -1.0
      ],
      [
        "Ġrelaxed",
        -1.0
      ],
      [
        "ĠStage",
        -1.0
      ],
      [
        "wa",
        -1.0
      ],
      [
        "-efficient",
        -1.0
      ],
      [
        "oti",
        -1.0
      ],
      [
        "gear",
        -1.0
      ],
      [
        "Ġnum",
        -1.0
      ],
      [
        "ĠEat",
        -1.0
      ],
      [
        "Ġsustenance",
        -1.0
      ],
      [
        "Ġpolarity",
        -1.0
      ],
      [
        "Ġremembering",
        -1.0
      ],
      [
        "Ġharmony",
        -1.0
      ],
      [
        "ĠAge",
        -1.0
      ],
      [
        "link",
        -1.0
      ],
      [
        "ceptor",
        -1.0
      ],
      [
        "Women",
        -1.0
      ],
      [
        "\\n",
        -1.0
      ],
      [
        "Ġemployers",
        -1.0
      ],
      [
        "Ġraised",
        -1.0
      ],
      [
        "Ġalerts",
        -1.0
      ],
      [
        "ĠDetailed",
        -1.0
      ],
      [
        "Ġpesticide",
        -1.0
      ],
      [
        "Further",
        -1.0
      ],
      [
        "ĠIc",
        -1.0
      ],
      [
        "Ġlesson",
        -1.0
      ],
      [
        "Ġvisualize",
        -1.0
      ],
      [
        "ĠDO",
        -1.0
      ],
      [
        "sw",
        -1.0
      ],
      [
        "Ġorbits",
        -1.0
      ],
      [
        "Ġtestament",
        -1.0
      ],
      [
        "Ġhydroponics",
        -1.0
      ],
      [
        "Ġfestive",
        -1.0
      ],
      [
        "ĠFeeding",
        -1.0
      ],
      [
        "Ġbarely",
        -1.0
      ],
      [
        "Ġbecomes",
        -1.0
      ],
      [
        "Ġsoups",
        -1.0
      ],
      [
        "ĠPhoenix",
        -1.0
      ],
      [
        "mmed",
        -1.0
      ],
      [
        "Ġgesture",
        -1.0
      ],
      [
        "Ġcompressors",
        -1.0
      ],
      [
        "chrom",
        -1.0
      ],
      [
        "ĠSurgical",
        -1.0
      ],
      [
        "umi",
        -1.0
      ],
      [
        "Ġpooch",
        -1.0
      ],
      [
        "Ġhouseholds",
        -1.0
      ],
      [
        "ĠMat",
        -1.0
      ],
      [
        "Ġdrill",
        -1.0
      ],
      [
        "um",
        -1.0
      ],
      [
        "Ġship",
        -1.0
      ],
      [
        "ĠMet",
        -1.0
      ],
      [
        "Comment",
        -1.0
      ],
      [
        "Ġsweat",
        -1.0
      ],
      [
        "ano",
        -1.0
      ],
      [
        "Ġdefeat",
        -1.0
      ],
      [
        "Ġconsume",
        -1.0
      ],
      [
        "Ġdiversion",
        -1.0
      ],
      [
        "phore",
        -1.0
      ],
      [
        "Ġplanets",
        -1.0
      ],
      [
        "Ġsilk",
        -1.0
      ],
      [
        "Ġmarking",
        -1.0
      ],
      [
        "Cat",
        -1.0
      ],
      [
        "Ġcommunicates",
        -1.0
      ],
      [
        "Home",
        -1.0
      ],
      [
        "Ġbuildings",
        -1.0
      ],
      [
        "Ġwarns",
        -1.0
      ],
      [
        "Encourage",
        -1.0
      ],
      [
        "Ġrate",
        -1.0
      ],
      [
        "Ġperfo",
        -1.0
      ],
      [
        "Ġenforcement",
        -1.0
      ],
      [
        "Č",
        -1.0
      ],
      [
        "Ġfinally",
        -1.0
      ],
      [
        "minal",
        -1.0
      ],
      [
        "TRA",
        -1.0
      ],
      [
        "Ġantlers",
        -1.0
      ],
      [
        "Ġreminded",
        -1.0
      ],
      [
        "ĠAtlantic",
        -1.0
      ],
      [
        "Ġlearner",
        -1.0
      ],
      [
        "\",",
        -1.0
      ],
      [
        "ċ",
        -1.0
      ],
      [
        "ĠMaple",
        -1.0
      ],
      [
        "Ut",
        -1.0
      ],
      [
        "Ġmaintenance",
        -1.0
      ],
      [
        "Ġtumble",
        -1.0
      ],
      [
        "Ġ.Ċ",
        -1.0
      ],
      [
        "Ġpaste",
        -1.0
      ],
      [
        "Ġgorilla",
        -1.0
      ],
      [
        "ĠZh",
        -1.0
      ],
      [
        "Ġcounseling",
        -1.0
      ],
      [
        "Iso",
        -1.0
      ],
      [
        "Ġsilent",
        -1.0
      ],
      [
        "Ġvulnerable",
        -1.0
      ],
      [
        "ciÃ³n",
        -1.0
      ],
      [
        "ĠUpon",
        -1.0
      ],
      [
        "Ġwhat",
        -1.0
      ],
      [
        "nica",
        -1.0
      ],
      [
        "Ġz",
        -1.0
      ],
      [
        "ĠSkin",
        -1.0
      ],
      [
        "BD",
        -1.0
      ],
      [
        "-generated",
        -1.0
      ],
      [
        "Ġmakeup",
        -1.0
      ],
      [
        "Does",
        -1.0
      ],
      [
        "Ġfewer",
        -1.0
      ],
      [
        "Ġscrutiny",
        -1.0
      ],
      [
        "Ñ",
        -1.0
      ],
      [
        "Ġspleen",
        -1.0
      ],
      [
        "Ġtripod",
        -1.0
      ],
      [
        "ï¸ı",
        -1.0
      ],
      [
        "Ġdrawback",
        -1.0
      ],
      [
        "Ġall",
        -1.0
      ],
      [
        "Ġexpanding",
        -1.0
      ],
      [
        "Ġpersonally",
        -1.0
      ],
      [
        "Ġcontrolled",
        -1.0
      ],
      [
        "QU",
        -1.0
      ],
      [
        "Ġwatered",
        -1.0
      ],
      [
        "ĠRoof",
        -1.0
      ],
      [
        "Ġglaciers",
        -1.0
      ],
      [
        "cer",
        -1.0
      ],
      [
        "Ġweaker",
        -1.0
      ],
      [
        "Ġauxiliary",
        -1.0
      ],
      [
        "-how",
        -1.0
      ],
      [
        "Ġpathogens",
        -1.0
      ],
      [
        "ĠDan",
        -1.0
      ],
      [
        "beth",
        -1.0
      ],
      [
        "Ġgenerated",
        -1.0
      ],
      [
        "Ġstreet",
        -1.0
      ],
      [
        "Ġbullet",
        -1.0
      ],
      [
        "pd",
        -1.0
      ],
      [
        "ples",
        -1.0
      ],
      [
        "Ġpatio",
        -1.0
      ],
      [
        "ped",
        -1.0
      ],
      [
        "Absolutely",
        -1.0
      ],
      [
        "Ġsubstantial",
        -1.0
      ],
      [
        "Ġreinforced",
        -1.0
      ],
      [
        "Ġprominent",
        -1.0
      ],
      [
        "Ġmental",
        -1.0
      ],
      [
        "Ġaffected",
        -1.0
      ],
      [
        "Ġdelineate",
        -1.0
      ],
      [
        "Ġdestroyed",
        -1.0
      ],
      [
        "Ġcorpus",
        -1.0
      ],
      [
        "Ġpurify",
        -1.0
      ],
      [
        "Ġcover",
        -1.0
      ],
      [
        "Ġweekend",
        -1.0
      ],
      [
        "Customer",
        -1.0
      ],
      [
        "Pack",
        -1.0
      ],
      [
        "ĠPerfect",
        -1.0
      ],
      [
        "Ġoverflow",
        -1.0
      ],
      [
        "Ġunfortunate",
        -1.0
      ],
      [
        "Ġpromote",
        -1.0
      ],
      [
        "Ġfrontal",
        -1.0
      ],
      [
        "ĠRemoval",
        -1.0
      ],
      [
        "Ġignorant",
        -1.0
      ],
      [
        "Ġdiffering",
        -1.0
      ],
      [
        "-makers",
        -1.0
      ],
      [
        "walk",
        -1.0
      ],
      [
        "Ġoutlets",
        -1.0
      ],
      [
        "Ġexplicit",
        -1.0
      ],
      [
        "ĠMo",
        -1.0
      ],
      [
        "iling",
        -1.0
      ],
      [
        "Ġfort",
        -1.0
      ],
      [
        "itin",
        -1.0
      ],
      [
        "Ġalligators",
        -1.0
      ],
      [
        "Ġtigers",
        -1.0
      ],
      [
        "Ġprefrontal",
        -1.0
      ],
      [
        "Ġalum",
        -1.0
      ],
      [
        "Ġedging",
        -1.0
      ],
      [
        "Ġstaggered",
        -1.0
      ],
      [
        "der",
        -1.0
      ],
      [
        "ĠVegetable",
        -1.0
      ],
      [
        "Ġoverheat",
        -1.0
      ],
      [
        "fight",
        -1.0
      ],
      [
        "Ġglycol",
        -1.0
      ],
      [
        "Ġbeaut",
        -1.0
      ],
      [
        "Ġcritters",
        -1.0
      ],
      [
        "ĠJerry",
        -1.0
      ],
      [
        "Ġauthor",
        -1.0
      ],
      [
        "Ġelongate",
        -1.0
      ],
      [
        "Ġenriching",
        -1.0
      ],
      [
        ".|Ċ",
        -1.0
      ],
      [
        "%.",
        -1.0
      ],
      [
        "Ġoccupied",
        -1.0
      ],
      [
        "ĠJurassic",
        -1.0
      ],
      [
        "Ġfounding",
        -1.0
      ],
      [
        "Ġlookout",
        -1.0
      ],
      [
        "71",
        -1.0
      ],
      [
        "Ġadvantages",
        -1.0
      ],
      [
        "Ġproprietor",
        -1.0
      ],
      [
        "ĠLivestock",
        -1.0
      ],
      [
        "ĠAfter",
        -1.0
      ],
      [
        "Ġpublicly",
        -1.0
      ],
      [
        "ĠPC",
        -1.0
      ],
      [
        "ĠEurasian",
        -1.0
      ],
      [
        "Ġyogurt",
        -1.0
      ],
      [
        "ĠBottle",
        -1.0
      ],
      [
        "Ġsteak",
        -1.0
      ],
      [
        "Ġmakes",
        -1.0
      ],
      [
        "Ġoxalate",
        -1.0
      ],
      [
        "hIz",
        -1.0
      ],
      [
        "aries",
        -1.0
      ],
      [
        "Ġhormonal",
        -1.0
      ],
      [
        "Ġshines",
        -1.0
      ],
      [
        "Ġsprings",
        -1.0
      ],
      [
        "ria",
        -1.0
      ],
      [
        "ĠDoctors",
        -1.0
      ],
      [
        "ograms",
        -1.0
      ],
      [
        "Oxygen",
        -1.0
      ],
      [
        "ived",
        -1.0
      ],
      [
        "ĠPar",
        -1.0
      ],
      [
        "Ġspayed",
        -1.0
      ],
      [
        "Ġcollective",
        -1.0
      ],
      [
        "Ġpreliminary",
        -1.0
      ],
      [
        "-family",
        -1.0
      ],
      [
        "GP",
        -1.0
      ],
      [
        "Ġaltered",
        -1.0
      ],
      [
        "Ġdenying",
        -1.0
      ],
      [
        "Ġfrequencies",
        -1.0
      ],
      [
        "off",
        -1.0
      ],
      [
        "comfort",
        -1.0
      ],
      [
        "Ġbicarbonate",
        -1.0
      ],
      [
        "Ġcooperative",
        -1.0
      ],
      [
        "ĠLeaves",
        -1.0
      ],
      [
        "holder",
        -1.0
      ],
      [
        "tted",
        -1.0
      ],
      [
        "Ġproteins",
        -1.0
      ],
      [
        "Sub",
        -1.0
      ],
      [
        "Ġgoats",
        -1.0
      ],
      [
        "oot",
        -1.0
      ],
      [
        "ealth",
        -1.0
      ],
      [
        "Ġposter",
        -1.0
      ],
      [
        "ĠIL",
        -1.0
      ],
      [
        "Ġorbit",
        -1.0
      ],
      [
        "Finally",
        -1.0
      ],
      [
        "Ġpanic",
        -1.0
      ],
      [
        "aks",
        -1.0
      ],
      [
        "74",
        -1.0
      ],
      [
        "Ġsynthesize",
        -1.0
      ],
      [
        "Ġinvestigator",
        -1.0
      ],
      [
        "Ġbomber",
        -1.0
      ],
      [
        "ĠHerb",
        -1.0
      ],
      [
        "Ġstating",
        -1.0
      ],
      [
        "/cm",
        -1.0
      ],
      [
        "ĠLetters",
        -1.0
      ],
      [
        "Ġmonths",
        -1.0
      ],
      [
        "tically",
        -1.0
      ],
      [
        "Ġkernel",
        -1.0
      ],
      [
        "Ġgenotype",
        -1.0
      ],
      [
        "Para",
        -1.0
      ],
      [
        "ĠSometimes",
        -1.0
      ],
      [
        "Ġassume",
        -1.0
      ],
      [
        "Ġrodents",
        -1.0
      ],
      [
        "Ġcommission",
        -1.0
      ],
      [
        "Ġcompacted",
        -1.0
      ],
      [
        "cha",
        -1.0
      ],
      [
        "ĠHarbor",
        -1.0
      ],
      [
        "Ġdivided",
        -1.0
      ],
      [
        "ĠNeuro",
        -1.0
      ],
      [
        "Ġswimmers",
        -1.0
      ],
      [
        "wd",
        -1.0
      ],
      [
        "Ġhours",
        -1.0
      ],
      [
        "Ġthawed",
        -1.0
      ],
      [
        "Ġembedding",
        -1.0
      ],
      [
        "Ġconcurrent",
        -1.0
      ],
      [
        "-Sa",
        -1.0
      ],
      [
        "hua",
        -1.0
      ],
      [
        "lessness",
        -1.0
      ],
      [
        "Ġpillar",
        -1.0
      ],
      [
        "Ġinstall",
        -1.0
      ],
      [
        "fia",
        -1.0
      ],
      [
        "ĠShare",
        -1.0
      ],
      [
        "ĠEditing",
        -1.0
      ],
      [
        "Ġsecreted",
        -1.0
      ],
      [
        "ĠSoft",
        -1.0
      ],
      [
        "ĠEffect",
        -1.0
      ],
      [
        "Ġshine",
        -1.0
      ],
      [
        "Ġacuity",
        -1.0
      ],
      [
        "Ġconfused",
        -1.0
      ],
      [
        "Ġtranslating",
        -1.0
      ],
      [
        "Ġcliffs",
        -1.0
      ],
      [
        "Ġvalidate",
        -1.0
      ],
      [
        "p",
        -1.0
      ],
      [
        "Ġplanting",
        -1.0
      ],
      [
        "ĠTi",
        -1.0
      ],
      [
        "ĠCollect",
        -1.0
      ],
      [
        "Ġbasics",
        -1.0
      ],
      [
        "Physicists",
        -1.0
      ],
      [
        "ĠStitch",
        -1.0
      ],
      [
        "oos",
        -1.0
      ],
      [
        "ĠGrove",
        -1.0
      ],
      [
        "BS",
        -1.0
      ],
      [
        "Ġsevere",
        -1.0
      ],
      [
        "Ġcomposted",
        -1.0
      ],
      [
        "Ġabilities",
        -1.0
      ],
      [
        "Ġmentality",
        -1.0
      ],
      [
        "Directions",
        -1.0
      ],
      [
        "Ġbouquet",
        -1.0
      ],
      [
        "Ġanalogous",
        -1.0
      ],
      [
        "ĠRegardless",
        -1.0
      ],
      [
        "Ġbreadth",
        -1.0
      ],
      [
        "Ġdiligent",
        -1.0
      ],
      [
        "-end",
        -1.0
      ],
      [
        "Ġgypsum",
        -1.0
      ],
      [
        "Ġbil",
        -1.0
      ],
      [
        "ĠAsia",
        -1.0
      ],
      [
        "SL",
        -1.0
      ],
      [
        "Ġcombat",
        -1.0
      ],
      [
        "STA",
        -1.0
      ],
      [
        "Ġartifacts",
        -1.0
      ],
      [
        "iang",
        -1.0
      ],
      [
        "Ġdesignation",
        -1.0
      ],
      [
        "Ġtired",
        -1.0
      ],
      [
        "rl",
        -1.0
      ],
      [
        "Ġmutations",
        -1.0
      ],
      [
        "Ġtenure",
        -1.0
      ],
      [
        "Ġlifts",
        -1.0
      ],
      [
        "wei",
        -1.0
      ],
      [
        "Indeed",
        -1.0
      ],
      [
        "Ġalgal",
        -1.0
      ],
      [
        "Ġfears",
        -1.0
      ],
      [
        "Ġutilities",
        -1.0
      ],
      [
        "Ġreadily",
        -1.0
      ],
      [
        "Ġplot",
        -1.0
      ],
      [
        "Ġarchives",
        -1.0
      ],
      [
        "ĠOthers",
        -1.0
      ],
      [
        "Ġstretching",
        -1.0
      ],
      [
        "iced",
        -1.0
      ],
      [
        "Ġnetting",
        -1.0
      ],
      [
        "ception",
        -1.0
      ],
      [
        "Ġimpose",
        -1.0
      ],
      [
        "Ġthe",
        -1.0
      ],
      [
        "mmies",
        -1.0
      ],
      [
        "Ġsold",
        -1.0
      ],
      [
        "Ġverify",
        -1.0
      ],
      [
        "`s",
        -1.0
      ],
      [
        "Practice",
        -1.0
      ],
      [
        "Ġairway",
        -1.0
      ],
      [
        "nter",
        -1.0
      ],
      [
        "inating",
        -1.0
      ],
      [
        "Ġhydropower",
        -1.0
      ],
      [
        "ĠSl",
        -1.0
      ],
      [
        "Ġwondering",
        -1.0
      ],
      [
        "Ġwholly",
        -1.0
      ],
      [
        "Ġliable",
        -1.0
      ],
      [
        "Ġconcepts",
        -1.0
      ],
      [
        "ponent",
        -1.0
      ],
      [
        "ocyan",
        -1.0
      ],
      [
        ".pdf",
        -1.0
      ],
      [
        "odium",
        -1.0
      ],
      [
        "Ġdevotion",
        -1.0
      ],
      [
        "Ġscare",
        -1.0
      ],
      [
        "Ġcatalogue",
        -1.0
      ],
      [
        "ĠTED",
        -1.0
      ],
      [
        "Ġinputs",
        -1.0
      ],
      [
        "Ġgrassland",
        -1.0
      ],
      [
        "Ġsmells",
        -1.0
      ],
      [
        "Ġunwilling",
        -1.0
      ],
      [
        "Ġhickory",
        -1.0
      ],
      [
        "mits",
        -1.0
      ],
      [
        "Ġadrenaline",
        -1.0
      ],
      [
        "Ġskinny",
        -1.0
      ],
      [
        "Ġbooster",
        -1.0
      ],
      [
        "ĠPCR",
        -1.0
      ],
      [
        "Benefits",
        -1.0
      ],
      [
        "Ġclothing",
        -1.0
      ],
      [
        "Ġerosion",
        -1.0
      ],
      [
        "Ġjaponica",
        -1.0
      ],
      [
        "Ġreads",
        -1.0
      ],
      [
        "Versatility",
        -1.0
      ],
      [
        "Ġacre",
        -1.0
      ],
      [
        "athon",
        -1.0
      ],
      [
        "ĠECU",
        -1.0
      ],
      [
        "ĠFunction",
        -1.0
      ],
      [
        "cli",
        -1.0
      ],
      [
        "sity",
        -1.0
      ],
      [
        "Ġchoose",
        -1.0
      ],
      [
        "ĠOriginally",
        -1.0
      ],
      [
        "ngo",
        -1.0
      ],
      [
        "Ġmyco",
        -1.0
      ],
      [
        "ĠComputing",
        -1.0
      ],
      [
        "Ġterrier",
        -1.0
      ],
      [
        "Ġdiagnosis",
        -1.0
      ],
      [
        "mur",
        -1.0
      ],
      [
        "Ġunheard",
        -1.0
      ],
      [
        "ĠOutreach",
        -1.0
      ],
      [
        "Ġcyan",
        -1.0
      ],
      [
        "Ġdescribes",
        -1.0
      ],
      [
        "ĠTech",
        -1.0
      ],
      [
        "ĠBBQ",
        -1.0
      ],
      [
        "Card",
        -1.0
      ],
      [
        "Ġinfected",
        -1.0
      ],
      [
        "Ġspecialize",
        -1.0
      ],
      [
        "LS",
        -1.0
      ],
      [
        "Ġcome",
        -1.0
      ],
      [
        "Ġpowers",
        -1.0
      ],
      [
        "Ġepithelium",
        -1.0
      ],
      [
        "deg",
        -1.0
      ],
      [
        "Ġneutrons",
        -1.0
      ],
      [
        "Ġgroundwater",
        -1.0
      ],
      [
        "Ġtransmits",
        -1.0
      ],
      [
        "Ġsplit",
        -1.0
      ],
      [
        "ĠGrant",
        -1.0
      ],
      [
        "Ġsteadfast",
        -1.0
      ],
      [
        "ĠCheck",
        -1.0
      ],
      [
        "Ġutility",
        -1.0
      ],
      [
        "ĠAppeal",
        -1.0
      ],
      [
        "33",
        -1.0
      ],
      [
        "Background",
        -1.0
      ],
      [
        "Ġbets",
        -1.0
      ],
      [
        "Ġfixed",
        -1.0
      ],
      [
        "Ġindia",
        -1.0
      ],
      [
        "Ġripped",
        -1.0
      ],
      [
        "Ġpresumed",
        -1.0
      ],
      [
        "dra",
        -1.0
      ],
      [
        "ĠII",
        -1.0
      ],
      [
        "ĠGreek",
        -1.0
      ],
      [
        "Ġtroll",
        -1.0
      ],
      [
        "nv",
        -1.0
      ],
      [
        "Ġduties",
        -1.0
      ],
      [
        "Ġbrother",
        -1.0
      ],
      [
        "Ġimagery",
        -1.0
      ],
      [
        "Ġcall",
        -1.0
      ],
      [
        ".w",
        -1.0
      ],
      [
        "Ġcarries",
        -1.0
      ],
      [
        "ĠEver",
        -1.0
      ],
      [
        "copy",
        -1.0
      ],
      [
        "Ġacoustic",
        -1.0
      ],
      [
        "ĠPhe",
        -1.0
      ],
      [
        "Ġstyling",
        -1.0
      ],
      [
        "ĠReplacing",
        -1.0
      ],
      [
        "Ġconnections",
        -1.0
      ],
      [
        "Ġtransparency",
        -1.0
      ],
      [
        "ĠBoth",
        -1.0
      ],
      [
        "Ġraid",
        -1.0
      ],
      [
        "Measure",
        -1.0
      ],
      [
        "ĠBailey",
        -1.0
      ],
      [
        "onyms",
        -1.0
      ],
      [
        "Ġpotted",
        -1.0
      ],
      [
        "Ġsword",
        -1.0
      ],
      [
        "eller",
        -1.0
      ],
      [
        "Ġnineteenth",
        -1.0
      ],
      [
        "Ġsorted",
        -1.0
      ],
      [
        "ĠJean",
        -1.0
      ],
      [
        "claimed",
        -1.0
      ],
      [
        "Ġconditions",
        -1.0
      ],
      [
        "Ġminiature",
        -1.0
      ],
      [
        "Ġphenotype",
        -1.0
      ],
      [
        "Ġsteels",
        -1.0
      ],
      [
        "Ġelevation",
        -1.0
      ],
      [
        "Live",
        -1.0
      ],
      [
        "Ġrescue",
        -1.0
      ],
      [
        "ecological",
        -1.0
      ],
      [
        "Ġresume",
        -1.0
      ],
      [
        "Ġveneer",
        -1.0
      ],
      [
        "Ġinhabit",
        -1.0
      ],
      [
        "Ġholistic",
        -1.0
      ],
      [
        "Ġattitudes",
        -1.0
      ],
      [
        "92",
        -1.0
      ],
      [
        "Ġafford",
        -1.0
      ],
      [
        "Ġvintage",
        -1.0
      ],
      [
        "Ġresidual",
        -1.0
      ],
      [
        "ei",
        -1.0
      ],
      [
        "ĠComing",
        -1.0
      ],
      [
        "Ġvulgaris",
        -1.0
      ],
      [
        "ĠPopulation",
        -1.0
      ],
      [
        "Ġlessen",
        -1.0
      ],
      [
        "Ġharmonic",
        -1.0
      ],
      [
        "Ġgathering",
        -1.0
      ],
      [
        "nose",
        -1.0
      ],
      [
        "Ġinland",
        -1.0
      ],
      [
        "Ġvolatile",
        -1.0
      ],
      [
        "bells",
        -1.0
      ],
      [
        "Ġgenotypes",
        -1.0
      ],
      [
        "Ġreforms",
        -1.0
      ],
      [
        "æĸ",
        -1.0
      ],
      [
        "ĠCOM",
        -1.0
      ],
      [
        "Ġparanoia",
        -1.0
      ],
      [
        "Ġtreasures",
        -1.0
      ],
      [
        "Ġdiscounted",
        -1.0
      ],
      [
        "anthus",
        -1.0
      ],
      [
        "INE",
        -1.0
      ],
      [
        "Ġcalled",
        -1.0
      ],
      [
        "-set",
        -1.0
      ],
      [
        "gul",
        -1.0
      ],
      [
        "ĠPluto",
        -1.0
      ],
      [
        "always",
        -1.0
      ],
      [
        "Ġjoists",
        -1.0
      ],
      [
        "Ġspo",
        -1.0
      ],
      [
        "Ġcommand",
        -1.0
      ],
      [
        "MW",
        -1.0
      ],
      [
        "Help",
        -1.0
      ],
      [
        "Ġblo",
        -1.0
      ],
      [
        "Ġisolation",
        -1.0
      ],
      [
        "26",
        -1.0
      ],
      [
        "igu",
        -1.0
      ],
      [
        "Ġenemies",
        -1.0
      ],
      [
        "Share",
        -1.0
      ],
      [
        "Ġpioneering",
        -1.0
      ],
      [
        "ĠHands",
        -1.0
      ],
      [
        "Both",
        -1.0
      ],
      [
        "Ġcables",
        -1.0
      ],
      [
        "Ġempowers",
        -1.0
      ],
      [
        "Episode",
        -1.0
      ],
      [
        "Ġleptin",
        -1.0
      ],
      [
        "Ġchameleon",
        -1.0
      ],
      [
        "Ġdre",
        -1.0
      ],
      [
        "ĠStability",
        -1.0
      ],
      [
        "ĠMistakes",
        -1.0
      ],
      [
        "Ġstump",
        -1.0
      ],
      [
        "Ġreducing",
        -1.0
      ],
      [
        "ffy",
        -1.0
      ],
      [
        "Ġcollapsing",
        -1.0
      ],
      [
        "ĠKim",
        -1.0
      ],
      [
        "Ġstew",
        -1.0
      ],
      [
        "Ġaftermath",
        -1.0
      ],
      [
        "during",
        -1.0
      ],
      [
        "rom",
        -1.0
      ],
      [
        "Ġfiguring",
        -1.0
      ],
      [
        "Ġbuilder",
        -1.0
      ],
      [
        "ĠVo",
        -1.0
      ],
      [
        "Ġdiluted",
        -1.0
      ],
      [
        "Au",
        -1.0
      ],
      [
        "Des",
        -1.0
      ],
      [
        "ĠPeak",
        -1.0
      ],
      [
        "Sunday",
        -1.0
      ],
      [
        "Ġemployed",
        -1.0
      ],
      [
        "Ġrigging",
        -1.0
      ],
      [
        "ĠDriver",
        -1.0
      ],
      [
        "Ġvillagers",
        -1.0
      ],
      [
        "Ġstoves",
        -1.0
      ],
      [
        "Ġnm",
        -1.0
      ],
      [
        "ĠPosts",
        -1.0
      ],
      [
        "tip",
        -1.0
      ],
      [
        "Ġfaces",
        -1.0
      ],
      [
        "ĠSeal",
        -1.0
      ],
      [
        "ĠPOWER",
        -1.0
      ],
      [
        "Ġcushion",
        -1.0
      ],
      [
        "Ġsure",
        -1.0
      ],
      [
        "ĠBan",
        -1.0
      ],
      [
        "Ok",
        -1.0
      ],
      [
        "ĠU",
        -1.0
      ],
      [
        "Ġcompliance",
        -1.0
      ],
      [
        "Ġdeemed",
        -1.0
      ],
      [
        "Ġinfused",
        -1.0
      ],
      [
        "Ġlong",
        -1.0
      ],
      [
        "Ġventilated",
        -1.0
      ],
      [
        "Ġblades",
        -1.0
      ],
      [
        "Ġorigami",
        -1.0
      ],
      [
        "ĠFIGS",
        -1.0
      ],
      [
        "ĠCanine",
        -1.0
      ],
      [
        "Ġmulch",
        -1.0
      ],
      [
        "tax",
        -1.0
      ],
      [
        "Ġdata",
        -1.0
      ],
      [
        "Ġcherries",
        -1.0
      ],
      [
        "called",
        -1.0
      ],
      [
        "Ġlog",
        -1.0
      ],
      [
        "Ġsplitting",
        -1.0
      ],
      [
        "Ġattorney",
        -1.0
      ],
      [
        "dx",
        -1.0
      ],
      [
        "Ġflats",
        -1.0
      ],
      [
        "Ġqueries",
        -1.0
      ],
      [
        "Ġovertime",
        -1.0
      ],
      [
        "Ġdissolved",
        -1.0
      ],
      [
        "ĠAf",
        -1.0
      ],
      [
        "Ġsedation",
        -1.0
      ],
      [
        "Add",
        -1.0
      ],
      [
        "ĠNU",
        -1.0
      ],
      [
        "Ir",
        -1.0
      ],
      [
        ")\\",
        -1.0
      ],
      [
        "Ġmaps",
        -1.0
      ],
      [
        "Ġtau",
        -1.0
      ],
      [
        "ĠRaman",
        -1.0
      ],
      [
        "Ġobjective",
        -1.0
      ],
      [
        "ĠCT",
        -1.0
      ],
      [
        "ĠGrey",
        -1.0
      ],
      [
        "Spirit",
        -1.0
      ],
      [
        "ography",
        -1.0
      ],
      [
        "Ġrobots",
        -1.0
      ],
      [
        "Ġblanket",
        -1.0
      ],
      [
        "Ġcorp",
        -1.0
      ],
      [
        "lift",
        -1.0
      ],
      [
        "Ġworkpiece",
        -1.0
      ],
      [
        "&M",
        -1.0
      ],
      [
        "Ġoats",
        -1.0
      ],
      [
        "Ġkey",
        -1.0
      ],
      [
        "Stem",
        -1.0
      ],
      [
        "Ġbroiler",
        -1.0
      ],
      [
        "Ġinfluencing",
        -1.0
      ],
      [
        "Ġen",
        -1.0
      ],
      [
        "FAQs",
        -1.0
      ],
      [
        "Ġdai",
        -1.0
      ],
      [
        "directional",
        -1.0
      ],
      [
        "Ġwages",
        -1.0
      ],
      [
        "hang",
        -1.0
      ],
      [
        "Ġpar",
        -1.0
      ],
      [
        "Ġthinly",
        -1.0
      ],
      [
        "ĠHarper",
        -1.0
      ],
      [
        "dges",
        -1.0
      ],
      [
        "Ġunited",
        -1.0
      ],
      [
        "Ġconductive",
        -1.0
      ],
      [
        "ĠChinese",
        -1.0
      ],
      [
        "Ġdischarging",
        -1.0
      ],
      [
        "Russia",
        -1.0
      ],
      [
        "Ġassumes",
        -1.0
      ],
      [
        "Ġcorneal",
        -1.0
      ],
      [
        "Ġintruder",
        -1.0
      ],
      [
        "Ġwheat",
        -1.0
      ],
      [
        "rak",
        -1.0
      ],
      [
        "ĠPE",
        -1.0
      ],
      [
        "uvial",
        -1.0
      ],
      [
        "string",
        -1.0
      ],
      [
        "eons",
        -1.0
      ],
      [
        "5",
        -1.0
      ],
      [
        "çĶ¨",
        -1.0
      ],
      [
        "gles",
        -1.0
      ],
      [
        "Ġold",
        -1.0
      ],
      [
        "Mis",
        -1.0
      ],
      [
        "treated",
        -1.0
      ],
      [
        "ĠCompared",
        -1.0
      ],
      [
        "Ġsounds",
        -1.0
      ],
      [
        "Ġunambiguous",
        -1.0
      ],
      [
        "ĠHence",
        -1.0
      ],
      [
        "well",
        -1.0
      ],
      [
        "however",
        -1.0
      ],
      [
        "-years",
        -1.0
      ],
      [
        "Ġsawdust",
        -1.0
      ],
      [
        "tÃ©",
        -1.0
      ],
      [
        "Ġessentials",
        -1.0
      ],
      [
        "Ġdetail",
        -1.0
      ],
      [
        "ĠCookies",
        -1.0
      ],
      [
        "Ġdiagrams",
        -1.0
      ],
      [
        "Ġspectacular",
        -1.0
      ],
      [
        "ĠCities",
        -1.0
      ],
      [
        "finder",
        -1.0
      ],
      [
        "Ġven",
        -1.0
      ],
      [
        "Ġsaucepan",
        -1.0
      ],
      [
        "ĠGE",
        -1.0
      ],
      [
        "Ġvaried",
        -1.0
      ],
      [
        "Ġchallenging",
        -1.0
      ],
      [
        "ĠKrishna",
        -1.0
      ],
      [
        "ĠEscherichia",
        -1.0
      ],
      [
        "erg",
        -1.0
      ],
      [
        "Ġpesky",
        -1.0
      ],
      [
        "ĠREALLY",
        -1.0
      ],
      [
        "Cross",
        -1.0
      ],
      [
        "ĠVarious",
        -1.0
      ],
      [
        "Adobe",
        -1.0
      ],
      [
        "Ġorbital",
        -1.0
      ],
      [
        "Ġjumped",
        -1.0
      ],
      [
        "Ġnews",
        -1.0
      ],
      [
        "Ġph",
        -1.0
      ],
      [
        "Ġlime",
        -1.0
      ],
      [
        "Ġinclude",
        -1.0
      ],
      [
        "ĠAustria",
        -1.0
      ],
      [
        "Ġclay",
        -1.0
      ],
      [
        "Cata",
        -1.0
      ],
      [
        "ĠVenezuela",
        -1.0
      ],
      [
        "Ġstaining",
        -1.0
      ],
      [
        "Ġreflector",
        -1.0
      ],
      [
        "OO",
        -1.0
      ],
      [
        "surviv",
        -1.0
      ],
      [
        "Ġproposition",
        -1.0
      ],
      [
        "lock",
        -1.0
      ],
      [
        "Ġnative",
        -1.0
      ],
      [
        "Ġbedding",
        -1.0
      ],
      [
        "-tech",
        -1.0
      ],
      [
        "Ġsteril",
        -1.0
      ],
      [
        "-click",
        -1.0
      ],
      [
        "aga",
        -1.0
      ],
      [
        "Speed",
        -1.0
      ],
      [
        "cip",
        -1.0
      ],
      [
        "/mol",
        -1.0
      ],
      [
        "ĠSom",
        -1.0
      ],
      [
        "ĠCleveland",
        -1.0
      ],
      [
        "Sim",
        -1.0
      ],
      [
        "Ġpriest",
        -1.0
      ],
      [
        "Ġretinopathy",
        -1.0
      ],
      [
        "Ġdeployment",
        -1.0
      ],
      [
        "Ġdinosaur",
        -1.0
      ],
      [
        "Ġspaces",
        -1.0
      ],
      [
        "Ġordin",
        -1.0
      ],
      [
        "Ġwanted",
        -1.0
      ],
      [
        "Ġsensory",
        -1.0
      ],
      [
        "Ġcited",
        -1.0
      ],
      [
        "Ġsweating",
        -1.0
      ],
      [
        "Ġpodiatrist",
        -1.0
      ],
      [
        "Ġbeekeeping",
        -1.0
      ],
      [
        "ĠExpansion",
        -1.0
      ],
      [
        "ĠChap",
        -1.0
      ],
      [
        "ĠiPhone",
        -1.0
      ],
      [
        "ĠIraq",
        -1.0
      ],
      [
        "ĠØ",
        -1.0
      ],
      [
        "-cylinder",
        -1.0
      ],
      [
        "Ġcharacter",
        -1.0
      ],
      [
        "Ġliners",
        -1.0
      ],
      [
        "ĠRose",
        -1.0
      ],
      [
        "Ġuncommon",
        -1.0
      ],
      [
        "Ġnegligent",
        -1.0
      ],
      [
        "Ġperpet",
        -1.0
      ],
      [
        "Ġbackpacks",
        -1.0
      ],
      [
        "Ġglossy",
        -1.0
      ],
      [
        "Ġrhythmic",
        -1.0
      ],
      [
        "Ġdipped",
        -1.0
      ],
      [
        "/p",
        -1.0
      ],
      [
        "ĠiTunes",
        -1.0
      ],
      [
        "quilibrium",
        -1.0
      ],
      [
        "Ġskeletal",
        -1.0
      ],
      [
        "Know",
        -1.0
      ],
      [
        "Ġlogical",
        -1.0
      ],
      [
        "has",
        -1.0
      ],
      [
        "organ",
        -1.0
      ],
      [
        "ĠSally",
        -1.0
      ],
      [
        "ĠSamples",
        -1.0
      ],
      [
        "Ġcheating",
        -1.0
      ],
      [
        "Ġlineup",
        -1.0
      ],
      [
        "Ġshower",
        -1.0
      ],
      [
        "Wor",
        -1.0
      ],
      [
        "Ġbeta",
        -1.0
      ],
      [
        "rain",
        -1.0
      ],
      [
        "ein",
        -1.0
      ],
      [
        "minent",
        -1.0
      ],
      [
        "ĠNathan",
        -1.0
      ],
      [
        "ĠRubber",
        -1.0
      ],
      [
        "Ġsc",
        -1.0
      ],
      [
        "ĠSac",
        -1.0
      ],
      [
        "Ġjunior",
        -1.0
      ],
      [
        "ĠSwitch",
        -1.0
      ],
      [
        "Ġlogistics",
        -1.0
      ],
      [
        "ĠÑģ",
        -1.0
      ],
      [
        "Ġallows",
        -1.0
      ],
      [
        "-documented",
        -1.0
      ],
      [
        "ĠTooth",
        -1.0
      ],
      [
        "Problems",
        -1.0
      ],
      [
        "Ġattained",
        -1.0
      ],
      [
        "Ġnoisy",
        -1.0
      ],
      [
        "Ġdaffodils",
        -1.0
      ],
      [
        "bio",
        -1.0
      ],
      [
        "overs",
        -1.0
      ],
      [
        "sphere",
        -1.0
      ],
      [
        "-promoting",
        -1.0
      ],
      [
        "wning",
        -1.0
      ],
      [
        "Ġresembles",
        -1.0
      ],
      [
        "Hybrid",
        -1.0
      ],
      [
        "Ġdive",
        -1.0
      ],
      [
        "Ġtide",
        -1.0
      ],
      [
        "Ġnested",
        -1.0
      ],
      [
        "ĠYears",
        -1.0
      ],
      [
        "Ġkale",
        -1.0
      ],
      [
        "nomous",
        -1.0
      ],
      [
        "Ġpixels",
        -1.0
      ],
      [
        "Sodium",
        -1.0
      ],
      [
        "Ġbloodstream",
        -1.0
      ],
      [
        "els",
        -1.0
      ],
      [
        "Ġtidy",
        -1.0
      ],
      [
        "Ġlandmarks",
        -1.0
      ],
      [
        "rish",
        -1.0
      ],
      [
        "Pacific",
        -1.0
      ],
      [
        "-facing",
        -1.0
      ],
      [
        "unct",
        -1.0
      ],
      [
        "ĠF",
        -1.0
      ],
      [
        "Ġbegun",
        -1.0
      ],
      [
        "ĠPLC",
        -1.0
      ],
      [
        "ĠTake",
        -1.0
      ],
      [
        "sher",
        -1.0
      ],
      [
        "Ġvictims",
        -1.0
      ],
      [
        "ĠGr",
        -1.0
      ],
      [
        "ĠCreation",
        -1.0
      ],
      [
        "Ġantelope",
        -1.0
      ],
      [
        "ĠBuy",
        -1.0
      ],
      [
        "Ġbiscuit",
        -1.0
      ],
      [
        "Ġworksheet",
        -1.0
      ],
      [
        "Ġdiscussed",
        -1.0
      ],
      [
        "Ġteaspoon",
        -1.0
      ],
      [
        "Acknowledg",
        -1.0
      ],
      [
        "Ġdestiny",
        -1.0
      ],
      [
        "bank",
        -1.0
      ],
      [
        "ĠYes",
        -1.0
      ],
      [
        "Ġtied",
        -1.0
      ],
      [
        "Ġrelativistic",
        -1.0
      ],
      [
        "je",
        -1.0
      ],
      [
        "Ġdisinfectant",
        -1.0
      ],
      [
        "moving",
        -1.0
      ],
      [
        "Ġlosing",
        -1.0
      ],
      [
        "argument",
        -1.0
      ],
      [
        "Ġflatten",
        -1.0
      ],
      [
        "ĠHills",
        -1.0
      ],
      [
        "Ġfragrant",
        -1.0
      ],
      [
        "ĠIndian",
        -1.0
      ],
      [
        "Computer",
        -1.0
      ],
      [
        "Ġ*",
        -1.0
      ],
      [
        "ĠSyn",
        -1.0
      ],
      [
        "ÂºC",
        -1.0
      ],
      [
        "-group",
        -1.0
      ],
      [
        "Ġforth",
        -1.0
      ],
      [
        "Ġwrists",
        -1.0
      ],
      [
        "ĠCitrus",
        -1.0
      ],
      [
        "Ġunplanned",
        -1.0
      ],
      [
        "Ġdriver",
        -1.0
      ],
      [
        "Ġpowerhouse",
        -1.0
      ],
      [
        "Drug",
        -1.0
      ],
      [
        "mbling",
        -1.0
      ],
      [
        "Ġearliest",
        -1.0
      ],
      [
        "Ġnucleotide",
        -1.0
      ],
      [
        "ĠNobody",
        -1.0
      ],
      [
        "Garden",
        -1.0
      ],
      [
        "Ġcantilever",
        -1.0
      ],
      [
        "Ġspecialties",
        -1.0
      ],
      [
        "ĠDraw",
        -1.0
      ],
      [
        "ĠLebanon",
        -1.0
      ],
      [
        "achi",
        -1.0
      ],
      [
        "Ġfighter",
        -1.0
      ],
      [
        "âĺħ",
        -1.0
      ],
      [
        "mental",
        -1.0
      ],
      [
        "Ġseasonal",
        -1.0
      ],
      [
        "CG",
        -1.0
      ],
      [
        "Ġbrakes",
        -1.0
      ],
      [
        "Ġti",
        -1.0
      ],
      [
        "rar",
        -1.0
      ],
      [
        "Ġowned",
        -1.0
      ],
      [
        "guard",
        -1.0
      ],
      [
        "ĠStore",
        -1.0
      ],
      [
        "ĠPrinciples",
        -1.0
      ],
      [
        "Step",
        -1.0
      ],
      [
        "Ġbuses",
        -1.0
      ],
      [
        "Ġadept",
        -1.0
      ],
      [
        "English",
        -1.0
      ],
      [
        "imum",
        -1.0
      ],
      [
        "Ē",
        -1.0
      ],
      [
        "ĠMy",
        -1.0
      ],
      [
        "Ġprolonged",
        -1.0
      ],
      [
        "Ent",
        -1.0
      ],
      [
        "Ġpracticing",
        -1.0
      ],
      [
        "bugs",
        -1.0
      ],
      [
        "Ġcannon",
        -1.0
      ],
      [
        "Ġproximal",
        -1.0
      ],
      [
        "Ġtomatoes",
        -1.0
      ],
      [
        "cast",
        -1.0
      ],
      [
        "Ġhired",
        -1.0
      ],
      [
        "-intensive",
        -1.0
      ],
      [
        "inent",
        -1.0
      ],
      [
        "ĠSample",
        -1.0
      ],
      [
        "Ġage",
        -1.0
      ],
      [
        "Ġion",
        -1.0
      ],
      [
        "Ġcivic",
        -1.0
      ],
      [
        "urable",
        -1.0
      ],
      [
        "Ġsl",
        -1.0
      ],
      [
        "ĠOver",
        -1.0
      ],
      [
        "Ġsells",
        -1.0
      ],
      [
        "Ġbronze",
        -1.0
      ],
      [
        "ĠSoutheast",
        -1.0
      ],
      [
        "Ġqualify",
        -1.0
      ],
      [
        "san",
        -1.0
      ],
      [
        "Ġrequires",
        -1.0
      ],
      [
        "ĠPoor",
        -1.0
      ],
      [
        "âĢĶbut",
        -1.0
      ],
      [
        "Mar",
        -1.0
      ],
      [
        "Ġpolitical",
        -1.0
      ],
      [
        "sium",
        -1.0
      ],
      [
        "Ġreduce",
        -1.0
      ],
      [
        "ĠRaj",
        -1.0
      ],
      [
        "Ġjo",
        -1.0
      ],
      [
        "Ġhighest",
        -1.0
      ],
      [
        "Ġpost",
        -1.0
      ],
      [
        "ĠAnim",
        -1.0
      ],
      [
        "ediatric",
        -1.0
      ],
      [
        "Ġsod",
        -1.0
      ],
      [
        "ĠFlora",
        -1.0
      ],
      [
        "Ġmileage",
        -1.0
      ],
      [
        "Ġperceptual",
        -1.0
      ],
      [
        "-fin",
        -1.0
      ],
      [
        "rations",
        -1.0
      ],
      [
        "Ġcontinuing",
        -1.0
      ],
      [
        "Ġconducting",
        -1.0
      ],
      [
        "Ġphylum",
        -1.0
      ],
      [
        "Ġtarp",
        -1.0
      ],
      [
        "Ġbull",
        -1.0
      ],
      [
        "Ġefforts",
        -1.0
      ],
      [
        "ĠFamily",
        -1.0
      ],
      [
        "ãĢ",
        -1.0
      ],
      [
        "Top",
        -1.0
      ],
      [
        "lia",
        -1.0
      ],
      [
        "95",
        -1.0
      ],
      [
        "Ġpresenting",
        -1.0
      ],
      [
        "Ġredemption",
        -1.0
      ],
      [
        "Ġspy",
        -1.0
      ],
      [
        "Ġfeminist",
        -1.0
      ],
      [
        "Ġelectric",
        -1.0
      ],
      [
        "rage",
        -1.0
      ],
      [
        "Ġmulti",
        -1.0
      ],
      [
        "ĠAddiction",
        -1.0
      ],
      [
        "Ġbecame",
        -1.0
      ],
      [
        "Ġlaptop",
        -1.0
      ],
      [
        "Ġsymphony",
        -1.0
      ],
      [
        "Ġbountiful",
        -1.0
      ],
      [
        "Ì",
        -1.0
      ],
      [
        "ĠMonte",
        -1.0
      ],
      [
        "diment",
        -1.0
      ],
      [
        "-U",
        -1.0
      ],
      [
        "Ġmarkedly",
        -1.0
      ],
      [
        "ĠMiss",
        -1.0
      ],
      [
        "Ġtendency",
        -1.0
      ],
      [
        "Ġpartners",
        -1.0
      ],
      [
        "Ġinf",
        -1.0
      ],
      [
        "ĠRain",
        -1.0
      ],
      [
        "til",
        -1.0
      ],
      [
        "ately",
        -1.0
      ],
      [
        "Ġdownhill",
        -1.0
      ],
      [
        "Ġtoe",
        -1.0
      ],
      [
        "Ġanterior",
        -1.0
      ],
      [
        "Ġgibb",
        -1.0
      ],
      [
        "Ġgrading",
        -1.0
      ],
      [
        "Cold",
        -1.0
      ],
      [
        "ong",
        -1.0
      ],
      [
        "Ġconveyor",
        -1.0
      ],
      [
        "Ġspeeches",
        -1.0
      ],
      [
        "some",
        -1.0
      ],
      [
        "ĠCra",
        -1.0
      ],
      [
        "Ġsay",
        -1.0
      ],
      [
        "Ġpredefined",
        -1.0
      ],
      [
        "Di",
        -1.0
      ],
      [
        "Ġbans",
        -1.0
      ],
      [
        "digital",
        -1.0
      ],
      [
        "IM",
        -1.0
      ],
      [
        "Ġreared",
        -1.0
      ],
      [
        "Ġinvesting",
        -1.0
      ],
      [
        "rth",
        -1.0
      ],
      [
        "Ġpulling",
        -1.0
      ],
      [
        "Ġunit",
        -1.0
      ],
      [
        "watt",
        -1.0
      ],
      [
        "of",
        -1.0
      ],
      [
        "serving",
        -1.0
      ],
      [
        "ĠEDT",
        -1.0
      ],
      [
        "Ġovaries",
        -1.0
      ],
      [
        "Ġrecognise",
        -1.0
      ],
      [
        "Firstly",
        -1.0
      ],
      [
        "osum",
        -1.0
      ],
      [
        "Ð¸",
        -1.0
      ],
      [
        "ĠAtlas",
        -1.0
      ],
      [
        "Ġgreeting",
        -1.0
      ],
      [
        "Ġatomic",
        -1.0
      ],
      [
        "Ġ(>",
        -1.0
      ],
      [
        "app",
        -1.0
      ],
      [
        "HM",
        -1.0
      ],
      [
        "isk",
        -1.0
      ],
      [
        "Ġsuffering",
        -1.0
      ],
      [
        "Ġinterviews",
        -1.0
      ],
      [
        "Ġfeeds",
        -1.0
      ],
      [
        "Also",
        -1.0
      ],
      [
        "ĠAwareness",
        -1.0
      ],
      [
        "Apart",
        -1.0
      ],
      [
        "ĠPhysiology",
        -1.0
      ],
      [
        "ĠExc",
        -1.0
      ],
      [
        "Ġpinch",
        -1.0
      ],
      [
        "cid",
        -1.0
      ],
      [
        "Asclepias",
        -1.0
      ],
      [
        "Ġreaders",
        -1.0
      ],
      [
        "ï¿½",
        -1.0
      ],
      [
        "banks",
        -1.0
      ],
      [
        "Ġconcludes",
        -1.0
      ],
      [
        "ĠCactus",
        -1.0
      ],
      [
        "ĠFarm",
        -1.0
      ],
      [
        "ĠSeed",
        -1.0
      ],
      [
        "ĠRide",
        -1.0
      ],
      [
        "ieties",
        -1.0
      ],
      [
        "og",
        -1.0
      ],
      [
        "spo",
        -1.0
      ],
      [
        "flies",
        -1.0
      ],
      [
        "Ġrustic",
        -1.0
      ],
      [
        "Ġfru",
        -1.0
      ],
      [
        "Ġever",
        -1.0
      ],
      [
        "Ġregards",
        -1.0
      ],
      [
        "Box",
        -1.0
      ],
      [
        "ĠGMT",
        -1.0
      ],
      [
        "Ġposts",
        -1.0
      ],
      [
        "Ġshaped",
        -1.0
      ],
      [
        "ĠCoast",
        -1.0
      ],
      [
        "Ġwearer",
        -1.0
      ],
      [
        "Ġneeds",
        -1.0
      ],
      [
        "Ġcuring",
        -1.0
      ],
      [
        "ĠAccurate",
        -1.0
      ],
      [
        "Ġinstability",
        -1.0
      ],
      [
        "Ġdialysis",
        -1.0
      ],
      [
        "pan",
        -1.0
      ],
      [
        "Ġflavours",
        -1.0
      ],
      [
        "ĠRNA",
        -1.0
      ],
      [
        "Ġdisabling",
        -1.0
      ],
      [
        "Ġlocate",
        -1.0
      ],
      [
        "Ġaroma",
        -1.0
      ],
      [
        "Ġtrainer",
        -1.0
      ],
      [
        "por",
        -1.0
      ],
      [
        "Ġchannels",
        -1.0
      ],
      [
        "ĠReg",
        -1.0
      ],
      [
        "ĠSold",
        -1.0
      ],
      [
        "ĠArthur",
        -1.0
      ],
      [
        "Ġcountryside",
        -1.0
      ],
      [
        "po",
        -1.0
      ],
      [
        "Ġamygdala",
        -1.0
      ],
      [
        "Ġconsumes",
        -1.0
      ],
      [
        "/R",
        -1.0
      ],
      [
        "word",
        -1.0
      ],
      [
        "ines",
        -1.0
      ],
      [
        "ĠOr",
        -1.0
      ],
      [
        "acrylate",
        -1.0
      ],
      [
        "duction",
        -1.0
      ],
      [
        "ĠHol",
        -1.0
      ],
      [
        "Ġcellular",
        -1.0
      ],
      [
        "Ġnotices",
        -1.0
      ],
      [
        "Res",
        -1.0
      ],
      [
        "Ġgluc",
        -1.0
      ],
      [
        "Ġseedlings",
        -1.0
      ],
      [
        "dys",
        -1.0
      ],
      [
        "Ġdeformed",
        -1.0
      ],
      [
        "Ġamblyopia",
        -1.0
      ],
      [
        "Ġacres",
        -1.0
      ],
      [
        "Ġfloral",
        -1.0
      ],
      [
        "-weight",
        -1.0
      ],
      [
        "ĠRestoration",
        -1.0
      ],
      [
        "ture",
        -1.0
      ],
      [
        "ĠAndy",
        -1.0
      ],
      [
        "Ġbinder",
        -1.0
      ],
      [
        "Fall",
        -1.0
      ],
      [
        "done",
        -1.0
      ],
      [
        "Ġshopping",
        -1.0
      ],
      [
        "Discover",
        -1.0
      ],
      [
        "Ġpolice",
        -1.0
      ],
      [
        "Filter",
        -1.0
      ],
      [
        "Ġmemor",
        -1.0
      ],
      [
        "Ġcloset",
        -1.0
      ],
      [
        "Ġfulfilled",
        -1.0
      ],
      [
        "ven",
        -1.0
      ],
      [
        "Ġneatly",
        -1.0
      ],
      [
        "Ġentities",
        -1.0
      ],
      [
        "quin",
        -1.0
      ],
      [
        "eb",
        -1.0
      ],
      [
        "Ġsequential",
        -1.0
      ],
      [
        "Ġembryos",
        -1.0
      ],
      [
        "flower",
        -1.0
      ],
      [
        "Ġscissors",
        -1.0
      ],
      [
        "Ġcookie",
        -1.0
      ],
      [
        "OV",
        -1.0
      ],
      [
        "Ġstuds",
        -1.0
      ],
      [
        "ĠSEM",
        -1.0
      ],
      [
        "ć",
        -1.0
      ],
      [
        "Ĕ",
        -1.0
      ],
      [
        "Ġed",
        -1.0
      ],
      [
        "Ġgreed",
        -1.0
      ],
      [
        "nyl",
        -1.0
      ],
      [
        "ĠPBS",
        -1.0
      ],
      [
        "ecution",
        -1.0
      ],
      [
        "ĠEqual",
        -1.0
      ],
      [
        "Ġsegment",
        -1.0
      ],
      [
        "+Ċ",
        -1.0
      ],
      [
        "ima",
        -1.0
      ],
      [
        "Ġadvance",
        -1.0
      ],
      [
        "Ġclones",
        -1.0
      ],
      [
        "Ġredox",
        -1.0
      ],
      [
        "Ġcitations",
        -1.0
      ],
      [
        "ĠOtherwise",
        -1.0
      ],
      [
        "Ġplanks",
        -1.0
      ],
      [
        "aires",
        -1.0
      ],
      [
        "dep",
        -1.0
      ],
      [
        "Ġexpecting",
        -1.0
      ],
      [
        "Ġsocial",
        -1.0
      ],
      [
        "tv",
        -1.0
      ],
      [
        "Ġdetrimental",
        -1.0
      ],
      [
        "Ġsquared",
        -1.0
      ],
      [
        "Two",
        -1.0
      ],
      [
        "ĠWOR",
        -1.0
      ],
      [
        "$",
        -1.0
      ],
      [
        "Ġgrind",
        -1.0
      ],
      [
        "Ġcameras",
        -1.0
      ],
      [
        "ergy",
        -1.0
      ],
      [
        "Ġsprinkler",
        -1.0
      ],
      [
        "ended",
        -1.0
      ],
      [
        "Measuring",
        -1.0
      ],
      [
        "ĠEngine",
        -1.0
      ],
      [
        "ĠVegetables",
        -1.0
      ],
      [
        "KD",
        -1.0
      ],
      [
        "Ġhref",
        -1.0
      ],
      [
        "Ġscavenging",
        -1.0
      ],
      [
        "Ġtrip",
        -1.0
      ],
      [
        "Ġamplify",
        -1.0
      ],
      [
        "Ġdrawing",
        -1.0
      ],
      [
        "Ġopt",
        -1.0
      ],
      [
        "Ġfountain",
        -1.0
      ],
      [
        "ĠMilky",
        -1.0
      ],
      [
        "Ġdelicacies",
        -1.0
      ],
      [
        "Ġgot",
        -1.0
      ],
      [
        "Ġincoming",
        -1.0
      ],
      [
        "gur",
        -1.0
      ],
      [
        "Ġplanar",
        -1.0
      ],
      [
        "-acre",
        -1.0
      ],
      [
        "mated",
        -1.0
      ],
      [
        "Ġfungal",
        -1.0
      ],
      [
        "ĠArray",
        -1.0
      ],
      [
        "ĠLas",
        -1.0
      ],
      [
        "ĠCircle",
        -1.0
      ],
      [
        "Ġby",
        -1.0
      ],
      [
        "fun",
        -1.0
      ],
      [
        "ĠMetals",
        -1.0
      ],
      [
        "Ġerrors",
        -1.0
      ],
      [
        "Ġseverely",
        -1.0
      ],
      [
        "ĠFuel",
        -1.0
      ],
      [
        "den",
        -1.0
      ],
      [
        "ĠNW",
        -1.0
      ],
      [
        "Ġendo",
        -1.0
      ],
      [
        "Ġcentralized",
        -1.0
      ],
      [
        "Ġdirected",
        -1.0
      ],
      [
        "Ġoverwinter",
        -1.0
      ],
      [
        "Ġentirety",
        -1.0
      ],
      [
        "Matthew",
        -1.0
      ],
      [
        ".",
        -1.0
      ],
      [
        "Ġcorresponds",
        -1.0
      ],
      [
        "hap",
        -1.0
      ],
      [
        "Ġabbreviation",
        -1.0
      ],
      [
        "Ġelk",
        -1.0
      ],
      [
        "ĠÎ¼m",
        -1.0
      ],
      [
        "hedral",
        -1.0
      ],
      [
        "Ġapproval",
        -1.0
      ],
      [
        "Ġintegration",
        -1.0
      ],
      [
        "ethylene",
        -1.0
      ],
      [
        "Ġquestions",
        -1.0
      ],
      [
        "Late",
        -1.0
      ],
      [
        ");",
        -1.0
      ],
      [
        "Ġhobbyists",
        -1.0
      ],
      [
        "Ġauthors",
        -1.0
      ],
      [
        "Ġoysters",
        -1.0
      ],
      [
        "(\"",
        -1.0
      ],
      [
        "Ġerupt",
        -1.0
      ],
      [
        "Ġsewer",
        -1.0
      ],
      [
        "Ġorthodontic",
        -1.0
      ],
      [
        "1",
        -1.0
      ],
      [
        "Ġslide",
        -1.0
      ],
      [
        "falls",
        -1.0
      ],
      [
        "Ġreds",
        -1.0
      ],
      [
        "Article",
        -1.0
      ],
      [
        "ĠProgramming",
        -1.0
      ],
      [
        "-moving",
        -1.0
      ],
      [
        "Ġmutants",
        -1.0
      ],
      [
        "ĠRegister",
        -1.0
      ],
      [
        "Ġresemble",
        -1.0
      ],
      [
        "WHO",
        -1.0
      ],
      [
        "unting",
        -1.0
      ],
      [
        "Ġ$$",
        -1.0
      ],
      [
        "Ġvisualizing",
        -1.0
      ],
      [
        "Ġhosted",
        -1.0
      ],
      [
        "Ġridges",
        -1.0
      ],
      [
        "Ġeligible",
        -1.0
      ],
      [
        "Ġpunishment",
        -1.0
      ],
      [
        "Ġmenus",
        -1.0
      ],
      [
        "Ġsignage",
        -1.0
      ],
      [
        "TOR",
        -1.0
      ],
      [
        "-density",
        -1.0
      ],
      [
        "LY",
        -1.0
      ],
      [
        "-coding",
        -1.0
      ],
      [
        "Ġforemost",
        -1.0
      ],
      [
        "ĠUW",
        -1.0
      ],
      [
        "Ġcayenne",
        -1.0
      ],
      [
        "Ol",
        -1.0
      ],
      [
        "frac",
        -1.0
      ],
      [
        "Here",
        -1.0
      ],
      [
        "Ġhands",
        -1.0
      ],
      [
        "illion",
        -1.0
      ],
      [
        "ĠChanges",
        -1.0
      ],
      [
        "Ġunob",
        -1.0
      ],
      [
        "ĠFive",
        -1.0
      ],
      [
        "Ġoily",
        -1.0
      ],
      [
        "Ġpaper",
        -1.0
      ],
      [
        "ential",
        -1.0
      ],
      [
        "Ġselects",
        -1.0
      ],
      [
        "Ġfertilizing",
        -1.0
      ],
      [
        "ĠMix",
        -1.0
      ],
      [
        "ĠBry",
        -1.0
      ],
      [
        "ĠEmotions",
        -1.0
      ],
      [
        "Ġyellowish",
        -1.0
      ],
      [
        "Ġwidget",
        -1.0
      ],
      [
        "Ġbacterial",
        -1.0
      ],
      [
        "Ġstabilize",
        -1.0
      ],
      [
        "Ġtulips",
        -1.0
      ],
      [
        "Ġprotru",
        -1.0
      ],
      [
        "lo",
        -1.0
      ],
      [
        "Ġdiamonds",
        -1.0
      ],
      [
        "Ġland",
        -1.0
      ],
      [
        "ĠArabia",
        -1.0
      ],
      [
        "Ġ+/-",
        -1.0
      ],
      [
        "ĠCivic",
        -1.0
      ],
      [
        "ĠRecord",
        -1.0
      ],
      [
        "ĠUzbekistan",
        -1.0
      ],
      [
        "Ġknife",
        -1.0
      ],
      [
        "ĠAbove",
        -1.0
      ],
      [
        "Ġcaptivate",
        -1.0
      ],
      [
        "iga",
        -1.0
      ],
      [
        "room",
        -1.0
      ],
      [
        "Ġgovernments",
        -1.0
      ],
      [
        "ĠBasics",
        -1.0
      ],
      [
        "plicating",
        -1.0
      ],
      [
        "nto",
        -1.0
      ],
      [
        "ĠSheffield",
        -1.0
      ],
      [
        "Ġentertained",
        -1.0
      ],
      [
        "Ġfilament",
        -1.0
      ],
      [
        "ãĤĴ",
        -1.0
      ],
      [
        "gas",
        -1.0
      ],
      [
        "ĠTel",
        -1.0
      ],
      [
        "ĠÏ",
        -1.0
      ],
      [
        "Ġframes",
        -1.0
      ],
      [
        "Ġdeployed",
        -1.0
      ],
      [
        "Ġproperly",
        -1.0
      ],
      [
        "ĠIncorporate",
        -1.0
      ],
      [
        "Ġunprotected",
        -1.0
      ],
      [
        "Cla",
        -1.0
      ],
      [
        "-way",
        -1.0
      ],
      [
        "Ġmu",
        -1.0
      ],
      [
        "Ġru",
        -1.0
      ],
      [
        "Ġvolatility",
        -1.0
      ],
      [
        "Ġsong",
        -1.0
      ],
      [
        "Ġdressed",
        -1.0
      ],
      [
        "Ġsacrifice",
        -1.0
      ],
      [
        "Ġslo",
        -1.0
      ],
      [
        "Ġsimplest",
        -1.0
      ],
      [
        "Ġbamboo",
        -1.0
      ],
      [
        "Ġhusk",
        -1.0
      ],
      [
        "ĠEncourage",
        -1.0
      ],
      [
        "Ġvide",
        -1.0
      ],
      [
        "ĠVolcanic",
        -1.0
      ],
      [
        "ĠLength",
        -1.0
      ],
      [
        "ĠNAD",
        -1.0
      ],
      [
        "Ġrein",
        -1.0
      ],
      [
        "Ġinefficient",
        -1.0
      ],
      [
        "Sal",
        -1.0
      ],
      [
        "ĠTherapist",
        -1.0
      ],
      [
        "Ġresistant",
        -1.0
      ],
      [
        "Ġappointment",
        -1.0
      ],
      [
        "Ġaperture",
        -1.0
      ],
      [
        "ĠBose",
        -1.0
      ],
      [
        "Ġsheath",
        -1.0
      ],
      [
        "ĠSymptoms",
        -1.0
      ],
      [
        "Ġbackwards",
        -1.0
      ],
      [
        "EA",
        -1.0
      ],
      [
        "Ġbreast",
        -1.0
      ],
      [
        "Ġsomeday",
        -1.0
      ],
      [
        "Ġaccident",
        -1.0
      ],
      [
        "Ġcustomized",
        -1.0
      ],
      [
        "Ġflexibility",
        -1.0
      ],
      [
        "bia",
        -1.0
      ],
      [
        "Ġnearby",
        -1.0
      ],
      [
        "Ġitem",
        -1.0
      ],
      [
        "Ġslowed",
        -1.0
      ],
      [
        "ĠHemisphere",
        -1.0
      ],
      [
        "vering",
        -1.0
      ],
      [
        "ooks",
        -1.0
      ],
      [
        "Ġ/><",
        -1.0
      ],
      [
        "à¸",
        -1.0
      ],
      [
        "sound",
        -1.0
      ],
      [
        "ĠPR",
        -1.0
      ],
      [
        "Ġrecorded",
        -1.0
      ],
      [
        "ĠPromotion",
        -1.0
      ],
      [
        "Ġstudy",
        -1.0
      ],
      [
        "Ġstronger",
        -1.0
      ],
      [
        "Ġdragon",
        -1.0
      ],
      [
        "ĠDB",
        -1.0
      ],
      [
        "ĠXiao",
        -1.0
      ],
      [
        "Ġlist",
        -1.0
      ],
      [
        "Ġamber",
        -1.0
      ],
      [
        "Apparently",
        -1.0
      ],
      [
        "ĠAP",
        -1.0
      ],
      [
        "lah",
        -1.0
      ],
      [
        "hil",
        -1.0
      ],
      [
        "Ġdefinition",
        -1.0
      ],
      [
        "ĠInitial",
        -1.0
      ],
      [
        "Ġmeasuring",
        -1.0
      ],
      [
        "ĠDie",
        -1.0
      ],
      [
        "Ġleisure",
        -1.0
      ],
      [
        "ĠBitcoin",
        -1.0
      ],
      [
        "ĠFruits",
        -1.0
      ],
      [
        "ĠKodak",
        -1.0
      ],
      [
        "logous",
        -1.0
      ],
      [
        "Ġpromptly",
        -1.0
      ],
      [
        "Ġofficials",
        -1.0
      ],
      [
        "Ġtype",
        -1.0
      ],
      [
        "Ġinclusivity",
        -1.0
      ],
      [
        "Ye",
        -1.0
      ],
      [
        "PA",
        -1.0
      ],
      [
        "That",
        -1.0
      ],
      [
        "Ġpap",
        -1.0
      ],
      [
        "ĠActually",
        -1.0
      ],
      [
        "Cri",
        -1.0
      ],
      [
        "Ġexperiment",
        -1.0
      ],
      [
        "Ġunused",
        -1.0
      ],
      [
        "dget",
        -1.0
      ],
      [
        "ĠFlorence",
        -1.0
      ],
      [
        "Ġprote",
        -1.0
      ],
      [
        "Cast",
        -1.0
      ],
      [
        "ville",
        -1.0
      ],
      [
        "Ġdonating",
        -1.0
      ],
      [
        "Ġresveratrol",
        -1.0
      ],
      [
        "ĠNH",
        -1.0
      ],
      [
        "23",
        -1.0
      ],
      [
        "Ġinformal",
        -1.0
      ],
      [
        "Black",
        -1.0
      ],
      [
        "='",
        -1.0
      ],
      [
        "ĠFriendly",
        -1.0
      ],
      [
        "Ġwitnessed",
        -1.0
      ],
      [
        "ĠTer",
        -1.0
      ],
      [
        "orb",
        -1.0
      ],
      [
        "Ġdestroys",
        -1.0
      ],
      [
        "ĠdB",
        -1.0
      ],
      [
        "Our",
        -1.0
      ],
      [
        "ľ",
        -1.0
      ],
      [
        "ĠVi",
        -1.0
      ],
      [
        "ĠSaturn",
        -1.0
      ],
      [
        "Ġsurpass",
        -1.0
      ],
      [
        "ĠStein",
        -1.0
      ],
      [
        "Ġleftovers",
        -1.0
      ],
      [
        "Ġclusters",
        -1.0
      ],
      [
        "Ġrepa",
        -1.0
      ],
      [
        "ault",
        -1.0
      ],
      [
        "-fold",
        -1.0
      ],
      [
        "Ġpeeled",
        -1.0
      ],
      [
        "Ġannounce",
        -1.0
      ],
      [
        "Ġtechniques",
        -1.0
      ],
      [
        "zen",
        -1.0
      ],
      [
        "-eight",
        -1.0
      ],
      [
        "oses",
        -1.0
      ],
      [
        "chet",
        -1.0
      ],
      [
        "ĠBright",
        -1.0
      ],
      [
        "tack",
        -1.0
      ],
      [
        "Ġbreaks",
        -1.0
      ],
      [
        "Ġclustered",
        -1.0
      ],
      [
        "ĠHispanic",
        -1.0
      ],
      [
        "ĠAr",
        -1.0
      ],
      [
        "cate",
        -1.0
      ],
      [
        "Ġrelational",
        -1.0
      ],
      [
        "Ġsmoothing",
        -1.0
      ],
      [
        "Ġmilligrams",
        -1.0
      ],
      [
        "Embark",
        -1.0
      ],
      [
        "Ġabsorbent",
        -1.0
      ],
      [
        "angel",
        -1.0
      ],
      [
        "Ġrenders",
        -1.0
      ],
      [
        "Ġbend",
        -1.0
      ],
      [
        "Ġacademy",
        -1.0
      ],
      [
        "ify",
        -1.0
      ],
      [
        "Ġmobility",
        -1.0
      ],
      [
        "Ġthi",
        -1.0
      ],
      [
        "Ġcaloric",
        -1.0
      ],
      [
        "ĠCave",
        -1.0
      ],
      [
        "Ġmidst",
        -1.0
      ],
      [
        "Science",
        -1.0
      ],
      [
        "ĠEcuador",
        -1.0
      ],
      [
        "follow",
        -1.0
      ],
      [
        "Ġimplant",
        -1.0
      ],
      [
        "Ġprototyping",
        -1.0
      ],
      [
        "ĠShu",
        -1.0
      ],
      [
        "ĠRecognize",
        -1.0
      ],
      [
        "Carbon",
        -1.0
      ],
      [
        "ĠValues",
        -1.0
      ],
      [
        "Ġlubricants",
        -1.0
      ],
      [
        "bags",
        -1.0
      ],
      [
        "Ġdermatitis",
        -1.0
      ],
      [
        "Ġplating",
        -1.0
      ],
      [
        "Ġattended",
        -1.0
      ],
      [
        "RF",
        -1.0
      ],
      [
        "ĠYellow",
        -1.0
      ],
      [
        "Ġcaliber",
        -1.0
      ],
      [
        "Ġstrengths",
        -1.0
      ],
      [
        "Ġstitch",
        -1.0
      ],
      [
        "-book",
        -1.0
      ],
      [
        "Ġflow",
        -1.0
      ],
      [
        "Ġslightest",
        -1.0
      ],
      [
        "ĠMail",
        -1.0
      ],
      [
        "-saving",
        -1.0
      ],
      [
        "ĠFork",
        -1.0
      ],
      [
        "ĠEthernet",
        -1.0
      ],
      [
        "Ġexplores",
        -1.0
      ],
      [
        "Ġairline",
        -1.0
      ],
      [
        "Ġvocational",
        -1.0
      ],
      [
        "Ġguild",
        -1.0
      ],
      [
        "Ġbeaker",
        -1.0
      ],
      [
        "oxic",
        -1.0
      ],
      [
        "Nonetheless",
        -1.0
      ],
      [
        "Ġethno",
        -1.0
      ],
      [
        "Ġkittens",
        -1.0
      ],
      [
        "ĠWeb",
        -1.0
      ],
      [
        "ĠRoute",
        -1.0
      ],
      [
        "Ġappropriate",
        -1.0
      ],
      [
        "Ġtwenty",
        -1.0
      ],
      [
        "ĠLost",
        -1.0
      ],
      [
        "Ġelusive",
        -1.0
      ],
      [
        "ĠIdentity",
        -1.0
      ],
      [
        "iles",
        -1.0
      ],
      [
        "ĠJ",
        -1.0
      ],
      [
        "ometry",
        -1.0
      ],
      [
        "Ġaid",
        -1.0
      ],
      [
        ".l",
        -1.0
      ],
      [
        "metallic",
        -1.0
      ],
      [
        "ections",
        -1.0
      ],
      [
        "Ġallotment",
        -1.0
      ],
      [
        "att",
        -1.0
      ],
      [
        "eur",
        -1.0
      ],
      [
        "Ġholes",
        -1.0
      ],
      [
        "ĠLightroom",
        -1.0
      ],
      [
        "Ġbreathing",
        -1.0
      ],
      [
        "ĠRecommended",
        -1.0
      ],
      [
        "Ġalpine",
        -1.0
      ],
      [
        "Style",
        -1.0
      ],
      [
        "day",
        -1.0
      ],
      [
        "Ġcheerful",
        -1.0
      ],
      [
        "Ġfilaments",
        -1.0
      ],
      [
        "-cooked",
        -1.0
      ],
      [
        "67",
        -1.0
      ],
      [
        "Ġlan",
        -1.0
      ],
      [
        "Ġrooftop",
        -1.0
      ],
      [
        "ĠPI",
        -1.0
      ],
      [
        "ĠMake",
        -1.0
      ],
      [
        ".P",
        -1.0
      ],
      [
        "Ġdriveway",
        -1.0
      ],
      [
        "project",
        -1.0
      ],
      [
        "molecular",
        -1.0
      ],
      [
        "ospital",
        -1.0
      ],
      [
        "Ġarchipelago",
        -1.0
      ],
      [
        "ĠâĢĵ",
        -1.0
      ],
      [
        "Ġjumper",
        -1.0
      ],
      [
        "owing",
        -1.0
      ],
      [
        "Ġcancellation",
        -1.0
      ],
      [
        "Ġpulls",
        -1.0
      ],
      [
        "Ġjade",
        -1.0
      ],
      [
        "Ġconfuse",
        -1.0
      ],
      [
        "compan",
        -1.0
      ],
      [
        "ĠDL",
        -1.0
      ],
      [
        "ĠEmploy",
        -1.0
      ],
      [
        "ĠTrinity",
        -1.0
      ],
      [
        "Ġrival",
        -1.0
      ],
      [
        "Ġevo",
        -1.0
      ],
      [
        "zy",
        -1.0
      ],
      [
        "Ġstinging",
        -1.0
      ],
      [
        "Ġfindings",
        -1.0
      ],
      [
        "Ġblessing",
        -1.0
      ],
      [
        "Ġadmiration",
        -1.0
      ],
      [
        "dy",
        -1.0
      ],
      [
        "Walk",
        -1.0
      ],
      [
        "Ġenlargement",
        -1.0
      ],
      [
        "Ġactive",
        -1.0
      ],
      [
        "Ġsucked",
        -1.0
      ],
      [
        "Ġhormones",
        -1.0
      ],
      [
        "-ups",
        -1.0
      ],
      [
        "Ġliquid",
        -1.0
      ],
      [
        "Med",
        -1.0
      ],
      [
        "ĠChihuahua",
        -1.0
      ],
      [
        "arriage",
        -1.0
      ],
      [
        "ĠHub",
        -1.0
      ],
      [
        "Ġcities",
        -1.0
      ],
      [
        "Ġcracked",
        -1.0
      ],
      [
        "-see",
        -1.0
      ],
      [
        "ĠVision",
        -1.0
      ],
      [
        "Ġsalsa",
        -1.0
      ],
      [
        "ĠEL",
        -1.0
      ],
      [
        "Ġhammock",
        -1.0
      ],
      [
        "Ġadherence",
        -1.0
      ],
      [
        "Ġtbsp",
        -1.0
      ],
      [
        "Ġadequately",
        -1.0
      ],
      [
        "Ġopaque",
        -1.0
      ],
      [
        "ĠChelsea",
        -1.0
      ],
      [
        "Ġdescended",
        -1.0
      ],
      [
        "Ġbath",
        -1.0
      ],
      [
        "Ġsucks",
        -1.0
      ],
      [
        "ĠPo",
        -1.0
      ],
      [
        "Ġnaval",
        -1.0
      ],
      [
        "':",
        -1.0
      ],
      [
        "Ġscanners",
        -1.0
      ],
      [
        "Ġcelebration",
        -1.0
      ],
      [
        "Ġdyslexia",
        -1.0
      ],
      [
        "Wil",
        -1.0
      ],
      [
        "Ġconnotation",
        -1.0
      ],
      [
        "ĠAssistant",
        -1.0
      ],
      [
        "Ġattaching",
        -1.0
      ],
      [
        "petition",
        -1.0
      ],
      [
        "Ġpeninsula",
        -1.0
      ],
      [
        "Ġcurricula",
        -1.0
      ],
      [
        "Ba",
        -1.0
      ],
      [
        "Ġabused",
        -1.0
      ],
      [
        "Ġgills",
        -1.0
      ],
      [
        "oque",
        -1.0
      ],
      [
        "Ġide",
        -1.0
      ],
      [
        "Ġreleases",
        -1.0
      ],
      [
        "Ġconnective",
        -1.0
      ],
      [
        "ĠTri",
        -1.0
      ],
      [
        "Ġcontributor",
        -1.0
      ],
      [
        "ĠProtection",
        -1.0
      ],
      [
        "iph",
        -1.0
      ],
      [
        "Ġvodka",
        -1.0
      ],
      [
        "Mechanical",
        -1.0
      ],
      [
        "Ġmounted",
        -1.0
      ],
      [
        "Ġdesirable",
        -1.0
      ],
      [
        "Ġseep",
        -1.0
      ],
      [
        "ĠNavigation",
        -1.0
      ],
      [
        "Ġundesirable",
        -1.0
      ],
      [
        "âĢ",
        -1.0
      ],
      [
        "24",
        -1.0
      ],
      [
        "Ġviewers",
        -1.0
      ],
      [
        "ealing",
        -1.0
      ],
      [
        "Ġoscillation",
        -1.0
      ],
      [
        "^-",
        -1.0
      ],
      [
        "Ġanything",
        -1.0
      ],
      [
        "ĠPOS",
        -1.0
      ],
      [
        "bread",
        -1.0
      ],
      [
        "Ġbrushes",
        -1.0
      ],
      [
        "ĠGood",
        -1.0
      ],
      [
        "rex",
        -1.0
      ],
      [
        "Ġshampoo",
        -1.0
      ],
      [
        "geo",
        -1.0
      ],
      [
        "Preventing",
        -1.0
      ],
      [
        "Ġdying",
        -1.0
      ],
      [
        "Ġraises",
        -1.0
      ],
      [
        "val",
        -1.0
      ],
      [
        "Ġred",
        -1.0
      ],
      [
        "fusion",
        -1.0
      ],
      [
        "anth",
        -1.0
      ],
      [
        "Ġb",
        -1.0
      ],
      [
        "Ġalmost",
        -1.0
      ],
      [
        "sensor",
        -1.0
      ],
      [
        "Ġscientists",
        -1.0
      ],
      [
        "ĠChang",
        -1.0
      ],
      [
        "ĠInitially",
        -1.0
      ],
      [
        "ĠFlow",
        -1.0
      ],
      [
        "although",
        -1.0
      ],
      [
        "Page",
        -1.0
      ],
      [
        "Enzyme",
        -1.0
      ],
      [
        "qui",
        -1.0
      ],
      [
        "ms",
        -1.0
      ],
      [
        "ffles",
        -1.0
      ],
      [
        "Support",
        -1.0
      ],
      [
        "Ġcrazy",
        -1.0
      ],
      [
        "-axis",
        -1.0
      ],
      [
        "Ġkm",
        -1.0
      ],
      [
        "Ġcam",
        -1.0
      ],
      [
        "ett",
        -1.0
      ],
      [
        "Ġsandy",
        -1.0
      ],
      [
        "##",
        -1.0
      ],
      [
        "haven",
        -1.0
      ],
      [
        "-rated",
        -1.0
      ],
      [
        "machine",
        -1.0
      ],
      [
        "Ġlitres",
        -1.0
      ],
      [
        "ĠFA",
        -1.0
      ],
      [
        "Ġkilling",
        -1.0
      ],
      [
        ".The",
        -1.0
      ],
      [
        "Ġknowledge",
        -1.0
      ],
      [
        "Ġrubric",
        -1.0
      ],
      [
        "Ġeastern",
        -1.0
      ],
      [
        "bots",
        -1.0
      ],
      [
        "Ġdens",
        -1.0
      ],
      [
        "ĠGuardian",
        -1.0
      ],
      [
        "Ġdecreasing",
        -1.0
      ],
      [
        "Ġwondered",
        -1.0
      ],
      [
        "Ġliner",
        -1.0
      ],
      [
        "Ġcol",
        -1.0
      ],
      [
        "Ġeu",
        -1.0
      ],
      [
        "undance",
        -1.0
      ],
      [
        "ĠCNN",
        -1.0
      ],
      [
        "ĠAPP",
        -1.0
      ],
      [
        "Ġthought",
        -1.0
      ],
      [
        "Ġohms",
        -1.0
      ],
      [
        "Ġcleavage",
        -1.0
      ],
      [
        "ĠIPCC",
        -1.0
      ],
      [
        "ttled",
        -1.0
      ],
      [
        "ĠProcessing",
        -1.0
      ],
      [
        "AX",
        -1.0
      ],
      [
        "ĠOrange",
        -1.0
      ],
      [
        "ĠNy",
        -1.0
      ],
      [
        "-year",
        -1.0
      ],
      [
        "Ġmemories",
        -1.0
      ],
      [
        "dle",
        -1.0
      ],
      [
        "Ġtreacherous",
        -1.0
      ],
      [
        "pping",
        -1.0
      ],
      [
        "First",
        -1.0
      ],
      [
        "view",
        -1.0
      ],
      [
        ";ĊĊ",
        -1.0
      ],
      [
        "gna",
        -1.0
      ],
      [
        "ĠRES",
        -1.0
      ],
      [
        "mund",
        -1.0
      ],
      [
        "XFx",
        -1.0
      ],
      [
        "Ġsources",
        -1.0
      ],
      [
        "Ġaccording",
        -1.0
      ],
      [
        "ĠExploring",
        -1.0
      ],
      [
        "aws",
        -1.0
      ],
      [
        "Ġhijack",
        -1.0
      ],
      [
        "ĠFourier",
        -1.0
      ],
      [
        "Load",
        -1.0
      ],
      [
        "Elephant",
        -1.0
      ],
      [
        "Ġlumbar",
        -1.0
      ],
      [
        "Ġpaved",
        -1.0
      ],
      [
        "Transcript",
        -1.0
      ],
      [
        "Ġimmigrants",
        -1.0
      ],
      [
        "ĠCalcium",
        -1.0
      ],
      [
        "ĠTe",
        -1.0
      ],
      [
        "Ġoutrage",
        -1.0
      ],
      [
        "Ġally",
        -1.0
      ],
      [
        "Ġzone",
        -1.0
      ],
      [
        "Ġshepherd",
        -1.0
      ],
      [
        "ply",
        -1.0
      ],
      [
        "Ġclubs",
        -1.0
      ],
      [
        "Ġremediation",
        -1.0
      ],
      [
        "Ġhomeless",
        -1.0
      ],
      [
        "ĠGary",
        -1.0
      ],
      [
        "Ġtoys",
        -1.0
      ],
      [
        "sies",
        -1.0
      ],
      [
        "Ġcuff",
        -1.0
      ],
      [
        "ĠTrump",
        -1.0
      ],
      [
        "ãĥ¼ãĤ",
        -1.0
      ],
      [
        "Ġcompanies",
        -1.0
      ],
      [
        "Ġfaith",
        -1.0
      ],
      [
        "Ġcr",
        -1.0
      ],
      [
        "Ġavid",
        -1.0
      ],
      [
        "-tolerant",
        -1.0
      ],
      [
        "nest",
        -1.0
      ],
      [
        "ĠCommon",
        -1.0
      ],
      [
        "pack",
        -1.0
      ],
      [
        "Form",
        -1.0
      ],
      [
        "Ġingesting",
        -1.0
      ],
      [
        "ĠTucson",
        -1.0
      ],
      [
        "Ġsnowboard",
        -1.0
      ],
      [
        "ĠScra",
        -1.0
      ],
      [
        "ĠIR",
        -1.0
      ],
      [
        "Ġsnail",
        -1.0
      ],
      [
        "Ġtrees",
        -1.0
      ],
      [
        "Ġsheep",
        -1.0
      ],
      [
        "50",
        -1.0
      ],
      [
        "Ġzinc",
        -1.0
      ],
      [
        "shore",
        -1.0
      ],
      [
        "ing",
        -1.0
      ],
      [
        "rush",
        -1.0
      ],
      [
        "sweet",
        -1.0
      ],
      [
        "tile",
        -1.0
      ],
      [
        "ĠSteam",
        -1.0
      ],
      [
        "Ġactually",
        -1.0
      ],
      [
        "Ġworkplace",
        -1.0
      ],
      [
        "Ġalphabet",
        -1.0
      ],
      [
        "Ġswelling",
        -1.0
      ],
      [
        "Ġlearnt",
        -1.0
      ],
      [
        "ĠEmergency",
        -1.0
      ],
      [
        "Ġchewy",
        -1.0
      ],
      [
        "llo",
        -1.0
      ],
      [
        "ehaviour",
        -1.0
      ],
      [
        "ĠJordan",
        -1.0
      ],
      [
        "ĠSuddenly",
        -1.0
      ],
      [
        "Ġcivilization",
        -1.0
      ],
      [
        "PF",
        -1.0
      ],
      [
        "ĠLast",
        -1.0
      ],
      [
        "ĠCre",
        -1.0
      ],
      [
        "major",
        -1.0
      ],
      [
        "-second",
        -1.0
      ],
      [
        "ems",
        -1.0
      ],
      [
        "Ġìĥģê¸°",
        -1.0
      ],
      [
        "circ",
        -1.0
      ],
      [
        "ĠKumar",
        -1.0
      ],
      [
        "ĠConflict",
        -1.0
      ],
      [
        "ĠAWS",
        -1.0
      ],
      [
        "ets",
        -1.0
      ],
      [
        "Ġoptimized",
        -1.0
      ],
      [
        "Ġstickers",
        -1.0
      ],
      [
        "Ġdepletion",
        -1.0
      ],
      [
        "tery",
        -1.0
      ],
      [
        "Ġrefugees",
        -1.0
      ],
      [
        "Ġdatabase",
        -1.0
      ],
      [
        "shift",
        -1.0
      ],
      [
        "Electro",
        -1.0
      ],
      [
        "humid",
        -1.0
      ],
      [
        "opsis",
        -1.0
      ],
      [
        "ĠSoc",
        -1.0
      ],
      [
        "Ġexactly",
        -1.0
      ],
      [
        "ĠDaw",
        -1.0
      ],
      [
        "Input",
        -1.0
      ],
      [
        "ĠSettings",
        -1.0
      ],
      [
        "Ġhad",
        -1.0
      ],
      [
        "Ġoregano",
        -1.0
      ],
      [
        "ĠEffective",
        -1.0
      ],
      [
        "Ġrecommending",
        -1.0
      ],
      [
        "ĠKy",
        -1.0
      ],
      [
        "ĠHelps",
        -1.0
      ],
      [
        "ĠWing",
        -1.0
      ],
      [
        "ÂŃc",
        -1.0
      ],
      [
        "ĠDennis",
        -1.0
      ],
      [
        "Ġtolerant",
        -1.0
      ],
      [
        "Ġseals",
        -1.0
      ],
      [
        "ocy",
        -1.0
      ],
      [
        "Example",
        -1.0
      ],
      [
        "ĠTobacco",
        -1.0
      ],
      [
        "OUR",
        -1.0
      ],
      [
        ")",
        -1.0
      ],
      [
        "Ġcell",
        -1.0
      ],
      [
        "Ġponds",
        -1.0
      ],
      [
        "rge",
        -1.0
      ],
      [
        "Ġbearings",
        -1.0
      ],
      [
        "ologists",
        -1.0
      ],
      [
        "Ġencompass",
        -1.0
      ],
      [
        "ffic",
        -1.0
      ],
      [
        "Ġbeams",
        -1.0
      ],
      [
        "Ġincapable",
        -1.0
      ],
      [
        "Ġevaporated",
        -1.0
      ],
      [
        "Pea",
        -1.0
      ],
      [
        "ĠOur",
        -1.0
      ],
      [
        "Eff",
        -1.0
      ],
      [
        "Ġoxidation",
        -1.0
      ],
      [
        "gans",
        -1.0
      ],
      [
        "ph",
        -1.0
      ],
      [
        "used",
        -1.0
      ],
      [
        "ĠFind",
        -1.0
      ],
      [
        "Ġaqua",
        -1.0
      ],
      [
        "Ġdiagnostic",
        -1.0
      ],
      [
        "cl",
        -1.0
      ],
      [
        "ĠSal",
        -1.0
      ],
      [
        "Ã±o",
        -1.0
      ],
      [
        "Ġphotons",
        -1.0
      ],
      [
        "Ġhighs",
        -1.0
      ],
      [
        "Ġnovice",
        -1.0
      ],
      [
        "Ġperme",
        -1.0
      ],
      [
        "R",
        -1.0
      ],
      [
        "Ġprior",
        -1.0
      ],
      [
        "Ġconflicts",
        -1.0
      ],
      [
        "Ġsparingly",
        -1.0
      ],
      [
        "j",
        -1.0
      ],
      [
        "rays",
        -1.0
      ],
      [
        "ç¤º",
        -1.0
      ],
      [
        "Ġcriminal",
        -1.0
      ],
      [
        "iny",
        -1.0
      ],
      [
        "Ġgrandparents",
        -1.0
      ],
      [
        "Ġwe",
        -1.0
      ],
      [
        "Ġbiologists",
        -1.0
      ],
      [
        "Ġjava",
        -1.0
      ],
      [
        "ulation",
        -1.0
      ],
      [
        "-forming",
        -1.0
      ],
      [
        "Ġresidential",
        -1.0
      ],
      [
        "erator",
        -1.0
      ],
      [
        "Ġremodel",
        -1.0
      ],
      [
        "Ġchisel",
        -1.0
      ],
      [
        "isha",
        -1.0
      ],
      [
        "Ġshakes",
        -1.0
      ],
      [
        "Ġfrequency",
        -1.0
      ],
      [
        "ĠTherapy",
        -1.0
      ],
      [
        "ĠRate",
        -1.0
      ],
      [
        "nk",
        -1.0
      ],
      [
        "please",
        -1.0
      ],
      [
        "Ġoutlining",
        -1.0
      ],
      [
        "ĠDimensions",
        -1.0
      ],
      [
        "Ġgentle",
        -1.0
      ],
      [
        "Ġhelicopters",
        -1.0
      ],
      [
        "Ġchoices",
        -1.0
      ],
      [
        "Ġtowing",
        -1.0
      ],
      [
        "Ġattackers",
        -1.0
      ],
      [
        "Ġtimeline",
        -1.0
      ],
      [
        "chi",
        -1.0
      ],
      [
        "bea",
        -1.0
      ],
      [
        "ur",
        -1.0
      ],
      [
        "tell",
        -1.0
      ],
      [
        "Ġwhenever",
        -1.0
      ],
      [
        "Ġshortest",
        -1.0
      ],
      [
        "Ġcumulative",
        -1.0
      ],
      [
        "ĠRound",
        -1.0
      ],
      [
        "Ġspinal",
        -1.0
      ],
      [
        "Ġseasoning",
        -1.0
      ],
      [
        "Ġpurposes",
        -1.0
      ],
      [
        "Ġaficionado",
        -1.0
      ],
      [
        "ries",
        -1.0
      ],
      [
        "ĠIncluded",
        -1.0
      ],
      [
        "Ġunsweetened",
        -1.0
      ],
      [
        "Ġperoxide",
        -1.0
      ],
      [
        "lytic",
        -1.0
      ],
      [
        "ĠSunshine",
        -1.0
      ],
      [
        "Ġbrochure",
        -1.0
      ],
      [
        "âĢĺ",
        -1.0
      ],
      [
        "hid",
        -1.0
      ],
      [
        "NB",
        -1.0
      ],
      [
        "ĠParadise",
        -1.0
      ],
      [
        "Ġbauxite",
        -1.0
      ],
      [
        "ĠSit",
        -1.0
      ],
      [
        "Ġtorpedo",
        -1.0
      ],
      [
        "Ġthrottle",
        -1.0
      ],
      [
        "Ġtrap",
        -1.0
      ],
      [
        "Ġupholstery",
        -1.0
      ],
      [
        "blank",
        -1.0
      ],
      [
        ">Ċ",
        -1.0
      ],
      [
        "Ġstringent",
        -1.0
      ],
      [
        "Ġpituitary",
        -1.0
      ],
      [
        "Ġdistributed",
        -1.0
      ],
      [
        "Ġoffense",
        -1.0
      ],
      [
        "ĠMoz",
        -1.0
      ],
      [
        ".net",
        -1.0
      ],
      [
        "Ġdemands",
        -1.0
      ],
      [
        "cade",
        -1.0
      ],
      [
        "ĠSavings",
        -1.0
      ],
      [
        "ĠScience",
        -1.0
      ],
      [
        "Ġgraphic",
        -1.0
      ],
      [
        "cial",
        -1.0
      ],
      [
        "ĠLin",
        -1.0
      ],
      [
        "Ġprogrammes",
        -1.0
      ],
      [
        "tera",
        -1.0
      ],
      [
        "Ġinvalid",
        -1.0
      ],
      [
        "Old",
        -1.0
      ],
      [
        "h",
        -1.0
      ],
      [
        "}\\)",
        -1.0
      ],
      [
        "Ġmistakenly",
        -1.0
      ],
      [
        "increase",
        -1.0
      ],
      [
        "good",
        -1.0
      ],
      [
        "Ġspecific",
        -1.0
      ],
      [
        "ĠNY",
        -1.0
      ],
      [
        "horn",
        -1.0
      ],
      [
        "Ġfunded",
        -1.0
      ],
      [
        "Ġnovelty",
        -1.0
      ],
      [
        "Ġundermine",
        -1.0
      ],
      [
        "Ġsplash",
        -1.0
      ],
      [
        "Ġexcursion",
        -1.0
      ],
      [
        "Ġreminder",
        -1.0
      ],
      [
        "ĠISBN",
        -1.0
      ],
      [
        "-cancer",
        -1.0
      ],
      [
        "imizing",
        -1.0
      ],
      [
        "ering",
        -1.0
      ],
      [
        "Ġfund",
        -1.0
      ],
      [
        "Ġcultured",
        -1.0
      ],
      [
        "Ġannoyed",
        -1.0
      ],
      [
        "mechanical",
        -1.0
      ],
      [
        "Ġrevisit",
        -1.0
      ],
      [
        "Ġdetect",
        -1.0
      ],
      [
        "Ġportable",
        -1.0
      ],
      [
        "Per",
        -1.0
      ],
      [
        "Ġfruits",
        -1.0
      ],
      [
        "ĠYouth",
        -1.0
      ],
      [
        "Ġtranquility",
        -1.0
      ],
      [
        "Ġadverse",
        -1.0
      ],
      [
        "Ġtutors",
        -1.0
      ],
      [
        "Ġdistortion",
        -1.0
      ],
      [
        "Ġtwentieth",
        -1.0
      ],
      [
        "chl",
        -1.0
      ],
      [
        "Ġspindle",
        -1.0
      ],
      [
        "Ġconclusive",
        -1.0
      ],
      [
        "Ġrecognizing",
        -1.0
      ],
      [
        "ĠCheap",
        -1.0
      ],
      [
        "closed",
        -1.0
      ],
      [
        "ĠReview",
        -1.0
      ],
      [
        "Ġfoodborne",
        -1.0
      ],
      [
        "ĠWear",
        -1.0
      ],
      [
        "ĠLaura",
        -1.0
      ],
      [
        "Ġcrank",
        -1.0
      ],
      [
        "Ġclosing",
        -1.0
      ],
      [
        "Ġtraverse",
        -1.0
      ],
      [
        "Ġrefuse",
        -1.0
      ],
      [
        "Ġpedals",
        -1.0
      ],
      [
        "Ġlegacy",
        -1.0
      ],
      [
        "Ġfuels",
        -1.0
      ],
      [
        "yer",
        -1.0
      ],
      [
        "Ġmedicinal",
        -1.0
      ],
      [
        "spice",
        -1.0
      ],
      [
        "Bra",
        -1.0
      ],
      [
        "Ġconnecting",
        -1.0
      ],
      [
        "Ġsew",
        -1.0
      ],
      [
        "Ġsupernova",
        -1.0
      ],
      [
        "ĠWorth",
        -1.0
      ],
      [
        "ination",
        -1.0
      ],
      [
        "ĠAim",
        -1.0
      ],
      [
        "THING",
        -1.0
      ],
      [
        "Ġpots",
        -1.0
      ],
      [
        "Ġadvocates",
        -1.0
      ],
      [
        "ability",
        -1.0
      ],
      [
        "48",
        -1.0
      ],
      [
        "Ġdiagnosed",
        -1.0
      ],
      [
        "AU",
        -1.0
      ],
      [
        "Hope",
        -1.0
      ],
      [
        "Ġsomewhere",
        -1.0
      ],
      [
        "Ġpracticality",
        -1.0
      ],
      [
        "Ġplume",
        -1.0
      ],
      [
        "ĠSeries",
        -1.0
      ],
      [
        "ĠPressure",
        -1.0
      ],
      [
        "ĠSpecific",
        -1.0
      ],
      [
        "Ġlaugh",
        -1.0
      ],
      [
        "edi",
        -1.0
      ],
      [
        "ĠDrugs",
        -1.0
      ],
      [
        "Canadian",
        -1.0
      ],
      [
        "Ġfixation",
        -1.0
      ],
      [
        "RAL",
        -1.0
      ],
      [
        "Ġsweep",
        -1.0
      ],
      [
        "Ġroute",
        -1.0
      ],
      [
        "Ġcasino",
        -1.0
      ],
      [
        "Ġbr",
        -1.0
      ],
      [
        "ĠGardening",
        -1.0
      ],
      [
        "Ġprofessions",
        -1.0
      ],
      [
        "Ġomitted",
        -1.0
      ],
      [
        "Ġbelonging",
        -1.0
      ],
      [
        "Ġtroops",
        -1.0
      ],
      [
        "Impact",
        -1.0
      ],
      [
        "ĠTutorial",
        -1.0
      ],
      [
        "cotyledon",
        -1.0
      ],
      [
        "Ġaspi",
        -1.0
      ],
      [
        "Ġexcluded",
        -1.0
      ],
      [
        "Tag",
        -1.0
      ],
      [
        "ese",
        -1.0
      ],
      [
        "Ġbaseball",
        -1.0
      ],
      [
        "Ġenrollment",
        -1.0
      ],
      [
        "-eye",
        -1.0
      ],
      [
        "Ġunequivocal",
        -1.0
      ],
      [
        "Ġcan",
        -1.0
      ],
      [
        "since",
        -1.0
      ],
      [
        "pun",
        -1.0
      ],
      [
        "ĠCarefully",
        -1.0
      ],
      [
        "_i",
        -1.0
      ],
      [
        "Ġexperts",
        -1.0
      ],
      [
        "natural",
        -1.0
      ],
      [
        "Ġdiminish",
        -1.0
      ],
      [
        "ĠDistrict",
        -1.0
      ],
      [
        "Su",
        -1.0
      ],
      [
        "Ġlegitimacy",
        -1.0
      ],
      [
        "Ġcontractors",
        -1.0
      ],
      [
        "Ġrav",
        -1.0
      ],
      [
        "esi",
        -1.0
      ],
      [
        "Ġhex",
        -1.0
      ],
      [
        "Ġapproached",
        -1.0
      ],
      [
        "ĠPets",
        -1.0
      ],
      [
        "('",
        -1.0
      ],
      [
        "Ġprovider",
        -1.0
      ],
      [
        "Ġmitigation",
        -1.0
      ],
      [
        "Ġripple",
        -1.0
      ],
      [
        "ĠDurability",
        -1.0
      ],
      [
        "Ġdrew",
        -1.0
      ],
      [
        "Ġdelays",
        -1.0
      ],
      [
        "Ġterms",
        -1.0
      ],
      [
        "Ġstitches",
        -1.0
      ],
      [
        "source",
        -1.0
      ],
      [
        "ĠTerrier",
        -1.0
      ],
      [
        "ĠSad",
        -1.0
      ],
      [
        "ĠHardy",
        -1.0
      ],
      [
        "Ġgrowth",
        -1.0
      ],
      [
        "Ġtriggers",
        -1.0
      ],
      [
        "TB",
        -1.0
      ],
      [
        "Ġallure",
        -1.0
      ],
      [
        "Ġsolstice",
        -1.0
      ],
      [
        "neg",
        -1.0
      ],
      [
        "Ġseas",
        -1.0
      ],
      [
        "hu",
        -1.0
      ],
      [
        "Ġvehicle",
        -1.0
      ],
      [
        "È",
        -1.0
      ],
      [
        "ĠSteven",
        -1.0
      ],
      [
        "||",
        -1.0
      ],
      [
        "46",
        -1.0
      ],
      [
        "Ġdumb",
        -1.0
      ],
      [
        "NZ",
        -1.0
      ],
      [
        "Ġedema",
        -1.0
      ],
      [
        "sumption",
        -1.0
      ],
      [
        "ĠRoots",
        -1.0
      ],
      [
        "Ġsphere",
        -1.0
      ],
      [
        "gui",
        -1.0
      ],
      [
        "Ġflown",
        -1.0
      ],
      [
        "mpy",
        -1.0
      ],
      [
        "Ġunsure",
        -1.0
      ],
      [
        "Ġprecautions",
        -1.0
      ],
      [
        "ĠEvans",
        -1.0
      ],
      [
        "Function",
        -1.0
      ],
      [
        "Ġinstaller",
        -1.0
      ],
      [
        "oodle",
        -1.0
      ],
      [
        "Ġtolerate",
        -1.0
      ],
      [
        "-ex",
        -1.0
      ],
      [
        "Ġrevenge",
        -1.0
      ],
      [
        "Regularly",
        -1.0
      ],
      [
        "total",
        -1.0
      ],
      [
        "urban",
        -1.0
      ],
      [
        "Ġstem",
        -1.0
      ],
      [
        "ĠLiu",
        -1.0
      ],
      [
        "rdo",
        -1.0
      ],
      [
        "Ns",
        -1.0
      ],
      [
        "'-",
        -1.0
      ],
      [
        "ĠAuthors",
        -1.0
      ],
      [
        "Ġdiuretic",
        -1.0
      ],
      [
        "Ant",
        -1.0
      ],
      [
        "sy",
        -1.0
      ],
      [
        "ĠResearch",
        -1.0
      ],
      [
        "Ġautomatic",
        -1.0
      ],
      [
        "noc",
        -1.0
      ],
      [
        "Ġgallon",
        -1.0
      ],
      [
        "Ġpostpone",
        -1.0
      ],
      [
        "Ġabyss",
        -1.0
      ],
      [
        "anine",
        -1.0
      ],
      [
        "ĠCurriculum",
        -1.0
      ],
      [
        "ĠSN",
        -1.0
      ],
      [
        "sam",
        -1.0
      ],
      [
        "ĠBali",
        -1.0
      ],
      [
        "Ġpercentages",
        -1.0
      ],
      [
        "ĠArgument",
        -1.0
      ],
      [
        "Ġjuveniles",
        -1.0
      ],
      [
        "Having",
        -1.0
      ],
      [
        "-world",
        -1.0
      ],
      [
        "ĠChevrolet",
        -1.0
      ],
      [
        "Ġtele",
        -1.0
      ],
      [
        "ĠDate",
        -1.0
      ],
      [
        "Ġunseen",
        -1.0
      ],
      [
        "Ġimplicated",
        -1.0
      ],
      [
        "Ġprocedure",
        -1.0
      ],
      [
        "Omega",
        -1.0
      ],
      [
        "ĠGates",
        -1.0
      ],
      [
        "Ġtribe",
        -1.0
      ],
      [
        "Ġemptying",
        -1.0
      ],
      [
        "Å",
        -1.0
      ],
      [
        "Ġshowcasing",
        -1.0
      ],
      [
        "Ġannually",
        -1.0
      ],
      [
        "Ġcurl",
        -1.0
      ],
      [
        "Ġconstruction",
        -1.0
      ],
      [
        "Ġunderside",
        -1.0
      ],
      [
        "Ġslider",
        -1.0
      ],
      [
        "ĠJourney",
        -1.0
      ],
      [
        "ffed",
        -1.0
      ],
      [
        "Ġreversing",
        -1.0
      ],
      [
        "æ",
        -1.0
      ],
      [
        "/ml",
        -1.0
      ],
      [
        "Pages",
        -1.0
      ],
      [
        "Ġgasses",
        -1.0
      ],
      [
        "Ġbudding",
        -1.0
      ],
      [
        "Ġsuggestion",
        -1.0
      ],
      [
        "conduct",
        -1.0
      ],
      [
        "Ġrealise",
        -1.0
      ],
      [
        "Ġends",
        -1.0
      ],
      [
        "Ġcon",
        -1.0
      ],
      [
        "plate",
        -1.0
      ],
      [
        "-loss",
        -1.0
      ],
      [
        "Ġmeningitis",
        -1.0
      ],
      [
        "ĠBill",
        -1.0
      ],
      [
        "ĠWooden",
        -1.0
      ],
      [
        "Ġvacuuming",
        -1.0
      ],
      [
        "ĠStill",
        -1.0
      ],
      [
        "bli",
        -1.0
      ],
      [
        "ĠHorses",
        -1.0
      ],
      [
        ".lastname",
        -1.0
      ],
      [
        "Ġfixtures",
        -1.0
      ],
      [
        "ĠWhi",
        -1.0
      ],
      [
        "eaters",
        -1.0
      ],
      [
        "Ġwildflower",
        -1.0
      ],
      [
        "Ġrevealed",
        -1.0
      ],
      [
        "ãģĮ",
        -1.0
      ],
      [
        "the",
        -1.0
      ],
      [
        "Ġpat",
        -1.0
      ],
      [
        "ĠCh",
        -1.0
      ],
      [
        "Ġethanol",
        -1.0
      ],
      [
        "-engine",
        -1.0
      ],
      [
        "cognitive",
        -1.0
      ],
      [
        "pop",
        -1.0
      ],
      [
        "Ġwife",
        -1.0
      ],
      [
        "Ġarose",
        -1.0
      ],
      [
        "imate",
        -1.0
      ],
      [
        "ĠPete",
        -1.0
      ],
      [
        "Ġancestry",
        -1.0
      ],
      [
        "itting",
        -1.0
      ],
      [
        "Bas",
        -1.0
      ],
      [
        "ĠTra",
        -1.0
      ],
      [
        "âĦ¢",
        -1.0
      ],
      [
        "ĠOven",
        -1.0
      ],
      [
        "Ġseeks",
        -1.0
      ],
      [
        "Ġovens",
        -1.0
      ],
      [
        "Ġviolating",
        -1.0
      ],
      [
        "Ġpreview",
        -1.0
      ],
      [
        "Ġprevalence",
        -1.0
      ],
      [
        "Ġmonoxide",
        -1.0
      ],
      [
        "Ġhandy",
        -1.0
      ],
      [
        "Ġspider",
        -1.0
      ],
      [
        "Hey",
        -1.0
      ],
      [
        "pat",
        -1.0
      ],
      [
        "Ġsit",
        -1.0
      ],
      [
        "log",
        -1.0
      ],
      [
        "Ġtossed",
        -1.0
      ],
      [
        "Ġdesired",
        -1.0
      ],
      [
        "Ġpure",
        -1.0
      ],
      [
        "Ġantifreeze",
        -1.0
      ],
      [
        "gressive",
        -1.0
      ],
      [
        "ĠGulf",
        -1.0
      ],
      [
        "ĠWHO",
        -1.0
      ],
      [
        "Ġretrieving",
        -1.0
      ],
      [
        "ĠCarl",
        -1.0
      ],
      [
        "ĠMoon",
        -1.0
      ],
      [
        "Ġko",
        -1.0
      ],
      [
        "nomy",
        -1.0
      ],
      [
        "zon",
        -1.0
      ],
      [
        "ĠClimate",
        -1.0
      ],
      [
        "Width",
        -1.0
      ],
      [
        "ĠPlant",
        -1.0
      ],
      [
        "ĠPrimary",
        -1.0
      ],
      [
        "Ġtimes",
        -1.0
      ],
      [
        "ĠEbola",
        -1.0
      ],
      [
        "chief",
        -1.0
      ],
      [
        "Ġidentifying",
        -1.0
      ],
      [
        "Ġmidwife",
        -1.0
      ],
      [
        "ĠHedgehog",
        -1.0
      ],
      [
        "ĠMORE",
        -1.0
      ],
      [
        "Ġfifteen",
        -1.0
      ],
      [
        "Ġdeadly",
        -1.0
      ],
      [
        "Ġstake",
        -1.0
      ],
      [
        "rel",
        -1.0
      ],
      [
        "ge",
        -1.0
      ],
      [
        "Ġfemales",
        -1.0
      ],
      [
        "Blood",
        -1.0
      ],
      [
        "Ġtopical",
        -1.0
      ],
      [
        "Ġschools",
        -1.0
      ],
      [
        "ïĥĺ",
        -1.0
      ],
      [
        "Ġpushed",
        -1.0
      ],
      [
        "Ġfreely",
        -1.0
      ],
      [
        "Ġwarrant",
        -1.0
      ],
      [
        "Ġpatents",
        -1.0
      ],
      [
        "Ġfullest",
        -1.0
      ],
      [
        "Ġunb",
        -1.0
      ],
      [
        "Rheumatoid",
        -1.0
      ],
      [
        "run",
        -1.0
      ],
      [
        "^{",
        -1.0
      ],
      [
        "eners",
        -1.0
      ],
      [
        "Ġroadside",
        -1.0
      ],
      [
        ".F",
        -1.0
      ],
      [
        "ĠMenu",
        -1.0
      ],
      [
        "Ġmixing",
        -1.0
      ],
      [
        "\",\"",
        -1.0
      ],
      [
        "ĠAa",
        -1.0
      ],
      [
        "Ġglass",
        -1.0
      ],
      [
        "Ġrabbits",
        -1.0
      ],
      [
        "Ġcer",
        -1.0
      ],
      [
        "ĠBetween",
        -1.0
      ],
      [
        "Ġpartly",
        -1.0
      ],
      [
        "Ġdistilled",
        -1.0
      ],
      [
        "ĠNice",
        -1.0
      ],
      [
        "Ġsleep",
        -1.0
      ],
      [
        "Ġkayak",
        -1.0
      ],
      [
        "ĠSpec",
        -1.0
      ],
      [
        "Ġlactose",
        -1.0
      ],
      [
        "ĠIK",
        -1.0
      ],
      [
        "Ġutilize",
        -1.0
      ],
      [
        "Ġherding",
        -1.0
      ],
      [
        "-home",
        -1.0
      ],
      [
        "Ġstall",
        -1.0
      ],
      [
        "Ġsearched",
        -1.0
      ],
      [
        "Ul",
        -1.0
      ],
      [
        "Ġlayer",
        -1.0
      ],
      [
        "Gre",
        -1.0
      ],
      [
        "ÿ",
        -1.0
      ],
      [
        "Ġconsequences",
        -1.0
      ],
      [
        "du",
        -1.0
      ],
      [
        "ump",
        -1.0
      ],
      [
        "Ġirritable",
        -1.0
      ],
      [
        "Ġthrowing",
        -1.0
      ],
      [
        "ĠGames",
        -1.0
      ],
      [
        "Ġadversar",
        -1.0
      ],
      [
        "Ġtests",
        -1.0
      ],
      [
        "ĠSvalbard",
        -1.0
      ],
      [
        "Ġmanipulate",
        -1.0
      ],
      [
        "Document",
        -1.0
      ],
      [
        "Ġcau",
        -1.0
      ],
      [
        "ĠPCs",
        -1.0
      ],
      [
        "Ġlack",
        -1.0
      ],
      [
        "Ġsparkling",
        -1.0
      ],
      [
        "ĠLED",
        -1.0
      ],
      [
        "Ġled",
        -1.0
      ],
      [
        "</",
        -1.0
      ],
      [
        "imize",
        -1.0
      ],
      [
        "ĠRei",
        -1.0
      ],
      [
        ".g",
        -1.0
      ],
      [
        "Ġsewn",
        -1.0
      ],
      [
        "Ġbeads",
        -1.0
      ],
      [
        "Ġsmartphone",
        -1.0
      ],
      [
        "Ġheadlines",
        -1.0
      ],
      [
        "ava",
        -1.0
      ],
      [
        "Ġemitting",
        -1.0
      ],
      [
        "Ġmeaningful",
        -1.0
      ],
      [
        "Ġsensor",
        -1.0
      ],
      [
        "ill",
        -1.0
      ],
      [
        "Maintaining",
        -1.0
      ],
      [
        "Ġencryption",
        -1.0
      ],
      [
        "Ġfried",
        -1.0
      ],
      [
        "ĠOlympics",
        -1.0
      ],
      [
        "lifting",
        -1.0
      ],
      [
        "Ġpaperwork",
        -1.0
      ],
      [
        "Ġpushing",
        -1.0
      ],
      [
        "Ġgoddess",
        -1.0
      ],
      [
        "Ġbinding",
        -1.0
      ],
      [
        "Ġtumors",
        -1.0
      ],
      [
        "ĠOpenAI",
        -1.0
      ],
      [
        "Chemistry",
        -1.0
      ],
      [
        "-drained",
        -1.0
      ],
      [
        "ĠContinue",
        -1.0
      ],
      [
        "Ġstretches",
        -1.0
      ],
      [
        "Ġproduction",
        -1.0
      ],
      [
        "ndall",
        -1.0
      ],
      [
        "Ġaffinity",
        -1.0
      ],
      [
        "ĠAyurveda",
        -1.0
      ],
      [
        "Ġpolymers",
        -1.0
      ],
      [
        "Ġasks",
        -1.0
      ],
      [
        "ĠSimpson",
        -1.0
      ],
      [
        "Ġpreventive",
        -1.0
      ],
      [
        "Ġzooplankton",
        -1.0
      ],
      [
        "Ġrece",
        -1.0
      ],
      [
        "Ġrecursive",
        -1.0
      ],
      [
        "nuclear",
        -1.0
      ],
      [
        "Ġsiding",
        -1.0
      ],
      [
        "Ġforests",
        -1.0
      ],
      [
        "Ġstood",
        -1.0
      ],
      [
        "ïĤ§",
        -1.0
      ],
      [
        "ĠAnthrop",
        -1.0
      ],
      [
        "Ġpickles",
        -1.0
      ],
      [
        "ĠDiseases",
        -1.0
      ],
      [
        "Pre",
        -1.0
      ],
      [
        "ĠAd",
        -1.0
      ],
      [
        "ĠRAM",
        -1.0
      ],
      [
        "ĠRebecca",
        -1.0
      ],
      [
        "ĠStudies",
        -1.0
      ],
      [
        "ĠIs",
        -1.0
      ],
      [
        "Gu",
        -1.0
      ],
      [
        "-ĊĊ",
        -1.0
      ],
      [
        "Ġblank",
        -1.0
      ],
      [
        "Annual",
        -1.0
      ],
      [
        "cision",
        -1.0
      ],
      [
        "ĠIEEE",
        -1.0
      ],
      [
        "process",
        -1.0
      ],
      [
        "Ġcalculates",
        -1.0
      ],
      [
        "ĠCU",
        -1.0
      ],
      [
        "Ġhe",
        -1.0
      ],
      [
        "ĠTrim",
        -1.0
      ],
      [
        "Ġarmadillo",
        -1.0
      ],
      [
        "Ġpriorities",
        -1.0
      ],
      [
        "ĠMesopotamia",
        -1.0
      ],
      [
        "Ġphilosophies",
        -1.0
      ],
      [
        "Ġdonated",
        -1.0
      ],
      [
        "ĠContinuous",
        -1.0
      ],
      [
        "Cs",
        -1.0
      ],
      [
        "Ġtraits",
        -1.0
      ],
      [
        "Ġanalysing",
        -1.0
      ],
      [
        "Ġdos",
        -1.0
      ],
      [
        "ĠHOW",
        -1.0
      ],
      [
        "YE",
        -1.0
      ],
      [
        "Nick",
        -1.0
      ],
      [
        "Ġcassette",
        -1.0
      ],
      [
        "hand",
        -1.0
      ],
      [
        "RO",
        -1.0
      ],
      [
        "-management",
        -1.0
      ],
      [
        "ĠTropical",
        -1.0
      ],
      [
        "cas",
        -1.0
      ],
      [
        "Ġjudged",
        -1.0
      ],
      [
        "Ġrhubarb",
        -1.0
      ],
      [
        "Ġmay",
        -1.0
      ],
      [
        "Ġendometrial",
        -1.0
      ],
      [
        "scientist",
        -1.0
      ],
      [
        "Ġcourse",
        -1.0
      ],
      [
        "Ġimpoverished",
        -1.0
      ],
      [
        "ĠJaguar",
        -1.0
      ],
      [
        "ĠBrunswick",
        -1.0
      ],
      [
        "Ġcollects",
        -1.0
      ],
      [
        "ĠIo",
        -1.0
      ],
      [
        "Ġblogging",
        -1.0
      ],
      [
        "ĠTime",
        -1.0
      ],
      [
        "âĢĭĊ",
        -1.0
      ],
      [
        "Ġanswered",
        -1.0
      ],
      [
        "Ġreservoirs",
        -1.0
      ],
      [
        "fect",
        -1.0
      ],
      [
        "Ġmonarchs",
        -1.0
      ],
      [
        "Ġcri",
        -1.0
      ],
      [
        "Several",
        -1.0
      ],
      [
        "uro",
        -1.0
      ],
      [
        "production",
        -1.0
      ],
      [
        ":**",
        -1.0
      ],
      [
        "Ġointment",
        -1.0
      ],
      [
        "rries",
        -1.0
      ],
      [
        "Ġswing",
        -1.0
      ],
      [
        "rine",
        -1.0
      ],
      [
        "Ġpleasing",
        -1.0
      ],
      [
        "yth",
        -1.0
      ],
      [
        "Ġplates",
        -1.0
      ],
      [
        "Ġeducated",
        -1.0
      ],
      [
        "Ġsclerosis",
        -1.0
      ],
      [
        "Ġdevour",
        -1.0
      ],
      [
        "Exc",
        -1.0
      ],
      [
        "Ġbehaviors",
        -1.0
      ],
      [
        "acid",
        -1.0
      ],
      [
        "Ġstraw",
        -1.0
      ],
      [
        "ĠFederation",
        -1.0
      ],
      [
        "Ġworried",
        -1.0
      ],
      [
        "ĠDX",
        -1.0
      ],
      [
        "Whenever",
        -1.0
      ],
      [
        "Ġadmired",
        -1.0
      ],
      [
        "Ġembraced",
        -1.0
      ],
      [
        "Ġfulfill",
        -1.0
      ],
      [
        "Ġexplanation",
        -1.0
      ],
      [
        "Content",
        -1.0
      ],
      [
        "Ġlumber",
        -1.0
      ],
      [
        "Ġ[",
        -1.0
      ],
      [
        "ĠGA",
        -1.0
      ],
      [
        "Ġecosystem",
        -1.0
      ],
      [
        "Ġmashed",
        -1.0
      ],
      [
        "Ġdemocratic",
        -1.0
      ],
      [
        "Increased",
        -1.0
      ],
      [
        "Ġjawbone",
        -1.0
      ],
      [
        "initis",
        -1.0
      ],
      [
        "Ġequivalent",
        -1.0
      ],
      [
        "ĠSurround",
        -1.0
      ],
      [
        "opathy",
        -1.0
      ],
      [
        "pus",
        -1.0
      ],
      [
        "Ġnot",
        -1.0
      ],
      [
        "Ġhonor",
        -1.0
      ],
      [
        "Ġprinciples",
        -1.0
      ],
      [
        "Ġhair",
        -1.0
      ],
      [
        "Ġtax",
        -1.0
      ],
      [
        "Ġgutter",
        -1.0
      ],
      [
        "Ġproducts",
        -1.0
      ],
      [
        "ĠGuy",
        -1.0
      ],
      [
        "ĠSnake",
        -1.0
      ],
      [
        "rons",
        -1.0
      ],
      [
        "Lithium",
        -1.0
      ],
      [
        "Ġgalvanized",
        -1.0
      ],
      [
        "ĠIsaiah",
        -1.0
      ],
      [
        "Ġempirical",
        -1.0
      ],
      [
        "Ġsummit",
        -1.0
      ],
      [
        "itudinal",
        -1.0
      ],
      [
        "ĠCells",
        -1.0
      ],
      [
        "Ġstresses",
        -1.0
      ],
      [
        "Ġmamm",
        -1.0
      ],
      [
        "Ġlowland",
        -1.0
      ],
      [
        "nning",
        -1.0
      ],
      [
        "ĠFresh",
        -1.0
      ],
      [
        "Pe",
        -1.0
      ],
      [
        "Ġprayer",
        -1.0
      ],
      [
        "Ġtraditions",
        -1.0
      ],
      [
        "iology",
        -1.0
      ],
      [
        "Ko",
        -1.0
      ],
      [
        "ĠMedications",
        -1.0
      ],
      [
        "Ġgyro",
        -1.0
      ],
      [
        "Ġpollinated",
        -1.0
      ],
      [
        "Ġfundraiser",
        -1.0
      ],
      [
        "Motor",
        -1.0
      ],
      [
        "Ġpanda",
        -1.0
      ],
      [
        "Ġageing",
        -1.0
      ],
      [
        "really",
        -1.0
      ],
      [
        "Ġsteaks",
        -1.0
      ],
      [
        "Ġrugged",
        -1.0
      ],
      [
        "Ġorganelles",
        -1.0
      ],
      [
        "Ġnetwork",
        -1.0
      ],
      [
        "ĠBlu",
        -1.0
      ],
      [
        "Ġtokens",
        -1.0
      ],
      [
        "Ġreluctant",
        -1.0
      ],
      [
        "ĠMag",
        -1.0
      ],
      [
        "Ġaloud",
        -1.0
      ],
      [
        "Ġturbulence",
        -1.0
      ],
      [
        "Ġenvi",
        -1.0
      ],
      [
        "-pu",
        -1.0
      ],
      [
        "ĠSh",
        -1.0
      ],
      [
        "lithic",
        -1.0
      ],
      [
        "ĠNFL",
        -1.0
      ],
      [
        "Ġcountertops",
        -1.0
      ],
      [
        "Ġvet",
        -1.0
      ],
      [
        "igning",
        -1.0
      ],
      [
        "/O",
        -1.0
      ],
      [
        "Ġseven",
        -1.0
      ],
      [
        "cks",
        -1.0
      ],
      [
        "gram",
        -1.0
      ],
      [
        "ĠOxford",
        -1.0
      ],
      [
        "ĠĠĠĠĠĠĠĠĠĠĠ",
        -1.0
      ],
      [
        "Ġphenotypic",
        -1.0
      ],
      [
        "Ġconsonant",
        -1.0
      ],
      [
        "omo",
        -1.0
      ],
      [
        "ĠAsked",
        -1.0
      ],
      [
        "`",
        -1.0
      ],
      [
        "Initial",
        -1.0
      ],
      [
        "Ġentirely",
        -1.0
      ],
      [
        "bolic",
        -1.0
      ],
      [
        "Ġreactors",
        -1.0
      ],
      [
        "Ġshear",
        -1.0
      ],
      [
        "Prom",
        -1.0
      ],
      [
        "Ġpigment",
        -1.0
      ],
      [
        "lant",
        -1.0
      ],
      [
        "Ġvoice",
        -1.0
      ],
      [
        "Hydraulic",
        -1.0
      ],
      [
        "Ġtaught",
        -1.0
      ],
      [
        "Ġsun",
        -1.0
      ],
      [
        "Ġlamp",
        -1.0
      ],
      [
        "ĠTan",
        -1.0
      ],
      [
        "facial",
        -1.0
      ],
      [
        "Corn",
        -1.0
      ],
      [
        "Ġtranslation",
        -1.0
      ],
      [
        "'Brien",
        -1.0
      ],
      [
        "Ġbasket",
        -1.0
      ],
      [
        "Gene",
        -1.0
      ],
      [
        "hydro",
        -1.0
      ],
      [
        "weed",
        -1.0
      ],
      [
        "Ġattracted",
        -1.0
      ],
      [
        "Ġhosts",
        -1.0
      ],
      [
        "Ġseasonings",
        -1.0
      ],
      [
        "Ġscope",
        -1.0
      ],
      [
        "Ġporosity",
        -1.0
      ],
      [
        "wrap",
        -1.0
      ],
      [
        "Ġoutwards",
        -1.0
      ],
      [
        "Ġdahlia",
        -1.0
      ],
      [
        "Ġindi",
        -1.0
      ],
      [
        "Ġdisclose",
        -1.0
      ],
      [
        "sun",
        -1.0
      ],
      [
        "chemistry",
        -1.0
      ],
      [
        "Ġtravel",
        -1.0
      ],
      [
        "ĠMonsanto",
        -1.0
      ],
      [
        "Ġinspected",
        -1.0
      ],
      [
        "Con",
        -1.0
      ],
      [
        "ĠHam",
        -1.0
      ],
      [
        "Ġlaundry",
        -1.0
      ],
      [
        "-acid",
        -1.0
      ],
      [
        "Ġembracing",
        -1.0
      ],
      [
        "ĠSheep",
        -1.0
      ],
      [
        "cons",
        -1.0
      ],
      [
        "etti",
        -1.0
      ],
      [
        "ĠContents",
        -1.0
      ],
      [
        "Ġauthenticity",
        -1.0
      ],
      [
        "Ġteams",
        -1.0
      ],
      [
        "Thu",
        -1.0
      ],
      [
        "Ġworrisome",
        -1.0
      ],
      [
        "Ġtravelling",
        -1.0
      ],
      [
        "ĠPu",
        -1.0
      ],
      [
        "lla",
        -1.0
      ],
      [
        "Ġcutter",
        -1.0
      ],
      [
        "Ġja",
        -1.0
      ],
      [
        "Ġknocked",
        -1.0
      ],
      [
        "Transition",
        -1.0
      ],
      [
        "Ġhypothermia",
        -1.0
      ],
      [
        "verse",
        -1.0
      ],
      [
        "Ġappreci",
        -1.0
      ],
      [
        "Ġupdating",
        -1.0
      ],
      [
        "0",
        -1.0
      ],
      [
        "junct",
        -1.0
      ],
      [
        "high",
        -1.0
      ],
      [
        "ĠPAR",
        -1.0
      ],
      [
        "Without",
        -1.0
      ],
      [
        "Ġmod",
        -1.0
      ],
      [
        "Ġdown",
        -1.0
      ],
      [
        "ĠTHIS",
        -1.0
      ],
      [
        "satisf",
        -1.0
      ],
      [
        "ĠUn",
        -1.0
      ],
      [
        "Ġradiocarbon",
        -1.0
      ],
      [
        "Ġstra",
        -1.0
      ],
      [
        "ĠFROM",
        -1.0
      ],
      [
        "Ġshipwreck",
        -1.0
      ],
      [
        "Ġtryptophan",
        -1.0
      ],
      [
        "Ġlarynx",
        -1.0
      ],
      [
        "ĠJin",
        -1.0
      ],
      [
        "Ġgarment",
        -1.0
      ],
      [
        "Public",
        -1.0
      ],
      [
        "Wind",
        -1.0
      ],
      [
        "ĠIBS",
        -1.0
      ],
      [
        "Tri",
        -1.0
      ],
      [
        "position",
        -1.0
      ],
      [
        "Ġsubordinate",
        -1.0
      ],
      [
        "solve",
        -1.0
      ],
      [
        "ĠEst",
        -1.0
      ],
      [
        "ĠID",
        -1.0
      ],
      [
        "hib",
        -1.0
      ],
      [
        "ĠAu",
        -1.0
      ],
      [
        "ĠCucumber",
        -1.0
      ],
      [
        "Ġ).",
        -1.0
      ],
      [
        "Ġfeatures",
        -1.0
      ],
      [
        "Ġstimulant",
        -1.0
      ],
      [
        "ĠHIV",
        -1.0
      ],
      [
        "helf",
        -1.0
      ],
      [
        "Ġoceans",
        -1.0
      ],
      [
        "Ġanal",
        -1.0
      ],
      [
        "Ġnotion",
        -1.0
      ],
      [
        "Ġevacuation",
        -1.0
      ],
      [
        "Ġpoisonous",
        -1.0
      ],
      [
        "cop",
        -1.0
      ],
      [
        "Ġselection",
        -1.0
      ],
      [
        "rls",
        -1.0
      ],
      [
        "Ġpaired",
        -1.0
      ],
      [
        "Ġvillage",
        -1.0
      ],
      [
        "Ġpoured",
        -1.0
      ],
      [
        "Ġbonobos",
        -1.0
      ],
      [
        "Ġcontacts",
        -1.0
      ],
      [
        "Ġformulate",
        -1.0
      ],
      [
        "Ġ_",
        -1.0
      ],
      [
        "ĠFiction",
        -1.0
      ],
      [
        "ĠGraphics",
        -1.0
      ],
      [
        "Ġsubunit",
        -1.0
      ],
      [
        "äº",
        -1.0
      ],
      [
        "ĠGender",
        -1.0
      ],
      [
        "ĠAlgebra",
        -1.0
      ],
      [
        "Ġinkjet",
        -1.0
      ],
      [
        "\"We",
        -1.0
      ],
      [
        "ised",
        -1.0
      ],
      [
        "ĠCable",
        -1.0
      ],
      [
        "Ġwants",
        -1.0
      ],
      [
        "Ġinterests",
        -1.0
      ],
      [
        "nip",
        -1.0
      ],
      [
        "Ġlays",
        -1.0
      ],
      [
        "rical",
        -1.0
      ],
      [
        "Ġweave",
        -1.0
      ],
      [
        "ĠNV",
        -1.0
      ],
      [
        "Ġnoticing",
        -1.0
      ],
      [
        "ĠDun",
        -1.0
      ],
      [
        "eu",
        -1.0
      ],
      [
        "Ġpitched",
        -1.0
      ],
      [
        "ern",
        -1.0
      ],
      [
        "Ġelected",
        -1.0
      ],
      [
        "lid",
        -1.0
      ],
      [
        "Ġtrout",
        -1.0
      ],
      [
        "Ġvenomous",
        -1.0
      ],
      [
        "Ġsea",
        -1.0
      ],
      [
        "strom",
        -1.0
      ],
      [
        "ĠEgypt",
        -1.0
      ],
      [
        "Ġdreams",
        -1.0
      ],
      [
        "Ġhesitant",
        -1.0
      ],
      [
        "đ",
        -1.0
      ],
      [
        "ĠFeature",
        -1.0
      ],
      [
        "ĠActivities",
        -1.0
      ],
      [
        "Ġrecorder",
        -1.0
      ],
      [
        "Ġpoint",
        -1.0
      ],
      [
        "Ġcrushing",
        -1.0
      ],
      [
        "Ġstuffing",
        -1.0
      ],
      [
        "Ġenvision",
        -1.0
      ],
      [
        "Bar",
        -1.0
      ],
      [
        "Ġforecasting",
        -1.0
      ],
      [
        "Ġhears",
        -1.0
      ],
      [
        "Ġmulching",
        -1.0
      ],
      [
        "ĠChristopher",
        -1.0
      ],
      [
        "-and",
        -1.0
      ],
      [
        "Ġinterrupt",
        -1.0
      ],
      [
        "Ġsinking",
        -1.0
      ],
      [
        "Biology",
        -1.0
      ],
      [
        "xx",
        -1.0
      ],
      [
        "Ġcycling",
        -1.0
      ],
      [
        "ĠMunich",
        -1.0
      ],
      [
        "ĠAnatomy",
        -1.0
      ],
      [
        "ĠPodcast",
        -1.0
      ],
      [
        "Ġsurrounding",
        -1.0
      ],
      [
        "ĠJane",
        -1.0
      ],
      [
        "Ġbarbecue",
        -1.0
      ],
      [
        "Ġprovided",
        -1.0
      ],
      [
        "GC",
        -1.0
      ],
      [
        "ĠFriend",
        -1.0
      ],
      [
        "Ġharvesting",
        -1.0
      ],
      [
        "ĠRes",
        -1.0
      ],
      [
        "Ġrepertoire",
        -1.0
      ],
      [
        "Ġeradicate",
        -1.0
      ],
      [
        "orm",
        -1.0
      ],
      [
        "Ġunto",
        -1.0
      ],
      [
        "Ġessence",
        -1.0
      ],
      [
        "cies",
        -1.0
      ],
      [
        "Ġpickup",
        -1.0
      ],
      [
        "video",
        -1.0
      ],
      [
        "ĠTokyo",
        -1.0
      ],
      [
        "Ġtransgenic",
        -1.0
      ],
      [
        "yn",
        -1.0
      ],
      [
        "oves",
        -1.0
      ],
      [
        "Ġtakes",
        -1.0
      ],
      [
        "Ġtamp",
        -1.0
      ],
      [
        "ĠKan",
        -1.0
      ],
      [
        "ĠEPA",
        -1.0
      ],
      [
        "Ġutilised",
        -1.0
      ],
      [
        "liance",
        -1.0
      ],
      [
        "times",
        -1.0
      ],
      [
        "ao",
        -1.0
      ],
      [
        "op",
        -1.0
      ],
      [
        "gl",
        -1.0
      ],
      [
        "oj",
        -1.0
      ],
      [
        "Ġslab",
        -1.0
      ],
      [
        "Ġinsulin",
        -1.0
      ],
      [
        "ĠSto",
        -1.0
      ],
      [
        "Given",
        -1.0
      ],
      [
        "Ġsculpture",
        -1.0
      ],
      [
        "ĠYoga",
        -1.0
      ],
      [
        "Ġcauliflower",
        -1.0
      ],
      [
        "Ġfirst",
        -1.0
      ],
      [
        "Ġwriters",
        -1.0
      ],
      [
        "Running",
        -1.0
      ],
      [
        "ectomy",
        -1.0
      ],
      [
        "Vent",
        -1.0
      ],
      [
        "dict",
        -1.0
      ],
      [
        "Ġpositions",
        -1.0
      ],
      [
        "Ġhearts",
        -1.0
      ],
      [
        "Ġequate",
        -1.0
      ],
      [
        "Ġplease",
        -1.0
      ],
      [
        "mod",
        -1.0
      ],
      [
        "Ġsin",
        -1.0
      ],
      [
        "Wednesday",
        -1.0
      ],
      [
        "Ġtimelines",
        -1.0
      ],
      [
        "Ġshelters",
        -1.0
      ],
      [
        "Ġcharismatic",
        -1.0
      ],
      [
        "HE",
        -1.0
      ],
      [
        "ĠWalmart",
        -1.0
      ],
      [
        "iki",
        -1.0
      ],
      [
        "Ġshame",
        -1.0
      ],
      [
        "íķ",
        -1.0
      ],
      [
        "Ġascertain",
        -1.0
      ],
      [
        "atics",
        -1.0
      ],
      [
        "kam",
        -1.0
      ],
      [
        "Ġpediatrician",
        -1.0
      ],
      [
        "js",
        -1.0
      ],
      [
        "Ġtraumatic",
        -1.0
      ],
      [
        "Ġlap",
        -1.0
      ],
      [
        "Ġneat",
        -1.0
      ],
      [
        "Ġposing",
        -1.0
      ],
      [
        "Ġintangible",
        -1.0
      ],
      [
        "Ġoutlet",
        -1.0
      ],
      [
        "Ġchanged",
        -1.0
      ],
      [
        "Ġcry",
        -1.0
      ],
      [
        "Ġreps",
        -1.0
      ],
      [
        "ĠMove",
        -1.0
      ],
      [
        "Ġmorality",
        -1.0
      ],
      [
        "Ġinforming",
        -1.0
      ],
      [
        "aci",
        -1.0
      ],
      [
        "Ġgifts",
        -1.0
      ],
      [
        "Ġsatin",
        -1.0
      ],
      [
        "Ġsauna",
        -1.0
      ],
      [
        "Ġproxies",
        -1.0
      ],
      [
        "Ġfleece",
        -1.0
      ],
      [
        "Ġram",
        -1.0
      ],
      [
        "ĠCycl",
        -1.0
      ],
      [
        "Ġbuying",
        -1.0
      ],
      [
        "Ġentitled",
        -1.0
      ],
      [
        "keeping",
        -1.0
      ],
      [
        "ut",
        -1.0
      ],
      [
        "left",
        -1.0
      ],
      [
        "'",
        -1.0
      ],
      [
        "ddling",
        -1.0
      ],
      [
        "Pull",
        -1.0
      ],
      [
        "Ġspecimen",
        -1.0
      ],
      [
        "Ġsession",
        -1.0
      ],
      [
        "UB",
        -1.0
      ],
      [
        "ĠExt",
        -1.0
      ],
      [
        "Ġsti",
        -1.0
      ],
      [
        "Ġic",
        -1.0
      ],
      [
        "Ġsubti",
        -1.0
      ],
      [
        "Cho",
        -1.0
      ],
      [
        "Introducing",
        -1.0
      ],
      [
        "Ġportal",
        -1.0
      ],
      [
        "Ġlen",
        -1.0
      ],
      [
        "Ġpedestrian",
        -1.0
      ],
      [
        "Ġunusually",
        -1.0
      ],
      [
        "Ġcons",
        -1.0
      ],
      [
        "Ġverse",
        -1.0
      ],
      [
        "Ġexclusively",
        -1.0
      ],
      [
        "ĠCalifornia",
        -1.0
      ],
      [
        "Scissors",
        -1.0
      ],
      [
        "Ġglance",
        -1.0
      ],
      [
        "ĠHoliday",
        -1.0
      ],
      [
        "ĠAppearance",
        -1.0
      ],
      [
        "Ban",
        -1.0
      ],
      [
        "Ġlived",
        -1.0
      ],
      [
        "about",
        -1.0
      ],
      [
        "Ġgroups",
        -1.0
      ],
      [
        "tation",
        -1.0
      ],
      [
        ".âĢĶ",
        -1.0
      ],
      [
        "-frequency",
        -1.0
      ],
      [
        "mach",
        -1.0
      ],
      [
        "ĠPractitioner",
        -1.0
      ],
      [
        "Fin",
        -1.0
      ],
      [
        "mi",
        -1.0
      ],
      [
        "Ġremaining",
        -1.0
      ],
      [
        "Ġweights",
        -1.0
      ],
      [
        "nomial",
        -1.0
      ],
      [
        "ĠTheorem",
        -1.0
      ],
      [
        "range",
        -1.0
      ],
      [
        "nts",
        -1.0
      ],
      [
        "Ġcooperation",
        -1.0
      ],
      [
        "Ġexhaust",
        -1.0
      ],
      [
        "08",
        -1.0
      ],
      [
        "Ġcertified",
        -1.0
      ],
      [
        "Ġsq",
        -1.0
      ],
      [
        "-sex",
        -1.0
      ],
      [
        "Ġcycle",
        -1.0
      ],
      [
        "Ġavocado",
        -1.0
      ],
      [
        "sonance",
        -1.0
      ],
      [
        "map",
        -1.0
      ],
      [
        "tension",
        -1.0
      ],
      [
        "HY",
        -1.0
      ],
      [
        "Ġexhaustion",
        -1.0
      ],
      [
        "nie",
        -1.0
      ],
      [
        "Ġpray",
        -1.0
      ],
      [
        "-legged",
        -1.0
      ],
      [
        "shu",
        -1.0
      ],
      [
        "Ġrhizome",
        -1.0
      ],
      [
        "ãģ®",
        -1.0
      ],
      [
        "-changing",
        -1.0
      ],
      [
        "nno",
        -1.0
      ],
      [
        "iba",
        -1.0
      ],
      [
        "Ġlev",
        -1.0
      ],
      [
        "Ġinterfering",
        -1.0
      ],
      [
        "use",
        -1.0
      ],
      [
        "Ġstraining",
        -1.0
      ],
      [
        "ĠWR",
        -1.0
      ],
      [
        "-type",
        -1.0
      ],
      [
        "Ġrenamed",
        -1.0
      ],
      [
        "Ġtown",
        -1.0
      ],
      [
        "Ġeras",
        -1.0
      ],
      [
        "ĠFox",
        -1.0
      ],
      [
        "Ġleaking",
        -1.0
      ],
      [
        "Bru",
        -1.0
      ],
      [
        "waste",
        -1.0
      ],
      [
        "Ġmonthly",
        -1.0
      ],
      [
        "Ġtextile",
        -1.0
      ],
      [
        "fowl",
        -1.0
      ],
      [
        "Ġmoderately",
        -1.0
      ],
      [
        "PY",
        -1.0
      ],
      [
        "Ġadminister",
        -1.0
      ],
      [
        "Ġcitizenship",
        -1.0
      ],
      [
        "ĠPure",
        -1.0
      ],
      [
        "Ġelegant",
        -1.0
      ],
      [
        "Ġsolitary",
        -1.0
      ],
      [
        "Ġremote",
        -1.0
      ],
      [
        "ĠNSF",
        -1.0
      ],
      [
        "Ġenamel",
        -1.0
      ],
      [
        "ike",
        -1.0
      ],
      [
        "Ġlubricant",
        -1.0
      ],
      [
        "metres",
        -1.0
      ],
      [
        "fat",
        -1.0
      ],
      [
        "Ġresulting",
        -1.0
      ],
      [
        "Ġammonium",
        -1.0
      ],
      [
        "Cover",
        -1.0
      ],
      [
        "Ġmanned",
        -1.0
      ],
      [
        "ĠEvidence",
        -1.0
      ],
      [
        "lung",
        -1.0
      ],
      [
        "Ġsoothe",
        -1.0
      ],
      [
        "Ġhandling",
        -1.0
      ],
      [
        "Ġflew",
        -1.0
      ],
      [
        "FP",
        -1.0
      ],
      [
        "!ĊĊ",
        -1.0
      ],
      [
        "Ġpolite",
        -1.0
      ],
      [
        "Ġchip",
        -1.0
      ],
      [
        "ĠLogic",
        -1.0
      ],
      [
        "Ble",
        -1.0
      ],
      [
        "Ġchance",
        -1.0
      ],
      [
        "ĠTI",
        -1.0
      ],
      [
        "ĠQue",
        -1.0
      ],
      [
        "ĠInitiative",
        -1.0
      ],
      [
        "nac",
        -1.0
      ],
      [
        "iah",
        -1.0
      ],
      [
        "han",
        -1.0
      ],
      [
        "Ġaviation",
        -1.0
      ],
      [
        "Ġsno",
        -1.0
      ],
      [
        "Ġamerica",
        -1.0
      ],
      [
        "Ġrecur",
        -1.0
      ],
      [
        "Ġpave",
        -1.0
      ],
      [
        "Ġflakes",
        -1.0
      ],
      [
        "Ġclippings",
        -1.0
      ],
      [
        "tam",
        -1.0
      ],
      [
        "Ġtire",
        -1.0
      ],
      [
        "bat",
        -1.0
      ],
      [
        "ĠRecognition",
        -1.0
      ],
      [
        "-pack",
        -1.0
      ],
      [
        "Ġpet",
        -1.0
      ],
      [
        "ĠPainting",
        -1.0
      ],
      [
        "Ġassumption",
        -1.0
      ],
      [
        "Ġsing",
        -1.0
      ],
      [
        "Ġresting",
        -1.0
      ],
      [
        "ĠScho",
        -1.0
      ],
      [
        "Off",
        -1.0
      ],
      [
        "ĠRail",
        -1.0
      ],
      [
        "Ġherd",
        -1.0
      ],
      [
        "Ġwhereas",
        -1.0
      ],
      [
        "Ġcrusher",
        -1.0
      ],
      [
        "Ġmystery",
        -1.0
      ],
      [
        "Ġoptional",
        -1.0
      ],
      [
        "think",
        -1.0
      ],
      [
        "-faced",
        -1.0
      ],
      [
        "OL",
        -1.0
      ],
      [
        "pilot",
        -1.0
      ],
      [
        "Ġvocals",
        -1.0
      ],
      [
        "Ġsimplified",
        -1.0
      ],
      [
        "hythm",
        -1.0
      ],
      [
        "(E",
        -1.0
      ],
      [
        "ĠWorking",
        -1.0
      ],
      [
        "shade",
        -1.0
      ],
      [
        "-plan",
        -1.0
      ],
      [
        "Cost",
        -1.0
      ],
      [
        "ĠCBSE",
        -1.0
      ],
      [
        "Ġmassive",
        -1.0
      ],
      [
        "Ja",
        -1.0
      ],
      [
        "-comp",
        -1.0
      ],
      [
        "Ġbacked",
        -1.0
      ],
      [
        "Ġindividual",
        -1.0
      ],
      [
        "ternary",
        -1.0
      ],
      [
        "ĠBaltimore",
        -1.0
      ],
      [
        "Ġtrends",
        -1.0
      ],
      [
        "oper",
        -1.0
      ],
      [
        "Ġrev",
        -1.0
      ],
      [
        "Ġdashboard",
        -1.0
      ],
      [
        "gil",
        -1.0
      ],
      [
        "Ġvol",
        -1.0
      ],
      [
        "ĠTheatre",
        -1.0
      ],
      [
        "rner",
        -1.0
      ],
      [
        "Ġom",
        -1.0
      ],
      [
        "Col",
        -1.0
      ],
      [
        "Ġstruggled",
        -1.0
      ],
      [
        "Ġdeduce",
        -1.0
      ],
      [
        "glass",
        -1.0
      ],
      [
        "Ġaxon",
        -1.0
      ],
      [
        "BACKGROUND",
        -1.0
      ],
      [
        "Ball",
        -1.0
      ],
      [
        "Ġresonate",
        -1.0
      ],
      [
        "Ġhectares",
        -1.0
      ],
      [
        "Ġhypothesize",
        -1.0
      ],
      [
        "elo",
        -1.0
      ],
      [
        "ĠChu",
        -1.0
      ],
      [
        "Spin",
        -1.0
      ],
      [
        "Ñķ",
        -1.0
      ],
      [
        "Ġreference",
        -1.0
      ],
      [
        "students",
        -1.0
      ],
      [
        "ĠOP",
        -1.0
      ],
      [
        "ĠEstimates",
        -1.0
      ],
      [
        "Ġoccupations",
        -1.0
      ],
      [
        "Ġsociety",
        -1.0
      ],
      [
        "Ġstability",
        -1.0
      ],
      [
        "Ġcarotid",
        -1.0
      ],
      [
        "Ġislands",
        -1.0
      ],
      [
        "Ġrecruitment",
        -1.0
      ],
      [
        "-sup",
        -1.0
      ],
      [
        "Ġspecifics",
        -1.0
      ],
      [
        "ĠApache",
        -1.0
      ],
      [
        "Ġfarthest",
        -1.0
      ],
      [
        "scr",
        -1.0
      ],
      [
        "located",
        -1.0
      ],
      [
        "Ġoccurring",
        -1.0
      ],
      [
        "Ġprogrammers",
        -1.0
      ],
      [
        "ral",
        -1.0
      ],
      [
        "actually",
        -1.0
      ],
      [
        "Ġfeeder",
        -1.0
      ],
      [
        "Ġlegend",
        -1.0
      ],
      [
        "Ġbolt",
        -1.0
      ],
      [
        "Ġchewing",
        -1.0
      ],
      [
        "ĠBrad",
        -1.0
      ],
      [
        "vascular",
        -1.0
      ],
      [
        "ĠSupplier",
        -1.0
      ],
      [
        "Ġurged",
        -1.0
      ],
      [
        "Examples",
        -1.0
      ],
      [
        "_",
        -1.0
      ],
      [
        "lons",
        -1.0
      ],
      [
        "Ġsecure",
        -1.0
      ],
      [
        "Ġintent",
        -1.0
      ],
      [
        "-ear",
        -1.0
      ],
      [
        "Mill",
        -1.0
      ],
      [
        "Ġabsolute",
        -1.0
      ],
      [
        "ĠJimmy",
        -1.0
      ],
      [
        "ĠYa",
        -1.0
      ],
      [
        "iel",
        -1.0
      ],
      [
        "Ġworkers",
        -1.0
      ],
      [
        "Ġimmigrant",
        -1.0
      ],
      [
        "ĠAffairs",
        -1.0
      ],
      [
        "**Ċ",
        -1.0
      ],
      [
        "Ġking",
        -1.0
      ],
      [
        "Within",
        -1.0
      ],
      [
        "ĠPlans",
        -1.0
      ],
      [
        "Ġurging",
        -1.0
      ],
      [
        "Ġfilter",
        -1.0
      ],
      [
        "near",
        -1.0
      ],
      [
        "Ġplayful",
        -1.0
      ],
      [
        "Ġsize",
        -1.0
      ],
      [
        "Ġable",
        -1.0
      ],
      [
        "Ġborne",
        -1.0
      ],
      [
        "Regular",
        -1.0
      ],
      [
        "Ġdeflect",
        -1.0
      ],
      [
        "azole",
        -1.0
      ],
      [
        "Ġmar",
        -1.0
      ],
      [
        "increasing",
        -1.0
      ],
      [
        "Ġdependable",
        -1.0
      ],
      [
        "Hy",
        -1.0
      ],
      [
        "ĠArkansas",
        -1.0
      ],
      [
        "Ġwash",
        -1.0
      ],
      [
        "Ġpainkillers",
        -1.0
      ],
      [
        "ĠPositive",
        -1.0
      ],
      [
        "53",
        -1.0
      ],
      [
        "Ġpause",
        -1.0
      ],
      [
        "Ġrhinos",
        -1.0
      ],
      [
        "occur",
        -1.0
      ],
      [
        "tributed",
        -1.0
      ],
      [
        "l",
        -1.0
      ],
      [
        "Management",
        -1.0
      ],
      [
        "surgery",
        -1.0
      ],
      [
        "Ġlungs",
        -1.0
      ],
      [
        "Ġpedestrians",
        -1.0
      ],
      [
        "Ġsuitability",
        -1.0
      ],
      [
        "fare",
        -1.0
      ],
      [
        "archy",
        -1.0
      ],
      [
        "Ġcovalent",
        -1.0
      ],
      [
        "Ġuric",
        -1.0
      ],
      [
        "ĠProblems",
        -1.0
      ],
      [
        "Ġnorms",
        -1.0
      ],
      [
        "Ġsalamanders",
        -1.0
      ],
      [
        "Ġbreakage",
        -1.0
      ],
      [
        "Ġhints",
        -1.0
      ],
      [
        "negative",
        -1.0
      ],
      [
        "eri",
        -1.0
      ],
      [
        "Ġautomated",
        -1.0
      ],
      [
        "Ġpiston",
        -1.0
      ],
      [
        "Ġrepurposing",
        -1.0
      ],
      [
        "Ġminority",
        -1.0
      ],
      [
        "TE",
        -1.0
      ],
      [
        "Ġbitten",
        -1.0
      ],
      [
        "Ġninja",
        -1.0
      ],
      [
        "dly",
        -1.0
      ],
      [
        "dex",
        -1.0
      ],
      [
        "ĠRiver",
        -1.0
      ],
      [
        "Ġolive",
        -1.0
      ],
      [
        "titude",
        -1.0
      ],
      [
        "ĠMaintaining",
        -1.0
      ],
      [
        "ĠVolcano",
        -1.0
      ],
      [
        "Ġprotected",
        -1.0
      ],
      [
        "âĢĵ",
        -1.0
      ],
      [
        "44",
        -1.0
      ],
      [
        "ull",
        -1.0
      ],
      [
        "Ġpool",
        -1.0
      ],
      [
        "Ġghee",
        -1.0
      ],
      [
        "Ġtherapies",
        -1.0
      ],
      [
        "Ġrecurring",
        -1.0
      ],
      [
        "Ġpyramid",
        -1.0
      ],
      [
        ")]",
        -1.0
      ],
      [
        "ococcal",
        -1.0
      ],
      [
        "Ġsketching",
        -1.0
      ],
      [
        "trust",
        -1.0
      ],
      [
        "glyc",
        -1.0
      ],
      [
        "ĠOrnith",
        -1.0
      ],
      [
        "ĠRecent",
        -1.0
      ],
      [
        "fluor",
        -1.0
      ],
      [
        "ĠComputer",
        -1.0
      ],
      [
        "-stu",
        -1.0
      ],
      [
        "ĠSelf",
        -1.0
      ],
      [
        "Ġintake",
        -1.0
      ],
      [
        "Ġdistract",
        -1.0
      ],
      [
        "Yeah",
        -1.0
      ],
      [
        "Cap",
        -1.0
      ],
      [
        "ĠEq",
        -1.0
      ],
      [
        "Ġprotein",
        -1.0
      ],
      [
        "ĠFrancisco",
        -1.0
      ],
      [
        "ĠReal",
        -1.0
      ],
      [
        "Ġamidst",
        -1.0
      ],
      [
        "åŃ",
        -1.0
      ],
      [
        "Ġhelping",
        -1.0
      ],
      [
        "Ġspouse",
        -1.0
      ],
      [
        "-high",
        -1.0
      ],
      [
        "Ġdeparture",
        -1.0
      ],
      [
        "ĠTopic",
        -1.0
      ],
      [
        "Ġallergy",
        -1.0
      ],
      [
        "Ġinsult",
        -1.0
      ],
      [
        "izer",
        -1.0
      ],
      [
        "Ġgamma",
        -1.0
      ],
      [
        "Ġhospital",
        -1.0
      ],
      [
        "Ġindicating",
        -1.0
      ],
      [
        "Ġsnacks",
        -1.0
      ],
      [
        "Ġsedimentary",
        -1.0
      ],
      [
        "bins",
        -1.0
      ],
      [
        "iable",
        -1.0
      ],
      [
        "ĠUF",
        -1.0
      ],
      [
        "æĺ¯",
        -1.0
      ],
      [
        "ĠMineral",
        -1.0
      ],
      [
        "14",
        -1.0
      ],
      [
        "Ġechoes",
        -1.0
      ],
      [
        "awthorn",
        -1.0
      ],
      [
        "BLE",
        -1.0
      ],
      [
        "Music",
        -1.0
      ],
      [
        "is",
        -1.0
      ],
      [
        "ĠOri",
        -1.0
      ],
      [
        "-speed",
        -1.0
      ],
      [
        "-ve",
        -1.0
      ],
      [
        "may",
        -1.0
      ],
      [
        "Ġinhibiting",
        -1.0
      ],
      [
        "ĠBrief",
        -1.0
      ],
      [
        "Ġsaline",
        -1.0
      ],
      [
        "mut",
        -1.0
      ],
      [
        "Ġqueue",
        -1.0
      ],
      [
        "ĠSeeing",
        -1.0
      ],
      [
        "Ġglitter",
        -1.0
      ],
      [
        "ĠAbbott",
        -1.0
      ],
      [
        "Ġfern",
        -1.0
      ],
      [
        "kie",
        -1.0
      ],
      [
        "chen",
        -1.0
      ],
      [
        "Ġmanagement",
        -1.0
      ],
      [
        "Ġunfamiliar",
        -1.0
      ],
      [
        "Ġpoorly",
        -1.0
      ],
      [
        "tter",
        -1.0
      ],
      [
        "Video",
        -1.0
      ],
      [
        "Ġraces",
        -1.0
      ],
      [
        "Ġmigraine",
        -1.0
      ],
      [
        "ech",
        -1.0
      ],
      [
        "ĠPreparing",
        -1.0
      ],
      [
        "ĠRAF",
        -1.0
      ],
      [
        "ĠCylinder",
        -1.0
      ],
      [
        "Ġkind",
        -1.0
      ],
      [
        "Ġinac",
        -1.0
      ],
      [
        "Ġrotor",
        -1.0
      ],
      [
        "Ġsymmetrical",
        -1.0
      ],
      [
        "Ġfirewood",
        -1.0
      ],
      [
        "-inf",
        -1.0
      ],
      [
        "Ġwithstand",
        -1.0
      ],
      [
        "Ġlearning",
        -1.0
      ],
      [
        "Ġawaiting",
        -1.0
      ],
      [
        "Ġsubscribers",
        -1.0
      ],
      [
        "rry",
        -1.0
      ],
      [
        "Ġruntime",
        -1.0
      ],
      [
        "Ġspirits",
        -1.0
      ],
      [
        "Ġcanes",
        -1.0
      ],
      [
        "ĠJulie",
        -1.0
      ],
      [
        "Ġcomposition",
        -1.0
      ],
      [
        "Ġremind",
        -1.0
      ],
      [
        "Ġadvancement",
        -1.0
      ],
      [
        "Ġprojects",
        -1.0
      ],
      [
        "Ġinside",
        -1.0
      ],
      [
        "Ġwhitening",
        -1.0
      ],
      [
        "Someone",
        -1.0
      ],
      [
        "Ġheaven",
        -1.0
      ],
      [
        "Ġsails",
        -1.0
      ],
      [
        "Method",
        -1.0
      ],
      [
        "Ġupon",
        -1.0
      ],
      [
        "Ġexcessive",
        -1.0
      ],
      [
        "pal",
        -1.0
      ],
      [
        "Ġdeciduous",
        -1.0
      ],
      [
        "Ġspring",
        -1.0
      ],
      [
        "-prot",
        -1.0
      ],
      [
        "Ġvigorously",
        -1.0
      ],
      [
        "Ú",
        -1.0
      ],
      [
        "ĠIndustries",
        -1.0
      ],
      [
        "Long",
        -1.0
      ],
      [
        "))",
        -1.0
      ],
      [
        "ĠNotes",
        -1.0
      ],
      [
        "ĠPhotos",
        -1.0
      ],
      [
        "Ġabstract",
        -1.0
      ],
      [
        "creating",
        -1.0
      ],
      [
        "Ġcoin",
        -1.0
      ],
      [
        "jar",
        -1.0
      ],
      [
        "ĠShift",
        -1.0
      ],
      [
        "Ġexport",
        -1.0
      ],
      [
        "Ġtsp",
        -1.0
      ],
      [
        "Everything",
        -1.0
      ],
      [
        "Ġguard",
        -1.0
      ],
      [
        "Ġsunny",
        -1.0
      ],
      [
        "ĠDig",
        -1.0
      ],
      [
        "ĠBU",
        -1.0
      ],
      [
        "Ġpredation",
        -1.0
      ],
      [
        "Ġprojecting",
        -1.0
      ],
      [
        "Mental",
        -1.0
      ],
      [
        "Ġinfarction",
        -1.0
      ],
      [
        ")|Ċ",
        -1.0
      ],
      [
        "urning",
        -1.0
      ],
      [
        "ĠAndes",
        -1.0
      ],
      [
        "support",
        -1.0
      ],
      [
        "Ġcar",
        -1.0
      ],
      [
        "Ġinflation",
        -1.0
      ],
      [
        "Ġstimulate",
        -1.0
      ],
      [
        "Ġloans",
        -1.0
      ],
      [
        ".(",
        -1.0
      ],
      [
        "rre",
        -1.0
      ],
      [
        "Ġeclipse",
        -1.0
      ],
      [
        "ĠCor",
        -1.0
      ],
      [
        "Ġgeology",
        -1.0
      ],
      [
        "ĠSchneider",
        -1.0
      ],
      [
        "Ġtundra",
        -1.0
      ],
      [
        "ĠWilhelm",
        -1.0
      ],
      [
        "Ġambassador",
        -1.0
      ],
      [
        "Ġpups",
        -1.0
      ],
      [
        "-Shirt",
        -1.0
      ],
      [
        "Ġreminiscent",
        -1.0
      ],
      [
        "Ġif",
        -1.0
      ],
      [
        "Ġfro",
        -1.0
      ],
      [
        "ibility",
        -1.0
      ],
      [
        "Joseph",
        -1.0
      ],
      [
        "Fish",
        -1.0
      ],
      [
        "Ġcleaning",
        -1.0
      ],
      [
        "Ġterrifying",
        -1.0
      ],
      [
        "uter",
        -1.0
      ],
      [
        "Ġiodide",
        -1.0
      ],
      [
        "ĠInfrared",
        -1.0
      ],
      [
        "-through",
        -1.0
      ],
      [
        "Ġfactories",
        -1.0
      ],
      [
        "Ġcompetitor",
        -1.0
      ],
      [
        "Ġnerves",
        -1.0
      ],
      [
        "Ġvaping",
        -1.0
      ],
      [
        "Ask",
        -1.0
      ],
      [
        "ĠGrammar",
        -1.0
      ],
      [
        "ĠDouglas",
        -1.0
      ],
      [
        "Rh",
        -1.0
      ],
      [
        "abi",
        -1.0
      ],
      [
        "Ġformula",
        -1.0
      ],
      [
        "Ġwearing",
        -1.0
      ],
      [
        "ĠLyme",
        -1.0
      ],
      [
        "Ġdetergent",
        -1.0
      ],
      [
        "Ġprotects",
        -1.0
      ],
      [
        "cs",
        -1.0
      ],
      [
        "ĠChannel",
        -1.0
      ],
      [
        "phe",
        -1.0
      ],
      [
        "Ġcontingent",
        -1.0
      ],
      [
        "ĠLife",
        -1.0
      ],
      [
        "ias",
        -1.0
      ],
      [
        "Ġabrasive",
        -1.0
      ],
      [
        "Ġamount",
        -1.0
      ],
      [
        "Ġcork",
        -1.0
      ],
      [
        "Ġabsorbing",
        -1.0
      ],
      [
        "Ly",
        -1.0
      ],
      [
        "Ġresilient",
        -1.0
      ],
      [
        "Owner",
        -1.0
      ],
      [
        "Typically",
        -1.0
      ],
      [
        "Any",
        -1.0
      ],
      [
        "ĠMining",
        -1.0
      ],
      [
        "ĠCoach",
        -1.0
      ],
      [
        "beck",
        -1.0
      ],
      [
        "Ġpaying",
        -1.0
      ],
      [
        "Ġinject",
        -1.0
      ],
      [
        "Ġexploited",
        -1.0
      ],
      [
        "ĠTwo",
        -1.0
      ],
      [
        "ĠTie",
        -1.0
      ],
      [
        "Ġbonsai",
        -1.0
      ],
      [
        "Ġacademic",
        -1.0
      ],
      [
        "Ġcloses",
        -1.0
      ],
      [
        "Explore",
        -1.0
      ],
      [
        "Ġoptim",
        -1.0
      ],
      [
        "ĠRecycle",
        -1.0
      ],
      [
        "ĠDeveloped",
        -1.0
      ],
      [
        "hp",
        -1.0
      ],
      [
        "EST",
        -1.0
      ],
      [
        "pose",
        -1.0
      ],
      [
        "tlin",
        -1.0
      ],
      [
        "ĠThr",
        -1.0
      ],
      [
        "Ġridiculous",
        -1.0
      ],
      [
        "Ġmucus",
        -1.0
      ],
      [
        "Ġtectonic",
        -1.0
      ],
      [
        "Ġexciting",
        -1.0
      ],
      [
        "ĠLead",
        -1.0
      ],
      [
        "Ġmeth",
        -1.0
      ],
      [
        "Ġlee",
        -1.0
      ],
      [
        "ĠIntel",
        -1.0
      ],
      [
        "OD",
        -1.0
      ],
      [
        "ĠUrban",
        -1.0
      ],
      [
        "ĠNormally",
        -1.0
      ],
      [
        "Ts",
        -1.0
      ],
      [
        "Ġoval",
        -1.0
      ],
      [
        "ĠSaving",
        -1.0
      ],
      [
        "ĠTo",
        -1.0
      ],
      [
        "ĠChair",
        -1.0
      ],
      [
        "Ġc",
        -1.0
      ],
      [
        "EF",
        -1.0
      ],
      [
        "TN",
        -1.0
      ],
      [
        "training",
        -1.0
      ],
      [
        "Ġgap",
        -1.0
      ],
      [
        "Ġsufferers",
        -1.0
      ],
      [
        "Variant",
        -1.0
      ],
      [
        "Ġoccurrence",
        -1.0
      ],
      [
        "Ġpersonalised",
        -1.0
      ],
      [
        "Ġgrizzly",
        -1.0
      ],
      [
        "Ġcatapult",
        -1.0
      ],
      [
        "Ġfillet",
        -1.0
      ],
      [
        "Ġmemoir",
        -1.0
      ],
      [
        "Ġtoxin",
        -1.0
      ],
      [
        "ĠParker",
        -1.0
      ],
      [
        "Ġvariety",
        -1.0
      ],
      [
        "-backed",
        -1.0
      ],
      [
        "ĠWet",
        -1.0
      ],
      [
        "Ġrepeating",
        -1.0
      ],
      [
        "Ġsupporting",
        -1.0
      ],
      [
        "quite",
        -1.0
      ],
      [
        "Ġabusive",
        -1.0
      ],
      [
        "ĠStarted",
        -1.0
      ],
      [
        "sites",
        -1.0
      ],
      [
        "drops",
        -1.0
      ],
      [
        "ĠBE",
        -1.0
      ],
      [
        "Ġutensils",
        -1.0
      ],
      [
        "Ġcuttings",
        -1.0
      ],
      [
        "ĠRegular",
        -1.0
      ],
      [
        "Up",
        -1.0
      ],
      [
        "ductive",
        -1.0
      ],
      [
        "certain",
        -1.0
      ],
      [
        "erb",
        -1.0
      ],
      [
        "Ġcomparison",
        -1.0
      ],
      [
        "-digit",
        -1.0
      ],
      [
        "ĠSprings",
        -1.0
      ],
      [
        "Ġgait",
        -1.0
      ],
      [
        "ĠBro",
        -1.0
      ],
      [
        "ĠStewart",
        -1.0
      ],
      [
        "ĠBli",
        -1.0
      ],
      [
        "Ġbuilds",
        -1.0
      ],
      [
        "Ġintroducing",
        -1.0
      ],
      [
        "Ġtherapists",
        -1.0
      ],
      [
        "Ġveggies",
        -1.0
      ],
      [
        "Ġvia",
        -1.0
      ],
      [
        "Ġdefend",
        -1.0
      ],
      [
        "ĠBehavior",
        -1.0
      ],
      [
        "À",
        -1.0
      ],
      [
        "ĠâĢľ",
        -1.0
      ],
      [
        "chemical",
        -1.0
      ],
      [
        "Ġeaves",
        -1.0
      ],
      [
        "scaping",
        -1.0
      ],
      [
        "Ġoperated",
        -1.0
      ],
      [
        "Ġcompresses",
        -1.0
      ],
      [
        "ber",
        -1.0
      ],
      [
        "Ġbeak",
        -1.0
      ],
      [
        "Ġrecreation",
        -1.0
      ],
      [
        "ĠCombined",
        -1.0
      ],
      [
        "Ġinternet",
        -1.0
      ],
      [
        "Ġeco",
        -1.0
      ],
      [
        "ĠInsert",
        -1.0
      ],
      [
        "Ġhearing",
        -1.0
      ],
      [
        "ĠRef",
        -1.0
      ],
      [
        "Ġthousand",
        -1.0
      ],
      [
        "Ġhandcrafted",
        -1.0
      ],
      [
        "ĠEngagement",
        -1.0
      ],
      [
        "Ġplant",
        -1.0
      ],
      [
        "32",
        -1.0
      ],
      [
        "Ġdisprove",
        -1.0
      ],
      [
        "ĠDeb",
        -1.0
      ],
      [
        "Ġproving",
        -1.0
      ],
      [
        "Ġideally",
        -1.0
      ],
      [
        "ĠAssociated",
        -1.0
      ],
      [
        "ĠSex",
        -1.0
      ],
      [
        "Ġseek",
        -1.0
      ],
      [
        "Ġstain",
        -1.0
      ],
      [
        "ĠJO",
        -1.0
      ],
      [
        "ĠHey",
        -1.0
      ],
      [
        "document",
        -1.0
      ],
      [
        "ĠSupport",
        -1.0
      ],
      [
        "iron",
        -1.0
      ],
      [
        "ĠRet",
        -1.0
      ],
      [
        "Ġthanks",
        -1.0
      ],
      [
        "Ġprintable",
        -1.0
      ],
      [
        "Gold",
        -1.0
      ],
      [
        "Ġvenues",
        -1.0
      ],
      [
        "Ġimpossible",
        -1.0
      ],
      [
        "Ġnegatively",
        -1.0
      ],
      [
        "Ġpolluting",
        -1.0
      ],
      [
        "Ġhouseplants",
        -1.0
      ],
      [
        "Ġupgraded",
        -1.0
      ],
      [
        "Ġemulsion",
        -1.0
      ],
      [
        "Ġsatellite",
        -1.0
      ],
      [
        "Ġtalk",
        -1.0
      ],
      [
        "Ġtapes",
        -1.0
      ],
      [
        "Half",
        -1.0
      ],
      [
        "Ġminimising",
        -1.0
      ],
      [
        "Ġheaters",
        -1.0
      ],
      [
        "Ġtartar",
        -1.0
      ],
      [
        "ĠTricks",
        -1.0
      ],
      [
        "Courtesy",
        -1.0
      ],
      [
        "Ġascend",
        -1.0
      ],
      [
        "å°",
        -1.0
      ],
      [
        "Ġdetective",
        -1.0
      ],
      [
        "Ġhexagonal",
        -1.0
      ],
      [
        "Ġemphasize",
        -1.0
      ],
      [
        "-written",
        -1.0
      ],
      [
        "Ġstature",
        -1.0
      ],
      [
        "ı",
        -1.0
      ],
      [
        "Ġgou",
        -1.0
      ],
      [
        "Ġart",
        -1.0
      ],
      [
        "df",
        -1.0
      ],
      [
        "VP",
        -1.0
      ],
      [
        "Ġtension",
        -1.0
      ],
      [
        "ĠGastro",
        -1.0
      ],
      [
        "ago",
        -1.0
      ],
      [
        "Ġstiffness",
        -1.0
      ],
      [
        "ĠFed",
        -1.0
      ],
      [
        "Ġnecessitate",
        -1.0
      ],
      [
        "Ġspotlight",
        -1.0
      ],
      [
        "Ġprotection",
        -1.0
      ],
      [
        "stand",
        -1.0
      ],
      [
        "ĠBuilding",
        -1.0
      ],
      [
        "-L",
        -1.0
      ],
      [
        "ĠPL",
        -1.0
      ],
      [
        "any",
        -1.0
      ],
      [
        "Ġlush",
        -1.0
      ],
      [
        "Ġ()",
        -1.0
      ],
      [
        "Ġthroughput",
        -1.0
      ],
      [
        "Ġ:)ĊĊ",
        -1.0
      ],
      [
        "-hydroxy",
        -1.0
      ],
      [
        "bf",
        -1.0
      ],
      [
        "Ġmacro",
        -1.0
      ],
      [
        "ĠColorado",
        -1.0
      ],
      [
        "ĠChinook",
        -1.0
      ],
      [
        "ĠBamboo",
        -1.0
      ],
      [
        "immer",
        -1.0
      ],
      [
        "tha",
        -1.0
      ],
      [
        "Ġ(-",
        -1.0
      ],
      [
        "Ġcre",
        -1.0
      ],
      [
        "Ġcreating",
        -1.0
      ],
      [
        "nner",
        -1.0
      ],
      [
        "Ġchandelier",
        -1.0
      ],
      [
        "ĠWarming",
        -1.0
      ],
      [
        "ĠBlocks",
        -1.0
      ],
      [
        "gam",
        -1.0
      ],
      [
        "Ġlocal",
        -1.0
      ],
      [
        "Ġpatterns",
        -1.0
      ],
      [
        "ĠGaussian",
        -1.0
      ],
      [
        "Ġcure",
        -1.0
      ],
      [
        "ĠLamp",
        -1.0
      ],
      [
        "shed",
        -1.0
      ],
      [
        "ĠPoodle",
        -1.0
      ],
      [
        "ĠHigh",
        -1.0
      ],
      [
        "ĠAutomation",
        -1.0
      ],
      [
        "lash",
        -1.0
      ],
      [
        "Ġtro",
        -1.0
      ],
      [
        "Ġsmu",
        -1.0
      ],
      [
        "Ġugly",
        -1.0
      ],
      [
        "olf",
        -1.0
      ],
      [
        "ĠNiagara",
        -1.0
      ],
      [
        "STEM",
        -1.0
      ],
      [
        "ĠMall",
        -1.0
      ],
      [
        "Ġneutered",
        -1.0
      ],
      [
        "Ġdye",
        -1.0
      ],
      [
        "nce",
        -1.0
      ],
      [
        "Ġgoogle",
        -1.0
      ],
      [
        "ĠIv",
        -1.0
      ],
      [
        "ĠSacramento",
        -1.0
      ],
      [
        "iment",
        -1.0
      ],
      [
        "Ġconnoisseur",
        -1.0
      ],
      [
        "ĠMinister",
        -1.0
      ],
      [
        "Ġgracefully",
        -1.0
      ],
      [
        "Ġwick",
        -1.0
      ],
      [
        "ĠWhilst",
        -1.0
      ],
      [
        "ĠCG",
        -1.0
      ],
      [
        "Ġacademics",
        -1.0
      ],
      [
        "Ġcrisp",
        -1.0
      ],
      [
        "Ġexpect",
        -1.0
      ],
      [
        "Ġtooling",
        -1.0
      ],
      [
        "Ġboiled",
        -1.0
      ],
      [
        "Ġscrub",
        -1.0
      ],
      [
        "ĠCon",
        -1.0
      ],
      [
        "Ġhypothesized",
        -1.0
      ],
      [
        "Ġreliance",
        -1.0
      ],
      [
        "ĠSan",
        -1.0
      ],
      [
        "Ġgardener",
        -1.0
      ],
      [
        "Ġsimilarly",
        -1.0
      ],
      [
        "Ġmicrowave",
        -1.0
      ],
      [
        "Ġdisturbed",
        -1.0
      ],
      [
        "Ġthrive",
        -1.0
      ],
      [
        "Ġextensions",
        -1.0
      ],
      [
        "Ġcourtesy",
        -1.0
      ],
      [
        "ĠFr",
        -1.0
      ],
      [
        "how",
        -1.0
      ],
      [
        "Ġtutorial",
        -1.0
      ],
      [
        "Ġarches",
        -1.0
      ],
      [
        "ision",
        -1.0
      ],
      [
        "Ġvariance",
        -1.0
      ],
      [
        "Ġwhisper",
        -1.0
      ],
      [
        "Ġpainful",
        -1.0
      ],
      [
        "ãĤ¤ãĥ",
        -1.0
      ],
      [
        "Th",
        -1.0
      ],
      [
        "tars",
        -1.0
      ],
      [
        "Negative",
        -1.0
      ],
      [
        "Ġbespoke",
        -1.0
      ],
      [
        "Ġovernight",
        -1.0
      ],
      [
        "Ġaddiction",
        -1.0
      ],
      [
        "bro",
        -1.0
      ],
      [
        "ĠBlock",
        -1.0
      ],
      [
        "Ġquarks",
        -1.0
      ],
      [
        "QUE",
        -1.0
      ],
      [
        "ĠAlk",
        -1.0
      ],
      [
        "ĠFAO",
        -1.0
      ],
      [
        "Higher",
        -1.0
      ],
      [
        "ĠOutput",
        -1.0
      ],
      [
        "Ġperfection",
        -1.0
      ],
      [
        "Ġpop",
        -1.0
      ],
      [
        "Ġbet",
        -1.0
      ],
      [
        "ĠâĢĵĊĊ",
        -1.0
      ],
      [
        "aS",
        -1.0
      ],
      [
        "ĠLion",
        -1.0
      ],
      [
        "Ġheritage",
        -1.0
      ],
      [
        "iza",
        -1.0
      ],
      [
        "Country",
        -1.0
      ],
      [
        "ĠDirections",
        -1.0
      ],
      [
        "ĠMAP",
        -1.0
      ],
      [
        "Ġclutch",
        -1.0
      ],
      [
        "Ġconviction",
        -1.0
      ],
      [
        "Ġasset",
        -1.0
      ],
      [
        "America",
        -1.0
      ],
      [
        "lines",
        -1.0
      ],
      [
        "performance",
        -1.0
      ],
      [
        "Ġspeaker",
        -1.0
      ],
      [
        "Ġcards",
        -1.0
      ],
      [
        "-tune",
        -1.0
      ],
      [
        "Ġacceptable",
        -1.0
      ],
      [
        "esthesia",
        -1.0
      ],
      [
        "Ġsatisfying",
        -1.0
      ],
      [
        "plastics",
        -1.0
      ],
      [
        "Ġnoodle",
        -1.0
      ],
      [
        "alpha",
        -1.0
      ],
      [
        "Ġplanet",
        -1.0
      ],
      [
        "bs",
        -1.0
      ],
      [
        "ĠStro",
        -1.0
      ],
      [
        "Ġripen",
        -1.0
      ],
      [
        "Ġaccommodate",
        -1.0
      ],
      [
        "gars",
        -1.0
      ],
      [
        "Ġallocation",
        -1.0
      ],
      [
        "Ġgenerators",
        -1.0
      ],
      [
        "Ġtile",
        -1.0
      ],
      [
        "Ġblinking",
        -1.0
      ],
      [
        "Ġprecede",
        -1.0
      ],
      [
        "bell",
        -1.0
      ],
      [
        "ting",
        -1.0
      ],
      [
        "ĠPipe",
        -1.0
      ],
      [
        "ĠPowder",
        -1.0
      ],
      [
        "Ġpremium",
        -1.0
      ],
      [
        "-round",
        -1.0
      ],
      [
        "Ġmuffler",
        -1.0
      ],
      [
        "ĠMark",
        -1.0
      ],
      [
        "âĢĶand",
        -1.0
      ],
      [
        "Det",
        -1.0
      ],
      [
        "Ġsmoothly",
        -1.0
      ],
      [
        "ĠRise",
        -1.0
      ],
      [
        "Ġengrave",
        -1.0
      ],
      [
        "ĠAdam",
        -1.0
      ],
      [
        "uls",
        -1.0
      ],
      [
        "Ġthen",
        -1.0
      ],
      [
        "Ġsurvive",
        -1.0
      ],
      [
        "Ġtitles",
        -1.0
      ],
      [
        "Ġdead",
        -1.0
      ],
      [
        "Ġgrabbed",
        -1.0
      ],
      [
        "Distribution",
        -1.0
      ],
      [
        "Ġdownloads",
        -1.0
      ],
      [
        "Ġforeign",
        -1.0
      ],
      [
        "ĠImproving",
        -1.0
      ],
      [
        "Ġiteration",
        -1.0
      ],
      [
        "âĢĶto",
        -1.0
      ],
      [
        ".interfaces",
        -1.0
      ],
      [
        "Ġcomparable",
        -1.0
      ],
      [
        "Ġfills",
        -1.0
      ],
      [
        "ĠMaking",
        -1.0
      ],
      [
        "Ġgenuine",
        -1.0
      ],
      [
        "Ġsnakes",
        -1.0
      ],
      [
        "ĠFrag",
        -1.0
      ],
      [
        "cover",
        -1.0
      ],
      [
        "Ġmutually",
        -1.0
      ],
      [
        "Ġmetres",
        -1.0
      ],
      [
        "Ġroost",
        -1.0
      ],
      [
        "fer",
        -1.0
      ],
      [
        "Ġdirty",
        -1.0
      ],
      [
        "isers",
        -1.0
      ],
      [
        "Ġcorrection",
        -1.0
      ],
      [
        "her",
        -1.0
      ],
      [
        "https",
        -1.0
      ],
      [
        "Ġlength",
        -1.0
      ],
      [
        "nish",
        -1.0
      ],
      [
        "-ti",
        -1.0
      ],
      [
        "Ġgreasy",
        -1.0
      ],
      [
        "**",
        -1.0
      ],
      [
        "ĠBonsai",
        -1.0
      ],
      [
        "Ġcreep",
        -1.0
      ],
      [
        "ch",
        -1.0
      ],
      [
        "che",
        -1.0
      ],
      [
        "Ġkilometers",
        -1.0
      ],
      [
        "shire",
        -1.0
      ],
      [
        "have",
        -1.0
      ],
      [
        "Ġlice",
        -1.0
      ],
      [
        "Ġspatial",
        -1.0
      ],
      [
        "'t",
        -1.0
      ],
      [
        "chro",
        -1.0
      ],
      [
        "ĠZika",
        -1.0
      ],
      [
        "Ġscheduling",
        -1.0
      ],
      [
        "pot",
        -1.0
      ],
      [
        "Ġsteering",
        -1.0
      ],
      [
        "http",
        -1.0
      ],
      [
        "Ġder",
        -1.0
      ],
      [
        "world",
        -1.0
      ],
      [
        "put",
        -1.0
      ],
      [
        "Ġdevote",
        -1.0
      ],
      [
        "Ġdynamics",
        -1.0
      ],
      [
        "Ġindexes",
[...]
