{
  "version": "1.0",
  "truncation": null,
  "padding": null,
  "added_tokens": [
    {
      "id": 0,
      "content": "<|bos|>",
      "single_word": false,
      "lstrip": false,
      "rstrip": false,
      "normalized": false,
      "special": true
    },
    {
      "id": 1,
      "content": "<|user_start|>",
      "single_word": false,
      "lstrip": false,
      "rstrip": false,
      "normalized": false,
      "special": true
    },
    {
      "id": 2,
      "content": "<|user_end|>",
      "single_word": false,
      "lstrip": false,
      "rstrip": false,
      "normalized": false,
      "special": true
    },
    {
      "id": 3,
      "content": "<|assistant_start|>",
      "single_word": false,
      "lstrip": false,
      "rstrip": false,
      "normalized": false,
      "special": true
    },
    {
      "id": 4,
      "content": "<|assistant_end|>",
      "single_word": false,
      "lstrip": false,
      "rstrip": false,
      "normalized": false,
      "special": true
    },
    {
      "id": 5,
      "content": "<|python_start|>",
      "single_word": false,
      "lstrip": false,
      "rstrip": false,
      "normalized": false,
      "special": true
    },
    {
      "id": 6,
      "content": "<|python_end|>",
      "single_word": false,
      "lstrip": false,
      "rstrip": false,
      "normalized": false,
      "special": true
    },
    {
      "id": 7,
      "content": "<|output_start|>",
      "single_word": false,
      "lstrip": false,
      "rstrip": false,
      "normalized": false,
      "special": true
    },
    {
      "id": 8,
      "content": "<|output_end|>",
      "single_word": false,
      "lstrip": false,
      "rstrip": false,
      "normalized": false,
      "special": true
    },
    {
      "id": 262143,
      "content": "<|unk|>",
      "single_word": false,
      "lstrip": false,
      "rstrip": false,
      "normalized": false,
      "special": true
    }
  ],
  "normalizer": null,
  "pre_tokenizer": {
    "type": "Sequence",
    "pretokenizers": [
      {
        "type": "Split",
        "pattern": {
          "Regex": "'(?i:[sdmt]|ll|ve|re)|[^\\r\\n\\p{L}\\p{N}]?+\\p{L}+|\\p{N}{1,2}| ?[^\\s\\p{L}\\p{N}]++[\\r\\n]*|\\s*[\\r\\n]|\\s+(?!\\S)|\\s+"
        },
        "behavior": "Isolated",
        "invert": false
      },
      {
        "type": "ByteLevel",
        "add_prefix_space": false,
        "trim_offsets": true,
        "use_regex": false
      }
    ]
  },
  "post_processor": null,
  "decoder": {
    "type": "ByteLevel",
    "add_prefix_space": true,
    "trim_offsets": true,
    "use_regex": true
  },
  "model": {
    "type": "BPE",
    "dropout": null,
    "unk_token": "<|unk|>",
    "continuing_subword_prefix": null,
    "end_of_word_suffix": null,
    "fuse_unk": false,
    "byte_fallback": true,
    "ignore_merges": false,
    "vocab": {
      "<|bos|>": 0,
      "<|user_start|>": 1,
      "<|user_end|>": 2,
      "<|assistant_start|>": 3,
      "<|assistant_end|>": 4,
      "<|python_start|>": 5,
      "<|python_end|>": 6,
      "<|output_start|>": 7,
      "<|output_end|>": 8,
      "!": 9,
      "\"": 10,
      "#": 11,
      "$": 12,
      "%": 13,
      "&": 14,
      "'": 15,
      "(": 16,
      ")": 17,
      "*": 18,
      "+": 19,
      ",": 20,
      "-": 21,
      ".": 22,
      "/": 23,
      "0": 24,
      "1": 25,
      "2": 26,
      "3": 27,
      "4": 28,
      "5": 29,
      "6": 30,
      "7": 31,
      "8": 32,
      "9": 33,
      ":": 34,
      ";": 35,
      "<": 36,
      "=": 37,
      ">": 38,
      "?": 39,
      "@": 40,
      "A": 41,
      "B": 42,
      "C": 43,
      "D": 44,
      "E": 45,
      "F": 46,
      "G": 47,
      "H": 48,
      "I": 49,
      "J": 50,
      "K": 51,
      "L": 52,
      "M": 53,
      "N": 54,
      "O": 55,
      "P": 56,
      "Q": 57,
      "R": 58,
      "S": 59,
      "T": 60,
      "U": 61,
      "V": 62,
      "W": 63,
      "X": 64,
      "Y": 65,
      "Z": 66,
      "[": 67,
      "\\": 68,
      "]": 69,
      "^": 70,
      "_": 71,
      "`": 72,
      "a": 73,
      "b": 74,
      "c": 75,
      "d": 76,
      "e": 77,
      "f": 78,
      "g": 79,
      "h": 80,
      "i": 81,
      "j": 82,
      "k": 83,
      "l": 84,
      "m": 85,
      "n": 86,
      "o": 87,
      "p": 88,
      "q": 89,
      "r": 90,
      "s": 91,
      "t": 92,
      "u": 93,
      "v": 94,
      "w": 95,
      "x": 96,
      "y": 97,
      "z": 98,
      "{": 99,
      "|": 100,
      "}": 101,
      "~": 102,
      "¡": 103,
      "¢": 104,
      "£": 105,
      "¤": 106,
      "¥": 107,
      "¦": 108,
      "§": 109,
      "¨": 110,
      "©": 111,
      "ª": 112,
      "«": 113,
      "¬": 114,
      "®": 115,
      "¯": 116,
      "°": 117,
      "±": 118,
      "²": 119,
      "³": 120,
      "´": 121,
      "µ": 122,
      "¶": 123,
      "·": 124,
      "¸": 125,
      "¹": 126,
      "º": 127,
      "»": 128,
      "¼": 129,
      "½": 130,
      "¾": 131,
      "¿": 132,
      "À": 133,
      "Á": 134,
      "Â": 135,
      "Ã": 136,
      "Ä": 137,
      "Å": 138,
      "Æ": 139,
      "Ç": 140,
      "È": 141,
      "É": 142,
      "Ê": 143,
      "Ë": 144,
      "Ì": 145,
      "Í": 146,
      "Î": 147,
      "Ï": 148,
      "Ð": 149,
      "Ñ": 150,
      "Ò": 151,
      "Ó": 152,
      "Ô": 153,
      "Õ": 154,
      "Ö": 155,
      "×": 156,
      "Ø": 157,
      "Ù": 158,
      "Ú": 159,
      "Û": 160,
      "Ü": 161,
      "Ý": 162,
      "Þ": 163,
      "ß": 164,
      "à": 165,
      "á": 166,
      "â": 167,
      "ã": 168,
      "ä": 169,
      "å": 170,
      "æ": 171,
      "ç": 172,
      "è": 173,
      "é": 174,
      "ê": 175,
      "ë": 176,
      "ì": 177,
      "í": 178,
      "î": 179,
      "ï": 180,
      "ð": 181,
      "ñ": 182,
      "ò": 183,
      "ó": 184,
      "ô": 185,
      "õ": 186,
      "ö": 187,
      "÷": 188,
      "ø": 189,
      "ù": 190,
      "ú": 191,
      "û": 192,
      "ü": 193,
      "ý": 194,
      "þ": 195,
      "ÿ": 196,
      "Ā": 197,
      "ā": 198,
      "Ă": 199,
      "ă": 200,
      "Ą": 201,
      "ą": 202,
      "Ć": 203,
      "ć": 204,
      "Ĉ": 205,
      "ĉ": 206,
      "Ċ": 207,
      "ċ": 208,
      "Č": 209,
      "č": 210,
      "Ď": 211,
      "ď": 212,
      "Đ": 213,
      "đ": 214,
      "Ē": 215,
      "ē": 216,
      "Ĕ": 217,
      "ĕ": 218,
      "Ė": 219,
      "ė": 220,
      "Ę": 221,
      "ę": 222,
      "Ě": 223,
      "ě": 224,
      "Ĝ": 225,
      "ĝ": 226,
      "Ğ": 227,
      "ğ": 228,
      "Ġ": 229,
      "ġ": 230,
      "Ģ": 231,
      "ģ": 232,
      "Ĥ": 233,
      "ĥ": 234,
      "Ħ": 235,
      "ħ": 236,
      "Ĩ": 237,
      "ĩ": 238,
      "Ī": 239,
      "ī": 240,
      "Ĭ": 241,
      "ĭ": 242,
      "Į": 243,
      "į": 244,
      "İ": 245,
      "ı": 246,
      "Ĳ": 247,
      "ĳ": 248,
      "Ĵ": 249,
      "ĵ": 250,
      "Ķ": 251,
      "ķ": 252,
      "ĸ": 253,
      "Ĺ": 254,
      "ĺ": 255,
      "Ļ": 256,
      "ļ": 257,
      "Ľ": 258,
      "ľ": 259,
      "Ŀ": 260,
      "ŀ": 261,
      "Ł": 262,
      "ł": 263,
      "Ń": 264,
      "Ġt": 265,
      "Ġa": 266,
      "in": 267,
      "he": 268,
      "re": 269,
      "on": 270,
      "Ġthe": 271,
      "er": 272,
      "Ġs": 273,
      "at": 274,
      "Ġc": 275,
      "Ġo": 276,
      "es": 277,
      "en": 278,
      "Ġw": 279,
      "nd": 280,
      "it": 281,
      "ing": 282,
      "is": 283,
      "Ġp": 284,
      "or": 285,
      "Ġb": 286,
      "Ġf": 287,
      "ou": 288,
      "al": 289,
      "an": 290,
      "Ġm": 291,
      "ed": 292,
      "Ġto": 293,
      "Ġof": 294,
      "Ġin": 295,
      "ar": 296,
      "Ġand": 297,
      "Ġd": 298,
      "ion": 299,
      "ic": 300,
      "le": 301,
      "ro": 302,
      "as": 303,
      "Ġth": 304,
      "Ġh": 305,
      "ct": 306,
      "Ġe": 307,
      "ent": 308,
      "Ġl": 309,
      "ve": 310,
      "il": 311,
      "Ġre": 312,
      "om": 313,
      "us": 314,
      "Ġis": 315,
      ".Ċ": 316,
      "Ġn": 317,
      "Ġy": 318,
      "et": 319,
      "ly": 320,
      "Ġg": 321,
      "Ġyou": 322,
      "ow": 323,
      "Ġbe": 324,
      "ut": 325,
      "ot": 326,
      "im": 327,
      "ĠT": 328,
      "id": 329,
      "st": 330,
      "ol": 331,
      "ce": 332,
      "ig": 333,
      "Ġfor": 334,
      "ra": 335,
      "ch": 336,
      "ĠA": 337,
      "ur": 338,
      "ation": 339,
      "Ġon": 340,
      "ĠI": 341,
      "Ġst": 342,
      "Ġthat": 343,
      "ir": 344,
      "el": 345,
      "ver": 346,
      "ul": 347,
      "Ġit": 348,
      "Ġare": 349,
      "ay": 350,
      "ith": 351,
      "Ġpro": 352,
      "se": 353,
      "if": 354,
      "Ġan": 355,
      "Ġwith": 356,
      "ĠS": 357,
      "am": 358,
      "Ġor": 359,
      "Ġcon": 360,
      ".ĊĊ": 361,
      "Ġas": 362,
      "est": 363,
      "od": 364,
      "Ġal": 365,
      "her": 366,
      "ĠC": 367,
      "ĊĊ": 368,
      "ad": 369,
      "ter": 370,
      "ke": 371,
      "un": 372,
      "Ġcan": 373,
      "Ġwh": 374,
      "ge": 375,
      "ure": 376,
      "ess": 377,
      "ĠThe": 378,
      "Ġha": 379,
      "ate": 380,
      "ill": 381,
      "Ġcom": 382,
      "um": 383,
      "ab": 384,
      "Ġex": 385,
      "ant": 386,
      "ers": 387,
      "ĠW": 388,
      "Ġhe": 389,
      "pe": 390,
      "ore": 391,
      "qu": 392,
      "igh": 393,
      "th": 394,
      "ive": 395,
      "'s": 396,
      "Ġus": 397,
      "em": 398,
      "Ġyour": 399,
      "Ġv": 400,
      "ies": 401,
      "ment": 402,
      "op": 403,
      "Ġwe": 404,
      "ity": 405,
      "ac": 406,
      "os": 407,
      "ain": 408,
      "ist": 409,
      "Ġde": 410,
      "Ġ(": 411,
      "ĠP": 412,
      "ld": 413,
      "rom": 414,
      "ĠM": 415,
      "ect": 416,
      "Ġne": 417,
      "ĠB": 418,
      "pp": 419,
      "Ġch": 420,
      "Ġen": 421,
      "Ġr": 422,
      "Ġse": 423,
      "Ġsu": 424,
      "Ġat": 425,
      "Ġsh": 426,
      "ial": 427,
      "Ġhave": 428,
      "iv": 429,
      "Ġfrom": 430,
      "ort": 431,
      "Ġle": 432,
      "ight": 433,
      "Ġdo": 434,
      "nt": 435,
      "Ġby": 436,
      "res": 437,
      "ĠD": 438,
      "Ġpl": 439,
      "ĠH": 440,
      "Ġnot": 441,
      "and": 442,
      "oc": 443,
      "art": 444,
      "per": 445,
      "ud": 446,
      "ĠF": 447,
      "ust": 448,
      "all": 449,
      "ome": 450,
      "ical": 451,
      "Ġthis": 452,
      "ri": 453,
      "ide": 454,
      "Ġab": 455,
      "rou": 456,
      "Ġu": 457,
      "ould": 458,
      "ine": 459,
      "ĠE": 460,
      "pt": 461,
      "out": 462,
      "act": 463,
      "og": 464,
      "ns": 465,
      "Ġim": 466,
      "ost": 467,
      "ard": 468,
      "Ġma": 469,
      "ions": 470,
      "ell": 471,
      "du": 472,
      "âĢ": 473,
      "ĠR": 474,
      "Ġwhe": 475,
      "red": 476,
      "Ġcomp": 477,
      "ich": 478,
      "Ġwill": 479,
      "Ġwor": 480,
      "ff": 481,
      "ast": 482,
      "gh": 483,
      "our": 484,
      "Ġthey": 485,
      "Ġk": 486,
      "Ġint": 487,
      "Ġtheir": 488,
      "ther": 489,
      "ood": 490,
      "iz": 491,
      "age": 492,
      "king": 493,
      "pl": 494,
      "Ġad": 495,
      "ĠN": 496,
      "The": 497,
      "ater": 498,
      "ĠL": 499,
      "Ġall": 500,
      "Ġwas": 501,
      "ag": 502,
      "ated": 503,
      "able": 504,
      "Ġmore": 505,
      "end": 506,
      "ĠG": 507,
      "Ġcont": 508,
      "ere": 509,
      "hat": 510,
      "ult": 511,
      "ans": 512,
      "ib": 513,
      "Ġbut": 514,
      "ally": 515,
      "Ġso": 516,
      "oo": 517,
      "ks": 518,
      "ip": 519,
      "ous": 520,
      "ĠO": 521,
      "Ġinc": 522,
      "ru": 523,
      "wer": 524,
      "ind": 525,
      "Ġme": 526,
      "so": 527,
      "ep": 528,
      "Ġte": 529,
      "ry": 530,
      "Ġj": 531,
      "ike": 532,
      "Ġres": 533,
      "estion": 534,
      "cc": 535,
      "are": 536,
      "Ġcl": 537,
      "ong": 538,
      "Qu": 539,
      "ance": 540,
      "orm": 541,
      "Ġdis": 542,
      "Ġhas": 543,
      "Ġwhich": 544,
      "vel": 545,
      "Ġout": 546,
      "Ġ\"": 547,
      "ations": 548,
      "Ġsp": 549,
      "Ġimp": 550,
      "Ġun": 551,
      "ear": 552,
      "his": 553,
      "ie": 554,
      "Ġother": 555,
      "20": 556,
      "one": 557,
      "nswer": 558,
      "Ġalso": 559,
      "av": 560,
      "ents": 561,
      "Ġman": 562,
      "Question": 563,
      "'t": 564,
      "Ġone": 565,
      "Ġtim": 566,
      "ction": 567,
      "Ġspe": 568,
      "aus": 569,
      "reat": 570,
      "ĠAnswer": 571,
      "very": 572,
      "ens": 573,
      "ence": 574,
      "ign": 575,
      "ace": 576,
      "ice": 577,
      "ach": 578,
      "ap": 579,
      "Ġfe": 580,
      "ase": 581,
      "ition": 582,
      "ass": 583,
      "ĠIn": 584,
      "Ġthem": 585,
      "ĠU": 586,
      "Ġabout": 587,
      "Ġper": 588,
      "low": 589,
      "ack": 590,
      "ary": 591,
      "ors": 592,
      "Ġlike": 593,
      "ĠIt": 594,
      "Ġpre": 595,
      "Ġup": 596,
      "ress": 597,
      "Ġsc": 598,
      "Ġro": 599,
      "iff": 600,
      "Ġqu": 601,
      "Ġsome": 602,
      "Ġwhen": 603,
      "now": 604,
      "ire": 605,
      "Ġev": 606,
      "ue": 607,
      "ile": 608,
      "ild": 609,
      "Ġsy": 610,
      "Ġif": 611,
      "ia": 612,
      "ite": 613,
      "ound": 614,
      "Ġpart": 615,
      "Ġneed": 616,
      "ces": 617,
      "ose": 618,
      "Ġdiff": 619,
      "Ġinto": 620,
      "Ġuse": 621,
      "Ġtime": 622,
      "Ġcol": 623,
      "Ġmay": 624,
      "Ġhow": 625,
      "ĠThis": 626,
      "Ġapp": 627,
      "form": 628,
      "ak": 629,
      "..": 630,
      "ric": 631,
      "ĠY": 632,
      "ame": 633,
      "ll": 634,
      "Ġthan": 635,
      "ber": 636,
      "ays": 637,
      "ail": 638,
      "Ġthere": 639,
      "Ġhel": 640,
      "Ġits": 641,
      "row": 642,
      "Ġar": 643,
      "Ġbec": 644,
      "ings": 645,
      "lect": 646,
      "ree": 647,
      "Ġany": 648,
      "Ġtra": 649,
      "Ġpe": 650,
      "Ġover": 651,
      "ĠWhat": 652,
      "ause": 653,
      "Ġrec": 654,
      "Ġbl": 655,
      "Ġhelp": 656,
      "ific": 657,
      "als": 658,
      "Ġcomm": 659,
      "Ġbet": 660,
      "ating": 661,
      "cess": 662,
      "Ġcons": 663,
      "Ġspec": 664,
      "Ġknow": 665,
      "Ġthese": 666,
      "nder": 667,
      "ang": 668,
      "Ġgo": 669,
      "ove": 670,
      "ord": 671,
      "les": 672,
      "int": 673,
      "ough": 674,
      "ond": 675,
      "Ġget": 676,
      "ish": 677,
      "olog": 678,
      "Ġtr": 679,
      "hy": 680,
      "te": 681,
      "we": 682,
      "ake": 683,
      "Ġdes": 684,
      "ĠâĢ": 685,
      "Ġstud": 686,
      "Ġwater": 687,
      "ons": 688,
      "rough": 689,
      "Ġsa": 690,
      "Ġind": 691,
      "stem": 692,
      "Ġused": 693,
      "Ġprodu": 694,
      "Ġour": 695,
      "ount": 696,
      "Ġwhat": 697,
      "Ġco": 698,
      "ub": 699,
      "ory": 700,
      "Ġeff": 701,
      "ms": 702,
      "ature": 703,
      "ular": 704,
      "Ġra": 705,
      "Ġdiffere": 706,
      "ĠJ": 707,
      "ari": 708,
      "Ġgen": 709,
      "Ġfl": 710,
      "Ġmost": 711,
      "alth": 712,
      "Ġyear": 713,
      "lud": 714,
      "Ġoff": 715,
      "ning": 716,
      "ook": 717,
      "ting": 718,
      "ople": 719,
      "round": 720,
      "Ġact": 721,
      "Ġacc": 722,
      "Ġsuch": 723,
      "vers": 724,
      "Ġwho": 725,
      "ck": 726,
      "ick": 727,
      "ne": 728,
      "erv": 729,
      "Ġprov": 730,
      "Ġam": 731,
      "Ġunder": 732,
      "Ġmake": 733,
      "Ġwere": 734,
      "ient": 735,
      "ple": 736,
      "Ġag": 737,
      "Ġadd": 738,
      "Ġnew": 739,
      "eth": 740,
      "Ġshould": 741,
      "Ġsm": 742,
      "ates": 743,
      "xt": 744,
      "Ġtw": 745,
      "ility": 746,
      "ful": 747,
      "ĠSt": 748,
      "Ġbeen": 749,
      "10": 750,
      "Ġem": 751,
      "Ġcar": 752,
      "ject": 753,
      "Ġpeople": 754,
      "Ġwould": 755,
      "uring": 756,
      "irst": 757,
      "oth": 758,
      "ange": 759,
      "Ġinclud": 760,
      "erg": 761,
      "Ġthrough": 762,
      "Ġsystem": 763,
      "ments": 764,
      "ph": 765,
      "Ġwork": 766,
      "oss": 767,
      "Ġty": 768,
      "Ġjust": 769,
      "Ġdi": 770,
      "ov": 771,
      "hes": 772,
      "Ġpr": 773,
      "ble": 774,
      "Ġonly": 775,
      "ĠK": 776,
      "ics": 777,
      "Ġno": 778,
      "ower": 779,
      "Ġmy": 780,
      "Ġpo": 781,
      "ative": 782,
      "its": 783,
      "Ġplant": 784,
      "ities": 785,
      "ise": 786,
      "ob": 787,
      "ced": 788,
      "Ġinter": 789,
      "Ġke": 790,
      "ĠV": 791,
      "ten": 792,
      "Ġmany": 793,
      "Ġsur": 794,
      "ark": 795,
      "Ġhigh": 796,
      "Ġreg": 797,
      "Ġwell": 798,
      "Ġrel": 799,
      "velop": 800,
      "ible": 801,
      "hen": 802,
      "19": 803,
      "Ġhealth": 804,
      "own": 805,
      "Ġbu": 806,
      "old": 807,
      "ual": 808,
      "fore": 809,
      "Ġtwo": 810,
      "Ġdoes": 811,
      "Ġdifferent": 812,
      "chn": 813,
      "tain": 814,
      "ract": 815,
      "Ġac": 816,
      "Ġfirst": 817,
      "fter": 818,
      "ink": 819,
      "lic": 820,
      "Ġexper": 821,
      "Ġrem": 822,
      "Ġwhere": 823,
      "ience": 824,
      "ren": 825,
      "ween": 826,
      "ram": 827,
      "Ġ-": 828,
      "Ġmod": 829,
      "ft": 830,
      "Ġtrans": 831,
      "ased": 832,
      "Ġlong": 833,
      "hed": 834,
      "Ġdevelop": 835,
      "Ġche": 836,
      "Ġway": 837,
      "Ġimport": 838,
      "get": 839,
      "Ġrep": 840,
      "uch": 841,
      "Ġob": 842,
      "Ġbetween": 843,
      "cy": 844,
      "Ġsim": 845,
      "ize": 846,
      "Ġprocess": 847,
      "Ġsupp": 848,
      "ife": 849,
      "arm": 850,
      "Ġpat": 851,
      "Ġvari": 852,
      "Ġthen": 853,
      "Ġdec": 854,
      "ually": 855,
      "Ġusing": 856,
      "rit": 857,
      "ade": 858,
      "erm": 859,
      "ĠIf": 860,
      "In": 861,
      "ential": 862,
      "ef": 863,
      "Ġcould": 864,
      "ĠCh": 865,
      "?Ċ": 866,
      "Ġinv": 867,
      "Ġfood": 868,
      "Ġbecause": 869,
      "Ġdet": 870,
      "Ġass": 871,
      "Ġinst": 872,
      "ts": 873,
      "Ġinf": 874,
      "Ġeven": 875,
      "rib": 876,
      "Ġevery": 877,
      "00": 878,
      "iron": 879,
      "ious": 880,
      "Ġgrow": 881,
      "Ġatt": 882,
      "Ġcre": 883,
      "iss": 884,
      "wn": 885,
      "Ġph": 886,
      "ically": 887,
      "Ġform": 888,
      "ever": 889,
      "Ġmain": 890,
      "ĠHow": 891,
      "Ġtechn": 892,
      "Ġeffect": 893,
      "Ġvery": 894,
      "ĠThey": 895,
      "ily": 896,
      "gan": 897,
      "Ġsub": 898,
      "Ġsee": 899,
      "'re": 900,
      "pect": 901,
      "ps": 902,
      "ines": 903,
      "ural": 904,
      "iqu": 905,
      "oy": 906,
      "arch": 907,
      "ution": 908,
      "ĠYou": 909,
      ").": 910,
      "ins": 911,
      "Ġrequ": 912,
      "Ġlear": 913,
      "ool": 914,
      "Ġmuch": 915,
      "Ġeach": 916,
      "Ġext": 917,
      "Ġsk": 918,
      "ures": 919,
      "Ġnum": 920,
      "Ġlar": 921,
      "Ġrese": 922,
      "Ġsign": 923,
      "Ġhum": 924,
      "mer": 925,
      "ody": 926,
      "ness": 927,
      "ology": 928,
      "?ĊĊ": 929,
      "Ġins": 930,
      "Ġback": 931,
      "vent": 932,
      "Ġdon": 933,
      "gg": 934,
      "Ġexp": 935,
      "Ġlight": 936,
      "Ġimportant": 937,
      "Ġgener": 938,
      "Ġgood": 939,
      "cial": 940,
      "Ġwant": 941,
      "ian": 942,
      "Ġgra": 943,
      "ron": 944,
      "Ġset": 945,
      "Ġexam": 946,
      "ĠâĢĵ": 947,
      "ata": 948,
      "Ġhad": 949,
      "Ġfol": 950,
      "Ġyears": 951,
      "Ġmin": 952,
      "Ġsol": 953,
      "Ġpers": 954,
      "Ġdisc": 955,
      "ruct": 956,
      "Ġchild": 957,
      "Ġincre": 958,
      "viron": 959,
      "Ġfind": 960,
      "ergy": 961,
      "Ġsmall": 962,
      "uc": 963,
      "Ġfun": 964,
      "stand": 965,
      "elf": 966,
      "--": 967,
      "Ġwhile": 968,
      "Ġav": 969,
      "ety": 970,
      "Ġhis": 971,
      "ss": 972,
      "Ġcle": 973,
      "ec": 974,
      "Ġafter": 975,
      "),": 976,
      "Ġear": 977,
      "Ġpres": 978,
      "Ġelect": 979,
      "Ġve": 980,
      "ues": 981,
      "ĠWh": 982,
      "Ġdog": 983,
      "Ġstart": 984,
      "Ġloc": 985,
      "ality": 986,
      "Ġmed": 987,
      "Ġtake": 988,
      "ational": 989,
      "other": 990,
      "ied": 991,
      "Ġresult": 992,
      "Ġair": 993,
      "Ġfound": 994,
      "Ġcur": 995,
      "Ġgl": 996,
      "Ġref": 997,
      "Ġdesign": 998,
      "Ġbeing": 999,
      "ix": 1000,
      "Ġsec": 1001,
      "ists": 1002,
      "ices": 1003,
      "Ġart": 1004,
      "Ġcell": 1005,
      "urn": 1006,
      "Ġworld": 1007,
      "ĠWe": 1008,
      "Ġlevel": 1009,
      "nce": 1010,
      "ds": 1011,
      "tle": 1012,
      "Ġfact": 1013,
      "ases": 1014,
      "Ġeas": 1015,
      "Ġhand": 1016,
      "aterial": 1017,
      "cept": 1018,
      "Ġcall": 1019,
      "Ġbefore": 1020,
      "Ġfollow": 1021,
      "Ġduring": 1022,
      "ĠUn": 1023,
      "Ġval": 1024,
      "Ġaround": 1025,
      "Ġbre": 1026,
      "ock": 1027,
      "Ġpot": 1028,
      "vironment": 1029,
      "Ġher": 1030,
      "Ġcomple": 1031,
      "Ġcor": 1032,
      "Ġinform": 1033,
      "ages": 1034,
      "Ġdep": 1035,
      "Ġprog": 1036,
      "Ġsame": 1037,
      "eg": 1038,
      "Ġallow": 1039,
      "Ġdist": 1040,
      "ider": 1041,
      "Ġproble": 1042,
      "ives": 1043,
      "Ġdown": 1044,
      "Ġbr": 1045,
      "Ġshe": 1046,
      "Ġstr": 1047,
      "Ġown": 1048,
      "Ġtem": 1049,
      "ward": 1050,
      "omm": 1051,
      "rop": 1052,
      "els": 1053,
      "ized": 1054,
      "Ġpartic": 1055,
      "dition": 1056,
      "Ġthose": 1057,
      "Ġredu": 1058,
      "Ġtyp": 1059,
      "Ġexpl": 1060,
      "Ġmon": 1061,
      "ection": 1062,
      "tern": 1063,
      "Ġent": 1064,
      "Ġlife": 1065,
      "cer": 1066,
      "cl": 1067,
      "chool": 1068,
      "Ġlead": 1069,
      ".\"": 1070,
      "air": 1071,
      "Ġanim": 1072,
      "ys": 1073,
      "Ġoften": 1074,
      "Ġbo": 1075,
      "Ġright": 1076,
      "Ġboth": 1077,
      "Ġshow": 1078,
      "Ġenergy": 1079,
      "aw": 1080,
      "Ġkeep": 1081,
      "ident": 1082,
      "Ġcontro": 1083,
      "Ġaut": 1084,
      "Ġbest": 1085,
      "Ġdata": 1086,
      "ather": 1087,
      "Ġmaterial": 1088,
      "io": 1089,
      "ew": 1090,
      "Ġread": 1091,
      "Ġpower": 1092,
      "ty": 1093,
      "Ġtoo": 1094,
      "ets": 1095,
      "Ġbody": 1096,
      "ides": 1097,
      "Ġopt": 1098,
      "ale": 1099,
      "Ġgu": 1100,
      "Ġed": 1101,
      "ger": 1102,
      "Ġvis": 1103,
      "Ġmade": 1104,
      "ium": 1105,
      "iew": 1106,
      "ien": 1107,
      "Ġperson": 1108,
      "ĠFor": 1109,
      "Ġchar": 1110,
      "read": 1111,
      "Ġcat": 1112,
      "Ġless": 1113,
      "atter": 1114,
      "Ġ'": 1115,
      "Ġcommon": 1116,
      "Ġpop": 1117,
      "Ġsom": 1118,
      "ving": 1119,
      "Ġcare": 1120,
      "Ġprot": 1121,
      "Ġend": 1122,
      "Ġdr": 1123,
      "ull": 1124,
      "ĠPro": 1125,
      "Ġproduct": 1126,
      ":Ċ": 1127,
      "Ġposs": 1128,
      "ted": 1129,
      "Ġplay": 1130,
      "Ġmet": 1131,
      "-b": 1132,
      "12": 1133,
      "Ġtest": 1134,
      "iel": 1135,
      "rain": 1136,
      "iving": 1137,
      "ars": 1138,
      "reen": 1139,
      "What": 1140,
      "ave": 1141,
      "Ġenvironment": 1142,
      "ĠAs": 1143,
      "imate": 1144,
      "ional": 1145,
      "Ġeng": 1146,
      "Ġadv": 1147,
      "ĠHe": 1148,
      "Ġunderstand": 1149,
      "aking": 1150,
      "ier": 1151,
      "ited": 1152,
      "ĠAl": 1153,
      "eng": 1154,
      "Ġday": 1155,
      "Ġpoint": 1156,
      "Ġdef": 1157,
      "Ġhome": 1158,
      "ĠAn": 1159,
      "Ġresp": 1160,
      "acter": 1161,
      "Ġinformation": 1162,
      "rent": 1163,
      "hys": 1164,
      "ath": 1165,
      "ute": 1166,
      "Ġcommun": 1167,
      "Ġsaid": 1168,
      "ivers": 1169,
      "Ġlit": 1170,
      "cing": 1171,
      "Ġspecies": 1172,
      "led": 1173,
      "Ġorgan": 1174,
      "up": 1175,
      "ethod": 1176,
      "ason": 1177,
      "Ġtreat": 1178,
      "ves": 1179,
      "ved": 1180,
      ",\"": 1181,
      "Ġequ": 1182,
      "Ġproper": 1183,
      "ivid": 1184,
      "Ġnumber": 1185,
      "ict": 1186,
      "rap": 1187,
      "der": 1188,
      "Ġsaf": 1189,
      "perature": 1190,
      "Ġben": 1191,
      "ids": 1192,
      "Ġens": 1193,
      "oci": 1194,
      "any": 1195,
      "Ġnow": 1196,
      "ven": 1197,
      "Ġmight": 1198,
      "ands": 1199,
      "How": 1200,
      "the": 1201,
      "ork": 1202,
      "-s": 1203,
      "Ġplan": 1204,
      "Ġprovide": 1205,
      "ont": 1206,
      "ĠThese": 1207,
      "Ġlook": 1208,
      "Ġpol": 1209,
      "Ġserv": 1210,
      "Ġstudy": 1211,
      "Ġap": 1212,
      "Ġdire": 1213,
      "Ġresearch": 1214,
      "Ġfam": 1215,
      "Ġsupport": 1216,
      "Ġaw": 1217,
      "Ġbetter": 1218,
      "bs": 1219,
      "Ġcent": 1220,
      "ĠTh": 1221,
      "hip": 1222,
      "Ġimpro": 1223,
      "ining": 1224,
      "cent": 1225,
      "ng": 1226,
      "ash": 1227,
      "Ġdid": 1228,
      "Ġwithout": 1229,
      "Ġgreat": 1230,
      "Ġpur": 1231,
      "Ġclass": 1232,
      "This": 1233,
      "Ġmethod": 1234,
      "ired": 1235,
      "Ġop": 1236,
      "und": 1237,
      "itions": 1238,
      "Ġstudents": 1239,
      "ots": 1240,
      "inal": 1241,
      "Ġbeh": 1242,
      "Ġaff": 1243,
      "ĠAnd": 1244,
      "ways": 1245,
      "ead": 1246,
      "Ġstill": 1247,
      "15": 1248,
      "ants": 1249,
      "Ġtemperature": 1250,
      "Ġdise": 1251,
      "Ġactiv": 1252,
      "Ġplants": 1253,
      "...": 1254,
      "âĢĻ": 1255,
      "ince": 1256,
      "ĠTo": 1257,
      "less": 1258,
      "Ġlarge": 1259,
      "ulation": 1260,
      "itive": 1261,
      "kes": 1262,
      ":ĊĊ": 1263,
      "ined": 1264,
      "Ġprof": 1265,
      "Ġcreat": 1266,
      "ering": 1267,
      "Ġchange": 1268,
      "Ġincluding": 1269,
      "Ġgrou": 1270,
      "Ġmem": 1271,
      "Ġexample": 1272,
      "ĠThere": 1273,
      "Ġpos": 1274,
      "ability": 1275,
      "Ġhy": 1276,
      "Ġmaking": 1277,
      "day": 1278,
      "Ġris": 1279,
      "ĠBut": 1280,
      "Ġthink": 1281,
      "Ġnat": 1282,
      "Ġbuild": 1283,
      "Ġflow": 1284,
      "Ġtop": 1285,
      "Ġtext": 1286,
      "oms": 1287,
      "ert": 1288,
      "Ġiss": 1289,
      "Ġocc": 1290,
      "Ġtype": 1291,
      "-f": 1292,
      "Ġfew": 1293,
      "Ġpain": 1294,
      "Ġcontrol": 1295,
      "ention": 1296,
      "If": 1297,
      "Ġhapp": 1298,
      "Ġbenef": 1299,
      "ross": 1300,
      "18": 1301,
      "ior": 1302,
      "Ġagain": 1303,
      "Ġide": 1304,
      "30": 1305,
      "Ġchang": 1306,
      "Ġey": 1307,
      "Ġcreate": 1308,
      "Ġknown": 1309,
      "It": 1310,
      "Ġhuman": 1311,
      "Ġcontain": 1312,
      "line": 1313,
      "ouse": 1314,
      "ism": 1315,
      "ared": 1316,
      "Ġser": 1317,
      "Ġpract": 1318,
      "apt": 1319,
      "Ġcaus": 1320,
      "Ġbel": 1321,
      "Ġsl": 1322,
      "hers": 1323,
      "Ġperform": 1324,
      "Ġthree": 1325,
      "ording": 1326,
      "ify": 1327,
      "ital": 1328,
      "Ġplace": 1329,
      "rodu": 1330,
      "Ġthough": 1331,
      "Ġele": 1332,
      "Ġsw": 1333,
      "Ġbas": 1334,
      "co": 1335,
      "ator": 1336,
      "Ġlearn": 1337,
      "Ġcount": 1338,
      "Ġrun": 1339,
      "__": 1340,
      "ats": 1341,
      "Ġcal": 1342,
      "Ġmus": 1343,
      "Ġproject": 1344,
      "ral": 1345,
      "Ġfeel": 1346,
      "Ġthings": 1347,
      "11": 1348,
      "Ġmust": 1349,
      "Ġcause": 1350,
      "Ġlow": 1351,
      "ters": 1352,
      "Ġess": 1353,
      "oid": 1354,
      "ooking": 1355,
      "Ġschool": 1356,
      "Ġdev": 1357,
      "ex": 1358,
      "here": 1359,
      "ĠSo": 1360,
      "'ll": 1361,
      "iness": 1362,
      "Ġchildren": 1363,
      "Ġsure": 1364,
      "Ġindivid": 1365,
      "ner": 1366,
      "Ġsurf": 1367,
      "irc": 1368,
      "Ġmeas": 1369,
      "Ġarea": 1370,
      "Ġdel": 1371,
      "ĠHowever": 1372,
      "gen": 1373,
      "Ġappro": 1374,
      "Ġconf": 1375,
      "Ġpotential": 1376,
      "Ġphys": 1377,
      "Ġtre": 1378,
      "Ġhard": 1379,
      "ĠAd": 1380,
      "Ġconst": 1381,
      "ield": 1382,
      "iven": 1383,
      "Ġcurrent": 1384,
      "omp": 1385,
      "ax": 1386,
      "ething": 1387,
      "Ġwithin": 1388,
      "ique": 1389,
      "ole": 1390,
      "Ġprevent": 1391,
      "Ġpress": 1392,
      "Ġcalled": 1393,
      "Ġbir": 1394,
      "Ġbi": 1395,
      "Ġcost": 1396,
      "Ġcontin": 1397,
      "Ġconn": 1398,
      "meric": 1399,
      "me": 1400,
      "ĠWhen": 1401,
      "Ġdam": 1402,
      "-c": 1403,
      "ense": 1404,
      "Ġsour": 1405,
      "to": 1406,
      "Ġclean": 1407,
      "ĠSc": 1408,
      "aring": 1409,
      "Ġpub": 1410,
      "'ve": 1411,
      "Ġcap": 1412,
      "Ġreal": 1413,
      "ug": 1414,
      "Ġphot": 1415,
      "icle": 1416,
      "Ġwhy": 1417,
      "ern": 1418,
      "Ġgr": 1419,
      "ered": 1420,
      "ination": 1421,
      "Ġtry": 1422,
      "Ġexperience": 1423,
      "Ġreally": 1424,
      "pr": 1425,
      "Ġinclude": 1426,
      "ills": 1427,
      "Ġsomething": 1428,
      "Ġmove": 1429,
      "ling": 1430,
      "br": 1431,
      "Ġspecific": 1432,
      "50": 1433,
      "iver": 1434,
      "ape": 1435,
      "ime": 1436,
      "ank": 1437,
      "Ġmark": 1438,
      "Ġsit": 1439,
      "atch": 1440,
      "Ġsignific": 1441,
      "Ġsecond": 1442,
      "ently": 1443,
      "ental": 1444,
      "erest": 1445,
      "Ġstep": 1446,
      "Ġrest": 1447,
      "Ġconsider": 1448,
      "Ġfollowing": 1449,
      "Ġstand": 1450,
      "Ġable": 1451,
      "Ġident": 1452,
      "Ġoper": 1453,
      "ization": 1454,
      "Ġpossible": 1455,
      "ected": 1456,
      "ients": 1457,
      "Ġavail": 1458,
      "Ġanother": 1459,
      "Ġdue": 1460,
      "Ġstate": 1461,
      "Ġcour": 1462,
      "Ġnatural": 1463,
      "Ġgoing": 1464,
      "Ġtool": 1465,
      "Ġfunction": 1466,
      "Ġhere": 1467,
      "Ġimm": 1468,
      "ertain": 1469,
      "Ġprogram": 1470,
      "Ġfil": 1471,
      "ocus": 1472,
      "Ġaddition": 1473,
      "Ġdirect": 1474,
      "Ġsym": 1475,
      "of": 1476,
      "Ġbus": 1477,
      "port": 1478,
      "iversity": 1479,
      "Ġfree": 1480,
      "etic": 1481,
      "osed": 1482,
      "Ġwee": 1483,
      "Ġcells": 1484,
      "Ġlot": 1485,
      "Ġant": 1486,
      "Ġsoil": 1487,
      "uss": 1488,
      "Ġbecome": 1489,
      "raw": 1490,
      "ĠAmeric": 1491,
      "Ġamount": 1492,
      "Ġcond": 1493,
      "ends": 1494,
      "Ġcolor": 1495,
      "ĠPl": 1496,
      "Ġvarious": 1497,
      "akes": 1498,
      "de": 1499,
      "land": 1500,
      "Ġhead": 1501,
      "Ġcome": 1502,
      "Ġblood": 1503,
      "Ġput": 1504,
      "Ġappe": 1505,
      "Ġlittle": 1506,
      "Ġalways": 1507,
      "Ġpar": 1508,
      "Ġfish": 1509,
      "ration": 1510,
      "Ġmeans": 1511,
      "Ġimpact": 1512,
      "Ġstruct": 1513,
      "Ġold": 1514,
      "ĠAr": 1515,
      "ane": 1516,
      "ished": 1517,
      "eds": 1518,
      "Ġopen": 1519,
      "thing": 1520,
      "Ġsever": 1521,
      "Ġanal": 1522,
      "Ġcomput": 1523,
      "Ġsay": 1524,
      "Ġinvol": 1525,
      "Ġlim": 1526,
      "Ġret": 1527,
      "oot": 1528,
      "Ġneeds": 1529,
      "Ġpass": 1530,
      "Ġcirc": 1531,
      "icro": 1532,
      "St": 1533,
      "Ġlet": 1534,
      "Ġlast": 1535,
      "Ġest": 1536,
      "Ġmult": 1537,
      "Ġel": 1538,
      "Ġpresent": 1539,
      "Ġcomb": 1540,
      "ccess": 1541,
      "Ġvol": 1542,
      "Ġhig": 1543,
      "ption": 1544,
      "Ġlay": 1545,
      "Ġspace": 1546,
      "Ġec": 1547,
      "Ġnut": 1548,
      "cle": 1549,
      "Ġsize": 1550,
      "ones": 1551,
      "oad": 1552,
      "aves": 1553,
      "16": 1554,
      "aper": 1555,
      "ateg": 1556,
      "ush": 1557,
      "Ġsignificant": 1558,
      "Ġproblem": 1559,
      "Ġheat": 1560,
      "aste": 1561,
      "Ġcr": 1562,
      "Ġes": 1563,
      "ified": 1564,
      "Ġrequire": 1565,
      "Ġtypes": 1566,
      "Ġmean": 1567,
      "ee": 1568,
      "Ġavailable": 1569,
      "Ġet": 1570,
      "bers": 1571,
      "ĠEx": 1572,
      "Ġprovid": 1573,
      "Ġcy": 1574,
      "14": 1575,
      "ox": 1576,
      "arent": 1577,
      "arden": 1578,
      "Ġfocus": 1579,
      "Ġdevelopment": 1580,
      "put": 1581,
      "Ġcut": 1582,
      "-d": 1583,
      "iod": 1584,
      "Ġareas": 1585,
      "Ġfin": 1586,
      "ilar": 1587,
      "ably": 1588,
      "over": 1589,
      "Ġprom": 1590,
      "Ġseveral": 1591,
      "Ġfeature": 1592,
      "ode": 1593,
      "Ġinterest": 1594,
      "Ġrange": 1595,
      "ries": 1596,
      "ieve": 1597,
      "Ġlearning": 1598,
      "Ġcam": 1599,
      "ending": 1600,
      "ocial": 1601,
      "ĠIs": 1602,
      "Ġ=": 1603,
      "ards": 1604,
      "Ġbased": 1605,
      "Ġkey": 1606,
      "Ġmot": 1607,
      "Ġensure": 1608,
      "Ġunt": 1609,
      "Ġindust": 1610,
      "ances": 1611,
      "ote": 1612,
      "Ġdem": 1613,
      "Ġscient": 1614,
      "âĢĶ": 1615,
      "omes": 1616,
      "-p": 1617,
      "pecial": 1618,
      "Ġapplic": 1619,
      "ips": 1620,
      "ended": 1621,
      "Ġtimes": 1622,
      "aces": 1623,
      "Ġdisease": 1624,
      "Ġprofess": 1625,
      "Ġessential": 1626,
      "ĠSh": 1627,
      "ems": 1628,
      "Ġgive": 1629,
      "Ġfre": 1630,
      "az": 1631,
      "Ġsystems": 1632,
      "Ġteam": 1633,
      "Ġenough": 1634,
      "Ġpost": 1635,
      "orn": 1636,
      "'m": 1637,
      "Ġaccess": 1638,
      "Ġmakes": 1639,
      "Ġusually": 1640,
      "ision": 1641,
      "Ġeffective": 1642,
      "ĠWhich": 1643,
      "Ġoccur": 1644,
      "Ġanimals": 1645,
      "Ġsens": 1646,
      "Ġbeg": 1647,
      "Ġquality": 1648,
      "13": 1649,
      "Ġoil": 1650,
      "Ġdeterm": 1651,
      "Ġrisk": 1652,
      "ton": 1653,
      "Ġbig": 1654,
      "ĠCl": 1655,
      "oes": 1656,
      "Ġconditions": 1657,
      "ours": 1658,
      "atic": 1659,
      "Ġmonth": 1660,
      "Ġsurface": 1661,
      "Ġobject": 1662,
      "be": 1663,
      "outh": 1664,
      "af": 1665,
      "Ġhist": 1666,
      "gn": 1667,
      "Ġchem": 1668,
      "Ġsal": 1669,
      "ency": 1670,
      "Ġspecial": 1671,
      "alk": 1672,
      "Ġnon": 1673,
      "We": 1674,
      "Ġdesc": 1675,
      "Ġcertain": 1676,
      "Ġengine": 1677,
      "Ġside": 1678,
      "fort": 1679,
      "Ġopp": 1680,
      "arc": 1681,
      "Ġparticular": 1682,
      "Ġcho": 1683,
      "Ġlist": 1684,
      "ĠCan": 1685,
      "urther": 1686,
      "Ġorder": 1687,
      "ĠRe": 1688,
      "ological": 1689,
      "Ġline": 1690,
      "au": 1691,
      "par": 1692,
      "Ġmaterials": 1693,
      "view": 1694,
      "Ġtechnology": 1695,
      "Ġdig": 1696,
      "Ġ$": 1697,
      "Ġz": 1698,
      "ples": 1699,
      "NA": 1700,
      "ĠInd": 1701,
      "Ġeffic": 1702,
      "ories": 1703,
      "ĠĠ": 1704,
      "bon": 1705,
      "Ġmill": 1706,
      "aut": 1707,
      "Ġgroup": 1708,
      "olution": 1709,
      "ring": 1710,
      "ires": 1711,
      "ah": 1712,
      "Ġimprove": 1713,
      "oose": 1714,
      "Ġbehav": 1715,
      "Ġsince": 1716,
      "Ġconsum": 1717,
      "inc": 1718,
      "Ġprim": 1719,
      "17": 1720,
      "hor": 1721,
      "ĠWith": 1722,
      "Ġ[": 1723,
      "ustom": 1724,
      "ication": 1725,
      "Ġ&": 1726,
      "Ġeduc": 1727,
      "Ġpressure": 1728,
      "Ġreport": 1729,
      "Ġtoget": 1730,
      "Ġtogether": 1731,
      "Ġmil": 1732,
      "Ġlevels": 1733,
      "cul": 1734,
      "oring": 1735,
      "----": 1736,
      "Ġuntil": 1737,
      "Ġweight": 1738,
      "lu": 1739,
      "Ġwind": 1740,
      "asing": 1741,
      "Ġter": 1742,
      "ĠBy": 1743,
      "Ġsound": 1744,
      "Ġproblems": 1745,
      "ĠRes": 1746,
      "ĠBe": 1747,
      ")Ċ": 1748,
      "Ġrecomm": 1749,
      "iting": 1750,
      "aster": 1751,
      "let": 1752,
      "ains": 1753,
      "ables": 1754,
      "Ġmar": 1755,
      "Ġsuccess": 1756,
      "Ġmov": 1757,
      "Ġfeed": 1758,
      "Ġfamily": 1759,
      "When": 1760,
      "ately": 1761,
      "As": 1762,
      "Ġworks": 1763,
      "Ġcase": 1764,
      "Ġnear": 1765,
      "Ġaway": 1766,
      "Ġenc": 1767,
      "self": 1768,
      "fer": 1769,
      "oint": 1770,
      "omen": 1771,
      "Ġshort": 1772,
      "Ġresults": 1773,
      "ĠNew": 1774,
      "uture": 1775,
      "Ġfore": 1776,
      "Ġname": 1777,
      "ware": 1778,
      "Ġworking": 1779,
      "Ġchall": 1780,
      "Ġbra": 1781,
      "Ġhaving": 1782,
      "Ġsun": 1783,
      "ury": 1784,
      "Ġcult": 1785,
      "Ġcomplete": 1786,
      "ember": 1787,
      "ored": 1788,
      "Ġincrease": 1789,
      "Ġkind": 1790,
      "Ġnext": 1791,
      "pecially": 1792,
      "Ġmaintain": 1793,
      "utes": 1794,
      "Ġnecess": 1795,
      "Ġperiod": 1796,
      "âĢ¦": 1797,
      "Ġproducts": 1798,
      "Ġsing": 1799,
      "ĠThat": 1800,
      "Ġalong": 1801,
      "ither": 1802,
      "Ġrepl": 1803,
      "Ġsugg": 1804,
      "jor": 1805,
      "Ġdays": 1806,
      "inter": 1807,
      "Ġrele": 1808,
      "Ġleg": 1809,
      "You": 1810,
      "Ġtru": 1811,
      "osp": 1812,
      "agement": 1813,
      "work": 1814,
      "Ġcomes": 1815,
      "Ġquick": 1816,
      "-l": 1817,
      "Ġrad": 1818,
      "ump": 1819,
      "Ġprote": 1820,
      "Ġcou": 1821,
      "Ġturn": 1822,
      "icult": 1823,
      "oney": 1824,
      "Ġprotect": 1825,
      "onom": 1826,
      "Ġhigher": 1827,
      "Ġlocal": 1828,
      "ĠAt": 1829,
      "Ġearly": 1830,
      "fact": 1831,
      "imes": 1832,
      "Ġcourse": 1833,
      "Ġeasy": 1834,
      "Ġothers": 1835,
      "Ġgrowth": 1836,
      "ret": 1837,
      "25": 1838,
      "ogn": 1839,
      "une": 1840,
      "Ġlikely": 1841,
      "por": 1842,
      "Ġchanges": 1843,
      "Ġstrong": 1844,
      "Ġmach": 1845,
      "ĠSe": 1846,
      "Ġmodel": 1847,
      "-m": 1848,
      "Ġsimilar": 1849,
      "Ġtreatment": 1850,
      "Ġbusiness": 1851,
      "Ġlab": 1852,
      "Ġmeasure": 1853,
      "Ġreduce": 1854,
      "âĢĻs": 1855,
      "erc": 1856,
      "Ġgarden": 1857,
      "Ġfull": 1858,
      "Ġsuggest": 1859,
      "Ġsocial": 1860,
      "not": 1861,
      "Ġactually": 1862,
      ".,": 1863,
      "40": 1864,
      "Ġleast": 1865,
      "ĠUniversity": 1866,
      "oor": 1867,
      "ler": 1868,
      "Ġhealthy": 1869,
      "Ġfri": 1870,
      "Ġlower": 1871,
      "There": 1872,
      "uro": 1873,
      "Ġste": 1874,
      "Ġfac": 1875,
      "Ġvalue": 1876,
      "ators": 1877,
      "Ġdoesn": 1878,
      "Ġground": 1879,
      "ooks": 1880,
      "Ġsoft": 1881,
      "Ġgreen": 1882,
      "Ġrece": 1883,
      "light": 1884,
      "ann": 1885,
      "ream": 1886,
      "Ġissues": 1887,
      "Ġi": 1888,
      "ised": 1889,
      "Ġrole": 1890,
      "ches": 1891,
      "Ġorig": 1892,
      "duct": 1893,
      "Ġdry": 1894,
      "bit": 1895,
      "aging": 1896,
      "Ġtur": 1897,
      "Ġsimple": 1898,
      "ivity": 1899,
      "Ġmajor": 1900,
      "-t": 1901,
      "Ġdogs": 1902,
      "Ġwarm": 1903,
      "Ġans": 1904,
      "vious": 1905,
      "Ġpred": 1906,
      "Ġreason": 1907,
      "agn": 1908,
      "Ġresour": 1909,
      "rect": 1910,
      "Ġassoci": 1911,
      "ipp": 1912,
      "Ġred": 1913,
      "Ġfuture": 1914,
      "Ġlive": 1915,
      "Ġvir": 1916,
      "atory": 1917,
      "Ġsum": 1918,
      "Ġespecially": 1919,
      "Ġfrequ": 1920,
      "ĠDe": 1921,
      "ĠTe": 1922,
      "Ġwrit": 1923,
      "Ġbro": 1924,
      "Ġcharacter": 1925,
      "An": 1926,
      "Ġmicro": 1927,
      "Ġcustom": 1928,
      "Ġhim": 1929,
      "Ġunique": 1930,
      "izing": 1931,
      "Ġinvest": 1932,
      ")ĊĊ": 1933,
      "rag": 1934,
      "Ġdiet": 1935,
      "Ġfar": 1936,
      "ames": 1937,
      "Ġways": 1938,
      "Ġavoid": 1939,
      "hem": 1940,
      "ilities": 1941,
      "Ġmind": 1942,
      "ĠCon": 1943,
      "Ġthing": 1944,
      "Ġproduction": 1945,
      "Ġabove": 1946,
      "Ġfour": 1947,
      "ression": 1948,
      "Ġacross": 1949,
      "Ġfield": 1950,
      "Ġobs": 1951,
      "Ġreact": 1952,
      "orth": 1953,
      "usion": 1954,
      "astic": 1955,
      "Ġage": 1956,
      "ym": 1957,
      "Ġheart": 1958,
      "Ġcheck": 1959,
      "Ġsafe": 1960,
      "Ġnorm": 1961,
      "Ġvide": 1962,
      "Ġpie": 1963,
      "Ġeat": 1964,
      "Ġnever": 1965,
      "ission": 1966,
      "fect": 1967,
      "Ġdone": 1968,
      "Ġprob": 1969,
      "verage": 1970,
      "ĠZ": 1971,
      "Ġagainst": 1972,
      "chan": 1973,
      "ledge": 1974,
      "ived": 1975,
      "Ġmarket": 1976,
      "ustain": 1977,
      "Ġgiven": 1978,
      "Ġbit": 1979,
      "Ġaccording": 1980,
      "Ġaffect": 1981,
      "ĠSp": 1982,
      "iple": 1983,
      "lish": 1984,
      "ott": 1985,
      "though": 1986,
      "ĠSome": 1987,
      "Ġgas": 1988,
      "Ġdifficult": 1989,
      "ffic": 1990,
      "estions": 1991,
      "idence": 1992,
      "Ġbegin": 1993,
      "Ġflu": 1994,
      "ray": 1995,
      "Ġeye": 1996,
      "Ġdamage": 1997,
      "Ġbook": 1998,
      "Ġpaper": 1999,
      "joy": 2000,
      "Ġloss": 2001,
      "Ġhouse": 2002,
      "Ġpublic": 2003,
      "Ġcompon": 2004,
      "Ġskin": 2005,
      "most": 2006,
      "ĠEn": 2007,
      "Ġabs": 2008,
      "Ġgre": 2009,
      "amm": 2010,
      "Ġregular": 2011,
      "Ġeffects": 2012,
      "anced": 2013,
      "Ġcool": 2014,
      "Ġpast": 2015,
      "Ġsingle": 2016,
      "yle": 2017,
      "side": 2018,
      "Ġrespons": 2019,
      "Ġclear": 2020,
      "bo": 2021,
      "wards": 2022,
      "Ġach": 2023,
      "Ġsays": 2024,
      "Ġintern": 2025,
      "Ġrepres": 2026,
      "omet": 2027,
      "21": 2028,
      "igns": 2029,
      "Ġhelps": 2030,
      "Ġterm": 2031,
      "!ĊĊ": 2032,
      "Ġbenefits": 2033,
      "ibility": 2034,
      "Ġleft": 2035,
      "Ġparts": 2036,
      "ĠCol": 2037,
      "Ġland": 2038,
      "Ġelectric": 2039,
      "Ġcontrib": 2040,
      "Ġphysical": 2041,
      "Ġchemical": 2042,
      "Ġwhite": 2043,
      ",Ċ": 2044,
      "Ġdiscuss": 2045,
      "Ġer": 2046,
      "ĠYour": 2047,
      "Ġlooking": 2048,
      "Ġdetail": 2049,
      "Ġbatter": 2050,
      "Ġpopular": 2051,
      "lement": 2052,
      "Ġfactors": 2053,
      "Ġunderstanding": 2054,
      "ER": 2055,
      "Ġview": 2056,
      "Ġwr": 2057,
      "Ġsource": 2058,
      "Ġwide": 2059,
      "Ġclose": 2060,
      "âĢĵ": 2061,
      "uals": 2062,
      "Ġsubst": 2063,
      "Ġresearc": 2064,
      "ptoms": 2065,
      "Ġcomplex": 2066,
      "ising": 2067,
      "ĠBl": 2068,
      "ploy": 2069,
      "resh": 2070,
      "avor": 2071,
      "ĠPh": 2072,
      "Ġnet": 2073,
      "Ġcondition": 2074,
      "Ġtraining": 2075,
      "Ġdesigned": 2076,
      "ina": 2077,
      "Ġeither": 2078,
      "ĠâĢĶ": 2079,
      "ensive": 2080,
      "Ġmass": 2081,
      "Ġclimate": 2082,
      "ification": 2083,
      "Ġbal": 2084,
      "raft": 2085,
      "Ġexpect": 2086,
      "lection": 2087,
      "orts": 2088,
      "ope": 2089,
      "Ġweek": 2090,
      "Ġoffer": 2091,
      "Ġamong": 2092,
      "ĠOr": 2093,
      "Ġonce": 2094,
      "ores": 2095,
      "To": 2096,
      "Ġproduce": 2097,
      "Ġhold": 2098,
      "Ġthin": 2099,
      "Ġfurther": 2100,
      "Ġstress": 2101,
      "Ġcru": 2102,
      "com": 2103,
      "angu": 2104,
      "Ġquestion": 2105,
      "ruction": 2106,
      "Ġdeg": 2107,
      "Ġenjoy": 2108,
      "alf": 2109,
      "Ġallows": 2110,
      "Ġdescrib": 2111,
      "ufact": 2112,
      "Ġtoday": 2113,
      "Ġprovides": 2114,
      "ĠUS": 2115,
      "ystem": 2116,
      "ortun": 2117,
      "Ġability": 2118,
      "Ġfall": 2119,
      "Ġwhether": 2120,
      "Ġanimal": 2121,
      "Ġcarbon": 2122,
      "Ġstop": 2123,
      "24": 2124,
      "idd": 2125,
      "ĠOn": 2126,
      "Ġindic": 2127,
      "lished": 2128,
      "Ġgetting": 2129,
      "Ġwild": 2130,
      "Ġvers": 2131,
      "Ġgame": 2132,
      "Ġwood": 2133,
      "Ġspeed": 2134,
      "ready": 2135,
      "Ġpercent": 2136,
      "Ġcomputer": 2137,
      "Ġdraw": 2138,
      "Ġskills": 2139,
      "For": 2140,
      "Wh": 2141,
      "Ġmatter": 2142,
      "Ġpet": 2143,
      "Ġscience": 2144,
      "ery": 2145,
      "ae": 2146,
      "Ġparent": 2147,
      "istic": 2148,
      "ĠInst": 2149,
      "ik": 2150,
      "Ġauthor": 2151,
      "60": 2152,
      "Ġnecessary": 2153,
      "Ġegg": 2154,
      "raph": 2155,
      "Ġhyd": 2156,
      "Ġinteract": 2157,
      "mit": 2158,
      "ming": 2159,
      "hing": 2160,
      "Ġbelow": 2161,
      "for": 2162,
      "Ġenh": 2163,
      "Ġvariety": 2164,
      "Ġcoll": 2165,
      "Ġveh": 2166,
      "Ġsmo": 2167,
      "Ġill": 2168,
      "Ġdifference": 2169,
      "ength": 2170,
      "aching": 2171,
      "Ġlif": 2172,
      "22": 2173,
      "ales": 2174,
      "ried": 2175,
      "Ġstructure": 2176,
      "ĠOne": 2177,
      "Ġexperien": 2178,
      "itch": 2179,
      "Ġmechan": 2180,
      "ĠEng": 2181,
      "Ġpurp": 2182,
      "Ġperformance": 2183,
      "ĠIm": 2184,
      "ird": 2185,
      "Ġblack": 2186,
      "Ġhours": 2187,
      "lying": 2188,
      "Ġ.": 2189,
      "Ġfu": 2190,
      "Ġtell": 2191,
      "Ġcrit": 2192,
      "Ġbacter": 2193,
      "Ġbrain": 2194,
      "Ġpersonal": 2195,
      "Ġknowledge": 2196,
      "Ġlove": 2197,
      "Ġindividual": 2198,
      "aken": 2199,
      "Ġalready": 2200,
      "Ġdoing": 2201,
      "rel": 2202,
      "Ġox": 2203,
      "Ġneeded": 2204,
      "Ġveget": 2205,
      "ument": 2206,
      "edi": 2207,
      "Ġconcer": 2208,
      "iques": 2209,
      "rate": 2210,
      "Ġcommunity": 2211,
      "ĠAI": 2212,
      "Ġsn": 2213,
      "Ġglob": 2214,
      "ask": 2215,
      "man": 2216,
      "Ġconnect": 2217,
      "Ġfeatures": 2218,
      "sc": 2219,
      "ney": 2220,
      "Ġcontent": 2221,
      "utions": 2222,
      "Ġsafety": 2223,
      "Ġexist": 2224,
      "Ġevent": 2225,
      "Ġinit": 2226,
      "Ġhistory": 2227,
      "Ġselect": 2228,
      "eral": 2229,
      "Ġhappen": 2230,
      "leep": 2231,
      "erence": 2232,
      "Ġtree": 2233,
      "Ġimage": 2234,
      "!Ċ": 2235,
      "Ġfru": 2236,
      "Ġresist": 2237,
      "overed": 2238,
      "Ġbuy": 2239,
      "Ġrecord": 2240,
      "Ch": 2241,
      "Ġmo": 2242,
      "Ġmix": 2243,
      "Ġindustry": 2244,
      "ĠAll": 2245,
      "Ġpath": 2246,
      "aps": 2247,
      "Ġrate": 2248,
      "rown": 2249,
      "ĠNo": 2250,
      "ditional": 2251,
      "ograp": 2252,
      "igure": 2253,
      "by": 2254,
      "Ġleaves": 2255,
      "ysis": 2256,
      "just": 2257,
      "Ġseen": 2258,
      "ront": 2259,
      "Ġask": 2260,
      "Ġsustain": 2261,
      "osing": 2262,
      "Ġemb": 2263,
      "Ġsymptoms": 2264,
      "Ġever": 2265,
      "Ġbreak": 2266,
      "ilt": 2267,
      "Ġrequired": 2268,
      "Ġhot": 2269,
      "Ġprop": 2270,
      "Ġsuper": 2271,
      "Ġstrateg": 2272,
      "Ġonline": 2273,
      "ply": 2274,
      "Ġtot": 2275,
      "**": 2276,
      "Ġaddress": 2277,
      "Ġactivities": 2278,
      "ows": 2279,
      "Ġmanufact": 2280,
      "Ġinside": 2281,
      "Ġtools": 2282,
      "ule": 2283,
      "Ġquestions": 2284,
      "ibr": 2285,
      "Ġuser": 2286,
      "Ġchalleng": 2287,
      "ĠEar": 2288,
      "Ġfat": 2289,
      "nam": 2290,
      "app": 2291,
      "Ġarticle": 2292,
      "vert": 2293,
      "Ġneg": 2294,
      "iment": 2295,
      "Ġlonger": 2296,
      "Ġslow": 2297,
      "aling": 2298,
      "Ġtar": 2299,
      "Ġminim": 2300,
      "Ġfarm": 2301,
      "Ġbar": 2302,
      "Ġmethods": 2303,
      "upp": 2304,
      "Ġprec": 2305,
      "Ġbuilding": 2306,
      "Ġself": 2307,
      "Ġpay": 2308,
      "fully": 2309,
      "Ġresearchers": 2310,
      "Ġcorrect": 2311,
      "Ġhumans": 2312,
      "ĠQu": 2313,
      "Ġdeep": 2314,
      "Ġopportun": 2315,
      "way": 2316,
      "Ġactivity": 2317,
      "aving": 2318,
      "Ġgeneral": 2319,
      "sel": 2320,
      "reng": 2321,
      "Ġcontact": 2322,
      "nces": 2323,
      "Ġidea": 2324,
      "ĠAmerican": 2325,
      "ervation": 2326,
      "Ġenvironmental": 2327,
      "ung": 2328,
      "Ġcompany": 2329,
      "Ġwhole": 2330,
      "ura": 2331,
      "use": 2332,
      "Ġpositive": 2333,
      "Ġapproach": 2334,
      "Ġport": 2335,
      "Ġtaking": 2336,
      "ites": 2337,
      "Ġpan": 2338,
      "Ġliving": 2339,
      "inary": 2340,
      "gar": 2341,
      "Ġrelations": 2342,
      "Ġexerc": 2343,
      "Ġindividuals": 2344,
      "Ġnature": 2345,
      "Ġmat": 2346,
      "Ġappear": 2347,
      "Ġsomeone": 2348,
      "amp": 2349,
      "Ġencou": 2350,
      "ctor": 2351,
      "Ġbehavior": 2352,
      "Ġseason": 2353,
      "Ġperfect": 2354,
      "idered": 2355,
      "Ġtrees": 2356,
      "Ġmonths": 2357,
      "Ġmention": 2358,
      "Ġtypically": 2359,
      "Ġelectr": 2360,
      "Ġremov": 2361,
      "Ġinstall": 2362,
      "Ġprint": 2363,
      "Ġposition": 2364,
      "Ġtravel": 2365,
      "erve": 2366,
      "ties": 2367,
      "Ġfit": 2368,
      "Ġintrodu": 2369,
      "Ġeasily": 2370,
      "Ġlaw": 2371,
      "ises": 2372,
      "ĠCent": 2373,
      "room": 2374,
      "ume": 2375,
      "illed": 2376,
      "selves": 2377,
      "Ġsitu": 2378,
      "Ġcases": 2379,
      "80": 2380,
      "Ġmagn": 2381,
      "Ġmole": 2382,
      "Ġut": 2383,
      "Al": 2384,
      "aches": 2385,
      "Ġprep": 2386,
      "iency": 2387,
      "cell": 2388,
      "Ġsqu": 2389,
      "Ġvac": 2390,
      "urs": 2391,
      "Ġanswer": 2392,
      "Ġyoung": 2393,
      "ĠWor": 2394,
      "onst": 2395,
      "Ġgrowing": 2396,
      "Ġassociated": 2397,
      "Ġisn": 2398,
      "Ġetc": 2399,
      "Ġjob": 2400,
      "Ġsam": 2401,
      ".\"ĊĊ": 2402,
      "ding": 2403,
      "Ġcancer": 2404,
      "het": 2405,
      "reme": 2406,
      "Ġentire": 2407,
      "Ġhor": 2408,
      "Ġextra": 2409,
      "Ġmoney": 2410,
      "ĠNe": 2411,
      "Ġtechniques": 2412,
      "Ġla": 2413,
      "Ġmanagement": 2414,
      "Ġconsidered": 2415,
      "Ġjour": 2416,
      "amin": 2417,
      "ze": 2418,
      "anguage": 2419,
      "osis": 2420,
      "Ġroom": 2421,
      "Ġminutes": 2422,
      "Ġbring": 2423,
      "Ġmeet": 2424,
      "Ġgot": 2425,
      "Ġoverall": 2426,
      "23": 2427,
      "Ġvideo": 2428,
      "____": 2429,
      "uck": 2430,
      ").Ċ": 2431,
      "Ġcollect": 2432,
      "Ġcrucial": 2433,
      "Ġresources": 2434,
      "ulations": 2435,
      "rams": 2436,
      "verse": 2437,
      "Ġmen": 2438,
      "Ġrather": 2439,
      "Ġsolution": 2440,
      "Ġmillion": 2441,
      "Ġinteg": 2442,
      "Ġlater": 2443,
      "eter": 2444,
      "Ġaud": 2445,
      "Ġpatients": 2446,
      "iation": 2447,
      "aced": 2448,
      "Ġwall": 2449,
      "Ġharm": 2450,
      "Ġdevice": 2451,
      "Ġrepresent": 2452,
      "uit": 2453,
      "Ġrecogn": 2454,
      "Ġmedical": 2455,
      "IN": 2456,
      "So": 2457,
      "lor": 2458,
      "Ġpoll": 2459,
      "Ġgover": 2460,
      "ges": 2461,
      "ĠWhile": 2462,
      "Ġcreating": 2463,
      "rug": 2464,
      "Ġsepar": 2465,
      "Ġstay": 2466,
      "ĠDr": 2467,
      "play": 2468,
      "Ġprimary": 2469,
      "Ġcold": 2470,
      "ese": 2471,
      "Ġinflu": 2472,
      "Ġcover": 2473,
      "ival": 2474,
      "ĠX": 2475,
      "Ġcapt": 2476,
      "Ġuses": 2477,
      "Ġbeaut": 2478,
      "Ġhowever": 2479,
      "Th": 2480,
      "-based": 2481,
      "Ġstreng": 2482,
      "ĠShe": 2483,
      "Ġpopulation": 2484,
      "ĠLe": 2485,
      "Ġing": 2486,
      "Ġchoose": 2487,
      "ene": 2488,
      "Ġquickly": 2489,
      "Ġwomen": 2490,
      "Ġthroughout": 2491,
      "Ġexc": 2492,
      "Ġyourself": 2493,
      "Ġaverage": 2494,
      "sect": 2495,
      "Ġrelationship": 2496,
      "Ġcomfort": 2497,
      "Ġwar": 2498,
      "Ġtarget": 2499,
      "ĠCar": 2500,
      "val": 2501,
      "Ġfund": 2502,
      "Ġservice": 2503,
      "Ġsense": 2504,
      "eding": 2505,
      "ging": 2506,
      "lex": 2507,
      "pro": 2508,
      "Ġprofessional": 2509,
      "Ġprotein": 2510,
      "ĠCO": 2511,
      "oll": 2512,
      "Ġincludes": 2513,
      "Ġthought": 2514,
      "aily": 2515,
      "Ġsubject": 2516,
      "xim": 2517,
      "uff": 2518,
      "ounds": 2519,
      "Ġeconom": 2520,
      "Ġappl": 2521,
      "Ġmultiple": 2522,
      "Ġconcept": 2523,
      "era": 2524,
      "rated": 2525,
      "Ġemploy": 2526,
      "ES": 2527,
      "aged": 2528,
      "ĠComp": 2529,
      "Ġidentify": 2530,
      "Ġconsist": 2531,
      "Ġoptions": 2532,
      "Ġoutside": 2533,
      "Ġincreased": 2534,
      "yl": 2535,
      "icles": 2536,
      "Ġpractice": 2537,
      "Ġpack": 2538,
      "erous": 2539,
      "Ġsleep": 2540,
      "Ġbirds": 2541,
      "cks": 2542,
      "Ġtakes": 2543,
      "Ġsimply": 2544,
      "Ġacid": 2545,
      "Ġprobably": 2546,
      "Ġdeveloped": 2547,
      "Ġnormal": 2548,
      "Ġadult": 2549,
      "earch": 2550,
      "Ġhalf": 2551,
      "Ġbad": 2552,
      "Ġeyes": 2553,
      "ĠComm": 2554,
      "Ġrelated": 2555,
      "Ġfoot": 2556,
      "ils": 2557,
      "Ġgovern": 2558,
      "âĢĿ": 2559,
      "Ġcreated": 2560,
      "Ġur": 2561,
      "-w": 2562,
      "Ġcannot": 2563,
      "rict": 2564,
      "Ġheav": 2565,
      "aff": 2566,
      "Ġwebs": 2567,
      "Ġfeet": 2568,
      "Ġcompan": 2569,
      "Ġcook": 2570,
      "ipment": 2571,
      "mb": 2572,
      ".\"Ċ": 2573,
      "Ġcop": 2574,
      "Ġstudies": 2575,
      "Ġquant": 2576,
      "Ġtend": 2577,
      "Ġstra": 2578,
      "Ġissue": 2579,
      "Ġcompet": 2580,
      "lease": 2581,
      "AT": 2582,
      "Ġbur": 2583,
      "ĠDo": 2584,
      "Ġnight": 2585,
      "Ġservices": 2586,
      "Ġoptim": 2587,
      "Ġcauses": 2588,
      "Ġmodern": 2589,
      "Ġsat": 2590,
      "urope": 2591,
      "Ġalmost": 2592,
      "Ġeducation": 2593,
      "Ġmachine": 2594,
      "Ġparticip": 2595,
      "Ġfast": 2596,
      "ively": 2597,
      "Ġfram": 2598,
      "cies": 2599,
      "Ġelements": 2600,
      "Ġfoods": 2601,
      "ellow": 2602,
      "ĠUnited": 2603,
      ".S": 2604,
      "Ġrob": 2605,
      "Ġwaste": 2606,
      "Ġann": 2607,
      "AR": 2608,
      "Ġteac": 2609,
      "Ġconduct": 2610,
      "Ġinstead": 2611,
      "Ġsomet": 2612,
      "Ġlayer": 2613,
      "Ġlog": 2614,
      "Ġsil": 2615,
      "elling": 2616,
      "Ġremain": 2617,
      "-in": 2618,
      "Ġlarger": 2619,
      "Ġpri": 2620,
      "ison": 2621,
      "Ġfive": 2622,
      "Ġattention": 2623,
      "ured": 2624,
      "onse": 2625,
      "Ġglobal": 2626,
      "Ġlength": 2627,
      "Ġincreasing": 2628,
      "augh": 2629,
      "abor": 2630,
      "Ġpict": 2631,
      "Ġwinter": 2632,
      "Ġcountry": 2633,
      "itor": 2634,
      "ift": 2635,
      "nov": 2636,
      "ĠTr": 2637,
      "Ġaccount": 2638,
      "aim": 2639,
      "Ġtraditional": 2640,
      "itud": 2641,
      "Ġshape": 2642,
      "Ġshows": 2643,
      "Ġaltern": 2644,
      "Ġextreme": 2645,
      "90": 2646,
      "Ġapplications": 2647,
      "Ġestab": 2648,
      "urity": 2649,
      "Ġdetermine": 2650,
      "Ġbab": 2651,
      ").ĊĊ": 2652,
      "Ġfuel": 2653,
      "Ġtotal": 2654,
      "Ġdom": 2655,
      "Ġsite": 2656,
      "Ġge": 2657,
      "Ġscientists": 2658,
      "Ġang": 2659,
      "Ġcompared": 2660,
      "cre": 2661,
      "ĠNational": 2662,
      "ĠHere": 2663,
      "Ġwa": 2664,
      "ĠMed": 2665,
      "Ġfail": 2666,
      "ians": 2667,
      "Ġhabit": 2668,
      "Ġautom": 2669,
      "oh": 2670,
      "Ġspread": 2671,
      "Ġshown": 2672,
      "Ġefficient": 2673,
      "ropri": 2674,
      "ners": 2675,
      "rogen": 2676,
      "Ġsometimes": 2677,
      "Ġweather": 2678,
      "asc": 2679,
      "Ġbasic": 2680,
      "Ġcra": 2681,
      "asons": 2682,
      "Ġproviding": 2683,
      "ĠUs": 2684,
      "ED": 2685,
      "Ġyet": 2686,
      "Ġchoice": 2687,
      "Ġanything": 2688,
      "Ġremove": 2689,
      "Ġeverything": 2690,
      "ĠCont": 2691,
      "ograph": 2692,
      "Ġfresh": 2693,
      "Ġadvant": 2694,
      "acks": 2695,
      "umb": 2696,
      "isc": 2697,
      "Ġface": 2698,
      "Ġstory": 2699,
      "Ġdevices": 2700,
      "Ġbattery": 2701,
      "70": 2702,
      "Ġoffers": 2703,
      "Ġtrue": 2704,
      "Ġcaused": 2705,
      "Ġexplain": 2706,
      "ctions": 2707,
      "gest": 2708,
      "ned": 2709,
      "Ġwon": 2710,
      "Ġadapt": 2711,
      "Ġrelative": 2712,
      "Ġnutri": 2713,
      "where": 2714,
      "Ġtaken": 2715,
      "Ġcomponents": 2716,
      "rig": 2717,
      "Ġseem": 2718,
      "ged": 2719,
      "Ġgenerally": 2720,
      "Ġquite": 2721,
      "ĠCal": 2722,
      "Ad": 2723,
      "sy": 2724,
      "Ġadjust": 2725,
      "rip": 2726,
      "ground": 2727,
      "osition": 2728,
      "Ġmetal": 2729,
      "ĠApp": 2730,
      "Ġprevious": 2731,
      "ĠEurope": 2732,
      "cean": 2733,
      "rad": 2734,
      "icy": 2735,
      "Ġfib": 2736,
      "ley": 2737,
      "Ġsurv": 2738,
      "Ġfem": 2739,
      "izes": 2740,
      "Ġexact": 2741,
      "Ġstandard": 2742,
      "ronic": 2743,
      "ules": 2744,
      "Ġterms": 2745,
      "Ġbacteria": 2746,
      "Ġanalysis": 2747,
      "One": 2748,
      "Ġones": 2749,
      "isms": 2750,
      "ement": 2751,
      "ĠEarth": 2752,
      "Ġbox": 2753,
      "Ġcontinu": 2754,
      "Ġsoftware": 2755,
      "Ġstarted": 2756,
      "Ġfire": 2757,
      "go": 2758,
      "ched": 2759,
      "OT": 2760,
      "Ġsuit": 2761,
      "Ġmedic": 2762,
      "hib": 2763,
      "Ġgroups": 2764,
      "icial": 2765,
      "imately": 2766,
      "mon": 2767,
      "Ġequipment": 2768,
      "Ġlanguage": 2769,
      "Ġfront": 2770,
      "istics": 2771,
      "ĠAf": 2772,
      "ON": 2773,
      "Ġshare": 2774,
      "AS": 2775,
      "Ġbott": 2776,
      "Ġassess": 2777,
      "Ġinj": 2778,
      "ests": 2779,
      "ights": 2780,
      "ension": 2781,
      "rapy": 2782,
      "Ġtrying": 2783,
      "hern": 2784,
      "ĠCons": 2785,
      "Ġbelie": 2786,
      "Ġrot": 2787,
      "ino": 2788,
      "ext": 2789,
      "Ġitself": 2790,
      "ĠAm": 2791,
      "ĠAfter": 2792,
      "Ġdark": 2793,
      "Ġago": 2794,
      "Ġprovided": 2795,
      "Ġdy": 2796,
      "Ġcode": 2797,
      "li": 2798,
      "Ġwords": 2799,
      "Ġlo": 2800,
      "acy": 2801,
      "Ġmom": 2802,
      "Ġthemselves": 2803,
      "Ġaspect": 2804,
      "oses": 2805,
      "Ġpurpose": 2806,
      "ography": 2807,
      "Ġsummer": 2808,
      "ecause": 2809,
      "Ġball": 2810,
      "Ġbelieve": 2811,
      "ditionally": 2812,
      "Ġtable": 2813,
      "arily": 2814,
      "Ġbase": 2815,
      "Ġregard": 2816,
      "Ġkids": 2817,
      "Ġdigital": 2818,
      "Ġproperties": 2819,
      "Ġsteps": 2820,
      "Ġreading": 2821,
      "Ġarr": 2822,
      "ening": 2823,
      "ĠDNA": 2824,
      "Ġsea": 2825,
      "Ġdoc": 2826,
      "Ġachieve": 2827,
      "Ġrequires": 2828,
      "Ġmentioned": 2829,
      "ĠMan": 2830,
      "Ġgain": 2831,
      "Ġload": 2832,
      "ĠCo": 2833,
      "Ġdistrib": 2834,
      "Ġdaily": 2835,
      "Ġdrug": 2836,
      "alking": 2837,
      "Ġice": 2838,
      "iot": 2839,
      "Ġmeat": 2840,
      "Ġswe": 2841,
      "Ġobserv": 2842,
      "Ġir": 2843,
      "Ġemot": 2844,
      "ĠHealth": 2845,
      "ĠDes": 2846,
      "Ġresponse": 2847,
      "Ġmoist": 2848,
      "Pro": 2849,
      "Ġdefin": 2850,
      "Ġforce": 2851,
      "ĠStates": 2852,
      "Ġadded": 2853,
      "Ġaction": 2854,
      "Ġrout": 2855,
      "emic": 2856,
      "Ġadditional": 2857,
      "Ġtiss": 2858,
      "Ġeating": 2859,
      "Ġsmaller": 2860,
      "aries": 2861,
      "Ġplastic": 2862,
      "Ġparticularly": 2863,
      "Ġfamil": 2864,
      "Ġbehind": 2865,
      "ID": 2866,
      "Ġexplore": 2867,
      "ipe": 2868,
      "Ġglass": 2869,
      "ences": 2870,
      "Ġlink": 2871,
      "ĠPr": 2872,
      "Ġwond": 2873,
      "Ġmaxim": 2874,
      "min": 2875,
      "tenance": 2876,
      "ccording": 2877,
      "osure": 2878,
      "Ġdiseases": 2879,
      "Ġregion": 2880,
      "Ġoption": 2881,
      "Ġ/": 2882,
      "pid": 2883,
      "Ex": 2884,
      "Ġcard": 2885,
      "'d": 2886,
      "Ġimplement": 2887,
      "Ġcapac": 2888,
      "Ġmess": 2889,
      "Ġtou": 2890,
      "Ġblue": 2891,
      "ricult": 2892,
      "Ġmilk": 2893,
      "Ġ+": 2894,
      "Ġdirectly": 2895,
      "Ġassist": 2896,
      "Ġpoints": 2897,
      "inct": 2898,
      "Ġtowards": 2899,
      "Ġinsect": 2900,
      "Ġparents": 2901,
      "ulate": 2902,
      "iddle": 2903,
      "ai": 2904,
      "Ġdiagn": 2905,
      "nter": 2906,
      "Ġleading": 2907,
      "oles": 2908,
      "iring": 2909,
      "ĠStud": 2910,
      "Ġx": 2911,
      "Ġhighly": 2912,
      "Ġevidence": 2913,
      "ĠMay": 2914,
      "Ġnegative": 2915,
      "Ġsignal": 2916,
      "Ġcolors": 2917,
      "rition": 2918,
      "reg": 2919,
      "Why": 2920,
      "Ġdest": 2921,
      "Ġingred": 2922,
      "ĠOf": 2923,
      "Ġaware": 2924,
      "Ġcontinue": 2925,
      "Ġrespect": 2926,
      "Ġinvolved": 2927,
      "Â°": 2928,
      "oon": 2929,
      "Ġcats": 2930,
      "iding": 2931,
      "ĠAfric": 2932,
      "ĠAust": 2933,
      "Ġvehicle": 2934,
      "Ġstudent": 2935,
      "like": 2936,
      "sh": 2937,
      "Ġconcent": 2938,
      "Ġoutput": 2939,
      "Ġmodels": 2940,
      "Ġappropri": 2941,
      "ĠPre": 2942,
      "vant": 2943,
      "rist": 2944,
      "ades": 2945,
      "ĠNorth": 2946,
      "Ġeggs": 2947,
      "Ġreach": 2948,
      "Ġemerg": 2949,
      "ĠâĢľ": 2950,
      "Ġweeks": 2951,
      "Ġreview": 2952,
      "Ġproduced": 2953,
      "Ġdou": 2954,
      "Ġbul": 2955,
      "oph": 2956,
      "But": 2957,
      "Ġsearch": 2958,
      "head": 2959,
      "Ġgenetic": 2960,
      "illing": 2961,
      "-st": 2962,
      "Ġsugar": 2963,
      "sequ": 2964,
      "Ġkit": 2965,
      "alu": 2966,
      "ĠMy": 2967,
      "Ġeveryone": 2968,
      "Ġpoly": 2969,
      "Ġapplication": 2970,
      "Ġhar": 2971,
      "Ġstat": 2972,
      "Ġsources": 2973,
      "yp": 2974,
      "Ġful": 2975,
      "vere": 2976,
      "clusion": 2977,
      "Ġpurch": 2978,
      "Ġrecommend": 2979,
      "ror": 2980,
      "Ġmembers": 2981,
      "ĠNot": 2982,
      "anks": 2983,
      "Ġhun": 2984,
      "Ġimages": 2985,
      "Ġlives": 2986,
      "ĠFe": 2987,
      "rid": 2988,
      "Ġvit": 2989,
      "cri": 2990,
      "ĠGu": 2991,
      "wh": 2992,
      "artment": 2993,
      "new": 2994,
      "ĠMe": 2995,
      "Ġsolar": 2996,
      "ĠInt": 2997,
      "-g": 2998,
      "Ġdecre": 2999,
      "Ġmor": 3000,
      "Ġcalcul": 3001,
      "Ġrecommended": 3002,
      "Ġlands": 3003,
      "Ġteeth": 3004,
      "Ġtransform": 3005,
      "01": 3006,
      "Ġeasier": 3007,
      "orpor": 3008,
      "Ġblock": 3009,
      "Ġhair": 3010,
      "nal": 3011,
      "ma": 3012,
      "Ġpret": 3013,
      "itation": 3014,
      "Ġrecent": 3015,
      "Ġevents": 3016,
      "ops": 3017,
      "ĠAre": 3018,
      "Ġprior": 3019,
      "Ġinput": 3020,
      "Ġforest": 3021,
      "Ġguide": 3022,
      "unch": 3023,
      "Ġgoal": 3024,
      "-h": 3025,
      "Ġtransport": 3026,
      "ĠKe": 3027,
      "Ġstrength": 3028,
      "ĠYes": 3029,
      "Ġroad": 3030,
      "cles": 3031,
      "aur": 3032,
      "Ġitems": 3033,
      "Ġelse": 3034,
      "Ġstore": 3035,
      "Ġconstant": 3036,
      "Ġspeak": 3037,
      "-to": 3038,
      "Ġtips": 3039,
      "Ġdidn": 3040,
      "Ġbed": 3041,
      "ĠGen": 3042,
      "Ġexercise": 3043,
      "Ġcountries": 3044,
      "Ġlines": 3045,
      "ĠSchool": 3046,
      "Ġnumbers": 3047,
      "Ġword": 3048,
      "Ġwebsite": 3049,
      "Ġearth": 3050,
      "ancy": 3051,
      "AC": 3052,
      "Ġprocesses": 3053,
      "Ġliqu": 3054,
      "Ġprefer": 3055,
      "Ġrunning": 3056,
      "ĠâĢ¦": 3057,
      "Ġ,": 3058,
      "Ġtemperatures": 3059,
      "Sh": 3060,
      "Ġaim": 3061,
      "Ġreplace": 3062,
      "Ġmeaning": 3063,
      "att": 3064,
      "Ġscreen": 3065,
      "Ġcompletely": 3066,
      "--------": 3067,
      "....": 3068,
      "Ġdeath": 3069,
      "ĠAss": 3070,
      "Ġbreat": 3071,
      "Ġuseful": 3072,
      "Ġseeds": 3073,
      "oming": 3074,
      "Ġdang": 3075,
      "ygen": 3076,
      "Ġgreater": 3077,
      "Ġflowers": 3078,
      "issions": 3079,
      "ĠScience": 3080,
      "Ġsand": 3081,
      "rast": 3082,
      "Ġalg": 3083,
      "icate": 3084,
      "vest": 3085,
      "Ġmovement": 3086,
      "Is": 3087,
      "Ġactive": 3088,
      "ĠMost": 3089,
      "aks": 3090,
      "Ġbrand": 3091,
      "Ġcontroll": 3092,
      "terns": 3093,
      "Ġsupply": 3094,
      "ociety": 3095,
      "ĠMore": 3096,
      "Ġsequ": 3097,
      "ocks": 3098,
      "Ġbalance": 3099,
      "Ġfix": 3100,
      "rial": 3101,
      "ucle": 3102,
      "Ġcross": 3103,
      "IS": 3104,
      "Ġproperly": 3105,
      "Ġpatient": 3106,
      "epend": 3107,
      "Ġmedia": 3108,
      "water": 3109,
      "ensity": 3110,
      "Ġwear": 3111,
      "irm": 3112,
      "Ġfriend": 3113,
      "Ġunit": 3114,
      "Ġprinc": 3115,
      "Ġserious": 3116,
      "pper": 3117,
      "Ġinitial": 3118,
      "Ġrefer": 3119,
      "Ġanaly": 3120,
      "come": 3121,
      "iny": 3122,
      "Ġseries": 3123,
      "Ġevolution": 3124,
      "Ġclaim": 3125,
      "AN": 3126,
      "orage": 3127,
      "Ġpiece": 3128,
      "Ġstyle": 3129,
      "back": 3130,
      "abric": 3131,
      "Ġthreat": 3132,
      "Ġvalues": 3133,
      "Ġtalk": 3134,
      "Ġfert": 3135,
      "Ġreflect": 3136,
      "bol": 3137,
      "Ġchallenges": 3138,
      "life": 3139,
      "imin": 3140,
      "EN": 3141,
      "ellig": 3142,
      "...ĊĊ": 3143,
      "Ġ--": 3144,
      "iles": 3145,
      "iful": 3146,
      "Ġhands": 3147,
      "uted": 3148,
      "Ġvisual": 3149,
      "Ġsix": 3150,
      "Ġefficiency": 3151,
      "Ġspring": 3152,
      "onn": 3153,
      "abet": 3154,
      "Ġcommunication": 3155,
      "ections": 3156,
      "Ġcamera": 3157,
      "Ġcontains": 3158,
      "ĠFrom": 3159,
      "Ġmoving": 3160,
      "Ġguid": 3161,
      "Ġscientific": 3162,
      "35": 3163,
      "Ġgoes": 3164,
      "Ġusers": 3165,
      "Ġvisit": 3166,
      "Ġorganic": 3167,
      "Ġvirus": 3168,
      "Ġprograms": 3169,
      "Ġabsor": 3170,
      "itute": 3171,
      "Ġsus": 3172,
      "Ġcritical": 3173,
      "Ġlocation": 3174,
      "Ġdrive": 3175,
      "Ġcarry": 3176,
      "OR": 3177,
      "Ġbenefit": 3178,
      "rees": 3179,
      "Ġprojects": 3180,
      "Ġforms": 3181,
      "tings": 3182,
      "ached": 3183,
      "ster": 3184,
      "Ġthick": 3185,
      "Ġcry": 3186,
      "fl": 3187,
      "Ġgovernment": 3188,
      "Ġbuilt": 3189,
      "ĠDep": 3190,
      "Ġpatterns": 3191,
      "Ġarg": 3192,
      "Ġplat": 3193,
      "Be": 3194,
      "Ġcosts": 3195,
      "istry": 3196,
      "fficient": 3197,
      "ĠSouth": 3198,
      "Ġmusic": 3199,
      "Ġcompanies": 3200,
      "elt": 3201,
      "Can": 3202,
      "Ġdepending": 3203,
      "Ġmemory": 3204,
      "Ġtheory": 3205,
      "atives": 3206,
      "sych": 3207,
      "Ġimmedi": 3208,
      "rec": 3209,
      "ĠGo": 3210,
      "Ġinnov": 3211,
      "Ġfriends": 3212,
      "Cl": 3213,
      "Ġreasons": 3214,
      "ightly": 3215,
      "Ġinstruct": 3216,
      "Ġdemonst": 3217,
      "ĠAmerica": 3218,
      "Ġdisplay": 3219,
      "rs": 3220,
      "load": 3221,
      "Ġdeveloping": 3222,
      "ÂŃ": 3223,
      "Ġwatch": 3224,
      "Ġdeal": 3225,
      "Ġallowing": 3226,
      "Ġprice": 3227,
      "Ġchick": 3228,
      "ĠPe": 3229,
      "ĠMany": 3230,
      "Ġleave": 3231,
      "Ġseems": 3232,
      "Ġhappens": 3233,
      "Ġgets": 3234,
      "Ġenhance": 3235,
      "Ġappropriate": 3236,
      "overy": 3237,
      "ocol": 3238,
      "Ġattract": 3239,
      "Ġnews": 3240,
      "Ġsurround": 3241,
      "Ġfruit": 3242,
      "oe": 3243,
      "ĠWhy": 3244,
      "ĠUse": 3245,
      "hens": 3246,
      "Ġbird": 3247,
      "Ġprotection": 3248,
      "-e": 3249,
      "ĠAustral": 3250,
      "term": 3251,
      "Ġlimited": 3252,
      "itude": 3253,
      "rum": 3254,
      "ping": 3255,
      "Ġcommonly": 3256,
      "airs": 3257,
      "Ġmotor": 3258,
      "Ġsuff": 3259,
      "set": 3260,
      "Ġdirection": 3261,
      "Ġbag": 3262,
      "ĠMar": 3263,
      "ĠThen": 3264,
      "iable": 3265,
      "Ġdistance": 3266,
      "Ġmaintenance": 3267,
      "ĠAb": 3268,
      "eration": 3269,
      "ĠWorld": 3270,
      "cape": 3271,
      "ube": 3272,
      "odies": 3273,
      "Ġpage": 3274,
      "Ġimportance": 3275,
      "board": 3276,
      "rol": 3277,
      "Ġresistance": 3278,
      "Ġmental": 3279,
      "Ġrain": 3280,
      "onds": 3281,
      "27": 3282,
      "Ġnetwork": 3283,
      "uge": 3284,
      "cient": 3285,
      "Ġbecomes": 3286,
      "ĠResearch": 3287,
      "Ġstates": 3288,
      "mosp": 3289,
      "Ġremember": 3290,
      "Ġsigns": 3291,
      "Ġce": 3292,
      "ula": 3293,
      "Ġpretty": 3294,
      "Ġpen": 3295,
      "Ġoriginal": 3296,
      "Ġcenter": 3297,
      "Ġaccur": 3298,
      "28": 3299,
      "Ġpublished": 3300,
      "Ġevalu": 3301,
      "Ġcame": 3302,
      "26": 3303,
      "Ġfine": 3304,
      "Ġvacc": 3305,
      "Ġupon": 3306,
      "Ġther": 3307,
      "Ġgar": 3308,
      "Ġcooking": 3309,
      "\",": 3310,
      "Ġorigin": 3311,
      "Ġtail": 3312,
      "Ġobjects": 3313,
      "Ġvision": 3314,
      "45": 3315,
      "ologies": 3316,
      "Ġideas": 3317,
      "Ġult": 3318,
      "Ġproced": 3319,
      "Ġpick": 3320,
      "Ġreturn": 3321,
      "Ġarch": 3322,
      "wise": 3323,
      "Ġsave": 3324,
      "Ġcircuit": 3325,
      "yond": 3326,
      "asks": 3327,
      "Ġinfection": 3328,
      "Ġvary": 3329,
      "rops": 3330,
      "Ġdetect": 3331,
      "Ġrare": 3332,
      "Ġdisord": 3333,
      "Ġsoon": 3334,
      "Ġpractices": 3335,
      "Ġbaby": 3336,
      "Ġseed": 3337,
      "Ġelement": 3338,
      "Ġutil": 3339,
      "mission": 3340,
      "ony": 3341,
      "Ġelectrical": 3342,
      "wor": 3343,
      "Ġgrass": 3344,
      "Ġbottom": 3345,
      "Ġkn": 3346,
      "Ġmount": 3347,
      "Ġshap": 3348,
      "aly": 3349,
      "hol": 3350,
      "iate": 3351,
      "While": 3352,
      "Ġroot": 3353,
      "Ġvolt": 3354,
      "Ġlate": 3355,
      "Ġexcept": 3356,
      "Ġfavor": 3357,
      "Ġexcess": 3358,
      "Ġaccept": 3359,
      "He": 3360,
      "ĠChe": 3361,
      "Ġhost": 3362,
      "zz": 3363,
      "Ġcity": 3364,
      "Ġobtain": 3365,
      "ero": 3366,
      "more": 3367,
      "irt": 3368,
      "Ġexcell": 3369,
      "Ġgives": 3370,
      "ros": 3371,
      "Ġoxygen": 3372,
      "Ġpriv": 3373,
      "Ġrat": 3374,
      ".g": 3375,
      "ran": 3376,
      "32": 3377,
      "Ġwriting": 3378,
      "umin": 3379,
      "ĠPer": 3380,
      "Ġsustainable": 3381,
      "Ġready": 3382,
      "By": 3383,
      "Ġver": 3384,
      "vey": 3385,
      "ching": 3386,
      "Ġsection": 3387,
      "ields": 3388,
      "Ġlens": 3389,
      "Ġinvolves": 3390,
      "ĠReg": 3391,
      "hood": 3392,
      "ky": 3393,
      "mber": 3394,
      "Ġreducing": 3395,
      "ls": 3396,
      "With": 3397,
      "Ġfabric": 3398,
      "Ġimmune": 3399,
      "ulated": 3400,
      "Ġideal": 3401,
      "Ġcycle": 3402,
      "Ġbill": 3403,
      "Ġsolutions": 3404,
      "ogen": 3405,
      "enn": 3406,
      "Ġfile": 3407,
      "Ġaren": 3408,
      "rage": 3409,
      "Ġhearing": 3410,
      "Ġworth": 3411,
      "Ġthinking": 3412,
      "Ġtesting": 3413,
      "Ġresponsible": 3414,
      "cking": 3415,
      "Ġplatform": 3416,
      "Ġjo": 3417,
      "Ġgold": 3418,
      "Ġhope": 3419,
      "Ġantib": 3420,
      "ĠIntern": 3421,
      "isions": 3422,
      "Ġmanufacture": 3423,
      "Ġsuitable": 3424,
      "Ġrequirements": 3425,
      "These": 3426,
      "oud": 3427,
      "Ġexpress": 3428,
      "ĠSm": 3429,
      "lege": 3430,
      "Ġrock": 3431,
      "Ġlack": 3432,
      "Ġdisp": 3433,
      "Ġpull": 3434,
      "Ġvalu": 3435,
      "ixt": 3436,
      "Ġcleaning": 3437,
      "Ġstorage": 3438,
      "Ġstage": 3439,
      "At": 3440,
      "ball": 3441,
      "ĠAlso": 3442,
      "Ġsignificantly": 3443,
      "Ġensuring": 3444,
      "IC": 3445,
      "Ġimpl": 3446,
      "Ġprogress": 3447,
      "Ġboard": 3448,
      "Ġfinal": 3449,
      "Ġpow": 3450,
      "IT": 3451,
      "Ġlimit": 3452,
      "hold": 3453,
      "Ġsent": 3454,
      "ĠNow": 3455,
      "Ġrev": 3456,
      "ana": 3457,
      "Ġthr": 3458,
      "hel": 3459,
      "ĠOur": 3460,
      "Ġstarting": 3461,
      "Ġnothing": 3462,
      "ĠGe": 3463,
      "Ġrich": 3464,
      "ously": 3465,
      "den": 3466,
      "Ġbeautiful": 3467,
      "09": 3468,
      "Ġnutrients": 3469,
      "ifically": 3470,
      "Ġcommit": 3471,
      "Ġsevere": 3472,
      "rought": 3473,
      "Con": 3474,
      "âĢ¢": 3475,
      "empt": 3476,
      "ĠLet": 3477,
      "Ġfro": 3478,
      "Ġroll": 3479,
      "And": 3480,
      "Ġinvestig": 3481,
      "Ġconstruction": 3482,
      "Ġinfl": 3483,
      "Ġdri": 3484,
      "Ġweb": 3485,
      "char": 3486,
      "abetes": 3487,
      "08": 3488,
      "Ġiron": 3489,
      "Ġtook": 3490,
      "Ġpoor": 3491,
      "\".": 3492,
      "Ġspot": 3493,
      "Ġfactor": 3494,
      "Ġgames": 3495,
      "Ġatmosp": 3496,
      "Ġmiss": 3497,
      "inks": 3498,
      "Ġtechnique": 3499,
      "Ġadding": 3500,
      "Ġcommer": 3501,
      "Ġapplied": 3502,
      "Ġliquid": 3503,
      "Ġthird": 3504,
      ".com": 3505,
      "ibly": 3506,
      "Ġtransfer": 3507,
      "Ġingredients": 3508,
      "AL": 3509,
      "Ġjoint": 3510,
      "Ġep": 3511,
      "Ġreaction": 3512,
      "Ġpowerful": 3513,
      "iet": 3514,
      "ffect": 3515,
      "Ġoutd": 3516,
      "Ġtrack": 3517,
      "acing": 3518,
      "Ġled": 3519,
      "Ġmoment": 3520,
      "Ġnutrition": 3521,
      "Ġheavy": 3522,
      "Ġyellow": 3523,
      "Ġpattern": 3524,
      "They": 3525,
      "Ġfa": 3526,
      "ĠGl": 3527,
      "On": 3528,
      "ha": 3529,
      "Ġsetting": 3530,
      "pite": 3531,
      "05": 3532,
      "osystem": 3533,
      "Ġsalt": 3534,
      "Ġbroad": 3535,
      "inking": 3536,
      "Ġsmooth": 3537,
      "Ġfully": 3538,
      "craft": 3539,
      "Ġbehavi": 3540,
      "lands": 3541,
      "oun": 3542,
      "Ġplaces": 3543,
      "Ġdiam": 3544,
      "Ġcentury": 3545,
      "rehens": 3546,
      "Ġpromot": 3547,
      "Ġinteresting": 3548,
      "Ġswitch": 3549,
      "Ġbud": 3550,
      "Ġcurrently": 3551,
      "Ġpieces": 3552,
      "Ġconvers": 3553,
      "ĠĠĠĠ": 3554,
      "Ġdead": 3555,
      "Ġgraph": 3556,
      "standing": 3557,
      "ĠTheir": 3558,
      "ister": 3559,
      "Ġsituation": 3560,
      "Ġapply": 3561,
      "Ġrapid": 3562,
      "Ġfilm": 3563,
      "Ġwrong": 3564,
      "odes": 3565,
      "arr": 3566,
      "ĠRem": 3567,
      "hetic": 3568,
      "rew": 3569,
      "Ġconnected": 3570,
      "Ġ|": 3571,
      "Ġcausing": 3572,
      "Ġsecurity": 3573,
      "Ġowners": 3574,
      "ĠAc": 3575,
      "Ġdepend": 3576,
      "Ġsuccessful": 3577,
      "Ġimag": 3578,
      "Ġlocated": 3579,
      "Ġvegetables": 3580,
      "Ġexperiment": 3581,
      "arian": 3582,
      "Ġestim": 3583,
      "Ġfunctions": 3584,
      "apter": 3585,
      "Ġsex": 3586,
      "Ġagricult": 3587,
      "Ġfaster": 3588,
      "ĠOnce": 3589,
      "Ġnucle": 3590,
      "Ġwire": 3591,
      "mat": 3592,
      "Ġtox": 3593,
      "Ġinterf": 3594,
      "imens": 3595,
      "Ġdocument": 3596,
      "Ġfrequency": 3597,
      "Ġinsp": 3598,
      "Ġmuscle": 3599,
      "02": 3600,
      "Ġincorpor": 3601,
      "cular": 3602,
      "Ġocean": 3603,
      "amb": 3604,
      "ĠLear": 3605,
      "Ġwalk": 3606,
      "Ġgene": 3607,
      "ificial": 3608,
      "ok": 3609,
      "roll": 3610,
      "29": 3611,
      "Re": 3612,
      "Ġexactly": 3613,
      "pan": 3614,
      "Ġlat": 3615,
      "hether": 3616,
      "ashion": 3617,
      "ĠWho": 3618,
      "Ġanyone": 3619,
      "Ġcommercial": 3620,
      "Ġreve": 3621,
      "iction": 3622,
      "Ġvia": 3623,
      "Ġculture": 3624,
      "Ġdecision": 3625,
      "amed": 3626,
      "Ġbreed": 3627,
      "Ġexposure": 3628,
      "Ġbirth": 3629,
      "ened": 3630,
      "Ġoccurs": 3631,
      "Ġopportunity": 3632,
      "Im": 3633,
      "Ġcoming": 3634,
      "Ġstraight": 3635,
      "Ġcharge": 3636,
      "-term": 3637,
      "ĠArt": 3638,
      "Ġdescribed": 3639,
      "ancing": 3640,
      "ester": 3641,
      "ĠAdditionally": 3642,
      "Ġsolid": 3643,
      "pping": 3644,
      "Ġdemand": 3645,
      "duc": 3646,
      "Ġcapacity": 3647,
      "07": 3648,
      "estic": 3649,
      "Ġhorse": 3650,
      "Ġeffectively": 3651,
      "enge": 3652,
      "ĠAg": 3653,
      "ĠAir": 3654,
      "Ġscale": 3655,
      "Ġexcellent": 3656,
      "Ġsymbol": 3657,
      "Ġresid": 3658,
      "ĠTechn": 3659,
      "Ġprocessing": 3660,
      "ycl": 3661,
      "Ġstrategies": 3662,
      "Ġmoisture": 3663,
      "Ġliter": 3664,
      "ĠWater": 3665,
      "Ġexpert": 3666,
      "Ġnote": 3667,
      "ĠÂ": 3668,
      "Ġreceive": 3669,
      "Ġtank": 3670,
      "care": 3671,
      "Ġcombination": 3672,
      "Ġtissue": 3673,
      "ĠAct": 3674,
      "Ġswim": 3675,
      "roduction": 3676,
      "Ġtherefore": 3677,
      "oration": 3678,
      "OS": 3679,
      "itis": 3680,
      "Ġincluded": 3681,
      "Ġcars": 3682,
      "Ġclin": 3683,
      "omb": 3684,
      "ĠBecause": 3685,
      "Do": 3686,
      "Ġexamples": 3687,
      "Ġproperty": 3688,
      "ĠWest": 3689,
      "Ġtaste": 3690,
      "Ġreduced": 3691,
      "Ġ#": 3692,
      "Ġpump": 3693,
      "bor": 3694,
      "RE": 3695,
      "Ġmouth": 3696,
      "Ġshar": 3697,
      "erson": 3698,
      "Ġbecame": 3699,
      "Ġvoltage": 3700,
      "Ġtherapy": 3701,
      "ĠOver": 3702,
      "ĠOther": 3703,
      "Ġcloth": 3704,
      "Ġinches": 3705,
      "Ġcontribute": 3706,
      "Ġdrain": 3707,
      "Ġcontext": 3708,
      "Ġforward": 3709,
      "Ġtask": 3710,
      "Ġcollabor": 3711,
      "Ġintellig": 3712,
      "Ġroof": 3713,
      "Ġlooks": 3714,
      "ĠEm": 3715,
      "Ġund": 3716,
      "ada": 3717,
      "urt": 3718,
      "Ġthus": 3719,
      "erences": 3720,
      "my": 3721,
      "ĠSim": 3722,
      "Step": 3723,
      "ender": 3724,
      "right": 3725,
      "Ġwet": 3726,
      "Ġflex": 3727,
      "Ġjourney": 3728,
      "ĠEach": 3729,
      "Ġbutter": 3730,
      "Pl": 3731,
      "Ġwat": 3732,
      "Ġ...": 3733,
      "Ġpref": 3734,
      "Ġgradu": 3735,
      "ancial": 3736,
      "Ġdoctor": 3737,
      "cohol": 3738,
      "ĠSw": 3739,
      "Ġcamp": 3740,
      "avig": 3741,
      "Ġexperiences": 3742,
      "ĠDis": 3743,
      "Ġwrite": 3744,
      "Ġdetails": 3745,
      "Ġschools": 3746,
      "Ġbeyond": 3747,
      "Ġchance": 3748,
      "ober": 3749,
      "31": 3750,
      "Ġgiving": 3751,
      "ĠRed": 3752,
      "zy": 3753,
      "hest": 3754,
      "Ġâ": 3755,
      "orith": 3756,
      "ica": 3757,
      "ĠBrit": 3758,
      "Ġmob": 3759,
      "book": 3760,
      "anging": 3761,
      "Ġadvanced": 3762,
      "ĠTra": 3763,
      "xi": 3764,
      "36": 3765,
      "Ġpresence": 3766,
      "Ġkeeping": 3767,
      "met": 3768,
      "Now": 3769,
      "ĠJust": 3770,
      "Ġwin": 3771,
      "Ġbrown": 3772,
      "Ġfertil": 3773,
      "iar": 3774,
      "Ġtherm": 3775,
      "othes": 3776,
      "Ġstream": 3777,
      "off": 3778,
      "ided": 3779,
      "Ġextremely": 3780,
      "Ġeffort": 3781,
      "Ġbooks": 3782,
      "ĠRec": 3783,
      "Ġheight": 3784,
      "Ġtouch": 3785,
      "Ġalternative": 3786,
      "Ġpsych": 3787,
      "Ġsaw": 3788,
      "Ġpaint": 3789,
      "Ġupd": 3790,
      "ĠChrist": 3791,
      "ĠNOT": 3792,
      "Ġmiddle": 3793,
      "Ġgenes": 3794,
      "Ġexpected": 3795,
      "Ġmaximum": 3796,
      "olar": 3797,
      "lier": 3798,
      "izations": 3799,
      "Ġpregn": 3800,
      "Ġexpensive": 3801,
      "04": 3802,
      "Ġrecently": 3803,
      "uration": 3804,
      "</": 3805,
      "apan": 3806,
      "alt": 3807,
      "place": 3808,
      "Ġthous": 3809,
      "Ġagg": 3810,
      "Ġnative": 3811,
      "Ġcoast": 3812,
      "Ġparticles": 3813,
      "zing": 3814,
      "Ġhandle": 3815,
      "Ġelectricity": 3816,
      "ails": 3817,
      "Ġeth": 3818,
      "Ġsites": 3819,
      "Ġphotos": 3820,
      "Ġstructures": 3821,
      "ĠFl": 3822,
      "Ġfigure": 3823,
      "Ġalthough": 3824,
      "ĠMin": 3825,
      "Ġhuge": 3826,
      "Ġ:": 3827,
      "Ġconsumption": 3828,
      "iling": 3829,
      "rench": 3830,
      "iforn": 3831,
      "06": 3832,
      "haps": 3833,
      "Ġaqu": 3834,
      "ĠGerm": 3835,
      "abilities": 3836,
      "Ġolder": 3837,
      "Ġecosystem": 3838,
      "Ġmother": 3839,
      "ipl": 3840,
      "Ġnotice": 3841,
      "oman": 3842,
      "Ġproteins": 3843,
      "ĠState": 3844,
      "Ġfair": 3845,
      "Ġincreases": 3846,
      "Ġlost": 3847,
      "Ġtri": 3848,
      "Ġconservation": 3849,
      "tes": 3850,
      "Ġtasks": 3851,
      "pped": 3852,
      "Ġonto": 3853,
      "rick": 3854,
      "Ġsteel": 3855,
      "ĠEnglish": 3856,
      "Ġslightly": 3857,
      "ĠMake": 3858,
      "Ġnoise": 3859,
      "Ġaffected": 3860,
      "Ġtests": 3861,
      "Ġmotion": 3862,
      "Ġdifferences": 3863,
      "Ġmonit": 3864,
      "03": 3865,
      "Ġrelease": 3866,
      "Ġmut": 3867,
      "fish": 3868,
      "Ġdegrees": 3869,
      "ĠCenter": 3870,
      "Ġgoals": 3871,
      "Ġsynt": 3872,
      "Ġmedium": 3873,
      "Ġattempt": 3874,
      "Ġreported": 3875,
      "Un": 3876,
      "Some": 3877,
      "Ġlargest": 3878,
      "Ġcommunities": 3879,
      "ĠSystem": 3880,
      "ams": 3881,
      "uries": 3882,
      "Ġdiv": 3883,
      "ipes": 3884,
      "Ġsmart": 3885,
      "Ġremains": 3886,
      "Ġrelatively": 3887,
      "ban": 3888,
      "Ġchanging": 3889,
      "ĠJoh": 3890,
      "ĠEven": 3891,
      "Ġvolume": 3892,
      "Ġplaced": 3893,
      "enty": 3894,
      "Ġcharacteristics": 3895,
      "Ġversion": 3896,
      "Ġflavor": 3897,
      "hyd": 3898,
      "Ġmid": 3899,
      "Ġpicture": 3900,
      "can": 3901,
      "ifornia": 3902,
      "75": 3903,
      "Ġdepth": 3904,
      "Ġtrend": 3905,
      "Ġteachers": 3906,
      "Ġopportunities": 3907,
      "Ġplanet": 3908,
      "ĠGra": 3909,
      "Ġfemale": 3910,
      "Ġadults": 3911,
      "Ġvaluable": 3912,
      "Ġcutting": 3913,
      "AM": 3914,
      "Ġhyp": 3915,
      "Ġdiscovered": 3916,
      "inding": 3917,
      "Ġstim": 3918,
      "Ġcateg": 3919,
      "Ġcred": 3920,
      "gery": 3921,
      "Ġemissions": 3922,
      "Ġstri": 3923,
      "gram": 3924,
      "Ġhit": 3925,
      "cast": 3926,
      "Ġclim": 3927,
      "Ġbran": 3928,
      "Ġcomfortable": 3929,
      "cules": 3930,
      "Ġspect": 3931,
      "ĠAccording": 3932,
      "Ġdepends": 3933,
      "riend": 3934,
      "ĠIts": 3935,
      "Ġdriving": 3936,
      "bits": 3937,
      "Ġflat": 3938,
      "rates": 3939,
      "Ġmeasures": 3940,
      "rier": 3941,
      "Ġadop": 3942,
      "ĠGod": 3943,
      "Ġteaching": 3944,
      "Ġsnow": 3945,
      "Ġfilter": 3946,
      "Ġsounds": 3947,
      "Ġinstance": 3948,
      "Ġapprox": 3949,
      "Ġphone": 3950,
      "Ġexpand": 3951,
      "ĠHigh": 3952,
      "Ġsess": 3953,
      "Ġcomprehens": 3954,
      "dom": 3955,
      "ĠTw": 3956,
      "Ġindepend": 3957,
      "Ġtit": 3958,
      "Ġbone": 3959,
      "ĠQ": 3960,
      "Ġadvantage": 3961,
      "aught": 3962,
      "lebr": 3963,
      "Ġphase": 3964,
      "Ġconnection": 3965,
      "celer": 3966,
      "ĠFirst": 3967,
      "Ġmag": 3968,
      "urally": 3969,
      "Ġtechnologies": 3970,
      "Ġfluid": 3971,
      "rim": 3972,
      "-y": 3973,
      "Ġdat": 3974,
      "Ġround": 3975,
      "Ġvirt": 3976,
      "Ġstuff": 3977,
      "\":": 3978,
      "Ġalgorith": 3979,
      "Res": 3980,
      "Ġalone": 3981,
      "crete": 3982,
      "ĠAut": 3983,
      "Ġresulting": 3984,
      "Ã©": 3985,
      "Ġast": 3986,
      "raction": 3987,
      "pre": 3988,
      "ĠBi": 3989,
      "Ġmanage": 3990,
      "ĠMod": 3991,
      "Ġprofession": 3992,
      "oors": 3993,
      "Ġbow": 3994,
      "ĠAlthough": 3995,
      "onic": 3996,
      "eed": 3997,
      "Ġdistinct": 3998,
      "Ġtrig": 3999,
      "Ġflight": 4000,
      "ĠIndia": 4001,
      "Ġsold": 4002,
      "Ġnit": 4003,
      "know": 4004,
      "Ġdeb": 4005,
      "Ġefforts": 4006,
      "Ġachie": 4007,
      "vity": 4008,
      "house": 4009,
      "ses": 4010,
      "Ġbackground": 4011,
      "Ġpopulations": 4012,
      "Ġtrou": 4013,
      "Ġkill": 4014,
      "ternal": 4015,
      "ĠRep": 4016,
      "ogs": 4017,
      "Ġwent": 4018,
      "Ġstar": 4019,
      "wers": 4020,
      "Ġaspects": 4021,
      "unction": 4022,
      "Ġinsects": 4023,
      "Ġlabor": 4024,
      "Ġrules": 4025,
      "Ġder": 4026,
      "Ġbright": 4027,
      "Ġinfluence": 4028,
      "Ġroots": 4029,
      "Ġhistor": 4030,
      "EM": 4031,
      "semb": 4032,
      "ĠPart": 4033,
      "Ġdiabetes": 4034,
      "Ġbegan": 4035,
      "Ġfinancial": 4036,
      "uild": 4037,
      "Ġfeeling": 4038,
      "Ġrecycl": 4039,
      "Ġevol": 4040,
      "Ġsweet": 4041,
      "-up": 4042,
      "ET": 4043,
      "Ġexisting": 4044,
      "bing": 4045,
      "Ġrates": 4046,
      "Ġcomponent": 4047,
      "ĠJapan": 4048,
      "ĠCalifornia": 4049,
      "Ġspir": 4050,
      "99": 4051,
      "Ġattack": 4052,
      "resp": 4053,
      "PS": 4054,
      "Ġpool": 4055,
      "ãģ": 4056,
      "oom": 4057,
      "Ġrespond": 4058,
      "Ġmale": 4059,
      "Ġequal": 4060,
      "Ġsurpr": 4061,
      "Ġdate": 4062,
      "ken": 4063,
      "ogle": 4064,
      "Ġplanning": 4065,
      "Here": 4066,
      "xiety": 4067,
      "iments": 4068,
      "Ġwritten": 4069,
      "undred": 4070,
      "ĠPhot": 4071,
      "ype": 4072,
      "Ġdynam": 4073,
      "Ġactual": 4074,
      "ups": 4075,
      "Ġhear": 4076,
      "Ġwonder": 4077,
      "Ġpush": 4078,
      "encies": 4079,
      "alle": 4080,
      "Ġserve": 4081,
      "Ġtooth": 4082,
      "ressive": 4083,
      "Ġdoor": 4084,
      "ĠServ": 4085,
      "Ġchallenge": 4086,
      "ille": 4087,
      "Ġmaintaining": 4088,
      "Ġformed": 4089,
      "urance": 4090,
      "Ġfight": 4091,
      "que": 4092,
      "Ġappearance": 4093,
      "ĠDon": 4094,
      "izer": 4095,
      "Ġdegree": 4096,
      "ocal": 4097,
      "ĠInstitute": 4098,
      "Ġded": 4099,
      "Ġcore": 4100,
      "Ġclos": 4101,
      "ĠTH": 4102,
      "chen": 4103,
      "key": 4104,
      "ĠSince": 4105,
      "Ġrub": 4106,
      "che": 4107,
      "Ġregions": 4108,
      "Ġfinding": 4109,
      "ĠSpe": 4110,
      "Ġcentral": 4111,
      "Ġbeginning": 4112,
      "Ġrise": 4113,
      "Ġchann": 4114,
      "Ġcollection": 4115,
      "Ġpric": 4116,
      "rows": 4117,
      "ST": 4118,
      "Ġimmediately": 4119,
      "Ġspecifically": 4120,
      "Ġallowed": 4121,
      "Ġsample": 4122,
      "AD": 4123,
      "oice": 4124,
      "ĠPar": 4125,
      "Ġseparate": 4126,
      "Ġinstructions": 4127,
      "flow": 4128,
      "ĠRead": 4129,
      "Ġmatch": 4130,
      "Ġtrust": 4131,
      "hop": 4132,
      "Ġhighlight": 4133,
      "Ġfurn": 4134,
      "Ġhabitat": 4135,
      "Ġfloor": 4136,
      "iant": 4137,
      "fess": 4138,
      "ying": 4139,
      "Ġwave": 4140,
      "Ġnational": 4141,
      "Ġconsult": 4142,
      "However": 4143,
      "Ġfashion": 4144,
      "ads": 4145,
      "Ġillust": 4146,
      "Ġsort": 4147,
      "Ġcustomers": 4148,
      "Ġscen": 4149,
      "Ġparam": 4150,
      "Ġdiscover": 4151,
      "IG": 4152,
      "Ġcovered": 4153,
      "Ġregularly": 4154,
      "Ġaccurate": 4155,
      "uce": 4156,
      "agram": 4157,
      "Ġrepe": 4158,
      "Ġoperation": 4159,
      "aled": 4160,
      "Ġbound": 4161,
      "Ġlights": 4162,
      "Ġasked": 4163,
      "Ġfoss": 4164,
      "inally": 4165,
      "Ġestablish": 4166,
      "oly": 4167,
      "Ġplease": 4168,
      "Ġinternal": 4169,
      "abol": 4170,
      "Ġfly": 4171,
      "Ġalcohol": 4172,
      "rupt": 4173,
      "Ġfamilies": 4174,
      "ollow": 4175,
      "Ġtax": 4176,
      "Ġcompar": 4177,
      "Ġspend": 4178,
      "Ġchicken": 4179,
      "Ġelectron": 4180,
      "33": 4181,
      "Ġcalc": 4182,
      "gs": 4183,
      "iverse": 4184,
      "cription": 4185,
      "Ġqual": 4186,
      "Ġwel": 4187,
      "ĠTherefore": 4188,
      "Ġselection": 4189,
      "Ġcomplic": 4190,
      "Ġpets": 4191,
      "Ġvital": 4192,
      "ibrary": 4193,
      "Ġdish": 4194,
      "Ġnearly": 4195,
      "used": 4196,
      "Ġhelping": 4197,
      "Ġphen": 4198,
      "Ġpromote": 4199,
      "Ġcouple": 4200,
      "ĠTrans": 4201,
      "Ġmolecules": 4202,
      "Ġpig": 4203,
      "-like": 4204,
      "Ġrisks": 4205,
      "ĠSec": 4206,
      "Ġbasis": 4207,
      "inger": 4208,
      "eters": 4209,
      "mar": 4210,
      "bl": 4211,
      "pen": 4212,
      "orial": 4213,
      "ilit": 4214,
      "icks": 4215,
      "Ġdistribution": 4216,
      "Ġelimin": 4217,
      "minist": 4218,
      "EC": 4219,
      "Ġarm": 4220,
      "ashing": 4221,
      "inder": 4222,
      "itect": 4223,
      "Ġhour": 4224,
      "ications": 4225,
      "na": 4226,
      "Ġnavig": 4227,
      "Ġ*": 4228,
      "Ġconver": 4229,
      "Ġstandards": 4230,
      "ief": 4231,
      "vention": 4232,
      "Ġcounter": 4233,
      "Ġpal": 4234,
      "Ġenter": 4235,
      "ĠMon": 4236,
      "Ġstem": 4237,
      "Ph": 4238,
      "ux": 4239,
      "azing": 4240,
      "Ġsuggests": 4241,
      "Ġstaff": 4242,
      "uary": 4243,
      "ishing": 4244,
      "ĠUsing": 4245,
      "equ": 4246,
      "Ġtiny": 4247,
      "Ġapprec": 4248,
      "ĠAnt": 4249,
      "...Ċ": 4250,
      "Ġgeneration": 4251,
      "ulating": 4252,
      "Ġvent": 4253,
      "Ġmiles": 4254,
      "Ġdie": 4255,
      "Ġfrequently": 4256,
      "Ġelectro": 4257,
      "Ġstru": 4258,
      "Ġtopic": 4259,
      "related": 4260,
      ".e": 4261,
      "Ġmel": 4262,
      "Ġfeeding": 4263,
      "ĠFood": 4264,
      "Ġatmosphere": 4265,
      "Ġlearned": 4266,
      "Ġdivers": 4267,
      "ios": 4268,
      "Ġweak": 4269,
      "bed": 4270,
      "Ġshel": 4271,
      "Ġmember": 4272,
      "Ġju": 4273,
      "Ġveter": 4274,
      "Ġeconomic": 4275,
      "Ġdrawing": 4276,
      "Ġbecoming": 4277,
      "ĠAfrica": 4278,
      "Ġcontract": 4279,
      "Ġwanted": 4280,
      "-be": 4281,
      "Ġhappy": 4282,
      "aser": 4283,
      "Ġpractical": 4284,
      "iol": 4285,
      "elines": 4286,
      "Ġexhib": 4287,
      "ipped": 4288,
      "II": 4289,
      "Ġplayers": 4290,
      "Ġlov": 4291,
      "ixture": 4292,
      "Ġstick": 4293,
      "ira": 4294,
      "Ġrobot": 4295,
      "ament": 4296,
      "Ġfill": 4297,
      "Ġdin": 4298,
      "ares": 4299,
      "Ġobserved": 4300,
      "ĠUnder": 4301,
      "Ġbodies": 4302,
      "Ġmarine": 4303,
      "Ġgenerate": 4304,
      "Ġplaying": 4305,
      "Ġcustomer": 4306,
      "ĠYork": 4307,
      "icated": 4308,
      "oma": 4309,
      "Ġchemicals": 4310,
      "Ġhundred": 4311,
      "Ġcelebr": 4312,
      "Ġmis": 4313,
      "Ġinfections": 4314,
      "Ġneut": 4315,
      "Ġframe": 4316,
      "Ġidentified": 4317,
      "Ġspl": 4318,
      "Ġimproved": 4319,
      "ĠWar": 4320,
      "Ġadvice": 4321,
      "ĠCount": 4322,
      "Ġrid": 4323,
      "Ġinternational": 4324,
      "eties": 4325,
      "ION": 4326,
      "Ġign": 4327,
      "All": 4328,
      "-qu": 4329,
      "Ġinterested": 4330,
      "Ġregarding": 4331,
      "Ġfavorite": 4332,
      "Ġwildlife": 4333,
      "uth": 4334,
      "ĠUK": 4335,
      "atural": 4336,
      "Ġexperienced": 4337,
      "wood": 4338,
      "ĠDepartment": 4339,
      "Ġsociety": 4340,
      "Ġpredict": 4341,
      "âĢĻt": 4342,
      "ped": 4343,
      "Ġanti": 4344,
      "ING": 4345,
      "Ġhomes": 4346,
      "Ġsche": 4347,
      "Us": 4348,
      "Ġleaders": 4349,
      "umn": 4350,
      "Ġleaf": 4351,
      "Ġpotentially": 4352,
      "95": 4353,
      "Ġfruits": 4354,
      "Ġdangerous": 4355,
      "ĠSu": 4356,
      "Ġwindow": 4357,
      "ums": 4358,
      "Ġmuscles": 4359,
      "alse": 4360,
      "Ġcryst": 4361,
      "Ġlighting": 4362,
      "Ġfed": 4363,
      "Ġfields": 4364,
      "Ġnan": 4365,
      "Ġedge": 4366,
      "Ġadvance": 4367,
      "oday": 4368,
      "unk": 4369,
      "Ġinflamm": 4370,
      "Ġchanged": 4371,
      "Ġlose": 4372,
      "Ġfear": 4373,
      "Ġmig": 4374,
      "ĠEduc": 4375,
      "-free": 4376,
      "cil": 4377,
      "Ġgear": 4378,
      "That": 4379,
      "ublic": 4380,
      "Ġdouble": 4381,
      "oxide": 4382,
      "Ġsatis": 4383,
      "Ġrepair": 4384,
      "Ġdiverse": 4385,
      "Ġkid": 4386,
      "vironments": 4387,
      "Ġaudio": 4388,
      "Des": 4389,
      "Ġhelpful": 4390,
      "Ġbond": 4391,
      "Ab": 4392,
      "atically": 4393,
      "Ġworked": 4394,
      "Ġamounts": 4395,
      "Ġacceler": 4396,
      "Ġhosp": 4397,
      "Ġlayers": 4398,
      "eline": 4399,
      "My": 4400,
      "Ġsav": 4401,
      "Ġod": 4402,
      "Ġdura": 4403,
      "ource": 4404,
      "Ġnumerous": 4405,
      "ifying": 4406,
      "Ġsecure": 4407,
      "ius": 4408,
      "ĠDay": 4409,
      "org": 4410,
      "No": 4411,
      "Ġorganization": 4412,
      "Ġmold": 4413,
      "time": 4414,
      "Ġradio": 4415,
      "Ġpair": 4416,
      "Ġremoved": 4417,
      "Ġcreative": 4418,
      "ees": 4419,
      "Ġconsequ": 4420,
      "formation": 4421,
      "Our": 4422,
      "Ġvehicles": 4423,
      "ĠEd": 4424,
      "Ġteach": 4425,
      "Ġchain": 4426,
      "mm": 4427,
      "Ġallerg": 4428,
      "ĠAustralia": 4429,
      "Ġmaybe": 4430,
      "Ġmist": 4431,
      "riendly": 4432,
      "ech": 4433,
      "Ġdrop": 4434,
      "iter": 4435,
      "ded": 4436,
      "Ġreality": 4437,
      "olute": 4438,
      "ĠDi": 4439,
      "Ġtrain": 4440,
      "icking": 4441,
      "Ġhealthcare": 4442,
      "ĠSte": 4443,
      "pril": 4444,
      "imal": 4445,
      "rome": 4446,
      "After": 4447,
      "osite": 4448,
      "outhern": 4449,
      "known": 4450,
      "ĠEvery": 4451,
      "Ġanxiety": 4452,
      "ager": 4453,
      "ulf": 4454,
      "Ġemp": 4455,
      "icious": 4456,
      "Ġharvest": 4457,
      "Ġestablished": 4458,
      "Ġcand": 4459,
      "Ġencourage": 4460,
      "Ġexec": 4461,
      "Ġconcerns": 4462,
      "||": 4463,
      "ĠJu": 4464,
      "Ġheld": 4465,
      "Ġsurgery": 4466,
      "Ġreference": 4467,
      "Ġthor": 4468,
      "Ġpolit": 4469,
      "ffee": 4470,
      "ceed": 4471,
      "iers": 4472,
      "Ġdefined": 4473,
      "Ar": 4474,
      "Ġsimpl": 4475,
      "Ġresource": 4476,
      "Ġrelax": 4477,
      "orthern": 4478,
      "ĠJan": 4479,
      "Ġapproximately": 4480,
      "Ġgrown": 4481,
      "ript": 4482,
      "Ġartificial": 4483,
      "Ġbath": 4484,
      "-C": 4485,
      "Ġboost": 4486,
      "Ġdesired": 4487,
      "Ġsell": 4488,
      "Ġpollution": 4489,
      "Ġsignals": 4490,
      "Ġblog": 4491,
      "Ġlandscape": 4492,
      "Ġcomprehensive": 4493,
      "ny": 4494,
      "Ġsports": 4495,
      "idity": 4496,
      "Ġenvironments": 4497,
      "iveness": 4498,
      "/or": 4499,
      "omy": 4500,
      "Ġteacher": 4501,
      "ĠWhether": 4502,
      "Ġpul": 4503,
      "ĠCle": 4504,
      "phas": 4505,
      "Ġoperations": 4506,
      "Ġreceived": 4507,
      "ought": 4508,
      "ĠDuring": 4509,
      "rans": 4510,
      "Ġpupp": 4511,
      "Ġbusinesses": 4512,
      "Ġsod": 4513,
      "Ġmostly": 4514,
      "wide": 4515,
      "Ġlots": 4516,
      "Ġburn": 4517,
      "Ġbreast": 4518,
      "ĠCom": 4519,
      "ĠPC": 4520,
      "Ġdecisions": 4521,
      "Ġshowed": 4522,
      "Ġsurfaces": 4523,
      "iples": 4524,
      "42": 4525,
      "Ġtold": 4526,
      ".)": 4527,
      "erals": 4528,
      "ĠWell": 4529,
      "uting": 4530,
      "ĠChina": 4531,
      "Ġconstruct": 4532,
      "Ġhorm": 4533,
      "ndom": 4534,
      "Ġheating": 4535,
      "Ġflav": 4536,
      "Ġroutine": 4537,
      "pective": 4538,
      "?\"": 4539,
      "Ġatom": 4540,
      "Ġencourag": 4541,
      "ste": 4542,
      "ĠBar": 4543,
      "Another": 4544,
      "oughly": 4545,
      "atever": 4546,
      "65": 4547,
      "AP": 4548,
      "Ġsettings": 4549,
      "ĠGreen": 4550,
      "Ġbeneficial": 4551,
      "Ġengineering": 4552,
      "isp": 4553,
      "Ġple": 4554,
      "Ġhighest": 4555,
      "erate": 4556,
      "Ġtour": 4557,
      "irect": 4558,
      "Ġplans": 4559,
      "Ġphoto": 4560,
      "Ke": 4561,
      "Ġraw": 4562,
      "-le": 4563,
      "Int": 4564,
      "Ġunits": 4565,
      "ida": 4566,
      "Ġsquare": 4567,
      "Ġaircraft": 4568,
      "bre": 4569,
      "Ġindustrial": 4570,
      "cious": 4571,
      "force": 4572,
      "Ġconcrete": 4573,
      "iced": 4574,
      "ĠAv": 4575,
      "Ġancient": 4576,
      "Ġheard": 4577,
      "word": 4578,
      "Ġexperts": 4579,
      "Ġwidely": 4580,
      "ĠDoes": 4581,
      "Ġtalking": 4582,
      "Ġdental": 4583,
      "asting": 4584,
      "34": 4585,
      "-year": 4586,
      "Ġoccas": 4587,
      "Ġassign": 4588,
      "ĠâĢ¢": 4589,
      "Ġearlier": 4590,
      "Ġmeal": 4591,
      "Ġten": 4592,
      "ĠWill": 4593,
      "Ġinjury": 4594,
      "48": 4595,
      "uman": 4596,
      "Ġdiss": 4597,
      "Ġtypical": 4598,
      "55": 4599,
      "Ġstarts": 4600,
      "ĠPark": 4601,
      "Ġprimarily": 4602,
      "Ġdro": 4603,
      "iences": 4604,
      "Ġshop": 4605,
      "Ġdesigns": 4606,
      "-sh": 4607,
      "roup": 4608,
      "Ġcontrast": 4609,
      "Ġexposed": 4610,
      "-re": 4611,
      "Ġsem": 4612,
      "Ġupper": 4613,
      "ĠElect": 4614,
      "Ġsaying": 4615,
      "Ġharmful": 4616,
      "Ġsensor": 4617,
      "Ġrelationships": 4618,
      "ĠBra": 4619,
      "ĠSur": 4620,
      "ĠChar": 4621,
      "Ġreleased": 4622,
      "ĠAC": 4623,
      "Ġhydro": 4624,
      "med": 4625,
      "Ġangle": 4626,
      "Ġclick": 4627,
      "Ġplate": 4628,
      "Ġillness": 4629,
      "con": 4630,
      "Ġmachines": 4631,
      "rating": 4632,
      "Ġclasses": 4633,
      "ocolate": 4634,
      "38": 4635,
      "cers": 4636,
      "Ġlegal": 4637,
      "works": 4638,
      "Ġtexture": 4639,
      "Ġflower": 4640,
      "OU": 4641,
      "Ġnamed": 4642,
      "Ġprepared": 4643,
      "Ġvess": 4644,
      "ĠOct": 4645,
      "allow": 4646,
      "estyle": 4647,
      "Ġemotional": 4648,
      "Ġtoxic": 4649,
      "Ġneigh": 4650,
      "ĠAug": 4651,
      "orses": 4652,
      "Ġnaturally": 4653,
      "Ġdrugs": 4654,
      "hyl": 4655,
      "Ġplays": 4656,
      "ĠEl": 4657,
      "Ġmit": 4658,
      "==": 4659,
      "Ġobvious": 4660,
      "ĠKeep": 4661,
      "lev": 4662,
      "________": 4663,
      "body": 4664,
      "Se": 4665,
      "Ġcultural": 4666,
      "ĠFr": 4667,
      "Ġeventually": 4668,
      "Ġrice": 4669,
      "Ġorganisms": 4670,
      "Ġshell": 4671,
      "ĠEnvironment": 4672,
      "Ġleads": 4673,
      "Ġnest": 4674,
      "Ġassum": 4675,
      "Ġfindings": 4676,
      "Ġtransl": 4677,
      "Ġfung": 4678,
      "kin": 4679,
      "Ġthread": 4680,
      "itely": 4681,
      "Ġwalls": 4682,
      "Ġwaves": 4683,
      "Ġmamm": 4684,
      "ordin": 4685,
      "Ġmorning": 4686,
      "Ġhom": 4687,
      "Ġstrategy": 4688,
      "-r": 4689,
      "Ġconc": 4690,
      "Ġrelevant": 4691,
      "Ġdra": 4692,
      "Ġchrom": 4693,
      "Ġstre": 4694,
      "ipping": 4695,
      "ek": 4696,
      "Ġpolicy": 4697,
      "Ġrule": 4698,
      "Ġlatest": 4699,
      "Ġuns": 4700,
      "Ġmaster": 4701,
      "Ġord": 4702,
      "Ġdetailed": 4703,
      "Ġadvantages": 4704,
      "yd": 4705,
      "Ġnice": 4706,
      "Ġcolour": 4707,
      "Ġpurchase": 4708,
      "Ġtoward": 4709,
      "Ġconven": 4710,
      "olid": 4711,
      "Ġfollowed": 4712,
      "Ġquantum": 4713,
      "Ġisol": 4714,
      "Ġtreated": 4715,
      "Ġsets": 4716,
      "Ġtransmission": 4717,
      "Ġsamples": 4718,
      "ta": 4719,
      "itary": 4720,
      "umber": 4721,
      "Ġprofessionals": 4722,
      "roduct": 4723,
      "ĠEuropean": 4724,
      "Ġcert": 4725,
      "Ġwheel": 4726,
      "Ġofficial": 4727,
      "rant": 4728,
      "aid": 4729,
      "Ġoffice": 4730,
      "Ġrandom": 4731,
      "Ġsty": 4732,
      "za": 4733,
      "ĠBo": 4734,
      "ologist": 4735,
      "hemat": 4736,
      "which": 4737,
      "Ġcarefully": 4738,
      "Ġfishing": 4739,
      "Ġkitchen": 4740,
      "Ġhous": 4741,
      "Ġoperating": 4742,
      "Ġbrush": 4743,
      "Ġexternal": 4744,
      "Ġ\\": 4745,
      "ĠProgram": 4746,
      "Ġcup": 4747,
      "Ġactions": 4748,
      "Ġstrugg": 4749,
      "Ġalign": 4750,
      "Ġband": 4751,
      "Ġratio": 4752,
      "brid": 4753,
      "urrent": 4754,
      "Ġapart": 4755,
      "Ġsituations": 4756,
      "Ġthousands": 4757,
      "ptember": 4758,
      "ĠFrench": 4759,
      "Ġtreatments": 4760,
      "Ġmixture": 4761,
      "add": 4762,
      "Ġindicate": 4763,
      "Ġstored": 4764,
      "37": 4765,
      "ĠÎ": 4766,
      "oul": 4767,
      "Bl": 4768,
      "ĠST": 4769,
      "Ġextract": 4770,
      "cap": 4771,
      "Ġintroduced": 4772,
      "Ġhon": 4773,
      "Ġappears": 4774,
      "Ġafford": 4775,
      "ĠChild": 4776,
      "Ġstories": 4777,
      "och": 4778,
      "ĠPres": 4779,
      "Ġarchitect": 4780,
      "Ġax": 4781,
      "ĠCanada": 4782,
      "Ġbeauty": 4783,
      "Ġcraft": 4784,
      "Ġreliable": 4785,
      "Ġdream": 4786,
      "-quality": 4787,
      "Ġacqu": 4788,
      "Ġorganizations": 4789,
      "Ġbike": 4790,
      "osa": 4791,
      "clus": 4792,
      "ico": 4793,
      "Ġmac": 4794,
      "Ġsunlight": 4795,
      "Ġconsistent": 4796,
      "Ġstret": 4797,
      "Are": 4798,
      "Ġmanufacturing": 4799,
      "Ġmedicine": 4800,
      "Ġmagnetic": 4801,
      "].": 4802,
      "Ġelev": 4803,
      "isher": 4804,
      "Ġchoosing": 4805,
      "Ġfarmers": 4806,
      "Ġbot": 4807,
      "Ġdetermined": 4808,
      "Ġdigest": 4809,
      "Ġbat": 4810,
      "Ġplanting": 4811,
      "yn": 4812,
      "Ġflo": 4813,
      "Ġincred": 4814,
      "Ġoptimal": 4815,
      "Ġlegs": 4816,
      "Ġcheese": 4817,
      "lines": 4818,
      "Ġbrought": 4819,
      "Answer": 4820,
      "wing": 4821,
      "Ġmode": 4822,
      "ĠGet": 4823,
      "Ġexpression": 4824,
      "Ġbatteries": 4825,
      "Ġhaz": 4826,
      "ued": 4827,
      "ĠClass": 4828,
      "Ġelectronic": 4829,
      "acking": 4830,
      "Ġemail": 4831,
      "Ġvibr": 4832,
      "change": 4833,
      "ĠAN": 4834,
      "Ġmonitoring": 4835,
      "ishes": 4836,
      "Ġprepare": 4837,
      "Ġdescribe": 4838,
      "Ġchoices": 4839,
      "Ġmessage": 4840,
      "Ġshoot": 4841,
      "Ġstone": 4842,
      "ĠJune": 4843,
      "Ġprivate": 4844,
      "Ġtall": 4845,
      "Ġiniti": 4846,
      "Ġcorresp": 4847,
      "Ġcream": 4848,
      "Ġprecise": 4849,
      "ĠHar": 4850,
      "Ġsect": 4851,
      "Ġreduction": 4852,
      "icip": 4853,
      "Ġperformed": 4854,
      "ĠGoogle": 4855,
      "ructure": 4856,
      "asts": 4857,
      "ĠRiver": 4858,
      "Ġemphas": 4859,
      "Ġtransmit": 4860,
      "Ġdrink": 4861,
      "Your": 4862,
      "Ġbreeding": 4863,
      "Ġmainly": 4864,
      "Ġbiological": 4865,
      "ighter": 4866,
      "Most": 4867,
      "Ġkept": 4868,
      "Ġcombined": 4869,
      "-being": 4870,
      "eper": 4871,
      "Ġhydrogen": 4872,
      "ĠBritish": 4873,
      "ĠCor": 4874,
      "Ġmembr": 4875,
      "Ġbillion": 4876,
      "Ġoutdoor": 4877,
      "ĠBlack": 4878,
      "Ġvitamin": 4879,
      "ĠHer": 4880,
      "Ġhole": 4881,
      "ĠOut": 4882,
      "ĠIndian": 4883,
      "39": 4884,
      "Ġformation": 4885,
      "print": 4886,
      "Ġbutton": 4887,
      "Ġimpacts": 4888,
      "erent": 4889,
      "ĠIns": 4890,
      "Ġdeliver": 4891,
      "ometimes": 4892,
      "ologists": 4893,
      "Ġmetabol": 4894,
      "Ġdensity": 4895,
      "unity": 4896,
      "Ġcoffee": 4897,
      "Ġensures": 4898,
      "bal": 4899,
      "Ġvs": 4900,
      "rot": 4901,
      "Ġ)": 4902,
      "Ġcrops": 4903,
      "Ġstatus": 4904,
      "Ġcit": 4905,
      "Yes": 4906,
      "Ġantibiot": 4907,
      "hab": 4908,
      "uk": 4909,
      "44": 4910,
      "Ġoffering": 4911,
      "Ġconcentration": 4912,
      "iration": 4913,
      "see": 4914,
      "ĠMarch": 4915,
      "Ġpartners": 4916,
      "ĠVal": 4917,
      "Ġcreates": 4918,
      "Ġforces": 4919,
      "Ġfiber": 4920,
      "Ġawareness": 4921,
      "Ġshapes": 4922,
      "Ġintelligence": 4923,
      "Ġdu": 4924,
      "osph": 4925,
      "iture": 4926,
      "Ġturned": 4927,
      "Ġcontainer": 4928,
      "Ġshared": 4929,
      "Ġcompost": 4930,
      "ĠApril": 4931,
      "Ġstock": 4932,
      "ropical": 4933,
      "Ġcoat": 4934,
      "Ġgrade": 4935,
      "Ġminimum": 4936,
      "Ġlic": 4937,
      "Ġmeasured": 4938,
      "with": 4939,
      "anges": 4940,
      "Ġamazing": 4941,
      "Ġeducational": 4942,
      "uments": 4943,
      "Ġsizes": 4944,
      "ĠAny": 4945,
      "-friendly": 4946,
      "Ġinvolve": 4947,
      "ctors": 4948,
      "Ġchallenging": 4949,
      "Ġwest": 4950,
      "ressed": 4951,
      "ĠAssoci": 4952,
      "Ġmic": 4953,
      "Ġwait": 4954,
      "Ġdust": 4955,
      "Ġpictures": 4956,
      "part": 4957,
      "Ġprocedure": 4958,
      "ĠDevelop": 4959,
      "Ġsmell": 4960,
      "SA": 4961,
      "Ġimproving": 4962,
      "Ġsyn": 4963,
      "Ġacad": 4964,
      "Ġkinds": 4965,
      "zen": 4966,
      "Ġfasc": 4967,
      "aming": 4968,
      "Ġvert": 4969,
      "ĠJohn": 4970,
      "lets": 4971,
      "hesis": 4972,
      "41": 4973,
      "mary": 4974,
      "Ġpotat": 4975,
      "antic": 4976,
      "ception": 4977,
      "Ġshowing": 4978,
      "Ġble": 4979,
      "ĠHis": 4980,
      "Ġlaws": 4981,
      "ĠPeople": 4982,
      "inating": 4983,
      "chers": 4984,
      "-time": 4985,
      "Ġsensitive": 4986,
      "EL": 4987,
      "Ġplayer": 4988,
      "Ġlabel": 4989,
      "porary": 4990,
      "Ġopin": 4991,
      "weight": 4992,
      "RO": 4993,
      "Ġconclusion": 4994,
      "Ġfocused": 4995,
      "Once": 4996,
      "rote": 4997,
      "Ġzero": 4998,
      "Ġassemb": 4999,
      "Ġmonitor": 5000,
      "Ġrenew": 5001,
      "orms": 5002,
      "Ġmobile": 5003,
      "Ġcapable": 5004,
      "Ġtruly": 5005,
      "Ġworry": 5006,
      "ĠGreat": 5007,
      "ĠInternational": 5008,
      "Ġfold": 5009,
      "Ġtransition": 5010,
      "rations": 5011,
      "ĠHist": 5012,
      "Ġphotograph": 5013,
      "Ġperhaps": 5014,
      "crib": 5015,
      "Ġsurrounding": 5016,
      "idth": 5017,
      "Ġbones": 5018,
      "Ġplenty": 5019,
      "Ġspin": 5020,
      "ĠInter": 5021,
      "igen": 5022,
      "Ġjournal": 5023,
      "tered": 5024,
      "En": 5025,
      "hus": 5026,
      "lies": 5027,
      "VID": 5028,
      "Ġeight": 5029,
      "ivil": 5030,
      "Ġcontinues": 5031,
      "Ġtub": 5032,
      "Ġfrag": 5033,
      "ĠBoth": 5034,
      "Ġpil": 5035,
      "ii": 5036,
      "Ġcatch": 5037,
      "Ġwhose": 5038,
      "Ġtun": 5039,
      "active": 5040,
      "ĠProfess": 5041,
      "ials": 5042,
      "Ġcreation": 5043,
      "ĠLike": 5044,
      "Ġreactions": 5045,
      "Ġfle": 5046,
      "Ġpurposes": 5047,
      "Ġmajority": 5048,
      "Ġprinting": 5049,
      "rest": 5050,
      "ye": 5051,
      "Ġgir": 5052,
      "hemical": 5053,
      "requ": 5054,
      "umps": 5055,
      "CO": 5056,
      "arant": 5057,
      "Ġleaving": 5058,
      "Ġabsolute": 5059,
      "ĠPlan": 5060,
      "Ġnames": 5061,
      "Ġcrop": 5062,
      "Ġwaters": 5063,
      "ras": 5064,
      "ingu": 5065,
      "ava": 5066,
      "!!": 5067,
      "Ġaffects": 5068,
      "Ġbees": 5069,
      "ĠUp": 5070,
      "ĠLED": 5071,
      "ĠDesign": 5072,
      "85": 5073,
      "):": 5074,
      "Ġfailure": 5075,
      "Ġpreviously": 5076,
      "otic": 5077,
      "Ġerror": 5078,
      "Ġmild": 5079,
      "Ġestimated": 5080,
      "Ġcomposition": 5081,
      "osen": 5082,
      "-S": 5083,
      "Ġplane": 5084,
      "Ġrefers": 5085,
      "Ġrestaur": 5086,
      "Ġgenerated": 5087,
      "Ġsouth": 5088,
      "dule": 5089,
      "Ġminerals": 5090,
      "what": 5091,
      "Ġdecor": 5092,
      "Ġsend": 5093,
      "Ġfo": 5094,
      "Ġdestro": 5095,
      "Ġlung": 5096,
      "rief": 5097,
      "Ġfilled": 5098,
      ";Ċ": 5099,
      "Ġuniverse": 5100,
      "Ġcultiv": 5101,
      "fortun": 5102,
      "Ġclinical": 5103,
      "DA": 5104,
      "ĠEnergy": 5105,
      "sec": 5106,
      "Ġaid": 5107,
      "Ġsides": 5108,
      "ĠAdd": 5109,
      "Ġreferred": 5110,
      "organ": 5111,
      "Ġpure": 5112,
      "ĠInc": 5113,
      "Ġspirit": 5114,
      "Ġdecrease": 5115,
      "ĠMc": 5116,
      "Ġlifestyle": 5117,
      "PA": 5118,
      "Ġstom": 5119,
      "Ġriver": 5120,
      "bles": 5121,
      "Ġborn": 5122,
      "Ġselected": 5123,
      "Ġconcern": 5124,
      "Ġvisible": 5125,
      "43": 5126,
      "ĠBas": 5127,
      "Ġnerv": 5128,
      "Many": 5129,
      ".[": 5130,
      "ibilities": 5131,
      "going": 5132,
      "Ġconcepts": 5133,
      "opy": 5134,
      "Ġsurvive": 5135,
      "Ġstatement": 5136,
      "ĠEducation": 5137,
      "rowing": 5138,
      "Ġmechanism": 5139,
      "Ġsequence": 5140,
      "ĠMicro": 5141,
      "bi": 5142,
      "lements": 5143,
      "Ġversat": 5144,
      "Ġspaces": 5145,
      "98": 5146,
      "plant": 5147,
      "Ġprem": 5148,
      "Ġ<": 5149,
      "Ġclothing": 5150,
      "Ġtried": 5151,
      "Ġmotiv": 5152,
      "Ġowner": 5153,
      "Ġvel": 5154,
      "Ġdisorders": 5155,
      "Ġtomat": 5156,
      "ĠWhere": 5157,
      "Ġflood": 5158,
      "De": 5159,
      "Ġvul": 5160,
      "Ġconducted": 5161,
      "Ġcompounds": 5162,
      "Ġconsidering": 5163,
      "Ġclassroom": 5164,
      "des": 5165,
      "ĠBet": 5166,
      "Ġship": 5167,
      "irds": 5168,
      "Ġcertainly": 5169,
      "roke": 5170,
      "olf": 5171,
      "Ġfamiliar": 5172,
      "Over": 5173,
      "Ġproducing": 5174,
      "ventional": 5175,
      "Ġtrip": 5176,
      "Ġspray": 5177,
      "Ġrein": 5178,
      "Ġneuro": 5179,
      "Ġtechnical": 5180,
      "Ġchronic": 5181,
      "Ġatoms": 5182,
      "Ġcart": 5183,
      "Ġportion": 5184,
      "Ġradiation": 5185,
      "Ġseek": 5186,
      "Ġpresented": 5187,
      "uracy": 5188,
      "ĠFurther": 5189,
      "Ġannual": 5190,
      "Ġnorth": 5191,
      "Ġtut": 5192,
      "Ġparticipants": 5193,
      "tion": 5194,
      "anes": 5195,
      "ĠMex": 5196,
      "Ġspeaker": 5197,
      "Ġperiods": 5198,
      "gra": 5199,
      "Ġshad": 5200,
      "Ġelectrons": 5201,
      "Ġextensive": 5202,
      "Ġaer": 5203,
      "Ġcomputers": 5204,
      "MS": 5205,
      "Ġfiles": 5206,
      "Pre": 5207,
      "-related": 5208,
      "Ġden": 5209,
      "ented": 5210,
      "gl": 5211,
      "aul": 5212,
      "ĠPhys": 5213,
      "Ġacids": 5214,
      "ypes": 5215,
      "Ġcm": 5216,
      "Ġphotography": 5217,
      "Ġbudget": 5218,
      "inese": 5219,
      "ormal": 5220,
      "Ġbelief": 5221,
      "ĠCare": 5222,
      "ĠTake": 5223,
      "Ġotherwise": 5224,
      "Ġcycl": 5225,
      "ĠPower": 5226,
      "onal": 5227,
      "Ġwouldn": 5228,
      "stract": 5229,
      "rie": 5230,
      "ulum": 5231,
      "ĠPat": 5232,
      "Ġvideos": 5233,
      "Ġcapture": 5234,
      "Ġhousehold": 5235,
      "Ġshot": 5236,
      "Ġpin": 5237,
      "ault": 5238,
      "Ġrecovery": 5239,
      "Ġslowly": 5240,
      "Ġcontrolled": 5241,
      "Ġfur": 5242,
      "Ġbelong": 5243,
      "opl": 5244,
      "asp": 5245,
      "Ġpainting": 5246,
      "ĠJuly": 5247,
      "Ġplug": 5248,
      "Ġstable": 5249,
      "sp": 5250,
      "Ġessay": 5251,
      "Ġcareer": 5252,
      "Ġhoney": 5253,
      "Ġconsists": 5254,
      "Ġfeedback": 5255,
      "Ġseeing": 5256,
      "-th": 5257,
      "Ġjump": 5258,
      "Ġcooling": 5259,
      "Ġurban": 5260,
      "pring": 5261,
      "Ġsharp": 5262,
      "inations": 5263,
      "Ġgut": 5264,
      "Ġprinciples": 5265,
      "Ġshut": 5266,
      "gy": 5267,
      "ugg": 5268,
      "Ġtraffic": 5269,
      "Ġskill": 5270,
      "ĠWild": 5271,
      "Ġmechanical": 5272,
      "Ġemergency": 5273,
      "Ġinternet": 5274,
      "Ġmath": 5275,
      "ĠIS": 5276,
      "Ġtrade": 5277,
      "Ġunc": 5278,
      "Ġampl": 5279,
      "Ġvirtual": 5280,
      "Ġtopics": 5281,
      "Ġwalking": 5282,
      "Ġvarieties": 5283,
      "Ġholes": 5284,
      "Ġkil": 5285,
      "ĠCity": 5286,
      "Ġabund": 5287,
      "Ġnormally": 5288,
      "ander": 5289,
      "Ġrelig": 5290,
      "ĠWind": 5291,
      "ially": 5292,
      "Ġchocolate": 5293,
      "ãĤ": 5294,
      "Ġneck": 5295,
      "Ġdamaged": 5296,
      "Ġadvent": 5297,
      "ĠMet": 5298,
      "Ġinflammation": 5299,
      "Ġmap": 5300,
      "Ġwhatever": 5301,
      "mp": 5302,
      "ĠPlant": 5303,
      "Ġdiversity": 5304,
      "that": 5305,
      "Ġdivid": 5306,
      "ossible": 5307,
      "Ġinterp": 5308,
      "Ġsurvival": 5309,
      "aker": 5310,
      "comes": 5311,
      "Ġbreath": 5312,
      "64": 5313,
      "Ġring": 5314,
      "Ġwarming": 5315,
      "Ġwants": 5316,
      "Ġseconds": 5317,
      "Ġdecades": 5318,
      "Ġguess": 5319,
      "Ġprices": 5320,
      "Ġproduces": 5321,
      "Ġclosely": 5322,
      "ĠAfrican": 5323,
      "Ġfossil": 5324,
      "ardens": 5325,
      "Ġsong": 5326,
      "ĠHel": 5327,
      "Ġinsights": 5328,
      "ĠFound": 5329,
      "mark": 5330,
      "ĠSeptember": 5331,
      "ĠExpl": 5332,
      "Ġsud": 5333,
      "nes": 5334,
      "ĠMark": 5335,
      "itting": 5336,
      "US": 5337,
      "Ġmixed": 5338,
      "More": 5339,
      "ĠFlor": 5340,
      "Ġinject": 5341,
      "Ġunless": 5342,
      "ĠSupp": 5343,
      "ĠDiff": 5344,
      "Ġdownload": 5345,
      "Ġturns": 5346,
      "ĠMain": 5347,
      "Ġdecided": 5348,
      "Ġinfluen": 5349,
      "Ġhorses": 5350,
      "Ġrepresents": 5351,
      "Ġdomin": 5352,
      "Ġseg": 5353,
      "Ġcarried": 5354,
      "Ġintake": 5355,
      "97": 5356,
      "Ġlinked": 5357,
      "gin": 5358,
      "order": 5359,
      "Ġsufficient": 5360,
      "Ġpages": 5361,
      "Ġcontaining": 5362,
      "Ġtested": 5363,
      "Ġdefinition": 5364,
      "Ġcopper": 5365,
      "Ġformat": 5366,
      "Ġfunctional": 5367,
      "oster": 5368,
      "orous": 5369,
      "ĠSan": 5370,
      "raining": 5371,
      "aws": 5372,
      "amental": 5373,
      "Ġlocations": 5374,
      "Ġscenari": 5375,
      "Ġvoice": 5376,
      "ĠFeb": 5377,
      "Ġdishes": 5378,
      "Ġenable": 5379,
      "ĠSaf": 5380,
      "ĠNet": 5381,
      "ĠAugust": 5382,
      "Ġcolon": 5383,
      "ĠII": 5384,
      "Ġrights": 5385,
      "Ġtoler": 5386,
      "Ġremote": 5387,
      "Ġspent": 5388,
      "airy": 5389,
      "Ġassessment": 5390,
      "Ġwasn": 5391,
      "Ġtube": 5392,
      "Ġfer": 5393,
      "51": 5394,
      "Ġstation": 5395,
      "46": 5396,
      "emy": 5397,
      "ara": 5398,
      "Cons": 5399,
      "Ġfoundation": 5400,
      "paration": 5401,
      "Comp": 5402,
      "fall": 5403,
      "ĠAbout": 5404,
      "hors": 5405,
      "Ġmulti": 5406,
      "Ġcorrectly": 5407,
      "Ġcopy": 5408,
      "ĠKing": 5409,
      "Ġban": 5410,
      "Ġclearly": 5411,
      "ĠSub": 5412,
      "Ġsudden": 5413,
      "opes": 5414,
      "ovember": 5415,
      "Ġhunting": 5416,
      "Ġsolve": 5417,
      "rus": 5418,
      "52": 5419,
      "phone": 5420,
      "Ġanswers": 5421,
      "Ġphenomen": 5422,
      "Ġputting": 5423,
      "vis": 5424,
      "Ġpregnancy": 5425,
      "idden": 5426,
      "Ġahead": 5427,
      "Ġfacilit": 5428,
      "ĠInstead": 5429,
      "apor": 5430,
      "Ġmolecular": 5431,
      "Ġinner": 5432,
      "Ġrefrig": 5433,
      "pert": 5434,
      "Ġsed": 5435,
      "ĠPol": 5436,
      "Ġmarketing": 5437,
      "urch": 5438,
      "Ġpercentage": 5439,
      "ĠConsider": 5440,
      "Ġbear": 5441,
      "TS": 5442,
      "Ġcreatures": 5443,
      "Ġattached": 5444,
      "Ġdatab": 5445,
      "Ġbegins": 5446,
      "Ġhoriz": 5447,
      "Ġcollege": 5448,
      "Ġcalcium": 5449,
      "Ġcloser": 5450,
      "ĠEngine": 5451,
      "IL": 5452,
      "Ġphysics": 5453,
      "Ġguidelines": 5454,
      "Conclusion": 5455,
      "ognitive": 5456,
      "Ġvolun": 5457,
      "Ġconfirm": 5458,
      "Ġbigger": 5459,
      "Ġcab": 5460,
      "Ġgall": 5461,
      "ĠCheck": 5462,
      "ias": 5463,
      "Not": 5464,
      "Ġadminist": 5465,
      "Ġdress": 5466,
      "ĠThus": 5467,
      "Ġsurvey": 5468,
      "Ġreduces": 5469,
      "Ġscr": 5470,
      "Ġcolle": 5471,
      "Ġbread": 5472,
      "Ġgun": 5473,
      "Ġpowder": 5474,
      "gans": 5475,
      "Ġaccuracy": 5476,
      "IV": 5477,
      "Ġrow": 5478,
      "Ġmeals": 5479,
      "Ġchlor": 5480,
      "Ġinvestment": 5481,
      "Ġdecide": 5482,
      "Ġhelped": 5483,
      "acters": 5484,
      "Ġinteractions": 5485,
      "ĠSch": 5486,
      "ãĥ": 5487,
      "Ġturning": 5488,
      "Ġbuying": 5489,
      "Ġhappened": 5490,
      "Ġviol": 5491,
      "icon": 5492,
      "Ġformula": 5493,
      "Ġpounds": 5494,
      "Ġcredit": 5495,
      "Ġstomach": 5496,
      "ris": 5497,
      "Ġcorrespond": 5498,
      "Ġwindows": 5499,
      "Ġaudience": 5500,
      "Ġinstit": 5501,
      "Ġ{": 5502,
      "ĠOctober": 5503,
      "uter": 5504,
      "Ġattrib": 5505,
      "Ġjud": 5506,
      "Ġreports": 5507,
      "arsh": 5508,
      "Ġunivers": 5509,
      "Ġengage": 5510,
      "ifier": 5511,
      "ache": 5512,
      "ĠThrough": 5513,
      "aked": 5514,
      "Let": 5515,
      "Ġdefinitely": 5516,
      "ĠCounty": 5517,
      "arn": 5518,
      "ĠpH": 5519,
      "irus": 5520,
      "Ġdoub": 5521,
      "Ġbroken": 5522,
      "Ġvulner": 5523,
      "iber": 5524,
      "Ġapproaches": 5525,
      "Ġlooked": 5526,
      "lim": 5527,
      "cember": 5528,
      "Ġvast": 5529,
      "First": 5530,
      "Ġcompr": 5531,
      "-on": 5532,
      "Ġnovel": 5533,
      "Ġstages": 5534,
      "Ġcomment": 5535,
      "New": 5536,
      "ĠSk": 5537,
      "Ġbuildings": 5538,
      "Ġsport": 5539,
      "Ġprey": 5540,
      "roid": 5541,
      "ription": 5542,
      "Ġbalanced": 5543,
      "ruary": 5544,
      "Ġmeeting": 5545,
      "ĠDec": 5546,
      "Ġblow": 5547,
      "Ġtum": 5548,
      "According": 5549,
      "ama": 5550,
      "Ġagre": 5551,
      "fortunately": 5552,
      "IP": 5553,
      "]ĊĊ": 5554,
      "cel": 5555,
      "Ġfixed": 5556,
      "Ġmal": 5557,
      "Ġinteraction": 5558,
      "rors": 5559,
      "Ġcareful": 5560,
      "ctic": 5561,
      "Ġdisorder": 5562,
      "yth": 5563,
      "ado": 5564,
      "etics": 5565,
      "Ġdent": 5566,
      "Ġmir": 5567,
      "ĠKnow": 5568,
      "eless": 5569,
      "Ġobtained": 5570,
      "Sc": 5571,
      "Ġinstruction": 5572,
      "uum": 5573,
      "Ġpassed": 5574,
      "-n": 5575,
      "Ġinstalled": 5576,
      "Under": 5577,
      "Ġbio": 5578,
      "oys": 5579,
      "allel": 5580,
      "cript": 5581,
      "Ġintended": 5582,
      "Ġprotected": 5583,
      "orter": 5584,
      "iler": 5585,
      "cope": 5586,
      "Ġeconomy": 5587,
      "vents": 5588,
      "hips": 5589,
      "Cont": 5590,
      "Ġprompt": 5591,
      "Ġindependent": 5592,
      "dy": 5593,
      "Ġshift": 5594,
      "ĠJanuary": 5595,
      "Ġcommand": 5596,
      "Ġproport": 5597,
      "Ġcooked": 5598,
      "uzz": 5599,
      "ĠOff": 5600,
      "Ġnar": 5601,
      "Ġsharing": 5602,
      "ait": 5603,
      "ynt": 5604,
      "Ġperspective": 5605,
      "ivery": 5606,
      "Ġworkers": 5607,
      "Ġaccum": 5608,
      "Ġlaser": 5609,
      "Ġhabits": 5610,
      "eling": 5611,
      "ifications": 5612,
      "Ġdioxide": 5613,
      "Ġclosed": 5614,
      "Ġworldwide": 5615,
      "Ġenthus": 5616,
      "Use": 5617,
      "how": 5618,
      "ocking": 5619,
      "/s": 5620,
      "Ġraised": 5621,
      "Ġlawn": 5622,
      "Ġboat": 5623,
      "ĠStep": 5624,
      "Ġwoman": 5625,
      "Ġsuggested": 5626,
      "-M": 5627,
      "Ġrapidly": 5628,
      "Ġdeeper": 5629,
      "Ġfig": 5630,
      "Ġpreventing": 5631,
      "Ġtwice": 5632,
      "Ġpup": 5633,
      "Ġcollected": 5634,
      "west": 5635,
      "Ġadds": 5636,
      "pec": 5637,
      "Ġlesson": 5638,
      "ĠProject": 5639,
      "oding": 5640,
      "Ġsheet": 5641,
      "Ġdoll": 5642,
      "Ġnation": 5643,
      "Ġinnovative": 5644,
      "ĠSee": 5645,
      "ĠTex": 5646,
      "Ġshoes": 5647,
      "Ġfundamental": 5648,
      "Dr": 5649,
      "Ġcorn": 5650,
      "Ġdiscussion": 5651,
      "Ġseven": 5652,
      "ĠOrgan": 5653,
      "Ġpests": 5654,
      "Ġagriculture": 5655,
      "Ġinjuries": 5656,
      "Ġagree": 5657,
      "Ġrab": 5658,
      "Ġdecl": 5659,
      "Ġthoughts": 5660,
      "Ġgather": 5661,
      "47": 5662,
      "Ġindu": 5663,
      "Ġwash": 5664,
      "Ġmedication": 5665,
      "edia": 5666,
      "Ġmedications": 5667,
      "96": 5668,
      "mic": 5669,
      "vit": 5670,
      "ĠProt": 5671,
      "asive": 5672,
      "Ġtight": 5673,
      "ompl": 5674,
      "Ġsick": 5675,
      "Ġnitrogen": 5676,
      "gers": 5677,
      "ĠChinese": 5678,
      "ionally": 5679,
      "oke": 5680,
      "ĠCOVID": 5681,
      "eras": 5682,
      "Ġopening": 5683,
      "Ġconnections": 5684,
      "ĠLab": 5685,
      "Ġrace": 5686,
      "Ġfurniture": 5687,
      "isation": 5688,
      "Ġbaking": 5689,
      "Ġalumin": 5690,
      "Ġbiod": 5691,
      "Ġmeant": 5692,
      "point": 5693,
      "ĠLearning": 5694,
      "Ġremoving": 5695,
      "ĠTechnology": 5696,
      "ĠGarden": 5697,
      "Ġfirm": 5698,
      "Ġoffered": 5699,
      "ĠLight": 5700,
      "Ġtransp": 5701,
      "Ġnurs": 5702,
      "iance": 5703,
      "\"The": 5704,
      "pected": 5705,
      "Ġmathemat": 5706,
      "Ġperman": 5707,
      "Ġgreenhouse": 5708,
      "Ġpossess": 5709,
      "Ġhardware": 5710,
      "asses": 5711,
      "iled": 5712,
      "Fe": 5713,
      "Ġsubstance": 5714,
      "iated": 5715,
      "ĠAnother": 5716,
      "----------------": 5717,
      "ĠBen": 5718,
      "atin": 5719,
      "ags": 5720,
      "ĠMus": 5721,
      "Ġcharacters": 5722,
      "Ġliver": 5723,
      "Ġath": 5724,
      "Ġstring": 5725,
      "Ġcompound": 5726,
      "Ġfelt": 5727,
      "oyal": 5728,
      "ographic": 5729,
      "Ġmanner": 5730,
      "Ġdepression": 5731,
      "Ġraise": 5732,
      "Ġexplan": 5733,
      "Ġexperiments": 5734,
      "Ġschedule": 5735,
      "acific": 5736,
      "Ġstability": 5737,
      "ĠDav": 5738,
      "Ġbiggest": 5739,
      "Ġaccident": 5740,
      "Ġdiagnosis": 5741,
      "OL": 5742,
      "Ġpanel": 5743,
      "ĠCollege": 5744,
      "Rem": 5745,
      "Ġsubstances": 5746,
      "asure": 5747,
      "Ġsustainability": 5748,
      "ocity": 5749,
      "Ġbiology": 5750,
      "Ġmovements": 5751,
      "Ġcul": 5752,
      "Ġdiscovery": 5753,
      "ĠEc": 5754,
      "but": 5755,
      "ndrome": 5756,
      "charge": 5757,
      "Ġtow": 5758,
      "Ġcommunicate": 5759,
      "amins": 5760,
      "><": 5761,
      "box": 5762,
      "Ġtrained": 5763,
      "Ġexplains": 5764,
      "reek": 5765,
      "Ġstain": 5766,
      "Ġincreasingly": 5767,
      "Ġcompleted": 5768,
      "Ġrecognize": 5769,
      "-the": 5770,
      "volution": 5771,
      "Ġmoved": 5772,
      "Ġ>": 5773,
      "Ġarray": 5774,
      "Ġlessons": 5775,
      "Ġforget": 5776,
      "ĠIN": 5777,
      "ĠControl": 5778,
      "ĠFlorida": 5779,
      "-se": 5780,
      "Ġblocks": 5781,
      "rooms": 5782,
      "aning": 5783,
      "Ġthermal": 5784,
      "Ġflying": 5785,
      "Ġbelieved": 5786,
      "Ġexciting": 5787,
      "Ġregulations": 5788,
      "ĠStudents": 5789,
      "',": 5790,
      "Ġretain": 5791,
      "alks": 5792,
      "Ġopposite": 5793,
      "Ġdefic": 5794,
      "apers": 5795,
      "Ġoccup": 5796,
      "ĠSun": 5797,
      "49": 5798,
      "Ġitem": 5799,
      "Ġdespite": 5800,
      "Ġfinish": 5801,
      "Ġdelicious": 5802,
      "Ġhaven": 5803,
      "Ġyield": 5804,
      "Ġclothes": 5805,
      "mers": 5806,
      "Ġhospital": 5807,
      "72": 5808,
      "Ġworse": 5809,
      "Although": 5810,
      "Ġprofessor": 5811,
      "Ġnotes": 5812,
      "Ġdiscussed": 5813,
      "Ġinstallation": 5814,
      "Ġdedicated": 5815,
      "Ġindustries": 5816,
      "ener": 5817,
      "rust": 5818,
      "Ġfriendly": 5819,
      "icing": 5820,
      "53": 5821,
      "Ġcapabilities": 5822,
      "Ġseeking": 5823,
      "ĠOb": 5824,
      "Ġexcessive": 5825,
      "Ġdrinking": 5826,
      "Ġemployees": 5827,
      "Ġexplained": 5828,
      "Ġemotions": 5829,
      "ĠDet": 5830,
      "inn": 5831,
      "Ġparas": 5832,
      "Ġconsumers": 5833,
      "Ġoverl": 5834,
      "aint": 5835,
      "CC": 5836,
      "Ġstores": 5837,
      "ĠTV": 5838,
      "iform": 5839,
      "Ġsupplement": 5840,
      "roc": 5841,
      "Ġsuccessfully": 5842,
      "Ġprocedures": 5843,
      "Ġenab": 5844,
      "Ġpreferences": 5845,
      "Ġvariable": 5846,
      "rite": 5847,
      "Ġinformed": 5848,
      "Ġequival": 5849,
      "Ġindex": 5850,
      "dent": 5851,
      "Ġexploring": 5852,
      "Ġoutcomes": 5853,
      "Ġpros": 5854,
      "Ġconfidence": 5855,
      "Ġunlike": 5856,
      "Ġpreserv": 5857,
      "Ġdetection": 5858,
      "ĠStart": 5859,
      "amil": 5860,
      "Ġrecipe": 5861,
      "Ġtor": 5862,
      "Ġfamous": 5863,
      "Ġgave": 5864,
      "Ġdriver": 5865,
      "âĪ": 5866,
      "een": 5867,
      "uilding": 5868,
      "ĠCat": 5869,
      "acc": 5870,
      "From": 5871,
      "iest": 5872,
      "ĠTest": 5873,
      "rue": 5874,
      "eries": 5875,
      "Ġlibrary": 5876,
      "Ġspots": 5877,
      "Ġcompetition": 5878,
      "roph": 5879,
      "Ġcoal": 5880,
      "Ġagricultural": 5881,
      "Ġinsurance": 5882,
      "Ġforests": 5883,
      "Ġoven": 5884,
      "91": 5885,
      "reate": 5886,
      "Ġdrag": 5887,
      "Ġdiagram": 5888,
      "-F": 5889,
      "eren": 5890,
      "Ġreplaced": 5891,
      "Ġhistorical": 5892,
      "Ġadequ": 5893,
      "Ġcovers": 5894,
      "Ġment": 5895,
      "Ġmetals": 5896,
      "riers": 5897,
      "ĠEast": 5898,
      "Ġcalories": 5899,
      "Sp": 5900,
      "Ġprogramming": 5901,
      "itors": 5902,
      "ocy": 5903,
      "Ġcircum": 5904,
      "Ġbehaviors": 5905,
      "-B": 5906,
      "Ġflour": 5907,
      "ĠHome": 5908,
      "ĠLife": 5909,
      "56": 5910,
      "arium": 5911,
      "Ġrocks": 5912,
      "Ġconsequences": 5913,
      "Ġaest": 5914,
      "Ġpolar": 5915,
      "Ġrecords": 5916,
      "ĠRuss": 5917,
      "isk": 5918,
      "Ġsauce": 5919,
      "from": 5920,
      "Ġequation": 5921,
      "Ġears": 5922,
      "anted": 5923,
      "-of": 5924,
      "Ġpeace": 5925,
      "Ġregul": 5926,
      "Ġpossibly": 5927,
      "ĠMich": 5928,
      "Ġyog": 5929,
      "Ġdram": 5930,
      "-D": 5931,
      "Ġmission": 5932,
      "LE": 5933,
      "Ġknows": 5934,
      "oper": 5935,
      "Ġsensors": 5936,
      "Ġstudying": 5937,
      "Ġrig": 5938,
      "Ġcompare": 5939,
      "ĠExam": 5940,
      "ĠSociety": 5941,
      "Ġphysic": 5942,
      "ifies": 5943,
      "Ġtip": 5944,
      "CH": 5945,
      "Reg": 5946,
      "ĠToday": 5947,
      "Ġmeasurement": 5948,
      "ĠGerman": 5949,
      "ĠTur": 5950,
      "ĠTexas": 5951,
      "Ġunderlying": 5952,
      "IM": 5953,
      "ĠRel": 5954,
      "unning": 5955,
      "54": 5956,
      "Ġplayed": 5957,
      "lin": 5958,
      "Ġstrain": 5959,
      "Ġconflic": 5960,
      "Ġwearing": 5961,
      "Ġcos": 5962,
      "Ġconstantly": 5963,
      "ĠTwo": 5964,
      "Ġsales": 5965,
      "ĠAsia": 5966,
      "idents": 5967,
      "Ġmembrane": 5968,
      "Ġruns": 5969,
      "Ġpanels": 5970,
      "ĠWork": 5971,
      "Ġguidance": 5972,
      "Ġcoc": 5973,
      "ĠRef": 5974,
      "itter": 5975,
      "ĠWhite": 5976,
      "Ġpark": 5977,
      "zer": 5978,
      "Ġpolic": 5979,
      "ĠGood": 5980,
      "ĠSet": 5981,
      "Ġswimming": 5982,
      "bris": 5983,
      "]Ċ": 5984,
      "ĠGold": 5985,
      "Ġconventional": 5986,
      "Ġcoordin": 5987,
      "Ġoperate": 5988,
      "Ġhandling": 5989,
      "ĠRemember": 5990,
      "uis": 5991,
      "Ġages": 5992,
      "otes": 5993,
      "Ġmechanisms": 5994,
      "Ġnutrient": 5995,
      "App": 5996,
      "//": 5997,
      "tt": 5998,
      "Ġzone": 5999,
      "uits": 6000,
      "Ġusage": 6001,
      "ridge": 6002,
      "Ġcardi": 6003,
      "Ġmineral": 6004,
      "Ġrecorded": 6005,
      "bur": 6006,
      "vol": 6007,
      "Ġbrid": 6008,
      "ĠLa": 6009,
      "men": 6010,
      "ĠHave": 6011,
      "bra": 6012,
      "Ġindoor": 6013,
      "Ġfan": 6014,
      "ĠAtl": 6015,
      "Ġends": 6016,
      "ford": 6017,
      "ascular": 6018,
      "arter": 6019,
      "Ġye": 6020,
      "ĠBel": 6021,
      "rence": 6022,
      "cule": 6023,
      "Ġfacts": 6024,
      "Ġmanufacturer": 6025,
      "Ġreward": 6026,
      "ĠAssociation": 6027,
      "Ġtruth": 6028,
      "vin": 6029,
      "Ġbasically": 6030,
      "ĠExt": 6031,
      "Ġmanual": 6032,
      "Ġmoves": 6033,
      "Ġcontinued": 6034,
      "Ġspeech": 6035,
      "ker": 6036,
      "riculum": 6037,
      "Ġsupports": 6038,
      "Ġstands": 6039,
      "Ġincl": 6040,
      "Ġacademic": 6041,
      "Ġcalls": 6042,
      "iders": 6043,
      "ophy": 6044,
      "Ġdynamic": 6045,
      "eria": 6046,
      "Ġdestroy": 6047,
      "Ġoral": 6048,
      "athy": 6049,
      "Ġnerve": 6050,
      "Ġcards": 6051,
      "Ġshed": 6052,
      "Ġremaining": 6053,
      "92": 6054,
      "Ġteams": 6055,
      "Ġpolitical": 6056,
      "ĠBre": 6057,
      "Te": 6058,
      "Ġhumidity": 6059,
      "Ġproposed": 6060,
      "Ġmining": 6061,
      "Ġdelivery": 6062,
      "Ġsecret": 6063,
      "ĠDef": 6064,
      "Ġsky": 6065,
      "lers": 6066,
      "Ġnetworks": 6067,
      "Ġcourses": 6068,
      "Ġsecondary": 6069,
      "cher": 6070,
      "ĠService": 6071,
      "acts": 6072,
      "Ġinterpret": 6073,
      "Ġwrote": 6074,
      "cest": 6075,
      "Ġvalid": 6076,
      "Ġloose": 6077,
      "ĠNovember": 6078,
      "Ġentirely": 6079,
      "Ġsupporting": 6080,
      "Figure": 6081,
      "Ġconsume": 6082,
      "Ġmice": 6083,
      "iam": 6084,
      "Ġpoison": 6085,
      "Ġsession": 6086,
      "iability": 6087,
      "Ġchannel": 6088,
      "ĠJour": 6089,
      "Ġnose": 6090,
      "Ġauthors": 6091,
      "Ġbreathing": 6092,
      "Ġfollows": 6093,
      "ĠColor": 6094,
      "ffective": 6095,
      "Ġtrends": 6096,
      "ĠDist": 6097,
      "Ġlinks": 6098,
      "Â°C": 6099,
      "Ġrequest": 6100,
      "Ġske": 6101,
      "ĠFore": 6102,
      "Ġshade": 6103,
      "AB": 6104,
      "Ġreserv": 6105,
      "Ġscrew": 6106,
      "Ġcities": 6107,
      "Ġrecycling": 6108,
      "ĠTHE": 6109,
      "haust": 6110,
      "Ġmyself": 6111,
      "Ġknowing": 6112,
      "Ġfeelings": 6113,
      "overn": 6114,
      "Ġmissing": 6115,
      "Ġvaccine": 6116,
      "Ġparallel": 6117,
      "Ġkeeps": 6118,
      "Ġcloud": 6119,
      "Ġanywhere": 6120,
      "well": 6121,
      "Ġwish": 6122,
      "ota": 6123,
      "berry": 6124,
      "azon": 6125,
      "ham": 6126,
      "Ġinterface": 6127,
      "Ġedges": 6128,
      "Ġframew": 6129,
      "Ġimagine": 6130,
      "Ġrestrict": 6131,
      "ĠLook": 6132,
      "-sc": 6133,
      "Ġstudied": 6134,
      "Ġscene": 6135,
      "cover": 6136,
      "itivity": 6137,
      "Ġindicates": 6138,
      "Ġchart": 6139,
      "lings": 6140,
      "Ġachieved": 6141,
      "Ġapplying": 6142,
      "ĠDecember": 6143,
      "itches": 6144,
      "Ġmassive": 6145,
      "Ġprol": 6146,
      "Ġengaging": 6147,
      "Ġfinally": 6148,
      "ĠTime": 6149,
      "Ġcontinuous": 6150,
      "Ġaccompl": 6151,
      "Ġtransportation": 6152,
      "Ġinnovation": 6153,
      "Ġhundreds": 6154,
      "Ġion": 6155,
      "Ġdepos": 6156,
      "Ġmeasurements": 6157,
      "Ġarticles": 6158,
      "ĠGuide": 6159,
      "Ġpuppy": 6160,
      "stream": 6161,
      "Ġlisted": 6162,
      "Ġrecept": 6163,
      "ĠCam": 6164,
      "Ġfacilities": 6165,
      "ked": 6166,
      "Ġgravity": 6167,
      "ĠExper": 6168,
      "Ġdebris": 6169,
      "Ġbranches": 6170,
      "Get": 6171,
      "Ġsight": 6172,
      "rastructure": 6173,
      "Ġrevolution": 6174,
      "Ġfemales": 6175,
      "Ġaccessible": 6176,
      "bility": 6177,
      "Or": 6178,
      "Ġcreativity": 6179,
      "Ġdirt": 6180,
      "Ġjobs": 6181,
      "Ġsector": 6182,
      "Ġride": 6183,
      "Ġrefriger": 6184,
      "otton": 6185,
      "oves": 6186,
      "ĠMac": 6187,
      "Ġinch": 6188,
      "Ġtrigger": 6189,
      "Ġbehaviour": 6190,
      "Ġexercises": 6191,
      "Ġtissues": 6192,
      "Ġtitle": 6193,
      "Ġmillions": 6194,
      "Ġstronger": 6195,
      "Ġparameters": 6196,
      "Ġreplacement": 6197,
      "Ġphosph": 6198,
      "Ġbreeds": 6199,
      "Ġweigh": 6200,
      "Rec": 6201,
      "uls": 6202,
      "-A": 6203,
      "Ġarrange": 6204,
      "istor": 6205,
      "Ġvalve": 6206,
      "Ġcameras": 6207,
      "Ġmilitary": 6208,
      "Ġcrus": 6209,
      "ĠOpen": 6210,
      "Ġcheap": 6211,
      "Ġgardens": 6212,
      "Ġtropical": 6213,
      "Ġjew": 6214,
      "Ġsupported": 6215,
      "Ġextended": 6216,
      "Ġletter": 6217,
      "Ġfarming": 6218,
      "Ġtea": 6219,
      "57": 6220,
      "86": 6221,
      "Pe": 6222,
      "down": 6223,
      "Ġobst": 6224,
      ">Ċ": 6225,
      "Ġsatisf": 6226,
      "Ġvegetable": 6227,
      "Ġthrive": 6228,
      "Ġsen": 6229,
      "ĠAng": 6230,
      "88": 6231,
      "Ġsubs": 6232,
      "Ind": 6233,
      "ĠOcean": 6234,
      "ĠPlease": 6235,
      "Ġlenses": 6236,
      "iratory": 6237,
      "Ġseam": 6238,
      "ĠScient": 6239,
      "Ġgro": 6240,
      "ĠNature": 6241,
      "ĠSea": 6242,
      "âĢĭ": 6243,
      "Ġmes": 6244,
      "Ġsafely": 6245,
      "Ġmort": 6246,
      "earchers": 6247,
      "antly": 6248,
      "Ġbeans": 6249,
      "ĠIsland": 6250,
      "Ġholds": 6251,
      "Ġstyles": 6252,
      "Ġserves": 6253,
      "Ġimprovement": 6254,
      "62": 6255,
      "Ġran": 6256,
      "Ġinfected": 6257,
      "\"Ċ": 6258,
      "Ġbrief": 6259,
      "Ġalt": 6260,
      "Ġgardening": 6261,
      "Ġblo": 6262,
      "Ġped": 6263,
      "ĠNatural": 6264,
      "uts": 6265,
      "ĠPacific": 6266,
      "Ġgone": 6267,
      "asy": 6268,
      "Ġorange": 6269,
      "Ġpreparation": 6270,
      "Ġsusp": 6271,
      "alled": 6272,
      "Ġserved": 6273,
      "Ġpurs": 6274,
      "Ġprotective": 6275,
      "opic": 6276,
      "ĠEngland": 6277,
      "ĠFebruary": 6278,
      "Ġbags": 6279,
      "Ġcognitive": 6280,
      "col": 6281,
      "ĠSl": 6282,
      "Ġvacuum": 6283,
      "Ġsubstant": 6284,
      "Ġresponses": 6285,
      "Ġcord": 6286,
      "Ġwashing": 6287,
      "Ġimpossible": 6288,
      "Ġvelocity": 6289,
      "Ġpest": 6290,
      "Ġouter": 6291,
      "Ġspecialized": 6292,
      "Ġ...ĊĊ": 6293,
      "Ġcommitment": 6294,
      "Ġmanip": 6295,
      "Before": 6296,
      "Ġeveryday": 6297,
      "ĠWashing": 6298,
      "Ġasking": 6299,
      "outs": 6300,
      "Ġminimize": 6301,
      "osal": 6302,
      "ĠJapanese": 6303,
      "Ġdim": 6304,
      "Ġchapter": 6305,
      "ĠCD": 6306,
      "ĠInf": 6307,
      "Ġminute": 6308,
      "Ġefficiently": 6309,
      "66": 6310,
      "Ġdiameter": 6311,
      "ĠOF": 6312,
      "Ġembra": 6313,
      "Ġvitamins": 6314,
      "58": 6315,
      "Ġopinion": 6316,
      "Ġveterin": 6317,
      "Ġbank": 6318,
      "uing": 6319,
      "ĠBay": 6320,
      "Ġbite": 6321,
      "Ġgrows": 6322,
      "Ġfrequent": 6323,
      "Ġassistance": 6324,
      "ĠDevelopment": 6325,
      "Me": 6326,
      "ĠWorks": 6327,
      "Ġjoin": 6328,
      "Ġminor": 6329,
      "under": 6330,
      "ette": 6331,
      "onge": 6332,
      "Ġfault": 6333,
      "Ġchosen": 6334,
      "ĠRob": 6335,
      "Le": 6336,
      "Ġparty": 6337,
      "EO": 6338,
      "ĠĠĠ": 6339,
      "Ġshif": 6340,
      "rix": 6341,
      "Ġmales": 6342,
      "Ġmeasuring": 6343,
      "Ġchromos": 6344,
      "inated": 6345,
      "Ġthanks": 6346,
      "Ġengines": 6347,
      "Ġkne": 6348,
      "Ġvolunte": 6349,
      "esity": 6350,
      "Ġcontrols": 6351,
      ");": 6352,
      "ĠVol": 6353,
      "Ġformer": 6354,
      "Ġchemistry": 6355,
      "Ġabsorb": 6356,
      "Ġrenewable": 6357,
      "ĠRet": 6358,
      "Ġham": 6359,
      "Ġgreatly": 6360,
      "Ġhabitats": 6361,
      "-ch": 6362,
      "inction": 6363,
      "Ġtaught": 6364,
      "Ġstructural": 6365,
      "PT": 6366,
      "Ġplus": 6367,
      "ĠCommon": 6368,
      "Ġwhereas": 6369,
      "Ġguarant": 6370,
      "ĠChildren": 6371,
      "Ġbrings": 6372,
      "ĠData": 6373,
      "son": 6374,
      "94": 6375,
      "Ġinhib": 6376,
      "Ġresponsibility": 6377,
      "Ġclock": 6378,
      "Ġmm": 6379,
      "Ġmountain": 6380,
      "##": 6381,
      "Ġartists": 6382,
      "Ġtap": 6383,
      "ulin": 6384,
      "Ġfinished": 6385,
      "Ġcyl": 6386,
      "Ġintroduction": 6387,
      "ĠPhil": 6388,
      "Ġrely": 6389,
      "Ġdescription": 6390,
      "ague": 6391,
      "PC": 6392,
      "Ġalgorithms": 6393,
      "akers": 6394,
      "ondon": 6395,
      "no": 6396,
      "Ġirrit": 6397,
      "ĠBro": 6398,
      "ĠOpt": 6399,
      "Ġremoval": 6400,
      "ĠSum": 6401,
      "Ġunf": 6402,
      "ĠPort": 6403,
      "Ġcollaboration": 6404,
      "Ġexpertise": 6405,
      "zed": 6406,
      "Ġnorthern": 6407,
      "ĠYear": 6408,
      "Since": 6409,
      "Ġdelay": 6410,
      "Ġtrim": 6411,
      "ĠMedic": 6412,
      "using": 6413,
      "Ġsouthern": 6414,
      "Ġmeters": 6415,
      "Ġloved": 6416,
      "amps": 6417,
      "Ġcivil": 6418,
      "Ġcampa": 6419,
      "82": 6420,
      "BC": 6421,
      "Ġunus": 6422,
      "obal": 6423,
      "you": 6424,
      "Ġvertical": 6425,
      "Ġherb": 6426,
      "anged": 6427,
      "Ġorgans": 6428,
      "Ġminimal": 6429,
      "Ġequivalent": 6430,
      "Ġmanufacturers": 6431,
      "ĠLearn": 6432,
      "Ġcast": 6433,
      "illa": 6434,
      "ĠMuse": 6435,
      "atur": 6436,
      "Ġfascinating": 6437,
      "Ġhappening": 6438,
      "ods": 6439,
      "Ġpromoting": 6440,
      "Ġol": 6441,
      "ĠTer": 6442,
      "Ġpassion": 6443,
      "lt": 6444,
      "aired": 6445,
      "angered": 6446,
      "Ġconfig": 6447,
      "ĠManagement": 6448,
      "Ġinterior": 6449,
      "la": 6450,
      "Ġchol": 6451,
      "61": 6452,
      "=\"": 6453,
      "Ġfewer": 6454,
      "ĠHistory": 6455,
      "Ġseal": 6456,
      "Ġconcerned": 6457,
      "Ġenthusi": 6458,
      "-res": 6459,
      "ĠVis": 6460,
      "abil": 6461,
      "Ġneutral": 6462,
      "Ġinterview": 6463,
      "68": 6464,
      "Ġstanding": 6465,
      "avy": 6466,
      "Ġamb": 6467,
      "Ġstars": 6468,
      "Ġcable": 6469,
      "stone": 6470,
      "Ġtire": 6471,
      "ĠStand": 6472,
      "Ġecosystems": 6473,
      "Ġdimens": 6474,
      "Ġdistingu": 6475,
      "sm": 6476,
      "astern": 6477,
      "59": 6478,
      "Ġlik": 6479,
      "Ġsuffer": 6480,
      "Ġremark": 6481,
      "Ġpredators": 6482,
      "Ġdomestic": 6483,
      "Ġsitting": 6484,
      "Ġdatabase": 6485,
      "umes": 6486,
      "Ġnoted": 6487,
      "Ġlisten": 6488,
      "Ġcomparison": 6489,
      "Ġbee": 6490,
      "ĠBefore": 6491,
      "Ġresil": 6492,
      "Ġvessels": 6493,
      "aughter": 6494,
      "ðŁ": 6495,
      "Ġcharging": 6496,
      "ĠSal": 6497,
      "Ġargument": 6498,
      "ĠAmericans": 6499,
      "Ġmanaging": 6500,
      "Ġattend": 6501,
      "ĠWeb": 6502,
      "ĠAM": 6503,
      "Ġsoap": 6504,
      "nel": 6505,
      "Ġultimately": 6506,
      "Ġresol": 6507,
      "angle": 6508,
      "Ġtrouble": 6509,
      ".âĢĿ": 6510,
      "ĠLake": 6511,
      "93": 6512,
      "Ġexpans": 6513,
      "Ġexhaust": 6514,
      "Stud": 6515,
      "Ġmicrob": 6516,
      "Ġpipe": 6517,
      "-pro": 6518,
      "Using": 6519,
      "Ġvict": 6520,
      "Ġbowl": 6521,
      "tic": 6522,
      "Ġflavors": 6523,
      "Ġtutorial": 6524,
      "ĠDog": 6525,
      "pling": 6526,
      "Ġdivided": 6527,
      "Ġfeels": 6528,
      "Ġease": 6529,
      "Ġmolecule": 6530,
      "sts": 6531,
      "Ġunw": 6532,
      "Ġalgorithm": 6533,
      "PR": 6534,
      "Ġcere": 6535,
      "Ġwatching": 6536,
      "Ġcontamin": 6537,
      "ommod": 6538,
      "ĠFoundation": 6539,
      "ĠMexico": 6540,
      "comp": 6541,
      "Ġlaboratory": 6542,
      "Ġcarp": 6543,
      "then": 6544,
      "enses": 6545,
      "ommon": 6546,
      "Ġsupplies": 6547,
      "Ġluck": 6548,
      "Ġattach": 6549,
      "Ġchances": 6550,
      "agnetic": 6551,
      "Ġretur": 6552,
      "Ġsignificance": 6553,
      "Ġrecognition": 6554,
      "Ġdairy": 6555,
      "ĠMal": 6556,
      "Ġprinciple": 6557,
      "agues": 6558,
      "ora": 6559,
      "Ġinsulation": 6560,
      "Rel": 6561,
      "Ġvine": 6562,
      "Ġplatforms": 6563,
      "Ġperfectly": 6564,
      "Ġadvert": 6565,
      "Ġscan": 6566,
      "ĠAD": 6567,
      "Ġbacterial": 6568,
      "Ġoxid": 6569,
      "ĠMount": 6570,
      "Ġalter": 6571,
      "Ġparticle": 6572,
      "Ġreached": 6573,
      "mas": 6574,
      "Ġtown": 6575,
      "rical": 6576,
      "Ġmenu": 6577,
      "uous": 6578,
      "ether": 6579,
      "Ġresistant": 6580,
      "atric": 6581,
      "Ġcouldn": 6582,
      "Ġautomatically": 6583,
      "ilation": 6584,
      "Ġsmoke": 6585,
      "Ġharder": 6586,
      "Ġcas": 6587,
      "63": 6588,
      "Ġclassic": 6589,
      "Ġwings": 6590,
      "Ġyard": 6591,
      "ontal": 6592,
      "ĠSol": 6593,
      "-old": 6594,
      "Ġisland": 6595,
      "ĠGr": 6596,
      "agers": 6597,
      "Ġphil": 6598,
      "esides": 6599,
      "Ġyes": 6600,
      "Ġtric": 6601,
      "Ġtherap": 6602,
      "Ġturb": 6603,
      "ython": 6604,
      "imental": 6605,
      "Ġpun": 6606,
      "Ġinfrastructure": 6607,
      "Other": 6608,
      "Ġcorner": 6609,
      "|Ċ": 6610,
      "TH": 6611,
      "Ġsessions": 6612,
      "Ġfairly": 6613,
      "IR": 6614,
      "Ġsubjects": 6615,
      "Ġrealize": 6616,
      "Ġtape": 6617,
      "eli": 6618,
      "appe": 6619,
      "Ġintric": 6620,
      "Ġancest": 6621,
      "ĠPen": 6622,
      "Ġblind": 6623,
      "Ġpossibility": 6624,
      "log": 6625,
      "Ġfinger": 6626,
      "Ġextent": 6627,
      "Ġgrand": 6628,
      "Ġphotograp": 6629,
      "Ġgent": 6630,
      "77": 6631,
      "Ġempt": 6632,
      "zym": 6633,
      "Ġexchange": 6634,
      "74": 6635,
      "icity": 6636,
      "alysis": 6637,
      "81": 6638,
      "ella": 6639,
      "arge": 6640,
      "71": 6641,
      "Ġpolicies": 6642,
      "Ġdial": 6643,
      "Ġtast": 6644,
      "ĠSometimes": 6645,
      "ĠHuman": 6646,
      "Ġintensity": 6647,
      "atus": 6648,
      "Ġnutritional": 6649,
      "Ġhealing": 6650,
      "Ġnecessarily": 6651,
      "Ġentertain": 6652,
      "ĠBlue": 6653,
      "Ġloop": 6654,
      "ĠLong": 6655,
      "Ġviruses": 6656,
      "Ġcav": 6657,
      "earing": 6658,
      "Ġlifes": 6659,
      "Ġserving": 6660,
      "ikes": 6661,
      "Ġplanted": 6662,
      "73": 6663,
      "Ġprecision": 6664,
      "atching": 6665,
      "Â·": 6666,
      "Ġspectrum": 6667,
      "urb": 6668,
      "Ġwilling": 6669,
      "arbon": 6670,
      "Ġrecipes": 6671,
      "Ġunderst": 6672,
      "Ġproductivity": 6673,
      "Ġleak": 6674,
      "phones": 6675,
      "Ġnoticed": 6676,
      "ka": 6677,
      "Ġtables": 6678,
      "Ġflexible": 6679,
      "Ġaluminum": 6680,
      "FA": 6681,
      "Ġpand": 6682,
      "ugs": 6683,
      "Ġmood": 6684,
      "Ġflexibility": 6685,
      "icted": 6686,
      "Ġfertilizer": 6687,
      "Ġov": 6688,
      "Ġenables": 6689,
      "ĠWood": 6690,
      "heet": 6691,
      "inity": 6692,
      "ĠSpace": 6693,
      "Ġlogic": 6694,
      "Ġholding": 6695,
      "tical": 6696,
      "Ġhur": 6697,
      "ĠStr": 6698,
      "amily": 6699,
      "Ġtick": 6700,
      "exp": 6701,
      "76": 6702,
      "Ġrecommendations": 6703,
      "Ġconscious": 6704,
      "rub": 6705,
      "84": 6706,
      "Ġgenerations": 6707,
      "Ġcompact": 6708,
      "BS": 6709,
      "Ġeffectiveness": 6710,
      "ĠFurthermore": 6711,
      "Ġpink": 6712,
      "orge": 6713,
      "Ġcontainers": 6714,
      "ĠMuseum": 6715,
      "Ġknew": 6716,
      "rab": 6717,
      "normal": 6718,
      "ĠFind": 6719,
      "ĠFree": 6720,
      "Ġtires": 6721,
      "Ġevolved": 6722,
      "othe": 6723,
      "Ġlies": 6724,
      "-T": 6725,
      "Ġreef": 6726,
      "Ġoverw": 6727,
      "Ġfunding": 6728,
      "Ġspr": 6729,
      "Ġfacing": 6730,
      "Ġregist": 6731,
      "Ġclub": 6732,
      "uel": 6733,
      "-P": 6734,
      "Ġclus": 6735,
      "ĠWashington": 6736,
      "Ġlived": 6737,
      "ĠEnvironmental": 6738,
      "Ġclients": 6739,
      "kay": 6740,
      "ounced": 6741,
      "fit": 6742,
      "CT": 6743,
      "Ġprevention": 6744,
      "Ġdive": 6745,
      "Ġlimits": 6746,
      "Ġyouth": 6747,
      "Ġcrow": 6748,
      "esterol": 6749,
      "ĠDise": 6750,
      "Ġantibiotics": 6751,
      "Ġvibrant": 6752,
      "Ġreput": 6753,
      "pm": 6754,
      "Ġhidden": 6755,
      "ĠAP": 6756,
      "aped": 6757,
      "Ġextend": 6758,
      "Every": 6759,
      "irty": 6760,
      "Ġpaid": 6761,
      "Ġbuff": 6762,
      "Ġapparent": 6763,
      "ĠDig": 6764,
      "Ġselecting": 6765,
      "agine": 6766,
      "ĠInternet": 6767,
      "oons": 6768,
      "78": 6769,
      "Ġfitness": 6770,
      "Ġclar": 6771,
      "Ġeliminate": 6772,
      "Ġconversation": 6773,
      "cont": 6774,
      "Read": 6775,
      "Ġderived": 6776,
      "Ġhealthier": 6777,
      "Lear": 6778,
      "Ġnuclear": 6779,
      "aj": 6780,
      "ĠBr": 6781,
      "iology": 6782,
      "Ġstroke": 6783,
      "Ġvariation": 6784,
      "Ġresolution": 6785,
      "omfort": 6786,
      "ĠTreat": 6787,
      "ometer": 6788,
      "ĠEqu": 6789,
      "otal": 6790,
      "Ġburning": 6791,
      "Ġsexual": 6792,
      "Ġintegrated": 6793,
      "ï¿": 6794,
      "Ġstorm": 6795,
      "ket": 6796,
      "Ġdefine": 6797,
      "mitted": 6798,
      "Ġgluc": 6799,
      "coming": 6800,
      "ources": 6801,
      "ï¿½": 6802,
      "ĠWestern": 6803,
      "Ġwonderful": 6804,
      "xid": 6805,
      "ĠPost": 6806,
      "Ġrecognized": 6807,
      "Where": 6808,
      "Ġwidth": 6809,
      "Ġappreciate": 6810,
      "Ġauto": 6811,
      "ĠPress": 6812,
      "istant": 6813,
      "Ġcompl": 6814,
      "Ġcalculate": 6815,
      "soft": 6816,
      "Ġvet": 6817,
      "top": 6818,
      "PU": 6819,
      "Ġcomplicated": 6820,
      "During": 6821,
      "Ġcoastal": 6822,
      "Ġattacks": 6823,
      "CS": 6824,
      "\"ĊĊ": 6825,
      "Ġathlet": 6826,
      "AA": 6827,
      "89": 6828,
      "Ġdigestive": 6829,
      "ĠAcad": 6830,
      "gal": 6831,
      "Ġlinear": 6832,
      "fe": 6833,
      "Ġmovie": 6834,
      "Ġbabies": 6835,
      "ĠUV": 6836,
      "Ġfav": 6837,
      "Don": 6838,
      "Ġmer": 6839,
      "ĠLondon": 6840,
      "alian": 6841,
      "87": 6842,
      "Ġaccommod": 6843,
      "ĠAND": 6844,
      "Ġcitiz": 6845,
      "Ġscore": 6846,
      "edom": 6847,
      "Ġfather": 6848,
      "Ġartist": 6849,
      "hemistry": 6850,
      "Ġmature": 6851,
      "Ġgradually": 6852,
      "ĠHaw": 6853,
      "DF": 6854,
      "Ġsac": 6855,
      "Ġversatile": 6856,
      "hent": 6857,
      "Ġtraits": 6858,
      "Ġdied": 6859,
      "ENT": 6860,
      "unt": 6861,
      "Inst": 6862,
      "Ġnervous": 6863,
      "ĠDel": 6864,
      "rape": 6865,
      "ĠAT": 6866,
      "Ġabilities": 6867,
      "ĠPlay": 6868,
      "'.": 6869,
      "Ġarms": 6870,
      "ĠArch": 6871,
      "Ġacts": 6872,
      "Ġgases": 6873,
      "Ġrobots": 6874,
      "67": 6875,
      "Ġcompat": 6876,
      "Ġsuscept": 6877,
      "fly": 6878,
      "Ġconvert": 6879,
      "Ġsilver": 6880,
      "ĠAmazon": 6881,
      "Ġassume": 6882,
      "Ġweap": 6883,
      "Ġtele": 6884,
      "Ġinspect": 6885,
      "Ġconclud": 6886,
      "Ġrespectively": 6887,
      "ĠGroup": 6888,
      "Ġcapital": 6889,
      "Ġaims": 6890,
      "Ġkilled": 6891,
      "Ġdrivers": 6892,
      "Ġongoing": 6893,
      "ocket": 6894,
      "itness": 6895,
      "Does": 6896,
      "Ġincome": 6897,
      "Ġconvenient": 6898,
      "Ġsch": 6899,
      "-level": 6900,
      "fra": 6901,
      "fast": 6902,
      "Ġseat": 6903,
      "Ġexperiencing": 6904,
      "Ġwaiting": 6905,
      "Ġsyndrome": 6906,
      "Ġgenome": 6907,
      "Ġsubsequ": 6908,
      "Ġblend": 6909,
      "ĠVe": 6910,
      "Ġpersist": 6911,
      "Ġgrid": 6912,
      "Ġgeomet": 6913,
      "Ġcorresponding": 6914,
      "ĠTem": 6915,
      "ĠCentral": 6916,
      "??": 6917,
      "Ġdifficulty": 6918,
      "Ġsteam": 6919,
      "Ġcircumst": 6920,
      "ĠInformation": 6921,
      "Ġcomments": 6922,
      "Ġconsumer": 6923,
      "osion": 6924,
      "Che": 6925,
      "uses": 6926,
      "ĠTry": 6927,
      "etal": 6928,
      "Ġvariations": 6929,
      "ints": 6930,
      "Ġheads": 6931,
      "Ġvariables": 6932,
      "Ġclay": 6933,
      "Ġnarrow": 6934,
      "osaur": 6935,
      "Ġpermanent": 6936,
      "Ġpartner": 6937,
      "Ġpix": 6938,
      "ĠPract": 6939,
      "83": 6940,
      "certain": 6941,
      "Ġgal": 6942,
      "Ġdealing": 6943,
      "Ġrect": 6944,
      "Ġshall": 6945,
      "Ġfocuses": 6946,
      "Ġpotatoes": 6947,
      "ĠSil": 6948,
      "Ġdescribes": 6949,
      "âĢ¦ĊĊ": 6950,
      "Ġpresentation": 6951,
      "eles": 6952,
      "Ġinteractive": 6953,
      "type": 6954,
      "Ġrespiratory": 6955,
      "Ġcircle": 6956,
      "Ġserver": 6957,
      "Ġadequate": 6958,
      "Ġpackaging": 6959,
      "ĠMedical": 6960,
      "Ġdrops": 6961,
      "Ġwatering": 6962,
      "Ġbugs": 6963,
      "Ġimmediate": 6964,
      "Ġappoint": 6965,
      "Ġnearby": 6966,
      "Ġbiodiversity": 6967,
      "Ġmanaged": 6968,
      "Ġpreferred": 6969,
      "eping": 6970,
      "Ġpel": 6971,
      "Ġbottle": 6972,
      "ourse": 6973,
      "Ġflash": 6974,
      "ĠRNA": 6975,
      "Ġentry": 6976,
      "Ġsou": 6977,
      "Ġrib": 6978,
      "Ġcurriculum": 6979,
      "Ġsatell": 6980,
      "Ġ**": 6981,
      "Ġspeaking": 6982,
      "Ġrobust": 6983,
      "Ġmammals": 6984,
      "Ġparticipate": 6985,
      "izers": 6986,
      "Ġaccomp": 6987,
      "Ġpestic": 6988,
      "rich": 6989,
      "Ġkg": 6990,
      ".m": 6991,
      "oto": 6992,
      "Also": 6993,
      "RI": 6994,
      "Ġbeef": 6995,
      "Ġdecline": 6996,
      "Ġgrain": 6997,
      "atively": 6998,
      "Ġjack": 6999,
      "Ġoccurred": 7000,
      "ĠOnly": 7001,
      "Ġfederal": 7002,
      "Ġdemonstrate": 7003,
      "Ġnuts": 7004,
      "Share": 7005,
      "utch": 7006,
      "Ġcaught": 7007,
      "Ġduration": 7008,
      "Ġsupposed": 7009,
      "ĠHouse": 7010,
      "ĠProfessor": 7011,
      "heets": 7012,
      "ĠRad": 7013,
      "Ġleader": 7014,
      "ĠMat": 7015,
      "Ġintense": 7016,
      "Ġpit": 7017,
      "Ġdurable": 7018,
      "Ġsan": 7019,
      "Ġsodium": 7020,
      "Ġimplementation": 7021,
      "Ġhop": 7022,
      "Ġbreaking": 7023,
      "amic": 7024,
      "Ġpairs": 7025,
      "Ġcontem": 7026,
      "usiness": 7027,
      "Ġfant": 7028,
      "Ġrubber": 7029,
      "ĠLaw": 7030,
      "Ġcomputing": 7031,
      "Ġfrozen": 7032,
      "ĠOh": 7033,
      "onomic": 7034,
      "Ġcolumn": 7035,
      "ĠMoreover": 7036,
      "Ġfunctionality": 7037,
      "Ġrod": 7038,
      "uning": 7039,
      "\"We": 7040,
      "ĠAustralian": 7041,
      "ĠPublic": 7042,
      "Ġprofile": 7043,
      "Ġjoints": 7044,
      "ĠBest": 7045,
      ".org": 7046,
      "Ġsuffering": 7047,
      "Ġsections": 7048,
      "Ġoils": 7049,
      "omin": 7050,
      "Ġshock": 7051,
      "Ġvulnerable": 7052,
      "Ġframework": 7053,
      "terior": 7054,
      "ĠPal": 7055,
      "Ġclient": 7056,
      "van": 7057,
      "-day": 7058,
      "Ġpeak": 7059,
      "Ġdirector": 7060,
      "reens": 7061,
      "aterials": 7062,
      "Ġhypothes": 7063,
      "Ġshorter": 7064,
      "ona": 7065,
      "Ġstated": 7066,
      "ĠUnderstanding": 7067,
      "Ġson": 7068,
      "ocation": 7069,
      "ritis": 7070,
      "band": 7071,
      "Ġtough": 7072,
      "Ġfocusing": 7073,
      "OW": 7074,
      "ĠAS": 7075,
      "Ġcotton": 7076,
      "ĠNAS": 7077,
      "ĠJournal": 7078,
      "Ġpossibilities": 7079,
      "Ġdetermining": 7080,
      "ading": 7081,
      "Ġhybrid": 7082,
      "advant": 7083,
      "erior": 7084,
      "Ġstrip": 7085,
      "Ġterrit": 7086,
      "Ġliterature": 7087,
      "Ġstreet": 7088,
      "ĠShould": 7089,
      "bohyd": 7090,
      "ini": 7091,
      "Ġforming": 7092,
      ",âĢĿ": 7093,
      "ĠFace": 7094,
      "-by": 7095,
      ".D": 7096,
      "ĠÃ": 7097,
      "quit": 7098,
      "Ġcategory": 7099,
      "ĠExp": 7100,
      "anish": 7101,
      "Ġtoys": 7102,
      "lessly": 7103,
      "Ġcolleagues": 7104,
      "Ġdiscomfort": 7105,
      "mented": 7106,
      "mentation": 7107,
      "efits": 7108,
      "gien": 7109,
      "Ġtons": 7110,
      "Ġcompress": 7111,
      "Ġviews": 7112,
      "Ġdietary": 7113,
      "Ġprotecting": 7114,
      "mor": 7115,
      "Ġcalm": 7116,
      "Ġunknown": 7117,
      "berg": 7118,
      "Ġourselves": 7119,
      "CD": 7120,
      "pecific": 7121,
      "Ġgentle": 7122,
      "apping": 7123,
      "OM": 7124,
      "ĠForm": 7125,
      "Ġshowc": 7126,
      "ĠPet": 7127,
      "ĠSuch": 7128,
      "Ġassembly": 7129,
      "Ġtraum": 7130,
      "Ġpilot": 7131,
      "ago": 7132,
      "Ġdoctors": 7133,
      "wo": 7134,
      "Because": 7135,
      "Ġveterinarian": 7136,
      "Ġrepeated": 7137,
      "Ġdense": 7138,
      "Ġprocessed": 7139,
      "ĠMot": 7140,
      "Ġthoroughly": 7141,
      "Ġstems": 7142,
      "ĠGermany": 7143,
      "Ġobserve": 7144,
      "Ġgoods": 7145,
      "Ġlargely": 7146,
      "rument": 7147,
      "Ġtheore": 7148,
      "Ġchest": 7149,
      "ĠSecond": 7150,
      "Ġcham": 7151,
      "Ġdoors": 7152,
      "Ġevaluate": 7153,
      "Ġdurability": 7154,
      "Ġdeer": 7155,
      "tery": 7156,
      ".'": 7157,
      "Ġcultures": 7158,
      "ãĢ": 7159,
      "Ġlandscap": 7160,
      "Ġadvoc": 7161,
      "ĠAR": 7162,
      "ushing": 7163,
      "ĠAtt": 7164,
      "Ġintest": 7165,
      "aneously": 7166,
      "nger": 7167,
      "ĠZe": 7168,
      "cycl": 7169,
      "Ġvector": 7170,
      "Ġdefect": 7171,
      "Ġbiom": 7172,
      "Ġexistence": 7173,
      "Ġtells": 7174,
      "inent": 7175,
      "Ġreceiving": 7176,
      "luding": 7177,
      "Ġow": 7178,
      "bage": 7179,
      "ĠThose": 7180,
      "Ġherbs": 7181,
      "heric": 7182,
      "icit": 7183,
      "Ġidentifying": 7184,
      "ĠSam": 7185,
      "ĠRegular": 7186,
      "Ġinstrum": 7187,
      "Ġcater": 7188,
      "ĠPot": 7189,
      "adian": 7190,
      "Ġprove": 7191,
      "Ġnor": 7192,
      "AI": 7193,
      "Ġgate": 7194,
      "Ġintroduce": 7195,
      "Ġbrands": 7196,
      "Ġnavigate": 7197,
      "Ġlip": 7198,
      "Ġbringing": 7199,
      "Ġtack": 7200,
      "orrect": 7201,
      "ceans": 7202,
      "Ġaffecting": 7203,
      "ĠPan": 7204,
      "Ġpharm": 7205,
      "Ġholid": 7206,
      "ĠConn": 7207,
      "reating": 7208,
      "Ġfing": 7209,
      "Ġmarks": 7210,
      "Ġrevealed": 7211,
      "Ġclaims": 7212,
      "althy": 7213,
      "ĠNews": 7214,
      "Ġcholesterol": 7215,
      "ĠBig": 7216,
      "Ġkm": 7217,
      "Ġdisrupt": 7218,
      "Ġinvent": 7219,
      "Ġinfest": 7220,
      "Ġmouse": 7221,
      "utive": 7222,
      "elry": 7223,
      "Ġaffordable": 7224,
      "ĠSocial": 7225,
      "Ġlifespan": 7226,
      "Ġfibers": 7227,
      "Ġquantity": 7228,
      "ĠFigure": 7229,
      "anger": 7230,
      "zymes": 7231,
      "Ġaward": 7232,
      ",ĊĊ": 7233,
      "ulture": 7234,
      "Ġoptical": 7235,
      "Ġcomprom": 7236,
      "Ġproven": 7237,
      "Ġgreatest": 7238,
      "Ġthickness": 7239,
      "Just": 7240,
      "OD": 7241,
      "Ġjuice": 7242,
      "Ġidentity": 7243,
      "Ġpropag": 7244,
      "Ġexamine": 7245,
      "Ġanalog": 7246,
      "Ġexists": 7247,
      "Ġformal": 7248,
      "Ġsupplements": 7249,
      "Ġavailability": 7250,
      "Ġengagement": 7251,
      "Ġbrake": 7252,
      "Ġaggressive": 7253,
      "pat": 7254,
      "Ġmitig": 7255,
      "mal": 7256,
      "such": 7257,
      "win": 7258,
      "Ġlistening": 7259,
      "Ġleadership": 7260,
      "ĠProcess": 7261,
      "Ġgerm": 7262,
      "rays": 7263,
      "Ġobesity": 7264,
      "Ġtheme": 7265,
      "Ġfilters": 7266,
      "Ġmere": 7267,
      "Ġsynthetic": 7268,
      "Ġrecording": 7269,
      "lectric": 7270,
      "ĠSuper": 7271,
      "ĠAdv": 7272,
      "Which": 7273,
      "zyme": 7274,
      "riction": 7275,
      "ican": 7276,
      "Ġcandid": 7277,
      "ĠClimate": 7278,
      "Ġcompetitive": 7279,
      "69": 7280,
      "Ġprinter": 7281,
      "Ġprotocol": 7282,
      "Ġprofit": 7283,
      "ĠFinally": 7284,
      "Ġshouldn": 7285,
      "Ġreaders": 7286,
      "ivest": 7287,
      "ĠFrance": 7288,
      "hered": 7289,
      "Ġhazard": 7290,
      "79": 7291,
      "astics": 7292,
      "ĠMedicine": 7293,
      "ĠIll": 7294,
      "(s": 7295,
      "Ġproof": 7296,
      "Ġbought": 7297,
      "Ġroles": 7298,
      "Ġpriorit": 7299,
      "Ġneighb": 7300,
      "Ġsalmon": 7301,
      "hav": 7302,
      "Ġgap": 7303,
      "Ġexplanation": 7304,
      "Ġbreaks": 7305,
      "Ġeleph": 7306,
      "Ġmirror": 7307,
      "-cl": 7308,
      "Ġsnake": 7309,
      "Ġanalyze": 7310,
      "Ġboxes": 7311,
      "Ġeco": 7312,
      "ĠFalse": 7313,
      "Ġphilos": 7314,
      "Ġsched": 7315,
      "Ġdispl": 7316,
      "Ġconsideration": 7317,
      "Ġessentially": 7318,
      "UR": 7319,
      "ogether": 7320,
      "udd": 7321,
      "Ġcrew": 7322,
      "Ġpersonality": 7323,
      "Ġcub": 7324,
      "otype": 7325,
      "Ġexpansion": 7326,
      "Ġperce": 7327,
      "ĠCell": 7328,
      "Ġpregnant": 7329,
      "ĠMach": 7330,
      "ooked": 7331,
      "ael": 7332,
      "Ġevaluation": 7333,
      "medi": 7334,
      "ĠEss": 7335,
      "ĠProv": 7336,
      "Ġwast": 7337,
      "Ġdecay": 7338,
      "Ġevolutionary": 7339,
      "RNA": 7340,
      "Ġresidents": 7341,
      "Ġsoci": 7342,
      "face": 7343,
      "ĠMor": 7344,
      "Ġunusual": 7345,
      "rosion": 7346,
      "Even": 7347,
      "oust": 7348,
      "Ġtreating": 7349,
      "Ġven": 7350,
      "flies": 7351,
      "Ġdomain": 7352,
      "Ġkidney": 7353,
      "AG": 7354,
      "Ġidentification": 7355,
      "Ġwheels": 7356,
      "Ġchannels": 7357,
      "lder": 7358,
      "CE": 7359,
      "Ġreprodu": 7360,
      "forcement": 7361,
      "Ġhyper": 7362,
      "Ġcrystal": 7363,
      "Ġfisher": 7364,
      "asm": 7365,
      "About": 7366,
      "Ġinvolving": 7367,
      "Ġcategories": 7368,
      "UT": 7369,
      "ĠMo": 7370,
      "Ġagent": 7371,
      "Ġusual": 7372,
      "Ġmoon": 7373,
      "gical": 7374,
      "Ġregardless": 7375,
      "cal": 7376,
      "Ġdried": 7377,
      "-and": 7378,
      "oids": 7379,
      "Understanding": 7380,
      "Ġuniform": 7381,
      "osquit": 7382,
      "Ġjoy": 7383,
      "pled": 7384,
      "Ġaccurately": 7385,
      "ude": 7386,
      "-a": 7387,
      "Ġestimate": 7388,
      "Ġbrows": 7389,
      "ioxid": 7390,
      "ĠUSA": 7391,
      "ĠConf": 7392,
      "Ġunable": 7393,
      "ĠMa": 7394,
      "Ġabsolutely": 7395,
      "Ġrestaurant": 7396,
      "Ġinterests": 7397,
      "etime": 7398,
      "Ġspark": 7399,
      "Ġdissol": 7400,
      "Ġcomposed": 7401,
      "ĠWindows": 7402,
      "Ġdemonstrated": 7403,
      "Ġrecover": 7404,
      "ĠQuestions": 7405,
      "Ġlux": 7406,
      "lock": 7407,
      "Ġcomplexity": 7408,
      "ingly": 7409,
      "Of": 7410,
      "Ġequipped": 7411,
      "-shaped": 7412,
      "ctu": 7413,
      "Ġempty": 7414,
      "Ġgarlic": 7415,
      "Ġcircumstances": 7416,
      "Ġcrack": 7417,
      "Ġlaunch": 7418,
      "Ġarchitecture": 7419,
      "Ġinitially": 7420,
      "Ġenhancing": 7421,
      "Ġcovering": 7422,
      "Ġtoile": 7423,
      ".C": 7424,
      "Ġstead": 7425,
      "ya": 7426,
      "ivestock": 7427,
      "ĠRight": 7428,
      "âĢľ": 7429,
      "iger": 7430,
      "Water": 7431,
      "Ġincorporating": 7432,
      "Ġunderstood": 7433,
      "Ġpy": 7434,
      "Ġcharacterized": 7435,
      "forest": 7436,
      "Ġgiant": 7437,
      "ĠCoun": 7438,
      "osc": 7439,
      "Ġtal": 7440,
      "Ġtension": 7441,
      "Ġinvention": 7442,
      "eting": 7443,
      "Ġblank": 7444,
      "Ġtag": 7445,
      "ML": 7446,
      "-H": 7447,
      "field": 7448,
      "Ġcurve": 7449,
      "Ġgently": 7450,
      "Ġtruck": 7451,
      "Ġgrains": 7452,
      "Ġbulbs": 7453,
      "ĠThanks": 7454,
      "Ġcow": 7455,
      "mble": 7456,
      "Ġattractive": 7457,
      "ĠEnd": 7458,
      "Ġdiscipl": 7459,
      "ĠMult": 7460,
      "Ġincorporate": 7461,
      "Ġsulf": 7462,
      "Ġencounter": 7463,
      "Ġprovider": 7464,
      "do": 7465,
      "obe": 7466,
      "working": 7467,
      "ĠPlace": 7468,
      "Ġfeather": 7469,
      "ĠDogs": 7470,
      "Ġexcited": 7471,
      "Ġglucose": 7472,
      "ĠMass": 7473,
      "Ġcharged": 7474,
      "Ġdocuments": 7475,
      "Ġmodule": 7476,
      "Ġsoph": 7477,
      "anguages": 7478,
      "Ġsaving": 7479,
      "elly": 7480,
      "pread": 7481,
      "action": 7482,
      "Ġriding": 7483,
      "Ġdies": 7484,
      "Ġbeet": 7485,
      "Ġfract": 7486,
      "Ġbuck": 7487,
      "Ġintegr": 7488,
      "ĠPhotos": 7489,
      "Ġinfect": 7490,
      "Ġhimself": 7491,
      "while": 7492,
      "Ġsensitivity": 7493,
      "Ġcarrying": 7494,
      "Ġneur": 7495,
      "Ġrelief": 7496,
      "Ġid": 7497,
      "ĠAtlantic": 7498,
      "Ġdoubt": 7499,
      "Ġmask": 7500,
      "rem": 7501,
      "ĠAvoid": 7502,
      "Ġtrad": 7503,
      "ĠFollow": 7504,
      "Ġrough": 7505,
      "Ġvegan": 7506,
      "Ġmixing": 7507,
      "Ġdimensions": 7508,
      "Ġrear": 7509,
      "Ġagents": 7510,
      "Ġsmoking": 7511,
      "Ġcoral": 7512,
      "Ġradi": 7513,
      "Ġreaching": 7514,
      "overnment": 7515,
      "ĠDraw": 7516,
      "Ġingredient": 7517,
      "Ġwires": 7518,
      "Ġmini": 7519,
      "Ġvill": 7520,
      "Ġneighbor": 7521,
      "Ġgift": 7522,
      "Ġfalse": 7523,
      "Ġpipes": 7524,
      "Ġranging": 7525,
      "Ġerrors": 7526,
      "Ġforeign": 7527,
      "thritis": 7528,
      "ĠProper": 7529,
      "rying": 7530,
      "ymph": 7531,
      "ĠWord": 7532,
      "Ġwestern": 7533,
      "Ġphenomenon": 7534,
      "SP": 7535,
      "assium": 7536,
      "Ġlift": 7537,
      "roductive": 7538,
      "Sim": 7539,
      "Well": 7540,
      "itage": 7541,
      "Have": 7542,
      "ĠApple": 7543,
      "ĠVir": 7544,
      "Ġdetected": 7545,
      "Ġappeal": 7546,
      "Ġpreval": 7547,
      "Ġperforming": 7548,
      "rained": 7549,
      "ĠAgricult": 7550,
      "Ġoutcome": 7551,
      "Red": 7552,
      "izza": 7553,
      "Ġdirections": 7554,
      "oli": 7555,
      "Ġmine": 7556,
      "Ġstimul": 7557,
      "Ġpackage": 7558,
      "Ġ`": 7559,
      "Ġbits": 7560,
      "Ġecological": 7561,
      "Ġsoils": 7562,
      "Gen": 7563,
      "Ġmessages": 7564,
      "Ġfalls": 7565,
      "thal": 7566,
      "ĠUN": 7567,
      "Ġexpressed": 7568,
      "Ġculinary": 7569,
      "Ġrivers": 7570,
      "Ġcake": 7571,
      "Ġreb": 7572,
      "pection": 7573,
      "auc": 7574,
      "Ġspeeds": 7575,
      "Ġroute": 7576,
      "Ġstraw": 7577,
      "Ġyounger": 7578,
      "Ġine": 7579,
      "Ġdrainage": 7580,
      "utrition": 7581,
      "rade": 7582,
      "ĠConservation": 7583,
      "OC": 7584,
      "Ġauthent": 7585,
      "Ġthrow": 7586,
      "Ġexclus": 7587,
      "Ġcalculated": 7588,
      "night": 7589,
      "Ġexploration": 7590,
      "Ġbarrier": 7591,
      "Ġsle": 7592,
      "Col": 7593,
      "ĠTop": 7594,
      "Ġpill": 7595,
      "Ġvan": 7596,
      "ounce": 7597,
      "ĠDC": 7598,
      "Ġrising": 7599,
      "Ġdisappe": 7600,
      "Ġdelicate": 7601,
      "ĠBur": 7602,
      "Ġdanger": 7603,
      "Ġbeach": 7604,
      "onia": 7605,
      "\":\"": 7606,
      "ruit": 7607,
      "Ġdrought": 7608,
      "Ġsimult": 7609,
      "Ġspending": 7610,
      "ĠWildlife": 7611,
      ";ĊĊ": 7612,
      "gu": 7613,
      "Ġexhibit": 7614,
      "berries": 7615,
      "Ġsomewhat": 7616,
      "Ġpositions": 7617,
      "Ġobservations": 7618,
      "ĠCur": 7619,
      "cknow": 7620,
      "Ġreviews": 7621,
      "Ġselling": 7622,
      "esium": 7623,
      "Ġfacility": 7624,
      "Go": 7625,
      "ĠJe": 7626,
      "Ġallergies": 7627,
      "Ġanimation": 7628,
      "Ġdriven": 7629,
      "ĠGeneral": 7630,
      "Ġbonds": 7631,
      "Ġcellular": 7632,
      "ĠType": 7633,
      "gent": 7634,
      "ĠDavid": 7635,
      "ĠFin": 7636,
      "uty": 7637,
      "ptic": 7638,
      "oted": 7639,
      "ersonal": 7640,
      "Ġvolcan": 7641,
      "/m": 7642,
      "plete": 7643,
      "Ġsplit": 7644,
      "Ġcrust": 7645,
      "Ġglasses": 7646,
      "Ġquiet": 7647,
      "omas": 7648,
      "Ġlaun": 7649,
      "ĠNASA": 7650,
      "-scale": 7651,
      "ili": 7652,
      "lig": 7653,
      "Ġcompens": 7654,
      "ults": 7655,
      "reated": 7656,
      "Ġinstrument": 7657,
      "Ġfunctioning": 7658,
      "Ġuniversity": 7659,
      "ĠChange": 7660,
      "Ġamino": 7661,
      "Ġsole": 7662,
      "Ġcenturies": 7663,
      "ĠSafety": 7664,
      "Ġconfident": 7665,
      "ĠSimilar": 7666,
      "Ġsail": 7667,
      "Ġvaries": 7668,
      "Ġworn": 7669,
      "ĠGener": 7670,
      "oving": 7671,
      "Ġimplications": 7672,
      "ĠPM": 7673,
      "ĠID": 7674,
      "Ġalgae": 7675,
      "ĠFish": 7676,
      "ĠBook": 7677,
      "Ġcement": 7678,
      "Ġincredible": 7679,
      "Ġwiring": 7680,
      "Ġvisitors": 7681,
      "Ġpond": 7682,
      "Ġcombine": 7683,
      "Ġera": 7684,
      "Ġhormone": 7685,
      "ĠBack": 7686,
      "icular": 7687,
      "Ġdistributed": 7688,
      "Ġsurge": 7689,
      "Ġchips": 7690,
      "ĠTrue": 7691,
      "Ġprevents": 7692,
      "Ġconversion": 7693,
      "Ġmuse": 7694,
      "........": 7695,
      "Ġtomatoes": 7696,
      "Make": 7697,
      "Ġregional": 7698,
      "Ġmodified": 7699,
      "Ġdough": 7700,
      "Ġcoverage": 7701,
      "sis": 7702,
      "Ġore": 7703,
      "Ġcontributing": 7704,
      "herent": 7705,
      "net": 7706,
      "Ġbol": 7707,
      "this": 7708,
      "Ġprobability": 7709,
      "Ġcombat": 7710,
      "Ġprone": 7711,
      "Ġdiamond": 7712,
      "SS": 7713,
      "Ġloud": 7714,
      "Ġpassing": 7715,
      "ĠCouncil": 7716,
      "rane": 7717,
      "Pr": 7718,
      "isl": 7719,
      "ww": 7720,
      "\",\"": 7721,
      "ĠSn": 7722,
      "adder": 7723,
      "Ġposts": 7724,
      "Ġrarely": 7725,
      "Ġorient": 7726,
      "Ġpopularity": 7727,
      "Ġthreats": 7728,
      "Ġdesire": 7729,
      "ville": 7730,
      "ĠMil": 7731,
      "Ġlosing": 7732,
      "arming": 7733,
      "Ġscientist": 7734,
      "Ġincredibly": 7735,
      "sor": 7736,
      "Ġca": 7737,
      "Ġoxide": 7738,
      "IF": 7739,
      "Ġtracking": 7740,
      "bow": 7741,
      "Ġwing": 7742,
      "Ġoriginally": 7743,
      "Ġresc": 7744,
      "lo": 7745,
      "Ġalternatives": 7746,
      "owered": 7747,
      "alls": 7748,
      "omic": 7749,
      "Ġoutdoors": 7750,
      "ĠBal": 7751,
      "Ġtone": 7752,
      "Ġwax": 7753,
      "Ġmul": 7754,
      "Ġdow": 7755,
      "Ġepis": 7756,
      "velength": 7757,
      "Ġcharacteristic": 7758,
      "ĠMem": 7759,
      "Ġcontrolling": 7760,
      "rian": 7761,
      "Ġendangered": 7762,
      "âĪĴ": 7763,
      "Ġorganism": 7764,
      "Ġtreats": 7765,
      "Ġfreedom": 7766,
      "Ġethical": 7767,
      "ĠMS": 7768,
      "Ġbub": 7769,
      "Ġdrawn": 7770,
      "-L": 7771,
      "everal": 7772,
      "Ġprinted": 7773,
      "Ġreaches": 7774,
      "Ġgained": 7775,
      "Ġwarning": 7776,
      "Ġremarkable": 7777,
      "Ġimplemented": 7778,
      "Ġbranch": 7779,
      "EP": 7780,
      "orld": 7781,
      "Ġdecade": 7782,
      "Ġblade": 7783,
      "aft": 7784,
      "Ġwider": 7785,
      "asters": 7786,
      "Ġovercome": 7787,
      "ĠMiss": 7788,
      "ĠCy": 7789,
      "text": 7790,
      "âĢ¦âĢ¦": 7791,
      "Ġimmun": 7792,
      "erts": 7793,
      "idespread": 7794,
      "Ġobjective": 7795,
      "Ġguard": 7796,
      "Ġletters": 7797,
      "\"I": 7798,
      "Ġexperimental": 7799,
      "Any": 7800,
      "cm": 7801,
      "Ġcorpor": 7802,
      "ĠSciences": 7803,
      "Ġpersonalized": 7804,
      "etch": 7805,
      "Ġplates": 7806,
      "Ġneural": 7807,
      "plate": 7808,
      "inate": 7809,
      "ports": 7810,
      "Â®": 7811,
      "Ġintegration": 7812,
      "Ġorganized": 7813,
      "othing": 7814,
      "proof": 7815,
      "Ġrepresented": 7816,
      "egin": 7817,
      "ĠNote": 7818,
      "Ġinver": 7819,
      "Ġintricate": 7820,
      "Ġcarbohyd": 7821,
      "pes": 7822,
      "ega": 7823,
      "urp": 7824,
      "ĠHy": 7825,
      "Ġboundaries": 7826,
      "Ġenerg": 7827,
      "Ġgray": 7828,
      ".The": 7829,
      "Ġfilling": 7830,
      "asant": 7831,
      "ogenic": 7832,
      "Ġtrial": 7833,
      "Ġdesk": 7834,
      "Ġapps": 7835,
      "onduct": 7836,
      "Ġopened": 7837,
      "Ġrotation": 7838,
      "Ġprescrib": 7839,
      "Ġpreparing": 7840,
      "Ġking": 7841,
      "Ġfrust": 7842,
      "igue": 7843,
      "Ġfatty": 7844,
      "ĠChoose": 7845,
      "Ġalk": 7846,
      "Ġaddressing": 7847,
      "Ġcomplications": 7848,
      "ĠIndust": 7849,
      "Per": 7850,
      "Ġchildhood": 7851,
      "Ġoverwhel": 7852,
      "Ġions": 7853,
      "Ġpreserve": 7854,
      "Ġsomewhere": 7855,
      "Ġescape": 7856,
      "rapeut": 7857,
      "amination": 7858,
      "ĠPlants": 7859,
      "ocr": 7860,
      "Ġrelation": 7861,
      "Ġdil": 7862,
      "Ġfats": 7863,
      "Sm": 7864,
      "taining": 7865,
      "Ġlock": 7866,
      "oa": 7867,
      "Ġinspired": 7868,
      "izz": 7869,
      "Ġguy": 7870,
      "ĠTO": 7871,
      "Ġcattle": 7872,
      "Ġworkshop": 7873,
      "Ġgenerator": 7874,
      "Ġmicrow": 7875,
      "ools": 7876,
      "Ġhygien": 7877,
      "riting": 7878,
      "tles": 7879,
      "Ġpip": 7880,
      "Am": 7881,
      "ĠSym": 7882,
      "Ġcabin": 7883,
      "Ġnone": 7884,
      "ĠSing": 7885,
      "Ġmatrix": 7886,
      "ĠâĢĺ": 7887,
      "Ġdiffer": 7888,
      "pie": 7889,
      "ĠDifferent": 7890,
      "Ġscript": 7891,
      "Ġmyth": 7892,
      "ideo": 7893,
      "Ġtiming": 7894,
      "Ġcomplement": 7895,
      "Ġenabling": 7896,
      "Ġgum": 7897,
      "Ġtargets": 7898,
      "roat": 7899,
      "sters": 7900,
      "ĠHyd": 7901,
      "encing": 7902,
      "Ġgrad": 7903,
      "ĠConst": 7904,
      "Ġenhanced": 7905,
      "rons": 7906,
      "Ġrust": 7907,
      "agen": 7908,
      "Ġembod": 7909,
      "Ġgast": 7910,
      "Ġengineers": 7911,
      "icul": 7912,
      "ĠImp": 7913,
      "Ġadventure": 7914,
      "ĠHol": 7915,
      "Ġunex": 7916,
      "Ġintervention": 7917,
      "May": 7918,
      "ĠNor": 7919,
      "Ġembry": 7920,
      "Ġwebsites": 7921,
      "aters": 7922,
      "ĠMr": 7923,
      "Ġlimitations": 7924,
      "Ġsurprising": 7925,
      "Ġchip": 7926,
      "Ġindeed": 7927,
      "ola": 7928,
      "Ġremind": 7929,
      "Ġmarked": 7930,
      "Ġtotally": 7931,
      "Ġconvey": 7932,
      "Ġinsulin": 7933,
      "Ġphr": 7934,
      "ĠIP": 7935,
      "Ġdepartment": 7936,
      "Ġhal": 7937,
      "Fig": 7938,
      "edge": 7939,
      "olph": 7940,
      "Ġtract": 7941,
      "Ġinsight": 7942,
      "Expl": 7943,
      "Ġantioxid": 7944,
      "rous": 7945,
      "Ġconsumed": 7946,
      "Ġfarms": 7947,
      "ĠMag": 7948,
      "rium": 7949,
      "Ġretail": 7950,
      "sey": 7951,
      "Ġleather": 7952,
      "ĠEngineering": 7953,
      "ĠDown": 7954,
      "Ġflows": 7955,
      "lete": 7956,
      "Ġaids": 7957,
      "ĠKey": 7958,
      "ĠAp": 7959,
      "ĠList": 7960,
      "Ġhouses": 7961,
      "Ġjewelry": 7962,
      "ĠCarol": 7963,
      "Ġduct": 7964,
      "zil": 7965,
      "Ġadvis": 7966,
      "Ġanten": 7967,
      "riday": 7968,
      "Ġcirculation": 7969,
      "Ġsale": 7970,
      "Ġbare": 7971,
      "ĠMill": 7972,
      "Ġstretch": 7973,
      "ĠAL": 7974,
      "Ġlarv": 7975,
      "iking": 7976,
      "Ġdating": 7977,
      "Ġvarying": 7978,
      "],": 7979,
      "itamin": 7980,
      "Ġsleeping": 7981,
      "Ġpandemic": 7982,
      "Ġpresents": 7983,
      "Ġlake": 7984,
      "Ġachieving": 7985,
      "Ġenzymes": 7986,
      "Ġfalling": 7987,
      "ittle": 7988,
      "Aut": 7989,
      "Ġelectronics": 7990,
      "Ġlighter": 7991,
      "Ġfuels": 7992,
      "Ġchecking": 7993,
      "Ġwidespread": 7994,
      "ĠMary": 7995,
      "utter": 7996,
      "MP": 7997,
      "heat": 7998,
      "Ġlapt": 7999,
      "Ġpuzz": 8000,
      "Ġstones": 8001,
      "Ġchair": 8002,
      "Ġdecreased": 8003,
      "Ġdependent": 8004,
      "aren": 8005,
      "tee": 8006,
      "Ġtransplant": 8007,
      "Ġgirls": 8008,
      "Ġlanguages": 8009,
      "owners": 8010,
      "Ġstrict": 8011,
      "Ġstuck": 8012,
      "ĠMiddle": 8013,
      "cture": 8014,
      "Ġsuperior": 8015,
      "Ġcuts": 8016,
      "Ġpose": 8017,
      "Ġinvasive": 8018,
      "ĠCH": 8019,
      "itudes": 8020,
      "ĠCommun": 8021,
      "ĠMaybe": 8022,
      "Ġoccurring": 8023,
      "Ġdiagnosed": 8024,
      "ĠTable": 8025,
      "Ġmanif": 8026,
      "ĠChristmas": 8027,
      "Ġadj": 8028,
      "estone": 8029,
      "ĠServices": 8030,
      "-E": 8031,
      "afe": 8032,
      "Ġille": 8033,
      "Ġguys": 8034,
      "awn": 8035,
      "ĠAud": 8036,
      "ynthesis": 8037,
      "erenn": 8038,
      "duction": 8039,
      "ria": 8040,
      "Ġpod": 8041,
      "Ġterminal": 8042,
      "Ġvegetation": 8043,
      "Ġoceans": 8044,
      "Ġsatisfact": 8045,
      "Ġmush": 8046,
      "Ġbears": 8047,
      "Ġheater": 8048,
      "Ġcenters": 8049,
      "Ġpaying": 8050,
      "enger": 8051,
      "onnect": 8052,
      "ĠLeg": 8053,
      "Ġtender": 8054,
      "Ġbeam": 8055,
      "ĠLou": 8056,
      "Ġheavily": 8057,
      "Ġdollars": 8058,
      "icians": 8059,
      "Ġpapers": 8060,
      "igenous": 8061,
      "Ġcycles": 8062,
      "Ġroads": 8063,
      "Ġkin": 8064,
      "imensional": 8065,
      "osaurs": 8066,
      "Ġdegrad": 8067,
      "anned": 8068,
      "Ġbusy": 8069,
      "Ġcircular": 8070,
      "RA": 8071,
      "Ġaxis": 8072,
      "Ġwine": 8073,
      "Ġgrams": 8074,
      "Ġimper": 8075,
      "ĠRich": 8076,
      "hea": 8077,
      "Ġfif": 8078,
      "ĠTips": 8079,
      "Ġspiritual": 8080,
      "imer": 8081,
      "Ġrose": 8082,
      "stein": 8083,
      "Ġcheaper": 8084,
      "iances": 8085,
      "Ġfoli": 8086,
      "Ġpurple": 8087,
      "Ġships": 8088,
      "Ġperm": 8089,
      "Ġroughly": 8090,
      "Ġreligious": 8091,
      "Ġwhenever": 8092,
      "Ġfrost": 8093,
      "Ġtechnological": 8094,
      "oral": 8095,
      "ĠDid": 8096,
      "Ġbicy": 8097,
      "Ġupdated": 8098,
      "Ġhonest": 8099,
      "Ġimaging": 8100,
      "Ġstabil": 8101,
      "ĠReview": 8102,
      "Ġastron": 8103,
      "Ġlivestock": 8104,
      "ovascular": 8105,
      "ĠMax": 8106,
      "ĠGlobal": 8107,
      "Ġcash": 8108,
      "Ġabsorption": 8109,
      "Ġsubstrate": 8110,
      "Ġtrib": 8111,
      "ibration": 8112,
      "Ġentering": 8113,
      "Ġsusceptible": 8114,
      "Ġatomic": 8115,
      "ogens": 8116,
      "Ġchat": 8117,
      "Ġbeds": 8118,
      "ĠLabor": 8119,
      "kers": 8120,
      "Ġverte": 8121,
      "LA": 8122,
      "ĠFlow": 8123,
      "Ġsettle": 8124,
      "ĠNeed": 8125,
      "ĠAnim": 8126,
      "onna": 8127,
      "Ġsheets": 8128,
      "Ġenzyme": 8129,
      "Ġfootprint": 8130,
      "ki": 8131,
      "Ġdys": 8132,
      "Ġcock": 8133,
      "apse": 8134,
      "Ġsenior": 8135,
      "ĠMart": 8136,
      "Ġconnecting": 8137,
      "Ġfever": 8138,
      "Ġconserv": 8139,
      "Ġphysically": 8140,
      "Ġcris": 8141,
      "Ġfoliage": 8142,
      "eness": 8143,
      "Ġtech": 8144,
      "engers": 8145,
      "Introduction": 8146,
      "imp": 8147,
      "ĠCamp": 8148,
      "Ġediting": 8149,
      "Art": 8150,
      "Ġbattle": 8151,
      "Ġreson": 8152,
      "Ġcaps": 8153,
      "even": 8154,
      "Ġcuis": 8155,
      "Ġstrongly": 8156,
      "Ġupdate": 8157,
      "Ġdrying": 8158,
      "hma": 8159,
      "Ġhorizontal": 8160,
      "Ġreverse": 8161,
      "Ġprivacy": 8162,
      "Ġrh": 8163,
      "Ġcleaner": 8164,
      "ĠThough": 8165,
      "Ġdivision": 8166,
      "Ġdefault": 8167,
      "ĠEffect": 8168,
      "ĠArctic": 8169,
      "Ġcann": 8170,
      "Ġmeter": 8171,
      "amine": 8172,
      "ĠAnimal": 8173,
      "Ġscenario": 8174,
      "Ġtends": 8175,
      "Ġlitter": 8176,
      "Ġearn": 8177,
      "Ġeaten": 8178,
      "ayer": 8179,
      "Ġsuc": 8180,
      "ĠBu": 8181,
      "ĠLess": 8182,
      "Ġuncertain": 8183,
      "hyth": 8184,
      "Ġreplacing": 8185,
      "ĠNext": 8186,
      "Ġdeploy": 8187,
      "Ġthank": 8188,
      "Ġcataly": 8189,
      "ĠÂ·": 8190,
      "ĠClean": 8191,
      "Ġfort": 8192,
      "UN": 8193,
      "ĠCost": 8194,
      "Ġbasics": 8195,
      "ĠLow": 8196,
      "Ġwra": 8197,
      "Ġpus": 8198,
      "ĠDire": 8199,
      "Ġcoating": 8200,
      "Ġlungs": 8201,
      "Ġmeth": 8202,
      "ĠHand": 8203,
      "LC": 8204,
      "Ġwarmer": 8205,
      "Ġspecified": 8206,
      "Ġcorrel": 8207,
      "ĠAcademy": 8208,
      "Like": 8209,
      "Ġrural": 8210,
      "ĠWithout": 8211,
      "Ġmatters": 8212,
      "Ġdose": 8213,
      "Ġgender": 8214,
      "itative": 8215,
      "Ġstunning": 8216,
      "Ġindoors": 8217,
      "Ġregister": 8218,
      "Ġhang": 8219,
      "Ġcriteria": 8220,
      "Ġstir": 8221,
      "Ġclassified": 8222,
      "Ġutilize": 8223,
      "People": 8224,
      "Ġbulb": 8225,
      "Ġinstitutions": 8226,
      "Ġindicated": 8227,
      "Ġintelligent": 8228,
      "asma": 8229,
      "ĠAcc": 8230,
      "Ġstations": 8231,
      "Ġknife": 8232,
      "Ġstruggle": 8233,
      "()": 8234,
      "Ġregulation": 8235,
      "ĠSmall": 8236,
      "Ġversions": 8237,
      "fill": 8238,
      "Ġaquatic": 8239,
      "Ġflowering": 8240,
      "Ġaccounts": 8241,
      "Ġmosquit": 8242,
      "ĠFacebook": 8243,
      "rox": 8244,
      "Ġremed": 8245,
      "Ġwavelength": 8246,
      "ĠDisease": 8247,
      "ongevity": 8248,
      "oured": 8249,
      "ĠSpecial": 8250,
      "Ġru": 8251,
      "eto": 8252,
      "ĠCut": 8253,
      "Ġcampaign": 8254,
      "ĠLead": 8255,
      "Ġpurchasing": 8256,
      "Ġimplementing": 8257,
      "Ġconstit": 8258,
      "Ġshower": 8259,
      "Ġbloom": 8260,
      "Ġpenet": 8261,
      "Ġabnormal": 8262,
      "Ġanalys": 8263,
      "Ġdesigning": 8264,
      "ĠFran": 8265,
      "Ġrepairs": 8266,
      "Ġhus": 8267,
      "ĠKen": 8268,
      "âĢĻre": 8269,
      "icide": 8270,
      "Ġfootball": 8271,
      "Ġnine": 8272,
      "abul": 8273,
      "chnology": 8274,
      "Ġrepresentation": 8275,
      "Ġplot": 8276,
      "Ġspat": 8277,
      "Ġhem": 8278,
      "ĠJames": 8279,
      "ĠJew": 8280,
      "Ġwondering": 8281,
      "Ġshopping": 8282,
      "Ġdisadvant": 8283,
      "rots": 8284,
      "Com": 8285,
      "aria": 8286,
      "Ġplacing": 8287,
      "Ġemit": 8288,
      "Ġeleg": 8289,
      "Ġmoderate": 8290,
      "Ġworst": 8291,
      "Ġshooting": 8292,
      "rubs": 8293,
      "Ġgolden": 8294,
      "Ġaccepted": 8295,
      "kins": 8296,
      "Ġforced": 8297,
      "Ġencl": 8298,
      "Ġcircuits": 8299,
      "heast": 8300,
      "EE": 8301,
      "====": 8302,
      "Finally": 8303,
      "Ġscar": 8304,
      "cycle": 8305,
      "Ġsetup": 8306,
      "Each": 8307,
      "oop": 8308,
      "acent": 8309,
      "pha": 8310,
      "onday": 8311,
      "Ġconcentrations": 8312,
      "Ġshaped": 8313,
      "Ġadapted": 8314,
      "ĠDI": 8315,
      "Ġemployed": 8316,
      "list": 8317,
      "Ġsavings": 8318,
      "Ġster": 8319,
      "Ġrecycled": 8320,
      "Ġfost": 8321,
      "atures": 8322,
      "Ġber": 8323,
      "Ġmand": 8324,
      "aph": 8325,
      "-off": 8326,
      "ĠCurrent": 8327,
      "Ġmagic": 8328,
      "Ġpor": 8329,
      "ĠDespite": 8330,
      "Ġappeared": 8331,
      "igan": 8332,
      "Â°F": 8333,
      "Note": 8334,
      "Ġthereby": 8335,
      "Ġshelter": 8336,
      "Ġisolated": 8337,
      "Ġinher": 8338,
      "paper": 8339,
      "ĠDisc": 8340,
      "ĠBiology": 8341,
      "Ġcorrosion": 8342,
      "Ġranges": 8343,
      "Ġexamination": 8344,
      "Related": 8345,
      "Ġdiets": 8346,
      "Ġpolymer": 8347,
      "ĠCN": 8348,
      "Ġproviders": 8349,
      "Ġdecomp": 8350,
      "Ġmarkets": 8351,
      "ĠTraining": 8352,
      "Keep": 8353,
      "Ġfans": 8354,
      "Ġeast": 8355,
      "Ġfigures": 8356,
      "Ġreveal": 8357,
      "Ġton": 8358,
      "Ġtwist": 8359,
      "Ġcodes": 8360,
      "Ġcentre": 8361,
      "Ġbelt": 8362,
      "Ġcontemporary": 8363,
      "Ġinstruments": 8364,
      "Ġwhales": 8365,
      "Ġsin": 8366,
      "ĠSand": 8367,
      "Ġaccidents": 8368,
      "yard": 8369,
      "ĠSer": 8370,
      "MA": 8371,
      "Ġirrig": 8372,
      "Ġurine": 8373,
      "Ġbridge": 8374,
      "Ġvinegar": 8375,
      "Ġteen": 8376,
      "Remember": 8377,
      "Ġdelight": 8378,
      "was": 8379,
      "Ġmindful": 8380,
      "rance": 8381,
      "Ġfaces": 8382,
      "Ġcontained": 8383,
      "-R": 8384,
      "words": 8385,
      "ĠSy": 8386,
      "Ġmathematical": 8387,
      "Ġcourt": 8388,
      "anta": 8389,
      "Ġdeaths": 8390,
      "Ġrating": 8391,
      "ipher": 8392,
      "DS": 8393,
      "war": 8394,
      "arded": 8395,
      "Ġacknow": 8396,
      "ĠBer": 8397,
      "Ġrender": 8398,
      "Ġtab": 8399,
      "Ġom": 8400,
      "ĠStar": 8401,
      "Ġharsh": 8402,
      "Ġidentical": 8403,
      "ĠPlus": 8404,
      "throp": 8405,
      "ĠMethod": 8406,
      "obile": 8407,
      "Ġconflict": 8408,
      "una": 8409,
      "otive": 8410,
      "Ġobservation": 8411,
      "CR": 8412,
      "Ġavoiding": 8413,
      "rey": 8414,
      "Ġhormones": 8415,
      "Ġgenus": 8416,
      "Ġpra": 8417,
      "Ġfriction": 8418,
      "Ġdefense": 8419,
      "Ġmaintained": 8420,
      "Ġpriority": 8421,
      "Ġdebate": 8422,
      "ĠLevel": 8423,
      "lied": 8424,
      "owing": 8425,
      "ĠCong": 8426,
      "Ġrent": 8427,
      "Ġsemi": 8428,
      "Ġhat": 8429,
      "Ġcaptiv": 8430,
      "Post": 8431,
      "Ġeastern": 8432,
      "Ġtrail": 8433,
      "Ġadhes": 8434,
      "Ġneedle": 8435,
      "Ġdistinctive": 8436,
      "Ġconsuming": 8437,
      "redit": 8438,
      "Ġheated": 8439,
      "Ġexpectations": 8440,
      "ĠPaul": 8441,
      "Ġseparation": 8442,
      "Ġdifferently": 8443,
      "Ġwheat": 8444,
      "Ġactively": 8445,
      "ĠColl": 8446,
      "ala": 8447,
      "Ġextension": 8448,
      "Ne": 8449,
      "Ġhurt": 8450,
      "Ġsnakes": 8451,
      "ĠFed": 8452,
      "Ġcolored": 8453,
      "leg": 8454,
      "Ġcer": 8455,
      "Gl": 8456,
      "ĠMont": 8457,
      "ĠHum": 8458,
      "Dis": 8459,
      "Ġbathroom": 8460,
      "Ġconj": 8461,
      "Ġphotographs": 8462,
      "neys": 8463,
      "ĠStudies": 8464,
      "Ġtargeted": 8465,
      "aneous": 8466,
      "Ġants": 8467,
      "Ġgaming": 8468,
      "Ġtheories": 8469,
      "Ġdistances": 8470,
      "Ġcontributes": 8471,
      "Ġ...Ċ": 8472,
      "ĠIce": 8473,
      "Ġfaced": 8474,
      "ĠPresident": 8475,
      "flamm": 8476,
      "imm": 8477,
      "Ġgly": 8478,
      "Ġcurious": 8479,
      "Ġquantities": 8480,
      "ano": 8481,
      "Ġregulate": 8482,
      "Ġhousing": 8483,
      "ĠCap": 8484,
      "Ġsummary": 8485,
      "ĠSpanish": 8486,
      "ĠImport": 8487,
      "ita": 8488,
      "Ġrays": 8489,
      "Ġshoulder": 8490,
      "Ġseparated": 8491,
      "Ġgirl": 8492,
      "ĠNon": 8493,
      "Ġgran": 8494,
      "ĠIncre": 8495,
      "Part": 8496,
      "iological": 8497,
      "Ġsubt": 8498,
      "Ġsubstantial": 8499,
      "Ġstrengthen": 8500,
      "aska": 8501,
      "Ġframes": 8502,
      "ubric": 8503,
      "ih": 8504,
      "ĠEV": 8505,
      "Ġnarr": 8506,
      "Ġsink": 8507,
      "Ġembed": 8508,
      "Tra": 8509,
      "ĠGreek": 8510,
      "Ġrooms": 8511,
      "Ġvictim": 8512,
      "Ġsoda": 8513,
      "Ġpsychological": 8514,
      "Ġdischarge": 8515,
      "ua": 8516,
      "High": 8517,
      "Ġoffs": 8518,
      "Ġmetabolism": 8519,
      "Ġaging": 8520,
      "-making": 8521,
      "BD": 8522,
      "born": 8523,
      "Ġspeakers": 8524,
      "Ġbeliefs": 8525,
      "Ġintegrity": 8526,
      "Ġtear": 8527,
      "ĠAsian": 8528,
      "emiconduct": 8529,
      "Ġapple": 8530,
      "Ġperception": 8531,
      "rd": 8532,
      "Ġdelve": 8533,
      "ĠCoast": 8534,
      "Ġmagnet": 8535,
      "Ġdynamics": 8536,
      "Ġfingers": 8537,
      "Ġcombust": 8538,
      "eah": 8539,
      "Ġpale": 8540,
      "Ġinn": 8541,
      "ione": 8542,
      "Ġwitness": 8543,
      "uten": 8544,
      "ĠCirc": 8545,
      "alog": 8546,
      "ostic": 8547,
      "Ġdrinks": 8548,
      "ani": 8549,
      "Ġrequirement": 8550,
      "CA": 8551,
      "Ġ@": 8552,
      "Ġcrisis": 8553,
      "vas": 8554,
      "Ġjaw": 8555,
      "obby": 8556,
      "Ġcitizens": 8557,
      "istance": 8558,
      "Ġzones": 8559,
      "Ġgroom": 8560,
      "Ġchickens": 8561,
      "Ġbark": 8562,
      "perm": 8563,
      "azine": 8564,
      "Ġink": 8565,
      "Ġfoam": 8566,
      "irrel": 8567,
      "Ġwooden": 8568,
      "ashes": 8569,
      "Ġupl": 8570,
      "Ġnode": 8571,
      "Ġharness": 8572,
      "Ġsoy": 8573,
      "ĠâĪ": 8574,
      "ĠVirgin": 8575,
      "Ġoffic": 8576,
      "Ġagencies": 8577,
      "cou": 8578,
      "occ": 8579,
      "Ġflies": 8580,
      "Ġaquarium": 8581,
      "acles": 8582,
      "Ġenvironmentally": 8583,
      "Ġ~": 8584,
      "ĠDar": 8585,
      "Ġfaith": 8586,
      "Ġequally": 8587,
      "ĠHor": 8588,
      "Ġmanager": 8589,
      "Ġenjoyed": 8590,
      "Ġenthusiasts": 8591,
      "rapeutic": 8592,
      "Ġaggreg": 8593,
      "ample": 8594,
      "Ġwithstand": 8595,
      "Ġrealistic": 8596,
      "iro": 8597,
      "Ġfreezing": 8598,
      "reet": 8599,
      "Ġemerging": 8600,
      "Ġfacilitate": 8601,
      "oir": 8602,
      "ĠBrazil": 8603,
      "Ġstake": 8604,
      "Ġdemands": 8605,
      "Ġanat": 8606,
      "Ġvom": 8607,
      "ĠLibrary": 8608,
      "Ġoutl": 8609,
      "Ġhence": 8610,
      "Ġdinner": 8611,
      "Ġsurve": 8612,
      "Source": 8613,
      "ĠSouthern": 8614,
      "ĠHelp": 8615,
      "Ġrepeat": 8616,
      "unting": 8617,
      "Av": 8618,
      "ĠCommunity": 8619,
      "ĠLim": 8620,
      "Up": 8621,
      "Ġ%": 8622,
      "Ġtoilet": 8623,
      "ĠBusiness": 8624,
      "-sized": 8625,
      "Ġgraphics": 8626,
      "Ġviral": 8627,
      "Ġdesigners": 8628,
      "Ġchecked": 8629,
      "Ġinfluenced": 8630,
      "ĠSystems": 8631,
      "Ġprocessor": 8632,
      "Ġaccomplish": 8633,
      "Ġwound": 8634,
      "Ġevening": 8635,
      "Ġdatas": 8636,
      "Ġacting": 8637,
      "eterm": 8638,
      "Ġstopped": 8639,
      "Ġvaccines": 8640,
      "Ġic": 8641,
      "Ġvapor": 8642,
      "ipal": 8643,
      "Ġreasonable": 8644,
      "****": 8645,
      "Ġimprovements": 8646,
      "Ġarts": 8647,
      "Ġabundance": 8648,
      "Ġpine": 8649,
      "Ġshallow": 8650,
      "nsure": 8651,
      "oof": 8652,
      "ĠJes": 8653,
      "ĠUnfortunately": 8654,
      "Ġfrequencies": 8655,
      "ĠBul": 8656,
      "Ġbor": 8657,
      "ij": 8658,
      "Ġglue": 8659,
      "aland": 8660,
      "Ġalive": 8661,
      "Ġadverse": 8662,
      "IA": 8663,
      "formance": 8664,
      "/d": 8665,
      "Ġforecast": 8666,
      "ĠContin": 8667,
      "ĠFil": 8668,
      "Ġpepper": 8669,
      "Ġmeaningful": 8670,
      "ventions": 8671,
      "iotic": 8672,
      "Ġscreening": 8673,
      "Ġgenetics": 8674,
      "Ġfinds": 8675,
      "Ġchains": 8676,
      "Ġtong": 8677,
      "Ġelectrom": 8678,
      "Ġlaunched": 8679,
      "Last": 8680,
      "Ġconfiguration": 8681,
      "Ġgrab": 8682,
      "bar": 8683,
      "Ġkilling": 8684,
      "Ġsuspect": 8685,
      "-en": 8686,
      "onut": 8687,
      "Ġlatter": 8688,
      "Ġsatellite": 8689,
      "ediatric": 8690,
      "levision": 8691,
      "Ġacceleration": 8692,
      "uber": 8693,
      "ivered": 8694,
      "Ġautomatic": 8695,
      "ĠForest": 8696,
      "ĠNO": 8697,
      "Ġcure": 8698,
      "Ġepid": 8699,
      "Ġpace": 8700,
      "emia": 8701,
      "Ġaesthetic": 8702,
      "Ġbeat": 8703,
      "orph": 8704,
      "Ġextinction": 8705,
      "ĠMer": 8706,
      "ppers": 8707,
      "ĠFarm": 8708,
      "ĠNorthern": 8709,
      "Ġutilized": 8710,
      "necess": 8711,
      "ĠImpro": 8712,
      "Ġvessel": 8713,
      "Ġsimultaneously": 8714,
      "Sum": 8715,
      "state": 8716,
      "Trans": 8717,
      "gypt": 8718,
      "Ġfatigue": 8719,
      "Ġthy": 8720,
      "Ġcondens": 8721,
      "Ġvisually": 8722,
      "EG": 8723,
      "ailable": 8724,
      "rass": 8725,
      "ĠUnlike": 8726,
      "UL": 8727,
      "Ġweeds": 8728,
      "Ġtrick": 8729,
      "omer": 8730,
      "anol": 8731,
      "Ġasp": 8732,
      "Car": 8733,
      "Ġbind": 8734,
      "Ġpotassium": 8735,
      "aret": 8736,
      "Please": 8737,
      "Ġimmers": 8738,
      "Hz": 8739,
      "oin": 8740,
      "Ġaimed": 8741,
      "Ġtailored": 8742,
      "Ġfighting": 8743,
      "Ġbene": 8744,
      "itan": 8745,
      "Ġdates": 8746,
      "hal": 8747,
      "Ġlongevity": 8748,
      "Ġexceptional": 8749,
      "Scient": 8750,
      "Ġmetric": 8751,
      "Ġcooler": 8752,
      "Take": 8753,
      "ĠKids": 8754,
      "Ġstaying": 8755,
      "Ġreproductive": 8756,
      "Ġbelieves": 8757,
      "ĠSign": 8758,
      "GB": 8759,
      "hand": 8760,
      "Ġthousand": 8761,
      "ĠIdent": 8762,
      "Ġpizza": 8763,
      "ĠIr": 8764,
      "ĠLast": 8765,
      "Ġmoments": 8766,
      "Ġmutations": 8767,
      "weet": 8768,
      "Ġmg": 8769,
      "esis": 8770,
      "ĠFIG": 8771,
      "Ġgenerating": 8772,
      "Ġperenn": 8773,
      "Ġ.Ċ": 8774,
      "oil": 8775,
      "Ġforth": 8776,
      "Ġengaged": 8777,
      "ĠFact": 8778,
      "reshold": 8779,
      "Ġliterally": 8780,
      "Ġthorough": 8781,
      "ptom": 8782,
      "Main": 8783,
      "Ġreadily": 8784,
      "ĠVari": 8785,
      "Ġassociation": 8786,
      "Ġtransformation": 8787,
      "nds": 8788,
      "Ġlowest": 8789,
      "Ġcaptured": 8790,
      "ĠFire": 8791,
      "olars": 8792,
      "ednes": 8793,
      "ometers": 8794,
      "Ġdisplays": 8795,
      "Ġstitch": 8796,
      "Ġbreakfast": 8797,
      ".)Ċ": 8798,
      "ĠModel": 8799,
      "ady": 8800,
      "weed": 8801,
      "Ġnewly": 8802,
      "ĠTom": 8803,
      "></": 8804,
      "ĠIT": 8805,
      "ĠMicrosoft": 8806,
      "Ġcoil": 8807,
      "Ġabsence": 8808,
      "Ġearthqu": 8809,
      "Ġabuse": 8810,
      "Ġ;": 8811,
      "riage": 8812,
      "ĠEarly": 8813,
      "ĠDev": 8814,
      "Ġqualities": 8815,
      "Ġbinding": 8816,
      "ĠPoint": 8817,
      "ĠNever": 8818,
      "Ġcolours": 8819,
      "ĠCentre": 8820,
      "Ġcontroller": 8821,
      "ithium": 8822,
      "Ġinhab": 8823,
      "Ġclassification": 8824,
      "Ġmicrosc": 8825,
      "Ġalongside": 8826,
      "Ġsuddenly": 8827,
      "ĠDue": 8828,
      "ĠItalian": 8829,
      "rog": 8830,
      "umbing": 8831,
      "FT": 8832,
      "-dr": 8833,
      "-dimensional": 8834,
      "Ġrestore": 8835,
      "ustainable": 8836,
      "Ġinspiration": 8837,
      "ĠRock": 8838,
      "-step": 8839,
      "Ġlosses": 8840,
      "Ġcalling": 8841,
      "See": 8842,
      "Ġpesticides": 8843,
      "Ġunp": 8844,
      "Ġabundant": 8845,
      "Ġgrew": 8846,
      "ĠHead": 8847,
      "Ġshots": 8848,
      "Ġimpressive": 8849,
      "Ġhide": 8850,
      "Ġexplo": 8851,
      "Add": 8852,
      "Ġlunch": 8853,
      "sen": 8854,
      "Ġimproves": 8855,
      "Ġillegal": 8856,
      "ĠThink": 8857,
      "Ġpromotes": 8858,
      "ĠUlt": 8859,
      "ami": 8860,
      "ĠDem": 8861,
      "Ġmistakes": 8862,
      "auge": 8863,
      "ato": 8864,
      "Ġscales": 8865,
      "ĠRober": 8866,
      "Ġconsistently": 8867,
      "Ġinvestigate": 8868,
      "Ġappet": 8869,
      "Ġsubsc": 8870,
      "Ġlegisl": 8871,
      "ĠBoard": 8872,
      "Ġprolong": 8873,
      "orted": 8874,
      "venue": 8875,
      "Ġash": 8876,
      "Ġcommitted": 8877,
      "ĠResp": 8878,
      "Key": 8879,
      "Ġlie": 8880,
      "Ġconstructed": 8881,
      "power": 8882,
      "Ġconvenience": 8883,
      "Ġnic": 8884,
      "Ġinfo": 8885,
      "df": 8886,
      "Ġloads": 8887,
      "uled": 8888,
      "gency": 8889,
      "ĠJer": 8890,
      "Ġboards": 8891,
      "Ġconsistency": 8892,
      "Ġpainful": 8893,
      "ranean": 8894,
      "roud": 8895,
      "itory": 8896,
      "Ġagreement": 8897,
      "Ġtelling": 8898,
      "Ġlarvae": 8899,
      "Ġutility": 8900,
      "ĠSmith": 8901,
      "olves": 8902,
      "road": 8903,
      "ĠJava": 8904,
      "ĠAlex": 8905,
      "Ġhighlights": 8906,
      "Ġstack": 8907,
      "Ġrestric": 8908,
      "istical": 8909,
      "oz": 8910,
      "Ġdevelopers": 8911,
      "Ġsynthesis": 8912,
      "ortion": 8913,
      "Ġpasses": 8914,
      "Ġscenarios": 8915,
      "obic": 8916,
      "aying": 8917,
      "ĠYet": 8918,
      "ĠGal": 8919,
      "ifts": 8920,
      "ĠMad": 8921,
      "Ġweed": 8922,
      "Ġhygiene": 8923,
      "green": 8924,
      "ĠPri": 8925,
      "rin": 8926,
      "She": 8927,
      "Ġsentence": 8928,
      "Ġoverview": 8929,
      "Ġproportion": 8930,
      "Ġapproved": 8931,
      "Ġhunt": 8932,
      "uming": 8933,
      "ĠElectric": 8934,
      "Ġalike": 8935,
      "Then": 8936,
      "cence": 8937,
      "ĠChristian": 8938,
      "ĠOffice": 8939,
      "Ġsymbols": 8940,
      "Ġhol": 8941,
      "ependent": 8942,
      "Ġfantastic": 8943,
      "Ġbasket": 8944,
      "Ġestimates": 8945,
      "oosing": 8946,
      "Ġreturned": 8947,
      "Ġcompression": 8948,
      "Ġcher": 8949,
      "Ġinspection": 8950,
      "Ġunexpected": 8951,
      "itus": 8952,
      "Sec": 8953,
      "elled": 8954,
      "Ġcups": 8955,
      "ĠClick": 8956,
      "Ġboiling": 8957,
      "orus": 8958,
      "Ġdelivered": 8959,
      "Ġappliances": 8960,
      "Additionally": 8961,
      "Ġenhances": 8962,
      "Ġplain": 8963,
      "Ġconfirmed": 8964,
      "Ġpatch": 8965,
      "Ġtomato": 8966,
      "Ġreliability": 8967,
      "Ġmeets": 8968,
      "Ġrequiring": 8969,
      "Ġsequences": 8970,
      "Ġtemporary": 8971,
      "-known": 8972,
      "Ġsafer": 8973,
      "Ġtraveling": 8974,
      "Check": 8975,
      "ested": 8976,
      "Ġraising": 8977,
      "Ġadvancements": 8978,
      "Ġshr": 8979,
      "Ġarom": 8980,
      "Ġmagnitude": 8981,
      "ĠDigital": 8982,
      "through": 8983,
      "Ġcardiovascular": 8984,
      "-con": 8985,
      "Ġdiarr": 8986,
      "ĠGrow": 8987,
      "ĠStudy": 8988,
      "Ġtang": 8989,
      "Ġprogramme": 8990,
      "Ġresilience": 8991,
      "Ġarise": 8992,
      "ĠPython": 8993,
      "Ġlakes": 8994,
      "Med": 8995,
      "Ġfraction": 8996,
      "ĠUnion": 8997,
      "Ġtrials": 8998,
      "ena": 8999,
      "Ġsug": 9000,
      "Ġspan": 9001,
      "\".ĊĊ": 9002,
      "Ġyeast": 9003,
      "Ġbutt": 9004,
      "Ġobviously": 9005,
      "ĠKore": 9006,
      "Ġdentist": 9007,
      "peed": 9008,
      "Ġsubsequent": 9009,
      "Ġlact": 9010,
      "Ġequations": 9011,
      "Ġcylinder": 9012,
      "vy": 9013,
      "uke": 9014,
      "Ġeverywhere": 9015,
      "ĠBetween": 9016,
      "Ġkick": 9017,
      "ercury": 9018,
      "Ġtubes": 9019,
      "Ġleaks": 9020,
      "oved": 9021,
      "Ġsad": 9022,
      "Ġagency": 9023,
      "Ġadopted": 9024,
      "Ġtrace": 9025,
      "Who": 9026,
      "Ġmechanics": 9027,
      "Ġwinds": 9028,
      "ĠCanadian": 9029,
      "Ear": 9030,
      "Ġfreeze": 9031,
      "ĠSen": 9032,
      "oded": 9033,
      "Ġangles": 9034,
      "Further": 9035,
      "Ġdeck": 9036,
      "Ġbeneath": 9037,
      "ĠPain": 9038,
      "Ġcoron": 9039,
      "Ġconsiderations": 9040,
      "ĠPop": 9041,
      "Ġinstant": 9042,
      "ĠMel": 9043,
      "Ġvoc": 9044,
      "Ġscope": 9045,
      "Ġoccasionally": 9046,
      "Ġmorph": 9047,
      "Ġmicrowave": 9048,
      "ĠOx": 9049,
      "Ġspecialist": 9050,
      "rimp": 9051,
      ".A": 9052,
      "Ġmigration": 9053,
      "Ġdominant": 9054,
      "rat": 9055,
      "Ġprecip": 9056,
      "Em": 9057,
      "Ġfourth": 9058,
      "ĠMars": 9059,
      "Ġwife": 9060,
      "Ġultra": 9061,
      "ĠSqu": 9062,
      "-rich": 9063,
      "Ġsemiconduct": 9064,
      "Ġspider": 9065,
      "itle": 9066,
      "imen": 9067,
      "onym": 9068,
      "ouds": 9069,
      "ĠProduct": 9070,
      "Ġupdates": 9071,
      "Ġscheme": 9072,
      "-G": 9073,
      "hene": 9074,
      "ĠCreate": 9075,
      "ĠHaving": 9076,
      "they": 9077,
      "Ġpurchased": 9078,
      "ĠName": 9079,
      "niv": 9080,
      "oline": 9081,
      "Ġparties": 9082,
      "ĠThree": 9083,
      "Cle": 9084,
      "Ġreader": 9085,
      "Ġundert": 9086,
      "Ġreproduction": 9087,
      "rong": 9088,
      "Ġcompanion": 9089,
      "appy": 9090,
      "://": 9091,
      "Ġresearcher": 9092,
      "Today": 9093,
      "Ġgel": 9094,
      "Ġseasons": 9095,
      "ĠEgypt": 9096,
      "Ġmaps": 9097,
      "ĠResources": 9098,
      "Ġanticip": 9099,
      "Ġrings": 9100,
      "Ġmim": 9101,
      "Ġresulted": 9102,
      "Ġextraction": 9103,
      "holders": 9104,
      "Ġanch": 9105,
      "py": 9106,
      "Ġhazards": 9107,
      "Ref": 9108,
      "scill": 9109,
      "FL": 9110,
      "Ġultimate": 9111,
      "ednesday": 9112,
      "ĠAnn": 9113,
      "Ġrestaurants": 9114,
      "Ġadm": 9115,
      "Man": 9116,
      "Ġversus": 9117,
      "ĠSelect": 9118,
      "Ġfluctu": 9119,
      "Ġtact": 9120,
      "ĠValley": 9121,
      "Ġcycling": 9122,
      "Ġintent": 9123,
      "ĠFig": 9124,
      "Ġtorque": 9125,
      "ĠDiv": 9126,
      "Ġexamined": 9127,
      "-specific": 9128,
      "Ġslic": 9129,
      "Start": 9130,
      "trans": 9131,
      "actions": 9132,
      "uble": 9133,
      "Ġpitch": 9134,
      "Ġmile": 9135,
      "ĠClub": 9136,
      "Ġobjectives": 9137,
      "dd": 9138,
      "Ġdaughter": 9139,
      "ĠTree": 9140,
      "Ġgrey": 9141,
      "elcome": 9142,
      "Ġcoop": 9143,
      "Ġfeat": 9144,
      "Ġolive": 9145,
      "osh": 9146,
      "Ġgrinding": 9147,
      "Ġspreading": 9148,
      "ĠPhotoshop": 9149,
      "Ġtransparent": 9150,
      "\"It": 9151,
      "ĠĠĠĠĠĠĠ": 9152,
      "Ġpushing": 9153,
      "Ġnavigation": 9154,
      "Ġdrill": 9155,
      "-cent": 9156,
      "Ġstops": 9157,
      "Ġinitiatives": 9158,
      "Ġpartial": 9159,
      "Ġrealized": 9160,
[...]
