{
  "version": "1.0",
  "truncation": null,
  "padding": null,
  "added_tokens": [
    {
      "id": 0,
      "content": "<|bos|>",
      "single_word": false,
      "lstrip": false,
      "rstrip": false,
      "normalized": false,
      "special": true
    },
    {
      "id": 1,
      "content": "<|user_start|>",
      "single_word": false,
      "lstrip": false,
      "rstrip": false,
      "normalized": false,
      "special": true
    },
    {
      "id": 2,
      "content": "<|user_end|>",
      "single_word": false,
      "lstrip": false,
      "rstrip": false,
      "normalized": false,
      "special": true
    },
    {
      "id": 3,
      "content": "<|assistant_start|>",
      "single_word": false,
      "lstrip": false,
      "rstrip": false,
      "normalized": false,
      "special": true
    },
    {
      "id": 4,
      "content": "<|assistant_end|>",
      "single_word": false,
      "lstrip": false,
      "rstrip": false,
      "normalized": false,
      "special": true
    },
    {
      "id": 5,
      "content": "<|python_start|>",
      "single_word": false,
      "lstrip": false,
      "rstrip": false,
      "normalized": false,
      "special": true
    },
    {
      "id": 6,
      "content": "<|python_end|>",
      "single_word": false,
      "lstrip": false,
      "rstrip": false,
      "normalized": false,
      "special": true
    },
    {
      "id": 7,
      "content": "<|output_start|>",
      "single_word": false,
      "lstrip": false,
      "rstrip": false,
      "normalized": false,
      "special": true
    },
    {
      "id": 8,
      "content": "<|output_end|>",
      "single_word": false,
      "lstrip": false,
      "rstrip": false,
      "normalized": false,
      "special": true
    },
    {
      "id": 9,
      "content": "<|unk|>",
      "single_word": false,
      "lstrip": false,
      "rstrip": false,
      "normalized": false,
      "special": true
    }
  ],
  "normalizer": null,
  "pre_tokenizer": {
    "type": "Sequence",
    "pretokenizers": [
      {
        "type": "Split",
        "pattern": {
          "Regex": "'(?i:[sdmt]|ll|ve|re)|[^\\r\\n\\p{L}\\p{N}]?+\\p{L}+|\\p{N}{1,2}| ?[^\\s\\p{L}\\p{N}]++[\\r\\n]*|\\s*[\\r\\n]|\\s+(?!\\S)|\\s+"
        },
        "behavior": "Isolated",
        "invert": false
      },
      {
        "type": "ByteLevel",
        "add_prefix_space": false,
        "trim_offsets": true,
        "use_regex": false
      }
    ]
  },
  "post_processor": {
    "type": "TemplateProcessing",
    "single": [
      {
        "Sequence": {
          "id": "A",
          "type_id": 0
        }
      }
    ],
    "pair": [
      {
        "Sequence": {
          "id": "A",
          "type_id": 0
        }
      },
      {
        "Sequence": {
          "id": "B",
          "type_id": 1
        }
      }
    ],
    "special_tokens": {}
  },
  "decoder": null,
  "model": {
    "type": "Unigram",
    "unk_id": 9,
    "vocab": [
      [
        "<|bos|>",
        0.0
      ],
      [
        "<|user_start|>",
        0.0
      ],
      [
        "<|user_end|>",
        0.0
      ],
      [
        "<|assistant_start|>",
        0.0
      ],
      [
        "<|assistant_end|>",
        0.0
      ],
      [
        "<|python_start|>",
        0.0
      ],
      [
        "<|python_end|>",
        0.0
      ],
      [
        "<|output_start|>",
        0.0
      ],
      [
        "<|output_end|>",
        0.0
      ],
      [
        "<|unk|>",
        0.0
      ],
      [
        "s",
        -3.0807818782308622
      ],
      [
        "Ġ",
        -3.1125209506852425
      ],
      [
        "Ġthe",
        -3.4330259127213445
      ],
      [
        ",",
        -3.48851626510295
      ],
      [
        ".",
        -3.755931208076019
      ],
      [
        "a",
        -3.9527898315436705
      ],
      [
        "Ġand",
        -3.990086157382867
      ],
      [
        "Ġof",
        -4.025748447845622
      ],
      [
        "Ġto",
        -4.0366467097505385
      ],
      [
        "ing",
        -4.443562911198754
      ],
      [
        "Ġin",
        -4.536454108847217
      ],
      [
        "Ġis",
        -4.65942649297925
      ],
      [
        "ed",
        -4.759970768319365
      ],
      [
        "d",
        -4.908142023482938
      ],
      [
        "'",
        -4.967074553982629
      ],
      [
        "y",
        -5.0387550162049255
      ],
      [
        "0",
        -5.05276868109658
      ],
      [
        "Ġthat",
        -5.079869991725035
      ],
      [
        "Ġfor",
        -5.081699444966725
      ],
      [
        "e",
        -5.1452265438361255
      ],
      [
        "t",
        -5.180551829000242
      ],
      [
        "1",
        -5.181505215191361
      ],
      [
        "ly",
        -5.2115475388033925
      ],
      [
        ":",
        -5.259481142584358
      ],
      [
        "Ġare",
        -5.289954965706423
      ],
      [
        "Ċ",
        -5.347575569941171
      ],
      [
        "Ġit",
        -5.353355231593897
      ],
      [
        "Ġwith",
        -5.354924901686328
      ],
      [
        "Ġyou",
        -5.358922917882667
      ],
      [
        ".Ċ",
        -5.372255316903111
      ],
      [
        "2",
        -5.395415499844395
      ],
      [
        ".ĊĊ",
        -5.409651469556119
      ],
      [
        "-",
        -5.411659148532468
      ],
      [
        "Ġbe",
        -5.498545870073002
      ],
      [
        "Ġon",
        -5.529899120655525
      ],
      [
        "Ġcan",
        -5.535814882270163
      ],
      [
        "Ġor",
        -5.558129850020263
      ],
      [
        "Ġas",
        -5.566782141282507
      ],
      [
        "ĊĊ",
        -5.626583913882268
      ],
      [
        "Ġyour",
        -5.76575414048612
      ],
      [
        "n",
        -5.777513927809322
      ],
      [
        "Ġ(",
        -5.813461566048275
      ],
      [
        "\"",
        -5.8439011742658415
      ],
      [
        "ĠThe",
        -5.907498354259971
      ],
      [
        "Ġhave",
        -5.928695901117786
      ],
      [
        "Ġfrom",
        -5.940989651113442
      ],
      [
        "ĠI",
        -5.9544540191976445
      ],
      [
        "Ġby",
        -5.995299418405914
      ],
      [
        "?",
        -5.995663619658313
      ],
      [
        "3",
        -6.036719841027441
      ],
      [
        "Ġan",
        -6.048340605335742
      ],
      [
        ")",
        -6.065511914444299
      ],
      [
        "5",
        -6.085604354164426
      ],
      [
        "Ġthis",
        -6.101067074703378
      ],
      [
        "Ġat",
        -6.154571528182208
      ],
      [
        "Ġnot",
        -6.163218208959771
      ],
      [
        "er",
        -6.168308951670273
      ],
      [
        "o",
        -6.204197473100352
      ],
      [
        "i",
        -6.208824367485045
      ],
      [
        "Ġwill",
        -6.260383770173101
      ],
      [
        "Ġtheir",
        -6.276170151809508
      ],
      [
        "4",
        -6.282283824984232
      ],
      [
        "r",
        -6.34365840375453
      ],
      [
        "Ġwas",
        -6.348782756060832
      ],
      [
        "Ġmore",
        -6.373307323960265
      ],
      [
        "9",
        -6.384479948048687
      ],
      [
        "Ġthey",
        -6.40086169330891
      ],
      [
        "The",
        -6.454171319127557
      ],
      [
        "6",
        -6.501953587687511
      ],
      [
        "8",
        -6.52956621867439
      ],
      [
        "Ġhas",
        -6.532579188247087
      ],
      [
        "Ġbut",
        -6.534823653714657
      ],
      [
        "Ġwhich",
        -6.535425468250409
      ],
      [
        "Ġone",
        -6.573712977503629
      ],
      [
        "Ġwe",
        -6.583745032634408
      ],
      [
        "Question",
        -6.610931322959042
      ],
      [
        "re",
        -6.614450421429138
      ],
      [
        "l",
        -6.621075652084668
      ],
      [
        "Ġalso",
        -6.627765134523999
      ],
      [
        "m",
        -6.630151392878853
      ],
      [
        "ĠAnswer",
        -6.636864671406839
      ],
      [
        "ies",
        -6.649781861964458
      ],
      [
        "7",
        -6.662996411227935
      ],
      [
        "Ġother",
        -6.691470536135107
      ],
      [
        "ĠA",
        -6.699303860361665
      ],
      [
        "Ġall",
        -6.708310123001482
      ],
      [
        "Ġabout",
        -6.711820588280327
      ],
      [
        "ĠIt",
        -6.766681143553567
      ],
      [
        "Ġwhen",
        -6.8089692453999735
      ],
      [
        "on",
        -6.81273499951828
      ],
      [
        "Ġdo",
        -6.8259729333038575
      ],
      [
        "Ġtime",
        -6.835204040592252
      ],
      [
        "al",
        -6.837448181553505
      ],
      [
        "Ġthem",
        -6.84933881208514
      ],
      [
        "Ġif",
        -6.851432775131393
      ],
      [
        "Ġso",
        -6.862476999306537
      ],
      [
        "Ġinto",
        -6.870925239581608
      ],
      [
        "A",
        -6.874389624616459
      ],
      [
        "Ġsome",
        -6.877450308871788
      ],
      [
        "Ġlike",
        -6.877505201212564
      ],
      [
        "Ġhow",
        -6.8826114782571235
      ],
      [
        "c",
        -6.885228358604616
      ],
      [
        "ĠThis",
        -6.922836551333203
      ],
      [
        "Ġout",
        -6.924964976387077
      ],
      [
        "Ġup",
        -6.928745396852266
      ],
      [
        "Ġuse",
        -6.932946967734349
      ],
      [
        "Ġthan",
        -6.95272100200253
      ],
      [
        "ĠWhat",
        -6.96172281893578
      ],
      [
        "Ġmay",
        -6.97403918930938
      ],
      [
        "Ġthese",
        -6.990571136456058
      ],
      [
        "in",
        -6.992800823415861
      ],
      [
        "ĠIn",
        -7.043481553898802
      ],
      [
        "Ġthere",
        -7.049613100114234
      ],
      [
        "/",
        -7.062295527141162
      ],
      [
        "Ġwater",
        -7.063876924504049
      ],
      [
        "Ġused",
        -7.096285976720305
      ],
      [
        "Ġneed",
        -7.106247707771059
      ],
      [
        "Ġwhat",
        -7.106251251743728
      ],
      [
        "Ġmost",
        -7.130519603519765
      ],
      [
        "able",
        -7.13266467074007
      ],
      [
        "Ġmake",
        -7.1328684496253025
      ],
      [
        "Ġwere",
        -7.140461224783458
      ],
      [
        "Ġour",
        -7.148210070073757
      ],
      [
        "p",
        -7.149327845248472
      ],
      [
        "Ġsuch",
        -7.149945728194423
      ],
      [
        "I",
        -7.154253711323582
      ],
      [
        "g",
        -7.159093386862594
      ],
      [
        "b",
        -7.166963233439734
      ],
      [
        "Ġnew",
        -7.195481976700812
      ],
      [
        "Ġany",
        -7.204376702491837
      ],
      [
        "Ġget",
        -7.21419212707686
      ],
      [
        "Ġpeople",
        -7.219093156959865
      ],
      [
        "Ġbeen",
        -7.223927022018572
      ],
      [
        "Ġhelp",
        -7.238783195571207
      ],
      [
        "Ġshould",
        -7.261751336670576
      ],
      [
        "Ġwould",
        -7.263026397119084
      ],
      [
        "Ġover",
        -7.290407247066657
      ],
      [
        "Ġjust",
        -7.293589371471308
      ],
      [
        "Ġits",
        -7.302345991486693
      ],
      [
        "ĠC",
        -7.313550027170368
      ],
      [
        "Ġwho",
        -7.323112402808665
      ],
      [
        "Ġonly",
        -7.327530067603803
      ],
      [
        "h",
        -7.329209612136818
      ],
      [
        "or",
        -7.34101955038534
      ],
      [
        "?Ċ",
        -7.353386488502025
      ],
      [
        "Ġmany",
        -7.354336726562831
      ],
      [
        "Ġwork",
        -7.361698630318655
      ],
      [
        ";",
        -7.3697821883289905
      ],
      [
        "Ġtwo",
        -7.374310964684446
      ],
      [
        "Ġwell",
        -7.397857123856218
      ],
      [
        "Ġhigh",
        -7.400376533242763
      ],
      [
        "Ġmy",
        -7.402624848768074
      ],
      [
        "ic",
        -7.420520084447521
      ],
      [
        "Ġdifferent",
        -7.425645299342715
      ],
      [
        "Ġthrough",
        -7.428328590712798
      ],
      [
        "Ġfirst",
        -7.430656919589266
      ],
      [
        "f",
        -7.433776065266089
      ],
      [
        "k",
        -7.438311873382599
      ],
      [
        "Ġno",
        -7.444076952348762
      ],
      [
        "u",
        -7.445675915902543
      ],
      [
        "ity",
        -7.445813683095073
      ],
      [
        "Ġway",
        -7.4481254327930415
      ],
      [
        "Ġlong",
        -7.457904807774463
      ],
      [
        "is",
        -7.459827231717467
      ],
      [
        "Ġbetween",
        -7.46018325210426
      ],
      [
        "Ġbecause",
        -7.481591697284998
      ],
      [
        "Ġvery",
        -7.490120338720848
      ],
      [
        "Ġsystem",
        -7.504145853286028
      ],
      [
        "Ġwhere",
        -7.506929952376888
      ],
      [
        "Ġtake",
        -7.520821049815961
      ],
      [
        "Ġeven",
        -7.529336587360033
      ],
      [
        "Ġcould",
        -7.535479211059155
      ],
      [
        "S",
        -7.535551996907984
      ],
      [
        "ĠIf",
        -7.540193313917568
      ],
      [
        "Ġpart",
        -7.543849580307278
      ],
      [
        "In",
        -7.564732177902824
      ],
      [
        "ĠS",
        -7.565765085446813
      ],
      [
        "ĠB",
        -7.578267655266847
      ],
      [
        "Ġhe",
        -7.582645279631132
      ],
      [
        "Ġchange",
        -7.583660101760584
      ],
      [
        "ĠThey",
        -7.594700274408959
      ],
      [
        "Ġmuch",
        -7.5969090247915645
      ],
      [
        "Ġhad",
        -7.61077611229719
      ],
      [
        "Ġhis",
        -7.615339900212341
      ],
      [
        "th",
        -7.633347933228487
      ],
      [
        "Ġgood",
        -7.639232937601699
      ],
      [
        "ve",
        -7.641360857171602
      ],
      [
        "Ġeach",
        -7.644766617312053
      ],
      [
        "Ġsmall",
        -7.64512844307003
      ],
      [
        "ion",
        -7.653003868710522
      ],
      [
        "out",
        -7.654463691967585
      ],
      [
        "ĠYou",
        -7.65951053499252
      ],
      [
        "Ġimportant",
        -7.660500088453164
      ],
      [
        "using",
        -7.665752292971524
      ],
      [
        "!",
        -7.668674713617273
      ],
      [
        "Ġknow",
        -7.674212416273448
      ],
      [
        "Ġdoes",
        -7.678953928822635
      ],
      [
        "Ġfood",
        -7.683228607888321
      ],
      [
        "Ġwant",
        -7.690275429492738
      ],
      [
        "ers",
        -7.697136070619507
      ],
      [
        "Ġyears",
        -7.698601588390478
      ],
      [
        "Ġwhile",
        -7.698673169329915
      ],
      [
        "Ġdesign",
        -7.702530210663129
      ],
      [
        "ĠâĢĵ",
        -7.704126468784283
      ],
      [
        ").",
        -7.707007797034439
      ],
      [
        "Ġenergy",
        -7.707076259205699
      ],
      [
        "Ġresult",
        -7.711962341933155
      ],
      [
        "ation",
        -7.719507739321576
      ],
      [
        "Ġsee",
        -7.722406424276699
      ],
      [
        "Ġhealth",
        -7.722611178078026
      ],
      [
        "Ġnumber",
        -7.727331161396487
      ],
      [
        "Ġdon",
        -7.72838990255403
      ],
      [
        "Ġus",
        -7.728997056859315
      ],
      [
        "C",
        -7.733699660358079
      ],
      [
        "Ġafter",
        -7.733779533903435
      ],
      [
        "le",
        -7.736839697049115
      ],
      [
        "Ġhuman",
        -7.772282143962899
      ],
      [
        "um",
        -7.7771593815597715
      ],
      [
        "Ġsame",
        -7.786875207616953
      ],
      [
        "Ġworld",
        -7.789474904442512
      ],
      [
        "ll",
        -7.790431886597231
      ],
      [
        "during",
        -7.798816749908635
      ],
      [
        "Ġbefore",
        -7.798896153547059
      ],
      [
        "D",
        -7.802053595223891
      ],
      [
        "Ġaround",
        -7.802180753249431
      ],
      [
        "Ġinclude",
        -7.809685602993497
      ],
      [
        "Ġprovide",
        -7.812603324122875
      ],
      [
        "Ġlight",
        -7.814650539685159
      ],
      [
        "those",
        -7.816244660834558
      ],
      [
        "Ġgreat",
        -7.82222714647772
      ],
      [
        "Ġlife",
        -7.824407170142351
      ],
      [
        "an",
        -7.8274769211169986
      ],
      [
        "w",
        -7.827686782654327
      ],
      [
        "Ġbeing",
        -7.839959640770047
      ],
      [
        "Ġfound",
        -7.841495124200655
      ],
      [
        "Ġboth",
        -7.842811003371146
      ],
      [
        "us",
        -7.850333404823758
      ],
      [
        "Ġbest",
        -7.861682911278217
      ],
      [
        "x",
        -7.865888151382032
      ],
      [
        "ĠFor",
        -7.869327290306355
      ],
      [
        "Ġdata",
        -7.86970522528704
      ],
      [
        "Ġprocess",
        -7.870619486963895
      ],
      [
        "Ġcause",
        -7.876542154084026
      ],
      [
        "Ġright",
        -7.880485505466318
      ],
      [
        "Ġplace",
        -7.881771408093126
      ],
      [
        "Ġfind",
        -7.884416957423431
      ],
      [
        "),",
        -7.891041101487895
      ],
      [
        "it",
        -7.891059592181284
      ],
      [
        "Ġmade",
        -7.899567487435609
      ],
      [
        "Ġoften",
        -7.900348390475326
      ],
      [
        "Ġback",
        -7.903308497007966
      ],
      [
        "ĠD",
        -7.90972146014812
      ],
      [
        "Ġdown",
        -7.911820223594372
      ],
      [
        "Ġthink",
        -7.91218540912509
      ],
      [
        "Ġexample",
        -7.913891923997081
      ],
      [
        "Ġadd",
        -7.923940023065898
      ],
      [
        "(",
        -7.925793672401483
      ],
      [
        "B",
        -7.930790415777407
      ],
      [
        "Ġday",
        -7.932330649202347
      ],
      [
        "Ġun",
        -7.938466442820566
      ],
      [
        "Ġincrease",
        -7.94642139875921
      ],
      [
        "Ġbody",
        -7.950612003989629
      ],
      [
        "%",
        -7.964600750615029
      ],
      [
        "Ġlook",
        -7.965016031600968
      ],
      [
        "ĠWe",
        -7.972667177695815
      ],
      [
        "Ġdevelop",
        -7.972710203281286
      ],
      [
        "What",
        -7.977196565559229
      ],
      [
        "Ġform",
        -7.978720768555274
      ],
      [
        "Ġunder",
        -7.979369966720773
      ],
      [
        "Ġstart",
        -7.982193762852917
      ],
      [
        "Ġsaid",
        -7.9822289489595075
      ],
      [
        "Ġinformation",
        -7.982326573808548
      ],
      [
        "Ġme",
        -7.987197469276296
      ],
      [
        "Ġpower",
        -7.987397390622149
      ],
      [
        "Ġevery",
        -7.990305460851191
      ],
      [
        "v",
        -7.993361980906954
      ],
      [
        "Ġoff",
        -7.994561569095653
      ],
      [
        "Ġyear",
        -7.997687381909023
      ],
      [
        "Ġgo",
        -7.998279502685763
      ],
      [
        "Ġcreate",
        -8.002029983811886
      ],
      [
        "Ġplant",
        -8.003870739011823
      ],
      [
        "Ġhome",
        -8.00775078240921
      ],
      [
        "age",
        -8.01234226512124
      ],
      [
        ":Ċ",
        -8.021744619343208
      ],
      [
        "and",
        -8.027984328223926
      ],
      [
        "Ġspecies",
        -8.031658954920275
      ],
      [
        "ĠThese",
        -8.033114606106563
      ],
      [
        "Ġresearch",
        -8.033345899801112
      ],
      [
        "ĠT",
        -8.038705666327182
      ],
      [
        "Ġher",
        -8.038893394006134
      ],
      [
        "Ġgrow",
        -8.041569828966757
      ],
      [
        "Ġbetter",
        -8.044703001580894
      ],
      [
        "ĠTo",
        -8.044865891253808
      ],
      [
        "Ġown",
        -8.046516637505674
      ],
      [
        "ĠP",
        -8.05089752877885
      ],
      [
        "Ġnow",
        -8.051011348431226
      ],
      [
        "However",
        -8.052016509748876
      ],
      [
        "This",
        -8.053986649964395
      ],
      [
        "Ġmight",
        -8.055439881852866
      ],
      [
        "Ġsupport",
        -8.056605512643797
      ],
      [
        "Ġstudy",
        -8.05893120181083
      ],
      [
        "Ġheat",
        -8.064773998873825
      ],
      [
        "Ġdog",
        -8.0688270966901
      ],
      [
        "Ġair",
        -8.069103548629178
      ],
      [
        "ness",
        -8.071825226748453
      ],
      [
        "Ġpoint",
        -8.072621368131035
      ],
      [
        "Ġfew",
        -8.081611425865917
      ],
      [
        "Ġbecome",
        -8.081903075430008
      ],
      [
        "P",
        -8.082259305729208
      ],
      [
        "Ġlarge",
        -8.0930576873693
      ],
      [
        "F",
        -8.093822610659045
      ],
      [
        "Ġtemperature",
        -8.095448136834431
      ],
      [
        "ce",
        -8.098326665279057
      ],
      [
        "Ġstill",
        -8.099302314385858
      ],
      [
        "Ġkeep",
        -8.100621971375954
      ],
      [
        "ĠBut",
        -8.10958180885871
      ],
      [
        "If",
        -8.110909030567939
      ],
      [
        "ĠE",
        -8.112654774874155
      ],
      [
        "Ġexperience",
        -8.113436379751224
      ],
      [
        "ability",
        -8.117107104009078
      ],
      [
        "...",
        -8.131630931578954
      ],
      [
        "Ġstudents",
        -8.13739608174559
      ],
      [
        "ment",
        -8.138347631227452
      ],
      [
        "ĠF",
        -8.141682184945555
      ],
      [
        "Ġincluding",
        -8.143217645463997
      ],
      [
        "Ġcase",
        -8.151757126186306
      ],
      [
        "Ġtype",
        -8.154794832108074
      ],
      [
        "Ġissue",
        -8.155139600812372
      ],
      [
        "Ġcurrent",
        -8.159134807287442
      ],
      [
        "ĠM",
        -8.16202420344577
      ],
      [
        "Ġplants",
        -8.165005915335033
      ],
      [
        "Ġthree",
        -8.168369261854409
      ],
      [
        "Ġspecific",
        -8.169039461903832
      ],
      [
        "Ġmaking",
        -8.172318679136545
      ],
      [
        "ally",
        -8.176750048530966
      ],
      [
        "Ġend",
        -8.182044198003041
      ],
      [
        "Ġtoo",
        -8.194924947865143
      ],
      [
        "Ġless",
        -8.194936079060335
      ],
      [
        "T",
        -8.199604515403491
      ],
      [
        "Ġallow",
        -8.201635101857788
      ],
      [
        "Ġlot",
        -8.202381382053742
      ],
      [
        "Ġcommon",
        -8.207145467332321
      ],
      [
        "Ġschool",
        -8.207521823932147
      ],
      [
        "Ġwithin",
        -8.210626014319502
      ],
      [
        "It",
        -8.212009139230254
      ],
      [
        "Ġknown",
        -8.214046687216653
      ],
      [
        "Ġproduce",
        -8.217324131418216
      ],
      [
        "Ġthings",
        -8.221588776073473
      ],
      [
        ":ĊĊ",
        -8.22764215611228
      ],
      [
        "Ġmust",
        -8.231069610433622
      ],
      [
        "How",
        -8.23131688534219
      ],
      [
        "Ġcontrol",
        -8.235415644970969
      ],
      [
        "Ġoffer",
        -8.236737009307996
      ],
      [
        "Ġindividual",
        -8.239550022272
      ],
      [
        "Ġper",
        -8.240276977030685
      ],
      [
        "Ġreduce",
        -8.241391729841608
      ],
      [
        "Ġchildren",
        -8.244307769899835
      ],
      [
        "ĠAnd",
        -8.245414745295333
      ],
      [
        "Ġde",
        -8.246245318862222
      ],
      [
        "est",
        -8.246453059151586
      ],
      [
        "Ġenvironment",
        -8.246730939416038
      ],
      [
        "Ġcalled",
        -8.249507701633627
      ],
      [
        "ĠR",
        -8.250986682455471
      ],
      [
        "Ġcar",
        -8.251534234515287
      ],
      [
        "Ġset",
        -8.251873074932929
      ],
      [
        "Ġlearn",
        -8.25535994651133
      ],
      [
        "Ġlow",
        -8.262092214492023
      ],
      [
        "ĠG",
        -8.265172726648752
      ],
      [
        "Ġsure",
        -8.268144701774379
      ],
      [
        "Ġpotential",
        -8.269302309121228
      ],
      [
        "Ġsize",
        -8.270136849031449
      ],
      [
        "Ġanother",
        -8.273794083824823
      ],
      [
        "ĠWhen",
        -8.279656540781795
      ],
      [
        "Ġwhy",
        -8.280009284858666
      ],
      [
        "Ġline",
        -8.28604460824172
      ],
      [
        "ary",
        -8.288133275485478
      ],
      [
        "ry",
        -8.295725488298954
      ],
      [
        "ĠH",
        -8.300993778386987
      ],
      [
        "Ġsource",
        -8.302927159372796
      ],
      [
        "Ġreally",
        -8.303054629985525
      ],
      [
        "Ġdue",
        -8.30437976962587
      ],
      [
        "Ġfollowing",
        -8.31053887094312
      ],
      [
        "Ġcolor",
        -8.311075620975588
      ],
      [
        "Ġvalue",
        -8.312800296902058
      ],
      [
        "ĠHow",
        -8.313268015399366
      ],
      [
        "Ġgame",
        -8.316714312551298
      ],
      [
        "Ġlead",
        -8.317219279895587
      ],
      [
        "Ġspace",
        -8.31797798469142
      ],
      [
        "R",
        -8.320394203489865
      ],
      [
        "ĠSo",
        -8.323755549352878
      ],
      [
        "Ġensure",
        -8.331933302683932
      ],
      [
        "Ġvarious",
        -8.333385129036934
      ],
      [
        "Ġsurface",
        -8.33652230698728
      ],
      [
        ",\"",
        -8.341224156396342
      ],
      [
        "Ġnatural",
        -8.341700481824336
      ],
      [
        "Ġdid",
        -8.341770692048124
      ],
      [
        "Ġlevel",
        -8.341933703986612
      ],
      [
        "Ġsomething",
        -8.342568279063734
      ],
      [
        "Ġprevent",
        -8.349429248945444
      ],
      [
        "Ġrange",
        -8.350156365431852
      ],
      [
        "less",
        -8.35162422808046
      ],
      [
        "Ġcome",
        -8.354704177137274
      ],
      [
        "Ġlittle",
        -8.35531011117251
      ],
      [
        "Ġhere",
        -8.357770714686232
      ],
      [
        "Ġuser",
        -8.358373732578304
      ],
      [
        "H",
        -8.358953510656953
      ],
      [
        "Ġshow",
        -8.359632025934289
      ],
      [
        "Ġname",
        -8.363050685267801
      ],
      [
        "possible",
        -8.363066535332326
      ],
      [
        "Ġshe",
        -8.367643312101297
      ],
      [
        "Ġeffective",
        -8.368189620347735
      ],
      [
        "ĠThere",
        -8.36910425531779
      ],
      [
        "Ġtest",
        -8.36936262172791
      ],
      [
        "to",
        -8.371944972043782
      ],
      [
        "Ġgeneral",
        -8.379563346107934
      ],
      [
        "ive",
        -8.383570454216173
      ],
      [
        "Ġamount",
        -8.387418511900238
      ],
      [
        "Ġturn",
        -8.388617416131439
      ],
      [
        "ous",
        -8.390524008913019
      ],
      [
        "Ġlast",
        -8.391727307389372
      ],
      [
        "Ġimpact",
        -8.39296225187783
      ],
      [
        "G",
        -8.3948029372689
      ],
      [
        "Ġrequire",
        -8.39929610562113
      ],
      [
        "Ġsoil",
        -8.399393709894781
      ],
      [
        "Ġplay",
        -8.39952240028402
      ],
      [
        "the",
        -8.399727306449272
      ],
      [
        "Ġalway",
        -8.40195900663539
      ],
      [
        "Ġbenefit",
        -8.403208935287127
      ],
      [
        "Ġcells",
        -8.406349820922971
      ],
      [
        "Ġprogram",
        -8.410327602912872
      ],
      [
        "Ġ=",
        -8.41546954130604
      ],
      [
        "Ġdevelopment",
        -8.418650771592095
      ],
      [
        "Ġavailable",
        -8.422437337792093
      ],
      [
        "Ġbased",
        -8.423934888730724
      ],
      [
        "Ġcare",
        -8.425305430849967
      ],
      [
        "Ġseveral",
        -8.426812878097106
      ],
      [
        "Ġcomplete",
        -8.42838605422765
      ],
      [
        "Ġpresent",
        -8.428692117537121
      ],
      [
        "Ġsignificant",
        -8.434559139015823
      ],
      [
        "Ġstate",
        -8.434998000532929
      ],
      [
        "Ġgive",
        -8.436078428434708
      ],
      [
        "Ġhand",
        -8.441514725675358
      ],
      [
        "Ġorder",
        -8.4429043784477
      ],
      [
        "Ġmeans",
        -8.44375755667243
      ],
      [
        "Ġal",
        -8.446578631327911
      ],
      [
        "ĠAs",
        -8.449505731580114
      ],
      [
        "Ġproblem",
        -8.45013512781889
      ],
      [
        "Ġdevice",
        -8.450656066267776
      ],
      [
        "Ġgoing",
        -8.451895986058569
      ],
      [
        "Ġfeel",
        -8.452135139618857
      ],
      [
        "Ġgroup",
        -8.456975972827435
      ],
      [
        "ĠHe",
        -8.458141782543539
      ],
      [
        "ar",
        -8.461578200720698
      ],
      [
        "Ġmain",
        -8.461892969760207
      ],
      [
        "Ġareas",
        -8.46392630847453
      ],
      [
        "Ġrisk",
        -8.46400278029293
      ],
      [
        "ĠWhich",
        -8.465441398120362
      ],
      [
        "]",
        -8.466772929301126
      ],
      [
        "Ġdisease",
        -8.469509781541472
      ],
      [
        "Ġnear",
        -8.472926593571138
      ],
      [
        "Ġtext",
        -8.475025027488043
      ],
      [
        "Ġleave",
        -8.479807677774454
      ],
      [
        "Ġcertain",
        -8.482969532819844
      ],
      [
        "Ġlocal",
        -8.484852286608227
      ],
      [
        "V",
        -8.484972659054502
      ],
      [
        "Ġusually",
        -8.487157398377388
      ],
      [
        "N",
        -8.48746081819979
      ],
      [
        "Ġreason",
        -8.489324568232822
      ],
      [
        "Ġtreatment",
        -8.492165275686379
      ],
      [
        "Ġmaterials",
        -8.493991291689566
      ],
      [
        "Ġessential",
        -8.497227752649405
      ],
      [
        "Ġsecond",
        -8.497498967661429
      ],
      [
        "Ġcourse",
        -8.500495041133252
      ],
      [
        "Ġ[",
        -8.500989732850677
      ],
      [
        "z",
        -8.504223739841862
      ],
      [
        "Ġblood",
        -8.506074957452562
      ],
      [
        "Ġteam",
        -8.509635414431546
      ],
      [
        "ever",
        -8.515138409845143
      ],
      [
        "Ġunderstand",
        -8.516037239313462
      ],
      [
        "Ġperson",
        -8.516923398061069
      ],
      [
        "Ġsay",
        -8.518316737466485
      ],
      [
        "ur",
        -8.52150602015362
      ],
      [
        "_",
        -8.523878018466885
      ],
      [
        "Ġquality",
        -8.52598765336187
      ],
      [
        "Ġmaterial",
        -8.52769504193712
      ],
      [
        "Ġconsider",
        -8.527897588203537
      ],
      [
        "Ġtechnology",
        -8.5317109033418
      ],
      [
        "Ġside",
        -8.533179568172315
      ],
      [
        "Ġconditions",
        -8.533559935217921
      ],
      [
        "When",
        -8.534144288800263
      ],
      [
        "E",
        -8.535946613095271
      ],
      [
        "Ġenough",
        -8.53858491168831
      ],
      [
        "Ġclose",
        -8.53954589220693
      ],
      [
        "ch",
        -8.53964754760597
      ],
      [
        "Ġtypes",
        -8.541560145715447
      ],
      [
        "ther",
        -8.54852399162187
      ],
      [
        "Ġput",
        -8.549627072259028
      ],
      [
        "Ġsystems",
        -8.554774891230586
      ],
      [
        "ten",
        -8.555014265873211
      ],
      [
        "Ġimprove",
        -8.55678816058918
      ],
      [
        "Ġanimals",
        -8.557175079687228
      ],
      [
        "W",
        -8.557350733284068
      ],
      [
        "Ġdifference",
        -8.557790223314608
      ],
      [
        "You",
        -8.55802473958542
      ],
      [
        "Ġeat",
        -8.558728884100464
      ],
      [
        "Ġmethod",
        -8.55922001677782
      ],
      [
        "K",
        -8.563928312479067
      ],
      [
        "ĠN",
        -8.564150215106759
      ],
      [
        "Ġfree",
        -8.564494003347196
      ],
      [
        "Ġage",
        -8.564896179285219
      ],
      [
        "Ġlearning",
        -8.56511296762388
      ],
      [
        "Ġarea",
        -8.568255208456293
      ],
      [
        "Ġtop",
        -8.574970959895612
      ],
      [
        "Ġkey",
        -8.576448955953614
      ],
      [
        "Ġfamily",
        -8.58058374903326
      ],
      [
        "ĠRe",
        -8.58394128306286
      ],
      [
        "Ġinvolve",
        -8.584440095345089
      ],
      [
        "Ġneeds",
        -8.587913083545283
      ],
      [
        "Ġcheck",
        -8.590324474455183
      ],
      [
        "Ġfunction",
        -8.59100726855841
      ],
      [
        "Ġlevels",
        -8.591229640264793
      ],
      [
        "Ġunti",
        -8.591722618526706
      ],
      [
        "Ġweight",
        -8.592568739802477
      ],
      [
        "Ġ&",
        -8.594112835766406
      ],
      [
        "Ġtogether",
        -8.595391579848025
      ],
      [
        "Ġhappen",
        -8.59627713641665
      ],
      [
        "Ġrole",
        -8.596897837941693
      ],
      [
        "Ġmachine",
        -8.597303987522148
      ],
      [
        "having",
        -8.597387482588394
      ],
      [
        "ĠThat",
        -8.598810187220213
      ],
      [
        "Ġskin",
        -8.60320505894326
      ],
      [
        "Ġfull",
        -8.60470778512434
      ],
      [
        "ul",
        -8.606160645189865
      ],
      [
        "next",
        -8.607128095607749
      ],
      [
        "Ġmaintain",
        -8.609491442927716
      ],
      [
        "While",
        -8.610429559633818
      ],
      [
        "Ġnon",
        -8.611006601138769
      ],
      [
        "Ġopen",
        -8.611907583281948
      ],
      [
        "Ġsolution",
        -8.613125407697696
      ],
      [
        "Ġleast",
        -8.61495209779848
      ],
      [
        "ĠWith",
        -8.616581487753681
      ],
      [
        "Ġsince",
        -8.617668469832534
      ],
      [
        "ĠW",
        -8.61778573069865
      ],
      [
        "Ġhigher",
        -8.6184193252803
      ],
      [
        "ĠL",
        -8.622618161845617
      ],
      [
        "Ġlive",
        -8.622743423655878
      ],
      [
        "Ġold",
        -8.625308530565988
      ],
      [
        "Ġshort",
        -8.626572384022207
      ],
      [
        "*",
        -8.627164775828941
      ],
      [
        "Ġhour",
        -8.627388861943748
      ],
      [
        "Ġhard",
        -8.627916727045168
      ],
      [
        "Ġaway",
        -8.628957267732275
      ],
      [
        "Ġproblems",
        -8.629100379442658
      ],
      [
        "Ġeye",
        -8.629843630446173
      ],
      [
        "Ġ$",
        -8.631720472281483
      ],
      [
        "Ġcost",
        -8.633577929758719
      ],
      [
        "Ġfocus",
        -8.634802484682279
      ],
      [
        "Ġword",
        -8.635548135458173
      ],
      [
        "We",
        -8.638251222835965
      ],
      [
        "ĠUniversity",
        -8.638868805284845
      ],
      [
        "Ġlet",
        -8.639555391405924
      ],
      [
        "Ġkind",
        -8.640860007167717
      ],
      [
        "Ġpressure",
        -8.641411881437966
      ],
      [
        "ĠK",
        -8.641496149181465
      ],
      [
        "ent",
        -8.645988011296978
      ],
      [
        "ĠBy",
        -8.65066636871003
      ],
      [
        "Ġlower",
        -8.650891829250188
      ],
      [
        "Ġforce",
        -8.651342027801235
      ],
      [
        "Ġsafe",
        -8.651474968339908
      ],
      [
        "Ġearly",
        -8.652188685931065
      ],
      [
        "Ġsimple",
        -8.653200650690845
      ],
      [
        "Ġactually",
        -8.654327227296749
      ],
      [
        "M",
        -8.655385761574443
      ],
      [
        "Ġworking",
        -8.656287880129714
      ],
      [
        "not",
        -8.65692365038537
      ],
      [
        "Ġproject",
        -8.657229653513022
      ],
      [
        "Ġfield",
        -8.658938998266745
      ],
      [
        "Ġeasy",
        -8.662595614595753
      ],
      [
        "Ġdiet",
        -8.66331242113094
      ],
      [
        "ful",
        -8.66375576998184
      ],
      [
        "ĠO",
        -8.664021945147299
      ],
      [
        "Ġgrowth",
        -8.664809918943623
      ],
      [
        "ĠJ",
        -8.666146294021413
      ],
      [
        "Ġdepend",
        -8.670141848499663
      ],
      [
        "Ġquick",
        -8.670272035820744
      ],
      [
        "Ġfish",
        -8.670370686072335
      ],
      [
        "Ġoil",
        -8.67218252495499
      ],
      [
        "man",
        -8.673762538813271
      ],
      [
        "Ġthing",
        -8.674362122590916
      ],
      [
        "Ġdigital",
        -8.675496510574071
      ],
      [
        "Ġfuture",
        -8.675589075308073
      ],
      [
        "Ġmeasure",
        -8.675642431097263
      ],
      [
        "Ġalong",
        -8.675781701948981
      ],
      [
        "li",
        -8.676531471561205
      ],
      [
        "Ġimage",
        -8.677084803059849
      ],
      [
        "O",
        -8.67888094026732
      ],
      [
        "Ġseem",
        -8.679852595380641
      ],
      [
        "Ġphysical",
        -8.680567117829398
      ],
      [
        "Ġground",
        -8.681709136096433
      ],
      [
        "Ġmodel",
        -8.682247623382253
      ],
      [
        "ĠU",
        -8.686693356894997
      ],
      [
        "âĢĶ",
        -8.68731853009458
      ],
      [
        "Ġprotect",
        -8.687979754729932
      ],
      [
        "Ġnever",
        -8.69088833955099
      ],
      [
        "Ġrun",
        -8.691595525500995
      ],
      [
        "Ġhim",
        -8.692002116479161
      ],
      [
        "Ġsocial",
        -8.697573639822267
      ],
      [
        "Ġtypical",
        -8.698488339077294
      ],
      [
        "âĢĻs",
        -8.700451277651606
      ],
      [
        "Ġtraining",
        -8.70093151658672
      ],
      [
        "Ġmakes",
        -8.70663875958413
      ],
      [
        "Ġclear",
        -8.708317219799657
      ],
      [
        "Ġindustr",
        -8.710998467642659
      ],
      [
        "Ġgarden",
        -8.71416861981891
      ],
      [
        ")Ċ",
        -8.714599168136171
      ],
      [
        "Ġdoesn",
        -8.71529323670551
      ],
      [
        "Ġcell",
        -8.715464413410508
      ],
      [
        "Ġpopulation",
        -8.717068760472728
      ],
      [
        "Ġunique",
        -8.717181165337273
      ],
      [
        "Ġarticle",
        -8.717531967107139
      ],
      [
        "Ġcomes",
        -8.718693441985547
      ],
      [
        "Ġdirect",
        -8.720058793900677
      ],
      [
        "Ġfact",
        -8.720924179848367
      ],
      [
        ")ĊĊ",
        -8.721205385182227
      ],
      [
        "Ġscience",
        -8.724237566869451
      ],
      [
        "Ġlikely",
        -8.724346892350443
      ],
      [
        "Ġlove",
        -8.724586503772654
      ],
      [
        "To",
        -8.724875220881934
      ],
      [
        "ian",
        -8.725314858623374
      ],
      [
        "Ġespecial",
        -8.725320366752403
      ],
      [
        "Ġmajor",
        -8.72832208008715
      ],
      [
        "L",
        -8.728732745750497
      ],
      [
        "Ġdamage",
        -8.72965748956688
      ],
      [
        "Ġsingle",
        -8.730466383254054
      ],
      [
        "Ġsimilar",
        -8.730904611046792
      ],
      [
        "There",
        -8.733452191490699
      ],
      [
        "Ġacross",
        -8.734532760678906
      ],
      [
        "Ġtreat",
        -8.736116349331008
      ],
      [
        "ance",
        -8.736739024271603
      ],
      [
        "Ġdays",
        -8.73752086606409
      ],
      [
        "Ġmove",
        -8.739519687202446
      ],
      [
        "Ġbook",
        -8.740975846843284
      ],
      [
        "Ġproducts",
        -8.742188147422684
      ],
      [
        "Ġclean",
        -8.742323425934089
      ],
      [
        "Ġchild",
        -8.742992719061217
      ],
      [
        "self",
        -8.74672950548667
      ],
      [
        "Ġcomponent",
        -8.749380223582758
      ],
      [
        "Ġhealthy",
        -8.749872592788403
      ],
      [
        "Ġbusiness",
        -8.750018880810382
      ],
      [
        "ĠSome",
        -8.751062303341296
      ],
      [
        "Ġpost",
        -8.754006753629849
      ],
      [
        "Ġunderstanding",
        -8.755589172627154
      ],
      [
        "Ġvideo",
        -8.760205361892861
      ],
      [
        "Ġtimes",
        -8.760588876529228
      ],
      [
        "Ġpropert",
        -8.761436148157266
      ],
      [
        "Ġabove",
        -8.762136042712825
      ],
      [
        "Ġavoid",
        -8.762656695032335
      ],
      [
        "Ġdry",
        -8.76280046682415
      ],
      [
        "Ġclimate",
        -8.762963731292558
      ],
      [
        "Ġdone",
        -8.763756475261065
      ],
      [
        "Ġask",
        -8.76673996300812
      ],
      [
        "Ġreal",
        -8.768047136668415
      ],
      [
        "Ġaffect",
        -8.768309687633309
      ],
      [
        "Ġoccur",
        -8.769188766095521
      ],
      [
        "Ġperiod",
        -8.770955210927557
      ],
      [
        "Ġtry",
        -8.774129929629613
      ],
      [
        "Ġhead",
        -8.774478270566757
      ],
      [
        "Ġpaper",
        -8.776178927191404
      ],
      [
        "Ġcomputer",
        -8.780199881428587
      ],
      [
        "Ġperformance",
        -8.781091183257864
      ],
      [
        "Ġwhite",
        -8.781306195340616
      ],
      [
        "Ġcontinue",
        -8.784664070820558
      ],
      [
        "Ġaccording",
        -8.785991291934565
      ],
      [
        "For",
        -8.786580877639032
      ],
      [
        "Ġnetwork",
        -8.786716792520297
      ],
      [
        "Ġblack",
        -8.786785810878573
      ],
      [
        "Ġwarm",
        -8.78955544632602
      ],
      [
        "Ġproduction",
        -8.789711875362126
      ],
      [
        "Ġcat",
        -8.78990215469939
      ],
      [
        "Ġvehicle",
        -8.78995305313748
      ],
      [
        "Ġdogs",
        -8.790253831607028
      ],
      [
        "\\",
        -8.791047405629609
      ],
      [
        "Ġfactors",
        -8.791317994128482
      ],
      [
        "if",
        -8.79275642904677
      ],
      [
        "Ġstep",
        -8.793359383413149
      ],
      [
        "ĠNew",
        -8.793597999808526
      ],
      [
        "ĠAmerican",
        -8.7941974591416
      ],
      [
        "Ġaccess",
        -8.795858138619952
      ],
      [
        "ate",
        -8.796009245833915
      ],
      [
        "Ġam",
        -8.80026168667547
      ],
      [
        "Ġpopular",
        -8.801436777982588
      ],
      [
        "Ġexist",
        -8.801622642952225
      ],
      [
        "!ĊĊ",
        -8.803925320906185
      ],
      [
        "Ġsign",
        -8.8047594906967
      ],
      [
        "Ġfar",
        -8.80487761136542
      ],
      [
        "Ġresearcher",
        -8.806474070181471
      ],
      [
        "Ġdeep",
        -8.808451504483823
      ],
      [
        "Ġdetermine",
        -8.808580639847458
      ],
      [
        "ory",
        -8.810266952256665
      ],
      [
        "Ġnormal",
        -8.81298083523713
      ],
      [
        "Ġbasic",
        -8.81434479200095
      ],
      [
        "ready",
        -8.814949259194654
      ],
      [
        "Ġplan",
        -8.814971421529611
      ],
      [
        "Ġamong",
        -8.816422318010556
      ],
      [
        "Ġregion",
        -8.816807205958364
      ],
      [
        "Ġpattern",
        -8.81772906125008
      ],
      [
        "Ġspeed",
        -8.822286625052197
      ],
      [
        "Ġleft",
        -8.826751989702547
      ],
      [
        "Ġagains",
        -8.827204669753325
      ],
      [
        "Ġfast",
        -8.82728365497524
      ],
      [
        "Ġmean",
        -8.827581927116022
      ],
      [
        "Ġgiven",
        -8.830499399274279
      ],
      [
        "Ġwhe",
        -8.834022135346988
      ],
      [
        "Ġred",
        -8.83450430715385
      ],
      [
        "Ġpiece",
        -8.83459910106711
      ],
      [
        "ant",
        -8.834834170271524
      ],
      [
        "Ġfurther",
        -8.834995321688162
      ],
      [
        "ĠâĢĶ",
        -8.835135778660907
      ],
      [
        "Ġregular",
        -8.838205348107877
      ],
      [
        "Ġloss",
        -8.840239977825979
      ],
      [
        "Ġmatter",
        -8.842164567000381
      ],
      [
        "Ġquestion",
        -8.847097489675761
      ],
      [
        "Ġpain",
        -8.848994624890004
      ],
      [
        "Ġlist",
        -8.849015924323577
      ],
      [
        "Ġremove",
        -8.849124313368437
      ],
      [
        "Ġbring",
        -8.850199322911669
      ],
      [
        "ĠNo",
        -8.851000957343096
      ],
      [
        "ĠYour",
        -8.852167843351316
      ],
      [
        "Ġeither",
        -8.852903571637828
      ],
      [
        "Ġcall",
        -8.853369732152004
      ],
      [
        "Ġenjoy",
        -8.855053172658527
      ],
      [
        "Ġwide",
        -8.856448580336393
      ],
      [
        "Ġaddition",
        -8.857460304356454
      ],
      [
        "Ġcontent",
        -8.85862604034831
      ],
      [
        "am",
        -8.85953156600752
      ],
      [
        "âĢĵ",
        -8.85961792117202
      ],
      [
        "ĠAn",
        -8.860519973715286
      ],
      [
        "Ġrecent",
        -8.860926060979239
      ],
      [
        "necessary",
        -8.861431193902995
      ],
      [
        "Ġtalk",
        -8.863636238461446
      ],
      [
        "Ġeffects",
        -8.86555497426385
      ],
      [
        "Ġbrain",
        -8.865884802031083
      ],
      [
        "Ġgetting",
        -8.865989067936054
      ],
      [
        "Ġassociate",
        -8.866134996485169
      ],
      [
        "As",
        -8.866392724664351
      ],
      [
        "Ġlooking",
        -8.8675794949756
      ],
      [
        "Ġtoday",
        -8.869682747403042
      ],
      [
        "Ġfour",
        -8.870371455182813
      ],
      [
        "Ġproduct",
        -8.870700897929428
      ],
      [
        "one",
        -8.87185019342876
      ],
      [
        "Ġmarket",
        -8.875529259744662
      ],
      [
        "Ġheart",
        -8.877125354453458
      ],
      [
        "Ġperform",
        -8.880268814049924
      ],
      [
        "âĢ¦",
        -8.88066870172252
      ],
      [
        "Ġface",
        -8.880790755216335
      ],
      [
        "Ġeffect",
        -8.88523607225372
      ],
      [
        "Ġstructure",
        -8.885809836571225
      ],
      [
        "Ġsays",
        -8.88629445295952
      ],
      [
        "Ġobject",
        -8.886406086121887
      ],
      [
        "Ġread",
        -8.8875272071733
      ],
      [
        "Ġanimal",
        -8.889964248607688
      ],
      [
        "Ġroom",
        -8.893619096876595
      ],
      [
        "Q",
        -8.894239588306345
      ],
      [
        "Ġbit",
        -8.894997203971013
      ],
      [
        "Ġbelieve",
        -8.895243374170315
      ],
      [
        "Ġexplain",
        -8.90019470276675
      ],
      [
        "Ġfee",
        -8.900424183606592
      ],
      [
        "Ġpurpose",
        -8.901435878712107
      ],
      [
        "Ġthought",
        -8.901670590605482
      ],
      [
        "Ġyoung",
        -8.903173516776674
      ],
      [
        "Ġengine",
        -8.903257880841553
      ],
      [
        "Ġdifficult",
        -8.905320156444887
      ],
      [
        "Ġunit",
        -8.905403099231787
      ],
      [
        "Ġshare",
        -8.906166955117364
      ],
      [
        "#",
        -8.906504117152046
      ],
      [
        "ĠV",
        -8.907698630817725
      ],
      [
        "Ġsound",
        -8.907996369130526
      ],
      [
        "Ġgas",
        -8.910223527720792
      ],
      [
        "Ġfeatures",
        -8.910823916149948
      ],
      [
        "Ġbreak",
        -8.911173396233497
      ],
      [
        "Ġbig",
        -8.911455556874888
      ],
      [
        "Ġvariety",
        -8.912662818812223
      ],
      [
        "up",
        -8.912835354188235
      ],
      [
        "un",
        -8.91349524656668
      ],
      [
        "Ġcold",
        -8.913756197194926
      ],
      [
        "Ġidea",
        -8.91406402039591
      ],
      [
        "ĠOn",
        -8.914599651178449
      ],
      [
        "Ġapproach",
        -8.915610878892444
      ],
      [
        "Y",
        -8.917280111811316
      ],
      [
        "Ġart",
        -8.918692973245452
      ],
      [
        "Ġanswer",
        -8.919444642275549
      ],
      [
        "co",
        -8.922599734806969
      ],
      [
        "Ġhistory",
        -8.924169833441045
      ],
      [
        "Ġthough",
        -8.925700143801233
      ],
      [
        "Ġskills",
        -8.926262880253844
      ],
      [
        "Ġactivity",
        -8.92632060026908
      ],
      [
        "Ġpre",
        -8.926345708890661
      ],
      [
        "Ġbase",
        -8.928204211815189
      ],
      [
        "Ġstress",
        -8.932845268271098
      ],
      [
        "Ġshape",
        -8.933365728056618
      ],
      [
        "Ġinside",
        -8.933755628080103
      ],
      [
        "Ġposition",
        -8.93392423274516
      ],
      [
        ".\"Ċ",
        -8.934091824206908
      ],
      [
        "Ġmind",
        -8.934630900714556
      ],
      [
        "Ġflow",
        -8.935617393051121
      ],
      [
        "Ġtarget",
        -8.936192036641168
      ],
      [
        "Ġcontain",
        -8.936334512354897
      ],
      [
        "Ġrate",
        -8.936548768921629
      ],
      [
        "Ġbelow",
        -8.937087161380187
      ],
      [
        "Ġways",
        -8.937260595170203
      ],
      [
        "Ġhouse",
        -8.93765883261199
      ],
      [
        "Ġparent",
        -8.939637437636879
      ],
      [
        "Ġpositive",
        -8.940158236631913
      ],
      [
        "Ġstay",
        -8.94036364514897
      ],
      [
        "Ġsignal",
        -8.941382030354145
      ],
      [
        "Ġprovid",
        -8.941408571122379
      ],
      [
        "ĠUnit",
        -8.94268549597381
      ],
      [
        "Ġcommunity",
        -8.948802767178973
      ],
      [
        "Ġacid",
        -8.948916320087744
      ],
      [
        "Ġenvironmental",
        -8.950479905908903
      ],
      [
        "Ġallows",
        -8.952060496594285
      ],
      [
        "!Ċ",
        -8.954182528424331
      ],
      [
        "Ġcomplex",
        -8.957604638008169
      ],
      [
        "Ġopportunit",
        -8.958193284351594
      ],
      [
        "Ġlayer",
        -8.959620406906511
      ],
      [
        "Ġslow",
        -8.961029433438844
      ],
      [
        "Ġknowledge",
        -8.961256616778845
      ],
      [
        "Ġwhole",
        -8.96168721827583
      ],
      [
        "Ġrequired",
        -8.962023425552982
      ],
      [
        "land",
        -8.962779932038877
      ],
      [
        "Ġperfect",
        -8.963322196431383
      ],
      [
        "Ġcool",
        -8.963841688320109
      ],
      [
        "ĠDo",
        -8.964164666884384
      ],
      [
        "Ġstrong",
        -8.96461377337074
      ],
      [
        "ter",
        -8.96657136087561
      ],
      [
        "Ġstor",
        -8.967397979995582
      ],
      [
        "ĠOne",
        -8.968932812059407
      ],
      [
        "Ġpublic",
        -8.970232891047129
      ],
      [
        "Ġgreen",
        -8.97031690532934
      ],
      [
        "Ġtree",
        -8.970930582834544
      ],
      [
        "afety",
        -8.971400430150561
      ],
      [
        "by",
        -8.971886013077615
      ],
      [
        "gan",
        -8.975252336782354
      ],
      [
        "Ġagain",
        -8.97527875665382
      ],
      [
        "Ġbehavior",
        -8.975342655493879
      ],
      [
        "Ġweek",
        -8.977325640674366
      ],
      [
        "So",
        -8.979676893475094
      ],
      [
        "once",
        -8.979885408881675
      ],
      [
        "taking",
        -8.98002799759485
      ],
      [
        ".\"",
        -8.981280515579629
      ],
      [
        "Ġmix",
        -8.982327995089893
      ],
      [
        "Ġfollow",
        -8.983530694121267
      ],
      [
        "Ġbuild",
        -8.989414691359826
      ],
      [
        "Ġpersonal",
        -8.99086493301636
      ],
      [
        "ism",
        -8.991173534895985
      ],
      [
        "Ġhelps",
        -8.99327693301016
      ],
      [
        "Ġactivities",
        -8.997587141727472
      ],
      [
        "Ġsymptom",
        -8.997816153111494
      ],
      [
        "Ġgot",
        -8.99853372897429
      ],
      [
        "Ġselect",
        -9.000314894437274
      ],
      [
        "Ġclass",
        -9.001493807423294
      ],
      [
        "Ġliving",
        -9.002112717700243
      ],
      [
        "Ġbacteria",
        -9.002511142716852
      ],
      [
        "ish",
        -9.002720641039126
      ],
      [
        "Ġauthor",
        -9.003814644322027
      ],
      [
        "Ġcancer",
        -9.003852579539366
      ],
      [
        "Ġcut",
        -9.0044994364949
      ],
      [
        "ĠAI",
        -9.005766025291136
      ],
      [
        "Ġresponse",
        -9.006323065148788
      ],
      [
        "Ġdoing",
        -9.006542725353526
      ],
      [
        "Ġseen",
        -9.007769760037888
      ],
      [
        "Ġprotein",
        -9.007823326397077
      ],
      [
        "Ġmetal",
        -9.010091049984858
      ],
      [
        "Ġexercise",
        -9.0113192013031
      ],
      [
        "Ġtotal",
        -9.011868126149082
      ],
      [
        "Ġbuilding",
        -9.0122607424946
      ],
      [
        "Ġprovides",
        -9.013609325561855
      ],
      [
        "Ġmethods",
        -9.014696491958908
      ],
      [
        "Ġpractice",
        -9.015033767306686
      ],
      [
        "Ġwaste",
        -9.016779021245345
      ],
      [
        "Ġcorrect",
        -9.018054038931872
      ],
      [
        "Ġcontact",
        -9.018476871941417
      ],
      [
        "Ġpast",
        -9.019822821376518
      ],
      [
        "Ġtools",
        -9.021748274534302
      ],
      [
        "Ġservice",
        -9.022518070476869
      ],
      [
        "Ġcreat",
        -9.022605782257092
      ],
      [
        "online",
        -9.0242826395451
      ],
      [
        "Ġlocation",
        -9.025269217116277
      ],
      [
        "Ġtraditional",
        -9.025447636130576
      ],
      [
        "Ġspecial",
        -9.026391305989886
      ],
      [
        "Ġprofessional",
        -9.02708467008852
      ],
      [
        "Ġparticular",
        -9.028192079062764
      ],
      [
        "Ġidentify",
        -9.028274216179828
      ],
      [
        ">",
        -9.029609786068043
      ],
      [
        "Ġcompany",
        -9.030282466754972
      ],
      [
        "Ġoverall",
        -9.032096317873666
      ],
      [
        "Ġmonths",
        -9.032324584630912
      ],
      [
        "ĠCan",
        -9.032887728494115
      ],
      [
        "Ġnature",
        -9.032920449966891
      ],
      [
        "Ġmultiple",
        -9.03309228492394
      ],
      [
        "Ġtechniques",
        -9.034359007232752
      ],
      [
        "Ġresources",
        -9.035096035057784
      ],
      [
        "Ġflower",
        -9.038987396765815
      ],
      [
        "Ġsea",
        -9.04019651625561
      ],
      [
        "Ġdrive",
        -9.040817217711094
      ],
      [
        "Ġprimar",
        -9.041841185509274
      ],
      [
        "Ġco",
        -9.04289333547269
      ],
      [
        "Ġsense",
        -9.043188258480969
      ],
      [
        "Ġtell",
        -9.043611077276829
      ],
      [
        "Ġgenetic",
        -9.04366472743661
      ],
      [
        "Ġfruit",
        -9.044212327415645
      ],
      [
        "Ġmone",
        -9.04512993569857
      ],
      [
        "Ġhot",
        -9.045368018967
      ],
      [
        "Ġetc",
        -9.04592317321493
      ],
      [
        "Ġentire",
        -9.046169620976771
      ],
      [
        "Ġcarbon",
        -9.047996528055084
      ],
      [
        "Ġbalance",
        -9.0491549657495
      ],
      [
        "Ġinfection",
        -9.049605266410897
      ],
      [
        "Ġsite",
        -9.050231543938825
      ],
      [
        "Ġeasily",
        -9.05321422773817
      ],
      [
        "Ġland",
        -9.055922129107772
      ],
      [
        "Ġcrucial",
        -9.056755288538785
      ],
      [
        "ial",
        -9.057024739893569
      ],
      [
        "Ġsolar",
        -9.057786263472256
      ],
      [
        "me",
        -9.058005084595411
      ],
      [
        "Ġaverage",
        -9.05827982888158
      ],
      [
        "Ġseason",
        -9.058852793003346
      ],
      [
        "ge",
        -9.06062190993078
      ],
      [
        "Ġb",
        -9.0611856953411
      ],
      [
        "ember",
        -9.06143505279048
      ],
      [
        "Ġmuscle",
        -9.061452199993685
      ],
      [
        "Ġdescribe",
        -9.06389015457522
      ],
      [
        "Ġfall",
        -9.064743295298667
      ],
      [
        "ling",
        -9.0647953217618
      ],
      [
        "Ġlate",
        -9.068615641935576
      ],
      [
        "Ġthroughout",
        -9.069183804701208
      ],
      [
        "Ġpet",
        -9.070206585700038
      ],
      [
        "Ġsomeone",
        -9.07452553479423
      ],
      [
        "Ġreceive",
        -9.074828841885353
      ],
      [
        "Ġglobal",
        -9.075289454305508
      ],
      [
        "Ġminutes",
        -9.075595959161442
      ],
      [
        "ĠDNA",
        -9.076522519023642
      ],
      [
        "Ġreach",
        -9.076924224747966
      ],
      [
        "Ġcycle",
        -9.077664293383638
      ],
      [
        "Ġcreated",
        -9.079321916613196
      ],
      [
        "Ġdegree",
        -9.081271395242158
      ],
      [
        "Ġmodern",
        -9.08230959430361
      ],
      [
        "Ġconsidered",
        -9.083846695110823
      ],
      [
        "Ġever",
        -9.084076447271258
      ],
      [
        "Ġsuggest",
        -9.084493525809672
      ],
      [
        "Ġcondition",
        -9.084952442320866
      ],
      [
        "Ġsugar",
        -9.086282536592371
      ],
      [
        "U",
        -9.087404979292028
      ],
      [
        "ĠNational",
        -9.087888822398911
      ],
      [
        "ĠDr",
        -9.088037982080609
      ],
      [
        "tic",
        -9.088791898929744
      ],
      [
        "Ġquestions",
        -9.089080973754252
      ],
      [
        "Ġplastic",
        -9.090164805495029
      ],
      [
        "ĠDe",
        -9.091338221644907
      ],
      [
        "Ġbad",
        -9.09157478858554
      ],
      [
        "Ġinterest",
        -9.092223016390772
      ],
      [
        "Ġrelease",
        -9.092984988102335
      ],
      [
        "Ġchoice",
        -9.093284465314149
      ],
      [
        "Ġchoose",
        -9.093503608501743
      ],
      [
        "Ġblock",
        -9.09397965861056
      ],
      [
        "Ġaddress",
        -9.097078518454872
      ],
      [
        "Ġlimit",
        -9.097283215466025
      ],
      [
        "per",
        -9.097875702677891
      ],
      [
        "Ġbuy",
        -9.099688351135285
      ],
      [
        "Ġmanagement",
        -9.102874185479449
      ],
      [
        "ization",
        -9.102946805161864
      ],
      [
        "Ġsimply",
        -9.103970283577798
      ],
      [
        "Ġprobably",
        -9.104989338961763
      ],
      [
        "Ġself",
        -9.106448232466166
      ],
      [
        "Ġlarger",
        -9.10732984824093
      ],
      [
        "where",
        -9.10853956767814
      ],
      [
        "Ġmillion",
        -9.108967132219988
      ],
      [
        "Ġjob",
        -9.109946002112297
      ],
      [
        "Ġreport",
        -9.110820109231357
      ],
      [
        "Ġsleep",
        -9.110892258459575
      ],
      [
        "ĠScience",
        -9.111192529709534
      ],
      [
        "Ġact",
        -9.111479334046551
      ],
      [
        "ĠAll",
        -9.112838988789356
      ],
      [
        "Ġyourself",
        -9.113712129832122
      ],
      [
        "Ġterm",
        -9.114000016704823
      ],
      [
        "Ġextreme",
        -9.11443550450231
      ],
      [
        "Ġothers",
        -9.114931117994688
      ],
      [
        "mm",
        -9.115567301832748
      ],
      [
        "+",
        -9.117804237848688
      ],
      [
        "ather",
        -9.119532307845072
      ],
      [
        "ier",
        -9.119811291378872
      ],
      [
        "Ġincreasing",
        -9.120494376057604
      ],
      [
        "Ġlanguage",
        -9.120571371931778
      ],
      [
        "Ġreturn",
        -9.122050001288272
      ],
      [
        "Ġoptions",
        -9.125722861801272
      ],
      [
        "Ġwebsite",
        -9.126551656201698
      ],
      [
        "ĠAt",
        -9.128868340848566
      ],
      [
        "|",
        -9.12906815981567
      ],
      [
        "Ġnight",
        -9.130147757707013
      ],
      [
        "Ġrepresent",
        -9.131719837106491
      ],
      [
        "Ġadult",
        -9.13187345964824
      ],
      [
        "Ġsearch",
        -9.131889607422313
      ],
      [
        "Ġscientists",
        -9.133856437661642
      ],
      [
        "Ġmovement",
        -9.133861860162307
      ],
      [
        "Ġstop",
        -9.134614501247723
      ],
      [
        "J",
        -9.135552243042948
      ],
      [
        "Ġsituation",
        -9.135706339064626
      ],
      [
        "be",
        -9.135856057019025
      ],
      [
        "Ġstore",
        -9.13614636260785
      ],
      [
        "Ġpatients",
        -9.136374666376774
      ],
      [
        "Ġreaction",
        -9.136895469539777
      ],
      [
        "Ġadvantage",
        -9.13854898628845
      ],
      [
        "Ġlater",
        -9.139060560208648
      ],
      [
        "op",
        -9.139701660514834
      ],
      [
        "Ġwall",
        -9.140142659248504
      ],
      [
        "Ġdecision",
        -9.140321990285742
      ],
      [
        "Ġalmost",
        -9.142017966569616
      ],
      [
        "ill",
        -9.142266982870169
      ],
      [
        "Ġwomen",
        -9.142638626730802
      ],
      [
        "Ġrelated",
        -9.144619468279592
      ],
      [
        "over",
        -9.144656427911512
      ],
      [
        "Ġsometime",
        -9.14496287086912
      ],
      [
        "Ġtool",
        -9.14540884272238
      ],
      [
        "Ġear",
        -9.145940191174171
      ],
      [
        "Ġpercent",
        -9.146190253485347
      ],
      [
        "Ġexpert",
        -9.146240972150895
      ],
      [
        "Ġwinter",
        -9.148181204614218
      ],
      [
        "Ġrelative",
        -9.1485475179581
      ],
      [
        "Ġmedia",
        -9.149111960134164
      ],
      [
        "ĠShe",
        -9.150389552501256
      ],
      [
        "Ġcommunication",
        -9.150467225512005
      ],
      [
        "Ġeducation",
        -9.153070377614522
      ],
      [
        "Ġoutside",
        -9.153433710405452
      ],
      [
        "Ġbattery",
        -9.153968078122311
      ],
      [
        "Ġregard",
        -9.155872806095612
      ],
      [
        "Ġcode",
        -9.156798229506348
      ],
      [
        "Ġexact",
        -9.157485494350984
      ],
      [
        "Ġsub",
        -9.158125322257106
      ],
      [
        "Ġbreed",
        -9.160875840475992
      ],
      [
        "\"ĊĊ",
        -9.162278317911872
      ],
      [
        "Ġexplore",
        -9.162473380655468
      ],
      [
        "Ġpay",
        -9.16308974271188
      ],
      [
        "den",
        -9.164800126738635
      ],
      [
        "ized",
        -9.166290322983134
      ],
      [
        "Ġspring",
        -9.16656051280993
      ],
      [
        "-based",
        -9.166958346146975
      ],
      [
        "Ġefficient",
        -9.16917864762056
      ],
      [
        "Ġfive",
        -9.170821899691648
      ],
      [
        "Ġdistance",
        -9.170883477710484
      ],
      [
        "Ġapplication",
        -9.171437770780352
      ],
      [
        "ĠX",
        -9.171556046886456
      ],
      [
        "Ġeverything",
        -9.172512169595135
      ],
      [
        "Ġshown",
        -9.17388391438396
      ],
      [
        "Ġapplications",
        -9.173884097965828
      ],
      [
        "Ġgain",
        -9.17485491265725
      ],
      [
        "Ġsubject",
        -9.1756015316044
      ],
      [
        "Ġfuel",
        -9.1767573308731
      ],
      [
        "Ġcustomer",
        -9.177966735304071
      ],
      [
        "Ġelements",
        -9.178632067663532
      ],
      [
        "Ġyet",
        -9.179742871394396
      ],
      [
        "Ġfactor",
        -9.180776245501598
      ],
      [
        "Ġcountry",
        -9.181725484599603
      ],
      [
        "Ġinstead",
        -9.181787863606669
      ],
      [
        "Ġstarted",
        -9.184230457920163
      ],
      [
        "Ġfinal",
        -9.184546830874432
      ],
      [
        "Ġwon",
        -9.184583888730206
      ],
      [
        "=",
        -9.187672165069952
      ],
      [
        "Ġpage",
        -9.187769913017751
      ],
      [
        "Ġchemical",
        -9.188118908470862
      ],
      [
        "One",
        -9.188536728580962
      ],
      [
        "Ġkids",
        -9.188720850300223
      ],
      [
        "Ġanalysis",
        -9.189704724809063
      ],
      [
        "Ġtravel",
        -9.19003746784032
      ],
      [
        "Ġgenerate",
        -9.192431540832128
      ],
      [
        "Ġlength",
        -9.19394955407235
      ],
      [
        "Ġwalk",
        -9.194940428056412
      ],
      [
        "Ġstation",
        -9.195071587410006
      ],
      [
        "ĠStates",
        -9.197398672861183
      ],
      [
        "Ġactive",
        -9.198695272081109
      ],
      [
        "Ġeffort",
        -9.199672727751317
      ],
      [
        "X",
        -9.20135612668108
      ],
      [
        "Ġstudies",
        -9.201608942458073
      ],
      [
        "Ġstory",
        -9.20272859215386
      ],
      [
        "Ġfresh",
        -9.20563710678491
      ],
      [
        "Ġlink",
        -9.20886024389296
      ],
      [
        "Ġcharge",
        -9.20956785254872
      ],
      [
        "Ġattention",
        -9.210875548126223
      ],
      [
        "Ġevidence",
        -9.211438203896266
      ],
      [
        "Ġoriginal",
        -9.211935028415288
      ],
      [
        "ated",
        -9.212181389427068
      ],
      [
        "Ġthemselves",
        -9.212542164687148
      ],
      [
        "Ġweather",
        -9.213058708474495
      ],
      [
        "Ġmonitor",
        -9.213095897761196
      ],
      [
        "Ġmedical",
        -9.21310011908555
      ],
      [
        "Ġview",
        -9.214004689277486
      ],
      [
        "ĠHere",
        -9.214914349896947
      ],
      [
        "Ġguide",
        -9.215303324421912
      ],
      [
        "Ġpass",
        -9.216415880476813
      ],
      [
        "ĠEarth",
        -9.217857939323917
      ],
      [
        "Ġstrateg",
        -9.218216653407756
      ],
      [
        "Ġanything",
        -9.219099541602064
      ],
      [
        "Ġoperation",
        -9.220946680448886
      ],
      [
        "Ġwood",
        -9.221337381997271
      ],
      [
        "Ġprevious",
        -9.221425851890269
      ],
      [
        "Ġfun",
        -9.22240652356058
      ],
      [
        "Ġappear",
        -9.22472491910504
      ],
      [
        "Ġoption",
        -9.22481999460811
      ],
      [
        "Ġwind",
        -9.224972483014271
      ],
      [
        "Ġfinding",
        -9.22529382363114
      ],
      [
        "Ġtrees",
        -9.227120962753194
      ],
      [
        "Ġdrink",
        -9.228140226029858
      ],
      [
        "Ġmentioned",
        -9.229619595253324
      ],
      [
        "Ġcharacter",
        -9.230018490277155
      ],
      [
        "\\n",
        -9.230508460714002
      ],
      [
        "Ġreading",
        -9.231409473307282
      ],
      [
        "Ġcenter",
        -9.232825979212834
      ],
      [
        "Ġman",
        -9.232854051052062
      ],
      [
        "Ġtaken",
        -9.233501447336527
      ],
      [
        "Ġspread",
        -9.233643306928595
      ],
      [
        "Ġequipment",
        -9.234912762091112
      ],
      [
        "Ġadditional",
        -9.235764012043198
      ],
      [
        "Ġserve",
        -9.23607188757875
      ],
      [
        "Ġmeat",
        -9.237885190029722
      ],
      [
        "Ġvisit",
        -9.240042677358709
      ],
      [
        "Ġdisplay",
        -9.240649275402577
      ],
      [
        "Ġago",
        -9.241624350413016
      ],
      [
        "Ġservices",
        -9.241884030285888
      ],
      [
        "Ġhalf",
        -9.244328739704413
      ],
      [
        "Ġtrying",
        -9.24439772965373
      ],
      [
        "Ġdark",
        -9.244553286648134
      ],
      [
        "$",
        -9.245319003257295
      ],
      [
        "Ġestablish",
        -9.245878785115863
      ],
      [
        ").Ċ",
        -9.246884870545529
      ],
      [
        "[",
        -9.247648650334853
      ],
      [
        "quite",
        -9.25018041762644
      ],
      [
        "Ġfront",
        -9.250455814044308
      ],
      [
        "Ġculture",
        -9.253053705997573
      ],
      [
        "Ġshows",
        -9.256300588972223
      ],
      [
        "Ġtrue",
        -9.25639493927595
      ],
      [
        "Ġstandard",
        -9.25671513616836
      ],
      [
        "Ġstage",
        -9.256764670828035
      ],
      [
        "Ġstudent",
        -9.259648648480926
      ],
      [
        "Ġmov",
        -9.26038051720618
      ],
      [
        "Ġsun",
        -9.261771512021
      ],
      [
        "Ġsave",
        -9.261872135202116
      ],
      [
        "for",
        -9.262548611881831
      ],
      [
        "Ġstrength",
        -9.26315467697071
      ],
      [
        "Ġdeliver",
        -9.263277483607016
      ],
      [
        "Ġcamera",
        -9.264181276837023
      ],
      [
        "Ġindicate",
        -9.264405108414037
      ],
      [
        "Ġpaint",
        -9.266417134830093
      ],
      [
        "Ġadvance",
        -9.268931588536397
      ],
      [
        "Ġrecord",
        -9.26923789170614
      ],
      [
        "Ġsuccessful",
        -9.271124051784929
      ],
      [
        "Ġapply",
        -9.271182470094343
      ],
      [
        "Ġproper",
        -9.272386363097969
      ],
      [
        "Ġcover",
        -9.273188814961188
      ],
      [
        "Ġhear",
        -9.273817629622531
      ],
      [
        "Ġinput",
        -9.274107754901577
      ],
      [
        "Ġgroups",
        -9.277800283701586
      ],
      [
        "Ġnegative",
        -9.279492431628466
      ],
      [
        "Ġaccount",
        -9.282651895064037
      ],
      [
        "Ġbehind",
        -9.28355035847328
      ],
      [
        "Ġdetail",
        -9.28396535635408
      ],
      [
        "Ġbirds",
        -9.285065773057756
      ],
      [
        "Ġice",
        -9.286230038442362
      ],
      [
        "ex",
        -9.291392939373548
      ],
      [
        "Ġeyes",
        -9.291828750255618
      ],
      [
        "Ġattack",
        -9.293722227846596
      ],
      [
        "Ġmass",
        -9.293912741698446
      ],
      [
        "Ġselection",
        -9.29410938948582
      ],
      [
        "Â°",
        -9.294287280994304
      ],
      [
        "Ġconstant",
        -9.295263929018915
      ],
      [
        "Ġworks",
        -9.296280556716011
      ],
      [
        "Ġpublish",
        -9.296324218871316
      ],
      [
        "Ġdiscuss",
        -9.29663338296999
      ],
      [
        "Ġparticularly",
        -9.296916422475627
      ],
      [
        "ĠUS",
        -9.29764268940517
      ],
      [
        "Ġscientific",
        -9.30143988572922
      ],
      [
        "Ġdirection",
        -9.307086293192253
      ],
      [
        "Ġconnection",
        -9.307113188540628
      ],
      [
        "ĠAfter",
        -9.30735115007374
      ],
      [
        "Ġtend",
        -9.307453953455122
      ],
      [
        "ĠBe",
        -9.30777031795254
      ],
      [
        "âĢĿ",
        -9.308207647221868
      ],
      [
        "ĠHealth",
        -9.308588189513117
      ],
      [
        "Ġfeed",
        -9.310588318477755
      ],
      [
        "âĢ¢",
        -9.311521914618854
      ],
      [
        "Ġextra",
        -9.3122689753903
      ],
      [
        "Ġfire",
        -9.313425697493042
      ],
      [
        "Ġinjur",
        -9.314164949296575
      ],
      [
        "Ġrest",
        -9.315202040199145
      ],
      [
        "Ġinfluence",
        -9.315702706225316
      ],
      [
        "Ġblue",
        -9.316288232789102
      ],
      [
        "end",
        -9.316982656037451
      ],
      [
        "wise",
        -9.317309700119944
      ],
      [
        "Ġapp",
        -9.317986545527663
      ],
      [
        "Ġelectric",
        -9.31842610317137
      ],
      [
        "Ġsix",
        -9.318682287554685
      ],
      [
        "Ġleading",
        -9.31873394035904
      ],
      [
        "ĠYes",
        -9.318819410604348
      ],
      [
        "Ġfit",
        -9.322300254944256
      ],
      [
        "Ġvegetable",
        -9.32349233730482
      ],
      [
        "Ġinitial",
        -9.323503506612658
      ],
      [
        "j",
        -9.324150689439712
      ],
      [
        "Ġmental",
        -9.324250509442308
      ],
      [
        "Ġaction",
        -9.326050998536914
      ],
      [
        "Why",
        -9.327072652478725
      ],
      [
        "Ġdail",
        -9.32838922958858
      ],
      [
        "Ġcolors",
        -9.32884056030478
      ],
      [
        "Ġprocesses",
        -9.329285870563588
      ],
      [
        "all",
        -9.32931039447448
      ],
      [
        "Ġsummer",
        -9.332976610544986
      ],
      [
        "ĠâĢľ",
        -9.333427450216698
      ],
      [
        "Ġsoftware",
        -9.333765331561178
      ],
      [
        "Ġgovernment",
        -9.333844302728997
      ],
      [
        "ence",
        -9.33473705989031
      ],
      [
        "Ġgene",
        -9.334781447748144
      ],
      [
        "Ġvisual",
        -9.334851929587185
      ],
      [
        "ĠCo",
        -9.336490305693616
      ],
      [
        "Ġnotice",
        -9.336962820163864
      ],
      [
        "ions",
        -9.337765034258618
      ],
      [
        "Ġ+",
        -9.339077748136257
      ],
      [
        "Ġmale",
        -9.339756990602297
      ],
      [
        "âĢĻ",
        -9.341592522687082
      ],
      [
        "Ġenhance",
        -9.34261532473426
      ],
      [
        "ĠSchool",
        -9.343009211027278
      ],
      [
        "Ġelse",
        -9.345087522202462
      ],
      [
        "more",
        -9.345434851049868
      ],
      [
        "But",
        -9.34557791626212
      ],
      [
        "Ġcontribute",
        -9.348495699545513
      ],
      [
        "Ġeggs",
        -9.348560496771944
      ],
      [
        "line",
        -9.34919015935454
      ],
      [
        "Ġcritical",
        -9.351297194033364
      ],
      [
        "Ġcauses",
        -9.35150940712406
      ],
      [
        "Ġfine",
        -9.353660344149503
      ],
      [
        "Can",
        -9.353864884794266
      ],
      [
        "Ġhorse",
        -9.354601385584395
      ],
      [
        "Ġbuilt",
        -9.355572324935098
      ],
      [
        "Ġequal",
        -9.35574381232038
      ],
      [
        "Ġevents",
        -9.355774332846083
      ],
      [
        "Ġterms",
        -9.355890735037253
      ],
      [
        "ĠAmerica",
        -9.356224944372734
      ],
      [
        "Ġlack",
        -9.356515034876429
      ],
      [
        "Ġocean",
        -9.356942553976856
      ],
      [
        "Ġtissue",
        -9.35742551964789
      ],
      [
        "Ġcountries",
        -9.35743148710432
      ],
      [
        "Ġsuccess",
        -9.357446245611364
      ],
      [
        "Ġweeks",
        -9.357490552042089
      ],
      [
        "Ġelectrical",
        -9.357497717670189
      ],
      [
        "iv",
        -9.35890116378108
      ],
      [
        "ĠNorth",
        -9.361121323466415
      ],
      [
        "Ġdraw",
        -9.36265438286237
      ],
      [
        "Ġrunning",
        -9.363256963581916
      ],
      [
        "Ġcombination",
        -9.363345499098514
      ],
      [
        "An",
        -9.365282108672082
      ],
      [
        "Ġseparate",
        -9.365783450758396
      ],
      [
        "Ġhole",
        -9.366337171439298
      ],
      [
        "Ġfeature",
        -9.367898036146812
      ],
      [
        "Ġsalt",
        -9.368158464687356
      ],
      [
        "Ġwatch",
        -9.368416478343631
      ],
      [
        "Ġeasier",
        -9.369275177068833
      ],
      [
        "head",
        -9.37048382159071
      ],
      [
        "Ġrequirement",
        -9.370726171170045
      ],
      [
        "Ġorganization",
        -9.37344712608833
      ],
      [
        "Ġgoal",
        -9.373498095804385
      ],
      [
        "min",
        -9.373513944776724
      ],
      [
        "ship",
        -9.375146510174236
      ],
      [
        "Ġdeath",
        -9.37594987627604
      ],
      [
        "Ġhair",
        -9.376261544272197
      ],
      [
        "Ġrecommended",
        -9.377555446986776
      ],
      [
        "Ġcompare",
        -9.381176530555177
      ],
      [
        "Ġhabitat",
        -9.38161230104414
      ],
      [
        "Ġremain",
        -9.381891765688415
      ],
      [
        "Ġstyle",
        -9.382436744044073
      ],
      [
        "of",
        -9.382584523035373
      ],
      [
        "Ġdidn",
        -9.382619956885769
      ],
      [
        "Ġalternative",
        -9.382641739090108
      ],
      [
        "ecause",
        -9.382862538497967
      ],
      [
        "Ġuseful",
        -9.383379670206123
      ],
      [
        "Ġconnect",
        -9.385484823040771
      ],
      [
        "Ġcity",
        -9.38591271805119
      ],
      [
        "Ġimages",
        -9.387472822535504
      ],
      [
        "-to",
        -9.387593106609287
      ],
      [
        "Ġingredient",
        -9.388555920685402
      ],
      [
        "ĠMy",
        -9.388801822334166
      ],
      [
        "Ġinsect",
        -9.392825865586309
      ],
      [
        "Ġcame",
        -9.393089767547714
      ],
      [
        "Ġchance",
        -9.394524174189833
      ],
      [
        "Ġmeet",
        -9.3948043978637
      ],
      [
        "Ġmonth",
        -9.395378744129838
      ],
      [
        "Ġefficienc",
        -9.396508958545724
      ],
      [
        "ĠMost",
        -9.396787664374145
      ],
      [
        "ize",
        -9.396876509848408
      ],
      [
        "Ġtopic",
        -9.39870123127705
      ],
      [
        "Ġboard",
        -9.404400747928044
      ],
      [
        "work",
        -9.404540199314791
      ],
      [
        "Ġtaste",
        -9.406644674473036
      ],
      [
        "ĠMore",
        -9.406724614047969
      ],
      [
        "Ġoutput",
        -9.407057221830502
      ],
      [
        "Ġappropriate",
        -9.407470441619251
      ],
      [
        "Ġitems",
        -9.407730019761924
      ],
      [
        "Ġfilter",
        -9.408689118358415
      ],
      [
        "Ġdemand",
        -9.409541187454105
      ],
      [
        "Ġaim",
        -9.409563809092145
      ],
      [
        "Ġfat",
        -9.411165502006783
      ],
      [
        "ĠUse",
        -9.412778796674772
      ],
      [
        "Ġprice",
        -9.41439189436718
      ],
      [
        "Ġroot",
        -9.415219492987688
      ],
      [
        "ke",
        -9.417758672244538
      ],
      [
        "ating",
        -9.417973580396096
      ],
      [
        "Ġenter",
        -9.41797703781511
      ],
      [
        "Ġtowards",
        -9.418150034887944
      ],
      [
        "Ġeveryone",
        -9.418256564913309
      ],
      [
        "ver",
        -9.419086595514838
      ],
      [
        "Ġanti",
        -9.42065770984728
      ],
      [
        "Ġmilk",
        -9.420716865495049
      ],
      [
        "Ġsupply",
        -9.421320452896287
      ],
      [
        "Ġcharacteristic",
        -9.421778492520628
      ],
      [
        "Ġtips",
        -9.423033646897077
      ],
      [
        "Ġhandle",
        -9.423541797189358
      ],
      [
        "ĠLa",
        -9.423551846840503
      ],
      [
        "Ġencourage",
        -9.423770823864192
      ],
      [
        "Ġhope",
        -9.423994837323558
      ],
      [
        "Ġdetect",
        -9.424415122385962
      ],
      [
        "Ġfill",
        -9.424429812267284
      ],
      [
        "Ġwear",
        -9.42619651836663
      ],
      [
        "Ġconcern",
        -9.426892626405948
      ],
      [
        "Ġextend",
        -9.42787931438745
      ],
      [
        "Ġachieve",
        -9.428583709931145
      ],
      [
        "Ġprint",
        -9.429161409366197
      ],
      [
        "ĠOf",
        -9.429326206076809
      ],
      [
        "Ġevent",
        -9.430490739769889
      ],
      [
        "Ġtrain",
        -9.430636375788811
      ],
      [
        "Ġsensor",
        -9.430758812938295
      ],
      [
        "Ġcompar",
        -9.431604337600232
      ],
      [
        "Ġharm",
        -9.432977964845918
      ],
      [
        "Ġprotection",
        -9.43315184245996
      ],
      [
        "Ġsteps",
        -9.43343393995838
      ],
      [
        "Ġspot",
        -9.435793145621393
      ],
      [
        "Ġbegin",
        -9.43589498551856
      ],
      [
        "Ġcarry",
        -9.435957370209188
      ],
      [
        "Ġoxygen",
        -9.438212457159723
      ],
      [
        "Ġhold",
        -9.439209253133992
      ],
      [
        "Ġmodels",
        -9.439525778451582
      ],
      [
        "Ġpromote",
        -9.44133328368861
      ],
      [
        "Ġwriting",
        -9.441474022444057
      ],
      [
        ".S",
        -9.442654348778635
      ],
      [
        "Ġdeal",
        -9.442768956746184
      ],
      [
        "cy",
        -9.442912299652518
      ],
      [
        "Ġupon",
        -9.443643353568763
      ],
      [
        "ca",
        -9.444641065451371
      ],
      [
        "Ġfoods",
        -9.445592705187853
      ],
      [
        "ĠSouth",
        -9.445900242358643
      ],
      [
        "Ġmemory",
        -9.446045580808937
      ],
      [
        "companie",
        -9.446610720146865
      ],
      [
        "Ġfeeling",
        -9.447204656516975
      ],
      [
        "Ġideal",
        -9.44790690188799
      ],
      [
        "time",
        -9.448234948213564
      ],
      [
        "Ġspend",
        -9.448628496843238
      ],
      [
        "Ġorganic",
        -9.44868864877407
      ],
      [
        "ĠMany",
        -9.448725677080516
      ],
      [
        "Ġedge",
        -9.451665356332974
      ],
      [
        "Ġbrand",
        -9.4532374197713
      ],
      [
        "Ġobtain",
        -9.453820483772624
      ],
      [
        "Ġimportance",
        -9.453974651904982
      ],
      [
        "ha",
        -9.45458998120152
      ],
      [
        "ĠResearch",
        -9.45477527291998
      ],
      [
        "Ġserious",
        -9.454978148636751
      ],
      [
        "Ġmen",
        -9.456109691560531
      ],
      [
        "Ġdate",
        -9.457256406082683
      ],
      [
        "Ġkill",
        -9.457565964036498
      ],
      [
        "Ġmoment",
        -9.459408456599505
      ],
      [
        "...ĊĊ",
        -9.460875793447707
      ],
      [
        "Ġtable",
        -9.461683821623105
      ],
      [
        "Re",
        -9.463114340385568
      ],
      [
        "Ġtouch",
        -9.46542091073599
      ],
      [
        "Ġsoft",
        -9.465551423439974
      ],
      [
        "ĠFrom",
        -9.466489141698156
      ],
      [
        "Ġideas",
        -9.468490658735307
      ],
      [
        "Ġbox",
        -9.46877702780348
      ],
      [
        "Ġfluid",
        -9.469880815069292
      ],
      [
        "fully",
        -9.469891028397758
      ],
      [
        "Ġslight",
        -9.469924176211702
      ],
      [
        "Ġfigure",
        -9.47255330027652
      ],
      [
        "Ġpatient",
        -9.473008866598832
      ],
      [
        "Ġstand",
        -9.473454314223495
      ],
      [
        "Ġinstance",
        -9.47633822081618
      ],
      [
        "Ġremember",
        -9.480658313694178
      ],
      [
        "Ġmaintenance",
        -9.480670077210515
      ],
      [
        "Ġenable",
        -9.481060905088578
      ],
      [
        "Ġbird",
        -9.48274766664926
      ],
      [
        "water",
        -9.48458273915165
      ],
      [
        "Ġimmediate",
        -9.485003664155446
      ],
      [
        "ph",
        -9.485230664688483
      ],
      [
        "Ġseries",
        -9.487260207477938
      ],
      [
        "her",
        -9.487636984748544
      ],
      [
        "Ġteeth",
        -9.488275259683498
      ],
      [
        "Ġbaby",
        -9.48828021292369
      ],
      [
        "Ġseeds",
        -9.488440893395476
      ],
      [
        "Ġnothing",
        -9.48971589876463
      ],
      [
        "ĠOr",
        -9.49014152832348
      ],
      [
        "Ġcommonly",
        -9.491589751290736
      ],
      [
        "Ġproperly",
        -9.491782730002107
      ],
      [
        "Ġdoctor",
        -9.4926581914629
      ],
      [
        "Ġload",
        -9.4926849800104
      ],
      [
        "ical",
        -9.493402545154872
      ],
      [
        "Ġrepair",
        -9.494869786337606
      ],
      [
        ".com",
        -9.495829678992129
      ],
      [
        "ure",
        -9.496526964749547
      ],
      [
        "Ġcircuit",
        -9.497564659569996
      ],
      [
        "With",
        -9.497848414893149
      ],
      [
        "ĠWater",
        -9.499186130684103
      ],
      [
        "Ġvision",
        -9.50044895528658
      ],
      [
        "Ġpoor",
        -9.500505362057062
      ],
      [
        "Ġrich",
        -9.501002470591008
      ],
      [
        "Ġaccurate",
        -9.501469456893842
      ],
      [
        "Ġsort",
        -9.501771186067602
      ],
      [
        "Ġdiseases",
        -9.502030021668965
      ],
      [
        "Ġcount",
        -9.502304032197223
      ],
      [
        "qu",
        -9.502887624215395
      ],
      [
        "Ġsection",
        -9.503900504911105
      ],
      [
        "Ġfrequent",
        -9.505130896571616
      ],
      [
        "Ġliquid",
        -9.505406536557024
      ],
      [
        "Ġobjects",
        -9.506879280501323
      ],
      [
        "came",
        -9.50808966480237
      ],
      [
        "Ġphoto",
        -9.50864453965072
      ],
      [
        "Ġpretty",
        -9.509250567487747
      ],
      [
        "Ġseek",
        -9.509581496902316
      ],
      [
        "Ġroad",
        -9.510823662271113
      ],
      [
        "Ġrefer",
        -9.51099237089477
      ],
      [
        "Ġmanage",
        -9.511879804628103
      ],
      [
        "Ġmulti",
        -9.514775469683698
      ],
      [
        "Z",
        -9.515047061722104
      ],
      [
        "Ġrelationship",
        -9.51651519031546
      ],
      [
        "Ġproteins",
        -9.517250499993567
      ],
      [
        "Ġleg",
        -9.519279670413486
      ],
      [
        "Ġhearing",
        -9.519789191315375
      ],
      [
        "ĠNot",
        -9.520112551922582
      ],
      [
        "ow",
        -9.520147937973526
      ],
      [
        "These",
        -9.520509401207368
      ],
      [
        "ÂŃ",
        -9.523854445777062
      ],
      [
        "Ġplanet",
        -9.525067418278445
      ],
      [
        "day",
        -9.525280163128144
      ],
      [
        "Ġphone",
        -9.527406073545691
      ],
      [
        "Ġcats",
        -9.527586550028897
      ],
      [
        "Ġlives",
        -9.528767027236718
      ],
      [
        "Ġtask",
        -9.529103570956988
      ],
      [
        "ĠSt",
        -9.529140795059831
      ],
      [
        "we",
        -9.530029320065324
      ],
      [
        "our",
        -9.530424006272511
      ],
      [
        "Ġreflect",
        -9.530738487236285
      ],
      [
        "Ġfile",
        -9.530980347247986
      ],
      [
        "Ġcentury",
        -9.531310543466743
      ],
      [
        "tra",
        -9.53258982478766
      ],
      [
        "Ġball",
        -9.532789550294003
      ],
      [
        "Ġmusic",
        -9.533552966300697
      ],
      [
        "Ġdie",
        -9.534259872235252
      ],
      [
        "On",
        -9.5350074098422
      ],
      [
        "Ġpull",
        -9.536247502990149
      ],
      [
        "Ġtank",
        -9.536249235191285
      ],
      [
        "ĠWorld",
        -9.53643607672096
      ],
      [
        "Ġtechnique",
        -9.537452842183914
      ],
      [
        "ring",
        -9.537511480859544
      ],
      [
        "Ġcompound",
        -9.538678111350784
      ],
      [
        "Ġcouple",
        -9.538796294173377
      ],
      [
        "Ġchallenges",
        -9.538850068295478
      ],
      [
        "Ġcontains",
        -9.539898146920176
      ],
      [
        "Ġinteresting",
        -9.539925067099576
      ],
      [
        "By",
        -9.54177533631648
      ],
      [
        "Ġevolution",
        -9.542382536577527
      ],
      [
        "ĠWhy",
        -9.545391108898077
      ],
      [
        "Ġnoise",
        -9.54558865846314
      ],
      [
        "Ġplann",
        -9.545994713681733
      ],
      [
        "Ġdesire",
        -9.54675354443545
      ],
      [
        "Ġresponsible",
        -9.547196244701247
      ],
      [
        "Ġcollect",
        -9.548595277470564
      ],
      [
        "Ġaccept",
        -9.54912461844622
      ],
      [
        "Ġcooking",
        -9.549650418832348
      ],
      [
        "ĠAdditional",
        -9.54993356179704
      ],
      [
        "Ġcleaning",
        -9.551057500076688
      ],
      [
        "Ġcloth",
        -9.551094680133032
      ],
      [
        "Ġrise",
        -9.55164162314732
      ],
      [
        "Ġbag",
        -9.554227267715332
      ],
      [
        "Ġadapt",
        -9.554593056250464
      ],
      [
        "And",
        -9.555302217710553
      ],
      [
        "Ġwait",
        -9.555313789084646
      ],
      [
        "Ġsmooth",
        -9.5555224764307
      ],
      [
        "Ġmap",
        -9.556592865934965
      ],
      [
        "ok",
        -9.557780958631689
      ],
      [
        "Ġstick",
        -9.558051008004576
      ],
      [
        "Ġvolume",
        -9.560123036465376
      ],
      [
        "Ġphase",
        -9.56075301955259
      ],
      [
        "Ġmembers",
        -9.56134516630095
      ],
      [
        "he",
        -9.5620708183771
      ],
      [
        "Ġgoe",
        -9.562787721126188
      ],
      [
        "Ġmolecules",
        -9.563033236741497
      ],
      [
        "ĠLe",
        -9.563369373810705
      ],
      [
        "Ġbeautiful",
        -9.565457156286037
      ],
      [
        "Ġtrack",
        -9.56577174452443
      ],
      [
        "ĠGo",
        -9.56598449252171
      ],
      [
        "ide",
        -9.56615838948702
      ],
      [
        "ng",
        -9.56751287256326
      ],
      [
        "Ġsuper",
        -9.568558728583456
      ],
      [
        "Ġbottom",
        -9.568808079787654
      ],
      [
        "Ġheavy",
        -9.571896762514635
      ],
      [
        "go",
        -9.572050965258189
      ],
      [
        "Ġelement",
        -9.572908538130122
      ],
      [
        "Ġsetting",
        -9.573229735176492
      ],
      [
        "side",
        -9.573396797401465
      ],
      [
        "Ġearth",
        -9.575148940165024
      ],
      [
        "Ġvia",
        -9.575721117975538
      ],
      [
        "Ġmaximum",
        -9.575758497887836
      ],
      [
        "Ġmechanism",
        -9.578519179098002
      ],
      [
        "Ġswitch",
        -9.579729927632838
      ],
      [
        "Ġsoon",
        -9.58011139502905
      ],
      [
        "Ġsustainable",
        -9.581709326793844
      ],
      [
        "Ġround",
        -9.581888143568122
      ],
      [
        "Ġconstruction",
        -9.582014722854112
      ],
      [
        "ĠAre",
        -9.582104186649058
      ],
      [
        "ĠAl",
        -9.582257606728028
      ],
      [
        "Ġfoot",
        -9.58330120146808
      ],
      [
        "Ġflight",
        -9.583864400370498
      ],
      [
        "Some",
        -9.58399002562754
      ],
      [
        "Ġexpand",
        -9.584517958081852
      ],
      [
        "Ġdiscover",
        -9.58545639435911
      ],
      [
        "Ġpanel",
        -9.585957286051272
      ],
      [
        "Ġconcept",
        -9.586074513482645
      ],
      [
        "Ġpick",
        -9.586368895174193
      ],
      [
        "ĠCenter",
        -9.586928256025589
      ],
      [
        "Ġensur",
        -9.587363622664936
      ],
      [
        "Ġwrite",
        -9.587603455583436
      ],
      [
        "Ġ--",
        -9.587932202218006
      ],
      [
        "Ġadjust",
        -9.589044414825908
      ],
      [
        "Ġcausing",
        -9.590797593868686
      ],
      [
        "-up",
        -9.5908985799303
      ],
      [
        "Ġmoisture",
        -9.591782822963292
      ],
      [
        "Ġelectronic",
        -9.592804449136278
      ],
      [
        "Ġpark",
        -9.594289039856491
      ],
      [
        "Do",
        -9.594441776858222
      ],
      [
        "ĠMay",
        -9.594467554836957
      ],
      [
        "Ġhost",
        -9.59548603993644
      ],
      [
        "hi",
        -9.59591907576156
      ],
      [
        "Ġwrong",
        -9.596618146177867
      ],
      [
        "Ġprojects",
        -9.597316530882289
      ],
      [
        "Ġsolid",
        -9.59877690694742
      ],
      [
        "Ġfinish",
        -9.599034356489014
      ],
      [
        "let",
        -9.59973362021924
      ],
      [
        "Ġcosts",
        -9.600094116561504
      ],
      [
        "-term",
        -9.600416567808669
      ],
      [
        "Ġshift",
        -9.601836540576022
      ],
      [
        "care",
        -9.60215182162817
      ],
      [
        "Ġtherap",
        -9.602240389731222
      ],
      [
        "Ġdecrease",
        -9.60248261906811
      ],
      [
        "Ġscale",
        -9.603724984416171
      ],
      [
        "Ġstem",
        -9.604516731183736
      ],
      [
        "Ġimplement",
        -9.604725764251894
      ],
      [
        "ĠAlso",
        -9.604893917934374
      ],
      [
        "Ġcutting",
        -9.605294767545775
      ],
      [
        "Ġgrade",
        -9.606818546355944
      ],
      [
        "Ġrare",
        -9.607737465386853
      ],
      [
        "Ġapplied",
        -9.609068062991874
      ],
      [
        "Ġcontainer",
        -9.610121937327047
      ],
      [
        "ĠInstitute",
        -9.612565893951452
      ],
      [
        "ĠGod",
        -9.612783610833317
      ],
      [
        "Ġscreen",
        -9.61282488401132
      ],
      [
        "ĠWho",
        -9.61303995125433
      ],
      [
        "board",
        -9.613657063470724
      ],
      [
        "Step",
        -9.615242611465945
      ],
      [
        "Ġpest",
        -9.61534463300394
      ],
      [
        "Ġfriends",
        -9.617175796433632
      ],
      [
        "ĠCon",
        -9.617813404888071
      ],
      [
        "Ġreplace",
        -9.618178513232628
      ],
      [
        "Ġbrown",
        -9.619268832381962
      ],
      [
        "Ġresistance",
        -9.619983791283769
      ],
      [
        "Ġpro",
        -9.620836769657345
      ],
      [
        "ang",
        -9.6220670349712
      ],
      [
        "Ġfrequency",
        -9.623468219894342
      ],
      [
        "Ġreducing",
        -9.623760538884312
      ],
      [
        "vi",
        -9.623917244156829
      ],
      [
        "Ġdiscovered",
        -9.62521649764148
      ],
      [
        "mer",
        -9.625594758519036
      ],
      [
        "ner",
        -9.626216476324736
      ],
      [
        "Ġweb",
        -9.627048594159811
      ],
      [
        "Ġdisorder",
        -9.628780612935683
      ],
      [
        "Now",
        -9.630118700378546
      ],
      [
        "Ġcapacity",
        -9.630519564308733
      ],
      [
        "Ġpound",
        -9.631153375848182
      ],
      [
        "Ġreview",
        -9.631977183494596
      ],
      [
        "lthough",
        -9.632163105987871
      ],
      [
        "Ġplatform",
        -9.632444726980006
      ],
      [
        "Ġready",
        -9.633397893232972
      ],
      [
        "Ġwild",
        -9.633815679063472
      ],
      [
        "Ġvoltage",
        -9.635138081658036
      ],
      [
        "ĠOur",
        -9.635507877207608
      ],
      [
        "ious",
        -9.636303081982124
      ],
      [
        "ĠEach",
        -9.636769514304516
      ],
      [
        "Ġrecommend",
        -9.637170340907131
      ],
      [
        "Ġdi",
        -9.638608523745942
      ],
      [
        "Ġmeaning",
        -9.639073150602108
      ],
      [
        "Ġglass",
        -9.639665011455136
      ],
      [
        "Ġrock",
        -9.640344543917902
      ],
      [
        "Ġpowerful",
        -9.6406581915626
      ],
      [
        "ĠAir",
        -9.641331501348104
      ],
      [
        "Ġmessage",
        -9.641984253047523
      ],
      [
        "Ġpractices",
        -9.642172828602927
      ],
      [
        "Ġfight",
        -9.64456640879312
      ],
      [
        "con",
        -9.64462864093407
      ],
      [
        "der",
        -9.646318971897816
      ],
      [
        "Ġcommercial",
        -9.646531003704608
      ],
      [
        "ĠY",
        -9.646543985246922
      ],
      [
        "qui",
        -9.64659083333856
      ],
      [
        "lin",
        -9.646614377561503
      ],
      [
        "Ġclaim",
        -9.64704858943957
      ],
      [
        "Ġsend",
        -9.648015723938894
      ],
      [
        "ative",
        -9.64857208598685
      ],
      [
        "bility",
        -9.649083663451249
      ],
      [
        "Ġthird",
        -9.649093288413912
      ],
      [
        "ard",
        -9.650027108608649
      ],
      [
        "Ġpath",
        -9.650237957745349
      ],
      [
        "Ġuses",
        -9.650294380928322
      ],
      [
        "Ġmouth",
        -9.650346656558073
      ],
      [
        "Ġcross",
        -9.652976609478907
      ],
      [
        "**",
        -9.655121612510436
      ],
      [
        "Ġrapid",
        -9.655530490839944
      ],
      [
        "Ġphotograph",
        -9.656219303308724
      ],
      [
        "ĠNow",
        -9.65637313722533
      ],
      [
        "-in",
        -9.65718016172304
      ],
      [
        "Ġgiving",
        -9.657602044663104
      ],
      [
        "way",
        -9.657880002196656
      ],
      [
        "Ġhands",
        -9.658016926259233
      ],
      [
        "Ġfarm",
        -9.658063841220349
      ],
      [
        "Ġanyone",
        -9.659853527576203
      ],
      [
        "Ġworth",
        -9.660370518985411
      ],
      [
        "Ġpush",
        -9.660756002585664
      ],
      [
        "Ġjoint",
        -9.660952310965127
      ],
      [
        "Ġdriver",
        -9.661387705838427
      ],
      [
        "Ġbond",
        -9.661934721944409
      ],
      [
        "Ġchang",
        -9.661935678160036
      ],
      [
        "Ġbasi",
        -9.662499279953904
      ],
      [
        "Ġsuitabl",
        -9.663821133176173
      ],
      [
        "Ġeconomic",
        -9.663944375666873
      ],
      [
        "Ġconsist",
        -9.664425328410882
      ],
      [
        "Ġlaw",
        -9.667610768101602
      ],
      [
        "Ġpump",
        -9.668503421967872
      ],
      [
        "Ġcollection",
        -9.670685982377988
      ],
      [
        "Ġenzyme",
        -9.67114304568164
      ],
      [
        "inches",
        -9.67128356714598
      ],
      [
        "Ġwar",
        -9.67181722446931
      ],
      [
        "Ġgenes",
        -9.672077928961675
      ],
      [
        "Ġconcentration",
        -9.67252479685878
      ],
      [
        "Ġlocate",
        -9.673135736417995
      ],
      [
        "fer",
        -9.674358086832584
      ],
      [
        "Ġrat",
        -9.674986089116146
      ],
      [
        "ĠWar",
        -9.675409245393496
      ],
      [
        "Ġnutrients",
        -9.675749874250464
      ],
      [
        "Ġpicture",
        -9.676599699891607
      ],
      [
        "Ġsevere",
        -9.677770844904437
      ],
      [
        "ium",
        -9.67930816384143
      ],
      [
        "Ġtransport",
        -9.679945959254596
      ],
      [
        "spite",
        -9.679964070716691
      ],
      [
        "Ġattempt",
        -9.680367835894598
      ],
      [
        "Ġstates",
        -9.682874227111707
      ],
      [
        "Ġstructures",
        -9.683156461561977
      ],
      [
        "Ġtherefore",
        -9.684352971614022
      ],
      [
        "Ġversion",
        -9.68458603170817
      ],
      [
        "Ġraise",
        -9.684876509152293
      ],
      [
        "Ġabsorb",
        -9.684963109117673
      ],
      [
        "Ġgives",
        -9.686202563694971
      ],
      [
        "ĠâĢ¦",
        -9.688620956689276
      ],
      [
        "can",
        -9.688707774092524
      ],
      [
        "Ġappearance",
        -9.68993103157564
      ],
      [
        "Ġexcellent",
        -9.690352766576638
      ],
      [
        "com",
        -9.690415796423435
      ],
      [
        "Ġexpensive",
        -9.69071214508887
      ],
      [
        "Ġthus",
        -9.691456734331677
      ],
      [
        "Ġforward",
        -9.691730511714244
      ],
      [
        "ese",
        -9.693240174231793
      ],
      [
        "Ġyellow",
        -9.693316163552392
      ],
      [
        "Ġexpected",
        -9.693320299582492
      ],
      [
        "Ġalgorithm",
        -9.693441094998686
      ],
      [
        "Ġskill",
        -9.693835851914708
      ],
      [
        "Ġmicro",
        -9.693860989132348
      ],
      [
        "Ġblog",
        -9.693893373829352
      ],
      [
        "Ġdoor",
        -9.694425852644962
      ],
      [
        "tion",
        -9.69605120312297
      ],
      [
        "Ġsquare",
        -9.696377113921775
      ],
      [
        "Ġcolour",
        -9.697932560691552
      ],
      [
        "ick",
        -9.698193115393082
      ],
      [
        "Ġparticles",
        -9.700256436864844
      ],
      [
        "ĠLi",
        -9.700990202079986
      ],
      [
        "Ġplease",
        -9.701256631177642
      ],
      [
        "Ġconsistent",
        -9.701951549576428
      ],
      [
        "Ġexposure",
        -9.70319737068948
      ],
      [
        "Ġfemale",
        -9.703201690131792
      ],
      [
        "Ġsequence",
        -9.705718079792506
      ],
      [
        "Ġquant",
        -9.70582144192824
      ],
      [
        "Ġled",
        -9.706241727437876
      ],
      [
        "ber",
        -9.706786002587505
      ],
      [
        "Ġcoming",
        -9.708804221727975
      ],
      [
        "ĠLet",
        -9.709333552225637
      ],
      [
        "Ã©",
        -9.710093083598872
      ],
      [
        "Ġexperiment",
        -9.711022731658064
      ],
      [
        "Ġfilm",
        -9.7125255530871
      ],
      [
        "Ġpractical",
        -9.71288973455642
      ],
      [
        "Ġreported",
        -9.713356934114092
      ],
      [
        "Ġflavor",
        -9.714975914006668
      ],
      [
        "Ġma",
        -9.715196100040654
      ],
      [
        "Ġframe",
        -9.715254708622528
      ],
      [
        "Ġjourney",
        -9.71538617180804
      ],
      [
        "Ġsaw",
        -9.715474295969049
      ],
      [
        "Ġstone",
        -9.715741368354164
      ],
      [
        "Ġburn",
        -9.715942734232486
      ],
      [
        "ĠBlack",
        -9.716909823493555
      ],
      [
        "ĠHo",
        -9.717860155715831
      ],
      [
        "ĠPro",
        -9.71790057138324
      ],
      [
        "ĠHigh",
        -9.718534947391428
      ],
      [
        "Ġtransition",
        -9.719614918257149
      ],
      [
        "Ġsecurit",
        -9.720475827788809
      ],
      [
        "Ġmagnetic",
        -9.721624386665418
      ],
      [
        "ĠIndia",
        -9.723220157838728
      ],
      [
        "ĠMe",
        -9.723512840217255
      ],
      [
        "Ġbirth",
        -9.72429124215702
      ],
      [
        "Ġdocument",
        -9.72522317170646
      ],
      [
        "Ġtexture",
        -9.725335779374165
      ],
      [
        "Ġpair",
        -9.725826604752982
      ],
      [
        "ĠThei",
        -9.726093481180962
      ],
      [
        "Ġangle",
        -9.72796491996019
      ],
      [
        "Ġcombine",
        -9.72800830653599
      ],
      [
        "Ġcontext",
        -9.729171485850667
      ],
      [
        "Ġstock",
        -9.73062718443838
      ],
      [
        "Ġtesting",
        -9.730907252335276
      ],
      [
        "Ġfund",
        -9.731811601610822
      ],
      [
        "Ġheight",
        -9.732358230849076
      ],
      [
        "ĠNOT",
        -9.732554529397492
      ],
      [
        "Ġmotion",
        -9.733717635864783
      ],
      [
        "ble",
        -9.73402006263654
      ],
      [
        "Ġmiss",
        -9.73403896731296
      ],
      [
        "Therefore",
        -9.734808855536066
      ],
      [
        "Ġinter",
        -9.734945496382087
      ],
      [
        "Ġnative",
        -9.736311874737597
      ],
      [
        "Ġmedium",
        -9.737335386932006
      ],
      [
        "Ġclick",
        -9.738623143208798
      ],
      [
        "Ġlesson",
        -9.738747253781192
      ],
      [
        "ĠOther",
        -9.738855048922584
      ],
      [
        "Ġfiber",
        -9.739423761058884
      ],
      [
        "Ġmeasurement",
        -9.739815816134454
      ],
      [
        "Ġdecade",
        -9.740398886761763
      ],
      [
        "ĠState",
        -9.741330521322356
      ],
      [
        "men",
        -9.74152490573411
      ],
      [
        "Ġaffected",
        -9.7418662887166
      ],
      [
        "ĠMake",
        -9.742829653048556
      ],
      [
        "Ġmatch",
        -9.742889096951885
      ],
      [
        "Ġvital",
        -9.744615028857726
      ],
      [
        "ĠAlthough",
        -9.745035428863222
      ],
      [
        "Ġerror",
        -9.745511903438477
      ],
      [
        "Ġjoin",
        -9.746143222562958
      ],
      [
        "Ġbeyond",
        -9.748842492358577
      ],
      [
        "Ġpresence",
        -9.748848071389409
      ],
      [
        "Ġemission",
        -9.748945578478576
      ],
      [
        "Ġhuge",
        -9.749180840358878
      ],
      [
        "No",
        -9.75039302218284
      ],
      [
        "Ġplayers",
        -9.750705380486028
      ],
      [
        "Ġtasks",
        -9.75079103834164
      ],
      [
        "ĠCar",
        -9.752142349868503
      ],
      [
        "Ġrules",
        -9.753412884965854
      ],
      [
        "ĠOver",
        -9.7535488731202
      ],
      [
        "aught",
        -9.753617676255637
      ],
      [
        "uc",
        -9.753873514616537
      ],
      [
        "izing",
        -9.75422242281386
      ],
      [
        "Ġstuff",
        -9.75453157086274
      ],
      [
        "ster",
        -9.755823933065727
      ],
      [
        "Ġex",
        -9.755861965394349
      ],
      [
        "Ġdriving",
        -9.755951177301649
      ],
      [
        "Ġfashion",
        -9.755951183935103
      ],
      [
        "limited",
        -9.756003124213516
      ],
      [
        "Ġsample",
        -9.756541210494046
      ],
      [
        "Ġimmune",
        -9.756711260159989
      ],
      [
        "act",
        -9.756946670068068
      ],
      [
        "Ġconnected",
        -9.757108457482312
      ],
      [
        "Ġconvert",
        -9.757288702945988
      ],
      [
        "Ġwent",
        -9.757326581117448
      ],
      [
        "Ġwheel",
        -9.759363081588956
      ],
      [
        "Ġvi",
        -9.760015490259851
      ],
      [
        "Ġteaching",
        -9.761485658649551
      ],
      [
        "Ġprocessing",
        -9.762232520126584
      ],
      [
        "Ġonto",
        -9.763724751633724
      ],
      [
        "Ġteachers",
        -9.764041560067694
      ],
      [
        "Ġfossil",
        -9.764128721676949
      ],
      [
        "Ġrule",
        -9.76414133392657
      ],
      [
        "Ġdistribution",
        -9.76441640184779
      ],
      [
        "Ġspeaker",
        -9.76512121843697
      ],
      [
        "ĠOnc",
        -9.765283222073576
      ],
      [
        "Ġrobot",
        -9.766167374515607
      ],
      [
        "Ġtechnologies",
        -9.767437293111485
      ],
      [
        "Ġrecipe",
        -9.767437371096973
      ],
      [
        "Ġbodie",
        -9.767796869588455
      ],
      [
        "Ġfunctions",
        -9.769440222195588
      ],
      [
        "Ġlose",
        -9.771163909393136
      ],
      [
        "ities",
        -9.77125170097902
      ],
      [
        "Ġsustain",
        -9.771252580881557
      ],
      [
        "Ġoffice",
        -9.77183039952091
      ],
      [
        "Ġbackground",
        -9.771994200565963
      ],
      [
        "Ġmiddle",
        -9.773241005773263
      ],
      [
        "Ġsociety",
        -9.77390732237398
      ],
      [
        "Ġinsight",
        -9.775155880767397
      ],
      [
        "Ġdead",
        -9.775191702144191
      ],
      [
        "low",
        -9.775507128563802
      ],
      [
        "Ġdivers",
        -9.777097474470438
      ],
      [
        "ley",
        -9.777793317723605
      ],
      [
        "Ġartist",
        -9.77840181956956
      ],
      [
        "Ġsuit",
        -9.779081469210585
      ],
      [
        "ĠEnglish",
        -9.77977105659206
      ],
      [
        "Ġhit",
        -9.779898868854067
      ],
      [
        "Ġlab",
        -9.78049530880601
      ],
      [
        "Ġwrit",
        -9.781760078263488
      ],
      [
        "Ġvariation",
        -9.781983021671412
      ],
      [
        "Ġmid",
        -9.782477330955968
      ],
      [
        "ĠDur",
        -9.782668063394274
      ],
      [
        "Ġdetails",
        -9.78285347642716
      ],
      [
        "Ġsites",
        -9.784170095071346
      ],
      [
        "Ġcommand",
        -9.785181328754833
      ],
      [
        "ĠEuropean",
        -9.785211682146167
      ],
      [
        "ĠPark",
        -9.785392631859686
      ],
      [
        "Ġapproximate",
        -9.785533388897242
      ],
      [
        "ene",
        -9.786119664058248
      ],
      [
        "They",
        -9.787233794823118
      ],
      [
        "Ġdis",
        -9.788285134986468
      ],
      [
        "ung",
        -9.78870318388844
      ],
      [
        "Ġlabel",
        -9.788708705973434
      ],
      [
        "comfortable",
        -9.788714755106096
      ],
      [
        "Ġprogress",
        -9.788728539774509
      ],
      [
        "Ġfamilie",
        -9.789336227560886
      ],
      [
        "ĠDi",
        -9.790057243938383
      ],
      [
        "ile",
        -9.79095324753826
      ],
      [
        "pro",
        -9.79185778038392
      ],
      [
        "Ġcon",
        -9.791949343340448
      ],
      [
        "Ġpress",
        -9.792087061003006
      ],
      [
        "Ġchallenge",
        -9.792493681253635
      ],
      [
        "cu",
        -9.792703138202643
      ],
      [
        "ĠCalifornia",
        -9.792981528390948
      ],
      [
        "Ġlandscape",
        -9.793628390103915
      ],
      [
        "ĠAfrica",
        -9.793634447905278
      ],
      [
        "Ġbone",
        -9.793717264085256
      ],
      [
        "Ġecosystem",
        -9.793780855659264
      ],
      [
        "Ġfabric",
        -9.794469103296205
      ],
      [
        "Ġreference",
        -9.794615890092652
      ],
      [
        "Ġconsumption",
        -9.795261639848633
      ],
      [
        "Ġaid",
        -9.7965627503653
      ],
      [
        "ĠSystem",
        -9.7978861320454
      ],
      [
        "Ġroots",
        -9.800560440389686
      ],
      [
        "ĠEven",
        -9.801886319346078
      ],
      [
        "ĠEurope",
        -9.8029363376514
      ],
      [
        "ĠUK",
        -9.80338459143295
      ],
      [
        "ack",
        -9.80429684895679
      ],
      [
        "ose",
        -9.805150565733886
      ],
      [
        "Ġcommunit",
        -9.805354240231663
      ],
      [
        "older",
        -9.805825304059
      ],
      [
        "Ġrice",
        -9.806499818403513
      ],
      [
        "bu",
        -9.807972183672906
      ],
      [
        "Ġgeneration",
        -9.809537959481744
      ],
      [
        "Ġobserved",
        -9.809894694992934
      ],
      [
        "Ġinstructions",
        -9.810207353459658
      ],
      [
        "fish",
        -9.810848014776148
      ],
      [
        "ice",
        -9.811152927271753
      ],
      [
        "Ġiron",
        -9.81173392098339
      ],
      [
        "Ġcore",
        -9.811879543257804
      ],
      [
        "Ġdrawing",
        -9.812102491890997
      ],
      [
        "ight",
        -9.812223420599103
      ],
      [
        "Ġtransfer",
        -9.812574563160922
      ],
      [
        "ug",
        -9.813938013979213
      ],
      [
        "Ġcomment",
        -9.814822365644217
      ],
      [
        "ĠFirst",
        -9.815062819577127
      ],
      [
        "Ġvary",
        -9.815274214870994
      ],
      [
        "ĠService",
        -9.815382786806452
      ],
      [
        "Ġpainting",
        -9.81560659197962
      ],
      [
        "Ġlighting",
        -9.815835951372094
      ],
      [
        "ĠMar",
        -9.816406583863
      ],
      [
        "Ġaren",
        -9.816427968685414
      ],
      [
        "Ġpurchase",
        -9.816449746588532
      ],
      [
        "Ġexpress",
        -9.81702166611471
      ],
      [
        "Ġcultural",
        -9.818735448444324
      ],
      [
        "held",
        -9.818933438207656
      ],
      [
        "Ġbeginning",
        -9.81935456727204
      ],
      [
        "Ġbright",
        -9.82016927622948
      ],
      [
        "Ġradio",
        -9.820330544194954
      ],
      [
        "Ġchannel",
        -9.82071709001989
      ],
      [
        "Ġlargest",
        -9.820755566790671
      ],
      [
        "Ġdiabetes",
        -9.820823199510857
      ],
      [
        "Ġrespond",
        -9.821108642799086
      ],
      [
        "Ġfavorite",
        -9.822360785627469
      ],
      [
        "lost",
        -9.822387169699091
      ],
      [
        "Ġaspects",
        -9.823296467671089
      ],
      [
        "ĠJapan",
        -9.823805405277362
      ],
      [
        "Ġrecognize",
        -9.824977764267922
      ],
      [
        "Ġremains",
        -9.8250696146265
      ],
      [
        "king",
        -9.826621104577374
      ],
      [
        "Ġtransform",
        -9.827120801798666
      ],
      [
        "Ġfloor",
        -9.82865252613522
      ],
      [
        "Ġconservation",
        -9.830007683502298
      ],
      [
        "||",
        -9.831393030558043
      ],
      [
        "Ġroll",
        -9.8332908442253
      ],
      [
        "Ġdepth",
        -9.834054178563711
      ],
      [
        "ĠAccording",
        -9.834194120030087
      ],
      [
        "Ġtrigger",
        -9.834632973294529
      ],
      [
        "Ġemploy",
        -9.835765173653904
      ],
      [
        "Ġnational",
        -9.836515555466791
      ],
      [
        "Ġsymbol",
        -9.836805595932974
      ],
      [
        "Ġsurrounding",
        -9.840631609760065
      ],
      [
        "Ġcomfort",
        -9.8411616656712
      ],
      [
        "pe",
        -9.841227252224764
      ],
      [
        "Ġutilize",
        -9.841729331543558
      ],
      [
        "Ġbatteries",
        -9.842556700126025
      ],
      [
        "Ġcreative",
        -9.843138283937233
      ],
      [
        "Ġmotor",
        -9.84363076039557
      ],
      [
        "Ġbear",
        -9.844148233253604
      ],
      [
        "Ġgrain",
        -9.8443167347023
      ],
      [
        "Ġkeeping",
        -9.844985554693434
      ],
      [
        "Ġdrug",
        -9.845084725350755
      ],
      [
        "Ġfail",
        -9.845446166265951
      ],
      [
        "ĠGerman",
        -9.846293854905744
      ],
      [
        "Ġpipe",
        -9.846369496795628
      ],
      [
        "gu",
        -9.847550297585048
      ],
      [
        "Ġbooks",
        -9.847711009384652
      ],
      [
        "Ġimprov",
        -9.848036587561271
      ],
      [
        "Ġwire",
        -9.84821958793074
      ],
      [
        "Ġclient",
        -9.848624088752864
      ],
      [
        "Ġletter",
        -9.850757456691394
      ],
      [
        "Ġcook",
        -9.85076732166418
      ],
      [
        "Ġseed",
        -9.85128930339218
      ],
      [
        "Ġexpect",
        -9.851352015974015
      ],
      [
        "Ġdouble",
        -9.851481008381931
      ],
      [
        "Ġwonder",
        -9.851870972893735
      ],
      [
        "Ġcovered",
        -9.853113131920482
      ],
      [
        "electricity",
        -9.85323632813115
      ],
      [
        "Ġaircraft",
        -9.853433669167549
      ],
      [
        "ists",
        -9.854142345213358
      ],
      [
        "Ġremov",
        -9.854234913437612
      ],
      [
        "Ġdiamond",
        -9.85490849529902
      ],
      [
        "Ġthreat",
        -9.856115797708537
      ],
      [
        "Ġstaff",
        -9.856492498037063
      ],
      [
        "ka",
        -9.857938011983556
      ],
      [
        "Ġsteam",
        -9.858065549224008
      ],
      [
        "Ġsession",
        -9.858065940658488
      ],
      [
        "Ġregulation",
        -9.858721686613746
      ],
      [
        "Ġcapture",
        -9.858946568426012
      ],
      [
        "Ġdynamic",
        -9.859439846478866
      ],
      [
        "Ġpotato",
        -9.859651432853422
      ],
      [
        "Ġdrop",
        -9.85997016577928
      ],
      [
        "Ġflat",
        -9.862076356963035
      ],
      [
        "Ġintroduce",
        -9.862193893427634
      ],
      [
        "Ġcontroll",
        -9.862530394266749
      ],
      [
        "Ġtiny",
        -9.862848295400196
      ],
      [
        "air",
        -9.863198787087974
      ],
      [
        "quality",
        -9.863415573391343
      ],
      [
        "ĠJust",
        -9.863691796802204
      ],
      [
        "ade",
        -9.863708556712709
      ],
      [
        "Ġpack",
        -9.863760907744432
      ],
      [
        "Ġmiles",
        -9.863813904279116
      ],
      [
        "Ġhappy",
        -9.86440978730888
      ],
      [
        "Ġgrown",
        -9.864534866629462
      ],
      [
        "Ġfinancial",
        -9.866020790527193
      ],
      [
        "ĠDec",
        -9.866790213334824
      ],
      [
        "Ġindicator",
        -9.8678809620865
      ],
      [
        "ĠPlant",
        -9.868689207569872
      ],
      [
        "Ġvaluable",
        -9.868897940921975
      ],
      [
        "Ġatmosphere",
        -9.869174276705207
      ],
      [
        "Ġrandom",
        -9.869202910580194
      ],
      [
        "Ġegg",
        -9.869737968475182
      ],
      [
        "que",
        -9.869761062697052
      ],
      [
        "Ġessay",
        -9.870795497686256
      ],
      [
        "maybe",
        -9.871415393954956
      ],
      [
        "ification",
        -9.87210394062533
      ],
      [
        "Ġcars",
        -9.872218474598457
      ],
      [
        "Ġfear",
        -9.8725573806104
      ],
      [
        "Ġrates",
        -9.873024125211764
      ],
      [
        "Ġtrip",
        -9.87540972321521
      ],
      [
        "Ġcup",
        -9.876820264759782
      ],
      [
        "Ġmedicine",
        -9.876951873393969
      ],
      [
        "ĠUsing",
        -9.877619854375949
      ],
      [
        "Ġattach",
        -9.881904037303684
      ],
      [
        "Ġaudio",
        -9.882105613334808
      ],
      [
        "Ġsurvive",
        -9.882454338182423
      ],
      [
        "Ġcentral",
        -9.882500416340068
      ],
      [
        "Ġhundred",
        -9.883687187047398
      ],
      [
        "Ġmother",
        -9.884119309376352
      ],
      [
        "All",
        -9.8844739928226
      ],
      [
        "ĠSea",
        -9.885107590527236
      ],
      [
        "Ġsupplement",
        -9.88532615493932
      ],
      [
        "Ġeventual",
        -9.885404765798842
      ],
      [
        "-like",
        -9.885514868153344
      ],
      [
        "form",
        -9.885986780084524
      ],
      [
        "Ġfacilit",
        -9.88685762662741
      ],
      [
        "Ġcontrast",
        -9.886936601998569
      ],
      [
        "Ġinternal",
        -9.88702316071572
      ],
      [
        "ĠZ",
        -9.887129916657276
      ],
      [
        "Ġratio",
        -9.887404088379864
      ],
      [
        "Ġroutine",
        -9.888565307185544
      ],
      [
        "mon",
        -9.888760607818464
      ],
      [
        "Ġresource",
        -9.889986789875316
      ],
      [
        "ĠYork",
        -9.89018121810561
      ],
      [
        "That",
        -9.891710310652527
      ],
      [
        "Ġnote",
        -9.891892428267155
      ],
      [
        "Ġagree",
        -9.89329834634188
      ],
      [
        "Ġmarine",
        -9.893514725767163
      ],
      [
        "Ġalone",
        -9.8942347920592
      ],
      [
        "pp",
        -9.894740063538125
      ],
      [
        "Ġmeal",
        -9.89550383338942
      ],
      [
        "Ġanxiet",
        -9.898409810300732
      ],
      [
        "ze",
        -9.899328828009008
      ],
      [
        "ĠMan",
        -9.899388451042809
      ],
      [
        "Ġpool",
        -9.900098360480884
      ],
      [
        "Ġbutton",
        -9.900262883376245
      ],
      [
        "Ġactual",
        -9.90124404968932
      ],
      [
        "mp",
        -9.903319825080713
      ],
      [
        "ĠRo",
        -9.90335560340475
      ],
      [
        "ect",
        -9.903357121356985
      ],
      [
        "Ġbio",
        -9.903923590680916
      ],
      [
        "ĠMarch",
        -9.904485474594344
      ],
      [
        "Ġstraight",
        -9.906409232402538
      ],
      [
        "ĠNe",
        -9.906516480432504
      ],
      [
        "ĠMa",
        -9.906583293798
      ],
      [
        "Ġhighlight",
        -9.90717796049978
      ],
      [
        "Ġbroad",
        -9.90765163147352
      ],
      [
        "Ġprefer",
        -9.907797422660774
      ],
      [
        "Ġfriend",
        -9.907870072491596
      ],
      [
        "Ġcard",
        -9.907886021474257
      ],
      [
        "Ġdemonstrate",
        -9.907918483099778
      ],
      [
        "Ġmorning",
        -9.908320361817973
      ],
      [
        "Ġfeeding",
        -9.908572209693167
      ],
      [
        "Here",
        -9.90891201154276
      ],
      [
        "Ġcable",
        -9.90909322740468
      ],
      [
        "Ġchicken",
        -9.909911774800428
      ],
      [
        "Another",
        -9.910553504962676
      ],
      [
        "Ġdust",
        -9.911449086276363
      ],
      [
        "âĢĻt",
        -9.911586021810532
      ],
      [
        "Ġsurger",
        -9.91235361199172
      ],
      [
        "Ġexpression",
        -9.912361787957355
      ],
      [
        "Ġmember",
        -9.912503226306145
      ],
      [
        "Ġ{",
        -9.913112111833737
      ],
      [
        "Ġoffering",
        -9.913308188723482
      ],
      [
        "Ġminimum",
        -9.913324685071808
      ],
      [
        "Ġgear",
        -9.913378785005744
      ],
      [
        "ach",
        -9.916334418307908
      ],
      [
        "Ġwildlife",
        -9.916679530905403
      ],
      [
        "ĠCO",
        -9.916846973102626
      ],
      [
        "Ġsp",
        -9.917310649690217
      ],
      [
        "ĠSince",
        -9.917645946308802
      ],
      [
        "Ġvirus",
        -9.917882693614157
      ],
      [
        "Ġteacher",
        -9.9181514794856
      ],
      [
        "ĠDon",
        -9.918183457095967
      ],
      [
        "Ġcreation",
        -9.918240022303824
      ],
      [
        "Ġwaves",
        -9.91850209203997
      ],
      [
        "ĠArt",
        -9.91872033396659
      ],
      [
        "After",
        -9.919299003508366
      ],
      [
        "Ġconclusion",
        -9.920024784328453
      ],
      [
        "Ġsecure",
        -9.920300461291326
      ],
      [
        "Ġmobile",
        -9.92074561869838
      ],
      [
        "Ġthick",
        -9.92103985654888
      ],
      [
        "ĠGreat",
        -9.921790737478824
      ],
      [
        "Ġaware",
        -9.922015108045468
      ],
      [
        "Ġcoat",
        -9.92250839907317
      ],
      [
        "Ġroof",
        -9.923394902504889
      ],
      [
        "Ġmanufacturing",
        -9.92342135710101
      ],
      [
        "Ġnest",
        -9.924278097771452
      ],
      [
        "ĠDay",
        -9.924545257649442
      ],
      [
        "Ġlisten",
        -9.92495802775909
      ],
      [
        "Ġschedule",
        -9.92509936746228
      ],
      [
        "Ġclasses",
        -9.925766838049585
      ],
      [
        "ĠNa",
        -9.9274769737412
      ],
      [
        "Ġjournal",
        -9.929595877132575
      ],
      [
        "Ġoperate",
        -9.92990889563233
      ],
      [
        "Ġcraft",
        -9.930081075634735
      ],
      [
        "cid",
        -9.930643125004677
      ],
      [
        "cut",
        -9.93066650399555
      ],
      [
        "Ġreliabl",
        -9.931896757798484
      ],
      [
        "Ġwash",
        -9.933567299160728
      ],
      [
        "Ġalcohol",
        -9.933572842246672
      ],
      [
        "ĠGa",
        -9.933645711143884
      ],
      [
        "Ġwidely",
        -9.93451190804398
      ],
      [
        "Ġrid",
        -9.934873135764596
      ],
      [
        "Ġcapabilit",
        -9.93532031908098
      ],
      [
        "ĠChina",
        -9.935348031857608
      ],
      [
        "Ġsounds",
        -9.93577851972606
      ],
      [
        "Ġdensit",
        -9.93745432856145
      ],
      [
        "ĠDepartment",
        -9.938542219722244
      ],
      [
        "Ġfundamental",
        -9.938701100537614
      ],
      [
        "Our",
        -9.939533738960874
      ],
      [
        "Ġformed",
        -9.940314187766948
      ],
      [
        "Ġindoor",
        -9.940356232178324
      ],
      [
        "Ġvirtual",
        -9.94041631220895
      ],
      [
        "Ġthin",
        -9.940491294675738
      ],
      [
        "Ġoperat",
        -9.941572434233588
      ],
      [
        "Ġfix",
        -9.942221143698266
      ],
      [
        "ler",
        -9.943032898151095
      ],
      [
        "Ġstatement",
        -9.943465495599677
      ],
      [
        "Ġbreast",
        -9.944065858539552
      ],
      [
        "Ġten",
        -9.945460148196164
      ],
      [
        "Ġmode",
        -9.94558860187004
      ],
      [
        "Ġchemicals",
        -9.94574113588127
      ],
      [
        "Ġgold",
        -9.946319057383572
      ],
      [
        "Ġsit",
        -9.946366097591635
      ],
      [
        "ĠKeep",
        -9.94646996573375
      ],
      [
        "Ġsweet",
        -9.946538718962714
      ],
      [
        "port",
        -9.947580895044185
      ],
      [
        "Ġtrade",
        -9.94783867808122
      ],
      [
        "Ġtail",
        -9.947905918583633
      ],
      [
        "Ġrain",
        -9.94837421023147
      ],
      [
        "q",
        -9.948634150401482
      ],
      [
        "Ġinternational",
        -9.94904367997287
      ],
      [
        "Ġrequest",
        -9.949055157242466
      ],
      [
        "ology",
        -9.949402898892217
      ],
      [
        "Ġchain",
        -9.949798542689628
      ],
      [
        "Ġowners",
        -9.950301035053082
      ],
      [
        "Ġinteract",
        -9.95049571008725
      ],
      [
        "Ġpredict",
        -9.950843818917052
      ],
      [
        "Ġmixture",
        -9.950871510384522
      ],
      [
        "]ĊĊ",
        -9.953380623799717
      ],
      [
        "Be",
        -9.953475989397454
      ],
      [
        "use",
        -9.95412724734173
      ],
      [
        "Ġpreference",
        -9.954341217236207
      ],
      [
        "ĠFood",
        -9.955100739591682
      ],
      [
        "Ġphysic",
        -9.95606304867314
      ],
      [
        "Ġsmart",
        -9.95659466155125
      ],
      [
        "Ġsports",
        -9.957710294487644
      ],
      [
        "/or",
        -9.95878318436938
      ],
      [
        "Ġbug",
        -9.959478291148503
      ],
      [
        "Ġmanual",
        -9.9595593720682
      ],
      [
        "Ġadvice",
        -9.959565522611843
      ],
      [
        "Ġcatch",
        -9.95959400120881
      ],
      [
        "ĠAfrican",
        -9.959645571793676
      ],
      [
        "ĠGreen",
        -9.96033240052656
      ],
      [
        "Ġfarmers",
        -9.96050911314314
      ],
      [
        "Ġbillion",
        -9.961912007916553
      ],
      [
        "Ġpilot",
        -9.962141052950347
      ],
      [
        "ĠBo",
        -9.962747964164471
      ],
      [
        "Ġlegal",
        -9.962883341858626
      ],
      [
        "Ġbar",
        -9.963268972406023
      ],
      [
        "Ġconsume",
        -9.963623155576151
      ],
      [
        ".[",
        -9.963787262800668
      ],
      [
        "Ġkitchen",
        -9.964747990396493
      ],
      [
        "Ġthread",
        -9.96475818954169
      ],
      [
        "set",
        -9.965013649008784
      ],
      [
        "Ġshoes",
        -9.965170222156988
      ],
      [
        "Ġgoals",
        -9.967198965543608
      ],
      [
        "Ġtube",
        -9.96723311372744
      ],
      [
        "ward",
        -9.96772468227426
      ],
      [
        "Ġmold",
        -9.96862468229211
      ],
      [
        "Ġemotional",
        -9.969604652542962
      ],
      [
        "Ġcrack",
        -9.970095297969678
      ],
      [
        "Ġcalorie",
        -9.970495023246412
      ],
      [
        "tri",
        -9.970770129050669
      ],
      [
        "which",
        -9.971667567090016
      ],
      [
        "defined",
        -9.97168731294084
      ],
      [
        "Ġsuggests",
        -9.97184354309396
      ],
      [
        "Ġdiscussion",
        -9.971984054360222
      ],
      [
        "Ġmechanical",
        -9.97258099443445
      ],
      [
        "Ġrespect",
        -9.973085169205731
      ],
      [
        "ĠEx",
        -9.973809618897649
      ],
      [
        "Ġmaster",
        -9.97401622308659
      ],
      [
        "Ġinform",
        -9.97501917344519
      ],
      [
        "Ġjump",
        -9.975380420091644
      ],
      [
        "Ġbiological",
        -9.975548935986602
      ],
      [
        "how",
        -9.9762453919323
      ],
      [
        "numerous",
        -9.977133868792835
      ],
      [
        "Ġhabit",
        -9.977270728008314
      ],
      [
        "ĠCount",
        -9.977530652269223
      ],
      [
        "Ġprimaril",
        -9.977891554754816
      ],
      [
        "ĠJohn",
        -9.978098155264076
      ],
      [
        "Ġpixel",
        -9.978543909668396
      ],
      [
        "Ġhighest",
        -9.978843623675594
      ],
      [
        "Ġwave",
        -9.97892949169124
      ],
      [
        "Ġarray",
        -9.979867282370927
      ],
      [
        "Ġbrake",
        -9.98012363277518
      ],
      [
        "Ġassess",
        -9.980455852937276
      ],
      [
        "Ġdefinite",
        -9.980703066017693
      ],
      [
        "Ġexamine",
        -9.981157588093582
      ],
      [
        "Ġbike",
        -9.981271806248108
      ],
      [
        "told",
        -9.981681742110354
      ],
      [
        "Ġbeaut",
        -9.98206142664048
      ],
      [
        "ĠWhether",
        -9.982410495543292
      ],
      [
        "Ġdangerous",
        -9.982643826070891
      ],
      [
        "Ġinternet",
        -9.984333578154647
      ],
      [
        "Ġplane",
        -9.985583780612306
      ],
      [
        "Ġkg",
        -9.986150444194395
      ],
      [
        "ĠPeople",
        -9.988005560784078
      ],
      [
        "Ġtests",
        -9.988007057149696
      ],
      [
        "iness",
        -9.98831010331646
      ],
      [
        "Ġsamples",
        -9.9884058371081
      ],
      [
        "Ġprivate",
        -9.990350799495
      ],
      [
        "top",
        -9.990482393057498
      ],
      [
        "Ġattract",
        -9.99062945088421
      ],
      [
        "Ġforest",
        -9.991391564764374
      ],
      [
        "producing",
        -9.992300400277577
      ],
      [
        "ake",
        -9.99283871489844
      ],
      [
        "Ġsteel",
        -9.993299322363429
      ],
      [
        "Ġcomprehensive",
        -9.995192023937507
      ],
      [
        "Ġformation",
        -9.99537053904686
      ],
      [
        "reality",
        -9.996307785853208
      ],
      [
        "gen",
        -9.996704052780697
      ],
      [
        "cor",
        -9.996931355598235
      ],
      [
        "Ġpowder",
        -9.997046455159293
      ],
      [
        "ĠRa",
        -9.997905242137596
      ],
      [
        "car",
        -9.997968630713252
      ],
      [
        "Ġlaunch",
        -9.998737385908896
      ],
      [
        "Ġtransmission",
        -9.998754472785794
      ],
      [
        "Ġplaying",
        -9.99905799819978
      ],
      [
        "Ġvisibl",
        -9.99942532565104
      ],
      [
        "Ġharvest",
        -10.000558220044166
      ],
      [
        "Ġclassroom",
        -10.000625378919215
      ],
      [
        "Ġorgan",
        -10.00124085919684
      ],
      [
        "ĠHis",
        -10.003359464308586
      ],
      [
        "Ġlooks",
        -10.00418542600446
      ],
      [
        "><",
        -10.004476215801397
      ],
      [
        "Ġnice",
        -10.004715031621094
      ],
      [
        "Ġcrop",
        -10.00494883635843
      ],
      [
        "laugh",
        -10.005232897144555
      ],
      [
        "PS",
        -10.005888557411492
      ],
      [
        "Ġoptimal",
        -10.006060241006836
      ],
      [
        "Ġfly",
        -10.006075381546738
      ],
      [
        "Ġofficial",
        -10.006385232636642
      ],
      [
        "ĠLight",
        -10.006642359814972
      ],
      [
        "Ġtoward",
        -10.007079587310084
      ],
      [
        "Answer",
        -10.007520204245932
      ],
      [
        "Ġcheese",
        -10.007880216437682
      ],
      [
        "Ġtitle",
        -10.008074548592504
      ],
      [
        "Ġconduct",
        -10.00816262110452
      ],
      [
        "Ġbrush",
        -10.0096022508653
      ],
      [
        "Ġwindow",
        -10.009956273559556
      ],
      [
        "<",
        -10.010954079447266
      ],
      [
        "Ġextract",
        -10.011034925902887
      ],
      [
        "Ġobservation",
        -10.011713021867052
      ],
      [
        "Ġmo",
        -10.011962459582108
      ],
      [
        "Ġsettings",
        -10.012755484466128
      ],
      [
        "wide",
        -10.013225618983324
      ],
      [
        "Ġparticipant",
        -10.01340240934984
      ],
      [
        "AL",
        -10.01389532014616
      ],
      [
        "lic",
        -10.014185293503685
      ],
      [
        "har",
        -10.014820265651483
      ],
      [
        "Ġtechnical",
        -10.015252247948904
      ],
      [
        "Ġparameter",
        -10.015349351958845
      ],
      [
        "hu",
        -10.018550299008991
      ],
      [
        "ĠSun",
        -10.018787281148846
      ],
      [
        "ER",
        -10.01914345340839
      ],
      [
        "Ġemail",
        -10.020872567267364
      ],
      [
        "ĠLo",
        -10.021012790787244
      ],
      [
        "Ġboundar",
        -10.022433169004954
      ],
      [
        "Ġfoundation",
        -10.022898978091655
      ],
      [
        "Ġraw",
        -10.023173744823044
      ],
      [
        "ash",
        -10.023204611828634
      ],
      [
        "Ġzero",
        -10.024545626775206
      ],
      [
        "Ġinvolv",
        -10.025001621943318
      ],
      [
        "Ġhelping",
        -10.025085144442777
      ],
      [
        "ĠUn",
        -10.025236731126387
      ],
      [
        "Ġportion",
        -10.025265743692833
      ],
      [
        "Ġshell",
        -10.025511467553343
      ],
      [
        "istic",
        -10.025698101084796
      ],
      [
        "Ġultimate",
        -10.0264137420485
      ],
      [
        "Ġfollowed",
        -10.026586637516232
      ],
      [
        "Ġprocedure",
        -10.027258831165902
      ],
      [
        "Ġcontinuous",
        -10.028420626179324
      ],
      [
        "Ġdental",
        -10.028675165941902
      ],
      [
        "Ġmeeting",
        -10.02985512703947
      ],
      [
        "Ġindustrial",
        -10.0300474839947
      ],
      [
        "Ġmelt",
        -10.030606654528814
      ],
      [
        "ran",
        -10.030683649967248
      ],
      [
        "ĠApril",
        -10.031430786485537
      ],
      [
        "Ġstain",
        -10.031582409810984
      ],
      [
        "Ġthousands",
        -10.031671245490012
      ],
      [
        "Ġcollege",
        -10.03204227920715
      ],
      [
        "October",
        -10.032042791162104
      ],
      [
        "Ġclinical",
        -10.032111302358224
      ],
      [
        "\\u",
        -10.03212523707418
      ],
      [
        "Ġancient",
        -10.032645784925831
      ],
      [
        "ĠMo",
        -10.033837890725856
      ],
      [
        "Ġassist",
        -10.033897778840991
      ],
      [
        "Ġautomatic",
        -10.033943365829556
      ],
      [
        "Ġworry",
        -10.034116099911977
      ],
      [
        "Ġrisks",
        -10.03456115185034
      ],
      [
        "Ġeducational",
        -10.035104563545122
      ],
      [
        "Ġheal",
        -10.03649911743495
      ],
      [
        "Ġplate",
        -10.03724811058883
      ],
      [
        "Ġintelligence",
        -10.037307936389578
      ],
      [
        "Ġcoal",
        -10.037473507368835
      ],
      [
        "ger",
        -10.037498209244225
      ],
      [
        "Conclusion",
        -10.037702665787975
      ],
      [
        "Ġuniverse",
        -10.037711147461238
      ],
      [
        "Ġfailure",
        -10.037796308946856
      ],
      [
        "Ġorganisms",
        -10.0380808835304
      ],
      [
        "ĠWell",
        -10.03841775937515
      ],
      [
        "-free",
        -10.039311892462791
      ],
      [
        "Ġprecise",
        -10.039596615041823
      ],
      [
        "Ġequation",
        -10.03959687854984
      ],
      [
        "Ġstories",
        -10.039636547597963
      ],
      [
        "Ġtrul",
        -10.039824553152828
      ],
      [
        "itis",
        -10.041314612665136
      ],
      [
        "Ġradiation",
        -10.041575553375347
      ],
      [
        "Ġbloom",
        -10.041671675228734
      ],
      [
        "ĠBar",
        -10.04283361054633
      ],
      [
        "Ġpollution",
        -10.043482707454466
      ],
      [
        "Ġinteraction",
        -10.0436290645892
      ],
      [
        "Ġcareer",
        -10.045154444556616
      ],
      [
        "Ġwhose",
        -10.045576553254342
      ],
      [
        "Your",
        -10.045736723404286
      ],
      [
        "Ġgraph",
        -10.045793274409608
      ],
      [
        "ĠEnergy",
        -10.046366939823624
      ],
      [
        "kin",
        -10.04638624258629
      ],
      [
        "Ġlaser",
        -10.047309416303776
      ],
      [
        "Ġfields",
        -10.047579112665534
      ],
      [
        "Ġcrops",
        -10.04766351606069
      ],
      [
        "Ġdish",
        -10.047857288384057
      ],
      [
        "Ġstandards",
        -10.04936179379324
      ],
      [
        "stone",
        -10.049761391576244
      ],
      [
        "He",
        -10.049769126824913
      ],
      [
        "Ġsaying",
        -10.050015283256784
      ],
      [
        "ell",
        -10.050382669478848
      ],
      [
        "Ġperspective",
        -10.05103619122827
      ],
      [
        "Ġboost",
        -10.05231665691905
      ],
      [
        "Most",
        -10.05285684990939
      ],
      [
        "Ġsurvey",
        -10.052955607153836
      ],
      [
        "Ġapart",
        -10.053347113183598
      ],
      [
        "cal",
        -10.05342007268488
      ],
      [
        "Ġprepare",
        -10.053758742936765
      ],
      [
        "Ġhelpful",
        -10.053921845319683
      ],
      [
        "Ġgrass",
        -10.05407239848375
      ],
      [
        "My",
        -10.054279457199524
      ],
      [
        "ĠKa",
        -10.054341727030394
      ],
      [
        "ought",
        -10.054857994462209
      ],
      [
        "Ġartificial",
        -10.05487865298452
      ],
      [
        "Ġcoffee",
        -10.05487878423856
      ],
      [
        "Ġdetermin",
        -10.055090165757392
      ],
      [
        "Ġyield",
        -10.058736742345568
      ],
      [
        "ĠIndian",
        -10.05938162203122
      ],
      [
        "Ġcolon",
        -10.060099237803184
      ],
      [
        "ĠDesign",
        -10.06013441270763
      ],
      [
        "Ġsmell",
        -10.06072897086396
      ],
      [
        "ĠpH",
        -10.060883375912104
      ],
      [
        "Ġvitamin",
        -10.061182802275878
      ],
      [
        "Ġcarefully",
        -10.061538632806045
      ],
      [
        "ball",
        -10.061577064388388
      ],
      [
        "ĠQu",
        -10.06175875410295
      ],
      [
        "Ġpets",
        -10.061929832352911
      ],
      [
        "Ġearlier",
        -10.062609603404336
      ],
      [
        "Instead",
        -10.06268555829957
      ],
      [
        "Ġexperiences",
        -10.06326430181261
      ],
      [
        "Ġfair",
        -10.063345217552172
      ],
      [
        "ven",
        -10.063431325000224
      ],
      [
        "Ġstretch",
        -10.06365231056536
      ],
      [
        "Ġlay",
        -10.063672345552096
      ],
      [
        "-year",
        -10.063914827005618
      ],
      [
        "Ġsunspot",
        -10.064536720918046
      ],
      [
        "Ġobvious",
        -10.06454990525785
      ],
      [
        "Ġbi",
        -10.064551379253585
      ],
      [
        "with",
        -10.064862259896811
      ],
      [
        "Ġaspect",
        -10.065289569941935
      ],
      [
        "Ġidentifie",
        -10.065344266583324
      ],
      [
        "bar",
        -10.066324448990509
      ],
      [
        "Ġdestroy",
        -10.066496425790064
      ],
      [
        "Ġcompost",
        -10.06649677711926
      ],
      [
        "|Ċ",
        -10.067183351006603
      ],
      [
        "gar",
        -10.06721167323312
      ],
      [
        "Ġprove",
        -10.067852479389597
      ],
      [
        "Ġguideline",
        -10.067982184559558
      ],
      [
        "Ġdrugs",
        -10.069138724458243
      ],
      [
        "rote",
        -10.069394932840064
      ],
      [
        "Ġengage",
        -10.069513989932751
      ],
      [
        "ĠDoes",
        -10.069987064936212
      ],
      [
        "ants",
        -10.070062939649674
      ],
      [
        "Ġmolecular",
        -10.070310634671277
      ],
      [
        "Ġlifestyle",
        -10.070482889251242
      ],
      [
        "Ġlock",
        -10.070731294267857
      ],
      [
        "Ġannual",
        -10.070787991749498
      ],
      [
        "che",
        -10.072276293500863
      ],
      [
        "ĠAustralia",
        -10.07293020285304
      ],
      [
        "Ġtooth",
        -10.073273687738387
      ],
      [
        "Ġformula",
        -10.073376777869704
      ],
      [
        "IC",
        -10.073637980409496
      ],
      [
        "Ġowner",
        -10.073711307991516
      ],
      [
        "Ġappeal",
        -10.0743302484912
      ],
      [
        "light",
        -10.074665247661676
      ],
      [
        "Ġupper",
        -10.074990803714275
      ],
      [
        "ĠPe",
        -10.075417849643758
      ],
      [
        "Ġexternal",
        -10.07629192860531
      ],
      [
        "Ġcream",
        -10.07761162378502
      ],
      [
        "Ġplanting",
        -10.07768032632866
      ],
      [
        "Ġtight",
        -10.078202378102944
      ],
      [
        "off",
        -10.07970348311987
      ],
      [
        "took",
        -10.079834542973275
      ],
      [
        "Ġcalculate",
        -10.082140461120211
      ],
      [
        "Ġhospital",
        -10.082197416367984
      ],
      [
        "Ġvoice",
        -10.082197464143544
      ],
      [
        "Ġscore",
        -10.083079144882358
      ],
      [
        "ĠCat",
        -10.08418250313083
      ],
      [
        "Ġcomposition",
        -10.084184134498578
      ],
      [
        "uck",
        -10.08436588578514
      ],
      [
        "Ġpolicy",
        -10.084777673885108
      ],
      [
        "Ġintend",
        -10.08500809294224
      ],
      [
        "ible",
        -10.08504272436256
      ],
      [
        "Ġchalleng",
        -10.085594045747293
      ],
      [
        "diversity",
        -10.08585462233113
      ],
      [
        "ping",
        -10.086041486449314
      ],
      [
        "Ġshar",
        -10.086113595137034
      ],
      [
        "Ġdescription",
        -10.08616184339729
      ],
      [
        "Ġvs",
        -10.086740303599058
      ],
      [
        "ĠEducation",
        -10.087403803498315
      ],
      [
        "Ġillness",
        -10.088186066813702
      ],
      [
        "Ġseal",
        -10.088401907820923
      ],
      [
        "Ġcreatures",
        -10.088959539010798
      ],
      [
        "oid",
        -10.089049603839442
      ],
      [
        "nic",
        -10.089253299456711
      ],
      [
        "Ġpot",
        -10.09091843520617
      ],
      [
        "Ġassessment",
        -10.092465718245894
      ],
      [
        "Ġvessel",
        -10.094138447692716
      ],
      [
        "ĠRiver",
        -10.094213078135017
      ],
      [
        "Ġbeneficial",
        -10.094254252315295
      ],
      [
        "kept",
        -10.094326633751956
      ],
      [
        "Ġsecret",
        -10.095063754424032
      ],
      [
        "rate",
        -10.095229578218122
      ],
      [
        "Ġrealize",
        -10.09552639314117
      ],
      [
        "Ġeliminate",
        -10.09608491995772
      ],
      [
        "ES",
        -10.096101565401478
      ],
      [
        "Ġembodiment",
        -10.096141860804329
      ],
      [
        "Ġthermal",
        -10.096146764471484
      ],
      [
        "Ġlift",
        -10.096204591110055
      ],
      [
        "Ġtrust",
        -10.096217764798396
      ],
      [
        "Ġteach",
        -10.0963330293851
      ],
      [
        "Ġdefine",
        -10.096431550881404
      ],
      [
        "Ġscene",
        -10.096633032955172
      ],
      [
        "Ġpar",
        -10.096881002862307
      ],
      [
        "Ġoccurr",
        -10.0972613163484
      ],
      [
        "Ġimprovement",
        -10.097543447853804
      ],
      [
        "Ġsnow",
        -10.098353302617635
      ],
      [
        "Ġnation",
        -10.098718429439124
      ],
      [
        "Ġplayer",
        -10.099477470765777
      ],
      [
        "ĠNov",
        -10.099819121515992
      ],
      [
        "ington",
        -10.099871141082708
      ],
      [
        "Ġreward",
        -10.100232073776084
      ],
      [
        "Ġ<",
        -10.10040856551588
      ],
      [
        "Ġpeak",
        -10.100816402843297
      ],
      [
        "Ġphotos",
        -10.100823426117683
      ],
      [
        "Ġattend",
        -10.101762385872386
      ],
      [
        "Ġsupplie",
        -10.101959722771896
      ],
      [
        "Ġthorough",
        -10.102178104602949
      ],
      [
        "ĠBoth",
        -10.102387406771063
      ],
      [
        "brough",
        -10.102509492728077
      ],
      [
        "Many",
        -10.102572343094703
      ],
      [
        "Ġinfect",
        -10.10272325157838
      ],
      [
        "ĠGroup",
        -10.103342944374706
      ],
      [
        "ĠVi",
        -10.103452188866973
      ],
      [
        "Ġstatus",
        -10.10384337711746
      ],
      [
        "Ġvaccine",
        -10.104199250293064
      ],
      [
        "Ġspray",
        -10.104216978294538
      ],
      [
        "Ġreduction",
        -10.104225645230256
      ],
      [
        "Ġstring",
        -10.10436120807477
      ],
      [
        "ING",
        -10.106691429301758
      ],
      [
        "Ġreveal",
        -10.107731447660084
      ],
      [
        "Ġfault",
        -10.108251494291297
      ],
      [
        "Ġstrain",
        -10.108394879072527
      ],
      [
        "Ġengag",
        -10.10958440459376
      ],
      [
        "Ġlb",
        -10.10975371611634
      ],
      [
        "ĠWhere",
        -10.109816286184028
      ],
      [
        "Ġgirl",
        -10.11018797387039
      ],
      [
        "Ġopinion",
        -10.110283653982862
      ],
      [
        "Ġmainly",
        -10.110342585434232
      ],
      [
        "Ġbill",
        -10.110359708464555
      ],
      [
        "well",
        -10.111398962248751
      ],
      [
        "ĠCity",
        -10.112091575131023
      ],
      [
        "Ġrough",
        -10.112378882591194
      ],
      [
        "ĠBritish",
        -10.112464416096223
      ],
      [
        "coming",
        -10.11278430572711
      ],
      [
        "back",
        -10.112906965129874
      ],
      [
        "ĠMi",
        -10.113386967225956
      ],
      [
        "Ġrace",
        -10.113446145812802
      ],
      [
        "Ġchoos",
        -10.114659485446191
      ],
      [
        "Ġband",
        -10.115397333085347
      ],
      [
        "Ġexhibit",
        -10.115467612696808
      ],
      [
        "Ġtraffic",
        -10.11577972445431
      ],
      [
        "Ġawareness",
        -10.11675178759346
      ],
      [
        "Ġchronic",
        -10.118459320181977
      ],
      [
        "Ġversatil",
        -10.118475415862658
      ],
      [
        "ĠFurther",
        -10.118604363485144
      ],
      [
        "Yes",
        -10.11862346386369
      ],
      [
        "Ġleaf",
        -10.118648613888292
      ],
      [
        "Ġengineering",
        -10.119449122471842
      ],
      [
        "Ġstar",
        -10.119725490276764
      ],
      [
        "Ġpan",
        -10.119877061698611
      ],
      [
        "ĠGoogle",
        -10.12012857346453
      ],
      [
        "Are",
        -10.12092129575959
      ],
      [
        "Ġoutdoor",
        -10.122232210252369
      ],
      [
        "Ġhazard",
        -10.12256618819063
      ],
      [
        "Ġcalci",
        -10.122994219354627
      ],
      [
        "Ġexplor",
        -10.123351837787824
      ],
      [
        "what",
        -10.123590227869506
      ],
      [
        "ĠInternational",
        -10.1256412397671
      ],
      [
        "Ġcrystal",
        -10.12571051246062
      ],
      [
        "Ġrelevant",
        -10.126360622134868
      ],
      [
        "Ġarm",
        -10.126859980753476
      ],
      [
        "July",
        -10.128461444475231
      ],
      [
        "Ġprepared",
        -10.12890965743984
      ],
      [
        "Ġlens",
        -10.12940130867079
      ],
      [
        "Ġrecovery",
        -10.129459935789203
      ],
      [
        "Ġdistinct",
        -10.129722809504289
      ],
      [
        "Ġborn",
        -10.13001165423879
      ],
      [
        "mor",
        -10.130411812261237
      ],
      [
        "Ġprovider",
        -10.130593407904236
      ],
      [
        "Ġplent",
        -10.130938242721262
      ],
      [
        "mat",
        -10.131361832345622
      ],
      [
        "Ġregister",
        -10.131712686333046
      ],
      [
        "Ġpercentage",
        -10.131732285139586
      ],
      [
        "Ġallerg",
        -10.132561227997114
      ],
      [
        "Ġneural",
        -10.132925412556638
      ],
      [
        "Ġprinciples",
        -10.133079103362387
      ],
      [
        "ĠSp",
        -10.134081222666053
      ],
      [
        "Ġtrial",
        -10.134556642674072
      ],
      [
        "Ġprior",
        -10.134934872593194
      ],
      [
        "Ġeight",
        -10.135336966165784
      ],
      [
        "ĠLife",
        -10.13558692115544
      ],
      [
        "Ġshot",
        -10.13661186190426
      ],
      [
        "Ġorigin",
        -10.137039856576
      ],
      [
        "Ġaudience",
        -10.13708922732492
      ],
      [
        "Ġsunlight",
        -10.137191269724266
      ],
      [
        "Ġrelation",
        -10.137243041938742
      ],
      [
        "Ġobjective",
        -10.137894655448129
      ],
      [
        "Ġprinting",
        -10.138479207116822
      ],
      [
        "Ġadopt",
        -10.13853867505333
      ],
      [
        "Ġcredit",
        -10.139890888500016
      ],
      [
        "Ġnaturally",
        -10.14084991687779
      ],
      [
        "...Ċ",
        -10.141293015962088
      ],
      [
        "book",
        -10.141694592171516
      ],
      [
        "onic",
        -10.141814943537051
      ],
      [
        "Ġfunctional",
        -10.141938324898668
      ],
      [
        "like",
        -10.142444578602417
      ],
      [
        "Ġhid",
        -10.142744147855293
      ],
      [
        "Ġsell",
        -10.143187803417783
      ],
      [
        "ĠEast",
        -10.143248406374669
      ],
      [
        "Ġlibrar",
        -10.14347814922858
      ],
      [
        "ĠCanada",
        -10.14551990812102
      ],
      [
        "Ġaccident",
        -10.145654672954052
      ],
      [
        "Ġconversation",
        -10.147593565910878
      ],
      [
        "und",
        -10.14774249319652
      ],
      [
        "-friendl",
        -10.14791118959984
      ],
      [
        "ong",
        -10.148200805662889
      ],
      [
        "Ġconstruct",
        -10.148985164797992
      ],
      [
        "ub",
        -10.149361629250317
      ],
      [
        "Ġleak",
        -10.149449690414894
      ],
      [
        "Ġamazing",
        -10.149709380428298
      ],
      [
        "Ġpredator",
        -10.14971960683447
      ],
      [
        "Ġfirm",
        -10.149731886197236
      ],
      [
        "lan",
        -10.15051764188244
      ],
      [
        "Ġfr",
        -10.150575030311275
      ],
      [
        "ĠProgram",
        -10.151404176096593
      ],
      [
        "ki",
        -10.151580136680924
      ],
      [
        "Ġexcess",
        -10.151597100312856
      ],
      [
        "Ġconcrete",
        -10.151826328473293
      ],
      [
        "Ġextensive",
        -10.15182633167963
      ],
      [
        "Ġleaving",
        -10.151831647093104
      ],
      [
        "Ġship",
        -10.151899451237474
      ],
      [
        "Ġgravit",
        -10.15281243358686
      ],
      [
        "Ġemotion",
        -10.153079100668805
      ],
      [
        "Ġworker",
        -10.153958758570209
      ],
      [
        "Ġnode",
        -10.154596352259334
      ],
      [
        "Use",
        -10.15466077339775
      ],
      [
        "Ġsurvival",
        -10.15608011601362
      ],
      [
        "Ġmembrane",
        -10.15610003315075
      ],
      [
        "ĠFrench",
        -10.156128281072046
      ],
      [
        "Ġdownload",
        -10.156251686185886
      ],
      [
        "Ġguy",
        -10.156468472893224
      ],
      [
        "Ġbowl",
        -10.157054022030753
      ],
      [
        "ĠAsia",
        -10.157594821814437
      ],
      [
        "Ġsheet",
        -10.157862345117511
      ],
      [
        "Ġbottle",
        -10.15822306569341
      ],
      [
        "Ġconsideration",
        -10.158352227313015
      ],
      [
        "Ġinvestment",
        -10.15838650072306
      ],
      [
        "ĠAbout",
        -10.158691785592072
      ],
      [
        "Ġpregnancy",
        -10.158973430129258
      ],
      [
        "Ġmission",
        -10.159578421737953
      ],
      [
        "Ġconsequence",
        -10.160346162562782
      ],
      [
        "ĠGuide",
        -10.160811221503137
      ],
      [
        "Ġcharg",
        -10.160888624997355
      ],
      [
        "ĠPo",
        -10.16287200027303
      ],
      [
        "Ġprogramm",
        -10.16293900522757
      ],
      [
        "Ġsector",
        -10.165292522484688
      ],
      [
        "ĠPi",
        -10.165338266416368
      ],
      [
        "Ġgun",
        -10.165578780949712
      ],
      [
        "ĠHome",
        -10.166378663206668
      ],
      [
        "Ġtrait",
        -10.166815991792705
      ],
      [
        "ĠLED",
        -10.168205697708425
      ],
      [
        "ĠWest",
        -10.168260932661475
      ],
      [
        "ĠWash",
        -10.16916347885915
      ],
      [
        "Ġstream",
        -10.170055271783164
      ],
      [
        "Ġabsolute",
        -10.171098866186965
      ],
      [
        "Ġencounter",
        -10.171099063458168
      ],
      [
        "Ġchair",
        -10.171118548861454
      ],
      [
        "Ġdecline",
        -10.171847871586948
      ],
      [
        "Ġnovel",
        -10.17195318620689
      ],
      [
        "Ġcapabl",
        -10.172327293568705
      ],
      [
        "Ma",
        -10.172650020097947
      ],
      [
        "Ġengineer",
        -10.173463891016354
      ],
      [
        "ham",
        -10.173555124491436
      ],
      [
        "Ġsuffer",
        -10.173604799408068
      ],
      [
        "Ġpure",
        -10.173947105443698
      ],
      [
        "Ġrec",
        -10.174056474347058
      ],
      [
        "Ġassume",
        -10.17426287863039
      ],
      [
        "Ġintroduc",
        -10.174973793820472
      ],
      [
        "val",
        -10.175056737525608
      ],
      [
        "Ġdelay",
        -10.175601000285823
      ],
      [
        "Let",
        -10.176022305138783
      ],
      [
        "ivity",
        -10.17724249512008
      ],
      [
        "chi",
        -10.177462550937385
      ],
      [
        "net",
        -10.177608973975676
      ],
      [
        "More",
        -10.17772319838569
      ],
      [
        "-p",
        -10.178071428126696
      ],
      [
        "Ġindependent",
        -10.178091310518449
      ],
      [
        "Ġresolution",
        -10.17826875473548
      ],
      [
        "ĠSan",
        -10.178472054698204
      ],
      [
        "Ġsensitive",
        -10.17955020014335
      ],
      [
        "Ġlights",
        -10.179737808659372
      ],
      [
        "].",
        -10.179744926679104
      ],
      [
        "Ġprofessor",
        -10.179785131588009
      ],
      [
        "Ġrestaurant",
        -10.17978513383218
      ],
      [
        "itting",
        -10.180047854413411
      ],
      [
        "Ġinstallation",
        -10.18022891087082
      ],
      [
        "Ġestimated",
        -10.181424183656542
      ],
      [
        "Ġactions",
        -10.18186425371939
      ],
      [
        "Ġresident",
        -10.182017653766255
      ],
      [
        "Ġcm",
        -10.182364756730609
      ],
      [
        "-time",
        -10.182633518932008
      ],
      [
        "Ġthrow",
        -10.183301661764466
      ],
      [
        "Ġsufficient",
        -10.183848393474587
      ],
      [
        "Ġpop",
        -10.184193460751088
      ],
      [
        "ĠPa",
        -10.184319033134395
      ],
      [
        "glasses",
        -10.184797314316937
      ],
      [
        "ture",
        -10.185630795919334
      ],
      [
        "Ġexperiments",
        -10.185719494394338
      ],
      [
        "ĠHer",
        -10.185750497923618
      ],
      [
        "Ġprofile",
        -10.186371840747722
      ],
      [
        "ĠEvery",
        -10.186672548566492
      ],
      [
        "referred",
        -10.187022891137422
      ],
      [
        "Ġfertilizer",
        -10.187985720518604
      ],
      [
        "First",
        -10.188091091821706
      ],
      [
        "cognition",
        -10.188547505798152
      ],
      [
        "Ġdatabase",
        -10.18863764024621
      ],
      [
        "Ġloop",
        -10.188697097518345
      ],
      [
        "}",
        -10.188703896719186
      ],
      [
        "ĠHave",
        -10.18895578168162
      ],
      [
        "Ġseven",
        -10.189714889804756
      ],
      [
        "pot",
        -10.19010459573962
      ],
      [
        "Ġinstall",
        -10.191380844481614
      ],
      [
        "ĠEl",
        -10.192024319270878
      ],
      [
        "Onc",
        -10.192105967119533
      ],
      [
        "Ġestimate",
        -10.192801503708852
      ],
      [
        "Ġfelt",
        -10.193029922048437
      ],
      [
        "osis",
        -10.193124500473717
      ],
      [
        "pl",
        -10.193261273828831
      ],
      [
        "Pro",
        -10.19414201462862
      ],
      [
        "ĠPer",
        -10.195065787860624
      ],
      [
        "Ġcloud",
        -10.195185517333368
      ],
      [
        "Ġfoster",
        -10.19521403736279
      ],
      [
        "Over",
        -10.195481144380617
      ],
      [
        "Ġjuice",
        -10.196133523392223
      ],
      [
        "ĠJune",
        -10.196402559440209
      ],
      [
        "Ġevolve",
        -10.196457203384938
      ],
      [
        "Ġconcerns",
        -10.196877875140554
      ],
      [
        "cellular",
        -10.19737655964812
      ],
      [
        "Ġhistorical",
        -10.197795698241276
      ],
      [
        "Ġsport",
        -10.19781297232533
      ],
      [
        "Ġsaving",
        -10.197962383464027
      ],
      [
        "ĠSe",
        -10.198439579864909
      ],
      [
        "Ġminerals",
        -10.198467093924318
      ],
      [
        "ĠPower",
        -10.198686055276086
      ],
      [
        "see",
        -10.198816320216412
      ],
      [
        "Ġcr",
        -10.19914387512758
      ],
      [
        "Ġrelationships",
        -10.199536635731596
      ],
      [
        "Ġemergency",
        -10.19960187076344
      ],
      [
        "Ġapproaches",
        -10.200577217674557
      ],
      [
        "ition",
        -10.20070109179838
      ],
      [
        "\"The",
        -10.200921387520276
      ],
      [
        "ĠPart",
        -10.201702559307982
      ],
      [
        "Ġdefinition",
        -10.201847925879232
      ],
      [
        "ĠIsland",
        -10.2026546509707
      ],
      [
        "mas",
        -10.203608984061834
      ],
      [
        "Ġreact",
        -10.204420385041551
      ],
      [
        "Ġmining",
        -10.204467875770296
      ],
      [
        "ail",
        -10.205504985671531
      ],
      [
        "Ġmeta",
        -10.20630473397524
      ],
      [
        "Ġworkshop",
        -10.206372212372038
      ],
      [
        "Ġagent",
        -10.206699186297318
      ],
      [
        "ck",
        -10.20733154676402
      ],
      [
        "Ġconfirm",
        -10.208099660326576
      ],
      [
        "Ġdrain",
        -10.208374994984236
      ],
      [
        "Dr",
        -10.20842433500405
      ],
      [
        "some",
        -10.20846666204195
      ],
      [
        "Ġmilitar",
        -10.20854861328306
      ],
      [
        "Ġdedicate",
        -10.208549176312388
      ],
      [
        "ĠRead",
        -10.208614405400557
      ],
      [
        "Ġpen",
        -10.209773484284645
      ],
      [
        "ĠCheck",
        -10.210629028073566
      ],
      [
        "Ġrely",
        -10.210704480331277
      ],
      [
        "Ġbehaviour",
        -10.210795352212727
      ],
      [
        "amp",
        -10.211188176445148
      ],
      [
        "Ġshowing",
        -10.21154661996817
      ],
      [
        "Ġplays",
        -10.21172615025171
      ],
      [
        "Ġmineral",
        -10.211812633765389
      ],
      [
        "Ġrelax",
        -10.212615188521667
      ],
      [
        "Ã",
        -10.21291865403529
      ],
      [
        "that",
        -10.2130797112651
      ],
      [
        "Ġperhap",
        -10.213415591547609
      ],
      [
        "Ġglucos",
        -10.213796396978932
      ],
      [
        "red",
        -10.214252317376564
      ],
      [
        "Ġpolitical",
        -10.21432002291778
      ],
      [
        "Ġdiagnose",
        -10.2143628879067
      ],
      [
        "Ġremote",
        -10.21530494220363
      ],
      [
        "Ġurban",
        -10.215308877871108
      ],
      [
        "Ġmask",
        -10.215429039844151
      ],
      [
        "ĠCD",
        -10.215561918390884
      ],
      [
        "ĠHuman",
        -10.215609314029642
      ],
      [
        "Ġinteractions",
        -10.215781089384793
      ],
      [
        "Ġstable",
        -10.216601929884964
      ],
      [
        "ĠSept",
        -10.216683118195778
      ],
      [
        "ĠHi",
        -10.216814217757545
      ],
      [
        "Ġopening",
        -10.21751551577652
      ],
      [
        "Ġrow",
        -10.2184718234459
      ],
      [
        "print",
        -10.218532695707388
      ],
      [
        "ĠAm",
        -10.21875983539478
      ],
      [
        "Ġblend",
        -10.219269291721258
      ],
      [
        "Ġexam",
        -10.219772735190125
      ],
      [
        "Ġinnovation",
        -10.219836569391582
      ],
      [
        "Ġbudget",
        -10.21985632137817
      ],
      [
        "ĠTi",
        -10.221135520842784
      ],
      [
        "ĠOut",
        -10.221419566077085
      ],
      [
        "ker",
        -10.222027092056845
      ],
      [
        "IN",
        -10.222262204289471
      ],
      [
        "Ġmanner",
        -10.222407441277715
      ],
      [
        "@",
        -10.223163962710862
      ],
      [
        "Ġmath",
        -10.223718214129304
      ],
      [
        "rie",
        -10.224146516748648
      ],
      [
        "Ġprinter",
        -10.224152180349588
      ],
      [
        "Ġprompt",
        -10.224386137323732
      ],
      [
        "going",
        -10.22450794278313
      ],
      [
        "Ġcarried",
        -10.225202378450549
      ],
      [
        "cur",
        -10.225216162926422
      ],
      [
        "()",
        -10.225799957008345
      ],
      [
        "Ġspeak",
        -10.225857691155198
      ],
      [
        "Ġtall",
        -10.225927903789408
      ],
      [
        "Ġneck",
        -10.22613345815884
      ],
      [
        "Ġguid",
        -10.226509999554692
      ],
      [
        "Ġsolve",
        -10.22662973941376
      ],
      [
        "Ġcompetition",
        -10.226679474171526
      ],
      [
        "Ġstroke",
        -10.228123471211914
      ],
      [
        "Ġnerve",
        -10.22872006785667
      ],
      [
        "Ġmammal",
        -10.231250841993528
      ],
      [
        "wood",
        -10.232761919067908
      ],
      [
        "led",
        -10.23309508422233
      ],
      [
        "ric",
        -10.23322713750959
      ],
      [
        "Ġwoman",
        -10.23354966736418
      ],
      [
        "Ġexciting",
        -10.233562519631109
      ],
      [
        "ock",
        -10.233708480057704
      ],
      [
        "Ġdecided",
        -10.233835552426406
      ],
      [
        "Although",
        -10.234704280390382
      ],
      [
        "ST",
        -10.234875919931234
      ],
      [
        "Ġvarie",
        -10.235484472256104
      ],
      [
        "lar",
        -10.235534743098164
      ],
      [
        "Ġdecide",
        -10.23607267184855
      ],
      [
        "del",
        -10.23628677606931
      ],
      [
        "Ġelectrons",
        -10.236292765008088
      ],
      [
        "Ġmanag",
        -10.236419267189358
      ],
      [
        "Ġhydrogen",
        -10.238238399573824
      ],
      [
        "Ġgap",
        -10.238465405723066
      ],
      [
        "ĠPre",
        -10.238511338934266
      ],
      [
        "Ġsent",
        -10.239612139116776
      ],
      [
        "Ġwish",
        -10.239788263852017
      ],
      [
        "Ġfishing",
        -10.239956069442815
      ],
      [
        "Ġserver",
        -10.240062174038451
      ],
      [
        "col",
        -10.24042435179135
      ],
      [
        "Ġtomato",
        -10.240520130716073
      ],
      [
        "Ġexcessive",
        -10.24072955025229
      ],
      [
        "Ġcommunicate",
        -10.241171370116705
      ],
      [
        "cle",
        -10.242326744654989
      ],
      [
        "Ġwhatever",
        -10.242788965559155
      ],
      [
        "Ġagriculture",
        -10.242798072610825
      ],
      [
        "Ġexplanation",
        -10.24279807802198
      ],
      [
        "Ġstomach",
        -10.242957571826274
      ],
      [
        "Ġmention",
        -10.2439424455629
      ],
      [
        "Ġacademic",
        -10.24522929970866
      ],
      [
        "ĠLike",
        -10.245391188494777
      ],
      [
        "Ġsold",
        -10.246723741742548
      ],
      [
        "Ġchocolate",
        -10.24745465337341
      ],
      [
        "Ġfurniture",
        -10.247456769215724
      ],
      [
        "Ġinflammation",
        -10.247463109024906
      ],
      [
        "standing",
        -10.247493763696234
      ],
      [
        "ĠUE",
        -10.247573243425672
      ],
      [
        "ĠConsider",
        -10.247821530160047
      ],
      [
        "Ġstorm",
        -10.24782557358764
      ],
      [
        "Ġloose",
        -10.249221117061037
      ],
      [
        "Ġtown",
        -10.250277823394198
      ],
      [
        "Ġfiles",
        -10.251218835850388
      ],
      [
        "you",
        -10.251965086378952
      ],
      [
        "Ġlung",
        -10.25225694041676
      ],
      [
        "History",
        -10.252506521769703
      ],
      [
        "Ġincorporat",
        -10.25258899885178
      ],
      [
        "ĠAr",
        -10.253184207421366
      ],
      [
        "Ġchapter",
        -10.25448044529531
      ],
      [
        "Ġsharp",
        -10.25456063800591
      ],
      [
        "Ġhousehold",
        -10.25457446138074
      ],
      [
        "ĠGeneral",
        -10.255078165904894
      ],
      [
        "ĠControl",
        -10.255193864390169
      ],
      [
        "Ġpoly",
        -10.256275772701512
      ],
      [
        "Ġweigh",
        -10.256434443237096
      ],
      [
        "Ġvast",
        -10.256946091138492
      ],
      [
        "Ġincredibl",
        -10.256987678790448
      ],
      [
        "Ġedit",
        -10.257204948803826
      ],
      [
        "Ġcurve",
        -10.257336239702385
      ],
      [
        "made",
        -10.257801243895411
      ],
      [
        "CH",
        -10.258824895490651
      ],
      [
        "ĠUp",
        -10.258868627168802
      ],
      [
        "Ġitem",
        -10.259787823178868
      ],
      [
        "uff",
        -10.260516040681786
      ],
      [
        "ĠThus",
        -10.260821374679445
      ],
      [
        "From",
        -10.262297483460198
      ],
      [
        "Ġconducted",
        -10.263263079242936
      ],
      [
        "Ġbecom",
        -10.263446234827375
      ],
      [
        "eath",
        -10.263688427027333
      ],
      [
        "Ġbones",
        -10.263960027422817
      ],
      [
        "According",
        -10.264590531923565
      ],
      [
        "Ġweak",
        -10.264837144194749
      ],
      [
        "Ġanalyze",
        -10.26536999737796
      ],
      [
        "Ġintake",
        -10.265955802477812
      ],
      [
        "Ġcomparison",
        -10.266302618943634
      ],
      [
        "ĠLake",
        -10.26703433329071
      ],
      [
        "Ġsubstance",
        -10.26797108948058
      ],
      [
        "Ġsh",
        -10.268267038966744
      ],
      [
        "biology",
        -10.26835834204176
      ],
      [
        "Ġappears",
        -10.268543558919298
      ],
      [
        "ĠWi",
        -10.2686293557732
      ],
      [
        "Ġsurprise",
        -10.2686818553003
      ],
      [
        "Ġpepper",
        -10.26868224720644
      ],
      [
        "Ġeconom",
        -10.269260193875644
      ],
      [
        "Ġbroken",
        -10.269733288230494
      ],
      [
        "ja",
        -10.269824651724786
      ],
      [
        "Ġlinked",
        -10.269972380267363
      ],
      [
        "Ġdur",
        -10.270051010881843
      ],
      [
        "ĠLook",
        -10.270869642521948
      ],
      [
        "Ġshop",
        -10.2715203330782
      ],
      [
        "ware",
        -10.271632620860595
      ],
      [
        "Ġlense",
        -10.272374477874177
      ],
      [
        "cha",
        -10.275580305241093
      ],
      [
        "Ġagenc",
        -10.275997973961672
      ],
      [
        "Ġcustom",
        -10.27631773546224
      ],
      [
        "Ġconcepts",
        -10.276463010973895
      ],
      [
        "ĠOcean",
        -10.276728821877178
      ],
      [
        "Ġdamaged",
        -10.276921035565437
      ],
      [
        "Ġscrew",
        -10.27697894632565
      ],
      [
        "ĠChrist",
        -10.277517358442594
      ],
      [
        "Ġregulate",
        -10.27764206922361
      ],
      [
        "Ġdeposit",
        -10.277722436715164
      ],
      [
        "Ġaccurac",
        -10.278262762472908
      ],
      [
        "Ġstability",
        -10.278364519415709
      ],
      [
        "Ġelectron",
        -10.27904087820955
      ],
      [
        "Ġlaws",
        -10.279591199925358
      ],
      [
        "ĠBa",
        -10.279748120449542
      ],
      [
        "cities",
        -10.281449741678486
      ],
      [
        "Ġchoices",
        -10.281739971858563
      ],
      [
        "Ġnutrition",
        -10.281961115374978
      ],
      [
        "Ġmill",
        -10.282020229719144
      ],
      [
        "aging",
        -10.282235308126529
      ],
      [
        "Ġnose",
        -10.282693748038442
      ],
      [
        "Ġinterior",
        -10.28309966743663
      ],
      [
        "tried",
        -10.284319039654967
      ],
      [
        "Ġclock",
        -10.285325029124362
      ],
      [
        "Ġdiagnosi",
        -10.285436743851122
      ],
      [
        "ĠSociety",
        -10.285509211904012
      ],
      [
        "Ġflood",
        -10.285517397478577
      ],
      [
        "Ġcloser",
        -10.286677579852237
      ],
      [
        "ĠGet",
        -10.28676855218032
      ],
      [
        "lies",
        -10.287181226760158
      ],
      [
        "Share",
        -10.287343174483368
      ],
      [
        "Ġmis",
        -10.287998012159669
      ],
      [
        "-being",
        -10.288098648579382
      ],
      [
        "--",
        -10.289253234093549
      ],
      [
        "Ġsudden",
        -10.290369765877056
      ],
      [
        "ĠNi",
        -10.290420202813443
      ],
      [
        "Ġwasn",
        -10.290563058082292
      ],
      [
        "Ġsex",
        -10.29066338936903
      ],
      [
        "ĠRed",
        -10.29072241613347
      ],
      [
        "Ġreplacement",
        -10.29096745728364
      ],
      [
        "Ġemployees",
        -10.291567659537506
      ],
      [
        "cho",
        -10.291836936499957
      ],
      [
        "Ġcareful",
        -10.2933650391509
      ],
      [
        "Ġwin",
        -10.293437882853771
      ],
      [
        "Ġputt",
        -10.293439360223656
      ],
      [
        "Ġcl",
        -10.293679057841668
      ],
      [
        "Ġderive",
        -10.294234846572294
      ],
      [
        "Ġauto",
        -10.294339595915789
      ],
      [
        "ĠGu",
        -10.294562764205768
      ],
      [
        "lie",
        -10.294676239582463
      ],
      [
        "but",
        -10.294910120993595
      ],
      [
        "Ġmovie",
        -10.295074204058103
      ],
      [
        "possibly",
        -10.295186970863064
      ],
      [
        "Ġpreparation",
        -10.295534729931752
      ],
      [
        "Ġdirector",
        -10.29572536029567
      ],
      [
        "Ġinvention",
        -10.295767862564585
      ],
      [
        "Ġappreciate",
        -10.295773471683454
      ],
      [
        "ĠCol",
        -10.29650802847531
      ],
      [
        "Ġconsult",
        -10.296713352451482
      ],
      [
        "ĠUV",
        -10.297250179186308
      ],
      [
        "Ġconfidence",
        -10.29771096490006
      ],
      [
        "part",
        -10.298365050843424
      ],
      [
        "Ġbranch",
        -10.29872623540221
      ],
      [
        "Ġheavi",
        -10.30010333024654
      ],
      [
        "Ġscenario",
        -10.300161436737394
      ],
      [
        "Ġsnake",
        -10.300170283237236
      ],
      [
        "Ġnitrogen",
        -10.30019325977316
      ],
      [
        "Ġcoast",
        -10.300458417258778
      ],
      [
        "gone",
        -10.300490484179598
      ],
      [
        "SP",
        -10.301604338474222
      ],
      [
        "Ġflexi",
        -10.301785751784776
      ],
      [
        "Ġguess",
        -10.302625349114772
      ],
      [
        "Ġdiagram",
        -10.302625704732575
      ],
      [
        "Co",
        -10.30319178297152
      ],
      [
        "Ġmine",
        -10.304018619124278
      ],
      [
        "ĠAny",
        -10.30477118710142
      ],
      [
        "Ġclothes",
        -10.305665634980882
      ],
      [
        "Ġdirt",
        -10.306088279752403
      ],
      [
        "Ġshoot",
        -10.306384050662608
      ],
      [
        "Ġatoms",
        -10.306577911445888
      ],
      [
        "til",
        -10.30669435713149
      ],
      [
        "Ġincorporate",
        -10.306772924700557
      ],
      [
        "verse",
        -10.307250031145788
      ],
      [
        "Ġcopper",
        -10.307607782150525
      ],
      [
        "Ġride",
        -10.30979525046692
      ],
      [
        "Ġbigger",
        -10.310248827209676
      ],
      [
        "LE",
        -10.310784825841043
      ],
      [
        "ĠTh",
        -10.311034365451754
      ],
      [
        "Ġvariable",
        -10.31133425270668
      ],
      [
        "Ġbegins",
        -10.311395348953988
      ],
      [
        "Ġfamiliar",
        -10.311545625906906
      ],
      [
        "Ġlaborator",
        -10.31175115411772
      ],
      [
        "Ġstudied",
        -10.31196273161072
      ],
      [
        "Ġcluster",
        -10.312551694261124
      ],
      [
        "Ġaesthetic",
        -10.312687994217333
      ],
      [
        "Ġtea",
        -10.31289039890541
      ],
      [
        "Ġtrouble",
        -10.312986431556643
      ],
      [
        "MS",
        -10.313918707353167
      ],
      [
        "ĠBio",
        -10.3142249852821
      ],
      [
        "ear",
        -10.314774761334371
      ],
      [
        "Ġcotton",
        -10.31504769420541
      ],
      [
        "Ġseat",
        -10.3151450332023
      ],
      [
        "ĠCor",
        -10.315872977601156
      ],
      [
        "Ġprobabilit",
        -10.316434836221948
      ],
      [
        "Ġpictures",
        -10.317167498641744
      ],
      [
        "Ġorange",
        -10.317636602922658
      ],
      [
        "ground",
        -10.31819526293656
      ],
      [
        "Ġtoxic",
        -10.319159911788503
      ],
      [
        "test",
        -10.319477572852415
      ],
      [
        "ĠTwo",
        -10.320329242428148
      ],
      [
        "Ġcovers",
        -10.321321492476825
      ],
      [
        "Ġtrail",
        -10.32187021459643
      ],
      [
        "SE",
        -10.322316107202017
      ],
      [
        "Ġcampaign",
        -10.322550808579711
      ],
      [
        "Ġbelief",
        -10.322552973548897
      ],
      [
        "Ġgave",
        -10.322560171010812
      ],
      [
        "ĠJanu",
        -10.322779164925834
      ],
      [
        "Ġsizes",
        -10.323200707542618
      ],
      [
        "Ġexchange",
        -10.32332055514928
      ],
      [
        "Ġinner",
        -10.325062340406893
      ],
      [
        "Ġinterface",
        -10.325082289019
      ],
      [
        "-related",
        -10.325520399596396
      ],
      [
        "Ġminimize",
        -10.325899940243362
      ],
      [
        "Ġmanufacturer",
        -10.325911182056212
      ],
      [
        "New",
        -10.326087300897775
      ],
      [
        "Ġflying",
        -10.32625009157032
      ],
      [
        "Ġcombin",
        -10.32626356061069
      ],
      [
        "-the",
        -10.327358482284078
      ],
      [
        "Ġherb",
        -10.328726680025524
      ],
      [
        "field",
        -10.328815715773851
      ],
      [
        "ĠDis",
        -10.329235223108562
      ],
      [
        "Ġgradual",
        -10.330126459001631
      ],
      [
        "Ġroute",
        -10.33096721670328
      ],
      [
        "Ġdress",
        -10.331015149200104
      ],
      [
        "Ġshapes",
        -10.331182908613094
      ],
      [
        "Ġnorth",
        -10.331705947395026
      ],
      [
        "Ġsouth",
        -10.331816491325114
      ],
      [
        "ĠLearning",
        -10.331972895358009
      ],
      [
        "Ġpin",
        -10.332034418610984
      ],
      [
        "US",
        -10.33227584067679
      ],
      [
        "ĠTHE",
        -10.332282330303483
      ],
      [
        "ĠFebr",
        -10.332536362482251
      ],
      [
        "Ġfather",
        -10.333064403156104
      ],
      [
        "Ġcontract",
        -10.333535975405011
      ],
      [
        "Ġcorresponding",
        -10.33378738177041
      ],
      [
        "Ġrecorded",
        -10.334848231013956
      ],
      [
        "Ġformat",
        -10.334993189923845
      ],
      [
        "Ġshock",
        -10.33524786488746
      ],
      [
        "Ġcoral",
        -10.335286863551277
      ],
      [
        "Ġexpos",
        -10.335668656183543
      ],
      [
        "interested",
        -10.336224790771544
      ],
      [
        "Ġwet",
        -10.336267837876283
      ],
      [
        "Ġcooked",
        -10.336536752281866
      ],
      [
        "tter",
        -10.336741012764772
      ],
      [
        "CO",
        -10.33702797563328
      ],
      [
        "ix",
        -10.337263658271985
      ],
      [
        "Ġtruck",
        -10.33732363785851
      ],
      [
        "ĠFlorid",
        -10.337405272807004
      ],
      [
        "ĠAC",
        -10.337521444187336
      ],
      [
        "Ġsauce",
        -10.33774013496193
      ],
      [
        "Ġmedication",
        -10.337768081787662
      ],
      [
        "cholesterol",
        -10.337813497709329
      ],
      [
        "Ġcalm",
        -10.337931980711442
      ],
      [
        "Ġbreath",
        -10.33803660403528
      ],
      [
        "lip",
        -10.338104749669906
      ],
      [
        "AS",
        -10.338342375698668
      ],
      [
        "Ġspen",
        -10.339613087930667
      ],
      [
        "Ġtrans",
        -10.33965206780541
      ],
      [
        "Ġnet",
        -10.34010401529519
      ],
      [
        "rig",
        -10.340157418019036
      ],
      [
        "ĠCollege",
        -10.340200349563464
      ],
      [
        "Ġconflict",
        -10.340317378000655
      ],
      [
        "Ġinsurance",
        -10.340331514850154
      ],
      [
        "-of",
        -10.341297338349374
      ],
      [
        "ĠBlue",
        -10.341528041721103
      ],
      [
        "uk",
        -10.342013402158187
      ],
      [
        "ular",
        -10.342098223515311
      ],
      [
        "Ġfamous",
        -10.342228268860612
      ],
      [
        "Ġrespective",
        -10.342383453051404
      ],
      [
        "Ġdishe",
        -10.34250209154191
      ],
      [
        "ette",
        -10.343685715869688
      ],
      [
        "Ġupdate",
        -10.343887804935942
      ],
      [
        "Ġcontribution",
        -10.343914470916246
      ],
      [
        "ĠCommon",
        -10.344062312669488
      ],
      [
        "Ġhormone",
        -10.344697141704728
      ],
      [
        "Ġvariet",
        -10.34514865797238
      ],
      [
        "Ġmassive",
        -10.34581605183094
      ],
      [
        "Ġmanager",
        -10.34634905039152
      ],
      [
        "-b",
        -10.346376906769104
      ],
      [
        "ami",
        -10.346856540374516
      ],
      [
        "cat",
        -10.347315349230868
      ],
      [
        "Ġreceiv",
        -10.347975925496458
      ],
      [
        "Ġgift",
        -10.348030406477914
      ],
      [
        "Ġinnovative",
        -10.348036566799292
      ],
      [
        "aff",
        -10.34836880510582
      ],
      [
        "Ġstreet",
        -10.348468711881235
      ],
      [
        "Ġmemor",
        -10.348999998674522
      ],
      [
        "ĠII",
        -10.349475237709868
      ],
      [
        "len",
        -10.349815913825
      ],
      [
        "Ġnurse",
        -10.350159522229166
      ],
      [
        "gram",
        -10.35054485107235
      ],
      [
        "Ġmolecule",
        -10.351311700626315
      ],
      [
        "Ġluck",
        -10.35166871672632
      ],
      [
        "Ġshed",
        -10.351742870838876
      ],
      [
        "Ġvertical",
        -10.351818657310176
      ],
      [
        "ĠPacific",
        -10.352182148520631
      ],
      [
        "Ġtradition",
        -10.352351874755652
      ],
      [
        "Ġprofessionals",
        -10.3527260442299
      ],
      [
        "Ġalter",
        -10.352820854626508
      ],
      [
        "Not",
        -10.353064968435252
      ],
      [
        "most",
        -10.353714454765388
      ],
      [
        "Ġreplac",
        -10.35384439869981
      ],
      [
        "Ġearn",
        -10.353934302083657
      ],
      [
        "Ġnotes",
        -10.354298443641646
      ],
      [
        "Ġrecording",
        -10.354369157983344
      ],
      [
        "OS",
        -10.354721878826426
      ],
      [
        "Ġrear",
        -10.355429028233528
      ],
      [
        "my",
        -10.355442333711368
      ],
      [
        "jo",
        -10.35556362921633
      ],
      [
        "Ġmedications",
        -10.355793174024384
      ],
      [
        "Ġsilver",
        -10.355801570771554
      ],
      [
        "ĠAdd",
        -10.356341866243968
      ],
      [
        "ĠGra",
        -10.356705749113356
      ],
      [
        "Ġca",
        -10.35691855472022
      ],
      [
        "ĠLaw",
        -10.357375410934964
      ],
      [
        "Di",
        -10.357691133734743
      ],
      [
        "Ġmarketing",
        -10.358253796515264
      ],
      [
        "RA",
        -10.358490557181891
      ],
      [
        "body",
        -10.35934653159342
      ],
      [
        "Ġparticipat",
        -10.359453069464704
      ],
      [
        "Ġprocedures",
        -10.359836960935915
      ],
      [
        "Ġisland",
        -10.360361138275223
      ],
      [
        "ĠThrough",
        -10.360905882568115
      ],
      [
        "Ġgrant",
        -10.36117906897043
      ],
      [
        "ĠSha",
        -10.361467203400675
      ],
      [
        "Ġwouldn",
        -10.361767882704283
      ],
      [
        "Ġmutation",
        -10.36210710132875
      ],
      [
        "Ġliver",
        -10.363058823505549
      ],
      [
        "Ġtri",
        -10.363089170886589
      ],
      [
        "Ġchemistry",
        -10.363510648265873
      ],
      [
        "ĠEngland",
        -10.363634670283588
      ],
      [
        "ĠLearn",
        -10.363700505984252
      ],
      [
        "Ġstronger",
        -10.364321193297272
      ],
      [
        "ĠTime",
        -10.36474352082968
      ],
      [
        "Ġnutrient",
        -10.36493379229817
      ],
      [
        "ĠLab",
        -10.365897575238552
      ],
      [
        "ĠAugust",
        -10.36602061655447
      ],
      [
        "Ġfemales",
        -10.36623233323563
      ],
      [
        "Ġriver",
        -10.366415961271976
      ],
      [
        "ĠMon",
        -10.366438983508228
      ],
      [
        "Ġspin",
        -10.36652362766234
      ],
      [
        "-level",
        -10.366816579415104
      ],
      [
        "Ġrecommendation",
        -10.36718388692748
      ],
      [
        "ĠCare",
        -10.368286538244844
      ],
      [
        "Ġopposite",
        -10.368896508913208
      ],
      [
        "Ġhardware",
        -10.369089648817534
      ],
      [
        "ĠFind",
        -10.36960072856862
      ],
      [
        "ĠWill",
        -10.370159267257227
      ],
      [
        "Ġrais",
        -10.370377014562902
      ],
      [
        "Ġpackage",
        -10.37116976663131
      ],
      [
        "Ġshade",
        -10.371289139343356
      ],
      [
        "Ġtile",
        -10.371300567096425
      ],
      [
        "Ġimagine",
        -10.371529272178137
      ],
      [
        "Ġsegment",
        -10.371529340639286
      ],
      [
        "Ġadequate",
        -10.371627572039444
      ],
      [
        "ĠWork",
        -10.37206112438668
      ],
      [
        "Ġyard",
        -10.372190916320411
      ],
      [
        "ĠAct",
        -10.372214488548554
      ],
      [
        "ental",
        -10.372637336250428
      ],
      [
        "Ġbutter",
        -10.372832393106318
      ],
      [
        "accessible",
        -10.37303783702774
      ],
      [
        "Ġspecialist",
        -10.373171307631036
      ],
      [
        "Ġintroduction",
        -10.374255094840638
      ],
      [
        "Ġoven",
        -10.37431656606082
      ],
      [
        "ĠAnimal",
        -10.374490823652668
      ],
      [
        "ĠBook",
        -10.374841087177003
      ],
      [
        "?\"",
        -10.375643265003273
      ],
      [
        "Ġminute",
        -10.37603524953848
      ],
      [
        "ĠNatural",
        -10.376218854852128
      ],
      [
        "uch",
        -10.376452651498647
      ],
      [
        "Ġboil",
        -10.376683925118432
      ],
      [
        "Ġsignificance",
        -10.377123699048816
      ],
      [
        "bit",
        -10.37718067742545
      ],
      [
        "OR",
        -10.377258357987309
      ],
      [
        "Ġwine",
        -10.377673817367898
      ],
      [
        "Ġwor",
        -10.377853686716254
      ],
      [
        "press",
        -10.378401976113585
      ],
      [
        "ĠTe",
        -10.3790528205547
      ],
      [
        "ĠWindow",
        -10.379087078137342
      ],
      [
        "Ġim",
        -10.379195063696471
      ],
      [
        "Ġillustrate",
        -10.379260661356792
      ],
      [
        "Ġwashing",
        -10.37939931146246
      ],
      [
        "Ġho",
        -10.379421967271956
      ],
      [
        "Ġdimension",
        -10.3799079958393
      ],
      [
        "Ġcent",
        -10.380821275821315
      ],
      [
        "Ġobes",
        -10.382174547358892
      ],
      [
        "Ġconventional",
        -10.382208947688158
      ],
      [
        "{",
        -10.382214579725158
      ],
      [
        "ches",
        -10.383238505281092
      ],
      [
        "ĠEn",
        -10.383504581839391
      ],
      [
        "lot",
        -10.383579158966668
      ],
      [
        "Ġgl",
        -10.383835582369858
      ],
      [
        "Ġwearing",
        -10.384065082069068
      ],
      [
        "Ġpose",
        -10.384073736892256
      ],
      [
        "Ġpuppy",
        -10.38483132181627
      ],
      [
        "ache",
        -10.386217072951816
      ],
      [
        "log",
        -10.3863183773114
      ],
      [
        "Ġgather",
        -10.386568651338216
      ],
      [
        "Ġusage",
        -10.387127067679309
      ],
      [
        "Ġframework",
        -10.387671576711153
      ],
      [
        "Ġmild",
        -10.387877042920906
      ],
      [
        "ĠWhite",
        -10.3889837083061
      ],
      [
        "Ġmoon",
        -10.389471619228193
      ],
      [
        "Ġfold",
        -10.38975120529258
      ],
      [
        "Ġdanger",
        -10.38997356212011
      ],
      [
        "Ġprinciple",
        -10.389988388657386
      ],
      [
        "ories",
        -10.390033346976988
      ],
      [
        "Ġretain",
        -10.390196646927842
      ],
      [
        "iz",
        -10.39035647258908
      ],
      [
        "Ġexcept",
        -10.39062587986863
      ],
      [
        "Ġsubstances",
[...]
