{
  "version": "1.0",
  "truncation": null,
  "padding": null,
  "added_tokens": [
    {
      "id": 0,
      "content": "<|bos|>",
      "single_word": false,
      "lstrip": false,
      "rstrip": false,
      "normalized": false,
      "special": true
    },
    {
      "id": 1,
      "content": "<|user_start|>",
      "single_word": false,
      "lstrip": false,
      "rstrip": false,
      "normalized": false,
      "special": true
    },
    {
      "id": 2,
      "content": "<|user_end|>",
      "single_word": false,
      "lstrip": false,
      "rstrip": false,
      "normalized": false,
      "special": true
    },
    {
      "id": 3,
      "content": "<|assistant_start|>",
      "single_word": false,
      "lstrip": false,
      "rstrip": false,
      "normalized": false,
      "special": true
    },
    {
      "id": 4,
      "content": "<|assistant_end|>",
      "single_word": false,
      "lstrip": false,
      "rstrip": false,
      "normalized": false,
      "special": true
    },
    {
      "id": 5,
      "content": "<|python_start|>",
      "single_word": false,
      "lstrip": false,
      "rstrip": false,
      "normalized": false,
      "special": true
    },
    {
      "id": 6,
      "content": "<|python_end|>",
      "single_word": false,
      "lstrip": false,
      "rstrip": false,
      "normalized": false,
      "special": true
    },
    {
      "id": 7,
      "content": "<|output_start|>",
      "single_word": false,
      "lstrip": false,
      "rstrip": false,
      "normalized": false,
      "special": true
    },
    {
      "id": 8,
      "content": "<|output_end|>",
      "single_word": false,
      "lstrip": false,
      "rstrip": false,
      "normalized": false,
      "special": true
    },
    {
      "id": 9,
      "content": "<|unk|>",
      "single_word": false,
      "lstrip": false,
      "rstrip": false,
      "normalized": false,
      "special": true
    }
  ],
  "normalizer": null,
  "pre_tokenizer": {
    "type": "Sequence",
    "pretokenizers": [
      {
        "type": "Split",
        "pattern": {
          "Regex": "'(?i:[sdmt]|ll|ve|re)|[^\\r\\n\\p{L}\\p{N}]?+\\p{L}+|\\p{N}{1,2}| ?[^\\s\\p{L}\\p{N}]++[\\r\\n]*|\\s*[\\r\\n]|\\s+(?!\\S)|\\s+"
        },
        "behavior": "Isolated",
        "invert": false
      },
      {
        "type": "ByteLevel",
        "add_prefix_space": false,
        "trim_offsets": true,
        "use_regex": false
      }
    ]
  },
  "post_processor": {
    "type": "TemplateProcessing",
    "single": [
      {
        "Sequence": {
          "id": "A",
          "type_id": 0
        }
      }
    ],
    "pair": [
      {
        "Sequence": {
          "id": "A",
          "type_id": 0
        }
      },
      {
        "Sequence": {
          "id": "B",
          "type_id": 1
        }
      }
    ],
    "special_tokens": {}
  },
  "decoder": {
    "type": "ByteLevel",
    "add_prefix_space": true,
    "trim_offsets": true,
    "use_regex": true
  },
  "model": {
    "type": "BPE",
    "dropout": null,
    "unk_token": "<|unk|>",
    "continuing_subword_prefix": null,
    "end_of_word_suffix": null,
    "fuse_unk": false,
    "byte_fallback": false,
    "ignore_merges": false,
    "vocab": {
      "<|bos|>": 0,
      "<|user_start|>": 1,
      "<|user_end|>": 2,
      "<|assistant_start|>": 3,
      "<|assistant_end|>": 4,
      "<|python_start|>": 5,
      "<|python_end|>": 6,
      "<|output_start|>": 7,
      "<|output_end|>": 8,
      "<|unk|>": 9,
      "!": 10,
      "\"": 11,
      "#": 12,
      "$": 13,
      "%": 14,
      "&": 15,
      "'": 16,
      "(": 17,
      ")": 18,
      "*": 19,
      "+": 20,
      ",": 21,
      "-": 22,
      ".": 23,
      "/": 24,
      "0": 25,
      "1": 26,
      "2": 27,
      "3": 28,
      "4": 29,
      "5": 30,
      "6": 31,
      "7": 32,
      "8": 33,
      "9": 34,
      ":": 35,
      ";": 36,
      "<": 37,
      "=": 38,
      ">": 39,
      "?": 40,
      "@": 41,
      "A": 42,
      "B": 43,
      "C": 44,
      "D": 45,
      "E": 46,
      "F": 47,
      "G": 48,
      "H": 49,
      "I": 50,
      "J": 51,
      "K": 52,
      "L": 53,
      "M": 54,
      "N": 55,
      "O": 56,
      "P": 57,
      "Q": 58,
      "R": 59,
      "S": 60,
      "T": 61,
      "U": 62,
      "V": 63,
      "W": 64,
      "X": 65,
      "Y": 66,
      "Z": 67,
      "[": 68,
      "\\": 69,
      "]": 70,
      "^": 71,
      "_": 72,
      "`": 73,
      "a": 74,
      "b": 75,
      "c": 76,
      "d": 77,
      "e": 78,
      "f": 79,
      "g": 80,
      "h": 81,
      "i": 82,
      "j": 83,
      "k": 84,
      "l": 85,
      "m": 86,
      "n": 87,
      "o": 88,
      "p": 89,
      "q": 90,
      "r": 91,
      "s": 92,
      "t": 93,
      "u": 94,
      "v": 95,
      "w": 96,
      "x": 97,
      "y": 98,
      "z": 99,
      "{": 100,
      "|": 101,
      "}": 102,
      "~": 103,
      "¡": 104,
      "¢": 105,
      "£": 106,
      "¤": 107,
      "¥": 108,
      "¦": 109,
      "§": 110,
      "¨": 111,
      "©": 112,
      "ª": 113,
      "«": 114,
      "¬": 115,
      "®": 116,
      "¯": 117,
      "°": 118,
      "±": 119,
      "²": 120,
      "³": 121,
      "´": 122,
      "µ": 123,
      "¶": 124,
      "·": 125,
      "¸": 126,
      "¹": 127,
      "º": 128,
      "»": 129,
      "¼": 130,
      "½": 131,
      "¾": 132,
      "¿": 133,
      "À": 134,
      "Á": 135,
      "Â": 136,
      "Ã": 137,
      "Ä": 138,
      "Å": 139,
      "Æ": 140,
      "Ç": 141,
      "È": 142,
      "É": 143,
      "Ê": 144,
      "Ë": 145,
      "Ì": 146,
      "Í": 147,
      "Î": 148,
      "Ï": 149,
      "Ð": 150,
      "Ñ": 151,
      "Ò": 152,
      "Ó": 153,
      "Ô": 154,
      "Õ": 155,
      "Ö": 156,
      "×": 157,
      "Ø": 158,
      "Ù": 159,
      "Ú": 160,
      "Û": 161,
      "Ü": 162,
      "Ý": 163,
      "Þ": 164,
      "ß": 165,
      "à": 166,
      "á": 167,
      "â": 168,
      "ã": 169,
      "ä": 170,
      "å": 171,
      "æ": 172,
      "ç": 173,
      "è": 174,
      "é": 175,
      "ê": 176,
      "ë": 177,
      "ì": 178,
      "í": 179,
      "î": 180,
      "ï": 181,
      "ð": 182,
      "ñ": 183,
      "ò": 184,
      "ó": 185,
      "ô": 186,
      "õ": 187,
      "ö": 188,
      "÷": 189,
      "ø": 190,
      "ù": 191,
      "ú": 192,
      "û": 193,
      "ü": 194,
      "ý": 195,
      "þ": 196,
      "ÿ": 197,
      "Ā": 198,
      "ā": 199,
      "Ă": 200,
      "ă": 201,
      "Ą": 202,
      "ą": 203,
      "Ć": 204,
      "ć": 205,
      "Ĉ": 206,
      "ĉ": 207,
      "Ċ": 208,
      "ċ": 209,
      "Č": 210,
      "č": 211,
      "Ď": 212,
      "ď": 213,
      "Đ": 214,
      "đ": 215,
      "Ē": 216,
      "ē": 217,
      "Ĕ": 218,
      "ĕ": 219,
      "Ė": 220,
      "ė": 221,
      "Ę": 222,
      "ę": 223,
      "Ě": 224,
      "ě": 225,
      "Ĝ": 226,
      "ĝ": 227,
      "Ğ": 228,
      "ğ": 229,
      "Ġ": 230,
      "ġ": 231,
      "Ģ": 232,
      "ģ": 233,
      "Ĥ": 234,
      "ĥ": 235,
      "Ħ": 236,
      "ħ": 237,
      "Ĩ": 238,
      "ĩ": 239,
      "Ī": 240,
      "ī": 241,
      "Ĭ": 242,
      "ĭ": 243,
      "Į": 244,
      "į": 245,
      "İ": 246,
      "ı": 247,
      "Ĳ": 248,
      "ĳ": 249,
      "Ĵ": 250,
      "ĵ": 251,
      "Ķ": 252,
      "ķ": 253,
      "ĸ": 254,
      "Ĺ": 255,
      "ĺ": 256,
      "Ļ": 257,
      "ļ": 258,
      "Ľ": 259,
      "ľ": 260,
      "Ŀ": 261,
      "ŀ": 262,
      "Ł": 263,
      "ł": 264,
      "Ń": 265,
      "à°": 266,
      "à¸": 267,
      "à¤": 268,
      "à±": 269,
      "Ø§": 270,
      "ÙĦ": 271,
      "à¹": 272,
      "Ġà°": 273,
      "Ġà¤": 274,
      "ĠÐ": 275,
      "ÙĬ": 276,
      "à¥": 277,
      "ĠØ": 278,
      "Ø§ÙĦ": 279,
      "Ùħ": 280,
      "à±į": 281,
      "Ð¾": 282,
      "ÙĪ": 283,
      "à°¿": 284,
      "ÙĨ": 285,
      "à±įà°": 286,
      "ĠØ§ÙĦ": 287,
      "Ðµ": 288,
      "à°¾": 289,
      "Ð°": 290,
      "à±ģ": 291,
      "Ø§Ø": 292,
      "Ð¸": 293,
      "ÑĤ": 294,
      "à°¾à°": 295,
      "à¸²": 296,
      "Ø±": 297,
      "Ð½": 298,
      "à°¿à°": 299,
      "Ñģ": 300,
      "an": 301,
      "à¸²à¸": 302,
      "Ùĩ": 303,
      "ÑĢ": 304,
      "Ð¾Ð": 305,
      "Ø©": 306,
      "ĠØ§ÙĦØ": 307,
      "in": 308,
      "Ä±": 309,
      "à¸Ļ": 310,
      "Ùģ": 311,
      "à¤¾": 312,
      "à°Ĥ": 313,
      "er": 314,
      "en": 315,
      "Øª": 316,
      "à¹Ī": 317,
      "à¸Ń": 318,
      "Ġk": 319,
      "Ø¯": 320,
      "ÙĤ": 321,
      "ar": 322,
      "ĠÙĪ": 323,
      "à±ģà°": 324,
      "Ġd": 325,
      "Ùĥ": 326,
      "Ġt": 327,
      "à¥ĩ": 328,
      "à¸£": 329,
      "à¹Ģ": 330,
      "Ð»": 331,
      "à¹ī": 332,
      "es": 333,
      "à¸ģ": 334,
      "Ø¹": 335,
      "on": 336,
      "Ø¨": 337,
      "Ġs": 338,
      "à¤°": 339,
      "ĠÙħ": 340,
      "Ġa": 341,
      "à°¨": 342,
      "wa": 343,
      "li": 344,
      "Ġm": 345,
      "à¸ĩ": 346,
      "à¸±": 347,
      "à¸¡": 348,
      "à°°": 349,
      "à±ĩ": 350,
      "Ø³": 351,
      "at": 352,
      "Ñĥ": 353,
      ".Ċ": 354,
      "Ġb": 355,
      "à¹Ģà¸": 356,
      "à±ĭ": 357,
      "le": 358,
      "à¸µ": 359,
      "Ðº": 360,
      "Ġn": 361,
      "Ġà¤ķ": 362,
      "à¥į": 363,
      "à°²": 364,
      "Ġy": 365,
      "à¤¾à¤": 366,
      "is": 367,
      "Ġp": 368,
      "à¸§": 369,
      "à°¦": 370,
      "Ñı": 371,
      "à¥Ģ": 372,
      "Ñĭ": 373,
      "âĢ": 374,
      "à¤¿": 375,
      "Ð¼": 376,
      "Ġh": 377,
      "à¸Ķ": 378,
      "à¸¥": 379,
      "ĠØ¨": 380,
      "la": 381,
      "Ð²": 382,
      "à°ķ": 383,
      "Ġc": 384,
      "or": 385,
      "à¸¢": 386,
      "ĠÙģ": 387,
      "ØŃ": 388,
      "it": 389,
      "à¤Ĥ": 390,
      "à¥įà¤": 391,
      "ĠÐ¿": 392,
      "ï¼": 393,
      "ir": 394,
      "ÑĮ": 395,
      "à¸´": 396,
      "à¸Ĺ": 397,
      "ur": 398,
      "ä¸": 399,
      "ĠØ£": 400,
      "un": 401,
      "ĠÙĦ": 402,
      "ĠØ¹": 403,
      "Ã©": 404,
      "Ġà°ª": 405,
      "Ã¼": 406,
      "Ð´": 407,
      "à¤¿à¤": 408,
      "à°Ĥà°": 409,
      "à¸ļ": 410,
      "Ùī": 411,
      "à¸°": 412,
      "ÑģÑĤ": 413,
      "à¸ķ": 414,
      "à¸ª": 415,
      "à±Ģ": 416,
      "am": 417,
      "ÙĬØ©": 418,
      "et": 419,
      "Ø¬": 420,
      "ĠØ§ÙĦÙħ": 421,
      "ÅŁ": 422,
      "ĠÐ²": 423,
      "Ġo": 424,
      "he": 425,
      "à¥ĭ": 426,
      "ï¼Į": 427,
      "à¸«": 428,
      "à±Ĩ": 429,
      "ak": 430,
      "à¸Ħ": 431,
      "Ġà°µ": 432,
      "Ñĩ": 433,
      "Ø§ÙĨ": 434,
      "à±įà°°": 435,
      "as": 436,
      "Ġà°ķ": 437,
      "Ġv": 438,
      "à°¾à°°": 439,
      "çļ": 440,
      "al": 441,
      "çļĦ": 442,
      "à¹ģ": 443,
      "ĠØª": 444,
      "ĠÑģ": 445,
      "Ø§Øª": 446,
      "à°¡": 447,
      "à¤¨": 448,
      "ĠÙĬ": 449,
      "Ġà°ħ": 450,
      "ÐµÐ½": 451,
      "à°®": 452,
      "Ġf": 453,
      "ĠÐ½": 454,
      "Ġwa": 455,
      "Ġà°®": 456,
      "il": 457,
      "Ġde": 458,
      "ĠÙģÙĬ": 459,
      "à°¤": 460,
      "re": 461,
      "Ġku": 462,
      "ĠÙħÙĨ": 463,
      "à°¸": 464,
      "Ġya": 465,
      "ĠÐ¸": 466,
      "à°Ł": 467,
      "Ġg": 468,
      "ãĢ": 469,
      "Ġà°¸": 470,
      "ik": 471,
      "à¹Ħ": 472,
      "ÑĢÐ°": 473,
      "Øµ": 474,
      "Ġà¤¹": 475,
      "Ġà¤¸": 476,
      "à¸Ī": 477,
      "us": 478,
      "Ġ(": 479,
      "Ð·": 480,
      "à¹ĥ": 481,
      "ØĮ": 482,
      "el": 483,
      "Ã§": 484,
      "ÙĬÙĨ": 485,
      "à°µ": 486,
      "im": 487,
      "à¤ķ": 488,
      "Ø·": 489,
      "Ð¾Ð²": 490,
      "Ä±n": 491,
      "ed": 492,
      "à±įà°¨": 493,
      "à°ļ": 494,
      "ad": 495,
      "ent": 496,
      "à¸Ľ": 497,
      "Ġthe": 498,
      "à°¿à°Ĥ": 499,
      "ĠÐ¾": 500,
      "Ñħ": 501,
      "om": 502,
      "à¸²à¸£": 503,
      "à¸·": 504,
      "ĠM": 505,
      "Ø°": 506,
      "à°ª": 507,
      "à°¾à°²": 508,
      "Ġw": 509,
      "à¸Ńà¸ĩ": 510,
      "à±Ĥ": 511,
      "Ø§Ø±": 512,
      "Ġà°ļ": 513,
      "Ø§Ùħ": 514,
      "ÄŁ": 515,
      "..": 516,
      "em": 517,
      "ion": 518,
      "à¤¤": 519,
      "Ð¿": 520,
      "Ġna": 521,
      "ut": 522,
      "äº": 523,
      "ÙĦÙī": 524,
      "Ø£": 525,
      "ing": 526,
      "Ġà°¨": 527,
      "à¸µà¹Ī": 528,
      "à±įà°¯": 529,
      "Ġan": 530,
      "Ð¹": 531,
      "Ø¶": 532,
      "ÙĩØ§": 533,
      "Ġà¤®": 534,
      "Ø´": 535,
      "Ġl": 536,
      "à¸¸": 537,
      "à±įà°¤": 538,
      "Ø®": 539,
      "à°¯": 540,
      "ek": 541,
      "à¤¹": 542,
      "ÑĢÐµ": 543,
      "ĠÐº": 544,
      "um": 545,
      "à¹ĩ": 546,
      "à¤¸": 547,
      "ĠA": 548,
      "à¸¹": 549,
      "ay": 550,
      "à¸Ĥ": 551,
      "à°¾à°¨": 552,
      "à¥Ī": 553,
      "ĠS": 554,
      "ĠÙĪØ§ÙĦ": 555,
      "âĢĻ": 556,
      "ĠÙĥ": 557,
      "Ġi": 558,
      "Ð±": 559,
      "ãĢĤ": 560,
      "à±įà°²": 561,
      "Ġin": 562,
      "æľ": 563,
      "Ùİ": 564,
      "ic": 565,
      "Ġà¤ª": 566,
      "à°¿à°ķ": 567,
      "lar": 568,
      "à°¿à°¨": 569,
      "à¥ģ": 570,
      "qu": 571,
      "ha": 572,
      "Ð³": 573,
      "ä»": 574,
      "ro": 575,
      "Ø«": 576,
      "Ġà°¤": 577,
      "ĠØ¥": 578,
      "à¸ŀ": 579,
      "Ð¾Ð»": 580,
      "ĠÐ´": 581,
      "ÐµÑĤ": 582,
      "Ã¶": 583,
      "Ñİ": 584,
      "à¹Į": 585,
      "Ø²": 586,
      "ĠØ§ÙĦØª": 587,
      "Ġto": 588,
      "Ð½Ð¸": 589,
      "à±ģà°²": 590,
      "à¸³": 591,
      "åı": 592,
      "à¤²": 593,
      "de": 594,
      "ĠB": 595,
      "Ø§Ø¨": 596,
      "à°Ĺ": 597,
      "ili": 598,
      "ÙĪÙĦ": 599,
      "Ð»Ð¸": 600,
      "Ð¾Ð¼": 601,
      "ÑĤÐ¾": 602,
      "à¹Īà¸²à¸": 603,
      "ot": 604,
      "ÙĪÙĨ": 605,
      "à±įà°Ł": 606,
      "ĠÐ¼": 607,
      "ĠÙĩ": 608,
      "ÙĬØ±": 609,
      "à±Ĭ": 610,
      "ab": 611,
      "Ð¾Ð´": 612,
      "à¸ģà¸²à¸£": 613,
      "ÑĤÐµ": 614,
      "Ð½Ñĭ": 615,
      "ÑĪ": 616,
      "à¸Ĭ": 617,
      "Ø§Ø³": 618,
      "à±Ī": 619,
      "Ġla": 620,
      "ĠT": 621,
      "Ð½Ð¾": 622,
      "Ø§Ø¯": 623,
      "à¤®": 624,
      "da": 625,
      "ÑĢÐ¸": 626,
      "ĠØŃ": 627,
      "ĠØ§ÙĦØ¹": 628,
      "Ġr": 629,
      "za": 630,
      "ĠÐ½Ð°": 631,
      "ia": 632,
      "Ø§Ø¡": 633,
      "å¤": 634,
      "ĠC": 635,
      "20": 636,
      "ÙĦÙĬ": 637,
      "åħ": 638,
      "à¥ĩà¤Ĥ": 639,
      "à¸²à¸¡": 640,
      "Ð¶": 641,
      "ler": 642,
      "ch": 643,
      "Ð¾Ð³": 644,
      "ÑĨ": 645,
      "à¹Ĥ": 646,
      "à±ģà°Ĥ": 647,
      "à±ģà°ķ": 648,
      "iz": 649,
      "Ġà°°": 650,
      "ĠÙĤ": 651,
      "ÑĤÑĮ": 652,
      "à±ģà°¨": 653,
      "Ġof": 654,
      "åľ": 655,
      "Ġu": 656,
      "à¤¾à¤°": 657,
      "ĠØ¹ÙĦÙī": 658,
      "à¸£à¸°": 659,
      "ĠØ§ÙĦØ£": 660,
      "Ġà°Ĩ": 661,
      "ĠK": 662,
      "ĠØĮ": 663,
      "ĠÐ±": 664,
      "ĠÙĨ": 665,
      "ÙĩÙħ": 666,
      "ul": 667,
      "à¥¤": 668,
      "ce": 669,
      "æĺ": 670,
      "ĠâĢ": 671,
      "à¥įà¤°": 672,
      "Ġve": 673,
      "à±ģ.": 674,
      "Ġà¤¬": 675,
      "Ġand": 676,
      "Ø±ÙĬ": 677,
      "å°": 678,
      "ok": 679,
      "à°¿.": 680,
      "Ġkwa": 681,
      "di": 682,
      "Ð»Ð°": 683,
      "ĠØ³": 684,
      "Ð½Ð°": 685,
      "ä½": 686,
      "Ġà¤ľ": 687,
      "à¸±à¸ļ": 688,
      "ĠØ£ÙĨ": 689,
      "à¸±à¸Ļ": 690,
      "Ð¾Ð¹": 691,
      "Ùĭ": 692,
      "à¹ģà¸¥": 693,
      "ĠI": 694,
      "ÐµÐ½Ð¸": 695,
      "Ø§Ø¹": 696,
      "Ġà¤¨": 697,
      "os": 698,
      "à±įà°ª": 699,
      "Ġet": 700,
      "à¹Ģà¸Ľ": 701,
      "à¸²à¸ģ": 702,
      "ĠP": 703,
      "Ø§Ø¦": 704,
      "Øº": 705,
      "åĪ": 706,
      "å®": 707,
      "Ġma": 708,
      "ÐµÑĢ": 709,
      "ÑĤÐ°": 710,
      "æĪ": 711,
      "à¤ª": 712,
      "Ġà°¦": 713,
      "ĠH": 714,
      "Ġà°ī": 715,
      "Ä±r": 716,
      "à¸¶": 717,
      "ana": 718,
      "ÙĦÙħ": 719,
      "ika": 720,
      "ct": 721,
      "à±įà°ķ": 722,
      "à¹īà¸²à¸": 723,
      "Ð»ÑĮ": 724,
      "à¹ĩà¸Ļ": 725,
      "à¤Ĺ": 726,
      "ĠÃ": 727,
      "Ġth": 728,
      "Ġà¤ħ": 729,
      "Ġe": 730,
      "ä¸Ģ": 731,
      "est": 732,
      "ÑģÐº": 733,
      "our": 734,
      "Ġle": 735,
      "çĶ": 736,
      "iv": 737,
      "ol": 738,
      "Ġà°²": 739,
      "ĠÐ½Ðµ": 740,
      "Ġà¤¦": 741,
      "Ġbir": 742,
      "ÙħØ§": 743,
      "ap": 744,
      "Ġun": 745,
      "æĺ¯": 746,
      "à±įà°µ": 747,
      "ÑĢÐ¾": 748,
      "åĲ": 749,
      "Ġqu": 750,
      "ĠØ§ÙĦØŃ": 751,
      "Ġj": 752,
      "à¸ĸ": 753,
      "à¸·à¹Ī": 754,
      "ation": 755,
      "iy": 756,
      "ÙĨØ§": 757,
      "ĠD": 758,
      "Ġà°ĩ": 759,
      "Ġà°¬": 760,
      "ĠÑĥ": 761,
      "à¤¦": 762,
      "ÙĪØ±": 763,
      "ÑģÑı": 764,
      "à¸·à¸Ń": 765,
      "Ø¸": 766,
      "Ġà°Ĺ": 767,
      "à¸ľ": 768,
      "Ñī": 769,
      "à¹ĥà¸Ļ": 770,
      "Ġen": 771,
      "à¸²à¸¢": 772,
      "hi": 773,
      "Ġà¤²": 774,
      "Ġà¤µ": 775,
      "ĠÑ": 776,
      "à±įà°ļ": 777,
      "lan": 778,
      "ĠØ¬": 779,
      "è¿": 780,
      "à°¾à°¯": 781,
      "id": 782,
      "Ġ\"": 783,
      "à¥ĭà¤Ĥ": 784,
      "te": 785,
      "ĠÐ·": 786,
      "Ð²Ð°": 787,
      "ĠÑĩ": 788,
      "az": 789,
      "ÙĦØ§": 790,
      "ini": 791,
      "à¤µ": 792,
      "ou": 793,
      "me": 794,
      "ra": 795,
      "à¹ĥà¸«": 796,
      "à¥Ĥ": 797,
      "à°¿à°¤": 798,
      "ine": 799,
      "ĠÐ¿Ð¾": 800,
      "ĠL": 801,
      "ÙĦÙĥ": 802,
      "Ġ-": 803,
      "ÐºÐ°": 804,
      "ÙĪÙħ": 805,
      "à°Ĥà°Ĺ": 806,
      "à°Ĥà°¦": 807,
      "à¸µà¸¢": 808,
      "ya": 809,
      "Ġre": 810,
      "Ùĳ": 811,
      "ba": 812,
      "âĢĿ": 813,
      "Ø°Ø§": 814,
      "Ġà¤°": 815,
      "ä¹": 816,
      "ĠØ¹ÙĨ": 817,
      "à¹Ħà¸Ķ": 818,
      "ÐµÐ¼": 819,
      "ĠÃ§": 820,
      "ÙĬØ¯": 821,
      "ÑĤÐ¸": 822,
      "à¸±à¸ĩ": 823,
      "Ġ:": 824,
      "ĠW": 825,
      "à¹ģà¸¥à¸°": 826,
      "st": 827,
      "à¸Ńà¸¢": 828,
      "æĸ": 829,
      "à¤¾à¤¨": 830,
      "à±įà°¸": 831,
      "ĠØ±": 832,
      "ĠØ¨Ø§ÙĦ": 833,
      "Ġis": 834,
      "Ø§ØŃ": 835,
      "ta": 836,
      "ib": 837,
      "ĠØ§ÙĦØ³": 838,
      "ig": 839,
      "ĠN": 840,
      "ÙĦÙĩ": 841,
      "uk": 842,
      "if": 843,
      "à±ĩà°¸": 844,
      "à¸±à¹ī": 845,
      "à°¿à°²": 846,
      "åľ¨": 847,
      "à¥įà¤¯": 848,
      "ye": 849,
      "æľī": 850,
      "ĠE": 851,
      "à°¿à°¯": 852,
      "ers": 853,
      "ÙĲ": 854,
      "Ġà°İ": 855,
      "å¾": 856,
      "à°¬": 857,
      "ĠØ§ÙĦÙĨ": 858,
      "ĠØ§ÙĦÙĤ": 859,
      "ĠÐ³": 860,
      "Ø§ÙĤ": 861,
      "ĠØ¯": 862,
      "à¸Ħà¸§": 863,
      "ĠR": 864,
      "Ð¼Ð¸": 865,
      "à°¿à°¸": 866,
      "av": 867,
      "lÄ±": 868,
      "Ġà°ħà°¨": 869,
      "ge": 870,
      "ĠF": 871,
      "Ġon": 872,
      "à±ĩà°": 873,
      "à¸Ĥà¸Ńà¸ĩ": 874,
      "à°Ĥà°Ł": 875,
      "Ð¾Ð³Ð¾": 876,
      "Ġar": 877,
      "Ð¾Ð±": 878,
      "ant": 879,
      "Ġà¤¤": 880,
      "ĠØ´": 881,
      "Ø§Ùģ": 882,
      "Ø¥": 883,
      "Ã¼n": 884,
      "ĠG": 885,
      "Ø³Øª": 886,
      "åĬ": 887,
      "Ġà¤ī": 888,
      "à¤¯": 889,
      "ä¸į": 890,
      "Ġà¤Ĩ": 891,
      "Ð»Ñı": 892,
      "ĠÙĦÙĦ": 893,
      "à¹Ģà¸£": 894,
      "Ùı": 895,
      "Ð¾ÑĢ": 896,
      "we": 897,
      "åį": 898,
      "19": 899,
      "Ð´Ð°": 900,
      "à¸²à¸Ļ": 901,
      "à°¾à°¡": 902,
      "à¤¿à¤¯": 903,
      "à±ģà°¤": 904,
      "Ġz": 905,
      "à°Ĥà°¤": 906,
      "à¸ĵ": 907,
      "Ġse": 908,
      "ani": 909,
      "à¥ĩà¤": 910,
      "ĠØ§ÙĦØ¯": 911,
      "ĠÃł": 912,
      "Ġbe": 913,
      "lik": 914,
      "ĠÑĢÐ°": 915,
      "ĠØ§ÙĦØ¨": 916,
      "gu": 917,
      "Ġà°ľ": 918,
      "Ð»Ðµ": 919,
      "ĠØ®": 920,
      "Ø§Ø¬": 921,
      "ÑĢÑĥ": 922,
      "ĠØ§ÙĦØ¥": 923,
      "Ġdes": 924,
      "ĠÙħØ¹": 925,
      "éĢ": 926,
      "à¹Ħà¸¡": 927,
      "ter": 928,
      "ØªÙħ": 929,
      "Ġà¤ķà¤°": 930,
      "à°¾à°Ĥ": 931,
      "Ä°": 932,
      "Ġam": 933,
      "ĠØ§ÙĦØ¬": 934,
      "ĠÐ·Ð°": 935,
      "Ġcon": 936,
      "ÑĨÐ¸": 937,
      "ÐºÐ¸": 938,
      "äºº": 939,
      "à¤¬": 940,
      "Ġles": 941,
      "ÙĤØ¯": 942,
      "à°¿à°Ĺ": 943,
      "à°¹": 944,
      "Ġpro": 945,
      "à¸Ħà¸§à¸²à¸¡": 946,
      "ĠÑĤ": 947,
      "Ġkat": 948,
      "à¤¼": 949,
      "ans": 950,
      "à¹īà¸§": 951,
      "à¸±à¸ģ": 952,
      "äºĨ": 953,
      "Ġni": 954,
      "Ġal": 955,
      "Ķà¤°": 956,
      "Ð¾Ð¶": 957,
      "à¥ģà¤": 958,
      "Ġol": 959,
      "ÑģÑĤÐ°": 960,
      "Ä±m": 961,
      "åĽ": 962,
      "ĠØ¥ÙĦÙī": 963,
      "å¥": 964,
      "æī": 965,
      "à±įà°®": 966,
      "ĠÑį": 967,
      "op": 968,
      "ali": 969,
      "Ġà¤Ķà¤°": 970,
      "Ð¾Ð²Ð°": 971,
      "Ð²Ð¸": 972,
      "à¹Ģà¸ŀ": 973,
      "Ø¨ÙĬ": 974,
      "à¸ĺ": 975,
      "ÙħÙĨ": 976,
      "Ġpar": 977,
      "Ġfor": 978,
      "åŃ": 979,
      "end": 980,
      "ĠÐ»": 981,
      "ãĢĤĊ": 982,
      "ip": 983,
      "à±ģà°¡": 984,
      "ow": 985,
      "à°ľ": 986,
      "à°¿à°ª": 987,
      "zi": 988,
      "à¸Īà¸°": 989,
      "ĠU": 990,
      "10": 991,
      "ama": 992,
      "ess": 993,
      "ĠÐ°": 994,
      "Ġà¤ĩ": 995,
      "ĠØµ": 996,
      "Ã¨": 997,
      "å¹": 998,
      "ie": 999,
      "è®": 1000,
      "à°¾à°¤": 1001,
      "à±ģà°Ĺ": 1002,
      "Ø±Ø©": 1003,
      "à¸Ńà¸Ļ": 1004,
      "à±Ĩà°²": 1005,
      "ÙĬÙħ": 1006,
      "à¸¨": 1007,
      "à¹Īà¸²à¸ĩ": 1008,
      "ÙĴ": 1009,
      "à¤ľ": 1010,
      "ÐµÐ¹": 1011,
      "Ġà¤Ĺ": 1012,
      "ÙĦØ©": 1013,
      "à¸´à¸Ķ": 1014,
      "à¸ł": 1015,
      "Ġcom": 1016,
      "and": 1017,
      "Ä±ÅŁ": 1018,
      "ac": 1019,
      "du": 1020,
      "ĠØ§ÙĦØ´": 1021,
      "à¸Ľà¸£à¸°": 1022,
      "Ġza": 1023,
      "Ø¹Ø¯": 1024,
      "à°¿à°°": 1025,
      "è¯": 1026,
      "æĹ": 1027,
      "ĠÐ¾ÑĤ": 1028,
      "à¸«à¸Ļ": 1029,
      "Ġsa": 1030,
      "ÙĢ": 1031,
      "Ð¾Ð½": 1032,
      "à°£": 1033,
      "ist": 1034,
      "à¥Īà¤Ĥ": 1035,
      "Ġau": 1036,
      "ĠO": 1037,
      "Ð¾Ðº": 1038,
      "ĠÂ": 1039,
      "ÙĪØ§": 1040,
      "ĠØ§ÙĦÙĥ": 1041,
      "Ġà¤Ń": 1042,
      "à¸ĭ": 1043,
      "à¸į": 1044,
      "ĠÐ¿ÑĢÐ¸": 1045,
      "à±Ĩà°Ĥ": 1046,
      "ĠØ§ÙĦØªÙĬ": 1047,
      "ä¼": 1048,
      "à±Īà°¨": 1049,
      "Ø¦": 1050,
      "à¸µà¹ī": 1051,
      "à°¾à°Ł": 1052,
      "à°Ĥà°²": 1053,
      "ĠÐºÐ°": 1054,
      "æĪĳ": 1055,
      "à¸²à¸ĩ": 1056,
      "Ġà°Ń": 1057,
      "à¸¹à¹ī": 1058,
      "ĠJ": 1059,
      "Ã¼r": 1060,
      "ĠØ§ÙĦÙģ": 1061,
      "Ø±Ø¨": 1062,
      "Ġà°Ī": 1063,
      "Ġch": 1064,
      "ous": 1065,
      "Ø¤": 1066,
      "Ð¾Ð»ÑĮ": 1067,
      "Ä±l": 1068,
      "à±ģà°µ": 1069,
      "à¤¡": 1070,
      "à¹Ħà¸Ľ": 1071,
      "ĠÃ¶": 1072,
      "ĠÙĪØª": 1073,
      "à¹Ģà¸ģ": 1074,
      "ĠâĢľ": 1075,
      "ĥ½": 1076,
      "ĠØ£ÙĪ": 1077,
      "ĠØ§ÙĨ": 1078,
      "ãĢģ": 1079,
      "Ġà¤¯": 1080,
      "ÑģÑĤÐ¸": 1081,
      "Ġà¤ªà¤°": 1082,
      "åº": 1083,
      "Ġdu": 1084,
      "ve": 1085,
      "à°¾à°ķ": 1086,
      "Ġkatika": 1087,
      "Ä±k": 1088,
      "ÙĪØ¯": 1089,
      "ÑĦ": 1090,
      "ç»": 1091,
      "Ø¨Ø±": 1092,
      "ĠÙĦØ§": 1093,
      "à¹īà¸Ńà¸ĩ": 1094,
      "ĠØ§ÙĦØ°": 1095,
      "à¸Ńà¸ģ": 1096,
      "Ġba": 1097,
      "Ø§Ø³Øª": 1098,
      "åĴ": 1099,
      "Ġ.Ċ": 1100,
      "è¦": 1101,
      ":Ċ": 1102,
      "ÑģÑĤÐ²": 1103,
      "à¤¿à¤ķ": 1104,
      "à¤Ł": 1105,
      "ĠÐµ": 1106,
      "ne": 1107,
      "ort": 1108,
      "ĠiÃ§": 1109,
      "ĠÐ¾Ð±": 1110,
      "à¸´à¸Ļ": 1111,
      "af": 1112,
      "Ġas": 1113,
      "à±ģà°°": 1114,
      "ver": 1115,
      "oc": 1116,
      "ly": 1117,
      "ÙħÙĦ": 1118,
      "ĠY": 1119,
      "ÙĥÙĨ": 1120,
      "å·": 1121,
      "æĿ": 1122,
      "à¸Ħà¸£": 1123,
      "ma": 1124,
      "iÅŁ": 1125,
      "Ø°Ùĩ": 1126,
      "Ð¾Ñģ": 1127,
      "ä¸Ń": 1128,
      "à°§": 1129,
      "Ġson": 1130,
      "ere": 1131,
      "ÑĩÐ¸": 1132,
      "Ð´Ðµ": 1133,
      "à¥įà¤¤": 1134,
      "è¡": 1135,
      "èĢ": 1136,
      "à°Ĥà°¡": 1137,
      "up": 1138,
      "Ġà°®à°°": 1139,
      "ÑĩÐµ": 1140,
      "Ġli": 1141,
      "Ð³Ð¾": 1142,
      "Ġpr": 1143,
      "éģ": 1144,
      "yo": 1145,
      "ĠØ°": 1146,
      "å¸": 1147,
      "ÙĬØ§": 1148,
      "ĠÐĴ": 1149,
      "ØŃØ¯": 1150,
      "à¸©": 1151,
      "å¤§": 1152,
      "ja": 1153,
      "ĠÙħØ§": 1154,
      "à¹Īà¸§": 1155,
      "à°¿à°µ": 1156,
      "åĴĮ": 1157,
      "Ð¾Ð·": 1158,
      "ire": 1159,
      "ĠØ§ÙĦÙĦÙĩ": 1160,
      "à¹Ģà¸¥": 1161,
      "12": 1162,
      "å¼": 1163,
      "--": 1164,
      "à±įà°·": 1165,
      "ÑĩÐ°": 1166,
      "Ġne": 1167,
      "Ø§Øµ": 1168,
      "ØªÙĩ": 1169,
      "ji": 1170,
      "Ġda": 1171,
      "à±ģ,": 1172,
      "ĠØ§ÙĦØ±": 1173,
      "ÙģÙĬ": 1174,
      "Ġst": 1175,
      "à¤¾à¤²": 1176,
      "ÐµÐ½Ð¸Ñı": 1177,
      "à¤ļ": 1178,
      "ĠÐ²Ñĭ": 1179,
      "Ġà°Ĵ": 1180,
      "ĠØ§ÙĦÙĪ": 1181,
      "ĠØ§ÙĦØ®": 1182,
      "çļĦæ": 1183,
      "ang": 1184,
      "ke": 1185,
      "ĠgÃ¶": 1186,
      "Ð¼Ð°": 1187,
      "ä»¥": 1188,
      "Ġà¤ļ": 1189,
      "Ð·Ð°": 1190,
      "à±ĩà°¦": 1191,
      "ĠÙĥØ§ÙĨ": 1192,
      "à°¾à°Ĺ": 1193,
      "ĠØ§ÙĦØµ": 1194,
      "à¹Īà¸²": 1195,
      "à°¾à°®": 1196,
      "Ø¹Ø©": 1197,
      "à¸«à¸¥": 1198,
      ")Ċ": 1199,
      "ind": 1200,
      "og": 1201,
      "ÙĤØ©": 1202,
      "ment": 1203,
      "ä»ĸ": 1204,
      "Ġit": 1205,
      "à°¾à°µ": 1206,
      "éĩ": 1207,
      "à±Ĥà°¡": 1208,
      "...": 1209,
      "uwa": 1210,
      "Ã¼z": 1211,
      "à¹Ĩ": 1212,
      "ÙĬÙĦ": 1213,
      "Ã©s": 1214,
      "Ä±z": 1215,
      "à°¾à°¦": 1216,
      "ake": 1217,
      "Ġat": 1218,
      "à°³": 1219,
      "Ð¾ÑĤ": 1220,
      "à±įà°¦": 1221,
      "Ġà°¶": 1222,
      "çī": 1223,
      "ÑĢÑĭ": 1224,
      "ĠØ§": 1225,
      "ub": 1226,
      "Ð´Ð¸": 1227,
      "à¸Ĺà¸³": 1228,
      "Ġà°¯": 1229,
      "ith": 1230,
      "ĠØ·": 1231,
      "à¤¾à¤¤": 1232,
      "à¸«à¸£": 1233,
      "Ø§Ø·": 1234,
      "åı¯": 1235,
      "åĢ": 1236,
      "à¹Ģà¸«": 1237,
      "ile": 1238,
      "à¸¡à¸²à¸": 1239,
      "ĠÐ±Ñĭ": 1240,
      "à¸£à¸£": 1241,
      "çĽ": 1242,
      "larÄ±n": 1243,
      "Ð½Ðµ": 1244,
      "ĠÐ¿ÑĢÐ¾": 1245,
      "åĩ": 1246,
      "åĪ°": 1247,
      "ari": 1248,
      "Ġkuwa": 1249,
      "ĠÙĩØ°Ø§": 1250,
      "à°¾à°¸": 1251,
      "bo": 1252,
      "ÙħØ©": 1253,
      "enye": 1254,
      "se": 1255,
      "ÑģÐ¸": 1256,
      "å¯": 1257,
      "à¹Ģà¸Ĥ": 1258,
      "ĠV": 1259,
      "à±įà°¥": 1260,
      "Ġà¤¶": 1261,
      "ĠÂ«": 1262,
      "Ġà¤ı": 1263,
      "ĠÃ©": 1264,
      "à¸±à¸Ķ": 1265,
      "Ø¨Ø©": 1266,
      "Ġor": 1267,
      "Ø³ÙĬ": 1268,
      "Ø±ÙĪ": 1269,
      "ÙĦØ§Ùħ": 1270,
      "æŃ": 1271,
      "Ġthat": 1272,
      "Ð¾Ð¿": 1273,
      "æķ": 1274,
      "ä¸Ĭ": 1275,
      "Ġà°¹": 1276,
      "à¥Īà¥¤": 1277,
      "Ġyap": 1278,
      "Ø±Ùĥ": 1279,
      "ata": 1280,
      "ard": 1281,
      "Ġkut": 1282,
      "Ð½Ð¾Ð¹": 1283,
      "ĠØ¹ÙĦÙĬ": 1284,
      "à¸ģà¸¥": 1285,
      "à°¿à°®": 1286,
      "lam": 1287,
      "ĠÑĩÑĤÐ¾": 1288,
      "ey": 1289,
      "à±ĭà°¨": 1290,
      "æĬ": 1291,
      "ĠÐ¡": 1292,
      "à¸Īà¸²à¸ģ": 1293,
      "à¤¿à¤¤": 1294,
      "ada": 1295,
      "ä¾": 1296,
      "Ø§Ùĩ": 1297,
      "Ø£ÙĨ": 1298,
      "Ġbu": 1299,
      "à±ĩà°¶": 1300,
      "Ġpour": 1301,
      "Ð½ÑĭÑħ": 1302,
      "ate": 1303,
      "ah": 1304,
      "Ġ.": 1305,
      "à¹Ģà¸Ķ": 1306,
      "ĠÐŁ": 1307,
      "à¸¹à¹Ī": 1308,
      "ement": 1309,
      "Ø§Ø®": 1310,
      "ÑĪÐ¸": 1311,
      "th": 1312,
      "dan": 1313,
      "00": 1314,
      "à°¿,": 1315,
      "Ġà°Ĵà°ķ": 1316,
      "ara": 1317,
      "Ġwh": 1318,
      "inde": 1319,
      "à¹Ģà¸Ĺ": 1320,
      "à¥įà¤Ł": 1321,
      "ĠÐ¸Ð·": 1322,
      "à¹ģà¸ķ": 1323,
      "od": 1324,
      "isha": 1325,
      "11": 1326,
      "à°Ń": 1327,
      "æĶ": 1328,
      "à¸±à¸§": 1329,
      "Ġà°ı": 1330,
      "ĠØ§ÙĦØ·": 1331,
      "ema": 1332,
      "?Ċ": 1333,
      "æĢ": 1334,
      "à¸ķà¸£": 1335,
      "Ø±Ùģ": 1336,
      "que": 1337,
      "tu": 1338,
      "ĠØº": 1339,
      "à±ĥ": 1340,
      "ÙħØ±": 1341,
      "à°·": 1342,
      "ht": 1343,
      "èĩ": 1344,
      "åĨ": 1345,
      "Ġà¤ĩà¤¸": 1346,
      "Ð½ÑĭÐµ": 1347,
      "Ġà¹ģà¸¥à¸°": 1348,
      "âĢľ": 1349,
      "ÑģÐ¿": 1350,
      "à¹Ģà¸¡": 1351,
      "pr": 1352,
      "ÑĥÑİ": 1353,
      "à¹Ģà¸ª": 1354,
      "ÐºÐ¾": 1355,
      "ĠÅŁ": 1356,
      "à±Ĩà°Ł": 1357,
      "à¤¿à¤²": 1358,
      "ĠÑĤÐ°": 1359,
      "å¿": 1360,
      "ÙĪÙĤ": 1361,
      "à¤¾à¤¯": 1362,
      "ÑģÐµ": 1363,
      "è¦ģ": 1364,
      "ĠÙĪÙĩ": 1365,
      "ti": 1366,
      "à¤¿à¤ı": 1367,
      "éĿ": 1368,
      "ĠÐ¶": 1369,
      "çĶ¨": 1370,
      "Â»": 1371,
      "à±įà°¡": 1372,
      "Ø§Ø¶": 1373,
      "ka": 1374,
      "ĠÙĩØ°Ùĩ": 1375,
      "ÑģÑĤÐ¾": 1376,
      "si": 1377,
      "ele": 1378,
      "ĠÙĪÙħ": 1379,
      "Ä±nda": 1380,
      "ÙĨÙĬ": 1381,
      "ÑģÑĤÑĮ": 1382,
      "Ð½Ð¾Ð³Ð¾": 1383,
      "Ġwith": 1384,
      "Ġhu": 1385,
      "Ġil": 1386,
      "ĠÑĤÐµ": 1387,
      "ĠdÃ©": 1388,
      "à¤¾à¤®": 1389,
      "ÑĤÐµÐ»ÑĮ": 1390,
      "à¸¶à¸ĩ": 1391,
      "ÑģÐºÐ¸": 1392,
      "ÙĤÙĬ": 1393,
      "13": 1394,
      "ÙĥØ±": 1395,
      "Ġ,": 1396,
      "Ġà¤¥": 1397,
      "ĠÙĪÙĬ": 1398,
      "ÙĪÙĬ": 1399,
      "Ġsur": 1400,
      "Ø¹ÙĦ": 1401,
      "ĠÙĦÙħ": 1402,
      "à±Ĥà°°": 1403,
      "ĠÑĢÐµ": 1404,
      "larÄ±": 1405,
      "à¹Īà¸Ń": 1406,
      "Ø¯Ø©": 1407,
      "ÙĪØ¬": 1408,
      "ua": 1409,
      "Ġali": 1410,
      "ÐµÑĢÐµ": 1411,
      "yor": 1412,
      "ĠÐ¿ÑĢÐµ": 1413,
      "ĠâĢĵ": 1414,
      "à¸łà¸²à¸": 1415,
      "çľ": 1416,
      "Ġà¸ª": 1417,
      "à¸Ńà¸ļ": 1418,
      "ÑīÐ¸": 1419,
      "è§": 1420,
      "à±Ģà°°": 1421,
      "à¹ĥà¸Ĭ": 1422,
      "à¥įà¤µ": 1423,
      "ÙĥÙĦ": 1424,
      "Ġus": 1425,
      "à¹Īà¸ĩ": 1426,
      "à¥Ģà¤Ĥ": 1427,
      "eng": 1428,
      "à±ĩà°°": 1429,
      "iki": 1430,
      "ĠÐºÐ¾": 1431,
      "ĠÙĥÙĦ": 1432,
      "Ø¯ÙĬ": 1433,
      "ote": 1434,
      "com": 1435,
      "ĠØ§ÙĦØ°ÙĬ": 1436,
      "à¸£à¸²à¸": 1437,
      "à°¾à°²à°¨": 1438,
      "Ġque": 1439,
      "à¹īà¸²": 1440,
      "ØªÙĬ": 1441,
      "à¤¿à¤¸": 1442,
      "à°¶": 1443,
      "ÙĥÙĪÙĨ": 1444,
      "ĠÑĦ": 1445,
      "à¸´à¹Ī": 1446,
      "èµ": 1447,
      "ag": 1448,
      "ØªØ±": 1449,
      "Ã¼k": 1450,
      "Ġà°«": 1451,
      "lay": 1452,
      "Ð»Ð¾": 1453,
      "ux": 1454,
      "Ġex": 1455,
      "ä¹Ł": 1456,
      "Ã©r": 1457,
      "Ø®Ø±": 1458,
      "æİ": 1459,
      "à±įà°Ĺ": 1460,
      "ite": 1461,
      "....": 1462,
      "eri": 1463,
      "Ð½ÑĭÐ¹": 1464,
      "Ġki": 1465,
      "éĻ": 1466,
      "ĠiÃ§in": 1467,
      "ĠÄ°": 1468,
      "ä¿": 1469,
      "ÑģÑĮ": 1470,
      "ci": 1471,
      "å°±": 1472,
      "Ġà¸Ĺ": 1473,
      "Ġfa": 1474,
      "è¿Ļ": 1475,
      "åī": 1476,
      "ĠØ«": 1477,
      "art": 1478,
      "à¤¾à¤Ĥ": 1479,
      "ÐµÐ½Ð¸Ðµ": 1480,
      "èĥ½": 1481,
      "ÙİÙĳ": 1482,
      "ĠÐ¿ÑĢ": 1483,
      "à¹Ĥà¸Ķ": 1484,
      "à±ĩà°ķ": 1485,
      "Ø§ÙĦÙħ": 1486,
      "Ġim": 1487,
      "ati": 1488,
      "æł": 1489,
      "Ø¹Ø¨": 1490,
      "à¸Ł": 1491,
      "18": 1492,
      "Ġpas": 1493,
      "ea": 1494,
      "à°¿à°·": 1495,
      "åİ": 1496,
      "Ġile": 1497,
      "asÄ±": 1498,
      "Ø¨ÙĦ": 1499,
      "ĠØ¨ÙĨ": 1500,
      "à¹Īà¸Ļ": 1501,
      "Ġmo": 1502,
      "ill": 1503,
      "!Ċ": 1504,
      "à¸Ńà¸¡": 1505,
      "Ð°Ð½": 1506,
      "Ġà°¡": 1507,
      "Ð²Ð¾": 1508,
      "æ²": 1509,
      "Ġà°ªà°°": 1510,
      "ina": 1511,
      "),": 1512,
      "esi": 1513,
      "Ġdo": 1514,
      "åĳ": 1515,
      "Ø§Ø²": 1516,
      "Ø³Ùħ": 1517,
      "ĠÐ¿Ð¾Ð´": 1518,
      "à°¿.Ċ": 1519,
      "Ġak": 1520,
      "å¹´": 1521,
      "Ġest": 1522,
      "Ġqui": 1523,
      "Ġed": 1524,
      "ĠÐĿ": 1525,
      "ore": 1526,
      "éĹ": 1527,
      "ĠÐļ": 1528,
      "mek": 1529,
      "Ġà¤°à¤¹": 1530,
      "wenye": 1531,
      "aka": 1532,
      "åĮ": 1533,
      "leri": 1534,
      "Ð°Ð¼": 1535,
      "Ġune": 1536,
      "é«": 1537,
      "**": 1538,
      "ĠØªØ¹": 1539,
      "Ġfr": 1540,
      "à¸¶à¹Ī": 1541,
      "éĤ": 1542,
      "ÙĪØ¹": 1543,
      "æĥ": 1544,
      "à¤§": 1545,
      "ĠÑĢÐ°Ð·": 1546,
      "à¹Ģà¸Ħ": 1547,
      "Ð¶Ðµ": 1548,
      "æĦ": 1549,
      "ÄŁÄ±": 1550,
      "æ³": 1551,
      "Ġà¤ıà¤ķ": 1552,
      "à¤¿à¤¨": 1553,
      "à¹īà¸²à¸Ļ": 1554,
      "à°¾à°ľ": 1555,
      "ĠÙĪØ§ÙĦÙħ": 1556,
      "à±Ĭà°¨": 1557,
      "ÙĢÙĢ": 1558,
      "15": 1559,
      "à±ģ.Ċ": 1560,
      "à¸ĩà¸²à¸Ļ": 1561,
      "ØŃÙĬ": 1562,
      "lu": 1563,
      "ÙĨØ³": 1564,
      "Ø¯Ø±": 1565,
      "asi": 1566,
      "à¸²à¸§": 1567,
      "âĢ¦": 1568,
      "à¤Ī": 1569,
      "ure": 1570,
      "à¹Īà¸²à¸Ļ": 1571,
      "Ġà°īà°¨": 1572,
      "lus": 1573,
      "Ã¼m": 1574,
      "|Ċ": 1575,
      "ØªØ¨": 1576,
      "ÑİÑĤ": 1577,
      "Ġà¤«": 1578,
      "à¸±à¹Ī": 1579,
      "ÙģØ³": 1580,
      "Ø´Ø±": 1581,
      "à¸´à¸ķ": 1582,
      "Ġà°Ł": 1583,
      "Ġsh": 1584,
      "ii": 1585,
      "à¸Ńà¸£": 1586,
      "ĠÑı": 1587,
      "Ġtr": 1588,
      "ä¼ļ": 1589,
      "ä»¬": 1590,
      "à¹Ģà¸§": 1591,
      "Ð¿Ð°": 1592,
      "å½": 1593,
      "mak": 1594,
      "ØµÙĦ": 1595,
      "Ġha": 1596,
      "à±Ĩà°¨": 1597,
      "ç«": 1598,
      "ÙĬØ¹": 1599,
      "à±ĩà°µ": 1600,
      "Ġà¸ģ": 1601,
      "ÙĥØ§ÙĨ": 1602,
      "Ġkama": 1603,
      "ä¸ĭ": 1604,
      "å±": 1605,
      "Ð¼Ðµ": 1606,
      "Ġad": 1607,
      "Ã©e": 1608,
      "à°¿à°¦": 1609,
      "çĤ": 1610,
      "æĻ": 1611,
      "Ġà°¸à°®": 1612,
      "Ġcha": 1613,
      "à¹Ĥà¸Ķà¸¢": 1614,
      "à¤¾à¤¦": 1615,
      "çĶŁ": 1616,
      "à±Ģà°¸": 1617,
      "à±įà°³": 1618,
      "Ø§Ø¯Ø©": 1619,
      "ish": 1620,
      "à¸Ńà¸²à¸": 1621,
      "ĠÙĪØ£": 1622,
      "ff": 1623,
      "à°¾à°ª": 1624,
      "Ġili": 1625,
      "à¹īà¸Ļ": 1626,
      "à¤¶": 1627,
      "à¹Ģà¸Ĭ": 1628,
      "æ°": 1629,
      "à¸Ħà¸Ļ": 1630,
      "à¸¸à¸Ķ": 1631,
      "pe": 1632,
      "ÐµÑĤÑģÑı": 1633,
      "Ð¼ÐµÐ½": 1634,
      "æ¯": 1635,
      "Ġdans": 1636,
      "à±ĩà°¯": 1637,
      "ÑĪÐµ": 1638,
      "åĩº": 1639,
      "iri": 1640,
      "à¹īà¸§à¸¢": 1641,
      "fan": 1642,
      "||": 1643,
      "tr": 1644,
      "à¤¾à¤¹": 1645,
      "ug": 1646,
      "ĠÙħØŃ": 1647,
      "ÙĥÙħ": 1648,
      "çİ": 1649,
      "ÑħÐ¾Ð´": 1650,
      "Ø¯Ùħ": 1651,
      "ĠØ°ÙĦÙĥ": 1652,
      "ÙĦÙģ": 1653,
      "Ġwas": 1654,
      "à¥įà¤®": 1655,
      "à¤£": 1656,
      "Ø³Ø¨": 1657,
      "ens": 1658,
      "Ġà¤¨à¤¹": 1659,
      "à±ĩà°¨": 1660,
      "à¸¹à¸ģ": 1661,
      "à±Ĭà°Ĥ": 1662,
      "Ø§Ø©": 1663,
      "ĠØ¨ÙĬÙĨ": 1664,
      "aya": 1665,
      "uÅŁ": 1666,
      "à±įà°§": 1667,
      "Ġà¸¡": 1668,
      "ĠÐ´Ð»Ñı": 1669,
      "è¨": 1670,
      "ĠÐºÐ¾ÑĤÐ¾": 1671,
      "]Ċ": 1672,
      "Ð´Ñĥ": 1673,
      "åľ°": 1674,
      "ÙģØ±": 1675,
      "les": 1676,
      "Ġà¤ĸ": 1677,
      "å¤ļ": 1678,
      "urs": 1679,
      "ilir": 1680,
      "ction": 1681,
      "alar": 1682,
      "uz": 1683,
      "éĽ": 1684,
      "ÙĬØ³": 1685,
      "à¤Ń": 1686,
      "Ð¡": 1687,
      "ive": 1688,
      "Ð²Ðµ": 1689,
      "ç§": 1690,
      "ÙĤÙĦ": 1691,
      "à¤ªà¤¨": 1692,
      "Ġser": 1693,
      "ÐºÑĥ": 1694,
      "isi": 1695,
      "Ġge": 1696,
      "ä¸ª": 1697,
      "ep": 1698,
      "ä¸º": 1699,
      "ĠIn": 1700,
      "ÑīÐµ": 1701,
      "ĠÐ¿Ð¾Ð»": 1702,
      "à±Ĩà°°": 1703,
      "ĠÐŀ": 1704,
      "elle": 1705,
      "ong": 1706,
      "Ø¬Ùħ": 1707,
      "Ð»Ñĥ": 1708,
      "Ø¥ÙĨ": 1709,
      "tir": 1710,
      "ĠØ§ÙĦÙħÙĨ": 1711,
      "æĭ": 1712,
      "Ġà¤īà¤¸": 1713,
      "çĲ": 1714,
      "ĊĊ": 1715,
      "ÙĪØ¨": 1716,
      "ĠÙĩÙĪ": 1717,
      "zo": 1718,
      "å¦": 1719,
      "æŀ": 1720,
      "ĠThe": 1721,
      "ĠÙĬØ¹": 1722,
      "ÐĴ": 1723,
      "uli": 1724,
      "Ġso": 1725,
      "à¥įà¤·": 1726,
      "ilm": 1727,
      "eb": 1728,
      "ĠÑģÐ¾": 1729,
      "Ø§ÙĨÙĬ": 1730,
      "à¸ļà¸ļ": 1731,
      "Ð³Ð°": 1732,
      "à±Ĩà°ª": 1733,
      "Ø¹Ø¶": 1734,
      "ĠØ§ÙĦÙħØª": 1735,
      ").": 1736,
      "çĦ": 1737,
      "ons": 1738,
      "ĠÐºÐ°Ðº": 1739,
      "Ø§Ø±Ø©": 1740,
      "à±ĭà°µ": 1741,
      "à¸Ĺà¸²à¸ĩ": 1742,
      "à¸«à¸¡": 1743,
      "ï¼ļ": 1744,
      "à±Ģà°²": 1745,
      "Ġver": 1746,
      "ĠÐ¼Ð°": 1747,
      "Ø§Ø´": 1748,
      "Ġà°ħà°µ": 1749,
      "ĠØ§ÙĦÙĦ": 1750,
      "Ġyou": 1751,
      "tÃ©": 1752,
      "à¸£à¸£à¸¡": 1753,
      "Ä±nÄ±": 1754,
      "Ġà°ķà°²": 1755,
      "ĠÐľ": 1756,
      "Ñĳ": 1757,
      "à±ĭà°Ĺ": 1758,
      "man": 1759,
      "ÙĦØ§ÙĦ": 1760,
      "Ġme": 1761,
      "ĠÙĪØ¨": 1762,
      "Ġkar": 1763,
      "Ġwak": 1764,
      "ĠAn": 1765,
      "è¡Į": 1766,
      "aki": 1767,
      "åĽ½": 1768,
      "Ġà¸Ļ": 1769,
      "à±Į": 1770,
      "à¹Ģà¸Ī": 1771,
      "Ðŀ": 1772,
      "à¹Ģà¸Ļ": 1773,
      "ĠAl": 1774,
      "Ġsu": 1775,
      "Ġnot": 1776,
      "Ä±s": 1777,
      "à¤¾à¤¸": 1778,
      "à¥įà¤²": 1779,
      "Ġcomp": 1780,
      "à¸ªà¸¡": 1781,
      "ÙĨØ©": 1782,
      "çļĦè": 1783,
      "à±ģà°¸": 1784,
      "å¥³": 1785,
      "ĠÑģÑĤ": 1786,
      "à°Ĥà°ª": 1787,
      "Ġce": 1788,
      "à¹ĥà¸Ī": 1789,
      "à±įà°°à°®": 1790,
      "à¤¿à¤°": 1791,
      "Ġhas": 1792,
      "Ð½Ð¸Ñı": 1793,
      "Ġare": 1794,
      "æĽ": 1795,
      "ĠØªØŃ": 1796,
      "Ġamb": 1797,
      "Ġ)": 1798,
      "à°¾à°§": 1799,
      "æı": 1800,
      "fu": 1801,
      "ĠbaÅŁ": 1802,
      "Ø¹Ùħ": 1803,
      "æĪĲ": 1804,
      "inin": 1805,
      "à¹īà¸²à¸ĩ": 1806,
      "ä½ľ": 1807,
      "ca": 1808,
      "ond": 1809,
      "æ¬": 1810,
      "30": 1811,
      "æĿ¥": 1812,
      "ĠÙĦÙĩ": 1813,
      "å®¶": 1814,
      "dÄ±": 1815,
      "Ð½Ñĥ": 1816,
      "25": 1817,
      "ÑĤÑĭ": 1818,
      "çļĦç": 1819,
      "Ð³Ð¸": 1820,
      "à±Ģà°ķ": 1821,
      "mba": 1822,
      "ont": 1823,
      "ÐŁ": 1824,
      "à°¿à°Ł": 1825,
      "ĠÑħ": 1826,
      "Ġà¤¯à¤¹": 1827,
      "à±į,": 1828,
      "ÙĪØ³": 1829,
      "Ġhav": 1830,
      "ĠØ£ÙĬ": 1831,
      "ĠrÃ©": 1832,
      "ĠÐ»Ð¸": 1833,
      "à±Ģà°¨": 1834,
      "ĠØ§ÙĦÙħØ¹": 1835,
      "à¸¥à¸ĩ": 1836,
      "à±ģà°¦": 1837,
      "fa": 1838,
      "oy": 1839,
      "eni": 1840,
      "ĠØ§Ø³Øª": 1841,
      "ÙĬØ§Øª": 1842,
      "ÙĦØ¨": 1843,
      "à¸ģà¸£": 1844,
      "tÄ±r": 1845,
      "èĩª": 1846,
      "åģ": 1847,
      "Ġà¤īà¤¨": 1848,
      "Ø±Ø¶": 1849,
      "à¥ĩà¤¶": 1850,
      "çķ": 1851,
      "14": 1852,
      "ĠÑĤÐ°Ðº": 1853,
      "ÙĬÙģ": 1854,
      "ØªØ§Ø¨": 1855,
      "Ġmw": 1856,
      "à¸¶à¹ī": 1857,
      "à¥Į": 1858,
      "po": 1859,
      "à±ĭà°²": 1860,
      "à¸¸à¸ĵ": 1861,
      "å°ĳ": 1862,
      "åĵ": 1863,
      "Ġbi": 1864,
      "à¥įà¤¥": 1865,
      "ĠØ¥ÙĨ": 1866,
      "Ø§Ø«": 1867,
      "ĠÙĬØª": 1868,
      "æµ": 1869,
      "à°Ĥà°ļ": 1870,
      "ÑģÐ°": 1871,
      "Ġyake": 1872,
      "und": 1873,
      "ich": 1874,
      "Ġby": 1875,
      "à¸·à¹ī": 1876,
      "ais": 1877,
      "uu": 1878,
      "à±ģà°ª": 1879,
      "à¥ĭà¤Ĺ": 1880,
      "ayo": 1881,
      "Ð½Ñı": 1882,
      "ä½ł": 1883,
      "à¸ļà¸£": 1884,
      "una": 1885,
      "Ġà¸ŀ": 1886,
      "æĸ¹": 1887,
      "ung": 1888,
      "Ġay": 1889,
      "ÙĩØ±": 1890,
      "å¾Ĺ": 1891,
      "ĠÐĺ": 1892,
      "larak": 1893,
      "à¸±à¸¢": 1894,
      "à±ĭà°°": 1895,
      "sh": 1896,
      "ĠØ²": 1897,
      "res": 1898,
      "ungu": 1899,
      "ĠØ§ÙĦÙī": 1900,
      "Ã¼l": 1901,
      "Ø¬ÙĦ": 1902,
      "à¤¾à¥¤": 1903,
      "ĠÐ¢": 1904,
      "ĠÐĲ": 1905,
      "à¸±à¸į": 1906,
      "pp": 1907,
      "ĠØ§ÙĦØ«": 1908,
      "ust": 1909,
      "ÙħØ¯": 1910,
      "Ø¨Ø¯": 1911,
      "çº": 1912,
      "!!": 1913,
      "ØŃØ©": 1914,
      "ÙĤØ±": 1915,
      "à±įà°°à°¤": 1916,
      "Ø¡": 1917,
      "éĥ½": 1918,
      "Ġwe": 1919,
      "èĢĮ": 1920,
      "Ġ'": 1921,
      "Ð½Ð¾Ð²": 1922,
      "int": 1923,
      "ĠÑįÑĤÐ¾": 1924,
      "à¸łà¸²à¸ŀ": 1925,
      "à°¾à°¬": 1926,
      "Ġà°¤à°¨": 1927,
      "Ġà¸Ħ": 1928,
      "den": 1929,
      "à¸Ľà¸£": 1930,
      "æīĢ": 1931,
      "à¹Ģà¸ķ": 1932,
      "Ð°ÑĢ": 1933,
      "à¸¸à¸ģ": 1934,
      "iwa": 1935,
      "ost": 1936,
      "ence": 1937,
      "ĠØ§ÙĦÙħØ³": 1938,
      "à¸Ńà¸Ķ": 1939,
      "cr": 1940,
      "à¤¾à¤ľ": 1941,
      "à°¾à°£": 1942,
      "ark": 1943,
      "à¸Ĳ": 1944,
      "ime": 1945,
      "âĢĶ": 1946,
      "azi": 1947,
      "Ġut": 1948,
      "Ġà¤¸à¤®": 1949,
      "Ð¸Ð·": 1950,
      "æĮ": 1951,
      "à¸¡à¸²à¸ģ": 1952,
      "à¸¶à¸ģ": 1953,
      "emb": 1954,
      "for": 1955,
      "ĠÐ²ÑģÐµ": 1956,
      "iler": 1957,
      "à±ĭà°¯": 1958,
      "Ø°ÙĦÙĥ": 1959,
      "ÙĪØ¶": 1960,
      "ĠÐ¼Ðµ": 1961,
      "à°¿à°ļ": 1962,
      "ano": 1963,
      "Ä±na": 1964,
      "ev": 1965,
      "Ġplus": 1966,
      "ita": 1967,
      "èĤ": 1968,
      "oni": 1969,
      "ØªØµ": 1970,
      "çĻ": 1971,
      "Ø¢": 1972,
      "ance": 1973,
      "amb": 1974,
      "ĠØ§Ø¨": 1975,
      "Ġup": 1976,
      "Ð¸ÑĤ": 1977,
      "à¸¸à¹Ī": 1978,
      "ĠØ¶": 1979,
      "åŃ¦": 1980,
      ".com": 1981,
      "à¸²à¸ª": 1982,
      "ri": 1983,
      "åĭ": 1984,
      "ÙĤØ§ÙĦ": 1985,
      "ud": 1986,
      "Ø¯ÙĬØ¯": 1987,
      "ÐĿ": 1988,
      "ĠØ¹ÙĦÙĬÙĩ": 1989,
      "aÅŁ": 1990,
      "tre": 1991,
      "ume": 1992,
      "ÙĬØ±Ø©": 1993,
      "lÄ±k": 1994,
      "æĹ¶": 1995,
      "ice": 1996,
      "Ã¶n": 1997,
      "Ø«Ø±": 1998,
      "Ø®Øµ": 1999,
      "oja": 2000,
      "éĸ": 2001,
      "ÑĤÐ¾Ð¼": 2002,
      "à¥Ĥà¤°": 2003,
      "Ġmu": 2004,
      "sa": 2005,
      "à¸Ĺà¸¢": 2006,
      "è´": 2007,
      "ÑĢÐ¾Ð²": 2008,
      "ĠØ¨Ø¹Ø¯": 2009,
      "Ġwana": 2010,
      "Ġà¤ħà¤ªà¤¨": 2011,
      "ĠiÅŁ": 2012,
      "ØŁ": 2013,
      "éł": 2014,
      "Ġà¤ķà¤°à¤¨": 2015,
      "ĠÐĶ": 2016,
      "16": 2017,
      "Ð»ÐµÐ½": 2018,
      "ÑĨÐ¸Ð¸": 2019,
      "ck": 2020,
      "iniz": 2021,
      "Ġhe": 2022,
      "ç¨": 2023,
      "ÄŁi": 2024,
      "é¡": 2025,
      "à±ĭà°¸": 2026,
      "ÐºÐ¾Ð²": 2027,
      "ĠCh": 2028,
      "'s": 2029,
      "à¸²à¸Ķ": 2030,
      "Ãª": 2031,
      "Ð¸Ð¼": 2032,
      "Ġmat": 2033,
      "ÙĪØ±Ø©": 2034,
      "ions": 2035,
      "ĠØ¢": 2036,
      "Ġres": 2037,
      "ations": 2038,
      "ale": 2039,
      "å¦Ĥ": 2040,
      "à¹īà¸³": 2041,
      "ĠØ§ÙĪ": 2042,
      "Ġher": 2043,
      "Ã¼ÅŁ": 2044,
      "Ġsi": 2045,
      "Ġpe": 2046,
      "ĠÐ¸Ð½": 2047,
      "ĠÙĪØ¬": 2048,
      "Ġolarak": 2049,
      "Ġà¸ķ": 2050,
      "ame": 2051,
      "Ġà°ħà°¯": 2052,
      "Ġà¤ķà¤¹": 2053,
      "à±Ĩà°ķ": 2054,
      "ĠÃ¶n": 2055,
      "Ø«ÙĦ": 2056,
      "ue": 2057,
      "à¥ĩà¤ķ": 2058,
      "à¸µà¸ģ": 2059,
      "tÄ±": 2060,
      "ins": 2061,
      "å¥½": 2062,
      "à¤«": 2063,
      "Ġkul": 2064,
      "all": 2065,
      "amp": 2066,
      "èĪ": 2067,
      "ob": 2068,
      "Ø§ÙĦÙĬ": 2069,
      "à¤¾à¤µ": 2070,
      "à¸ľà¸¥": 2071,
      "ÙĨØ¯": 2072,
      "ĠÐ´Ðµ": 2073,
      "è·": 2074,
      "Ġco": 2075,
      "à¥ī": 2076,
      "ai": 2077,
      "ÑĨÐµ": 2078,
      "ĠÐ¿ÑĢÐµÐ´": 2079,
      "Ġav": 2080,
      "eler": 2081,
      "à¥įà¤¸": 2082,
      "ĠÐ´Ð¾": 2083,
      "à±Ĭà°ķ": 2084,
      "Ð¿Ð¸": 2085,
      "à¤ı": 2086,
      "Ġfrom": 2087,
      "ç´": 2088,
      "ç½": 2089,
      "ÙĤØª": 2090,
      "à±ĭà°Ł": 2091,
      "å°ı": 2092,
      "ĠÙĤØ¯": 2093,
      "ÐĲ": 2094,
      "æ´": 2095,
      "ØªÙī": 2096,
      "Ð½ÑĭÐ¼": 2097,
      "Ðĺ": 2098,
      "åŃĲ": 2099,
      "æľĢ": 2100,
      "Ġkwamba": 2101,
      "Ġà¸£": 2102,
      "Ġthis": 2103,
      "ĠØ§ÙĦØº": 2104,
      "à¸±à¸ķ": 2105,
      "Ġpo": 2106,
      "Ġà°µà°ļ": 2107,
      "ĠÑĤÐ¾": 2108,
      "ĠØ§ÙĦÙħØ±": 2109,
      "à¹Īà¸²à¸¢": 2110,
      "Ð±Ð¾": 2111,
      "ÐµÐº": 2112,
      "à°µà°°": 2113,
      "à¸²à¸£à¸ĸ": 2114,
      "å¾Ī": 2115,
      "ÑĤÑĮÑģÑı": 2116,
      "ĠØ¨Ùĩ": 2117,
      "Ġny": 2118,
      "Ø§Ùĥ": 2119,
      "Ġcan": 2120,
      "à¸²à¸Ĺ": 2121,
      "Ġà°®à°¨": 2122,
      "à¸µà¸¢à¸Ļ": 2123,
      "à¸´à¸ģ": 2124,
      "are": 2125,
      "çŃ": 2126,
      "Ø·Ø©": 2127,
      "----": 2128,
      "che": 2129,
      "iss": 2130,
      "ord": 2131,
      "adi": 2132,
      "ÙĪØª": 2133,
      "à¸´à¸ĩ": 2134,
      "à±Ģà°µ": 2135,
      "Ð¶Ð°": 2136,
      "ĠÑģÑĤÐ°": 2137,
      "ĠÃ§ok": 2138,
      "ĠÐ¼Ð¾Ð¶": 2139,
      "Ð½Ð°Ñı": 2140,
      "à°¿à°ľ": 2141,
      "ä¹ĭ": 2142,
      "Ġà¸Ń": 2143,
      "à°¿à°¶": 2144,
      "à¸´à¸¡": 2145,
      "à¸§à¸ģ": 2146,
      "Ġje": 2147,
      "ÙĪÙģ": 2148,
      "à°ħ": 2149,
      "çľĭ": 2150,
      "éĿ¢": 2151,
      "à¥ģà¤°": 2152,
      "gr": 2153,
      "Ø§Ø±ÙĬ": 2154,
      "ĠÐ¸Ð»Ð¸": 2155,
      "éĢĻ": 2156,
      "à°¾à°¹": 2157,
      "ĠÙĬÙħ": 2158,
      "umb": 2159,
      "ĠØ§ÙĦØ²": 2160,
      "ç¾": 2161,
      "à¤ĸ": 2162,
      "à¹Ģà¸Ń": 2163,
      "çĦ¶": 2164,
      "ÙĬØª": 2165,
      "ende": 2166,
      "à¹Īà¸§à¸Ļ": 2167,
      "port": 2168,
      "hus": 2169,
      "Ġdev": 2170,
      "Ð½Ð¸Ðµ": 2171,
      "Ġà¹ģ": 2172,
      "è¯´": 2173,
      "mÄ±ÅŁ": 2174,
      "ĠÙĪØ¹": 2175,
      "à¸£à¸ĩ": 2176,
      "Ø¯Ø§": 2177,
      "å¯¹": 2178,
      "Ġhave": 2179,
      "ĠâĢĺ": 2180,
      "ors": 2181,
      "æľ¬": 2182,
      "à¸ģà¸£à¸°": 2183,
      "ĠØ¨ÙĦ": 2184,
      "à±ģà°®": 2185,
      "åħ¶": 2186,
      "ibi": 2187,
      "ÑĢÐ¾Ð²Ð°": 2188,
      "åŁ": 2189,
      "ity": 2190,
      "à¸²à¸¡à¸²à¸£à¸ĸ": 2191,
      "Ġte": 2192,
      "ĠgÃ¶r": 2193,
      "ÙĪÙī": 2194,
      "Ġac": 2195,
      "let": 2196,
      "Ġper": 2197,
      "50": 2198,
      "abu": 2199,
      "åīį": 2200,
      "Ġà¹Ģà¸ŀ": 2201,
      "Ġwali": 2202,
      "à¸ªà¸³": 2203,
      "Ø¬Ø±": 2204,
      "Ð½Ð¾ÑģÑĤÐ¸": 2205,
      "à±ĭà°ķ": 2206,
      "ÙĪØ§Øª": 2207,
      "Ð½Ð¾Ðµ": 2208,
      "mes": 2209,
      "so": 2210,
      "è¢": 2211,
      "ĠØ§ÙĦÙĬ": 2212,
      "Ø±Ø§ÙĤ": 2213,
      "à¸µà¸¢à¸ĩ": 2214,
      "Ð»Ð¾Ð²": 2215,
      "à¸ŀà¸£à¸°": 2216,
      "Ø³ÙĦØ§Ùħ": 2217,
      "à¸¡à¸²": 2218,
      "dÄ±r": 2219,
      "ww": 2220,
      "Ø§Ø°": 2221,
      "à°¾à°³": 2222,
      "à±ĩà°Ĥ": 2223,
      "ĠØºÙĬØ±": 2224,
      "17": 2225,
      "ĠÐĳ": 2226,
      "Ġkad": 2227,
      "à¸Ħà¸¥": 2228,
      "erek": 2229,
      "ÑĢÑı": 2230,
      "ĠÙĪØ§ÙĦØª": 2231,
      "ash": 2232,
      "é«ĺ": 2233,
      "åĪĨ": 2234,
      "Ġà°ħà°®": 2235,
      "na": 2236,
      "çĲĨ": 2237,
      "ÑĥÐ´": 2238,
      "Ġ:Ċ": 2239,
      "oa": 2240,
      "ØµØ±": 2241,
      "Ġà°¤à°°": 2242,
      "à°²à°¨": 2243,
      "è£": 2244,
      "ÙĤÙĪÙĦ": 2245,
      "Ð¾Ð´Ð°": 2246,
      "à±ģà°Ł": 2247,
      "à°¬à°¡": 2248,
      "lo": 2249,
      "ten": 2250,
      "åĲĮ": 2251,
      "é¢": 2252,
      "Ġà¸Ī": 2253,
      "à°Ĥà°ķ": 2254,
      "ÑĤÑĥ": 2255,
      "Ġolan": 2256,
      "mi": 2257,
      "à±Ĥà°ª": 2258,
      "ĠÙĪØ³": 2259,
      "åħ¬": 2260,
      "oka": 2261,
      "ĠÐºÐ¾Ð¼": 2262,
      "ight": 2263,
      "mu": 2264,
      "Ġkullan": 2265,
      "è¾": 2266,
      "ÙĩØ¯": 2267,
      "Ðļ": 2268,
      "åıĬ": 2269,
      "ibu": 2270,
      "æ¸": 2271,
      "å¤©": 2272,
      "ÐµÐ·": 2273,
      "ĠÐł": 2274,
      "ĠØŃÙĬ": 2275,
      "çĤº": 2276,
      "ki": 2277,
      "ĠÙĪÙĦØ§": 2278,
      "able": 2279,
      "à±ĭà°ľ": 2280,
      "à±įà°£": 2281,
      "ĠØ¹ÙĨØ¯": 2282,
      "éĥ": 2283,
      "åħ¨": 2284,
      "à¥Īà¤Ĥà¥¤": 2285,
      "je": 2286,
      "à¤¿à¤Ĥ": 2287,
      ").Ċ": 2288,
      "Ġà°ľà°°": 2289,
      "ĠØªÙħ": 2290,
      "unu": 2291,
      "à±Ĩà°¡": 2292,
      "à°¿à°§": 2293,
      "à±Ĩà°³": 2294,
      "izi": 2295,
      "amu": 2296,
      "ru": 2297,
      "ÑģÐºÐ°": 2298,
      "ĠÙħØ³": 2299,
      "à±ĩà°¤": 2300,
      "Ġkur": 2301,
      "ĠÐ´Ð°": 2302,
      "à¸²à¸ķ": 2303,
      "æ³ķ": 2304,
      "ĠÙĪÙħÙĨ": 2305,
      "Ð²Ð»Ñı": 2306,
      "iyo": 2307,
      "yon": 2308,
      "Ð½Ð¾Ð¼": 2309,
      "Ġà°µà°°": 2310,
      "ĠÙħØª": 2311,
      "Ġou": 2312,
      "...Ċ": 2313,
      "à±ĭà°¤": 2314,
      "à¥ĭà¤¨": 2315,
      "äºĽ": 2316,
      "ork": 2317,
      "à¸Ĺà¸ĺ": 2318,
      "ell": 2319,
      "æĸ°": 2320,
      "Ġ[": 2321,
      "ĠdeÄŁ": 2322,
      "asa": 2323,
      "ted": 2324,
      "èª": 2325,
      "ĠÐ¿ÐµÑĢÐµ": 2326,
      "Ä±ndan": 2327,
      "à±įà°¬": 2328,
      "à±įà°¯à°ķ": 2329,
      "ĠÙĥÙħØ§": 2330,
      "ä¾Ĩ": 2331,
      "Ø«ÙĬØ±": 2332,
      "ov": 2333,
      "ĠÙĩÙĬ": 2334,
      "æĪĸ": 2335,
      "iye": 2336,
      "åĬĽ": 2337,
      "Ã¨s": 2338,
      "è¿ĩ": 2339,
      "Ġà°ķà°¨": 2340,
      "å¿ĥ": 2341,
      "à¸²à¸¥": 2342,
      "emp": 2343,
      "à±ĩà°²": 2344,
      "åı¯ä»¥": 2345,
      "Ø§ÙĨÙĬØ©": 2346,
      "à¸´à¸Ī": 2347,
      "cak": 2348,
      "Ġ/": 2349,
      "ĠÙħØ±": 2350,
      "ĠBu": 2351,
      "éļ": 2352,
      "Ġbul": 2353,
      "duÄŁ": 2354,
      "Ð½Ð¾ÑģÑĤÑĮ": 2355,
      "åĢĭ": 2356,
      "à±Ĭà°¦": 2357,
      "Ġolm": 2358,
      "ome": 2359,
      "à±ĩà°Ł": 2360,
      "à¥įà¤ķ": 2361,
      "æ±": 2362,
      "oto": 2363,
      "Ġpart": 2364,
      "ÙĪÙĬØ©": 2365,
      "à¹ģà¸ļà¸ļ": 2366,
      "å®ļ": 2367,
      "ÙĬØ²": 2368,
      "Ġhak": 2369,
      "æĹ¥": 2370,
      "Ġà°ħà°¦": 2371,
      "ĠØ§ÙĦØ¹ÙĦÙħ": 2372,
      "tan": 2373,
      "Ġkup": 2374,
      "iti": 2375,
      "ÑģÐ»Ð¸": 2376,
      "Ã¨re": 2377,
      "è½": 2378,
      "umu": 2379,
      "ä½¿": 2380,
      "Ð»Ñİ": 2381,
      "æıĲ": 2382,
      "è¢«": 2383,
      "ÑĭÑħ": 2384,
      "à±Ĩà°¸": 2385,
      "dir": 2386,
      "ĠâĢĶ": 2387,
      "Ġwake": 2388,
      "à°«": 2389,
      "ĠÙĦØª": 2390,
      "Ġhiv": 2391,
      "à¸ķà¸²à¸¡": 2392,
      "åĬł": 2393,
      "å§": 2394,
      "ÙĦÙĤ": 2395,
      "onn": 2396,
      "à±Ģà°¯": 2397,
      "éķ": 2398,
      "à±Ĥà°¸": 2399,
      "æľĥ": 2400,
      "ĠÐºÐ¾ÑĤÐ¾ÑĢÑĭ": 2401,
      "Ð¶Ð¸": 2402,
      "ç©": 2403,
      "itu": 2404,
      "à¤¾à¤ı": 2405,
      "ÙĪØ²": 2406,
      "ĠØ¨Ø¹Ø¶": 2407,
      "æĸĩ": 2408,
      "à°¿à°¡": 2409,
      "Ġà°ħà°¤": 2410,
      "yi": 2411,
      "Ġà¸ĭ": 2412,
      "Ø¨ØŃ": 2413,
      "Ġyer": 2414,
      "ces": 2415,
      "ĠÐ²Ð°": 2416,
      "à¸Ńà¸Ńà¸ģ": 2417,
      "Ð·Ñĭ": 2418,
      "à¹īà¸Ńà¸¡": 2419,
      "out": 2420,
      "à°¾,": 2421,
      "ÑģÑĤÐ²ÐµÐ½": 2422,
      "ĠÙĦÙĦÙħ": 2423,
      "Ø§Ø±Ø§Øª": 2424,
      "å°ĳå¥³": 2425,
      "Ġave": 2426,
      "ÙĨØ§Ø¡": 2427,
      "à¸ģà¸§": 2428,
      "Ġà¹Ģà¸Ľ": 2429,
      "ĠÙĪÙĦ": 2430,
      "à¥įà¤¹": 2431,
      "Ðķ": 2432,
      "ÐµÐ½ÑĮ": 2433,
      "à±ĩà°·": 2434,
      "âĢĻs": 2435,
      "uld": 2436,
      "éģĵ": 2437,
      "åĲİ": 2438,
      "ign": 2439,
      "à¤¿à¤¶": 2440,
      "har": 2441,
      "à¥ĩà¤¤": 2442,
      "imi": 2443,
      "tur": 2444,
      "ÑģÑģ": 2445,
      "èĳ": 2446,
      "ÙĨØª": 2447,
      "Ġkwenye": 2448,
      "à¹Īà¸Ńà¸Ļ": 2449,
      "ĠÐ½Ð¸": 2450,
      "ĠÑģÐ²Ð¾": 2451,
      "ĠTh": 2452,
      "à¤ķà¤°": 2453,
      "met": 2454,
      "Ł¥": 2455,
      "à¸ī": 2456,
      "__": 2457,
      "Ġà°ħà°²": 2458,
      "Ġmwa": 2459,
      "æĤ": 2460,
      "age": 2461,
      "Ġbil": 2462,
      "The": 2463,
      "åıĳ": 2464,
      "likuwa": 2465,
      "Ġyan": 2466,
      "weza": 2467,
      "ÙĪÙĦØ©": 2468,
      "à¤¾,": 2469,
      "Ġà¤Ĩà¤ª": 2470,
      "oir": 2471,
      "ette": 2472,
      "äºİ": 2473,
      "ÙĬØ¨": 2474,
      "åİ»": 2475,
      "Ð¢": 2476,
      "lic": 2477,
      "ĠØ¨Ùħ": 2478,
      "à°¦à°°": 2479,
      "ques": 2480,
      "Ġdis": 2481,
      "à±ĩà°®": 2482,
      "yle": 2483,
      "lah": 2484,
      "à¸«à¸§": 2485,
      "à°¯à°¨": 2486,
      "à¤¾à¤ĩ": 2487,
      "ĠÐ²Ðµ": 2488,
      "éĥ¨": 2489,
      "ition": 2490,
      "à¸ªà¸²à¸¡à¸²à¸£à¸ĸ": 2491,
      "å»": 2492,
      "ç®": 2493,
      "ĠØ£Ùħ": 2494,
      "her": 2495,
      "Ø¯ÙĬÙĨ": 2496,
      "äºĭ": 2497,
      "ene": 2498,
      "Ġà°¸à°°": 2499,
      "Ġmak": 2500,
      "à¥ģà¤²": 2501,
      "ÙĦÙĬÙħ": 2502,
      "Ġà¤ħà¤¨": 2503,
      "ex": 2504,
      "ft": 2505,
      "Ð°Ð»ÑĮ": 2506,
      "Ġkon": 2507,
      "éħ": 2508,
      "è¶": 2509,
      "å¤ĸ": 2510,
      "Ġà¤Ł": 2511,
      "ä½Ĩ": 2512,
      "åķ": 2513,
      "à¤¾à¤¥": 2514,
      "åĲĪ": 2515,
      "pos": 2516,
      "Ø±Ø¬": 2517,
      "Ġà°İà°ķ": 2518,
      "Ġà¤µà¤¹": 2519,
      "ally": 2520,
      "Ø±ÙĬÙĤ": 2521,
      "ui": 2522,
      "à¹Ĥà¸¥": 2523,
      "ä¸»": 2524,
      "ĠÐ¼Ð¸": 2525,
      "ĠÐ²Ð¾Ð·": 2526,
      "Ø³Ø©": 2527,
      "ĠØ§ÙĦÙħØŃ": 2528,
      "ĠØ§ÙĦØªØ¹": 2529,
      "Ð²ÐµÑĤ": 2530,
      "Ġwill": 2531,
      "ç³": 2532,
      "ÙĪØ§ÙĨ": 2533,
      "iyor": 2534,
      "Ġà¤¹à¤®": 2535,
      "Ġwan": 2536,
      "Ġev": 2537,
      "ÑĤÐ¾Ð²": 2538,
      "åĽł": 2539,
      "èµ·": 2540,
      "ĠØ§ÙĦØ¢": 2541,
      "ÙģØ©": 2542,
      "ille": 2543,
      "à°¾à°¶": 2544,
      "Ġà¹ģà¸ķ": 2545,
      "Ġavec": 2546,
      "Ġman": 2547,
      "lab": 2548,
      "laÅŁ": 2549,
      "Ġgibi": 2550,
      "ĠØ«Ùħ": 2551,
      "une": 2552,
      "Ġgo": 2553,
      "ÑĢÐ°Ð½": 2554,
      "ÑĪÐ°": 2555,
      "æĪĳä»¬": 2556,
      "Ġtar": 2557,
      "à¥įà¤ª": 2558,
      "à¥ĩà¤°": 2559,
      "æ¨": 2560,
      "Ġmk": 2561,
      "ĠÐ¿Ð¾Ñģ": 2562,
      "ear": 2563,
      "ØªÙĩØ§": 2564,
      "alÄ±": 2565,
      "ade": 2566,
      "ÑģÑĤÐ²Ð°": 2567,
      "ĠAr": 2568,
      "ÑĩÐµÑģÐºÐ¸": 2569,
      "ĠZ": 2570,
      "ÙĪØ§ÙĦ": 2571,
      "ĠÐĵ": 2572,
      "ĠØ¹Ø§Ùħ": 2573,
      "ãĢĤâĢĿ": 2574,
      "é£": 2575,
      "ĠÙĬØŃ": 2576,
      "Ð·Ð¸": 2577,
      "Ġgr": 2578,
      "à°Ĥà°§": 2579,
      "æĽ´": 2580,
      "èģ": 2581,
      "Ð°Ðº": 2582,
      "ĠÐ½Ð¾": 2583,
      "Ð¿Ðµ": 2584,
      "ĠØ¬Ùħ": 2585,
      "tern": 2586,
      "Ð¾Ð»ÑĮÐºÐ¾": 2587,
      "ss": 2588,
      "ise": 2589,
      "à¸·à¸Ńà¸Ļ": 2590,
      "AN": 2591,
      "ç¬": 2592,
      "Ð¾Ð»ÑĮÐ·": 2593,
      "Ġà¤Ĺà¤¯": 2594,
      "ÐĶ": 2595,
      "24": 2596,
      "Ø±ÙĤ": 2597,
      "à¹ģà¸ģ": 2598,
      "ÐµÑĤÐµ": 2599,
      "Åŀ": 2600,
      "ï¼ī": 2601,
      "ï¼Ī": 2602,
      "ÑĢÐ°Ð²": 2603,
      "Ġwatu": 2604,
      "Ġà¤¸à¤ķ": 2605,
      "ty": 2606,
      "ÙĭØ§": 2607,
      "Ġent": 2608,
      "à¸Ŀ": 2609,
      "à¹ĩà¸ģ": 2610,
      "ĠÐºÐ¾Ð½": 2611,
      "è»": 2612,
      "idi": 2613,
      "Ġà¸Ķ": 2614,
      "ĠÃ¼": 2615,
      "à¥Ģà¤¨": 2616,
      "ĠÐ¾Ñģ": 2617,
      "Ġà¤ªà¤¹": 2618,
      "der": 2619,
      "one": 2620,
      "Ġall": 2621,
      "æĻĤ": 2622,
      "à¤Ĥà¤¤": 2623,
      "Ðł": 2624,
      "Ġà¹Ĥà¸Ķà¸¢": 2625,
      "omb": 2626,
      "à±įà°ķà°¡": 2627,
      "à¸±à¸¡": 2628,
      "à¸Ļà¸§": 2629,
      "Ġà°Ĩà°°": 2630,
      "per": 2631,
      "Ġà°ĩà°¦": 2632,
      "Ġà¸§": 2633,
      "ä¿Ŀ": 2634,
      "ç¶": 2635,
      "ĠØ¨Ø¯": 2636,
      "pt": 2637,
      "à¥įà¤¦": 2638,
      "º«": 2639,
      "à¹īà¸Ńà¸¢": 2640,
      "Ø¬Ø¨": 2641,
      "Ġes": 2642,
      "à°¾à°·": 2643,
      "Ġuk": 2644,
      "Ġuy": 2645,
      "Ġtout": 2646,
      "à±ģà°²à°¨": 2647,
      "é»": 2648,
      "à¸ı": 2649,
      "à±ĭà°Ĥ": 2650,
      "ents": 2651,
      "Ġro": 2652,
      "ĠyÄ±l": 2653,
      "ĠÃ¼z": 2654,
      "Ã©es": 2655,
      "ĠØ§ÙĦÙħÙĪ": 2656,
      "ÐºÐµ": 2657,
      "ĠÑģÐ¸": 2658,
      "Ä±nÄ±n": 2659,
      "ast": 2660,
      "Ð¾Ð»Ðµ": 2661,
      "å·¥": 2662,
      "ĠØ§ÙĦØ¹Ø±Ø§ÙĤ": 2663,
      "éĤ£": 2664,
      "21": 2665,
      "ÙĩÙĦ": 2666,
      "à¹Īà¸¡": 2667,
      "aman": 2668,
      "èĢħ": 2669,
      "à¤¾à¤ķ": 2670,
      "Ġtu": 2671,
      "ĠÙħØ³Øª": 2672,
      "à¸Ľà¸¥": 2673,
      "Ġdaha": 2674,
      "Ġà¤¡": 2675,
      "ĠÑģÐµ": 2676,
      "à¹ĥà¸Ļà¸ģà¸²à¸£": 2677,
      "ÙĬÙĬÙĨ": 2678,
      "æĥ³": 2679,
      "ĠØ§ÙĦØ§ÙĨ": 2680,
      "Ð²Ñĭ": 2681,
      "Ð²ÐµÑĢ": 2682,
      "Ġdur": 2683,
      "åĸ": 2684,
      "Ġvous": 2685,
      "ĠØ³ÙĬ": 2686,
      "à¤¿à¤µ": 2687,
      "Ġhiyo": 2688,
      "ĠÙĦÙĬ": 2689,
      "ĠÐµÐ³Ð¾": 2690,
      "ØºÙĬØ±": 2691,
      "09": 2692,
      "ĠØ§ÙĦÙĤØ±": 2693,
      "Ø±Ø¨ÙĬØ©": 2694,
      "Ġyour": 2695,
      "uni": 2696,
      "ifa": 2697,
      "Ø§ÙĦØ©": 2698,
      "uma": 2699,
      "ĠÙĪÙĥ": 2700,
      "Ã¢": 2701,
      "ĠØ§Ùħ": 2702,
      "Ġbo": 2703,
      "Ġbut": 2704,
      "Ġà°ªà°¦": 2705,
      "ãĢĮ": 2706,
      "Ø®ÙĦ": 2707,
      "à¥ĩà¤¨": 2708,
      "Ø¶Ø§": 2709,
      "ĠØ¨ÙĩØ§": 2710,
      "ĠÐ²ÑĢÐµ": 2711,
      "Ġà¸ģà¸²à¸£": 2712,
      "itÃ©": 2713,
      "åĢĳ": 2714,
      "len": 2715,
      "Ðľ": 2716,
      "à¥ĭà¤¤": 2717,
      "22": 2718,
      "à°Ĩ": 2719,
      "enda": 2720,
      "Ġmon": 2721,
      "ĠØ§ÙĦÙħØ´": 2722,
      "ç¤": 2723,
      "ÙģØ¹": 2724,
      "ĠØ£Ø³": 2725,
      "ĠØªÙĨ": 2726,
      "ĠÙĬÙĥÙĪÙĨ": 2727,
      "ni": 2728,
      "à¸ªà¸Ļ": 2729,
      "ãĢį": 2730,
      "ĠÐ¶Ðµ": 2731,
      "à¹Ģà¸Ħà¸£": 2732,
      "à¥ģà¤¨": 2733,
      "èĳĹ": 2734,
      "Ġsay": 2735,
      "Ġà¸«à¸£": 2736,
      "å·²": 2737,
      "ĠØªØª": 2738,
      "ĠØŃØªÙī": 2739,
      "à¸£à¸²à¸°": 2740,
      "Ø¸Ø±": 2741,
      "ÙĤØ·": 2742,
      "à¸¥à¸°": 2743,
      "Ð»ÐµÐ´": 2744,
      "ide": 2745,
      "ĠÙħØ´": 2746,
      "Ø§ÙħÙĦ": 2747,
      "ER": 2748,
      "ĠØ§ÙĦØ¥Ø³ÙĦØ§Ùħ": 2749,
      "æĢ§": 2750,
      "form": 2751,
      "à¤¾à¤Ī": 2752,
      "Ġhii": 2753,
      "ä½į": 2754,
      "åıª": 2755,
      "cek": 2756,
      "ĠÐ²Ð¸": 2757,
      "bali": 2758,
      "ĠØ§ÙĦØ¯ÙĬÙĨ": 2759,
      "uri": 2760,
      "\"Ċ": 2761,
      "au": 2762,
      "lat": 2763,
      "æŃ¤": 2764,
      "æĦı": 2765,
      "ĠÙĤØ§ÙĦ": 2766,
      "æŀľ": 2767,
      "à±Ģà°¦": 2768,
      "ĠMungu": 2769,
      "à¹Ĭ": 2770,
      "Ġsont": 2771,
      "ĠÙĪÙĩÙĪ": 2772,
      "à¸Īà¸³": 2773,
      "åº¦": 2774,
      "ĠÃ§Ä±k": 2775,
      "æ¬¡": 2776,
      "à°Ĥ,": 2777,
      "à°°à°£": 2778,
      "à¥Ģà¥¤": 2779,
      "à¸Ĺà¸³à¹ĥà¸«": 2780,
      "23": 2781,
      "to": 2782,
      "éĺ": 2783,
      "ç¾İ": 2784,
      "aj": 2785,
      "ĠÑĨ": 2786,
      "ÑĢÐ°Ð·": 2787,
      "Ã¼y": 2788,
      "ÙĪÙĩ": 2789,
      "à°¥": 2790,
      "ĠÙĪÙĨ": 2791,
      "à¹īà¸Ń": 2792,
      "ĠÙĬÙĨ": 2793,
      "anz": 2794,
      "Ġtra": 2795,
      "Ġà¤²à¤Ĺ": 2796,
      "co": 2797,
      "Ð°Ð¹": 2798,
      "Ð¾Ð±Ñĭ": 2799,
      "à¹Ħà¸§": 2800,
      "ÑĤÐ¸Ð²": 2801,
      "à¹Ħà¸£": 2802,
      "endele": 2803,
      "fer": 2804,
      "miÅŁ": 2805,
      "è¼": 2806,
      "çµ": 2807,
      "awa": 2808,
      "ÙĥØª": 2809,
      "Ø§Ø¦ÙĦ": 2810,
      "Ġcomm": 2811,
      "ĠÐ¸ÑģÐ¿": 2812,
      "ĠØ®ÙĦØ§ÙĦ": 2813,
      "à±Ĥà°²": 2814,
      "ult": 2815,
      "Ø§ÙģØ©": 2816,
      "ĠÐ»Ñİ": 2817,
      "ĠÙĬÙħÙĥÙĨ": 2818,
      "40": 2819,
      "ĠØ§ÙĦÙĩ": 2820,
      "Ġkazi": 2821,
      "à±ĭà°ª": 2822,
      "à¹īà¸¡": 2823,
      "alÄ±ÅŁ": 2824,
      "ĠØ§ÙĦØ³ÙĬ": 2825,
      "à¹Īà¸§à¸¢": 2826,
      "ĠÙĥØ§ÙĨØª": 2827,
      "fanya": 2828,
      "ĠØ§Ø®": 2829,
      "ĠØ§ÙĦÙħØ³Øª": 2830,
      "è¡¨": 2831,
      "ĠÙĤØ¨ÙĦ": 2832,
      "æģ": 2833,
      "05": 2834,
      "ouv": 2835,
      "ĠÙģÙĬÙĩ": 2836,
      "çĽ¸": 2837,
      "ÑıÑĤ": 2838,
      "Ġapp": 2839,
      "ĠÐ¾Ð½": 2840,
      "cÄ±": 2841,
      "Ġkab": 2842,
      "07": 2843,
      "AR": 2844,
      "å£": 2845,
      "ÙĪØ©": 2846,
      "Ø§ÙħØ©": 2847,
      "ima": 2848,
      "ach": 2849,
      "ĠÙĪÙĤØ¯": 2850,
      "Ġter": 2851,
      "åĬ¨": 2852,
      "à¸Ļà¸³": 2853,
      "à¸Ĭà¸Ļ": 2854,
      "ĠgÃ¼n": 2855,
      "Ø±Ø¯": 2856,
      "ÑĦÐ¸": 2857,
      "åħ¥": 2858,
      "ĠÙģÙĬÙĩØ§": 2859,
      "à¥Ī,": 2860,
      "erv": 2861,
      "ĠÙĪØŃ": 2862,
      "à¸ĺà¸£à¸£à¸¡": 2863,
      "ÑĥÑĤ": 2864,
      "æīĭ": 2865,
      "Ġhar": 2866,
      "Ġà¤¬à¤¨": 2867,
      "03": 2868,
      "à°Ĥ.": 2869,
      "çī©": 2870,
      "go": 2871,
      "isa": 2872,
      "ï¼Ł": 2873,
      "ĠØŃÙĬØ«": 2874,
      "Ð»ÑģÑı": 2875,
      "éĩį": 2876,
      "gan": 2877,
      "Ġà¤§": 2878,
      "à¥ĩà¤Ł": 2879,
      "çİ°": 2880,
      "Ġmb": 2881,
      "à°²à°ķ": 2882,
      "à¥Īà¤¸": 2883,
      "els": 2884,
      "à¸ľà¸¡": 2885,
      "ÙĥØ«Ø±": 2886,
      "Ġout": 2887,
      "à¹Ħà¸Ĺà¸¢": 2888,
      "ä»»": 2889,
      "ĠEn": 2890,
      "ĠÐķ": 2891,
      "Ġà°ªà°¨": 2892,
      "à¤¾à¤ª": 2893,
      "à±įà°°à°¯": 2894,
      "à°ļà°¡": 2895,
      "Ð±Ð¸": 2896,
      "Ð¾Ð³Ð¸": 2897,
      ",Ċ": 2898,
      "ran": 2899,
      "Ġpla": 2900,
      "Ġkw": 2901,
      "ĠØ§ØŃ": 2902,
      "Ð¾Ð³Ð´Ð°": 2903,
      "ÑĢÐ¾Ð¼": 2904,
      "à¥ģà¤ķ": 2905,
      "à¥ĩà¤ĸ": 2906,
      "adÄ±r": 2907,
      "æľĪ": 2908,
      "Ã¶l": 2909,
      "ĠÑĩÐ°": 2910,
      "ĠÂ»": 2911,
      "pa": 2912,
      "Ø§ØªÙĩ": 2913,
      "Ø®Øª": 2914,
      "ĠÃĩ": 2915,
      "ç³»": 2916,
      "Ġà¸ļ": 2917,
      "Ġget": 2918,
      "ÙĪØµ": 2919,
      "ĠØ§ÙĦØ¹Ø§ÙĦÙħ": 2920,
      "à¸±à¸ģà¸©": 2921,
      "inden": 2922,
      "ĠØ§Ø¹": 2923,
      "Ø§ÙĦÙĬØ©": 2924,
      "à±įà°ľ": 2925,
      "Ð±Ðµ": 2926,
      "à¸²à¸Ħ": 2927,
      "ĠLe": 2928,
      "ĠØ¨ØŃ": 2929,
      "ĠØ§ÙĦØ£Ùħ": 2930,
      "Ġà¤ķà¤°à¤¤": 2931,
      "æĵ": 2932,
      "éľ": 2933,
      "å¸¸": 2934,
      "Ñį": 2935,
      "à±Ĩà°¦": 2936,
      "ĠgeÃ§": 2937,
      "Ð½ÑĥÑİ": 2938,
      "à¸§à¸ĩ": 2939,
      "à¸¢à¸Ļ": 2940,
      "ÙĨÙĬØ©": 2941,
      "Ġà°ħà°°": 2942,
      "ĠØ§Ø³": 2943,
      "08": 2944,
      "à¥ĭà¤°": 2945,
      "eki": 2946,
      "à±Ĭà°¤": 2947,
      "à±įà°ªà°Ł": 2948,
      "à¤¼à¤¾": 2949,
      "çī¹": 2950,
      "æ¡": 2951,
      "Ð¼ÐµÑĢ": 2952,
      "çŃī": 2953,
      "cess": 2954,
      "à±įà°°à°ķ": 2955,
      "à±ģà°²à°ķ": 2956,
      "à°Ĥà°¦à°°": 2957,
      "ĠÃ¶z": 2958,
      "ĠØ§ÙĦØ§Ø³Øª": 2959,
      "Ø¦Ø©": 2960,
      "Ġà¹ĥà¸Ļ": 2961,
      "Ð¾Ðµ": 2962,
      "èĻ": 2963,
      "aye": 2964,
      "å®ī": 2965,
      "ĠSt": 2966,
      "å¼Ģ": 2967,
      "è¿ĺ": 2968,
      "Ġhivyo": 2969,
      "Ġà°ĵ": 2970,
      "ĠolduÄŁ": 2971,
      "ĠÙĨÙģØ³": 2972,
      "à±įà°¶": 2973,
      "ĠØªÙĤ": 2974,
      "ĠÙĥØªØ§Ø¨": 2975,
      "à¸Ĺà¸£": 2976,
      "Ġhali": 2977,
      "Ġaut": 2978,
      "ĠØ¨Ø´": 2979,
      "chi": 2980,
      "Ġgel": 2981,
      "ici": 2982,
      "ÙģØ¶": 2983,
      "à¸µà¸§": 2984,
      "ĠÐ¿Ð¾Ðº": 2985,
      "à±ģà°ĸ": 2986,
      "ĠÐ´ÑĢÑĥ": 2987,
      "à°¦à°¨": 2988,
      "à°Ĥà°¸": 2989,
      "à¸ªà¸Ķ": 2990,
      "ona": 2991,
      "à±įà°¯à°®": 2992,
      "ĠØ¥ÙĦØ§": 2993,
      "apo": 2994,
      "à°¿à°µà°°": 2995,
      "ĠÙħÙĪ": 2996,
      "lis": 2997,
      "ÙĩÙħØ§": 2998,
      "Ġà°Ĩà°¯à°¨": 2999,
      "åĥ": 3000,
      "ÑĢÐ¾Ð´": 3001,
      "eden": 3002,
      "ä»¶": 3003,
      "Ġbin": 3004,
      "à¸ĵà¸°": 3005,
      "Ø·Ø±": 3006,
      "æķĻ": 3007,
      "-Ċ": 3008,
      "ĠÐ¾Ð¿": 3009,
      "à¸¸à¸¡": 3010,
      "ĠÃ§alÄ±ÅŁ": 3011,
      "Ø¹Ø§": 3012,
      "âĢĿĊ": 3013,
      "ĠsÃ¼": 3014,
      "ÐºÐ¾Ð¼": 3015,
      "Ð¼Ñı": 3016,
      "Ð´Ð¾": 3017,
      "Ø¹ÙĬ": 3018,
      "ĠÙħØµ": 3019,
      "//": 3020,
      "éĩĮ": 3021,
      "à°Ĥà°¬": 3022,
      "ÑģÐºÐ¾Ð¹": 3023,
      "lerin": 3024,
      "Ġkal": 3025,
      "ew": 3026,
      "lim": 3027,
      "é¦": 3028,
      "èī": 3029,
      "imu": 3030,
      "Ø§Ø¯ÙĬ": 3031,
      "Ø¬Ø¯": 3032,
      "à¤Ĥà¤Ĺ": 3033,
      "à¹īà¸£": 3034,
      "à¹Īà¸²à¸§": 3035,
      "ĠaÃ§": 3036,
      "à¹Ģà¸ļ": 3037,
      "masÄ±": 3038,
      "ØªØŃ": 3039,
      "ould": 3040,
      "å¢": 3041,
      "à¹Ģà¸Ĺà¸¨": 3042,
      "tp": 3043,
      "Ġkum": 3044,
      "à°¿à°·à°¯": 3045,
      "à¥įà¤ļ": 3046,
      "Ġsonra": 3047,
      "ÙĢÙĢÙĢÙĢ": 3048,
      "ĠÙĪØ¥": 3049,
      "èħ": 3050,
      "à¥ĩà¥¤": 3051,
      "à¥įà¤¨": 3052,
      "ĠØ§ÙĦØ£Ø³": 3053,
      "Ð¾Ð½Ð°": 3054,
      "Ġmi": 3055,
      "Ġbas": 3056,
      "ingi": 3057,
      "01": 3058,
      "à¸µà¸ģà¸²à¸£": 3059,
      "ĠÐ²Ð¾": 3060,
      "à±ĥà°¤": 3061,
      "Ð´Ñĭ": 3062,
      "à¸Ļà¸Ĺ": 3063,
      "ary": 3064,
      "åıĹ": 3065,
      "ait": 3066,
      "Ġlo": 3067,
      "ĠÙĩÙĨØ§": 3068,
      "Ġiz": 3069,
      "Ġinc": 3070,
      "mer": 3071,
      "à±ĭà°¡": 3072,
      "à±Ģà°®": 3073,
      "ĠÑģÐ°Ð¼": 3074,
      "cho": 3075,
      "ç»ı": 3076,
      "Ġkus": 3077,
      "ÑģÑĤÐ²Ð¾": 3078,
      "åĭķ": 3079,
      "Ġpre": 3080,
      "Ġamba": 3081,
      "ingine": 3082,
      "****": 3083,
      "Ġvya": 3084,
      "ÙĦÙĬÙĦ": 3085,
      "ated": 3086,
      "å¾Į": 3087,
      "è³": 3088,
      "à¸ªà¸£": 3089,
      "ĠPro": 3090,
      "ala": 3091,
      "ĠÙĦØ£ÙĨ": 3092,
      "åĵģ": 3093,
      "èĬ": 3094,
      "Ø£Ø©": 3095,
      "åĲį": 3096,
      "Ġaux": 3097,
      "Ġà°ħà°§": 3098,
      "ĠÐŃ": 3099,
      "à¸´à¸ļ": 3100,
      "æĤ¨": 3101,
      "Ġmore": 3102,
      ";Ċ": 3103,
      "cha": 3104,
      "Ġpers": 3105,
      "ĠÙĪÙģÙĬ": 3106,
      "Ġà¤¸à¤ķà¤¤": 3107,
      "æĦŁ": 3108,
      "gi": 3109,
      "anza": 3110,
      "æį": 3111,
      "ilen": 3112,
      "à¥ĩà¤²": 3113,
      "ÑģÑĤÐ²Ð¸": 3114,
      "ÑĢÐ°Ð²Ð¸": 3115,
      "Ġà¤ĺ": 3116,
      "à±ĥà°·": 3117,
      "://": 3118,
      "Ġnd": 3119,
      "Ø§Ø¹Ø¯": 3120,
      "ÙĤØ§": 3121,
      "à±Ģà°¡": 3122,
      "æľº": 3123,
      "åĿ": 3124,
      "æ°ĳ": 3125,
      "à¸Ĵ": 3126,
      "Ġta": 3127,
      "ĠÙģØ¥ÙĨ": 3128,
      "éģİ": 3129,
      "à¥ĥ": 3130,
      "åįģ": 3131,
      "ÙĪØ±ÙĬ": 3132,
      "Ġmas": 3133,
      "use": 3134,
      "à¹Įà¸Ĺ": 3135,
      "Ø¸Ø§Ùħ": 3136,
      "ĠLa": 3137,
      "à±įà°°à°Ń": 3138,
      "Ġà°īà°¦": 3139,
      "èĭ": 3140,
      "Ä±lan": 3141,
      "Ġhat": 3142,
      "cer": 3143,
      "ĠØ¥Ø°Ø§": 3144,
      "Ġmy": 3145,
      "Ġà°ħà°ª": 3146,
      "Ġsana": 3147,
      "ĠØ¹ÙĦÙħ": 3148,
      "ĠÑģÑĥ": 3149,
      "à¹Ģà¸§à¸¥": 3150,
      "Ġà¤īà¤¸à¤ķ": 3151,
      "ack": 3152,
      "à±Ģà°Ł": 3153,
      "åħ³": 3154,
      "à°¾à°²à°ķ": 3155,
      "æĥħ": 3156,
      "Ð»Ñĭ": 3157,
      "à¸§à¸¡": 3158,
      "Ø¸Ùħ": 3159,
      "Ä±yor": 3160,
      "ä¸ī": 3161,
      "æ¥": 3162,
      "Ø§Øº": 3163,
      "à¸ĩà¸Ĺ": 3164,
      "Ø§Ø¹Ø©": 3165,
      "ä¸Ģä¸ª": 3166,
      "min": 3167,
      "ric": 3168,
      "à¥ĭà¤Ł": 3169,
      "à¸´à¹ī": 3170,
      "à¸ŀà¸£": 3171,
      "ĠÐ¿Ð¾Ð¼": 3172,
      "ĠØ£ÙĨÙĩ": 3173,
      "ĠÐĽ": 3174,
      "Ø§ÙĦØ¨": 3175,
      "ä¸İ": 3176,
      "ä¿¡": 3177,
      "à¸ģà¸³": 3178,
      "Ġbulun": 3179,
      "à°ĩ": 3180,
      "unda": 3181,
      "à°ªà°¡": 3182,
      "è¿Ľ": 3183,
      "à¤¢": 3184,
      "ØºØ©": 3185,
      "ole": 3186,
      "ÑģÐºÐ¾Ð³Ð¾": 3187,
      "Ġhis": 3188,
      "ows": 3189,
      "ĠØ§Ø¨ÙĨ": 3190,
      "uh": 3191,
      "à¹Ģà¸¥à¸¢": 3192,
      "è²": 3193,
      "à°®à°¨": 3194,
      "ĠØ§ÙĦØ°ÙĬÙĨ": 3195,
      "æ¯Ķ": 3196,
      "à¥ĩà¤µ": 3197,
      "Ġsp": 3198,
      "Ġà°ªà°¡": 3199,
      "à¸´à¸§": 3200,
      "ĠÐ±Ð¾Ð»ÑĮ": 3201,
      "Ø±Ø§Ø¡": 3202,
      "ĠÙĪÙĤ": 3203,
      "çĶ·": 3204,
      "ĠÙħØ«ÙĦ": 3205,
      "ĠÐ·Ð½Ð°": 3206,
      "à¥ģà¤Ľ": 3207,
      "Ø¯Ø¯": 3208,
      "ĠÙĬØ³Øª": 3209,
      "Ġcons": 3210,
      "esha": 3211,
      "Ġgerek": 3212,
      "izo": 3213,
      "ÙĬÙĩ": 3214,
      "Ġtek": 3215,
      "Ġà¹Ĥ": 3216,
      "à¹Ģà¸Ńà¸ĩ": 3217,
      "à°¾à°°à°£": 3218,
      "éĢļ": 3219,
      "Ġyak": 3220,
      "ĠØ£Ø¨": 3221,
      "ÑİÑīÐ¸": 3222,
      "à¸±à¸Ļà¸Ĺ": 3223,
      "san": 3224,
      "Ø®Ø±Ùī": 3225,
      "à¹Ģà¸¢": 3226,
      "à¸²à¸Ī": 3227,
      "ambo": 3228,
      "iku": 3229,
      "ÄŁr": 3230,
      "Ð¾Ð»Ð¸": 3231,
      "Ġtheir": 3232,
      "Ġben": 3233,
      "Ġyet": 3234,
      "ilis": 3235,
      "ÙĪÙĥ": 3236,
      "Ġthey": 3237,
      "ĠÙĪØ§ÙĦØ£": 3238,
      "Ð½Ð¸Ð¸": 3239,
      "ize": 3240,
      "Ġcont": 3241,
      "ĠÃ¼zer": 3242,
      "ÙĦØ³": 3243,
      "å°Ĩ": 3244,
      "ĠØ§ÙĦÙħØ¬": 3245,
      "Ã¶r": 3246,
      "æŃ£": 3247,
      "åĨį": 3248,
      "ain": 3249,
      "Ġkuk": 3250,
      "ÙĪÙħØ©": 3251,
      "çı": 3252,
      "Ġnous": 3253,
      "ayÄ±": 3254,
      "ÙĦÙĥÙĨ": 3255,
      "ÙĤØ¯Ùħ": 3256,
      "02": 3257,
      "Ø¨Ùĩ": 3258,
      "Ø¶Ø¹": 3259,
      "æİ¥": 3260,
      "Ð¼Ñĭ": 3261,
      "ĠØ¨Øª": 3262,
      "æľŁ": 3263,
      "lir": 3264,
      "Ġmin": 3265,
      "ĠUn": 3266,
      "vi": 3267,
      "æ·": 3268,
      "lem": 3269,
      "Ġhad": 3270,
      "ĠgÃ¶re": 3271,
      "be": 3272,
      "ÙĪØŃ": 3273,
      "à¥ģà¤¤": 3274,
      "ç¥": 3275,
      "Ġà°§": 3276,
      "ÑĨÐ°": 3277,
      "ven": 3278,
      "Ġà¸Ľ": 3279,
      "à±ģĊ": 3280,
      "ĠØ´ÙĬ": 3281,
      "ĠØ¥ÙĦÙĬ": 3282,
      "ours": 3283,
      "Ġkutoka": 3284,
      "è°": 3285,
      "ishi": 3286,
      "ÑīÐ°": 3287,
      "ÑĥÑĩ": 3288,
      "Ġzaman": 3289,
      "ĠÑĢÑĥ": 3290,
      "Ġsab": 3291,
      "ÙİÙĦ": 3292,
      "Ġmais": 3293,
      "à¸«à¸¡à¸²à¸¢": 3294,
      "æ²¡": 3295,
      "à¤ł": 3296,
      "à¸Ħà¸³": 3297,
      "Ġgen": 3298,
      "ÑĨÐ¸Ñı": 3299,
      "lÃ¼": 3300,
      "Ø¬Ø©": 3301,
      "Ġone": 3302,
      "ants": 3303,
      "hir": 3304,
      "ĠÐ¾Ð´": 3305,
      "à¸±à¸Ĵ": 3306,
      "à¹ģà¸¡": 3307,
      "ose": 3308,
      "èŃ": 3309,
      "ĠØ¹ÙħÙĦ": 3310,
      "ĠÙĪØ§ØŃ": 3311,
      "Ġmp": 3312,
      "çĿ": 3313,
      "ĠHot": 3314,
      "Ø§ØµØ©": 3315,
      "Ġveya": 3316,
      "Ġwakati": 3317,
      "ez": 3318,
      "à¸±à¸Ĵà¸Ļ": 3319,
      "ĠÙĦÙĥÙĨ": 3320,
      "à¤¾à¤ĵ": 3321,
      "à°İ": 3322,
      "à¤Ĩ": 3323,
      "Ð»ÐµÐ½Ð¸Ñı": 3324,
      "Ø§Ø±Ùĥ": 3325,
      "å½ĵ": 3326,
      "Ġzaidi": 3327,
      "çĽ®": 3328,
      "à±įà°°à°¸": 3329,
      "Ġtop": 3330,
      "Ø±ØŃ": 3331,
      "ink": 3332,
      "Ð²Ð¾Ð´": 3333,
      "Ġmar": 3334,
      "Ġoff": 3335,
      "ÙĬØ´": 3336,
      "Ð½ÑĭÐ¼Ð¸": 3337,
      "Ùį": 3338,
      "its": 3339,
      "ÙİØ§": 3340,
      "ĠÐ¼Ñĭ": 3341,
      "à¹īà¸²à¸¢": 3342,
      "Ġmtu": 3343,
      "Ġkuj": 3344,
      "lara": 3345,
      "ĠÙħØ¬": 3346,
      "çģ": 3347,
      "Ð¾Ð»ÑĮÐ·Ð¾Ð²Ð°": 3348,
      "ÑģÑĥ": 3349,
      "oci": 3350,
      "å¼ı": 3351,
      "åĻ": 3352,
      "à±ģà°ļ": 3353,
      "uku": 3354,
      "ç¬¬": 3355,
      "Ġabo": 3356,
      "æľį": 3357,
      "à¥ĩà¤¸": 3358,
      "ĠsÃ¶": 3359,
      "Ġhab": 3360,
      "åģļ": 3361,
      "à¹Īà¸Ńà¸¢": 3362,
      "à±Ģà°¤": 3363,
      "Ø·ÙĦ": 3364,
      "Ġà°Ĩà°®": 3365,
      "è»Ĭ": 3366,
      "Ã¼rk": 3367,
      "à°¨à°²": 3368,
      "èº«": 3369,
      "ĠÙĪØ§ÙĦØ¹": 3370,
      "à¤¥": 3371,
      "ĠØŁ": 3372,
      "esh": 3373,
      "ÑģÑĤÑĥ": 3374,
      "Ġà°µà°¸": 3375,
      "à¹ĥà¸«à¸¡": 3376,
      "à¸«à¸¥à¸²à¸¢": 3377,
      "à¸µà¸Ħà¸§à¸²à¸¡": 3378,
      "ÐµÐ½ÑĤ": 3379,
      "à¤ģ": 3380,
      "à±Ģ,": 3381,
      "ĠØ§ÙĦØ¥ÙĨØ³": 3382,
      "husu": 3383,
      "Ġkadar": 3384,
      "à¹ĩà¸ļ": 3385,
      "Ġden": 3386,
      "ĠÑģÐ¿": 3387,
      "Ġà°īà°ª": 3388,
      "ivers": 3389,
      "à¸¹à¸¥": 3390,
      "çĶ±": 3391,
      "ĠØªØ¬": 3392,
      "own": 3393,
      "Ð¼Ñĥ": 3394,
      "ĠØ§ÙĦØ¯ÙĪÙĦ": 3395,
      "à¥Ģà¤¯": 3396,
      "ĠØ¨Ø£ÙĨ": 3397,
      "à¥įà¤§": 3398,
      "à±ĩà°ª": 3399,
      "à±ĭ,": 3400,
      "ç¨ĭ": 3401,
      "26": 3402,
      "ĠÙĬØ¯": 3403,
      "ÐºÐ°Ð·Ð°": 3404,
      "Ġ..": 3405,
      "å·±": 3406,
      "Ã©n": 3407,
      "Ø®Ø¯": 3408,
      "ÑĤÐ¾Ð±Ñĭ": 3409,
      "Ġkim": 3410,
      "åºĹ": 3411,
      "ĠÐ¿ÐµÑĢ": 3412,
      "Ġwat": 3413,
      "à¥Īà¥¤Ċ": 3414,
      "tedir": 3415,
      "60": 3416,
      "Ġà¸Ĥ": 3417,
      "ÐµÐ½Ð¸Ð¸": 3418,
      "'t": 3419,
      "à¸µà¸Ĺ": 3420,
      "Ġà¤¤à¤°": 3421,
      "æĬĬ": 3422,
      "ä½¿çĶ¨": 3423,
      "oÄŁ": 3424,
      "ĠØ§ÙĦÙħØ¤": 3425,
      "asÄ±nda": 3426,
      "ĠÑģÐ²": 3427,
      "80": 3428,
      "çŁ¥": 3429,
      "Ġaj": 3430,
      "leÅŁ": 3431,
      "ĠÙģÙĩ": 3432,
      "Ø£Ø³": 3433,
      "Ġuz": 3434,
      "å¹¶": 3435,
      "aÄŁ": 3436,
      "daki": 3437,
      "Ġsan": 3438,
      "ĠÑģÐ»Ñĥ": 3439,
      "à±ĩ,": 3440,
      "à¸µà¸Ļ": 3441,
      "ĠÙĬÙĤ": 3442,
      "à±Ĭà°²": 3443,
      "ĠsaÄŁ": 3444,
      "uv": 3445,
      "Ä±lÄ±": 3446,
      "à¸ĩà¸ª": 3447,
      "Ġcr": 3448,
      "ĠÐ¿Ð°": 3449,
      "Ð¾Ð²Ñĭ": 3450,
      "ĠÙĥØ¨": 3451,
      "å¸Ĥ": 3452,
      "çīĩ": 3453,
      "Ġmad": 3454,
      "à¸·à¸Ńà¸ĩ": 3455,
      "ä¾Ľ": 3456,
      "Ġum": 3457,
      "Ġà¤ķà¤®": 3458,
      "à¤Ĥà¤¦": 3459,
      "Ã©c": 3460,
      "ĠyaÅŁ": 3461,
      "ĠÙħØŃÙħØ¯": 3462,
      "ĠQ": 3463,
      "à±Īà°²": 3464,
      "ĠØ¸": 3465,
      "Ġpos": 3466,
      "à¸Īà¸£": 3467,
      "hip": 3468,
      "ken": 3469,
      "Ġfin": 3470,
      "06": 3471,
      "Ø¹Ø±": 3472,
      "Ġtro": 3473,
      "åĪ¶": 3474,
      "any": 3475,
      "å°į": 3476,
      "Ġjuu": 3477,
      "Ø±ÙĥØ©": 3478,
      "éĤĦ": 3479,
      "Ãł": 3480,
      "çĪ": 3481,
      "é«Ķ": 3482,
      "ĠØ£Øµ": 3483,
      "ÙĨÙī": 3484,
      "uru": 3485,
      "ass": 3486,
      "Ä±nÄ±z": 3487,
      "à¸¸à¸Ļ": 3488,
      "Ġmoja": 3489,
      "IN": 3490,
      "Ġà¹Ĩ": 3491,
      "ĠØ¹Ø¨Ø¯": 3492,
      "à¤¹à¤°": 3493,
      "'d": 3494,
      "Ġvi": 3495,
      "èĩªå·±": 3496,
      "Ġà¤īà¤¨à¤ķ": 3497,
      "à¹ģà¸«": 3498,
      "éĹ´": 3499,
      "âĢĻa": 3500,
      "Ġlik": 3501,
      "90": 3502,
      "Ġà¤Ľ": 3503,
      "çĶµ": 3504,
      "à±Ĭà°°": 3505,
      "åĽŀ": 3506,
      "Ð½Ð¸Ð¼Ð°": 3507,
      "ØªÙħØ§Ø¹": 3508,
      "Ġkit": 3509,
      "ä¸ĸ": 3510,
      "ase": 3511,
      "à¸ŀà¸¥": 3512,
      "ther": 3513,
      "ÙģÙĦ": 3514,
      "ï¼ģ": 3515,
      "åºĶ": 3516,
      "Ø¯Ùī": 3517,
      "Ð»Ð¾Ñģ": 3518,
      "åľĭ": 3519,
      "æĺİ": 3520,
      "éħĴ": 3521,
      "tadÄ±r": 3522,
      "ĠÐ¼ÐµÐ½": 3523,
      "ld": 3524,
      "à°¾à°ļ": 3525,
      "ÙĪÙħØ§Øª": 3526,
      "ĠØ¨Ø§ÙĦÙħ": 3527,
      "ĠFr": 3528,
      "Ġart": 3529,
      "ugh": 3530,
      "ÑİÑĤÑģÑı": 3531,
      "à¹īà¸²à¸¡": 3532,
      "Ġyar": 3533,
      "ĠMar": 3534,
      "uc": 3535,
      "åł": 3536,
      "iÄŁ": 3537,
      "ph": 3538,
      "à¸£à¸ģ": 3539,
      "Ø§Ø³ÙĬØ©": 3540,
      "Ġfo": 3541,
      "Ð¾Ð´Ñĥ": 3542,
      "ĠÐ´Ð¸": 3543,
      "à±ĩà°ľ": 3544,
      "éķ¿": 3545,
      "è©": 3546,
      "Ġà¹Ħà¸¡": 3547,
      "ires": 3548,
      "Ġà¤®à¤¹": 3549,
      "Ð»Ð¸ÑģÑĮ": 3550,
      "........": 3551,
      "Ġserv": 3552,
      "Ø¹Øª": 3553,
      "ĠMa": 3554,
      "ä½ĵ": 3555,
      "ĠØ§ÙĦØ¬Ùħ": 3556,
      "ÑģÑĤÐ¾Ñı": 3557,
      "EN": 3558,
      "fi": 3559,
      "ĠØ§ÙĦØ§": 3560,
      "ØŃØ±": 3561,
      "Ġà°ªà°Ł": 3562,
      "ÑĦÐ¾ÑĢ": 3563,
      "Ġà¸ĸ": 3564,
      "ÑģÑģÐ¸": 3565,
      "ĠØ¹Ùħ": 3566,
      "eti": 3567,
      "oh": 3568,
      "ĠÙĦÙĩØ§": 3569,
      "ets": 3570,
      "Ġà¤¤à¤ķ": 3571,
      "à¸¶à¸ģà¸©": 3572,
      "ec": 3573,
      "ĠÙĪÙĦÙĥÙĨ": 3574,
      "âĢĻest": 3575,
      "Ġà°¤à°®": 3576,
      "ĠØªØ´": 3577,
      "à¸Ńà¸ĩà¸Ħ": 3578,
      "ĠbÃ¼y": 3579,
      "à¸¢à¸§": 3580,
      "à¹Ĥà¸¥à¸ģ": 3581,
      "mad": 3582,
      "Ġà¹Ħà¸Ķ": 3583,
      "Ġà°ħà°Ń": 3584,
      "ical": 3585,
      ".w": 3586,
      "Ġwhich": 3587,
      "æĶ¿": 3588,
      "04": 3589,
      "28": 3590,
      "æ»": 3591,
      "ĠØ§ÙĦØ¶": 3592,
      "ĠÙĪÙģ": 3593,
      "à¸´à¸ĺ": 3594,
      "Ø§ÙĨÙĪÙĨ": 3595,
      "å®¢": 3596,
      "æħ": 3597,
      "Ġmt": 3598,
      "à¤¾à¤¬": 3599,
      "ĠØ¯ÙĪÙĨ": 3600,
      "à±įà°°à°ª": 3601,
      "ĠÐĿÐ°": 3602,
      "Ġà¤Ĳ": 3603,
      "ĠØ§ÙĦØ§Ùħ": 3604,
      "Ð¼Ð¾Ð¶": 3605,
      "Ø¦ÙĬØ³": 3606,
      "Ġà¸¢": 3607,
      "In": 3608,
      "à¤¾à¤Ĺ": 3609,
      "Ġfir": 3610,
      "Ġrec": 3611,
      "ĠØªØµ": 3612,
      "Ġà°ħà°¡": 3613,
      "Ġyaz": 3614,
      "âĢĻÃ©": 3615,
      "Ø±Ùī": 3616,
      "aÃ§": 3617,
      "à±ģà°¬": 3618,
      "Ø§Ø³Ø©": 3619,
      "ĠCom": 3620,
      "27": 3621,
      "ies": 3622,
      "Ġvar": 3623,
      "à¤ħ": 3624,
      "icro": 3625,
      "à¥ģà¤®": 3626,
      "Ø§Ø±ÙĬØ®": 3627,
      "ner": 3628,
      "ĠÙĦØ£": 3629,
      "à¹īà¸²à¸Ĺ": 3630,
      "Ġà¤ħà¤²": 3631,
      "Ġkila": 3632,
      "åĮĸ": 3633,
      "Ġà¸Ĭ": 3634,
      "ĠÐĹ": 3635,
      "Ġà¤ħà¤§": 3636,
      "à¸Ńà¸²à¸Ī": 3637,
      "ÑĩÐ½Ð¾": 3638,
      "ĠÑįÑĤ": 3639,
      "mektedir": 3640,
      "jia": 3641,
      "à±į.": 3642,
      "Ġaf": 3643,
      "Ġcol": 3644,
      "Ø§ØŃØ©": 3645,
      "Ġà¸«": 3646,
      "à¸µà¸ª": 3647,
      "ely": 3648,
      "à¹ĥà¸«à¸į": 3649,
      "kini": 3650,
      "ĠÐ¸Ñħ": 3651,
      "oma": 3652,
      "ÑĬ": 3653,
      "Ø¹ÙĬØ©": 3654,
      "ÙİÙĨ": 3655,
      "ä½ķ": 3656,
      "à±ģ]Ċ": 3657,
      "ÑĤÐµÑĢ": 3658,
      "ÙĦÙĬØ©": 3659,
      "Ġà°·": 3660,
      "Ø§ÙĦØª": 3661,
      "anda": 3662,
      "ĠØ£ØŃ": 3663,
      "ÙĲÙĳ": 3664,
      "Ø§ÙĦØŃ": 3665,
      "ley": 3666,
      "ĠÙĬÙĪÙħ": 3667,
      "larda": 3668,
      "ĠØ§ÙĦØ¹ÙħÙĦ": 3669,
      "ĠÑĩÐµ": 3670,
      "ĠdoÄŁ": 3671,
      "Ø¨Ø§Øª": 3672,
      "à¥Ģà¤°": 3673,
      "ĠÙħÙĨÙĩØ§": 3674,
      "åĳĺ": 3675,
      "çĻ¼": 3676,
      "èĲ": 3677,
      "ese": 3678,
      "Ġour": 3679,
      "ĠTr": 3680,
      "æĸ¼": 3681,
      "à±Ĩà°¯": 3682,
      "Ġà°®à°§": 3683,
      "æ£": 3684,
      "Ġ|": 3685,
      "Ġà°ĸ": 3686,
      "ule": 3687,
      "ĠdÃ¶n": 3688,
      "ede": 3689,
      "æ¶": 3690,
      "çĹ": 3691,
      "Ġcette": 3692,
      "Ġif": 3693,
      "Ġkap": 3694,
      "Ġabout": 3695,
      "Ã´": 3696,
      "äºĮ": 3697,
      "åĪ©": 3698,
      "éĸĭ": 3699,
      "Ø§Ø¦ÙĬØ©": 3700,
      "à¥įà¤¯à¤ķ": 3701,
      "Ø¯ÙĬØ«": 3702,
      "ts": 3703,
      "yla": 3704,
      "mas": 3705,
      "arak": 3706,
      "Ġdon": 3707,
      "æ²¡æľī": 3708,
      "Ġel": 3709,
      "Ġà°ħà°ķ": 3710,
      "Ġà¤¸à¤°": 3711,
      "åĻ¨": 3712,
      "åĤ": 3713,
      "ÑĥÐ¶": 3714,
      "ï¼Įä½Ĩ": 3715,
      "ÑĢÐ°Ð¼": 3716,
      "à¸¹à¸Ľ": 3717,
      "ĠÐ´Ð¾Ð»": 3718,
      "ĠÐ±Ðµ": 3719,
      "à¸±à¸ļà¸ģà¸²à¸£": 3720,
      "app": 3721,
      "ÐµÐ¼Ñĥ": 3722,
      "âĢĶâĢĶ": 3723,
      "à¸®": 3724,
      "ĠÅŁek": 3725,
      "çĤ¹": 3726,
      "Ġ!": 3727,
      "åĬ¡": 3728,
      "Ġder": 3729,
      "à¹Ģà¸ĭ": 3730,
      "Ġnew": 3731,
      "Ġà¤ĩà¤¨": 3732,
      "Ð½ÐµÐ¹": 3733,
      "Ġmbali": 3734,
      "reat": 3735,
      "à¥ģà¤¦": 3736,
      "--------": 3737,
      "ÙĪÙĦØ§": 3738,
      "ique": 3739,
      "Ġses": 3740,
      "Ġab": 3741,
      "ikali": 3742,
      "Ø¨Øª": 3743,
      "Ġambayo": 3744,
      "å»º": 3745,
      "ks": 3746,
      "ĠØ¨Ø±": 3747,
      "ÑģÑĤÐµ": 3748,
      "à±įà°°à°ľ": 3749,
      "à±įà°µà°°": 3750,
      "day": 3751,
      "ÙĪØ§Ø¨": 3752,
      "ØŃÙĪ": 3753,
      "Ġkub": 3754,
      "ĠMt": 3755,
      "ĠÐ±Ñĥ": 3756,
      "okuwa": 3757,
      "ĠÃ¶zel": 3758,
      "Ġà¸¥": 3759,
      "à¥įà¤°à¤¤": 3760,
      "..Ċ": 3761,
      "à¸Ļà¸°": 3762,
      "à¤¸à¤°": 3763,
      "Ġbaada": 3764,
      "æķ°": 3765,
      "eÅŁ": 3766,
      "ĠØªØ£": 3767,
      "ĠÑĤÐ¾Ð»ÑĮÐºÐ¾": 3768,
      "ĠdÃ¼ÅŁ": 3769,
      "à°Ĥà°Ń": 3770,
      "Ġà°ĩà°ª": 3771,
      "Ġà¸ľ": 3772,
      "Ð¸ÑĤÑĮ": 3773,
      "Ð½Ð¸Ðº": 3774,
      "Ø®ØªÙĦÙģ": 3775,
      "ĠØ§Ø±": 3776,
      "ĠØªØ³": 3777,
      "Ð±Ð¾ÑĤ": 3778,
      "à±ĭà°µà°¡": 3779,
      "æ¼": 3780,
      "ĠÑĩÑĤÐ¾Ð±Ñĭ": 3781,
      "29": 3782,
      "éº": 3783,
      "éŁ": 3784,
      "Ġtaraf": 3785,
      "à¸Īà¸Ļ": 3786,
      "ÙĤÙĬÙĤ": 3787,
      "è·¯": 3788,
      "Ġek": 3789,
      "Ġsy": 3790,
      "angu": 3791,
      "adhi": 3792,
      "ĠAb": 3793,
      "ĠØŃØ¯": 3794,
      "Ġà¹Ģà¸¡": 3795,
      "Ġiki": 3796,
      "ĠbÃ¶l": 3797,
      "las": 3798,
      "ÙģØª": 3799,
      "ath": 3800,
      "à¥Ģà¤µ": 3801,
      "Ġuna": 3802,
      "azo": 3803,
      "ĠÐ£": 3804,
      "à¤¿à¤§": 3805,
      "ĠØ§ÙĦÙħØµ": 3806,
      "ĠØªØ¯": 3807,
      "à°¸à°°": 3808,
      "ational": 3809,
      "Ð»ÐµÐ¹": 3810,
      "à¸Ľà¸£à¸°à¸ģ": 3811,
      "à¤·": 3812,
      "ĠÐºÑĥ": 3813,
      "èªª": 3814,
      "Ġid": 3815,
      "éĿŀ": 3816,
      "à¸²à¸°": 3817,
      "Ġtak": 3818,
      "Ð»Ð¾Ð¶": 3819,
      "lama": 3820,
      "ĠKwa": 3821,
      "Ø§Ø¬ØªÙħØ§Ø¹": 3822,
      "à¸Ľà¸£à¸°à¹Ģà¸Ĺà¸¨": 3823,
      "æ´»": 3824,
      "Ø³Ø±": 3825,
      "ĠØ§ÙĦØŃÙĬ": 3826,
      "Ð¾Ð»ÐµÐµ": 3827,
      "à¸²à¸¨": 3828,
      "Ø¨Ø¹": 3829,
      "unun": 3830,
      "à¸·à¸Ńà¸ģ": 3831,
      "ĠÐ±ÑĭÐ»Ð¾": 3832,
      "'est": 3833,
      "çł": 3834,
      "à¥ģà¤µ": 3835,
      "à±Ĭà°¡": 3836,
      "ĠÐ±ÑĥÐ´": 3837,
      "çĶ·äºº": 3838,
      "fe": 3839,
      "ĠØŃÙĤ": 3840,
      "ä¹Ī": 3841,
      "à¥Ģà¤¤": 3842,
      "ä»£": 3843,
      "ry": 3844,
      "ĠØ§ÙĦØ¹Ø±Ø¨ÙĬØ©": 3845,
      "éĩı": 3846,
      "uis": 3847,
      "ÙħØ§ÙĨ": 3848,
      "Ã¼t": 3849,
      "Ġà¤¬à¤¹": 3850,
      "å®ŀ": 3851,
      "AT": 3852,
      "à±įà°Łà°°": 3853,
      "à¸µà¸¢à¸§": 3854,
      "illi": 3855,
      "Ġgro": 3856,
      "à±įà°¯à°¤": 3857,
      "Ġph": 3858,
      "Ġsup": 3859,
      "Ø¬Ø²": 3860,
      "Ġhay": 3861,
      "asema": 3862,
      "Ð½Ð¸ÐºÐ°": 3863,
      "ible": 3864,
      "ÑĤÐµÐ»ÑĮÐ½Ð¾": 3865,
      "éĹ®": 3866,
      "Ġche": 3867,
      "à¸´à¸¢": 3868,
      "edia": 3869,
      "ĠEx": 3870,
      "à¸¤": 3871,
      "enc": 3872,
      "à¸ģà¸£à¸£à¸¡": 3873,
      "Ġcar": 3874,
      "à¸´à¸¥": 3875,
      "ÑĢÐµÐ´": 3876,
      "ĠÃĸ": 3877,
      "ĠÙĪÙĩÙĬ": 3878,
      "ĠÙħØ¤": 3879,
      "amoja": 3880,
      "ä»ĸä»¬": 3881,
      "gram": 3882,
      "31": 3883,
      "ØªØ¹": 3884,
      "à¸´à¸ª": 3885,
      "Ø§Ø³ÙĬ": 3886,
      "ÙĲÙĨ": 3887,
      "Ġprodu": 3888,
      "Ġdif": 3889,
      "uti": 3890,
      "Ø®Ø°": 3891,
      "à¹Ģà¸«à¸¥": 3892,
      "ĠØ§Øª": 3893,
      "ĠÙĪØµ": 3894,
      "ÙĥÙĬ": 3895,
      "ĠÑģÐ¾Ð²": 3896,
      "udi": 3897,
      "Ø±Ø³": 3898,
      "ÑģÑĭ": 3899,
      "ÙĪÙĤØ¹": 3900,
      "åĦ": 3901,
      "ÙĤØ§Øª": 3902,
      "ree": 3903,
      "ĠIl": 3904,
      "ES": 3905,
      "à¸Ľà¸£à¸°à¸ª": 3906,
      "ĠkarÅŁ": 3907,
      "atu": 3908,
      "Ġndi": 3909,
      "ĠÑħÐ¾": 3910,
      "à±įà°¯à°µ": 3911,
      "ÙıÙħ": 3912,
      "Ġà°İà°²": 3913,
      "Ø§Ø°Ø§": 3914,
      "Ġ&": 3915,
      "ÑĢÐ¾Ð¹": 3916,
      "Ġoy": 3917,
      "à¸´à¸ģà¸²à¸£": 3918,
      "à±Ģà°ª": 3919,
      "moja": 3920,
      "vu": 3921,
      "Ð»Ð¾ÑģÑĮ": 3922,
      "70": 3923,
      "ÙĪØ§Ø±": 3924,
      "ĠØ¨Ø¹": 3925,
      "ÑĮÑİ": 3926,
      "ÙĬÙĨØ§": 3927,
      "à±Ĥà°¨": 3928,
      "ØŃØ¯Ø«": 3929,
      "ÐĽ": 3930,
      "Ġà¸Īà¸°": 3931,
      "ĠØ³ÙĨØ©": 3932,
      "Ġsaid": 3933,
      "ç·": 3934,
      "é©": 3935,
      "à¥ĭà¤²": 3936,
      "Ġret": 3937,
      "ÙĦØª": 3938,
      "anÄ±": 3939,
      "ory": 3940,
      "åĲĳ": 3941,
      "Ġfait": 3942,
      "Ġsor": 3943,
      "Ġhal": 3944,
      "Ġmaj": 3945,
      "Ġyear": 3946,
      "ute": 3947,
      "å±ķ": 3948,
      "Ġik": 3949,
      "ĠÙĪÙĥØ§ÙĨ": 3950,
      "Ġag": 3951,
      "à¥įà¤ľ": 3952,
      "à±Īà°Ł": 3953,
      "åŃĺ": 3954,
      "à¸²à¸ļ": 3955,
      "à¤¾à¤ģ": 3956,
      "sel": 3957,
      "Ã®": 3958,
      "'a": 3959,
      "vyo": 3960,
      "Ġà¹Ģà¸£": 3961,
      "çľŁ": 3962,
      "ĠÐ²ÑĢÐµÐ¼Ñı": 3963,
      "tes": 3964,
      "ç±": 3965,
      "ÙĩØ©": 3966,
      "Ø³ÙĨ": 3967,
      "ĠØªÙĥÙĪÙĨ": 3968,
      "Ġuli": 3969,
      "Ð±Ð°": 3970,
      "Ð²Ð°ÑĤÑĮ": 3971,
      "å¥¹": 3972,
      "ÙĪØ§Ø¡": 3973,
      "32": 3974,
      "ç¦": 3975,
      "à¥ģà¤¸": 3976,
      "ĠØ¨Ø£": 3977,
      "Ø®Ø·": 3978,
      "ÙĲÙĬ": 3979,
      "ĠÐ³Ð¾ÑĢ": 3980,
      "ĠÑģÑĤÑĢÐ°": 3981,
      "enin": 3982,
      "Ġinter": 3983,
      "ç§į": 3984,
      "fr": 3985,
      "Ð¿ÑĢÐ¸": 3986,
      "Ġbeen": 3987,
      "led": 3988,
      "Ġhem": 3989,
      "ira": 3990,
      "ÑħÐ°": 3991,
      "Ġwho": 3992,
      "éĸĵ": 3993,
      "ĠØ§ÙĦÙĬÙĪÙħ": 3994,
      "é¤": 3995,
      "Ġday": 3996,
      "à¸ļà¸Ĺ": 3997,
      "Ø§Ø¯Ø±": 3998,
      "Ġà°Ĩà°²": 3999,
      "uka": 4000,
      "rist": 4001,
      "å¹³": 4002,
      "Ġort": 4003,
      "ÙħØ³": 4004,
      "à¹Īà¹Ħà¸Ķ": 4005,
      "Ð´ÐµÐ½": 4006,
      "Ġlakini": 4007,
      "ĠÑĤÐ°ÐºÐ¶Ðµ": 4008,
      "mam": 4009,
      "èĥ": 4010,
      "à¹Ĵ": 4011,
      "Ġtime": 4012,
      "urn": 4013,
      "Ġà°®à°¹": 4014,
      "ession": 4015,
      "indows": 4016,
      "aba": 4017,
      "à¸§à¸Ļ": 4018,
      "äº¤": 4019,
      "èĩ³": 4020,
      "ats": 4021,
      "als": 4022,
      "ilo": 4023,
      "Ð±Ñĭ": 4024,
      "abilir": 4025,
      "ĠRe": 4026,
      "æıĲä¾Ľ": 4027,
      "arÄ±": 4028,
      "à¸¡à¸Ļ": 4029,
      "à¥ĭà¤Ī": 4030,
      "Ð¾Ð²Ð¾": 4031,
      "ÙĤÙĬÙĤØ©": 4032,
      "ï¼Įä¸į": 4033,
      "à¥Ĥà¤ª": 4034,
      "å¦Ĥæŀľ": 4035,
      "à¸¹à¸Ķ": 4036,
      "Ø§Ø¨Ø©": 4037,
      "ĠÐµÑģÐ»Ð¸": 4038,
      "è§£": 4039,
      "ix": 4040,
      "Ġact": 4041,
      "Ð·Ð½Ð°": 4042,
      "ick": 4043,
      "ÐµÐ½Ð¸Ð¹": 4044,
      "Ġont": 4045,
      "ĠÙĬØ´": 4046,
      "Ġfilm": 4047,
      "à¹īà¸Ĺ": 4048,
      "à¥Ģà¤ķ": 4049,
      "à±įà°°à°¦": 4050,
      "à°¤à°°": 4051,
      ".)": 4052,
      "vis": 4053,
      "umia": 4054,
      "éłŃ": 4055,
      "Ġà°ļà°°": 4056,
      "ĠÐ»Ðµ": 4057,
      "lamu": 4058,
      "ĠÙĦÙĨ": 4059,
      "ç²": 4060,
      "Ø®Ø¯Ùħ": 4061,
      "ĠAd": 4062,
      "ĠSer": 4063,
      "ĠÙĤØ±": 4064,
      "å®ĥ": 4065,
      "olog": 4066,
      "Ġmwaka": 4067,
      "ĠØ§ÙĤ": 4068,
      "Ø§ÙĦÙī": 4069,
      "ĠÙĪØ²": 4070,
      "old": 4071,
      "Ġà°ĩà°²": 4072,
      "Ġà°ĩà°ķ": 4073,
      "Ġalso": 4074,
      "à±ĩà°¡": 4075,
      "à¸§à¸Ķ": 4076,
      "à¤¿à¤ľ": 4077,
      "iew": 4078,
      "ĠdÃ©c": 4079,
      "ĠÐ¿Ñĥ": 4080,
      "ĠSh": 4081,
      "æ¯ı": 4082,
      "ĠÐ¼Ð¾Ð¶Ð½Ð¾": 4083,
      "eye": 4084,
      "ania": 4085,
      "ĠÑģÐ¾Ð±": 4086,
      "åľº": 4087,
      "ĠÐ±ÑĭÐ»": 4088,
      "Ġà°ıà°°": 4089,
      "ĠÐ²Ñģ": 4090,
      "Ġkuhusu": 4091,
      "Ġà°İà°¨": 4092,
      "æ²Ĵ": 4093,
      "ç«ĭ": 4094,
      "åŁº": 4095,
      "AL": 4096,
      "Ġjust": 4097,
      "à¤¼à¥Ģ": 4098,
      "à¹Īà¸§à¸¡": 4099,
      "åıĪ": 4100,
      "Ä±mÄ±z": 4101,
      "åĮħ": 4102,
      "æµ·": 4103,
      "Ø¬ÙĦØ³": 4104,
      "ç®¡": 4105,
      "lÃ©": 4106,
      "à¹īà¸ĩ": 4107,
      "soft": 4108,
      "Ġweng": 4109,
      "çĸ": 4110,
      "Ð»ÐµÐ¼": 4111,
      "Ġpay": 4112,
      "Ġcomme": 4113,
      "åĨħ": 4114,
      "ï¼ĮèĢĮ": 4115,
      "Ð³ÑĢÐ°": 4116,
      "Ġà°¤à°ª": 4117,
      "ĠÐ¼Ð¾Ð¶ÐµÑĤ": 4118,
      "imiz": 4119,
      "à¸²à¸«": 4120,
      "à¹Ģà¸ī": 4121,
      "à¥įà¤¡": 4122,
      "adili": 4123,
      "à¸±à¸ĩà¸Ħ": 4124,
      "maktadÄ±r": 4125,
      "à¸¸à¸ĩ": 4126,
      "æĶ¾": 4127,
      "à¸²à¸Ĭ": 4128,
      "ĠÐ¿Ð¾Ð·": 4129,
      "Ġgir": 4130,
      "à°Ĺà°²": 4131,
      "weli": 4132,
      "Ġà¤ªà¤¹à¤²": 4133,
      "ÙĪØ¹Ø©": 4134,
      "Ġpamoja": 4135,
      "à°Ĺà°°": 4136,
      "ĠÐ¿Ð¾Ð»Ñĥ": 4137,
      "Ð£": 4138,
      "ÙĬØ¬": 4139,
      "Ø§ÙĦØ§Øª": 4140,
      "Ġame": 4141,
      "Ġà¤Ĩà¤ªà¤ķ": 4142,
      "Ð¿Ñĥ": 4143,
      "Ø§Ø¯ÙĬØ©": 4144,
      "Ġà¤ľà¤¬": 4145,
      "åĲĦ": 4146,
      "iyle": 4147,
      "Ø±ÙģØ©": 4148,
      "www": 4149,
      "35": 4150,
      "Ġleur": 4151,
      "ç¶ĵ": 4152,
      "erÃ§": 4153,
      "Ġbak": 4154,
      "tain": 4155,
      "çĽ´": 4156,
      "à¸Ĳà¸²à¸Ļ": 4157,
      "Ġpoli": 4158,
      "à¤¿à¤®": 4159,
      "ings": 4160,
      "Ð»ÐµÐº": 4161,
      "æł·": 4162,
      "ĊĊĊ": 4163,
      "ber": 4164,
      "ĠØ§ÙĦØ§Ø³": 4165,
      "à¥Ģà¤®": 4166,
      "ĠØªØ±": 4167,
      "ĠØ§ÙĦØŃÙĥ": 4168,
      "ØŃØ¯Ø©": 4169,
      "ĠMwenye": 4170,
      "à¥ĭà¤¡": 4171,
      "Ø¬Ùĩ": 4172,
      "éĩĳ": 4173,
      "ĠÙħØ¨": 4174,
      "ĠyÃ¶n": 4175,
      "ä¸ļ": 4176,
      "ÙİÙĬ": 4177,
      "à¹Ģà¸Ľà¸¥": 4178,
      "å®Į": 4179,
      "å¿«": 4180,
      "ON": 4181,
      "ĠØ£Ø¹": 4182,
      "æīį": 4183,
      "ĠÐ¤": 4184,
      "èĤī": 4185,
      "icrosoft": 4186,
      "æ®": 4187,
      "à¥Ģà¤ľ": 4188,
      "à¸´à¸©": 4189,
      "ĠØ§ÙĦÙħØ¯": 4190,
      "ĠØ§ÙĦÙħÙĤ": 4191,
      "Ġà°µà°¦": 4192,
      "ĠØ´Ø¹Ø¨": 4193,
      "ĠÅŀ": 4194,
      "endo": 4195,
      "anga": 4196,
      "Ø§Ø¶ÙĬ": 4197,
      "ÑĤÑģÑı": 4198,
      "Ã¼c": 4199,
      "æĸ¯": 4200,
      "Ġà¤ĩà¤¸à¤ķ": 4201,
      "Ġhuu": 4202,
      "ĠÙħØ¯": 4203,
      "ĠÙħÙĨÙĩ": 4204,
      "wo": 4205,
      "ĠÙħÙĤ": 4206,
      "lect": 4207,
      "åı°": 4208,
      "ĠØ¹ÙĦÙĬÙĩØ§": 4209,
      "____": 4210,
      "Ġsababu": 4211,
      "Ġà¤Ĳà¤¸": 4212,
      "Ð¸Ð½": 4213,
      "à¥įà¤°à¤®": 4214,
      "Ġà°īà°¤": 4215,
      "larÄ±nÄ±": 4216,
      "Ġexp": 4217,
      "ils": 4218,
      "Ġwere": 4219,
      "Ġmap": 4220,
      "à±ĩà°·à°¨": 4221,
      "åı¯èĥ½": 4222,
      "alarÄ±": 4223,
      "¡ä¸Ń": 4224,
      "ĠÙĦÙĬØ³": 4225,
      "ĠÙĩÙĨØ§Ùĥ": 4226,
      "à¸Ńà¸°": 4227,
      "ĠÙģØª": 4228,
      "à¥ģà¤ı": 4229,
      "ç¤º": 4230,
      "à¸ªà¸Ķà¸ĩ": 4231,
      "åĥı": 4232,
      "æŁ": 4233,
      "ĠÑĪ": 4234,
      "ØªØ§Ø¬": 4235,
      "Ġwork": 4236,
      "à¸¸à¸Ĺà¸ĺ": 4237,
      "åı£": 4238,
      "yr": 4239,
      "ĠØ§ÙĦØ§Ø®": 4240,
      "à¸£à¸²à¸¢": 4241,
      "ures": 4242,
      "ç½ĳ": 4243,
      "éľĢ": 4244,
      "ĠbÃ¼yÃ¼k": 4245,
      "à¹Īà¸Ńà¸ĩ": 4246,
      "Ġmod": 4247,
      "ÑĩÐµÐ½ÑĮ": 4248,
      "Ġwould": 4249,
      "ilim": 4250,
      "siniz": 4251,
      "Ø§Ø±Ø¬": 4252,
      "ÙİÙħ": 4253,
      "ific": 4254,
      "à¹Ģà¸ŀà¸¥à¸ĩ": 4255,
      "Ġhuo": 4256,
      "ĠØ¬ÙħÙĬØ¹": 4257,
      "ĠÃ¼r": 4258,
      "Ġà¹Ģà¸Ĭ": 4259,
      "ä¸Ķ": 4260,
      "à¸ªà¸²à¸£": 4261,
      "ĠÙĬØ³": 4262,
      "âĢĻun": 4263,
      "ongo": 4264,
      "Ä±sÄ±": 4265,
      "ÐĹ": 4266,
      "Ø´ÙĬ": 4267,
      "Le": 4268,
      "à¹ĩà¸¡": 4269,
      "ĠÐ±ÐµÐ·": 4270,
      "éĻ¢": 4271,
      "Ġtrans": 4272,
      "An": 4273,
      "à¹ĩà¸Ķ": 4274,
      "ĠÐºÐ¾ÑĤÐ¾ÑĢÑĭÐµ": 4275,
      "Ġà°°à°ķ": 4276,
      "Ġama": 4277,
      "Ġ...": 4278,
      "Ġob": 4279,
      "ÙĪØ¶ÙĪØ¹": 4280,
      "Ãªme": 4281,
      "ys": 4282,
      "Ù±": 4283,
      "åħĪ": 4284,
      "Ø±ÙĬØ¨": 4285,
      "ango": 4286,
      "ÙģÙĩ": 4287,
      "ĠØ£ØŃØ¯": 4288,
      "Ġother": 4289,
      "Ġyao": 4290,
      "Ø·ÙĨ": 4291,
      "Ãľ": 4292,
      "à°Ī": 4293,
      "ĠJe": 4294,
      "pect": 4295,
      "é»ŀ": 4296,
      "ä»İ": 4297,
      "ĠÙĨØ³": 4298,
      "à¥ĩà¤ľ": 4299,
      "æīĵ": 4300,
      "çķĮ": 4301,
      "ande": 4302,
      "Ãĩ": 4303,
      "Ġvot": 4304,
      "à¹ĩà¸Ī": 4305,
      "à¸£à¸°à¸Ķ": 4306,
      "æ°´": 4307,
      "Ġany": 4308,
      "ges": 4309,
      "oli": 4310,
      "à±ĭà°ļ": 4311,
      "ĠØªÙĪ": 4312,
      "ĠÐ¼Ð¾Ð³": 4313,
      "Ġà°ĩà°µ": 4314,
      "ØªÙħØ¹": 4315,
      "Ġprof": 4316,
      "à¹Ģà¸«à¸¡": 4317,
      "ÙĦØ§Ø«": 4318,
      "âĢ¢": 4319,
      "âĢĺ": 4320,
      "à±įà°·à°£": 4321,
      "Ġbien": 4322,
      "æĮģ": 4323,
      "Ð°Ð¼Ð¸": 4324,
      "Ð¼Ð¾ÑĤ": 4325,
      "ĠØ£ÙĥØ«Ø±": 4326,
      "à¹īà¸Ńà¸ĩà¸ģà¸²à¸£": 4327,
      "ÑģÐºÐ¸Ð¹": 4328,
      "ishwa": 4329,
      "ee": 4330,
      "Ġer": 4331,
      "ĠdÃ¼z": 4332,
      "Ġtut": 4333,
      "Ġplan": 4334,
      "à¥Ģ,": 4335,
      "Ø§Ø±ÙĬØ©": 4336,
      "ster": 4337,
      "ĠÃ¶nem": 4338,
      "ÙĬØ§ÙĨ": 4339,
      "Ġkay": 4340,
      "Ġtam": 4341,
      "Ġà°¸à°¹": 4342,
      "Ø§ÙħØ¬": 4343,
      "Ġann": 4344,
      "ĠTÃ¼rk": 4345,
      "ĠØ§ÙĦÙĨØ§Ø³": 4346,
      "Ø§ÙĤØ¹": 4347,
      "ĠÐ¥": 4348,
      "ĠÐ§": 4349,
      "Ġà¤¸à¤¬": 4350,
      "Ġana": 4351,
      "à¸Ńà¸²à¸«": 4352,
      "à¸²à¸ģà¸²à¸£": 4353,
      "Ġambao": 4354,
      "ç¼": 4355,
      "Ġ?": 4356,
      "ÙĦØ§Ø¡": 4357,
      "à¸ģà¸ķ": 4358,
      "à¹ĩà¸Ļà¸ķ": 4359,
      "ØªÙģ": 4360,
      "à¥ĩà¤Ĺ": 4361,
      "Ġsav": 4362,
      "Ġvile": 4363,
      "Ð¿Ð¾Ð»": 4364,
      "åķĨ": 4365,
      "ll": 4366,
      "ÐºÐ¾Ð½": 4367,
      "Ġhata": 4368,
      "à¸Ķà¸Ļ": 4369,
      "eka": 4370,
      "à±įà°²à°¨": 4371,
      "lere": 4372,
      "ĠbaÄŁ": 4373,
      "æĢ¡ä¸Ń": 4374,
      "Ø®Ø¯Ø§Ùħ": 4375,
      "Ġover": 4376,
      "à±Ĥà°Ł": 4377,
      "Ġiyi": 4378,
      "à°¿à°ķà°²": 4379,
      "Ġpub": 4380,
      "AM": 4381,
      "Ġpia": 4382,
      "à¹ģà¸Ĺ": 4383,
      "elles": 4384,
      "Ġise": 4385,
      "ÙĬØ§Ùħ": 4386,
      "ane": 4387,
      "à¸²à¸Ń": 4388,
      "à¥ĩ,": 4389,
      "ony": 4390,
      "onge": 4391,
      "Ġmer": 4392,
      "Ð¼Ð¾": 4393,
      "amii": 4394,
      "ĠBir": 4395,
      "à±Ĭà°Ł": 4396,
      "à¥ģà¤ĸ": 4397,
      "ĠØ§ÙĦØ´ÙĬ": 4398,
      "Ġsc": 4399,
      "èĪĩ": 4400,
      "ĠÐ¿Ð¾Ð²": 4401,
      "Ø³Ø¨Ø¨": 4402,
      "à¹Īà¸°": 4403,
      "Ġwao": 4404,
      "à°¤à°¨": 4405,
      "rit": 4406,
      "Ġms": 4407,
      "à¤¿à¤¦": 4408,
      "alÄ±k": 4409,
      "Th": 4410,
      "lig": 4411,
      "Ã¼Ã§": 4412,
      "à±įà°°à°¹": 4413,
      "à°¾à°²à°²": 4414,
      "ĠØ§ÙĦØ¨ÙĦ": 4415,
      "Ðĵ": 4416,
      "ates": 4417,
      "ĠØ³ÙĨ": 4418,
      "oug": 4419,
      "uÅŁtur": 4420,
      "Ø¯ÙĬØ¯Ø©": 4421,
      "è«": 4422,
      "Ġko": 4423,
      "ĠÙĪÙĦÙħ": 4424,
      "Ġmes": 4425,
      "ï¼Ľ": 4426,
      "à¸Ĥà¸Ļ": 4427,
      "ĠÙĪØ§ÙĨ": 4428,
      "à±įà°°à°µ": 4429,
      "Ġthan": 4430,
      "ĠÑĢÐ°Ð±Ð¾": 4431,
      "Ø±ÙĪÙģ": 4432,
      "ĠØ§ÙĦÙħØ³ÙĦÙħ": 4433,
      "æĩ": 4434,
      "hab": 4435,
      "oup": 4436,
      "Ġvo": 4437,
      "à¤¾à¤°à¤¤": 4438,
      "ubwa": 4439,
      "Ð·ÑĭÐ²Ð°": 4440,
      "ĠØ§ÙĦØ§ÙĤ": 4441,
      "Ġtab": 4442,
      "ĠÐ¿Ðµ": 4443,
      "Ġthem": 4444,
      "Ġass": 4445,
      "ØªØ¯": 4446,
      "ĠÙĬØªÙħ": 4447,
      "ÙĦØ§Ùģ": 4448,
      "gili": 4449,
      "ĠÑįÑĤÐ¾Ð¼": 4450,
      "va": 4451,
      "çħ": 4452,
      "ÙĦØ§ØŃ": 4453,
      "Ġmet": 4454,
      "à¸Ĭà¸²à¸ķ": 4455,
      "æĶ¶": 4456,
      "-ÑĤÐ¾": 4457,
      "45": 4458,
      "à¸´à¸Ĺà¸ĺ": 4459,
      "Ð´ÐµÑĢ": 4460,
      "Ġeff": 4461,
      "hib": 4462,
      "ĠNew": 4463,
      "Ġhawa": 4464,
      "çı¾": 4465,
      "Ø·Ø¨": 4466,
      "à¹Ĥà¸¢": 4467,
      "Ð»Ð°ÑģÑĮ": 4468,
      "è®ĵ": 4469,
      "ĠØ£ÙĬØ¶Ø§": 4470,
      "ĠÐ¿Ð»Ð°": 4471,
      "ĠÐ¿Ð¾Ð¿": 4472,
      "ĠPar": 4473,
      "à±įà°¸à°°": 4474,
      "ĠØ§ÙĦØ¬ÙĨ": 4475,
      "å½±": 4476,
      "En": 4477,
      "ÙħØ§ÙĦ": 4478,
      "insi": 4479,
      "Ġsome": 4480,
      "ĠØ¹ÙĦ": 4481,
      "ØµØ¯": 4482,
      "à±įà°¨à°¦": 4483,
      "à¸±à¸Ļà¸ĺ": 4484,
      "hak": 4485,
      "ÐµÐ½Ð°": 4486,
      "Ġfe": 4487,
      "ĠAs": 4488,
      "ko": 4489,
      "ï¼Įå°±": 4490,
      "ĠØ§ÙĦØªÙĨ": 4491,
      "Ð²Ñĥ": 4492,
      "Ġvy": 4493,
      "Ø¶Ø§Ø¡": 4494,
      "å¤ª": 4495,
      "ĠÃ©tÃ©": 4496,
      "ØŁĊ": 4497,
      "men": 4498,
      "indi": 4499,
      "Ġdire": 4500,
      "Ø°ÙĥØ±": 4501,
      "ĠØŃÙĪÙĦ": 4502,
      "Ġthere": 4503,
      "\".Ċ": 4504,
      "Ġà°Ĳ": 4505,
      "ikia": 4506,
      "ilia": 4507,
      "ĠÐ¼Ð¾": 4508,
      "ger": 4509,
      "åŀ": 4510,
      "è¥": 4511,
      "ĠÙĪØ°ÙĦÙĥ": 4512,
      "âĢĻn": 4513,
      "à¥ģà¤Ĥ": 4514,
      "Ġà¤ļà¤²": 4515,
      "Ġfirst": 4516,
      "ÐºÐ¾Ð¹": 4517,
      "à¹ģà¸ªà¸Ķà¸ĩ": 4518,
      "ĠØ§ÙĦØ¨Ø±": 4519,
      "à¹ĳ": 4520,
      "à¸ªà¸°": 4521,
      "ÐµÑĤÐ°": 4522,
      "çĲĥ": 4523,
      "à¤ĩ": 4524,
      "à°¾à°°à°¤": 4525,
      "ĠIt": 4526,
      "olo": 4527,
      "ogo": 4528,
      "Ġits": 4529,
      "æĶ¹": 4530,
      "Ġvis": 4531,
      "Ð¾Ð´Ðµ": 4532,
      "vel": 4533,
      "ÑģÑĤÑĢÐ°": 4534,
      "ÙĦÙĬØ³": 4535,
      "Ġmaisha": 4536,
      "endelea": 4537,
      "ĠÙĪØ£ÙĨ": 4538,
      "Ð²ÑĪÐ¸": 4539,
      "à¸´à¸Ĭ": 4540,
      "ĠØ£Ø®Ø±Ùī": 4541,
      "à¤¿à¤Ł": 4542,
      "uko": 4543,
      "Ġlike": 4544,
      "Ġalan": 4545,
      "à¸ļà¸Ļ": 4546,
      "lerini": 4547,
      "Ġprogram": 4548,
      "enzi": 4549,
      "Ġyol": 4550,
      "Ø²ÙĬ": 4551,
      "ĠÑĤÐ¾Ð¼": 4552,
      "à¥ģà¤Ĩ": 4553,
      "ĠyÃ¼z": 4554,
      "ĠÙģÙĤØ¯": 4555,
      "ØŃÙĤ": 4556,
      "à°µà°ļ": 4557,
      "Ø¸Ø©": 4558,
      "ĠØ·Ø±ÙĬÙĤ": 4559,
      "enn": 4560,
      "Ð¼ÐµÐ½Ð¸": 4561,
      "Ġà°ķà°¥": 4562,
      "ØµÙĪÙĦ": 4563,
      "ÙĬÙĨØ©": 4564,
      "umba": 4565,
      "è®¾": 4566,
      "Ø§ÙħØ¹Ø©": 4567,
      "ices": 4568,
      "ØºÙĬ": 4569,
      "æĪ¿": 4570,
      "à¥ĩà¤¡": 4571,
      "ĠÙĪÙĩØ°Ø§": 4572,
      "Ġndani": 4573,
      "ĠÙĪÙħØ§": 4574,
      "à±ĭà°·": 4575,
      "à¸Ńà¸²à¸«à¸²à¸£": 4576,
      "ient": 4577,
      "eno": 4578,
      "ï¼ĮæĪĳ": 4579,
      "Ġà¹Ģà¸ŀà¸£à¸²à¸°": 4580,
      "à¸ªà¸³à¸«à¸£": 4581,
      "par": 4582,
      "ç¡": 4583,
      "à¸±à¸Ī": 4584,
      "ĠÐ²ÐµÑĢ": 4585,
      "Ġà°ħà°¸": 4586,
      "à¸£à¸²à¸Ĭ": 4587,
      "ĠsÃ¼re": 4588,
      "ild": 4589,
      "ution": 4590,
      "à¸¹à¸ĩ": 4591,
      "io": 4592,
      "à¸·à¸Ļ": 4593,
      "çķ¶": 4594,
      "Ð»ÐµÐ½Ð¸Ðµ": 4595,
      "à¹īà¸ģ": 4596,
      "Ä±lmÄ±ÅŁ": 4597,
      "ula": 4598,
      "æ©": 4599,
      "à¸İ": 4600,
      "ussi": 4601,
      "Ø·ÙĦØ¨": 4602,
      "ĠØ§ÙĦØ£ÙĪÙĦ": 4603,
      "ĠÐĴÑĭ": 4604,
      "Ðĳ": 4605,
      "Ġsal": 4606,
      "ï¼Įåľ¨": 4607,
      "meye": 4608,
      "fany": 4609,
      "\".": 4610,
      "Ġà¹ģà¸¥": 4611,
      "ĠKi": 4612,
      "æģ¯": 4613,
      "ÙģØ¶ÙĦ": 4614,
      "ĠX": 4615,
      "à¸ķà¸¥": 4616,
      "Ø§Ø±Ø³": 4617,
      "ĠÐ±Ð¾Ð»ÐµÐµ": 4618,
      "èī²": 4619,
      "Ð¸Ñģ": 4620,
      "ÑĢÐ¾Ðº": 4621,
      "à¤¾à¤«": 4622,
      "Ġkuf": 4623,
      "à°¿à°¯à°¨": 4624,
      "ann": 4625,
      "atÄ±": 4626,
      "Ġbar": 4627,
      ".,": 4628,
      "à±įĊ": 4629,
      "Ġno": 4630,
      "à¸«à¸²à¸£": 4631,
      "ĠÐ¾ÑģÑĤÐ°": 4632,
      "Ġzin": 4633,
      "Ġzili": 4634,
      "Īà¸°": 4635,
      "ĠÙģØ±": 4636,
      "à¤¿à¤ĸ": 4637,
      "ĠÐ¶Ð¸": 4638,
      "Ø¹ÙħØ§ÙĦ": 4639,
      "ç¯": 4640,
      "à±ģà°£": 4641,
      "à¹Ģà¸ĩ": 4642,
      "lement": 4643,
      "à¹Īà¸²à¸ĩà¹Ĩ": 4644,
      "à¤ľà¤¨": 4645,
      "è±": 4646,
      "ince": 4647,
      "à¹īà¸Ńà¸Ļ": 4648,
      "Ø·ÙĤØ©": 4649,
      "ÙİÙĩ": 4650,
      "ä»Ģ": 4651,
      "ĠØµÙĦÙī": 4652,
      "ĠOn": 4653,
      "åİŁ": 4654,
      "ĠØ§ÙĦØ¥ÙĨØ³Ø§ÙĨ": 4655,
      "ĠkiÅŁ": 4656,
      "Ġboy": 4657,
      "Ø§Ø¦Ùħ": 4658,
      "ĠÃª": 4659,
      "à¤¼à¥ĩ": 4660,
      "æ¥Ń": 4661,
      "à¥¤Ċ": 4662,
      "ĠÃ§ek": 4663,
      "ĠprÃ©s": 4664,
      "Ġwhat": 4665,
      "ØªÙĥ": 4666,
      "Ġkend": 4667,
      "ÐºÑĢÑĭ": 4668,
      "uta": 4669,
      "ĠØ®Ø·": 4670,
      "ĠdeÄŁil": 4671,
      "\",": 4672,
      "ress": 4673,
      "à¸²à¸Ĥ": 4674,
      "à¹Ģà¸ĺ": 4675,
      "Ġcer": 4676,
      "Ã©t": 4677,
      "à°Ĥà°ľ": 4678,
      "Ġist": 4679,
      "Ġà¤īà¤ª": 4680,
      "Ġà°ħà°¤à°¨": 4681,
      "Je": 4682,
      "à¸ªà¸ĸ": 4683,
      "Ġà°µà°²": 4684,
      "åı¸": 4685,
      "åıĸ": 4686,
      "Ø§Ø¦ÙĬ": 4687,
      "Ġwhen": 4688,
      "wn": 4689,
      "ÙĪÙĦÙī": 4690,
      "ØªÙĤ": 4691,
      "Ġplay": 4692,
      "à¸£à¸°à¸ļà¸ļ": 4693,
      "ĠNa": 4694,
      "ĠÑĤÐ¾Ð³Ð¾": 4695,
      "äºĨä¸Ģ": 4696,
      "anÄ±n": 4697,
      "anya": 4698,
      "Ġbr": 4699,
      "ĠÐ¾ÑĢ": 4700,
      "åħĥ": 4701,
      "Ġà°Ĩà°¸": 4702,
      "ĠÑıÐ²Ð»Ñı": 4703,
      "ĠAllah": 4704,
      "æº": 4705,
      "à¸ĩà¸Ļ": 4706,
      "Ġbasi": 4707,
      "Ð´ÐµÐ½Ð¸Ñı": 4708,
      "ĠØ³Ø¨": 4709,
      "ĠHotel": 4710,
      "vid": 4711,
      "Ø²Ùħ": 4712,
      "å°Ķ": 4713,
      "ĠØ§ÙĦØŃÙĤ": 4714,
      "ĠØ±Ø³": 4715,
      "Bu": 4716,
      "à¸łà¸²à¸¢": 4717,
      "http": 4718,
      "ĠÐ¼ÐµÐ½Ñı": 4719,
      "à±ĩ.": 4720,
      "ĠÑģÐ¾Ð·": 4721,
      "Ġà¤Ĩà¤°": 4722,
      "ç«Ļ": 4723,
      "ze": 4724,
      "à°Łà°¨": 4725,
      "éĢł": 4726,
      "Ø¯ÙĬÙĨØ©": 4727,
      "è¥¿": 4728,
      "tÃ¼": 4729,
      "ĠÐ¯": 4730,
      "ĠtaÅŁ": 4731,
      "à±Ĩà°¬": 4732,
      "ÑĢÐ°Ðº": 4733,
      "ÙİØ±": 4734,
      "likle": 4735,
      "Ġsim": 4736,
      "Ġinv": 4737,
      "Ġà°ĩà°ļ": 4738,
      "ĠÑģÑĤÐ¾": 4739,
      "ĠÐ¿Ð¸": 4740,
      "à¸Ħà¸§à¸²à¸¡à¸£": 4741,
      "ĠtarafÄ±ndan": 4742,
      "Ġà¹ĥà¸«": 4743,
      "à±įà°Ń": 4744,
      "à°¿à°¬": 4745,
      "Ġsiku": 4746,
      "à¤¾à¤§": 4747,
      "Ġà°ľà°¨": 4748,
      "Ä±mÄ±": 4749,
      "à¹Ģà¸ķà¸Ńà¸£": 4750,
      "æ±Ĥ": 4751,
      "ØµØ©": 4752,
      "Ġà¤¸à¤¹": 4753,
      "à±ĩà°¯à°¡": 4754,
      "ÙĮ": 4755,
      "ĠyÃ¼k": 4756,
      "ĠÙĬØ¬": 4757,
      "Ø§Ø¦Ø±": 4758,
      "igh": 4759,
      "ĠØ¨Ø´ÙĥÙĦ": 4760,
      "ĠMtume": 4761,
      "Ø±Ùħ": 4762,
      "ï¼Įä»ĸ": 4763,
      "Ð¾Ð¶Ðµ": 4764,
      "à¤Ĥà¤¡": 4765,
      "ÑĤÐ¾ÑĢ": 4766,
      "à¹Ĥà¸£": 4767,
      "ĠÐ³Ð¾Ð´Ð°": 4768,
      "à±Ĭà°¦à°Ł": 4769,
      "å§ĭ": 4770,
      "Ġmay": 4771,
      "à±įà°¨à°Ł": 4772,
      "ÐµÐ½Ð¸Ñİ": 4773,
      "à¹Ģà¸£à¸²": 4774,
      "æĹł": 4775,
      "Ġgeli": 4776,
      "ject": 4777,
      "ÙģØ§ÙĦ": 4778,
      "Ġcl": 4779,
      "æł¼": 4780,
      "ern": 4781,
      "à¸±à¸ª": 4782,
      "çĿĢ": 4783,
      "ĠÐ±ÑĥÐ´ÐµÑĤ": 4784,
      "Ġhilo": 4785,
      "Ø¶ÙĬ": 4786,
      "à±Īà°ª": 4787,
      "ĠÐ±ÑĭÑĤÑĮ": 4788,
      "ÑĦÐ¾ÑĢÐ¼Ð°": 4789,
      "ps": 4790,
      "Ġbl": 4791,
      "çļĦäºº": 4792,
      "ĠMk": 4793,
      "à¥įà¤°à¤ķ": 4794,
      "ÑĢÐ¾Ñģ": 4795,
      "Ġà¤īà¤¤": 4796,
      "ople": 4797,
      "iÃ§": 4798,
      "ĠÐ¾Ð½Ð¸": 4799,
      "Ð½Ð¸Ð¹": 4800,
      "Ø±ÙĬØ¯": 4801,
      "Ġful": 4802,
      "à¸¸à¹ī": 4803,
      "ĠSe": 4804,
      "Ø¸ÙĬÙħ": 4805,
      "ÑĨÐ¸Ñİ": 4806,
      "55": 4807,
      "Ġok": 4808,
      "à¹ĥà¸Ķ": 4809,
      "ĠGo": 4810,
      "à¹īà¸Ķ": 4811,
      "Ã©d": 4812,
      "à¤¿à¤ª": 4813,
      "à¹ģà¸Ļ": 4814,
      "à±Īà°¤": 4815,
      "Ġbelir": 4816,
      "çĥ": 4817,
      "Ġtem": 4818,
      "à¸±à¸Ĳ": 4819,
      "Ġà°Ĩà°§": 4820,
      "endir": 4821,
      "à¹Ģà¸ģà¸¡": 4822,
      "Ġà°ıà°®": 4823,
      "éĻ¤": 4824,
      "à°ķà°°": 4825,
      "ĠØªØ·": 4826,
      "ĠÐ¾ÑĩÐµÐ½ÑĮ": 4827,
      "ÙĦØ§ÙĤ": 4828,
      "Ø³Ø§Ø¨": 4829,
      "ØµÙģ": 4830,
      "à¹Ĥà¸Ľà¸£": 4831,
      "okana": 4832,
      "Ġinto": 4833,
      "ĠrÃ©s": 4834,
      "ĠÑĥÑģ": 4835,
      "à¹Ģà¸«à¸ķ": 4836,
      "Ġacc": 4837,
      "erÃ§ek": 4838,
      "Ġrest": 4839,
      "à¤¾à¤°à¤£": 4840,
      "Ġsev": 4841,
      "Ð´ÐµÐ»Ð°": 4842,
      "à¸±à¸įà¸į": 4843,
      "Ġmili": 4844,
      "à±ĭà°¦": 4845,
      "à°Ĥà°µ": 4846,
      "Ġbila": 4847,
      "36": 4848,
      "à¥Ĥà¤²": 4849,
      "ĠÐµÑģÑĤÑĮ": 4850,
      "ĠkÄ±s": 4851,
      "à¸£à¸ĸ": 4852,
      "à¸´à¸£": 4853,
      "etu": 4854,
      "eme": 4855,
      "hali": 4856,
      "ĠÐ½Ð°Ñģ": 4857,
      "ÙĬØ¯Ø©": 4858,
      "tait": 4859,
      "ĠÐ°Ð²": 4860,
      "Ù±ÙĦ": 4861,
      "çĭ": 4862,
      "Ġaz": 4863,
      "ÑĤÐµÐ»Ñı": 4864,
      "à°Ĥà°¤à°°": 4865,
      "ĠØ§ÙĦØ´Ø¹Ø¨": 4866,
      "ĠAnd": 4867,
      "æ¡Ī": 4868,
      "48": 4869,
      "IC": 4870,
      "ora": 4871,
      "ÑģÑĤÐ°Ð²": 4872,
      "very": 4873,
      "à±ģà°·": 4874,
      "ayan": 4875,
      "ĠÐ´Ð°Ð½": 4876,
      "ÐµÐ½Ð¸ÐµÐ¼": 4877,
      "idir": 4878,
      "med": 4879,
      "maya": 4880,
      "uj": 4881,
      "yu": 4882,
      "ange": 4883,
      "ĠsÃ¼r": 4884,
      "Ġdeux": 4885,
      "ĠÐ¾Ðº": 4886,
      "äº§": 4887,
      "ĠØ§ÙĦØ¹Ø§Ùħ": 4888,
      "ock": 4889,
      "à¸Ĺà¸³à¸ĩà¸²à¸Ļ": 4890,
      "ĠØªØ¹Ø§ÙĦÙī": 4891,
      "asihi": 4892,
      "Ġentre": 4893,
      "ĠÐ¸Ð¼Ðµ": 4894,
      "ÑĤÐµÑĢÐ¸": 4895,
      "ÑĪÑĮ": 4896,
      "à¸µà¸¢à¸ļ": 4897,
      "ĠÐ¿ÑĢÐ¾Ð¸Ð·": 4898,
      "ida": 4899,
      "ĠÙĪØºÙĬØ±": 4900,
      "Ø´Ùģ": 4901,
      "âĢĻin": 4902,
      "ĠÑĥÐ¶Ðµ": 4903,
      "Ġfaire": 4904,
      "Al": 4905,
      "ÑĩÐµÐ½": 4906,
      "Ġà¤µà¤°": 4907,
      "Ġmwan": 4908,
      "Ġajili": 4909,
      "'un": 4910,
      "line": 4911,
      "Ġvotre": 4912,
      "ç¢": 4913,
      "èĦ": 4914,
      "ĠÙħÙħ": 4915,
      "ï¼Įä¹Ł": 4916,
      "asyon": 4917,
      "Ġà°¤à°Ĺ": 4918,
      "åĬŁ": 4919,
      "à¤Ĥà¤¸": 4920,
      "Ġren": 4921,
      "Ø§ÙģØ±": 4922,
      "Ã¼zel": 4923,
      "isho": 4924,
      "ĠØ¢Ø®Ø±": 4925,
      "ĠÐ¸ÑģÐ¿Ð¾Ð»ÑĮÐ·Ð¾Ð²Ð°": 4926,
      "Ġmwenye": 4927,
      "ÅŁk": 4928,
      "ãĢĭ": 4929,
      "à±Ĥ,": 4930,
      "ĠØ§ÙĦØ£ÙħØ±": 4931,
      "ĠLes": 4932,
      "ĠWh": 4933,
      "Ø¨ÙĬØ©": 4934,
      "ĠCo": 4935,
      "ĠIs": 4936,
      "å®¹": 4937,
      "apa": 4938,
      "æĬĢ": 4939,
      "ÙĤÙħ": 4940,
      "Ġnchi": 4941,
      "ĠÙģØ§ÙĦ": 4942,
      "unt": 4943,
      "Ġina": 4944,
      "okea": 4945,
      "Ġorgan": 4946,
      "Ġà¤¤à¤°à¤¹": 4947,
      "ØŃÙĨ": 4948,
      "ĠØªØ³Øª": 4949,
      "ÐµÑĤÐ¸": 4950,
      "ÙĬØ±Ø§": 4951,
      "çĦ¡": 4952,
      "à¥Įà¤°": 4953,
      "ĠØ¨Ø¥": 4954,
      "akuwa": 4955,
      "à¸¸à¸Ĥ": 4956,
      "åħī": 4957,
      "ĠÐ´Ð¾Ð»Ð¶": 4958,
      "oz": 4959,
      "åĶ": 4960,
      "Ġnjia": 4961,
      "ä¸¤": 4962,
      "Ø¶Ø±": 4963,
      "ident": 4964,
      "è®¡": 4965,
      "èµ°": 4966,
      "Ġhabari": 4967,
      "ÙĩÙĬ": 4968,
      "ĠØ£ÙĪÙĦ": 4969,
      "à°¿à°¨à°Ł": 4970,
      "Ġà¤°à¤ĸ": 4971,
      "ä¸įæĺ¯": 4972,
      "Ġalt": 4973,
      "ç§ĳ": 4974,
      "AS": 4975,
      "Ġà¸Ńà¸¢": 4976,
      "Ġshe": 4977,
      "ĠØ§ÙĦÙħØ¨": 4978,
      "ĠÙĪØ¬ÙĪØ¯": 4979,
      "éĶ": 4980,
      "à¸ķà¸Ļ": 4981,
      "Â»,": 4982,
      "ĠØ§ÙĦÙħØ±Ø£Ø©": 4983,
      "ÙĪØ£": 4984,
      "alo": 4985,
      "à¸ŀà¸¢": 4986,
      "ĠOr": 4987,
      "ĠØ£Ø´": 4988,
      "ãĢĬ": 4989,
      "à±įà°¯à°²": 4990,
      "à°¿à°¨à°ª": 4991,
      "åħ±": 4992,
      "ĠÑĢÐ°Ñģ": 4993,
      "Ġnini": 4994,
      "Ð±Ñı": 4995,
      "ØªÙħØ±": 4996,
      "ĠkarÅŁÄ±": 4997,
      "ier": 4998,
      "mesi": 4999,
      "ĠØ§ÙĦØ§Ø¹": 5000,
      "eleri": 5001,
      "à±Ĭà°¦à°²": 5002,
      "ternet": 5003,
      "rap": 5004,
      "æ½": 5005,
      "Ġà¸Ĥà¸Ńà¸ĩ": 5006,
      "ÙħÙĪ": 5007,
      "cher": 5008,
      "Ġprob": 5009,
      "æµģ": 5010,
      "ĠÑģÐ²Ñı": 5011,
      "éħĴåºĹ": 5012,
      "èį": 5013,
      "ÙģØ§ÙĤ": 5014,
      "Ð¿ÐµÑĢ": 5015,
      "Ð³Ð¾Ð´": 5016,
      "Ø²Ø©": 5017,
      "ÙĪØ¯Ø©": 5018,
      "Ø§Ø¸": 5019,
      "Ø±Ø¨ÙĬ": 5020,
      "ÑĥÑĢ": 5021,
      "à¸±à¸Ļà¸Ļ": 5022,
      "ÐºÐ¸Ñħ": 5023,
      "ogle": 5024,
      "Ð´Ð¸Ð½": 5025,
      "con": 5026,
      "ÙĪÙģÙĬ": 5027,
      "ØªÙĦ": 5028,
      "à¸¡à¸«": 5029,
      "Ġces": 5030,
      "ĠØ¹Ø¯Ø¯": 5031,
      "diÄŁ": 5032,
      "azÄ±": 5033,
      ".\"Ċ": 5034,
      "Ġaussi": 5035,
      "Ġmis": 5036,
      "Ġvit": 5037,
      "Ġind": 5038,
      "ØºÙħ": 5039,
      "ĠÃľ": 5040,
      "ĠØ§ÙĦØŃØ¯ÙĬØ«": 5041,
      "Ġadd": 5042,
      "à¥įà¤¶": 5043,
      "à±Īà°ķ": 5044,
      "é¢ĺ": 5045,
      "Ð¸Ð»ÑĮ": 5046,
      "Ġkan": 5047,
      "Ġtemp": 5048,
      "Ġfam": 5049,
      "à¸Ľà¸ı": 5050,
      "Ð¹ÑĤÐµ": 5051,
      "Ġà¤®à¤¨": 5052,
      "Ġà¤ªà¤¤": 5053,
      "ĠHe": 5054,
      "ÑģÐºÐ°Ñı": 5055,
      "Ġpartic": 5056,
      "à¸Ľà¸£à¸°à¸ģà¸Ńà¸ļ": 5057,
      "lacak": 5058,
      "ĠØªÙĦÙĥ": 5059,
      "Ġkuz": 5060,
      "à¤ªà¤°": 5061,
      "ĠØ¹ÙĨÙĩ": 5062,
      "åĽĽ": 5063,
      "alis": 5064,
      "ements": 5065,
      "formation": 5066,
      "ØªÙĩÙħ": 5067,
      "æĬ¤": 5068,
      "ÙĪØ¬Ø¯": 5069,
      "æį®": 5070,
      "ĠÑĩÐµÐ»Ð¾Ð²": 5071,
      "ĠÙĢ": 5072,
      "Ð½Ðº": 5073,
      "ines": 5074,
      "ĠØ§ÙĦÙħÙĦ": 5075,
      "Ġà°ķà°°": 5076,
      "Ġà°¤à°²": 5077,
      "ÙĭØĮ": 5078,
      "åĲĥ": 5079,
      "ĠÐ¶Ð¸Ð·": 5080,
      "à¸ªà¸³à¸Ħ": 5081,
      "Ġkn": 5082,
      "Ġkitu": 5083,
      "ÐºÐ»Ñİ": 5084,
      "Ġkufanya": 5085,
      "Ġyali": 5086,
      "ĠØ§ÙĦØªØŃ": 5087,
      "èĢģ": 5088,
      "Ġilk": 5089,
      "æł¡": 5090,
      "ila": 5091,
      "ÙĪØ·": 5092,
      "ĠÙģÙī": 5093,
      "à±Ĥà°®": 5094,
      "ifu": 5095,
      "æķ´": 5096,
      "à°¾.": 5097,
      "orld": 5098,
      "abili": 5099,
      "acak": 5100,
      "ĠprÃ©": 5101,
      "à¸¡à¸²à¸Ĺ": 5102,
      "è§ģ": 5103,
      "ĠMwenyezi": 5104,
      "à¸¹à¸Ļ": 5105,
      "ĠWindows": 5106,
      "éĢ²": 5107,
      "à¸Ńà¸¥": 5108,
      "ĠÐºÑĢÐ°": 5109,
      "à¥įà¤°à¤¦": 5110,
      "hidi": 5111,
      "stem": 5112,
      "Ġkati": 5113,
      "æĮĩ": 5114,
      "ĠÃªtre": 5115,
      "Ġmara": 5116,
      "Ġnam": 5117,
      "ope": 5118,
      "ilmiÅŁ": 5119,
      "æ¨£": 5120,
      "oll": 5121,
      "Ġà¤Ĺà¤Ī": 5122,
      "ĠÐ²Ð¾Ð·Ð¼Ð¾Ð¶": 5123,
      "ĠÙĨÙģØ³Ùĩ": 5124,
      "à¤Ĥà¤¬": 5125,
      "Ġint": 5126,
      "Ð¾Ð»Ð¾Ð³Ð¸": 5127,
      "Ġà°īà°ªà°¯": 5128,
      "33": 5129,
      "dim": 5130,
      "Ġneden": 5131,
      "ĠÙĥØ«ÙĬØ±": 5132,
      "ĠÑĢÐ°ÑģÐ¿": 5133,
      "ĠÑįÑĤÐ¸": 5134,
      "Ġform": 5135,
      "ÐµÑĢÐ°": 5136,
      "à¸µà¸Ķ": 5137,
      "à±Ĩà°ļ": 5138,
      "à¥Ī.": 5139,
      "Ø²ÙĬØ¯": 5140,
      "Ġà°²à°ķ": 5141,
      "ç»Ħ": 5142,
      "ĠÐŁÐ¾": 5143,
      "Ġpass": 5144,
      "Ġà¤ĵ": 5145,
      "ĠØ§ÙĦØ§Øª": 5146,
      "à¥ĩà¤¹": 5147,
      "Ġyok": 5148,
      "ĠØ¨Øµ": 5149,
      "à¥ĭà¤ķ": 5150,
      "Ġcour": 5151,
      "ĠÙĬØ§": 5152,
      "Ø°ÙĬ": 5153,
      "ĠÙĪØ§ÙĦÙĨ": 5154,
      "ĠÐ¼Ð½": 5155,
      "Ø±ÙĬÙĥ": 5156,
      "à¹ĩà¸Ļà¸ª": 5157,
      "IS": 5158,
      "ĠmÃªme": 5159,
      "Ġbel": 5160,
      "ĠÐºÐ¾Ð³Ð´Ð°": 5161,
      "à±Ĭà°ļ": 5162,
      "Ġetk": 5163,
      "ĠØ§ÙĦØ³ÙĦ": 5164,
      "éĢŁ": 5165,
      "å¢ĥ": 5166,
      "'n": 5167,
      "yen": 5168,
      "æĲ": 5169,
      "liÄŁ": 5170,
      "ites": 5171,
      "à°¾à°°à°¨": 5172,
      "à±įà°²à°²": 5173,
      "åıį": 5174,
      "Ø§Ø¯Ø§Øª": 5175,
      "oke": 5176,
      "åį³": 5177,
      "ower": 5178,
      "Ġsanat": 5179,
      "iÄŁer": 5180,
      "ning": 5181,
      "Ġalikuwa": 5182,
      "Ġcap": 5183,
      "ÑĢÐ°Ð¶": 5184,
      "ĠSa": 5185,
      "Ø±ÙĬÙħ": 5186,
      "ÑģÑĤÐ°Ð½Ð¾Ð²": 5187,
      "ÙĦØ§Øª": 5188,
      "Ġhaz": 5189,
      "ÑĨÑĭ": 5190,
      "Ġbilg": 5191,
      "éŁ³": 5192,
      "ĠÃ¶nemli": 5193,
      "ÙĤÙĩ": 5194,
      "à¸´à¸Ľ": 5195,
      "à¸´à¸į": 5196,
      "ĠØ¹Ø¨": 5197,
      "à¸¨à¸²à¸ª": 5198,
      "ĠiÃ§inde": 5199,
      "Ġatt": 5200,
      "ĠÐ¿ÑĢÐ¾Ð³": 5201,
      "ĠolduÄŁu": 5202,
      "ÙĨÙĬÙĨ": 5203,
      "à¥Ģà¤²": 5204,
      "ĠÙĪØ§ÙĦØŃ": 5205,
      "åħ·": 5206,
      "å·¥ä½ľ": 5207,
      "Ð°Ð·": 5208,
      "ĠØ¨ÙħØ§": 5209,
      "usu": 5210,
      "Ø§Ø³Ùħ": 5211,
      "ĠCon": 5212,
      "Ã¨me": 5213,
      "Ä±lÄ±r": 5214,
      "ĠÐ¿ÑĢÐ¾Ð²": 5215,
      "'in": 5216,
      "Ad": 5217,
      "à¸´à¸Ĺà¸¢": 5218,
      "ĠeÄŁ": 5219,
      "è¿ĳ": 5220,
      "åŃ¸": 5221,
      "ĠÐ»ÐµÑĤ": 5222,
      "Ġà°µà°°à°ķ": 5223,
      "æŁ¥": 5224,
      "Ġ>": 5225,
      "ÙĩÙĪØ±": 5226,
      "à¸Ńà¸ª": 5227,
      "ĠÙĬØ¬Ø¨": 5228,
      "ilde": 5229,
      "è®®": 5230,
      "ĠÐŃÑĤÐ¾": 5231,
      "bir": 5232,
      "Ø¹ÙĦÙħ": 5233,
      "Ġsom": 5234,
      "ĠÙĦØ§ÙĨ": 5235,
      "icha": 5236,
      "ÑĤÐ¸Ñı": 5237,
      "Ð½ÐµÐµ": 5238,
      "Ġà°¸à°®à°¯": 5239,
      "ĠÑģÐ¾Ð·Ð´Ð°": 5240,
      "à°¿Ċ": 5241,
      "ĠØ§ÙĦØ§ØŃ": 5242,
      "orm": 5243,
      "Ð³Ñĥ": 5244,
      "à¤Ĺà¤°": 5245,
      "ĠÑĢÐ°Ð±Ð¾ÑĤ": 5246,
      "ÑĨÐ¸Ð°Ð»ÑĮ": 5247,
      "à¹Īà¸²à¸ĩà¸ģ": 5248,
      "æĪĳåĢĳ": 5249,
      "ĠØ§ÙĦØµØŃ": 5250,
      "Ø±ÙĥØ²": 5251,
      "à¸ªà¸¡à¸Ńà¸ĩ": 5252,
      "ample": 5253,
      "ØĽ": 5254,
      "ÙĩÙĪØ¯": 5255,
      "à¹Ģà¸ł": 5256,
      "ily": 5257,
      "Ð±Ð»Ð¸": 5258,
      ".âĢĿ": 5259,
      "éĴ": 5260,
      "ĠÙģÙĤØ·": 5261,
      "ĠØ§ÙĦØ³Ø§Ø¨": 5262,
      "Ø§ÙĤØ©": 5263,
      "åĢĻ": 5264,
      "ĠÑĦÐ¾ÑĢ": 5265,
      "âĢ¦âĢ¦": 5266,
      "ĠÐ´ÑĢÑĥÐ³Ð¸": 5267,
      "à¸´à¹Į": 5268,
      "Ã¼s": 5269,
      "à¸«à¸²": 5270,
      "à°ļà°¬à°¡": 5271,
      "à±Ĥà°ķ": 5272,
      "à¹Īà¸²à¸Īà¸°": 5273,
      "ulu": 5274,
      "ä½ı": 5275,
      "ĠØ§ÙĦØŃØ±": 5276,
      "à¸Ľà¸£à¸°à¸Ĭ": 5277,
      "åĳĬ": 5278,
      "ace": 5279,
      "Ð¯": 5280,
      "ÙĪØ§Ø¬": 5281,
      "ØªØ¨Ø±": 5282,
      "Ġmmoja": 5283,
      "çļĦä¸Ģ": 5284,
      "lerde": 5285,
      "ĠdeÄŁiÅŁ": 5286,
      "à±įà°«": 5287,
      "Ø¯Ø§Ø¯": 5288,
      "ĠDe": 5289,
      "à¸łà¸²à¸©": 5290,
      "ĠÙĪØ³ÙĦÙħ": 5291,
      "ĠÙĬÙģ": 5292,
      "à¸¸à¸Ħ": 5293,
      "Ġinsan": 5294,
      "åħ§": 5295,
      "Ġask": 5296,
      "ham": 5297,
      "ĠÙħÙħØ§": 5298,
      "Ġmik": 5299,
      "ĠØ£Ø¯": 5300,
      "ĠBo": 5301,
      "ÑĪÐµÐ¹": 5302,
      "Ġcho": 5303,
      "Ġinclu": 5304,
      "Ð§": 5305,
      "à±¦": 5306,
      "ĠÙĪØ±": 5307,
      "Ġsasa": 5308,
      "à¹Ģà¸ªà¸£": 5309,
      "ä¸ĸçķĮ": 5310,
      "ĠØ´Ø¹Ø¨ÙĨØ§": 5311,
      "åŀĭ": 5312,
      "eth": 5313,
      "ĠWe": 5314,
      "larÄ±na": 5315,
      "à±ĥà°¦": 5316,
      "ĠtrÃ¨s": 5317,
      "ĠÑģÐ»ÑĥÑĩÐ°": 5318,
      "ĠÙħØ¬Ùħ": 5319,
      "Ø§ÙħØ§": 5320,
      "ÄŁÄ±nÄ±": 5321,
      "Ø£ÙĬ": 5322,
      "à±Īà°Ĥ": 5323,
      "ĠKat": 5324,
      "ÐºÐ¸Ðµ": 5325,
      "ĠÅŁey": 5326,
      "Ġsite": 5327,
      "Ø§Ø¦Ø¯": 5328,
      "è¯·": 5329,
      "à¸ģà¸¥à¸²à¸ĩ": 5330,
      "Ġà°ħà°µà°¸à°°": 5331,
      "æļ": 5332,
      "Ġ$": 5333,
      "à¤¾.": 5334,
      "Ġyeni": 5335,
      "Ġvard": 5336,
      "ĠÐ´Ñĥ": 5337,
      "Ġrem": 5338,
      "ĠØ§Øµ": 5339,
      "ĠÙĪØ¥ÙĨ": 5340,
      "Ġdata": 5341,
      "Ġcla": 5342,
      "ĠÙĪØ§ÙĦØ¥": 5343,
      "à±Īà°°": 5344,
      "Ġpoint": 5345,
      "'Ã©": 5346,
      "Ġkip": 5347,
      "ladÄ±": 5348,
      "à±ģà°²à°¤": 5349,
      "chini": 5350,
      "æīĢä»¥": 5351,
      "cu": 5352,
      "éĮ": 5353,
      "à¸Ļà¸ķ": 5354,
      "Ø¨Ø§Ø±": 5355,
      "à±ĭà°§": 5356,
      "ĠÙĦÙĥ": 5357,
      "Ġfasihi": 5358,
      "chuk": 5359,
      "ç»Ļ": 5360,
      "ä¸ŃåĽ½": 5361,
      "get": 5362,
      "tik": 5363,
      "ĠØ§ÙĦØ±ÙĬ": 5364,
      "Ð°Ð»": 5365,
      "Ġwenye": 5366,
      "Ø§Ø¦ÙĤ": 5367,
      "éĢī": 5368,
      "ĠgÃ¶ster": 5369,
      "ĠÐĿÐ¾": 5370,
      "à¸¯": 5371,
      "Ġspe": 5372,
      "ĠÙĦÙĩÙħ": 5373,
      "à¸ªà¸§": 5374,
      "à±įà°ķà°°": 5375,
      "à¸Ħà¸§à¸£": 5376,
      "ĠRes": 5377,
      "ĠØ§ÙĦØ¯ÙĪÙĦØ©": 5378,
      "ĠØ§ÙĦØ¸": 5379,
      "à±ģà°Ń": 5380,
      "Ġbad": 5381,
      "hemu": 5382,
      "ekuwa": 5383,
      "Ġinst": 5384,
      "à¹Īà¸²à¸ª": 5385,
      "Ġconst": 5386,
      "å°±æĺ¯": 5387,
      "à°Ĥà°µà°¤": 5388,
      "bilir": 5389,
      "ij": 5390,
      "ĠkÃ¶": 5391,
      "atik": 5392,
      "ĠÙĬØµ": 5393,
      "oth": 5394,
      "à¸±à¸Ļà¸ķ": 5395,
      "Ġpeople": 5396,
      "åħ¶ä»ĸ": 5397,
      "à°ªà°°": 5398,
      "diÄŁi": 5399,
      "Ġmaana": 5400,
      "æĸ½": 5401,
      "Ġà°İà°µà°°": 5402,
      "Ġayr": 5403,
      "åħ¬åı¸": 5404,
      "OR": 5405,
      "èİ": 5406,
      "à¸Ńà¸§": 5407,
      "Ø¹Ø§Ø±": 5408,
      "Ġap": 5409,
      "Ġfaz": 5410,
      "ÙĪÙĨÙĬ": 5411,
      "åĬ©": 5412,
      "Ð¸Ð¼Ð¾": 5413,
      "labilir": 5414,
      "çħ§": 5415,
      "38": 5416,
      "La": 5417,
      "ÙģÙĥ": 5418,
      "à¸µà¸¡": 5419,
      "à¥ģà¤ª": 5420,
      "Ġà°¬à°¯": 5421,
      "ĠØ§ÙĦÙģØ±": 5422,
      "ctions": 5423,
      "ÑĤÐ¾Ð¼Ñĥ": 5424,
      "à¸±à¸Īà¸Ī": 5425,
      "van": 5426,
      "ĠÙħÙĦ": 5427,
      "Ø¨ÙĬÙĦ": 5428,
      "ĠØ°ÙĥØ±": 5429,
      "ÑģÐºÐ¸Ñħ": 5430,
      "Â«": 5431,
      "Ġem": 5432,
      "ura": 5433,
      "ĠØ§ÙĦÙħØ¹ÙĦ": 5434,
      "Ġreg": 5435,
      "Ø§ÙģÙĬØ©": 5436,
      "à¥Īà¤Ĥ,": 5437,
      "à¸«à¸¡à¸Ķ": 5438,
      "ĠÐ¿Ð¾ÑģÐ»Ðµ": 5439,
      "æĴ": 5440,
      "Ġyat": 5441,
      "Ø·ÙĬØ¹": 5442,
      "adÄ±": 5443,
      "æľīä¸Ģ": 5444,
      "maz": 5445,
      "ÐµÐ´": 5446,
      "à¸µà¸Ń": 5447,
      "à¥įà¤Ľ": 5448,
      "à¤¿à¤·": 5449,
      "emi": 5450,
      "Ġenc": 5451,
      "à°¾à°¯à°ķ": 5452,
      "nÄ±": 5453,
      "à±įà°°à°§": 5454,
      "ĠÑĩÐµÐ¼": 5455,
      "è¨Ģ": 5456,
      "éķ·": 5457,
      "à¸ļà¸²à¸ĩ": 5458,
      "Ġà°ķà°³": 5459,
      "Ð»Ð°Ð²": 5460,
      "ourn": 5461,
      "ÑģÐ¿Ðµ": 5462,
      "enu": 5463,
      "ØªÙĬÙĨ": 5464,
      "à¹ĥà¸ª": 5465,
      "Ġwote": 5466,
      "à¹ĮĊ": 5467,
      "Ġà¤ħà¤¬": 5468,
      "ĠÐ±ÑĭÐ»Ð¸": 5469,
      "ĠÑĤÐµÑħ": 5470,
      "Ð°Ð·Ð°": 5471,
      "à°¿à°³": 5472,
      "ÙĥØ¨Ø±": 5473,
      "ĠØ¨ÙĤ": 5474,
      "Ġonly": 5475,
      "à¸Īà¸°à¸¡": 5476,
      "è¯¥": 5477,
      "æ©Ł": 5478,
      "Ġsub": 5479,
      "ĠÙħØ«": 5480,
      "ĠÐ¾Ð½Ð°": 5481,
      "Ġà°Ĩà°«": 5482,
      "Ġà°ĩà°¤à°°": 5483,
      "à¹Īà¸§à¸ĩ": 5484,
      "eleza": 5485,
      "lor": 5486,
      "ÑĤÐµÐ»ÐµÐ¹": 5487,
      "ØºØ±": 5488,
      "ÑģÑĤÐ²Ñĥ": 5489,
      "anzania": 5490,
      "endi": 5491,
      "ÙĥØ©": 5492,
      "à¹Ģà¸¨": 5493,
      "ÐºÑĢÐ°": 5494,
      "Ġhayo": 5495,
      "unuz": 5496,
      "etim": 5497,
      "ĠÐºÐ¾Ð¼Ð¿Ð°": 5498,
      "Ġdurum": 5499,
      "ç¿": 5500,
      "ense": 5501,
      "ĠÙĬØ¤": 5502,
      "ÐµÐ½Ð½Ð¾": 5503,
      "ĠAli": 5504,
      "ider": 5505,
      "æĸĻ": 5506,
      "åį¡": 5507,
      "à±įà°®à°ķ": 5508,
      "ØŃÙĬØŃ": 5509,
      "ç½®": 5510,
      "ĠØ§ÙĦØŃÙĬØ§Ø©": 5511,
      "AD": 5512,
      "aÄŁÄ±": 5513,
      "mit": 5514,
      "à¥įà¤£": 5515,
      "ete": 5516,
      "ĠØ§ÙĦÙħÙĩ": 5517,
      "à¹Ħà¸Ł": 5518,
      "à¥ģà¤Ŀ": 5519,
      "æī¾": 5520,
      "ĠÃ¶ÄŁr": 5521,
      "à¤Ľ": 5522,
      "ÑĭÐµ": 5523,
      "Ġvers": 5524,
      "Ġà°¨à°¡": 5525,
      "ĠÙĦÙĦØª": 5526,
      "ĠÐ¾Ð±ÑĬ": 5527,
      "à±įà°Ĺà°°": 5528,
      "Ġambaye": 5529,
      "é£Ł": 5530,
      "ful": 5531,
      "Ġmambo": 5532,
      "Ġback": 5533,
      "à¤¾à¤¶": 5534,
      "Ġà°ªà°²": 5535,
      "ï¼Įä¸Ģ": 5536,
      "ention": 5537,
      "æľĽ": 5538,
      "ilik": 5539,
      "ĠØ±Ø¦ÙĬØ³": 5540,
      "Ġà°İà°¦": 5541,
      "å¾ŀ": 5542,
      "ĠØ°Ø§Øª": 5543,
      "å¯¦": 5544,
      "ÑĥÑİÑīÐ¸": 5545,
      "tel": 5546,
      "ĠÙĪØ¯": 5547,
      "à¹ģà¸£à¸ĩ": 5548,
      "Ġloc": 5549,
      "ĠÐ½Ð°ÑĩÐ°": 5550,
      "ĠÐºÐ¾Ð¼Ð¿": 5551,
      "42": 5552,
      "pro": 5553,
      "ton": 5554,
      "Ø§ÙĬØ©": 5555,
      "Ġtwo": 5556,
      "ĠÙģÙĬÙħØ§": 5557,
      "ØµÙĪØµ": 5558,
      "ĠMus": 5559,
      "iyon": 5560,
      "ages": 5561,
      "éĽ»": 5562,
      "à¹ĵ": 5563,
      "ĠÙĪØ®": 5564,
      "à¹īà¸ª": 5565,
      "Ø³ÙĦ": 5566,
      "ï¼ĮâĢľ": 5567,
      "à¹ģà¸Ĥ": 5568,
      "à¸¸à¸ļ": 5569,
      "ĠÐ¾Ð±ÑĢÐ°Ð·": 5570,
      "à¸Ńà¹ĥà¸«": 5571,
      "à¹Įà¸ķ": 5572,
      "à±ĩà°³": 5573,
      "ÙĬÙħØ©": 5574,
      "æĹħ": 5575,
      "ember": 5576,
      "ĠÐ»ÑİÐ±": 5577,
      "Ġdiff": 5578,
      "ĠÙĪØ´": 5579,
      "à¥Ģà¤ļ": 5580,
      "Ġkush": 5581,
      "Ø²ÙĦ": 5582,
      "Ġzao": 5583,
      "ced": 5584,
      "Ãĸ": 5585,
      "ÙĪÙĬØ±": 5586,
      "à¸µà¸£": 5587,
      "ØŃÙħ": 5588,
      "unzi": 5589,
      "eter": 5590,
      "ĠØªÙĥ": 5591,
      "Ã§a": 5592,
      "à¸µà¸¢à¸Ķ": 5593,
      "Ø¥Ø°Ø§": 5594,
      "endre": 5595,
      "æĬ¥": 5596,
      "à¸Īà¸²à¸ģà¸Ļ": 5597,
      "eau": 5598,
      "!!!": 5599,
      "Ġplace": 5600,
      "æ¢": 5601,
      "ĠÑĢ": 5602,
      "Ġht": 5603,
      "Ġgu": 5604,
      "à¹ĩà¸ķ": 5605,
      "cept": 5606,
      "ĠØ§ÙĦÙĨØ¸Ø§Ùħ": 5607,
      "åĮº": 5608,
      "ĠØ§ÙĦÙħØ³ÙĬ": 5609,
      "Ġmag": 5610,
      "LE": 5611,
      "Ã»": 5612,
      "å¡": 5613,
      "éª": 5614,
      "Ð¸Ð»": 5615,
      "atia": 5616,
      "à¸ķà¸³": 5617,
      "ileri": 5618,
      "à¹Ħà¸Ĥ": 5619,
      "Ã¶yle": 5620,
      "ÙĦÙĬØ§Øª": 5621,
      "à¹Ĥà¸£à¸ĩ": 5622,
      "à¥įà¤°à¤µ": 5623,
      "Ø¸ÙĩØ±": 5624,
      "ÑģÑĤÐ°Ð²Ð»Ñı": 5625,
      "Ġneed": 5626,
      "Fr": 5627,
      "Ġà°ļà°¦": 5628,
      "Ð»Ð¸Ñĩ": 5629,
      "ĠØ§ÙĦØ¹ÙĦ": 5630,
      "ĠØ³Ùħ": 5631,
      "Ġà°¦à°°": 5632,
      "à¥Ĥà¤Ĥ": 5633,
      "ÑĨÐ¸Ð¾Ð½": 5634,
      "ÐµÐ¹ÑģÑĤÐ²Ð¸": 5635,
      "ä¾¿": 5636,
      "Ø§ÙĦØ«": 5637,
      "ĠgÃ¼zel": 5638,
      "Ġà¤¹à¤°": 5639,
      "Ġins": 5640,
      "ÑĢÐ¸Ð¸": 5641,
      "Ġthro": 5642,
      "ĠÐĴÐ°": 5643,
      "à¸ģà¸£à¸¡": 5644,
      "è´¹": 5645,
      "Ġperson": 5646,
      "æ£Ĵ": 5647,
      "Ġà¤¸à¤°à¤ķ": 5648,
      ".âĢĿĊ": 5649,
      "zwa": 5650,
      "ĠgerÃ§ek": 5651,
      "à¹Įà¸¡": 5652,
      "Ġà¤Ĩà¤¯": 5653,
      "ĠÐµÑīÐµ": 5654,
      "æĶ¯": 5655,
      "éĹ¨": 5656,
      "ÙĥØ¯": 5657,
      "ÑģÑĤÑĢÐ¾": 5658,
      "iko": 5659,
      "à¸ŀà¸ļ": 5660,
      "à¹Įà¸Ĥà¸Ńà¸ĩ": 5661,
      "åħį": 5662,
      "à¹ĭ": 5663,
      "ĠØ¨Ø·": 5664,
      "Ġfark": 5665,
      "Ġdep": 5666,
      "ÑħÐ¸": 5667,
      "ict": 5668,
      "à¹īà¸²à¸«": 5669,
      "èµĦ": 5670,
      "ÑħÐ¾Ð´Ð¸ÑĤ": 5671,
      "è£¡": 5672,
      "ĠØ¹Ø¯Ùħ": 5673,
      "ĠÐºÐ°Ð¶": 5674,
      "Ø§Ø®ÙĦ": 5675,
      "ĠThis": 5676,
      "à¹Ģà¸§à¸¥à¸²": 5677,
      "Ð´Ð¾Ð²": 5678,
      "red": 5679,
      "æľ¯": 5680,
      "ĠØ§ÙĦØ£Ø®": 5681,
      "à¹ĩà¸Ļà¸ģà¸²à¸£": 5682,
      "ĠÙĦÙĦØ£": 5683,
      "è¯Ŀ": 5684,
      "eur": 5685,
      "Ġsans": 5686,
      "à¤Ĥà¤§": 5687,
      "Ø§Ø¹Ø§Øª": 5688,
      "Ġquel": 5689,
      "Ã¼nÃ¼": 5690,
      "wezi": 5691,
      "à¸´à¸Ķà¸ķ": 5692,
      "à¸¡à¸²à¸ĵ": 5693,
      "ĠÑįÑĤÐ¾Ð³Ð¾": 5694,
      "ĠgeliÅŁ": 5695,
      "ĠÙ±ÙĦ": 5696,
      "ÙĪÙħØ§": 5697,
      "Ð½Ð³": 5698,
      "ĠaÅŁ": 5699,
      "Ġbet": 5700,
      "à±Ĥà°ļ": 5701,
      "à¹īà¸²à¸§": 5702,
      "ÑģÐºÐ¾Ð¼": 5703,
      "ĠÐ±ÑĭÐ»Ð°": 5704,
      "cc": 5705,
      "ĠØ£Ø®": 5706,
      "adamu": 5707,
      "à¤¤à¤°": 5708,
      "Ø¶Ø©": 5709,
      "ÑĢÐµÐ´Ðµ": 5710,
      "ĠPr": 5711,
      "Ġzake": 5712,
      "Ġconf": 5713,
      "99": 5714,
      "Ð°Ð»Ð¸": 5715,
      "ars": 5716,
      "Ġdest": 5717,
      "ÑĢÐµÐ±": 5718,
      "âĢĻt": 5719,
      "åĪ«": 5720,
      "Ġuyg": 5721,
      "34": 5722,
      "lin": 5723,
      "Ġmal": 5724,
      "Ġcor": 5725,
      "à¤Ĥà¤ķ": 5726,
      "ams": 5727,
      "ĠØ§ÙĦØªØ¬": 5728,
      "ĠÐ¼Ð½Ðµ": 5729,
      "ĠØ´Ø®Øµ": 5730,
      "ĠØ§ÙĦÙĥØªØ§Ø¨": 5731,
      "å¼·": 5732,
      "ĠØ§ÙĬ": 5733,
      "ĠØ§ÙĦØ·Ø¨ÙĬ": 5734,
      ".a": 5735,
      "Ð¾Ñĩ": 5736,
      "ÑĤÑĢÐ¸": 5737,
      "Ġtari": 5738,
      "liÄŁi": 5739,
      "Ġhel": 5740,
      "Ø§ÙĨØ©": 5741,
      "à¹ģà¸£à¸ģ": 5742,
      "Ġuj": 5743,
      "Ġà°¦à°Ĺ": 5744,
      "çĹħ": 5745,
      "çłĶ": 5746,
      "==": 5747,
      "Ġà°Ĭ": 5748,
      "à¤Ĥà¤Ł": 5749,
      "ĠÙħÙĨØ°": 5750,
      "Ø±ÙĬÙĤØ©": 5751,
      "æ¸ħ": 5752,
      "ç©¶": 5753,
      "à¹īà¹Ģà¸ģ": 5754,
      "ĠØ£Ø¨ÙĬ": 5755,
      "Ø§ÙĨØ¨": 5756,
      "ĠÐºÐ¾ÑĤÐ¾ÑĢÑĭÐ¹": 5757,
      "AP": 5758,
      "sek": 5759,
      "wili": 5760,
      "ĠÐ¸Ð³": 5761,
      "land": 5762,
      "åįİ": 5763,
      "ĠÐ°Ðº": 5764,
      "book": 5765,
      "ĠÑģÐ¸ÑģÑĤ": 5766,
      "æ¿": 5767,
      "è¸": 5768,
      "Ø§ÙĦÙĥ": 5769,
      "ank": 5770,
      "ĠsÄ±r": 5771,
      "åħ©": 5772,
      "cts": 5773,
      "à±įà°µà°¹": 5774,
      "ĠÃ§oc": 5775,
      "à¸±à¸ĩà¸Ļ": 5776,
      "ĠØ§ÙĦØ¯Ø±": 5777,
      "Ġpremi": 5778,
      "ç²¾": 5779,
      "Â·": 5780,
      "ĠÑģÐµÑĢ": 5781,
      "ÐµÐ½Ñĭ": 5782,
      "Ð½Ð¸ÐºÐ¾Ð²": 5783,
      "Ġà¤¬à¤¢": 5784,
      "larÄ±nÄ±n": 5785,
      "æł¹": 5786,
      "ĠÐ¸Ð½ÑĦÐ¾ÑĢÐ¼Ð°": 5787,
      "II": 5788,
      "ga": 5789,
      "mb": 5790,
      "à¤¾à¤£": 5791,
      "à¸Ķà¸³": 5792,
      "Ġdem": 5793,
      "Ø¶Ùħ": 5794,
      "ĠÐµÐµ": 5795,
      "à±įà°¥à°²": 5796,
      "Ġalis": 5797,
      "ĠØ«ÙĦØ§Ø«": 5798,
      "Ġpeut": 5799,
      "à¥ĭà¤Łà¤²": 5800,
      "Ġkubwa": 5801,
      "Ġhttp": 5802,
      "52": 5803,
      "Ġnchini": 5804,
      "à¹ģà¸Ī": 5805,
      "Ø·Ø§ÙĨ": 5806,
      "adan": 5807,
      "åıĭ": 5808,
      "ç»Ł": 5809,
      "çİ¯": 5810,
      "Ġà¤¸à¤®à¤¯": 5811,
      "ĠÅŁekilde": 5812,
      "undi": 5813,
      "ĠÐ²Ð¾Ñģ": 5814,
      "ĠalÄ±n": 5815,
      "ĠØ§ÙĦÙĥØ«ÙĬØ±": 5816,
      "37": 5817,
      "Kwa": 5818,
      "UR": 5819,
      "Ġ;": 5820,
      "ØªØ¬": 5821,
      "Ø¹ÙħÙĦ": 5822,
      "Ø¨Ø§": 5823,
      "Ġmost": 5824,
      "à¸¢à¸§à¸ģ": 5825,
      "ĠØ§ÙĦÙħÙħ": 5826,
      "ï¼Įè¿Ļ": 5827,
      "è¿Ĳ": 5828,
      "ç®Ĺ": 5829,
      "ÐµÐ²": 5830,
      "ĠØ¨ÙĪ": 5831,
      "à¸¢à¸ĩ": 5832,
      "ĠPM": 5833,
      "idia": 5834,
      "ĠÐ¿Ð¾Ñĩ": 5835,
      "à¸¢à¸ģ": 5836,
      "Ġà°ķà°µ": 5837,
      "ales": 5838,
      "ĠÙĬÙĤÙĪÙĦ": 5839,
      "Ġlong": 5840,
      "ives": 5841,
      "larÄ±nda": 5842,
      "prÃ¨s": 5843,
      "ĠÑĤÐµÐ¼": 5844,
      "ĠØ§ÙĦØªØ¹ÙĦÙĬÙħ": 5845,
      "Ġposs": 5846,
      "vers": 5847,
      "Ø¨Ø§Ø¨": 5848,
      "à±Ĥà°¤": 5849,
      "ĠFor": 5850,
      "ï¼ļĊ": 5851,
      "ÑģÑĤÑĥÐ¿": 5852,
      "ho": 5853,
      "wana": 5854,
      "Ø§ÙĪÙĦ": 5855,
      "Ġà¤ķà¤Ī": 5856,
      "Ð±ÑĢÑı": 5857,
      "è¦º": 5858,
      "zima": 5859,
      "Ø±Ø§Øª": 5860,
      "Ġtas": 5861,
      "ĠØ£ÙħØ§": 5862,
      "Ð·Ñĥ": 5863,
      "ĠØ§ÙĦØ£ÙĨ": 5864,
      "Ø¤ÙĪÙĦ": 5865,
      "Ġmuh": 5866,
      "Ð¾Ð²Ð¾ÑĢÐ¸": 5867,
      "à°¾à°Ń": 5868,
      "inc": 5869,
      "ĠØ§ÙĦÙħÙģ": 5870,
      "à¥Īà¤¨": 5871,
      "à¹Ĥà¸Ļ": 5872,
      "ÙĪÙħÙĬØ©": 5873,
      "æľįåĬ¡": 5874,
      "75": 5875,
      "eli": 5876,
      "å¨": 5877,
      "à±įà°ŀ": 5878,
      "à¸Ńà¸³": 5879,
      "Ġdr": 5880,
      "ouve": 5881,
      "Ġzote": 5882,
      "Ġold": 5883,
      "ĠtÃ¼m": 5884,
      "à¹īĊ": 5885,
      "à¸µà¸ķ": 5886,
      "ĠÑģÐ»ÐµÐ´": 5887,
      "æĺ¯ä¸Ģ": 5888,
      "Ð¾ÑģÑģÐ¸": 5889,
      "ĠØ§ÙĦØ®Ø·": 5890,
      "à¸£à¸£à¸Ħ": 5891,
      "Â».": 5892,
      "AK": 5893,
      "ĠÙĪØ§Ø³Øª": 5894,
      "Ø¹Ø§Øª": 5895,
      "âĢĻune": 5896,
      "ĠÙĨÙĤ": 5897,
      "Ġà¤¬à¤¤": 5898,
      "ĠØ§ÙĦÙĤØ§ÙĨÙĪÙĨ": 5899,
      "ĠØ§ÙĦØ¥ÙĨ": 5900,
      "ÙĪØ¬Ùĩ": 5901,
      "å§Ķ": 5902,
      "ç¥ŀ": 5903,
      "éº¼": 5904,
      "56": 5905,
      "eh": 5906,
      "mis": 5907,
      "ÐŃ": 5908,
      "Ġà¸«à¸Ļ": 5909,
      "Ġsoci": 5910,
      "Ġcent": 5911,
      "ason": 5912,
      "ç¨®": 5913,
      "aret": 5914,
      "à±ĭà°®": 5915,
      "ØŃÙĦØ©": 5916,
      "itions": 5917,
      "à°µà°¨": 5918,
      "Ð¾Ð³Ð°": 5919,
      "ĠØ§ÙĦØ£Ø¯": 5920,
      "mez": 5921,
      "Ġà¤Ĩà¤¦": 5922,
      "æĢĿ": 5923,
      "ĠØ¹ÙĨØ¯ÙħØ§": 5924,
      "æ²Ĵæľī": 5925,
      "95": 5926,
      "org": 5927,
      "ĠÙģÙĦØ§": 5928,
      "ä»Ĭ": 5929,
      "raf": 5930,
      "ĠØ§ÙĦØ´Ø®Øµ": 5931,
      "ĠÙĪÙħØ¹": 5932,
      "åĮĹ": 5933,
      "ĠÑģÐ²Ð¾Ð¸": 5934,
      "Ġà°§à°°": 5935,
      "ound": 5936,
      "Ġà¥¤": 5937,
      "ĠØ§Ø¬": 5938,
      "à¸ĳ": 5939,
      "à°¾à°ĸ": 5940,
      "ante": 5941,
      "ĠØ£ÙĤ": 5942,
      "Ġsec": 5943,
      "ĠØ§ÙĦÙĪØ²": 5944,
      "Ð³Ð°Ð½Ð¸": 5945,
      "à°Ĩà°°": 5946,
      "wi": 5947,
      "ĠÐ½Ð¾Ð²": 5948,
      "à¹ĩà¸Ļà¸Ĺ": 5949,
      "ĠØ§ÙĦØ¥Ø³ÙĦØ§ÙħÙĬØ©": 5950,
      "arr": 5951,
      "uss": 5952,
      "à¹Īà¸²à¸Ĺ": 5953,
      "indeki": 5954,
      "ÙĨØ³Ø¨Ø©": 5955,
      "ĠÐ¿Ð¾Ð»ÑĥÑĩÐ¸": 5956,
      "à¹Īà¸ķ": 5957,
      "Ġbur": 5958,
      "à¹Įà¸Ķ": 5959,
      "ĠØ¯ÙĪÙĦ": 5960,
      "à¸ģà¸³à¸¥": 5961,
      "Na": 5962,
      "Ð½Ð¾Ð²Ð°": 5963,
      "way": 5964,
      "ĠÙģØ£": 5965,
      "ĠØ£ÙħØ±": 5966,
      "ĠÙĦÙĤ": 5967,
      "ÙİØ¹": 5968,
      "ĠØ¥Ø°": 5969,
      "à¥Ĥà¤¸à¤°": 5970,
      "à¹Ģà¸Ĥà¸²": 5971,
      "Ø§ÙĩÙĬÙħ": 5972,
      "ĠØ´ÙĬØ¡": 5973,
      "Ġbit": 5974,
      "à±Ģà°ľ": 5975,
      "à¹ģà¸ľ": 5976,
      "à°µà°²": 5977,
      "Ġà°¨à°®": 5978,
      "ĠÐĿÐµ": 5979,
      "des": 5980,
      "ena": 5981,
      "à¥ĩà¤¦": 5982,
      "Ð¿ÑĢÐ°Ð²": 5983,
      "à¸ŀà¸²à¸°": 5984,
      "åı¦": 5985,
      "à¤¾à¥¤Ċ": 5986,
      "ĠÐ´ÐµÐ»Ð°": 5987,
      "è½¦": 5988,
      "tt": 5989,
      "Ġhili": 5990,
      "amini": 5991,
      "ĠØªÙģ": 5992,
      "umi": 5993,
      "ics": 5994,
      "à¤µà¤°": 5995,
      "ä»¥åıĬ": 5996,
      "ĠØ§ÙĦÙĦØºØ©": 5997,
      "à¹Ģà¸īà¸ŀà¸²à¸°": 5998,
      "TE": 5999,
      "ÛĮ": 6000,
      "à¹ķ": 6001,
      "ĠØ§ÙĦØ§Ø¬ØªÙħØ§Ø¹": 6002,
      "Ġmake": 6003,
      "å¤Ħ": 6004,
      "è®º": 6005,
      "à¸ķà¸£à¸ĩ": 6006,
      "è¨Ń": 6007,
      "Ġgetir": 6008,
      "Ġlook": 6009,
      "Ġà¸Ħà¸§à¸²à¸¡": 6010,
      "ÙĪØ¡": 6011,
      "ĠÙĪØ¶Ø¹": 6012,
      "âĢĵ": 6013,
      "ĠÙĦÙĪ": 6014,
      "ĠMicrosoft": 6015,
      "Ġà°°à°ļ": 6016,
      "à±įà°ªà°¡": 6017,
      "ÑģÑĤÐ°Ð²Ð¸": 6018,
      "Ġstr": 6019,
      "âĢ¦Ċ": 6020,
      "Ø¢ÙĨ": 6021,
      "ĠÐ±ÑĥÐ´Ñĥ": 6022,
      "ues": 6023,
      "Ġ!Ċ": 6024,
      "Ð½ÑĮ": 6025,
      "à¹īà¹Ģà¸Ľ": 6026,
      "umo": 6027,
      "ÐµÑĤÑĮ": 6028,
      "æĺĵ": 6029,
      "Ġpropos": 6030,
      "Ġuse": 6031,
      "Ġelle": 6032,
      "Ġkom": 6033,
      "ÙĤÙī": 6034,
      "ĠdÄ±ÅŁ": 6035,
      "ĠÐ²Ð¾Ð¿": 6036,
      "emek": 6037,
      "å¤±": 6038,
      "ä¹Ĳ": 6039,
      "ĠØ§ÙĦÙĪÙĤØª": 6040,
      "æĩī": 6041,
      "Ä±p": 6042,
      "Ġyard": 6043,
      "à¹Īà¸²à¸ģ": 6044,
      "ĠÄ°n": 6045,
      "Ġnyingine": 6046,
      "à±įà°¶à°ķ": 6047,
      "ward": 6048,
      "à°¿à°Ń": 6049,
      "Ġpet": 6050,
      "ĠÐ½ÑĥÐ¶": 6051,
      "äºĶ": 6052,
      "Ġanlam": 6053,
      "ÑĤÐ¾ÑĢÑĭ": 6054,
      "ÙıÙĳ": 6055,
      "à¹Ģà¸ŀà¸£à¸²à¸°": 6056,
      "ä¼ł": 6057,
      "ĠÃ¶nce": 6058,
      "à±ģ..": 6059,
      "ono": 6060,
      "ÑĩÐµÐ½Ð¸Ðµ": 6061,
      "Ġà¤¸à¤Ń": 6062,
      "ÑĢÐµÑģ": 6063,
      "ĠÙĩÙĦ": 6064,
      "hile": 6065,
      "ĠØ¬Ø¯Ø§": 6066,
      "à°¾à°¯à°¨": 6067,
      "Ä°N": 6068,
      "istor": 6069,
      "ĠÐŁÑĢÐ¸": 6070,
      "Ġkam": 6071,
      "Ð»Ð¾Ð¼": 6072,
      "Ġhadi": 6073,
      "à¸¢à¸°": 6074,
      "ithi": 6075,
      "à¹ģà¸Ļà¸§": 6076,
      "Ø¶ÙĬØ©": 6077,
      "ĠBr": 6078,
      "å°ĩ": 6079,
      "ĠÑĤÑĭ": 6080,
      "à¸Īà¸²à¸ģà¸ģà¸²à¸£": 6081,
      "æĭī": 6082,
      "ĠÃ¼zerine": 6083,
      "ĠØ¥ÙĦÙĬÙĩ": 6084,
      "à°¾?": 6085,
      "Ð¶Ð´Ñĥ": 6086,
      "à¹Ĥà¸ķ": 6087,
      "Ø¸ÙħØ©": 6088,
      "Ø§ÙĦÙģ": 6089,
      "ĠaÄŁ": 6090,
      "att": 6091,
      "ĠØ¨ÙĬ": 6092,
      "ĠØ£ÙĩÙħ": 6093,
      "à¸ªà¸Ńà¸ļ": 6094,
      "uter": 6095,
      "à±įà°¤à°ķ": 6096,
      "Ġà¤¦à¤°": 6097,
      "à¸±à¸ĩà¸«à¸§": 6098,
      "ĠgÃ¶z": 6099,
      "ÑĪÐµÐ³Ð¾": 6100,
      "à¥ĩà¤¶à¤¨": 6101,
      "Ġà¤ĳ": 6102,
      "ÑĤÑĢ": 6103,
      "ĠÙĦØ¥": 6104,
      "Ġuwe": 6105,
      "ÙĴØª": 6106,
      "æĹ©": 6107,
      "Ø¤ÙĦØ§Ø¡": 6108,
      "å½¢": 6109,
      "à¸Ĩ": 6110,
      "ÙħØ§Ùħ": 6111,
      "à°ĤĊ": 6112,
      "era": 6113,
      "ÙĥØ³": 6114,
      "ØŃØ§Ø¨": 6115,
      "ĠÐ¿ÑĢÐ°Ð²Ð¸": 6116,
      "Ġans": 6117,
      "Ġlui": 6118,
      "lardan": 6119,
      "à±įà°Łà°®": 6120,
      "lÄ±ÄŁÄ±": 6121,
      "ÑĢÑĥÐ¿": 6122,
      "Ð¾ÑģÐ¾Ð±": 6123,
      "å¸ĥ": 6124,
      "à±Įà°¨": 6125,
      "54": 6126,
      "à¸²à¸Ľ": 6127,
      "Ġkuna": 6128,
      "à¸ļà¸£à¸£": 6129,
      "Ø¶Ø§ÙģØ©": 6130,
      "à¸£à¸°à¸«à¸§": 6131,
      "ĠØ¯Ø±": 6132,
      "à¥ĥà¤¤": 6133,
      "39": 6134,
      "à¤ī": 6135,
      "ating": 6136,
      "å±±": 6137,
      "æīĢæľī": 6138,
      "ç¤¾": 6139,
      "ÙĪØ§Ø¹": 6140,
      "Ġkaz": 6141,
      "ÙĤØ¨ÙĦ": 6142,
      "à¸§à¸Ī": 6143,
      "amo": 6144,
      "alan": 6145,
      "ĠÐºÐ¾ÑĢ": 6146,
      "Ġend": 6147,
      "å¸Ī": 6148,
      "Ø§ØµØ±": 6149,
      "ĠÐ¿ÑĢÐ¾Ð±": 6150,
      "iyorum": 6151,
      "ĠsÃ¶z": 6152,
      "åĦ¿": 6153,
      "à¹Ģà¸ĺà¸Ń": 6154,
      "Ø«Ùħ": 6155,
      "Ð´Ð°ÑĢ": 6156,
      "à¸Ķà¸Ļà¸ķà¸£": 6157,
      "èı": 6158,
      "Ø§ÙĬ": 6159,
      "Ø³ÙĬÙĨ": 6160,
      "à±Ĩà°¤": 6161,
      "à±įà°²à°ķ": 6162,
      "rol": 6163,
      "ÑģÑĤÐ²Ð¾Ð²Ð°": 6164,
      "åĨ³": 6165,
      "å¿ħ": 6166,
      "Ġ%": 6167,
      "Ġ*": 6168,
      "Ø¯Ùĩ": 6169,
      "ÙĪØ±ÙĬØ©": 6170,
      "likte": 6171,
      "è§Ħ": 6172,
      "unga": 6173,
      "ĠØ§ÙĦØ§ÙĤØªØµ": 6174,
      "65": 6175,
      "rent": 6176,
      "vir": 6177,
      "ĠØ§Ø´": 6178,
      "Ġsign": 6179,
      "à¸ĩà¸Ħ": 6180,
      "à±ĭà°¹": 6181,
      "ĠØ¹Ø´Ø±": 6182,
      "ĠÐ²Ð°Ð¼": 6183,
      "æľª": 6184,
      "ĠKur": 6185,
      "ĠseÃ§": 6186,
      "Ã¨res": 6187,
      "ĠÑĤÐµÐ»Ðµ": 6188,
      "çº¿": 6189,
      "ÐĿÐ°": 6190,
      "é¤Ĳ": 6191,
      "53": 6192,
      "iness": 6193,
      "atizo": 6194,
      "à¸¹à¸¡": 6195,
      "ĠÑĩÐµÑĢÐµ": 6196,
      "æĿ¡": 6197,
      "à°¾à°®à°¨": 6198,
      "ments": 6199,
      "98": 6200,
      "dÃ¼r": 6201,
      "por": 6202,
      "ä»½": 6203,
      "Ð»ÑĮÐ½Ð¾": 6204,
      "ä¹¦": 6205,
      "åĩł": 6206,
      "Ġà°ħà°µà°ķ": 6207,
      "ough": 6208,
      "Les": 6209,
      "Ġop": 6210,
      "ĠÑģÐ´ÐµÐ»Ð°": 6211,
      "Ġà°Ĩà°¨": 6212,
      "Ġmaji": 6213,
      "ĠHer": 6214,
      "ĠÐ³Ð¾Ð»": 6215,
      "Ð¾Ð±ÑħÐ¾Ð´": 6216,
      "åįĹ": 6217,
      "Ġserikali": 6218,
      "ĠØ§ÙĦØ¹ÙĦÙħÙĬØ©": 6219,
      "ç©º": 6220,
      "à¸ıà¸Ĳ": 6221,
      "ĠØ§ÙĦÙħØ¬ØªÙħØ¹": 6222,
      "Ġ)Ċ": 6223,
      "ÙĨØ§ÙħØ¬": 6224,
      "Ġtan": 6225,
      "ÑģÑĤÑĢÐµ": 6226,
      "à¸ªà¸ĩ": 6227,
      "Ġà¤ħà¤¤": 6228,
      "à¸ĵà¸ĳ": 6229,
      "à¥ĩà¤·": 6230,
      "à±įà°°à°ľà°²": 6231,
      "éľĢè¦ģ": 6232,
      "lendir": 6233,
      "ĠÙħØ±Ø©": 6234,
      "à¸±à¸ķà¸£": 6235,
      "adh": 6236,
      "eke": 6237,
      "ĠÐ¶ÐµÐ½": 6238,
      "ĠgÃ¶rÃ¼n": 6239,
      "43": 6240,
      "Un": 6241,
      "ware": 6242,
      "Ġkif": 6243,
      "Ġdik": 6244,
      "à¹ģà¸Ľ": 6245,
      "Ġtous": 6246,
      "à±Ĭà°ª": 6247,
      "Ġà°Ĩà°ķ": 6248,
      "Ġthese": 6249,
      "cret": 6250,
      "ç¶²": 6251,
      "ideo": 6252,
      "ÙĢÙĢÙĢÙĢÙĢÙĢÙĢÙĢ": 6253,
      "è®©": 6254,
      "à¹Ģà¸Ħà¸¢": 6255,
      "Ġweek": 6256,
      "Ġmuda": 6257,
      "çİ°åľ¨": 6258,
      "à¸Ńà¸°à¹Ħà¸£": 6259,
      "Ġthrough": 6260,
      "OS": 6261,
      "ĠØ¨Ùĥ": 6262,
      "ï¼ĮåĽł": 6263,
      "ouver": 6264,
      "ĠØ§ÙĦØ¬Ø²": 6265,
      "à¤¼à¤¿": 6266,
      "Ø§Ø·ÙĤ": 6267,
      "ĠÐķÑģÐ»Ð¸": 6268,
      "ois": 6269,
      "uyor": 6270,
      "æĳ": 6271,
      "ç¸": 6272,
      "ÑĩÐµÐ½Ð¸Ñı": 6273,
      "ĠÐ´Ð¾Ð¼": 6274,
      "41": 6275,
      "Ġà¸ģà¸¥": 6276,
      "Ġsist": 6277,
      "Ġpop": 6278,
      "amani": 6279,
      "à°¾à°²à°¯": 6280,
      "ĠSo": 6281,
      "ÙĤØ¯ÙĬÙħ": 6282,
      "à¥įà¤¤à¤°": 6283,
      "ĠØªØŃØª": 6284,
      "å¢ŀ": 6285,
      "64": 6286,
      "ÙĪØ¨Ø©": 6287,
      "unge": 6288,
      "Ø¬ÙĨ": 6289,
      "lerine": 6290,
      "ches": 6291,
      "æĺŁ": 6292,
      "ĠØ§ÙĦØ´Ø±": 6293,
      "ÑģÑĤÐ²Ðµ": 6294,
      "æİĴ": 6295,
      "çŁ": 6296,
      "à°¿..": 6297,
      "à±ĩà°Ĺ": 6298,
      "ente": 6299,
      "à°¾à°²à°¤": 6300,
      "Ġwell": 6301,
      "Ã¶z": 6302,
      "Ġà¤¬à¤¡": 6303,
      "ĠØ³Øª": 6304,
      "Ø§Ø¦Ùĩ": 6305,
      "Ġà¤Ĺà¤ı": 6306,
      "èģĶ": 6307,
      "ombre": 6308,
      "-B": 6309,
      ".S": 6310,
      "à¸Ļà¸ģ": 6311,
      "à¸£à¸¡": 6312,
      "wali": 6313,
      "ĠhiÃ§": 6314,
      "Ø§Ø±Ùĩ": 6315,
      "à±įà°¤à°°": 6316,
      "à°¿à°ķà°¨": 6317,
      "izmet": 6318,
      "Ø§Ø¹Ø¯Ø©": 6319,
      "Ġunder": 6320,
      "ĠÐ°ÑĢ": 6321,
      "ĠaÃ§Ä±k": 6322,
      "Ġpersonn": 6323,
      "51": 6324,
      "66": 6325,
      "fin": 6326,
      "uzi": 6327,
      "Ð¸Ð½Ð°": 6328,
      "arg": 6329,
      "à¹ĥà¸Ħà¸£": 6330,
      "iongo": 6331,
      "ĠÐºÑĢÐµ": 6332,
      "ĠØ§ÙĦÙĨØ³": 6333,
      "ç»ĵ": 6334,
      "ÑģÐºÐ¸Ðµ": 6335,
      "engo": 6336,
      "97": 6337,
      "Ø¹ÙĪØ¯": 6338,
      "Ġnas": 6339,
      "à¥įà¤¬": 6340,
      "à¸«à¸¢": 6341,
      "Ø§ØªÙĩØ§": 6342,
      "omba": 6343,
      "lerinin": 6344,
      "ĠâĢ¦": 6345,
      "Ä±ldÄ±": 6346,
      "ĠÐ¿ÑĢÐ¾Ð³ÑĢÐ°Ð¼": 6347,
      "57": 6348,
      "ĠÙĪÙĤØª": 6349,
      "Ġbiz": 6350,
      "ĠÐ²Ð·": 6351,
      "Ä±ndaki": 6352,
      "ĠØ§ÙĦØ£ÙĪÙĦÙī": 6353,
      "åįĬ": 6354,
      "æİ¨": 6355,
      "ĠÑıÐ²Ð»ÑıÐµÑĤÑģÑı": 6356,
      "Ġfazla": 6357,
      "ĠÙĦØŃ": 6358,
      "Ð¿ÑĢÐµ": 6359,
      "åıĺ": 6360,
      "Ġthen": 6361,
      "ĠØ§ÙĦØ³ÙĦØ§Ùħ": 6362,
      "à±įà°·à°¨": 6363,
      "Ġgood": 6364,
      "adece": 6365,
      "éĹ®é¢ĺ": 6366,
      "ÙĪØ«": 6367,
      "à¸£à¸ĵ": 6368,
      "Ø¹ÙĬÙĨ": 6369,
      "Ø·Ø§Ø±": 6370,
      "Ġà°Ĩà°¦": 6371,
      "ĠEl": 6372,
      "Ġà¤Ĩà¤ľ": 6373,
      "ĠÃ¶r": 6374,
      "ĠØ§ÙĨØª": 6375,
      "afir": 6376,
      "æ³¨": 6377,
      "Ġkm": 6378,
      "Ġkid": 6379,
      "à¥ĩà¤®": 6380,
      "Ġsiz": 6381,
      "Ø³Ø§ÙĨ": 6382,
      "à¸´à¸Ĺ": 6383,
      "Ø§ØªÙĩÙħ": 6384,
      "à¹Ħà¸ĭ": 6385,
      "Ġà¤ľà¤¨": 6386,
      "åĪĹ": 6387,
      "Ġà°¬à°²": 6388,
      "ÑĩÐ¸ÑĤÐ°": 6389,
      "ØŃØ¯ÙĬØ¯": 6390,
      "à°¿à°ľà°¯": 6391,
      "ĠÙģÙĩÙĪ": 6392,
      "à°¿à°¹": 6393,
      "Ġsat": 6394,
      "Ġmash": 6395,
      "à¸µà¹Ĥ": 6396,
      "usi": 6397,
      "Ø·ÙĬÙĨ": 6398,
      "ĠKar": 6399,
      "à¥ģà¤Ī": 6400,
      "ĠØ§ÙĦÙħØªØŃØ¯Ø©": 6401,
      "ä»Ģä¹Ī": 6402,
      "dÃ¼": 6403,
      "Ã¹": 6404,
      "Ã½": 6405,
      "à¸Ļà¸Ķ": 6406,
      "Ø¨ÙĬÙĨ": 6407,
      "à±įà°°à°¶": 6408,
      "ĠÐ¸Ð¼": 6409,
      "Ġà°¨à°Ł": 6410,
      "ĠÐ¼Ð½Ð¾Ð³Ð¾": 6411,
      "à¸Ĭà¸Ńà¸ļ": 6412,
      "ÙĦÙħØ©": 6413,
      "Ġà¤ħà¤Ń": 6414,
      "Ġquest": 6415,
      "à°¬à°°": 6416,
      "ĠØ§ÙĦÙĤØ¯": 6417,
      "è®°": 6418,
      "çļĦæķ": 6419,
      "åĳ½": 6420,
      "Ġmn": 6421,
      "à¸¡à¸²à¸¢": 6422,
      "Ġnon": 6423,
      "ĠÑģÐ°Ð¹": 6424,
      "ÙİØ¨": 6425,
      "ĠØŃØ§ÙĦ": 6426,
      "ĠØŃÙĥ": 6427,
      "Ġris": 6428,
      "ĠØ¨Ø§ÙĦØ¥": 6429,
      "åįļ": 6430,
      "ÑĪÐ¸Ñħ": 6431,
      "ĠÄ°s": 6432,
      "èĻķ": 6433,
      "Ġ+": 6434,
      "ĠÐ¦": 6435,
      "Ø¨ÙĬØ±": 6436,
      "ature": 6437,
      "à¤¾à¤·": 6438,
      "à¸¸à¸Ľ": 6439,
      "chn": 6440,
      "à¥įà¤°à¤¸": 6441,
      "ĠØ¬Ø²": 6442,
      "éĹľ": 6443,
      "çŁ¥éģĵ": 6444,
      "à¹Īà¸Ĺ": 6445,
      "à¹Ģà¸ľ": 6446,
      "ĠÐ¿Ð°ÑĢ": 6447,
      "à¸´à¸ıà¸Ĳ": 6448,
      "Ġà°ªà°ķ": 6449,
      "Ġyay": 6450,
      "ush": 6451,
      "Ø·ÙĬ": 6452,
      "Ġolur": 6453,
      "49": 6454,
      "Ar": 6455,
      "å²": 6456,
      "Ġdh": 6457,
      "Ġhapa": 6458,
      "çļĦæĦ": 6459,
      "Ġilgili": 6460,
      "åŁİ": 6461,
      "ĠØ§Ø³Ùħ": 6462,
      "ĠdÃ¼ÅŁÃ¼n": 6463,
      "ÑĥÑģ": 6464,
      "à¥įà¤ŀ": 6465,
      "Ġà°ķà°¦": 6466,
      "Ø§Ø¨ÙĦ": 6467,
      "ĠØ¯ÙĪØ±": 6468,
      "Ġchang": 6469,
      "ato": 6470,
      "ÑıÑħ": 6471,
      "à¥Ģà¤¸": 6472,
      "Ġhizo": 6473,
      "ĠAk": 6474,
      "ĠØ§ÙĦØªØ¯": 6475,
      "à±Ĭà°®": 6476,
      "Ġright": 6477,
      "Ġjamii": 6478,
      "ØªÙħØ¯": 6479,
      "Ġduy": 6480,
      "Ġstart": 6481,
      "ÙĪÙĤÙģ": 6482,
      "à±ĩà°µà°²": 6483,
      "ä»»ä½ķ": 6484,
      "ÑģÐ¾Ðº": 6485,
      "à¸Ļà¸Ļ": 6486,
      "Ġtun": 6487,
      "Ø¨Ø§ÙĦ": 6488,
      "à¸µà¸ŀ": 6489,
      "Ã©g": 6490,
      "ĠAt": 6491,
      "å®¤": 6492,
      "Ġafter": 6493,
      "à±įà°¯à°µà°¸": 6494,
      "ĠÑģÐ¸ÑģÑĤÐµÐ¼": 6495,
      "96": 6496,
      "ÙħÙĬØ©": 6497,
      "ĠØ§ÙĦÙħØ¯Ø±": 6498,
      "ÑĢÐ°Ñı": 6499,
      "âĢĻil": 6500,
      "ĠPh": 6501,
      "Ġà¤ħà¤°": 6502,
      "à¹ĥà¸Ļà¸ª": 6503,
      "Ġeng": 6504,
      "ÑĤÐ¸ÑĩÐµÑģÐºÐ¸": 6505,
      "è®¸": 6506,
      "è®Ĭ": 6507,
      "Ġvery": 6508,
      "à±ģà°¦à°²": 6509,
      "ĠÐ²Ð¸Ð´Ðµ": 6510,
      "endeleo": 6511,
      "ĠQu": 6512,
      "Ġà°¬à°¯à°Ł": 6513,
      "à±ģ[": 6514,
      "Ð»ÐµÑĤ": 6515,
      "Ġyote": 6516,
      "à±Ģà°·": 6517,
      "à¸Ĭà¸²à¸§": 6518,
      "à¹Ĥà¸Ľ": 6519,
      "Ð²Ð°ÐµÑĤ": 6520,
      "itaji": 6521,
      "68": 6522,
      "Ġkes": 6523,
      "ĠalÄ±": 6524,
      "Ġpl": 6525,
      "ĠÙĪØ§ÙĦØªÙĬ": 6526,
      "Ø§Ø¨Ø§Øª": 6527,
      "Ø§Ø¡Ø§Øª": 6528,
      "ĠÐ³Ð¾Ð´Ñĥ": 6529,
      "à¤ļà¤¨": 6530,
      "ĠyapÄ±": 6531,
      "Ø§ÙĩØ¯": 6532,
      "pris": 6533,
      "åĭĻ": 6534,
      "44": 6535,
      "ä¸¦": 6536,
      "à°Ĥà°¶": 6537,
      "Ġnaf": 6538,
      "Ġele": 6539,
      "å¸Į": 6540,
      "åı¯æĺ¯": 6541,
      "Ġà¤¶à¤¹à¤°": 6542,
      "æ²»": 6543,
      "ĠØ§Ø³ØªØ®Ø¯Ø§Ùħ": 6544,
      "ĠÐ´Ð°Ð¶Ðµ": 6545,
      "ĠÑĢÐ°Ð±Ð¾ÑĤÐ°": 6546,
      "'une": 6547,
      "malar": 6548,
      "ĠÑĨÐµ": 6549,
      "Ø¯Ø§Ø±Ø©": 6550,
      "ĠtÃ¼r": 6551,
      "Ø·Ø§Ø¹": 6552,
      "à¸±à¸ĩà¸ģ": 6553,
      "Ø¨ÙĦØº": 6554,
      "à¸ģà¸£à¸ĵ": 6555,
      "è¶Ĭ": 6556,
      "ting": 6557,
      "ÙģØ¸": 6558,
      "ences": 6559,
      "lia": 6560,
      "ative": 6561,
      "à¥Ģà¤¡": 6562,
      "omo": 6563,
      "ÙĪÙĦÙĪØ¬": 6564,
      "à¹īà¸Ńà¸ĩà¸ģ": 6565,
      "Ø§ÙĩØ±": 6566,
      "Ġresp": 6567,
      "Ð½Ð¾ÑģÑĤÑĮÑİ": 6568,
      "Ø®ØªÙĦÙģØ©": 6569,
      "mar": 6570,
      "ular": 6571,
      "yn": 6572,
      "Ø§ÙĦØ£": 6573,
      "ĠØ¨Øº": 6574,
      "ĠØ£Ø«": 6575,
      "ĠÙĬØ±": 6576,
      "Ø·ÙĦÙĤ": 6577,
      "à±įà°¨à°ª": 6578,
      "taf": 6579,
      "ĠØ§ÙĦØ¨ØŃ": 6580,
      "istr": 6581,
      "angi": 6582,
      "à¸«à¸¥à¸§à¸ĩ": 6583,
      "Ð¾Ð¿Ð°": 6584,
      "Ġkutokana": 6585,
      "Ġkwanza": 6586,
      "èĬ±": 6587,
      "Ġpublic": 6588,
      "çĩ": 6589,
      "Ġdro": 6590,
      "edha": 6591,
      "ĠSp": 6592,
      "ãĢĤä»ĸ": 6593,
      "ĠØ®Ø§ØµØ©": 6594,
      "ĠFrance": 6595,
      "inci": 6596,
      "Ġngu": 6597,
      "Ġhim": 6598,
      "Ð±Ð¾ÑĢ": 6599,
      "åıĤ": 6600,
      "Ð»Ð¸ÑĩÐ¸": 6601,
      "ĠØŃÙĬÙĨ": 6602,
      "ĠØ£ÙĨÙĩØ§": 6603,
      "ÙĳØ©": 6604,
      "ĠØ¨Ø§ÙĦØª": 6605,
      "ĠØ§ÙĦÙĨØ¨ÙĬ": 6606,
      "è®¤": 6607,
      "ÙĴÙħ": 6608,
      "ĠÐ¾ÑĤÐ½Ð¾": 6609,
      "æŃ¥": 6610,
      "Ġà°ıà°¦": 6611,
      "ĠØ£Ø¨ÙĪ": 6612,
      "UN": 6613,
      "ian": 6614,
      "jet": 6615,
      "Ġaka": 6616,
      "Ġmus": 6617,
      "hed": 6618,
      "à±Ĩà°®": 6619,
      "ĠÑģÐ¿Ðµ": 6620,
      "ĠÑģÐºÐ°Ð·Ð°": 6621,
      "ĠÙĬÙĥÙĨ": 6622,
      "ĠÙĥØªØ¨": 6623,
      "à¸ŀà¸§à¸ģ": 6624,
      "Ø±ÙĬØŃ": 6625,
      "ĠÐ½ÐµÐ¾Ð±ÑħÐ¾Ð´": 6626,
      "Ġsee": 6627,
      "ĠÑĤÑĥ": 6628,
      "à¸´à¸Ķà¸Ĥ": 6629,
      "å¼ķ": 6630,
      "à±įà°°à°¯à°¤": 6631,
      "ĠÙĪØ§ØŃØ¯": 6632,
      "ĠÙĪØ¢": 6633,
      "ÙĥØªØ¨": 6634,
      "Ġhaya": 6635,
      "Ð²Ð¾Ð»": 6636,
      "à¥įà¤Ĺ": 6637,
      "amba": 6638,
      "Ġà°¨à°Ĺà°°": 6639,
      "ekana": 6640,
      "Ġsahip": 6641,
      "Ġdisp": 6642,
      "Ð¿ÐµÑĢÐ°": 6643,
      "å£«": 6644,
      "********": 6645,
      "fore": 6646,
      "iment": 6647,
      "Ð¾Ð´Ñĭ": 6648,
      "ĠØ§ÙĦØ¹Ùħ": 6649,
      "Ġsehemu": 6650,
      "ĠÐ¿ÑĢÐ¾ÑģÑĤÐ¾": 6651,
      "Ġgroup": 6652,
      "Ġalisema": 6653,
      "ÙĩØ¨": 6654,
      "eshi": 6655,
      "ĠÐ´ÐµÐ½ÑĮ": 6656,
      "ĠØ§ÙĦØ¹Ø§ÙħØ©": 6657,
      "Ø¸ÙĬÙģ": 6658,
      "à¸¡à¸²à¸Ī": 6659,
      "ä¾ĭ": 6660,
      "Ġwhere": 6661,
      "Ġambapo": 6662,
      "47": 6663,
      "à¤Ŀ": 6664,
      "ĠÙĦÙĨØ§": 6665,
      "à¹ģà¸Ł": 6666,
      "icle": 6667,
      "à¸ģà¸²à¸£à¸ĵ": 6668,
      "ĠÐ¿Ð¾ÑĤ": 6669,
      "Ġarr": 6670,
      "ĠÐ»ÑĥÑĩ": 6671,
      "Ġlist": 6672,
      "cause": 6673,
      "ä¿ĿæĬ¤": 6674,
      "éĿŀå¸¸": 6675,
      "luk": 6676,
      "éĨ": 6677,
      "ĠÙģØ¹": 6678,
      "à¸ªà¸²à¸§": 6679,
      "alk": 6680,
      "Ġwame": 6681,
      "ĠAmer": 6682,
      "ÙİÙĥ": 6683,
      "ĠÐ³Ð´Ðµ": 6684,
      "Ġpres": 6685,
      "à±įà°¦à°°": 6686,
      "ĠdÃ©p": 6687,
      "ugha": 6688,
      "èħ³": 6689,
      "æ¼Ķ": 6690,
      "Ġoyun": 6691,
      "hat": 6692,
      "Ġbon": 6693,
      "à¥ĭà¤ª": 6694,
      "akati": 6695,
      "ĠÙĪØ§ÙĦØ´": 6696,
      "Ġila": 6697,
      "Ġà°Ĩà°¡": 6698,
      "Ð»ÑĮÑĤÐ°": 6699,
      "ĠiÃ§er": 6700,
      "ĠrÃ©p": 6701,
      "çĻ½": 6702,
      "Ġtrava": 6703,
      "Ġsystem": 6704,
      "Ã³": 6705,
      "Ð¤": 6706,
      "à°ĸ": 6707,
      "Ġkik": 6708,
      "à¸ĩà¹Ģà¸Ľ": 6709,
      "à¸±à¸Ĺ": 6710,
      "ĠMu": 6711,
      "ĠØ§ÙĦØ¹ÙĤ": 6712,
      "ÐºÐ°Ð¼Ð¸": 6713,
      "ĠÃ©t": 6714,
      "ç«ł": 6715,
      "à¸¶à¸ģà¸©à¸²": 6716,
      "ĠÐ¾ÑĢÐ³Ð°Ð½Ð¸": 6717,
      ".m": 6718,
      "rar": 6719,
      "tÃ¼r": 6720,
      "ĠÙħØ¬ÙĦØ³": 6721,
      "Ø§ÙĨØ§": 6722,
      "Ġdedi": 6723,
      "à¸Ńà¸ĩà¸Ĺ": 6724,
      "ÙĪÙĨØ³": 6725,
      "æĪ·": 6726,
      "ĠÐ½ÐµÑģÐº": 6727,
      "ĠØ¬Ø§Ø¡": 6728,
      "ĠarasÄ±nda": 6729,
      "ĠÐºÐ°ÑĩÐµ": 6730,
      "Ø¤Ø§ÙĦ": 6731,
      "Ø¨Ø¯Ø£": 6732,
      "çº§": 6733,
      "ron": 6734,
      "à¸Ļà¹Ĩ": 6735,
      "à¸ĩà¹ģà¸ķ": 6736,
      "lad": 6737,
      "ĠÐ¸ÑģÑĤÐ¾": 6738,
      "à¸²à¸£à¸ĵ": 6739,
      "ĠÐºÐ°ÑĢ": 6740,
      "fauti": 6741,
      "Ġyangu": 6742,
      "è¶ħ": 6743,
      "èĭ±": 6744,
      "oi": 6745,
      "à°¾à°«": 6746,
      "Ġyeye": 6747,
      "iles": 6748,
      "Ð¿Ð¾": 6749,
      "ĠØŃØ±": 6750,
      "å¤´": 6751,
      "ÑīÐµÐ¹": 6752,
      "ĠÐ³Ð¾Ð²Ð¾ÑĢÐ¸": 6753,
      "ĠGen": 6754,
      "èĢĥ": 6755,
      "ĠØ¶Ø¯": 6756,
      "ĠØ§ÙĦØ¢ÙĨ": 6757,
      "æ®µ": 6758,
      "46": 6759,
      "85": 6760,
      "ET": 6761,
      "çĨ": 6762,
      "ÐµÐ»": 6763,
      "Ø¹Ø§Ùħ": 6764,
      "lish": 6765,
      "usiness": 6766,
      "à¹ĩà¸Ħ": 6767,
      "ĠÃ§ev": 6768,
      "Ã©rie": 6769,
      "leÅŁtir": 6770,
      "Ġbado": 6771,
      "EM": 6772,
      "bul": 6773,
      "Ġà¸Ĺà¸³à¹ĥà¸«": 6774,
      "ĠÙĥØ«": 6775,
      "ĠÐ´ÐµÑĤ": 6776,
      "Ġrap": 6777,
      "à¥Ĥà¤¨": 6778,
      "ifi": 6779,
      "ĠGr": 6780,
      "ÐºÐ¸Ð¼": 6781,
      "Ġkij": 6782,
      "frika": 6783,
      "ÙĪÙĬÙĨ": 6784,
      "à¸²à¸ĺ": 6785,
      "ĠÙĪØ·": 6786,
      "à¸µà¸¥": 6787,
      "ĠÙĦÙħØ§": 6788,
      "ãĢĤè¿Ļ": 6789,
      "ÑĢÐ¾Ð½": 6790,
      "Ġà¤Ĩà¤¨": 6791,
      "ÑĢÑĥÐ´": 6792,
      "ouse": 6793,
      "Ġnyingi": 6794,
      "è¼ķ": 6795,
      "Ġwengi": 6796,
      "Ġencore": 6797,
      "éĵ": 6798,
      "ÙĨØ¹": 6799,
      "ÑģÐ¾Ð²": 6800,
      "Ġdid": 6801,
      "à¤°à¤£": 6802,
      "itim": 6803,
      "ï¼Įå¹¶": 6804,
      "ÙİÙĤ": 6805,
      "ÙĪÙĦÙĩ": 6806,
      "ceÄŁ": 6807,
      "ĠEt": 6808,
      "à¸«à¸Ļà¸Ķ": 6809,
      "å¼º": 6810,
      "à¹Īà¸Ńà¹Ħà¸Ľ": 6811,
      "ÑĢÐ¾Ð²Ð°Ð½": 6812,
      "Ġhivi": 6813,
      "Ġkabisa": 6814,
      "ĠGoogle": 6815,
      "à¹Īà¸ģ": 6816,
      "ĠdÃ¼n": 6817,
      "ĠAM": 6818,
      "ĠWeb": 6819,
      "Ġprocess": 6820,
      "åŃĹ": 6821,
      "ĠØµÙģ": 6822,
      "Ġhast": 6823,
      "ĠÐ²Ð°Ñģ": 6824,
      "à¸±à¸ĩà¸Ħà¸¡": 6825,
      ",âĢĿ": 6826,
      "of": 6827,
      "erg": 6828,
      "ĠÑģÐº": 6829,
      "eld": 6830,
      "lerinde": 6831,
      "åĪ¥": 6832,
      "à¸µà¸¢à¸§à¸ģ": 6833,
      "å¾Ģ": 6834,
      "ĠØ§ÙĦØ¨ÙĬ": 6835,
      "éĽĨ": 6836,
      "æ¬¾": 6837,
      "Ġhakk": 6838,
      "Ġgrand": 6839,
      "ĠØ§ÙĦÙħØ¹ÙĦÙĪÙħØ§Øª": 6840,
      "ves": 6841,
      "ĠØ¨Ø³Ø¨Ø¨": 6842,
      "Ġlig": 6843,
      "Ġcould": 6844,
      "ĠÐ»ÑİÐ´": 6845,
      "ĠÐ¾Ð¿ÑĢÐµÐ´Ðµ": 6846,
      "é¦ĸ": 6847,
      "aha": 6848,
      "han": 6849,
      "Ġà¸Ħà¸Ļ": 6850,
      "orum": 6851,
      "à¸ļà¸Ńà¸ģ": 6852,
      "Ġvie": 6853,
      "ĠÐ½ÐµÑĤ": 6854,
      "ĠÐ´Ð¾Ð±": 6855,
      "ÑĪÐµÐ½Ð¸Ñı": 6856,
      "Ġà¤¬à¤ļ": 6857,
      "Ġà¤ħà¤µ": 6858,
      "Ġà¤ħà¤ļ": 6859,
      "à¸µà¸¢à¸¡": 6860,
      "ĠØ§ÙĦØ³ÙĬØ¯": 6861,
      "åĬŀ": 6862,
      "é¡¹": 6863,
      "umbe": 6864,
      "à¥Īà¤Ĥà¥¤Ċ": 6865,
      "ĠÐĹÐ°": 6866,
      "ÙĬØ§Ø¯Ø©": 6867,
      "à°¿à°«": 6868,
      "Ġmab": 6869,
      "Ġà°¤à°¯": 6870,
      "å¤«": 6871,
      "Ø±ÙĬÙģ": 6872,
      "ØºÙĦ": 6873,
      "ĠÐ¾Ð±ÑĢÐ°": 6874,
      "å¯¼": 6875,
      "ataifa": 6876,
      "çľ¼": 6877,
      "ç«¥": 6878,
      "Ġà°¸à°®à°¸": 6879,
      "æĭ¬": 6880,
      "çİ¯å¢ĥ": 6881,
      "aux": 6882,
      "kÃ¼": 6883,
      "ert": 6884,
      "ĠdiÄŁer": 6885,
      "Ġsun": 6886,
      "ital": 6887,
      "ĠMuh": 6888,
      "à¹Ĥà¸¡": 6889,
      "Ø§Ø¦ÙħØ©": 6890,
      "Ġbirlikte": 6891,
      "Ø¹Ø¯ÙĦ": 6892,
      "è¯ģ": 6893,
      "ÑĩÐµÑģÐºÐ¾Ð¹": 6894,
      "æ°Ķ": 6895,
      "OM": 6896,
      "Ġmot": 6897,
      "atur": 6898,
      "akini": 6899,
      "ĠCan": 6900,
      "åįķ": 6901,
      "ÙĪØ¶Ø¹": 6902,
      "Ð½Ð¾Ð¼Ñĥ": 6903,
      "ĠÃ¼st": 6904,
      "oo": 6905,
      "Ġdont": 6906,
      "à¸±à¸ŀ": 6907,
      "Ġhizmet": 6908,
      "à¹ģà¸ŀ": 6909,
      "ĠAh": 6910,
      "ĠBen": 6911,
      "à¸±à¸ĩà¸ª": 6912,
      "ĠØ¨Ø§ÙĦÙĨØ³Ø¨Ø©": 6913,
      "ÙĲÙĦ": 6914,
      "Ä±zÄ±": 6915,
      "ĠÑģÐ¾Ð¾Ð±": 6916,
      "IT": 6917,
      "uy": 6918,
      "Ġdiye": 6919,
      "à¹Ģà¸Ńà¸ģ": 6920,
      "Ġsol": 6921,
      "ĠsÄ±k": 6922,
      "Ġmade": 6923,
      "lak": 6924,
      "imb": 6925,
      "Ġevery": 6926,
      "ĠUS": 6927,
      "ĠaynÄ±": 6928,
      "ĠÐ²ÑģÐµÑħ": 6929,
      "Ġgelen": 6930,
      "à¸łà¸²à¸¢à¹ĥà¸Ļ": 6931,
      "iongozi": 6932,
      "ÙĥØ±ÙĬ": 6933,
      "Ġmeng": 6934,
      "à¸µĊ": 6935,
      "Ġcas": 6936,
      "à¹Ħà¸¥": 6937,
      "ĠØ§ÙĦØªÙĤ": 6938,
      "ĠØŃØ³Ø¨": 6939,
      "åħĭ": 6940,
      "ĠØ±Ø¨": 6941,
      "ĠØ¯ÙĬÙĨ": 6942,
      "Ġark": 6943,
      "Ġà¤Ĩà¤µ": 6944,
      "ission": 6945,
      "ĠÑįÑĤÐ¾Ð¹": 6946,
      "ç±»": 6947,
      "inu": 6948,
      "enne": 6949,
      "à¹Īà¸¥à¸°": 6950,
      "à¸£à¸§à¸¡": 6951,
      "ĠÙĪØ§ÙĦÙģ": 6952,
      "Ð¾Ð´Ð¸": 6953,
      "Ġthink": 6954,
      "ĠØ¬ÙĨ": 6955,
      "iden": 6956,
      "Ø§Ø¬Ø©": 6957,
      "ĠØ§ÙĦØ®Ø§ØµØ©": 6958,
      "Ġhuyo": 6959,
      "éĻĲ": 6960,
      "Ġresim": 6961,
      "ÑĢÐ¾Ð²Ð°ÑĤÑĮ": 6962,
      "à¸Ļà¸§à¸Ļ": 6963,
      "èĤīæ£Ĵ": 6964,
      "br": 6965,
      "à¸Ļà¸Ńà¸ģ": 6966,
      "à¤¾Ċ": 6967,
      "ĠÙħÙĦÙĬ": 6968,
      "ĠmÃ©": 6969,
      "Ð²Ð¾Ð¹": 6970,
      "ï¼Įæĺ¯": 6971,
      "reen": 6972,
      "ĠÙĨÙģ": 6973,
      "Ø§Ø¹ÙĬØ©": 6974,
      "gue": 6975,
      "Ð¾Ð¿Ð¾Ð»": 6976,
      "fano": 6977,
      "ĠÑģÑĤÐ°ÑĤÑĮ": 6978,
      "è±¡": 6979,
      "IR": 6980,
      "Ġkweli": 6981,
      "esema": 6982,
      "à¸ĩà¸¡": 6983,
      "Ġport": 6984,
      "itia": 6985,
      "ekani": 6986,
      "Ġrah": 6987,
      "ä¸ĢåĢĭ": 6988,
      "Ã¼nde": 6989,
      "à¸Īà¸°à¸ķ": 6990,
      "çīĪ": 6991,
      "ĠyapÄ±lan": 6992,
      "ĠÙĪØ¹ÙĦÙī": 6993,
      "åĮħæĭ¬": 6994,
      "EL": 6995,
      "à¹Ķ": 6996,
      "Ġkey": 6997,
      "ĠÙħØ®": 6998,
      "à¸±à¸¥": 6999,
      "ĠÙĦÙĥÙĦ": 7000,
      "alth": 7001,
      "Ġwap": 7002,
      "Ġwale": 7003,
      "enti": 7004,
      "à¸¸à¸£": 7005,
      "à¹ĩà¸§": 7006,
      "Ġpermet": 7007,
      "Ġknow": 7008,
      ")ØĮ": 7009,
      "èĹ": 7010,
      "lie": 7011,
      "Ġwala": 7012,
      "à¸ŀà¸Ń": 7013,
      "ĠÐ¼Ñĥ": 7014,
      "ÙĨØ§ÙĤ": 7015,
      "à¸¡à¸²à¸ķ": 7016,
      "æ¸¸": 7017,
      "ĠÙĥØ¨ÙĬØ±": 7018,
      "Ġdirect": 7019,
      "ual": 7020,
      "ĠØ§ÙĦÙħÙĦÙĥ": 7021,
      "illa": 7022,
      "ĠBar": 7023,
      "Ð¾Ð¶Ð¸": 7024,
      "à¸Īà¸°à¹Ģà¸Ľ": 7025,
      "à¸łà¸²à¸Ħ": 7026,
      "ĠØ§ÙĦØ«Ø§ÙĨÙĬ": 7027,
      "ĠØ¹ÙħÙĦÙĬØ©": 7028,
      "mp": 7029,
      "äºļ": 7030,
      "à¹Īà¸²à¸¡": 7031,
      "Ø§ØŃÙĬØ©": 7032,
      "ÑĩÐ°ÑĤÑĮ": 7033,
      "ĠØ§ÙĦÙĪØ·": 7034,
      "IM": 7035,
      "Ġmf": 7036,
      "ĠÙĬØ£": 7037,
      "à°¤à°®": 7038,
      "Ġlugha": 7039,
      "âĢĻh": 7040,
      "Ð½Ð¸ÐºÐ¸": 7041,
      "ĠulaÅŁ": 7042,
      "olu": 7043,
      "à¹Īà¸²à¸ĩà¹Ħà¸£": 7044,
      "ä¼ģ": 7045,
      "à¸´à¸Ļà¸Ħ": 7046,
      "tar": 7047,
      "ÙĬÙĪÙĨ": 7048,
      "anzo": 7049,
      "Ġsek": 7050,
      "ĠÙħÙģ": 7051,
      "Ġaff": 7052,
      "ĠoÃ¹": 7053,
      "ĠØ§ÙĦØŃÙĥÙħ": 7054,
      "Ġeven": 7055,
      "åĸľ": 7056,
      ".s": 7057,
      "58": 7058,
      "çª": 7059,
      "ÙĩØ¬": 7060,
      "à¸Ļà¸Ń": 7061,
      "ĠØ¹Ø¨Ø±": 7062,
      "à¤¿à¤Ĺ": 7063,
      "à¹ģà¸Ħ": 7064,
      "Ã§e": 7065,
      "à¸¸à¸©": 7066,
      "ĠÙĪØ§ÙĦÙĤ": 7067,
      "Ġindi": 7068,
      "ÙİÙĪ": 7069,
      "à¸µà¹īĊ": 7070,
      "Ø±ÙĪØ¹": 7071,
      "ĠÐ´ÑĢÑĥÐ³": 7072,
      "Ã¼tÃ¼n": 7073,
      "ĠdÃ¼zen": 7074,
      "'ai": 7075,
      "uch": 7076,
      "wen": 7077,
      "ãģ": 7078,
      "Ä±cÄ±": 7079,
      "Ġbek": 7080,
      "Ġnow": 7081,
      "Ġnouv": 7082,
      "ĠÙģÙĤØ§ÙĦ": 7083,
      "ØŃØ§Ø¯": 7084,
      "à¹ģà¸ģà¸£à¸¡": 7085,
      "ĠMo": 7086,
      "Ð²Ð°Ñı": 7087,
      "Ġzor": 7088,
      "Ġpeu": 7089,
      "ç¡®": 7090,
      "ĠvardÄ±r": 7091,
      "-d": 7092,
      "Ġà¤ł": 7093,
      "ĠÙĦØ°ÙĦÙĥ": 7094,
      "ĠØ¹ÙħØ±": 7095,
      "eta": 7096,
      "äº«": 7097,
      "Ġà¤ªà¤¡": 7098,
      "ÑĢÐ¸Ñı": 7099,
      "à¸±à¸ļà¸Ĺ": 7100,
      "à¸±à¸ļà¸ª": 7101,
      "à¸±à¸Ļà¸Ķ": 7102,
      "Ġà°ĩà°¸": 7103,
      "ĠÑįÐº": 7104,
      "Ġkutoa": 7105,
      "æłĩ": 7106,
      "ĠÐ¸Ð½ÑĤÐµ": 7107,
      "Ġcommun": 7108,
      "ĠÑħÐ¾ÑĢÐ¾": 7109,
      "è¸ı": 7110,
      "kan": 7111,
      "limu": 7112,
      "Ġmilli": 7113,
      "Ġbile": 7114,
      "à¸µà¸Ħ": 7115,
      "Ġpa": 7116,
      "Ġà°Ĩà°¶": 7117,
      "ĠÙĨØ´": 7118,
      "ulan": 7119,
      "à±įà°ªà°¤": 7120,
      "Ø§Ø¦Ùģ": 7121,
      "ÙĲÙĩ": 7122,
      "Ġà°İà°ª": 7123,
      "ĠØ´ÙĩØ±": 7124,
      "opo": 7125,
      "ÙĴÙĨ": 7126,
      "à¹īà¸²à¹Ħà¸Ľ": 7127,
      "ĠbiÃ§": 7128,
      "ĠÐ¿Ð¾ÑģÐ»ÐµÐ´": 7129,
      "name": 7130,
      "ÙĦØ§Ø©": 7131,
      "Ø§ÙĦØ¹": 7132,
      "ĠmÃ¼": 7133,
      "à¸µà¸Ĥ": 7134,
      "ï¼Įæľī": 7135,
      "ikip": 7136,
      "à±įà°¤à°µ": 7137,
      "Ġquali": 7138,
      "husi": 7139,
      "Ġyears": 7140,
      ".à¸¨": 7141,
      "ID": 7142,
      "vr": 7143,
      "Ġdonn": 7144,
      "Ġset": 7145,
      "à¸«à¸²à¸¢": 7146,
      "à¹Įà¸Ļ": 7147,
      "ÑĨÑĥ": 7148,
      "å¸¦": 7149,
      "à±įà°£à°¯": 7150,
      "èĬĤ": 7151,
      "ä¿¡æģ¯": 7152,
      "Ġwengine": 7153,
      "kat": 7154,
      "Ġà¸Ħà¸£": 7155,
      "Ä±y": 7156,
      "à¹īà¸ķ": 7157,
      "à¥Ģà¤¬": 7158,
      "à¸´à¹Ģà¸§": 7159,
      "ĠØ§ÙĦÙħØº": 7160,
      "Ġway": 7161,
      "Ø°Ø±": 7162,
      "ĠÙĪØ§ÙĦØ¯": 7163,
      "larla": 7164,
      "ĠÙĩØ¤ÙĦØ§Ø¡": 7165,
      "ĠÃ§eÅŁ": 7166,
      "ĠØ§ÙĦÙĨÙģ": 7167,
      "Ġbeing": 7168,
      "à¹Īà¸²à¹Ģà¸Ľ": 7169,
      "æİ§": 7170,
      "ĠÐ¾ÑģÐ½Ð¾Ð²": 7171,
      "ĠTrip": 7172,
      "ongeza": 7173,
      "Ġsimp": 7174,
      "tra": 7175,
      "ÙĪÙĬÙĦ": 7176,
      "anc": 7177,
      "Ġsit": 7178,
      "à°¾à°°à°®": 7179,
      "Ø·ÙģØ§ÙĦ": 7180,
      "Ġub": 7181,
      "Ġà¤ħà¤¸": 7182,
      "enga": 7183,
      "ĠÐļÐ°": 7184,
      "à¥ĩà¤ķà¤°": 7185,
      "ç¾İåĽ½": 7186,
      "AC": 7187,
      "ect": 7188,
      "ĠÙħÙĪÙĤØ¹": 7189,
      "à¸ĩà¸ģ": 7190,
      "Ø³Ø³": 7191,
      "Ġhow": 7192,
      "ĠØ£ÙĩÙĦ": 7193,
      "çļĦæĺ¯": 7194,
      "çļĦå¤§": 7195,
      "Ġlast": 7196,
      "ĠTanzania": 7197,
      "Ġà°ĩà°¨": 7198,
      "ĠoluÅŁ": 7199,
      "ÑĦÐµ": 7200,
      "Ġà°¶à°ķ": 7201,
      "èĩ´": 7202,
      "è·Ł": 7203,
      "Ġdevam": 7204,
      "è³ĩ": 7205,
      "ĠdoÄŁru": 7206,
      ".org": 7207,
      "Ġka": 7208,
      "à¤¾à¤Ł": 7209,
      "ÑıÐ²": 7210,
      "iter": 7211,
      "itÃ©s": 7212,
      "ÙĪÙĦÙĬ": 7213,
      "ÑĤÐµÐ»Ð¸": 7214,
      "Ġleurs": 7215,
      "æĹ¶éĹ´": 7216,
      "hariri": 7217,
      "çłĶç©¶": 7218,
      "ç¹": 7219,
      "ÙĬØŃ": 7220,
      "ances": 7221,
      "ĠØ¹ÙĤ": 7222,
      "ÑģÑĤÑĭ": 7223,
      "à±Ģà°Ĥ": 7224,
      "à±įà°°à°²": 7225,
      "Ġmah": 7226,
      "å¾·": 7227,
      "lÄ±ÄŁ": 7228,
      "ØªÙĬØ¬Ø©": 7229,
      "à±Įà°Ĥ": 7230,
      "ĠhazÄ±r": 7231,
      "åĺ": 7232,
      "ÙĨÙģ": 7233,
      "Ġmark": 7234,
      "ÑıÐ¼": 7235,
      "ĠÙģØ§ÙĨ": 7236,
      "elop": 7237,
      "ÙİØ©": 7238,
      "Ø²ÙĬØ²": 7239,
      "ĠTe": 7240,
      "ÙĦÙħØ§": 7241,
      "Ġeach": 7242,
      "ĠEr": 7243,
      "åį»": 7244,
      "cial": 7245,
      "ĠÐĺÐ½": 7246,
      "à¸±à¸¡à¸ŀ": 7247,
      "Ġderni": 7248,
      "Ġagain": 7249,
      "ĠÑĩÐµÑĢÐµÐ·": 7250,
      "91": 7251,
      "bre": 7252,
      "jibu": 7253,
      "èĨ": 7254,
      "Ġà¸ľà¸¡": 7255,
      "ÙĥØ§ÙĦ": 7256,
      "à¹īà¸Ħ": 7257,
      "à±Ģà°Ĺ": 7258,
      "ĠÙĬØ®": 7259,
      "Ġwant": 7260,
      "Ġà¤īà¤¦": 7261,
      "Ġeder": 7262,
      "à±Ģà°ķà°°": 7263,
      "ÙĨØ¯ÙĤ": 7264,
      "ĠÐ½Ð¸Ñħ": 7265,
      "visor": 7266,
      "ĠyÃ¼ksek": 7267,
      "94": 7268,
      "Ġâ": 7269,
      "Ð½ÐµÑĤ": 7270,
      "Ġhus": 7271,
      "Ø¬Ø§ÙĦ": 7272,
      "Ġgreat": 7273,
      "Ø´Ø§Ø±": 7274,
      "Ð½Ð¸Ñİ": 7275,
      "ÙĦÙħØ§ÙĨ": 7276,
      "å¾®": 7277,
      "Ġà¸ªà¸³": 7278,
      "éħį": 7279,
      "earch": 7280,
      "ĠÃ¼zerinde": 7281,
      "ĠÑģÐ¿Ð¾ÑģÐ¾Ð±": 7282,
      ",\"": 7283,
      "US": 7284,
      "eu": 7285,
      "ox": 7286,
      "ĠgÃ©n": 7287,
      "ØµØ¨": 7288,
      "à¥Īà¤ķ": 7289,
      "åºľ": 7290,
      "ĠÐ¿ÑĢÐ¾ÑĤÐ¸Ð²": 7291,
      "åģĩ": 7292,
      "ungum": 7293,
      "ĠÐ¿Ð¾Ð¼Ð¾": 7294,
      "à¸Ĥà¸Ļà¸²à¸Ķ": 7295,
      "åĹ": 7296,
      "Ð¸ÑĤÐ°": 7297,
      "eniz": 7298,
      "ĠÙĪÙĦÙĬØ³": 7299,
      "à¤¿à¤ļ": 7300,
      "à¥ĭà¤§": 7301,
      "Ø§ØªØ¨": 7302,
      "à¹ĩà¸ĩ": 7303,
      "à¸²à¸ģà¸£": 7304,
      "à¸¨à¸£": 7305,
      "åº·": 7306,
      "à¤Łà¤¨": 7307,
      "åĽ½å®¶": 7308,
      "çĻ¾": 7309,
      "Ġteam": 7310,
      "ĠsÃ¶yle": 7311,
      "----------------": 7312,
      "cent": 7313,
      "vy": 7314,
      "Ð´Ð¾Ð¼": 7315,
      "ÑĩÐµÑĤ": 7316,
      "Ø¶ÙĦ": 7317,
      "ĠÙĨÙĪØ¹": 7318,
      "Ã¼ne": 7319,
      "à¹Ģà¸Ĺà¸ŀ": 7320,
      "ØªØ¨Ø§Ø±": 7321,
      "ÑīÐµÐ³Ð¾": 7322,
      "æĮī": 7323,
      "ĠolduÄŁunu": 7324,
      "é¦Ļ": 7325,
      "-M": 7326,
      "Ð¥": 7327,
      "ÙĨØ§Ø¯": 7328,
      "ited": 7329,
      "ĠØ£ÙĦÙģ": 7330,
      "Ġgit": 7331,
      "Ø°Ø¨": 7332,
      "à¤¤à¤¨": 7333,
      "à¸Ĥà¸§": 7334,
      "ÙİØª": 7335,
      "ĠCe": 7336,
      "ĠÙĤØ§Ùħ": 7337,
      "ĠØ³ÙĪØ§Ø¡": 7338,
      "à¹īà¸²à¸Ĥ": 7339,
      "à°¾à°Łà°²": 7340,
      "Ð½ÐµÑģ": 7341,
      "Ø¹ÙĦÙĤ": 7342,
      "Ġyetu": 7343,
      "Ġmpaka": 7344,
      "æ½®": 7345,
      "Ġtemps": 7346,
      "arge": 7347,
      "Ð»Ð¾Ð²Ð°": 7348,
      "Ġhigh": 7349,
      "à¸¥à¸Ńà¸ĩ": 7350,
      "Ġcro": 7351,
      "à¤Ĥà¤Ń": 7352,
      "à°Ĥà°ĺ": 7353,
      "ĠØªØ±Ùĥ": 7354,
      "edav": 7355,
      "Ð¿ÑĢÐ¾": 7356,
      "ĠÙĩÙħ": 7357,
      "ÙĪÙħÙĨ": 7358,
      "tage": 7359,
      "Ø§ÙģØ¸Ø©": 7360,
      "Ġnotre": 7361,
      "çº¦": 7362,
      "è¶³": 7363,
      "ĠÐ¿ÑĢÐ¾Ð¸Ð·Ð²Ð¾Ð´": 7364,
      "é¥": 7365,
      "Ġ=": 7366,
      "ĠÑĢÐ¾Ð´": 7367,
      "eral": 7368,
      "enir": 7369,
      "Ð²Ñı": 7370,
      "Ġcal": 7371,
      "ĠØ§ÙĦÙħØ®": 7372,
      "ĠØªØ¨": 7373,
      "ĠØ§ÙĦØ£ØŃ": 7374,
      "Ø§Ø¦Ø¹": 7375,
      "ä¸Ģæ¬¡": 7376,
      "ĠØ¯Ø§Ø®ÙĦ": 7377,
      "åįĢ": 7378,
      "ÙĬÙħØ§ÙĨ": 7379,
      "à¸Ľà¸£à¸°à¸Īà¸³": 7380,
      "Ġchini": 7381,
      "ilecek": 7382,
      "ĠØ§ÙĦØ·Ø¨": 7383,
      "ĠÐłÐ¾ÑģÑģÐ¸": 7384,
      "ĠyardÄ±m": 7385,
      "83": 7386,
      "work": 7387,
      "inal": 7388,
      "à¸Ļà¸¡": 7389,
      "Ġdown": 7390,
      "Ġng": 7391,
      "Ġnje": 7392,
      "Ġhere": 7393,
      "Ġcli": 7394,
      "ĠÙĦØ¨": 7395,
      "à¥ĭà¤¹": 7396,
      "ĠÑģÐ¼": 7397,
      "ike": 7398,
      "Ð¿ÑĢÐ°Ð²Ð¸": 7399,
      "à¥Īà¤²": 7400,
      "Ġinformation": 7401,
      "ĠÐ¼ÐµÑĤ": 7402,
      "ÑĪÐµÐ½": 7403,
      "lerle": 7404,
      "ÙĨØ§ÙĪÙĦ": 7405,
      "å¤§å®¶": 7406,
      "æķĪ": 7407,
      "à¥įà¤µà¤°": 7408,
      "æĸ¹éĿ¢": 7409,
      "Ġà¤ĺà¤°": 7410,
      "æ·±": 7411,
      "Ġndio": 7412,
      "ĠØ§ÙĦØ´ÙĬØ®": 7413,
      "iny": 7414,
      "Ġste": 7415,
      "Ġhom": 7416,
      "Ġhaki": 7417,
      "Ġca": 7418,
      "Ø«ÙĤ": 7419,
      "à¹ĩà¸Ļà¸ľ": 7420,
      "wez": 7421,
      "ĠØ§ÙĦÙģØª": 7422,
      "à°¾à°ľà°ķ": 7423,
      "ÑīÐµÐµ": 7424,
      "ĠØŁĊ": 7425,
      "ĠØ§ÙĦØŃÙĥÙĪÙħØ©": 7426,
      "-s": 7427,
      "bu": 7428,
      "imes": 7429,
      "à¸²à¸£à¸¡": 7430,
      "à±Ĥà°ľ": 7431,
      "Ð¾Ð»Ð¾": 7432,
      "ÙĪÙĨÙĬØ©": 7433,
      "ĠÙĨØ²": 7434,
      "iyat": 7435,
      "Ø§ÙģÙĤ": 7436,
      "à¸Ľà¸£à¸°à¸¡à¸²à¸ĵ": 7437,
      "Ġiliy": 7438,
      "ilmesi": 7439,
      "ĠkonuÅŁ": 7440,
      "liwa": 7441,
      "islamu": 7442,
      "ĠMan": 7443,
      "Ø§Ø±Ø¨": 7444,
      "ĠAf": 7445,
      "à±Īà°¦": 7446,
      "à¸±à¸ļà¸£": 7447,
      "Ġà°ĩà°Ł": 7448,
      "éģ¸": 7449,
      "ateur": 7450,
      "ÙĪØ¬ÙĪØ¯": 7451,
      "Ø®Ø±Ø¬": 7452,
      "çķĻ": 7453,
      "é£İ": 7454,
      "Ð¾Ð½Ð°Ð»ÑĮ": 7455,
      "ĠdÃ¶nem": 7456,
      "Ġrenk": 7457,
      "à¸µà¸Ĭ": 7458,
      "ami": 7459,
      "ĠØªØ®": 7460,
      "ĠÙĪØ§ÙĦØµ": 7461,
      "ĠÙĥÙĬÙģ": 7462,
      "ables": 7463,
      "ĠÙĨØ¸Ø±": 7464,
      "osa": 7465,
      "Ġmaf": 7466,
      "à¸·à¸Ńà¸§": 7467,
      "à¸µà¸¢à¸ģ": 7468,
      "ibar": 7469,
      "ĠÐ¾Ð±Ð»Ð°": 7470,
      "à±Įà°°": 7471,
      "mbali": 7472,
      "à¥īà¤²": 7473,
      "Ġà¸£à¸§à¸¡": 7474,
      "à¹Ģà¸Ńà¸²": 7475,
      "Ġmany": 7476,
      "à¸±à¸ģà¸©à¸ĵà¸°": 7477,
      "weka": 7478,
      "xt": 7479,
      "ĠØ§Ø¯": 7480,
      "Ġsadece": 7481,
      "ÑģÑĤÐµÐ¹": 7482,
      "Ġfon": 7483,
      "ÙİØ¯": 7484,
      "Ø§Ø¹ÙĬ": 7485,
      "à¸±à¸ĩà¹Ħà¸¡": 7486,
      "è§Ĩ": 7487,
      "ĠÐ¿ÑĢÐ¾Ð´": 7488,
      "ĠdeÄŁer": 7489,
      "Advisor": 7490,
      "à¸Ļà¸²à¸¢": 7491,
      "à¸¡à¸ķ": 7492,
      "à¥Ģà¤ı": 7493,
      "Ġà°ķà°Ł": 7494,
      "ĠÐºÑĤÐ¾": 7495,
      "à±Īà°¦à°°": 7496,
      "ÙĬØ¯Ø§": 7497,
      "Ġbecause": 7498,
      "Ø§ØµÙĦ": 7499,
      ":||": 7500,
      "UM": 7501,
      "ÙĦØ§Ø¨": 7502,
      "ĠÐ¨": 7503,
      "eria": 7504,
      "Ġhapo": 7505,
      "ustr": 7506,
      "ĠØ§ÙĦØªØµ": 7507,
      "ĠCar": 7508,
      "åĲ§": 7509,
      "Ġime": 7510,
      "Ġshould": 7511,
      "ĠÐ¼Ð°ÑĤÐµÑĢÐ¸": 7512,
      "Ġsuch": 7513,
      "crip": 7514,
      "ambi": 7515,
      "mÄ±ÅŁtÄ±r": 7516,
      "ĠØ§ÙĦÙĤØ±Ø¢ÙĨ": 7517,
      "ĠSerikali": 7518,
      "(Fr": 7519,
      "lk": 7520,
      "Ø¯ÙħØ©": 7521,
      "Ø¹ÙĦØ§Ùħ": 7522,
      "ĠÙħÙĨÙĩÙħ": 7523,
      "ĠMak": 7524,
      "iliyor": 7525,
      "à¹Īà¸²à¸ķ": 7526,
      "ĠØ¨Ø§ÙĦØ£": 7527,
      "Ġconcer": 7528,
      "ĠÐ¿ÑĢÐ¾ÑĨÐµ": 7529,
      "ç®¡çĲĨ": 7530,
      "ĠØ§ÙĦÙħØ³ÙĦÙħÙĬÙĨ": 7531,
      "81": 7532,
      "88": 7533,
      "Ph": 7534,
      "ÙħØ¹": 7535,
      "esinde": 7536,
      "à±Ĩà°Ĺ": 7537,
      "Ø§Ø¦Ø¨": 7538,
      "ÑģÐºÐ¾Ðµ": 7539,
      "layan": 7540,
      "æĻ¯": 7541,
      "à¸ªà¸ĸà¸²à¸Ļ": 7542,
      "\"ØĮ": 7543,
      "67": 7544,
      "sun": 7545,
      "Ġà¹Ģà¸Ķ": 7546,
      "ÙĬÙĤ": 7547,
      "ÙĨØ§ÙĨ": 7548,
      "Ġsm": 7549,
      "asÄ±na": 7550,
      "à°®à°°": 7551,
      "à¸¸à¸ķ": 7552,
      "à¹Įà¸ª": 7553,
      "ĠØŃÙĥÙħ": 7554,
      "ĠCent": 7555,
      "Ġà¤Ĩà¤¤": 7556,
      "opp": 7557,
      "ĠÙĪØªØ¹": 7558,
      "tiÄŁ": 7559,
      "ä¿®": 7560,
      "ding": 7561,
      "view": 7562,
      "ÑĤÑĢÐ°": 7563,
      "Ð»Ð»Ð¸": 7564,
      "à¹īà¸¢": 7565,
      "ĠÙħÙĥØ§ÙĨ": 7566,
      "ÑģÑĤÑĢÑĥ": 7567,
      "Ġà°¸à°Ń": 7568,
      "ĠSan": 7569,
      "lerden": 7570,
      "ä½İ": 7571,
      "ÑīÐµÐ½": 7572,
      "à¤¼à¤¤": 7573,
      "ĠØ§ÙĦØ®Ø§Ø±Ø¬": 7574,
      "Ø§ÙĩØ±Ø©": 7575,
      "Ġused": 7576,
      "Ġmuhimu": 7577,
      "ĠMuham": 7578,
      "61": 7579,
      "yc": 7580,
      "ÙĨÙĬØ§": 7581,
      "Ġkendi": 7582,
      "Ġcoup": 7583,
      "ĠØ§ÙĦÙħÙĪØ¶ÙĪØ¹": 7584,
      "Ġweb": 7585,
      "Ø§Ø³Ø¨Ø©": 7586,
      "Ġmali": 7587,
      "ĠØ´Ø±": 7588,
      "ä¸įåĲĮ": 7589,
      "ĠÙĦÙĦØŃ": 7590,
      "ĠÐŀÐ½": 7591,
      "ĠÑģÐµÐ±Ñı": 7592,
      "åł´": 7593,
      "ç¯Ģ": 7594,
      "Ġhelp": 7595,
      "bn": 7596,
      "tim": 7597,
      "èĮ": 7598,
      "éŃ": 7599,
      "ĠÃ¼l": 7600,
      "à¸²à¸ŀ": 7601,
      "Ġtes": 7602,
      "Ġsou": 7603,
      "Ġyen": 7604,
      "à¸¸à¸į": 7605,
      "ĠBe": 7606,
      "ÐºÐ°Ñħ": 7607,
      "ĠYou": 7608,
      "ÙģÙĬØ°": 7609,
      "à±ĩà°¦à°¨": 7610,
      "åĩĨ": 7611,
      "Â».Ċ": 7612,
      "à¸£à¸²à¸Ħ": 7613,
      "à±ĩà°ķà°ª": 7614,
      "Ġsera": 7615,
      "Ġà¸ŀà¸£à¸°": 7616,
      "ĠØ±Ø³ÙĪÙĦ": 7617,
      "84": 7618,
      "87": 7619,
      "deki": 7620,
      "zing": 7621,
      "à°¿à°£": 7622,
      "à¸ĩà¸ģà¸²à¸£": 7623,
      "ÑıÐ²Ð¸": 7624,
      "Ġhand": 7625,
      "ito": 7626,
      "à¥ĭà¤ľ": 7627,
      "ÑĪÐµÐ½Ð¸Ðµ": 7628,
      "ĠÐ³Ð¾": 7629,
      "Ø¹Ø¯Ø§Ø¯": 7630,
      "Ð¾Ð½Ðµ": 7631,
      "ties": 7632,
      "æ´²": 7633,
      "ĠØ§ÙĦØ¢Ø®Ø±": 7634,
      "Ġmbalimbali": 7635,
      "Ġtarih": 7636,
      "72": 7637,
      "ĠçļĦ": 7638,
      "Ġ?Ċ": 7639,
      "Ä±ca": 7640,
      "à¸¥à¸²à¸¢": 7641,
      "ï¼Įåıª": 7642,
      "edi": 7643,
      "Ø§Ø±Ø¯": 7644,
      "ĠÐ´ÐµÐ¹ÑģÑĤÐ²Ð¸": 7645,
      "ĠÙĨØŃÙĪ": 7646,
      "Ġrepr": 7647,
      "ĠÑĢÐ°Ð·Ð²Ð¸": 7648,
      "è¨Ī": 7649,
      "uliwa": 7650,
      "ĠÐ¼ÐµÐ¶Ð´Ñĥ": 7651,
      "AY": 7652,
      "Ġà¹Ģà¸Ĥ": 7653,
      "Ä±t": 7654,
      "Ġmfano": 7655,
      "last": 7656,
      "à±Ģà°Ĩà°°": 7657,
      "ames": 7658,
      "ingia": 7659,
      "Ġuf": 7660,
      "ÙĦØ§ÙĤØ©": 7661,
      "à¤¯à¤°": 7662,
      "Ð²Ð¸Ð´": 7663,
      "Ġà¤Ńà¤°": 7664,
      "Ġbaadhi": 7665,
      "à¸±à¸Ķà¸ª": 7666,
      "ĠØ§ÙĦØ¯ÙĬÙĨÙĬØ©": 7667,
      "à¤ĩà¤¸": 7668,
      "à¸¸à¸Ħà¸Ħà¸¥": 7669,
      "lÃ¨": 7670,
      "à¸¡à¸Ńà¸ĩ": 7671,
      "leme": 7672,
      "Ġhaf": 7673,
      "ĠgÃ¼": 7674,
      "Ø§ÙħÙĦØ©": 7675,
      "à¸²à¸ģà¸²à¸¨": 7676,
      "à¹ĩà¸Ļà¸§": 7677,
      "acÄ±": 7678,
      "ä¸Ńå¿ĥ": 7679,
      "Ð¾ÑĤÐ²ÐµÑĤ": 7680,
      "à¸£à¸²à¸ļ": 7681,
      "icho": 7682,
      "Ġpost": 7683,
      "à¸¥à¸³": 7684,
      "ĠÙĦØ¯ÙĬ": 7685,
      "Ġdec": 7686,
      "à¥Ĥà¤®": 7687,
      "à°Ĥà°Łà°°": 7688,
      "åĽ¾": 7689,
      "ereza": 7690,
      "ĠÃ©g": 7691,
      "ĠÄ°ÅŁ": 7692,
      "ĠÃ¼rÃ¼n": 7693,
      "à¹Ĥà¸¢à¸Ĭà¸Ļ": 7694,
      "Ġfulani": 7695,
      "ĠÃ§ocuk": 7696,
      "''": 7697,
      "Ð¸Ð»Ð¸": 7698,
      "Ġyenye": 7699,
      "à¥Ģ.": 7700,
      "ä¸ĵ": 7701,
      "à¹ĥà¸ļ": 7702,
      "Ø·Ø¨ÙĬ": 7703,
      "å¤ĩ": 7704,
      "ĠÙĤØ¯Ø±": 7705,
      "ĠØ§ÙĦØ£Ø±Ø¶": 7706,
      "iyet": 7707,
      "ĠÑĥÐ´Ð°": 7708,
      "ĠÙĦÙĦÙĨ": 7709,
      "Ġamesema": 7710,
      "Ġbah": 7711,
      "Ġimport": 7712,
      "ÙĨØ³ÙĬØ©": 7713,
      "çĶŁæ´»": 7714,
      "Ð¼ÐµÐ½Ð½Ð¾": 7715,
      "åģ¥": 7716,
      "Ġkupata": 7717,
      "ÑİÑīÐ¸Ñħ": 7718,
      "ohn": 7719,
      "æºĲ": 7720,
      "ĠÙħØ¬ÙħÙĪØ¹Ø©": 7721,
      "å©": 7722,
      "ĠØ§ÙĦÙĪØ±": 7723,
      "ĠÙĪØ¹Ø¯": 7724,
      "ÑıÑĤÑĮ": 7725,
      "Ġhuku": 7726,
      "ÐµÐ½ÑĤÐ°": 7727,
      "à¸¸à¸¥": 7728,
      "à¸¸à¸£à¸ģ": 7729,
      "à±įà°¤à°®": 7730,
      "umla": 7731,
      "ĠAfrika": 7732,
      "à¹Įà¸ģ": 7733,
      "Ø§Ø³Ø¨": 7734,
      "à¸±à¸ļà¸ľ": 7735,
      "ĠÑĥÑĩÐ°": 7736,
      "à¥ĩà¤¬": 7737,
      "Ä±lmasÄ±": 7738,
      "ĠÐ¾Ð±Ðµ": 7739,
      "à¤¾à¤¹à¤¤": 7740,
      "ĠÐ²ÑģÐµÐ³Ð¾": 7741,
      "ĠÐ±ÐµÑģÐ¿": 7742,
      "ĠbÃ¶lÃ¼m": 7743,
      "à¸´à¸¥à¸Ľ": 7744,
      "abilirsiniz": 7745,
      "Ġkina": 7746,
      "Ġhizi": 7747,
      "Ġcre": 7748,
      "âĢĻda": 7749,
      "ÙİØ§ÙĦ": 7750,
      "åĪĩ": 7751,
      "ukio": 7752,
      "Ġcontr": 7753,
      "ĠÐ¾ÑĤÐºÑĢÑĭ": 7754,
      "çļĦæĻ": 7755,
      "ograp": 7756,
      "Ġmwingine": 7757,
      "é¢Ħ": 7758,
      "59": 7759,
      "69": 7760,
      "IK": 7761,
      "uve": 7762,
      "lex": 7763,
      "ÑĢÐµÑĤÑĮ": 7764,
      "ĠÐ±Ð°": 7765,
      "ÙĨØ§Ùĥ": 7766,
      "ĠEur": 7767,
      "ÙĴØ±": 7768,
      "æĻļ": 7769,
      "Ġcoun": 7770,
      "è¾¾": 7771,
      "ï¼ŁĊ": 7772,
      "Ġkwani": 7773,
      "ĠExp": 7774,
      "________": 7775,
      "hakiki": 7776,
      "ĠÐ¿ÑĢÐ¾Ð±Ð»ÐµÐ¼": 7777,
      "ĠbiÃ§im": 7778,
      "lum": 7779,
      "xx": 7780,
      "ĠÙħØµØ±": 7781,
      "Ġnombre": 7782,
      "à¸ļà¸Ħ": 7783,
      "read": 7784,
      "ĠAm": 7785,
      "ĠBut": 7786,
      "ĠÐ¼Ð¾Ð»": 7787,
      "åĪĽ": 7788,
      "à¹īà¸²à¸ª": 7789,
      "åĲ¦": 7790,
      "ĠÑĥÑģÑĤÐ°Ð½Ð¾Ð²": 7791,
      "éĢģ": 7792,
      "ÑĩÐµÑģÐºÐ¾Ð³Ð¾": 7793,
      "èĤ²": 7794,
      "Ġuygu": 7795,
      "ĠÙħØ³ØªÙĪÙī": 7796,
      "miÅŁtir": 7797,
      "Ġmiaka": 7798,
      "ĠÃ§eÅŁit": 7799,
      "ling": 7800,
      "ved": 7801,
      "ĠÑĢÐ¾": 7802,
      "ÙĨØ¨": 7803,
      "Ġmut": 7804,
      "à¥Ģà¤Ł": 7805,
      "ĠØ§ÙĦØªØ£": 7806,
      "Ø§Ø¨Øª": 7807,
      "Ø§Ø³Ø§Øª": 7808,
      "zaji": 7809,
      "ĠKan": 7810,
      "Ġà°Ĺà°¡": 7811,
      "esse": 7812,
      "ulia": 7813,
      "Ð¿Ð¸ÑģÐ°": 7814,
      "à¸Ńà¸Ĺ": 7815,
      "à¤¾à¤ļ": 7816,
      "à¥Ģà¤¦": 7817,
      "ĠØ¨ÙĥÙĦ": 7818,
      "edir": 7819,
      "ĠØ§ÙĦØ£Ø®Ø±Ùī": 7820,
      "çĶ¢": 7821,
      "à±ĭà°µà°ļ": 7822,
      "Ãªtre": 7823,
      "Ġsous": 7824,
      "à¸¥à¸Ķ": 7825,
      "à¥ĭà¤¶": 7826,
      "ï¼Įä½ł": 7827,
      "akt": 7828,
      "akat": 7829,
      "à°ļà°°": 7830,
      "ĠØ§ÙĦØ¹Ø¯ÙĬØ¯": 7831,
      "Ġlead": 7832,
      "ĠoluÅŁtur": 7833,
      "ĠØ§ÙĦØµÙģ": 7834,
      "ĠkadÄ±n": 7835,
      "Ġbulunan": 7836,
      "):": 7837,
      "89": 7838,
      "ÙĬØµ": 7839,
      "à¹īà¹ģà¸ģ": 7840,
      "à¤¾à¤¡": 7841,
      "ØŃØ§": 7842,
      "ĠØ£ÙģØ¶ÙĦ": 7843,
      "à¥ĭà¤®": 7844,
      "ĠBur": 7845,
      "à±Īà°¸": 7846,
      "Ø¦Ø§": 7847,
      "åŁŁ": 7848,
      "example": 7849,
      "Ġkonu": 7850,
      "à¸´à¸¢à¸¡": 7851,
      "Ġà¤¸à¤¬à¤¸": 7852,
      "arifa": 7853,
      "à¸ļà¸²à¸Ĺ": 7854,
      "Ġfut": 7855,
      "ĠBaÅŁ": 7856,
      "ĠTa": 7857,
      "ĠÐ±Ð»Ð°": 7858,
      "Ġà¤ľà¤°": 7859,
      "alia": 7860,
      "Ġexc": 7861,
      "ĠØ§ÙĦØ¹Ø±Ø§ÙĤÙĬ": 7862,
      "æ¶Ī": 7863,
      "é©¬": 7864,
      "63": 7865,
      "ED": 7866,
      "We": 7867,
      "ien": 7868,
      "ĠØ§Ùģ": 7869,
      "Ġdin": 7870,
      "Ġtele": 7871,
      "à¸ĩà¸ķ": 7872,
      "à¸±à¸ĵà¸ĳ": 7873,
      "à¥ĢĊ": 7874,
      "à¥ĭà¤¸": 7875,
      "akika": 7876,
      "âĢĻai": 7877,
      "Ð³Ð¾Ð²": 7878,
      "ä»·": 7879,
      "ĠØ§ÙĦØªØ§Ø±ÙĬØ®": 7880,
      "Ð¾Ð´ÐµÑĢ": 7881,
      "ĠØ§ÙĦØ¹Ø¨": 7882,
      "ÙĦÙĬØ§": 7883,
      "ivyo": 7884,
      "ÙĲÙĬÙĨ": 7885,
      "ÙĬÙħÙĥÙĨ": 7886,
      "à¤¿à¤ķà¤²": 7887,
      "æĢİ": 7888,
      "åĳ¨": 7889,
      "ÙĤØ±Ø§Ø·": 7890,
      "ĠÑĨÐ²ÐµÑĤ": 7891,
      "awaida": 7892,
      "Ã¼Ã§Ã¼k": 7893,
      "86": 7894,
      "As": 7895,
      "Re": 7896,
      "su": 7897,
      "ĠÑĤÐ¸": 7898,
      "Ġà¹Ģà¸Ļ": 7899,
      "à°¾..": 7900,
      "à¹īà¹ĥà¸Ļ": 7901,
      "Ø¹ÙĪÙĨ": 7902,
      "Ġbro": 7903,
      "Ġhut": 7904,
      "à¤¿à¤Ń": 7905,
      "Ġanlat": 7906,
      "ĠÙĪØ§ÙĦØ³": 7907,
      "Ġà¤ħà¤®": 7908,
      "Ġreally": 7909,
      "ĠÃ©tait": 7910,
      "ĠÑĢÐµÐ±": 7911,
      "à¹Ģà¸Ħà¸¥": 7912,
      "åģľ": 7913,
      "éłĺ": 7914,
      "æ¸¯": 7915,
      "ĠÙħØ¬Ø§ÙĦ": 7916,
      "iversity": 7917,
      "Ġservice": 7918,
      "ikipedia": 7919,
      "gin": 7920,
      "Ġà¸ī": 7921,
      "ÙĦÙĪØ¨": 7922,
      "à¹Īà¸£": 7923,
      "Ġkili": 7924,
      "wake": 7925,
      "iste": 7926,
      "à¸´à¸Ħ": 7927,
      "ĠØªØ§Ø±ÙĬØ®": 7928,
      "à±Ĥ.": 7929,
      "à¸Ĥà¸Ń": 7930,
      "âĢĻav": 7931,
      "Ø§Ø¨ÙĨ": 7932,
      "okt": 7933,
      "à¸±à¸Ļà¸ģ": 7934,
      "ĠDes": 7935,
      "à°¾à°¯à°²": 7936,
      "à¥įà¤Łà¤°": 7937,
      "alement": 7938,
      "ÑįÑĤÐ¾Ð¼Ñĥ": 7939,
      "ĠÐ¿Ð¾ÐºÐ°": 7940,
      "ç±³": 7941,
      "istoria": 7942,
      "gen": 7943,
      "é¼": 7944,
      "ÙģÙĤ": 7945,
      "Ġà¤ķà¤²": 7946,
      "Ġgani": 7947,
      "à¹Ħà¸Ń": 7948,
      "iche": 7949,
      "à°¿à°¨à°µ": 7950,
      "ÑĤÐ¾ÑĢÐ°": 7951,
      "à±įà°ķà°²": 7952,
      "ĠØ§ÙĨÙĩ": 7953,
      "Ġprom": 7954,
      "lamak": 7955,
      "Ġmaneno": 7956,
      "Ð¾Ð»ÑĮÐ·Ñĥ": 7957,
      "éĩįè¦ģ": 7958,
      "chool": 7959,
      "ĠÐ¼Ð¾Ð³ÑĥÑĤ": 7960,
      "Ġmilioni": 7961,
      "çĬ": 7962,
      "ĠsÃ©": 7963,
      "ĠØªØ¤": 7964,
      "Ø²Ø¨": 7965,
      "ĠÙĨØ¸Ø§Ùħ": 7966,
      "iga": 7967,
      "à¹Ģà¸«à¸Ļ": 7968,
      "ĠØ§ÙĦØ·ÙģÙĦ": 7969,
      "email": 7970,
      "à¸¹à¸ģà¸Ħ": 7971,
      "à¸±à¸įà¸«": 7972,
      "ĠÑįÑĤÐ¾ÑĤ": 7973,
      "ÑĨÐµÐ²": 7974,
      "Ġharek": 7975,
      "Ġdonc": 7976,
      "Ġkolay": 7977,
      "71": 7978,
      "æª": 7979,
      "Ġing": 7980,
      "à°Ĵ": 7981,
      "ÙĬØ°": 7982,
      "ÙĪÙĤØ¯": 7983,
      "à¹Īà¸³": 7984,
      "à¥įà¤ł": 7985,
      "ingereza": 7986,
      "Ġkwake": 7987,
      "ĠØ³ÙĦ": 7988,
      "à¹Ģà¸«à¸¡à¸²à¸": 7989,
      "Ġambazo": 7990,
      "èĪ¬": 7991,
      "ashara": 7992,
      "ĠÙĪØ§ØŃØ¯Ø©": 7993,
      "à¹ģà¸Ľà¸¥à¸ĩ": 7994,
      "net": 7995,
      "ulik": 7996,
      "Ġà°ĺ": 7997,
      "à¥ĩà¤ª": 7998,
      "à¹īà¸ľ": 7999,
      "ator": 8000,
      "Ġyana": 8001,
      "ÙĩØ§ÙĬØ©": 8002,
      "ica": 8003,
      "ĠØ§ÙĦØªÙĪ": 8004,
      "Ġtofauti": 8005,
      "ĠØŃØ§ÙĦØ©": 8006,
      "ĠÙĨØª": 8007,
      "à¹īà¸²à¸Ń": 8008,
      "Ġrequ": 8009,
      "ÐµÐ¼Ð¸": 8010,
      "à¸Ĥà¸Ńà¸ĩà¸Ħ": 8011,
      "à¤¬à¤°": 8012,
      "ĠÐ¾ÑĤÐ²ÐµÑĤ": 8013,
      "Ġusing": 8014,
      "è¿Ļä¸ª": 8015,
      "aient": 8016,
      "çľĭåĪ°": 8017,
      "ĠØ§ÙĦØ³ÙĬØ§Ø³ÙĬØ©": 8018,
      "è¿Ľè¡Į": 8019,
      "Ġyako": 8020,
      "ĠØ§ÙĦØ¨ÙĦØ¯": 8021,
      "Ġnguvu": 8022,
      "@example": 8023,
      "èĽ": 8024,
      "Ġsik": 8025,
      "Ġnos": 8026,
      ".....": 8027,
      "Ġjambo": 8028,
      "Ġolmak": 8029,
      "ĠÃ¶l": 8030,
      "Ð¾ÑģÑĥ": 8031,
      "à¤¾à¤®à¤²": 8032,
      "éĻħ": 8033,
      "çģµ": 8034,
      "Ġortaya": 8035,
      "ĠTripAdvisor": 8036,
      "à¹Ģà¸«à¸¡à¸²à¸°": 8037,
      "AB": 8038,
      "ØªÙĨØ§": 8039,
      "Ġpu": 8040,
      "ä¸ĩ": 8041,
      "Ġà°ªà°¶": 8042,
      "à¹ģà¸«à¸¥": 8043,
      "ĠÙĥÙħ": 8044,
      "Ġà°¤à°ķ": 8045,
      "ĠCol": 8046,
      "ÑĨÐµÐ½": 8047,
      "à¥ģà¤¡": 8048,
      "å¾Īå¤ļ": 8049,
      "ternational": 8050,
      "ĠÐ²ÑĢÐµÐ¼ÐµÐ½Ð¸": 8051,
      "ï¼ģĊ": 8052,
      "Ġphot": 8053,
      "ÑĢÐ¾Ð¿": 8054,
      "Ġnili": 8055,
      "Ġpor": 8056,
      "ims": 8057,
      "à¸Ľà¸ģ": 8058,
      "ĠSun": 8059,
      "ĠShe": 8060,
      "à¹Įà¹ģà¸¥à¸°": 8061,
      "à¹Īà¸²à¸Ħ": 8062,
      "à±Īà°µ": 8063,
      "ĠØ§ÙĦØŃÙĤÙĬÙĤØ©": 8064,
      "ÑīÐµÐ½Ð¸Ñı": 8065,
      "ĠØ§ÙĦØ³Ùħ": 8066,
      "ĠEs": 8067,
      "æİĪ": 8068,
      "ĠrÃ©g": 8069,
      "ĠÑĩÐµÐ»Ð¾Ð²ÐµÐº": 8070,
      "Ġsecond": 8071,
      "cript": 8072,
      "goni": 8073,
      "muÅŁ": 8074,
      "åª": 8075,
      "à°ī": 8076,
      "Ø§ÙĩÙħ": 8077,
      "Ġcur": 8078,
      "Ġown": 8079,
      "quip": 8080,
      "à¹Ĥà¸Ħà¸£": 8081,
      "à±įà°ķà°¨": 8082,
      "ĠDev": 8083,
      "à¥Ĥà¤¤": 8084,
      "Ġà¤¤à¤¥": 8085,
      "ÙĥØ±ÙĬØ©": 8086,
      "à¤¾à¤¹à¤°": 8087,
      "æŀĹ": 8088,
      "ĠgÃ¶rÃ¼l": 8089,
      "ĠHotels": 8090,
      "onyesha": 8091,
      "ĠØ§ÙĦØ¨ØŃØ«": 8092,
      "-t": 8093,
      "ÙĩÙĨ": 8094,
      "ØªØ®": 8095,
      "ĠsÄ±": 8096,
      "ather": 8097,
      "Ġbun": 8098,
      "à¸´à¸¨": 8099,
      "ĠÙĦÙĦÙĩ": 8100,
      "ĠÐ²Ð»Ð°": 8101,
      "ï¼Įä»¥": 8102,
      "å¤į": 8103,
      "ÙıÙĪÙĨ": 8104,
      "Ð¾ÑĢÐ¾Ð²": 8105,
      "andishi": 8106,
      "Ġcomputer": 8107,
      "Ġtoute": 8108,
      "ĠÐ±Ð¾Ð»ÑĮÑĪÐµ": 8109,
      "æĶ¿åºľ": 8110,
      "à¹Ģà¸ģà¸¡à¸ª": 8111,
      "IL": 8112,
      "Ð½ÐµÑĢ": 8113,
      "Ġkun": 8114,
      "Ġfac": 8115,
      "Ø·ÙĤ": 8116,
      "ĠÙĪØ§ÙĦÙĥ": 8117,
      "ÑĤÐµÑĢÐ°": 8118,
      "ĠeÅŁ": 8119,
      "ĠØ§ÙĦÙĨØ¸Ø±": 8120,
      "Ð¾ÐºÐ°": 8121,
      "éĤĬ": 8122,
      "åĵ¡": 8123,
      "Ġà¹ģà¸¡": 8124,
      "Ġizin": 8125,
      "ĠÐ¶ÐµÐ½ÑīÐ¸": 8126,
      "Bir": 8127,
      "val": 8128,
      "ĠØ§Øº": 8129,
      "Ġkawaida": 8130,
      "à¹īà¸²à¸£": 8131,
      "à¹īà¸Ĭ": 8132,
      "ï¼ĮéĢĻ": 8133,
      "ĠÑģÐ°": 8134,
      "ĠÙĬØ¨": 8135,
      "à¸Ĥà¸²à¸¢": 8136,
      "ĠØ§ÙĦØªØ´": 8137,
      "ĠTo": 8138,
      "à¸£à¸°à¸ļ": 8139,
      "Ø§Ø¦Ø¬": 8140,
      "à¹īà¸²à¸ŀ": 8141,
      "Ġjus": 8142,
      "endant": 8143,
      "ĠYes": 8144,
      "Ġlili": 8145,
      "ĠØ·Ø¨ÙĬ": 8146,
      "adaÅŁ": 8147,
      "Ð¾Ð»Ð¸ÑĩÐµ": 8148,
      "ÙĦØ³Ø·ÙĬÙĨ": 8149,
      "âĢĶâĢĶâĢĶâĢĶ": 8150,
      "77": 8151,
      "92": 8152,
      "tal": 8153,
      "Ð¨": 8154,
      "à¸Ļà¸ª": 8155,
      "ĠØ¨Ø³": 8156,
      "à¸¢à¸¢": 8157,
      "Ġvideo": 8158,
      "ĠMay": 8159,
      "ĠMah": 8160,
      "ava": 8161,
      "liko": 8162,
      "ÑĨÐ¸Ð¹": 8163,
      "Ġoldu": 8164,
      "Ð¾Ð²Ð°Ð½Ð¸Ñı": 8165,
      "ĠÙĪØªØŃ": 8166,
      "Ø°ÙĩØ¨": 8167,
      "Ġlis": 8168,
      "Ø±ÙĥØ§Øª": 8169,
      "Ġkutumia": 8170,
      "ĠÑĤÐµÐº": 8171,
      "çİĭ": 8172,
      "à¥įà¤·à¤£": 8173,
      "ÑĩÐµÑģÐºÐ¸Ñħ": 8174,
      "à¤¾à¤ķà¤°": 8175,
      "ĠÙĥØ¨ÙĬØ±Ø©": 8176,
      "ĠfarklÄ±": 8177,
      "-S": 8178,
      "Ġà¹Ģà¸ģ": 8179,
      "Ġemp": 8180,
      "à°¾à°ł": 8181,
      "à¥Īà¤°": 8182,
      "Ø§Ø¨Ø¹": 8183,
      "à¸ģà¸²à¸£à¸ŀ": 8184,
      "Ġread": 8185,
      "avyo": 8186,
      "à±ĩà°¹": 8187,
      "Ġprov": 8188,
      "ĠØ§ÙĦÙĥÙĪÙĨ": 8189,
      "Ø±Ø¨Ø©": 8190,
      "Ð·Ð°ÑĨÐ¸Ð¸": 8191,
      "Ġà°ıà°¡": 8192,
      "æĢ»": 8193,
      "à¸ģà¸³à¸«à¸Ļà¸Ķ": 8194,
      "Ġservices": 8195,
      "ollow": 8196,
      "Ġsistem": 8197,
      "kÄ±": 8198,
      "ms": 8199,
      "Ġty": 8200,
      "ĠØ¨Ø§ÙĨ": 8201,
      "à¤Ĥà¤ĸ": 8202,
      "ĠÙĦØ¯Ùī": 8203,
      "Ø£Øª": 8204,
      "Ð³ÑĢÐµ": 8205,
      "ĠØŃÙĬØ§Øª": 8206,
      "à¸£à¸°à¸¢à¸°": 8207,
      "Ġear": 8208,
      "ĠDr": 8209,
      "à±įà°ļà°°": 8210,
      "stan": 8211,
      "à¸Ľà¸£à¸°à¸Ĺ": 8212,
      "à±įà°·à°ķ": 8213,
      "ĠÐ´ÐµÐºÐ°": 8214,
      "ĠÐ¾ÑģÐ¾Ð±": 8215,
      "oire": 8216,
      "ral": 8217,
      "Ġmen": 8218,
      "à¤Ĥà¤ª": 8219,
      "à¥įà¤«": 8220,
      "ĠÑģÑĢÐµÐ´": 8221,
      "Ø·Ø§Øª": 8222,
      "Ð½Ð¸ÐµÐ¼": 8223,
      "à¸ģà¸²à¸£à¸Ĺ": 8224,
      "ĠØŃÙħ": 8225,
      "ĠÐ½Ð°ÑĪ": 8226,
      "åħŃ": 8227,
      "ĠØ±Ø¬Ø¨": 8228,
      "istan": 8229,
      "è¿ĻäºĽ": 8230,
      "Ġmuch": 8231,
      "ĠÙĪØ¬Ùĩ": 8232,
      "à¸´à¸Īà¸²à¸£à¸ĵ": 8233,
      "ĠØ§ÙĦØ¹ÙĦÙħØ§Ø¡": 8234,
      "Ð¶Ð¸Ð²Ð°": 8235,
      "ç©´": 8236,
      "å·²ç¶ĵ": 8237,
      "ï¼ŁâĢĿ": 8238,
      "Ġwatoto": 8239,
      "Ġfois": 8240,
      "inda": 8241,
      "Ġkis": 8242,
      "lection": 8243,
      "à¤¾à¤ĸ": 8244,
      "ĠÐ¿ÑĢÐ°Ð²": 8245,
      "ÑģÑĤÑĢÐ¾Ð¹": 8246,
      "Ã§Ä±": 8247,
      "à¸ģà¸²à¸£à¸ª": 8248,
      "zazi": 8249,
      "Ð»Ð°ÑĤ": 8250,
      "ØºØ·": 8251,
      "ape": 8252,
      "ĠØ¹ÙĨÙĩØ§": 8253,
      "eleke": 8254,
      "ilerin": 8255,
      "ĠØ§Ø¨ÙĨØ§Ø¡": 8256,
      "è´¨": 8257,
      "Ø¯Ø§ÙĬØ©": 8258,
      "æ¨¡": 8259,
      "Ġdiffer": 8260,
      "ology": 8261,
      "acebook": 8262,
      "by": 8263,
      "gon": 8264,
      "Ø¯Ùģ": 8265,
      "Ø¬ÙĬÙĦ": 8266,
      "Ġà°µà°²à°¨": 8267,
      "asÄ±nÄ±": 8268,
      "à¹ĥà¸ķ": 8269,
      "Ø§Ø³Ø·Ø©": 8270,
      "Ġrais": 8271,
      "ĠÑĥÑĢÐ¾Ð²": 8272,
      "ĠÙĦÙĦØ¥": 8273,
      "ĠØ§ÙĦØ±Ø¦ÙĬØ³": 8274,
      "Ġdoes": 8275,
      "è¨±": 8276,
      "ĠÐĶÐ°": 8277,
      "tÄ±ÄŁÄ±": 8278,
      "ĠÃ§Ä±kar": 8279,
      "ĠÐ¶Ð¸Ð·Ð½Ð¸": 8280,
      "à¹Ģà¸¨à¸©": 8281,
      "Ø¹ÙĪ": 8282,
      "Ġmom": 8283,
      "Ġwhile": 8284,
      "iongoni": 8285,
      "à¹ĩà¸Īà¸°": 8286,
      "ĠKu": 8287,
      "à¸µà¸¢à¸ģà¸§": 8288,
      "Ġard": 8289,
      "éĢ£": 8290,
      "orth": 8291,
      "ĠÑĢÐµÐ·Ñĥ": 8292,
      "è§Ĵ": 8293,
      "èµĽ": 8294,
      "nes": 8295,
      "ĠÙĪÙĤØ§ÙĦ": 8296,
      "Ġdhidi": 8297,
      "Ø¹Ø§Ø¯Ø©": 8298,
      "ĠÙħÙĤØ§ÙĦ": 8299,
      "Ġbest": 8300,
      "ĠÑģÐ»Ðµ": 8301,
      "ãĢĤæĪĳ": 8302,
      "ĠLib": 8303,
      "ÙĬØ¯ÙĬ": 8304,
      "ĠÑĢÐ°ÑģÑģ": 8305,
      "ÑĦÐµÐº": 8306,
      "Ġà¤¶à¤°": 8307,
      "éĥ½æĺ¯": 8308,
      "å·²ç»ı": 8309,
      "ĠØ¥ÙĦÙĬÙĩØ§": 8310,
      "Ġblog": 8311,
      "à¸¸à¸©à¸¢": 8312,
      "à¹īà¸ĩà¸²à¸Ļ": 8313,
      "ĠÙħØ¯ÙĬÙĨØ©": 8314,
      "ĠbÄ±r": 8315,
      "Ġnumb": 8316,
      "iria": 8317,
      "Ġfind": 8318,
      "Ġgame": 8319,
      "à¹Ħà¸«à¸Ļ": 8320,
      "Ġà¤¸à¤²": 8321,
      "Ã§i": 8322,
      "Ø£ÙĦ": 8323,
      "Ð»Ð°Ð½": 8324,
      "ĠNo": 8325,
      "ave": 8326,
      "Ð¾ÑĢÑı": 8327,
      "è¯Ħ": 8328,
      "å¼ł": 8329,
      "press": 8330,
      "uala": 8331,
      "ĠÑģÐ¾Ð¾ÑĤÐ²ÐµÑĤ": 8332,
      "æıĴ": 8333,
      "åıĳå±ķ": 8334,
      "ĠØ§ÙĦØ¹Ø§ÙĦÙħÙĬØ©": 8335,
      "è°ĥ": 8336,
      "è«ĭ": 8337,
      "à¹Ĥà¸Ľà¸£à¹ģà¸ģà¸£à¸¡": 8338,
      "ĠÑĢÐµÐ·ÑĥÐ»ÑĮÑĤÐ°": 8339,
      "-m": 8340,
      "??": 8341,
      "jwa": 8342,
      "Ġainsi": 8343,
      "Ð¼ÐµÑĤ": 8344,
      "à¤Ĥà¤ľ": 8345,
      "ĠØ¹Ø¯Ø©": 8346,
      "à¤¿à¤¥": 8347,
      "Ø¬Ø§Ø²": 8348,
      "Ø®ÙĪÙĦ": 8349,
      "ÙİÙī": 8350,
      "Ġlazima": 8351,
      "ĠÙĨØµ": 8352,
      "Ø§Ø¦ÙĬÙĦ": 8353,
      "ĠÑĩÑĥ": 8354,
      "ĠÃ§a": 8355,
      "ÙĲÙħ": 8356,
      "è§ī": 8357,
      "comp": 8358,
      "Ø¯ÙħØ§Øª": 8359,
      "ĠÐºÐ¾ÑĤÐ¾ÑĢÐ°Ñı": 8360,
      "à¸ªà¸¡à¸ļ": 8361,
      "Ġgoing": 8362,
      "ilisha": 8363,
      "à¹Ĥà¸£à¸Ħ": 8364,
      "ĠMuhammad": 8365,
      "aire": 8366,
      "dik": 8367,
      "çį": 8368,
      "Ġà¤Ŀ": 8369,
      "Ġmil": 8370,
      "Ġyas": 8371,
      "ĠÐ¸Ñģ": 8372,
      "Ġà°¨à°·": 8373,
      "Ø´Ø©": 8374,
      "ĠÐºÐ¾Ð»": 8375,
      "ĠÙĪØ§ÙĦØ®": 8376,
      "wepo": 8377,
      "åĢ¼": 8378,
      "åī¯": 8379,
      "Ġhao": 8380,
      "Ġiliyo": 8381,
      "ities": 8382,
      "å®īæ°ĳ": 8383,
      "è²»": 8384,
      "à¥ĩà¤µà¤²": 8385,
      "ĠØŃÙĤÙĪÙĤ": 8386,
      "tÄ±m": 8387,
      "à¤ĺ": 8388,
      "Ġhuwa": 8389,
      "ĠØ¹Ø§ÙĦÙħ": 8390,
      "äº¬": 8391,
      "Ġlors": 8392,
      "roup": 8393,
      "Ø²Ø§": 8394,
      "ĠÐ½Ð°ÑħÐ¾Ð´": 8395,
      "à¸ĸà¸²à¸¡": 8396,
      "Ġenf": 8397,
      "ÙıÙĪØ§": 8398,
      "ween": 8399,
      "ĠØ·ÙĦØ¨": 8400,
      "åĳ¢": 8401,
      "ØŃÙĬØ«": 8402,
      "ĠChrist": 8403,
      "à¸ģà¸£à¸°à¸Ĺ": 8404,
      "è£ħ": 8405,
      "åĸ®": 8406,
      "ÑİÑīÐ¸Ðµ": 8407,
      "Ġprofession": 8408,
      "à¸¡à¸²à¸Īà¸²à¸ģ": 8409,
      "nak": 8410,
      "Ø¯ÙĦ": 8411,
      "ÐºÐ»Ð°": 8412,
      "ĠIf": 8413,
      "à¤¦à¤°": 8414,
      "Ø§ØŃØ«": 8415,
      "à¤¼à¤ķ": 8416,
      "å·´": 8417,
      "upa": 8418,
      "prise": 8419,
      "Ø´Ø±ÙĬÙĨ": 8420,
      "çİ©": 8421,
      "ĠÙĦÙĩØ°Ø§": 8422,
      "Ġmonde": 8423,
      "Ġizle": 8424,
      "ĠComm": 8425,
      "Ġpays": 8426,
      "wan": 8427,
      "ï¼ĮæĪĳä»¬": 8428,
      "inga": 8429,
      "ãĢĤåľ¨": 8430,
      "Ġà°Ĩà°ª": 8431,
      "ĠØ³Ø±": 8432,
      "åĲ¸": 8433,
      "à°ľà°¨": 8434,
      "---Ċ": 8435,
      "ÑĩÐ°Ñģ": 8436,
      "à°¾à°µà°¡": 8437,
      "à¸±à¸§à¹Ģà¸Ńà¸ĩ": 8438,
      "à±ĭà°ľà°¨": 8439,
      "Ġà¤ĵà¤°": 8440,
      "à¸²à¸ĵ": 8441,
      "Ġsent": 8442,
      "ĠØ£Ùģ": 8443,
      "Ġvip": 8444,
      "Ã§ok": 8445,
      "Ġà°¨à°¨": 8446,
      "Ø´Ø±Ø©": 8447,
      "ÙĪÙĨØ©": 8448,
      "Ð¾Ð³ÑĢÐ°": 8449,
      "iya": 8450,
      "ĠØ´Ùĩ": 8451,
      "à°¾à°Ĥ.": 8452,
      "Ġakiwa": 8453,
      "éĢļè¿ĩ": 8454,
      "à¸²à¸Īà¸°": 8455,
      "Ġmodel": 8456,
      "'h": 8457,
      "log": 8458,
      "Ġ...Ċ": 8459,
      "ÙĬÙĥ": 8460,
      "Ø§ÙĦÙĤ": 8461,
      "ÑĤÑı": 8462,
      "Ġho": 8463,
      "à°®à°¯": 8464,
      "Ġfem": 8465,
      "Ð¿Ñĭ": 8466,
      "à¹ĩà¹Ħà¸Ķ": 8467,
      "ÙİØ³": 8468,
      "ĠØŃØ¯ÙĬØ«": 8469,
      "Ġleo": 8470,
      "Ġstand": 8471,
      "Ð²ÐµÐ´": 8472,
      "æ¿Ģ": 8473,
      "ĠÙĥØ«ÙĬØ±Ø©": 8474,
      "ehir": 8475,
      "Ġtake": 8476,
      "Ġnouve": 8477,
      "ison": 8478,
      "ĠØ¨Ø§Ø³Ùħ": 8479,
      "ÑģÑĤÐ¾Ð²": 8480,
      "à¸«à¸²à¸ģ": 8481,
      "ĠÐ´Ð¾Ðº": 8482,
      "Ġà°Ĩà°Ł": 8483,
      "æĺ¾": 8484,
      "Ġthose": 8485,
      "ä¸ĢäºĽ": 8486,
      "ĠWa": 8487,
      "ĠØ§ÙĦØ¬Ø§ÙħØ¹Ø©": 8488,
      "Ġcontre": 8489,
      "à±įà°®à°¨": 8490,
      "Ġchanzo": 8491,
      "tique": 8492,
      "Ġaliy": 8493,
      "à¹Īà¸ĩà¸Ĥ": 8494,
      "Ø¬ÙħØ¹": 8495,
      "Ġavait": 8496,
      "éĺ²": 8497,
      "ĠÑģÑĥÑīÐµ": 8498,
      "ĠTÃ¼rkiye": 8499,
      "à¸Ķà¸³à¹Ģà¸Ļ": 8500,
      "82": 8501,
      "nement": 8502,
      "ÑĢÐ¾Ð±": 8503,
      "ĠÙĪØ³ÙĬ": 8504,
      "à±ģà°ľ": 8505,
      "Ø¨Ø·": 8506,
      "ÑıÑģ": 8507,
      "Ð²Ð½Ð¾": 8508,
      "amÄ±": 8509,
      "ĠÙĬÙĥ": 8510,
      "Ġà°ħà°Ł": 8511,
      "Ð½Ð¸ÑĤÐµÐ»ÑĮ": 8512,
      "anag": 8513,
      "à¥įà¤¯à¤µ": 8514,
      "ä¸įèĥ½": 8515,
      "æĿĥ": 8516,
      "Ġmwana": 8517,
      "à¥Ģà¤µà¤¨": 8518,
      "Ġquelques": 8519,
      "Ġuygun": 8520,
      "may": 8521,
      "Ġà¤Ī": 8522,
      "ĠØ£Ø¬ÙĦ": 8523,
      "Ġfi": 8524,
      "Ð»Ð¸Ð·": 8525,
      "à¸Ĭà¸²à¸¢": 8526,
      "ĠÐ±ÐµÑĢÐµ": 8527,
      "ĠHam": 8528,
      "ocum": 8529,
      "æĦĽ": 8530,
      "Ø§Ø´Ø±": 8531,
      "ĠÐ¸Ð½ÑĤÐµÑĢ": 8532,
      "ĠÙĪØ¬Ø¯": 8533,
      "à¸±à¸¡à¸¡à¸²à¸Ĺ": 8534,
      "à¥Ģà¥¤Ċ": 8535,
      "risto": 8536,
      "This": 8537,
      "EK": 8538,
      "çĳ": 8539,
      "Ð·Ð²Ð°": 8540,
      "Ð±Ñĥ": 8541,
      "à¸·à¸Ńà¸Ķ": 8542,
      "Ø§ØŃØ¨": 8543,
      "ĠFran": 8544,
      "ĠGe": 8545,
      "à¸Ľà¸£à¸°à¹Ĥà¸¢à¸Ĭà¸Ļ": 8546,
      "Ø¦Ø§Øª": 8547,
      "ĠYA": 8548,
      "Ġstud": 8549,
      "Ġà°Ĵà°ķà°Ł": 8550,
      "Ø±Ø¬Ø©": 8551,
      "è¸ıè»Ĭ": 8552,
      "ĠÐ´ÐµÐºÐ°Ð±ÑĢÑı": 8553,
      "Ġpek": 8554,
      "ï¼ĮéĤ£": 8555,
      "Ġà°ķà°®": 8556,
      "ĠÑģÐºÐ°": 8557,
      "ĠÑģÐµÐ¼": 8558,
      "Ġà°®à°³": 8559,
      "Ġkuliko": 8560,
      "à¸Ńà¸ĩà¸Īà¸²à¸ģ": 8561,
      "emo": 8562,
      "uman": 8563,
      "Ġà°Ĩà°µ": 8564,
      "Ð½Ð°ÐºÐ¾": 8565,
      "ĠHad": 8566,
      "à¸Ħà¸Ļà¸Ĺ": 8567,
      "Ø³Ø¨Ø§Ø¨": 8568,
      "ĠÃ¼Ã§": 8569,
      "stanbul": 8570,
      "lul": 8571,
      "ĠtÃ©": 8572,
      "Ġtest": 8573,
      "Ġmj": 8574,
      "à¸´à¸«à¸²à¸£": 8575,
      "Ġlin": 8576,
      "ĠAc": 8577,
      "Ð³Ð´Ð°": 8578,
      "Ø²Ø§Ø¨": 8579,
      "à¸±à¸ĩà¸¡": 8580,
      "ĠNi": 8581,
      "å¾ĭ": 8582,
      "ĠØ§ÙĦÙĤÙĬØ§Ùħ": 8583,
      "ÐºÐ¾Ðµ": 8584,
      "ebilir": 8585,
      "ĠØªØŃÙĤÙĬÙĤ": 8586,
      "Ġtekn": 8587,
      "................": 8588,
      "å§Ķåĳĺ": 8589,
      "à¸´à¹Ģà¸§à¸ĵ": 8590,
      "gÃ¼n": 8591,
      "zuri": 8592,
      "Ġà¸²": 8593,
      "ÙĦØ¯": 8594,
      "à¹ĪĊ": 8595,
      "ÙĥØ±Ø©": 8596,
      "çļ®": 8597,
      "Ġà°¸à°¨": 8598,
      "Ø§Ø±Ø§": 8599,
      "ĠÙĥÙĨØª": 8600,
      "Ø§Ø¯Ùĩ": 8601,
      "ĠÐ¾Ð±Ñĭ": 8602,
      "adala": 8603,
      "Ġà°¡à°¬": 8604,
      "ĠÐ¿Ð¾Ð»Ð¸": 8605,
      "oyote": 8606,
      "ÙĦØ¨ÙĬØ©": 8607,
      "Ġà¸ŀà¸£": 8608,
      "ç½Ĺ": 8609,
      "ĠÐ¼Ð¾Ð¶ÐµÑĤÐµ": 8610,
      "æĽ´å¤ļ": 8611,
      "Ġsupport": 8612,
      "Ġdepuis": 8613,
      "æ¹": 8614,
      "Ø§ÙĦØ¬": 8615,
      "à¸Ļà¸²": 8616,
      "à¸ĩà¸«à¸¡à¸Ķ": 8617,
      "ater": 8618,
      "ÑĥÑīÐµ": 8619,
      "ision": 8620,
      "à¸¢à¸²à¸¢": 8621,
      "ÑĮÑı": 8622,
      "Ġdedim": 8623,
      "ĠÙħÙĨØ·ÙĤØ©": 8624,
      "Ġgar": 8625,
      "ØµÙĪØ±": 8626,
      "ÄŁÄ±m": 8627,
      "à°¯à°¸": 8628,
      "à±ģà°²à°²": 8629,
      "à¤²à¤¬": 8630,
      "à¸ģà¸²à¸£à¸¨": 8631,
      "ĠØ§ÙĦØ¹ÙĤÙĦ": 8632,
      "ĠÐ½Ð°Ð¼": 8633,
      "ĠHar": 8634,
      "Ġsawa": 8635,
      "ÑĩÐµÐ³Ð¾": 8636,
      "ĠÙĬØ¹Ø±Ùģ": 8637,
      "Ġdevelop": 8638,
      "ĠyÄ±lÄ±nda": 8639,
      "Ġgenel": 8640,
      "à¸²à¸£à¸¡à¸ĵ": 8641,
      "CC": 8642,
      "Ø±Øª": 8643,
      "Ġtedav": 8644,
      "ĠsÄ±n": 8645,
      "Ġsize": 8646,
      "Ġaina": 8647,
      "Ġvol": 8648,
      "emiz": 8649,
      "ÑĢÐµÐ²": 8650,
      "âĢĻen": 8651,
      "lerinden": 8652,
      "Ġuch": 8653,
      "ÑĤÐ°Ð½": 8654,
      "ĠWest": 8655,
      "Ġà°İà°¤": 8656,
      "Ġà°Ńà°°": 8657,
      "ĠÐ²ÑĭÐ¿Ð¾Ð»": 8658,
      "è¨ĺ": 8659,
      "ÐŁÑĢÐ¸": 8660,
      "à¸´à¸¡à¸ŀ": 8661,
      "chagu": 8662,
      "ĠØ£ØŃÙħØ¯": 8663,
      "à¸¤à¸©": 8664,
      "ï¼ĮèĢĮä¸Ķ": 8665,
      "Ġziliz": 8666,
      "ĠÐ½ÐµÑģÐºÐ¾Ð»ÑĮÐºÐ¾": 8667,
      "'en": 8668,
      "bet": 8669,
      "ket": 8670,
      "ness": 8671,
      "ĠdÃ©s": 8672,
      "Ġyoyote": 8673,
      "ĠÐ¿Ð¾Ð»ÑĮÐ·Ð¾Ð²Ð°": 8674,
      "à¸´à¹Ĥ": 8675,
      "à¸ķà¸Ńà¸Ļ": 8676,
      "Ġà°¸à°¤": 8677,
      "à°ļà°¨": 8678,
      "ĠMad": 8679,
      "à±įà°¤à°²": 8680,
      "umizi": 8681,
      "ĠApp": 8682,
      "à±Ĭà°¬": 8683,
      "Ġà¤¬à¤¦": 8684,
      "iver": 8685,
      "ifs": 8686,
      "ÐµÐ¹ÑĩÐ°Ñģ": 8687,
      "à¸Ħà¸£à¸Ńà¸ĩ": 8688,
      "åĨµ": 8689,
      "Ġkurul": 8690,
      "ĠØ£ÙħØ§Ùħ": 8691,
      "lable": 8692,
      "ĠÂ»Ċ": 8693,
      "Ġdenir": 8694,
      "73": 8695,
      "ĠØ§Ø¶": 8696,
      "Ø¹Ø±Ø¶": 8697,
      "ĠbazÄ±": 8698,
      "ÑĭÐ¹": 8699,
      "ĠÙģÙĦ": 8700,
      "ä¸ľ": 8701,
      "Ġà°ªà°¤": 8702,
      "à±Ģà°İ": 8703,
      "alt": 8704,
      "Ø¶ÙħÙĨ": 8705,
      "ĠBak": 8706,
      "Ø§ÙģØ¸": 8707,
      "à¥ģà¤¶": 8708,
      "ÑģÑĤÐ²Ð¾Ð¼": 8709,
      "å±Ģ": 8710,
      "Ð¼ÐµÐ½ÑĤÐ°": 8711,
      "ç§°": 8712,
      "embre": 8713,
      "Ġavoir": 8714,
      "è»Ł": 8715,
      "ban": 8716,
      "hesh": 8717,
      "tÄ±k": 8718,
      "à°ı": 8719,
      "anisha": 8720,
      "ĠkÄ±z": 8721,
      "Ø¹Ø¨Ø©": 8722,
      "ØŃÙĦ": 8723,
      "Ġod": 8724,
      "usha": 8725,
      "ĠØ§ÙĦØªØ±": 8726,
      "à¹ĥà¸Ļà¸Ĺ": 8727,
      "à¹ĥà¸Ļà¸Ĭ": 8728,
      "ĠØ§ÙĦØ¯Ø¹": 8729,
      "Ġbefore": 8730,
      "à¸Ħà¸§à¸²à¸¡à¸Ħ": 8731,
      "ÙĴÙĦ": 8732,
      "Ġsaat": 8733,
      "Ð´ÐµÑģÑĮ": 8734,
      "ĠÐľÐ°": 8735,
      "load": 8736,
      "ĠÑģÑĤÐ¾ÑĢÐ¾": 8737,
      "ÙħÙĥØ§ÙĨ": 8738,
      "anchi": 8739,
      "Ġke": 8740,
      "ĠÙĪØ§Ø¶": 8741,
      "wala": 8742,
      "ĠØ¨Ø§Ø¨": 8743,
      "à¸ªà¸²à¸¢": 8744,
      "à¥ĭà¤¦": 8745,
      "Ġvitu": 8746,
      "ĠØªÙĤØ¯Ùħ": 8747,
      "Ġfedha": 8748,
      "Ġdef": 8749,
      "ĠÐ¾Ð´Ð¸Ð½": 8750,
      "Ð½Ð¸ÑĤÑĮ": 8751,
      "åħħ": 8752,
      "Ð¾Ð³Ð»Ð°": 8753,
      "idÃ©": 8754,
      "tact": 8755,
      "à¸±à¸ģà¸£": 8756,
      "ÙĬÙħÙĤØ±Ø§Ø·": 8757,
      "ateurs": 8758,
      "Ġeden": 8759,
      "dÄ±ÄŁÄ±": 8760,
      "emble": 8761,
      "ÙĩØ¯Ùģ": 8762,
      "åķı": 8763,
      "èĲ½": 8764,
      "éªĮ": 8765,
      "93": 8766,
      "Ġà¸Īà¸²à¸ģ": 8767,
      "ÙĬØ«": 8768,
      "à¹Īà¸²à¸£": 8769,
      "Ġtena": 8770,
      "Ø¹ÙĬØ¯": 8771,
      "imar": 8772,
      "Ø·Ø¹": 8773,
      "ĠMer": 8774,
      "ots": 8775,
      "other": 8776,
      "Ġà°¬à°¹": 8777,
      "ĠÐ¿Ð¾ÑĢ": 8778,
      "Ġà¤Ĩà¤§": 8779,
      "Ð¾ÑĤÑı": 8780,
      "æ°£": 8781,
      "Ġsuis": 8782,
      "Ġà¤¸à¤®à¤Ŀ": 8783,
      "ÑĢÐ¾Ð²Ð°Ð½Ð¸Ñı": 8784,
      "Ġwangu": 8785,
      "Ġmkubwa": 8786,
      "à¸²à¸Ĥà¸Ńà¸ĩ": 8787,
      "ĠnasÄ±l": 8788,
      "'il": 8789,
      "à°°à°ķ": 8790,
      "à¸ªà¸ķ": 8791,
      "Ø¬Ø¹": 8792,
      "Ø¬Ø§Ùĩ": 8793,
      "ĠÐ²Ð¾Ð¹": 8794,
      "Ġolacak": 8795,
      "à¥ĭà¤·": 8796,
      "Ġà°¨à°µ": 8797,
      "ÙĪÙĨÙĩ": 8798,
      "ÑĤÐµÐ¼": 8799,
      "Ġmaal": 8800,
      "Ġà¤ħà¤ª": 8801,
      "çĶļ": 8802,
      "à±įà°µà°¤": 8803,
      "âĢĿ.Ċ": 8804,
      "Ø§ÙģÙĬ": 8805,
      "ÑĢÑĥÐ³": 8806,
      "è¦ª": 8807,
      "Ð´ÐµÐ»ÑĮ": 8808,
      "Ð¾Ð¿Ð¸": 8809,
      "ĠØ¹ÙĦÙĬÙĩÙħ": 8810,
      "æĽ¾": 8811,
      "è£Ŀ": 8812,
      "Ġkabla": 8813,
      "à¥įà¤¶à¤¨": 8814,
      "ĠØ§ÙĦØ³Ø§Ø¨ÙĤ": 8815,
      "))": 8816,
      "à¹Ĳ": 8817,
      "arÄ±m": 8818,
      "ĠÙħÙĩ": 8819,
      "à¥Ģà¤ª": 8820,
      "Ġcam": 8821,
      "Ġoper": 8822,
      "ĠÐ¸ÑģÐº": 8823,
      "à¥Īà¤¯": 8824,
      "à¥Īà¤ł": 8825,
      "ĠØ§ÙĦØ¹Ø±Ø¨ÙĬ": 8826,
      "à¥įà¤°à¤¯": 8827,
      "åĲ¬": 8828,
      "ĠÑĥÐ¿": 8829,
      "ĠØ¬Ø¯": 8830,
      "ĠØ§ÙĦÙĨÙģØ³": 8831,
      "ĠÐ³Ð¸": 8832,
      "Ġà¤Ĩà¤Ĺ": 8833,
      "ØªÙħØ§Ùħ": 8834,
      "Ä±ÅŁtÄ±r": 8835,
      "Ġà°¶à°°": 8836,
      "æŃ¢": 8837,
      "æ¯į": 8838,
      "à¥įà¤¥à¤¨": 8839,
      "Ġhakuna": 8840,
      "ĠØ§ØŃØ¯": 8841,
      "conom": 8842,
      "yd": 8843,
      "ÙĬØ§Ø¡": 8844,
      "ĠÐºÐ¾Ð»Ð¸ÑĩÐµ": 8845,
      "ÑĤÐ°Ðº": 8846,
      "ĠHas": 8847,
      "Ġju": 8848,
      "Ġref": 8849,
      "ĠFacebook": 8850,
      "ÙıÙĦ": 8851,
      "à°Ĥà°¤à°ķ": 8852,
      "ĠØ§ÙĦØ¯Ùħ": 8853,
      "å¥Ĺ": 8854,
      "ĠgÃ¶n": 8855,
      "å¯Ĩ": 8856,
      "ÙĪÙĬØ§Øª": 8857,
      "é«ĺæ½®": 8858,
      "à¸Īà¸³à¸Ļà¸§à¸Ļ": 8859,
      "Ġà¸«à¸²à¸ģ": 8860,
      "à±ģà°Ńà°µ": 8861,
      "62": 8862,
      "Ø§Ø¤": 8863,
      "ÑģÐ»Ñĥ": 8864,
      "à¹Ģà¸Ńà¸²à¸": 8865,
      "Ġsens": 8866,
      "Ġpat": 8867,
      "à¸ªà¸Ńà¸ĩ": 8868,
      "Ø¶ØŃ": 8869,
      "Ð¾Ð¼Ñĥ": 8870,
      "oss": 8871,
      "Ġjou": 8872,
      "ĠØ¬Ø¯ÙĬØ¯": 8873,
      "Ġbeau": 8874,
      "ĠØ§ÙĦØ¬Ø¯ÙĬØ¯": 8875,
      "ĠØ§ÙĦØ´Ø¹": 8876,
      "å·ŀ": 8877,
      "å¤§çļĦ": 8878,
      "à±įà°·à°²": 8879,
      "ÑĢÑıÐ´": 8880,
      "à¸´à¸Īà¸ģà¸£à¸£à¸¡": 8881,
      "ĠÑģÐ²Ð¾Ðµ": 8882,
      "Ð¾Ð²ÑĭÐµ": 8883,
      "Ð¿ÑĢÐ¸Ð¼ÐµÑĢ": 8884,
      "Ġcertain": 8885,
      "uÃ§": 8886,
      "ĠÙĪÙĬÙĨ": 8887,
      "à¸°à¸Ĺ": 8888,
      "ĠgÃ¼Ã§": 8889,
      "ikisha": 8890,
      "Ġworld": 8891,
      "ä»ĭ": 8892,
      "Ð»Ð°Ð³Ð°": 8893,
      "ÙĦØ§Ùĥ": 8894,
      "à¥Ĥà¤ģ": 8895,
      "Ġrece": 8896,
      "à¸Ħà¸§à¸ļà¸Ħ": 8897,
      "Ø§Ø¬Ø§Øª": 8898,
      "Ä°L": 8899,
      "Ġcond": 8900,
      "à±ģà°µà°Ĺ": 8901,
      "åºķ": 8902,
      "ĠÙĥØ§ÙĨÙĪØ§": 8903,
      "ĠdÃ©b": 8904,
      "Ġwanawake": 8905,
      "Ġukweli": 8906,
      "Ð²ÑĭÐµ": 8907,
      "Ġà¤§à¤°": 8908,
      "Ġmbili": 8909,
      "ĠØ§ÙĦØ¯ÙĪÙĦÙĬ": 8910,
      "chukua": 8911,
      "Ġuwezo": 8912,
      "ufa": 8913,
      "enge": 8914,
      "Ġtah": 8915,
      "ĠbÃ¼tÃ¼n": 8916,
      "Ġple": 8917,
      "ØŃÙģ": 8918,
      "Ġvos": 8919,
      "ĠMon": 8920,
      "Ġwin": 8921,
      "à¹ĩà¹Ħà¸¡": 8922,
      "ÙİØ£": 8923,
      "Ø²Ø§Ùħ": 8924,
      "ĠØ¯Ø§Ø¦": 8925,
      "ends": 8926,
      "ĠJohn": 8927,
      "à¸´à¸Ļà¸Ĺà¸²à¸ĩ": 8928,
      "ØŃÙĬÙĬÙĨ": 8929,
      "ÙĦØ§ÙĦØ©": 8930,
      "ustom": 8931,
      "Ġappro": 8932,
      "ĠÑģÐ»ÑĥÑĩÐ°Ðµ": 8933,
      "):Ċ": 8934,
      "CH": 8935,
      "gÄ±": 8936,
      "kin": 8937,
      "ĠÐĸ": 8938,
      "à±ģà°³": 8939,
      "lit": 8940,
      "Ġbana": 8941,
      "ĠMe": 8942,
      "à¤¹à¤®": 8943,
      "à°¾à°¨à°®": 8944,
      "ĠØŃØ³Ø§Ø¨": 8945,
      "ĠCC": 8946,
      "à¹īà¸²à¸ķ": 8947,
      "ĠÐ½ÐµÐºÐ¾": 8948,
      "ukumu": 8949,
      "ĠGu": 8950,
      "åįĩ": 8951,
      "ĠØ®Ø§Ø±Ø¬": 8952,
      "nect": 8953,
      "Ġstat": 8954,
      "Ġaliye": 8955,
      "åīĩ": 8956,
      "çİĩ": 8957,
      "ÑĳÐ½": 8958,
      "ĠØ§ÙĦØ«Ø§ÙĦØ«": 8959,
      "à¸ķà¸¥à¸²à¸Ķ": 8960,
      "WA": 8961,
      "malÄ±": 8962,
      "æ¦": 8963,
      "Ġà¸«à¸¥": 8964,
      "anÃ§": 8965,
      "Ġsitu": 8966,
      "ÑıÑĤÐ¸": 8967,
      "à°ļà°Ł": 8968,
      "ÄŁa": 8969,
      "ĠSon": 8970,
      "ĠServ": 8971,
      "ÙĬØ±Ø§ÙĨ": 8972,
      "à¸Ĭà¸¡": 8973,
      "ĠÐ½Ð°Ð´": 8974,
      "oking": 8975,
      "à¸±à¸ļà¸Ħà¸§à¸²à¸¡": 8976,
      "à¸±à¸ģà¸Ĺ": 8977,
      "åº§": 8978,
      "à¸Ńà¸ģà¸²à¸ª": 8979,
      "mail": 8980,
      "éģĭ": 8981,
      "å¸¶": 8982,
      "è§Ĥ": 8983,
      "ĠbaÅŁka": 8984,
      "ĠØ¶ÙħÙĨ": 8985,
      "ç´ł": 8986,
      "à±ģà°®à°¤": 8987,
      "à¥ĩà¥¤Ċ": 8988,
      "Ġbenim": 8989,
      "ukufu": 8990,
      "Ġhayat": 8991,
      "ç¦»": 8992,
      "Ġolduk": 8993,
      "ĠarkadaÅŁ": 8994,
      "-p": 8995,
      "aa": 8996,
      "uver": 8997,
      "uja": 8998,
      "Ġ{": 8999,
      "Ġtit": 9000,
      "Ø¨ÙĪ": 9001,
      "à±ĭà°³": 9002,
      "ĠØ£Ø±": 9003,
      "à¥ĭ,": 9004,
      "Ġwww": 9005,
      "ÄŁin": 9006,
      "Ġtour": 9007,
      "à±įà°Łà°¨": 9008,
      "à¸Ńà¸¡à¸ŀ": 9009,
      "uliza": 9010,
      "à±ĭà°ļà°¨": 9011,
      "ĠØ³ÙĨÙĪØ§Øª": 9012,
      "à¸ķà¸¥à¸Ńà¸Ķ": 9013,
      "ĠÑĥÑģÐ»Ñĥ": 9014,
      "Ġbetween": 9015,
      "'av": 9016,
      "*Ċ": 9017,
      "DE": 9018,
      "OT": 9019,
      "var": 9020,
      "à°¿?": 9021,
      "à¹Īà¹ĥà¸Ĭ": 9022,
      "ÙĥÙĦØ©": 9023,
      "Ġsort": 9024,
      "Ġait": 9025,
      "atibu": 9026,
      "Ġhome": 9027,
      "à¸ªà¸¡à¸²à¸": 9028,
      "ĠØ§ÙĦÙħØ¯ÙĬÙĨØ©": 9029,
      "ÑĩÐ½Ð¾Ð¹": 9030,
      "Ġfollow": 9031,
      "ä»¤": 9032,
      "ĠÐ½Ð°Ð¹": 9033,
      "å¾ħ": 9034,
      "å¥ĩ": 9035,
      "Ġà¤Ĺà¤°": 9036,
      "ç»Ń": 9037,
      "Ġà°¶à°¤": 9038,
      "illes": 9039,
      "Ø¬ÙħÙĬØ¹": 9040,
      "Ġayak": 9041,
      "æ¨Ĥ": 9042,
      "ĠÙĬÙĤÙĪÙħ": 9043,
      "åĤ³": 9044,
      "ĠprÃ©sent": 9045,
      "åĬŁèĥ½": 9046,
      "ih": 9047,
      "Ġà°Ľ": 9048,
      "ÙħÙĬÙĨ": 9049,
      "à±ģ)": 9050,
      "ÑıÐ·Ð°": 9051,
      "ÑĩÑĥ": 9052,
      "ased": 9053,
      "ĠÐ½Ð¾Ð¼": 9054,
      "à°¾à°²à°°": 9055,
      "à±Ĥà°¹": 9056,
      "utes": 9057,
      "ĠTra": 9058,
      "ĠÐ³ÑĢÑĥÐ¿": 9059,
      "åį´": 9060,
      "à¥ģà¤ľ": 9061,
      "å¤§åŃ¦": 9062,
      "Ġ..Ċ": 9063,
      "è¦ģæ±Ĥ": 9064,
      "Ġkiasi": 9065,
      "ĠÐ¼ÐµÑģÑı": 9066,
      "Ð»Ð¾Ð²Ð¸": 9067,
      "ĠØ§ÙĦØ¹ÙĦÙħÙĬ": 9068,
      "Ġapplic": 9069,
      "pace": 9070,
      "Ġminist": 9071,
      "ĠgÃ¶rev": 9072,
      "ĠÑĢÐµÐ±ÐµÐ½": 9073,
      "-b": 9074,
      ".\"": 9075,
      "76": 9076,
      "78": 9077,
      "Ġemail": 9078,
      "Ġpouv": 9079,
      "ety": 9080,
      "ÑĩÐºÐ¸": 9081,
      "ÐµÐ½Ðµ": 9082,
      "Ġfour": 9083,
      "Ġfav": 9084,
      "uses": 9085,
      "à±įà°¤à°¨": 9086,
      "Ġà¤¬à¤°": 9087,
      "Ø§Ø¦ÙĦØ©": 9088,
      "å®³": 9089,
      "ĠØ§ÙĦØ¨Ø´Ø±": 9090,
      "ÙĥÙĨÙĪÙĦÙĪØ¬": 9091,
      "ØŃØ¯Ø¯": 9092,
      "ĠØ§ÙĦÙĪØ³": 9093,
      "à¹īà¸²à¹ĥà¸Ī": 9094,
      "à¤¾à¤ĩà¤¨": 9095,
      "ĠØ§ÙĦØ¥Ø³ÙĦØ§ÙħÙĬ": 9096,
      "à±įà°°à°ķà°Ł": 9097,
      "ĠÙĦØ£ÙĨÙĩ": 9098,
      "DA": 9099,
      "Ġà¤¢": 9100,
      "ĠØ§ÙĦØ§Ø±": 9101,
      "enek": 9102,
      "ÑĭÐ¼": 9103,
      "amia": 9104,
      "Ġvra": 9105,
      "ems": 9106,
      "Ø£ÙħØ§": 9107,
      "Ð±ÑĢÐ°": 9108,
      "ĠØ§ÙĦØŃØ¯": 9109,
      "ÐºÐ°Ñı": 9110,
      "Ġdesign": 9111,
      "ä¸»è¦ģ": 9112,
      "ĠÙĪØºÙĬØ±ÙĩØ§": 9113,
      "Ġrespons": 9114,
      "LA": 9115,
      "eo": 9116,
      "Ġà¸ĩ": 9117,
      "Ð´Ð·": 9118,
      "ÑģÑĤÑĢÐ°Ð½": 9119,
      "ï¼ĮæīĢä»¥": 9120,
      "à±įà°°à°ļ": 9121,
      "ekeleza": 9122,
      "ĠÐºÐ»Ð¸": 9123,
      "ĠÙĪØ§ÙĦÙħÙĨ": 9124,
      "åı²": 9125,
      "Ġrun": 9126,
      "ĠÙĨØ¬": 9127,
      "ract": 9128,
      "ÐºÐ°Ð½": 9129,
      "ĠØ¨ÙĨØ§Ø¡": 9130,
      "åĳ³": 9131,
      "ĠÑıÐ·Ñĭ": 9132,
      "Ð²ÐµÑģÑĤ": 9133,
      "è«ĸ": 9134,
      "hibit": 9135,
      "Ġparticip": 9136,
      "jÃł": 9137,
      "uf": 9138,
      "é¾": 9139,
      "ĠkÃ¼Ã§Ã¼k": 9140,
      "à¹īà¹Ģà¸£": 9141,
      "Ġsame": 9142,
      "Ð²Ð¾ÑĢ": 9143,
      "à¤Ĥà¤ªà¤¨": 9144,
      "à¸´à¹Ģà¸¨à¸©": 9145,
      "ako": 9146,
      "à°¤à°²": 9147,
      "Ġjinsi": 9148,
      "ĠØ±ÙĤÙħ": 9149,
      "åį«": 9150,
      "Ġolup": 9151,
      "ä¼¼": 9152,
      "ĠØ§ÙĦÙĪØ§ÙĤØ¹": 9153,
      "Ð½ÑıÑĤÑĮ": 9154,
      "å¦Ĥä½ķ": 9155,
      "ĠÑĨÐ°ÑĢ": 9156,
      "ÙĪØ±ÙĬØ§": 9157,
      "Ġhatua": 9158,
      "à¸ªà¸°à¸Ķ": 9159,
      "ĠÙĥØ«ÙĬØ±Ø§": 9160,
      "ually": 9161,
      "Ġdom": 9162,
      "Ġdist": 9163,
      "Ø¹Ùī": 9164,
      "Ġpuis": 9165,
      "ories": 9166,
      "ikwa": 9167,
      "âĢĻex": 9168,
      "Ġà¤¬à¤²": 9169,
      "æĪĺ": 9170,
      "ÙĪÙħÙĬ": 9171,
      "à°Ĥà°¦à°¨": 9172,
      "ĠWikipedia": 9173,
      "Ġprovid": 9174,
      "ĠØ§ÙĦØ±Ø³": 9175,
      "å¯Į": 9176,
      "à±Ģà°ķà°°à°£": 9177,
      "à¸±à¸ķà¸§": 9178,
      "é¢Ĩ": 9179,
      "ĠÙĦÙĬØ³Øª": 9180,
      "ÙħÙĬ": 9181,
      "ÙĥØ°Ø§": 9182,
      "Ġtuna": 9183,
      "oro": 9184,
      "Ġolabilir": 9185,
      "à¹ģà¸Ķ": 9186,
      "Ġkuv": 9187,
      "ÑĢÐµÐ´Ð¸": 9188,
      "ĠÙĥØ°ÙĦÙĥ": 9189,
      "à°¿à°¨à°¦": 9190,
      "à¸ģà¸²à¸£à¸ķ": 9191,
      "ourd": 9192,
      "ĠØ§ÙĦØ³ÙĨ": 9193,
      "à¥ģà¤Ł": 9194,
      "æĬķ": 9195,
      "à¸łà¸²à¸§": 9196,
      "à±Ĭà°¨à°¸": 9197,
      "ĠÐ¢Ð°Ðº": 9198,
      "Ġkupitia": 9199,
      "Ġtamam": 9200,
      "æĬĢæľ¯": 9201,
      "ĠØ«ÙĦØ§Ø«Ø©": 9202,
      "lÃ¼k": 9203,
      "rin": 9204,
      "sÄ±z": 9205,
      "ÙħØª": 9206,
      "ĠÙĪÙĥÙĦ": 9207,
      "Ã©tÃ©": 9208,
      "ÑĩÑĮ": 9209,
      "Ġvari": 9210,
      "à¹ģà¸ª": 9211,
      "ĠÙĥØ§ÙĦ": 9212,
      "ĠØ³Ø¨ÙĬÙĦ": 9213,
      "ĠPour": 9214,
      "ÙĨØ§Ùĩ": 9215,
      "idh": 9216,
      "à°¾à°¡à°¨": 9217,
      "acc": 9218,
      "ÑĩÐ¸Ð½Ð°": 9219,
      "Ġils": 9220,
      "ï¼ļâĢľ": 9221,
      "à¹Ģà¸ķà¸£": 9222,
      "ĠØ§ÙĦÙĤØ±ÙĨ": 9223,
      "ĠÙĨØ³Ø¨Ø©": 9224,
      "ĠÐ½ÑĥÐ¶Ð½Ð¾": 9225,
      "ĠÐ¿Ð¾Ð¼Ð¾Ñī": 9226,
      "ĠbÄ±rak": 9227,
      "-c": 9228,
      "dÄ±k": 9229,
      "eurs": 9230,
      "ws": 9231,
      "Ø±Ø£Ø©": 9232,
      "à°Ĥ.Ċ": 9233,
      "iller": 9234,
      "ØµØ§ÙĦ": 9235,
      "imbo": 9236,
      "hauri": 9237,
      "Ġthree": 9238,
      "Ð²Ð°ÐµÑĤÑģÑı": 9239,
      "ĠØ¯Ø¹": 9240,
      "ĠØµØŃÙĬØŃ": 9241,
      "Ð³Ð¾ÑĤÐ¾Ð²": 9242,
      "Ġshow": 9243,
      "è·³": 9244,
      "Ġuzun": 9245,
      "éĸĭå§ĭ": 9246,
      "oloj": 9247,
      "ØºÙĬÙĬØ±": 9248,
      "ĠMkuu": 9249,
      "ĠÑĩÐµÐ»Ð¾Ð²Ðµ": 9250,
      "Äŀ": 9251,
      "ÙĩØ§Øª": 9252,
      "à¸µà¸ļ": 9253,
      "urt": 9254,
      "à¸ļà¸²à¸¥": 9255,
      "Ø¬ÙĨØ©": 9256,
      "à¥ĭà¤ľà¤¨": 9257,
      "ÄŁu": 9258,
      "Ġilikuwa": 9259,
      "Ø§Ø¦ÙĩØ§": 9260,
      "åĪĻ": 9261,
      "à¤Ĺà¤²": 9262,
      "rait": 9263,
      "à¥Ĥà¤¦": 9264,
      "ĠÐ³Ð¾Ð´": 9265,
      "Ġà¤¤à¤¬": 9266,
      "ÙĩØ¯Ø§Ùģ": 9267,
      "à¸²à¸Ħà¸¡": 9268,
      "ĠÐ±Ð¾Ð»ÑĮÑĪ": 9269,
      "ĠMarekani": 9270,
      "æ¶²": 9271,
      "79": 9272,
      "Com": 9273,
      "act": 9274,
      "pit": 9275,
      "à¹Īà¸¢": 9276,
      "à¹īà¸²à¸ģ": 9277,
      "à¹īà¹Ħà¸Ķ": 9278,
      "Ġmiongoni": 9279,
      "à±ĩà°ļ": 9280,
      "ÑıÐ¼Ð¸": 9281,
      "à°ķà°®": 9282,
      "à¸´à¸ķà¸£": 9283,
      "çļĦå°ı": 9284,
      "Ġfik": 9285,
      "imiwa": 9286,
      "ÄŁÃ¼": 9287,
      "Ġiht": 9288,
      "ĠØ¬Ø§ÙĨØ¨": 9289,
      "Ġ--": 9290,
      "Ð¾ÑģÐ»Ðµ": 9291,
      "Ġliv": 9292,
      "éģ©": 9293,
      "ĠÐ²ÑĭÑģÐ¾Ðº": 9294,
      "ept": 9295,
      "Ġwako": 9296,
      "æĸ¹å¼ı": 9297,
      "Ġmtoto": 9298,
      "ĠØŃØ¯Ø«": 9299,
      "Ð¿ÐµÑĢÑĮ": 9300,
      "à¹Īà¸²à¸ĩà¸ģà¸²à¸¢": 9301,
      "èİ·": 9302,
      "ĠÐ»ÑİÐ´ÐµÐ¹": 9303,
      "ĠÙħÙĦÙĬÙĪÙĨ": 9304,
      "ĠÃ¼lk": 9305,
      "'ex": 9306,
      "aires": 9307,
      "rÃ©": 9308,
      "yl": 9309,
      "à¸Ļà¸Ħ": 9310,
      "ÙģØ§Ø¹": 9311,
      "ØŃØ§Øª": 9312,
      "ĠØ¹Ø¯": 9313,
      "amin": 9314,
      "ĠÐ²Ð¾Ð»": 9315,
      "à°¿à°¤à°®": 9316,
      "à¸Ńà¸¢à¸²à¸ģ": 9317,
      "ige": 9318,
      "à¥ģà¤·": 9319,
      "Ð²Ð¸Ð¶": 9320,
      "è¯Ĩ": 9321,
      "å¤§èĤīæ£Ĵ": 9322,
      "ĠØ·Ø¨": 9323,
      "larÄ±ndan": 9324,
      "Ø§ÙĩØ¯Ø©": 9325,
      "ÙģØ³ÙĬØ±": 9326,
      "ĠÙĬØ¹ÙĨÙĬ": 9327,
      "Ġtechn": 9328,
      "à¤¾à¤ĩà¤Ł": 9329,
      "ÑĩÐµÑģÐºÐ¸Ðµ": 9330,
      "Ġmwanam": 9331,
      "à¸Ľà¸£à¸°à¸Ĭà¸²à¸Ĭ": 9332,
      "wengu": 9333,
      "ubali": 9334,
      "à¹Īà¸ĸ": 9335,
      "ĠkÄ±r": 9336,
      "à¸ģà¸İ": 9337,
      "à¸¡à¸°": 9338,
      "Ġnum": 9339,
      "lack": 9340,
      "ĠÐ²Ð¼Ðµ": 9341,
      "Ġva": 9342,
      "ilme": 9343,
      "Ø·Ø§ÙĦØ¨": 9344,
      "ÑħÐ¾Ð²": 9345,
      "ĠMed": 9346,
      "Ġtouj": 9347,
      "Ø§Ø¯Ø«": 9348,
      "ĠÙĤØ§ÙĨÙĪÙĨ": 9349,
      "à°¿.[": 9350,
      "ØºÙĬØ±Ø©": 9351,
      "cture": 9352,
      "ÙĪØ±Ø¯": 9353,
      "ä¸įè¦ģ": 9354,
      "åįĥ": 9355,
      "à¤¿à¤¯à¤®": 9356,
      "ç»´": 9357,
      "ĠØ§ÙĦØ±ØŃ": 9358,
      "ĠiliÅŁk": 9359,
      "ÑĪÐµÐ»": 9360,
      "Ø¹Ø¶Ø§Ø¡": 9361,
      "ĠAncak": 9362,
      "ords": 9363,
      "à¤¾à¤ıà¤Ĺ": 9364,
      "ÑģÑĤÐ²ÐµÐ½Ð½Ð¾": 9365,
      "Ġautres": 9366,
      "Ġactiv": 9367,
      "Ġproblem": 9368,
      "ĠØ§ÙĦØ¹ÙĦÙĪÙħ": 9369,
      "!!Ċ": 9370,
      "à¹Īà¹Ģà¸Ľ": 9371,
      "à¸Ńà¸ķ": 9372,
      "ĠaprÃ¨s": 9373,
      "isc": 9374,
      "à¸§à¸£": 9375,
[...]
