{
  "version": "1.0",
  "truncation": null,
  "padding": null,
  "added_tokens": [
    {
      "id": 0,
      "content": "<|bos|>",
      "single_word": false,
      "lstrip": false,
      "rstrip": false,
      "normalized": false,
      "special": true
    },
    {
      "id": 1,
      "content": "<|user_start|>",
      "single_word": false,
      "lstrip": false,
      "rstrip": false,
      "normalized": false,
      "special": true
    },
    {
      "id": 2,
      "content": "<|user_end|>",
      "single_word": false,
      "lstrip": false,
      "rstrip": false,
      "normalized": false,
      "special": true
    },
    {
      "id": 3,
      "content": "<|assistant_start|>",
      "single_word": false,
      "lstrip": false,
      "rstrip": false,
      "normalized": false,
      "special": true
    },
    {
      "id": 4,
      "content": "<|assistant_end|>",
      "single_word": false,
      "lstrip": false,
      "rstrip": false,
      "normalized": false,
      "special": true
    },
    {
      "id": 5,
      "content": "<|python_start|>",
      "single_word": false,
      "lstrip": false,
      "rstrip": false,
      "normalized": false,
      "special": true
    },
    {
      "id": 6,
      "content": "<|python_end|>",
      "single_word": false,
      "lstrip": false,
      "rstrip": false,
      "normalized": false,
      "special": true
    },
    {
      "id": 7,
      "content": "<|output_start|>",
      "single_word": false,
      "lstrip": false,
      "rstrip": false,
      "normalized": false,
      "special": true
    },
    {
      "id": 8,
      "content": "<|output_end|>",
      "single_word": false,
      "lstrip": false,
      "rstrip": false,
      "normalized": false,
      "special": true
    },
    {
      "id": 9,
      "content": "<|unk|>",
      "single_word": false,
      "lstrip": false,
      "rstrip": false,
      "normalized": false,
      "special": true
    }
  ],
  "normalizer": null,
  "pre_tokenizer": {
    "type": "Sequence",
    "pretokenizers": [
      {
        "type": "Split",
        "pattern": {
          "Regex": "'(?i:[sdmt]|ll|ve|re)|[^\\r\\n\\p{L}\\p{N}]?+\\p{L}+|\\p{N}{1,2}| ?[^\\s\\p{L}\\p{N}]++[\\r\\n]*|\\s*[\\r\\n]|\\s+(?!\\S)|\\s+"
        },
        "behavior": "Isolated",
        "invert": false
      },
      {
        "type": "ByteLevel",
        "add_prefix_space": false,
        "trim_offsets": true,
        "use_regex": false
      }
    ]
  },
  "post_processor": {
    "type": "TemplateProcessing",
    "single": [
      {
        "Sequence": {
          "id": "A",
          "type_id": 0
        }
      }
    ],
    "pair": [
      {
        "Sequence": {
          "id": "A",
          "type_id": 0
        }
      },
      {
        "Sequence": {
          "id": "B",
          "type_id": 1
        }
      }
    ],
    "special_tokens": {}
  },
  "decoder": null,
  "model": {
    "type": "Unigram",
    "unk_id": 9,
    "vocab": [
      [
        "<|bos|>",
        0.0
      ],
      [
        "<|user_start|>",
        0.0
      ],
      [
        "<|user_end|>",
        0.0
      ],
      [
        "<|assistant_start|>",
        0.0
      ],
      [
        "<|assistant_end|>",
        0.0
      ],
      [
        "<|python_start|>",
        0.0
      ],
      [
        "<|python_end|>",
        0.0
      ],
      [
        "<|output_start|>",
        0.0
      ],
      [
        "<|output_end|>",
        0.0
      ],
      [
        "<|unk|>",
        0.0
      ],
      [
        "s",
        -3.078498473431438
      ],
      [
        "Ġ",
        -3.180237693152879
      ],
      [
        "Ġthe",
        -3.394804072643735
      ],
      [
        ",",
        -3.453400512324272
      ],
      [
        ".",
        -3.7478477884816
      ],
      [
        "Ġand",
        -3.948920094002105
      ],
      [
        "Ġto",
        -3.9794052749608113
      ],
      [
        "Ġof",
        -3.9982981093072176
      ],
      [
        "a",
        -4.000168226389269
      ],
      [
        "ing",
        -4.3547491689963564
      ],
      [
        "Ġin",
        -4.502105290303655
      ],
      [
        "Ġis",
        -4.603154500666177
      ],
      [
        "ed",
        -4.827800422978015
      ],
      [
        "'",
        -4.902925148812569
      ],
      [
        "d",
        -5.003028871986551
      ],
      [
        "Ġthat",
        -5.01120638057483
      ],
      [
        "Ġfor",
        -5.043114104481809
      ],
      [
        "0",
        -5.073373297904247
      ],
      [
        "y",
        -5.08354525192901
      ],
      [
        "ly",
        -5.105968833182942
      ],
      [
        "1",
        -5.208146074004203
      ],
      [
        "Ġare",
        -5.2255905015667174
      ],
      [
        ":",
        -5.252666872571904
      ],
      [
        "Ġyou",
        -5.278947046349867
      ],
      [
        "Ġit",
        -5.29206336443073
      ],
      [
        "e",
        -5.293712288983592
      ],
      [
        ".Ċ",
        -5.306441688923584
      ],
      [
        "Ġwith",
        -5.312361286263162
      ],
      [
        ".ĊĊ",
        -5.324916768020223
      ],
      [
        "Ċ",
        -5.3593768574137215
      ],
      [
        "2",
        -5.429493309467114
      ],
      [
        "Ġbe",
        -5.443500688006479
      ],
      [
        "Ġon",
        -5.471658500958872
      ],
      [
        "Ġor",
        -5.490947241568886
      ],
      [
        "t",
        -5.499191888926532
      ],
      [
        "Ġcan",
        -5.507519496506076
      ],
      [
        "Ġas",
        -5.549307084597775
      ],
      [
        "-",
        -5.5908633217748935
      ],
      [
        "Ġyour",
        -5.647009126001832
      ],
      [
        "ĊĊ",
        -5.677375389137579
      ],
      [
        "Ġ(",
        -5.7721188323781
      ],
      [
        "\"",
        -5.872313553114344
      ],
      [
        "Ġhave",
        -5.880819376386208
      ],
      [
        "Ġfrom",
        -5.900345179279453
      ],
      [
        "ĠI",
        -5.922968339345969
      ],
      [
        "ĠThe",
        -5.943944259837201
      ],
      [
        ")",
        -5.984929062606495
      ],
      [
        "Ġby",
        -5.986310318248325
      ],
      [
        "Ġan",
        -6.021534088740726
      ],
      [
        "Ġthis",
        -6.036656990645838
      ],
      [
        "3",
        -6.0586623759286855
      ],
      [
        "Ġnot",
        -6.093717785494471
      ],
      [
        "?",
        -6.112699679182812
      ],
      [
        "Ġat",
        -6.115014218665177
      ],
      [
        "5",
        -6.145675375851443
      ],
      [
        "n",
        -6.153137120377082
      ],
      [
        "Ġwill",
        -6.182365699265258
      ],
      [
        "Ġtheir",
        -6.224054559639187
      ],
      [
        "4",
        -6.309752399674689
      ],
      [
        "Ġmore",
        -6.329929959320182
      ],
      [
        "Ġthey",
        -6.33745415548227
      ],
      [
        "Ġwas",
        -6.417458616774688
      ],
      [
        "9",
        -6.421823414126536
      ],
      [
        "The",
        -6.4484141850703995
      ],
      [
        "Ġbut",
        -6.479319476733286
      ],
      [
        "Ġhas",
        -6.488185117992568
      ],
      [
        "Ġwhich",
        -6.512530851938514
      ],
      [
        "Ġone",
        -6.539524704632424
      ],
      [
        "Ġwe",
        -6.548468272863698
      ],
      [
        "Ġother",
        -6.55476055792599
      ],
      [
        "6",
        -6.5728260052617795
      ],
      [
        "Ġalso",
        -6.580308606266696
      ],
      [
        "ies",
        -6.5922390312229275
      ],
      [
        "Question",
        -6.606404908588367
      ],
      [
        "8",
        -6.609369468348254
      ],
      [
        "ĠAnswer",
        -6.626420599171372
      ],
      [
        "i",
        -6.650645386451274
      ],
      [
        "Ġall",
        -6.654530391253962
      ],
      [
        "o",
        -6.6555079604141145
      ],
      [
        "Ġlike",
        -6.655898659232172
      ],
      [
        "Ġabout",
        -6.677278890323452
      ],
      [
        "Ġwhen",
        -6.722447097609516
      ],
      [
        "ĠA",
        -6.737944493629348
      ],
      [
        "Ġif",
        -6.738793709945773
      ],
      [
        "7",
        -6.7415260958214365
      ],
      [
        "ĠIt",
        -6.743403794488698
      ],
      [
        "er",
        -6.7549070991824
      ],
      [
        "Ġtime",
        -6.770383253154975
      ],
      [
        "Ġthem",
        -6.782238898254091
      ],
      [
        "Ġdo",
        -6.797727077114185
      ],
      [
        "Ġneed",
        -6.7990743446313875
      ],
      [
        "Ġuse",
        -6.800797080251016
      ],
      [
        "Ġinto",
        -6.814133172919487
      ],
      [
        "Ġmay",
        -6.83299348294695
      ],
      [
        "Ġso",
        -6.846004047669997
      ],
      [
        "Ġsome",
        -6.849697979859007
      ],
      [
        "Ġup",
        -6.8516579713262775
      ],
      [
        "r",
        -6.858086815446315
      ],
      [
        "ĠThis",
        -6.868887143848298
      ],
      [
        "m",
        -6.877634975932956
      ],
      [
        "Ġthan",
        -6.911239922093186
      ],
      [
        "Ġout",
        -6.93433040248293
      ],
      [
        "ĠWhat",
        -6.947783377643875
      ],
      [
        "Ġthere",
        -6.9577609641219595
      ],
      [
        "Ġhow",
        -6.9640763337561395
      ],
      [
        "Ġthese",
        -6.978788207816448
      ],
      [
        "Ġget",
        -7.022694878156946
      ],
      [
        "Ġmake",
        -7.025532346950563
      ],
      [
        "A",
        -7.026112664303755
      ],
      [
        "on",
        -7.027544416472798
      ],
      [
        "Ġwater",
        -7.029275908873727
      ],
      [
        "Ġmost",
        -7.038118210556519
      ],
      [
        "Ġused",
        -7.043287694689683
      ],
      [
        "Ġwhat",
        -7.053180220859904
      ],
      [
        "re",
        -7.055256232911814
      ],
      [
        "Ġour",
        -7.082169756476109
      ],
      [
        "Ġany",
        -7.082756588086951
      ],
      [
        "ĠIn",
        -7.091275488762818
      ],
      [
        "able",
        -7.103502255953337
      ],
      [
        "Ġsuch",
        -7.126628062053772
      ],
      [
        "/",
        -7.136130727357262
      ],
      [
        "Ġhelp",
        -7.1479207074893605
      ],
      [
        "Ġpeople",
        -7.155542716353221
      ],
      [
        "Ġwere",
        -7.166099497859502
      ],
      [
        "Ġbeen",
        -7.172186583077206
      ],
      [
        "Ġwho",
        -7.192682206770806
      ],
      [
        "Ġnew",
        -7.20043864929468
      ],
      [
        "Ġshould",
        -7.209342727789828
      ],
      [
        "Ġthrough",
        -7.211222299522282
      ],
      [
        "Ġwould",
        -7.218144260445548
      ],
      [
        "I",
        -7.240303465410056
      ],
      [
        ";",
        -7.2412706830284
      ],
      [
        "Ġjust",
        -7.262854993251873
      ],
      [
        "Ġonly",
        -7.280025087993851
      ],
      [
        "Ġits",
        -7.2868850569675025
      ],
      [
        "Ġmany",
        -7.2886968159049825
      ],
      [
        "Ġmy",
        -7.292372785409386
      ],
      [
        "al",
        -7.300404440914294
      ],
      [
        "Ġwork",
        -7.303386640360822
      ],
      [
        "Ġwell",
        -7.316010268919328
      ],
      [
        "Ġhigh",
        -7.3304019421695426
      ],
      [
        "Ġfirst",
        -7.346175600108545
      ],
      [
        "l",
        -7.346910645848775
      ],
      [
        "Ġtwo",
        -7.350503726176232
      ],
      [
        "Ġover",
        -7.356107102286709
      ],
      [
        "Ġway",
        -7.378879030104686
      ],
      [
        "?Ċ",
        -7.38652063077598
      ],
      [
        "c",
        -7.406272892051328
      ],
      [
        "Ġdifferent",
        -7.407330731405109
      ],
      [
        "Ġwhere",
        -7.413531635782601
      ],
      [
        "ĠIf",
        -7.432809015093071
      ],
      [
        "Ġusing",
        -7.438888189306388
      ],
      [
        "Ġtake",
        -7.439120908742165
      ],
      [
        "Ġno",
        -7.449135774360023
      ],
      [
        "Ġcould",
        -7.457590330546623
      ],
      [
        "Ġeven",
        -7.463431277264993
      ],
      [
        "Ġbetween",
        -7.465190121349513
      ],
      [
        "Ġbecause",
        -7.477601448462062
      ],
      [
        "out",
        -7.487255594697133
      ],
      [
        "Ġlook",
        -7.489917571242287
      ],
      [
        "Ġprovide",
        -7.489960537856277
      ],
      [
        "ĠC",
        -7.501719507146218
      ],
      [
        "Ġvery",
        -7.51150312742625
      ],
      [
        "Ġpart",
        -7.512244564144112
      ],
      [
        "Ġsystem",
        -7.541898033139075
      ],
      [
        "Ġhealth",
        -7.5588306043100655
      ],
      [
        "ity",
        -7.559743707545472
      ],
      [
        "Ġeach",
        -7.561131193257349
      ],
      [
        "Ġgood",
        -7.578632458752345
      ],
      [
        "Ġmuch",
        -7.580431947868965
      ],
      [
        "Ġwant",
        -7.581219107577866
      ],
      [
        "Ġknow",
        -7.588901402937475
      ],
      [
        "Ġimportant",
        -7.589000280049719
      ],
      [
        "!",
        -7.596659211878196
      ],
      [
        "in",
        -7.601721250664911
      ],
      [
        "ĠThey",
        -7.603541214817254
      ],
      [
        "ĠYou",
        -7.605485685862055
      ],
      [
        "Ġhad",
        -7.607113800507968
      ],
      [
        "Ġhe",
        -7.609007736060949
      ],
      [
        "Ġdoes",
        -7.609383658039372
      ],
      [
        "In",
        -7.620477138516744
      ],
      [
        "ĠâĢĵ",
        -7.622147673400248
      ],
      [
        "Ġfood",
        -7.632232223105786
      ],
      [
        "Ġcause",
        -7.634645115732191
      ],
      [
        "?ĊĊ",
        -7.636475940594698
      ],
      [
        "Ġwhile",
        -7.648840513706498
      ],
      [
        "Ġlong",
        -7.64985760532036
      ],
      [
        "Ġhis",
        -7.653490920240886
      ],
      [
        "Ġevery",
        -7.654006767532762
      ],
      [
        "Ġsee",
        -7.65923234690697
      ],
      [
        "Ġsmall",
        -7.661815459654074
      ],
      [
        "Ġdon",
        -7.666078056732717
      ],
      [
        "ve",
        -7.666881412393211
      ],
      [
        "Ġafter",
        -7.683170077499685
      ],
      [
        "Ġyears",
        -7.684153197140567
      ],
      [
        "Ġnumber",
        -7.690182977689101
      ],
      [
        "around",
        -7.718148421521613
      ],
      [
        "g",
        -7.719956591932066
      ],
      [
        "Ġbefore",
        -7.720268066935347
      ],
      [
        ").",
        -7.723649587644839
      ],
      [
        "Ġfollow",
        -7.724253780164785
      ],
      [
        "Ġcome",
        -7.724920045459728
      ],
      [
        "(",
        -7.737113971081001
      ],
      [
        "Ġworld",
        -7.742607248660889
      ],
      [
        "Ġduring",
        -7.745946480008071
      ],
      [
        "Ġprocess",
        -7.747687247181881
      ],
      [
        "Ġsame",
        -7.754457094797003
      ],
      [
        "Ġbody",
        -7.759962366743126
      ],
      [
        "Ġlevel",
        -7.760188857276985
      ],
      [
        "Ġback",
        -7.777443341522671
      ],
      [
        "Ġreal",
        -7.781403113060485
      ],
      [
        "those",
        -7.781829715232098
      ],
      [
        "Ġbeing",
        -7.782059735412128
      ],
      [
        "is",
        -7.787703938849651
      ],
      [
        "Ġoften",
        -7.794009215996345
      ],
      [
        "Ġbest",
        -7.797149876508403
      ],
      [
        "Ġkeep",
        -7.798265856704246
      ],
      [
        "Ġright",
        -7.807347051302379
      ],
      [
        "h",
        -7.811952018109741
      ],
      [
        "Ġlife",
        -7.822895751280782
      ],
      [
        "Ġfind",
        -7.829911050036879
      ],
      [
        "um",
        -7.830727825297362
      ],
      [
        "Ġfound",
        -7.837366825872973
      ],
      [
        "ness",
        -7.847100953619874
      ],
      [
        "What",
        -7.848759876094377
      ],
      [
        "Ġcommon",
        -7.850589841064394
      ],
      [
        "ll",
        -7.850795668906784
      ],
      [
        "Ġyear",
        -7.854951332984459
      ],
      [
        "Ġmade",
        -7.8613778395026035
      ],
      [
        "Ġpower",
        -7.861899398075536
      ],
      [
        "Ġexperience",
        -7.866305244564414
      ],
      [
        "Ġdata",
        -7.867260228330691
      ],
      [
        "Ġday",
        -7.868399823274487
      ],
      [
        "Ġboth",
        -7.873604979799513
      ],
      [
        "Ġdown",
        -7.8742579588022945
      ],
      [
        "Ġenergy",
        -7.874291625846395
      ],
      [
        "ĠFor",
        -7.88351103745415
      ],
      [
        "%",
        -7.885856055645748
      ],
      [
        "p",
        -7.886214059692419
      ],
      [
        "Ġexample",
        -7.893334635414501
      ],
      [
        "Ġsaid",
        -7.900423873056832
      ],
      [
        "Ġchange",
        -7.907636562748282
      ],
      [
        "Ġincrease",
        -7.908185528574959
      ],
      [
        "or",
        -7.908804523832909
      ],
      [
        "Ġdog",
        -7.90986657345235
      ],
      [
        "),",
        -7.91707791107032
      ],
      [
        "Ġher",
        -7.9177649808381165
      ],
      [
        "Ġstart",
        -7.918809906600012
      ],
      [
        "Ġplant",
        -7.9229911152696975
      ],
      [
        "ic",
        -7.923714545911711
      ],
      [
        "Ġinformation",
        -7.92471904554084
      ],
      [
        "Ġgo",
        -7.932012507954273
      ],
      [
        ":Ċ",
        -7.938336496135905
      ],
      [
        "ation",
        -7.940564040261243
      ],
      [
        "S",
        -7.942056803752154
      ],
      [
        "Ġlight",
        -7.950387162138659
      ],
      [
        "Ġhome",
        -7.962948984113783
      ],
      [
        "ability",
        -7.968777200598417
      ],
      [
        "Ġus",
        -7.970152283223975
      ],
      [
        "Ġform",
        -7.970533623824215
      ],
      [
        "ĠWe",
        -7.9820745793343
      ],
      [
        "b",
        -7.983127826365987
      ],
      [
        "Ġoff",
        -7.98657779959723
      ],
      [
        "us",
        -7.988158853645823
      ],
      [
        "Ġmight",
        -7.989073132944798
      ],
      [
        "Ġthink",
        -7.989187264314928
      ],
      [
        "D",
        -7.991375965030249
      ],
      [
        "an",
        -7.99366647465434
      ],
      [
        "f",
        -7.994002880000545
      ],
      [
        "Ġplace",
        -7.99635890271942
      ],
      [
        "This",
        -7.996440717402502
      ],
      [
        "Ġme",
        -7.996562157255783
      ],
      [
        "ĠS",
        -7.999516597980787
      ],
      [
        "Ġair",
        -7.999750132018224
      ],
      [
        "Ġfew",
        -7.999972082176615
      ],
      [
        "Ġdevelop",
        -8.006750431882997
      ],
      [
        "Ġstudents",
        -8.008601906802078
      ],
      [
        "Ġspecies",
        -8.009055498111046
      ],
      [
        "Ġgreat",
        -8.009470560122942
      ],
      [
        "ĠThese",
        -8.010976300451885
      ],
      [
        "Ġnow",
        -8.0114023194822
      ],
      [
        "Ġown",
        -8.012706783806145
      ],
      [
        "Ġresearch",
        -8.013057880356175
      ],
      [
        "If",
        -8.015027284332273
      ],
      [
        "ĠTo",
        -8.016192455978352
      ],
      [
        "ion",
        -8.016902125138495
      ],
      [
        "Ġbetter",
        -8.019718161762599
      ],
      [
        "th",
        -8.030070371770718
      ],
      [
        "ĠB",
        -8.034390107295229
      ],
      [
        "Ġcase",
        -8.039216716781583
      ],
      [
        "Ġstill",
        -8.048302742759455
      ],
      [
        "Ġstudy",
        -8.054803176843738
      ],
      [
        "Ġmaking",
        -8.059923549721141
      ],
      [
        "Ġsupport",
        -8.063405403233638
      ],
      [
        "Ġcreate",
        -8.071664862425804
      ],
      [
        "Ġtoo",
        -8.07220199673627
      ],
      [
        "Ġtype",
        -8.076961011202654
      ],
      [
        "Ġless",
        -8.078190913991426
      ],
      [
        "ment",
        -8.080567371937104
      ],
      [
        "Ġplants",
        -8.083043765828181
      ],
      [
        "Ġhuman",
        -8.084313656785001
      ],
      [
        "Ġset",
        -8.091408510424493
      ],
      [
        "Ġcontrol",
        -8.093877623841763
      ],
      [
        "âĢĻ",
        -8.098766498243489
      ],
      [
        "Ġlarge",
        -8.100887546293663
      ],
      [
        "Ġincluding",
        -8.105960094915348
      ],
      [
        "...",
        -8.11001422472017
      ],
      [
        "How",
        -8.111651620433081
      ],
      [
        "Ġvalue",
        -8.11343966137156
      ],
      [
        "Ġgive",
        -8.114869847222302
      ],
      [
        "It",
        -8.116419998586348
      ],
      [
        ":ĊĊ",
        -8.12233020806562
      ],
      [
        "Ġsure",
        -8.123988103395876
      ],
      [
        "Ġunder",
        -8.127985606422426
      ],
      [
        "Ġun",
        -8.131290364669644
      ],
      [
        "Ġthree",
        -8.132911139423783
      ],
      [
        "Ġdesign",
        -8.135828927153323
      ],
      [
        "Ġpressure",
        -8.136055571545945
      ],
      [
        "le",
        -8.136899413548543
      ],
      [
        "âĢĶ",
        -8.14184507105609
      ],
      [
        "Ġcurrent",
        -8.142820047910298
      ],
      [
        "Ġnatural",
        -8.146771050108562
      ],
      [
        "ĠBut",
        -8.149969845443547
      ],
      [
        "Ġknown",
        -8.150041353606515
      ],
      [
        "Ġblood",
        -8.153271603692307
      ],
      [
        "Ġdisease",
        -8.157838214397067
      ],
      [
        "Ġprevent",
        -8.16025396389793
      ],
      [
        "Ġchildren",
        -8.161414828546015
      ],
      [
        "Ġtest",
        -8.167839668128373
      ],
      [
        "Ġlead",
        -8.168316454414454
      ],
      [
        "Ġend",
        -8.172082472466078
      ],
      [
        "Ġpotential",
        -8.175731130210238
      ],
      [
        "u",
        -8.176683515997283
      ],
      [
        "Ġlot",
        -8.177332881845977
      ],
      [
        "ĠHowever",
        -8.178530374224048
      ],
      [
        "Ġlearn",
        -8.18125258619526
      ],
      [
        "est",
        -8.182231552030425
      ],
      [
        "Ġensure",
        -8.184129645358285
      ],
      [
        "Ġadd",
        -8.184778792169489
      ],
      [
        "Ġoffer",
        -8.186524207154735
      ],
      [
        "Ġper",
        -8.188718057265547
      ],
      [
        "Ġthings",
        -8.188785046645268
      ],
      [
        "Ġmust",
        -8.190438408417045
      ],
      [
        "C",
        -8.190453493844295
      ],
      [
        "and",
        -8.192863484287715
      ],
      [
        "Ġheat",
        -8.195805450219687
      ],
      [
        "ĠAnd",
        -8.19821068090439
      ],
      [
        "why",
        -8.200477681859878
      ],
      [
        "Ġactual",
        -8.201919390149538
      ],
      [
        "Ġinclude",
        -8.204541300607099
      ],
      [
        "Ġrisk",
        -8.206261085080984
      ],
      [
        "Ġmodel",
        -8.208074000880249
      ],
      [
        "Ġtry",
        -8.220169627696764
      ],
      [
        "Ġsomething",
        -8.225695449878588
      ],
      [
        "Ġlow",
        -8.22806281242022
      ],
      [
        "Ġwithin",
        -8.237164110865688
      ],
      [
        "Ġenvironment",
        -8.23759647977974
      ],
      [
        "ĠWhen",
        -8.24113628232603
      ],
      [
        "Ġreduce",
        -8.242334050946454
      ],
      [
        "Ġshe",
        -8.243969331403422
      ],
      [
        "Ġcalled",
        -8.244074987676294
      ],
      [
        "Ġindividual",
        -8.247739998647448
      ],
      [
        "x",
        -8.24850234784919
      ],
      [
        "Ġbecome",
        -8.261278056525544
      ],
      [
        "ĠHow",
        -8.262384669336814
      ],
      [
        "Ġcar",
        -8.262739317170382
      ],
      [
        "Ġfunction",
        -8.272210154026448
      ],
      [
        "Ġcare",
        -8.272688425442938
      ],
      [
        "Ġcolor",
        -8.27846003414362
      ],
      [
        "Ġanother",
        -8.278793654312402
      ],
      [
        "Ġdue",
        -8.28006543199877
      ],
      [
        "Ġpossible",
        -8.282546927087017
      ],
      [
        "Ġname",
        -8.283107915578944
      ],
      [
        "Ġfactor",
        -8.285150812189066
      ],
      [
        "Ġreason",
        -8.288115732718678
      ],
      [
        "Ġeffective",
        -8.288475349587761
      ],
      [
        "land",
        -8.28852943837307
      ],
      [
        "Ġpoint",
        -8.288925469871094
      ],
      [
        "Ġamount",
        -8.288968100751188
      ],
      [
        "Ġlast",
        -8.29121353093119
      ],
      [
        "Ġrange",
        -8.293137816269775
      ],
      [
        "Ġsize",
        -8.294505815810929
      ],
      [
        "Ġtreatment",
        -8.29905290641086
      ],
      [
        "the",
        -8.30029350613408
      ],
      [
        "Ġgoing",
        -8.305828209279241
      ],
      [
        "ĠD",
        -8.311228533525867
      ],
      [
        "Ġalway",
        -8.31141362868754
      ],
      [
        "ĠThere",
        -8.311567574280813
      ],
      [
        "Ġclose",
        -8.31232071494588
      ],
      [
        "Ġplay",
        -8.312472687130906
      ],
      [
        "Ġlittle",
        -8.317539608878274
      ],
      [
        "Ġperson",
        -8.31921646885871
      ],
      [
        "Ġorder",
        -8.319301647210285
      ],
      [
        "ĠT",
        -8.319941851633903
      ],
      [
        "Ġsurface",
        -8.326307897435008
      ],
      [
        "Ġspace",
        -8.327654340509016
      ],
      [
        "Ġvarious",
        -8.329705571081854
      ],
      [
        "Ġimpact",
        -8.331372881840526
      ],
      [
        "Ġsecond",
        -8.33178179198115
      ],
      [
        "Ġhere",
        -8.337634261141982
      ],
      [
        "Ġfish",
        -8.341777880485935
      ],
      [
        "Ġtemperature",
        -8.34512854344402
      ],
      [
        "Ġspecific",
        -8.348151843669886
      ],
      [
        "Ġallow",
        -8.350035260670634
      ],
      [
        "Ġstate",
        -8.353122872610228
      ],
      [
        "Ġrequire",
        -8.354724409652071
      ],
      [
        "ĠSo",
        -8.35544499238581
      ],
      [
        "Ġsoil",
        -8.355964358515564
      ],
      [
        "Ġshow",
        -8.369932984264121
      ],
      [
        "Ġcat",
        -8.370711414269048
      ],
      [
        "less",
        -8.374098985320689
      ],
      [
        "Ġlearning",
        -8.376088689014896
      ],
      [
        "Ġavailable",
        -8.381702679219728
      ],
      [
        "Ġproblem",
        -8.384285598727452
      ],
      [
        "Ġmeans",
        -8.397109624974547
      ],
      [
        "Ġcells",
        -8.397950263884699
      ],
      [
        "Ġresult",
        -8.40010381649196
      ],
      [
        "Ġside",
        -8.403844761889307
      ],
      [
        "Ġschool",
        -8.404272049888139
      ],
      [
        "ce",
        -8.410846617143335
      ],
      [
        "Ġuser",
        -8.41162638855137
      ],
      [
        "Ġimprove",
        -8.412981418595896
      ],
      [
        "Ġquality",
        -8.415785702426215
      ],
      [
        "k",
        -8.416368544440914
      ],
      [
        "Ġdid",
        -8.41730585678882
      ],
      [
        "Ġusually",
        -8.417823209023569
      ],
      [
        ",\"",
        -8.418264199782843
      ],
      [
        "Ġhard",
        -8.420826645331715
      ],
      [
        "Ġleave",
        -8.425596289707808
      ],
      [
        "ĠWhich",
        -8.427441170114358
      ],
      [
        "Ġconsider",
        -8.4274697221075
      ],
      [
        "Ġenough",
        -8.429187939507322
      ],
      [
        "Ġlive",
        -8.432217788799367
      ],
      [
        "Ġcourse",
        -8.433884765361972
      ],
      [
        "Ġfeel",
        -8.434172393338663
      ],
      [
        "Ġweight",
        -8.436465718965863
      ],
      [
        "Ġmain",
        -8.440066371557622
      ],
      [
        "w",
        -8.440358574839646
      ],
      [
        "*",
        -8.441495646332566
      ],
      [
        "age",
        -8.442489170748036
      ],
      [
        "Ġseveral",
        -8.444879306389042
      ],
      [
        "Ġpresent",
        -8.445020091938147
      ],
      [
        "Ġsignificant",
        -8.44552479665751
      ],
      [
        "Ġeat",
        -8.448695077186148
      ],
      [
        "Ġput",
        -8.45015063216966
      ],
      [
        "Ġareas",
        -8.464682036302895
      ],
      [
        "Ġessential",
        -8.465597567385611
      ],
      [
        "]",
        -8.468402290639336
      ],
      [
        "Ġtypes",
        -8.470221196819463
      ],
      [
        "Ġmanage",
        -8.475068147497307
      ],
      [
        "based",
        -8.475332556116477
      ],
      [
        "Ġunderstand",
        -8.47677534254925
      ],
      [
        "Ġ&",
        -8.476830262713708
      ],
      [
        "When",
        -8.478493038453498
      ],
      [
        "Ġoption",
        -8.478636954864891
      ],
      [
        "Ġdifference",
        -8.479154568652458
      ],
      [
        "ĠF",
        -8.48624542150753
      ],
      [
        "ally",
        -8.487947261291339
      ],
      [
        "Ġparticular",
        -8.487994182837777
      ],
      [
        "Ġopen",
        -8.489212971075744
      ],
      [
        "Ġchild",
        -8.492599902184459
      ],
      [
        "Ġdamage",
        -8.493528886298451
      ],
      [
        "Ġterm",
        -8.495573850335688
      ],
      [
        "Ġteam",
        -8.496194035572596
      ],
      [
        "ĠAs",
        -8.49652437983131
      ],
      [
        "Ġdevelopment",
        -8.499015502982303
      ],
      [
        "Ġtechnology",
        -8.500129575759178
      ],
      [
        "Ġmaterial",
        -8.503204422666474
      ],
      [
        "having",
        -8.506731943416636
      ],
      [
        "Ġconditions",
        -8.507224470331966
      ],
      [
        "Ġdiet",
        -8.507994288713856
      ],
      [
        "Ġoil",
        -8.508057049697248
      ],
      [
        "Ġfamily",
        -8.513498196391764
      ],
      [
        "Ġnext",
        -8.513547000316247
      ],
      [
        "ĠHe",
        -8.516526658510507
      ],
      [
        "Ġarea",
        -8.520374355223144
      ],
      [
        "Ġmethod",
        -8.522714246861671
      ],
      [
        "Ġanimals",
        -8.523216319598799
      ],
      [
        "Ġtop",
        -8.526624390955277
      ],
      [
        "Ġaway",
        -8.529738338087586
      ],
      [
        "Ġfree",
        -8.534878507064217
      ],
      [
        "Ġhour",
        -8.5372410960974
      ],
      [
        "T",
        -8.538739781252751
      ],
      [
        "Ġplan",
        -8.538902206225693
      ],
      [
        "Ġtext",
        -8.539100327990287
      ],
      [
        "Ġstructure",
        -8.54214903820813
      ],
      [
        "Ġage",
        -8.543708839430508
      ],
      [
        "Ġthing",
        -8.546311960722816
      ],
      [
        "While",
        -8.546804039526899
      ],
      [
        "ther",
        -8.547718821111026
      ],
      [
        "Ġmaterials",
        -8.548453492298027
      ],
      [
        "ĠP",
        -8.553139229811624
      ],
      [
        "Ġsafe",
        -8.553858250933223
      ],
      [
        "Ġkey",
        -8.554186003217648
      ],
      [
        "Ġtogether",
        -8.554245648573081
      ],
      [
        "Ġfull",
        -8.55489676632157
      ],
      [
        "Ġsay",
        -8.555709658253296
      ],
      [
        "Ġgroup",
        -8.555896556532863
      ],
      [
        "self",
        -8.55906030116384
      ],
      [
        "Ġeye",
        -8.559678525116055
      ],
      [
        "Ġmaintain",
        -8.5598945051161
      ],
      [
        "Ġsince",
        -8.560045180895159
      ],
      [
        "Ġlocal",
        -8.560203997321928
      ],
      [
        "Ġfocus",
        -8.561826204877201
      ],
      [
        "Ġproject",
        -8.563220495039257
      ],
      [
        "Ġgame",
        -8.563663489571873
      ],
      [
        "Ġlower",
        -8.563932415490246
      ],
      [
        "Ġalong",
        -8.56394996109262
      ],
      [
        "Ġ$",
        -8.564599068640007
      ],
      [
        "Ġuntil",
        -8.567704977852493
      ],
      [
        "Ġgarden",
        -8.568971324426485
      ],
      [
        "Ġshort",
        -8.571033057746055
      ],
      [
        "Ġleast",
        -8.57166738286772
      ],
      [
        "Ġsimple",
        -8.571755002272802
      ],
      [
        "Ġgrow",
        -8.572608334865041
      ],
      [
        "Ġnon",
        -8.576606974518807
      ],
      [
        "Ġseem",
        -8.576737337247906
      ],
      [
        "Ġcost",
        -8.577317849993005
      ],
      [
        "Ġapplication",
        -8.577333785592486
      ],
      [
        "Ġlove",
        -8.577465027644873
      ],
      [
        "Ġ=",
        -8.578227054893462
      ],
      [
        "Ġwide",
        -8.57859238846066
      ],
      [
        "Ġaffect",
        -8.57867384763021
      ],
      [
        "Ġlet",
        -8.578907669410043
      ],
      [
        "Ġcontain",
        -8.579119794596544
      ],
      [
        "Ġsystems",
        -8.581292050419371
      ],
      [
        "Ġhand",
        -8.581844035169334
      ],
      [
        "Ġearly",
        -8.5853147071524
      ],
      [
        "ĠThat",
        -8.58611557010614
      ],
      [
        "Ġmeasure",
        -8.590645717630156
      ],
      [
        "Ġgas",
        -8.590699943211016
      ],
      [
        "Ġrole",
        -8.59296030814633
      ],
      [
        "Ġvideo",
        -8.59418662769497
      ],
      [
        "Ġtechnique",
        -8.598574228594845
      ],
      [
        "Ġrate",
        -8.59946549705612
      ],
      [
        "ers",
        -8.60129086709998
      ],
      [
        "ither",
        -8.60297689047581
      ],
      [
        "ĠM",
        -8.603916679087712
      ],
      [
        "Ġeasy",
        -8.604155320437625
      ],
      [
        "Ġdays",
        -8.604181985718364
      ],
      [
        "Ġhigher",
        -8.605018173535244
      ],
      [
        "Ġcheck",
        -8.60884984215287
      ],
      [
        "Ġstrong",
        -8.611307371486824
      ],
      [
        "Ġproper",
        -8.612617733170413
      ],
      [
        "Ġvariet",
        -8.613538703770043
      ],
      [
        "Ġrun",
        -8.61371859129313
      ],
      [
        "Ġpaper",
        -8.613956183923474
      ],
      [
        "Ġsimilar",
        -8.61422233578911
      ],
      [
        "Ġworking",
        -8.615417919619578
      ],
      [
        "Ġproducts",
        -8.615531478811974
      ],
      [
        "Ġsocial",
        -8.61579510934542
      ],
      [
        "Ġproblems",
        -8.62081936450026
      ],
      [
        "Ġloss",
        -8.622214119972263
      ],
      [
        "ĠBy",
        -8.625369852730536
      ],
      [
        "it",
        -8.627017845102287
      ],
      [
        "v",
        -8.627487916000852
      ],
      [
        "Ġdepend",
        -8.628618290585809
      ],
      [
        "Ġtypical",
        -8.629598082021209
      ],
      [
        "Ġcell",
        -8.629658748768644
      ],
      [
        "Ġstep",
        -8.630743548977717
      ],
      [
        "You",
        -8.630829495703473
      ],
      [
        "Ġhealthy",
        -8.632006481493619
      ],
      [
        "ĠE",
        -8.633098702822782
      ],
      [
        "ĠWith",
        -8.634283953074771
      ],
      [
        "Ġfuture",
        -8.634603327190835
      ],
      [
        "Ġpropert",
        -8.640419552746323
      ],
      [
        "Ġprogram",
        -8.641161042196986
      ],
      [
        "Ġcomponent",
        -8.641767617028265
      ],
      [
        "Ġclean",
        -8.642687493799437
      ],
      [
        "Ġnever",
        -8.643509657313242
      ],
      [
        "Ġmove",
        -8.644431103745031
      ],
      [
        "Ġdoesn",
        -8.645465668293637
      ],
      [
        "Ġfar",
        -8.645703573286298
      ],
      [
        "Ġdogs",
        -8.648778980295404
      ],
      [
        "Ġprotect",
        -8.649792043475957
      ],
      [
        "Ġresults",
        -8.649922022661343
      ],
      [
        "Ġtreat",
        -8.649962096640284
      ],
      [
        "Ġmachine",
        -8.651075097642469
      ],
      [
        "Ġphysical",
        -8.652412151021869
      ],
      [
        "Ġbook",
        -8.652630834300066
      ],
      [
        "ĠUniversity",
        -8.653482480664707
      ],
      [
        "Ġturn",
        -8.653586313681775
      ],
      [
        "Ġavoid",
        -8.65453023555126
      ],
      [
        "Ġgiven",
        -8.655662646798417
      ],
      [
        "B",
        -8.659291590845676
      ],
      [
        "Ġissues",
        -8.65948684627772
      ],
      [
        "There",
        -8.65950407778413
      ],
      [
        "Ġtimes",
        -8.660883650601768
      ],
      [
        "Ġbuilding",
        -8.66405898220845
      ],
      [
        "Ġline",
        -8.665538188153835
      ],
      [
        "Ġelement",
        -8.666577544418928
      ],
      [
        "Ġold",
        -8.66832177528882
      ],
      [
        "Ġspeed",
        -8.669487914330762
      ],
      [
        "Ġunique",
        -8.669875146744356
      ],
      [
        "We",
        -8.675176957551171
      ],
      [
        "Ġhead",
        -8.677420309580214
      ],
      [
        "Ġtraining",
        -8.681405942247547
      ],
      [
        "Ġcertain",
        -8.684532944757521
      ],
      [
        "Ġaccording",
        -8.68470793528067
      ],
      [
        "Ġaccess",
        -8.684818859230944
      ],
      [
        "Ġabove",
        -8.684856506881871
      ],
      [
        "ĠSome",
        -8.684955114017136
      ],
      [
        "Ġespecial",
        -8.68523387147967
      ],
      [
        "Ġrecommend",
        -8.690345940078611
      ],
      [
        "Ġproduction",
        -8.691285301382443
      ],
      [
        "Ġdone",
        -8.692044057197869
      ],
      [
        "across",
        -8.694432666950082
      ],
      [
        "Ġchanges",
        -8.701724499027115
      ],
      [
        "To",
        -8.706041408348689
      ],
      [
        "Ġclimate",
        -8.707355309002374
      ],
      [
        "Ġexist",
        -8.710015057906444
      ],
      [
        "ĠYour",
        -8.711392960861291
      ],
      [
        "Ġhim",
        -8.71187683801308
      ],
      [
        ")ĊĊ",
        -8.713189329912339
      ],
      [
        "Ġdetail",
        -8.713614626068148
      ],
      [
        "Ġmakes",
        -8.713955308818928
      ],
      [
        "Ġsingle",
        -8.718256188443682
      ],
      [
        "Ġgrowth",
        -8.720684284379953
      ],
      [
        "Ġscience",
        -8.721071857301466
      ],
      [
        "Ġwhite",
        -8.722870490464384
      ],
      [
        "to",
        -8.72490297388569
      ],
      [
        "Ġregular",
        -8.725267525064316
      ],
      [
        "Ġskin",
        -8.725691922429876
      ],
      [
        "stead",
        -8.726385778288712
      ],
      [
        "Ġdifficult",
        -8.726967258679032
      ],
      [
        "Ġdry",
        -8.730046916493286
      ],
      [
        "ĠNew",
        -8.733529506307388
      ],
      [
        "against",
        -8.734290641348542
      ],
      [
        "Ġheart",
        -8.738222786676832
      ],
      [
        "Ġmarket",
        -8.74103626055027
      ],
      [
        "!ĊĊ",
        -8.741648363099014
      ],
      [
        "Ġfield",
        -8.744401255807919
      ],
      [
        "Ġremove",
        -8.74455960212876
      ],
      [
        "Ġb",
        -8.745429241224885
      ],
      [
        "Ġproduct",
        -8.745713411989687
      ],
      [
        "Ġ[",
        -8.746113411322337
      ],
      [
        "Ġbasic",
        -8.748338442814887
      ],
      [
        "Ġbit",
        -8.750191020691684
      ],
      [
        "ĠNo",
        -8.751873731958526
      ],
      [
        "Ġcontinue",
        -8.753035826740994
      ],
      [
        "Ġsource",
        -8.753277325537923
      ],
      [
        "Ġweek",
        -8.75817715037847
      ],
      [
        "Ġfact",
        -8.760646224060501
      ],
      [
        "Ġoccur",
        -8.76071514419807
      ],
      [
        "Ġpopulation",
        -8.760846091768368
      ],
      [
        "Ġwhe",
        -8.761823256820932
      ],
      [
        "ĠU",
        -8.762641037284526
      ],
      [
        "P",
        -8.764915111607692
      ],
      [
        "Ġbelieve",
        -8.76678712493166
      ],
      [
        "Ġread",
        -8.768400039880852
      ],
      [
        "Ġcontent",
        -8.770359013462723
      ],
      [
        "Ġdeep",
        -8.770498968001732
      ],
      [
        "Ġperformance",
        -8.771695973977732
      ],
      [
        "Ġanimal",
        -8.771896370889458
      ],
      [
        "Ġchemical",
        -8.77414113913953
      ],
      [
        "Ġtoday",
        -8.774804456150058
      ],
      [
        "Ġaddition",
        -8.775890756313437
      ],
      [
        "Ġleft",
        -8.778121838427753
      ],
      [
        "Ġpopular",
        -8.77829451129022
      ],
      [
        "Ġenjoy",
        -8.780164189406815
      ],
      [
        "Ġproduce",
        -8.782500810254884
      ],
      [
        "Ġsafety",
        -8.782575819967132
      ],
      [
        "_",
        -8.783987067014111
      ],
      [
        "Ġobject",
        -8.784193409208715
      ],
      [
        "Ġpatient",
        -8.784743688642516
      ],
      [
        "Ġremain",
        -8.78486353205659
      ],
      [
        "Ġforce",
        -8.785073345579312
      ],
      [
        "Ġred",
        -8.785654752872837
      ],
      [
        "ĠH",
        -8.788428309536364
      ],
      [
        "Ġmedical",
        -8.791004608560058
      ],
      [
        "Ġbring",
        -8.79223401525833
      ],
      [
        "Ġnecessary",
        -8.79348929910666
      ],
      [
        "Ġlimit",
        -8.796356031063649
      ],
      [
        "Ġmatter",
        -8.796517456461542
      ],
      [
        "Ġeffects",
        -8.796547701826025
      ],
      [
        "For",
        -8.804779055999782
      ],
      [
        "Ġdesigned",
        -8.806846011606595
      ],
      [
        "Ġarticle",
        -8.8078294642193
      ],
      [
        "Ġpain",
        -8.808441366960555
      ],
      [
        "Ġground",
        -8.808625071490775
      ],
      [
        "Ġinfection",
        -8.808834096100961
      ],
      [
        "Ġkind",
        -8.810393371959275
      ],
      [
        "Ġnear",
        -8.811306529968686
      ],
      [
        "Ġstore",
        -8.812246728869432
      ],
      [
        ")Ċ",
        -8.814091531270893
      ],
      [
        "Ġfurther",
        -8.814795673322816
      ],
      [
        "Ġskills",
        -8.815883429653852
      ],
      [
        "Ġcomputer",
        -8.816138027098047
      ],
      [
        "Ġchoice",
        -8.816180511223846
      ],
      [
        "E",
        -8.81756395386158
      ],
      [
        "Ġanswer",
        -8.81986701411282
      ],
      [
        "Ġpublic",
        -8.823912075878939
      ],
      [
        "Ġbrain",
        -8.826223192052353
      ],
      [
        "Ġbusiness",
        -8.828884121504649
      ],
      [
        "Ġstandard",
        -8.832539677374701
      ],
      [
        "Ġfour",
        -8.833093286077858
      ],
      [
        "Ġbenefits",
        -8.833521965998932
      ],
      [
        ".\"Ċ",
        -8.836981816847366
      ],
      [
        "F",
        -8.838269741166286
      ],
      [
        "thing",
        -8.839734275477356
      ],
      [
        "Ġsound",
        -8.841028533988437
      ],
      [
        "Ġblack",
        -8.841947958398556
      ],
      [
        "Ġagain",
        -8.844004843329815
      ],
      [
        "Ġpost",
        -8.84427259845226
      ],
      [
        "below",
        -8.846918129630142
      ],
      [
        "Ġquestion",
        -8.848174120376159
      ],
      [
        "Ġsymptom",
        -8.848199998183222
      ],
      [
        "Ġsays",
        -8.848650054816655
      ],
      [
        "Ġeffect",
        -8.848654581694419
      ],
      [
        "Ġhouse",
        -8.85092668730505
      ],
      [
        "Ġrecent",
        -8.85175185289692
      ],
      [
        "Ġstay",
        -8.853062167996168
      ],
      [
        "Ġitem",
        -8.853970867120736
      ],
      [
        "Ġcomplete",
        -8.85585727506301
      ],
      [
        "Ġflow",
        -8.855968338065791
      ],
      [
        "ance",
        -8.856506984510752
      ],
      [
        "Ġvehicle",
        -8.858521693014406
      ],
      [
        "Ġmillion",
        -8.85984382069527
      ],
      [
        "Ġimage",
        -8.860561007780287
      ],
      [
        "Ġregion",
        -8.860957682448166
      ],
      [
        "Ġtree",
        -8.86218598870073
      ],
      [
        "Ġcondition",
        -8.862392766491695
      ],
      [
        "Ġam",
        -8.862752488888233
      ],
      [
        "Ġallows",
        -8.863443934591274
      ],
      [
        "already",
        -8.864586933618565
      ],
      [
        "Ġwhole",
        -8.865251917164185
      ],
      [
        "Ġknowledge",
        -8.865951494410577
      ],
      [
        "Ġposition",
        -8.868152088333634
      ],
      [
        "ĠScot",
        -8.868754041365431
      ],
      [
        "Ġtalk",
        -8.869905375553069
      ],
      [
        "Ġbehavior",
        -8.871749901182865
      ],
      [
        "Ġmean",
        -8.872910702657851
      ],
      [
        "ĠOne",
        -8.875075731554778
      ],
      [
        "Ġways",
        -8.879973286160926
      ],
      [
        "Ġinside",
        -8.880017599691143
      ],
      [
        "Ġseen",
        -8.882980274144591
      ],
      [
        "Ġprice",
        -8.883574523939732
      ],
      [
        "Ġassociate",
        -8.883769228750548
      ],
      [
        "Ġunderstanding",
        -8.88409477860464
      ],
      [
        "Ġsolution",
        -8.886017125614574
      ],
      [
        "Ġcold",
        -8.886913072285708
      ],
      [
        "Ġlonger",
        -8.88759307797498
      ],
      [
        "Ġrequired",
        -8.8900104590515
      ],
      [
        "Ġthough",
        -8.893307800199553
      ],
      [
        "Ġbig",
        -8.893438670828365
      ],
      [
        "Ġhistory",
        -8.894559632017792
      ],
      [
        "Ġcompany",
        -8.89674373629203
      ],
      [
        "once",
        -8.896891574029056
      ],
      [
        "Ġcommunity",
        -8.897232647118791
      ],
      [
        "Ġmajor",
        -8.897544318365373
      ],
      [
        "Ġamong",
        -8.897888821978082
      ],
      [
        "Ġreach",
        -8.897943345865741
      ],
      [
        "Ġmention",
        -8.900334992270606
      ],
      [
        "Ġbuild",
        -8.901040852130965
      ],
      [
        "Ġactiviti",
        -8.901278606936181
      ],
      [
        "Ġissue",
        -8.903914648361503
      ],
      [
        "Ġconcern",
        -8.905492493250598
      ],
      [
        "Ġapproach",
        -8.906426248746243
      ],
      [
        "Ġcomplex",
        -8.906452801708319
      ],
      [
        "M",
        -8.907819793798406
      ],
      [
        "Ġtoward",
        -8.909012289891525
      ],
      [
        "Ġfruit",
        -8.911386274723696
      ],
      [
        "Ġlayer",
        -8.912333821374471
      ],
      [
        "Ġidea",
        -8.913711896514553
      ],
      [
        "Ġprovid",
        -8.913722856069974
      ],
      [
        "Ġsun",
        -8.914004747915621
      ],
      [
        "Ġshare",
        -8.915270501181336
      ],
      [
        "Ġenvironmental",
        -8.91615199323864
      ],
      [
        "ary",
        -8.917173404793445
      ],
      [
        "Ġpractice",
        -8.917377642542533
      ],
      [
        "Ġresearcher",
        -8.918661337145565
      ],
      [
        "ive",
        -8.921074556336288
      ],
      [
        "Ġcorrect",
        -8.921828287658208
      ],
      [
        "Ġonline",
        -8.922406388567651
      ],
      [
        "Ġtask",
        -8.922704847700334
      ],
      [
        "Ġtaking",
        -8.923295995227239
      ],
      [
        "Ġbattery",
        -8.92378463112356
      ],
      [
        "Ġactivity",
        -8.925179980248139
      ],
      [
        "Ġpersonal",
        -8.925588625783572
      ],
      [
        "âĢĵ",
        -8.925924774551472
      ],
      [
        "Ġeasily",
        -8.928521816970047
      ],
      [
        "ous",
        -8.929454506574569
      ],
      [
        "Ġindustry",
        -8.930027448691565
      ],
      [
        "Ġcancer",
        -8.930292567793803
      ],
      [
        "Ġcontact",
        -8.932881326014883
      ],
      [
        "Ġsignal",
        -8.934184242092162
      ],
      [
        "Ġpet",
        -8.934204476703787
      ],
      [
        "Ġmonths",
        -8.937183600471277
      ],
      [
        "Ġhelps",
        -8.938064726509898
      ],
      [
        "Ġminutes",
        -8.938524860898216
      ],
      [
        "Ġperiod",
        -8.939308317807434
      ],
      [
        "ĠOn",
        -8.942237437519857
      ],
      [
        "Ġpurpose",
        -8.942420201490961
      ],
      [
        "Ġgreen",
        -8.94385711218323
      ],
      [
        "Ġeducation",
        -8.944708245056933
      ],
      [
        "Ġperfect",
        -8.948765335254425
      ],
      [
        "Ġappear",
        -8.94976481165699
      ],
      [
        "Ġaction",
        -8.950858861294718
      ],
      [
        "Ġcall",
        -8.950964131302106
      ],
      [
        "Ġbuy",
        -8.952327432847554
      ],
      [
        "Ġopportunit",
        -8.953872843794112
      ],
      [
        "Ġpositive",
        -8.954564430577225
      ],
      [
        "Ġslow",
        -8.956590945643931
      ],
      [
        "Ġsomeone",
        -8.963317995874885
      ],
      [
        "ĠL",
        -8.963781075868901
      ],
      [
        "Ġblock",
        -8.96426763381647
      ],
      [
        "!Ċ",
        -8.966352026534295
      ],
      [
        "ĠR",
        -8.96715303754074
      ],
      [
        "Ġtotal",
        -8.969483730575641
      ],
      [
        "|",
        -8.970350159218928
      ],
      [
        "Ġroom",
        -8.970751523799137
      ],
      [
        "Ġprofessional",
        -8.971460341032898
      ],
      [
        "Ġlanguage",
        -8.97436709483532
      ],
      [
        "Ġprobabl",
        -8.974802282196752
      ],
      [
        "Ġdetermine",
        -8.976094819502869
      ],
      [
        "Ġtravel",
        -8.976592383051386
      ],
      [
        "Ġmoney",
        -8.977758463732199
      ],
      [
        "Ġlink",
        -8.980719426555929
      ],
      [
        "So",
        -8.981444841866338
      ],
      [
        "Ġfall",
        -8.982084262034391
      ],
      [
        "Ġmind",
        -8.982367059925313
      ],
      [
        "Ġfuel",
        -8.983125567311554
      ],
      [
        "Ġface",
        -8.984016868618518
      ],
      [
        "Ġfeatures",
        -8.984574721328547
      ],
      [
        "Ġengine",
        -8.985123986012727
      ],
      [
        "As",
        -8.985561090936894
      ],
      [
        "Ġprotein",
        -8.98709369449018
      ],
      [
        "Ġquickly",
        -8.987350773468723
      ],
      [
        "N",
        -8.989271488367315
      ],
      [
        "Ġdevice",
        -8.993248822040432
      ],
      [
        "Ġetc",
        -8.994153006740369
      ],
      [
        "ĠAmerican",
        -8.9941682446774
      ],
      [
        "-based",
        -8.994332079448832
      ],
      [
        "Ġmethods",
        -8.994471500199115
      ],
      [
        "Ġauthor",
        -8.99592707733993
      ],
      [
        "Ġspecial",
        -8.996354183802232
      ],
      [
        "man",
        -8.996488936230131
      ],
      [
        "Ġnetwork",
        -8.997199001119624
      ],
      [
        "ĠG",
        -8.997241115020621
      ],
      [
        "Ġwinter",
        -8.998292882103412
      ],
      [
        "rather",
        -8.998911717869152
      ],
      [
        "Ġbalance",
        -8.999597880140406
      ],
      [
        "Ġservice",
        -9.000003040581703
      ],
      [
        "Ġcrucial",
        -9.000981819198433
      ],
      [
        "Ġask",
        -9.001416873460897
      ],
      [
        "Ġhalf",
        -9.00252749163025
      ],
      [
        "Ġsetting",
        -9.002784504312725
      ],
      [
        "Ġdoing",
        -9.002827293196876
      ],
      [
        "Ġcook",
        -9.003097720526707
      ],
      [
        "Ġclear",
        -9.005054817247768
      ],
      [
        "Ġlocation",
        -9.00633043901512
      ],
      [
        "Ġyourself",
        -9.007662849696342
      ],
      [
        "Ġgot",
        -9.009207185661412
      ],
      [
        "Ġtools",
        -9.009885528569296
      ],
      [
        "ry",
        -9.010302436170246
      ],
      [
        ">",
        -9.013712195649756
      ],
      [
        "Ġtell",
        -9.014357264630933
      ],
      [
        "Ġnature",
        -9.014515693074346
      ],
      [
        "Ġattention",
        -9.014715207400496
      ],
      [
        "Ġstor",
        -9.015099220606162
      ],
      [
        "Ġrelease",
        -9.015736153449687
      ],
      [
        "Ġoverall",
        -9.015939454053743
      ],
      [
        "Ġliving",
        -9.017131844066505
      ],
      [
        "Ġcut",
        -9.017416393968356
      ],
      [
        "Ġsense",
        -9.018502096664555
      ],
      [
        "Ġguide",
        -9.0185312767368
      ],
      [
        "Ġtool",
        -9.021019855165632
      ],
      [
        "Ġself",
        -9.021451939722192
      ],
      [
        "Ġview",
        -9.023057252510776
      ],
      [
        "Ġgeneral",
        -9.023411665796983
      ],
      [
        "Ġcool",
        -9.023714116534263
      ],
      [
        "Ġever",
        -9.025439249308985
      ],
      [
        "Ġconsidered",
        -9.026788066399767
      ],
      [
        "Ġhowever",
        -9.027216963867684
      ],
      [
        "Ġmix",
        -9.029119312845026
      ],
      [
        "Ġsugar",
        -9.02917881801602
      ],
      [
        "Ġyoung",
        -9.029643959543336
      ],
      [
        "Ġresponse",
        -9.0307560472209
      ],
      [
        "Ġwarm",
        -9.031210851243916
      ],
      [
        "Ġwalk",
        -9.032453838954916
      ],
      [
        "Ġchoose",
        -9.032634694101484
      ],
      [
        "ĠW",
        -9.034900275861196
      ],
      [
        "Ġsuggest",
        -9.035064608434892
      ],
      [
        "Ġthought",
        -9.035064678668505
      ],
      [
        "ĠO",
        -9.035514386847112
      ],
      [
        "Ġfeet",
        -9.036631026066718
      ],
      [
        "Ġwomen",
        -9.037023152291592
      ],
      [
        "Ġquestions",
        -9.037534023796582
      ],
      [
        "Ġseason",
        -9.037557259363863
      ],
      [
        "Ġtraditional",
        -9.041115729489114
      ],
      [
        "Ġpast",
        -9.042221955555458
      ],
      [
        "Ġsituation",
        -9.042384379908682
      ],
      [
        "Ġhot",
        -9.042941083980336
      ],
      [
        "Ġgrowing",
        -9.043050944370393
      ],
      [
        "Ġdescribe",
        -9.044010621735074
      ],
      [
        "ĠMan",
        -9.046527491788115
      ],
      [
        "Ġclass",
        -9.046801631577924
      ],
      [
        "Ġaverage",
        -9.04831312465667
      ],
      [
        "where",
        -9.051757898573465
      ],
      [
        "Ġcreating",
        -9.05195032026128
      ],
      [
        "Ġwaste",
        -9.052195383099756
      ],
      [
        "Ġcarbon",
        -9.052902368574108
      ],
      [
        "ĠN",
        -9.054014397440213
      ],
      [
        "Ġlarger",
        -9.054917837347244
      ],
      [
        "Ġsimply",
        -9.057165673495696
      ],
      [
        "Ġwon",
        -9.058672781041256
      ],
      [
        "Ġdecision",
        -9.059487205703558
      ],
      [
        "Ġhold",
        -9.060255332182011
      ],
      [
        "Ġwood",
        -9.060422024109622
      ],
      [
        "Ġstress",
        -9.06129128325948
      ],
      [
        "Ġpatients",
        -9.06182209876939
      ],
      [
        "Ġwall",
        -9.062789334985576
      ],
      [
        "From",
        -9.065304946883437
      ],
      [
        "R",
        -9.067558756243365
      ],
      [
        "Ġunit",
        -9.067687462894838
      ],
      [
        "Ġadditional",
        -9.070514217301891
      ],
      [
        "Ġtarget",
        -9.07062851455048
      ],
      [
        "ĠV",
        -9.07067122521076
      ],
      [
        "Ġlist",
        -9.071877156111617
      ],
      [
        "[",
        -9.074449802884176
      ],
      [
        "Ġbacteria",
        -9.074627936274435
      ],
      [
        "Ġreading",
        -9.07645161548072
      ],
      [
        "Ġweather",
        -9.077302218082494
      ],
      [
        "Ġprimar",
        -9.077414706763893
      ],
      [
        "Ġreceive",
        -9.07769218222544
      ],
      [
        "Ġde",
        -9.07931838443066
      ],
      [
        "ĠAn",
        -9.080518513485105
      ],
      [
        "Ġshape",
        -9.080749503152605
      ],
      [
        "Ġeffort",
        -9.081117210763288
      ],
      [
        "Ġsite",
        -9.08203010930258
      ],
      [
        "Ġnormal",
        -9.082385407015938
      ],
      [
        "Ġplastic",
        -9.082780870715627
      ],
      [
        "Ġaddress",
        -9.083288876567654
      ],
      [
        "Ġbegin",
        -9.083598906184456
      ],
      [
        "ves",
        -9.083652950757555
      ],
      [
        "Ġre",
        -9.08483212677904
      ],
      [
        "Ġactive",
        -9.086493580386936
      ],
      [
        "Ġbone",
        -9.086799454013992
      ],
      [
        "Ġmetal",
        -9.086884491124842
      ],
      [
        "Ġadult",
        -9.087373150795008
      ],
      [
        "H",
        -9.087553224001017
      ],
      [
        "Ġsea",
        -9.090389127832925
      ],
      [
        "Ġoutside",
        -9.092700210799949
      ],
      [
        "Ġexpert",
        -9.093446196873444
      ],
      [
        "Ġresources",
        -9.09359030785186
      ],
      [
        "Ġenhance",
        -9.093885571561485
      ],
      [
        "Ġcreated",
        -9.094682064211677
      ],
      [
        "yet",
        -9.09542060660304
      ],
      [
        "ĠK",
        -9.09619422133578
      ],
      [
        "Ġhappen",
        -9.098116706414944
      ],
      [
        "Ġsummer",
        -9.09829181119153
      ],
      [
        "Ġhumans",
        -9.098958478272294
      ],
      [
        "Ġglobal",
        -9.102461244292453
      ],
      [
        ").Ċ",
        -9.102558001834698
      ],
      [
        "ĠX",
        -9.10433245860635
      ],
      [
        "Ġstop",
        -9.106688008624015
      ],
      [
        "Ġquite",
        -9.10745704870845
      ],
      [
        "\"ĊĊ",
        -9.107572645584716
      ],
      [
        "Ġplayer",
        -9.107645181922647
      ],
      [
        "Ġrelationship",
        -9.107671055710968
      ],
      [
        "Ġcharge",
        -9.109333729458491
      ],
      [
        "ĠDo",
        -9.112276063671594
      ],
      [
        "Ġidentify",
        -9.11670073918392
      ],
      [
        "Ġisn",
        -9.118082330339789
      ],
      [
        "li",
        -9.119257002334075
      ],
      [
        "Ġeyes",
        -9.119323243139757
      ],
      [
        "Ġsometime",
        -9.119389499733398
      ],
      [
        "cannot",
        -9.120072921009244
      ],
      [
        "Ġevent",
        -9.12114087916709
      ],
      [
        "Ġmovement",
        -9.121262439964926
      ],
      [
        "Ġrelative",
        -9.121565273949551
      ],
      [
        "Ġbreak",
        -9.121653272051724
      ],
      [
        "Ġincreasing",
        -9.122167250839652
      ],
      [
        "Ġextreme",
        -9.124505310634197
      ],
      [
        "ok",
        -9.124573346465358
      ],
      [
        "L",
        -9.124812693301088
      ],
      [
        "ĠAll",
        -9.126994639373637
      ],
      [
        "Ġefficient",
        -9.127009860368704
      ],
      [
        "Ġact",
        -9.12720543664062
      ],
      [
        "Ġfast",
        -9.127667376315866
      ],
      [
        "Ġpay",
        -9.128438656558291
      ],
      [
        "Ġsoftware",
        -9.129388198552006
      ],
      [
        "Ġreport",
        -9.129902069697089
      ],
      [
        "Why",
        -9.130989796345252
      ],
      [
        "Ġteeth",
        -9.131750368361793
      ],
      [
        "Ġaccount",
        -9.131989544329183
      ],
      [
        "Ġexplain",
        -9.135604797172595
      ],
      [
        "Ġstudent",
        -9.136238774389554
      ],
      [
        "ĠHere",
        -9.136293497876323
      ],
      [
        "Ġsection",
        -9.136365805895174
      ],
      [
        "Ġrepresent",
        -9.136984535255774
      ],
      [
        "Ġstage",
        -9.137384886719088
      ],
      [
        "Ġexact",
        -9.137436327437763
      ],
      [
        "Ġfinal",
        -9.138436380442364
      ],
      [
        "Ġsubject",
        -9.140985519799116
      ],
      [
        "Ġgain",
        -9.141490474886393
      ],
      [
        "Ġcountry",
        -9.141819906995412
      ],
      [
        "Ġregard",
        -9.142048072852385
      ],
      [
        "Ġpercent",
        -9.142104239660275
      ],
      [
        ".\"",
        -9.143059510524818
      ],
      [
        "Ġreturn",
        -9.14457185085373
      ],
      [
        "Ġprevious",
        -9.144646903408614
      ],
      [
        "One",
        -9.145501558122358
      ],
      [
        "Ġlength",
        -9.145782616559336
      ],
      [
        "Ġapply",
        -9.147296310209278
      ],
      [
        "Ġexplore",
        -9.147586213919414
      ],
      [
        "ĠNational",
        -9.148567346285752
      ],
      [
        "Ġlater",
        -9.149551478317022
      ],
      [
        "Ġrelated",
        -9.150473417547158
      ],
      [
        "Ġanything",
        -9.151355166183452
      ],
      [
        "Ġtaken",
        -9.151728737696535
      ],
      [
        "ĠAI",
        -9.15219188247326
      ],
      [
        "Ġpre",
        -9.15303342589381
      ],
      [
        "Ġalmost",
        -9.15521430075822
      ],
      [
        "United",
        -9.155711462892352
      ],
      [
        "Ġcode",
        -9.157026261281857
      ],
      [
        "Ġwebsite",
        -9.15963078161552
      ],
      [
        "Ġsensor",
        -9.161534508563957
      ],
      [
        "Ġbad",
        -9.163235629649954
      ],
      [
        "ĠAt",
        -9.163598300203066
      ],
      [
        "Ġgenerate",
        -9.16419381592302
      ],
      [
        "Ġbehind",
        -9.164408837559384
      ],
      [
        "Ġdaily",
        -9.164653069214696
      ],
      [
        "Ġart",
        -9.165073545379038
      ],
      [
        "Ġland",
        -9.167131311979391
      ],
      [
        "Ġstudies",
        -9.167475394369228
      ],
      [
        "Ġoriginal",
        -9.168344181229196
      ],
      [
        "Ġelectric",
        -9.16856730279805
      ],
      [
        "Ġbird",
        -9.1686828394959
      ],
      [
        "Ġdark",
        -9.169950171723457
      ],
      [
        "Ġincludes",
        -9.170029517356152
      ],
      [
        "Ġbirds",
        -9.170975593533814
      ],
      [
        "Ġcustomer",
        -9.17492193149094
      ],
      [
        "Ġgenerally",
        -9.175407226020006
      ],
      [
        "Ġwords",
        -9.17797060767707
      ],
      [
        "Ġmass",
        -9.178003655022623
      ],
      [
        "Ġtissue",
        -9.178044492911642
      ],
      [
        "G",
        -9.178323564542906
      ],
      [
        "Ġfive",
        -9.178788965247596
      ],
      [
        "Ġnight",
        -9.180673010826723
      ],
      [
        "Ġadvantage",
        -9.181441440832124
      ],
      [
        "Ġservices",
        -9.182230883932036
      ],
      [
        "Ġdevices",
        -9.18421873489763
      ],
      [
        "O",
        -9.184816197928477
      ],
      [
        "Ġhear",
        -9.186183119499963
      ],
      [
        "Ġsleep",
        -9.187206545819242
      ],
      [
        "Ġeasie",
        -9.187255865960829
      ],
      [
        "Ġvegetable",
        -9.188192521272658
      ],
      [
        "Ġshows",
        -9.1909953137846
      ],
      [
        "Ġmultiple",
        -9.192125372455871
      ],
      [
        "Ġcommunication",
        -9.193154296380817
      ],
      [
        "Ġmodern",
        -9.194650908912587
      ],
      [
        "Ġtrue",
        -9.194691771148138
      ],
      [
        "Ġsave",
        -9.196655929071657
      ],
      [
        "Ġjob",
        -9.1966914831237
      ],
      [
        "Ġscientists",
        -9.19744019007682
      ],
      [
        "Ġtrees",
        -9.201692409043666
      ],
      [
        "K",
        -9.203132671893176
      ],
      [
        "ĠUse",
        -9.2044668677282
      ],
      [
        "Ġinvolve",
        -9.20521292900742
      ],
      [
        "Ġice",
        -9.206175439301582
      ],
      [
        "Ġstarted",
        -9.2065624299425
      ],
      [
        "z",
        -9.207724566773416
      ],
      [
        "Ġanalysis",
        -9.208051018269543
      ],
      [
        "âĢ¦",
        -9.20937050445222
      ],
      [
        "Ġreaction",
        -9.210890445485648
      ],
      [
        "Ġsupply",
        -9.212548499407518
      ],
      [
        "Ġsample",
        -9.21280187108163
      ],
      [
        "+",
        -9.213164723842302
      ],
      [
        "Ġequipment",
        -9.213731217944105
      ],
      [
        "Ġconcept",
        -9.214952265298134
      ],
      [
        "Ġgenetic",
        -9.216460699853908
      ],
      [
        "Ġexperiment",
        -9.217346389681325
      ],
      [
        "Ġcompare",
        -9.217520564918882
      ],
      [
        "Ġbase",
        -9.219216952501569
      ],
      [
        "Ġacid",
        -9.219520201326189
      ],
      [
        "Ġserve",
        -9.220679100144594
      ],
      [
        "Ġrest",
        -9.222321644282667
      ],
      [
        "Ġvisit",
        -9.223838662518222
      ],
      [
        "Ġspread",
        -9.225649011490251
      ],
      [
        "Ġentire",
        -9.22932346340912
      ],
      [
        "Ġdigital",
        -9.229530881000104
      ],
      [
        "ĠCan",
        -9.2300904488854
      ],
      [
        "Ġfront",
        -9.23025543289592
      ],
      [
        "Ġappropriate",
        -9.230696541920262
      ],
      [
        "Ġshown",
        -9.230784966314507
      ],
      [
        "Ġbenefit",
        -9.231973224400948
      ],
      [
        "Ġreview",
        -9.233348265031063
      ],
      [
        "Ġdiscuss",
        -9.234184342763632
      ],
      [
        "Ġinjur",
        -9.235656405052085
      ],
      [
        "ĠAfter",
        -9.236311991782651
      ],
      [
        "Ġdirectly",
        -9.23777660284314
      ],
      [
        "Ġago",
        -9.237904084872138
      ],
      [
        "Ġdrive",
        -9.238907655244104
      ],
      [
        "ul",
        -9.240501132458784
      ],
      [
        "Ġflavor",
        -9.240990282149856
      ],
      [
        "W",
        -9.242998983871429
      ],
      [
        "Ġsolar",
        -9.244234990624268
      ],
      [
        "Ġinterest",
        -9.245175972844123
      ],
      [
        "Ġkid",
        -9.24529342838884
      ],
      [
        "Ġdiscover",
        -9.246030199519142
      ],
      [
        "wise",
        -9.24799447903512
      ],
      [
        "ĠHealth",
        -9.2484421297274
      ],
      [
        "Ġnegative",
        -9.25058194959714
      ],
      [
        "Ġevents",
        -9.251071707450134
      ],
      [
        "Ġsteps",
        -9.253078083764956
      ],
      [
        "Ġachieve",
        -9.253968564282784
      ],
      [
        "Ġconstant",
        -9.253983482716372
      ],
      [
        "Ġelectrical",
        -9.25553443178458
      ],
      [
        "Ġextra",
        -9.255540940701463
      ],
      [
        "ish",
        -9.255844829979706
      ],
      [
        "Ġfun",
        -9.25720389207014
      ],
      [
        "Ġfriend",
        -9.257745399768218
      ],
      [
        "ĠShe",
        -9.258832208828432
      ],
      [
        "Ġfemale",
        -9.259644946539366
      ],
      [
        "Ġthemsel",
        -9.26074389968337
      ],
      [
        "Ġaspect",
        -9.264103774709572
      ],
      [
        "Ġingredient",
        -9.264347769915352
      ],
      [
        "Ġexercise",
        -9.264597870081651
      ],
      [
        "ful",
        -9.265862847190416
      ],
      [
        "Ġaware",
        -9.267031412505606
      ],
      [
        "Ġrunn",
        -9.267528209983272
      ],
      [
        "Ġcentur",
        -9.268537864346024
      ],
      [
        "Ġadded",
        -9.26897312787798
      ],
      [
        "V",
        -9.270019910144814
      ],
      [
        "Ġseeds",
        -9.27035338539389
      ],
      [
        "Ġenter",
        -9.27145636120706
      ],
      [
        "Ġdirection",
        -9.27371188291404
      ],
      [
        "Ġfinding",
        -9.273997498890472
      ],
      [
        "Ġtopic",
        -9.278211816627966
      ],
      [
        "Ġcover",
        -9.27936352093603
      ],
      [
        "Ġchance",
        -9.28004703429546
      ],
      [
        "by",
        -9.281909862110917
      ],
      [
        "ese",
        -9.282706815145216
      ],
      [
        "Ġuseful",
        -9.282915339131922
      ],
      [
        "Ġpiece",
        -9.28353262358344
      ],
      [
        "Ġdirect",
        -9.286498528883024
      ],
      [
        "Ġcenter",
        -9.286810967806591
      ],
      [
        "Ġmeat",
        -9.288040751295132
      ],
      [
        "Ġmonth",
        -9.290085601184138
      ],
      [
        "Ġcaus",
        -9.290157715832535
      ],
      [
        "Ġimmediate",
        -9.290226474402983
      ],
      [
        "Ġeveryone",
        -9.292099614032855
      ],
      [
        "ĠEarth",
        -9.29222162169671
      ],
      [
        "Ġword",
        -9.292739333466152
      ],
      [
        "Ġeggs",
        -9.294357930241146
      ],
      [
        "ĠStates",
        -9.29608395436006
      ],
      [
        "Ġelse",
        -9.297374386914129
      ],
      [
        "-to",
        -9.299990781912168
      ],
      [
        "Ġfly",
        -9.300329293528026
      ],
      [
        "Ġnotice",
        -9.3012209269336
      ],
      [
        "Ġglass",
        -9.301365740952953
      ],
      [
        "Ġfresh",
        -9.30190573731139
      ],
      [
        "ĠDr",
        -9.302754619668168
      ],
      [
        "Ġconnection",
        -9.30294959279336
      ],
      [
        "Ġparents",
        -9.30301440348404
      ],
      [
        "Ġrequirement",
        -9.303466342573088
      ],
      [
        "Ġreduc",
        -9.304405425959764
      ],
      [
        "Ġspring",
        -9.306347512138656
      ],
      [
        "Ġgames",
        -9.306751590686924
      ],
      [
        "Ġfeeling",
        -9.3077450339178
      ],
      [
        "Ġstyle",
        -9.307746517805937
      ],
      [
        "Ġtips",
        -9.30935033817639
      ],
      [
        "ism",
        -9.311671458292556
      ],
      [
        "Ġcamera",
        -9.311804159016749
      ],
      [
        "Ġorganization",
        -9.313941047781336
      ],
      [
        "Ġgroups",
        -9.314638355110882
      ],
      [
        "Ġtable",
        -9.3164479781451
      ],
      [
        "Ġmeet",
        -9.318264182257913
      ],
      [
        "Ġcycle",
        -9.318282341468116
      ],
      [
        "ĠBe",
        -9.321330659335008
      ],
      [
        "Ġtend",
        -9.322351502555428
      ],
      [
        "Ġmeal",
        -9.324008884081245
      ],
      [
        "Ġleg",
        -9.32617309243895
      ],
      [
        "Ġconnect",
        -9.327133735138007
      ],
      [
        "Ġproduced",
        -9.330002562030767
      ],
      [
        "Ġdidn",
        -9.33107668332102
      ],
      [
        "Ġindicate",
        -9.331169579943484
      ],
      [
        "Ġfoods",
        -9.331488347694748
      ],
      [
        "Ġmental",
        -9.332412977097114
      ],
      [
        "Ġcontribute",
        -9.332808764176214
      ],
      [
        "Ġorganic",
        -9.333463453687097
      ],
      [
        "moving",
        -9.334352340413744
      ],
      [
        "Ġstory",
        -9.335736366211956
      ],
      [
        "But",
        -9.33847423767173
      ],
      [
        "Ġwear",
        -9.339993409838383
      ],
      [
        "Ġinstruction",
        -9.340514002970997
      ],
      [
        "Ġball",
        -9.340931650189788
      ],
      [
        "Ġmoment",
        -9.34295257395088
      ],
      [
        "Ġparticle",
        -9.346532076171712
      ],
      [
        "Ġdoctor",
        -9.347154830964088
      ],
      [
        "Ġweeks",
        -9.348289274536176
      ],
      [
        "Ġfit",
        -9.348707527727296
      ],
      [
        "Ġmedia",
        -9.349591417771254
      ],
      [
        "Ġinitial",
        -9.350519570477513
      ],
      [
        "Another",
        -9.350685776791249
      ],
      [
        "ch",
        -9.35177507654143
      ],
      [
        "Ġready",
        -9.352029922383094
      ],
      [
        "Ġscale",
        -9.352051374911907
      ],
      [
        "Ġgovernment",
        -9.354593864706535
      ],
      [
        "Ġal",
        -9.356727326519843
      ],
      [
        "Ġcritical",
        -9.356992139698502
      ],
      [
        "Ġtrack",
        -9.357335719930788
      ],
      [
        "Ġfrequent",
        -9.35968229665748
      ],
      [
        "Ġprotection",
        -9.360731012223404
      ],
      [
        "Ġgoal",
        -9.360901300278009
      ],
      [
        "Ġculture",
        -9.362340865913676
      ],
      [
        "Ġinfluence",
        -9.3623872356648
      ],
      [
        "Ġfine",
        -9.3627829601684
      ],
      [
        "Ġsuitable",
        -9.362868430724202
      ],
      [
        "ĠNorth",
        -9.362971398922388
      ],
      [
        "Ġwatch",
        -9.362998335686878
      ],
      [
        "ĠYes",
        -9.363505329071934
      ],
      [
        "Ġserie",
        -9.363909704845469
      ],
      [
        "Ġtesting",
        -9.365768434387457
      ],
      [
        "Ġworks",
        -9.366178315039024
      ],
      [
        "Ġcount",
        -9.36689301720218
      ],
      [
        "Ġpage",
        -9.367230465726555
      ],
      [
        "Ġoutput",
        -9.368173437035052
      ],
      [
        "Ġnote",
        -9.370602646117169
      ],
      [
        "Ġsalt",
        -9.370903957301817
      ],
      [
        "ĠâĢľ",
        -9.370910091105188
      ],
      [
        "Ġflowers",
        -9.371139574354451
      ],
      [
        "care",
        -9.372900149269531
      ],
      [
        "mm",
        -9.373705809933718
      ],
      [
        "Ġmilk",
        -9.37451722866533
      ],
      [
        "Ġremember",
        -9.374586384932252
      ],
      [
        "Ġspend",
        -9.375080727003766
      ],
      [
        "Ġresistance",
        -9.37521947567324
      ],
      [
        "Ġbreed",
        -9.375323072871002
      ],
      [
        "Ġdate",
        -9.375499972783873
      ],
      [
        "Ġevidence",
        -9.376283093814838
      ],
      [
        "Ġvisual",
        -9.376792250111034
      ],
      [
        "ĠMore",
        -9.378636532049264
      ],
      [
        "Ġefficiency",
        -9.379386642533998
      ],
      [
        "Ġalternative",
        -9.380248020762645
      ],
      [
        "Ġclaim",
        -9.38225800513212
      ],
      [
        "Ġstrength",
        -9.383346421852814
      ],
      [
        "Ġhearing",
        -9.38351355075605
      ],
      [
        "Ġtouch",
        -9.385095868656574
      ],
      [
        "Ġedge",
        -9.386880229766955
      ],
      [
        "Ġdistance",
        -9.386952224744729
      ],
      [
        "Ġcompletely",
        -9.38703751600611
      ],
      [
        "pretty",
        -9.388640940141428
      ],
      [
        "ĠMost",
        -9.388902992112437
      ],
      [
        "Ġinput",
        -9.389201527030243
      ],
      [
        "Ġkill",
        -9.389921265680416
      ],
      [
        "Ġco",
        -9.390278433292458
      ],
      [
        "Ġrare",
        -9.390541672992734
      ],
      [
        "Ġseparate",
        -9.39228500198784
      ],
      [
        "Ġseek",
        -9.39267064985274
      ],
      [
        "Ġfiber",
        -9.3929942047477
      ],
      [
        "Can",
        -9.393054453963051
      ],
      [
        "Ġlack",
        -9.393690120669136
      ],
      [
        "Ġideal",
        -9.39444141358386
      ],
      [
        "Ġworth",
        -9.394695483865144
      ],
      [
        "Ġfire",
        -9.396493768032531
      ],
      [
        "Ġcrop",
        -9.396639683286857
      ],
      [
        "Ġliquid",
        -9.398859495863755
      ],
      [
        "if",
        -9.399004840851942
      ],
      [
        "Ġfeed",
        -9.399216059140969
      ],
      [
        "ĠScience",
        -9.400056965448254
      ],
      [
        "Ġgreater",
        -9.40014425700351
      ],
      [
        "Ġvoltage",
        -9.400549081735818
      ],
      [
        "Ġwind",
        -9.400551739339164
      ],
      [
        "Ġcarry",
        -9.401630203055184
      ],
      [
        "Ġdrink",
        -9.402972933363412
      ],
      [
        "Ġaim",
        -9.4031249151349
      ],
      [
        "ĠJ",
        -9.40351169731838
      ],
      [
        "Ġequal",
        -9.403522084654004
      ],
      [
        "Ġcircuit",
        -9.40549792311042
      ],
      [
        "ar",
        -9.405713648314311
      ],
      [
        "Ġrepair",
        -9.405747383373988
      ],
      [
        "Ġcountr",
        -9.406787991441307
      ],
      [
        "Ġselect",
        -9.407062494892887
      ],
      [
        "Ġmemory",
        -9.407434831334747
      ],
      [
        "Ġscientific",
        -9.407922117635591
      ],
      [
        "ĠMy",
        -9.408029069819268
      ],
      [
        "ĠSchool",
        -9.409418307977228
      ],
      [
        "Ġcapacit",
        -9.410539154765704
      ],
      [
        "Ġdeath",
        -9.410959356614663
      ],
      [
        "ier",
        -9.412141451060318
      ],
      [
        "Ġdemand",
        -9.412870748747626
      ],
      [
        ".S",
        -9.413308778098202
      ],
      [
        "Ġdetect",
        -9.41437809858444
      ],
      [
        "These",
        -9.414913807928896
      ],
      [
        "Step",
        -9.415421356142025
      ],
      [
        "Ġmale",
        -9.415759208680347
      ],
      [
        "Ġgoe",
        -9.415835109060092
      ],
      [
        "Ġfat",
        -9.41607626711676
      ],
      [
        "gan",
        -9.416178677831862
      ],
      [
        "ĠDNA",
        -9.419124570973391
      ],
      [
        "companie",
        -9.42000418211948
      ],
      [
        "=",
        -9.42052802832859
      ],
      [
        "Ġbag",
        -9.421584905184137
      ],
      [
        "Ġcareful",
        -9.422066850769143
      ],
      [
        "Ġtaste",
        -9.422350939542472
      ],
      [
        "ĠUS",
        -9.422699616218198
      ],
      [
        "Ġhope",
        -9.42382782995163
      ],
      [
        "ever",
        -9.424571729773616
      ],
      [
        "Ġperform",
        -9.425157153575023
      ],
      [
        "Ġforest",
        -9.425429053683391
      ],
      [
        "Ġload",
        -9.426534024835387
      ],
      [
        "Ġmuscle",
        -9.426878832664825
      ],
      [
        "Ġreplace",
        -9.427185246160091
      ],
      [
        "Ġwave",
        -9.428679088891345
      ],
      [
        "Ġflight",
        -9.428738265267926
      ],
      [
        "Ġman",
        -9.428987893156917
      ],
      [
        "ĠThen",
        -9.42922740117845
      ],
      [
        "Ġear",
        -9.430257459551932
      ],
      [
        "Ġobtain",
        -9.43077839406195
      ],
      [
        "Ġsix",
        -9.430785713533036
      ],
      [
        "Ġlate",
        -9.430827277601416
      ],
      [
        "Ġinstall",
        -9.431403455095008
      ],
      [
        "Ġattack",
        -9.432578877843977
      ],
      [
        "Ġsearch",
        -9.434196712718048
      ],
      [
        "Each",
        -9.435097568946116
      ],
      [
        "Ġconstruction",
        -9.436836152648464
      ],
      [
        "Ġhair",
        -9.437356816476438
      ],
      [
        "Ġprocesses",
        -9.438957381726096
      ],
      [
        "Ġjourney",
        -9.439590962728174
      ],
      [
        "Ġhabitat",
        -9.44016146663794
      ],
      [
        "Ġblue",
        -9.44019593201175
      ],
      [
        "Ġfeature",
        -9.440654705996298
      ],
      [
        "Ġcleaning",
        -9.440734382029934
      ],
      [
        "Ġmembers",
        -9.44252342061088
      ],
      [
        "Ġpattern",
        -9.446297575880353
      ],
      [
        "ĠAmerica",
        -9.448009928166496
      ],
      [
        "Ġpoints",
        -9.448117896922708
      ],
      [
        "Ġmusic",
        -9.448634649545028
      ],
      [
        "Ġbaby",
        -9.452339686250742
      ],
      [
        "tic",
        -9.452710103609505
      ],
      [
        "Using",
        -9.45331578730352
      ],
      [
        "ĠOf",
        -9.455849030729716
      ],
      [
        "Ġcouple",
        -9.456492649750436
      ],
      [
        "Ġslight",
        -9.457463351808473
      ],
      [
        "Ġsuccess",
        -9.459458596896592
      ],
      [
        "Ġbuilt",
        -9.460846851475146
      ],
      [
        "Ġengineer",
        -9.464168782955996
      ],
      [
        "Ġfile",
        -9.464953939626142
      ],
      [
        "Ġtank",
        -9.465479355579426
      ],
      [
        "Ġwire",
        -9.46620025560421
      ],
      [
        "Ġimportance",
        -9.467530080078513
      ],
      [
        "ĠWorld",
        -9.469927756427328
      ],
      [
        "Ġlives",
        -9.47150290485044
      ],
      [
        "Ġpass",
        -9.472490835853366
      ],
      [
        "Ġpromote",
        -9.474272393079096
      ],
      [
        "maintenance",
        -9.474689055073112
      ],
      [
        "Ġrich",
        -9.474693773068038
      ],
      [
        "over",
        -9.47496956708044
      ],
      [
        "Ġsevere",
        -9.475110969029132
      ],
      [
        "Ġcombination",
        -9.475772985140171
      ],
      [
        "Ġensur",
        -9.475787072480845
      ],
      [
        "Ġpair",
        -9.478952810115551
      ],
      [
        "ization",
        -9.480479968838669
      ],
      [
        "Ġcutting",
        -9.481265787733228
      ],
      [
        "By",
        -9.481437260697104
      ],
      [
        "Ġdefine",
        -9.483126529086158
      ],
      [
        "ĠWhy",
        -9.483598376868658
      ],
      [
        "With",
        -9.484368010258654
      ],
      [
        "Ġpatterns",
        -9.48664585488011
      ],
      [
        "Ġcosts",
        -9.487019822108156
      ],
      [
        "Ġpublished",
        -9.487847387232
      ],
      [
        "Ġcolors",
        -9.489063245408836
      ],
      [
        "ship",
        -9.489111415318058
      ],
      [
        "Ġinstance",
        -9.489709395015666
      ],
      [
        "Ġdeal",
        -9.494249067513463
      ],
      [
        "Ġsoon",
        -9.495489441659528
      ],
      [
        "Ġoxygen",
        -9.496038014703336
      ],
      [
        "Ġapplied",
        -9.496550114168862
      ],
      [
        "Ġbottom",
        -9.497557944933464
      ],
      [
        "ĠRe",
        -9.497721090058334
      ],
      [
        "Ġlines",
        -9.49813234164072
      ],
      [
        "Ġvary",
        -9.498562991223835
      ],
      [
        "ĠResearch",
        -9.498902222256676
      ],
      [
        "Do",
        -9.499309594849128
      ],
      [
        "An",
        -9.49939250699273
      ],
      [
        "Ġsources",
        -9.499545746165516
      ],
      [
        "Ġgene",
        -9.499605581247486
      ],
      [
        "Ġsoft",
        -9.49976189002013
      ],
      [
        "Ġimages",
        -9.500735531301691
      ],
      [
        "ĠAre",
        -9.501310855384553
      ],
      [
        "Ġpull",
        -9.501616277298352
      ],
      [
        "Ġ+",
        -9.50319736043571
      ],
      [
        "Ġforward",
        -9.504084639356094
      ],
      [
        "Ġthird",
        -9.505619102904667
      ],
      [
        "Ġrecord",
        -9.506748011218852
      ],
      [
        "Ġsigns",
        -9.508552017958891
      ],
      [
        "Ġfluid",
        -9.508942870552673
      ],
      [
        "-up",
        -9.50961446675676
      ],
      [
        "Ġvision",
        -9.51080030822125
      ],
      [
        "giving",
        -9.511610230193238
      ],
      [
        "Ġdraw",
        -9.511829106542123
      ],
      [
        "Y",
        -9.511869015239132
      ],
      [
        "Ġupon",
        -9.5122732909229
      ],
      [
        "bility",
        -9.51264814394244
      ],
      [
        "Ġresponsibl",
        -9.513202284028866
      ],
      [
        "Ġsmooth",
        -9.513463632532892
      ],
      [
        "of",
        -9.51391764760324
      ],
      [
        "Ġtemperatures",
        -9.514000634791504
      ],
      [
        "Ġfinish",
        -9.515953362856877
      ],
      [
        "therapy",
        -9.51683440639655
      ],
      [
        "light",
        -9.517913744053413
      ],
      [
        "Ġnothing",
        -9.518620746502744
      ],
      [
        "âĢ¢",
        -9.520123875533317
      ],
      [
        "Ġprint",
        -9.52089222447696
      ],
      [
        "Ġsort",
        -9.522046915139905
      ],
      [
        "Ġadjust",
        -9.52253193832027
      ],
      [
        "Ġapp",
        -9.52278465826069
      ],
      [
        "Ġroot",
        -9.523395164860537
      ],
      [
        "Ġaccurate",
        -9.523428403419338
      ],
      [
        "Ġteaching",
        -9.524009147632777
      ],
      [
        "ĠAdditional",
        -9.524464951176874
      ],
      [
        "Ġtrain",
        -9.524500196696966
      ],
      [
        "Ġpowerful",
        -9.524706231551336
      ],
      [
        "ĠSouth",
        -9.524734936769956
      ],
      [
        "Ġchallenges",
        -9.525047224403115
      ],
      [
        "Ġyellow",
        -9.52645904089459
      ],
      [
        "Ġsuccessful",
        -9.53075023689894
      ],
      [
        "Some",
        -9.53105770047596
      ],
      [
        "Ġhost",
        -9.532006384817208
      ],
      [
        "Ġdecrease",
        -9.533248491739068
      ],
      [
        "Ġconsist",
        -9.53383402954744
      ],
      [
        "Ġwild",
        -9.534332624637074
      ],
      [
        "Ġlesson",
        -9.536094114535848
      ],
      [
        "Ġstem",
        -9.538477950903676
      ],
      [
        "Ġmotor",
        -9.538492385295129
      ],
      [
        "Ġmedication",
        -9.538717037134056
      ],
      [
        "Ġinteraction",
        -9.5390694375968
      ],
      [
        "Ġhit",
        -9.539274819737413
      ],
      [
        "Ġboard",
        -9.539476170360697
      ],
      [
        "Ġbox",
        -9.54059193908629
      ],
      [
        "ĠNot",
        -9.541371688970864
      ],
      [
        "Ġmulti",
        -9.54152248546863
      ],
      [
        "Ġrecover",
        -9.5421671339434
      ],
      [
        "Ġ#",
        -9.542276882491665
      ],
      [
        "Ġcame",
        -9.545254590695972
      ],
      [
        "Ġfoot",
        -9.54542936315728
      ],
      [
        "Ġphone",
        -9.545676911673322
      ],
      [
        "Ġvia",
        -9.545844701024713
      ],
      [
        "Ġphotograph",
        -9.546458887229935
      ],
      [
        "Ġbeautiful",
        -9.546620457353807
      ],
      [
        "Ġfriends",
        -9.547901458158664
      ],
      [
        "Q",
        -9.548404837126792
      ],
      [
        "ities",
        -9.54880764551467
      ],
      [
        "Ġinvolves",
        -9.551943167582852
      ],
      [
        "On",
        -9.552745240758654
      ],
      [
        "ĠOur",
        -9.555108058577025
      ],
      [
        ".com",
        -9.555350104223784
      ],
      [
        "Ġpick",
        -9.555700730128285
      ],
      [
        "Ġrapid",
        -9.55831757608439
      ],
      [
        "Ġprograms",
        -9.55833965140538
      ],
      [
        "Ġhands",
        -9.560616390182606
      ],
      [
        "Ġpicture",
        -9.56202211572444
      ],
      [
        "Ġmeaning",
        -9.56229615085342
      ],
      [
        "Ġrefer",
        -9.562587355614223
      ],
      [
        "Ġfloor",
        -9.562595731156872
      ],
      [
        "Ġcap",
        -9.563743715925437
      ],
      [
        "ĠWho",
        -9.56485001240613
      ],
      [
        "Ġdeliver",
        -9.567320775064433
      ],
      [
        "Ġenable",
        -9.567667539133463
      ],
      [
        "Ġplatform",
        -9.567973311513985
      ],
      [
        "Ġmouth",
        -9.568718857724946
      ],
      [
        "Ġversion",
        -9.56966189250687
      ],
      [
        "Ġvolume",
        -9.56988654809443
      ],
      [
        "Ġpoor",
        -9.571155807121531
      ],
      [
        "Ġwriting",
        -9.57116189879353
      ],
      [
        "><",
        -9.571189250967311
      ],
      [
        "Ġimmune",
        -9.571934326973622
      ],
      [
        "Ġpath",
        -9.572297614041895
      ],
      [
        "Ġthinking",
        -9.574866974347303
      ],
      [
        "Ġpurchase",
        -9.576220101363692
      ],
      [
        "therefore",
        -9.576973147878723
      ],
      [
        "Ġbrand",
        -9.577117230022695
      ],
      [
        "Ġadapt",
        -9.577141357985276
      ],
      [
        "Ġserious",
        -9.577976377632226
      ],
      [
        "Ġnative",
        -9.578199229449105
      ],
      [
        "Ġideas",
        -9.579520901549303
      ],
      [
        "Ġquick",
        -9.581373728853016
      ],
      [
        "Ġmanufacturer",
        -9.581426162841222
      ],
      [
        "Ġflower",
        -9.582567828138384
      ],
      [
        "line",
        -9.582842601820714
      ],
      [
        "cy",
        -9.58337385781028
      ],
      [
        "Ġfaster",
        -9.585994774415294
      ],
      [
        "Ġsecurity",
        -9.58659220334162
      ],
      [
        "Ġstand",
        -9.58735818947364
      ],
      [
        "$",
        -9.58769035266726
      ],
      [
        "time",
        -9.58877588380652
      ],
      [
        "co",
        -9.589206362541043
      ],
      [
        "Ġwrong",
        -9.589424787800857
      ],
      [
        "Ġanyone",
        -9.589843107865695
      ],
      [
        "Ġhorse",
        -9.591065415353707
      ],
      [
        "Ġtrip",
        -9.593014069062606
      ],
      [
        "Ġadvanced",
        -9.59440620063376
      ],
      [
        "ĠAls",
        -9.594682664573217
      ],
      [
        "ĠCalifornia",
        -9.594788394754335
      ],
      [
        "Ġinteresting",
        -9.594975377357546
      ],
      [
        "Ġcity",
        -9.595751424245243
      ],
      [
        "Ġsend",
        -9.595859412658964
      ],
      [
        "Ġpieces",
        -9.5980614294548
      ],
      [
        "Ġdegrees",
        -9.598879935044472
      ],
      [
        "They",
        -9.599618032850248
      ],
      [
        "Ġprojects",
        -9.60042659880968
      ],
      [
        "Ġwrite",
        -9.60064741538922
      ],
      [
        "Ġearth",
        -9.601511304137077
      ],
      [
        "Ġhandle",
        -9.60154056954118
      ],
      [
        "Ġexcellent",
        -9.601853902890534
      ],
      [
        "Ġnutrients",
        -9.602155651032874
      ],
      [
        "came",
        -9.60370171311769
      ],
      [
        "-term",
        -9.60389438376702
      ],
      [
        "ĠMake",
        -9.6046234799084
      ],
      [
        "Ġlocate",
        -9.605406547491144
      ],
      [
        "ten",
        -9.605547494183018
      ],
      [
        "Ġcoming",
        -9.605734824791384
      ],
      [
        "Ġincluded",
        -9.606785498313108
      ],
      [
        "Ġrise",
        -9.606956309307773
      ],
      [
        "Ġbrown",
        -9.608009871104702
      ],
      [
        "Ġexpensive",
        -9.608676605213848
      ],
      [
        "Ġheavy",
        -9.609768237117237
      ],
      [
        "Ġexpand",
        -9.60978452168938
      ],
      [
        "Ġround",
        -9.609880847725483
      ],
      [
        "Ġteachers",
        -9.610107983453592
      ],
      [
        "Ġcontainer",
        -9.61082751651148
      ],
      [
        "ical",
        -9.611216260660186
      ],
      [
        "Ġteacher",
        -9.611972177099805
      ],
      [
        "Ġmessage",
        -9.612246373810796
      ],
      [
        "lost",
        -9.612365176592284
      ],
      [
        "Ġchicken",
        -9.613136333679346
      ],
      [
        "Ġhappens",
        -9.61453851756572
      ],
      [
        "Ġdriv",
        -9.61473816020805
      ],
      [
        "Ġocean",
        -9.617509199271474
      ],
      [
        "Ġphoto",
        -9.6176117090385
      ],
      [
        "Ġspeak",
        -9.617692662447464
      ],
      [
        "Ġscreen",
        -9.617857748283113
      ],
      [
        "Ġdriver",
        -9.617877334147432
      ],
      [
        "Ġiron",
        -9.619295220774347
      ],
      [
        "Ġcompar",
        -9.620571067281045
      ],
      [
        "Ġexposure",
        -9.620743659759306
      ],
      [
        "Ġnoise",
        -9.623872956517255
      ],
      [
        "ĠCenter",
        -9.62562738328954
      ],
      [
        "Ġencourage",
        -9.626152284369638
      ],
      [
        "Ġvaccine",
        -9.626224271711674
      ],
      [
        "Ġpractices",
        -9.62755630032217
      ],
      [
        "Ġclick",
        -9.627684062252255
      ],
      [
        "Ġsolutions",
        -9.62794131196284
      ],
      [
        "Ġseed",
        -9.628030028150366
      ],
      [
        "ence",
        -9.628635024084542
      ],
      [
        "Ġsustain",
        -9.628896256251092
      ],
      [
        "ate",
        -9.628908493194572
      ],
      [
        "Ġsolid",
        -9.629574032463603
      ],
      [
        "Ġbright",
        -9.629747593729435
      ],
      [
        "Ġdocument",
        -9.629865786598156
      ],
      [
        "Ġroad",
        -9.630418504036925
      ],
      [
        "Ġdisplay",
        -9.631210911490568
      ],
      [
        "for",
        -9.631565449479996
      ],
      [
        "one",
        -9.632478326147393
      ],
      [
        "Ġcomfortable",
        -9.632502256554911
      ],
      [
        "Ġonto",
        -9.633151115217434
      ],
      [
        "ĠNow",
        -9.633430481687212
      ],
      [
        "Ġswitch",
        -9.635986968181978
      ],
      [
        "And",
        -9.636263838119486
      ],
      [
        "Ġcompound",
        -9.63708838843942
      ],
      [
        "Ġpanel",
        -9.637361753338762
      ],
      [
        "Ġphase",
        -9.637754555594086
      ],
      [
        "Ġtheory",
        -9.638439419220354
      ],
      [
        "Ġmonitor",
        -9.639079160801176
      ],
      [
        "Ġplanet",
        -9.642205242922682
      ],
      [
        "Ġframe",
        -9.642865195831604
      ],
      [
        "Ġpresence",
        -9.644740134418626
      ],
      [
        "Ġmiddle",
        -9.644960454818836
      ],
      [
        "Ġsubstance",
        -9.645745291874643
      ],
      [
        "Ġaccept",
        -9.6473269506711
      ],
      [
        "ĠTheir",
        -9.647636442363812
      ],
      [
        "Ġpush",
        -9.648002753494382
      ],
      [
        "Ġmatch",
        -9.648128023772289
      ],
      [
        "ĠState",
        -9.648550224659177
      ],
      [
        "ĠOther",
        -9.648718403869466
      ],
      [
        "Ġbar",
        -9.651860097621745
      ],
      [
        "Now",
        -9.651989798488415
      ],
      [
        "Ġstates",
        -9.652278928878808
      ],
      [
        "Ġmap",
        -9.653516471676838
      ],
      [
        "Ġraise",
        -9.654396316533568
      ],
      [
        "Ġsequence",
        -9.6553353556507
      ],
      [
        "ĠBecause",
        -9.656223473513268
      ],
      [
        "Ġattempt",
        -9.656231708068812
      ],
      [
        "Ġpaint",
        -9.657110454239549
      ],
      [
        "Ġfarm",
        -9.65730597697523
      ],
      [
        "Ġmotion",
        -9.657406175653763
      ],
      [
        "Ġconsistent",
        -9.657477808852416
      ],
      [
        "head",
        -9.65982175109198
      ],
      [
        "ĠUK",
        -9.660092916596865
      ],
      [
        "ĠEnglish",
        -9.660365471456489
      ],
      [
        "Ġinches",
        -9.661145228702258
      ],
      [
        "Ġbeginning",
        -9.661508095189175
      ],
      [
        "Ġvaluable",
        -9.662634849526755
      ],
      [
        "Ġtransport",
        -9.66314363585877
      ],
      [
        "Ġhuge",
        -9.66320958332823
      ],
      [
        "Ġdrain",
        -9.663407439710586
      ],
      [
        "haps",
        -9.663423010560834
      ],
      [
        "Ġcomment",
        -9.663654807281024
      ],
      [
        "Ġsustainabl",
        -9.663963050143716
      ],
      [
        "Ġfully",
        -9.664185740034092
      ],
      [
        "Ġthus",
        -9.6649930896693
      ],
      [
        "Ġstone",
        -9.665802249222413
      ],
      [
        "Ġsaw",
        -9.6665291504618
      ],
      [
        "Ġskill",
        -9.667380482140665
      ],
      [
        "lthough",
        -9.668274160426794
      ],
      [
        "Ġfilter",
        -9.668471292838284
      ],
      [
        "Ġpound",
        -9.670189071866876
      ],
      [
        "Ġrock",
        -9.670792913082249
      ],
      [
        "Ġsell",
        -9.672585724049952
      ],
      [
        "No",
        -9.673638945306132
      ],
      [
        "Ġchallenge",
        -9.675545926094228
      ],
      [
        "Ġreflect",
        -9.67583870231265
      ],
      [
        "Ġ--",
        -9.678055730114174
      ],
      [
        "Ġdepth",
        -9.678705641676215
      ],
      [
        "Ġmaximu",
        -9.678990736911643
      ],
      [
        "Ġemission",
        -9.679498675143606
      ],
      [
        "Ġmechanism",
        -9.679507745724692
      ],
      [
        "Ġthousand",
        -9.680818948196
      ],
      [
        "Ġbond",
        -9.682591309342428
      ],
      [
        "Ġstick",
        -9.684403626474094
      ],
      [
        "eyond",
        -9.684499943366234
      ],
      [
        "Ġsign",
        -9.685723429030482
      ],
      [
        "Ġmoisture",
        -9.68644773464424
      ],
      [
        "Ġsurrounding",
        -9.686812051602756
      ],
      [
        "Ġcommuniti",
        -9.687613016039377
      ],
      [
        "older",
        -9.68964060430483
      ],
      [
        "Ġgrain",
        -9.690168903868429
      ],
      [
        "ĠWater",
        -9.6901892950638
      ],
      [
        "Ġlaw",
        -9.690813048360818
      ],
      [
        "Ġnational",
        -9.69215214434913
      ],
      [
        "body",
        -9.693886736300062
      ],
      [
        "Ġcolour",
        -9.694401591472204
      ],
      [
        "Ġexpected",
        -9.6947753081562
      ],
      [
        "Ġrecipe",
        -9.694826228910175
      ],
      [
        "ĠMay",
        -9.695163515797976
      ],
      [
        "Ġplease",
        -9.696286429411948
      ],
      [
        "Ġburn",
        -9.696791115188772
      ],
      [
        "Ġfigure",
        -9.697269155726094
      ],
      [
        "Ġaren",
        -9.698487131194016
      ],
      [
        "Ġaid",
        -9.698807378144966
      ],
      [
        "wide",
        -9.69921680873356
      ],
      [
        "ĠNOT",
        -9.699997713137767
      ],
      [
        "X",
        -9.700657258745329
      ],
      [
        "Ġbackground",
        -9.701113474694411
      ],
      [
        "Ġreveal",
        -9.70243142164234
      ],
      [
        "ĠLet",
        -9.704704480427823
      ],
      [
        "Ġcontext",
        -9.705007265629412
      ],
      [
        "Ġvital",
        -9.705163598561471
      ],
      [
        "Ġfabric",
        -9.706286170054124
      ],
      [
        "Ġangle",
        -9.70630641732781
      ],
      [
        "Ġsquare",
        -9.708469070050722
      ],
      [
        "Ġreference",
        -9.708655457825904
      ],
      [
        "Ġinternal",
        -9.709061468247436
      ],
      [
        "Ġrain",
        -9.709502061794144
      ],
      [
        "ĠFirst",
        -9.710329392346964
      ],
      [
        "Ġelectronic",
        -9.71164649098558
      ],
      [
        "went",
        -9.711786047447134
      ],
      [
        "Ġsub",
        -9.71284017793929
      ],
      [
        "Ġcentral",
        -9.71406048065342
      ],
      [
        "Ġheight",
        -9.714603521057718
      ],
      [
        "Ġcross",
        -9.7154387593607
      ],
      [
        "Ġstrategies",
        -9.715861948851042
      ],
      [
        "Ġmedium",
        -9.716141496995904
      ],
      [
        "Ġled",
        -9.716580020722107
      ],
      [
        "Ġwritten",
        -9.71708248766679
      ],
      [
        "Ġship",
        -9.717477291211868
      ],
      [
        "Ġbecomes",
        -9.718391362912396
      ],
      [
        "Ġprocessing",
        -9.719210997392628
      ],
      [
        "Ġplanning",
        -9.71952702836284
      ],
      [
        "Ġmother",
        -9.719909072820164
      ],
      [
        "âĢĻt",
        -9.720194472142897
      ],
      [
        "Ġchanging",
        -9.722948150719702
      ],
      [
        "happy",
        -9.72311806873208
      ],
      [
        "ĠOnc",
        -9.72392995458803
      ],
      [
        "Ġdiabetes",
        -9.724425235419414
      ],
      [
        "Ġerror",
        -9.72483701339008
      ],
      [
        "Ġfinancial",
        -9.725034757367396
      ],
      [
        "ĠEven",
        -9.725049794288182
      ],
      [
        "Ġbreath",
        -9.725263111282697
      ],
      [
        "Ġtransfer",
        -9.72668659904996
      ],
      [
        "Ġtechnologies",
        -9.727312916901184
      ],
      [
        "Ġdoor",
        -9.728685451948138
      ],
      [
        "ĠSt",
        -9.72931934671751
      ],
      [
        "ĠOr",
        -9.73182256796444
      ],
      [
        "Ġsecure",
        -9.732705267143093
      ],
      [
        "Ġimprov",
        -9.7328231392082
      ],
      [
        "day",
        -9.733651293506082
      ],
      [
        "ur",
        -9.734781675213586
      ],
      [
        "ĠInstitute",
        -9.7349714353605
      ],
      [
        "Ġlandscape",
        -9.735350188018844
      ],
      [
        "Ġmiss",
        -9.735448577397976
      ],
      [
        "Ġdouble",
        -9.736192913987928
      ],
      [
        "ĠâĢ¦",
        -9.73772295255625
      ],
      [
        "Ġconnected",
        -9.738144469867658
      ],
      [
        "Ġfrequency",
        -9.738454243699156
      ],
      [
        "Ġassess",
        -9.738778854486585
      ],
      [
        "Ġdiscovered",
        -9.740092407887351
      ],
      [
        "Ġmen",
        -9.74013950899515
      ],
      [
        "Ġshift",
        -9.740302644988176
      ],
      [
        "Ġestimate",
        -9.740373347544582
      ],
      [
        "Ġpipe",
        -9.743299413690192
      ],
      [
        "den",
        -9.744863558497816
      ],
      [
        "Ġconsumption",
        -9.7453865383195
      ],
      [
        "Ġtexture",
        -9.745754061825869
      ],
      [
        "Ġroll",
        -9.746569395644446
      ],
      [
        "Ġplate",
        -9.746900815066134
      ],
      [
        "Ġcapture",
        -9.747357098283732
      ],
      [
        "Ġpractical",
        -9.748376221347907
      ],
      [
        "Ġoutcome",
        -9.748697825993933
      ],
      [
        "Ġprogress",
        -9.751659697389762
      ],
      [
        "Here",
        -9.751905253426433
      ],
      [
        "Ġfair",
        -9.752877671758595
      ],
      [
        "Ġpest",
        -9.753339515821082
      ],
      [
        "âĢĿ",
        -9.75421324164451
      ],
      [
        "Ġprinciple",
        -9.754788542170278
      ],
      [
        "electricity",
        -9.755577628597656
      ],
      [
        "Ġgoals",
        -9.756549188095114
      ],
      [
        "Ġresulting",
        -9.756669917272896
      ],
      [
        "Ġcollection",
        -9.756783217664918
      ],
      [
        "Ġmedicine",
        -9.756789836392322
      ],
      [
        "Ġpark",
        -9.756938537324867
      ],
      [
        "Ġassessment",
        -9.757711633068505
      ],
      [
        "Ġstrain",
        -9.757856945509454
      ],
      [
        "be",
        -9.758362256463544
      ],
      [
        "Ġcoast",
        -9.75937874092032
      ],
      [
        "Ġengage",
        -9.760624978092656
      ],
      [
        "Ġattract",
        -9.761834670570662
      ],
      [
        "Ġevolution",
        -9.76234017862841
      ],
      [
        "Ġprefer",
        -9.762815415558867
      ],
      [
        "Ġrespond",
        -9.76286277096736
      ],
      [
        "Ġweb",
        -9.763976163562486
      ],
      [
        "Ġlose",
        -9.765073645465838
      ],
      [
        "up",
        -9.76511223581712
      ],
      [
        "Ġjoin",
        -9.767012100861551
      ],
      [
        "ĠJust",
        -9.7676309670317
      ],
      [
        "Ġoperation",
        -9.76801745489287
      ],
      [
        "Ġbutton",
        -9.769138300536124
      ],
      [
        "ĠDon",
        -9.769679782797793
      ],
      [
        "Ġplaced",
        -9.77243831223071
      ],
      [
        "Ġobserve",
        -9.772675605584858
      ],
      [
        "Ġstuff",
        -9.773012792595114
      ],
      [
        "Ġsheet",
        -9.77407870002414
      ],
      [
        "Ġrule",
        -9.774133997452132
      ],
      [
        "ĠRiver",
        -9.774732766552567
      ],
      [
        "Ġowners",
        -9.775456875269429
      ],
      [
        "Ġvariable",
        -9.775614242359971
      ],
      [
        "ĠDur",
        -9.775869460385094
      ],
      [
        "Ġfavorite",
        -9.776065738699115
      ],
      [
        "Ġexpress",
        -9.776294912632594
      ],
      [
        "Ġoffice",
        -9.778041726321296
      ],
      [
        "Ġanti",
        -9.77807139179031
      ],
      [
        "ĠAlthough",
        -9.77807471981858
      ],
      [
        "Ġroutine",
        -9.778521133559844
      ],
      [
        "Ġconvert",
        -9.78211918936736
      ],
      [
        "Ġorganism",
        -9.782424156751116
      ],
      [
        "However",
        -9.783838072446216
      ],
      [
        "Ġfilm",
        -9.78390541624397
      ],
      [
        "Ġremov",
        -9.784514809971888
      ],
      [
        "-like",
        -9.785538135596983
      ],
      [
        "Ġgrass",
        -9.786388890207672
      ],
      [
        "Ġmid",
        -9.786526045219336
      ],
      [
        "Ġexpect",
        -9.787315693229584
      ],
      [
        "Man",
        -9.787891656358337
      ],
      [
        "ĠAccording",
        -9.787997198481063
      ],
      [
        "Ġbodie",
        -9.788463489936266
      ],
      [
        "Ġannual",
        -9.788907758674505
      ],
      [
        "Ġinvolv",
        -9.789053848177597
      ],
      [
        "...ĊĊ",
        -9.789235080941816
      ],
      [
        "Ġcovered",
        -9.789293404454362
      ],
      [
        "Ġreported",
        -9.791414003006484
      ],
      [
        "Ġinternational",
        -9.79141888147836
      ],
      [
        "pril",
        -9.792184301990794
      ],
      [
        "Ġfailure",
        -9.793372118109332
      ],
      [
        "Ġdead",
        -9.794449679707114
      ],
      [
        "Ġbasi",
        -9.797604470910976
      ],
      [
        "Ġblog",
        -9.79848407359088
      ],
      [
        "Ġspot",
        -9.798929743426427
      ],
      [
        "Ġcore",
        -9.800582410653323
      ],
      [
        "Ġfoundation",
        -9.800882383767544
      ],
      [
        "Ġdie",
        -9.801507759651148
      ],
      [
        "Ġeconomic",
        -9.802148445732492
      ],
      [
        "**",
        -9.802588388317862
      ],
      [
        "Ġbatter",
        -9.802783162909671
      ],
      [
        "Ġdecade",
        -9.802860702706962
      ],
      [
        "ial",
        -9.80409944817883
      ],
      [
        "Ġplane",
        -9.80414508753644
      ],
      [
        "Ġsweet",
        -9.805189495364932
      ],
      [
        "ĠIndia",
        -9.80604171388434
      ],
      [
        "Ġdangerous",
        -9.806570790922208
      ],
      [
        "Ġpump",
        -9.807059299162225
      ],
      [
        "Ġgear",
        -9.80706421583756
      ],
      [
        "Ġpress",
        -9.807471539272557
      ],
      [
        "Ġcup",
        -9.808661443074442
      ],
      [
        "Ġsounds",
        -9.808665195393552
      ],
      [
        "Ġcommercial",
        -9.809278410805748
      ],
      [
        "Ġselection",
        -9.81115894733551
      ],
      [
        "ĠAl",
        -9.81168098701697
      ],
      [
        "j",
        -9.812132172867004
      ],
      [
        "Ġreality",
        -9.813982107342976
      ],
      [
        "ĠDoes",
        -9.814031559363936
      ],
      [
        "Ġfashion",
        -9.815716386220444
      ],
      [
        "ĠAfrica",
        -9.816710587902437
      ],
      [
        "Ġdegree",
        -9.817780455367764
      ],
      [
        "After",
        -9.817967383221946
      ],
      [
        "Ġalone",
        -9.818561262121737
      ],
      [
        "Ġcable",
        -9.818800763354703
      ],
      [
        "Ġcareer",
        -9.8194483835275
      ],
      [
        "Ġgenes",
        -9.819770201037612
      ],
      [
        "All",
        -9.820061008657218
      ],
      [
        "Ġbusinesses",
        -9.820245100477816
      ],
      [
        "Ġexpression",
        -9.820438702500269
      ],
      [
        "Ġfund",
        -9.820628580303367
      ],
      [
        "held",
        -9.82069423471236
      ],
      [
        "Ġstaff",
        -9.82130898270017
      ],
      [
        "ling",
        -9.823072362894331
      ],
      [
        "-year",
        -9.823386425123148
      ],
      [
        "Ġspecifically",
        -9.823751505095778
      ],
      [
        "Ġintroduce",
        -9.823835109326676
      ],
      [
        "Ġdemonstrate",
        -9.824388101668823
      ],
      [
        "Ġappearance",
        -9.826146838700716
      ],
      [
        "Ġstraight",
        -9.826391332278188
      ],
      [
        "Ġinsight",
        -9.826770290459343
      ],
      [
        "Ġupper",
        -9.827273956269469
      ],
      [
        "ility",
        -9.828126003480408
      ],
      [
        "ĠDay",
        -9.829167314967505
      ],
      [
        "ĠTherefor",
        -9.829643416186418
      ],
      [
        "ĠSince",
        -9.830240245837905
      ],
      [
        "Ġoperat",
        -9.830827601155402
      ],
      [
        "Ġvirtual",
        -9.831928141809232
      ],
      [
        "Ġrules",
        -9.833078777474803
      ],
      [
        "Ġhelpful",
        -9.834220811396804
      ],
      [
        "Ġroots",
        -9.83445702015637
      ],
      [
        "Ġrelax",
        -9.83508193174583
      ],
      [
        "Ġadvice",
        -9.83669641386096
      ],
      [
        "Ġmolecules",
        -9.836699411758715
      ],
      [
        "Ġallowed",
        -9.840740459408554
      ],
      [
        "Ġartist",
        -9.84101327490512
      ],
      [
        "ĠCO",
        -9.842480151001013
      ],
      [
        "Ġdrop",
        -9.843345960874224
      ],
      [
        "Ġtrigger",
        -9.843374140340792
      ],
      [
        "Ġproteins",
        -9.844524451764109
      ],
      [
        "Ġpredict",
        -9.84648629822216
      ],
      [
        "ĠDepartment",
        -9.847999745699608
      ],
      [
        "Ġconcrete",
        -9.848066301114326
      ],
      [
        "Ġmode",
        -9.849298299215906
      ],
      [
        "Ġinsects",
        -9.849439648113382
      ],
      [
        "Ġdistribution",
        -9.84944776119051
      ],
      [
        "Ġthread",
        -9.850363463681395
      ],
      [
        "Ġpollution",
        -9.85083681796782
      ],
      [
        "-in",
        -9.851071045135871
      ],
      [
        "Ġdynamic",
        -9.85255684682678
      ],
      [
        "Ġdivers",
        -9.852855919660346
      ],
      [
        "Ġteach",
        -9.855739149207068
      ],
      [
        "Ġgeneration",
        -9.855816906379207
      ],
      [
        "/or",
        -9.856405383154694
      ],
      [
        "Ġdrawing",
        -9.85706274762147
      ],
      [
        "Ġsociety",
        -9.85714623336386
      ],
      [
        "Ġconclusion",
        -9.857147853140768
      ],
      [
        "Ġindoor",
        -9.857808943933776
      ],
      [
        "Ġwindow",
        -9.85813730929129
      ],
      [
        "Ġasked",
        -9.858581036707466
      ],
      [
        "Ġshot",
        -9.85906967825248
      ],
      [
        "Ġregulation",
        -9.85909374337828
      ],
      [
        "Ġhundred",
        -9.859329674895104
      ],
      [
        "Ġhighlight",
        -9.861260105593889
      ],
      [
        "Ġabsorb",
        -9.861368868690338
      ],
      [
        "ĠAustralia",
        -9.861784665395112
      ],
      [
        "Ġcharacteristics",
        -9.862891239313107
      ],
      [
        "Ġnearly",
        -9.863304856209297
      ],
      [
        "Ġcheap",
        -9.864481455833236
      ],
      [
        "Ġcharacter",
        -9.865060066507954
      ],
      [
        "Ġmorning",
        -9.865948836533482
      ],
      [
        "Ġcars",
        -9.868322628697882
      ],
      [
        "Ġboat",
        -9.868861519733244
      ],
      [
        "Ġmember",
        -9.868935800737887
      ],
      [
        "Ġfossil",
        -9.869030546265414
      ],
      [
        "Ġattach",
        -9.869441702808462
      ],
      [
        "Ġprovider",
        -9.870648958514128
      ],
      [
        "ivity",
        -9.870715476052018
      ],
      [
        "Ġsports",
        -9.870979461449222
      ],
      [
        "ĠService",
        -9.872315228045004
      ],
      [
        "Ġbutter",
        -9.872379813648166
      ],
      [
        "ĠJapan",
        -9.873637156099075
      ],
      [
        "That",
        -9.87447171452852
      ],
      [
        "Ġbear",
        -9.874524101699995
      ],
      [
        "Ġcreative",
        -9.876467715896924
      ],
      [
        "Ġanxiet",
        -9.878222480814594
      ],
      [
        "ĠEurope",
        -9.879249213537982
      ],
      [
        "Ġvoice",
        -9.88037141983437
      ],
      [
        "Ġfamilies",
        -9.880741617127784
      ],
      [
        "Ġcategor",
        -9.880936642594618
      ],
      [
        "Ġagree",
        -9.88103263692582
      ],
      [
        "side",
        -9.881472896864132
      ],
      [
        "Ġoptimal",
        -9.881569712995194
      ],
      [
        "ized",
        -9.8824581745684
      ],
      [
        "Ġreferr",
        -9.88266729118696
      ],
      [
        "Ġsurgery",
        -9.882697091268492
      ],
      [
        "Ġcomfort",
        -9.883050572848411
      ],
      [
        "Ġdental",
        -9.884705702934598
      ],
      [
        "Ġstain",
        -9.886503747026085
      ],
      [
        "-free",
        -9.886760796719322
      ],
      [
        "Ġdi",
        -9.887267936736643
      ],
      [
        "Ġcoat",
        -9.887475364044652
      ],
      [
        "Ġbeneficial",
        -9.887915201205022
      ],
      [
        "Ġsites",
        -9.888045125539868
      ],
      [
        "Ġformed",
        -9.888646487342616
      ],
      [
        "fish",
        -9.888718874911731
      ],
      [
        "Ġperformed",
        -9.889226007915177
      ],
      [
        "Re",
        -9.889272098638386
      ],
      [
        "Ġharmful",
        -9.889621139862502
      ],
      [
        "Ġbrush",
        -9.890533055261198
      ],
      [
        "Ġconsume",
        -9.890936068536504
      ],
      [
        "Ġgift",
        -9.891373744102069
      ],
      [
        "Ġmaybe",
        -9.891757253973337
      ],
      [
        "Ġapproximately",
        -9.892238898232096
      ],
      [
        "Ġseal",
        -9.892576339247968
      ],
      [
        "Ġthin",
        -9.893341976627012
      ],
      [
        "Ġschools",
        -9.893716497210164
      ],
      [
        "Ġpreference",
        -9.894564734289716
      ],
      [
        "Ġshar",
        -9.895998036804858
      ],
      [
        "un",
        -9.896480695286492
      ],
      [
        "Ġsuper",
        -9.898148918838377
      ],
      [
        "Ġtransmission",
        -9.89863111142556
      ],
      [
        "Ġtrust",
        -9.89868014493868
      ],
      [
        "Ġrobot",
        -9.89882359773742
      ],
      [
        "Ġwait",
        -9.898832383860238
      ],
      [
        "Ġregister",
        -9.899048145768834
      ],
      [
        "Ġeventual",
        -9.899907047076685
      ],
      [
        "Ġprepared",
        -9.900548913248889
      ],
      [
        "Ġneck",
        -9.900944015290168
      ],
      [
        "Ġextend",
        -9.90103926933796
      ],
      [
        "Ġbirth",
        -9.901516868534593
      ],
      [
        "work",
        -9.901861721238696
      ],
      [
        "#",
        -9.903001888230136
      ],
      [
        "Ġfill",
        -9.903329781423512
      ],
      [
        "Ġcoffee",
        -9.90340848634238
      ],
      [
        "Ġstatement",
        -9.904442554617347
      ],
      [
        "Ġclassroom",
        -9.904492041449084
      ],
      [
        "Ġbooks",
        -9.904859247201191
      ],
      [
        "Ġemail",
        -9.90579089688836
      ],
      [
        "Ġsteel",
        -9.906136566789272
      ],
      [
        "Ġpets",
        -9.907656202703311
      ],
      [
        "Ġportion",
        -9.907858552227658
      ],
      [
        "wildlife",
        -9.9081191826656
      ],
      [
        "Ġlatest",
        -9.908121605467173
      ],
      [
        "Ġhydrogen",
        -9.90930936474451
      ],
      [
        "Ġharvest",
        -9.909488541387503
      ],
      [
        "Ġchannel",
        -9.909489185798751
      ],
      [
        "Ġdirt",
        -9.909507473278126
      ],
      [
        "Ġlaser",
        -9.909517126385088
      ],
      [
        "Ġcomprehensive",
        -9.911169152391786
      ],
      [
        "Ġflat",
        -9.911447288477564
      ],
      [
        "Our",
        -9.911876903487856
      ],
      [
        "Ġfeeding",
        -9.912487548160492
      ],
      [
        "Ġoutdoor",
        -9.913281153151775
      ],
      [
        "Ġdefinition",
        -9.91368555180355
      ],
      [
        "Ġcalci",
        -9.914420270263392
      ],
      [
        "Ġpool",
        -9.915184466787702
      ],
      [
        "Ġemployee",
        -9.915410460215044
      ],
      [
        "Ġmeeting",
        -9.91596765408737
      ],
      [
        "Ġestablished",
        -9.916381095975394
      ],
      [
        "Ġsuggests",
        -9.91734941903553
      ],
      [
        "Ġisland",
        -9.917445230669394
      ],
      [
        "Ġearlie",
        -9.917485759760334
      ],
      [
        "Ġlegal",
        -9.917670294280349
      ],
      [
        "Ġemotional",
        -9.918592202458573
      ],
      [
        "Ġhospital",
        -9.9191582566335
      ],
      [
        "U",
        -9.919504378798733
      ],
      [
        "Ġprocedure",
        -9.919889197786423
      ],
      [
        "Ġvirus",
        -9.919914467181968
      ],
      [
        "Ġassist",
        -9.920839695430349
      ],
      [
        "ĠModel",
        -9.920890078400802
      ],
      [
        "Ġtiny",
        -9.921323649832184
      ],
      [
        "Ġmixture",
        -9.921329111569044
      ],
      [
        "Ġmaster",
        -9.921995181747706
      ],
      [
        "Ġcatch",
        -9.922108494675612
      ],
      [
        "ular",
        -9.922470352078538
      ],
      [
        "Ġformula",
        -9.92344999692306
      ],
      [
        "Ġautomatic",
        -9.924345803741469
      ],
      [
        "Ġpossibilit",
        -9.925198587190806
      ],
      [
        "Ġindustrial",
        -9.92533352216699
      ],
      [
        "Ġschedule",
        -9.926851445889788
      ],
      [
        "Ġratio",
        -9.928884347442516
      ],
      [
        "Ġcalculate",
        -9.929017903449846
      ],
      [
        "Ġtru",
        -9.9291510579986
      ],
      [
        "Ġformation",
        -9.930651276950748
      ],
      [
        "Ġprogramm",
        -9.931122396398903
      ],
      [
        "ĠWhether",
        -9.93140177455492
      ],
      [
        "Ġthick",
        -9.932840988560868
      ],
      [
        "which",
        -9.934861515762783
      ],
      [
        "Are",
        -9.93528070699436
      ],
      [
        "Ġcollect",
        -9.935691072208032
      ],
      [
        "Ġtransition",
        -9.93582840011488
      ],
      [
        "Ġmarine",
        -9.93630206189244
      ],
      [
        "Yes",
        -9.936677142270964
      ],
      [
        "Ġleader",
        -9.937807809940526
      ],
      [
        "Ġsurvey",
        -9.93807668711296
      ],
      [
        "ĠGod",
        -9.938402891123769
      ],
      [
        "Ġnumerous",
        -9.938451354421325
      ],
      [
        "Ġreduction",
        -9.938474321672018
      ],
      [
        "Ġclasses",
        -9.940096806676316
      ],
      [
        "Ġdiagram",
        -9.940181518474098
      ],
      [
        "Ġprivate",
        -9.941576758324077
      ],
      [
        "Ġparameter",
        -9.94157830035136
      ],
      [
        "Ġdiscussion",
        -9.94310520881556
      ],
      [
        "eating",
        -9.943364830153364
      ],
      [
        "itis",
        -9.94349826938271
      ],
      [
        "Ġsurvive",
        -9.943582018413217
      ],
      [
        "Ġchain",
        -9.943996125956003
      ],
      [
        "Ġnice",
        -9.944270673149363
      ],
      [
        "Ġtechnical",
        -9.94497164405725
      ],
      [
        "Ġriver",
        -9.945921850647746
      ],
      [
        "Ġstation",
        -9.946398767558698
      ],
      [
        "Ġboost",
        -9.946564300733014
      ],
      [
        "ĠOver",
        -9.946711969516006
      ],
      [
        "Ġspeaker",
        -9.946900506154982
      ],
      [
        "ĠEducation",
        -9.947307996609702
      ],
      [
        "Ġoperate",
        -9.947500836017063
      ],
      [
        "Ġprimari",
        -9.9478240767677
      ],
      [
        "Ġresource",
        -9.94815550373914
      ],
      [
        "Ġoperations",
        -9.948376805841264
      ],
      [
        "Ġartificial",
        -9.94908939613918
      ],
      [
        "ĠKeep",
        -9.949277117211947
      ],
      [
        "Ġsit",
        -9.950118227157953
      ],
      [
        "My",
        -9.950263038436304
      ],
      [
        "Ġleaf",
        -9.950348842443397
      ],
      [
        "Ġmonitoring",
        -9.950739177891649
      ],
      [
        "Your",
        -9.951279894629376
      ],
      [
        "ĠY",
        -9.951613891448096
      ],
      [
        "Ġdish",
        -9.952721138436068
      ],
      [
        "Ġlarges",
        -9.952969215502884
      ],
      [
        "Ġatmosphere",
        -9.953250471228897
      ],
      [
        "Ġmanufactur",
        -9.95412916495977
      ],
      [
        "Ġdrug",
        -9.95650582335486
      ],
      [
        "Ġroof",
        -9.957630752675536
      ],
      [
        "Ġinterested",
        -9.958088301062798
      ],
      [
        "ĠEuropean",
        -9.959841943187136
      ],
      [
        "Ġprepare",
        -9.960027956941724
      ],
      [
        "Ġshower",
        -9.96021575308531
      ],
      [
        "more",
        -9.960947585874209
      ],
      [
        "Ġrat",
        -9.961293135685064
      ],
      [
        "Ġstrateg",
        -9.963227048169202
      ],
      [
        "Ġperspective",
        -9.963368965434984
      ],
      [
        "Ġconservation",
        -9.96464746688865
      ],
      [
        "Ġbowl",
        -9.966242148539566
      ],
      [
        "ĠHigh",
        -9.9662775978339
      ],
      [
        "Ġrelevant",
        -9.966440302356112
      ],
      [
        "Ġauto",
        -9.96796696107031
      ],
      [
        "Ġgrown",
        -9.96870730259136
      ],
      [
        "Ġzone",
        -9.969070838869154
      ],
      [
        "Ġsmell",
        -9.969540156918844
      ],
      [
        "Ġegg",
        -9.97063033716761
      ],
      [
        "Ġequation",
        -9.97080568823776
      ],
      [
        "Most",
        -9.971488449825454
      ],
      [
        "Ġtail",
        -9.972138199183345
      ],
      [
        "Ġmuscles",
        -9.972570091993305
      ],
      [
        "Ġantibiotic",
        -9.972976671576156
      ],
      [
        "Ġresident",
        -9.973653472704289
      ],
      [
        "Ġdefinite",
        -9.974303337975464
      ],
      [
        "Ġcertainly",
        -9.97598074823022
      ],
      [
        "Ġsaying",
        -9.97668984202858
      ],
      [
        "quality",
        -9.97702483161703
      ],
      [
        "Ġalgorithm",
        -9.977064391304154
      ],
      [
        "Ġprecise",
        -9.977887316372072
      ],
      [
        "Ġraw",
        -9.97794427854545
      ],
      [
        "Ġnerve",
        -9.979057253559866
      ],
      [
        "Ġemotion",
        -9.97930225174138
      ],
      [
        "Ġminimum",
        -9.980825015770264
      ],
      [
        "Answer",
        -9.980825711866736
      ],
      [
        "Ġrequest",
        -9.98082964852198
      ],
      [
        "Ġofficial",
        -9.98132911398024
      ],
      [
        "desired",
        -9.981408941076644
      ],
      [
        "Ġexternal",
        -9.985260159823024
      ],
      [
        "Ġbiological",
        -9.98601593895955
      ],
      [
        "Ġlifestyle",
        -9.986340749823054
      ],
      [
        "Ġmanual",
        -9.987487019948958
      ],
      [
        "Ġpro",
        -9.987577275638277
      ],
      [
        "Ġrandom",
        -9.98768160749755
      ],
      [
        "-being",
        -9.987882277154482
      ],
      [
        "Ġcapabilit",
        -9.98907529631727
      ],
      [
        "Ġrealize",
        -9.989732211711557
      ],
      [
        "ĠSystem",
        -9.991244114246737
      ],
      [
        "Ġbroad",
        -9.991336100180188
      ],
      [
        "Ġlift",
        -9.991522308351197
      ],
      [
        "Ġmiles",
        -9.991700491509864
      ],
      [
        "Ġshade",
        -9.99184465913245
      ],
      [
        "Ġsnow",
        -9.992146738264474
      ],
      [
        "Ġcrack",
        -9.993478422408694
      ],
      [
        "coming",
        -9.993539656603488
      ],
      [
        "Ġimplement",
        -9.994449964428709
      ],
      [
        "Ġtransform",
        -9.99461929500695
      ],
      [
        "Ġcream",
        -9.995954282006307
      ],
      [
        "Ġsmart",
        -9.996405074327722
      ],
      [
        "ring",
        -9.996436293016782
      ],
      [
        "Ġguideline",
        -9.99799524324231
      ],
      [
        "Ġinter",
        -9.99806808444732
      ],
      [
        "Ġfunctional",
        -9.998833255974349
      ],
      [
        "Conclusion",
        -10.000866653764623
      ],
      [
        "Ġprocessor",
        -10.001257177004312
      ],
      [
        "{",
        -10.001268908454207
      ],
      [
        "Ġinternet",
        -10.00191906654644
      ],
      [
        "im",
        -10.002275512525202
      ],
      [
        "Ġancient",
        -10.002702075388136
      ],
      [
        "Ġhole",
        -10.00284152410801
      ],
      [
        "Ġoffering",
        -10.002857837190358
      ],
      [
        "identified",
        -10.003117893985706
      ],
      [
        "Ġconduct",
        -10.003650027146112
      ],
      [
        "ĠSea",
        -10.004146257600455
      ],
      [
        "Ġcarrie",
        -10.004450120782174
      ],
      [
        "Ġincredibl",
        -10.004546789896978
      ],
      [
        "Ġstatus",
        -10.005102935283196
      ],
      [
        "Ġguid",
        -10.00651139024848
      ],
      [
        "Ġreplacement",
        -10.006951622501482
      ],
      [
        "Ġsport",
        -10.007889996684009
      ],
      [
        "ĠAir",
        -10.007970651977814
      ],
      [
        "Ġopinion",
        -10.008249530372602
      ],
      [
        "Ġquantit",
        -10.008272242747836
      ],
      [
        "-friendl",
        -10.00864873297849
      ],
      [
        "Ġkept",
        -10.010705577707498
      ],
      [
        "Ġbike",
        -10.01153414291349
      ],
      [
        "Ġblend",
        -10.012605352503588
      ],
      [
        "ĠGreat",
        -10.013361881032592
      ],
      [
        "Ġgets",
        -10.014780317595358
      ],
      [
        "ĠStudent",
        -10.015031412292142
      ],
      [
        "ĠYork",
        -10.015666850484386
      ],
      [
        "Ġstroke",
        -10.016407729438225
      ],
      [
        "Ġlawn",
        -10.016787881913906
      ],
      [
        "Ġchoos",
        -10.016968921584796
      ],
      [
        "Ġobvious",
        -10.019058521740403
      ],
      [
        "Ġpack",
        -10.01924449067847
      ],
      [
        "Ġcreature",
        -10.019431134677347
      ],
      [
        "Ġgold",
        -10.019562414411064
      ],
      [
        "Ġstomach",
        -10.019583286849471
      ],
      [
        "Ġbite",
        -10.020134204855896
      ],
      [
        "ĠMarch",
        -10.021976727544558
      ],
      [
        "Ġclient",
        -10.0222459765519
      ],
      [
        "ought",
        -10.023088600277594
      ],
      [
        "Ġcard",
        -10.023562737031856
      ],
      [
        "Ġbillion",
        -10.023628920616076
      ],
      [
        "Ġcontinuous",
        -10.023843466159988
      ],
      [
        "Ġcalorie",
        -10.02446140900796
      ],
      [
        "Ġphotos",
        -10.024484715274752
      ],
      [
        "Ġjump",
        -10.024547648725548
      ],
      [
        "Ġaudio",
        -10.025214009585028
      ],
      [
        "Ġnation",
        -10.026123740071869
      ],
      [
        "Ġattend",
        -10.026785431940358
      ],
      [
        "Ġnest",
        -10.02708119527901
      ],
      [
        "Ġshoes",
        -10.027401535833906
      ],
      [
        "ĠGoogle",
        -10.02763776681678
      ],
      [
        "Ġmainly",
        -10.028354432806172
      ],
      [
        "Ġkidney",
        -10.028877303458136
      ],
      [
        "Ġvariation",
        -10.029298520931436
      ],
      [
        "Use",
        -10.02938150687395
      ],
      [
        "Ġlayers",
        -10.02980973898914
      ],
      [
        "J",
        -10.03002279656582
      ],
      [
        "Ġhormone",
        -10.031768132634848
      ],
      [
        "Ġapart",
        -10.032393357468653
      ],
      [
        "ill",
        -10.032967068746856
      ],
      [
        "Ġreliable",
        -10.03406334726521
      ],
      [
        "Ġlens",
        -10.036008797227424
      ],
      [
        "Ġfirm",
        -10.036050071048107
      ],
      [
        "Ġfracture",
        -10.036444484213504
      ],
      [
        "Ġamazing",
        -10.036445143144256
      ],
      [
        "Ġbak",
        -10.03750046907834
      ],
      [
        "emergency",
        -10.037842065089643
      ],
      [
        "Ġfear",
        -10.038810287037958
      ],
      [
        "-on",
        -10.039215453287127
      ],
      [
        "Ġinstrument",
        -10.039504797364192
      ],
      [
        "ĠFood",
        -10.040322252745767
      ],
      [
        "Ġcheese",
        -10.040394389785703
      ],
      [
        "Ġparticipant",
        -10.040473410652869
      ],
      [
        "Ġadopt",
        -10.040697536184258
      ],
      [
        "Ġwet",
        -10.04084905144786
      ],
      [
        "Ġeducational",
        -10.04180611442171
      ],
      [
        "ĠChina",
        -10.04187993095233
      ],
      [
        "Ġinnovation",
        -10.04188993359821
      ],
      [
        "Ġthorough",
        -10.04218056045903
      ],
      [
        "Ġchalleng",
        -10.042363803595215
      ],
      [
        "Ġindependent",
        -10.042444284439554
      ],
      [
        "Ġsensitive",
        -10.042685621981704
      ],
      [
        "Ġsymbol",
        -10.044707447823356
      ],
      [
        "Ġvs",
        -10.044787518001598
      ],
      [
        "Ġrespect",
        -10.045322106040976
      ],
      [
        "Ġlabel",
        -10.046359958281723
      ],
      [
        "Ġremote",
        -10.04795312110646
      ],
      [
        "Ġdetermined",
        -10.048417258175675
      ],
      [
        "Ġoccurr",
        -10.04872437850885
      ],
      [
        "ĠPeople",
        -10.04875884896072
      ],
      [
        "ĠWest",
        -10.048766323835832
      ],
      [
        "September",
        -10.049880383889278
      ],
      [
        "Ġintelligence",
        -10.050417249648348
      ],
      [
        "Ġhelping",
        -10.050560512457787
      ],
      [
        "hose",
        -10.050770231237502
      ],
      [
        "Ġinteract",
        -10.052020140788484
      ],
      [
        "ter",
        -10.052358871950716
      ],
      [
        "Ġwheel",
        -10.052429521556254
      ],
      [
        "Onc",
        -10.05278061305048
      ],
      [
        "Ġpowder",
        -10.052947543316352
      ],
      [
        "Ġassume",
        -10.053057273767951
      ],
      [
        "Ġargument",
        -10.053788331804544
      ],
      [
        "Ġedit",
        -10.054372623003225
      ],
      [
        "Ġmembrane",
        -10.05497370758336
      ],
      [
        "ĠJohn",
        -10.057054729113435
      ],
      [
        "Ġstable",
        -10.057736676307634
      ],
      [
        "||",
        -10.057934983168067
      ],
      [
        "Ġcreation",
        -10.0582884048112
      ],
      [
        "Ġmovie",
        -10.058527300927144
      ],
      [
        "Ġfurniture",
        -10.059590650262232
      ],
      [
        "not",
        -10.059883067053004
      ],
      [
        "ĠJune",
        -10.060230605991478
      ],
      [
        "Ġowner",
        -10.060248610490383
      ],
      [
        "Ġsupplie",
        -10.060864996851045
      ],
      [
        "Ġutilize",
        -10.060929609758563
      ],
      [
        "Ġbudget",
        -10.061500183040142
      ],
      [
        "ions",
        -10.061872950389098
      ],
      [
        "Ġeliminate",
        -10.062388606618766
      ],
      [
        "ĠBritish",
        -10.064234896743631
      ],
      [
        "Ġinvestment",
        -10.06476251033655
      ],
      [
        "Ġvitamin",
        -10.06494026453874
      ],
      [
        "Ġsolve",
        -10.06588787728304
      ],
      [
        "Ġcollege",
        -10.066183260049138
      ],
      [
        "Ġultimate",
        -10.066268287628947
      ],
      [
        "Ġdensit",
        -10.066728256807
      ],
      [
        "Ġbees",
        -10.067379568097389
      ],
      [
        "Ġworker",
        -10.067599116112202
      ],
      [
        "Ġrow",
        -10.0679018778722
      ],
      [
        "Ġdescription",
        -10.068562176769928
      ],
      [
        "Ġplent",
        -10.06883557672762
      ],
      [
        "Ġharm",
        -10.069187297507128
      ],
      [
        "Ġclinical",
        -10.06927363238898
      ],
      [
        "ĠRed",
        -10.069385747727896
      ],
      [
        "Ġscenario",
        -10.06939330819874
      ],
      [
        "-time",
        -10.069617617950756
      ],
      [
        "Ġpercentage",
        -10.069941723590588
      ],
      [
        "Ġeight",
        -10.07139423432842
      ],
      [
        "Ġdirector",
        -10.07156619157679
      ],
      [
        "Ġbreeding",
        -10.071745830362214
      ],
      [
        "ĠQ",
        -10.071928958589211
      ],
      [
        "ĠUn",
        -10.072129254666876
      ],
      [
        "Ġjoint",
        -10.072356027161511
      ],
      [
        "Ġbottle",
        -10.07334101742806
      ],
      [
        "Ġguy",
        -10.0742599305462
      ],
      [
        "Ġalcohol",
        -10.07453593533725
      ],
      [
        "Ġparent",
        -10.075153183488109
      ],
      [
        "ĠGreen",
        -10.07567016310358
      ],
      [
        "Ġmelt",
        -10.076266648010384
      ],
      [
        "ĠDe",
        -10.076467830453913
      ],
      [
        "Ġpolicy",
        -10.077282606788591
      ],
      [
        "Ġaircraft",
        -10.077477948109744
      ],
      [
        "ĠCanada",
        -10.0789920415963
      ],
      [
        "Ġvalve",
        -10.081402113601168
      ],
      [
        "Ġweak",
        -10.08156552647921
      ],
      [
        "Ġcm",
        -10.081994787705131
      ],
      [
        "am",
        -10.082692317704064
      ],
      [
        "Ġcompost",
        -10.083603746532267
      ],
      [
        "Ġbill",
        -10.083727423681651
      ],
      [
        "Ġfundamental",
        -10.084278371491887
      ],
      [
        "Ġtight",
        -10.084934124730106
      ],
      [
        "Ġchose",
        -10.085335106060114
      ],
      [
        "Ġconcentration",
        -10.087330704161069
      ],
      [
        "Ġproduc",
        -10.088171972837998
      ],
      [
        "Ġkitchen",
        -10.089296620336938
      ],
      [
        "water",
        -10.089605071010292
      ],
      [
        "tability",
        -10.090173301737304
      ],
      [
        "Ġintake",
        -10.090602957369782
      ],
      [
        "Ġstock",
        -10.09112799421613
      ],
      [
        "Ġplanting",
        -10.091441381703577
      ],
      [
        "ĠWell",
        -10.091844944174497
      ],
      [
        "ĠFrench",
        -10.092079620127482
      ],
      [
        "OVID",
        -10.09333352208768
      ],
      [
        "Ġcontrolle",
        -10.09393663219777
      ],
      [
        "Ġcommand",
        -10.093960030482815
      ],
      [
        "Ġten",
        -10.094955758635406
      ],
      [
        "Ġspin",
        -10.094987285032474
      ],
      [
        "Ġwash",
        -10.095198766861802
      ],
      [
        "Ġseat",
        -10.095758873512317
      ],
      [
        "Ġfix",
        -10.096339669541065
      ],
      [
        "ĠGo",
        -10.096426649511749
      ],
      [
        "ĠHis",
        -10.096719690728976
      ],
      [
        "Ġorigin",
        -10.096762393731767
      ],
      [
        "Ġcoal",
        -10.096917672783638
      ],
      [
        "Ġselected",
        -10.098512209268806
      ],
      [
        "Ġadvance",
        -10.09903553275538
      ],
      [
        "Ġenzyme",
        -10.099156772783168
      ],
      [
        "Ġjournal",
        -10.09974264624776
      ],
      [
        "ĠAct",
        -10.09974890412124
      ],
      [
        "Ġformat",
        -10.09996237449474
      ],
      [
        "Ġrough",
        -10.101637105862252
      ],
      [
        "Ġfight",
        -10.101716063612388
      ],
      [
        "Ġradio",
        -10.102508761470222
      ],
      [
        "Ġwaiting",
        -10.10303938908922
      ],
      [
        "Ġdigesti",
        -10.103927143876778
      ],
      [
        "Ġgap",
        -10.104180747405731
      ],
      [
        "what",
        -10.104912983885397
      ],
      [
        "Ġwar",
        -10.105015483791046
      ],
      [
        "Ġflood",
        -10.105503926356567
      ],
      [
        "me",
        -10.106256577699437
      ],
      [
        "Ġexcessive",
        -10.10629260287307
      ],
      [
        "Ġpot",
        -10.107593713895596
      ],
      [
        "Ġdecide",
        -10.10826448874564
      ],
      [
        "Ġconfirm",
        -10.10848050767723
      ],
      [
        "Ġmicro",
        -10.108675435041931
      ],
      [
        "Z",
        -10.108831727178307
      ],
      [
        "Ġbio",
        -10.109898414423274
      ],
      [
        "Ġmobile",
        -10.110518259616384
      ],
      [
        "ĠWhere",
        -10.111063081195988
      ],
      [
        "Florida",
        -10.111653849571727
      ],
      [
        "More",
        -10.11170447973096
      ],
      [
        "Ġprior",
        -10.111937510513611
      ],
      [
        "ĠAbout",
        -10.112084755814738
      ],
      [
        "Ġtrade",
        -10.112567613509224
      ],
      [
        "Ġestablish",
        -10.113662873003562
      ],
      [
        "Ġlab",
        -10.113914819380298
      ],
      [
        "Ġleav",
        -10.11418948730326
      ],
      [
        "Ġbecom",
        -10.114721853110796
      ],
      [
        "Ġhoney",
        -10.115033443850058
      ],
      [
        "\\",
        -10.115319310967092
      ],
      [
        "ĠInternational",
        -10.11660744051862
      ],
      [
        "Ġhid",
        -10.117040143250271
      ],
      [
        "Ġseven",
        -10.117335193605356
      ],
      [
        "Ġcredit",
        -10.117771227021072
      ],
      [
        "Ġheater",
        -10.118081350404672
      ],
      [
        "Ġdrugs",
        -10.119643044377783
      ],
      [
        "Ġbulb",
        -10.120060708594652
      ],
      [
        "Ġwouldn",
        -10.121310979940688
      ],
      [
        "Ġfeedback",
        -10.121717494206068
      ],
      [
        "Ġhardware",
        -10.122203534526935
      ],
      [
        "Ġunits",
        -10.123208738343584
      ],
      [
        "ĠDesign",
        -10.123544875724916
      ],
      [
        "that",
        -10.123586124162523
      ],
      [
        "Ġzero",
        -10.12404902442342
      ],
      [
        "Ġpainting",
        -10.124050206383604
      ],
      [
        "Ġsudden",
        -10.12406263562243
      ],
      [
        "Ġstretch",
        -10.125180420367498
      ],
      [
        "Ġmechanical",
        -10.125300794563431
      ],
      [
        "}",
        -10.12542795117692
      ],
      [
        "ĠLike",
        -10.126909362499235
      ],
      [
        "Ġtitle",
        -10.12784163025523
      ],
      [
        "Ġboil",
        -10.128243050549782
      ],
      [
        "ĠWar",
        -10.128319536487314
      ],
      [
        "ware",
        -10.128508629416206
      ],
      [
        "Ġexamine",
        -10.128817634426731
      ],
      [
        "ĠRead",
        -10.128914281231436
      ],
      [
        "Ġgrade",
        -10.130510956314293
      ],
      [
        "Ġgraphic",
        -10.130689591371222
      ],
      [
        "ĠAny",
        -10.131852350186673
      ],
      [
        "Ġshowing",
        -10.13196171962003
      ],
      [
        "Ġputt",
        -10.13209626855944
      ],
      [
        "Ġintervention",
        -10.132422085414
      ],
      [
        "with",
        -10.132590747347002
      ],
      [
        "First",
        -10.132920688672478
      ],
      [
        "Ġopening",
        -10.134039046367082
      ],
      [
        "]Ċ",
        -10.134267714839774
      ],
      [
        "Ġfarmers",
        -10.134933192289347
      ],
      [
        "Ġinvest",
        -10.136148331231324
      ],
      [
        "Ġsuffer",
        -10.136713718923035
      ],
      [
        "Ġconstruct",
        -10.13685399121572
      ],
      [
        "Be",
        -10.136978032442649
      ],
      [
        "Ġwhatever",
        -10.137522601187218
      ],
      [
        "ÂŃ",
        -10.137863713508224
      ],
      [
        "Share",
        -10.137981567780924
      ],
      [
        "Ġcurve",
        -10.138417023916418
      ],
      [
        "Ġyield",
        -10.138737917378789
      ],
      [
        "Ġcompetition",
        -10.138737920202807
      ],
      [
        "q",
        -10.138905851878404
      ],
      [
        "Ġprinting",
        -10.139578936037005
      ],
      [
        "Ġsupplement",
        -10.139858183782112
      ],
      [
        "urthermore",
        -10.141039542620303
      ],
      [
        "Ġnose",
        -10.141597121847816
      ],
      [
        "Ġfilled",
        -10.142596681592025
      ],
      [
        "Ġlighting",
        -10.14266270387009
      ],
      [
        "Ġsufficient",
        -10.14303956930641
      ],
      [
        "ium",
        -10.143209219872176
      ],
      [
        "ĠFebruary",
        -10.144379909139772
      ],
      [
        "Ġborn",
        -10.145210994551496
      ],
      [
        "ĠAugust",
        -10.145289807315052
      ],
      [
        "Ġgraph",
        -10.145623447372587
      ],
      [
        "way",
        -10.146229412936378
      ],
      [
        "Ġsharp",
        -10.147150678428504
      ],
      [
        "ĠTest",
        -10.14734677577303
      ],
      [
        "-related",
        -10.147373579248026
      ],
      [
        "Ġdistinct",
        -10.14747821565068
      ],
      [
        "Ġdishe",
        -10.14748934300022
      ],
      [
        "Ġillustrate",
        -10.147597135300297
      ],
      [
        "ĠEnergy",
        -10.148351547758502
      ],
      [
        "Ġprofile",
        -10.148553786537631
      ],
      [
        "Ġband",
        -10.148661643785974
      ],
      [
        "Ġcalm",
        -10.149551066769352
      ],
      [
        "Ġnormally",
        -10.15001932038421
      ],
      [
        "Ġhistorical",
        -10.151589163404488
      ],
      [
        "Ġprofessionals",
        -10.151843104844678
      ],
      [
        "ĠZ",
        -10.151876308533677
      ],
      [
        "Ġmold",
        -10.152404116000238
      ],
      [
        "ver",
        -10.153079070637048
      ],
      [
        "Ġconsideration",
        -10.153488002545457
      ],
      [
        "Ġimagine",
        -10.153518565666028
      ],
      [
        "Ġrace",
        -10.153551131648214
      ],
      [
        "Ġappeal",
        -10.153644659958797
      ],
      [
        "Ġdecided",
        -10.154446202625614
      ],
      [
        "bacterial",
        -10.154685906334327
      ],
      [
        "ĠPark",
        -10.15510350564352
      ],
      [
        "Ġsaving",
        -10.155485341165612
      ],
      [
        "Ġsilver",
        -10.156387164002863
      ],
      [
        "Ġheal",
        -10.156709529291746
      ],
      [
        "per",
        -10.156866666461122
      ],
      [
        "Ġaudience",
        -10.15792837723835
      ],
      [
        "Ġincorporate",
        -10.15821024630372
      ],
      [
        "Ġrecognize",
        -10.158518877478034
      ],
      [
        "ĠCo",
        -10.1590507653433
      ],
      [
        "Ġcolumn",
        -10.1593776871381
      ],
      [
        "Ġdesigner",
        -10.160356003965422
      ],
      [
        "Ġpilot",
        -10.160762304783702
      ],
      [
        "Ġvisibl",
        -10.160880049082555
      ],
      [
        "Ġdust",
        -10.162120997808923
      ],
      [
        "Ġchair",
        -10.162278457642586
      ],
      [
        "Ġbeauty",
        -10.162853289348329
      ],
      [
        "He",
        -10.162898341399934
      ],
      [
        "ated",
        -10.16459945466189
      ],
      [
        "Ġstorie",
        -10.1661574730101
      ],
      [
        "go",
        -10.166611245323343
      ],
      [
        "Ġcommunicate",
        -10.167404613144653
      ],
      [
        "Ġfields",
        -10.16753280331858
      ],
      [
        "Ġshapes",
        -10.16837447142568
      ],
      [
        "Ġreward",
        -10.16881971163167
      ],
      [
        "Ġsector",
        -10.168941676519118
      ],
      [
        "Ġthrow",
        -10.169065027073266
      ],
      [
        "Ġlay",
        -10.169224458986724
      ],
      [
        "Ġpregnanc",
        -10.169242765021728
      ],
      [
        "made",
        -10.169398605858838
      ],
      [
        "Ġmath",
        -10.169457966364613
      ],
      [
        "Ġshoulder",
        -10.170303914356488
      ],
      [
        "Ġdelicious",
        -10.170933157578958
      ],
      [
        "Ġstructural",
        -10.172679382209626
      ],
      [
        "ĠBoth",
        -10.172730030713396
      ],
      [
        "Ġextensive",
        -10.173641215241974
      ],
      [
        "Ġlung",
        -10.174766571562149
      ],
      [
        "Ġminimize",
        -10.175146524765122
      ],
      [
        "ĠHome",
        -10.175221797501386
      ],
      [
        "ex",
        -10.175411787698208
      ],
      [
        "Ġinstallation",
        -10.176048734171127
      ],
      [
        "ĠPlant",
        -10.176556012643957
      ],
      [
        "Ġchart",
        -10.176707602602717
      ],
      [
        "Ġencounter",
        -10.177289620814024
      ],
      [
        "According",
        -10.17771879370585
      ],
      [
        "Ġscene",
        -10.177958348972322
      ],
      [
        "Ġmanag",
        -10.178155538055917
      ],
      [
        "Ġobjective",
        -10.178844197086832
      ],
      [
        "Ġcorn",
        -10.179513137655713
      ],
      [
        "Ġgreenhouse",
        -10.179758632462608
      ],
      [
        "Ġdisorder",
        -10.179849952773113
      ],
      [
        "Ġstanding",
        -10.179924125015294
      ],
      [
        "Ġherb",
        -10.18014514606497
      ],
      [
        "Ġcultural",
        -10.180209376608556
      ],
      [
        "Ġminerals",
        -10.18250568137896
      ],
      [
        "Ġrestaurant",
        -10.182516197077168
      ],
      [
        "Ġprompt",
        -10.18308964689012
      ],
      [
        "Ġexcess",
        -10.18397260174131
      ],
      [
        "Ġwish",
        -10.184087845225916
      ],
      [
        "Ġcontrast",
        -10.185575656095104
      ],
      [
        "Ġillness",
        -10.185727127679034
      ],
      [
        "Ġmission",
        -10.18624705173286
      ],
      [
        "ĠStep",
        -10.186699507312024
      ],
      [
        "Ġbarrier",
        -10.18730645583721
      ],
      [
        "Ġgrill",
        -10.187340587379603
      ],
      [
        "Ġclothing",
        -10.187483599748614
      ],
      [
        "Ġpriorit",
        -10.187961932355329
      ],
      [
        "Ġsuit",
        -10.188012190508966
      ],
      [
        "Ġworry",
        -10.188936946040162
      ],
      [
        "ĠJanuary",
        -10.189132381874195
      ],
      [
        "Ġcomposition",
        -10.19019940140467
      ],
      [
        "Ġpictures",
        -10.19051945122222
      ],
      [
        "Ġvegan",
        -10.190825498842935
      ],
      [
        "Ġbug",
        -10.191347588655102
      ],
      [
        "Ġcircle",
        -10.191448355527994
      ],
      [
        "ĠTake",
        -10.191673345505308
      ],
      [
        "Ġintegrate",
        -10.193482848614227
      ],
      [
        "Ġhunt",
        -10.193501602517989
      ],
      [
        "Ġexhibit",
        -10.19470217282855
      ],
      [
        "Ġdestroy",
        -10.195492441206618
      ],
      [
        "Ġsitting",
        -10.195654983085545
      ],
      [
        "Ġsurprise",
        -10.195746530965677
      ],
      [
        "Ġport",
        -10.195915566769989
      ],
      [
        "are",
        -10.196620527627726
      ],
      [
        "Ġaccurac",
        -10.196766869565916
      ],
      [
        "Ġpropose",
        -10.19709940148241
      ],
      [
        "ut",
        -10.197420391337731
      ],
      [
        "Ġvarie",
        -10.197496059340873
      ],
      [
        "Ġversatil",
        -10.197580275192731
      ],
      [
        "Ġpreparation",
        -10.197678917355828
      ],
      [
        "aging",
        -10.198057177132156
      ],
      [
        "Ġbroken",
        -10.198881298069391
      ],
      [
        "Ġfelt",
        -10.200165325516371
      ],
      [
        "Ġindex",
        -10.200592191327791
      ],
      [
        "Ġatoms",
        -10.2007549271711
      ],
      [
        "Ġattribute",
        -10.200940620538072
      ],
      [
        "Ġpredator",
        -10.201072583945766
      ],
      [
        "diversity",
        -10.20138240467334
      ],
      [
        "ĠHuman",
        -10.201523640496834
      ],
      [
        "Ġnail",
        -10.201895289020918
      ],
      [
        "Ġfloat",
        -10.20274542236674
      ],
      [
        "Ġcombined",
        -10.202942260680782
      ],
      [
        "Ġinner",
        -10.203010141631584
      ],
      [
        "Ġappreciate",
        -10.20624380216351
      ],
      [
        "Ġinterior",
        -10.206452772830088
      ],
      [
        "Ġ...ĊĊ",
        -10.208713396741608
      ],
      [
        "Ġresponsibilit",
        -10.2090563440505
      ],
      [
        "spent",
        -10.20907796952935
      ],
      [
        "Ġminute",
        -10.210331310317727
      ],
      [
        "Ġuniverse",
        -10.21191688068984
      ],
      [
        "ĠCheck",
        -10.211922690004492
      ],
      [
        "ĠCollege",
        -10.212603609767124
      ],
      [
        "Ġexpose",
        -10.21284502460582
      ],
      [
        "âĪĴ",
        -10.212907574065056
      ],
      [
        "ĠAC",
        -10.213308142592044
      ],
      [
        "Ġthermal",
        -10.21356333522549
      ],
      [
        "Ġtooth",
        -10.214093273350445
      ],
      [
        "Ġprove",
        -10.214115663618744
      ],
      [
        "Ġbank",
        -10.214603627445934
      ],
      [
        "Ġdelay",
        -10.214743898923992
      ],
      [
        "board",
        -10.214850762452595
      ],
      [
        "ĠIsland",
        -10.216621811728311
      ],
      [
        "Ġcharging",
        -10.216821880228048
      ],
      [
        "ĠLearn",
        -10.217035656428902
      ],
      [
        "Ġaccessib",
        -10.219689743709864
      ],
      [
        "Ġinnovative",
        -10.22010767263486
      ],
      [
        "Ġmatrix",
        -10.220637268013236
      ],
      [
        "Ġconducted",
        -10.220854641517844
      ],
      [
        "Ġrecommendation",
        -10.22174561453818
      ],
      [
        "Ġoven",
        -10.22216841815124
      ],
      [
        "Ġlie",
        -10.223536792251744
      ],
      [
        "br",
        -10.223782608167731
      ],
      [
        "but",
        -10.225286777320658
      ],
      [
        "Ġleak",
        -10.22557334342787
      ],
      [
        "men",
        -10.226990328958829
      ],
      [
        "Ġcake",
        -10.22706796961968
      ],
      [
        "Ġinspire",
        -10.227081881036934
      ],
      [
        "Ġfinger",
        -10.227207035629773
      ],
      [
        "Ġdimension",
        -10.227473342510931
      ],
      [
        "Ġtie",
        -10.228066501446165
      ],
      [
        "Ġexplor",
        -10.228810469040576
      ],
      [
        "Ġshop",
        -10.229415350390184
      ],
      [
        "Ġgrant",
        -10.229852971656603
      ],
      [
        "Ġloop",
        -10.23080339740951
      ],
      [
        "Ġcharacters",
        -10.23080614296267
      ],
      [
        "gave",
        -10.23101566255476
      ],
      [
        "Ġbean",
        -10.231451163091164
      ],
      [
        "Ġfoster",
        -10.231628152679852
      ],
      [
        "Ġwoman",
        -10.231868324904047
      ],
      [
        "Ġpackage",
        -10.233204320652831
      ],
      [
        "Ġsecret",
        -10.233275594295293
      ],
      [
        "how",
        -10.233852668219711
      ],
      [
        "ĠPower",
        -10.233897908710157
      ],
      [
        "eath",
        -10.23581587128946
      ],
      [
        "ĠGood",
        -10.236270933793868
      ],
      [
        "Ġtube",
        -10.237587622317369
      ],
      [
        "Ġarray",
        -10.23777806655366
      ],
      [
        "Ġbread",
        -10.238065466185006
      ],
      [
        "Ġacademic",
        -10.238134493415211
      ],
      [
        "ĠIndian",
        -10.238321852494623
      ],
      [
        "Let",
        -10.238843618348811
      ],
      [
        "Ġheavi",
        -10.239008939859984
      ],
      [
        "ĠGet",
        -10.2390131795797
      ],
      [
        "Ġtoxic",
        -10.239177690371156
      ],
      [
        "Ġbrief",
        -10.239360741638354
      ],
      [
        "Ġblade",
        -10.240936085869668
      ],
      [
        "Ġnovel",
        -10.241003835241637
      ],
      [
        "Ġdivided",
        -10.24104453230238
      ],
      [
        "ĠData",
        -10.241215677003645
      ],
      [
        "Ġwonder",
        -10.241922468997476
      ],
      [
        "espite",
        -10.241953795297936
      ],
      [
        "Ġarm",
        -10.244194873518545
      ],
      [
        "ca",
        -10.244380779188166
      ],
      [
        "Ġsizes",
        -10.245561204275914
      ],
      [
        "Children",
        -10.245638287636606
      ],
      [
        "Ġhousehold",
        -10.245742387030546
      ],
      [
        "Ġconversation",
        -10.24616819930344
      ],
      [
        "Ġchronic",
        -10.247077233088651
      ],
      [
        "Ġblow",
        -10.2484513303128
      ],
      [
        "Ġnutrition",
        -10.248494259702891
      ],
      [
        "Ġgradual",
        -10.248545872335676
      ],
      [
        "Ġletter",
        -10.248719991145052
      ],
      [
        "Ġaquarium",
        -10.250336250475067
      ],
      [
        "Ġrely",
        -10.251343823195652
      ],
      [
        "ent",
        -10.251816673235693
      ],
      [
        "Ġdatabase",
        -10.2520380225701
      ],
      [
        "ĠII",
        -10.252391616424193
      ],
      [
        "Ġmild",
        -10.252742486809176
      ],
      [
        "Ġgirl",
        -10.253250976854757
      ],
      [
        "Ġaccident",
        -10.253551191041884
      ],
      [
        "tion",
        -10.254596960507676
      ],
      [
        "Ġgate",
        -10.25498281119734
      ],
      [
        "Ġroute",
        -10.255228223674214
      ],
      [
        "ĠSan",
        -10.255866379857007
      ],
      [
        "Ġcraft",
        -10.257015180181869
      ],
      [
        "Ġremoval",
        -10.257302345833237
      ],
      [
        "Ġclearly",
        -10.257308205426169
      ],
      [
        "Ġspray",
        -10.257766164457754
      ],
      [
        "Although",
        -10.258181331186725
      ],
      [
        "ĠEvery",
        -10.258248898253637
      ],
      [
        "Ġloose",
        -10.258438497757018
      ],
      [
        "we",
        -10.25853457434881
      ],
      [
        "Ġcombine",
        -10.258847562269036
      ],
      [
        "ley",
        -10.25899508687622
      ],
      [
        "Ġsmoke",
        -10.260483810414804
      ],
      [
        "Ġconsult",
        -10.261260334632468
      ],
      [
        "Ġdebri",
        -10.261470619637096
      ],
      [
        "Ġprofessor",
        -10.26221765716726
      ],
      [
        "Ġsurvival",
        -10.26234121253379
      ],
      [
        "ĠInternet",
        -10.263090322729555
      ],
      [
        "Ġfacilit",
        -10.263666847320192
      ],
      [
        "ĠPro",
        -10.263879924447885
      ],
      [
        "ach",
        -10.264213017345716
      ],
      [
        "Ġrocks",
        -10.264411547439508
      ],
      [
        "ene",
        -10.265855661130692
      ],
      [
        "Ġessay",
        -10.2663605883907
      ],
      [
        "ĠPC",
        -10.266667807368018
      ],
      [
        "Ġfixed",
        -10.266939470549168
      ],
      [
        "Ġinterface",
        -10.26752747777099
      ],
      [
        "Ġwarming",
        -10.268457069155406
      ],
      [
        "Ġnitrogen",
        -10.268669029679245
      ],
      [
        "ĠLearning",
        -10.269156424580292
      ],
      [
        "Ġemploy",
        -10.26933481889166
      ],
      [
        "Ġguess",
        -10.269565299563176
      ],
      [
        "Ġminimal",
        -10.269674345721649
      ],
      [
        "Ġtrial",
        -10.271127966679646
      ],
      [
        "Ġtri",
        -10.27171575899224
      ],
      [
        "Ġwonderful",
        -10.272012971888918
      ],
      [
        "BD",
        -10.272998921376807
      ],
      [
        "ĠAfrican",
        -10.273642426132902
      ],
      [
        "Ġdisorders",
        -10.274061766241664
      ],
      [
        "Ġcontaining",
        -10.274288560627046
      ],
      [
        "Ġintroduc",
        -10.274700766690897
      ],
      [
        "Ġweigh",
        -10.275154431130437
      ],
      [
        "ĠFree",
        -10.275574156299957
      ],
      [
        "Ġthrive",
        -10.27580914331896
      ],
      [
        "Ġfamous",
        -10.2760899429698
      ],
      [
        "ĠPer",
        -10.276134042163212
      ],
      [
        "Ġvet",
        -10.277003740493765
      ],
      [
        "Ġgenerat",
        -10.27711433790228
      ],
      [
        "Ġeconom",
        -10.280124501917292
      ],
      [
        "ER",
        -10.28064770245212
      ],
      [
        "Ġ<",
        -10.280686998750202
      ],
      [
        "Ġinfect",
        -10.281539791114293
      ],
      [
        "Ġrice",
        -10.281780022042216
      ],
      [
        "Ġvacuum",
        -10.281996922948178
      ],
      [
        "confidence",
        -10.28268298983571
      ],
      [
        "Ġvast",
        -10.28287467282221
      ],
      [
        "Ġtip",
        -10.282912713209686
      ],
      [
        "Ġcomput",
        -10.28296938864508
      ],
      [
        "Ġcorner",
        -10.28305472915544
      ],
      [
        "Ġmeasurements",
        -10.2832471381501
      ],
      [
        "Ġveterinarian",
        -10.283965703137511
      ],
      [
        "Ġpop",
        -10.284057272900416
      ],
      [
        "Despite",
        -10.285343710310867
      ],
      [
        "Ġmenu",
        -10.286066616033937
      ],
      [
        "Ġpure",
        -10.28617556982098
      ],
      [
        "Ġdiagnosi",
        -10.286342582266798
      ],
      [
        "Ġexciting",
        -10.28644540411896
      ],
      [
        "Ġreceiv",
        -10.286666664555216
      ],
      [
        "Ġdrill",
        -10.287037410330525
      ],
      [
        "Ġevaluate",
        -10.287088080957428
      ],
      [
        "Ġfertilizer",
        -10.28724194226726
      ],
      [
        "Ġstorm",
        -10.28785095352449
      ],
      [
        "Ġplug",
        -10.288868779114448
      ],
      [
        "Ġsauce",
        -10.2898464086024
      ],
      [
        "Ġinflammation",
        -10.29017938297951
      ],
      [
        "Ġstar",
        -10.290245936356326
      ],
      [
        "ĠThrough",
        -10.290339036989328
      ],
      [
        "Ġborder",
        -10.290374121246552
      ],
      [
        "Ġtea",
        -10.291052567126382
      ],
      [
        "Ġcampaign",
        -10.29130737166241
      ],
      [
        "ĠArt",
        -10.291324098052968
      ],
      [
        "Ġmanner",
        -10.291405332103214
      ],
      [
        "ĠBlack",
        -10.29174009304661
      ],
      [
        "Ġmodule",
        -10.291862526116194
      ],
      [
        "ĠDC",
        -10.292140157734618
      ],
      [
        "Ġdinosaur",
        -10.292212664957429
      ],
      [
        "Ġinch",
        -10.292731905976924
      ],
      [
        "ĠConsider",
        -10.292859257806882
      ],
      [
        "Ġobes",
        -10.292887415633182
      ],
      [
        "Ġcalculation",
        -10.293032658458111
      ],
      [
        "Ġnet",
        -10.294387903357787
      ],
      [
        "Ġexcept",
        -10.294727680282543
      ],
      [
        "Ġmeasurement",
        -10.294879156223049
      ],
      [
        "Ġdownload",
        -10.29509328661069
      ],
      [
        "Ġmolecular",
        -10.2958309453755
      ],
      [
        "Ġobservation",
        -10.295846442811936
      ],
      [
        "osis",
        -10.298978389502317
      ],
      [
        "Ġalter",
        -10.299635223003218
      ],
      [
        "Ġfamiliar",
        -10.29981451781336
      ],
      [
        "Ġtire",
        -10.30035605014576
      ],
      [
        "ĠGuide",
        -10.300613022912502
      ],
      [
        "Ġrespirator",
        -10.300698919465006
      ],
      [
        "Ġpolitical",
        -10.30082911457604
      ],
      [
        "Ġthanks",
        -10.301438637089
      ],
      [
        "iness",
        -10.301587832448838
      ],
      [
        "Ġchapter",
        -10.302218757209184
      ],
      [
        "Ġtraffic",
        -10.302760677858538
      ],
      [
        "Ġapproache",
        -10.30326902227914
      ],
      [
        "ĠRemember",
        -10.303756194298384
      ],
      [
        "Ġworse",
        -10.304794868161338
      ],
      [
        "Not",
        -10.305087105210164
      ],
      [
        "Ġears",
        -10.305305191972185
      ],
      [
        "like",
        -10.305491614053912
      ],
      [
        "Ġchocolate",
        -10.306175960447888
      ],
      [
        "Ġcopper",
        -10.30618684496688
      ],
      [
        "Ġadequate",
        -10.306243495450037
      ],
      [
        "Ġthoughts",
        -10.306538426635488
      ],
      [
        "ĠLook",
        -10.30704160082874
      ],
      [
        "Ġquantum",
        -10.307353503395635
      ],
      [
        "Ġfacility",
        -10.307668243555058
      ],
      [
        "Ġorange",
        -10.307965657878714
      ],
      [
        "going",
        -10.308145428689116
      ],
      [
        "Ġtall",
        -10.308786177596115
      ],
      [
        "Ġclothes",
        -10.308835309567744
      ],
      [
        "Ġconsum",
        -10.308934959262093
      ],
      [
        "Ġgenerator",
        -10.309053508060284
      ],
      [
        "Ġprocedures",
        -10.30907161250001
      ],
      [
        "Ġtrouble",
        -10.309158885842336
      ],
      [
        "Ġliver",
        -10.309870174074543
      ],
      [
        "].",
        -10.309942247168408
      ],
      [
        "Ġradiation",
        -10.3112127682112
      ],
      [
        "Â°",
        -10.312094505194423
      ],
      [
        "Ġassistance",
        -10.31234425919694
      ],
      [
        "ng",
        -10.31287636716306
      ],
      [
        "Ġstring",
        -10.313414686879298
      ],
      [
        "Ġsenior",
        -10.313694831862
      ],
      [
        "Ġexplanation",
        -10.313704136834916
      ],
      [
        "Ġplays",
        -10.313787577050077
      ],
      [
        "Ġpan",
        -10.313950318776762
      ],
      [
        "Ġentirely",
        -10.314042856857943
      ],
      [
        "Ġmeasuring",
        -10.314513262702093
      ],
      [
        "ĠChoos",
        -10.314542391297907
      ],
      [
        "ĠOctober",
        -10.314594916096231
      ],
      [
        "Ġstream",
        -10.315047626235284
      ],
      [
        "Ġpossibly",
        -10.315167705936506
      ],
      [
        "Ġprotective",
        -10.315205365148463
      ],
      [
        "ĠTime",
        -10.31663209381319
      ],
      [
        "Ġmineral",
        -10.316829011364296
      ],
      [
        "Ġcloud",
        -10.317431012650855
      ],
      [
        "Ġinsert",
        -10.317790682641322
      ],
      [
        "Ġdepression",
        -10.319765719817209
      ],
      [
        "Ġstrengthen",
        -10.319814016484129
      ],
      [
        "Ġapprove",
        -10.320245948609202
      ],
      [
        "Ġkinds",
        -10.32266034872124
      ],
      [
        "Ġmassive",
        -10.32273225962814
      ],
      [
        "Ġbreast",
        -10.323687677734096
      ],
      [
        "Ġagriculture",
        -10.323808889311795
      ],
      [
        "Ġpepper",
        -10.32381081578844
      ],
      [
        "Ġinitiative",
        -10.323843100984284
      ],
      [
        "Ġsuccessfully",
        -10.324537050083574
      ],
      [
        "Ġvector",
        -10.3252909396959
      ],
      [
        "Ġbigge",
        -10.325684686751998
      ],
      [
        "Ġanalyze",
        -10.325685526190956
      ],
      [
        "Ġdedicate",
        -10.325961620684462
      ],
      [
        "ster",
        -10.326367107937084
      ],
      [
        "Introduction",
        -10.326409843020398
      ],
      [
        "Ġaward",
        -10.32677938897196
      ],
      [
        "Ġbehaviour",
        -10.326961297458622
      ],
      [
        "Ġcovers",
        -10.327928017059856
      ],
      [
        "Ġma",
        -10.328153814944509
      ],
      [
        "Before",
        -10.328225579447848
      ],
      [
        "Ġdomain",
        -10.32862539654327
      ],
      [
        "Ġmolecule",
        -10.33094140241634
      ],
      [
        "Ġacids",
        -10.330997628067683
      ],
      [
        "Ġprey",
        -10.3311931644808
      ],
      [
        "Ġbelief",
        -10.331287155272786
      ],
      [
        "Ġembodiment",
        -10.33239650658196
      ],
      [
        "Ġreact",
        -10.332531224207404
      ],
      [
        "Ġlaborator",
        -10.333052483252084
      ],
      [
        "ĠCity",
        -10.333068359504306
      ],
      [
        "Ġblind",
        -10.333576489391394
      ],
      [
        "Ġachiev",
        -10.33360785721058
      ],
      [
        "Ġturning",
        -10.33396890889459
      ],
      [
        "Ġhomes",
        -10.334042485182945
      ],
      [
        "Ġscore",
        -10.334263107917373
      ],
      [
        "ists",
        -10.334547194185484
      ],
      [
        "Ġpassenger",
        -10.334638771332656
      ],
      [
        "ĠpH",
        -10.334790891531888
      ],
      [
        "ification",
        -10.335086081884285
      ],
      [
        "Ġaffects",
        -10.336104980583205
      ],
      [
        "Dur",
        -10.336881479940542
      ],
      [
        "Ġmammal",
        -10.337223979616706
      ],
      [
        "Ġprofit",
        -10.337576556150555
      ],
      [
        "ge",
        -10.33891846704386
      ],
      [
        "Ġpeak",
        -10.339294397480783
      ],
      [
        "Ġyard",
        -10.339642129912969
      ],
      [
        "Ġforget",
        -10.339679988751833
      ],
      [
        "Ġswimming",
        -10.339911551722704
      ],
      [
        "Ġjuice",
        -10.340877392020824
      ],
      [
        "Ġoral",
        -10.340938898649377
      ],
      [
        "\"The",
        -10.34148671684006
      ],
      [
        "Ġbigger",
        -10.341760153549732
      ],
      [
        "Ġagricultural",
        -10.341807990695797
      ],
      [
        "Ġlisted",
        -10.341846298412197
      ],
      [
        "Ġnorth",
        -10.342105057191578
      ],
      [
        "Ġthreat",
        -10.34224338965776
      ],
      [
        "Ġsouthern",
        -10.342377627332938
      ],
      [
        "ĠLED",
        -10.34310078022181
      ],
      [
        "ĠEngland",
        -10.34317533148929
      ],
      [
        "Ġcollected",
        -10.343446254498527
      ],
      [
        "Ġcopy",
        -10.344327275298362
      ],
      [
        "ĠAdd",
        -10.344960689906548
      ],
      [
        "Ġsent",
        -10.345090302317969
      ],
      [
        "Ġperiods",
        -10.345453749892844
      ],
      [
        "ĠLight",
        -10.34562035326472
      ],
      [
        "Ġunlike",
        -10.347254251410549
      ],
      [
        "aught",
        -10.34889575741554
      ],
      [
        "ĠToday",
        -10.349352872917528
      ],
      [
        "ĠOpen",
        -10.349731940294198
      ],
      [
        "Since",
        -10.349874769482865
      ],
      [
        "Ġinform",
        -10.35025184221772
      ],
      [
        "Ġplayed",
        -10.35085486927317
      ],
      [
        "ĠControl",
        -10.350928836434504
      ],
      [
        "Ġlicense",
        -10.35118220893683
      ],
      [
        "Ġalign",
        -10.351393114554964
      ],
      [
        "Ġgenome",
        -10.351991732102114
      ],
      [
        "Ġrecognition",
        -10.352161048357685
      ],
      [
        "Ġmining",
        -10.352532224365646
      ],
      [
        "Ġcounter",
        -10.352776550288642
      ],
      [
        "Ġopposite",
        -10.352786383971054
      ],
      [
        "Ġflu",
        -10.3528785100945
      ],
      [
        "see",
        -10.353528939635684
      ],
      [
        "Ġgram",
        -10.353660471072097
      ],
      [
        "Ġfan",
        -10.353975985565802
      ],
      [
        "Ġsmok",
        -10.354107924352263
      ],
      [
        "Ġwearing",
        -10.354119625731316
      ],
      [
        "Ġspecialize",
        -10.354237936493371
      ],
      [
        "Ġsold",
        -10.354662490510592
      ],
      [
        "ler",
        -10.35468730838829
      ],
      [
        "ĠEast",
        -10.35471765534999
      ],
      [
        "Ġnorthern",
        -10.354781776240625
      ],
      [
        "Ġtruth",
        -10.354959119019584
      ],
      [
        "Ġcooked",
        -10.355035957569722
      ],
      [
        "Ġtough",
        -10.355077512023296
      ],
      [
        "Ġtrend",
        -10.355161216135384
      ],
      [
        "Ġderive",
        -10.356503636410064
      ],
      [
        "ĠWindow",
        -10.356870768429667
      ],
      [
        "Ġwindows",
        -10.35708355836259
      ],
      [
        "Ġrural",
        -10.357415704619845
      ],
      [
        "Ġclub",
        -10.357424355477276
      ],
      [
        "Ġvariant",
        -10.357610167559802
      ],
      [
        "brough",
        -10.357764097698208
      ],
      [
        "Ġturns",
        -10.358572023447865
      ],
      [
        "Ġwasn",
        -10.358636781887489
      ],
      [
        "Ġphysics",
        -10.359497167862305
      ],
      [
        "Ġdesire",
        -10.359787629557848
      ],
      [
        "Ġdiagnose",
        -10.36002607821352
      ],
      [
        "ĠTwo",
        -10.3600294216279
      ],
      [
        "Ġnarrow",
        -10.360049157956707
      ],
      [
        "ĠNovember",
        -10.360980405987236
      ],
      [
        "ĠAnimal",
        -10.361218685658354
      ],
      [
        "ED",
        -10.361290567005646
      ],
      [
        "Ġlense",
        -10.361329564505583
      ],
      [
        "Ġelectrons",
        -10.361480614075866
      ],
      [
        "Ġcookie",
        -10.361948715347616
      ],
      [
        "ĠPleas",
        -10.362409173215896
      ],
      [
        "Ġinteractive",
        -10.36287634051056
      ],
      [
        "Ġproduces",
        -10.364777850259696
      ],
      [
        "Don",
        -10.36488155245562
      ],
      [
        "Ġmeant",
        -10.36491689147855
      ],
      [
        "Ġmagnetic",
        -10.365743350412783
      ],
      [
        "Ġplus",
        -10.365858694603798
      ],
      [
        "Ġmark",
        -10.366127699017763
      ],
      [
        "Ġparticipate",
        -10.3662122243189
      ],
      [
        "Ġalumin",
        -10.366709911183047
      ],
      [
        "Ġ-->",
        -10.3680952530703
      ],
      [
        "Ġsoap",
        -10.368210764110598
      ],
      [
        "ize",
        -10.369396957208984
      ],
      [
        "Ġbridge",
        -10.369593723646428
      ],
      [
        "Ġride",
        -10.370299516920388
      ],
      [
        "ĠSometimes",
        -10.37061626440732
      ],
      [
        "Ġtrace",
        -10.370676526752291
      ],
      [
        "Ġinfrastructure",
        -10.370759087993564
      ],
      [
        "Ġtrait",
        -10.37107168288236
      ],
      [
        "Ġhandl",
        -10.37148699726383
      ],
      [
        "Ġrenewable",
        -10.371536798637258
      ],
      [
        "Ġbloom",
        -10.372755220873938
      ],
      [
        "Ġkg",
        -10.373392470009014
      ],
      [
        "Ġjar",
        -10.374382066718312
      ],
      [
        "Ġvertical",
        -10.374994941204733
      ],
      [
        "ĠPM",
        -10.3772620185314
      ],
      [
        "ĠHave",
        -10.377320322271093
      ],
      [
        "Ġexchange",
        -10.377380085753137
      ],
      [
        "Ġtear",
        -10.377556840894382
      ],
      [
        "Ġfiles",
        -10.378374725244049
      ],
      [
        "tended",
        -10.378452656571604
      ],
      [
        "ĠTechnology",
        -10.378809119333932
      ],
      [
        "Ġguarantee",
        -10.379061180455864
      ],
      [
        "ĠThus",
        -10.379164747019274
      ],
      [
        "Ġregulate",
        -10.37930279908112
      ],
      [
        "ĠProgram",
        -10.380315294471096
      ],
      [
        "Ġenhanc",
        -10.380389437982632
      ],
      [
        "Ġstars",
        -10.380741488913609
      ],
      [
        "Ġrecords",
        -10.380960646045857
      ],
      [
        "Ġdiffer",
        -10.381451679117102
      ],
      [
        "Ġgather",
        -10.38191808748724
      ],
      [
        "Ġpuppy",
        -10.38249437785912
      ],
      [
        "Ġshark",
        -10.382786661704328
      ],
      [
        "ĠUV",
        -10.38303947074096
      ],
      [
        "Ġaesthetic",
        -10.384097160665537
      ],
      [
        "Ġmistake",
        -10.384612364531687
      ],
      [
        "Ġbiolog",
        -10.385197813498175
      ],
      [
        "ĠWhite",
        -10.385657086742738
      ],
      [
        "Ġpond",
        -10.386551865016838
      ],
      [
        "Ġcolleague",
        -10.386738941188067
      ],
      [
        "Ġattractive",
        -10.386987448743575
      ],
      [
        "Ġrecorded",
        -10.387082235718026
      ],
      [
        "Ġsnake",
        -10.387218314623317
      ],
      [
        "Ġpresentation",
        -10.387862796521588
      ],
      [
        "Ġsales",
        -10.388983375519253
      ],
      [
        "Ġecosystem",
        -10.38951648375415
      ],
      [
        "ĠProject",
        -10.390464871767758
      ],
      [
        "Ġsessions",
        -10.391044184261112
      ],
      [
        "ating",
        -10.39199775557334
      ],
      [
        "Ġdioxide",
        -10.392176996325276
      ],
      [
        "most",
        -10.392969281267051
      ],
      [
        "Ġtutorial",
        -10.39307373301294
      ],
      [
        "Ġgase",
        -10.393084262073092
      ],
      [
        "ĠFoundation",
        -10.393974187174496
      ],
      [
        "Ġdream",
        -10.394078339683016
      ],
      [
        "Ġreplac",
        -10.394540885783403
      ],
      [
        "Ġincorporat",
        -10.394641835194925
      ],
      [
        "Ġworkshop",
        -10.39499738531147
      ],
      [
        "Ġsteam",
        -10.395034993944888
      ],
      [
        "Ġkne",
        -10.395208001552952
      ],
      [
        "-of",
        -10.395225772720943
      ],
      [
        "Ġgut",
        -10.395809022015552
      ],
      [
        "ĠSociety",
        -10.396026553994602
      ],
      [
        "Ġconflict",
        -10.396370509316885
      ],
      [
        "Ġdetection",
        -10.397509187388383
      ],
      [
        "Ġmice",
        -10.398444149397465
      ],
      [
        "ĠLake",
        -10.398933150167554
      ],
      [
        "Ġcord",
        -10.399025318366732
      ],
      [
        "Ġdairy",
        -10.399819463185429
      ],
      [
        "Ġextended",
        -10.399837217558687
      ],
      [
        "Ġpartner",
        -10.400067257566644
      ],
      [
        "Ġsouth",
        -10.400165754720566
      ],
      [
        "ING",
        -10.400546606950517
      ],
      [
        "Ġexperienc",
        -10.40072271013542
      ],
      [
        "Ġtransportation",
        -10.401107965610825
      ],
      [
        "Ġconsumers",
        -10.40120708913594
      ],
      [
        "Ġcleaner",
        -10.40124624458208
      ],
      [
        "ĠCommon",
        -10.401702037505716
      ],
      [
        "ĠKnow",
        -10.402722819963133
      ],
      [
        "twic",
        -10.402967219961084
      ],
      [
        "Ġcustom",
        -10.403573321778238
      ],
      [
        "hu",
        -10.403699955112442
      ],
      [
        "ĠWork",
        -10.404417220614423
      ],
      [
        "ĠJu",
        -10.404946046843584
      ],
      [
        "Ġmanager",
        -10.405718929728089
      ],
      [
        "Ġwarning",
        -10.406185027210682
      ],
      [
        "ĠStart",
        -10.40620746837003
      ],
      [
        "ĠDecember",
        -10.406388639359516
      ],
      [
        "Ġmountain",
        -10.408253044745294
      ],
      [
        "frozen",
        -10.411471686073307
      ],
      [
        "Ġweed",
        -10.411565933155837
      ],
      [
        "Ġwheels",
        -10.411812244012912
      ],
      [
        "ĠLa",
        -10.411875976232436
      ],
      [
        "Ġflexi",
        -10.41194746444626
      ],
      [
        "Ġ{",
        -10.41259235725585
      ],
      [
        "Ġpreserve",
        -10.413159314832196
      ],
      [
        "Ġtwist",
        -10.413438646880856
      ],
      [
        "Ġshell",
        -10.413574189035447
      ],
      [
        "ible",
        -10.413703791028189
      ],
      [
        "Ġsession",
        -10.41394258481268
      ],
      [
        "Final",
        -10.4144746762048
      ],
      [
        "Dr",
        -10.416226888571847
      ],
      [
        "Ġgentle",
        -10.416970868613692
      ],
      [
        "Ġcomputers",
        -10.41709455553722
      ],
      [
        "Ġease",
        -10.417184241548592
      ],
      [
        "Ġmetals",
        -10.418136056948429
      ],
      [
        "Ġpages",
        -10.41829843735296
      ],
      [
        "Ġinstitution",
        -10.418678262705908
      ],
      [
        "Ġoutline",
        -10.418718374795368
      ],
      [
        "Ġcent",
        -10.41877684128728
      ],
      [
        "New",
        -10.419794159093737
      ],
      [
        "Ġdive",
        -10.419854264096358
      ],
      [
        "Ġgone",
        -10.420033908299867
      ],
      [
        "?\"",
        -10.420149084534746
      ],
      [
        "Ġmask",
        -10.420229288966947
      ],
      [
        "can",
        -10.420551230652189
      ],
      [
        "back",
        -10.420746237417454
      ],
      [
        "Ġdetermin",
        -10.42091948567309
      ],
      [
        "Ġhabits",
        -10.4210435546161
      ],
      [
        "Ġrepeat",
        -10.42213743193589
      ],
      [
        "weight",
        -10.42249581822278
      ],
      [
        "Ġretain",
        -10.422588025061572
      ],
      [
        "Ġgam",
        -10.422716375834137
      ],
      [
        "Ġextract",
        -10.4227366442148
      ],
      [
        "Ġholes",
        -10.423102081836118
      ],
      [
        "ĠNatural",
        -10.423515201919244
      ],
      [
        "Ġmilitary",
        -10.4235897299096
      ],
      [
        "Ġgun",
        -10.423854138461063
      ],
      [
        "ĠFish",
        -10.423880644491016
      ],
      [
        "ard",
        -10.424344805868312
      ],
      [
        "ĠAsia",
        -10.424759185239267
      ],
      [
        "Ġtheme",
        -10.424825972087415
      ],
      [
        "-day",
        -10.424971316490993
      ],
      [
        "Ġpin",
        -10.425029987956565
      ],
      [
        "Ġcommitment",
        -10.42544278377118
      ],
      [
        "Ġspeech",
        -10.425679699300918
      ],
      [
        "ĠTV",
        -10.4258226194656
      ],
      [
        "Ġincome",
        -10.426360695843618
      ],
      [
        "Ġcontract",
        -10.426572183667956
      ],
      [
        "Ġexplains",
        -10.426745804543264
      ],
      [
        "Ġconsequences",
        -10.426760102611317
      ],
      [
        "Ġgravity",
        -10.427800032207028
      ],
      [
        "Ġimpossibl",
        -10.42855999766154
      ],
      [
        "ĠLondon",
        -10.428599961849915
      ],
      [
        "Ġpartial",
        -10.428832206140005
      ],
      [
        "Ġdepartment",
        -10.428925481543356
      ],
      [
        "ĠYear",
        -10.429294903733997
      ],
      [
        "ĠAustralian",
        -10.429410163157216
      ],
      [
        "Ġsew",
        -10.429443302546554
      ],
      [
        "que",
        -10.429623589185066
      ],
      [
        "wood",
        -10.429786821329165
      ],
      [
        "âĢ¦ĊĊ",
        -10.430614879889424
      ],
      [
        "ĠFinal",
        -10.43089398687625
      ],
      [
        "Ġprinter",
        -10.43096504146838
      ],
      [
        "Ġresistan",
        -10.430989451920688
      ],
      [
        "Ġcomparison",
        -10.431007069984476
      ],
      [
        "Ġinterview",
        -10.431016574094787
      ],
      [
        "Ġcollaboration",
        -10.431070856083736
      ],
      [
        "from",
        -10.431846696059084
      ],
      [
        "Ġwound",
        -10.432549967477796
      ],
      [
        "@",
        -10.433141766812753
      ],
      [
        "set",
        -10.43344428778598
      ],
      [
        "Ġlake",
        -10.433706088131778
      ],
      [
        "well",
        -10.43377031714445
      ],
      [
        "Ġshelter",
        -10.43383932794362
      ],
      [
        "Ġimprovement",
        -10.433982749943157
      ],
      [
        "Ġexercises",
        -10.43476937027174
      ],
      [
        "Ġindustri",
        -10.435702318152384
      ],
      [
        "Ġsubstantial",
        -10.436288794112135
      ],
      [
        "Ġtropical",
        -10.436380895752048
      ],
      [
        "Ġouter",
        -10.436563506623871
      ],
      [
        "Ġvolunteer",
        -10.437359123217163
      ],
      [
        "ĠOcean",
        -10.437628654666309
      ],
      [
        "Ġrais",
        -10.43788174321886
      ],
      [
        "ĠApple",
        -10.437996244631265
      ],
      [
        "Ġquilt",
        -10.438031811714268
      ],
      [
        "he",
        -10.439086771997172
      ],
      [
        ".[",
        -10.439224839534816
      ],
      [
        "stock",
        -10.439406070373147
      ],
      [
        "Ġinsulin",
        -10.439582193995744
      ],
      [
        "Ġwin",
        -10.440072287847125
      ],
      [
        "Ġgauge",
        -10.440459462041751
      ],
      [
        "ĠAssociation",
        -10.440580989840694
      ],
      [
        "Does",
        -10.441579377521997
      ],
      [
        "Ġ\\",
        -10.441997683322665
      ],
      [
        "our",
        -10.442575507628783
      ],
      [
        "ĠMedical",
        -10.442619496844337
      ],
      [
        "Ġcapital",
        -10.443360525470627
      ],
      [
        "ĠGarden",
        -10.44361856742854
      ],
      [
        "Ġunusual",
        -10.443914320514232
      ],
      [
        "Ġtransformation",
        -10.44425116357773
      ],
      [
        "ĠBefore",
        -10.44601581515488
      ],
      [
        "Ġreceptor",
        -10.44623958587872
      ],
      [
        "Unfortunatel",
        -10.446609917425157
      ],
      [
        "Ġdentist",
        -10.448133780839434
      ],
      [
        "ĠRock",
        -10.44863926349224
      ],
      [
        "ĠTexa",
        -10.448833003402374
      ],
      [
        "Ġrear",
        -10.448940378008466
      ],
      [
        "Ġspots",
        -10.45042673522548
      ],
      [
        "Ġmutation",
        -10.450444025051445
      ],
      [
        "Ġgraduate",
        -10.450950348275876
      ],
      [
        "Ġimplementation",
        -10.450996297551724
      ],
      [
        "Ġdelivery",
        -10.451636139273166
      ],
      [
        "afety",
        -10.4521139981214
      ],
      [
        "Ġlog",
        -10.452360402921713
      ],
      [
        "Ġconventional",
        -10.453309610708928
      ],
      [
        "Ġrestrict",
        -10.453438118590782
      ],
      [
        "âĢĺ",
        -10.45389734205984
      ],
      [
        "ĠChin",
        -10.454275522153168
      ],
      [
        "Ġresolution",
        -10.454832102511686
      ],
      [
        "Ġshrub",
        -10.45483657573734
      ],
      [
        "Ġpromot",
        -10.454924783172952
      ],
      [
        "Ġlock",
        -10.45585425254328
      ],
      [
        "Ġreports",
        -10.456295463848592
      ],
      [
        "ĠMexic",
        -10.456422771129604
      ],
      [
        "Ġfreeze",
        -10.456590244393762
      ],
      [
        "Other",
        -10.45693900506025
      ],
      [
        "Ġleads",
        -10.45768551297256
      ],
      [
        ");",
        -10.45921317356056
      ],
      [
        "Ġsnack",
        -10.459704243168195
      ],
      [
        "con",
        -10.459936670208991
      ],
      [
        "Ġnuts",
        -10.460197378995922
      ],
      [
        "wrot",
        -10.460607117632534
      ],
      [
        "Ġintroduction",
        -10.460819250199323
      ],
      [
        "ĠMr",
        -10.461106033823906
      ],
      [
        "Ġurban",
        -10.461143156703644
      ],
      [
        "Ġtrends",
        -10.461229474846732
      ],
      [
        "Ġdeer",
        -10.461618175158645
      ],
      [
        "ĠLife",
        -10.462357318675071
      ],
      [
        "Ġnecessari",
        -10.462617973684296
      ],
      [
        "Ġshock",
        -10.464462014429596
      ],
      [
        "Ġnames",
        -10.464678425493789
      ],
      [
        "Ġtradition",
        -10.464912220158784
      ],
      [
        "Als",
        -10.464986692243382
      ],
      [
        "Ġboy",
        -10.465159852243136
      ],
      [
        "Ġpink",
        -10.46539528661204
      ],
      [
        "Ġstudie",
        -10.465530949931566
      ],
      [
        "Ġabilities",
        -10.46558108830978
      ],
      [
        "Ġcards",
        -10.467552933965305
      ],
      [
        "ĠSpace",
        -10.46787001547538
      ],
      [
        "ĠProfessor",
        -10.4682543607804
      ],
      [
        "Ġcentre",
        -10.469652651264903
      ],
      [
        "Ġtax",
        -10.469661382063205
      ],
      [
        "Ġnutrient",
        -10.4699424310205
      ],
      [
        "kids",
        -10.470096019123034
      ],
      [
        "Ġfacing",
        -10.471098486125072
      ],
      [
        "Figure",
        -10.47111681303619
      ],
      [
        "Ġdisaster",
        -10.471421717973442
      ],
      [
        "Ġcreates",
        -10.471981817720478
      ],
      [
        "ĠDevelopment",
        -10.472611733329124
      ],
      [
        "Ġpurchas",
        -10.472624467507073
      ],
      [
        "Ġpermanent",
        -10.472805794766405
      ],
      [
        "Ġmajorit",
        -10.473243422453727
      ],
      [
        "Ġdur",
        -10.4733208115211
      ],
      [
        "Ġunknown",
        -10.473546705510698
      ],
      [
        "ĠTable",
        -10.47408161217534
      ],
      [
        "Ġinsurance",
        -10.474376386389086
      ],
      [
        "Ġdramatic",
        -10.474398296289303
      ],
      [
        "Ġbranche",
        -10.4746488714197
      ],
      [
        "Ġstimulate",
        -10.474809072231968
      ],
      [
        "Ġauthorit",
        -10.474834489980438
      ],
      [
        "lin",
        -10.475270548077006
      ],
      [
        "Ġhybrid",
        -10.476646775374928
      ],
      [
        "ways",
        -10.478237044918652
      ],
      [
        "Ġluck",
        -10.478529180139198
      ],
      [
        "Ġlights",
        -10.47868642790659
      ],
      [
        "Ġunderly",
        -10.478765328020224
      ],
      [
        "Ġray",
        -10.47980698300096
      ],
      [
        "ner",
        -10.479827083490823
      ],
      [
        "op",
        -10.479931823930208
      ],
      [
        "Ġsuspect",
        -10.480292595678904
      ],
      [
        "Ġequipp",
        -10.480561447075283
      ],
      [
        "Â°C",
        -10.480621593379208
      ],
      [
        "Ġstands",
        -10.481192938815571
      ],
      [
        "Ġatom",
        -10.481421648204329
      ],
      [
        "Ġarrive",
        -10.48166560985523
      ],
      [
        "Ġsexual",
        -10.48266420465634
      ],
      [
        "--",
        -10.483161086098267
      ],
      [
        "Ġapparent",
[...]
