{
  "version": "1.0",
  "truncation": null,
  "padding": null,
  "added_tokens": [
    {
      "id": 0,
      "content": "<|bos|>",
      "single_word": false,
      "lstrip": false,
      "rstrip": false,
      "normalized": false,
      "special": true
    },
    {
      "id": 1,
      "content": "<|user_start|>",
      "single_word": false,
      "lstrip": false,
      "rstrip": false,
      "normalized": false,
      "special": true
    },
    {
      "id": 2,
      "content": "<|user_end|>",
      "single_word": false,
      "lstrip": false,
      "rstrip": false,
      "normalized": false,
      "special": true
    },
    {
      "id": 3,
      "content": "<|assistant_start|>",
      "single_word": false,
      "lstrip": false,
      "rstrip": false,
      "normalized": false,
      "special": true
    },
    {
      "id": 4,
      "content": "<|assistant_end|>",
      "single_word": false,
      "lstrip": false,
      "rstrip": false,
      "normalized": false,
      "special": true
    },
    {
      "id": 5,
      "content": "<|python_start|>",
      "single_word": false,
      "lstrip": false,
      "rstrip": false,
      "normalized": false,
      "special": true
    },
    {
      "id": 6,
      "content": "<|python_end|>",
      "single_word": false,
      "lstrip": false,
      "rstrip": false,
      "normalized": false,
      "special": true
    },
    {
      "id": 7,
      "content": "<|output_start|>",
      "single_word": false,
      "lstrip": false,
      "rstrip": false,
      "normalized": false,
      "special": true
    },
    {
      "id": 8,
      "content": "<|output_end|>",
      "single_word": false,
      "lstrip": false,
      "rstrip": false,
      "normalized": false,
      "special": true
    },
    {
      "id": 9,
      "content": "<|unk|>",
      "single_word": false,
      "lstrip": false,
      "rstrip": false,
      "normalized": false,
      "special": true
    }
  ],
  "normalizer": null,
  "pre_tokenizer": {
    "type": "Sequence",
    "pretokenizers": [
      {
        "type": "Split",
        "pattern": {
          "Regex": "'(?i:[sdmt]|ll|ve|re)|[^\\r\\n\\p{L}\\p{N}]?+\\p{L}+|\\p{N}{1,2}| ?[^\\s\\p{L}\\p{N}]++[\\r\\n]*|\\s*[\\r\\n]|\\s+(?!\\S)|\\s+"
        },
        "behavior": "Isolated",
        "invert": false
      },
      {
        "type": "ByteLevel",
        "add_prefix_space": false,
        "trim_offsets": true,
        "use_regex": false
      }
    ]
  },
  "post_processor": {
    "type": "TemplateProcessing",
    "single": [
      {
        "Sequence": {
          "id": "A",
          "type_id": 0
        }
      }
    ],
    "pair": [
      {
        "Sequence": {
          "id": "A",
          "type_id": 0
        }
      },
      {
        "Sequence": {
          "id": "B",
          "type_id": 1
        }
      }
    ],
    "special_tokens": {}
  },
  "decoder": null,
  "model": {
    "type": "Unigram",
    "unk_id": 9,
    "vocab": [
      [
        "<|bos|>",
        0.0
      ],
      [
        "<|user_start|>",
        0.0
      ],
      [
        "<|user_end|>",
        0.0
      ],
      [
        "<|assistant_start|>",
        0.0
      ],
      [
        "<|assistant_end|>",
        0.0
      ],
      [
        "<|python_start|>",
        0.0
      ],
      [
        "<|python_end|>",
        0.0
      ],
      [
        "<|output_start|>",
        0.0
      ],
      [
        "<|output_end|>",
        0.0
      ],
      [
        "<|unk|>",
        0.0
      ],
      [
        "Ġ",
        -2.0802739627822753
      ],
      [
        "s",
        -3.144907260054536
      ],
      [
        ",",
        -3.5563189089466345
      ],
      [
        "Ġthe",
        -3.607008115868199
      ],
      [
        ".",
        -3.794775902062815
      ],
      [
        "a",
        -4.008472799928597
      ],
      [
        "Ġof",
        -4.276889382259187
      ],
      [
        "t",
        -4.3488148453168165
      ],
      [
        "d",
        -4.45144803109285
      ],
      [
        "Ġand",
        -4.477779817695595
      ],
      [
        "Ġto",
        -4.530584430682268
      ],
      [
        "o",
        -4.589991746004927
      ],
      [
        "e",
        -4.630291989750052
      ],
      [
        "ing",
        -4.78205157803054
      ],
      [
        "Ġin",
        -4.872152651679828
      ],
      [
        "i",
        -4.946978482218697
      ],
      [
        "y",
        -4.965667538662423
      ],
      [
        "'",
        -5.0454701814070955
      ],
      [
        "and",
        -5.08353237460372
      ],
      [
        "Ċ",
        -5.108521137216675
      ],
      [
        "0",
        -5.1216565406265495
      ],
      [
        "n",
        -5.20745476460184
      ],
      [
        "Ġthat",
        -5.215375985350249
      ],
      [
        "Ġfor",
        -5.227014084051536
      ],
      [
        "1",
        -5.250530949793511
      ],
      [
        ":",
        -5.3157288990975715
      ],
      [
        "2",
        -5.464303359374364
      ],
      [
        ".ĊĊ",
        -5.466022184197307
      ],
      [
        "Ġyou",
        -5.470029533587873
      ],
      [
        "Ġwith",
        -5.531728699286553
      ],
      [
        "ly",
        -5.565415711669921
      ],
      [
        "is",
        -5.567574109531355
      ],
      [
        "r",
        -5.6371750226124995
      ],
      [
        ".Ċ",
        -5.69020766323311
      ],
      [
        "Ġcan",
        -5.71944888352818
      ],
      [
        "Ġbe",
        -5.756710446603503
      ],
      [
        "Ġare",
        -5.766911461364092
      ],
      [
        "-",
        -5.804680083910641
      ],
      [
        "the",
        -5.826394864041079
      ],
      [
        "Ġis",
        -5.855521619362852
      ],
      [
        "f",
        -5.85568630735901
      ],
      [
        "ĊĊ",
        -5.8567300692591715
      ],
      [
        "Ġyour",
        -5.899073695789577
      ],
      [
        "to",
        -5.93062928852504
      ],
      [
        "on",
        -5.98404184435813
      ],
      [
        "(",
        -5.991363407108144
      ],
      [
        "\"",
        -6.0183025582274645
      ],
      [
        "Ġfrom",
        -6.068962811856752
      ],
      [
        "I",
        -6.081195869290914
      ],
      [
        "Ġhave",
        -6.092655617196369
      ],
      [
        "3",
        -6.10560770055741
      ],
      [
        "ĠThe",
        -6.106514707416528
      ],
      [
        "?",
        -6.114742990371784
      ],
      [
        "in",
        -6.1221746683651475
      ],
      [
        ")",
        -6.137487634394464
      ],
      [
        "5",
        -6.154492213694395
      ],
      [
        "Ġthis",
        -6.245484708814395
      ],
      [
        "ed",
        -6.2461680859700035
      ],
      [
        "Ġby",
        -6.262091400923065
      ],
      [
        "l",
        -6.312836600763584
      ],
      [
        "The",
        -6.331183767946987
      ],
      [
        "4",
        -6.351171684514201
      ],
      [
        "Ġnot",
        -6.363984621685731
      ],
      [
        "Ġtheir",
        -6.383940913153761
      ],
      [
        "Ġwill",
        -6.38919256603039
      ],
      [
        "of",
        -6.3951860639465945
      ],
      [
        "it",
        -6.419095098244204
      ],
      [
        "Ġa",
        -6.444418550641833
      ],
      [
        "9",
        -6.4533678075786565
      ],
      [
        "Ġwas",
        -6.476981354737344
      ],
      [
        "Ġor",
        -6.519585868774193
      ],
      [
        "or",
        -6.527284036478452
      ],
      [
        "are",
        -6.530888431997655
      ],
      [
        "ĠI",
        -6.557031165072358
      ],
      [
        "Ġthey",
        -6.565302446407371
      ],
      [
        "Ġmore",
        -6.567585454436008
      ],
      [
        "6",
        -6.5708414472174805
      ],
      [
        "m",
        -6.577607832418073
      ],
      [
        "8",
        -6.598454078204359
      ],
      [
        "Ġan",
        -6.612247729819821
      ],
      [
        "Question",
        -6.677512979663337
      ],
      [
        "Ġbut",
        -6.694879834952221
      ],
      [
        "Ġas",
        -6.7265298811056855
      ],
      [
        "7",
        -6.731884270757904
      ],
      [
        "A",
        -6.734154052766009
      ],
      [
        "Ġwhich",
        -6.7421108980994795
      ],
      [
        "ĠAnswer",
        -6.753705233397371
      ],
      [
        "h",
        -6.767588680627071
      ],
      [
        "Ġalso",
        -6.773069023747809
      ],
      [
        "Ġhas",
        -6.794173917858981
      ],
      [
        "Ġabout",
        -6.859638670257395
      ],
      [
        "Ġwe",
        -6.926629730306889
      ],
      [
        "Ġwhen",
        -6.939145650754224
      ],
      [
        "Ġthem",
        -7.019931097196951
      ],
      [
        "Ġtime",
        -7.021224583406543
      ],
      [
        "c",
        -7.054738158830563
      ],
      [
        "Ġlike",
        -7.069227942771054
      ],
      [
        "Ġsome",
        -7.076377170489897
      ],
      [
        "Ġinto",
        -7.080792060530934
      ],
      [
        "Ġall",
        -7.084829298947376
      ],
      [
        "an",
        -7.09294151643623
      ],
      [
        "u",
        -7.093735207327001
      ],
      [
        "Ġmay",
        -7.098577401922686
      ],
      [
        "Ġout",
        -7.104832000173451
      ],
      [
        "Ġother",
        -7.143749736235645
      ],
      [
        "Ġthese",
        -7.1712899313788405
      ],
      [
        "ĠThis",
        -7.180818147514346
      ],
      [
        "Ġthere",
        -7.184165688368688
      ],
      [
        "Ġthan",
        -7.1881627107313335
      ],
      [
        "Ġup",
        -7.201922778209262
      ],
      [
        "one",
        -7.210988886650059
      ],
      [
        "Ġneed",
        -7.212990162340779
      ],
      [
        "Ġwater",
        -7.236726726359388
      ],
      [
        "ĠIt",
        -7.254929229755954
      ],
      [
        "Ġhow",
        -7.259525017730734
      ],
      [
        "Ġwhat",
        -7.261619248007033
      ],
      [
        "g",
        -7.290531687426753
      ],
      [
        "Ġwere",
        -7.298777004175422
      ],
      [
        "Ġsuch",
        -7.31157314846878
      ],
      [
        "b",
        -7.31413696895013
      ],
      [
        "?Ċ",
        -7.319887338573372
      ],
      [
        "Ġmake",
        -7.327951386784873
      ],
      [
        "Ġbeen",
        -7.333195236963555
      ],
      [
        "Ġit",
        -7.336889927456831
      ],
      [
        "ĠIn",
        -7.337321623677248
      ],
      [
        "Ġwould",
        -7.348647666497673
      ],
      [
        "ĠWhat",
        -7.355060166684909
      ],
      [
        "Ġuse",
        -7.367836408591334
      ],
      [
        "Ġshould",
        -7.370193024212311
      ],
      [
        "Ġpeople",
        -7.371686801788577
      ],
      [
        "at",
        -7.379810055607063
      ],
      [
        "Ġhelp",
        -7.383998767721426
      ],
      [
        "/",
        -7.390016029339806
      ],
      [
        "as",
        -7.3918965398071315
      ],
      [
        "Ġnew",
        -7.394624699455486
      ],
      [
        "Ġmost",
        -7.396121781494999
      ],
      [
        "ĠA",
        -7.4072891564659376
      ],
      [
        "ies",
        -7.417543497065475
      ],
      [
        "Ġwho",
        -7.443979949884643
      ],
      [
        "w",
        -7.456181865853555
      ],
      [
        "Ġany",
        -7.466185378169531
      ],
      [
        ";",
        -7.467862729645438
      ],
      [
        "Ġjust",
        -7.471587636371797
      ],
      [
        "What",
        -7.484225220825621
      ],
      [
        "our",
        -7.485852470891363
      ],
      [
        "Ġ(",
        -7.488127682683539
      ],
      [
        "Ġdo",
        -7.492601349940536
      ],
      [
        "Ġmany",
        -7.514791800923977
      ],
      [
        "Ġon",
        -7.5155267594053665
      ],
      [
        "Ġover",
        -7.517000199510802
      ],
      [
        "Ġget",
        -7.528416539386809
      ],
      [
        "Ġdifferent",
        -7.535114908066984
      ],
      [
        "using",
        -7.539778093162948
      ],
      [
        "Ġfirst",
        -7.546063317213822
      ],
      [
        "Ġonly",
        -7.554715034950977
      ],
      [
        "Ġused",
        -7.571557542080146
      ],
      [
        "Ġbetween",
        -7.576611375579253
      ],
      [
        "Ġthrough",
        -7.579979789940596
      ],
      [
        "Ġwork",
        -7.587525607309315
      ],
      [
        "p",
        -7.625788604211875
      ],
      [
        "Ġcould",
        -7.628848018870723
      ],
      [
        "able",
        -7.642538580268763
      ],
      [
        "Ġmy",
        -7.647033163275351
      ],
      [
        "Ġhigh",
        -7.647287296885002
      ],
      [
        "re",
        -7.653967374375663
      ],
      [
        "Ġsystem",
        -7.654230306557913
      ],
      [
        "Ġwell",
        -7.657524320083715
      ],
      [
        "Ġwhere",
        -7.660499050481826
      ],
      [
        "Ġtwo",
        -7.664687667744689
      ],
      [
        "Ġbecause",
        -7.6718025433280435
      ],
      [
        "Ġmuch",
        -7.709878145402708
      ],
      [
        "Ġpart",
        -7.720485472211724
      ],
      [
        "This",
        -7.720716818202572
      ],
      [
        "for",
        -7.725134945835707
      ],
      [
        "Ġgood",
        -7.745437473613524
      ],
      [
        "Ġchange",
        -7.750508164417903
      ],
      [
        "S",
        -7.75181458525317
      ],
      [
        "Ġeven",
        -7.753254493520126
      ],
      [
        "!",
        -7.780979764828793
      ],
      [
        "Ġimportant",
        -7.783921217250473
      ],
      [
        "Ġone",
        -7.785686139424827
      ],
      [
        "Ġtake",
        -7.791088581137586
      ],
      [
        "Ġlong",
        -7.791933787036013
      ],
      [
        "ĠThey",
        -7.800692358583952
      ],
      [
        "Ġdoes",
        -7.801810680631602
      ],
      [
        "Ġfood",
        -7.8038575165878115
      ],
      [
        "Ġyears",
        -7.819601334153399
      ],
      [
        "Ġi",
        -7.836110693414847
      ],
      [
        "Ġresult",
        -7.839707469824509
      ],
      [
        "Ġknow",
        -7.84036043257449
      ],
      [
        "Ġits",
        -7.843698225184394
      ],
      [
        "during",
        -7.846375173381322
      ],
      [
        "ĠYou",
        -7.850397494079942
      ],
      [
        "Ġwhile",
        -7.854625575657064
      ],
      [
        "Ġafter",
        -7.8561186840027375
      ],
      [
        "Ġway",
        -7.873356827515496
      ],
      [
        "Ġprovide",
        -7.8756633204091955
      ],
      [
        "Ġbeing",
        -7.876086995891546
      ],
      [
        "D",
        -7.881048972074904
      ],
      [
        "Ġnumber",
        -7.886421959164972
      ],
      [
        "Ġhealth",
        -7.904355907176079
      ],
      [
        ").",
        -7.909514234301525
      ],
      [
        "that",
        -7.91319030396545
      ],
      [
        "Ġhuman",
        -7.914793512245989
      ],
      [
        "Ġworld",
        -7.916394506778092
      ],
      [
        "all",
        -7.916633437876964
      ],
      [
        "Ġhad",
        -7.917713460165855
      ],
      [
        "those",
        -7.920316468583481
      ],
      [
        "by",
        -7.924006669471858
      ],
      [
        "Ġenergy",
        -7.926423806104145
      ],
      [
        "In",
        -7.9367127818888115
      ],
      [
        "Ġinclude",
        -7.937485866072427
      ],
      [
        "C",
        -7.93831406459465
      ],
      [
        "Ġwant",
        -7.93845851056034
      ],
      [
        "Ġbefore",
        -7.944974832475802
      ],
      [
        "Ġsame",
        -7.950939616391672
      ],
      [
        "Ġboth",
        -7.95130198650542
      ],
      [
        "Ġsmall",
        -7.96285421048869
      ],
      [
        "Ġlife",
        -7.967750405511085
      ],
      [
        "other",
        -7.96782658776069
      ],
      [
        "Ġbest",
        -7.977925775378132
      ],
      [
        "T",
        -7.991727691340069
      ],
      [
        "ĠIf",
        -7.996827214204387
      ],
      [
        "Ġdata",
        -8.001569414944216
      ],
      [
        "Ġfound",
        -8.003251731836393
      ],
      [
        "Ġaround",
        -8.0135935456973
      ],
      [
        "he",
        -8.013929102573911
      ],
      [
        "How",
        -8.03382848619332
      ],
      [
        "al",
        -8.03862971350227
      ],
      [
        "Ġprocess",
        -8.03906388901844
      ],
      [
        "Ġoften",
        -8.040870230979635
      ],
      [
        "Ġfind",
        -8.041448842631098
      ],
      [
        "Ġdon",
        -8.043051468573552
      ],
      [
        "Ġhis",
        -8.043590322917474
      ],
      [
        "Ġplace",
        -8.047050784642249
      ],
      [
        "Ġback",
        -8.050487695425135
      ],
      [
        "Ġdown",
        -8.05317235719153
      ],
      [
        "Ġlight",
        -8.054064522944394
      ],
      [
        "Ġincrease",
        -8.070582759452476
      ],
      [
        "Ġmade",
        -8.08219352334814
      ],
      [
        "%",
        -8.094031559886773
      ],
      [
        "âĢĵ",
        -8.099340993213607
      ],
      [
        "Ġexample",
        -8.100065620663852
      ],
      [
        "Ġinformation",
        -8.101725384768146
      ],
      [
        "Ġbody",
        -8.106745184073807
      ],
      [
        "Ġno",
        -8.107019537239227
      ],
      [
        "Ġsee",
        -8.107104666586805
      ],
      [
        "ĠFor",
        -8.116186840659307
      ],
      [
        "us",
        -8.116318888440066
      ],
      [
        "However",
        -8.118226864469856
      ],
      [
        "Ġevery",
        -8.11949223071377
      ],
      [
        "),",
        -8.12528156262099
      ],
      [
        "Ġyear",
        -8.128084574973796
      ],
      [
        "Ġsaid",
        -8.137428869690696
      ],
      [
        "Ġcreate",
        -8.141440853944408
      ],
      [
        "Ġright",
        -8.144253662155046
      ],
      [
        "ve",
        -8.145593682627021
      ],
      [
        "Ġbetter",
        -8.146145205586373
      ],
      [
        "Ġlook",
        -8.147149074864172
      ],
      [
        "very",
        -8.148636880428725
      ],
      [
        "Ġpower",
        -8.150224077391975
      ],
      [
        "can",
        -8.155894304806546
      ],
      [
        "its",
        -8.157973823638843
      ],
      [
        "Ġstudy",
        -8.160021106161205
      ],
      [
        "Ġhome",
        -8.160891388425219
      ],
      [
        "When",
        -8.16167830485798
      ],
      [
        "be",
        -8.162236524960454
      ],
      [
        "Ġresearch",
        -8.165821673151607
      ],
      [
        "Ġmight",
        -8.167449346356689
      ],
      [
        "ity",
        -8.17032859421931
      ],
      [
        "Ġunder",
        -8.17135677378098
      ],
      [
        "Ġstart",
        -8.171530377786704
      ],
      [
        "Ġcause",
        -8.177016845063399
      ],
      [
        "ĠC",
        -8.179756537408123
      ],
      [
        "Ġgreat",
        -8.180802721187524
      ],
      [
        "Ġdesign",
        -8.186638558620144
      ],
      [
        "used",
        -8.192075508292387
      ],
      [
        "ĠWe",
        -8.193313033944603
      ],
      [
        "use",
        -8.193395965304052
      ],
      [
        "Ġbecome",
        -8.203826569660873
      ],
      [
        "Ġday",
        -8.204451277069511
      ],
      [
        "Ġgrow",
        -8.205048468069544
      ],
      [
        "es",
        -8.209184755972998
      ],
      [
        "Ġdog",
        -8.21079428279748
      ],
      [
        "Ġlarge",
        -8.21811727693826
      ],
      [
        "Ġplant",
        -8.218126111693204
      ],
      [
        "Ġspecies",
        -8.219033441133053
      ],
      [
        "Ġtemperature",
        -8.224758645366453
      ],
      [
        "Ġoff",
        -8.245025786286618
      ],
      [
        "Ġexperience",
        -8.249409636819882
      ],
      [
        "less",
        -8.250708431660497
      ],
      [
        ":ĊĊ",
        -8.251663256209694
      ],
      [
        "Ġstudents",
        -8.258237902288505
      ],
      [
        "ally",
        -8.266720147998797
      ],
      [
        "Ġform",
        -8.268140294528413
      ],
      [
        "Ġthink",
        -8.270071488019365
      ],
      [
        "Ġcar",
        -8.27370994897263
      ],
      [
        "Ġincluding",
        -8.2753402974175
      ],
      [
        "ness",
        -8.277471858177115
      ],
      [
        "Ġthree",
        -8.281155976159399
      ],
      [
        "Ġwithou",
        -8.28275460686878
      ],
      [
        "k",
        -8.28467453724232
      ],
      [
        "ĠBut",
        -8.290897298922545
      ],
      [
        "ability",
        -8.293622697049404
      ],
      [
        "more",
        -8.298610890460584
      ],
      [
        "ĠB",
        -8.309368703888925
      ],
      [
        "if",
        -8.312577870559846
      ],
      [
        "Ġvery",
        -8.319367812485106
      ],
      [
        "ĠTo",
        -8.319565695057506
      ],
      [
        "Ġfew",
        -8.31970853488105
      ],
      [
        "Ġair",
        -8.32114738417018
      ],
      [
        "Ġsupport",
        -8.322034179108313
      ],
      [
        "you",
        -8.324949351796747
      ],
      [
        "B",
        -8.326158963372473
      ],
      [
        "Ġcommon",
        -8.329528223345374
      ],
      [
        "Ġstill",
        -8.329920204666584
      ],
      [
        "Ġissue",
        -8.333865301623199
      ],
      [
        "ĠâĢĵ",
        -8.337208922056856
      ],
      [
        "Ġmust",
        -8.340521452794668
      ],
      [
        "Ġcase",
        -8.342122141455029
      ],
      [
        "ĠThese",
        -8.344762002569706
      ],
      [
        "Ġthings",
        -8.34613711202291
      ],
      [
        "Ġschool",
        -8.347130794864341
      ],
      [
        "Ġheat",
        -8.348291094637025
      ],
      [
        "Ġwithin",
        -8.348659807492256
      ],
      [
        "Ġeach",
        -8.348936176664722
      ],
      [
        "Ġkeep",
        -8.3547268488834
      ],
      [
        "Ġchildren",
        -8.356106931578395
      ],
      [
        "...",
        -8.356473510436953
      ],
      [
        "Ġenvironment",
        -8.361025077179582
      ],
      [
        "Ġindividual",
        -8.362217032813957
      ],
      [
        "Ġgo",
        -8.370052601997758
      ],
      [
        "Ġplants",
        -8.374432310281021
      ],
      [
        "Ġreduce",
        -8.375251678805835
      ],
      [
        "Ġspecific",
        -8.375528278373581
      ],
      [
        "Ġproduce",
        -8.377122830610098
      ],
      [
        "x",
        -8.382825690037542
      ],
      [
        "Ġcontrol",
        -8.382954567698679
      ],
      [
        "Ġpotential",
        -8.390163018144694
      ],
      [
        "Ġtype",
        -8.39240929316536
      ],
      [
        "Ġat",
        -8.394359264167532
      ],
      [
        "You",
        -8.403082293815906
      ],
      [
        "Ġcurrent",
        -8.404511861890136
      ],
      [
        "Ġknown",
        -8.40599016003316
      ],
      [
        "Ġanother",
        -8.406876235559306
      ],
      [
        "have",
        -8.410739061585979
      ],
      [
        "Ġwhy",
        -8.412312676350101
      ],
      [
        "Ġdevelop",
        -8.417035790410335
      ],
      [
        "ll",
        -8.422473020689264
      ],
      [
        "each",
        -8.427384716827824
      ],
      [
        "Ġfollowing",
        -8.427517947648973
      ],
      [
        "Ġreally",
        -8.428825863145645
      ],
      [
        "ĠAnd",
        -8.431884090299235
      ],
      [
        "which",
        -8.432964936900337
      ],
      [
        "=",
        -8.441224722414038
      ],
      [
        "Ġcalled",
        -8.441553215162894
      ],
      [
        "Ġensure",
        -8.44180999565737
      ],
      [
        "Ġvarious",
        -8.44295194215201
      ],
      [
        "with",
        -8.450014994924327
      ],
      [
        "Ġvalue",
        -8.455077942393306
      ],
      [
        "Ġlevel",
        -8.457569866464464
      ],
      [
        "âĢĶ",
        -8.463531410414731
      ],
      [
        "th",
        -8.46563347706219
      ],
      [
        "Ġsomething",
        -8.466845133534278
      ],
      [
        "possible",
        -8.470123437459446
      ],
      [
        "Ġprevent",
        -8.473486277317168
      ],
      [
        "Ġcolor",
        -8.478010378126566
      ],
      [
        "Ġnatural",
        -8.479279481931265
      ],
      [
        "Ġher",
        -8.481405998962956
      ],
      [
        "Ġarea",
        -8.482600929176435
      ],
      [
        "Ġlittle",
        -8.491284189396541
      ],
      [
        "Ġlead",
        -8.491558168854592
      ],
      [
        "Ġsurface",
        -8.493691320785206
      ],
      [
        "not",
        -8.49463822513503
      ],
      [
        "Ġt",
        -8.509482948661283
      ],
      [
        "Ġspace",
        -8.510509358887667
      ],
      [
        "Ġbenefit",
        -8.521017312948391
      ],
      [
        "Ġprogram",
        -8.521330018895336
      ],
      [
        "Ġrequire",
        -8.522140050487332
      ],
      [
        "Ġimpact",
        -8.523282094977013
      ],
      [
        "um",
        -8.526117079549685
      ],
      [
        "Ġsoil",
        -8.528334051348295
      ],
      [
        "Ġgeneral",
        -8.530309270253323
      ],
      [
        "Ġdue",
        -8.531811976755437
      ],
      [
        "Ġamount",
        -8.53426199116868
      ],
      [
        "Ġseveral",
        -8.536640336038573
      ],
      [
        "Ġso",
        -8.536770538738674
      ],
      [
        "Ġsize",
        -8.541415249243162
      ],
      [
        "$",
        -8.541837615387562
      ],
      [
        "Ġlearn",
        -8.543704662247045
      ],
      [
        "Ġcells",
        -8.5480732577816
      ],
      [
        "Ġb",
        -8.556393742615143
      ],
      [
        "Ġdevelopment",
        -8.557509074148385
      ],
      [
        "Ġareas",
        -8.558915598356332
      ],
      [
        "Ġth",
        -8.562852225077549
      ],
      [
        "Ġproblem",
        -8.56370502297488
      ],
      [
        "Ġcomplete",
        -8.568567677705136
      ],
      [
        "Ġpoint",
        -8.570020896945334
      ],
      [
        "Ġeffective",
        -8.57152620604219
      ],
      [
        "There",
        -8.57221613091636
      ],
      [
        ":Ċ",
        -8.572967346284774
      ],
      [
        "If",
        -8.573165114807868
      ],
      [
        "Ġmeans",
        -8.573460044092506
      ],
      [
        "v",
        -8.573621088530516
      ],
      [
        "Ġuser",
        -8.57673233409037
      ],
      [
        "Ġdid",
        -8.577659616714477
      ],
      [
        "Ġcome",
        -8.578877028552581
      ],
      [
        "Ġper",
        -8.579974615435727
      ],
      [
        "Ġmaking",
        -8.58007773786995
      ],
      [
        "Ġgive",
        -8.584888913785234
      ],
      [
        "Ġour",
        -8.585796013908556
      ],
      [
        "Ġrisk",
        -8.591092799662658
      ],
      [
        "Ġdisease",
        -8.591555139749216
      ],
      [
        "Ġshow",
        -8.595568723043435
      ],
      [
        "Ġme",
        -8.596477334463838
      ],
      [
        "Ġinvolve",
        -8.597125656965268
      ],
      [
        "[",
        -8.600914839261215
      ],
      [
        "Ġsignificant",
        -8.601191884687337
      ],
      [
        "Ġmain",
        -8.605082717691197
      ],
      [
        "age",
        -8.606035835994458
      ],
      [
        "Ġfeel",
        -8.607602802210657
      ],
      [
        "Ġavailable",
        -8.612982665522816
      ],
      [
        "Ġreason",
        -8.617259710286035
      ],
      [
        "Ġstate",
        -8.618776227228354
      ],
      [
        "Ġblood",
        -8.618842036643375
      ],
      [
        "how",
        -8.623113818398313
      ],
      [
        "way",
        -8.623768732372143
      ],
      [
        "up",
        -8.624385380886224
      ],
      [
        "Ġadd",
        -8.631398904819157
      ],
      [
        "Ġgroup",
        -8.631887571085503
      ],
      [
        "Ġessential",
        -8.633155042961173
      ],
      [
        "Ġtext",
        -8.633709717820715
      ],
      [
        "Ġleave",
        -8.634126650321965
      ],
      [
        "Ġrange",
        -8.636308864813127
      ],
      [
        "Ġmaterial",
        -8.636394647463268
      ],
      [
        "Ġcourse",
        -8.639682372504293
      ],
      [
        "Ġlocal",
        -8.644629807101236
      ],
      [
        "Ġdevice",
        -8.646234954116077
      ],
      [
        "Ġconditions",
        -8.649873542408953
      ],
      [
        "Ġimprove",
        -8.652212711722791
      ],
      [
        "Ġcertain",
        -8.655515084105538
      ],
      [
        "Ġplay",
        -8.655596370251484
      ],
      [
        "ĠAs",
        -8.655825852192944
      ],
      [
        "H",
        -8.657808831702617
      ],
      [
        "Ġusually",
        -8.661383856110454
      ],
      [
        "Ġperson",
        -8.662920630433153
      ],
      [
        "ĠSo",
        -8.664116127141334
      ],
      [
        "Ġanimals",
        -8.66574644932193
      ],
      [
        "Ġend",
        -8.668551146238848
      ],
      [
        "Ġcare",
        -8.668647372106333
      ],
      [
        "Ġtreatment",
        -8.669141138220677
      ],
      [
        ",\"",
        -8.67102110153374
      ],
      [
        "Ġunderstand",
        -8.676482349521361
      ],
      [
        "ĠThere",
        -8.676625452020108
      ],
      [
        "Ġmaterials",
        -8.677456044363979
      ],
      [
        "Ġmethod",
        -8.677979756655713
      ],
      [
        "Ġsecond",
        -8.682283415981114
      ],
      [
        "Ġname",
        -8.682838348325415
      ],
      [
        "Ġorder",
        -8.683911790375657
      ],
      [
        "Ġlearning",
        -8.689658402022825
      ],
      [
        "Ġneeds",
        -8.691029560159825
      ],
      [
        "Ġalway",
        -8.692292579361382
      ],
      [
        "While",
        -8.692697600935956
      ],
      [
        "Ġenough",
        -8.695332905085595
      ],
      [
        "Ġconsider",
        -8.695965200149757
      ],
      [
        "having",
        -8.696132455112433
      ],
      [
        "Ġbased",
        -8.70036718809967
      ],
      [
        "from",
        -8.701408226460249
      ],
      [
        "P",
        -8.705150637017157
      ],
      [
        "Ġdifference",
        -8.707397742068125
      ],
      [
        "has",
        -8.707709159195627
      ],
      [
        "Ġnow",
        -8.718425662362323
      ],
      [
        "Ġtechnology",
        -8.724578737452799
      ],
      [
        "]",
        -8.724864060323196
      ],
      [
        "Ġfamily",
        -8.72697185147728
      ],
      [
        "M",
        -8.728416915489632
      ],
      [
        "Ġtypes",
        -8.729457085226372
      ],
      [
        "Ġtogether",
        -8.729772440462595
      ],
      [
        "next",
        -8.73093174657022
      ],
      [
        "Ġlevels",
        -8.737569309056651
      ],
      [
        "Ġproblems",
        -8.737653752293268
      ],
      [
        "Ġfree",
        -8.741377237520414
      ],
      [
        "Ġteam",
        -8.745141696352217
      ],
      [
        "Ġmachine",
        -8.746620980709288
      ],
      [
        "ation",
        -8.750628279250357
      ],
      [
        "Ġsince",
        -8.750807306934089
      ],
      [
        "Ġhigher",
        -8.751214610326027
      ],
      [
        "Ġleast",
        -8.751288152553162
      ],
      [
        "Ġfunction",
        -8.752000894629504
      ],
      [
        "Ġweight",
        -8.754359728104887
      ],
      [
        "ar",
        -8.755377686811972
      ],
      [
        "most",
        -8.76092001782319
      ],
      [
        "Ġgoing",
        -8.76469216265784
      ],
      [
        "Ġmaintain",
        -8.76872538262836
      ],
      [
        "Ġquality",
        -8.770696569928143
      ],
      [
        "ĠS",
        -8.77141315922672
      ],
      [
        "ĠUniversity",
        -8.771689576699792
      ],
      [
        "Ġproject",
        -8.774680668000453
      ],
      [
        "Ġtest",
        -8.777105340386829
      ],
      [
        "Ġkind",
        -8.777379075752112
      ],
      [
        "Ġdigital",
        -8.777615748596705
      ],
      [
        "Ġgame",
        -8.778933650944818
      ],
      [
        "Ġhard",
        -8.781144138034968
      ],
      [
        "For",
        -8.78141883020061
      ],
      [
        "O",
        -8.781865973183734
      ],
      [
        "Ġput",
        -8.782276582660483
      ],
      [
        "er",
        -8.782709297634433
      ],
      [
        "Ġskin",
        -8.78333721690316
      ],
      [
        "ĠWhich",
        -8.783668301644934
      ],
      [
        "Ġlow",
        -8.784231731095161
      ],
      [
        "Ġmakes",
        -8.78476273294529
      ],
      [
        "Ġfuture",
        -8.7847926969458
      ],
      [
        "Ġkey",
        -8.787461609099747
      ],
      [
        "Ġpressure",
        -8.788719429669756
      ],
      [
        "Ġsimple",
        -8.78895248340589
      ],
      [
        "ĠHe",
        -8.790989956542175
      ],
      [
        "Ġlive",
        -8.791115463784756
      ],
      [
        "ĠD",
        -8.791950349636934
      ],
      [
        ")ĊĊ",
        -8.792849297937085
      ],
      [
        "Ġpresent",
        -8.793885537735196
      ],
      [
        "Ġoffer",
        -8.794234388027435
      ],
      [
        "Ġsure",
        -8.79538362122681
      ],
      [
        "your",
        -8.798559747987081
      ],
      [
        "ĠThat",
        -8.801364287431118
      ],
      [
        "Ġquick",
        -8.803955303723772
      ],
      [
        "Ġactually",
        -8.804382187914388
      ],
      [
        "Ġhand",
        -8.80500759070567
      ],
      [
        "Ġside",
        -8.805255850414035
      ],
      [
        "Ġseem",
        -8.806174555789692
      ],
      [
        "Ġcost",
        -8.806956976174622
      ],
      [
        "ic",
        -8.807447642626943
      ],
      [
        "Ġsystems",
        -8.808102302106787
      ],
      [
        "Ġcheck",
        -8.80839941886152
      ],
      [
        "Ġmove",
        -8.808964609846317
      ],
      [
        "Ġlikely",
        -8.81141232650068
      ],
      [
        "âĢĻs",
        -8.812327020473617
      ],
      [
        "Ġeasy",
        -8.81273154046101
      ],
      [
        "&",
        -8.81284328114464
      ],
      [
        "ĠM",
        -8.814669256331396
      ],
      [
        "Ġplan",
        -8.814722139039269
      ],
      [
        "Ġunique",
        -8.81574907841231
      ],
      [
        "Ġtop",
        -8.815955596637137
      ],
      [
        "Ġmeasure",
        -8.817337679658836
      ],
      [
        "ĠWith",
        -8.821311590556775
      ],
      [
        "ĠHow",
        -8.823857408663798
      ],
      [
        "Ġhour",
        -8.82415810078
      ],
      [
        "Ġdiet",
        -8.82431290298339
      ],
      [
        "Ġimage",
        -8.827351429280334
      ],
      [
        "Ġown",
        -8.828633029172703
      ],
      [
        "Ġmodel",
        -8.829063101518067
      ],
      [
        ".\"Ċ",
        -8.82906323363359
      ],
      [
        "Ġdoesn",
        -8.830583017268506
      ],
      [
        "Ġopen",
        -8.8306575897101
      ],
      [
        "self",
        -8.830814909934645
      ],
      [
        "Ġdepend",
        -8.838789020854108
      ],
      [
        "ĠBy",
        -8.839718612256517
      ],
      [
        "E",
        -8.839871089763022
      ],
      [
        "Ġturn",
        -8.84057732798782
      ],
      [
        "Ġsingle",
        -8.844313257323158
      ],
      [
        "like",
        -8.845615875229333
      ],
      [
        "Ġoccur",
        -8.847269595919428
      ],
      [
        "Ġsimilar",
        -8.847391419109261
      ],
      [
        "Ġdamage",
        -8.849636274749951
      ],
      [
        "Ġshe",
        -8.850368007222876
      ],
      [
        "Ġtimes",
        -8.851447899832333
      ],
      [
        "Ġsocial",
        -8.859721043500045
      ],
      [
        "Ġhappen",
        -8.860884645695894
      ],
      [
        "Ġacross",
        -8.861398856993189
      ],
      [
        "Ġbusiness",
        -8.861428894468578
      ],
      [
        "Ġunti",
        -8.862772363013702
      ],
      [
        "Ġperiod",
        -8.864732215841787
      ],
      [
        "Ġchild",
        -8.864866872660528
      ],
      [
        "Ġdirect",
        -8.866299789821433
      ],
      [
        "Ġforce",
        -8.866646631760823
      ],
      [
        "Ġclose",
        -8.866754432450886
      ],
      [
        "Ġabove",
        -8.866928333224458
      ],
      [
        "!ĊĊ",
        -8.869995803299119
      ],
      [
        "Ġhere",
        -8.870289771149853
      ],
      [
        "own",
        -8.872950583795697
      ],
      [
        "Ġalong",
        -8.873586022740144
      ],
      [
        "Ġthen",
        -8.8762577732317
      ],
      [
        "Ġnon",
        -8.877073206925592
      ],
      [
        "F",
        -8.877262570732695
      ],
      [
        "Ġnever",
        -8.878055720126373
      ],
      [
        "Ġphysical",
        -8.879455987863341
      ],
      [
        "Ġallow",
        -8.880417815632603
      ],
      [
        "Ġcomes",
        -8.880788452102985
      ],
      [
        "Ġavoid",
        -8.882064226897192
      ],
      [
        "Ġsafe",
        -8.884479492325372
      ],
      [
        "*",
        -8.885427741668053
      ],
      [
        "Ġunderstanding",
        -8.88551379383721
      ],
      [
        "Ġremove",
        -8.887292825377488
      ],
      [
        "Ġaffect",
        -8.888628056969797
      ],
      [
        "time",
        -8.888955163329847
      ],
      [
        "Ġsay",
        -8.889529327166592
      ],
      [
        "Ġdetermine",
        -8.890856584345528
      ],
      [
        "Ġpopulation",
        -8.8939536244451
      ],
      [
        "ready",
        -8.895728901204532
      ],
      [
        "Ġshort",
        -8.896413827241318
      ],
      [
        "Ġgrowth",
        -8.897028625029922
      ],
      [
        "Ġmean",
        -8.89900195740709
      ],
      [
        "N",
        -8.90501547884417
      ],
      [
        "Ġaccording",
        -8.907296453666845
      ],
      [
        "Ġproducts",
        -8.908768054042987
      ],
      [
        "Ġpaper",
        -8.911534038336356
      ],
      [
        "out",
        -8.913356490407708
      ],
      [
        "W",
        -8.914209683986435
      ],
      [
        "Ġclear",
        -8.914802640491121
      ],
      [
        "Ġperformance",
        -8.915682314230779
      ],
      [
        "Ġhealthy",
        -8.916226761118402
      ],
      [
        "Ġrole",
        -8.917339991418913
      ],
      [
        "Ġstep",
        -8.918110593277616
      ],
      [
        "Ġless",
        -8.92037782093936
      ],
      [
        "Ġdays",
        -8.920865508733419
      ],
      [
        "Ġespecial",
        -8.920879255787915
      ],
      [
        "Ġeye",
        -8.921172500680951
      ],
      [
        "Ġfield",
        -8.921502273670177
      ],
      [
        "Ġmajor",
        -8.921941054845522
      ],
      [
        "Ġresearcher",
        -8.924553371828603
      ],
      [
        "Ġfactors",
        -8.924755262840554
      ],
      [
        "Ġamong",
        -8.92488565344913
      ],
      [
        "Ġfact",
        -8.925549428072465
      ],
      [
        "+",
        -8.925720283549563
      ],
      [
        "this",
        -8.92781653129699
      ],
      [
        "Ġvehicle",
        -8.928899678428245
      ],
      [
        "Ġfurther",
        -8.92959121935527
      ],
      [
        "Ġclimate",
        -8.93124639448303
      ],
      [
        "Ġfish",
        -8.931325005582485
      ],
      [
        "Ġlove",
        -8.931492329558333
      ],
      [
        "Ġcomponent",
        -8.932121998922135
      ],
      [
        "Ġdogs",
        -8.932239975330086
      ],
      [
        "Ġagains",
        -8.934829468259995
      ],
      [
        "Ġblack",
        -8.935170010669758
      ],
      [
        "Ġcontinue",
        -8.935663260356389
      ],
      [
        "Ġwhite",
        -8.9392611094033
      ],
      [
        "Ġcell",
        -8.939469546987294
      ],
      [
        "Ġcomputer",
        -8.939570873947961
      ],
      [
        "Ġscience",
        -8.941067596541526
      ],
      [
        "Ġproduction",
        -8.943450728196021
      ],
      [
        "Ġspeed",
        -8.94430390137266
      ],
      [
        "once",
        -8.946586432268653
      ],
      [
        "Ġaddition",
        -8.94880270968752
      ],
      [
        "Ġpattern",
        -8.951593697763247
      ],
      [
        "Ġleft",
        -8.952714847712077
      ],
      [
        "Ġworking",
        -8.95460044565144
      ],
      [
        "Ġground",
        -8.958249717267986
      ],
      [
        "R",
        -8.959635977881053
      ],
      [
        "Ġsource",
        -8.961167081405799
      ],
      [
        "Ġdry",
        -8.963116025848414
      ],
      [
        "Ġlast",
        -8.963962498391675
      ],
      [
        "Ġbook",
        -8.9640703763936
      ],
      [
        "We",
        -8.965575295966346
      ],
      [
        "Ġwarm",
        -8.965930665229696
      ],
      [
        "Ġreal",
        -8.965989501942069
      ],
      [
        "ĠNew",
        -8.967058914465415
      ],
      [
        "Ġsolution",
        -8.967072142387146
      ],
      [
        "ĠWhen",
        -8.967079089125118
      ],
      [
        "Ġlot",
        -8.967621353289605
      ],
      [
        "Ġclean",
        -8.968476280709899
      ],
      [
        "Ġaccess",
        -8.968936855999216
      ],
      [
        "Ġregion",
        -8.969044640276291
      ],
      [
        "Ġvideo",
        -8.970879165492224
      ],
      [
        "Ġpopular",
        -8.970993913098251
      ],
      [
        "Ġpain",
        -8.972464126745223
      ],
      [
        "Ġfull",
        -8.97337319160959
      ],
      [
        "Ġtoday",
        -8.97352311841493
      ],
      [
        "ĠSome",
        -8.973638440681889
      ],
      [
        "necessary",
        -8.9769020313621
      ],
      [
        "ĠAmerican",
        -8.97796217686928
      ],
      [
        "Ġnear",
        -8.979293276766015
      ],
      [
        "These",
        -8.98238575543565
      ],
      [
        "Ġquestion",
        -8.983002761218593
      ],
      [
        "now",
        -8.983304192983379
      ],
      [
        "Ġtoo",
        -8.983340163121266
      ],
      [
        "Ġregular",
        -8.9905146555164
      ],
      [
        "some",
        -8.99159280267131
      ],
      [
        "but",
        -8.99387685316536
      ],
      [
        "Ġbasic",
        -8.994244510863725
      ],
      [
        "Ġgetting",
        -8.995178781022144
      ],
      [
        "ary",
        -8.996301434166046
      ],
      [
        "Ġfour",
        -8.99894637150241
      ],
      [
        "Ġmatter",
        -9.002601303017169
      ],
      [
        "Ġproduct",
        -9.0028476944102
      ],
      [
        "we",
        -9.003036582041636
      ],
      [
        "Ġobject",
        -9.00444365344271
      ],
      [
        "Ġun",
        -9.004529158901011
      ],
      [
        "Ġassociate",
        -9.005807110700907
      ],
      [
        "Ġeffects",
        -9.008261786986225
      ],
      [
        "his",
        -9.009603784466696
      ],
      [
        "well",
        -9.009976828612192
      ],
      [
        "Ġanimal",
        -9.010037766533571
      ],
      [
        "Ġeffect",
        -9.01345282220028
      ],
      [
        "Ġfeatures",
        -9.01375831104877
      ],
      [
        "Ġdifficult",
        -9.017452429589316
      ],
      [
        "Ġheart",
        -9.020766141539276
      ],
      [
        "Ġcontent",
        -9.024099671791344
      ],
      [
        "than",
        -9.02424299208991
      ],
      [
        "Ġset",
        -9.026636759642892
      ],
      [
        "Ġidea",
        -9.0282818263069
      ],
      [
        "Ġfocus",
        -9.028729214903697
      ],
      [
        "Ġtraining",
        -9.03135048683166
      ],
      [
        "Ġvariety",
        -9.032561481998188
      ],
      [
        "Ġsign",
        -9.033659533464313
      ],
      [
        "Ġlooking",
        -9.034524937488367
      ],
      [
        "Ġprotect",
        -9.034569251575435
      ],
      [
        "Ġbelow",
        -9.037423352939214
      ],
      [
        "Ġapproach",
        -9.037559787933043
      ],
      [
        "Ġthough",
        -9.037977781881144
      ],
      [
        "Ġgiven",
        -9.038501273360534
      ],
      [
        "Ġearly",
        -9.039201287918637
      ],
      [
        "Ġpurpose",
        -9.04020382453145
      ],
      [
        "where",
        -9.041256749416124
      ],
      [
        "online",
        -9.041448908237768
      ],
      [
        "Ġbig",
        -9.041955118118526
      ],
      [
        "Ġmarket",
        -9.042333304317465
      ],
      [
        "Ġpost",
        -9.042388308548556
      ],
      [
        "Ġbrain",
        -9.043852525661688
      ],
      [
        "Ġinside",
        -9.046200898856826
      ],
      [
        "ĠNo",
        -9.046885564489587
      ],
      [
        "Ġanswer",
        -9.048134790358372
      ],
      [
        "Ġgas",
        -9.04879460655378
      ],
      [
        "Ġdoing",
        -9.050679635907215
      ],
      [
        "Ġcompare",
        -9.051484155216418
      ],
      [
        "only",
        -9.053812849961195
      ],
      [
        "Ġindustr",
        -9.054238766932404
      ],
      [
        "Ġbelieve",
        -9.0544325572276
      ],
      [
        "Ġpositive",
        -9.054668712682052
      ],
      [
        "L",
        -9.055380050340162
      ],
      [
        "Ġengine",
        -9.055382594585849
      ],
      [
        "Ġwide",
        -9.057384456553244
      ],
      [
        "Ġrun",
        -9.059553513573658
      ],
      [
        "Ġthought",
        -9.060220927086624
      ],
      [
        "Ġhistory",
        -9.061026094317944
      ],
      [
        "Ġeither",
        -9.0658769397365
      ],
      [
        "Ġsignal",
        -9.066139693961272
      ],
      [
        "Ġshare",
        -9.066241552804044
      ],
      [
        "Ġshape",
        -9.067034171863188
      ],
      [
        "Ġstay",
        -9.067250518641462
      ],
      [
        "Ġwhole",
        -9.067516027186178
      ],
      [
        "Ġline",
        -9.067712754246026
      ],
      [
        "Ġcomplex",
        -9.069906877718797
      ],
      [
        "Ġenjoy",
        -9.072048244273422
      ],
      [
        "Ġallows",
        -9.072977918460287
      ],
      [
        "ĠP",
        -9.07469285862255
      ],
      [
        "Ġfar",
        -9.077283758951465
      ],
      [
        "Ġcommunity",
        -9.07879256901186
      ],
      [
        "ng",
        -9.079688995353305
      ],
      [
        "Ġskills",
        -9.0817867944143
      ],
      [
        "!Ċ",
        -9.083612767733417
      ],
      [
        "Ġbehavior",
        -9.086733949879852
      ],
      [
        "Ġsays",
        -9.087436648399455
      ],
      [
        "Ġactivity",
        -9.089228074542843
      ],
      [
        "Ġdescribe",
        -9.091507676452704
      ],
      [
        "Ġaway",
        -9.09259691546596
      ],
      [
        "Ġface",
        -9.095592099433995
      ],
      [
        "Ġsound",
        -9.096075436483927
      ],
      [
        "ĠYour",
        -9.096564682926555
      ],
      [
        "taking",
        -9.0966297768606
      ],
      [
        "Ġbreak",
        -9.097019911061729
      ],
      [
        "get",
        -9.097195455825483
      ],
      [
        "Ġprovides",
        -9.098260259285336
      ],
      [
        "Ġreceive",
        -9.098306909539364
      ],
      [
        "Ġnetwork",
        -9.0985708573202
      ],
      [
        "Ġtarget",
        -9.098627568415909
      ],
      [
        "Ġhelps",
        -9.098640718153527
      ],
      [
        "Ġgarden",
        -9.099741420092816
      ],
      [
        "Ġpropert",
        -9.100864432698817
      ],
      [
        "Ġweek",
        -9.10357076557474
      ],
      [
        "_",
        -9.103629507045916
      ],
      [
        "Ġstrong",
        -9.10373802716036
      ],
      [
        "Ġagain",
        -9.105152700293145
      ],
      [
        "Ġcold",
        -9.10714638768358
      ],
      [
        "Ġenvironmental",
        -9.107936490541292
      ],
      [
        "Ġtreat",
        -9.107971162861476
      ],
      [
        ")Ċ",
        -9.10909526874299
      ],
      [
        "Ġdesigne",
        -9.112936906455651
      ],
      [
        ").Ċ",
        -9.113330995042343
      ],
      [
        "Ġstore",
        -9.114256915300851
      ],
      [
        "Ġthing",
        -9.115040014661847
      ],
      [
        "Ġsymptom",
        -9.117550098380878
      ],
      [
        "ypically",
        -9.11793610563011
      ],
      [
        "Ġrequired",
        -9.118341143977077
      ],
      [
        "Ġparent",
        -9.118474114149585
      ],
      [
        "Ġdeep",
        -9.11910019853536
      ],
      [
        "Ġperfect",
        -9.122706989342984
      ],
      [
        "Ġactivities",
        -9.124213214117413
      ],
      [
        "Ġclass",
        -9.125248832903663
      ],
      [
        "Ġpiece",
        -9.125977577872392
      ],
      [
        "Ġpublic",
        -9.126741517949151
      ],
      [
        "One",
        -9.128107337189425
      ],
      [
        "two",
        -9.1285255789207
      ],
      [
        "Ġmethods",
        -9.131352227948902
      ],
      [
        "Ġloss",
        -9.131983129632916
      ],
      [
        "Ġcontact",
        -9.132344458329433
      ],
      [
        "Ġhim",
        -9.132952335633576
      ],
      [
        "Ġoil",
        -9.13353972703278
      ],
      [
        "Ġhouse",
        -9.134016759831002
      ],
      [
        "Ġlower",
        -9.134350121520662
      ],
      [
        "Ġservice",
        -9.134451187525755
      ],
      [
        "Ġothers",
        -9.134466046570571
      ],
      [
        "Ġmetal",
        -9.135747467727867
      ],
      [
        "Ġcool",
        -9.136655978577569
      ],
      [
        "Ġparticular",
        -9.13779161585089
      ],
      [
        "Ġyoung",
        -9.137812440169505
      ],
      [
        "Ġread",
        -9.138485076648449
      ],
      [
        "Ġwaste",
        -9.14119960254498
      ],
      [
        "Ġmonths",
        -9.14325021344646
      ],
      [
        "Ġoverall",
        -9.143390155941235
      ],
      [
        "Ġunit",
        -9.143522435320808
      ],
      [
        "Ġstress",
        -9.143723775075202
      ],
      [
        "Ġpractice",
        -9.14388251982482
      ],
      [
        "Ġcorrect",
        -9.144261554161574
      ],
      [
        "Ġresponse",
        -9.145787479496033
      ],
      [
        "Ġnormal",
        -9.14743584627276
      ],
      [
        "Ġopportunit",
        -9.148595123289295
      ],
      [
        "Ġbring",
        -9.149851663853656
      ],
      [
        "Ġmultiple",
        -9.150706797495264
      ],
      [
        "Ġstructure",
        -9.15192648137199
      ],
      [
        "Ġrelease",
        -9.152706125812356
      ],
      [
        "Ġcrucial",
        -9.152757041787726
      ],
      [
        "Ġtechniques",
        -9.154573293453655
      ],
      [
        "Ġtools",
        -9.158499671988768
      ],
      [
        "Ġpast",
        -9.15948903745718
      ],
      [
        "Ġprofessional",
        -9.160188945274696
      ],
      [
        "Ġliving",
        -9.16062639041375
      ],
      [
        "âĢ¦",
        -9.161012009897837
      ],
      [
        "Ġdone",
        -9.161131624782868
      ],
      [
        "Ġsolar",
        -9.161679096963756
      ],
      [
        "Ġfollow",
        -9.162350497639729
      ],
      [
        "Ġresources",
        -9.16239854638982
      ],
      [
        "Ġbuild",
        -9.162579143490316
      ],
      [
        "\\",
        -9.165728554433404
      ],
      [
        "Ġexist",
        -9.166668125774748
      ],
      [
        "Ġentire",
        -9.168128645779513
      ],
      [
        "Ġcontain",
        -9.168983501718294
      ],
      [
        "Why",
        -9.169002971888888
      ],
      [
        "water",
        -9.170553973010197
      ],
      [
        "Ġflow",
        -9.170849774549776
      ],
      [
        "Ġgreen",
        -9.170935085256904
      ],
      [
        "Ġtree",
        -9.172566825818375
      ],
      [
        "ment",
        -9.173839275004893
      ],
      [
        "Ġprimar",
        -9.174952477795044
      ],
      [
        "Ġmind",
        -9.174960524846885
      ],
      [
        "owever",
        -9.176511175607818
      ],
      [
        "Ġlonge",
        -9.178928643332217
      ],
      [
        "Ġbase",
        -9.179043023250532
      ],
      [
        "Ġspecial",
        -9.179518802806314
      ],
      [
        "Ġthroughout",
        -9.179623700094655
      ],
      [
        "Ġcompany",
        -9.179695032893632
      ],
      [
        "Ġprotein",
        -9.18121862401485
      ],
      [
        "Ġeasily",
        -9.181232528688325
      ],
      [
        "Ġproper",
        -9.181557683810103
      ],
      [
        "ather",
        -9.182012400203558
      ],
      [
        "Ġhead",
        -9.182440940845323
      ],
      [
        "old",
        -9.18257011818798
      ],
      [
        "Ġaverage",
        -9.184148249117651
      ],
      [
        "It",
        -9.185480301441189
      ],
      [
        "Ġacid",
        -9.186873794705804
      ],
      [
        "Ġminutes",
        -9.187336400422886
      ],
      [
        "Ġexplain",
        -9.187717760634497
      ],
      [
        "Ġcancer",
        -9.18843706357249
      ],
      [
        "Ġsugar",
        -9.189380331014588
      ],
      [
        "But",
        -9.189756030632882
      ],
      [
        "early",
        -9.19112844686584
      ],
      [
        "Ġconsidered",
        -9.192427659789551
      ],
      [
        "Ġseen",
        -9.194411470857377
      ],
      [
        "Ġfruit",
        -9.198143705761488
      ],
      [
        "Ġquestions",
        -9.198847870354651
      ],
      [
        "ĠE",
        -9.199253792259046
      ],
      [
        "Ġchoose",
        -9.200036047811755
      ],
      [
        "Ġmodern",
        -9.204199778504588
      ],
      [
        "ion",
        -9.204366793788571
      ],
      [
        "also",
        -9.204453204366043
      ],
      [
        "Ġsomeone",
        -9.20470425189761
      ],
      [
        "Ġtraditional",
        -9.205555358889608
      ],
      [
        "Ġbalance",
        -9.205604268667903
      ],
      [
        "Ġpersonal",
        -9.206187622942233
      ],
      [
        "Ġcarbon",
        -9.208940652426037
      ],
      [
        "making",
        -9.209197114518084
      ],
      [
        "Ġmuscle",
        -9.21166787840086
      ],
      [
        "ĠNational",
        -9.212348007650938
      ],
      [
        "her",
        -9.212977444687288
      ],
      [
        "ĠH",
        -9.214187270096884
      ],
      [
        "Ġglobal",
        -9.215483922865603
      ],
      [
        "Ġdegree",
        -9.216492009513953
      ],
      [
        "Ġchoice",
        -9.218258284637162
      ],
      [
        "Ġcreated",
        -9.21841564040455
      ],
      [
        "Ġsuggest",
        -9.21875864780048
      ],
      [
        "Ġfee",
        -9.219081258685115
      ],
      [
        "ĠOne",
        -9.219532306804588
      ],
      [
        "Ġbuilding",
        -9.221890541400963
      ],
      [
        "Ġsimply",
        -9.226522675078137
      ],
      [
        "G",
        -9.22659450611742
      ],
      [
        "Ġtotal",
        -9.227066332456095
      ],
      [
        "Ġprobably",
        -9.228357212210032
      ],
      [
        "Ġmanagement",
        -9.228385131142463
      ],
      [
        "Ġbacteria",
        -9.232099605524311
      ],
      [
        "Ġinfection",
        -9.232296937646732
      ],
      [
        "Answer",
        -9.233475062663304
      ],
      [
        "day",
        -9.233946746169508
      ],
      [
        "Ġoptions",
        -9.236957782857566
      ],
      [
        "Ġjob",
        -9.237897231477806
      ],
      [
        "eating",
        -9.238057839224798
      ],
      [
        "Ġrecent",
        -9.238853605966694
      ],
      [
        "-based",
        -9.238894772236955
      ],
      [
        "Ġyourself",
        -9.240466255970924
      ],
      [
        "about",
        -9.2406153899254
      ],
      [
        "Ġpatients",
        -9.2417561159331
      ],
      [
        "Ġreaction",
        -9.241955039011009
      ],
      [
        "Ġarticle",
        -9.24213969198336
      ],
      [
        "Ġadult",
        -9.242381129943606
      ],
      [
        "Ġmillion",
        -9.247218681597989
      ],
      [
        "Ġincreasing",
        -9.24761568095738
      ],
      [
        "Ġsense",
        -9.248052896569298
      ],
      [
        "Ġwebsite",
        -9.248276760430567
      ],
      [
        "They",
        -9.249516209873516
      ],
      [
        "Ġextreme",
        -9.250013699239318
      ],
      [
        "ĠUnite",
        -9.25440607229452
      ],
      [
        "Ġif",
        -9.25852796333879
      ],
      [
        "Ġplastic",
        -9.259043401205854
      ],
      [
        "Ġcondition",
        -9.259274051776396
      ],
      [
        "Ġbattery",
        -9.259542738464347
      ],
      [
        "ĠAI",
        -9.259960763397586
      ],
      [
        "Ġ\"",
        -9.260224249433982
      ],
      [
        "Ġdecision",
        -9.260826185470478
      ],
      [
        "Ġoutside",
        -9.26150007613047
      ],
      [
        "Ġsituation",
        -9.261530621677156
      ],
      [
        "ĠOn",
        -9.262202477545532
      ],
      [
        "Ġtry",
        -9.26286353395454
      ],
      [
        "Ġlarger",
        -9.263264334078489
      ],
      [
        "Ġseason",
        -9.265268346048252
      ],
      [
        "Ġlocation",
        -9.265450238751107
      ],
      [
        "Ġcat",
        -9.266131089314293
      ],
      [
        "Ġrepresent",
        -9.267931916282944
      ],
      [
        "Ġeducation",
        -9.268353400231303
      ],
      [
        "ĠScience",
        -9.268510997887356
      ],
      [
        "Ġprovid",
        -9.269964845520429
      ],
      [
        "Ġdrive",
        -9.270226707841855
      ],
      [
        "z",
        -9.27225486645694
      ],
      [
        "Ġexercise",
        -9.273484175523222
      ],
      [
        "Ġbit",
        -9.273976057248897
      ],
      [
        "Ġalmost",
        -9.274082144876225
      ],
      [
        "Ġfive",
        -9.274117766002997
      ],
      [
        "Ġslow",
        -9.274287014592153
      ],
      [
        "Ġwomen",
        -9.274513908903891
      ],
      [
        "Ġscientists",
        -9.276120240181069
      ],
      [
        "Ġnature",
        -9.276186950395775
      ],
      [
        "Ġo",
        -9.276903962838162
      ],
      [
        "ous",
        -9.278216026382854
      ],
      [
        "ĠDNA",
        -9.27895466282828
      ],
      [
        "over",
        -9.280666824078722
      ],
      [
        "Ġhe",
        -9.281090266407595
      ],
      [
        "Ġinstead",
        -9.281735103544252
      ],
      [
        "Ġpercent",
        -9.282958490119524
      ],
      [
        "Ġsubject",
        -9.283413626401474
      ],
      [
        "Ġexplore",
        -9.283452291324773
      ],
      [
        "Ġknowledge",
        -9.283583910010728
      ],
      [
        "Ġreport",
        -9.28578499321164
      ],
      [
        "Ġrelative",
        -9.287954886161543
      ],
      [
        "Ġblock",
        -9.288273684762162
      ],
      [
        "work",
        -9.288571562845153
      ],
      [
        "Ġfall",
        -9.289801664291698
      ],
      [
        "Ġcountry",
        -9.289935087115335
      ],
      [
        "Ġauthor",
        -9.291475347221178
      ],
      [
        "âĢĻ",
        -9.29167828654544
      ],
      [
        "Ġcustomer",
        -9.291890534474968
      ],
      [
        "Ġadvantage",
        -9.29630380780074
      ],
      [
        "Ġexpert",
        -9.296425277172055
      ],
      [
        "ful",
        -9.29743183971028
      ],
      [
        "Ġwinter",
        -9.297963293748293
      ],
      [
        "Ġstudies",
        -9.298266263294568
      ],
      [
        "Ġperform",
        -9.298706579449934
      ],
      [
        "ĠStates",
        -9.299670593535016
      ],
      [
        "ĠT",
        -9.300419742947197
      ],
      [
        "Ġcut",
        -9.302000132684402
      ],
      [
        "Ġwall",
        -9.302056343893932
      ],
      [
        "Ġtool",
        -9.303799310820509
      ],
      [
        "Ġapplications",
        -9.304732036002878
      ],
      [
        "Ġsometime",
        -9.305786539785068
      ],
      [
        "Ġlanguage",
        -9.30629485595276
      ],
      [
        "Ġeffort",
        -9.307050277293245
      ],
      [
        "low",
        -9.307217366530276
      ],
      [
        "make",
        -9.3076443198022
      ],
      [
        "Ġstarted",
        -9.307823318557386
      ],
      [
        "Ġsleep",
        -9.30795866621978
      ],
      [
        "Ġapplication",
        -9.309952737252573
      ],
      [
        "Ġelements",
        -9.312011715367904
      ],
      [
        "Ġregard",
        -9.312137417105395
      ],
      [
        "Ġthemselves",
        -9.315254539560904
      ],
      [
        "Ġevidence",
        -9.317224710299897
      ],
      [
        "Ġaddress",
        -9.318997059336152
      ],
      [
        "Ġar",
        -9.319529406892292
      ],
      [
        "Ġlater",
        -9.319881609729611
      ],
      [
        "Ġanything",
        -9.320295428151454
      ],
      [
        "Ġcall",
        -9.321023893374344
      ],
      [
        "Ġcommunication",
        -9.322892543961304
      ],
      [
        "Ġanalysis",
        -9.324311828524818
      ],
      [
        "Ġspring",
        -9.324999976366088
      ],
      [
        "Ġweather",
        -9.325770725653792
      ],
      [
        "will",
        -9.32613101297256
      ],
      [
        "Ġeverything",
        -9.326151918003903
      ],
      [
        "Ġfuel",
        -9.326483885500128
      ],
      [
        "Ġcode",
        -9.3272302642203
      ],
      [
        "Ġbreed",
        -9.328336708569072
      ],
      [
        "Ġstop",
        -9.329926419249528
      ],
      [
        "With",
        -9.330402842684158
      ],
      [
        "#",
        -9.331391323496105
      ],
      [
        "Ġfun",
        -9.331650607520558
      ],
      [
        "\"ĊĊ",
        -9.33237072136511
      ],
      [
        "even",
        -9.33269001124478
      ],
      [
        "Ġprevious",
        -9.33365382131985
      ],
      [
        "Ġmonitor",
        -9.3342094903493
      ],
      [
        "Ġfinding",
        -9.334257284608668
      ],
      [
        "|",
        -9.334532299350364
      ],
      [
        "Ġoperation",
        -9.336942646133611
      ],
      [
        "ĠEarth",
        -9.338424462196135
      ],
      [
        "Ġposition",
        -9.339224069851564
      ],
      [
        "ĠR",
        -9.3403490835705
      ],
      [
        "Ġcanno",
        -9.34057868060129
      ],
      [
        "Ġattention",
        -9.341415106260946
      ],
      [
        ".\"",
        -9.343764224555354
      ],
      [
        "Ġcharge",
        -9.344328239173462
      ],
      [
        "Ġadditional",
        -9.345492409355716
      ],
      [
        "Ġpet",
        -9.34561048975004
      ],
      [
        "Ġrelated",
        -9.347519953079926
      ],
      [
        "what",
        -9.348477533407443
      ],
      [
        "Ġroom",
        -9.349463585872671
      ],
      [
        "ĠAll",
        -9.352045928962774
      ],
      [
        "Ġdrink",
        -9.352858166479024
      ],
      [
        "Ġequipment",
        -9.353195366827094
      ],
      [
        "le",
        -9.354150575129964
      ],
      [
        "Ġshown",
        -9.355374836144886
      ],
      [
        "Ġadvance",
        -9.355654583777415
      ],
      [
        "Ġgenerate",
        -9.356248276690494
      ],
      [
        "Ġbad",
        -9.35814987099892
      ],
      [
        "Ġtrying",
        -9.358564837902096
      ],
      [
        "Ġlength",
        -9.35867938790024
      ],
      [
        "Ġfactor",
        -9.360724919203053
      ],
      [
        "Ġpage",
        -9.36247233716305
      ],
      [
        "Ġgenetic",
        -9.362874437143578
      ],
      [
        "Ġoption",
        -9.36336626351698
      ],
      [
        "Ġhalf",
        -9.363377060134642
      ],
      [
        "was",
        -9.363507353276766
      ],
      [
        "line",
        -9.36394671742896
      ],
      [
        "Ġsite",
        -9.36665589477888
      ],
      [
        "Ġstory",
        -9.367020991059944
      ],
      [
        "Ġcharacter",
        -9.369915173248788
      ],
      [
        "Ġfresh",
        -9.370298230137948
      ],
      [
        "sure",
        -9.371546982098751
      ],
      [
        "V",
        -9.373064097611392
      ],
      [
        "Ġindicate",
        -9.373119081282718
      ],
      [
        "Ġterm",
        -9.373898895594916
      ],
      [
        "Ġtravel",
        -9.376431212866333
      ],
      [
        "cause",
        -9.377266520646325
      ],
      [
        "Ġca",
        -9.378161782618683
      ],
      [
        "Ġkids",
        -9.379345652772738
      ],
      [
        "ĠShe",
        -9.37969533741679
      ],
      [
        "Ġtrees",
        -9.379722488230469
      ],
      [
        "Ġnight",
        -9.379860640714774
      ],
      [
        "rate",
        -9.38007793512686
      ],
      [
        "Ġeyes",
        -9.38068502704995
      ],
      [
        "Ġoriginal",
        -9.38102059448494
      ],
      [
        "Ġworks",
        -9.38125690683288
      ],
      [
        "Ġshows",
        -9.38143870179298
      ],
      [
        "hether",
        -9.382334939730304
      ],
      [
        "Ġstudent",
        -9.383587806694909
      ],
      [
        "Ġguide",
        -9.385138845674906
      ],
      [
        "Ġcamera",
        -9.386751751589133
      ],
      [
        "Ġwood",
        -9.387008286566855
      ],
      [
        "Ġmentioned",
        -9.387203549920107
      ],
      [
        "Ġmovement",
        -9.38842519291604
      ],
      [
        "Ġtell",
        -9.388631553635165
      ],
      [
        "Ġmedia",
        -9.390086675964495
      ],
      [
        "Ġstandard",
        -9.39133578886092
      ],
      [
        "Ġstrength",
        -9.39197139400532
      ],
      [
        "Ġbehind",
        -9.393124810443204
      ],
      [
        "Ġappear",
        -9.39607082994915
      ],
      [
        "Ġaccount",
        -9.39855255021648
      ],
      [
        "Ġhear",
        -9.399915729059716
      ],
      [
        "Ġinput",
        -9.402385838700123
      ],
      [
        "To",
        -9.405191851014552
      ],
      [
        "Ġal",
        -9.407349842993806
      ],
      [
        "Ġmass",
        -9.408827547069937
      ],
      [
        "Ġwon",
        -9.410276553640507
      ],
      [
        "Ġcauses",
        -9.412130616525122
      ],
      [
        "Ġrecord",
        -9.41325492529396
      ],
      [
        "Ġdistance",
        -9.413565889887415
      ],
      [
        "Ġmeat",
        -9.413873015502
      ],
      [
        "Ġreturn",
        -9.414740399609318
      ],
      [
        "Ġselect",
        -9.41677056847752
      ],
      [
        "Ġparticularly",
        -9.417343525790043
      ],
      [
        "--",
        -9.418504593847183
      ],
      [
        "such",
        -9.419319589475467
      ],
      [
        "Ġdevelope",
        -9.419487362512369
      ],
      [
        "Ġnegative",
        -9.420753197670354
      ],
      [
        "Ġself",
        -9.4209427682602
      ],
      [
        "Ġapply",
        -9.423803804294623
      ],
      [
        "Ġservices",
        -9.42591618297947
      ],
      [
        "words",
        -9.42736857215813
      ],
      [
        "Ġfront",
        -9.429117040213262
      ],
      [
        "Ġefficient",
        -9.431690028216554
      ],
      [
        "quality",
        -9.431761091635783
      ],
      [
        "Ġselection",
        -9.432008273817662
      ],
      [
        "Ġidentify",
        -9.432624203330686
      ],
      [
        "Ġetc",
        -9.4338037442539
      ],
      [
        "Ġus",
        -9.43382297026369
      ],
      [
        "ĠU",
        -9.434857709469789
      ],
      [
        "Ġcolors",
        -9.435506816579071
      ],
      [
        "Ġmedical",
        -9.43687314662112
      ],
      [
        "quite",
        -9.436907624077406
      ],
      [
        "Ġconstant",
        -9.437486206867344
      ],
      [
        "Some",
        -9.437937554272311
      ],
      [
        "Ġtrue",
        -9.43931176229612
      ],
      [
        "Ġcontribute",
        -9.439584866959418
      ],
      [
        "Ġinfluence",
        -9.440097596688371
      ],
      [
        "Ġsave",
        -9.441633788411538
      ],
      [
        "Ġsummer",
        -9.445807910147296
      ],
      [
        "Ġpay",
        -9.446079924489428
      ],
      [
        "Ġscientific",
        -9.447470163284937
      ],
      [
        "Ġspread",
        -9.447632757097429
      ],
      [
        "K",
        -9.448246470456606
      ],
      [
        "Ġvisit",
        -9.448932519909118
      ],
      [
        "Ġlimit",
        -9.451666374814028
      ],
      [
        "Ġsmalle",
        -9.451948948239991
      ],
      [
        "Ġreach",
        -9.45232564274533
      ],
      [
        "Ġinitial",
        -9.452561786664631
      ],
      [
        "Ġextra",
        -9.45287944899528
      ],
      [
        "Ġvegetable",
        -9.45485029502832
      ],
      [
        "Ġinterest",
        -9.454853118053848
      ],
      [
        "ĠHere",
        -9.455996370805792
      ],
      [
        "Â°",
        -9.457473628152558
      ],
      [
        "Ġsoftware",
        -9.4582644022476
      ],
      [
        "going",
        -9.459942492457362
      ],
      [
        "Ġword",
        -9.460201462827442
      ],
      [
        "Ġvisual",
        -9.46164165597217
      ],
      [
        "Ġenhance",
        -9.46395518380806
      ],
      [
        "Can",
        -9.46457318221504
      ],
      [
        "Ġseparate",
        -9.464703683868326
      ],
      [
        "Ġstage",
        -9.465458805047346
      ],
      [
        "Ġreading",
        -9.466309221466895
      ],
      [
        "Ġever",
        -9.466322993021198
      ],
      [
        "here",
        -9.46682860621092
      ],
      [
        "Ġchemical",
        -9.468643774029363
      ],
      [
        "any",
        -9.46894506667688
      ],
      [
        "Ġgreate",
        -9.469641887432346
      ],
      [
        "ĠHealth",
        -9.470464075105864
      ],
      [
        "Ġfeature",
        -9.471277990350949
      ],
      [
        "Ġlink",
        -9.471647303792324
      ],
      [
        "Ġdark",
        -9.47260262002064
      ],
      [
        "ever",
        -9.47533655011414
      ],
      [
        "Ġeggs",
        -9.475825731823988
      ],
      [
        "Ġleading",
        -9.476143298402814
      ],
      [
        "Ġdeath",
        -9.476735326907423
      ],
      [
        "they",
        -9.477225362231064
      ],
      [
        "ĠAn",
        -9.477300947579998
      ],
      [
        "Ġprocesses",
        -9.477604251548335
      ],
      [
        "Ġeasier",
        -9.478308970907843
      ],
      [
        "Ġelectrical",
        -9.478722990732658
      ],
      [
        "last",
        -9.478902563163569
      ],
      [
        "ĠAmerica",
        -9.47939966768866
      ],
      [
        "Ġgot",
        -9.481299388780378
      ],
      [
        "Ġgene",
        -9.482280424476034
      ],
      [
        "Ġha",
        -9.483056264220334
      ],
      [
        "ĠSchool",
        -9.48371628129376
      ],
      [
        "Ġfinal",
        -9.484954356610078
      ],
      [
        "Ġrecommended",
        -9.484972153238775
      ],
      [
        "So",
        -9.485566120510557
      ],
      [
        "ĠDo",
        -9.485687881039356
      ],
      [
        "Ġgovernment",
        -9.485755925888348
      ],
      [
        "ĠNorth",
        -9.485854895595883
      ],
      [
        "Ġmix",
        -9.48653751299338
      ],
      [
        "Ġmone",
        -9.488528923119192
      ],
      [
        "Ġcountries",
        -9.489065935996496
      ],
      [
        "Ġlet",
        -9.489310287711092
      ],
      [
        "Ġgoal",
        -9.490499235568844
      ],
      [
        "Ġorganization",
        -9.491648956430534
      ],
      [
        "Ġhorse",
        -9.491898712128313
      ],
      [
        "Ġdirection",
        -9.492013108321192
      ],
      [
        "afety",
        -9.492038083914522
      ],
      [
        "Ġcreat",
        -9.492818724094668
      ],
      [
        "Ġrequirement",
        -9.4928188638043
      ],
      [
        "Ġcover",
        -9.49406385834864
      ],
      [
        "Ġwind",
        -9.495314740257545
      ],
      [
        "As",
        -9.496359784918914
      ],
      [
        "Ġremain",
        -9.496640257221546
      ],
      [
        "Ġterms",
        -9.497373911697974
      ],
      [
        "Ġocean",
        -9.49758795447759
      ],
      [
        "Ġcenter",
        -9.497771574440335
      ],
      [
        "Ġsearch",
        -9.498149059849192
      ],
      [
        "Ġview",
        -9.498841506975875
      ],
      [
        "Ġuseful",
        -9.499568545068188
      ],
      [
        "Ġweeks",
        -9.501022703080224
      ],
      [
        "Now",
        -9.501363154977987
      ],
      [
        "Ġelectric",
        -9.501820726703684
      ],
      [
        "Ġstation",
        -9.50183383875366
      ],
      [
        "Ġconnection",
        -9.503748560363784
      ],
      [
        "Ġsix",
        -9.504255659476549
      ],
      [
        "...ĊĊ",
        -9.504414099337447
      ],
      [
        "Ġtissue",
        -9.505006221465036
      ],
      [
        "Ġattack",
        -9.505396665386227
      ],
      [
        "Ġblue",
        -9.505644329322562
      ],
      [
        "ĠDr",
        -9.506083529975625
      ],
      [
        "Ġdidn",
        -9.507231031868937
      ],
      [
        "Ġtaken",
        -9.50877687153498
      ],
      [
        "Ġcombination",
        -9.508985383874412
      ],
      [
        "Ġchance",
        -9.509673002138072
      ],
      [
        "U",
        -9.51146371334168
      ],
      [
        "Ġtowards",
        -9.512669345944277
      ],
      [
        "Ġfoods",
        -9.512995555205505
      ],
      [
        "And",
        -9.514214070591471
      ],
      [
        "Ġdisplay",
        -9.51544401812514
      ],
      [
        "fully",
        -9.516531937719554
      ],
      [
        "Ġways",
        -9.517944623579664
      ],
      [
        "Ġcritical",
        -9.51929575679896
      ],
      [
        "Ġlist",
        -9.51954595898856
      ],
      [
        "Q",
        -9.52098652359636
      ],
      [
        "Ġinsect",
        -9.521275321478562
      ],
      [
        "Ġdemand",
        -9.52153439810889
      ],
      [
        "Ġeveryone",
        -9.52249299520304
      ],
      [
        "Ġsalt",
        -9.522652606180754
      ],
      [
        "Ġrunning",
        -9.525979856143984
      ],
      [
        "Ġmanage",
        -9.526304472189487
      ],
      [
        "Ġdeliver",
        -9.52639790379219
      ],
      [
        "ĠCan",
        -9.528367539771846
      ],
      [
        "Ġlayer",
        -9.52899876837976
      ],
      [
        "Ġingredient",
        -9.529137578776355
      ],
      [
        "highly",
        -9.52964901732758
      ],
      [
        "right",
        -9.529675568606732
      ],
      [
        "ĠUS",
        -9.529847655697315
      ],
      [
        "Ġnotice",
        -9.533519588547088
      ],
      [
        "ting",
        -9.533738027660014
      ],
      [
        "Ġoutput",
        -9.534059598341251
      ],
      [
        "Ġpre",
        -9.53441378178336
      ],
      [
        "Ġitems",
        -9.535740759539898
      ],
      [
        "sources",
        -9.535943384624003
      ],
      [
        "me",
        -9.536120086006248
      ],
      [
        "Ġevents",
        -9.536602906177894
      ],
      [
        "Ġhabitat",
        -9.537520580956157
      ],
      [
        "Ġachieve",
        -9.537524488442948
      ],
      [
        "Ġbuilt",
        -9.53830254872576
      ],
      [
        "Ġmeet",
        -9.538680511611505
      ],
      [
        "ĠAfter",
        -9.539856443569072
      ],
      [
        "them",
        -9.540150006793512
      ],
      [
        "Ġdetect",
        -9.54038311450336
      ],
      [
        "limited",
        -9.541084891984545
      ],
      [
        "âĢ¢",
        -9.542189016471612
      ],
      [
        "Ġprice",
        -9.545798121625609
      ],
      [
        "ĠYes",
        -9.547276350601017
      ],
      [
        "Y",
        -9.54751555489677
      ],
      [
        "Ġbirds",
        -9.547735983572643
      ],
      [
        "Ġelse",
        -9.548335785879376
      ],
      [
        "Ġcame",
        -9.551649857648783
      ],
      [
        "Ġgroups",
        -9.55198361141104
      ],
      [
        "Ġtopic",
        -9.552342556649725
      ],
      [
        "nd",
        -9.552391135854991
      ],
      [
        "Ġman",
        -9.552676617776784
      ],
      [
        "Ġfire",
        -9.554188089353856
      ],
      [
        "Ġprotection",
        -9.554737867066091
      ],
      [
        "ties",
        -9.554980635980876
      ],
      [
        "Ġcharacteristic",
        -9.557453187720784
      ],
      [
        "Ġsuccess",
        -9.558240991660362
      ],
      [
        "Ġbegin",
        -9.55913202219715
      ],
      [
        "âĢĿ",
        -9.559965656182094
      ],
      [
        "had",
        -9.560610463714337
      ],
      [
        "Ġconcern",
        -9.56196979230508
      ],
      [
        "Ġimages",
        -9.562891020562766
      ],
      [
        "Ġmemory",
        -9.565447172364074
      ],
      [
        "Ġencourage",
        -9.566659961211917
      ],
      [
        "Ġserious",
        -9.566849477764915
      ],
      [
        "Ġwalk",
        -9.5687549701139
      ],
      [
        "Ġlocate",
        -9.569688926010208
      ],
      [
        "Ġmoment",
        -9.570229249808182
      ],
      [
        ".com",
        -9.571063496373196
      ],
      [
        "Ġmodels",
        -9.57135053391612
      ],
      [
        "Ġfast",
        -9.572375057510955
      ],
      [
        "Ġideas",
        -9.572733691761004
      ],
      [
        "Ġhope",
        -9.573043680032969
      ],
      [
        "ĠF",
        -9.573220537668211
      ],
      [
        "Ġobtain",
        -9.573488267757416
      ],
      [
        "Ġfeeling",
        -9.57367345371548
      ],
      [
        "Ġappropriate",
        -9.574113566225222
      ],
      [
        "care",
        -9.574438155086323
      ],
      [
        "energy",
        -9.57546455369964
      ],
      [
        "Ġimportance",
        -9.575738121113726
      ],
      [
        "Ġoxygen",
        -9.576950749571566
      ],
      [
        "ĠSouth",
        -9.578027886021069
      ],
      [
        "Ġcarry",
        -9.578627878703598
      ],
      [
        "Ġtaste",
        -9.580509569655868
      ],
      [
        "Ġfilter",
        -9.580557213340816
      ],
      [
        "their",
        -9.58056530746356
      ],
      [
        "Ġteeth",
        -9.582028123514352
      ],
      [
        "man",
        -9.582443092776554
      ],
      [
        "Ġmilk",
        -9.58290277976532
      ],
      [
        "were",
        -9.587323548634444
      ],
      [
        "Ġfeed",
        -9.58734761119825
      ],
      [
        "Ġideal",
        -9.587771576172573
      ],
      [
        "into",
        -9.587898306064751
      ],
      [
        "Ġgain",
        -9.589385470087594
      ],
      [
        "Ġtend",
        -9.591341843174392
      ],
      [
        ">",
        -9.592594143022415
      ],
      [
        "companie",
        -9.593421541118282
      ],
      [
        "ĠOf",
        -9.593487635680074
      ],
      [
        "Ġpromote",
        -9.5942881551007
      ],
      [
        "Ġold",
        -9.59634618542666
      ],
      [
        "Ġcommonly",
        -9.596821313069311
      ],
      [
        "ĠMore",
        -9.596877041688549
      ],
      [
        "\\n",
        -9.597604575028576
      ],
      [
        "adding",
        -9.599000053579688
      ],
      [
        "ĠJ",
        -9.60016587343946
      ],
      [
        "Ġcircuit",
        -9.60037720231938
      ],
      [
        "Ġdiseases",
        -9.601208797418424
      ],
      [
        "just",
        -9.601574969733788
      ],
      [
        "Ġfluid",
        -9.601961241266924
      ],
      [
        "Ġroot",
        -9.602489686525455
      ],
      [
        "Ġinstance",
        -9.603360857462189
      ],
      [
        "Ġtips",
        -9.603527255626735
      ],
      [
        "lines",
        -9.604543318032144
      ],
      [
        "Ġred",
        -9.605118266981824
      ],
      [
        "Ġbaby",
        -9.605153750030109
      ],
      [
        "Ġsensor",
        -9.60569635917174
      ],
      [
        "Ġhandle",
        -9.605826301962082
      ],
      [
        "Ġenable",
        -9.606539247935062
      ],
      [
        "Ġreplace",
        -9.606947580082018
      ],
      [
        "ĠUse",
        -9.607563155006003
      ],
      [
        "Ġorganic",
        -9.608725995048644
      ],
      [
        "side",
        -9.609525197090242
      ],
      [
        "ĠN",
        -9.610592080797003
      ],
      [
        "Ġspot",
        -9.611758895569562
      ],
      [
        "Ġspend",
        -9.612270780131176
      ],
      [
        "Ġmaintenance",
        -9.613102823665326
      ],
      [
        "Ġdeal",
        -9.613116603007528
      ],
      [
        "Ġtalk",
        -9.613263730158842
      ],
      [
        "because",
        -9.613452392124533
      ],
      [
        "Ġsupply",
        -9.613689473011936
      ],
      [
        "Ġremember",
        -9.615344068932334
      ],
      [
        "Which",
        -9.615582309973613
      ],
      [
        "Step",
        -9.617321531715945
      ],
      [
        "Ġproperly",
        -9.618107172686273
      ],
      [
        "Ġ[",
        -9.621023310693989
      ],
      [
        "ĠG",
        -9.62156609915796
      ],
      [
        "Ġstyle",
        -9.622968471303489
      ],
      [
        "Ġharm",
        -9.623302817113649
      ],
      [
        "head",
        -9.623548168134246
      ],
      [
        "Ġsun",
        -9.624072950020835
      ],
      [
        "Ġliquid",
        -9.625229906422902
      ],
      [
        "thinking",
        -9.625290867107946
      ],
      [
        "Ġsteps",
        -9.625524521631911
      ],
      [
        "offers",
        -9.626123600643194
      ],
      [
        "Ġpatient",
        -9.62670234056906
      ],
      [
        "Ġago",
        -9.62685845470856
      ],
      [
        "Ġnothing",
        -9.62801430556956
      ],
      [
        "Ġdoctor",
        -9.62840912536625
      ],
      [
        "ĠMost",
        -9.628506096844848
      ],
      [
        "Ġimmediate",
        -9.629759939035038
      ],
      [
        "lot",
        -9.630502470953136
      ],
      [
        "Ġcontains",
        -9.631529669256158
      ],
      [
        "Ġseeds",
        -9.631814457700052
      ],
      [
        "Ġlives",
        -9.632459340772863
      ],
      [
        "Ġcombine",
        -9.633111926034784
      ],
      [
        "ĠMy",
        -9.63395285958942
      ],
      [
        "Ġwriting",
        -9.63546555305958
      ],
      [
        "Ġhold",
        -9.636190195534038
      ],
      [
        "Ġalternative",
        -9.636469892174643
      ],
      [
        "Ġinteresting",
        -9.637427075083956
      ],
      [
        "Ġfrequent",
        -9.638014826351316
      ],
      [
        "Ġchallenges",
        -9.638075144252756
      ],
      [
        "Ġwear",
        -9.638640329961184
      ],
      [
        "Ġpoor",
        -9.639212023985005
      ],
      [
        "Ġconnect",
        -9.63969265189779
      ],
      [
        "Ġdraw",
        -9.639892462105845
      ],
      [
        "when",
        -9.642890080535672
      ],
      [
        "don",
        -9.643279878138523
      ],
      [
        "Ġrepair",
        -9.644180716806186
      ],
      [
        "Ġpretty",
        -9.64837839400651
      ],
      [
        "flowers",
        -9.64913637015603
      ],
      [
        "Ġcleaning",
        -9.649582900370488
      ],
      [
        "Ġcompound",
        -9.649791803999726
      ],
      [
        "Ġslight",
        -9.650417784610376
      ],
      [
        "made",
        -9.65178376248323
      ],
      [
        "Ġequal",
        -9.652866318820369
      ],
      [
        "Ġdecrease",
        -9.653112667687289
      ],
      [
        "Ġupon",
        -9.653126075114454
      ],
      [
        "Ġobjects",
        -9.65360502436248
      ],
      [
        "ĠResearch",
        -9.65492869855858
      ],
      [
        "Ġpaint",
        -9.65555291616925
      ],
      [
        "By",
        -9.656706868270506
      ],
      [
        "ĠWorld",
        -9.65754219054906
      ],
      [
        "Ġpublishe",
        -9.657772931887392
      ],
      [
        "Ġseek",
        -9.658087336141485
      ],
      [
        "red",
        -9.660899867523025
      ],
      [
        "inches",
        -9.660983697633284
      ],
      [
        "Ġdesire",
        -9.661124600563667
      ],
      [
        "Ġcentury",
        -9.662098980870631
      ],
      [
        "Ġcosts",
        -9.662170995730992
      ],
      [
        "Ġserve",
        -9.662503942266383
      ],
      [
        "Ġsoft",
        -9.66266014920484
      ],
      [
        "Ġtask",
        -9.662764948385409
      ],
      [
        "Ġhair",
        -9.66389754587918
      ],
      [
        "ways",
        -9.664098911825205
      ],
      [
        "Ġnoise",
        -9.665110573341336
      ],
      [
        "lthough",
        -9.66627588107821
      ],
      [
        "Ġask",
        -9.66713416756823
      ],
      [
        "lower",
        -9.667530187555762
      ],
      [
        "That",
        -9.668200852901762
      ],
      [
        "Ġrefer",
        -9.669812976086584
      ],
      [
        "Ġactive",
        -9.670347504319867
      ],
      [
        "Ġbeautiful",
        -9.67136420167388
      ],
      [
        "-up",
        -9.67159830079786
      ],
      [
        "Ġbuy",
        -9.672365394693683
      ],
      [
        "Ġhearing",
        -9.672468844325248
      ],
      [
        "Ġrelationship",
        -9.673985794849138
      ],
      [
        "Ġapp",
        -9.677600515537284
      ],
      [
        "Ġreflect",
        -9.683429494649893
      ],
      [
        "Ġtechnique",
        -9.683793296470988
      ],
      [
        "Ġculture",
        -9.684269811034037
      ],
      [
        "Ġbottom",
        -9.684522259014102
      ],
      [
        "Ġcount",
        -9.6848474878967
      ],
      [
        "fish",
        -9.686331053847791
      ],
      [
        "Ġmaximum",
        -9.687245347600246
      ],
      [
        "Ġplanet",
        -9.687937306344152
      ],
      [
        "Ġfigure",
        -9.68890506116059
      ],
      [
        "Ġ=",
        -9.689162063916331
      ],
      [
        "Ġseries",
        -9.68945139837836
      ],
      [
        "Ġcollect",
        -9.69110114445532
      ],
      [
        "Ġprojects",
        -9.691126065197931
      ],
      [
        "ance",
        -9.691175187163218
      ],
      [
        "Ġmonth",
        -9.69171722183393
      ],
      [
        "-term",
        -9.692623589200782
      ],
      [
        "Ġadde",
        -9.6932833300317
      ],
      [
        "Ġconcept",
        -9.693531728027498
      ],
      [
        "Ġtouch",
        -9.694724203336577
      ],
      [
        "Ġresponsible",
        -9.695058733778144
      ],
      [
        "Ġtank",
        -9.69582611461496
      ],
      [
        "ities",
        -9.696103787354051
      ],
      [
        "ĠMany",
        -9.69691159725409
      ],
      [
        "wise",
        -9.69809195925971
      ],
      [
        "ĠFrom",
        -9.698764159678422
      ],
      [
        "Ġearth",
        -9.699085819912645
      ],
      [
        "Ġmembers",
        -9.699345238525682
      ],
      [
        "Ġbrand",
        -9.701352463577482
      ],
      [
        "Ġsea",
        -9.701611368603906
      ],
      [
        "Ġraise",
        -9.702100387469407
      ],
      [
        "Ġcouple",
        -9.702400854041745
      ],
      [
        "ĠCenter",
        -9.703021690171848
      ],
      [
        "Ġbox",
        -9.703093826063974
      ],
      [
        "Ġheavy",
        -9.703093902970286
      ],
      [
        "Ġanti",
        -9.703360336399042
      ],
      [
        "Ġproteins",
        -9.703626757957078
      ],
      [
        "points",
        -9.705792109993077
      ],
      [
        "ĠâĢľ",
        -9.705892601744573
      ],
      [
        "Ġcontainer",
        -9.709166212576449
      ],
      [
        "Ġpanel",
        -9.709557986738613
      ],
      [
        "Ġmechanism",
        -9.710524857067297
      ],
      [
        "Ġwrong",
        -9.710554442257193
      ],
      [
        "Ġevent",
        -9.71143240495812
      ],
      [
        "Ġsection",
        -9.712306273289276
      ],
      [
        "Ġintroduce",
        -9.712649666912718
      ],
      [
        "people",
        -9.713372519356112
      ],
      [
        "Ġcausing",
        -9.715777744669555
      ],
      [
        "Ġsuccessful",
        -9.716117202884856
      ],
      [
        "X",
        -9.716848196213936
      ],
      [
        "ry",
        -9.717146702087163
      ],
      [
        "Ġsuitabl",
        -9.719132885062711
      ],
      [
        "Ġrest",
        -9.720092865856309
      ],
      [
        "ship",
        -9.720519464138444
      ],
      [
        "Ġpass",
        -9.720710183010295
      ],
      [
        "older",
        -9.72100561722092
      ],
      [
        "xactly",
        -9.722213690058943
      ],
      [
        "Ġcooking",
        -9.723045689611702
      ],
      [
        "Ġmoisture",
        -9.723567412159504
      ],
      [
        "Ġsustainable",
        -9.725171469580786
      ],
      [
        "Ġfriends",
        -9.725953812524285
      ],
      [
        "ĠInstitute",
        -9.726565568867665
      ],
      [
        "ĠBe",
        -9.727480974258375
      ],
      [
        "Ġflight",
        -9.727603128748736
      ],
      [
        "Ġphone",
        -9.72889808509019
      ],
      [
        "light",
        -9.72914527911735
      ],
      [
        "-to",
        -9.729466307237088
      ],
      [
        "these",
        -9.72984055449427
      ],
      [
        "ther",
        -9.73027494829406
      ],
      [
        "Ġland",
        -9.731129388379763
      ],
      [
        "Ġdiscuss",
        -9.732335198453072
      ],
      [
        "Ġswitch",
        -9.732887498824203
      ],
      [
        "Ġdisorder",
        -9.73392868561545
      ],
      [
        "Ġsort",
        -9.73393554383604
      ],
      [
        "take",
        -9.73399605005214
      ],
      [
        "Ġfine",
        -9.73634841023994
      ],
      [
        "Ġleg",
        -9.736705611394823
      ],
      [
        "Ġconstruction",
        -9.736995886250716
      ],
      [
        "Ġphase",
        -9.737205844632342
      ],
      [
        "Ġplatform",
        -9.737249720862303
      ],
      [
        "Ġwatch",
        -9.738155940659446
      ],
      [
        "ĠL",
        -9.739959948435406
      ],
      [
        "ĠWater",
        -9.741451031682525
      ],
      [
        "Ġbird",
        -9.743525853016934
      ],
      [
        "Ġreducing",
        -9.74615313451579
      ],
      [
        "Ġrecommend",
        -9.746288195821515
      ],
      [
        "Ġfile",
        -9.746795668661925
      ],
      [
        "games",
        -9.748716745420037
      ],
      [
        "fficiency",
        -9.749642674182756
      ],
      [
        "Ġapplied",
        -9.750572753813884
      ],
      [
        "Ġmolecules",
        -9.751444926084677
      ],
      [
        "away",
        -9.751567818494202
      ],
      [
        "Ġcycle",
        -9.751687229715566
      ],
      [
        "land",
        -9.75190252126212
      ],
      [
        "Ġdiscovered",
        -9.75252610071459
      ],
      [
        "Ġpractices",
        -9.753433922268766
      ],
      [
        "Ġmessage",
        -9.753602944722942
      ],
      [
        "Ġcloth",
        -9.754462741246773
      ],
      [
        "Ġpowerful",
        -9.756104745960736
      ],
      [
        "Ġcapacity",
        -9.75626114648173
      ],
      [
        "Ġmeaning",
        -9.756534865077686
      ],
      [
        "Ġcutting",
        -9.756653462516612
      ],
      [
        "ĠO",
        -9.756815054824386
      ],
      [
        "Ġstick",
        -9.759101203842668
      ],
      [
        "Ġmap",
        -9.760313094293757
      ],
      [
        "Ġensur",
        -9.760389585789422
      ],
      [
        "Ġrapid",
        -9.76055947568211
      ],
      [
        "do",
        -9.760750403747
      ],
      [
        "Ġelectronic",
        -9.761292778396388
      ],
      [
        "Ġhands",
        -9.761492110030405
      ],
      [
        "ĠGod",
        -9.762613310902877
      ],
      [
        "Ġbag",
        -9.763694121435975
      ],
      [
        "Ġresistance",
        -9.765319496787605
      ],
      [
        "Ġgives",
        -9.766590740844984
      ],
      [
        "Here",
        -9.766642921168248
      ],
      [
        "took",
        -9.767391567786984
      ],
      [
        "Ġwait",
        -9.768572042122946
      ],
      [
        "Ġthird",
        -9.7703571606768
      ],
      [
        "Ġscale",
        -9.770705419648529
      ],
      [
        "Ġcommercial",
        -9.771547419888217
      ],
      [
        "Ġvoltage",
        -9.771806022525931
      ],
      [
        "Ġanyone",
        -9.772411443555054
      ],
      [
        "Ġwrite",
        -9.77260132478677
      ],
      [
        "Ġaction",
        -9.777506356528402
      ],
      [
        "Ġpound",
        -9.777665768225289
      ],
      [
        "Ġevolution",
        -9.77854354764262
      ],
      [
        "Ġattempt",
        -9.779831460341873
      ],
      [
        "Ġsmooth",
        -9.77998013388038
      ],
      [
        "Ġsetting",
        -9.780433209122917
      ],
      [
        "ĠK",
        -9.780797169052216
      ],
      [
        "Ġdail",
        -9.781648177860292
      ],
      [
        "Ġbrown",
        -9.783257050614814
      ],
      [
        "Ġmusic",
        -9.786432070083896
      ],
      [
        "there",
        -9.786673773387346
      ],
      [
        "After",
        -9.786715869076223
      ],
      [
        "Ġroad",
        -9.78807700246211
      ],
      [
        "Ġco",
        -9.78907437576258
      ],
      [
        "Ġtherefore",
        -9.79039489866562
      ],
      [
        "Ġvolume",
        -9.790684409938482
      ],
      [
        "Ġtrack",
        -9.792630951927196
      ],
      [
        "Ġscreen",
        -9.79269016797284
      ],
      [
        "Ġelement",
        -9.793193701279073
      ],
      [
        "ĠWho",
        -9.79535831545276
      ],
      [
        "Ġexcellent",
        -9.79713377749004
      ],
      [
        "while",
        -9.797368323471249
      ],
      [
        "Ġwild",
        -9.7975794877246
      ],
      [
        "Ġsolid",
        -9.798767346110656
      ],
      [
        "ĠNot",
        -9.799515574980973
      ],
      [
        ".S",
        -9.80012476913222
      ],
      [
        "Ġfrequency",
        -9.800201275111476
      ],
      [
        "ĠAdditional",
        -9.801063651338024
      ],
      [
        "**",
        -9.803373469313248
      ],
      [
        "Ġpicture",
        -9.804307986942254
      ],
      [
        "ecause",
        -9.804616463294757
      ],
      [
        "Ġbond",
        -9.80555684815339
      ],
      [
        "Ġconcentration",
        -9.806331428901007
      ],
      [
        "Therefore",
        -9.806577340924491
      ],
      [
        "Ġjoint",
        -9.806805976811468
      ],
      [
        "end",
        -9.80849406844404
      ],
      [
        "Ġstates",
        -9.80860407957456
      ],
      [
        "Ġw",
        -9.8092724949913
      ],
      [
        "change",
        -9.813933997478063
      ],
      [
        "Ġball",
        -9.81631628175392
      ],
      [
        "Ġbasi",
        -9.816448016667769
      ],
      [
        "Ġrecognize",
        -9.81735926094276
      ],
      [
        "Ġlack",
        -9.817676888578184
      ],
      [
        "Ġm",
        -9.818171301491065
      ],
      [
        "Ġdriver",
        -9.81853845879432
      ],
      [
        "Ġtheor",
        -9.82018818634793
      ],
      [
        "Ġjourney",
        -9.820394580964392
      ],
      [
        "Ġsquare",
        -9.821537912194838
      ],
      [
        "Another",
        -9.821854327443932
      ],
      [
        "Ġyellow",
        -9.821983446609476
      ],
      [
        "Ġboard",
        -9.821990221170852
      ],
      [
        "ice",
        -9.822588116745871
      ],
      [
        "Ġedge",
        -9.82425898303331
      ],
      [
        "ĠEach",
        -9.82431756631872
      ],
      [
        "wide",
        -9.82501216218347
      ],
      [
        "Ġeconomic",
        -9.825486834723485
      ],
      [
        "Ġexpensive",
        -9.827431332571908
      ],
      [
        "Ġpump",
        -9.827434361264498
      ],
      [
        "Ġhot",
        -9.827833263500697
      ],
      [
        "Ġcontext",
        -9.828097888649303
      ],
      [
        "Ġforward",
        -9.829437406035064
      ],
      [
        "Ġcollection",
        -9.830821703140549
      ],
      [
        "Ġsevere",
        -9.831314499238577
      ],
      [
        "Ġalgorithm",
        -9.833777049149363
      ],
      [
        "Ġfemale",
        -9.835065577663926
      ],
      [
        "ĠIndia",
        -9.83620910321369
      ],
      [
        "bility",
        -9.83715740000344
      ],
      [
        "around",
        -9.837825472987522
      ],
      [
        "Ġvision",
        -9.83965091008754
      ],
      [
        "Ġheight",
        -9.840352699643734
      ],
      [
        "Ġcats",
        -9.84126223922891
      ],
      [
        "Your",
        -9.841598633054904
      ],
      [
        "Ġsoon",
        -9.841642691371302
      ],
      [
        "Ġreported",
        -9.843397862971246
      ],
      [
        "ring",
        -9.845381380126558
      ],
      [
        "Ġtasks",
        -9.845392215773046
      ],
      [
        "Ġadjust",
        -9.84687251185056
      ],
      [
        "Ġphotograph",
        -9.847085860488349
      ],
      [
        "Ġlaw",
        -9.84728765350006
      ],
      [
        "Ġmental",
        -9.84780574583117
      ],
      [
        "Ġbeyond",
        -9.84808011750982
      ],
      [
        "Ġexperiment",
        -9.848133967536906
      ],
      [
        "ĠAre",
        -9.848177715040356
      ],
      [
        "On",
        -9.84926862509445
      ],
      [
        "ĠOur",
        -9.849707327080374
      ],
      [
        "ĠOnc",
        -9.850237536987796
      ],
      [
        "many",
        -9.851199383092544
      ],
      [
        "Ġplease",
        -9.852780935350554
      ],
      [
        "Ġidentifie",
        -9.85317608121985
      ],
      [
        "Ġshift",
        -9.853580055563135
      ],
      [
        "Ġtexture",
        -9.855274030167768
      ],
      [
        "Ġhuge",
        -9.856262596050264
      ],
      [
        "Ġmouth",
        -9.856452148670478
      ],
      [
        "Ġfat",
        -9.85818336288207
      ],
      [
        "Ġpurchase",
        -9.858277757376072
      ],
      [
        "ĠNOT",
        -9.859366083841934
      ],
      [
        "Ġdecade",
        -9.85938234700378
      ],
      [
        "Ġstructures",
        -9.860334508524565
      ],
      [
        "Ġenzyme",
        -9.86166746573155
      ],
      [
        "Ġflavor",
        -9.861669214744346
      ],
      [
        "Ġnutrients",
        -9.862112465447858
      ],
      [
        "Ġmeasurement",
        -9.862786046837323
      ],
      [
        "Ġglass",
        -9.863452386590833
      ],
      [
        "Ġtransition",
        -9.863516138580778
      ],
      [
        "Ġrules",
        -9.864052702325315
      ],
      [
        "Ġappearance",
        -9.864313874694572
      ],
      [
        "Ġfiber",
        -9.865384837831265
      ],
      [
        "Ġplayers",
        -9.86810547998466
      ],
      [
        "ĠAlso",
        -9.870639384194549
      ],
      [
        "Ġphoto",
        -9.87135359844462
      ],
      [
        "Ġpull",
        -9.871383305333593
      ],
      [
        "Ġdriving",
        -9.87189960519122
      ],
      [
        "Ġprocessing",
        -9.872017087137069
      ],
      [
        "ĠState",
        -9.8720659195567
      ],
      [
        "Ġrich",
        -9.872174461478778
      ],
      [
        "Ġhost",
        -9.87330749729366
      ],
      [
        "Ġgiving",
        -9.87345674008549
      ],
      [
        "Ġdetails",
        -9.873731288345066
      ],
      [
        "Ġmedium",
        -9.87375336905005
      ],
      [
        "comfortable",
        -9.875519671338187
      ],
      [
        "Ġartist",
        -9.881085587240644
      ],
      [
        "Ġclick",
        -9.8814219856586
      ],
      [
        "Ġwhe",
        -9.8814831697151
      ],
      [
        "Ġaffected",
        -9.881596928047754
      ],
      [
        "uring",
        -9.882388402397249
      ],
      [
        "ĠAfrica",
        -9.882768707174256
      ],
      [
        "Ġexposure",
        -9.883044518978714
      ],
      [
        "ĠBlack",
        -9.883915508725517
      ],
      [
        "coming",
        -9.883956158850602
      ],
      [
        "Ġmulti",
        -9.8844939692635
      ],
      [
        "Ġexpected",
        -9.884567910268355
      ],
      [
        "Ġreview",
        -9.885058804490429
      ],
      [
        "ĠAir",
        -9.885228684726975
      ],
      [
        "Ġrecipe",
        -9.885239030279768
      ],
      [
        "Ġframe",
        -9.886032971424807
      ],
      [
        "Ġpractical",
        -9.886571379617088
      ],
      [
        "Ġdistribution",
        -9.887348464158158
      ],
      [
        "Ġtesting",
        -9.887681045330933
      ],
      [
        "Ġvital",
        -9.887764984605507
      ],
      [
        "Ġvariation",
        -9.887778060155956
      ],
      [
        "Ġpresence",
        -9.888664669954228
      ],
      [
        "let",
        -9.889598525845628
      ],
      [
        "Ġfoot",
        -9.890487177768438
      ],
      [
        "ĠEnglish",
        -9.890595946608478
      ],
      [
        "Most",
        -9.891307733474374
      ],
      [
        "Ġweb",
        -9.891503288310265
      ],
      [
        "Our",
        -9.891851386487572
      ],
      [
        "Ġbackground",
        -9.892688247467593
      ],
      [
        "Ġsequence",
        -9.894529357356436
      ],
      [
        "Ġrare",
        -9.89457434992869
      ],
      [
        "Ġlesson",
        -9.894613881919092
      ],
      [
        "No",
        -9.894632462409092
      ],
      [
        "orage",
        -9.895033302368644
      ],
      [
        "Ġfossil",
        -9.895453504824289
      ],
      [
        "Ġsociety",
        -9.89898309438406
      ],
      [
        "Ġmiddle",
        -9.899236320702524
      ],
      [
        "Ġdoor",
        -9.899608647864245
      ],
      [
        "Ġchallenge",
        -9.899878335361231
      ],
      [
        "Ġconsistent",
        -9.90055347668882
      ],
      [
        "name",
        -9.90056975309215
      ],
      [
        "Ġrule",
        -9.90107212929411
      ],
      [
        "body",
        -9.901135221042068
      ],
      [
        "am",
        -9.90144771063866
      ],
      [
        "Ġstand",
        -9.90170862081318
      ],
      [
        "Ġaccurate",
        -9.902103794623148
      ],
      [
        "Ġinsight",
        -9.90328373135856
      ],
      [
        "Ġsample",
        -9.903654573677075
      ],
      [
        "Ġspeaker",
        -9.903736172559553
      ],
      [
        "Many",
        -9.90419138413356
      ],
      [
        "Ġtherap",
        -9.90738732809656
      ],
      [
        "Ġlandscape",
        -9.90813955849003
      ],
      [
        "Ġteachers",
        -9.908170125999186
      ],
      [
        "Ġpick",
        -9.91097221894598
      ],
      [
        "Ġecosystem",
        -9.911184570239698
      ],
      [
        "Ġfaste",
        -9.911375013513506
      ],
      [
        "Ġma",
        -9.911807307900483
      ],
      [
        "Ġteaching",
        -9.912155432030389
      ],
      [
        "Ġcolour",
        -9.913573635395108
      ],
      [
        "called",
        -9.91362421994602
      ],
      [
        "Ġtransport",
        -9.915097258406917
      ],
      [
        "Ġapproximate",
        -9.915724355834218
      ],
      [
        "Ġart",
        -9.916228193164534
      ],
      [
        "Ġrobot",
        -9.917273575907425
      ],
      [
        "electricity",
        -9.917751187789651
      ],
      [
        "ive",
        -9.9185911669963
      ],
      [
        "Ġworth",
        -9.918894353542656
      ],
      [
        "ĠEuropean",
        -9.919145117579024
      ],
      [
        "Ġversion",
        -9.919969754450728
      ],
      [
        "Ġremains",
        -9.920165247526551
      ],
      [
        "Ġfavorite",
        -9.92173470270072
      ],
      [
        "Ġfabric",
        -9.92207260613025
      ],
      [
        "Ġenter",
        -9.922610586135468
      ],
      [
        "ĠEurope",
        -9.925314474729143
      ],
      [
        "Ġbirth",
        -9.925698987888248
      ],
      [
        "Ġrock",
        -9.926227762805803
      ],
      [
        "ĠCalifornia",
        -9.926547753074264
      ],
      [
        "Ġact",
        -9.928037368035346
      ],
      [
        "takes",
        -9.928401427873414
      ],
      [
        "system",
        -9.929025036567433
      ],
      [
        "ember",
        -9.929113167916402
      ],
      [
        "Ġconsumption",
        -9.930289060398389
      ],
      [
        "interested",
        -9.930634105616946
      ],
      [
        "Ġfashion",
        -9.931395134951584
      ],
      [
        "Ġtechnologies",
        -9.93195126331164
      ],
      [
        "Ġbeginning",
        -9.932029060871622
      ],
      [
        "All",
        -9.93331737024895
      ],
      [
        "Ġpath",
        -9.933371364502122
      ],
      [
        "Ġconsume",
        -9.933647855638718
      ],
      [
        "||",
        -9.933783021067242
      ],
      [
        "Ġmale",
        -9.934596815995883
      ],
      [
        "Ġuses",
        -9.934976194114736
      ],
      [
        "Ġinstructions",
        -9.936022967834187
      ],
      [
        "Ġblog",
        -9.936621558500786
      ],
      [
        "Ġsaw",
        -9.937552762677434
      ],
      [
        "led",
        -9.937907688300292
      ],
      [
        "no",
        -9.938051221434725
      ],
      [
        "tion",
        -9.938161298037349
      ],
      [
        "Ġclaim",
        -9.938177006165116
      ],
      [
        "Ġsurrounding",
        -9.938569469651238
      ],
      [
        "Ġfamilie",
        -9.93995614562787
      ],
      [
        "Ġaspects",
        -9.940583786919609
      ],
      [
        "Ġfunctions",
        -9.941034075986725
      ],
      [
        "Ġobserved",
        -9.941774166734632
      ],
      [
        "Ġaccept",
        -9.942140374125188
      ],
      [
        "Ġbatteries",
        -9.942203774102964
      ],
      [
        "Ġlate",
        -9.942773327458896
      ],
      [
        "maybe",
        -9.943340831227175
      ],
      [
        "Ġdiabetes",
        -9.944093398670272
      ],
      [
        "Ġload",
        -9.944875942669348
      ],
      [
        "ĠSystem",
        -9.944883236676285
      ],
      [
        "lways",
        -9.945027729519868
      ],
      [
        "Ġchannel",
        -9.946775730396002
      ],
      [
        "Ġdemonstrate",
        -9.947328649859491
      ],
      [
        "Ġexpand",
        -9.948243106831118
      ],
      [
        "board",
        -9.95020385858625
      ],
      [
        "ĠService",
        -9.951291407394685
      ],
      [
        "Ġstrategi",
        -9.951743999221396
      ],
      [
        "ĠW",
        -9.952790866286218
      ],
      [
        "Ġdivers",
        -9.953207812584026
      ],
      [
        "know",
        -9.953495670472368
      ],
      [
        "defined",
        -9.953758467850816
      ],
      [
        "aught",
        -9.953795094747484
      ],
      [
        "ĠJapan",
        -9.95397410355188
      ],
      [
        "Ġpainting",
        -9.95441344220345
      ],
      [
        "Ġwonder",
        -9.954956133129093
      ],
      [
        "Ġsites",
        -9.955160840562186
      ],
      [
        "Ġprint",
        -9.955257432722556
      ],
      [
        "ĠX",
        -9.956279689016744
      ],
      [
        "Ġfight",
        -9.9566825262419
      ],
      [
        "Ġcapture",
        -9.957933048583747
      ],
      [
        "ĠMake",
        -9.95907696360839
      ],
      [
        "Ġoperate",
        -9.95963328997547
      ],
      [
        "Ġvary",
        -9.960058295812226
      ],
      [
        "Ġdepth",
        -9.960263690738024
      ],
      [
        "allowed",
        -9.960700216028428
      ],
      [
        "Ġdetail",
        -9.961624871743547
      ],
      [
        "Ġconservation",
        -9.96241922048195
      ],
      [
        "ĠLet",
        -9.962443127647186
      ],
      [
        "Ġdiamond",
        -9.962809315581026
      ],
      [
        "Yes",
        -9.96326434148044
      ],
      [
        "through",
        -9.963570829985432
      ],
      [
        "Ġpotato",
        -9.963915337103913
      ],
      [
        "Ġquant",
        -9.964061128743488
      ],
      [
        "Ġparticles",
        -9.964430216296844
      ],
      [
        "Ġdocument",
        -9.966228393877444
      ],
      [
        "Ġlargest",
        -9.967128741383393
      ],
      [
        "Ġclient",
        -9.968121909930549
      ],
      [
        "Ġdouble",
        -9.968484491691587
      ],
      [
        "Ġcreative",
        -9.968567312552208
      ],
      [
        "<",
        -9.969118318100746
      ],
      [
        "Ġtrigger",
        -9.969899272150125
      ],
      [
        "-like",
        -9.970480105393047
      ],
      [
        "Ġutilize",
        -9.971250444141145
      ],
      [
        "Ġmotion",
        -9.972347549403624
      ],
      [
        "Ġstaff",
        -9.973018871570686
      ],
      [
        "...Ċ",
        -9.976031602213318
      ],
      [
        "ĠV",
        -9.97625480225639
      ],
      [
        "Ġtransfer",
        -9.97630493901205
      ],
      [
        "Ġconnected",
        -9.976468474936247
      ],
      [
        "Ġstuff",
        -9.976632210206263
      ],
      [
        "Ġfloor",
        -9.979189568428469
      ],
      [
        "Ġfinancial",
        -9.97934508499047
      ],
      [
        "Ġpark",
        -9.979687713701043
      ],
      [
        "ers",
        -9.9798172372246
      ],
      [
        "Ġwa",
        -9.980009871638
      ],
      [
        "Ġadapt",
        -9.98088025814132
      ],
      [
        "Ġdrug",
        -9.980949692662753
      ],
      [
        "ĠGerman",
        -9.981165584339667
      ],
      [
        "Ġreference",
        -9.98137878407504
      ],
      [
        "Ġoffering",
        -9.98141815425187
      ],
      [
        "Ġre",
        -9.9828944810887
      ],
      [
        "Ġage",
        -9.983087061465898
      ],
      [
        "current",
        -9.98510692120784
      ],
      [
        "Ġextend",
        -9.985127170863912
      ],
      [
        "Ġwire",
        -9.986282179840831
      ],
      [
        "talking",
        -9.98653503507584
      ],
      [
        "still",
        -9.986725317862476
      ],
      [
        "Ġexpect",
        -9.986954416992187
      ],
      [
        "Ġcity",
        -9.987285153157584
      ],
      [
        "Ġnative",
        -9.987443330690304
      ],
      [
        "Ġpipe",
        -9.98795796171424
      ],
      [
        "Ġaircraft",
        -9.988472747912668
      ],
      [
        "ĠMay",
        -9.990981890038524
      ],
      [
        "Ġimmune",
        -9.991376992580127
      ],
      [
        "Ġsurvive",
        -9.993411659031093
      ],
      [
        "Ġgrain",
        -9.99494279084875
      ],
      [
        "Ġletter",
        -9.99498104472344
      ],
      [
        "Ġcontrast",
        -9.995235037478256
      ],
      [
        "Ġthreat",
        -9.995533509708332
      ],
      [
        "Ġhappy",
        -9.996120972745311
      ],
      [
        "Ġcomfort",
        -9.998314477589698
      ],
      [
        "Ġprogress",
        -9.998373429521674
      ],
      [
        "Ġhundred",
        -9.99840581850128
      ],
      [
        "ĠUK",
        -9.998533609810114
      ],
      [
        "ecurity",
        -9.998776278741682
      ],
      [
        "Ġindicator",
        -9.99912825074698
      ],
      [
        "Ġmiles",
        -10.000985846019514
      ],
      [
        "wanted",
        -10.001367511331534
      ],
      [
        "Ġexpose",
        -10.001421627695263
      ],
      [
        "Ġgeneration",
        -10.001656049143296
      ],
      [
        "Ġmatch",
        -10.002056173816822
      ],
      [
        "Ġmotor",
        -10.00277754393423
      ],
      [
        "Ġatmosphere",
        -10.003319477416166
      ],
      [
        "Ġstraight",
        -10.003927264424506
      ],
      [
        "Ġinternal",
        -10.00534064364977
      ],
      [
        "thing",
        -10.00587085271631
      ],
      [
        "en",
        -10.006002205665652
      ],
      [
        "Ġnational",
        -10.00613194321749
      ],
      [
        "Ġangle",
        -10.006150264790294
      ],
      [
        "ĠAlthough",
        -10.006404878480826
      ],
      [
        "Ġdrawing",
        -10.00735388284751
      ],
      [
        "First",
        -10.009262412400194
      ],
      [
        "Ġroutine",
        -10.009318834076
      ],
      [
        "ĠOr",
        -10.009988154846244
      ],
      [
        "Ġwent",
        -10.010373035943942
      ],
      [
        "field",
        -10.01175387287658
      ],
      [
        "Ġready",
        -10.013594400727584
      ],
      [
        "Ġc",
        -10.01418589029506
      ],
      [
        "article",
        -10.015045606529863
      ],
      [
        "Ġengage",
        -10.015210469983442
      ],
      [
        "Ġhelping",
        -10.01522502147152
      ],
      [
        "Ġstock",
        -10.015988943336891
      ],
      [
        "Ġseed",
        -10.016088509699347
      ],
      [
        "Ġbega",
        -10.016484667733682
      ],
      [
        "Ġvaluable",
        -10.017907419976192
      ],
      [
        "ne",
        -10.018070096220178
      ],
      [
        "Ġwidely",
        -10.018866328201645
      ],
      [
        "eat",
        -10.021322767172531
      ],
      [
        "Ġbutton",
        -10.021451117947777
      ],
      [
        "Ġoffice",
        -10.02205565749103
      ],
      [
        "Ġchicken",
        -10.023012478491648
      ],
      [
        "Ġcapabilit",
        -10.023241825822147
      ],
      [
        "Ġrandom",
        -10.024001395369796
      ],
      [
        "Ġfilm",
        -10.02469795004713
      ],
      [
        "Ġcommand",
        -10.025038402544322
      ],
      [
        "Ġminimum",
        -10.025526124965076
      ],
      [
        "reality",
        -10.02622080702358
      ],
      [
        "Ġroots",
        -10.02654896036743
      ],
      [
        "Ġint",
        -10.026988071307922
      ],
      [
        "Ġagree",
        -10.02739010617775
      ],
      [
        "Ġbodie",
        -10.027485529519613
      ],
      [
        "Ġresource",
        -10.029034989933583
      ],
      [
        "try",
        -10.029454290228456
      ],
      [
        "ĠâĢĶ",
        -10.029555818318524
      ],
      [
        "size",
        -10.031059277916851
      ],
      [
        "Ġcentral",
        -10.031157083601585
      ],
      [
        "ĠEven",
        -10.031317100589714
      ],
      [
        "ĠYork",
        -10.031478394321612
      ],
      [
        "Ġpush",
        -10.032802158538532
      ],
      [
        "form",
        -10.032944247402028
      ],
      [
        "ĠWhy",
        -10.03318544118438
      ],
      [
        "Ġtiny",
        -10.03458537544675
      ],
      [
        "Ġmorning",
        -10.036023284042432
      ],
      [
        "Ġvia",
        -10.036181046923245
      ],
      [
        "According",
        -10.03807226838128
      ],
      [
        "training",
        -10.039218413398125
      ],
      [
        "Ġcomment",
        -10.03940886417509
      ],
      [
        "Ġinjur",
        -10.040262557565
      ],
      [
        "Ġimplement",
        -10.041459201935025
      ],
      [
        "Ġdi",
        -10.041810626074538
      ],
      [
        "Ġconclusion",
        -10.042459269930092
      ],
      [
        "Ġprefer",
        -10.042625005979048
      ],
      [
        "Ġiron",
        -10.043664258272887
      ],
      [
        "ility",
        -10.04373105927266
      ],
      [
        "Ġindoor",
        -10.043743532545122
      ],
      [
        "ĠAt",
        -10.043909730380843
      ],
      [
        "Ġpreference",
        -10.043980385157802
      ],
      [
        "Ġsecure",
        -10.044572469078254
      ],
      [
        "Ġlighting",
        -10.044682280243148
      ],
      [
        "ĠPark",
        -10.044765326938837
      ],
      [
        "Ġthus",
        -10.045803268794876
      ],
      [
        "From",
        -10.045916353753674
      ],
      [
        "Ġgrade",
        -10.046012854509794
      ],
      [
        "Ġtable",
        -10.046168139352751
      ],
      [
        "Ġflat",
        -10.046323656452358
      ],
      [
        "numerous",
        -10.047523664998629
      ],
      [
        "Ġbooks",
        -10.048006196450952
      ],
      [
        "Ġlooks",
        -10.04837714213892
      ],
      [
        "ĠHigh",
        -10.048822528873576
      ],
      [
        "Ġactual",
        -10.048994996922064
      ],
      [
        "Use",
        -10.04990713655769
      ],
      [
        "Although",
        -10.051134585473694
      ],
      [
        "Ġsteam",
        -10.051758403943436
      ],
      [
        "Ġeventual",
        -10.052330508000168
      ],
      [
        "Ġdate",
        -10.052516889554514
      ],
      [
        "Ġsuggests",
        -10.052851493593408
      ],
      [
        "/or",
        -10.053188023406165
      ],
      [
        "ĠMarch",
        -10.053280648461964
      ],
      [
        "Ġnote",
        -10.053793893372424
      ],
      [
        "ĠDepartment",
        -10.054869184463112
      ],
      [
        "Ġvirtual",
        -10.055252731219326
      ],
      [
        "Ġrate",
        -10.05589632911839
      ],
      [
        "working",
        -10.05609885148364
      ],
      [
        "Ġfriend",
        -10.056178113672429
      ],
      [
        "Ġsub",
        -10.056312780654157
      ],
      [
        "Ġinternational",
        -10.057026996670311
      ],
      [
        "Ġjournal",
        -10.057819702493775
      ],
      [
        "Ġcross",
        -10.058683616696554
      ],
      [
        "ĠJust",
        -10.058844226629407
      ],
      [
        "Ġfundamental",
        -10.05884789964032
      ],
      [
        "Ġegg",
        -10.059932209740415
      ],
      [
        "new",
        -10.06081296771872
      ],
      [
        "Ġgoals",
        -10.060821464722824
      ],
      [
        "long",
        -10.062118023314218
      ],
      [
        "Ġschedule",
        -10.062664418497208
      ],
      [
        "Ġregulation",
        -10.063759596078343
      ],
      [
        "ĠIs",
        -10.06413476897469
      ],
      [
        "Ġfeeding",
        -10.06461424341955
      ],
      [
        "ĠOther",
        -10.06495327784372
      ],
      [
        "based",
        -10.065080600361297
      ],
      [
        "men",
        -10.06667650395346
      ],
      [
        "ĠNow",
        -10.067630721415192
      ],
      [
        "ĠOver",
        -10.067822072025134
      ],
      [
        "Ġadvice",
        -10.0680789058626
      ],
      [
        "Ġmother",
        -10.068638931578707
      ],
      [
        "]ĊĊ",
        -10.068811444090557
      ],
      [
        "Ġsweet",
        -10.069093471462311
      ],
      [
        "Ġstrateg",
        -10.069158833593535
      ],
      [
        "Do",
        -10.069515812768064
      ],
      [
        "Ġtha",
        -10.06988128187166
      ],
      [
        "ce",
        -10.072730493111802
      ],
      [
        "Ġinteract",
        -10.073496228265851
      ],
      [
        "Ġaudio",
        -10.073530187470402
      ],
      [
        "Ġwildlife",
        -10.073581806696051
      ],
      [
        "More",
        -10.073938724623623
      ],
      [
        "Ġclasses",
        -10.074306550846474
      ],
      [
        "Ġwar",
        -10.074377699544726
      ],
      [
        "Ġse",
        -10.074514306325984
      ],
      [
        "Ġsounds",
        -10.075087940427377
      ],
      [
        "Ġreliabl",
        -10.075425339877786
      ],
      [
        "example",
        -10.0760708839234
      ],
      [
        "Onc",
        -10.07616245535115
      ],
      [
        "ĠPlant",
        -10.076815533331608
      ],
      [
        "position",
        -10.079753926606475
      ],
      [
        "Ġsustain",
        -10.079797149663255
      ],
      [
        "Ġmedicine",
        -10.079851429156772
      ],
      [
        "ĠChina",
        -10.080041318315214
      ],
      [
        "range",
        -10.08016112045422
      ],
      [
        "Ġmanufacturing",
        -10.080829815856475
      ],
      [
        "Ġfarmers",
        -10.080838465066794
      ],
      [
        "Ġerror",
        -10.0810937363892
      ],
      [
        "Ġbright",
        -10.081578387056783
      ],
      [
        "Ġfarm",
        -10.08158524375429
      ],
      [
        "Ġradio",
        -10.081857781994255
      ],
      [
        "Ġgrown",
        -10.0826327045629
      ],
      [
        "part",
        -10.082922411639792
      ],
      [
        "standing",
        -10.083067757101482
      ],
      [
        "Ġmember",
        -10.08324064149313
      ],
      [
        "Ġestablish",
        -10.08517883120102
      ],
      [
        "Ġsupplement",
        -10.085580330842957
      ],
      [
        "point",
        -10.086553389047411
      ],
      [
        "Ġbillion",
        -10.088100706565625
      ],
      [
        "Ġdensit",
        -10.088851542299745
      ],
      [
        "Ġhighest",
        -10.088974397421923
      ],
      [
        "Ġevolve",
        -10.089077689492548
      ],
      [
        "Ġexpression",
        -10.089093016837351
      ],
      [
        "Ġkitchen",
        -10.089720655973167
      ],
      [
        "Ġwrit",
        -10.089746763226252
      ],
      [
        "Ġdrop",
        -10.090191315398336
      ],
      [
        "Ġtube",
        -10.090386913092209
      ],
      [
        "llowing",
        -10.091211752856664
      ],
      [
        "Ġbone",
        -10.091310041095523
      ],
      [
        "Ġinternet",
        -10.092575628074396
      ],
      [
        "Ġmanual",
        -10.092701544079366
      ],
      [
        "Ġrespect",
        -10.0930212776066
      ],
      [
        "keep",
        -10.093336512514572
      ],
      [
        "Ġmagnetic",
        -10.093501384827835
      ],
      [
        "Ġyet",
        -10.093650085019776
      ],
      [
        "Ġaware",
        -10.093774253551397
      ],
      [
        "Ġfit",
        -10.09422496955939
      ],
      [
        "Ġsamples",
        -10.094524842667862
      ],
      [
        "Ġdangerous",
        -10.095230022927636
      ],
      [
        "Ġlisten",
        -10.095257533791028
      ],
      [
        "Ġrealize",
        -10.09570255965532
      ],
      [
        "Ġalone",
        -10.096145588997068
      ],
      [
        "Ġ&",
        -10.096249728509337
      ],
      [
        "Ġteacher",
        -10.098490670610932
      ],
      [
        "number",
        -10.09885228864582
      ],
      [
        "ization",
        -10.100353517618352
      ],
      [
        "ĠWar",
        -10.100403622862656
      ],
      [
        "Ġclassroom",
        -10.100927661084167
      ],
      [
        "Ġmixture",
        -10.101258149875708
      ],
      [
        "Ġprimaril",
        -10.101474216441355
      ],
      [
        "ĠAfrican",
        -10.101761982148858
      ],
      [
        "Ġdiscussion",
        -10.10221569986528
      ],
      [
        "Ġtoward",
        -10.102451206817047
      ],
      [
        "ĠFirst",
        -10.102918977342648
      ],
      [
        "Ġparticipant",
        -10.103161263139771
      ],
      [
        "Ġflower",
        -10.104476818672245
      ],
      [
        "Ġexperiences",
        -10.106035348362072
      ],
      [
        "Ġbeaut",
        -10.10612847455688
      ],
      [
        "October",
        -10.106150544055993
      ],
      [
        "Ġfollowed",
        -10.106479883386848
      ],
      [
        "Ġlab",
        -10.107439787824651
      ],
      [
        "Ġmarine",
        -10.10836044045281
      ],
      [
        "Ġsaying",
        -10.1089536581128
      ],
      [
        "Ġpair",
        -10.109188287956124
      ],
      [
        "Ġchain",
        -10.109295587339226
      ],
      [
        "Ġphysic",
        -10.10965534564327
      ],
      [
        "Ġgenes",
        -10.110920948965784
      ],
      [
        "Ġpilot",
        -10.112020274379644
      ],
      [
        "Ġsports",
        -10.112987247272256
      ],
      [
        "Ġstatement",
        -10.113046475186376
      ],
      [
        "Ġtypical",
        -10.113769619977376
      ],
      [
        "Ġcalorie",
        -10.114558566412686
      ],
      [
        "Ġmid",
        -10.114573730322869
      ],
      [
        "Ġwindow",
        -10.115007427644397
      ],
      [
        "Ġtrade",
        -10.115080189017288
      ],
      [
        "oil",
        -10.115480426979364
      ],
      [
        "Ġowners",
        -10.11548290862532
      ],
      [
        "Ġonto",
        -10.11614142154188
      ],
      [
        "><",
        -10.116190917785495
      ],
      [
        "type",
        -10.116227903957576
      ],
      [
        "Ġshoes",
        -10.116585306284213
      ],
      [
        "Ġprivate",
        -10.116850387532834
      ],
      [
        "Ġcheese",
        -10.117750076351784
      ],
      [
        "Ġcomprehensive",
        -10.117941814180238
      ],
      [
        "Ġpowder",
        -10.118482702410937
      ],
      [
        "Ġsession",
        -10.119574931261676
      ],
      [
        "Ġcovered",
        -10.119945769430746
      ],
      [
        "Ġkeeping",
        -10.120989025790282
      ],
      [
        "Ġbrake",
        -10.12288896456574
      ],
      [
        "my",
        -10.1230578152693
      ],
      [
        "Ġcalculate",
        -10.12340941530208
      ],
      [
        "Ġsymbol",
        -10.123671815757708
      ],
      [
        "lost",
        -10.123698768596126
      ],
      [
        "Ġchemicals",
        -10.124205877455651
      ],
      [
        "Ġcable",
        -10.12457446774602
      ],
      [
        "Ġcreation",
        -10.124748908433585
      ],
      [
        "Ġdynamic",
        -10.126004747456289
      ],
      [
        "Ġmeal",
        -10.126438927251709
      ],
      [
        "nce",
        -10.126524007530769
      ],
      [
        "Ġsettings",
        -10.127432251624242
      ],
      [
        "Ġsurger",
        -10.12799119033313
      ],
      [
        "Ġsteel",
        -10.128085356667352
      ],
      [
        "Ġlabel",
        -10.12843236073734
      ],
      [
        "Ġbear",
        -10.128640470138102
      ],
      [
        "Ġrise",
        -10.129325617829547
      ],
      [
        "Ġmeeting",
        -10.129534841295117
      ],
      [
        "Ġcore",
        -10.129746959502672
      ],
      [
        "Instead",
        -10.12994840731642
      ],
      [
        "Ġrice",
        -10.13006500116217
      ],
      [
        "room",
        -10.130903918325757
      ],
      [
        "Ġdiscover",
        -10.131259067093314
      ],
      [
        "king",
        -10.131340280864514
      ],
      [
        "Ġancient",
        -10.131390808862262
      ],
      [
        "ones",
        -10.131485389846423
      ],
      [
        "Ġthread",
        -10.132107485996642
      ],
      [
        "ĠDay",
        -10.133355480548015
      ],
      [
        "him",
        -10.133635293189569
      ],
      [
        "Ġrisks",
        -10.1340822084425
      ],
      [
        "holes",
        -10.134531373171525
      ],
      [
        "Ġalcohol",
        -10.135998521720088
      ],
      [
        "Ġdead",
        -10.13671729039594
      ],
      [
        "solution",
        -10.138242414242889
      ],
      [
        "Ġparameter",
        -10.138381990097685
      ],
      [
        "ĠSince",
        -10.139333550633308
      ],
      [
        "species",
        -10.139638482122384
      ],
      [
        "may",
        -10.139662915911416
      ],
      [
        "Ġemail",
        -10.139664472445244
      ],
      [
        "Ġdefinite",
        -10.140330576675789
      ],
      [
        "-free",
        -10.141306375724955
      ],
      [
        "Ġkill",
        -10.141526923345282
      ],
      [
        "Ġpixel",
        -10.141584324310012
      ],
      [
        "Ġwave",
        -10.14166372904851
      ],
      [
        "put",
        -10.145295532021304
      ],
      [
        "Ġbiological",
        -10.145518317975178
      ],
      [
        "Ġofficial",
        -10.146543353780777
      ],
      [
        "Ġcarefully",
        -10.147054059601247
      ],
      [
        "Ġchang",
        -10.147689807652718
      ],
      [
        "producing",
        -10.147781640433546
      ],
      [
        "Ġdust",
        -10.148891849104512
      ],
      [
        "Ġfailure",
        -10.14987644988527
      ],
      [
        "Ġboundar",
        -10.150075743232955
      ],
      [
        "Ġassist",
        -10.150193439100171
      ],
      [
        "Ġequation",
        -10.15042715501693
      ],
      [
        "Ġemotional",
        -10.150607347130968
      ],
      [
        "Ġmode",
        -10.150660238576489
      ],
      [
        "âĢ¦Ċ",
        -10.1507060074821
      ],
      [
        "Ġoptimal",
        -10.151322626493233
      ],
      [
        "Ġrequest",
        -10.1520838131553
      ],
      [
        "Ġgold",
        -10.15217860808024
      ],
      [
        "July",
        -10.152569260139812
      ],
      [
        "ĠUsing",
        -10.153615697468062
      ],
      [
        "Ġthousands",
        -10.154768905431249
      ],
      [
        "Ġcoffee",
        -10.15504054644498
      ],
      [
        "Ġstandards",
        -10.155338606904031
      ],
      [
        "Ġtransmission",
        -10.15538345603914
      ],
      [
        "Ġbike",
        -10.15552945946382
      ],
      [
        "Ġzero",
        -10.155737347746696
      ],
      [
        "ĠAccording",
        -10.1562639944588
      ],
      [
        "Ġtechnical",
        -10.15653128435656
      ],
      [
        "Ġextract",
        -10.156695094146713
      ],
      [
        "Ġinteraction",
        -10.157301310446709
      ],
      [
        "Ġsmell",
        -10.157316210051246
      ],
      [
        "Ġjoin",
        -10.158259941218342
      ],
      [
        "Ġprocedure",
        -10.158326858548694
      ],
      [
        "Ġfields",
        -10.158394427315002
      ],
      [
        "Ġhelpful",
        -10.160384208479384
      ],
      [
        "Are",
        -10.161101062105685
      ],
      [
        "Ġcoat",
        -10.161342640493851
      ],
      [
        "Ġultimate",
        -10.161440905226742
      ],
      [
        "Ġcollege",
        -10.16152113079989
      ],
      [
        "Ġcup",
        -10.162268350090477
      ],
      [
        "se",
        -10.162703744303077
      ],
      [
        "Ġfinish",
        -10.163509064078506
      ],
      [
        "Ġhabit",
        -10.164159691524729
      ],
      [
        "Ġearlier",
        -10.16424269608606
      ],
      [
        "Ġconvert",
        -10.16444279494951
      ],
      [
        "Ġperspective",
        -10.164642230659693
      ],
      [
        "Ġwaves",
        -10.16503293477722
      ],
      [
        "ĠGreat",
        -10.165051023229571
      ],
      [
        "Ġlegal",
        -10.165060757184424
      ],
      [
        "Ġorganisms",
        -10.165156794761913
      ],
      [
        "Ġcook",
        -10.165487545363938
      ],
      [
        "Ġpollution",
        -10.165642024973684
      ],
      [
        "Ġeducational",
        -10.16690968535167
      ],
      [
        "j",
        -10.166980686950057
      ],
      [
        "Ġplanting",
        -10.167835992847536
      ],
      [
        "Ġnews",
        -10.168014207886245
      ],
      [
        "Ġuniverse",
        -10.16802197849692
      ],
      [
        "Ġwheel",
        -10.168495474677735
      ],
      [
        "Ġplaying",
        -10.168665552268289
      ],
      [
        "Ġartificial",
        -10.16893762952711
      ],
      [
        "Ġcareer",
        -10.169051347552047
      ],
      [
        "Ġcoming",
        -10.16954931894093
      ],
      [
        "Let",
        -10.170485519434608
      ],
      [
        "ou",
        -10.170497938810357
      ],
      [
        "Ġobservation",
        -10.170625694915628
      ],
      [
        "Ġprecise",
        -10.17070189521878
      ],
      [
        "Ġprepare",
        -10.171295755425842
      ],
      [
        "Ġsurvey",
        -10.17140391267899
      ],
      [
        "Ġcard",
        -10.171885468600102
      ],
      [
        "Ġsunspot",
        -10.172526042625332
      ],
      [
        "Ġfoundation",
        -10.17363178468642
      ],
      [
        "held",
        -10.174358253170707
      ],
      [
        "Ġlaser",
        -10.174741994560438
      ],
      [
        "Ġeliminate",
        -10.176152798141334
      ],
      [
        "Ġwhose",
        -10.176267033994776
      ],
      [
        "Ġmen",
        -10.176297333116874
      ],
      [
        "ĠWhether",
        -10.1764900598778
      ],
      [
        "brough",
        -10.176511303875769
      ],
      [
        "Ġyield",
        -10.177674102768432
      ],
      [
        "Ġmechanical",
        -10.178271622340198
      ],
      [
        "Ġhighlight",
        -10.178414210236935
      ],
      [
        "Ġaspect",
        -10.179245305763535
      ],
      [
        "ĠKeep",
        -10.179683282140925
      ],
      [
        "-year",
        -10.18019126761758
      ],
      [
        "Ġclinical",
        -10.180549585946649
      ],
      [
        "Ġskill",
        -10.180613267105992
      ],
      [
        "Conclusion",
        -10.18083941635895
      ],
      [
        "Ġlifestyle",
        -10.180915324955825
      ],
      [
        "Ġmov",
        -10.181745257842632
      ],
      [
        "Ġcrops",
        -10.182516065284362
      ],
      [
        "Ġexact",
        -10.18254692358937
      ],
      [
        "Ġplate",
        -10.18329183565523
      ],
      [
        "Ġsmart",
        -10.183875555165576
      ],
      [
        "Ġfill",
        -10.185488235917234
      ],
      [
        "Ġexternal",
        -10.185561570747932
      ],
      [
        "Ġemission",
        -10.186294389301828
      ],
      [
        "Ġvarie",
        -10.187278564534706
      ],
      [
        "Ġradiation",
        -10.187810996321058
      ],
      [
        "lying",
        -10.188231973253512
      ],
      [
        "ĠAustralia",
        -10.188296762570811
      ],
      [
        "Ġsuper",
        -10.18846732234621
      ],
      [
        "ĠpH",
        -10.188515938479458
      ],
      [
        "Ġguideline",
        -10.189598559690488
      ],
      [
        "Ġbeneficial",
        -10.189717599803592
      ],
      [
        "Ġcreatures",
        -10.1898807629417
      ],
      [
        "Ġvitamin",
        -10.190523505144954
      ],
      [
        "Ġcontinuous",
        -10.192762070682363
      ],
      [
        "Ġabsorb",
        -10.193075205063971
      ],
      [
        "diversity",
        -10.1931004534316
      ],
      [
        "Ġvoice",
        -10.19323847884372
      ],
      [
        "J",
        -10.193835666544713
      ],
      [
        "Ġappeal",
        -10.195246626786677
      ],
      [
        "back",
        -10.19527902402222
      ],
      [
        "Ġbug",
        -10.19553515735804
      ],
      [
        ".[",
        -10.195725650379288
      ],
      [
        "Ġstories",
        -10.197056539638076
      ],
      [
        "Ġformula",
        -10.197967384820064
      ],
      [
        "Ġboost",
        -10.199516744038416
      ],
      [
        "Ġtraffic",
        -10.20092284051899
      ],
      [
        "Ġmainly",
        -10.201566726850457
      ],
      [
        "Ġbu",
        -10.201791254688178
      ],
      [
        "Ġessay",
        -10.201958882007672
      ],
      [
        "Ġarray",
        -10.202777901557525
      ],
      [
        "ĠPeople",
        -10.203046028093308
      ],
      [
        "table",
        -10.203232967438083
      ],
      [
        "Ġshell",
        -10.203487849722697
      ],
      [
        "Ġbloom",
        -10.204017426434696
      ],
      [
        "Ġaccident",
        -10.204048214585743
      ],
      [
        "Ġincredibl",
        -10.204387610495347
      ],
      [
        "Ġapart",
        -10.20477152354243
      ],
      [
        "Ġpest",
        -10.205074712821007
      ],
      [
        "Ġowner",
        -10.206206258308
      ],
      [
        "Ġcoal",
        -10.20625725350358
      ],
      [
        "referred",
        -10.207257278001292
      ],
      [
        "Ġembodiment",
        -10.207366117137866
      ],
      [
        "being",
        -10.207418905464904
      ],
      [
        "Ġtests",
        -10.207631874841995
      ],
      [
        "Ġannual",
        -10.207636143564606
      ],
      [
        "ĠDec",
        -10.208126083962457
      ],
      [
        "Ġexhibit",
        -10.208259862805429
      ],
      [
        "âĢĻt",
        -10.20844423363162
      ],
      [
        "Ġcomposition",
        -10.208772336061257
      ],
      [
        "Ġillness",
        -10.209076579715616
      ],
      [
        "Ġdiscusse",
        -10.209149112892572
      ],
      [
        "Ġcatch",
        -10.209220647304106
      ],
      [
        "laugh",
        -10.209773801062568
      ],
      [
        "Ġthorough",
        -10.209854498185011
      ],
      [
        "Ġcompost",
        -10.209975801433188
      ],
      [
        "Ġupper",
        -10.210262455631227
      ],
      [
        "Ġpolicy",
        -10.210878212465152
      ],
      [
        "focused",
        -10.210980372226386
      ],
      [
        "Ġgrass",
        -10.21186161985733
      ],
      [
        "Ġanalyze",
        -10.212059433382631
      ],
      [
        "Ġintelligence",
        -10.21251506492311
      ],
      [
        "ĠEnergy",
        -10.212614605819564
      ],
      [
        "Ġreward",
        -10.21275250593818
      ],
      [
        "city",
        -10.212835913814232
      ],
      [
        "kept",
        -10.213890165293494
      ],
      [
        "Ġorigin",
        -10.214221934990018
      ],
      [
        "Ġchoos",
        -10.215512632821683
      ],
      [
        "Ġassume",
        -10.215936849547974
      ],
      [
        "Ġroof",
        -10.21658282667622
      ],
      [
        "Ġreveal",
        -10.218129199529766
      ],
      [
        "Ġsend",
        -10.21850199037848
      ],
      [
        "Ġexamine",
        -10.218515440235857
      ],
      [
        "ating",
        -10.218753810199694
      ],
      [
        "air",
        -10.218913631768803
      ],
      [
        "Ġdrugs",
        -10.219411517666256
      ],
      [
        "Ġdescription",
        -10.2200753764887
      ],
      [
        "Ġvisibl",
        -10.22048077672466
      ],
      [
        "Ġmiss",
        -10.220892046348016
      ],
      [
        "Ġs",
        -10.220957750402263
      ],
      [
        "Ġforest",
        -10.221496209597165
      ],
      [
        "Ġsafet",
        -10.22175385197805
      ],
      [
        "Ġbreast",
        -10.222780117998798
      ],
      [
        "Ġbrush",
        -10.22449816562915
      ],
      [
        "Ġimprovement",
        -10.225252657687854
      ],
      [
        "Ġcapabl",
        -10.225292515656175
      ],
      [
        "Ġincorporate",
        -10.227461356131968
      ],
      [
        "ending",
        -10.2275499283269
      ],
      [
        "Ġreduction",
        -10.22773785756535
      ],
      [
        "Ġfear",
        -10.227816879523276
      ],
      [
        "Ġopinion",
        -10.228272612518523
      ],
      [
        "Ġrespond",
        -10.229442335536575
      ],
      [
        "Ġindustrial",
        -10.22993525979012
      ],
      [
        "call",
        -10.230190866028629
      ],
      [
        "Ġintegrate",
        -10.230512135245714
      ],
      [
        "est",
        -10.2313492370978
      ],
      [
        "Ġcream",
        -10.231425139590248
      ],
      [
        "Ġpercentage",
        -10.231792462498364
      ],
      [
        "Ġdistinct",
        -10.232143978415838
      ],
      [
        "Ġp",
        -10.232190480004215
      ],
      [
        "Ġoutdoor",
        -10.232727687229133
      ],
      [
        "Ġprinciples",
        -10.233119204424469
      ],
      [
        "place",
        -10.23365219376302
      ],
      [
        "Ġaudience",
        -10.233668991506471
      ],
      [
        "Ġassessment",
        -10.234564412518584
      ],
      [
        "Ġplent",
        -10.234736518878885
      ],
      [
        "ĠRiver",
        -10.234891399684384
      ],
      [
        "My",
        -10.235131810861445
      ],
      [
        "Ġvaccine",
        -10.23703898453735
      ],
      [
        "Ġimprov",
        -10.237217291528813
      ],
      [
        "Ġgirl",
        -10.23730942467756
      ],
      [
        "ĠDon",
        -10.237683500322817
      ],
      [
        "Ġnaturally",
        -10.23784479794396
      ],
      [
        "source",
        -10.237961996960664
      ],
      [
        "Ġ$",
        -10.238340310764066
      ],
      [
        "Ġdish",
        -10.23837112239845
      ],
      [
        "Ġthick",
        -10.23854232395786
      ],
      [
        "Ġplayer",
        -10.23862629441841
      ],
      [
        "Ġcultural",
        -10.238831858398328
      ],
      [
        "list",
        -10.238991891430317
      ],
      [
        "Ġchalleng",
        -10.239383359561293
      ],
      [
        "Ġscore",
        -10.239863841921707
      ],
      [
        "Ġversatil",
        -10.239870304752888
      ],
      [
        "An",
        -10.240526050094914
      ],
      [
        "Ġphotos",
        -10.241003739509
      ],
      [
        "Ġstar",
        -10.2413221871351
      ],
      [
        "ĠEducation",
        -10.24149151813458
      ],
      [
        "ĠCity",
        -10.241491997074869
      ],
      [
        "Ġdecline",
        -10.24172446980707
      ],
      [
        "Ġtrip",
        -10.242525187509209
      ],
      [
        "Ġmobile",
        -10.243652123992538
      ],
      [
        "Ġburn",
        -10.243842721001702
      ],
      [
        "Ġsunlight",
        -10.244839071433162
      ],
      [
        "Ġmaster",
        -10.246594505046057
      ],
      [
        "Before",
        -10.24710331570834
      ],
      [
        "ĠJohn",
        -10.247882517555436
      ],
      [
        "ĠBritish",
        -10.248209724144164
      ],
      [
        "Ġconsist",
        -10.248954347834246
      ],
      [
        "Ġstatus",
        -10.249130292316714
      ],
      [
        "Ġvessel",
        -10.249631478523307
      ],
      [
        "Ġfault",
        -10.251889214457467
      ],
      [
        "ha",
        -10.252374583296206
      ],
      [
        "round",
        -10.253437674838926
      ],
      [
        "ĠGoogle",
        -10.253548579120425
      ],
      [
        "Ġstor",
        -10.253667202329671
      ],
      [
        "\"The",
        -10.2539067159205
      ],
      [
        "Ġpool",
        -10.254531825383305
      ],
      [
        "Ġextensive",
        -10.255715097400206
      ],
      [
        "ĠEast",
        -10.256782782843452
      ],
      [
        "Ġchronic",
        -10.25679513618039
      ],
      [
        "Ġbottle",
        -10.25738650048158
      ],
      [
        "either",
        -10.257442495109933
      ],
      [
        "Ġamazing",
        -10.259099651067483
      ],
      [
        "Ġthermal",
        -10.259949895436296
      ],
      [
        "Ġconcrete",
        -10.260653678166769
      ],
      [
        "Ġgear",
        -10.2609641102531
      ],
      [
        "tried",
        -10.26289135915824
      ],
      [
        "Ġrecovery",
        -10.2638662364043
      ],
      [
        "Ġexcess",
        -10.264465402254142
      ],
      [
        "Ġworker",
        -10.264570653755886
      ],
      [
        "ten",
        -10.264578826197084
      ],
      [
        "ĠInternational",
        -10.26459639286634
      ],
      [
        "\\u",
        -10.26547820743254
      ],
      [
        "Ġbowl",
        -10.265832870484722
      ],
      [
        "Ġdownload",
        -10.26603509058288
      ],
      [
        "Ġtitle",
        -10.266626883885206
      ],
      [
        "Ġnice",
        -10.266776516955824
      ],
      [
        "Ġassess",
        -10.2684938965014
      ],
      [
        "Ġlens",
        -10.268557013951732
      ],
      [
        "Ġsurvival",
        -10.268797006038106
      ],
      [
        "Ġmold",
        -10.268849234734274
      ],
      [
        "Ġobjective",
        -10.269844874831923
      ],
      [
        "ĠBoth",
        -10.27110183308993
      ],
      [
        "Ġpregnancy",
        -10.271345079656417
      ],
      [
        "Ġshowing",
        -10.271910105291555
      ],
      [
        "Also",
        -10.27250650158894
      ],
      [
        "Ġawareness",
        -10.272635220105286
      ],
      [
        "-in",
        -10.273181177419303
      ],
      [
        "Ġworry",
        -10.27348748234878
      ],
      [
        "Ġteach",
        -10.273835788308308
      ],
      [
        "|Ċ",
        -10.27400892727418
      ],
      [
        "Ġhazard",
        -10.27474741935637
      ],
      [
        "Ġstring",
        -10.27547780140736
      ],
      [
        "-time",
        -10.27574467715985
      ],
      [
        "Ġplays",
        -10.275761161212788
      ],
      [
        "Ġam",
        -10.27615883036644
      ],
      [
        "Ġneural",
        -10.276801198569546
      ],
      [
        "Ġencounter",
        -10.2769086880782
      ],
      [
        "Ġplane",
        -10.277068382827732
      ],
      [
        "ĠCount",
        -10.278365411036235
      ],
      [
        "Ġbecom",
        -10.278452478532198
      ],
      [
        "Ġdie",
        -10.279416897092052
      ],
      [
        "ĠFood",
        -10.279647729639985
      ],
      [
        "Ġoperat",
        -10.279885595808969
      ],
      [
        "Ġpredator",
        -10.280082684474944
      ],
      [
        "ĠApril",
        -10.2812775568989
      ],
      [
        "ĠAsia",
        -10.28334193218789
      ],
      [
        "Ġexperiments",
        -10.283349416967486
      ],
      [
        "Ġguy",
        -10.284018029527768
      ],
      [
        "Ġconsequence",
        -10.284094223379874
      ],
      [
        "Ġcrystal",
        -10.284349734567751
      ],
      [
        "Ġdelay",
        -10.284863936458349
      ],
      [
        "Ġstretch",
        -10.285601490495663
      ],
      [
        "Ġemotion",
        -10.285867551151608
      ],
      [
        "Ġportion",
        -10.286358595764211
      ],
      [
        "ĠHis",
        -10.28650637278841
      ],
      [
        "Ġdetaile",
        -10.286935160432398
      ],
      [
        "Ġprior",
        -10.286988440630292
      ],
      [
        "Ġvirus",
        -10.287481010467864
      ],
      [
        "Ġscene",
        -10.288839730190324
      ],
      [
        "ĠCanada",
        -10.289503552022612
      ],
      [
        "Ġopening",
        -10.289790882707813
      ],
      [
        "Over",
        -10.28996398906444
      ],
      [
        "Ġinstallation",
        -10.290814297996732
      ],
      [
        "Ġprepared",
        -10.291233394844715
      ],
      [
        "Ġrestaurant",
        -10.291513705863531
      ],
      [
        "Ġinvestment",
        -10.291902294325377
      ],
      [
        "Ġleaving",
        -10.292438061019926
      ],
      [
        "ĠGroup",
        -10.293320772410423
      ],
      [
        "Ġsnow",
        -10.293843824091336
      ],
      [
        "Ġconsideration",
        -10.29394090460369
      ],
      [
        "ĠFrench",
        -10.294728326951084
      ],
      [
        "{",
        -10.294788061933827
      ],
      [
        "Ġattract",
        -10.2947946104691
      ],
      [
        "Ġjump",
        -10.295142291333931
      ],
      [
        "first",
        -10.29517000435737
      ],
      [
        "Ġfail",
        -10.295272244900476
      ],
      [
        "Ġcredit",
        -10.297330521199104
      ],
      [
        "Ġcrop",
        -10.298244040639116
      ],
      [
        "Ġjuice",
        -10.299443499755466
      ],
      [
        "Ġdatabase",
        -10.299681279324137
      ],
      [
        "Ġhospital",
        -10.300308450183037
      ],
      [
        "Ġrelevant",
        -10.300814250413447
      ],
      [
        "Ġpack",
        -10.301430559234792
      ],
      [
        "found",
        -10.301764880739135
      ],
      [
        "top",
        -10.302090884383016
      ],
      [
        "Ġabsolute",
        -10.303028534622433
      ],
      [
        "Ġleak",
        -10.306500826602525
      ],
      [
        "Ġremov",
        -10.306515696991076
      ],
      [
        "Ġautomatic",
        -10.307496385078222
      ],
      [
        "ĠWell",
        -10.308151747244484
      ],
      [
        "Ġthi",
        -10.308232506667682
      ],
      [
        "Ġsector",
        -10.308335082882136
      ],
      [
        "Ġprofile",
        -10.308353455860772
      ],
      [
        "Ġfoster",
        -10.308972505558764
      ],
      [
        "Ġlights",
        -10.3090688184886
      ],
      [
        "Ġcrack",
        -10.311159086015824
      ],
      [
        "ground",
        -10.31186696841462
      ],
      [
        "Ġharvest",
        -10.312080795233518
      ],
      [
        "Ġminerals",
        -10.312205785956154
      ],
      [
        "Ġconcerns",
        -10.3123453654975
      ],
      [
        "ĠSea",
        -10.312903763888112
      ],
      [
        "Ġindependent",
        -10.313392455623475
      ],
      [
        "should",
        -10.31351515041554
      ],
      [
        "Ġconduct",
        -10.313877382727515
      ],
      [
        "Ġengineering",
        -10.314949027564218
      ],
      [
        "Ġformed",
        -10.315401137573565
      ],
      [
        "Ġconfirm",
        -10.315482046570214
      ],
      [
        "Ġbar",
        -10.316089145618005
      ],
      [
        "Ġfelt",
        -10.316683963167128
      ],
      [
        "Ġreache",
        -10.317184186442558
      ],
      [
        "Ġengineer",
        -10.317466560048736
      ],
      [
        "Ġtrial",
        -10.318807384927712
      ],
      [
        "Ġsuit",
        -10.318932461461436
      ],
      [
        "full",
        -10.319059641970869
      ],
      [
        "Ġfix",
        -10.319384507026442
      ],
      [
        "Ġnovel",
        -10.321798493846082
      ],
      [
        "Ġmanner",
        -10.322018378210462
      ],
      [
        "Â",
        -10.323621267902023
      ],
      [
        "Ġtooth",
        -10.323680854110062
      ],
      [
        "then",
        -10.32396073603067
      ],
      [
        "Ġinteractions",
        -10.324181293969936
      ],
      [
        "Ġmelt",
        -10.324219411045444
      ],
      [
        "Ġremote",
        -10.324227991709208
      ],
      [
        "Ġmolecular",
        -10.325381796163688
      ],
      [
        "Ġbudget",
        -10.325382497008915
      ],
      [
        "Ġdedicate",
        -10.326047754114049
      ],
      [
        "Ġappreciate",
        -10.326627778120448
      ],
      [
        "History",
        -10.326661218045926
      ],
      [
        "late",
        -10.327278014805698
      ],
      [
        "Ġworkshop",
        -10.327295688717792
      ],
      [
        "ĠIndian",
        -10.328065700308285
      ],
      [
        "lies",
        -10.328575651993408
      ],
      [
        "layers",
        -10.328580657701114
      ],
      [
        "Ġconversation",
        -10.328664932650852
      ],
      [
        "Ġpasse",
        -10.330326522973277
      ],
      [
        "].",
        -10.33062729030701
      ],
      [
        "Ġice",
        -10.330721641899206
      ],
      [
        "Ġpets",
        -10.331381141484073
      ],
      [
        "known",
        -10.331495364083883
      ],
      [
        "Ġmilitar",
        -10.331496914601814
      ],
      [
        "Ġcarried",
        -10.33226951281688
      ],
      [
        "Ġbill",
        -10.332480233460377
      ],
      [
        "Ġfertilizer",
        -10.332595577755235
      ],
      [
        "Ġrelationships",
        -10.332788378744617
      ],
      [
        "Ġfirm",
        -10.332890178421756
      ],
      [
        "ecame",
        -10.333078667871971
      ],
      [
        "uses",
        -10.333499215336923
      ],
      [
        "New",
        -10.333597436368596
      ],
      [
        "Ġresolution",
        -10.33373287574063
      ],
      [
        "Ġprove",
        -10.334079960230522
      ],
      [
        "Ġprompt",
        -10.33415318305934
      ],
      [
        "Novemb",
        -10.335945908492182
      ],
      [
        "oving",
        -10.336550916229328
      ],
      [
        "Ġtail",
        -10.337117857935072
      ],
      [
        "Ġelectrons",
        -10.33719166585096
      ],
      [
        "Ġestimated",
        -10.337613339209252
      ],
      [
        "Ġperhap",
        -10.337821274971308
      ],
      [
        "Ġgravit",
        -10.338066701694093
      ],
      [
        "Ġinnovation",
        -10.33831756687485
      ],
      [
        "ĠDesign",
        -10.338545632406548
      ],
      [
        "Ġleaf",
        -10.338985355392444
      ],
      [
        "Ġexplanation",
        -10.340026987449894
      ],
      [
        "Ġbed",
        -10.341248650667469
      ],
      [
        "lates",
        -10.341459773867305
      ],
      [
        "Ġstomach",
        -10.341607891849094
      ],
      [
        "cellular",
        -10.341643790552936
      ],
      [
        "Ġmineral",
        -10.342146606863697
      ],
      [
        "ur",
        -10.342359582806772
      ],
      [
        "Ġcommunicate",
        -10.342792834004674
      ],
      [
        "Ġspray",
        -10.34289614994401
      ],
      [
        ";Ċ",
        -10.342932215206414
      ],
      [
        "Does",
        -10.343229501284409
      ],
      [
        "Ġhistorical",
        -10.343687117194934
      ],
      [
        "available",
        -10.343760305304304
      ],
      [
        "Ġdecide",
        -10.343835608059798
      ],
      [
        "Ġexciting",
        -10.344232771912614
      ],
      [
        "Ġlose",
        -10.344520788667865
      ],
      [
        "Ġemergency",
        -10.345370515758791
      ],
      [
        "Ġfunctional",
        -10.347274033569745
      ],
      [
        "often",
        -10.347465879520922
      ],
      [
        "Ġfurniture",
        -10.34805700024054
      ],
      [
        "Ġnerve",
        -10.348656644623734
      ],
      [
        "Ġloose",
        -10.348947951098584
      ],
      [
        "Ġloop",
        -10.349168873444594
      ],
      [
        "Ġdefinition",
        -10.349265320175508
      ],
      [
        "before",
        -10.349482648311762
      ],
      [
        "go",
        -10.349542547249564
      ],
      [
        "Ġprinting",
        -10.351445287949428
      ],
      [
        "ĠFurther",
        -10.352028375137929
      ],
      [
        "Ġcompetition",
        -10.352559893780056
      ],
      [
        "specific",
        -10.3526261006856
      ],
      [
        "Ġappears",
        -10.352629256369472
      ],
      [
        "ĠIsland",
        -10.353632736109672
      ],
      [
        "plants",
        -10.35508228080388
      ],
      [
        "ĠProgram",
        -10.355608130698933
      ],
      [
        "Ġtrait",
        -10.35575147880892
      ],
      [
        "ĠWhere",
        -10.356611427481198
      ],
      [
        "ĠLED",
        -10.35716302904007
      ],
      [
        "Ġapproaches",
        -10.357208114612847
      ],
      [
        "Ġchoices",
        -10.357327066965842
      ],
      [
        "Ġprovider",
        -10.357645972269772
      ],
      [
        "@",
        -10.35767709470618
      ],
      [
        "Using",
        -10.35790719836729
      ],
      [
        "Ġweigh",
        -10.357907806286867
      ],
      [
        "ĠLight",
        -10.358250060417175
      ],
      [
        "Ġthrow",
        -10.35842650402965
      ],
      [
        "Ġstone",
        -10.359352447012183
      ],
      [
        "-being",
        -10.360235746534972
      ],
      [
        "Ġexcessive",
        -10.36134744002703
      ],
      [
        "Ġdecided",
        -10.361353917331424
      ],
      [
        "Ġestimate",
        -10.362040654603398
      ],
      [
        "growth",
        -10.362145234987146
      ],
      [
        "help",
        -10.362147600404548
      ],
      [
        "buying",
        -10.362773700430898
      ],
      [
        "Ġpredict",
        -10.3633687640612
      ],
      [
        "Ġconducted",
        -10.363893658887196
      ],
      [
        "Ġchocolate",
        -10.36434994214326
      ],
      [
        "cities",
        -10.364524824023338
      ],
      [
        "ĠWest",
        -10.364545494195315
      ],
      [
        "installed",
        -10.36488201381107
      ],
      [
        "Ġdefine",
        -10.3651614707056
      ],
      [
        "Ġfund",
        -10.36521413908871
      ],
      [
        "Ġhydrogen",
        -10.365571848362496
      ],
      [
        "Since",
        -10.366024580635925
      ],
      [
        "Ġintake",
        -10.366676107305254
      ],
      [
        "Ġinflammation",
        -10.368020860044252
      ],
      [
        "Ġmention",
        -10.368710911568511
      ],
      [
        "Ġhousehold",
        -10.368896837251874
      ],
      [
        "Ġspeak",
        -10.369556431766147
      ],
      [
        "Ġmask",
        -10.369719081161602
      ],
      [
        "supported",
        -10.370891895506896
      ],
      [
        "Not",
        -10.371151289110124
      ],
      [
        "power",
        -10.37115350578307
      ],
      [
        "ions",
        -10.371223113661213
      ],
      [
        "ĠLife",
        -10.371313945303562
      ],
      [
        "Ġagriculture",
        -10.371342060634024
      ],
      [
        "Ġfiles",
        -10.37325692276857
      ],
      [
        "lots",
        -10.373310924217364
      ],
      [
        "Ġplann",
        -10.37358333322889
      ],
      [
        "ically",
        -10.37399748099882
      ],
      [
        "Ġchair",
        -10.374206714877907
      ],
      [
        "Ġsensitive",
        -10.374436865351356
      ],
      [
        "Ġdiagnose",
        -10.374440573009084
      ],
      [
        "Ġneck",
        -10.375589350231248
      ],
      [
        "Ġacademic",
        -10.375706586671551
      ],
      [
        "ĠGreen",
        -10.376122715989048
      ],
      [
        "ecently",
        -10.376874382942445
      ],
      [
        "Ġcomparison",
        -10.37711034342992
      ],
      [
        "âĢľ",
        -10.377572884511553
      ],
      [
        "Ġpot",
        -10.377753740757823
      ],
      [
        "Ġwoman",
        -10.377955434153405
      ],
      [
        "Ġroll",
        -10.37809455440999
      ],
      [
        "protected",
        -10.378966391611218
      ],
      [
        "Ġestablishe",
        -10.379524409010523
      ],
      [
        "days",
        -10.38039789904854
      ],
      [
        "Ġtight",
        -10.38133576984242
      ],
      [
        "Ġexplor",
        -10.383003343874408
      ],
      [
        "Ġpolitical",
        -10.383141726916593
      ],
      [
        "Ġupdate",
        -10.38470783023894
      ],
      [
        "Ġmath",
        -10.385216682022204
      ],
      [
        "Ġsubstance",
        -10.38536911205354
      ],
      [
        "after",
        -10.385913580339745
      ],
      [
        "Ġpeak",
        -10.386069795049826
      ],
      [
        "biology",
        -10.386678500740448
      ],
      [
        "Ġsheet",
        -10.38692824031104
      ],
      [
        "Ġcommunit",
        -10.386934686255277
      ],
      [
        "Ġisland",
        -10.387384610099016
      ],
      [
        "ted",
        -10.387773217179229
      ],
      [
        "including",
        -10.38847658637459
      ],
      [
        "action",
        -10.388556535288917
      ],
      [
        "glasses",
        -10.389377012436755
      ],
      [
        "Ġeconom",
        -10.38987239958567
      ],
      [
        "ĠSociety",
        -10.39062460290361
      ],
      [
        "Ġreact",
        -10.391519099228478
      ],
      [
        "mental",
        -10.391556223115728
      ],
      [
        "Ġdeposit",
        -10.391902749953504
      ],
      [
        "Ġregulate",
        -10.392060496261394
      ],
      [
        "done",
        -10.393177403289748
      ],
      [
        "-friendl",
        -10.3940473836203
      ],
      [
        "Ġmovie",
        -10.39535561354784
      ],
      [
        "Ġcalci",
        -10.395881797585451
      ],
      [
        "-related",
        -10.397343674621643
      ],
      [
        "Ġsold",
        -10.398615165520257
      ],
      [
        "Ġwhatever",
        -10.399035183338205
      ],
      [
        "culture",
        -10.399156041130867
      ],
      [
        "Ġsudden",
        -10.399468920131897
      ],
      [
        "group",
        -10.39963725272969
      ],
      [
        "Ġurban",
        -10.39973419138022
      ],
      [
        "Ġglucos",
        -10.40041840437917
      ],
      [
        "Ġcareful",
        -10.400747150931782
      ],
      [
        "Ġcurve",
        -10.400874342477104
      ],
      [
        "Ġpress",
        -10.401065513975524
      ],
      [
        "Ġpure",
        -10.402728657464408
      ],
      [
        "Ġreplacement",
        -10.402796157484618
      ],
      [
        "Ġleader",
        -10.403967300694047
      ],
      [
        "Ġagent",
        -10.404166303817057
      ],
      [
        "Ġde",
        -10.404220591997433
      ],
      [
        "Ġdiagram",
        -10.404587646919314
      ],
      [
        "Ġmining",
        -10.404626836844972
      ],
      [
        "Ġinterior",
        -10.404964851813435
      ],
      [
        "Ġprinter",
        -10.405684798073176
      ],
      [
        "Ġnames",
        -10.405859477801071
      ],
      [
        "ĠArt",
        -10.405880742337594
      ],
      [
        "cholesterol",
        -10.406899146688392
      ],
      [
        "systems",
        -10.40722788507924
      ],
      [
        "Ġbegins",
        -10.407716869320476
      ],
      [
        "Ġconcepts",
        -10.408723817057972
      ],
      [
        "Ġemploy",
        -10.410020840494976
      ],
      [
        "Ġsharp",
        -10.410615049866234
      ],
      [
        "ĠJune",
        -10.411128816037207
      ],
      [
        "Ġscenario",
        -10.411248854081018
      ],
      [
        "Ġbigger",
        -10.411722705128083
      ],
      [
        "ear",
        -10.412256517090906
      ],
      [
        "Ġsaving",
        -10.412349706700994
      ],
      [
        "Ġemployees",
        -10.412806717700064
      ],
      [
        "possibly",
        -10.413220478638578
      ],
      [
        "Ġcopper",
        -10.41350456800595
      ],
      [
        "cycle",
        -10.413653726557945
      ],
      [
        "Ġprofessor",
        -10.414436476486602
      ],
      [
        "Ġchapter",
        -10.414881151455097
      ],
      [
        "Ġbranch",
        -10.415580111797391
      ],
      [
        "spread",
        -10.416093316612514
      ],
      [
        "Ġaccurac",
        -10.416722207754471
      ],
      [
        "Ġpreparation",
        -10.417747890851404
      ],
      [
        "Ġlinked",
        -10.418193282530751
      ],
      [
        "Ġconfidence",
        -10.41865730548907
      ],
      [
        "Ġinvention",
        -10.41886873833619
      ],
      [
        "between",
        -10.418952207048532
      ],
      [
        "active",
        -10.4194049252361
      ],
      [
        "piece",
        -10.4194536062107
      ],
      [
        "gets",
        -10.420235760708836
      ],
      [
        "Ġconsult",
        -10.420278285177798
      ],
      [
        "Ġgap",
        -10.42055077149844
      ],
      [
        "Ġkg",
        -10.421465856580696
      ],
      [
        "Ġnitrogen",
        -10.421974975739095
      ],
      [
        "Ġelectron",
        -10.422014282149885
      ],
      [
        "Ġcloud",
        -10.422215107452114
      ],
      [
        "Ġcovers",
        -10.422450355980402
      ],
      [
        "Ġdental",
        -10.422998662340188
      ],
      [
        "Ġpictures",
        -10.423587827970586
      ],
      [
        "Ġnutrition",
        -10.423975579114558
      ],
      [
        "case",
        -10.424599176314452
      ],
      [
        "Ġmammal",
        -10.424616593500598
      ],
      [
        "Where",
        -10.425938102913458
      ],
      [
        "Ġstroke",
        -10.426078940091651
      ],
      [
        "Ġsolve",
        -10.426403206524505
      ],
      [
        "Ġcotton",
        -10.426815408478516
      ],
      [
        "Ġsizes",
        -10.426890697465868
      ],
      [
        "Ġconstruct",
        -10.42694992380972
      ],
      [
        "Ġsurprise",
        -10.42757260093251
      ],
      [
        "per",
        -10.427973781275
      ],
      [
        "Ġpepper",
        -10.429386504941697
      ],
      [
        "Ġtrust",
        -10.429884167968115
      ],
      [
        "Ġclothes",
        -10.43029528565792
      ],
      [
        "ĠHave",
        -10.43078655887749
      ],
      [
        "itting",
        -10.431039443148888
      ],
      [
        "Ġshapes",
        -10.431151382709505
      ],
      [
        "Ġstream",
        -10.431553583422696
      ],
      [
        "Ġvast",
        -10.431916670200998
      ],
      [
        "Ġbones",
        -10.432103775495904
      ],
      [
        "Ġtrul",
        -10.432312055327536
      ],
      [
        "Ġcloser",
        -10.432409618134828
      ],
      [
        "ĠCO",
        -10.432419353092468
      ],
      [
        "ĠConsider",
        -10.43290155543811
      ],
      [
        "Ġtomato",
        -10.43307919181521
      ],
      [
        "ĠThus",
        -10.433385998040515
      ],
      [
        "ball",
        -10.433461181156748
      ],
      [
        "st",
        -10.434704613453327
      ],
      [
        "ĠGuide",
        -10.435096074782432
      ],
      [
        "Ġdiagnosi",
        -10.435118577498985
      ],
      [
        "test",
        -10.435470673908966
      ],
      [
        "Ġprogramm",
        -10.436235590800887
      ],
      [
        "ĠRed",
        -10.436449441077992
      ],
      [
        "Ġpackage",
        -10.43674589471666
      ],
      [
        "Ġseven",
        -10.436989371593864
      ],
      [
        "Ġlaws",
        -10.437245049612224
      ],
      [
        "Ġexchange",
        -10.437252007682725
      ],
      [
        "ĠSun",
        -10.43775350807149
      ],
      [
        "About",
        -10.438317456052363
      ],
      [
        "ĠGeneral",
        -10.439107469124655
      ],
      [
        "ĠTh",
        -10.439144563147504
      ],
      [
        "Ġmanufacturer",
        -10.439484255578648
      ],
      [
        "ĠGo",
        -10.439715860932395
      ],
      [
        "ge",
        -10.439749902712258
      ],
      [
        "Ġinnovative",
        -10.440270278224297
      ],
      [
        "Ġsnake",
        -10.440484833904671
      ],
      [
        "-level",
        -10.440583725535364
      ],
      [
        "Ġrecorded",
        -10.440742388524011
      ],
      [
        "Ġatoms",
        -10.441041911703644
      ],
      [
        "Ġserver",
        -10.441552782239617
      ],
      [
        "Ġvariable",
        -10.442132161599352
      ],
      [
        "`",
        -10.442381521588022
      ],
      [
        "Ġattend",
        -10.442429867147304
      ],
      [
        "Ġfly",
        -10.442457969071798
      ],
      [
        "Ġdamaged",
        -10.442462778827403
      ],
      [
        "Ġevaluate",
        -10.44307790860157
      ],
      [
        "Ġaesthetic",
        -10.443786531785667
      ],
      [
        "Ġbroken",
        -10.443938727048335
      ],
      [
        "Ġstem",
        -10.443958231658002
      ],
      [
        "so",
        -10.44421642013222
      ],
      [
        "Ġlense",
        -10.444387667456729
      ],
      [
        "Ġmarketing",
        -10.444508927510851
      ],
      [
        "ĠâĢ¦",
        -10.444843367459113
      ],
      [
        "cut",
        -10.44508932796428
      ],
      [
        "Ġdirector",
        -10.446047296211994
      ],
      [
        "issue",
        -10.446437734107434
      ],
      [
        "Ġorgan",
        -10.446561339030772
      ],
      [
        "wood",
        -10.446703844838394
      ],
      [
        "Ġnode",
        -10.447014063272665
      ],
      [
        "Ġillustrate",
        -10.447658535287411
      ],
      [
        "Ġstudied",
        -10.447691936237096
      ],
      [
        "Ġfishing",
        -10.448334241559524
      ],
      [
        "Ġminimize",
        -10.448545475081923
      ],
      [
        "Ġcampaign",
        -10.448746558299636
      ],
      [
        "Ġdirt",
        -10.448800885916445
      ],
      [
        "Ġprocedures",
        -10.44896247856406
      ],
      [
        "Ġscrew",
        -10.449835639593765
      ],
      [
        "rates",
        -10.450018401247435
      ],
      [
        "effective",
        -10.450342433991416
      ],
      [
        "Ġcoral",
        -10.450828110826995
      ],
      [
        "Ġflying",
        -10.452125281557937
      ],
      [
        "Ġmedications",
        -10.452398432431306
      ],
      [
        "Ġmedication",
        -10.452904906883877
      ],
      [
        "q",
        -10.453499163106216
      ],
      [
        "Ġfemales",
        -10.45350672554964
      ],
      [
        "Ġflood",
        -10.453977933133626
      ],
      [
        "Ġrecording",
        -10.454087073242649
      ],
      [
        "ĠUV",
        -10.454197039316618
      ],
      [
        "Ġmicro",
        -10.454644455894464
      ],
      [
        "Ġconflict",
        -10.454667721816678
      ],
      [
        "Ġgun",
        -10.454997648639475
      ],
      [
        "Ġgradual",
        -10.455428132509304
      ],
      [
        "same",
        -10.455586564077857
      ],
      [
        "Ġprofessionals",
        -10.455670199694469
      ],
      [
        "Ġgave",
        -10.456303941188992
      ],
      [
        "Ġparticipate",
        -10.456514853132804
      ],
      [
        "Ġtradition",
        -10.45670757443666
      ],
      [
        "Ġcorresponding",
        -10.457173242760078
      ],
      [
        "Ġregister",
        -10.457238608297214
      ],
      [
        "ĠControl",
        -10.457300277474904
      ],
      [
        "user",
        -10.45797873102838
      ],
      [
        "Ġorganize",
        -10.458078475129248
      ],
      [
        "aking",
        -10.45874775187833
      ],
      [
        "discovery",
        -10.458878687023626
      ],
      [
        "Ġrace",
        -10.45914062617778
      ],
      [
        "Ġderive",
        -10.459147870176114
      ],
      [
        "Ġshop",
        -10.459215817717984
      ],
      [
        "Other",
        -10.459240862319309
      ],
      [
        "Ġstability",
        -10.4594044598471
      ],
      [
        "Ġinterface",
        -10.4599791872618
      ],
      [
        "ĠPower",
        -10.460010453166738
      ],
      [
        "Ġblend",
        -10.460149635283942
      ],
      [
        "loss",
        -10.460219452299263
      ],
      [
        "Ġitem",
        -10.460323636563317
      ],
      [
        "Ġsell",
        -10.460360202091763
      ],
      [
        "Ġstrain",
        -10.460646381799055
      ],
      [
        "Ġprobabilit",
        -10.461344880335188
      ],
      [
        "Ġfamiliar",
        -10.461924013268948
      ],
      [
        "Ġinsurance",
        -10.462344911520432
      ],
      [
        "Ġpreserve",
        -10.463144701998624
      ],
      [
        "Ġmixe",
        -10.465031384829407
      ],
      [
        "Ġinspire",
        -10.46513991195594
      ],
      [
        "Ġguess",
        -10.46543370332983
      ],
      [
        "Ġcontribution",
        -10.466564615996214
      ],
      [
        "Ġtransform",
        -10.466610253149788
      ],
      [
        "Ġtruck",
        -10.467284485138968
      ],
      [
        "Ġperforme",
        -10.467307945649075
      ],
      [
        "ĠEvery",
        -10.467912648892437
      ],
      [
        "ble",
        -10.468014613305424
      ],
      [
        "Ġstronger",
        -10.46813159387792
      ],
      [
        "Ġvertical",
        -10.468649875211256
      ],
      [
        "ĠCollege",
        -10.469017513096542
      ],
      [
        "ĠFlorid",
        -10.470194496231514
      ],
      [
        "ĠHome",
        -10.470729026663651
      ],
      [
        "Ġsecret",
        -10.471293642813988
      ],
      [
        "Ġratio",
        -10.472519391805893
      ],
      [
        "heat",
        -10.472884247612958
      ],
      [
        "Ġopposite",
        -10.47304193291322
      ],
      [
        "off",
        -10.473383355550324
      ],
      [
        "Ġshoulder",
        -10.47371050736188
      ],
      [
        "ask",
        -10.47375374887759
      ],
      [
        "rich",
        -10.4745253383082
      ],
      [
        "came",
        -10.4751208243015
      ],
      [
        "Ġfather",
        -10.47613439935176
      ],
      [
        "Ġminute",
        -10.47616078847651
      ],
      [
        "ca",
        -10.476671314877873
      ],
      [
        "Ġbutter",
        -10.476918679517343
      ],
      [
        "Ġsuffer",
        -10.477306933970066
      ],
      [
        "Ġclock",
        -10.47748319204466
      ],
      [
        "Ġroute",
        -10.477703722569814
      ],
      [
        "vity",
        -10.478173057081266
      ],
      [
        "ĠEngland",
        -10.478506042840795
      ],
      [
        "ĠFebr",
        -10.47851828670828
      ],
      [
        "she",
        -10.478914573524577
      ],
      [
        "Ġcelebrate",
        -10.48011798530257
      ],
      [
        "Ġrecommendation",
        -10.480354083450488
      ],
      [
        "ĠLook",
        -10.480467559731574
      ],
      [
        "Ġbelief",
        -10.480521684740994
      ],
      [
        "Ġear",
        -10.480810070812003
      ],
      [
        "Ġorange",
        -10.480975593841515
      ],
      [
        "knowledge",
        -10.482197199250727
      ],
      [
        "Ġimpossibl",
        -10.48244733342603
      ],
      [
        "Ġmanager",
        -10.482713546521731
      ],
      [
        "ĠCheck",
        -10.483941211999394
      ],
      [
        "Ġexpress",
        -10.484293840750674
      ],
      [
        "ĠLake",
        -10.48580097813666
      ],
      [
        "Ġshade",
        -10.485826865809996
      ],
      [
        "ought",
        -10.486468491654234
      ],
      [
        "ĠCo",
        -10.486591377472129
      ],
      [
        "Ġround",
        -10.486883316383762
      ],
      [
        "Ġsubstances",
        -10.487106662906776
      ],
      [
        "ĠPacific",
        -10.487347101994466
      ],
      [
        "Ġcalm",
        -10.48805420553134
      ],
      [
        "Ġsides",
        -10.48851543316347
      ],
      [
        "Ġengag",
        -10.489063360359063
      ],
      [
        "Ġhormone",
        -10.489515544559952
      ],
      [
        "Ġcraft",
        -10.48957114596801
      ],
      [
        "Ġpuppy",
        -10.490053972186336
      ],
      [
        "Ġcollaboration",
        -10.4904372145903
      ],
      [
        "told",
        -10.490681040689736
      ],
      [
        "Ġbreath",
        -10.491164813586847
      ],
      [
        "Keep",
        -10.491625596854552
      ],
      [
        "Ġobvious",
        -10.493129498796158
      ],
      [
        "ĠAbout",
        -10.493700591403517
      ],
      [
        "Ġfamous",
        -10.494063219357724
      ],
      [
        "space",
        -10.495185144992323
      ],
      [
        "Share",
        -10.495715872711946
      ],
      [
        "Ġsilver",
        -10.49662171876465
      ],
      [
        "Ġhardware",
        -10.496896841253315
      ],
      [
        "Ġsauce",
        -10.497263917529985
      ],
      [
        "Just",
        -10.497648284414344
      ],
      [
        "Ġframework",
        -10.498421787970218
      ],
      [
        "ĠLike",
        -10.498661843752298
      ],
      [
        "Ġshot",
        -10.498802051976671
      ],
      [
        "Ġdimension",
        -10.499146234272748
      ],
      [
        "Ġspecialist",
        -10.49943611095834
      ],
      [
        "idden",
        -10.499561380166885
      ],
      [
        "ĠRe",
        -10.499905325340617
      ],
      [
        "Ġsport",
        -10.5000243128464
      ],
      [
        "Ġsignificance",
        -10.50035184315761
      ],
      [
        "ĠSt",
        -10.501179005015162
      ],
      [
        "Ġprinciple",
        -10.501292041416132
      ],
      [
        "Ġintroduction",
        -10.501477270322654
      ],
      [
        "Ġcooked",
        -10.501804029195249
      ],
      [
        "Ġwearing",
        -10.5028576954059
      ],
      [
        "ĠCD",
        -10.50313593484691
      ],
      [
        "un",
        -10.503547607588922
      ],
      [
        "Ġnurse",
        -10.503799742949392
      ],
      [
        "Ġbehaviour",
        -10.503981753661328
      ],
      [
        "Ġlearne",
        -10.504002581584851
      ],
      [
        "Ġprogramme",
        -10.504259174473155
      ],
      [
        "Ġcoast",
        -10.504549736345586
      ],
      [
        "Ġaske",
        -10.504782830231536
      ],
      [
        "Ġdepression",
        -10.50526093267781
      ],
      [
        "Ġtrend",
        -10.505500313532472
      ],
      [
        "Ġtwice",
        -10.506303739231688
      ],
      [
        "Ġwish",
        -10.50654915626234
      ],
      [
        "Additional",
        -10.506898693931312
      ],
      [
        "Ġhomes",
        -10.507329156379232
      ],
      [
        "ma",
        -10.50739989204369
      ],
      [
        "Ġinjuri",
        -10.507949425801698
      ],
      [
        "Ġrespective",
        -10.508781566168524
      ],
      [
        "accessible",
        -10.508980687994711
      ],
      [
        "Ġbabies",
        -10.509857796618276
      ],
      [
        "iding",
        -10.510630353060083
      ],
      [
        "Ġmembrane",
        -10.510682684487826
      ],
      [
        "Ġrough",
        -10.51132245400414
      ],
      [
        "Ġemerge",
        -10.511783638949144
      ],
      [
        "ĠIts",
        -10.512080553376563
      ],
      [
        "Ġthin",
        -10.51235854289602
      ],
      [
        "Ġcontrolle",
        -10.51260603019087
      ],
      [
        "Ġcreatin",
        -10.512775376026578
      ],
      [
        "Ġtrouble",
        -10.51280636809815
      ],
      [
        "Ġthrive",
        -10.513712066684905
      ],
      [
        "technology",
        -10.514088254380225
      ],
      [
        "ĠAssociation",
        -10.514112514101786
      ],
      [
        "Ġpartner",
        -10.514347283529526
      ],
      [
        "Ġdisk",
        -10.51498269156678
      ],
      [
        "Ġmassive",
        -10.515204642412568
      ],
      [
        "Ġdebri",
        -10.515351483893667
      ],
      [
        "aging",
        -10.515694144561898
      ],
      [
        "Ġanswers",
        -10.515730595128476
      ],
      [
        "Ġcustom",
        -10.516249605606284
      ],
      [
        "Ġd",
        -10.51638313470637
      ],
      [
        "Ġworse",
        -10.516862863406857
      ],
      [
        "rely",
        -10.517302719444816
      ],
      [
        "ĠJanu",
        -10.517504647284747
      ],
      [
        "ĠDoes",
        -10.518227714188273
      ],
      [
        "said",
        -10.518294118510136
      ],
      [
        "Ġtrail",
        -10.51845877163533
      ],
      [
        "Ġpar",
        -10.520398579034037
      ],
      [
        "Ġprices",
        -10.520869185066678
      ],
      [
        "Ġdespi",
        -10.520922488877185
      ],
      [
        "Ġfair",
        -10.521423870471194
      ],
      [
        "Ġvelocit",
        -10.522634438315045
      ],
      [
        "unti",
        -10.522773488463152
      ],
      [
        "Ġsouthern",
        -10.522815939576804
      ],
      [
        "Ġexam",
        -10.523796019329447
      ],
      [
        "Ġvibrant",
        -10.524174934422737
      ],
      [
        "Ġwashing",
        -10.52431074595048
      ],
      [
        "Ġmo",
        -10.524314546608988
      ],
      [
        "ĠTwo",
        -10.525394045260462
      ],
      [
        "force",
        -10.52634114466182
      ],
      [
        "Ġmeals",
        -10.526357809403642
      ],
      [
        "ory",
        -10.52649498312332
      ],
      [
        "ver",
        -10.52671063046168
      ],
      [
        "need",
        -10.526978693502222
      ],
      [
        "ated",
        -10.527413087105748
      ],
      [
        "order",
        -10.527981532580473
      ],
      [
        "ling",
        -10.528074181872029
      ],
      [
        "Ġculinar",
        -10.528473370368882
      ],
      [
        "ĠAugust",
        -10.52847721326005
      ],
      [
        "Ġdelicious",
        -10.529070383789923
      ],
      [
        "Ġoutcomes",
        -10.530183264024505
      ],
      [
        "Ġsufficient",
        -10.53073240234468
      ],
      [
        "stone",
        -10.531001492003526
      ],
      [
        "Ġbaking",
        -10.531064509846797
      ],
      [
        "Understanding",
        -10.531614868559576
      ],
      [
        "Ġattache",
        -10.53332554792804
      ],
      [
        "Ġstreet",
        -10.533556710018637
      ],
      [
        "Ġtumor",
        -10.53377185289542
      ],
      [
        "Ġdetermin",
        -10.533974345756544
      ],
      [
        "Ġimagine",
        -10.534152417728446
      ],
      [
        "ĠCommon",
        -10.53520807154698
      ],
      [
        "Ġproductivity",
        -10.535334783535555
      ],
      [
        "Ġtrends",
        -10.535451670006914
      ],
      [
        "Even",
        -10.535784849185887
      ],
      [
        "amount",
        -10.536414950005092
      ],
      [
        "Ġherb",
        -10.53735905071208
      ],
      [
        "served",
        -10.537613729019665
      ],
      [
        "Ġmistake",
        -10.537714496121918
      ],
      [
        "Ġluck",
        -10.538202780424395
      ],
      [
        "Ġexcept",
        -10.538957430390386
      ],
      [
        "Ġshowe",
        -10.539335638688854
      ],
      [
        "Ġattribute",
        -10.540994938737851
      ],
      [
        "Ġremaining",
        -10.541427125753184
      ],
      [
        "Ġmutation",
        -10.542177085217345
      ],
      [
        "Ġarrive",
        -10.54292656703952
      ],
      [
        "Ġsegment",
        -10.543614074922708
      ],
      [
        "Ġdebate",
        -10.54371031192769
      ],
      [
        "Ġdanger",
        -10.544037243988967
      ],
      [
        "usually",
        -10.544206440431488
      ],
      [
        "OVID",
        -10.544433052200183
      ],
      [
        "Ġborder",
        -10.544458733558471
      ],
      [
        "Ġusage",
        -10.54474315497414
      ],
      [
        "?\"",
        -10.544840858067271
      ],
      [
        "Ġbroad",
        -10.544851713361844
      ],
      [
        "Ġdiameter",
        -10.545244886990012
      ],
      [
        "Ġmolecule",
        -10.545942081761387
      ],
      [
        "Ġrelation",
        -10.550210610773224
      ],
      [
        "Ġnorthern",
        -10.550311151932402
      ],
      [
        "night",
        -10.550389754816514
      ],
      [
        "measuring",
        -10.55073791927526
      ],
      [
        "bilities",
        -10.550830594153958
      ],
      [
        "ĠAnimal",
        -10.551082583941836
      ],
      [
        "aid",
        -10.551553660502872
      ],
      [
        "ĠDur",
        -10.551608996587852
      ],
      [
        "},",
        -10.55351493305416
      ],
      [
        "ĠSan",
        -10.55431809405773
      ],
      [
        "hat",
        -10.554522333914548
      ],
      [
        "ium",
        -10.555278595428154
      ],
      [
        "Ġpromoting",
        -10.555340907147864
      ],
      [
        "Ġagricultural",
        -10.555665329746509
      ],
      [
        "Ġnation",
        -10.555708200307638
      ],
      [
        "ĠWindow",
        -10.555847863609062
      ],
      [
        "fitness",
        -10.55622983620844
      ],
      [
        "Every",
        -10.556283774374943
      ],
      [
        "Ġlaborator",
        -10.556779306166275
      ],
      [
        "present",
        -10.557332199586591
      ],
      [
        "Ġfascinating",
        -10.557739909872817
      ],
      [
        "read",
        -10.55808722145435
      ],
      [
        "Ġriver",
        -10.558259496396133
      ],
      [
        "Ġsouth",
        -10.55842093000648
      ],
      [
        "Ġthanks",
        -10.558541656488876
      ],
      [
        "Ġhumidity",
        -10.558888127313509
      ],
      [
        "Ġhorses",
        -10.558928020773656
      ],
      [
        "Ġselecte",
        -10.559744249764034
      ],
      [
        "ĠLearning",
        -10.559855760213363
      ],
      [
        "Ġwindows",
        -10.56065146753567
      ],
      [
        "Ġchosen",
        -10.56097372644663
      ],
      [
        "Ġtrain",
        -10.561171754305647
      ],
      [
        "Ġstable",
        -10.56194383435002
      ],
      [
        "Ġbiggest",
        -10.562212279536649
      ],
      [
        "Ġfille",
        -10.562631040399951
      ],
      [
        "been",
        -10.56288723363904
      ],
      [
        "does",
        -10.563219752613325
      ],
      [
        "ages",
        -10.563386469307456
      ],
      [
        "Ġinteractive",
        -10.563535716731373
      ],
      [
        "Like",
        -10.56401941195118
      ],
      [
        "Ġshock",
        -10.564042234166523
      ],
      [
        "Ġ+",
        -10.564062306619004
      ],
      [
        "ĠTHE",
        -10.56491590876396
      ],
      [
        "Ġdishe",
        -10.565612376439155
      ],
      [
        "Make",
        -10.566884293899754
      ],
      [
        "Ġreports",
        -10.568016775026493
      ],
      [
        "Ġforget",
        -10.568571210910264
      ],
      [
        "Ġnutrient",
        -10.569017373514075
      ],
      [
        "Ġinner",
        -10.569550122914514
      ],
      [
        "ĠTechnology",
        -10.569756358011077
      ],
      [
        "Ġadequate",
        -10.570073974954944
      ],
      [
        "Ġgift",
        -10.570170364032368
      ],
      [
        "Ġstarch",
        -10.570407823600217
      ],
      [
        "Ġproposed",
        -10.570591529336117
      ],
      [
        "Ġdrain",
        -10.57088383806258
      ],
      [
        "Ġhandling",
        -10.57122414301266
      ],
      [
        "structure",
        -10.571493797944065
      ],
      [
        "Figure",
        -10.571727248633994
      ],
      [
        "Ġcommitment",
        -10.572198581120483
      ],
      [
        "different",
        -10.572784996020989
      ],
      [
        "Ġconventional",
        -10.572955330051736
      ],
      [
        "Ġexpansion",
        -10.573389246276715
      ],
      [
        "He",
        -10.573438569005916
      ],
      [
        "Ġmenu",
        -10.575169756256912
      ],
      [
        "Ġdioxide",
        -10.575462878116433
      ],
      [
        "Ġhunting",
        -10.57565349774475
      ],
      [
        "cell",
        -10.576026134585543
      ],
      [
        "Ġgraduate",
        -10.57642361768458
      ],
      [
        "important",
        -10.576853289520564
      ],
      [
        "life",
        -10.577367551195598
      ],
      [
        "role",
        -10.5775328373293
      ],
      [
        "Ġrenewable",
        -10.578345039400158
      ],
      [
        "Ġdepartment",
        -10.578431239496805
      ],
      [
        "Have",
        -10.578796564662756
      ],
      [
        "Ġhappening",
        -10.579265768504388
      ],
      [
        "tell",
        -10.579737372968836
      ],
      [
        "ĠNatural",
        -10.579949179279316
      ],
      [
        "Ġdetection",
        -10.580255421927244
      ],
      [
        "ealing",
        -10.58040099978383
      ],
      [
        "Ġsatellite",
        -10.580406035343092
      ],
      [
        "Ġfeedback",
        -10.580965029063542
      ],
      [
        "Ġinvestigate",
        -10.581007097486031
      ],
      [
        "Ġaren",
        -10.58117408710262
      ],
      [
        "Ġmild",
        -10.58125208305986
      ],
      [
        "Ġcolumn",
        -10.581881104190344
      ],
      [
        "Ġsex",
        -10.581927744711235
      ],
      [
        "intende",
        -10.582708678725918
      ],
      [
        "Ġcharg",
        -10.582768945315063
      ],
      [
        "Ġnose",
        -10.583264678432991
      ],
      [
        "device",
        -10.583350052392618
      ],
      [
        "Ġcarbohydrate",
        -10.583482214105205
      ],
      [
        "art",
        -10.584295109364833
      ],
      [
        "identifying",
        -10.584299543078044
      ],
      [
        "Ġwhereas",
        -10.584664174296174
      ],
      [
        "iness",
        -10.58488401057847
      ],
      [
        "Ġstores",
        -10.584999251519452
      ],
      [
        "Ġwonderful",
        -10.585062797198235
      ],
      [
        "Ġtires",
        -10.585445869993226
      ],
      [
        "AI",
        -10.58655658861323
      ],
      [
        "years",
        -10.586775568022972
      ],
      [
        "Ġvacuum",
        -10.58709387329877
      ],
      [
        "Get",
        -10.587133804610271
      ],
      [
        "ber",
        -10.587200999597757
      ],
      [
        "world",
        -10.587515678396134
      ],
      [
        "ĠWhite",
        -10.587776452503247
      ],
      [
        "formed",
        -10.587873016846055
      ],
      [
        "gently",
        -10.588149803828076
      ],
      [
        "Ġgrant",
        -10.58919538895796
      ],
      [
        "Ġstands",
        -10.589415660357076
      ],
      [
        "want",
        -10.58942796938508
      ],
      [
        "Ġlo",
        -10.589465912808784
      ],
      [
        "Don",
        -10.589605446068354
      ],
      [
        "Ġinitiative",
        -10.589629416855429
      ],
      [
        "Ġextende",
        -10.590005532596408
      ],
      [
        "ĠOcean",
        -10.590542786817268
      ],
      [
        "Ġgreenhouse",
        -10.590546810658994
      ],
      [
        "ING",
        -10.590750148378133
      ],
      [
        "Ġassociation",
        -10.590858602436212
      ],
      [
        "Ġspecialized",
        -10.592002739178357
      ],
      [
        "Ġfixed",
        -10.592951447408602
      ],
      [
        "ĠBlue",
        -10.593270726588443
      ],
      [
        "reated",
        -10.593309389426553
      ],
      [
        "Ġrecycle",
        -10.593779474851573
      ],
      [
        "ĠInternet",
        -10.594288860680477
      ],
      [
        "Ġprey",
        -10.594756482666254
      ],
      [
        "Please",
        -10.59496756692214
      ],
      [
        "Ġwin",
        -10.5953117674107
      ],
      [
        "closed",
        -10.59564326226239
      ],
      [
        "Ġdiffer",
        -10.596273086569443
      ],
      [
        "Ġtoxic",
        -10.59654110947918
      ],
      [
        "Ġvalve",
        -10.596781320024968
      ],
      [
        "love",
        -10.59724113162921
      ],
      [
        "Ġshark",
        -10.597354028932418
      ],
      [
        "ĠHuman",
        -10.597582796442367
      ],
      [
        "Ġveterinarian",
        -10.597883235055924
      ],
      [
        "Ġprofit",
        -10.598285668334338
      ],
      [
[...]
