{
  "version": "1.0",
  "truncation": null,
  "padding": null,
  "added_tokens": [
    {
      "id": 0,
      "content": "<|bos|>",
      "single_word": false,
      "lstrip": false,
      "rstrip": false,
      "normalized": false,
      "special": true
    },
    {
      "id": 1,
      "content": "<|user_start|>",
      "single_word": false,
      "lstrip": false,
      "rstrip": false,
      "normalized": false,
      "special": true
    },
    {
      "id": 2,
      "content": "<|user_end|>",
      "single_word": false,
      "lstrip": false,
      "rstrip": false,
      "normalized": false,
      "special": true
    },
    {
      "id": 3,
      "content": "<|assistant_start|>",
      "single_word": false,
      "lstrip": false,
      "rstrip": false,
      "normalized": false,
      "special": true
    },
    {
      "id": 4,
      "content": "<|assistant_end|>",
      "single_word": false,
      "lstrip": false,
      "rstrip": false,
      "normalized": false,
      "special": true
    },
    {
      "id": 5,
      "content": "<|python_start|>",
      "single_word": false,
      "lstrip": false,
      "rstrip": false,
      "normalized": false,
      "special": true
    },
    {
      "id": 6,
      "content": "<|python_end|>",
      "single_word": false,
      "lstrip": false,
      "rstrip": false,
      "normalized": false,
      "special": true
    },
    {
      "id": 7,
      "content": "<|output_start|>",
      "single_word": false,
      "lstrip": false,
      "rstrip": false,
      "normalized": false,
      "special": true
    },
    {
      "id": 8,
      "content": "<|output_end|>",
      "single_word": false,
      "lstrip": false,
      "rstrip": false,
      "normalized": false,
      "special": true
    },
    {
      "id": 9,
      "content": "<|unk|>",
      "single_word": false,
      "lstrip": false,
      "rstrip": false,
      "normalized": false,
      "special": true
    }
  ],
  "normalizer": null,
  "pre_tokenizer": {
    "type": "Sequence",
    "pretokenizers": [
      {
        "type": "Split",
        "pattern": {
          "Regex": "'(?i:[sdmt]|ll|ve|re)|[^\\r\\n\\p{L}\\p{N}]?+\\p{L}+|\\p{N}{1,2}| ?[^\\s\\p{L}\\p{N}]++[\\r\\n]*|\\s*[\\r\\n]|\\s+(?!\\S)|\\s+"
        },
        "behavior": "Isolated",
        "invert": false
      },
      {
        "type": "ByteLevel",
        "add_prefix_space": false,
        "trim_offsets": true,
        "use_regex": false
      }
    ]
  },
  "post_processor": {
    "type": "TemplateProcessing",
    "single": [
      {
        "Sequence": {
          "id": "A",
          "type_id": 0
        }
      }
    ],
    "pair": [
      {
        "Sequence": {
          "id": "A",
          "type_id": 0
        }
      },
      {
        "Sequence": {
          "id": "B",
          "type_id": 1
        }
      }
    ],
    "special_tokens": {}
  },
  "decoder": null,
  "model": {
    "type": "BPE",
    "dropout": null,
    "unk_token": "<|unk|>",
    "continuing_subword_prefix": null,
    "end_of_word_suffix": null,
    "fuse_unk": false,
    "byte_fallback": false,
    "ignore_merges": false,
    "vocab": {
      "<|bos|>": 0,
      "<|user_start|>": 1,
      "<|user_end|>": 2,
      "<|assistant_start|>": 3,
      "<|assistant_end|>": 4,
      "<|python_start|>": 5,
      "<|python_end|>": 6,
      "<|output_start|>": 7,
      "<|output_end|>": 8,
      "<|unk|>": 9,
      "!": 10,
      "\"": 11,
      "#": 12,
      "$": 13,
      "%": 14,
      "&": 15,
      "'": 16,
      "(": 17,
      ")": 18,
      "*": 19,
      "+": 20,
      ",": 21,
      "-": 22,
      ".": 23,
      "/": 24,
      "0": 25,
      "1": 26,
      "2": 27,
      "3": 28,
      "4": 29,
      "5": 30,
      "6": 31,
      "7": 32,
      "8": 33,
      "9": 34,
      ":": 35,
      ";": 36,
      "<": 37,
      "=": 38,
      ">": 39,
      "?": 40,
      "@": 41,
      "A": 42,
      "B": 43,
      "C": 44,
      "D": 45,
      "E": 46,
      "F": 47,
      "G": 48,
      "H": 49,
      "I": 50,
      "J": 51,
      "K": 52,
      "L": 53,
      "M": 54,
      "N": 55,
      "O": 56,
      "P": 57,
      "Q": 58,
      "R": 59,
      "S": 60,
      "T": 61,
      "U": 62,
      "V": 63,
      "W": 64,
      "X": 65,
      "Y": 66,
      "Z": 67,
      "[": 68,
      "\\": 69,
      "]": 70,
      "^": 71,
      "_": 72,
      "`": 73,
      "a": 74,
      "b": 75,
      "c": 76,
      "d": 77,
      "e": 78,
      "f": 79,
      "g": 80,
      "h": 81,
      "i": 82,
      "j": 83,
      "k": 84,
      "l": 85,
      "m": 86,
      "n": 87,
      "o": 88,
      "p": 89,
      "q": 90,
      "r": 91,
      "s": 92,
      "t": 93,
      "u": 94,
      "v": 95,
      "w": 96,
      "x": 97,
      "y": 98,
      "z": 99,
      "{": 100,
      "|": 101,
      "}": 102,
      "~": 103,
      "¡": 104,
      "¢": 105,
      "£": 106,
      "¤": 107,
      "¥": 108,
      "¦": 109,
      "§": 110,
      "¨": 111,
      "©": 112,
      "ª": 113,
      "«": 114,
      "¬": 115,
      "®": 116,
      "¯": 117,
      "°": 118,
      "±": 119,
      "²": 120,
      "³": 121,
      "´": 122,
      "µ": 123,
      "¶": 124,
      "·": 125,
      "¸": 126,
      "¹": 127,
      "º": 128,
      "»": 129,
      "¼": 130,
      "½": 131,
      "¾": 132,
      "¿": 133,
      "À": 134,
      "Á": 135,
      "Â": 136,
      "Ã": 137,
      "Ä": 138,
      "Å": 139,
      "Æ": 140,
      "Ç": 141,
      "È": 142,
      "É": 143,
      "Ê": 144,
      "Ë": 145,
      "Ì": 146,
      "Í": 147,
      "Î": 148,
      "Ï": 149,
      "Ð": 150,
      "Ñ": 151,
      "Ò": 152,
      "Ó": 153,
      "Ô": 154,
      "Õ": 155,
      "Ö": 156,
      "×": 157,
      "Ø": 158,
      "Ù": 159,
      "Ú": 160,
      "Û": 161,
      "Ü": 162,
      "Ý": 163,
      "Þ": 164,
      "ß": 165,
      "à": 166,
      "á": 167,
      "â": 168,
      "ã": 169,
      "ä": 170,
      "å": 171,
      "æ": 172,
      "ç": 173,
      "è": 174,
      "é": 175,
      "ê": 176,
      "ë": 177,
      "ì": 178,
      "í": 179,
      "î": 180,
      "ï": 181,
      "ð": 182,
      "ñ": 183,
      "ò": 184,
      "ó": 185,
      "ô": 186,
      "õ": 187,
      "ö": 188,
      "÷": 189,
      "ø": 190,
      "ù": 191,
      "ú": 192,
      "û": 193,
      "ü": 194,
      "ý": 195,
      "þ": 196,
      "ÿ": 197,
      "Ā": 198,
      "ā": 199,
      "Ă": 200,
      "ă": 201,
      "Ą": 202,
      "ą": 203,
      "Ć": 204,
      "ć": 205,
      "Ĉ": 206,
      "ĉ": 207,
      "Ċ": 208,
      "ċ": 209,
      "Č": 210,
      "č": 211,
      "Ď": 212,
      "ď": 213,
      "Đ": 214,
      "đ": 215,
      "Ē": 216,
      "ē": 217,
      "Ĕ": 218,
      "ĕ": 219,
      "Ė": 220,
      "ė": 221,
      "Ę": 222,
      "ę": 223,
      "Ě": 224,
      "ě": 225,
      "Ĝ": 226,
      "ĝ": 227,
      "Ğ": 228,
      "ğ": 229,
      "Ġ": 230,
      "ġ": 231,
      "Ģ": 232,
      "ģ": 233,
      "Ĥ": 234,
      "ĥ": 235,
      "Ħ": 236,
      "ħ": 237,
      "Ĩ": 238,
      "ĩ": 239,
      "Ī": 240,
      "ī": 241,
      "Ĭ": 242,
      "ĭ": 243,
      "Į": 244,
      "į": 245,
      "İ": 246,
      "ı": 247,
      "Ĳ": 248,
      "ĳ": 249,
      "Ĵ": 250,
      "ĵ": 251,
      "Ķ": 252,
      "ķ": 253,
      "ĸ": 254,
      "Ĺ": 255,
      "ĺ": 256,
      "Ļ": 257,
      "ļ": 258,
      "Ľ": 259,
      "ľ": 260,
      "Ŀ": 261,
      "ŀ": 262,
      "Ł": 263,
      "ł": 264,
      "Ń": 265,
      "Ġt": 266,
      "Ġa": 267,
      "in": 268,
      "he": 269,
      "re": 270,
      "on": 271,
      "Ġthe": 272,
      "er": 273,
      "Ġs": 274,
      "at": 275,
      "Ġc": 276,
      "Ġo": 277,
      "en": 278,
      "es": 279,
      "Ġw": 280,
      "nd": 281,
      "ing": 282,
      "it": 283,
      "is": 284,
      "Ġp": 285,
      "or": 286,
      "Ġf": 287,
      "Ġb": 288,
      "ou": 289,
      "al": 290,
      "an": 291,
      "Ġm": 292,
      "ed": 293,
      "Ġto": 294,
      "Ġin": 295,
      "Ġof": 296,
      "ar": 297,
      "Ġand": 298,
      "Ġd": 299,
      "ic": 300,
      "ion": 301,
      "le": 302,
      "ro": 303,
      "as": 304,
      "Ġh": 305,
      "Ġth": 306,
      "ct": 307,
      "Ġe": 308,
      "ent": 309,
      "Ġl": 310,
      "ve": 311,
      "il": 312,
      "Ġre": 313,
      "om": 314,
      "Ġis": 315,
      "us": 316,
      ".Ċ": 317,
      "Ġy": 318,
      "Ġn": 319,
      "et": 320,
      "Ġg": 321,
      "ly": 322,
      "Ġyou": 323,
      "ow": 324,
      "Ġbe": 325,
      "ĠT": 326,
      "im": 327,
      "ut": 328,
      "id": 329,
      "st": 330,
      "ot": 331,
      "ol": 332,
      "ra": 333,
      "ce": 334,
      "ig": 335,
      "Ġfor": 336,
      "ch": 337,
      "ation": 338,
      "ĠA": 339,
      "ur": 340,
      "Ġst": 341,
      "Ġon": 342,
      "el": 343,
      "ĠI": 344,
      "Ġthat": 345,
      "ir": 346,
      "ver": 347,
      "ul": 348,
      "Ġare": 349,
      "ith": 350,
      "ay": 351,
      "Ġit": 352,
      "Ġpro": 353,
      "se": 354,
      "if": 355,
      "am": 356,
      "Ġwith": 357,
      "ĠS": 358,
      "Ġan": 359,
      ".ĊĊ": 360,
      "Ġor": 361,
      "Ġas": 362,
      "Ġcon": 363,
      "od": 364,
      "est": 365,
      "her": 366,
      "ad": 367,
      "Ġal": 368,
      "ĠC": 369,
      "ĊĊ": 370,
      "ter": 371,
      "un": 372,
      "Ġwh": 373,
      "ke": 374,
      "ge": 375,
      "Ġcan": 376,
      "ĠThe": 377,
      "ab": 378,
      "ate": 379,
      "ure": 380,
      "Ġcom": 381,
      "ess": 382,
      "Ġex": 383,
      "ill": 384,
      "um": 385,
      "Ġha": 386,
      "Ġhe": 387,
      "ĠW": 388,
      "ers": 389,
      "ore": 390,
      "ant": 391,
      "pe": 392,
      "qu": 393,
      "th": 394,
      "igh": 395,
      "'s": 396,
      "ive": 397,
      "em": 398,
      "Ġyour": 399,
      "Ġus": 400,
      "Ġwe": 401,
      "ac": 402,
      "ain": 403,
      "Ġv": 404,
      "ment": 405,
      "Ġ(": 406,
      "ies": 407,
      "op": 408,
      "ity": 409,
      "ist": 410,
      "Ġse": 411,
      "Ġde": 412,
      "ĠP": 413,
      "os": 414,
      "rom": 415,
      "ld": 416,
      "ĠB": 417,
      "ĠM": 418,
      "Ġne": 419,
      "pp": 420,
      "Ġch": 421,
      "Ġen": 422,
      "Ġsu": 423,
      "Ġr": 424,
      "Ġat": 425,
      "ect": 426,
      "ial": 427,
      "Ġsh": 428,
      "iv": 429,
      "Ġhave": 430,
      "Ġfrom": 431,
      "ort": 432,
      "ight": 433,
      "oc": 434,
      "nt": 435,
      "Ġby": 436,
      "ud": 437,
      "Ġle": 438,
      "ĠD": 439,
      "og": 440,
      "res": 441,
      "ĠH": 442,
      "Ġpl": 443,
      "per": 444,
      "and": 445,
      "art": 446,
      "Ġnot": 447,
      "all": 448,
      "ical": 449,
      "ĠF": 450,
      "ome": 451,
      "Ġthis": 452,
      "ust": 453,
      "ib": 454,
      "ell": 455,
      "rou": 456,
      "ost": 457,
      "ide": 458,
      "Ġu": 459,
      "Ġab": 460,
      "ine": 461,
      "ĠE": 462,
      "ould": 463,
      "act": 464,
      "Ġma": 465,
      "out": 466,
      "Ġim": 467,
      "pt": 468,
      "ns": 469,
      "ions": 470,
      "iz": 471,
      "ĠR": 472,
      "ere": 473,
      "du": 474,
      "Ġcomp": 475,
      "Ġwhe": 476,
      "ich": 477,
      "Ġdo": 478,
      "ff": 479,
      "Ġwill": 480,
      "Ġwas": 481,
      "ard": 482,
      "Ġint": 483,
      "âĢ": 484,
      "Ġwor": 485,
      "Ġtheir": 486,
      "ater": 487,
      "ther": 488,
      "age": 489,
      "gh": 490,
      "our": 491,
      "Ġk": 492,
      "Ġthey": 493,
      "pl": 494,
      "ood": 495,
      "Ġad": 496,
      "ĠN": 497,
      "The": 498,
      "ast": 499,
      "king": 500,
      "are": 501,
      "Ġall": 502,
      "ated": 503,
      "Ġmore": 504,
      "ĠG": 505,
      "able": 506,
      "ĠL": 507,
      "end": 508,
      "ip": 509,
      "ult": 510,
      "ag": 511,
      "Ġcont": 512,
      "Ġme": 513,
      "ks": 514,
      "ous": 515,
      "hat": 516,
      "ally": 517,
      "Ġbut": 518,
      "ep": 519,
      "Ġinc": 520,
      "wer": 521,
      "oo": 522,
      "cc": 523,
      "Ġso": 524,
      "ans": 525,
      "so": 526,
      "ĠO": 527,
      "ind": 528,
      "ike": 529,
      "ru": 530,
      "ear": 531,
      "Ġcl": 532,
      "orm": 533,
      "ry": 534,
      "ong": 535,
      "Ġun": 536,
      "Ġte": 537,
      "ance": 538,
      "Ġres": 539,
      "Ġ\"": 540,
      "estion": 541,
      "Ġwhich": 542,
      "Ġhas": 543,
      "Ġdis": 544,
      "ire": 545,
      "Ġj": 546,
      "vel": 547,
      "Qu": 548,
      "ations": 549,
      "ie": 550,
      "Ġsp": 551,
      "ction": 552,
      "Ġout": 553,
      "Ġimp": 554,
      "his": 555,
      "20": 556,
      "Ġother": 557,
      "ign": 558,
      "Ġpre": 559,
      "ence": 560,
      "ents": 561,
      "Ġalso": 562,
      "one": 563,
      "av": 564,
      "nswer": 565,
      "Question": 566,
      "ass": 567,
      "ri": 568,
      "Ġtim": 569,
      "ach": 570,
      "reat": 571,
      "ace": 572,
      "Ġfe": 573,
      "Ġone": 574,
      "Ġthem": 575,
      "ĠAnswer": 576,
      "ice": 577,
      "Ġman": 578,
      "ition": 579,
      "very": 580,
      "ors": 581,
      "'t": 582,
      "ens": 583,
      "low": 584,
      "Ġper": 585,
      "ack": 586,
      "ĠIn": 587,
      "ase": 588,
      "aus": 589,
      "ap": 590,
      "Ġspe": 591,
      "ĠU": 592,
      "Ġro": 593,
      "Ġabout": 594,
      "ĠIt": 595,
      "ary": 596,
      "Ġsc": 597,
      "iff": 598,
      "Ġlike": 599,
      "Ġup": 600,
      "ress": 601,
      "ile": 602,
      "ue": 603,
      "ia": 604,
      "Ġsome": 605,
      "Ġwhen": 606,
      "now": 607,
      "Ġev": 608,
      "ite": 609,
      "Ġqu": 610,
      "Ġneed": 611,
      "Ġcol": 612,
      "Ġinto": 613,
      "ild": 614,
      "ces": 615,
      "Ġif": 616,
      "ound": 617,
      "Ġdiff": 618,
      "Ġpart": 619,
      "ber": 620,
      "Ġsy": 621,
      "ose": 622,
      "Ġapp": 623,
      "form": 624,
      "ak": 625,
      "ric": 626,
      "ĠThis": 627,
      "Ġmay": 628,
      "row": 629,
      "Ġits": 630,
      "Ġtime": 631,
      "Ġuse": 632,
      "Ġthan": 633,
      "ays": 634,
      "..": 635,
      "ific": 636,
      "ame": 637,
      "Ġhel": 638,
      "te": 639,
      "Ġtra": 640,
      "Ġhow": 641,
      "ish": 642,
      "ings": 643,
      "Ġrec": 644,
      "Ġbec": 645,
      "Ġcomm": 646,
      "ll": 647,
      "Ġover": 648,
      "ĠY": 649,
      "Ġar": 650,
      "ail": 651,
      "Ġbet": 652,
      "Ġthere": 653,
      "lect": 654,
      "als": 655,
      "ree": 656,
      "ating": 657,
      "Ġhelp": 658,
      "ang": 659,
      "int": 660,
      "ond": 661,
      "Ġpe": 662,
      "ĠWhat": 663,
      "Ġbl": 664,
      "ord": 665,
      "cess": 666,
      "Ġtr": 667,
      "ular": 668,
      "Ġgo": 669,
      "Ġthese": 670,
      "Ġany": 671,
      "Ġdes": 672,
      "Ġstud": 673,
      "Ġwater": 674,
      "Ġgen": 675,
      "Ġcons": 676,
      "Ġco": 677,
      "Ġknow": 678,
      "nder": 679,
      "ount": 680,
      "hy": 681,
      "ub": 682,
      "ĠâĢ": 683,
      "we": 684,
      "ause": 685,
      "ĠJ": 686,
      "Ġspec": 687,
      "les": 688,
      "ons": 689,
      "olog": 690,
      "red": 691,
      "Ġget": 692,
      "rough": 693,
      "Ġind": 694,
      "ari": 695,
      "Ġeff": 696,
      "ature": 697,
      "ory": 698,
      "Ġour": 699,
      "Ġwere": 700,
      "Ġdiffere": 701,
      "ove": 702,
      "ake": 703,
      "ough": 704,
      "Ġwhat": 705,
      "Ġused": 706,
      "alth": 707,
      "Ġprodu": 708,
      "Ġmost": 709,
      "Ġra": 710,
      "Ġyear": 711,
      "Ġfl": 712,
      "Ġacc": 713,
      "Ġsa": 714,
      "irst": 715,
      "ient": 716,
      "ning": 717,
      "stem": 718,
      "ting": 719,
      "ck": 720,
      "round": 721,
      "Ġsuch": 722,
      "ook": 723,
      "lud": 724,
      "Ġact": 725,
      "ms": 726,
      "Ġwho": 727,
      "10": 728,
      "ates": 729,
      "erg": 730,
      "Ġunder": 731,
      "Ġoff": 732,
      "ple": 733,
      "Ġmake": 734,
      "Ġam": 735,
      "ne": 736,
      "ople": 737,
      "Ġadd": 738,
      "Ġsm": 739,
      "vers": 740,
      "Ġag": 741,
      "Ġprov": 742,
      "Ġnew": 743,
      "ick": 744,
      "ĠSt": 745,
      "uring": 746,
      "xt": 747,
      "Ġem": 748,
      "ful": 749,
      "ange": 750,
      "eth": 751,
      "Ġthrough": 752,
      "ov": 753,
      "Ġcar": 754,
      "Ġshould": 755,
      "ility": 756,
      "erv": 757,
      "Ġbeen": 758,
      "Ġinclud": 759,
      "Ġtw": 760,
      "ject": 761,
      "ments": 762,
      "ower": 763,
      "Ġty": 764,
      "ics": 765,
      "Ġwould": 766,
      "Ġpr": 767,
      "Ġpeople": 768,
      "ark": 769,
      "Ġwork": 770,
      "Ġpo": 771,
      "own": 772,
      "Ġfirst": 773,
      "ren": 774,
      "oth": 775,
      "Ġdi": 776,
      "its": 777,
      "Ġinter": 778,
      "19": 779,
      "Ġno": 780,
      "Ġrel": 781,
      "ced": 782,
      "Ġpos": 783,
      "Ġonly": 784,
      "ise": 785,
      "velop": 786,
      "ble": 787,
      "ĠV": 788,
      "ible": 789,
      "old": 790,
      "Ġsystem": 791,
      "ĠK": 792,
      "ph": 793,
      "hes": 794,
      "Ġreg": 795,
      "Ġhealth": 796,
      "ative": 797,
      "ten": 798,
      "ract": 799,
      "ities": 800,
      "Ġke": 801,
      "Ġsur": 802,
      "Ġhigh": 803,
      "Ġdifferent": 804,
      "Ġwell": 805,
      "Ġmany": 806,
      "Ġbu": 807,
      "Ġmy": 808,
      "ual": 809,
      "Ġjust": 810,
      "fore": 811,
      "tain": 812,
      "hen": 813,
      "ize": 814,
      "fter": 815,
      "get": 816,
      "ween": 817,
      "Ġexper": 818,
      "Ġrem": 819,
      "chn": 820,
      "ience": 821,
      "Ġplant": 822,
      "Ġmod": 823,
      "Ġdoes": 824,
      "ob": 825,
      "ram": 826,
      "Ġtwo": 827,
      "Ġdevelop": 828,
      "Ġwhere": 829,
      "--": 830,
      "lic": 831,
      "ts": 832,
      "ade": 833,
      "Ġbetween": 834,
      "Ġinv": 835,
      "ath": 836,
      "ased": 837,
      "ink": 838,
      "cy": 839,
      "rit": 840,
      "Ġob": 841,
      "Ġdec": 842,
      "Ġvari": 843,
      "hed": 844,
      "Ġac": 845,
      "erm": 846,
      "Ġche": 847,
      "Ġrep": 848,
      "Ġlong": 849,
      "ĠCh": 850,
      "arm": 851,
      "Ġsupp": 852,
      "Ġprocess": 853,
      "uch": 854,
      "Ġdet": 855,
      "ife": 856,
      "Ġway": 857,
      "Ġform": 858,
      "ft": 859,
      "Ġimport": 860,
      "atter": 861,
      ").": 862,
      "Ġcell": 863,
      "Ġusing": 864,
      "Ġass": 865,
      "ential": 866,
      "ian": 867,
      "?Ċ": 868,
      "ious": 869,
      "rib": 870,
      "Ġtrans": 871,
      "Ġcould": 872,
      "Ġinst": 873,
      "iss": 874,
      "iqu": 875,
      "Ġsim": 876,
      "Ġthen": 877,
      "Ġsol": 878,
      "In": 879,
      "Ġmain": 880,
      "ually": 881,
      "Ġgrow": 882,
      "Ġsub": 883,
      "Ġeven": 884,
      "ody": 885,
      "ĠIf": 886,
      "ically": 887,
      "Ġinf": 888,
      "gg": 889,
      "Ġbecause": 890,
      "ins": 891,
      "oy": 892,
      "Ġtechn": 893,
      "Ġext": 894,
      "Ġatt": 895,
      "ergy": 896,
      "Ġins": 897,
      "ever": 898,
      "Ġcre": 899,
      "ĠâĢĵ": 900,
      "Ġevery": 901,
      "Ġsign": 902,
      "Ġrese": 903,
      "arch": 904,
      "pect": 905,
      "Ġnum": 906,
      "ĠHow": 907,
      "Ġvery": 908,
      "wn": 909,
      "ef": 910,
      "Ġeffect": 911,
      "gan": 912,
      "Ġfood": 913,
      "00": 914,
      "ily": 915,
      "Ġsee": 916,
      "Ġlar": 917,
      "iron": 918,
      "uc": 919,
      "Ġhis": 920,
      "'re": 921,
      "Ġph": 922,
      "ution": 923,
      "Ġexp": 924,
      "Ġhad": 925,
      "Ġstr": 926,
      "ational": 927,
      "Ġgener": 928,
      "Ġback": 929,
      "Ġmuch": 930,
      "Ġgood": 931,
      "ron": 932,
      "Ġwant": 933,
      "Ġsk": 934,
      "Ġgra": 935,
      "Ġsmall": 936,
      "ec": 937,
      "),": 938,
      "ool": 939,
      "Ġ-": 940,
      "Ġresult": 941,
      "Ġmin": 942,
      "Ġexam": 943,
      "Ġeach": 944,
      "ĠThey": 945,
      "Ġdisc": 946,
      "ĠYou": 947,
      "ology": 948,
      "ruct": 949,
      "Ġchild": 950,
      "Ġfind": 951,
      "Ġrequ": 952,
      "mer": 953,
      "ness": 954,
      "Ġwhile": 955,
      "ps": 956,
      "Ġhum": 957,
      "Ġlear": 958,
      "Ġbr": 959,
      "ures": 960,
      "Ġyears": 961,
      "ines": 962,
      "els": 963,
      "Ġfun": 964,
      "Ġimportant": 965,
      "ata": 966,
      "Ġav": 967,
      "ural": 968,
      "eld": 969,
      "aterial": 970,
      "Ġafter": 971,
      "?ĊĊ": 972,
      "cial": 973,
      "Ġear": 974,
      "Ġcle": 975,
      "ollow": 976,
      "stand": 977,
      "Ġincre": 978,
      "ues": 979,
      "Ġenergy": 980,
      "Ġmed": 981,
      "Ġloc": 982,
      "Ġpres": 983,
      "Ġsec": 984,
      "Ġelect": 985,
      "ĠWh": 986,
      "elf": 987,
      "Ġset": 988,
      "ied": 989,
      "vent": 990,
      "Ġdown": 991,
      "Ġpers": 992,
      "ĠAs": 993,
      "Ġdesign": 994,
      "Ġdog": 995,
      "Ġcor": 996,
      "Ġdon": 997,
      "nce": 998,
      "Ġstart": 999,
      "viron": 1000,
      "Ġgl": 1001,
      "Ġbre": 1002,
      "ized": 1003,
      "ward": 1004,
      "Ġref": 1005,
      "ĠWe": 1006,
      "ists": 1007,
      "Ġworld": 1008,
      "Ġbeing": 1009,
      "ality": 1010,
      "ices": 1011,
      "ros": 1012,
      "ix": 1013,
      "Ġfact": 1014,
      "Ġfound": 1015,
      "formation": 1016,
      "Ġcall": 1017,
      "Ġair": 1018,
      "other": 1019,
      "Ġdist": 1020,
      "Ġlight": 1021,
      "Ġdep": 1022,
      "Ġpot": 1023,
      "Ġeas": 1024,
      "ys": 1025,
      "Ġve": 1026,
      "ety": 1027,
      "Ġart": 1028,
      "Ġtake": 1029,
      "Ġmaterial": 1030,
      "cept": 1031,
      "Ġbefore": 1032,
      "ider": 1033,
      "Ġshe": 1034,
      "Ġduring": 1035,
      "Ġallow": 1036,
      "Ġend": 1037,
      "cer": 1038,
      "Ġlife": 1039,
      "Ġlevel": 1040,
      "Ġval": 1041,
      "Ġaround": 1042,
      "Ġtem": 1043,
      "ases": 1044,
      "Ġbody": 1045,
      "ives": 1046,
      "ages": 1047,
      "ĠUn": 1048,
      "Ġent": 1049,
      "omm": 1050,
      "iew": 1051,
      "Ġfollow": 1052,
      "Ġcur": 1053,
      "urn": 1054,
      "Ġprog": 1055,
      "ew": 1056,
      "tle": 1057,
      "Ġtyp": 1058,
      "ets": 1059,
      "Ġaut": 1060,
      "Ġher": 1061,
      "ock": 1062,
      "dition": 1063,
      "Ġcomple": 1064,
      "Ġhand": 1065,
      "ather": 1066,
      "rop": 1067,
      "Ġredu": 1068,
      "vironment": 1069,
      ".\"": 1070,
      "chool": 1071,
      "Ġpower": 1072,
      "Ġexpl": 1073,
      "Ġproble": 1074,
      "Ġchar": 1075,
      "ien": 1076,
      "Ġown": 1077,
      "Ġmade": 1078,
      "Ġsame": 1079,
      "Ġshow": 1080,
      "ield": 1081,
      "cl": 1082,
      "ger": 1083,
      "Ġpartic": 1084,
      "Ġpoint": 1085,
      "Ġprot": 1086,
      "Ġed": 1087,
      "Ġkeep": 1088,
      "ted": 1089,
      "ining": 1090,
      "acter": 1091,
      ":Ċ": 1092,
      "Ġlead": 1093,
      "Ġcat": 1094,
      "Ġright": 1095,
      "aw": 1096,
      "reen": 1097,
      "Ġthose": 1098,
      "Ġsom": 1099,
      "ale": 1100,
      "Ġoften": 1101,
      "Ġmon": 1102,
      "Ġbest": 1103,
      "ides": 1104,
      "ty": 1105,
      "Ġdata": 1106,
      "Ġread": 1107,
      "12": 1108,
      "Ġtoo": 1109,
      "eg": 1110,
      "Ġboth": 1111,
      "ium": 1112,
      "ident": 1113,
      "ĠFor": 1114,
      "ving": 1115,
      "Ġbo": 1116,
      "read": 1117,
      "Ġanim": 1118,
      "Ġstudy": 1119,
      "hys": 1120,
      "Ġopt": 1121,
      "Ġpop": 1122,
      "Ġplay": 1123,
      "Ġcare": 1124,
      "ave": 1125,
      "Ġday": 1126,
      "ird": 1127,
      "Ġmet": 1128,
      "Ġinformation": 1129,
      "io": 1130,
      "air": 1131,
      "rol": 1132,
      "iving": 1133,
      "Ġperson": 1134,
      "Ġ'": 1135,
      "eng": 1136,
      "ĠHe": 1137,
      "Ġposs": 1138,
      "ited": 1139,
      "Ġless": 1140,
      "led": 1141,
      "ng": 1142,
      "Ġvis": 1143,
      "Ġhome": 1144,
      "Ġgu": 1145,
      "ĠPro": 1146,
      "Ġeng": 1147,
      "-b": 1148,
      "Ġcommon": 1149,
      "Ġnumber": 1150,
      "ier": 1151,
      "ĠAl": 1152,
      "aking": 1153,
      "Ġtreat": 1154,
      "Ġcommun": 1155,
      "Ġproduct": 1156,
      "ivid": 1157,
      "ined": 1158,
      "Ġunderstand": 1159,
      "Ġmight": 1160,
      "What": 1161,
      "ars": 1162,
      "cing": 1163,
      "Ġequ": 1164,
      "Ġproper": 1165,
      "ork": 1166,
      "Ġop": 1167,
      "Ġpol": 1168,
      "up": 1169,
      "Ġrequire": 1170,
      "Ġcent": 1171,
      "Ġenvironment": 1172,
      "rap": 1173,
      "Ġorgan": 1174,
      "ĠThese": 1175,
      "ional": 1176,
      "perature": 1177,
      "ids": 1178,
      "Ġresp": 1179,
      "How": 1180,
      "ves": 1181,
      "Ġadv": 1182,
      "Ġresearch": 1183,
      "ull": 1184,
      "oci": 1185,
      "Ġcount": 1186,
      "imate": 1187,
      "ivers": 1188,
      "Ġben": 1189,
      "Ġlit": 1190,
      "Ġnow": 1191,
      "Ġdef": 1192,
      "-s": 1193,
      "ouse": 1194,
      "Ġap": 1195,
      "ason": 1196,
      "Ġbetter": 1197,
      "ven": 1198,
      "Ġdire": 1199,
      "Ġens": 1200,
      "und": 1201,
      "ered": 1202,
      "15": 1203,
      "ands": 1204,
      "ved": 1205,
      "Ġaff": 1206,
      "ute": 1207,
      "der": 1208,
      "Ġdr": 1209,
      "tern": 1210,
      "Ġlook": 1211,
      "Ġfam": 1212,
      "Ġpur": 1213,
      "Ġflow": 1214,
      "rent": 1215,
      "Ġtest": 1216,
      "inal": 1217,
      "Ġmem": 1218,
      "ict": 1219,
      "ince": 1220,
      "any": 1221,
      "hip": 1222,
      "ording": 1223,
      "Ġwithout": 1224,
      "Ġclass": 1225,
      "Ġsaid": 1226,
      "Ġaw": 1227,
      ":ĊĊ": 1228,
      "itions": 1229,
      "Ġsaf": 1230,
      "Ġdid": 1231,
      "ont": 1232,
      "...": 1233,
      "Ġsupport": 1234,
      "cent": 1235,
      "Ġtemperature": 1236,
      "Ġprovide": 1237,
      "ethod": 1238,
      "day": 1239,
      "Ġlarge": 1240,
      "Ġbra": 1241,
      "ulation": 1242,
      "Ġplan": 1243,
      "kes": 1244,
      "Ġide": 1245,
      "Ġserv": 1246,
      "Ġbas": 1247,
      "the": 1248,
      "oss": 1249,
      "Ġchang": 1250,
      "Ġmean": 1251,
      "Ġimpro": 1252,
      "nect": 1253,
      "This": 1254,
      "Ġstudents": 1255,
      "Ġexample": 1256,
      "ĠTh": 1257,
      "Ġprof": 1258,
      "ĠAn": 1259,
      "Ġprotect": 1260,
      "ĠThere": 1261,
      "Ġincluding": 1262,
      "Ġdise": 1263,
      "Ġbeh": 1264,
      "ways": 1265,
      "Ġgreat": 1266,
      "Ġmaking": 1267,
      "Ġstill": 1268,
      "Ġtop": 1269,
      "Ġsw": 1270,
      "ner": 1271,
      "If": 1272,
      "Ġchange": 1273,
      "Ġcells": 1274,
      "ert": 1275,
      ",\"": 1276,
      "Ġchildren": 1277,
      "Ġactiv": 1278,
      "Ġgrou": 1279,
      "ention": 1280,
      "ĠBut": 1281,
      "ior": 1282,
      "ĠTo": 1283,
      "Ġcontain": 1284,
      "Ġagain": 1285,
      "Ġtext": 1286,
      "ism": 1287,
      "rodu": 1288,
      "Ġpain": 1289,
      "Ġey": 1290,
      "ants": 1291,
      "ator": 1292,
      "ĠAnd": 1293,
      "-f": 1294,
      "Ġperform": 1295,
      "Ġplants": 1296,
      "ug": 1297,
      "ability": 1298,
      "bs": 1299,
      "Ġsl": 1300,
      "Ġris": 1301,
      "Ġknown": 1302,
      "Ġiss": 1303,
      "ead": 1304,
      "Ġthings": 1305,
      "Ġcreat": 1306,
      "Ġthree": 1307,
      "ank": 1308,
      "Ġcreate": 1309,
      "Ġcalled": 1310,
      "Ġtype": 1311,
      "Ġocc": 1312,
      "Ġdev": 1313,
      "ering": 1314,
      "Ġbenef": 1315,
      "It": 1316,
      "Ġpat": 1317,
      "Ġmethod": 1318,
      "11": 1319,
      "Ġhard": 1320,
      "hers": 1321,
      "Ġspecies": 1322,
      "ash": 1323,
      "cle": 1324,
      "Ġfish": 1325,
      "Ġgr": 1326,
      "itive": 1327,
      "Ġcaus": 1328,
      "Ġwithin": 1329,
      "ots": 1330,
      "Ġpract": 1331,
      "Ġsignific": 1332,
      "ital": 1333,
      "Ġfew": 1334,
      "ĠIs": 1335,
      "ole": 1336,
      "Ġplace": 1337,
      "Ġhapp": 1338,
      "oid": 1339,
      "Ġthink": 1340,
      "Ġsecond": 1341,
      "Ġdra": 1342,
      "Ġfeel": 1343,
      "iven": 1344,
      "ique": 1345,
      "Ġbuild": 1346,
      "ral": 1347,
      "ething": 1348,
      "Ġphys": 1349,
      "Ġmeas": 1350,
      "Ġlow": 1351,
      "Ġindivid": 1352,
      "ream": 1353,
      "Ġcost": 1354,
      "Ġschool": 1355,
      "less": 1356,
      "Ġclean": 1357,
      "Ġpotential": 1358,
      "ared": 1359,
      "18": 1360,
      "30": 1361,
      "ĠAd": 1362,
      "ross": 1363,
      "ats": 1364,
      "Ġcolor": 1365,
      "Ġsour": 1366,
      "Ġmark": 1367,
      "Ġmus": 1368,
      "ify": 1369,
      "ental": 1370,
      "Ġcontin": 1371,
      "Ġproject": 1372,
      "Ġhuman": 1373,
      "here": 1374,
      "omp": 1375,
      "Ġbel": 1376,
      "ĠHowever": 1377,
      "Ġarea": 1378,
      "ax": 1379,
      "50": 1380,
      "Ġser": 1381,
      "Ġconst": 1382,
      "Ġ[": 1383,
      "Ġess": 1384,
      "Ġrun": 1385,
      "Ġdam": 1386,
      "apt": 1387,
      "Ġhy": 1388,
      "Ġnat": 1389,
      "Ġcontrol": 1390,
      "Ġsize": 1391,
      "line": 1392,
      "-c": 1393,
      "Ġconf": 1394,
      "ring": 1395,
      "ĠAr": 1396,
      "ooking": 1397,
      "Ġsomething": 1398,
      "Ġele": 1399,
      "Ġopen": 1400,
      "Ġdel": 1401,
      "'ll": 1402,
      "Ġsure": 1403,
      "over": 1404,
      "ination": 1405,
      "ills": 1406,
      "Ġlearn": 1407,
      "Ġspecific": 1408,
      "Ġgoing": 1409,
      "Ġsurf": 1410,
      "Ġpub": 1411,
      "Ġpass": 1412,
      "Ġmust": 1413,
      "ĠSo": 1414,
      "Ġwhy": 1415,
      "Ġfunction": 1416,
      "atch": 1417,
      "aper": 1418,
      "Ġconsider": 1419,
      "Ġfil": 1420,
      "Ġcal": 1421,
      "ĠSc": 1422,
      "ters": 1423,
      "Ġtre": 1424,
      "âĢĻ": 1425,
      "Ġsignificant": 1426,
      "Ġcap": 1427,
      "Ġthough": 1428,
      "Ġappro": 1429,
      "par": 1430,
      "Ġsit": 1431,
      "ern": 1432,
      "iness": 1433,
      "ex": 1434,
      "ization": 1435,
      "Ġec": 1436,
      "Ġcam": 1437,
      "Ġcause": 1438,
      "Ġbi": 1439,
      "Ġcy": 1440,
      "ling": 1441,
      "Ġconnect": 1442,
      "Ġaffect": 1443,
      "uss": 1444,
      "ape": 1445,
      "Ġreal": 1446,
      "ense": 1447,
      "Ġimpact": 1448,
      "oms": 1449,
      "etic": 1450,
      "osed": 1451,
      "meric": 1452,
      "Ġstep": 1453,
      "Ġcomput": 1454,
      "Ġhig": 1455,
      "br": 1456,
      "Ġpress": 1457,
      "ĠWhen": 1458,
      "ently": 1459,
      "Ġoper": 1460,
      "Ġhead": 1461,
      "Ġbecome": 1462,
      "-t": 1463,
      "Ġcurrent": 1464,
      "Ġaddition": 1465,
      "Ġprevent": 1466,
      "akes": 1467,
      "'ve": 1468,
      "Ġpossible": 1469,
      "ime": 1470,
      "Ġanal": 1471,
      "Ġexperience": 1472,
      "Ġphot": 1473,
      "irc": 1474,
      "Ġant": 1475,
      "Ġold": 1476,
      "Ġfield": 1477,
      "Ġpresent": 1478,
      "Ġavail": 1479,
      "ished": 1480,
      "Ġdue": 1481,
      "St": 1482,
      "Ġvarious": 1483,
      "Ġmeans": 1484,
      "Ġident": 1485,
      "Ġcome": 1486,
      "Ġmove": 1487,
      "Ġhere": 1488,
      "iversity": 1489,
      "Ġblood": 1490,
      "Ġappe": 1491,
      "bers": 1492,
      "Ġable": 1493,
      "ĠSh": 1494,
      "erest": 1495,
      "Ġinclude": 1496,
      "ients": 1497,
      "Ġstate": 1498,
      "Ġamount": 1499,
      "iver": 1500,
      "me": 1501,
      "ertain": 1502,
      "Ġstruct": 1503,
      "ends": 1504,
      "Ġtry": 1505,
      "Ġpar": 1506,
      "icle": 1507,
      "16": 1508,
      "Ġlot": 1509,
      "eds": 1510,
      "ccess": 1511,
      "Ġprogram": 1512,
      "-d": 1513,
      "omes": 1514,
      "Ġreally": 1515,
      "inc": 1516,
      "ours": 1517,
      "Ġfree": 1518,
      "Ġet": 1519,
      "Ġanother": 1520,
      "ĠPl": 1521,
      "Ġlet": 1522,
      "Ġfollowing": 1523,
      "Ġlim": 1524,
      "Ġret": 1525,
      "Ġalways": 1526,
      "Ġwee": 1527,
      "Ġdirect": 1528,
      "outh": 1529,
      "ĠEx": 1530,
      "ips": 1531,
      "ocus": 1532,
      "----": 1533,
      "gen": 1534,
      "ified": 1535,
      "Ġcomb": 1536,
      "Ġcond": 1537,
      "Ġneeds": 1538,
      "Ġfeature": 1539,
      "Ġdevelopment": 1540,
      "Ġdeterm": 1541,
      "Ġel": 1542,
      "Ġunt": 1543,
      "view": 1544,
      "Ġvol": 1545,
      "Ġstand": 1546,
      "Ġlast": 1547,
      "Ġtypes": 1548,
      "ateg": 1549,
      "Ġmult": 1550,
      "Ġlittle": 1551,
      "ode": 1552,
      "Ġheat": 1553,
      "ries": 1554,
      "Ġmic": 1555,
      "Ġrest": 1556,
      "Ġsever": 1557,
      "Ġspace": 1558,
      "13": 1559,
      "Ġlay": 1560,
      "ĠAmeric": 1561,
      "ones": 1562,
      "ration": 1563,
      "Ġest": 1564,
      "ee": 1565,
      "Ġimm": 1566,
      "Ġput": 1567,
      "Ġsym": 1568,
      "Ġes": 1569,
      "14": 1570,
      "Ġbus": 1571,
      "Ġmakes": 1572,
      "Ġscient": 1573,
      "port": 1574,
      "arc": 1575,
      "arent": 1576,
      "Ġnatural": 1577,
      "Ġinvest": 1578,
      "Ġz": 1579,
      "Ġsal": 1580,
      "Ġfin": 1581,
      "Ġinvol": 1582,
      "-p": 1583,
      "onom": 1584,
      "land": 1585,
      "Ġsay": 1586,
      "NA": 1587,
      "de": 1588,
      "Ġhist": 1589,
      "Ġprofess": 1590,
      "Ġavailable": 1591,
      "iod": 1592,
      "Ġapplic": 1593,
      "Ġtool": 1594,
      "Ġdem": 1595,
      "ption": 1596,
      "Ġbeg": 1597,
      "thing": 1598,
      "Ġteam": 1599,
      "of": 1600,
      "Ġmil": 1601,
      "Ġaccess": 1602,
      "Ġpost": 1603,
      "Ġsound": 1604,
      "Ġseveral": 1605,
      "let": 1606,
      "ane": 1607,
      "aces": 1608,
      "Ġprom": 1609,
      "Ġside": 1610,
      "ision": 1611,
      "Ġspecial": 1612,
      "ably": 1613,
      "ĠCl": 1614,
      "ieve": 1615,
      "Ġquality": 1616,
      "az": 1617,
      "Ġprovid": 1618,
      "Ġ$": 1619,
      "hor": 1620,
      "ilar": 1621,
      "Ġrange": 1622,
      "Ġeffic": 1623,
      "As": 1624,
      "ending": 1625,
      "oot": 1626,
      "ples": 1627,
      "ote": 1628,
      "Ġindust": 1629,
      "Ġproblem": 1630,
      "lu": 1631,
      "Ġeduc": 1632,
      "aster": 1633,
      "Ġinterest": 1634,
      "Ġsoil": 1635,
      "Ġbased": 1636,
      "Ġusually": 1637,
      "Ġfocus": 1638,
      "Ġbig": 1639,
      "Ġfeed": 1640,
      "Ġchem": 1641,
      "Ġensure": 1642,
      "ances": 1643,
      "Ġdisease": 1644,
      "We": 1645,
      "Ġeffective": 1646,
      "Ġareas": 1647,
      "'m": 1648,
      "aring": 1649,
      "atic": 1650,
      "Ġdig": 1651,
      "Ġtimes": 1652,
      "Ġmaterials": 1653,
      "Ġnon": 1654,
      "Ġmonth": 1655,
      "ended": 1656,
      "ush": 1657,
      "Ġlearning": 1658,
      "Ġtechnology": 1659,
      "Ġnut": 1660,
      "Ġenough": 1661,
      "Ġgive": 1662,
      "ems": 1663,
      "Ġcirc": 1664,
      "ĠWhich": 1665,
      "gn": 1666,
      "ires": 1667,
      "ĠBy": 1668,
      "aves": 1669,
      "Ġdesc": 1670,
      "Ġlist": 1671,
      "Ġline": 1672,
      "Ġconditions": 1673,
      "Ġ&": 1674,
      "Ġport": 1675,
      "Ġuntil": 1676,
      "Ġweight": 1677,
      "urther": 1678,
      "pecial": 1679,
      "Ġresults": 1680,
      "Ġprote": 1681,
      "Ġoccur": 1682,
      "Ġcr": 1683,
      "ables": 1684,
      "Ġans": 1685,
      "Ġparticular": 1686,
      "oint": 1687,
      "oring": 1688,
      "Ġkey": 1689,
      "Ġcho": 1690,
      "ĠRe": 1691,
      "Ġengine": 1692,
      "ĠWith": 1693,
      "Ġfre": 1694,
      "Ġessential": 1695,
      "au": 1696,
      "Ġcut": 1697,
      "ains": 1698,
      "Ġanimals": 1699,
      "jor": 1700,
      "ocial": 1701,
      "ired": 1702,
      "Ġhigher": 1703,
      "Ġsurface": 1704,
      "Ġsuccess": 1705,
      "ott": 1706,
      "Ġrisk": 1707,
      "ox": 1708,
      "ological": 1709,
      "Ġsystems": 1710,
      "ency": 1711,
      "Ġmar": 1712,
      "ored": 1713,
      "ah": 1714,
      "Ġcertain": 1715,
      "ĠInd": 1716,
      "Ġorder": 1717,
      "light": 1718,
      "oad": 1719,
      "Ġrecomm": 1720,
      "Ġmov": 1721,
      "work": 1722,
      "rect": 1723,
      "âĢĶ": 1724,
      "orn": 1725,
      "Ġreport": 1726,
      "asing": 1727,
      "Ġwrit": 1728,
      "Ġpaper": 1729,
      "Ġconsum": 1730,
      "Ġgroup": 1731,
      "oes": 1732,
      "bon": 1733,
      "Ġsing": 1734,
      "Ġchanges": 1735,
      "Ġter": 1736,
      "Ġdays": 1737,
      "ication": 1738,
      "Ġalong": 1739,
      "fort": 1740,
      "Ġgreen": 1741,
      "pr": 1742,
      "ember": 1743,
      "Ġcour": 1744,
      "oose": 1745,
      "Ġsens": 1746,
      "ĠCan": 1747,
      "Ġfamily": 1748,
      "Ġobject": 1749,
      "When": 1750,
      "ately": 1751,
      "Ġsun": 1752,
      "Ġperiod": 1753,
      "Ġcou": 1754,
      "Ġhaving": 1755,
      "iting": 1756,
      "put": 1757,
      "Ġaway": 1758,
      "self": 1759,
      "Ġshort": 1760,
      "Ġopp": 1761,
      "Ġ=": 1762,
      "Ġmot": 1763,
      "omen": 1764,
      "Ġmaintain": 1765,
      "Ġsince": 1766,
      "Ġnext": 1767,
      "alk": 1768,
      "uture": 1769,
      "Ġlikely": 1770,
      ".,": 1771,
      "Ġsum": 1772,
      "Ġproblems": 1773,
      "17": 1774,
      "ories": 1775,
      "ĠRes": 1776,
      "Ġwind": 1777,
      "Ġmeasure": 1778,
      "Ġhim": 1779,
      "ĠSe": 1780,
      "Ġgas": 1781,
      "Ġprim": 1782,
      "Ġegg": 1783,
      "Ġkind": 1784,
      "Ġcult": 1785,
      "Ġmodel": 1786,
      "ĠNew": 1787,
      "ggest": 1788,
      "inter": 1789,
      "be": 1790,
      "Ġrole": 1791,
      "ĠUniversity": 1792,
      "ards": 1793,
      "-l": 1794,
      "Ġmill": 1795,
      "ogn": 1796,
      "Ġearly": 1797,
      "Ġimprove": 1798,
      "aut": 1799,
      "Ġfac": 1800,
      "Ġbehav": 1801,
      "Ġtoget": 1802,
      "Ġmajor": 1803,
      "Ġstrong": 1804,
      "Ġtreatment": 1805,
      "Ġrepl": 1806,
      "Ġorig": 1807,
      "Ġtogether": 1808,
      "Ġworks": 1809,
      "Ġworking": 1810,
      "Ġassoci": 1811,
      "Ġeasy": 1812,
      "rab": 1813,
      "osp": 1814,
      "Ġchall": 1815,
      "erc": 1816,
      "Ġcharacter": 1817,
      "Ġcase": 1818,
      "Ġmach": 1819,
      "Ġaccording": 1820,
      "Ġbro": 1821,
      "Ġbatter": 1822,
      "Ġlevels": 1823,
      "You": 1824,
      "Ġpred": 1825,
      "ators": 1826,
      "icult": 1827,
      "imes": 1828,
      "ived": 1829,
      "Ġword": 1830,
      "aging": 1831,
      "olution": 1832,
      "âĢ¦": 1833,
      "fect": 1834,
      "Ġsuggest": 1835,
      "ware": 1836,
      "agement": 1837,
      "Ġnear": 1838,
      "ĠThat": 1839,
      "__": 1840,
      "ump": 1841,
      "Ġquick": 1842,
      "Ġwarm": 1843,
      "Ġrele": 1844,
      "Ġname": 1845,
      "Ġpressure": 1846,
      "af": 1847,
      "fact": 1848,
      "ustom": 1849,
      "arden": 1850,
      "ression": 1851,
      "Ġincrease": 1852,
      "ĠAt": 1853,
      "Ġvalue": 1854,
      "Ġfull": 1855,
      "Ġproducts": 1856,
      "ither": 1857,
      "Ġmind": 1858,
      "ĠBe": 1859,
      ")Ċ": 1860,
      "Ġbird": 1861,
      "Ġothers": 1862,
      "izing": 1863,
      "Ġhealthy": 1864,
      "Ġcomplete": 1865,
      "Ġgrowth": 1866,
      ")ĊĊ": 1867,
      "ĠSp": 1868,
      "Ġnecess": 1869,
      "There": 1870,
      "Ġrad": 1871,
      "cul": 1872,
      "Ġcomes": 1873,
      "vious": 1874,
      "Ġsimilar": 1875,
      "oney": 1876,
      "Ġoil": 1877,
      "man": 1878,
      "ope": 1879,
      "Ġrece": 1880,
      "ury": 1881,
      "Ġdogs": 1882,
      "ches": 1883,
      "Ġfour": 1884,
      "pecially": 1885,
      "Ġred": 1886,
      "Ġgiven": 1887,
      "por": 1888,
      "Ġage": 1889,
      "Ġmarket": 1890,
      "Ġreduce": 1891,
      "gs": 1892,
      "Ġlower": 1893,
      "Ġunique": 1894,
      "Ġagainst": 1895,
      "Ġdone": 1896,
      "fer": 1897,
      "ctor": 1898,
      "Ġlab": 1899,
      "Ġsoft": 1900,
      "ribut": 1901,
      "Ġdry": 1902,
      "21": 1903,
      "25": 1904,
      "Ġtru": 1905,
      "atory": 1906,
      "Ġlocal": 1907,
      "oor": 1908,
      "chan": 1909,
      "usion": 1910,
      "Ġamong": 1911,
      "Ġregular": 1912,
      "yle": 1913,
      "Ġways": 1914,
      "Ġreason": 1915,
      "Ġobs": 1916,
      "Ġturn": 1917,
      "Ġfuture": 1918,
      "-m": 1919,
      "40": 1920,
      "âĢĵ": 1921,
      "une": 1922,
      "Ġbusiness": 1923,
      "ret": 1924,
      "Ġeye": 1925,
      "ooks": 1926,
      "not": 1927,
      "ĠCon": 1928,
      "Ġavoid": 1929,
      "Ġeat": 1930,
      "Ġnorm": 1931,
      "idd": 1932,
      "Ġskin": 1933,
      "Ġcra": 1934,
      "amm": 1935,
      "Ġresearc": 1936,
      "Ġenc": 1937,
      "Ġleast": 1938,
      "Ġsocial": 1939,
      "Ġtraining": 1940,
      "Ġer": 1941,
      "itch": 1942,
      "ivity": 1943,
      "Ġdifficult": 1944,
      "ler": 1945,
      "Ġdoesn": 1946,
      "Ġgame": 1947,
      "Ġissues": 1948,
      "Ġcourse": 1949,
      "ipp": 1950,
      "wards": 1951,
      "Ġbenefits": 1952,
      "An": 1953,
      "Ġsubst": 1954,
      "Ġsingle": 1955,
      "Ġwr": 1956,
      "Ġproduction": 1957,
      "Ġactually": 1958,
      "ĠTe": 1959,
      "Ġground": 1960,
      "Ġintern": 1961,
      "Ġpast": 1962,
      "Ġleft": 1963,
      "ensive": 1964,
      "Ġhouse": 1965,
      "ĠZ": 1966,
      "Ġabove": 1967,
      "ĠDe": 1968,
      "Ġbegin": 1969,
      "lish": 1970,
      "Ġflu": 1971,
      "Ġsimple": 1972,
      "Ġsafe": 1973,
      "ĠâĢĶ": 1974,
      "upp": 1975,
      "idence": 1976,
      "Ġresour": 1977,
      "hem": 1978,
      "Ġwall": 1979,
      "Ġfore": 1980,
      "Ġcheck": 1981,
      "Ġanswer": 1982,
      "Ġelectric": 1983,
      "Ġparts": 1984,
      "ised": 1985,
      "Ġcru": 1986,
      "astic": 1987,
      "Ġposition": 1988,
      "Ġpie": 1989,
      "ĠSome": 1990,
      "Ġprop": 1991,
      "iple": 1992,
      "ruction": 1993,
      "joy": 1994,
      "Ġste": 1995,
      "Ġnever": 1996,
      "anced": 1997,
      "angu": 1998,
      "Ġpopular": 1999,
      "Ġfri": 2000,
      "Ġlive": 2001,
      "ails": 2002,
      "Ġrespons": 2003,
      "Ġview": 2004,
      "Ġwhite": 2005,
      "Ġphysical": 2006,
      "Ġauthor": 2007,
      "Ġwide": 2008,
      "Ġi": 2009,
      "Ġpan": 2010,
      "Ġhelps": 2011,
      "Ġill": 2012,
      "Ġthing": 2013,
      "Ġcompon": 2014,
      "Ġdamage": 2015,
      "Ġfactors": 2016,
      "ĠCol": 2017,
      "Ġespecially": 2018,
      "most": 2019,
      "raph": 2020,
      "agn": 2021,
      "Ġemb": 2022,
      "ming": 2023,
      "room": 2024,
      "Ġinfect": 2025,
      "Ġlooking": 2026,
      "Ġstra": 2027,
      "ĠOn": 2028,
      "ysis": 2029,
      "Ġmass": 2030,
      "Ġtoday": 2031,
      "Ġacross": 2032,
      "Ġpatter": 2033,
      "Ġfrequ": 2034,
      "Ġbook": 2035,
      "Ġexpect": 2036,
      "ffic": 2037,
      "Ġdiet": 2038,
      "Ġfar": 2039,
      "Ġtot": 2040,
      "Ġnet": 2041,
      "Ġheart": 2042,
      "avor": 2043,
      "rate": 2044,
      "ann": 2045,
      "Ġgre": 2046,
      "Ġeffects": 2047,
      "Ġclear": 2048,
      "hing": 2049,
      "ledge": 2050,
      "aching": 2051,
      "verage": 2052,
      "ery": 2053,
      "orth": 2054,
      "ĠPh": 2055,
      "ĠInst": 2056,
      "Ġsource": 2057,
      "Ġ.": 2058,
      "Ġtur": 2059,
      "Ġhold": 2060,
      "Ġexperien": 2061,
      "Ġwhether": 2062,
      "Ġmatter": 2063,
      "igns": 2064,
      "Ġclose": 2065,
      "Ġdiscuss": 2066,
      "uals": 2067,
      "ufact": 2068,
      "amp": 2069,
      "ilities": 2070,
      "Ġprob": 2071,
      "leep": 2072,
      "Ġallows": 2073,
      "amin": 2074,
      "ER": 2075,
      "rag": 2076,
      "Ġdesigned": 2077,
      "Ġunderstanding": 2078,
      "Ġcountry": 2079,
      "ibility": 2080,
      "Ġsn": 2081,
      "Ġcustom": 2082,
      "etimes": 2083,
      "ton": 2084,
      "ission": 2085,
      "Ġfeatures": 2086,
      "ustain": 2087,
      "Ġcarbon": 2088,
      "Ġpublic": 2089,
      "lished": 2090,
      "Ġterm": 2091,
      "Ġstructure": 2092,
      "ae": 2093,
      "though": 2094,
      "erence": 2095,
      "Ġcorrect": 2096,
      "Ġpersonal": 2097,
      "Ġach": 2098,
      "ray": 2099,
      "Ġindic": 2100,
      "Ġbit": 2101,
      "ĠBl": 2102,
      "Ġoffer": 2103,
      "60": 2104,
      "Ġbelow": 2105,
      "Ġconcer": 2106,
      "Ġthin": 2107,
      "Ġreact": 2108,
      "ĠOr": 2109,
      "isc": 2110,
      "Ġfle": 2111,
      "to": 2112,
      "resh": 2113,
      "Ġproduce": 2114,
      "Ġenjoy": 2115,
      "Ġsolar": 2116,
      "Ġgarden": 2117,
      "Ġabs": 2118,
      "aling": 2119,
      "ames": 2120,
      "Ġvariety": 2121,
      "Ġcool": 2122,
      "Ġrepres": 2123,
      "To": 2124,
      "Ġquestion": 2125,
      "ront": 2126,
      "side": 2127,
      "Ġindividual": 2128,
      "Ġonce": 2129,
      "Ġgetting": 2130,
      "Ġparent": 2131,
      "ĠEn": 2132,
      "rown": 2133,
      "Ġeither": 2134,
      "Ġselect": 2135,
      "Ġscience": 2136,
      "Ġdifference": 2137,
      "Ġresearchers": 2138,
      "!ĊĊ": 2139,
      "For": 2140,
      "cks": 2141,
      "Ġpercent": 2142,
      "24": 2143,
      "Wh": 2144,
      "edi": 2145,
      "Ġevent": 2146,
      "Ġland": 2147,
      "Ġseen": 2148,
      "Ġcomplex": 2149,
      "Ġweek": 2150,
      "ĠYour": 2151,
      "ditional": 2152,
      "duct": 2153,
      "Ġchemical": 2154,
      "Ġmechan": 2155,
      "for": 2156,
      "Ġbal": 2157,
      "Ġability": 2158,
      "Ġdescrib": 2159,
      "ising": 2160,
      "ties": 2161,
      "imal": 2162,
      "iment": 2163,
      "ploy": 2164,
      "ength": 2165,
      "Ġpoll": 2166,
      "Ġhistory": 2167,
      "Ġprovides": 2168,
      "Ġcrit": 2169,
      "Ġdoing": 2170,
      "Ġdream": 2171,
      "Ġinteract": 2172,
      "Ġskills": 2173,
      "Ġtell": 2174,
      "utes": 2175,
      "ification": 2176,
      "Ġloss": 2177,
      "ores": 2178,
      "Ġinside": 2179,
      "Ch": 2180,
      "Ġrelations": 2181,
      "Ġneeded": 2182,
      "Ġmix": 2183,
      "Ġnecessary": 2184,
      "bo": 2185,
      "com": 2186,
      "sel": 2187,
      "Ġfurther": 2188,
      "Ġhours": 2189,
      "Ġcancer": 2190,
      "Ġcoll": 2191,
      "Ġrecogn": 2192,
      "Ġbrain": 2193,
      "Ġdraw": 2194,
      "âĢĻs": 2195,
      "roll": 2196,
      "ument": 2197,
      "Ġsays": 2198,
      "iency": 2199,
      "ready": 2200,
      "Ġvers": 2201,
      "Ġdeg": 2202,
      "Ġbacter": 2203,
      "Ġmicro": 2204,
      "uck": 2205,
      "Ġinit": 2206,
      "Ġlif": 2207,
      "22": 2208,
      "Ġimage": 2209,
      "ĠOne": 2210,
      "Ġclimate": 2211,
      "Ġpurp": 2212,
      "lement": 2213,
      "lying": 2214,
      "Ġneg": 2215,
      "aps": 2216,
      "ina": 2217,
      "Ġpay": 2218,
      "lection": 2219,
      "estions": 2220,
      "osing": 2221,
      "Ġbuy": 2222,
      "Ġperformance": 2223,
      "Ġmat": 2224,
      "Ġvir": 2225,
      "Ġx": 2226,
      "ried": 2227,
      "oh": 2228,
      "Ġver": 2229,
      "selves": 2230,
      "rel": 2231,
      "Ġanimal": 2232,
      "just": 2233,
      "uro": 2234,
      "arth": 2235,
      "Ġdetect": 2236,
      "Ġfall": 2237,
      "ĠAI": 2238,
      "Ġstress": 2239,
      "Ġexist": 2240,
      "Ġperfect": 2241,
      "Ġprotein": 2242,
      "reng": 2243,
      "Ġwood": 2244,
      "ortun": 2245,
      "Ġtravel": 2246,
      "Ġveget": 2247,
      "ym": 2248,
      "Ġenh": 2249,
      "eter": 2250,
      "ĠIm": 2251,
      "Ġcomputer": 2252,
      "nam": 2253,
      "Ġarticle": 2254,
      "Ġvide": 2255,
      "Ġcompany": 2256,
      "Ġglob": 2257,
      "Ġsepar": 2258,
      "alf": 2259,
      "Ġstop": 2260,
      "Ġalready": 2261,
      "ume": 2262,
      "ellow": 2263,
      "Ġintrodu": 2264,
      "ured": 2265,
      "Ġcold": 2266,
      "Ġstrateg": 2267,
      "Ġtree": 2268,
      "ites": 2269,
      "Ġsomeone": 2270,
      "Ġinstall": 2271,
      "Ġhot": 2272,
      "Ġcondition": 2273,
      "ĠUS": 2274,
      "mit": 2275,
      "ales": 2276,
      "ĠEng": 2277,
      "Ġmanufact": 2278,
      "iques": 2279,
      "Ġlater": 2280,
      "Ġlove": 2281,
      "Ġmagn": 2282,
      "Ġactivities": 2283,
      "Ġsitu": 2284,
      "val": 2285,
      "ibr": 2286,
      "istic": 2287,
      "arget": 2288,
      "Ġbreak": 2289,
      "ply": 2290,
      "Ġhappen": 2291,
      "nces": 2292,
      "Ġmedical": 2293,
      "Ġfund": 2294,
      "fully": 2295,
      "Ġindustry": 2296,
      "Ġslow": 2297,
      "Ġgeneral": 2298,
      "by": 2299,
      "aving": 2300,
      "Ġrecord": 2301,
      "Ġjour": 2302,
      "Ġextra": 2303,
      "Ġcommunity": 2304,
      "onst": 2305,
      "ĠAll": 2306,
      "Ġrelationship": 2307,
      "Ġyoung": 2308,
      "orts": 2309,
      ".\"ĊĊ": 2310,
      "Ġchalleng": 2311,
      "Ġeconom": 2312,
      "Ġliving": 2313,
      "ik": 2314,
      "anguage": 2315,
      "Ġpath": 2316,
      "Ġself": 2317,
      "Ġmention": 2318,
      "Ġmonths": 2319,
      "ĠShe": 2320,
      "ptoms": 2321,
      "Ġblack": 2322,
      "iation": 2323,
      "Ġcrucial": 2324,
      "ief": 2325,
      "Ġcollect": 2326,
      "Ġknowledge": 2327,
      "ES": 2328,
      "à¤": 2329,
      "ĠWor": 2330,
      "Ġapproach": 2331,
      "Ġbar": 2332,
      "Ġexerc": 2333,
      ",Ċ": 2334,
      "ese": 2335,
      "Ġinflu": 2336,
      "aken": 2337,
      "Ġpet": 2338,
      "Ġmole": 2339,
      "!Ċ": 2340,
      "oon": 2341,
      "Ġpack": 2342,
      "acks": 2343,
      "Ġhab": 2344,
      "rapy": 2345,
      "eral": 2346,
      "Ġdevice": 2347,
      "ystem": 2348,
      "Ġresist": 2349,
      "Ġelectr": 2350,
      "Ġlonger": 2351,
      "Ġappear": 2352,
      "ilt": 2353,
      "Ġentire": 2354,
      "Ġetc": 2355,
      "Ġsmo": 2356,
      "Ġtypically": 2357,
      "Ġask": 2358,
      "Ġmoney": 2359,
      "Ġcontent": 2360,
      "Ġoverall": 2361,
      "Ġindividuals": 2362,
      "acc": 2363,
      "Ġfat": 2364,
      "Ġrequired": 2365,
      "Ġfit": 2366,
      "80": 2367,
      "Ġuser": 2368,
      "ĠComp": 2369,
      "ĠNo": 2370,
      "Ġut": 2371,
      "Ġwar": 2372,
      "use": 2373,
      "Ġstreng": 2374,
      "Ġdeep": 2375,
      "Ġbuilding": 2376,
      "Ġunit": 2377,
      "app": 2378,
      "Ġshape": 2379,
      "way": 2380,
      "cell": 2381,
      "Ġbreed": 2382,
      "ask": 2383,
      "Ġgrowing": 2384,
      "Ġtaking": 2385,
      "Ġeggs": 2386,
      "Al": 2387,
      "ners": 2388,
      "aches": 2389,
      "Ġgover": 2390,
      "Ġwhole": 2391,
      "Ġmethods": 2392,
      "Ġassociated": 2393,
      "ĠQu": 2394,
      "Ġox": 2395,
      "Ġsustain": 2396,
      "ney": 2397,
      "Ġtarget": 2398,
      "Ġsleep": 2399,
      "Ġremov": 2400,
      "Ġenvironmental": 2401,
      "Ġactivity": 2402,
      "Ġbehavior": 2403,
      "oll": 2404,
      "ronic": 2405,
      "Ġbring": 2406,
      "Ġeasily": 2407,
      "Ġpatients": 2408,
      "rad": 2409,
      "ises": 2410,
      "Ġfu": 2411,
      "Ġfarm": 2412,
      "aced": 2413,
      "ĠDo": 2414,
      "Ġmeet": 2415,
      "ĠCent": 2416,
      "Ġrate": 2417,
      "Ġrather": 2418,
      "sect": 2419,
      "Ġsolution": 2420,
      "orage": 2421,
      "Ġspeed": 2422,
      "Ġbattery": 2423,
      "Ġonline": 2424,
      "Ġhumans": 2425,
      "Ġpositive": 2426,
      "ĠWhile": 2427,
      "Ġever": 2428,
      "Ġisn": 2429,
      "Ġsafety": 2430,
      "Ġheav": 2431,
      "aud": 2432,
      "illed": 2433,
      "Ġuses": 2434,
      "Ġaddress": 2435,
      "Ġopportun": 2436,
      "icles": 2437,
      "Ġconcept": 2438,
      "augh": 2439,
      "ule": 2440,
      "izes": 2441,
      "ĠAmerican": 2442,
      "Ġquestions": 2443,
      "Ġcreating": 2444,
      ").Ċ": 2445,
      "Ġfru": 2446,
      "Ġtools": 2447,
      "Ġreview": 2448,
      "ext": 2449,
      "erve": 2450,
      "Ġissue": 2451,
      "Ġwomen": 2452,
      "rig": 2453,
      "het": 2454,
      "idered": 2455,
      "Ġstudies": 2456,
      "Ġtechniques": 2457,
      "lor": 2458,
      "Ġdom": 2459,
      "Ġnature": 2460,
      "earch": 2461,
      "Ġhowever": 2462,
      "Ġtotal": 2463,
      "Ġfib": 2464,
      "Ġadult": 2465,
      "Ġidea": 2466,
      "Ġprec": 2467,
      "Ġstay": 2468,
      "itable": 2469,
      "nov": 2470,
      "Ġsam": 2471,
      "Ġveh": 2472,
      "ively": 2473,
      "Ġface": 2474,
      "Ġfront": 2475,
      "Ġsequ": 2476,
      "Th": 2477,
      "rated": 2478,
      "Ġleg": 2479,
      "Ġtend": 2480,
      "Ġharm": 2481,
      "verse": 2482,
      "Ġchoose": 2483,
      "Ġincreased": 2484,
      "Ġobserv": 2485,
      "ctions": 2486,
      "Ġlarger": 2487,
      "Ġgovern": 2488,
      "ground": 2489,
      "Ġtiss": 2490,
      "era": 2491,
      "Ġhor": 2492,
      "Ġoptions": 2493,
      "Ġsymptoms": 2494,
      "-w": 2495,
      "ison": 2496,
      "Ġthroughout": 2497,
      "Ġprimary": 2498,
      "gar": 2499,
      "Ġsqu": 2500,
      "Ġgot": 2501,
      "Ġleaves": 2502,
      "Ġrelated": 2503,
      "Ġtakes": 2504,
      "ĠPr": 2505,
      "Ġdeveloped": 2506,
      "Ġresources": 2507,
      "Ġwinter": 2508,
      "ĠLe": 2509,
      "Ġcases": 2510,
      "Ġfram": 2511,
      "Ġconsidered": 2512,
      "Ġincludes": 2513,
      "Ġmodels": 2514,
      "ze": 2515,
      "Ġpractice": 2516,
      "ement": 2517,
      "Ġmanagement": 2518,
      "Ġapplications": 2519,
      "inary": 2520,
      "Ġexc": 2521,
      "ights": 2522,
      "Ġcover": 2523,
      "Ġdevices": 2524,
      "ura": 2525,
      "reme": 2526,
      "ows": 2527,
      "Ġconsist": 2528,
      "23": 2529,
      "Ġsense": 2530,
      "ograp": 2531,
      "Ġquickly": 2532,
      "aged": 2533,
      "Ġencou": 2534,
      "ene": 2535,
      "Ġseason": 2536,
      "Ġhyd": 2537,
      "Ġminutes": 2538,
      "Ġprofessional": 2539,
      "aily": 2540,
      "Ġmillion": 2541,
      "So": 2542,
      "Ġsil": 2543,
      "Ġfresh": 2544,
      "Ġbeaut": 2545,
      "ival": 2546,
      "Ġmilk": 2547,
      "Ġple": 2548,
      "Ġlength": 2549,
      "Ġpopulation": 2550,
      "Ġfast": 2551,
      "Ġmen": 2552,
      "ulations": 2553,
      "elling": 2554,
      "mb": 2555,
      "Ġremain": 2556,
      "Ġmetal": 2557,
      "Ġcode": 2558,
      "rams": 2559,
      "Ġsimply": 2560,
      "Ġidentify": 2561,
      "urs": 2562,
      "Ġcreated": 2563,
      "Ġsummer": 2564,
      "**": 2565,
      "Ġfive": 2566,
      "Ġsuper": 2567,
      "ĠDr": 2568,
      "ging": 2569,
      "ĠHere": 2570,
      "Ġrepresent": 2571,
      "Ġaccount": 2572,
      "Ġefficient": 2573,
      "ding": 2574,
      "ĠComm": 2575,
      "play": 2576,
      "Ġcolors": 2577,
      "Ġmodern": 2578,
      "Ġbasic": 2579,
      "Ġprint": 2580,
      "-based": 2581,
      "Ġwild": 2582,
      "abor": 2583,
      "Ġyourself": 2584,
      "Ġsubject": 2585,
      "Ġproperties": 2586,
      "ĠNational": 2587,
      "urope": 2588,
      "hib": 2589,
      "Ġcomfort": 2590,
      "Ġcompared": 2591,
      "Ġanalysis": 2592,
      "ha": 2593,
      "ences": 2594,
      "Ġsea": 2595,
      "Ġcompan": 2596,
      "Ġfem": 2597,
      "igure": 2598,
      "Ġappl": 2599,
      "Ġprep": 2600,
      "Ġexplain": 2601,
      "ĠCar": 2602,
      "Ġthemselves": 2603,
      "ounds": 2604,
      "Ġservices": 2605,
      "Ġaud": 2606,
      "Ġtraditional": 2607,
      "Ġcapt": 2608,
      "Ġlanguage": 2609,
      "osis": 2610,
      "aff": 2611,
      "Ġliqu": 2612,
      ".S": 2613,
      "asc": 2614,
      "Ġideas": 2615,
      "Ġprobably": 2616,
      "sy": 2617,
      "Ġcook": 2618,
      "ules": 2619,
      "Ġeyes": 2620,
      "Ġla": 2621,
      "ades": 2622,
      "RE": 2623,
      "Ġconduct": 2624,
      "Ġroom": 2625,
      "aim": 2626,
      "Ġelements": 2627,
      "Ġther": 2628,
      "Ġattention": 2629,
      "Ġnormal": 2630,
      "Ġincreasing": 2631,
      "Ġdetermine": 2632,
      "urity": 2633,
      "ĠMed": 2634,
      "ograph": 2635,
      "Ġmachine": 2636,
      "pid": 2637,
      "Ġbad": 2638,
      "Ġglobal": 2639,
      "Ġbase": 2640,
      "Ġbath": 2641,
      "Ġjob": 2642,
      "Ġrob": 2643,
      "ĠDNA": 2644,
      "Ġfoods": 2645,
      "Ġhalf": 2646,
      "Ġcaused": 2647,
      "Ġeducation": 2648,
      "pro": 2649,
      "ians": 2650,
      "erous": 2651,
      "acy": 2652,
      "Ġstory": 2653,
      ".\"Ċ": 2654,
      "Ġlayer": 2655,
      "Ġweather": 2656,
      "Ġrelative": 2657,
      "Ġgenerally": 2658,
      "90": 2659,
      "Ġadjust": 2660,
      "ccording": 2661,
      "Ġarr": 2662,
      "Ġcontact": 2663,
      "Ġsources": 2664,
      ").ĊĊ": 2665,
      "ned": 2666,
      "ĠCO": 2667,
      "Ġemploy": 2668,
      "Ġservice": 2669,
      "Ġlog": 2670,
      "itud": 2671,
      "ung": 2672,
      "ipment": 2673,
      "Ġice": 2674,
      "Ġearth": 2675,
      "Ġparticip": 2676,
      "Ġthought": 2677,
      "Ġaltern": 2678,
      "Ġalmost": 2679,
      "hern": 2680,
      "Ġaverage": 2681,
      "Ġseem": 2682,
      "Ġbirds": 2683,
      "Ġgear": 2684,
      "Ġcompet": 2685,
      "cre": 2686,
      "ges": 2687,
      "Ġtowards": 2688,
      "Ġstorage": 2689,
      "Ġann": 2690,
      "Ġsometimes": 2691,
      "Ġcauses": 2692,
      "Ġtrees": 2693,
      "Ġchoice": 2694,
      "Ġwords": 2695,
      "imum": 2696,
      "Ġstarted": 2697,
      "Ġmultiple": 2698,
      "TI": 2699,
      "ĠAf": 2700,
      "Ġremove": 2701,
      "--------": 2702,
      "ĠEarth": 2703,
      "rior": 2704,
      "Ġgenetic": 2705,
      "utions": 2706,
      "ĠDes": 2707,
      "Ġinstead": 2708,
      "Ġcontinu": 2709,
      "uff": 2710,
      "Ġinteg": 2711,
      "where": 2712,
      "Ġdark": 2713,
      "Ġpurch": 2714,
      "cies": 2715,
      "idge": 2716,
      "Ġclim": 2717,
      "rict": 2718,
      "Ġoutside": 2719,
      "-g": 2720,
      "eed": 2721,
      "Ġdoc": 2722,
      "Ġrot": 2723,
      "Ġquite": 2724,
      "Ġpoints": 2725,
      "Ġinsect": 2726,
      "Ġur": 2727,
      "oph": 2728,
      "Ġregion": 2729,
      "tenance": 2730,
      "Ġcycle": 2731,
      "atus": 2732,
      "umb": 2733,
      "ĠEurope": 2734,
      "Ġwaste": 2735,
      "Ġestab": 2736,
      "min": 2737,
      "yl": 2738,
      "Ġcop": 2739,
      "set": 2740,
      "Ġoffers": 2741,
      "mon": 2742,
      "Ġcity": 2743,
      "Ġadapt": 2744,
      "Ġshown": 2745,
      "70": 2746,
      "ĠX": 2747,
      "icy": 2748,
      "Ġcontinue": 2749,
      "Ġcamp": 2750,
      "ĠSaud": 2751,
      "Ġrequires": 2752,
      "Ġparents": 2753,
      "Ġcannot": 2754,
      "Ġmedic": 2755,
      "Ġcats": 2756,
      "Ġspread": 2757,
      "ditionally": 2758,
      "Ġsteps": 2759,
      "-in": 2760,
      "Ad": 2761,
      "Ġpict": 2762,
      "alking": 2763,
      "Ġprevious": 2764,
      "Ġwebs": 2765,
      "Ġbehind": 2766,
      "ma": 2767,
      "ift": 2768,
      "Ġscientists": 2769,
      "Ġdigital": 2770,
      "Ġnight": 2771,
      "iding": 2772,
      "Ġwa": 2773,
      "Ġwon": 2774,
      "Ġfire": 2775,
      "Ġproviding": 2776,
      "ĠUs": 2777,
      "ĠUnited": 2778,
      "Ġadvant": 2779,
      "iddle": 2780,
      "Ġreading": 2781,
      "Ġadditional": 2782,
      "ĠTr": 2783,
      "ĠSouth": 2784,
      "Ġadded": 2785,
      "Ġshows": 2786,
      "Ġterms": 2787,
      "Ġlo": 2788,
      "Ġge": 2789,
      "Ġtast": 2790,
      "Ġinj": 2791,
      "Ġsurv": 2792,
      "ropri": 2793,
      "Ġbur": 2794,
      "Ġregard": 2795,
      "ged": 2796,
      "gest": 2797,
      "Ġfoot": 2798,
      "Ġblue": 2799,
      "Ġanything": 2800,
      "Ġcountries": 2801,
      "Ġmentioned": 2802,
      "onse": 2803,
      "Why": 2804,
      "Ġing": 2805,
      "Ġbott": 2806,
      "Ġdaily": 2807,
      "ĠCo": 2808,
      "Ġextreme": 2809,
      "Ġmo": 2810,
      "ils": 2811,
      "Ġ\\": 2812,
      "Ġmax": 2813,
      "SA": 2814,
      "ched": 2815,
      "Ġplastic": 2816,
      "Ġquant": 2817,
      "Ġitself": 2818,
      "Ġdirection": 2819,
      "Â°": 2820,
      "Ġmor": 2821,
      "asons": 2822,
      "Ġaim": 2823,
      "emic": 2824,
      "Ġvit": 2825,
      "ĠAfter": 2826,
      "Ġequipment": 2827,
      "ĠScience": 2828,
      "Ġtherm": 2829,
      "na": 2830,
      "Ġsmaller": 2831,
      "Ġglass": 2832,
      "Ġcapac": 2833,
      "Ġteac": 2834,
      "Ġdiagn": 2835,
      "Ġdirectly": 2836,
      "Ġstandard": 2837,
      "Ġbacteria": 2838,
      "-st": 2839,
      "Ġsite": 2840,
      "ĠApp": 2841,
      "oses": 2842,
      "Ġrock": 2843,
      "Ġnumbers": 2844,
      "Ġsat": 2845,
      "Ġyet": 2846,
      "cean": 2847,
      "Ġkids": 2848,
      "ension": 2849,
      "Ġfamil": 2850,
      "Ġvideo": 2851,
      "arily": 2852,
      "Ġhighly": 2853,
      "Ġpurpose": 2854,
      "isms": 2855,
      "ulate": 2856,
      "issions": 2857,
      "Ġleading": 2858,
      "cient": 2859,
      "Ġtaken": 2860,
      "itor": 2861,
      "ecause": 2862,
      "Ġliquid": 2863,
      "like": 2864,
      "Ġdy": 2865,
      "Ġlens": 2866,
      "Ġlink": 2867,
      "Ġgroups": 2868,
      "Ġscientific": 2869,
      "Ġdru": 2870,
      "Ġgain": 2871,
      "Ġsignal": 2872,
      "Ġeasier": 2873,
      "Ġprovided": 2874,
      "Ġlaw": 2875,
      "imately": 2876,
      "Ġprotection": 2877,
      "Ġinvestig": 2878,
      "Ġfail": 2879,
      "Ġdou": 2880,
      "Ġshare": 2881,
      "istics": 2882,
      "ĠGu": 2883,
      "Ġbelieve": 2884,
      "Ġanaly": 2885,
      "'d": 2886,
      "ON": 2887,
      "Sh": 2888,
      "Ġbrand": 2889,
      "li": 2890,
      "Ġwond": 2891,
      "Ġfert": 2892,
      "ĠMay": 2893,
      "Ġexplore": 2894,
      "Ġeverything": 2895,
      "Ġbox": 2896,
      "Ġrecommend": 2897,
      "ror": 2898,
      "alu": 2899,
      "ĠTra": 2900,
      "oles": 2901,
      "Ġdisord": 2902,
      "Ġevidence": 2903,
      "nal": 2904,
      "Ġones": 2905,
      "Ġscreen": 2906,
      "ĠWorld": 2907,
      "Ġpen": 2908,
      "Ġspring": 2909,
      "Ġeveryone": 2910,
      "Ġrefer": 2911,
      "Ġreach": 2912,
      "ĠGen": 2913,
      "new": 2914,
      "Ġdecre": 2915,
      "Ġacid": 2916,
      "Ġassess": 2917,
      "Ġassist": 2918,
      "Ġtrue": 2919,
      "go": 2920,
      "Ġreplace": 2921,
      "IN": 2922,
      "ball": 2923,
      "rast": 2924,
      "endly": 2925,
      "Ġdiam": 2926,
      "Ġult": 2927,
      "Ġroad": 2928,
      "Ġdiseases": 2929,
      "Ġsoftware": 2930,
      "One": 2931,
      "Ġefficiency": 2932,
      "ĠSaudi": 2933,
      "Pro": 2934,
      "Ġcommunication": 2935,
      "Ġfuel": 2936,
      "Ġmess": 2937,
      "ĠCons": 2938,
      "Ġachieve": 2939,
      "ID": 2940,
      "rition": 2941,
      "Ġir": 2942,
      "Ġtank": 2943,
      "Ġbab": 2944,
      "ĠHealth": 2945,
      "Ġnetwork": 2946,
      "Ġjoint": 2947,
      "ĠStud": 2948,
      "reg": 2949,
      "...ĊĊ": 2950,
      "Ġtou": 2951,
      "Ġmental": 2952,
      "Ġexact": 2953,
      "onds": 2954,
      "Ġago": 2955,
      "Ġdidn": 2956,
      "overy": 2957,
      "rec": 2958,
      "orpor": 2959,
      "ĠMan": 2960,
      "Ġrout": 2961,
      "Ġlives": 2962,
      "Ġgold": 2963,
      "ipe": 2964,
      "Ġmath": 2965,
      "ĠCont": 2966,
      "Ġfeet": 2967,
      "ucle": 2968,
      "Ġparticularly": 2969,
      "uit": 2970,
      "ley": 2971,
      "Ġproduced": 2972,
      "Ġautom": 2973,
      "Ġful": 2974,
      "Ġaspect": 2975,
      "Ġemerg": 2976,
      "Ġprocesses": 2977,
      "Ġnegative": 2978,
      "Ġroot": 2979,
      "Ġarg": 2980,
      "Ġstrength": 2981,
      "Ġdest": 2982,
      "Ġactive": 2983,
      "Ġweeks": 2984,
      "ening": 2985,
      "Ġeating": 2986,
      "Ġrespect": 2987,
      "Ġcosts": 2988,
      "house": 2989,
      "oming": 2990,
      "Ġlocation": 2991,
      "iable": 2992,
      "nter": 2993,
      "vest": 2994,
      "Ġfab": 2995,
      "sequ": 2996,
      "Ġalg": 2997,
      "Ġseeds": 2998,
      "Ġcomponents": 2999,
      "irth": 3000,
      "Ġplat": 3001,
      "ĠNot": 3002,
      "epend": 3003,
      "ĠCal": 3004,
      "Ġtrying": 3005,
      "atives": 3006,
      "Ġbud": 3007,
      "ĠArab": 3008,
      "osition": 3009,
      "istry": 3010,
      "Ġsugar": 3011,
      "artment": 3012,
      "Ġdetail": 3013,
      "rist": 3014,
      "AR": 3015,
      "IG": 3016,
      "head": 3017,
      "raft": 3018,
      "ĠSchool": 3019,
      "Ġprice": 3020,
      "ĠAss": 3021,
      "Ġguide": 3022,
      "OT": 3023,
      "Ġstore": 3024,
      "\",": 3025,
      "Ġast": 3026,
      "pper": 3027,
      "Ġpiece": 3028,
      "Ġinitial": 3029,
      "ĠAfric": 3030,
      "sp": 3031,
      "Ġsearch": 3032,
      "Ġemot": 3033,
      "Ġaware": 3034,
      "Ġconstant": 3035,
      "Ġhar": 3036,
      "Ġang": 3037,
      "overed": 3038,
      "Ġresponse": 3039,
      "Ġmembers": 3040,
      "Ġsix": 3041,
      "Ġinstruct": 3042,
      "Ġmusic": 3043,
      "But": 3044,
      "Ġcard": 3045,
      "ellig": 3046,
      "Ġrecent": 3047,
      "Ġprinc": 3048,
      "Ġbuilt": 3049,
      "Ġrecommended": 3050,
      "ĠAust": 3051,
      "ĠStates": 3052,
      "Ġelse": 3053,
      "Ġgreater": 3054,
      "inct": 3055,
      "Ġsand": 3056,
      "irm": 3057,
      "ervation": 3058,
      "clusion": 3059,
      "Ġelectrical": 3060,
      "water": 3061,
      "Ġaction": 3062,
      "itute": 3063,
      "ops": 3064,
      "Ġgenes": 3065,
      "Ġpublished": 3066,
      "Ġgovernment": 3067,
      "ography": 3068,
      "32": 3069,
      "Ġbed": 3070,
      "anks": 3071,
      "iring": 3072,
      "Ġdefin": 3073,
      "Ġexercise": 3074,
      "Ġbreat": 3075,
      "Ġusers": 3076,
      "Ġkit": 3077,
      "Ġpret": 3078,
      "ricult": 3079,
      "Ġsignificantly": 3080,
      "vere": 3081,
      "Ġsoon": 3082,
      "icial": 3083,
      "Ġlate": 3084,
      "Ġswe": 3085,
      "Ġcross": 3086,
      "Ġconcent": 3087,
      "Ġoutput": 3088,
      "Ġdeveloping": 3089,
      "Ġobtain": 3090,
      "Ġallowing": 3091,
      "Ġmoist": 3092,
      "eb": 3093,
      "Ġtub": 3094,
      "abet": 3095,
      "Ġapplication": 3096,
      "sych": 3097,
      "Is": 3098,
      "Ġoriginal": 3099,
      "ping": 3100,
      "itation": 3101,
      "Ġstyle": 3102,
      "ĠMore": 3103,
      "ĠâĢ¦": 3104,
      "aries": 3105,
      "Ġdiv": 3106,
      "Ġsupply": 3107,
      "cles": 3108,
      "Ġimages": 3109,
      "Ġlimited": 3110,
      "ĠMost": 3111,
      "Ġinvolved": 3112,
      "ĠResearch": 3113,
      "ĠMy": 3114,
      "Ġmemory": 3115,
      "Ġinnov": 3116,
      "Ġcenter": 3117,
      "Ġswitch": 3118,
      "iny": 3119,
      "ĠAm": 3120,
      "Ġitems": 3121,
      "iful": 3122,
      "Ġgene": 3123,
      "Ġcritical": 3124,
      "Ġprior": 3125,
      "Ġball": 3126,
      "imin": 3127,
      "ĠOf": 3128,
      "Ġblock": 3129,
      "Ġvalu": 3130,
      "Ġseries": 3131,
      "Ġload": 3132,
      "Ġevents": 3133,
      "Ġmedia": 3134,
      "Ġproperly": 3135,
      "vant": 3136,
      "onic": 3137,
      "rogen": 3138,
      "Ġforce": 3139,
      "Ġprograms": 3140,
      "Ġwriting": 3141,
      "Ġappropri": 3142,
      "Ġhabit": 3143,
      "unch": 3144,
      "Ġprojects": 3145,
      "come": 3146,
      "cri": 3147,
      "wh": 3148,
      "Ġ+": 3149,
      "Ġforms": 3150,
      "Ġmaintenance": 3151,
      "Ġportion": 3152,
      "Be": 3153,
      "Ġtable": 3154,
      "Ġmeat": 3155,
      "Ġclaim": 3156,
      "Ġutil": 3157,
      "back": 3158,
      "eration": 3159,
      "ached": 3160,
      "Ġfilm": 3161,
      "Ġnutri": 3162,
      "He": 3163,
      "hel": 3164,
      "Ġmom": 3165,
      "icate": 3166,
      "omet": 3167,
      "ĠThen": 3168,
      "Ġimmedi": 3169,
      "Ġimplement": 3170,
      "bing": 3171,
      "isions": 3172,
      "Ġseed": 3173,
      "Ġ--": 3174,
      "Ġfix": 3175,
      "term": 3176,
      "Ġexcess": 3177,
      "Ġdisp": 3178,
      "Ġoption": 3179,
      "Ġbalance": 3180,
      "rial": 3181,
      "sh": 3182,
      "ocol": 3183,
      "Ġimpl": 3184,
      "Ġsurround": 3185,
      "Ġimportance": 3186,
      "Ġtemperatures": 3187,
      "ightly": 3188,
      "Ġpriv": 3189,
      "ĠKe": 3190,
      "Ġ,": 3191,
      "Ġinput": 3192,
      "vey": 3193,
      "ĠPre": 3194,
      "ĠDep": 3195,
      "Ġvalues": 3196,
      "Ġserious": 3197,
      "Ġmoving": 3198,
      "ests": 3199,
      "ĠYes": 3200,
      "Ġcommonly": 3201,
      "Ġcompletely": 3202,
      "Ġchallenges": 3203,
      "bol": 3204,
      "wise": 3205,
      "illing": 3206,
      "ĠGe": 3207,
      "Ġvisit": 3208,
      "atching": 3209,
      "Ġpatterns": 3210,
      "Ġgoes": 3211,
      "Ġdang": 3212,
      "Ġsuitable": 3213,
      "Ġleave": 3214,
      "Ġremember": 3215,
      "Ġcry": 3216,
      "Ġyellow": 3217,
      "âĢĿ": 3218,
      "ribute": 3219,
      "Ġreducing": 3220,
      "ula": 3221,
      "Ġsection": 3222,
      "ensity": 3223,
      "ST": 3224,
      "Ġtips": 3225,
      "Ġrev": 3226,
      "Ġsex": 3227,
      "Ġdeath": 3228,
      "ogen": 3229,
      "ĠFr": 3230,
      "Ġpaint": 3231,
      "Ex": 3232,
      "Ġ/": 3233,
      "Ġflowers": 3234,
      "ino": 3235,
      "Ġuseful": 3236,
      "hood": 3237,
      "Ġfavor": 3238,
      "Ġconver": 3239,
      "Ġguid": 3240,
      "Ġingred": 3241,
      "28": 3242,
      "Can": 3243,
      "lands": 3244,
      "elt": 3245,
      "ĠWhy": 3246,
      "ĠNorth": 3247,
      "Ġfabric": 3248,
      "iate": 3249,
      "Ġinterf": 3250,
      "Ġtherapy": 3251,
      "Ġcontains": 3252,
      "Ġdemonst": 3253,
      "rees": 3254,
      "ĠInt": 3255,
      "Ġwear": 3256,
      "Ġvisual": 3257,
      "Ġrunning": 3258,
      "45": 3259,
      "ls": 3260,
      "Ġbenefit": 3261,
      "Ġmovement": 3262,
      "Ġabsor": 3263,
      "aks": 3264,
      "Ġsus": 3265,
      "Ġep": 3266,
      "ĠMe": 3267,
      "Ġrat": 3268,
      "Ġreturn": 3269,
      "36": 3270,
      "Ġpage": 3271,
      "Ġhope": 3272,
      "Ġthick": 3273,
      "ĠFrom": 3274,
      "Ġclin": 3275,
      "Ġstudent": 3276,
      "Ġbecomes": 3277,
      "Ġdistance": 3278,
      "fficient": 3279,
      "inally": 3280,
      "rick": 3281,
      "Ġaccept": 3282,
      "Ġtissue": 3283,
      "AT": 3284,
      "arge": 3285,
      "Ġpoor": 3286,
      "ributed": 3287,
      "Ġworth": 3288,
      "Ġce": 3289,
      "Ġreasons": 3290,
      "ĠUse": 3291,
      "Ġfactor": 3292,
      "ĠAlso": 3293,
      "Ġcro": 3294,
      "Ġcalcul": 3295,
      "By": 3296,
      "Ġdeal": 3297,
      "Ġpretty": 3298,
      "Ġtalk": 3299,
      "Ġfinal": 3300,
      "olar": 3301,
      "Ġsuff": 3302,
      "Ġplatform": 3303,
      "fl": 3304,
      "hold": 3305,
      "mosp": 3306,
      "asks": 3307,
      "ĠAre": 3308,
      "Ġdepending": 3309,
      "ygen": 3310,
      "Ġgoal": 3311,
      "Ġgets": 3312,
      "Ġfertil": 3313,
      "Cl": 3314,
      "iot": 3315,
      "Ġdro": 3316,
      "Ġseems": 3317,
      "Ġinfl": 3318,
      "Ġbottom": 3319,
      "Ġprefer": 3320,
      "Ġspeak": 3321,
      "ĠIntern": 3322,
      "Ġrapid": 3323,
      "Ġpatient": 3324,
      "itude": 3325,
      "che": 3326,
      "Ġlack": 3327,
      "ieved": 3328,
      "ĠArt": 3329,
      "Ġbirth": 3330,
      "Ġevalu": 3331,
      "Ġcommit": 3332,
      "Con": 3333,
      "ĠÂ": 3334,
      "Ġupon": 3335,
      "ologies": 3336,
      "-to": 3337,
      "26": 3338,
      "Ġincluded": 3339,
      "Ġexpress": 3340,
      "Ġcompanies": 3341,
      "On": 3342,
      "aly": 3343,
      "ifically": 3344,
      "Ġvacc": 3345,
      "Ġnothing": 3346,
      "Ġdisplay": 3347,
      "Ġcarry": 3348,
      "ribution": 3349,
      "Ġtransport": 3350,
      "Ġtechnique": 3351,
      "standing": 3352,
      "Ġcleaning": 3353,
      "Ġobjects": 3354,
      "Ġwrite": 3355,
      "Ġsustainable": 3356,
      "01": 3357,
      "Ġhun": 3358,
      "ana": 3359,
      "Ġgives": 3360,
      "Ġexcell": 3361,
      "Ġteeth": 3362,
      "\".": 3363,
      "rs": 3364,
      "Ġhost": 3365,
      "Ġstage": 3366,
      "ocks": 3367,
      "âĢ¢": 3368,
      "ĠOur": 3369,
      "Ġreflect": 3370,
      "ai": 3371,
      "Ġnucle": 3372,
      "Ġprocessing": 3373,
      "Ġmeaning": 3374,
      "Ġcapacity": 3375,
      "Ġtheory": 3376,
      "Ġsuccessful": 3377,
      "Ġbeautiful": 3378,
      "35": 3379,
      "Ġsnow": 3380,
      "att": 3381,
      "Ġproced": 3382,
      "Ġcontroll": 3383,
      "Ġattract": 3384,
      ".g": 3385,
      "zing": 3386,
      "ille": 3387,
      "osure": 3388,
      "Ġsave": 3389,
      "Ġideal": 3390,
      "co": 3391,
      "ulated": 3392,
      "Ġextract": 3393,
      "ĠAmerica": 3394,
      "Ġelectricity": 3395,
      "While": 3396,
      "Ġaqu": 3397,
      "Ġfine": 3398,
      "odies": 3399,
      "Ġvary": 3400,
      "Ġwebsite": 3401,
      "craft": 3402,
      "rehe": 3403,
      "Ġbul": 3404,
      "iles": 3405,
      "Ġresponsible": 3406,
      "rael": 3407,
      "ĠAb": 3408,
      "ĠRem": 3409,
      "ĠGo": 3410,
      "Ġrain": 3411,
      "Ġpractices": 3412,
      "AC": 3413,
      "With": 3414,
      "onal": 3415,
      "Ġorganic": 3416,
      "ociety": 3417,
      "Ġhappens": 3418,
      "ipl": 3419,
      "wor": 3420,
      "ĠĠ": 3421,
      "ĠWhe": 3422,
      "Ġshap": 3423,
      "ĠWho": 3424,
      "mber": 3425,
      "Ġthr": 3426,
      "Ġreve": 3427,
      "Ġhair": 3428,
      "Ġaccur": 3429,
      "Ġadding": 3430,
      "roduction": 3431,
      "Ġexperiences": 3432,
      "Ġtouch": 3433,
      "ĠAustral": 3434,
      "more": 3435,
      "ĠMany": 3436,
      "Ġspot": 3437,
      "-e": 3438,
      "rew": 3439,
      "enn": 3440,
      "oud": 3441,
      "Ġexcept": 3442,
      "ĠPar": 3443,
      "Ġfeeding": 3444,
      "Ġsituation": 3445,
      "ancy": 3446,
      "Ġjo": 3447,
      "Ġlimit": 3448,
      "Ġdu": 3449,
      "Ġdecision": 3450,
      "Ġconstruction": 3451,
      "yp": 3452,
      "Ġready": 3453,
      "Ġconnected": 3454,
      "Ġheavy": 3455,
      "acing": 3456,
      "resp": 3457,
      "Ġvehicle": 3458,
      "Ġpump": 3459,
      "Ġfriends": 3460,
      "AN": 3461,
      "fish": 3462,
      "Ġcame": 3463,
      "imize": 3464,
      "cel": 3465,
      "ĠWest": 3466,
      "ĠNe": 3467,
      "hyd": 3468,
      "ĠIsrael": 3469,
      "Ġinvolves": 3470,
      "mp": 3471,
      "sc": 3472,
      "yond": 3473,
      "ster": 3474,
      "irt": 3475,
      "Ġeffort": 3476,
      "____": 3477,
      "dd": 3478,
      "ony": 3479,
      "Ġfa": 3480,
      "Ġtook": 3481,
      "rum": 3482,
      "Ġmotor": 3483,
      "Ġbroad": 3484,
      "-term": 3485,
      "oun": 3486,
      "Ġtesting": 3487,
      "Ġschools": 3488,
      "Ġdemand": 3489,
      "tes": 3490,
      "Ġelement": 3491,
      "Ġdocument": 3492,
      "abetes": 3493,
      "ister": 3494,
      "Ġfro": 3495,
      "Ġbill": 3496,
      "Ġrare": 3497,
      "rench": 3498,
      "Ġhands": 3499,
      "Ġthinking": 3500,
      "mm": 3501,
      "Ġthreat": 3502,
      "Ġfully": 3503,
      "Ġappropriate": 3504,
      "Ġevolution": 3505,
      "Ġresistance": 3506,
      "Ġfemale": 3507,
      "cking": 3508,
      "Ġsigns": 3509,
      "Ġmount": 3510,
      "Ġgar": 3511,
      "odes": 3512,
      "ĠReg": 3513,
      "Ġensuring": 3514,
      "Ġbaby": 3515,
      "ĠWar": 3516,
      "Ġrich": 3517,
      "Ġliter": 3518,
      "Ġcamera": 3519,
      "uge": 3520,
      "Ġatmosp": 3521,
      "Ġimag": 3522,
      "Ġcoast": 3523,
      "Ġpoly": 3524,
      "Ġprogress": 3525,
      "Ġsalt": 3526,
      "Ġoccurs": 3527,
      "Ġenhance": 3528,
      "Ġthous": 3529,
      "Ġkn": 3530,
      "Ġrequirements": 3531,
      "Ġpattern": 3532,
      "Ġplaces": 3533,
      "Ġlocated": 3534,
      "Ġchick": 3535,
      "Ġexpensive": 3536,
      "Ġculture": 3537,
      "OR": 3538,
      "Ġcart": 3539,
      "ffect": 3540,
      "Ġpref": 3541,
      "Ġvision": 3542,
      "ED": 3543,
      "Ġsent": 3544,
      "rates": 3545,
      "Ġpair": 3546,
      "ĠAg": 3547,
      "Ġcausing": 3548,
      "Ġmanufacture": 3549,
      "IT": 3550,
      "ided": 3551,
      "ĠNow": 3552,
      "rought": 3553,
      "Ġdrive": 3554,
      "Ġcooking": 3555,
      "Ġbone": 3556,
      "Ġsevere": 3557,
      "erences": 3558,
      "Ġexpert": 3559,
      "Ġvegetables": 3560,
      "-h": 3561,
      "ok": 3562,
      "pite": 3563,
      "Ġpick": 3564,
      "arr": 3565,
      "lege": 3566,
      "Ġlines": 3567,
      "Ġincorpor": 3568,
      "Ġformed": 3569,
      "Ġgradu": 3570,
      "Ġestim": 3571,
      "load": 3572,
      "key": 3573,
      "ĠMar": 3574,
      "Ġunc": 3575,
      "Ġapplied": 3576,
      "Ġvaluable": 3577,
      "inking": 3578,
      "orith": 3579,
      "Ġaren": 3580,
      "Ġintellig": 3581,
      "....": 3582,
      "Ġflo": 3583,
      "Ġgrass": 3584,
      "Ġwrong": 3585,
      "Ġalternative": 3586,
      "Ġstim": 3587,
      "Ġexamples": 3588,
      "Ġoxygen": 3589,
      "alle": 3590,
      "Ġstates": 3591,
      "ĠPe": 3592,
      "Ġoutd": 3593,
      "Ġbecame": 3594,
      "Ġpowerful": 3595,
      "Ġkeeping": 3596,
      "Ġvolt": 3597,
      "ero": 3598,
      "Ġforward": 3599,
      "Ġgraph": 3600,
      "Ġexcellent": 3601,
      "Ġpsych": 3602,
      "Ġled": 3603,
      "Ġcars": 3604,
      "Ġstarting": 3605,
      "Ġpromot": 3606,
      "Ġcollabor": 3607,
      "ĠTheir": 3608,
      "duc": 3609,
      "Ġsolid": 3610,
      ".com": 3611,
      "At": 3612,
      "EN": 3613,
      "gram": 3614,
      "Ġpow": 3615,
      "Ġpupp": 3616,
      "Ġfaster": 3617,
      "Ġbrown": 3618,
      "Ġlat": 3619,
      "Ġlands": 3620,
      "Ġteaching": 3621,
      "apter": 3622,
      "Ġcomponent": 3623,
      "aught": 3624,
      "lier": 3625,
      "off": 3626,
      "Ġ#": 3627,
      "aters": 3628,
      "Ġbag": 3629,
      "imens": 3630,
      "ĠEach": 3631,
      "Ġspir": 3632,
      "Ġfruit": 3633,
      "enge": 3634,
      "Ġmiss": 3635,
      "These": 3636,
      "ificial": 3637,
      "Ġflat": 3638,
      "Ġexpected": 3639,
      "Ġtaste": 3640,
      "-y": 3641,
      "Ġmouth": 3642,
      "Ġhomes": 3643,
      "Ġthird": 3644,
      "ĠMod": 3645,
      "igned": 3646,
      "Ġdepend": 3647,
      "Ġvolume": 3648,
      "Ġbike": 3649,
      "Ġeffectively": 3650,
      "Ġillust": 3651,
      "Ġdescribed": 3652,
      "And": 3653,
      "tings": 3654,
      "ously": 3655,
      "Ġopening": 3656,
      "Ġolder": 3657,
      "amed": 3658,
      "udd": 3659,
      "ĠFirst": 3660,
      "Ġaffected": 3661,
      "Ġcombination": 3662,
      "Ġwent": 3663,
      "Ġpul": 3664,
      "ada": 3665,
      "Ġweb": 3666,
      "ĠPer": 3667,
      "pping": 3668,
      "Ġemissions": 3669,
      "Ġcharge": 3670,
      "ĠAdditionally": 3671,
      "Re": 3672,
      "Ġmiddle": 3673,
      "Ġtox": 3674,
      "Ġgoals": 3675,
      "ĠâĢľ": 3676,
      "Ġtransfer": 3677,
      "Ġchanging": 3678,
      "Ġreceive": 3679,
      "Ġthus": 3680,
      "rage": 3681,
      "ials": 3682,
      "ibly": 3683,
      "ĠRed": 3684,
      "ĠLear": 3685,
      "Ġroll": 3686,
      "Ġvirus": 3687,
      "Ġopportunity": 3688,
      "Now": 3689,
      "Pl": 3690,
      "Ġupd": 3691,
      "Ġrelatively": 3692,
      "07": 3693,
      "Ġinform": 3694,
      "ĠAc": 3695,
      "ĠDi": 3696,
      "Ġbackground": 3697,
      "Ġcentury": 3698,
      "Ġnutrition": 3699,
      "enty": 3700,
      "raw": 3701,
      "ĠAccording": 3702,
      "Ġsecurity": 3703,
      "Ġsymbol": 3704,
      "Ġeducational": 3705,
      "05": 3706,
      "CS": 3707,
      "Ġder": 3708,
      "amb": 3709,
      "ĠMin": 3710,
      "They": 3711,
      "Ġarch": 3712,
      "Ġdepth": 3713,
      "ĠChe": 3714,
      "Ġbasis": 3715,
      "Ġpieces": 3716,
      "Ġlost": 3717,
      "ĠWater": 3718,
      "Ġexperiment": 3719,
      "ĠChrist": 3720,
      "Ġstrategies": 3721,
      "Ġdental": 3722,
      "Ġcoming": 3723,
      "empt": 3724,
      "Ġcontribute": 3725,
      "Ġtrend": 3726,
      "Ġoperations": 3727,
      "Ġfinan": 3728,
      "rehens": 3729,
      "oe": 3730,
      "Ġmid": 3731,
      "ĠBecause": 3732,
      "Ġtrig": 3733,
      "Ġinsp": 3734,
      "Ġcurrently": 3735,
      "Ġreported": 3736,
      "Ġwet": 3737,
      "Ġsmooth": 3738,
      "care": 3739,
      "cular": 3740,
      "iments": 3741,
      "que": 3742,
      "Ġhistor": 3743,
      "haps": 3744,
      "tical": 3745,
      "Ġnit": 3746,
      "apan": 3747,
      "ĠState": 3748,
      "hesis": 3749,
      "Ġinfection": 3750,
      "08": 3751,
      "oma": 3752,
      "ĠRec": 3753,
      "Ġproteins": 3754,
      "Ġinfluence": 3755,
      "Ġiron": 3756,
      "Ġlooks": 3757,
      "Ġund": 3758,
      "Ġcontext": 3759,
      "Ġreduced": 3760,
      "Step": 3761,
      "Ġthermal": 3762,
      "cast": 3763,
      "right": 3764,
      "Ġwalk": 3765,
      "Ġbin": 3766,
      "Ġcontribut": 3767,
      "gets": 3768,
      "Ġconsumption": 3769,
      "Ġforest": 3770,
      "AS": 3771,
      "inks": 3772,
      "ĠTw": 3773,
      "Ġsolutions": 3774,
      "Ġfilter": 3775,
      ".e": 3776,
      "ĠSm": 3777,
      "ĠJoh": 3778,
      "Ġplayers": 3779,
      "Ġslightly": 3780,
      "Ġmuscle": 3781,
      "Ġimmune": 3782,
      "Ġseparate": 3783,
      "Ġpicture": 3784,
      "zz": 3785,
      "Ġcateg": 3786,
      "Ġpric": 3787,
      "Ġadults": 3788,
      "ctors": 3789,
      "Ġplate": 3790,
      "Ġmag": 3791,
      "Ġadop": 3792,
      "Ġdetails": 3793,
      "Ġflex": 3794,
      "27": 3795,
      "Us": 3796,
      "Ġtail": 3797,
      "izations": 3798,
      "Ġtrack": 3799,
      "Ġ...": 3800,
      "ened": 3801,
      "Ġfile": 3802,
      "Ġfair": 3803,
      "omb": 3804,
      "Ġdeb": 3805,
      "ĠOther": 3806,
      "Ġpresence": 3807,
      "Ġfishing": 3808,
      "Ġhyp": 3809,
      "ĠCenter": 3810,
      "Ġfill": 3811,
      "Ġstream": 3812,
      "ĠOnce": 3813,
      "Ġindepend": 3814,
      "Ġsetting": 3815,
      "Ġinteresting": 3816,
      "ĠAir": 3817,
      "urance": 3818,
      "Ġrates": 3819,
      "ĠLet": 3820,
      "Ġrepair": 3821,
      "Ġphotos": 3822,
      "board": 3823,
      "Ġdri": 3824,
      "lebr": 3825,
      "uries": 3826,
      "cape": 3827,
      "Ġmut": 3828,
      "Ġdiabetes": 3829,
      "Ġregions": 3830,
      "Ġboard": 3831,
      "Ġproperty": 3832,
      "aul": 3833,
      "uary": 3834,
      "Ġocean": 3835,
      "urt": 3836,
      "umin": 3837,
      "Ġvia": 3838,
      "osystem": 3839,
      "ender": 3840,
      "ĠIts": 3841,
      "Ġanyone": 3842,
      "Ġalgorith": 3843,
      "Do": 3844,
      "Un": 3845,
      "Ġ:": 3846,
      "Ġmale": 3847,
      "Ġexhib": 3848,
      "Ġadvanced": 3849,
      "Ġantib": 3850,
      "Some": 3851,
      "xi": 3852,
      "Ġdepends": 3853,
      "Ġfields": 3854,
      "Ġwritten": 3855,
      "Ġpredict": 3856,
      "aur": 3857,
      "Ġdifferences": 3858,
      "Ġfunctions": 3859,
      "Ġingredients": 3860,
      "oly": 3861,
      "Ġwin": 3862,
      "Ġstem": 3863,
      "Ġstructures": 3864,
      "Ġcircuit": 3865,
      "Ġexisting": 3866,
      "Ġexactly": 3867,
      "ixt": 3868,
      "Ġtasks": 3869,
      "Ġmother": 3870,
      "Ġstar": 3871,
      "ĠPart": 3872,
      "ĠOver": 3873,
      "Ġcorresp": 3874,
      "Ġprofession": 3875,
      "Ġgreenhouse": 3876,
      "Ġinsects": 3877,
      "31": 3878,
      "Ġded": 3879,
      "Ġnational": 3880,
      "Ġstick": 3881,
      "Ġplaced": 3882,
      "ipes": 3883,
      "Ġresulting": 3884,
      "Ġreaction": 3885,
      "Ġeconomic": 3886,
      "09": 3887,
      "uly": 3888,
      "rain": 3889,
      "Ġhearing": 3890,
      "Ġdesired": 3891,
      "ĠJust": 3892,
      "Ġexpand": 3893,
      "hest": 3894,
      "unction": 3895,
      "ogs": 3896,
      "Ġcove": 3897,
      "arian": 3898,
      "Ġflavor": 3899,
      "Ġdiscovered": 3900,
      "Ġhandle": 3901,
      "However": 3902,
      "ament": 3903,
      "pped": 3904,
      "Ġrub": 3905,
      "place": 3906,
      "gery": 3907,
      "hetic": 3908,
      "Ġnutrients": 3909,
      "ams": 3910,
      "Ġdead": 3911,
      "Ġapply": 3912,
      "Ġtechnologies": 3913,
      "Ġinternational": 3914,
      "Ġfrequency": 3915,
      "29": 3916,
      "ĠGerm": 3917,
      "Ġarm": 3918,
      "ĠInstitute": 3919,
      "ĠEnglish": 3920,
      "\"ĊĊ": 3921,
      "Ã©": 3922,
      "Ġround": 3923,
      "Ġsmart": 3924,
      "Ġinstructions": 3925,
      "ken": 3926,
      "pre": 3927,
      "Ġsort": 3928,
      "icated": 3929,
      "ĠAct": 3930,
      "ĠSw": 3931,
      "Ġsaw": 3932,
      "Ġincreases": 3933,
      "Ġcharacteristics": 3934,
      "Ġconvers": 3935,
      "redit": 3936,
      "Ġcand": 3937,
      "Ġchance": 3938,
      "ĠNOT": 3939,
      "Ġinches": 3940,
      "Ġrecently": 3941,
      "Ġtransform": 3942,
      "Ġdistinct": 3943,
      "Ġplanning": 3944,
      "Ġsounds": 3945,
      "Ġstraight": 3946,
      "Ġappearance": 3947,
      "ober": 3948,
      "rim": 3949,
      "ildren": 3950,
      "Ġagricult": 3951,
      "Ġapprox": 3952,
      "Ġbehavi": 3953,
      "Ġbathroom": 3954,
      "ĠTH": 3955,
      "Ġchain": 3956,
      "Ġkill": 3957,
      "Ġnews": 3958,
      "Ġnoise": 3959,
      "Ġcutting": 3960,
      "ĠTechn": 3961,
      "Ġfluid": 3962,
      "iples": 3963,
      "Ġtrou": 3964,
      "Ġbeyond": 3965,
      "Ġdiscover": 3966,
      "ĠIndia": 3967,
      "cules": 3968,
      "Ġlabor": 3969,
      "itis": 3970,
      "Ġhuge": 3971,
      "Ġgames": 3972,
      "Ġrules": 3973,
      "Ġscale": 3974,
      "CA": 3975,
      "Se": 3976,
      "mission": 3977,
      "inated": 3978,
      "ĠFl": 3979,
      "Ġcompost": 3980,
      "Ġefforts": 3981,
      "Ġswim": 3982,
      "know": 3983,
      "Ġâ": 3984,
      "iling": 3985,
      "Ġmember": 3986,
      "Ġfeeling": 3987,
      "Ġfamilies": 3988,
      "ĠAfrica": 3989,
      "iar": 3990,
      "ios": 3991,
      "icro": 3992,
      "urally": 3993,
      "ĠSim": 3994,
      "Ġprepar": 3995,
      "Ġrecy": 3996,
      "Ġbecoming": 3997,
      "Ġdriving": 3998,
      "-like": 3999,
      "Ġcomfortable": 4000,
      "Ġdynam": 4001,
      "II": 4002,
      "anging": 4003,
      "Ġremains": 4004,
      "Ġlargest": 4005,
      "Ġshowed": 4006,
      "Ġcommunities": 4007,
      "ĠPhot": 4008,
      "Ġextremely": 4009,
      "42": 4010,
      "net": 4011,
      "Ġtax": 4012,
      "ications": 4013,
      "Ġbegan": 4014,
      "raction": 4015,
      "Ġclos": 4016,
      "ĠJapan": 4017,
      "Ġspecifically": 4018,
      "Ġhighlight": 4019,
      "Ġfinding": 4020,
      "cling": 4021,
      "Ġmiles": 4022,
      "Ġpull": 4023,
      "ĠBu": 4024,
      "Ġdoctor": 4025,
      "Ġbright": 4026,
      "Ġbeginning": 4027,
      "can": 4028,
      "Ġpush": 4029,
      "Ġcommer": 4030,
      "nderstanding": 4031,
      "Ġvoltage": 4032,
      "life": 4033,
      "Ġbooks": 4034,
      "Ġdat": 4035,
      "Ġnan": 4036,
      "ching": 4037,
      "ĠAnt": 4038,
      "Ġju": 4039,
      "Ġelectro": 4040,
      "Ġteachers": 4041,
      "Ġimmediately": 4042,
      "MS": 4043,
      "Ġmig": 4044,
      "ĠEven": 4045,
      "izer": 4046,
      "Ġresid": 4047,
      "ĠAlthough": 4048,
      "ashion": 4049,
      "Ġmarine": 4050,
      "Ġmaintaining": 4051,
      "Ġcore": 4052,
      "Ġheight": 4053,
      "Ġtherefore": 4054,
      "Ġoperation": 4055,
      "Ġmoment": 4056,
      "ups": 4057,
      "Ġtask": 4058,
      "eties": 4059,
      "Ġgiving": 4060,
      "ĠBrit": 4061,
      "Ġsynt": 4062,
      "Ġrelease": 4063,
      "Ġframe": 4064,
      "book": 4065,
      "iforn": 4066,
      "Ġbreast": 4067,
      "Ġfavorite": 4068,
      "99": 4069,
      "Ġthread": 4070,
      "Ġsites": 4071,
      "Ġecosystem": 4072,
      "Ġeth": 4073,
      "Ġstored": 4074,
      "allow": 4075,
      "Ġspend": 4076,
      "ĠUK": 4077,
      "Ġroots": 4078,
      "Ġroof": 4079,
      "Ġcollection": 4080,
      "Ġbatteries": 4081,
      "Ġcelebr": 4082,
      "Ġinflamm": 4083,
      "Here": 4084,
      "Ġign": 4085,
      "oration": 4086,
      "Ġnav": 4087,
      "semb": 4088,
      "ighb": 4089,
      "Ġshar": 4090,
      "Ġmanage": 4091,
      "Ġmedium": 4092,
      "Ġallowed": 4093,
      "Ġequal": 4094,
      "PS": 4095,
      "Ġ|": 4096,
      "Ġax": 4097,
      "Ġonto": 4098,
      "Ġupper": 4099,
      "Ġsunlight": 4100,
      "Ġdegrees": 4101,
      "IS": 4102,
      "bed": 4103,
      "cop": 4104,
      "Ġcounter": 4105,
      "Ġversion": 4106,
      "06": 4107,
      "Ġhear": 4108,
      "ĠMake": 4109,
      "riendly": 4110,
      "Ġgenerate": 4111,
      "Ġnearly": 4112,
      "Ġmoisture": 4113,
      "ĠSte": 4114,
      "ĠSec": 4115,
      "oday": 4116,
      "ĠDis": 4117,
      "Ġnotice": 4118,
      "Ġattempt": 4119,
      "Ġreference": 4120,
      "Ġparticles": 4121,
      "ĠTherefore": 4122,
      "Ġmolecules": 4123,
      "Ġfinancial": 4124,
      "-r": 4125,
      "bit": 4126,
      "Ġfigure": 4127,
      "lex": 4128,
      "Ġhit": 4129,
      "ilit": 4130,
      "eters": 4131,
      "Ġchann": 4132,
      "ĠFrench": 4133,
      "ĠGl": 4134,
      "Ġelimin": 4135,
      "hemat": 4136,
      "Ġharvest": 4137,
      "Ġcovered": 4138,
      "ĠGra": 4139,
      "Ġraw": 4140,
      "Ġenter": 4141,
      "Ġmuscles": 4142,
      "Ġreceived": 4143,
      "erals": 4144,
      "ceed": 4145,
      "Ġalthough": 4146,
      "Ġvital": 4147,
      "Ġagg": 4148,
      "ĠProf": 4149,
      "Ġvitamin": 4150,
      "Ġprivate": 4151,
      "Ġcommercial": 4152,
      "Ar": 4153,
      "ancing": 4154,
      "ĠSince": 4155,
      "abilities": 4156,
      "ĠHigh": 4157,
      "ressive": 4158,
      "ĠYork": 4159,
      "Ġinstance": 4160,
      "Ġshell": 4161,
      "Ġjourney": 4162,
      "Ġbodies": 4163,
      "othe": 4164,
      "celer": 4165,
      "Ġdoor": 4166,
      "Ġcontract": 4167,
      "Ġscen": 4168,
      "Ġpool": 4169,
      "ĠKing": 4170,
      "Ġbran": 4171,
      "Ġfollowed": 4172,
      "Ġtests": 4173,
      "Ġrisks": 4174,
      "Ġidentified": 4175,
      "Ġwalls": 4176,
      "Ġexperienced": 4177,
      "Ġwonder": 4178,
      "ĠRep": 4179,
      "Ġpregn": 4180,
      "Ġqual": 4181,
      "ĠJan": 4182,
      "Ġphase": 4183,
      "Ġdistribution": 4184,
      "Ġcontainer": 4185,
      "Ġcalc": 4186,
      "Ġconcerns": 4187,
      "minist": 4188,
      "Ġadvantage": 4189,
      "Our": 4190,
      "ying": 4191,
      "erate": 4192,
      "Ġdate": 4193,
      "Ġhorse": 4194,
      "rehensive": 4195,
      "Ġwire": 4196,
      "Ġlov": 4197,
      "estic": 4198,
      "Ġheating": 4199,
      "Ġelectronic": 4200,
      "Ġobserved": 4201,
      "Ġfight": 4202,
      "Ġnest": 4203,
      "Ġbutter": 4204,
      "xiety": 4205,
      "Des": 4206,
      "Ġsess": 4207,
      "Ġtoile": 4208,
      "Ġhorm": 4209,
      "otic": 4210,
      "ĠBr": 4211,
      "Ġowners": 4212,
      "ipping": 4213,
      "Ġrelationships": 4214,
      "Ġopportunities": 4215,
      "Ġbid": 4216,
      "Ġrepe": 4217,
      "Ġrocks": 4218,
      "Ġapprec": 4219,
      "Ġdecisions": 4220,
      "Ġremoved": 4221,
      "equ": 4222,
      "Ġsold": 4223,
      "oman": 4224,
      "olved": 4225,
      "-year": 4226,
      "ifornia": 4227,
      "met": 4228,
      "Ġmel": 4229,
      "Ġancient": 4230,
      "ĠEvery": 4231,
      "Ġtrain": 4232,
      "Ġstring": 4233,
      "Ġmeasures": 4234,
      "Ġdegree": 4235,
      "Ġestablish": 4236,
      "Ġdouble": 4237,
      "ban": 4238,
      "inating": 4239,
      "omy": 4240,
      "ĠEd": 4241,
      "Ġflight": 4242,
      "Ġexposure": 4243,
      "azing": 4244,
      "Ġchallenge": 4245,
      "Ġsteel": 4246,
      "Ġpanels": 4247,
      "Ġasked": 4248,
      "Ġmedicine": 4249,
      "Ġweld": 4250,
      "iced": 4251,
      "uration": 4252,
      "ester": 4253,
      "Ġchrom": 4254,
      "Ġnote": 4255,
      "ĠRuss": 4256,
      "ffee": 4257,
      "rupt": 4258,
      "onding": 4259,
      "Im": 4260,
      "mar": 4261,
      "zy": 4262,
      "Ġbow": 4263,
      "alt": 4264,
      "Ġstuff": 4265,
      "Ġactual": 4266,
      "Ġhappy": 4267,
      "Ġanti": 4268,
      "related": 4269,
      "cers": 4270,
      "dom": 4271,
      "Ġdrop": 4272,
      "Ġrise": 4273,
      "Ġspect": 4274,
      "Ġdesigns": 4275,
      "Ġfloor": 4276,
      "ĠChar": 4277,
      "Ġnumerous": 4278,
      "Ġmembr": 4279,
      "ocolate": 4280,
      "RO": 4281,
      "Ġ*": 4282,
      "Ġfol": 4283,
      "Ġlose": 4284,
      "Ġgad": 4285,
      "pec": 4286,
      "ĠBar": 4287,
      "ĠRead": 4288,
      "Ġpassage": 4289,
      "Ġdrawing": 4290,
      "Ġatmosphere": 4291,
      "-up": 4292,
      "55": 4293,
      "wide": 4294,
      "Ġtiny": 4295,
      "Ġmob": 4296,
      "Ġexec": 4297,
      "Ġearlier": 4298,
      "Ġadvice": 4299,
      "Ġsuggests": 4300,
      "Ġsample": 4301,
      "pan": 4302,
      "aled": 4303,
      "osite": 4304,
      "ĠBo": 4305,
      "orthern": 4306,
      "Ġplug": 4307,
      "Ġimproved": 4308,
      "Ġvirt": 4309,
      "Ġpurchase": 4310,
      "ĠUsing": 4311,
      "Ġdisorders": 4312,
      "ype": 4313,
      "Ġsav": 4314,
      "outhern": 4315,
      "Ġoccas": 4316,
      "-qu": 4317,
      "After": 4318,
      "ius": 4319,
      "lt": 4320,
      "ped": 4321,
      "Ġhous": 4322,
      "uth": 4323,
      "unk": 4324,
      "Ġriver": 4325,
      "ĠEm": 4326,
      "Ġcompar": 4327,
      "Ġdiss": 4328,
      "Ġsyn": 4329,
      "Ġsurpr": 4330,
      "Ġsurgery": 4331,
      "Ġsizes": 4332,
      "ĠSk": 4333,
      "Ġheld": 4334,
      "ĠFIG": 4335,
      "ptember": 4336,
      "Ġregarding": 4337,
      "Ġmaximum": 4338,
      "Ġaccurate": 4339,
      "04": 4340,
      "Ġexpression": 4341,
      "Ġfindings": 4342,
      "undred": 4343,
      "ternal": 4344,
      "ĠClass": 4345,
      "Ġpollution": 4346,
      "Ġaspects": 4347,
      "Int": 4348,
      "een": 4349,
      "ĠSystem": 4350,
      "illi": 4351,
      "ĠEl": 4352,
      "inding": 4353,
      "...Ċ": 4354,
      "Ġleaders": 4355,
      "Ġplanet": 4356,
      "Ġparam": 4357,
      "ibrary": 4358,
      "ĠEuropean": 4359,
      "Ġthousands": 4360,
      "known": 4361,
      "-re": 4362,
      "95": 4363,
      "All": 4364,
      "Ġplays": 4365,
      "Ġblog": 4366,
      "Ġflood": 4367,
      "iction": 4368,
      "Ġchicken": 4369,
      "02": 4370,
      "Ġmis": 4371,
      "ĠAv": 4372,
      "ulf": 4373,
      "ĠCle": 4374,
      "Ġweak": 4375,
      "Ġobvious": 4376,
      "Ġgrown": 4377,
      "Ġleads": 4378,
      "Ġtopic": 4379,
      "ny": 4380,
      "aser": 4381,
      "ĠCount": 4382,
      "Ġsche": 4383,
      "Ġcoat": 4384,
      "Ġpractical": 4385,
      "Ġcouple": 4386,
      "Ġjournal": 4387,
      "Ġdetailed": 4388,
      "Ġclinical": 4389,
      "Ph": 4390,
      "].": 4391,
      "Ġtooth": 4392,
      "icks": 4393,
      "Ġnative": 4394,
      "Ġstaff": 4395,
      "ĠSu": 4396,
      "ads": 4397,
      "Ġtrust": 4398,
      "Ġhealthcare": 4399,
      "Ġwanted": 4400,
      "Ġclasses": 4401,
      "Ġchanged": 4402,
      "ĠAdd": 4403,
      "iol": 4404,
      "Ġfear": 4405,
      "umn": 4406,
      "Ġcommand": 4407,
      "Ġpopulations": 4408,
      "Ġcentral": 4409,
      "Ġadvance": 4410,
      "iveness": 4411,
      "Ġserve": 4412,
      "Ġindustrial": 4413,
      "ĠCalifornia": 4414,
      "44": 4415,
      "AL": 4416,
      "cious": 4417,
      "Ġtalking": 4418,
      "Ġmist": 4419,
      "add": 4420,
      "Ġneighb": 4421,
      "Ġorganization": 4422,
      "Ġperformed": 4423,
      "ifying": 4424,
      "Ġconnection": 4425,
      "Ġinternal": 4426,
      "Ġspirit": 4427,
      "Res": 4428,
      "iology": 4429,
      "Ġshoot": 4430,
      "Ġteach": 4431,
      "Ġmostly": 4432,
      "Ġgeneration": 4433,
      "-sh": 4434,
      "Ġengineering": 4435,
      "Ġmotion": 4436,
      "ĠArabia": 4437,
      "OS": 4438,
      "ica": 4439,
      "Ġhour": 4440,
      "Ġnotes": 4441,
      "Ġconsult": 4442,
      "Ġconstruct": 4443,
      "Ġregularly": 4444,
      "ĠWhether": 4445,
      "EM": 4446,
      "inger": 4447,
      "Ġmatch": 4448,
      "Ġvs": 4449,
      "Ġvoc": 4450,
      "ĠPhys": 4451,
      "ource": 4452,
      "Ġcup": 4453,
      "Ġlots": 4454,
      "Ġrenew": 4455,
      "olid": 4456,
      "Ġalone": 4457,
      "Ġrid": 4458,
      "ocular": 4459,
      "Ġplans": 4460,
      "ĠOct": 4461,
      "Ġfrequently": 4462,
      "Ġmanufacturing": 4463,
      "Ġharmful": 4464,
      "65": 4465,
      "Ġnamed": 4466,
      "Ġstre": 4467,
      "ĠWell": 4468,
      "Ġcoffee": 4469,
      "uble": 4470,
      "ologist": 4471,
      "Ġexperts": 4472,
      "Ġstarts": 4473,
      "Ġmonit": 4474,
      "Ġhighest": 4475,
      "works": 4476,
      "03": 4477,
      "AD": 4478,
      "nes": 4479,
      "Ġcert": 4480,
      "Ġstru": 4481,
      "Ġphone": 4482,
      "Ġpotentially": 4483,
      "Ġdrugs": 4484,
      "bl": 4485,
      "iet": 4486,
      "Ġtri": 4487,
      "itect": 4488,
      "Ġhosp": 4489,
      "ĠCre": 4490,
      "inder": 4491,
      "Ġdish": 4492,
      "Ġformat": 4493,
      "Ġsignals": 4494,
      "Ġsecure": 4495,
      "Ġaircraft": 4496,
      "Ġprepared": 4497,
      "mat": 4498,
      "rating": 4499,
      "time": 4500,
      "Ġtour": 4501,
      "Ġtoward": 4502,
      "asp": 4503,
      "used": 4504,
      "eling": 4505,
      "ĠServ": 4506,
      "Ġorient": 4507,
      "ĠDoes": 4508,
      "Ġillness": 4509,
      "Ġplease": 4510,
      "ĠDesign": 4511,
      "33": 4512,
      "Ġmamm": 4513,
      "icious": 4514,
      "Ġstone": 4515,
      "Ġcompress": 4516,
      "Ġcolour": 4517,
      "Ġhelping": 4518,
      "Ġartificial": 4519,
      "Are": 4520,
      "Ġmold": 4521,
      "Ġgut": 4522,
      "idth": 4523,
      "elines": 4524,
      "Ġvibr": 4525,
      "Ġselection": 4526,
      "Ġcloth": 4527,
      "Ġhelpful": 4528,
      "ĠJuly": 4529,
      "Ġacad": 4530,
      "Ġgrav": 4531,
      "Ġinterested": 4532,
      "crete": 4533,
      "Ġpuppy": 4534,
      "Ġprofessionals": 4535,
      "AP": 4536,
      "Sp": 4537,
      "wood": 4538,
      "isher": 4539,
      "Ġshif": 4540,
      "ĠEduc": 4541,
      "pective": 4542,
      "Ġcreative": 4543,
      "Ġpromote": 4544,
      "Ġindicate": 4545,
      "Ġprecise": 4546,
      "Ġfashion": 4547,
      "Ġhundred": 4548,
      "Ġcomplic": 4549,
      "Ġcontrast": 4550,
      "Ġamounts": 4551,
      "Ġwatch": 4552,
      "Ġfly": 4553,
      "aratus": 4554,
      "rote": 4555,
      "ĠAut": 4556,
      "estyle": 4557,
      "Ġvo": 4558,
      "istor": 4559,
      "ĠHave": 4560,
      "Ġacqu": 4561,
      "Ġtypical": 4562,
      "Ġmechanical": 4563,
      "Ġsweet": 4564,
      "ĠDepartment": 4565,
      "No": 4566,
      "Ġanxiety": 4567,
      "Ġexch": 4568,
      "Ġseat": 4569,
      "Ġallerg": 4570,
      "Ġpartners": 4571,
      "Ġtransition": 4572,
      "Ġextensive": 4573,
      "Ġlearned": 4574,
      "Ġappears": 4575,
      "Ġgadgets": 4576,
      "chen": 4577,
      "Ġpets": 4578,
      "Ġstories": 4579,
      "Ġshop": 4580,
      "oys": 4581,
      "Ġlights": 4582,
      "Ġbudget": 4583,
      "ĠAustralia": 4584,
      "Once": 4585,
      "That": 4586,
      "Ġhon": 4587,
      "abol": 4588,
      "ogle": 4589,
      "ĠFood": 4590,
      "Ġrelax": 4591,
      "Ġminerals": 4592,
      "Ġedge": 4593,
      "Ġmachines": 4594,
      "Ġwidely": 4595,
      "cription": 4596,
      "hop": 4597,
      "rows": 4598,
      "arium": 4599,
      "Ġpolit": 4600,
      "Ġbusinesses": 4601,
      "CE": 4602,
      "Ġmaster": 4603,
      "icking": 4604,
      "lease": 4605,
      "Ġnice": 4606,
      "idity": 4607,
      "ĠApr": 4608,
      "Ġwhose": 4609,
      "ĠDay": 4610,
      "ĠGreat": 4611,
      "ript": 4612,
      "Ġcombined": 4613,
      "Ġfruits": 4614,
      "Ġobtained": 4615,
      "eline": 4616,
      "ĠDon": 4617,
      "Ġconservation": 4618,
      "Ġsimpl": 4619,
      "Ġinsights": 4620,
      "Ġexposed": 4621,
      "iverse": 4622,
      "US": 4623,
      "ek": 4624,
      "vert": 4625,
      "ĠGreen": 4626,
      "anges": 4627,
      "ĠBlack": 4628,
      "Ġestablished": 4629,
      "-C": 4630,
      "-se": 4631,
      "39": 4632,
      "oom": 4633,
      "Ġsell": 4634,
      "atically": 4635,
      "orough": 4636,
      "ĠCor": 4637,
      "ĠBet": 4638,
      "vironments": 4639,
      "ĠProgram": 4640,
      "Ġsurfaces": 4641,
      "Ġradiation": 4642,
      "ĠEnvironment": 4643,
      "Ġintroduced": 4644,
      "75": 4645,
      "wers": 4646,
      "Ġden": 4647,
      "ulating": 4648,
      "ĠMon": 4649,
      "ĠJew": 4650,
      "Ġdiverse": 4651,
      "Ġreliable": 4652,
      "Ġveter": 4653,
      "Ġplaying": 4654,
      "ta": 4655,
      "yn": 4656,
      "Ġtit": 4657,
      "Ġspl": 4658,
      "Ġfold": 4659,
      "tery": 4660,
      "ĠGP": 4661,
      "Ġmeal": 4662,
      "Ġmaybe": 4663,
      "ishing": 4664,
      "ception": 4665,
      "Ġsaying": 4666,
      "Ġbillion": 4667,
      "Ab": 4668,
      "ran": 4669,
      "Ġfurn": 4670,
      "Ġspin": 4671,
      "ĠJune": 4672,
      "ĠVal": 4673,
      "ashing": 4674,
      "Ġcustomer": 4675,
      "Ġstrategy": 4676,
      "mitted": 4677,
      "ĠTrans": 4678,
      "Ġreferred": 4679,
      "Ġtoxic": 4680,
      "ares": 4681,
      "my": 4682,
      "Ġmit": 4683,
      "Ġyield": 4684,
      "Ġorange": 4685,
      "Ġcomprehensive": 4686,
      "Ġkid": 4687,
      "Ġapparatus": 4688,
      "-friendly": 4689,
      "Ġaffects": 4690,
      "Ġchemicals": 4691,
      "Ġten": 4692,
      "ado": 4693,
      "Ġvul": 4694,
      "Ġcham": 4695,
      "Ġchronic": 4696,
      "ought": 4697,
      "Ġconcepts": 4698,
      "Ġvehicles": 4699,
      "Ġconducted": 4700,
      ");": 4701,
      "LE": 4702,
      "och": 4703,
      "urrent": 4704,
      "Ġord": 4705,
      "abil": 4706,
      "osen": 4707,
      "Ġwash": 4708,
      "Ġsuppl": 4709,
      "Ġopin": 4710,
      "Ġcultural": 4711,
      "Ġresource": 4712,
      "Ġsituations": 4713,
      "Ġencourag": 4714,
      "Ġdangerous": 4715,
      "Ġcast": 4716,
      "ste": 4717,
      "charge": 4718,
      "ĠIns": 4719,
      "Ġvent": 4720,
      "Ġacceler": 4721,
      "ĠChina": 4722,
      "-free": 4723,
      "Ġinjury": 4724,
      "Ġapproximately": 4725,
      "My": 4726,
      "ira": 4727,
      "lines": 4728,
      "ued": 4729,
      "Ġsod": 4730,
      "Ġsides": 4731,
      "encies": 4732,
      "Ġbot": 4733,
      "omic": 4734,
      "umber": 4735,
      "ighter": 4736,
      "Ġneut": 4737,
      "ipped": 4738,
      "hors": 4739,
      "irus": 4740,
      "uments": 4741,
      "ĠMac": 4742,
      "Ġplenty": 4743,
      "Ġoptimal": 4744,
      "Ġeventually": 4745,
      "-quality": 4746,
      "Ġfed": 4747,
      "lev": 4748,
      "ĠGod": 4749,
      "Ġtransl": 4750,
      "Ġgenerated": 4751,
      "Ġtreated": 4752,
      "Ġlayers": 4753,
      "Ġsamples": 4754,
      "Ġsociety": 4755,
      "Ġpig": 4756,
      "Ġink": 4757,
      "Ġdensity": 4758,
      "umps": 4759,
      "Ġenvironments": 4760,
      "ager": 4761,
      "Ġdecades": 4762,
      "Ġdrain": 4763,
      "Ġsubstance": 4764,
      "Ġhousehold": 4765,
      "Ġconsistent": 4766,
      "48": 4767,
      "ech": 4768,
      "rations": 4769,
      "uce": 4770,
      "Ġfasc": 4771,
      "Ġborn": 4772,
      "Ġmac": 4773,
      "Ġisol": 4774,
      "Ġstat": 4775,
      "Ġdivers": 4776,
      "Ġtexture": 4777,
      "Ġconsidering": 4778,
      "Ġencourage": 4779,
      "ĠJohn": 4780,
      "body": 4781,
      "ees": 4782,
      "hus": 4783,
      "norm": 4784,
      "||": 4785,
      "Ġsem": 4786,
      "Ġbound": 4787,
      "Ġindu": 4788,
      "Ġreality": 4789,
      "ĠHouse": 4790,
      "Ġcoord": 4791,
      "Ġphoto": 4792,
      "Ġinfections": 4793,
      "Ġnavig": 4794,
      "bre": 4795,
      "ss": 4796,
      "wing": 4797,
      "ĠSupp": 4798,
      "Ġconc": 4799,
      "ĠBra": 4800,
      "ava": 4801,
      "Ġsets": 4802,
      "Ġrefrig": 4803,
      "Ġshel": 4804,
      "Ġtreatments": 4805,
      "Ġensures": 4806,
      "Ġmagnetic": 4807,
      "Ġadvantages": 4808,
      "Ġdrug": 4809,
      "Ġfailure": 4810,
      "Ġprices": 4811,
      "37": 4812,
      "ET": 4813,
      "alse": 4814,
      "Ġkept": 4815,
      "Ġchoosing": 4816,
      "Another": 4817,
      "Ġprepare": 4818,
      "Ġsurrounding": 4819,
      "ĠInternational": 4820,
      "-S": 4821,
      "38": 4822,
      "Ġphen": 4823,
      "Ġfer": 4824,
      "anes": 4825,
      "Ġstock": 4826,
      "antic": 4827,
      "ĠPC": 4828,
      "Ġperiods": 4829,
      "Ġconcern": 4830,
      "Ġhoriz": 4831,
      "flow": 4832,
      "Ġhop": 4833,
      "Ġconven": 4834,
      "Ġring": 4835,
      "ĠDuring": 4836,
      "Ġactions": 4837,
      "Ġvarieties": 4838,
      "Ġattack": 4839,
      "Ġmicrow": 4840,
      "ĠIndian": 4841,
      "Ġmathemat": 4842,
      "ĠKeep": 4843,
      "Ġestimated": 4844,
      "FA": 4845,
      "med": 4846,
      "Ġpup": 4847,
      "ented": 4848,
      "Ġlegs": 4849,
      "Ġuns": 4850,
      "ublic": 4851,
      "weight": 4852,
      "Ġplanting": 4853,
      "Ġnaturally": 4854,
      "Ġwarming": 4855,
      "Ġselected": 4856,
      "Ġratio": 4857,
      "Ġprocedure": 4858,
      "-th": 4859,
      ".)": 4860,
      "Ġfr": 4861,
      "Ġfrag": 4862,
      "Ġtold": 4863,
      "roke": 4864,
      "Ġstatus": 4865,
      "Ġshared": 4866,
      "Ġspaces": 4867,
      "Ġemp": 4868,
      "Ġorganizations": 4869,
      "Ġdetermined": 4870,
      "Ġinvestment": 4871,
      "Ġchoices": 4872,
      "ĠDevelop": 4873,
      "Ġsequence": 4874,
      "Ġsatis": 4875,
      "Ġintelligence": 4876,
      "Ġmild": 4877,
      "Ġrein": 4878,
      "Ġheard": 4879,
      "Ġrough": 4880,
      "Ġshad": 4881,
      "ĠThus": 4882,
      "âĢĻt": 4883,
      "Ġprimarily": 4884,
      "Ġkinds": 4885,
      "Ġiniti": 4886,
      "part": 4887,
      "za": 4888,
      "ishes": 4889,
      "Ġpa": 4890,
      "Ġped": 4891,
      "Ġvess": 4892,
      "oxide": 4893,
      "Ġradio": 4894,
      "force": 4895,
      "Ġsquare": 4896,
      "Ġgir": 4897,
      "ears": 4898,
      "Ġprey": 4899,
      "ologists": 4900,
      "Ġassum": 4901,
      "-be": 4902,
      "Ġdefined": 4903,
      "Ġdigest": 4904,
      "ÂŃ": 4905,
      "ometimes": 4906,
      "Ġexternal": 4907,
      "ĠMus": 4908,
      "iences": 4909,
      "Ġcarefully": 4910,
      "Ġessay": 4911,
      "Ġdamaged": 4912,
      "Ġreleased": 4913,
      "Ġfriend": 4914,
      "Ġversat": 4915,
      "Ġpreviously": 4916,
      "oors": 4917,
      "vents": 4918,
      "ico": 4919,
      "olute": 4920,
      "ĠSch": 4921,
      "atever": 4922,
      "ĠBel": 4923,
      "Ġunits": 4924,
      "Ġrelig": 4925,
      "phas": 4926,
      "phone": 4927,
      "Ġreprodu": 4928,
      "Ġformula": 4929,
      "Ġboost": 4930,
      "Ġapart": 4931,
      "Ġtruly": 4932,
      "Ġcustomers": 4933,
      "Ġchallenging": 4934,
      "ĠAssoci": 4935,
      "Ġtoilet": 4936,
      ".F": 4937,
      ".G": 4938,
      "/or": 4939,
      "con": 4940,
      "kin": 4941,
      "zen": 4942,
      "Ġfoss": 4943,
      "ĠMain": 4944,
      "ĠMarch": 4945,
      "Ġscr": 4946,
      "hyl": 4947,
      "Ġworked": 4948,
      "Ġformation": 4949,
      "Ġmajority": 4950,
      "ographic": 4951,
      "Ġprinciples": 4952,
      "]Ċ": 4953,
      "ux": 4954,
      "Ġsmell": 4955,
      "Ġsettings": 4956,
      "Ġdescribe": 4957,
      "Ġburn": 4958,
      "Ġdress": 4959,
      "anted": 4960,
      "ĠPark": 4961,
      "ĠHum": 4962,
      "Ġworry": 4963,
      "Ġperhaps": 4964,
      "ĠStep": 4965,
      "Ġbuff": 4966,
      "Ġrelevant": 4967,
      "Ġlatest": 4968,
      "cil": 4969,
      "gy": 4970,
      "Ġsend": 4971,
      "Ġdut": 4972,
      "Ġdivid": 4973,
      "aming": 4974,
      "ĠFurther": 4975,
      "agram": 4976,
      "ĠCanada": 4977,
      "Ġdecrease": 4978,
      "Ġoutdoor": 4979,
      "Ġstrugg": 4980,
      "Äģ": 4981,
      "Ġtum": 4982,
      "atin": 4983,
      "Ġpages": 4984,
      "Ġconsequ": 4985,
      "ĠOut": 4986,
      "Ġcapable": 4987,
      "Ġdetermining": 4988,
      "Ġstandards": 4989,
      "idden": 4990,
      "Ġ\\(": 4991,
      "gans": 4992,
      "ĠST": 4993,
      "ums": 4994,
      "Ġvac": 4995,
      "ĠMc": 4996,
      "orms": 4997,
      "irect": 4998,
      "Ġmetabol": 4999,
      "print": 5000,
      "Ġpurposes": 5001,
      "urable": 5002,
      "Ġbinocular": 5003,
      "Bl": 5004,
      "eding": 5005,
      "ĠFeb": 5006,
      "Ġdecor": 5007,
      "Ġrefers": 5008,
      "Ġimproving": 5009,
      "Ġwindow": 5010,
      "Ġaudio": 5011,
      "Ġkitchen": 5012,
      "yd": 5013,
      "Ġ<": 5014,
      "Ġbrought": 5015,
      "Ġhole": 5016,
      "Ġthorough": 5017,
      "Ġconcrete": 5018,
      "ivil": 5019,
      "erent": 5020,
      "ructure": 5021,
      "vention": 5022,
      "Ġshowing": 5023,
      "Ġcatch": 5024,
      "Ġlinked": 5025,
      "Ġroutine": 5026,
      "Ġemotional": 5027,
      "Ġhistorical": 5028,
      "41": 5029,
      "According": 5030,
      "Ġvel": 5031,
      "Ġaid": 5032,
      "inations": 5033,
      "isp": 5034,
      "Ġpil": 5035,
      "Ġband": 5036,
      "Ġdust": 5037,
      "otes": 5038,
      "ama": 5039,
      "ĠCare": 5040,
      "Ġcompounds": 5041,
      "Ġbrush": 5042,
      "aws": 5043,
      "Ġrespond": 5044,
      "Ġmessage": 5045,
      "ĠJanuary": 5046,
      "Ġvulner": 5047,
      "AM": 5048,
      "VID": 5049,
      "rans": 5050,
      "atural": 5051,
      "Ġwaters": 5052,
      "Ġpure": 5053,
      "Ġmixt": 5054,
      "ĠAN": 5055,
      "Ġshoes": 5056,
      "Ġwasn": 5057,
      "ardens": 5058,
      "Ġexperiments": 5059,
      "Ġcreation": 5060,
      "Ġdistributed": 5061,
      "Ġcreates": 5062,
      "-time": 5063,
      "----------------": 5064,
      "More": 5065,
      "Most": 5066,
      "Many": 5067,
      "ki": 5068,
      "ky": 5069,
      "Ġsed": 5070,
      "ndom": 5071,
      "Ġpal": 5072,
      "icip": 5073,
      "Ġstages": 5074,
      "ĠRiver": 5075,
      "Ġoffering": 5076,
      "Ġdecided": 5077,
      "Ġelectron": 5078,
      "Ġorganisms": 5079,
      "Ġbeneficial": 5080,
      "Ġturns": 5081,
      "Ġhabitat": 5082,
      "bles": 5083,
      "itution": 5084,
      "iration": 5085,
      "ĠSur": 5086,
      "asts": 5087,
      "ĠGold": 5088,
      "ruary": 5089,
      "Ġcheese": 5090,
      "Ġfocused": 5091,
      "eper": 5092,
      "Ġsong": 5093,
      "ingu": 5094,
      "Ġfilled": 5095,
      "Ġdie": 5096,
      "utor": 5097,
      "Ġenable": 5098,
      "Ġleaving": 5099,
      "Ġsports": 5100,
      "Ġoutc": 5101,
      "Ġplayer": 5102,
      "Ġvisible": 5103,
      "Ġelev": 5104,
      "Ġprogramming": 5105,
      "ĠSeptember": 5106,
      "Ġcryst": 5107,
      "CC": 5108,
      "chers": 5109,
      "Ġwest": 5110,
      "itary": 5111,
      "asure": 5112,
      "Ġstable": 5113,
      "Ġalt": 5114,
      "Ġclick": 5115,
      "Ġspent": 5116,
      "irds": 5117,
      "Ġequation": 5118,
      "Ġbelong": 5119,
      "Ġhabits": 5120,
      "Ġfarmers": 5121,
      "Ġwait": 5122,
      "Ġcrops": 5123,
      "Ġshapes": 5124,
      "ĠApril": 5125,
      "Ġtried": 5126,
      "Ġdin": 5127,
      "ompl": 5128,
      "Ġnorth": 5129,
      "ĠPres": 5130,
      "Ġrule": 5131,
      "Ġleaf": 5132,
      "Ġwheel": 5133,
      "ĠGet": 5134,
      "Ġincred": 5135,
      "Ġamazing": 5136,
      "Ġremote": 5137,
      "Ġfiber": 5138,
      "which": 5139,
      "Ġcloser": 5140,
      "Ġinflammation": 5141,
      "En": 5142,
      "crib": 5143,
      "mary": 5144,
      "rus": 5145,
      "ugg": 5146,
      "ĠQ": 5147,
      "Ġsouth": 5148,
      "itches": 5149,
      "Ġbones": 5150,
      "Ġsty": 5151,
      "Ġcontinues": 5152,
      "Ġimpacts": 5153,
      "Ġlenses": 5154,
      "Ġangle": 5155,
      "34": 5156,
      "Ke": 5157,
      "ynt": 5158,
      "Ġtherap": 5159,
      "Ġwaves": 5160,
      "ĠAug": 5161,
      "ĠCat": 5162,
      "Ġhaz": 5163,
      "ĠBoth": 5164,
      "Ġneur": 5165,
      "Ġchocolate": 5166,
      "roup": 5167,
      "âĢĭ": 5168,
      "Ġconsists": 5169,
      "Ġdeliver": 5170,
      "Ġmeasurement": 5171,
      "Ġdestro": 5172,
      "Ġindependent": 5173,
      "IL": 5174,
      "Your": 5175,
      "bal": 5176,
      "ias": 5177,
      "iers": 5178,
      "Ġment": 5179,
      "Ġclosed": 5180,
      "itely": 5181,
      "Ġauthors": 5182,
      "airy": 5183,
      "Ġbegins": 5184,
      "Ġpercentage": 5185,
      "Ġinfluen": 5186,
      "Ġdisorder": 5187,
      "DA": 5188,
      "OU": 5189,
      "Over": 5190,
      "cap": 5191,
      "iance": 5192,
      "iter": 5193,
      "org": 5194,
      "etics": 5195,
      "unte": 5196,
      "Ġrace": 5197,
      "Ġinstruction": 5198,
      "Ġoptim": 5199,
      "Ġinvolve": 5200,
      "Ġsensitive": 5201,
      "Ġbroken": 5202,
      "Ġturned": 5203,
      "Ġbidet": 5204,
      "Yes": 5205,
      "Ġtight": 5206,
      "Ġath": 5207,
      "olve": 5208,
      "ĠBas": 5209,
      "ĠDiff": 5210,
      "dule": 5211,
      "ĠLa": 5212,
      "angle": 5213,
      "Ġrandom": 5214,
      "Ġoffice": 5215,
      "Ġlocations": 5216,
      "Ġdrink": 5217,
      "Ġmeasured": 5218,
      "Ġfacing": 5219,
      "Ġsuggested": 5220,
      "Ġrecognize": 5221,
      "Ġmicrob": 5222,
      "Ġlifestyle": 5223,
      "inate": 5224,
      "Ġble": 5225,
      "Ġinject": 5226,
      "Ġchlor": 5227,
      "ĠHer": 5228,
      "active": 5229,
      "ĠGr": 5230,
      "ĠInter": 5231,
      "ĠâĢ¢": 5232,
      "Ġmainly": 5233,
      "Ġseeing": 5234,
      "ossible": 5235,
      "Ġcollected": 5236,
      "Rem": 5237,
      "isation": 5238,
      "arrow": 5239,
      "acking": 5240,
      "ĠHar": 5241,
      "ĠFe": 5242,
      "earing": 5243,
      "aker": 5244,
      "ube": 5245,
      "Ġsuccessfully": 5246,
      "Ġmixed": 5247,
      "bohyd": 5248,
      "Ġcalcium": 5249,
      "52": 5250,
      "Sc": 5251,
      "pen": 5252,
      "Ġson": 5253,
      "Ġwalking": 5254,
      "aning": 5255,
      "Ġforces": 5256,
      "Ġconclusion": 5257,
      "ĠWhere": 5258,
      "Ġseven": 5259,
      "ĠPers": 5260,
      "rier": 5261,
      "Ġrecovery": 5262,
      "porary": 5263,
      "Ġinternet": 5264,
      "Ġmorning": 5265,
      "Ġemergency": 5266,
      "Ġpreferences": 5267,
      "ĠPeople": 5268,
      "Ġrenewable": 5269,
      "organ": 5270,
      "rome": 5271,
      "Ġuniverse": 5272,
      "Ġjew": 5273,
      "Ġgrad": 5274,
      "Ġstudying": 5275,
      "Ġteacher": 5276,
      "IC": 5277,
      "mic": 5278,
      "with": 5279,
      "ĠTake": 5280,
      "ida": 5281,
      "emy": 5282,
      "Ġprem": 5283,
      "Ġworldwide": 5284,
      "Ġsurvive": 5285,
      "requ": 5286,
      "Ġmice": 5287,
      "ĠPy": 5288,
      "ĠMicro": 5289,
      "ĠDav": 5290,
      "Ġplates": 5291,
      "ĠForm": 5292,
      "orses": 5293,
      "Ġafford": 5294,
      "Ġeconomy": 5295,
      "TION": 5296,
      "ING": 5297,
      "ĠProfess": 5298,
      "-D": 5299,
      "Comp": 5300,
      "ait": 5301,
      "lers": 5302,
      "Ġassemb": 5303,
      "ection": 5304,
      "ĠHis": 5305,
      "reek": 5306,
      "Ġflav": 5307,
      "Ġofficial": 5308,
      "Ġnovel": 5309,
      "ropical": 5310,
      "clus": 5311,
      "Ġstatement": 5312,
      "Ġexplained": 5313,
      "Ġawareness": 5314,
      "Pre": 5315,
      "orrect": 5316,
      "unity": 5317,
      "ĠMark": 5318,
      "ially": 5319,
      "ĠLike": 5320,
      "Ġtrip": 5321,
      "Ġproducing": 5322,
      "Ġsurvey": 5323,
      "Ġminimum": 5324,
      "Ġprompt": 5325,
      "Ġembry": 5326,
      "ĠPower": 5327,
      "ĠElect": 5328,
      "pected": 5329,
      "Ġboat": 5330,
      "Ġengage": 5331,
      "Ġgran": 5332,
      "Ġphysic": 5333,
      "Ġvertical": 5334,
      "Ġmeeting": 5335,
      "Ġtissues": 5336,
      "ĠGuide": 5337,
      "Ġtube": 5338,
      "ĠEducation": 5339,
      "%)": 5340,
      "Ġahead": 5341,
      "ĠCB": 5342,
      "ĠUp": 5343,
      "Ġcream": 5344,
      "ĠAny": 5345,
      "Ġfunctional": 5346,
      "ĠPlan": 5347,
      "ĠEnergy": 5348,
      "Ġannual": 5349,
      "Ġbreath": 5350,
      "Ġrapidly": 5351,
      "Ġacademic": 5352,
      "Answer": 5353,
      "zed": 5354,
      "Ġwave": 5355,
      "ulum": 5356,
      "ocy": 5357,
      "ults": 5358,
      "Ġattacks": 5359,
      "Ġpolicy": 5360,
      "Ġconcentration": 5361,
      "ĠOctober": 5362,
      "-related": 5363,
      "Ġfig": 5364,
      "Ġfelt": 5365,
      "rog": 5366,
      "rade": 5367,
      "igen": 5368,
      "Ġstability": 5369,
      "ulin": 5370,
      "sec": 5371,
      "Ġconfirm": 5372,
      "Ġinstallation": 5373,
      "Ġwildlife": 5374,
      "Ġcontrolled": 5375,
      "allel": 5376,
      "!!": 5377,
      "Ġtun": 5378,
      "iture": 5379,
      "Ġye": 5380,
      "irty": 5381,
      "see": 5382,
      "abit": 5383,
      "ario": 5384,
      "Ġaccura": 5385,
      "ĠArch": 5386,
      "Ġcomputers": 5387,
      "Ġwindows": 5388,
      "Ġcooked": 5389,
      "Ġexcessive": 5390,
      "Ġvaccine": 5391,
      "Ġderived": 5392,
      "ĠBritish": 5393,
      "top": 5394,
      "Ġfur": 5395,
      "Ġretain": 5396,
      "unge": 5397,
      "Ġweigh": 5398,
      "Ġkne": 5399,
      "Ġampl": 5400,
      "Ġsolve": 5401,
      "Ġattached": 5402,
      "Ġpossess": 5403,
      "Ġtopics": 5404,
      "Ġbreeding": 5405,
      "Ġinnovative": 5406,
      "85": 5407,
      "Ġban": 5408,
      "Ġnation": 5409,
      "ĠSum": 5410,
      "Ġsufficient": 5411,
      "ague": 5412,
      "Ġemphas": 5413,
      "Ġsheet": 5414,
      "Ġbiological": 5415,
      "hemical": 5416,
      "Ġturb": 5417,
      "Ġinstalled": 5418,
      "Ġcapture": 5419,
      "Ġparticipants": 5420,
      "ĠÂ·": 5421,
      "Ġbinoculars": 5422,
      "Ġoutcomes": 5423,
      "-F": 5424,
      "97": 5425,
      "]ĊĊ": 5426,
      "what": 5427,
      "rest": 5428,
      "Ġbat": 5429,
      "Ġinner": 5430,
      "Ġstom": 5431,
      "Ġshift": 5432,
      "ĠDec": 5433,
      "Ġabund": 5434,
      "Ġincl": 5435,
      "Ġdiscovery": 5436,
      "Ġcareer": 5437,
      "Ġfiles": 5438,
      "ourses": 5439,
      "Ġlinear": 5440,
      "Ġerror": 5441,
      "Ġfriendly": 5442,
      "volution": 5443,
      "itors": 5444,
      "Ġmes": 5445,
      "idents": 5446,
      "ĠIS": 5447,
      "Ġcomment": 5448,
      "Ġvast": 5449,
      "Ġtechnical": 5450,
      "Ġlighting": 5451,
      "Ġenthus": 5452,
      "Ġchemistry": 5453,
      "Ġreactions": 5454,
      "Ġslowly": 5455,
      "Ġbeauty": 5456,
      "ĠConsider": 5457,
      "Ġfossil": 5458,
      "-le": 5459,
      "54": 5460,
      "oop": 5461,
      "ris": 5462,
      "uk": 5463,
      "ara": 5464,
      "Ġdram": 5465,
      "Ġeight": 5466,
      "Ġnerv": 5467,
      "ĠCam": 5468,
      "ovember": 5469,
      "Ġages": 5470,
      "oyal": 5471,
      "Ġseek": 5472,
      "Ġflower": 5473,
      "Ġcontaining": 5474,
      "Ġpainting": 5475,
      "Ġcircum": 5476,
      "Ġmeasurements": 5477,
      "Ġsteam": 5478,
      "Ġlegal": 5479,
      "arn": 5480,
      "lets": 5481,
      "Ġunlike": 5482,
      "Ġotherwise": 5483,
      "Ġtrad": 5484,
      "Ġphotograph": 5485,
      "Ġpresented": 5486,
      "Ġletter": 5487,
      "fortun": 5488,
      "Ġbalanced": 5489,
      "Ġcopy": 5490,
      "Ġfixed": 5491,
      "ĠTwo": 5492,
      "gers": 5493,
      "Ġtal": 5494,
      "ani": 5495,
      "rot": 5496,
      "uter": 5497,
      "Ġpros": 5498,
      "ĠCom": 5499,
      "osa": 5500,
      "Ġbuildings": 5501,
      "Ġzone": 5502,
      "Ġcorrectly": 5503,
      "Ġinteractions": 5504,
      "Â°C": 5505,
      "Ġinterface": 5506,
      "Ġdatab": 5507,
      "iest": 5508,
      "iant": 5509,
      "Ġhom": 5510,
      "Ġlic": 5511,
      "Ġgall": 5512,
      "Ġstret": 5513,
      "ĠBudd": 5514,
      "ĠHel": 5515,
      "ĠOff": 5516,
      "aked": 5517,
      "Ġinsurance": 5518,
      "ucose": 5519,
      "Ġfoundation": 5520,
      "Ġpolic": 5521,
      "Ġdefic": 5522,
      "Ġsupported": 5523,
      "Ġphysics": 5524,
      "Ġhappened": 5525,
      "Ġmolecular": 5526,
      "Ġhunting": 5527,
      "ĠGerman": 5528,
      "-on": 5529,
      "ya": 5530,
      "Ġtor": 5531,
      "Ġfo": 5532,
      "Ġfirm": 5533,
      "Ġtoler": 5534,
      "Ġnames": 5535,
      "ĠAng": 5536,
      "Ġproport": 5537,
      "Ġalign": 5538,
      "ĠBen": 5539,
      "Ġcomposition": 5540,
      "Ġadminist": 5541,
      "Ġoverl": 5542,
      "Ġemail": 5543,
      "Ġcarried": 5544,
      "Ġgrade": 5545,
      "Ġlock": 5546,
      "ĠProt": 5547,
      "Ġprofessor": 5548,
      "rability": 5549,
      "ĠCollege": 5550,
      "ĠInstead": 5551,
      "Ġmechanism": 5552,
      "ohol": 5553,
      "Ġmembrane": 5554,
      "cohol": 5555,
      "lim": 5556,
      "itting": 5557,
      "Ġrear": 5558,
      "Ġbear": 5559,
      "ĠTur": 5560,
      "urch": 5561,
      "Ġstri": 5562,
      "oding": 5563,
      "istory": 5564,
      "ĠLook": 5565,
      "rowing": 5566,
      "ords": 5567,
      "Ġbrief": 5568,
      "Ġexplains": 5569,
      "ĠExcel": 5570,
      "Ġnormally": 5571,
      "going": 5572,
      "Ġguidelines": 5573,
      "ĠAbout": 5574,
      "Ġarchitect": 5575,
      "normal": 5576,
      "-being": 5577,
      "\"The": 5578,
      "RI": 5579,
      "rors": 5580,
      "Ġmission": 5581,
      "ĠToday": 5582,
      "cember": 5583,
      "ĠII": 5584,
      "that": 5585,
      "Ġbutton": 5586,
      "apor": 5587,
      "Ġhelped": 5588,
      "Ġcoal": 5589,
      "inese": 5590,
      "ugs": 5591,
      "Ġzero": 5592,
      "Ġfinish": 5593,
      "Ġpanel": 5594,
      "Ġfamiliar": 5595,
      "Ġrefriger": 5596,
      "51": 5597,
      "53": 5598,
      "New": 5599,
      "Ġluck": 5600,
      "Ġintake": 5601,
      "Ġreduction": 5602,
      "Ġsensor": 5603,
      "Ġlabel": 5604,
      "Ġvideos": 5605,
      "Ġinjuries": 5606,
      "Ġsurvival": 5607,
      "Ġdoub": 5608,
      "ĠStudents": 5609,
      "dden": 5610,
      "ĠTechnology": 5611,
      "Ġmixture": 5612,
      "col": 5613,
      "Ġwrote": 5614,
      "ĠAC": 5615,
      "ivation": 5616,
      "Ġunless": 5617,
      "Ġindex": 5618,
      "Ġadds": 5619,
      "Ġtransp": 5620,
      "Ġapproaches": 5621,
      "Ġbigger": 5622,
      "Ġprinting": 5623,
      "Ġcommitment": 5624,
      "ĠFebruary": 5625,
      "):": 5626,
      "ras": 5627,
      "tion": 5628,
      "Ġmal": 5629,
      "using": 5630,
      "stract": 5631,
      "osal": 5632,
      "Ġsudden": 5633,
      "Ġshade": 5634,
      "Ġscrew": 5635,
      "Ġtraffic": 5636,
      "Ġaccident": 5637,
      "ĠKnow": 5638,
      "Ġboil": 5639,
      "Ġlesson": 5640,
      "arsh": 5641,
      "Ġparas": 5642,
      "ĠAtl": 5643,
      "ypes": 5644,
      "Ġdedicated": 5645,
      "ivery": 5646,
      "Ġsen": 5647,
      "Ġdirt": 5648,
      "ctic": 5649,
      "Ġstation": 5650,
      "Ġviol": 5651,
      "Ġmining": 5652,
      "ventional": 5653,
      "Ġdownload": 5654,
      "Ġcompleted": 5655,
      "Ġtested": 5656,
      "Ġhardware": 5657,
      "Ġhyper": 5658,
      "Ġsequences": 5659,
      "ĠMedic": 5660,
      "ĠCOVID": 5661,
      "Ġurban": 5662,
      "Ġmicrowave": 5663,
      "98": 5664,
      "pret": 5665,
      "Ġtension": 5666,
      "elcome": 5667,
      "ocking": 5668,
      "ĠEast": 5669,
      "Ġdepression": 5670,
      "Ġcomputing": 5671,
      "Ġfacilit": 5672,
      "Ġfunds": 5673,
      "Ġdiagnosis": 5674,
      "cript": 5675,
      "Conclusion": 5676,
      "ĠCheck": 5677,
      "Ġchamber": 5678,
      "Ġbottle": 5679,
      "-n": 5680,
      "roc": 5681,
      "rape": 5682,
      "eless": 5683,
      "ĠData": 5684,
      "Ġmap": 5685,
      "Ġcolle": 5686,
      "Ġknows": 5687,
      "Ġends": 5688,
      "Ġturning": 5689,
      "Ġmonitoring": 5690,
      "Ġhorizont": 5691,
      "Ġstomach": 5692,
      "/s": 5693,
      "46": 5694,
      "Cont": 5695,
      "alysis": 5696,
      "ĠMet": 5697,
      "ocity": 5698,
      "Ġadvent": 5699,
      "rue": 5700,
      "Ġjump": 5701,
      "Ġspray": 5702,
      "Ġscan": 5703,
      "Ġmovie": 5704,
      "Ġexercises": 5705,
      "ĠGoogle": 5706,
      "First": 5707,
      "son": 5708,
      "à¥": 5709,
      "heet": 5710,
      "Ġcere": 5711,
      "Ġtow": 5712,
      "Ġgun": 5713,
      "uted": 5714,
      "Ġorgans": 5715,
      "ĠWind": 5716,
      "acters": 5717,
      "Ġpreval": 5718,
      "asses": 5719,
      "order": 5720,
      "Ġproduces": 5721,
      "Ġaccompl": 5722,
      "Ġdecide": 5723,
      "Ġvariable": 5724,
      "Ġacids": 5725,
      "Ġhandling": 5726,
      "ĠAnother": 5727,
      "ĠExpl": 5728,
      "Ġsubstances": 5729,
      "ĠColor": 5730,
      "Ġclearly": 5731,
      "Ġaudience": 5732,
      "43": 5733,
      "CO": 5734,
      "EL": 5735,
      "Let": 5736,
      "oz": 5737,
      "point": 5738,
      "rite": 5739,
      "Ġcredit": 5740,
      "Ġfather": 5741,
      "lements": 5742,
      "Ġlake": 5743,
      "othes": 5744,
      "Ġadequ": 5745,
      "apers": 5746,
      "Ġaccum": 5747,
      "Ġregulations": 5748,
      "Ġfacts": 5749,
      "ĠPlant": 5750,
      "Ġrepresents": 5751,
      "Ġbuying": 5752,
      "Ġcorresponding": 5753,
      "Ġmobile": 5754,
      "Me": 5755,
      "iated": 5756,
      "uing": 5757,
      "Ġsou": 5758,
      "orous": 5759,
      "Ġgave": 5760,
      "olving": 5761,
      "Ġprol": 5762,
      "ĠPort": 5763,
      "ĠGood": 5764,
      "Ġunivers": 5765,
      "Ġinterior": 5766,
      "Ġskill": 5767,
      "Ġcommunicate": 5768,
      "Ġreports": 5769,
      "ĠSea": 5770,
      "ĠOrgan": 5771,
      "Ġrobot": 5772,
      "Ġpowder": 5773,
      "Ġdiversity": 5774,
      "49": 5775,
      "86": 5776,
      "ye": 5777,
      "arity": 5778,
      "ĠCD": 5779,
      "aint": 5780,
      "Ġship": 5781,
      "Ġraised": 5782,
      "Ġdioxide": 5783,
      "Ġdecl": 5784,
      "Ġsupplement": 5785,
      "Ġperspective": 5786,
      "Ġdepos": 5787,
      "Ġclassroom": 5788,
      "Ġprotected": 5789,
      "Ġclosely": 5790,
      "Ġrecognized": 5791,
      "Ġelectrons": 5792,
      "?\"": 5793,
      "nab": 5794,
      "Ġwidth": 5795,
      "ĠTor": 5796,
      "ĠSan": 5797,
      "ĠSee": 5798,
      "Ġrig": 5799,
      "Ġrice": 5800,
      "Ġplus": 5801,
      "ibilities": 5802,
      "ĠRob": 5803,
      "Ġworse": 5804,
      "Ġarticles": 5805,
      "hips": 5806,
      "Ġconfidence": 5807,
      "Ġthoughts": 5808,
      "Ġconsumers": 5809,
      "Ġdiscussed": 5810,
      "Ġfost": 5811,
      "iform": 5812,
      "ophy": 5813,
      "Ġcompl": 5814,
      "Ġtrade": 5815,
      "Ġraise": 5816,
      "Ġbelief": 5817,
      "Ġorigin": 5818,
      "Ġfleas": 5819,
      "Ġreplacement": 5820,
      "Ġdivision": 5821,
      "Ġsharp": 5822,
      "lin": 5823,
      "Ġaer": 5824,
      "inant": 5825,
      "Ġcm": 5826,
      "ĠIN": 5827,
      "Ġsector": 5828,
      "ĠInc": 5829,
      "Ġattach": 5830,
      "Ġconflic": 5831,
      "Ġmoved": 5832,
      "ĠBlue": 5833,
      "Ġcooling": 5834,
      "Ġrecords": 5835,
      "Ġframew": 5836,
      "Ġclimbing": 5837,
      "Ġconstantly": 5838,
      "Ġinformed": 5839,
      "Ġtrigger": 5840,
      "Ġdivided": 5841,
      "gl": 5842,
      "rical": 5843,
      "Ġbaking": 5844,
      "Ġbank": 5845,
      "Ġmort": 5846,
      "ionally": 5847,
      "Ġgro": 5848,
      "amental": 5849,
      "Ġmanner": 5850,
      "Ġexplan": 5851,
      "Ġplayed": 5852,
      "-sc": 5853,
      "Ġdelicious": 5854,
      "Ġbiggest": 5855,
      "Ġcertainly": 5856,
      "Ġinteraction": 5857,
      "Ġcompetition": 5858,
      "Ġpictures": 5859,
      "Ġloop": 5860,
      "fortunately": 5861,
      "Ġtall": 5862,
      "Ġshed": 5863,
      "Ġlun": 5864,
      "ĠSub": 5865,
      "Ġoral": 5866,
      "ĠPM": 5867,
      "osph": 5868,
      "ĠMa": 5869,
      "Ġperman": 5870,
      "Ġcellular": 5871,
      "Ġretur": 5872,
      "Ġsales": 5873,
      "Ġabsolute": 5874,
      "Ġverte": 5875,
      "Ġlandscape": 5876,
      "Ġantibiot": 5877,
      "Ġschedule": 5878,
      "Ġaccuracy": 5879,
      "Ġton": 5880,
      "Ġtire": 5881,
      "rof": 5882,
      "Ġgather": 5883,
      "uts": 5884,
      "olf": 5885,
      "Ġstores": 5886,
      "ĠCity": 5887,
      "Ġseg": 5888,
      "ĠHome": 5889,
      "asting": 5890,
      "ĠLab": 5891,
      "berg": 5892,
      "ĠâĢĵĊ": 5893,
      "Ġminimize": 5894,
      "Ġcareful": 5895,
      "Ġpurs": 5896,
      "56": 5897,
      "cest": 5898,
      "Ġ@": 5899,
      "Ġpounds": 5900,
      "Ġflying": 5901,
      "Ġloose": 5902,
      "sters": 5903,
      "ĠAP": 5904,
      "ĠPol": 5905,
      "ĠRel": 5906,
      "plant": 5907,
      "Ġclub": 5908,
      "Ġcarbohyd": 5909,
      "Ġminimal": 5910,
      "Ġhumidity": 5911,
      "Ġserving": 5912,
      "Ġparallel": 5913,
      "Ġpredators": 5914,
      "Ġbacterial": 5915,
      "Ġremoving": 5916,
      "aughter": 5917,
      "Ġassessment": 5918,
      "Ġcoastal": 5919,
      "Ġhospital": 5920,
      "Gen": 5921,
      "ford": 5922,
      "mark": 5923,
      "eria": 5924,
      "esity": 5925,
      "Ġwatching": 5926,
      "Ġdoll": 5927,
      "Ġwhatever": 5928,
      "Ġdeeper": 5929,
      "ĠDisc": 5930,
      "Ġpartner": 5931,
      "Ġwants": 5932,
      "Ġsecret": 5933,
      "Ġguess": 5934,
      "Ġplane": 5935,
      "Ġseconds": 5936,
      "Ġmoves": 5937,
      "Ġmarketing": 5938,
      "rastructure": 5939,
      "ĠRemember": 5940,
      "Ġphenomen": 5941,
      "Cons": 5942,
      "EC": 5943,
      "Not": 5944,
      "iability": 5945,
      "vin": 5946,
      "Ġic": 5947,
      "Ġtutor": 5948,
      "Ġdent": 5949,
      "Ġhidden": 5950,
      "Ġnurs": 5951,
      "Ġgases": 5952,
      "ĠTem": 5953,
      "uls": 5954,
      "ĠSpe": 5955,
      "mentation": 5956,
      "ĠDet": 5957,
      "Ġfewer": 5958,
      "Ġscene": 5959,
      "Ġtrained": 5960,
      "Ġblocks": 5961,
      "Ġdespite": 5962,
      "Ġagree": 5963,
      "Ġmineral": 5964,
      "Ġexploring": 5965,
      "Ġcharacters": 5966,
      "Ġmetals": 5967,
      "Ġsubjects": 5968,
      "Ġincreasingly": 5969,
      "Ġcontinued": 5970,
      "Ġcollaboration": 5971,
      "Ġvirtual": 5972,
      "Ġopinion": 5973,
      "-the": 5974,
      "rid": 5975,
      "Ġcas": 5976,
      "Ġcav": 5977,
      "Ġcott": 5978,
      "Ġcourses": 5979,
      "Ġmir": 5980,
      "Ġenab": 5981,
      "ĠNovember": 5982,
      "Ġreserv": 5983,
      "Ġrow": 5984,
      "Ġrecipe": 5985,
      "Ġreput": 5986,
      "ĠChildren": 5987,
      "Ġfung": 5988,
      "Ġbreeds": 5989,
      "Ġreduces": 5990,
      "Ġlooked": 5991,
      "Ġoperating": 5992,
      "Ġpreventing": 5993,
      "Ġopposite": 5994,
      "Ġentirely": 5995,
      "ĠLearn": 5996,
      "Ġvoice": 5997,
      "ĠAssociation": 5998,
      "Lear": 5999,
      "Reg": 6000,
      "ault": 6001,
      "Ġcoc": 6002,
      "Ġlibrary": 6003,
      "ample": 6004,
      "Ġneck": 6005,
      "izers": 6006,
      "Ġintended": 6007,
      "Ġcloud": 6008,
      "rix": 6009,
      "Ġanywhere": 6010,
      "Ġcyl": 6011,
      "Ġputting": 6012,
      "Ġfarming": 6013,
      "Ġrobust": 6014,
      "Ġdestroy": 6015,
      "==": 6016,
      "ka": 6017,
      "Ġ)": 6018,
      "inn": 6019,
      "ora": 6020,
      "Ġbub": 6021,
      "Ġreward": 6022,
      "Ġgone": 6023,
      "Ġstain": 6024,
      "ĠSet": 6025,
      "ĠLost": 6026,
      "Ġclay": 6027,
      "Ġtea": 6028,
      "ieving": 6029,
      "oves": 6030,
      "Ġextended": 6031,
      "Ġseeking": 6032,
      "ĠThrough": 6033,
      "Ġruns": 6034,
      "Ġvolunte": 6035,
      "Ġaccessible": 6036,
      "Ġmechanisms": 6037,
      "Ġdomain": 6038,
      "Ġnitrogen": 6039,
      "Ġbehaviors": 6040,
      "-M": 6041,
      "From": 6042,
      "no": 6043,
      "pers": 6044,
      "Ġcab": 6045,
      "Ġwish": 6046,
      "Ġmature": 6047,
      "edia": 6048,
      "roph": 6049,
      "ĠCamp": 6050,
      "Ġchosen": 6051,
      "ander": 6052,
      "ĠFact": 6053,
      "Ġwashing": 6054,
      "ournal": 6055,
      "Ġmeant": 6056,
      "Ġbasically": 6057,
      "Ġemotions": 6058,
      "Ġdefinitely": 6059,
      "Ind": 6060,
      "fall": 6061,
      "ĠÎ": 6062,
      "Ġtap": 6063,
      "Ġcit": 6064,
      "Ġpel": 6065,
      "Ġlinks": 6066,
      "ether": 6067,
      "Ġstands": 6068,
      "ĠSaf": 6069,
      "ache": 6070,
      "ĠEas": 6071,
      "Ġcompare": 6072,
      "ricks": 6073,
      "riculum": 6074,
      "Ġknowing": 6075,
      "ĠStart": 6076,
      "Ġwhereas": 6077,
      "Ġmonitor": 6078,
      "Ġengines": 6079,
      "Ġcapabilities": 6080,
      "brid": 6081,
      "Ġphotography": 6082,
      "Ġfeedback": 6083,
      "Although": 6084,
      "Ġremaining": 6085,
      "64": 6086,
      "ikes": 6087,
      "Ġstroke": 6088,
      "elly": 6089,
      "ami": 6090,
      "ĠWork": 6091,
      "ription": 6092,
      "reatment": 6093,
      "Ġstronger": 6094,
      "âĢ¦ĊĊ": 6095,
      "Ġsubstant": 6096,
      "Ġproposed": 6097,
      "Ġmassive": 6098,
      "Ġdetection": 6099,
      "ĠEngine": 6100,
      "Ġfundamental": 6101,
      "Ġalgorithm": 6102,
      "ĠCounty": 6103,
      "ĠAugust": 6104,
      "down": 6105,
      "west": 6106,
      "itivity": 6107,
      "ĠPaul": 6108,
      "Ġnoticed": 6109,
      "ĠRef": 6110,
      "Ġcompr": 6111,
      "Ġcompact": 6112,
      "ifications": 6113,
      "Ġstudied": 6114,
      "Ġamb": 6115,
      "ĠChinese": 6116,
      "Ġsupports": 6117,
      "Ġprotective": 6118,
      "ĠDecember": 6119,
      "Ġintroduction": 6120,
      "Ġexciting": 6121,
      "ascular": 6122,
      "Ġrespectively": 6123,
      "Ġagriculture": 6124,
      "Ġpolitical": 6125,
      "Ġfascinating": 6126,
      "Dr": 6127,
      "Ġfry": 6128,
      "Ġlaser": 6129,
      "Ġforget": 6130,
      "Ġorch": 6131,
      "Ġalcohol": 6132,
      "ĠCy": 6133,
      "abul": 6134,
      "Ġshot": 6135,
      "ĠFound": 6136,
      "Ġcontamin": 6137,
      "Ġarray": 6138,
      "Ġunderlying": 6139,
      "Ġtwice": 6140,
      "phones": 6141,
      "Ġcreativity": 6142,
      "Ġspecialized": 6143,
      "Ġdescription": 6144,
      "Ġinteractive": 6145,
      "Ġlifes": 6146,
      "Ġsilver": 6147,
      "Ġdiameter": 6148,
      "Ġbreathing": 6149,
      "Ġtrends": 6150,
      ".[": 6151,
      "91": 6152,
      "Use": 6153,
      "iological": 6154,
      "Ġtent": 6155,
      "eries": 6156,
      "Ġcos": 6157,
      "Ġmm": 6158,
      "Ġdies": 6159,
      "Ġhealing": 6160,
      "ĠWild": 6161,
      "Ġsport": 6162,
      "Ġspark": 6163,
      "ĠUnderstanding": 6164,
      "anged": 6165,
      "Ġwouldn": 6166,
      "rence": 6167,
      "Ġinterview": 6168,
      "Ġbrings": 6169,
      "Ġlessons": 6170,
      "Ġcreatures": 6171,
      "ĠExper": 6172,
      "Ġsafely": 6173,
      "Ġpropag": 6174,
      "Ġstrain": 6175,
      "Ġholds": 6176,
      "Ġachieved": 6177,
      "Ġhydrogen": 6178,
      "Ġcardi": 6179,
      "Ġdefinition": 6180,
      "Ġimagine": 6181,
      "AI": 6182,
      "ds": 6183,
      "field": 6184,
      "vis": 6185,
      "well": 6186,
      "Ġwoman": 6187,
      "Ġpark": 6188,
      "ĠSat": 6189,
      "Ġfeels": 6190,
      "Ġsoluble": 6191,
      "ommon": 6192,
      "Ġpossibly": 6193,
      "Ġefficiently": 6194,
      "Ġenthusi": 6195,
      "-res": 6196,
      "AG": 6197,
      "De": 6198,
      "comp": 6199,
      "how": 6200,
      "hma": 6201,
      "mers": 6202,
      "pat": 6203,
      "rant": 6204,
      "rey": 6205,
      "Ġsouthern": 6206,
      "Ġcards": 6207,
      "Ġinch": 6208,
      "Ġholid": 6209,
      "Ġnarrow": 6210,
      "ĠAp": 6211,
      "unt": 6212,
      "Ġscore": 6213,
      "Ġagre": 6214,
      "Ġempt": 6215,
      "ĠVol": 6216,
      "Ġgrows": 6217,
      "Ġinsulation": 6218,
      "Ġbread": 6219,
      "Ġdelivery": 6220,
      "overn": 6221,
      "Ġmulti": 6222,
      "Ġnuts": 6223,
      "Ġdiscussion": 6224,
      "Ġindicates": 6225,
      "Ġaims": 6226,
      "Ġinnovation": 6227,
      "Ġaquarium": 6228,
      "Ġjoin": 6229,
      "Ġchromos": 6230,
      "ĠDevelopment": 6231,
      "Ġdatabase": 6232,
      "Ġpolicies": 6233,
      "During": 6234,
      "bell": 6235,
      "ded": 6236,
      "ville": 6237,
      "Ġsick": 6238,
      "Ġdairy": 6239,
      "stream": 6240,
      "ĠEc": 6241,
      "Ġkil": 6242,
      "ĠLife": 6243,
      "Ġfeather": 6244,
      "Ġproven": 6245,
      "Ġmyself": 6246,
      "Ġcheap": 6247,
      "roscop": 6248,
      "Ġartists": 6249,
      "Ġoccup": 6250,
      "Ġfinally": 6251,
      "azon": 6252,
      "Ġindustries": 6253,
      "Ġlisted": 6254,
      "Ġconsume": 6255,
      "Ġfrequent": 6256,
      "ĠRussian": 6257,
      "Ġneurons": 6258,
      "rapeut": 6259,
      ".D": 6260,
      "OL": 6261,
      "gin": 6262,
      "oke": 6263,
      "Ġtick": 6264,
      "eras": 6265,
      "Ġsch": 6266,
      "atric": 6267,
      "ĠSol": 6268,
      "ĠSun": 6269,
      "Ġusage": 6270,
      "Ġwearing": 6271,
      "ĠMuse": 6272,
      "Ġchapter": 6273,
      "Ġenables": 6274,
      "ĠDrag": 6275,
      "Ġcomposed": 6276,
      "agues": 6277,
      "Ġjud": 6278,
      "Ġcollege": 6279,
      "Ġaging": 6280,
      "Ġsubsequ": 6281,
      "Ġgrain": 6282,
      "Ġmilitary": 6283,
      "Ġrecorded": 6284,
      "Ġfemales": 6285,
      "Arab": 6286,
      "fra": 6287,
      "then": 6288,
      "Ġblow": 6289,
      "Ġhorses": 6290,
      "Ġrely": 6291,
      "oline": 6292,
      "Ġcompat": 6293,
      "appe": 6294,
      "Ġspeech": 6295,
      "Ġcovers": 6296,
      "ĠStr": 6297,
      "Ġsky": 6298,
      "Ġcontainers": 6299,
      "ĠBefore": 6300,
      "Ġflea": 6301,
      "Ġlaws": 6302,
      "',": 6303,
      "Pe": 6304,
      "Ġsight": 6305,
      "encing": 6306,
      "Ġmine": 6307,
      "Ġinhib": 6308,
      "char": 6309,
      "ocal": 6310,
      "ĠLight": 6311,
      "Ġmeals": 6312,
      "Ġspots": 6313,
      "Ġexpans": 6314,
      "Ġpreserv": 6315,
      "Ġglucose": 6316,
      "Ġrights": 6317,
      "Ġmovements": 6318,
      "Ġera": 6319,
      "Ġholding": 6320,
      "Ġmixing": 6321,
      "ĠEngland": 6322,
      "Ġfitness": 6323,
      "Ġgears": 6324,
      "Ġcontinuous": 6325,
      "Before": 6326,
      "Ġguidance": 6327,
      "Ġprocedures": 6328,
      "Ġpromoting": 6329,
      "Ġhousing": 6330,
      "Ġathlet": 6331,
      "Ġhorizontal": 6332,
      "App": 6333,
      "],": 6334,
      "mal": 6335,
      "nger": 6336,
      "ridge": 6337,
      "Ġtown": 6338,
      "arly": 6339,
      "icing": 6340,
      "Ġhoney": 6341,
      "Ġliver": 6342,
      "Ġgardens": 6343,
      "iratory": 6344,
      "aste": 6345,
      "agine": 6346,
      "Ġimpossible": 6347,
      "Ġappoint": 6348,
      "Ġoffered": 6349,
      "Ġinspect": 6350,
      "Ġeveryday": 6351,
      "Ġkeeps": 6352,
      "Ġfamous": 6353,
      "ĠScient": 6354,
      "Ġcrack": 6355,
      "Ġvegetable": 6356,
      "Ġdiamond": 6357,
      "Ġargument": 6358,
      "Ġthrive": 6359,
      "Ġdurability": 6360,
      "Ġdrivers": 6361,
      "Ġappreciate": 6362,
      "Ġfurniture": 6363,
      "-B": 6364,
      "Figure": 6365,
      "SE": 6366,
      "medi": 6367,
      "Ġ>": 6368,
      "erative": 6369,
      "isk": 6370,
      "Ġpix": 6371,
      "orter": 6372,
      "Ġinh": 6373,
      "Ġbees": 6374,
      "ĠPan": 6375,
      "ĠDel": 6376,
      "pled": 6377,
      "Ġclients": 6378,
      "riers": 6379,
      "reating": 6380,
      "ilding": 6381,
      "akers": 6382,
      "Ġattend": 6383,
      "Ġminim": 6384,
      "Ġbelieved": 6385,
      "Ġpassed": 6386,
      "Share": 6387,
      "Ġirrit": 6388,
      "Ġspeaker": 6389,
      "##": 6390,
      "-old": 6391,
      "72": 6392,
      ";Ċ": 6393,
      "bur": 6394,
      "uits": 6395,
      "xid": 6396,
      "Ġsac": 6397,
      "Ġwal": 6398,
      "Ġisland": 6399,
      "Ġatoms": 6400,
      "ĠDC": 6401,
      "ĠDig": 6402,
      "ĠFlor": 6403,
      "ĠEqu": 6404,
      "ĠOb": 6405,
      "ĠOpt": 6406,
      "ĠOcean": 6407,
      "ĠInformation": 6408,
      "Ġpeace": 6409,
      "Ġworkers": 6410,
      "ĠWhite": 6411,
      "airs": 6412,
      "Ġbiology": 6413,
      "Ġconnections": 6414,
      "Ġpresentation": 6415,
      "Ġteams": 6416,
      "Ġhappening": 6417,
      "Ġsmoke": 6418,
      "ĠMedicine": 6419,
      "-T": 6420,
      "NC": 6421,
      "cher": 6422,
      "ii": 6423,
      "Ġtropical": 6424,
      "Ġcrop": 6425,
      "Ġcaught": 6426,
      "orge": 6427,
      "Ġnerve": 6428,
      "ĠRNA": 6429,
      "Ġunus": 6430,
      "Ġrecording": 6431,
      "Ġtruth": 6432,
      "Ġindoor": 6433,
      "Ġtransmission": 6434,
      "Ġdistingu": 6435,
      "Ġvalid": 6436,
      "Ġpassion": 6437,
      "ĠPlay": 6438,
      "ĠAmericans": 6439,
      "Ġgradually": 6440,
      "Ġpreparation": 6441,
      "Ġduty": 6442,
      "Ġvelocity": 6443,
      "Ġyeast": 6444,
      "AB": 6445,
      "la": 6446,
      "Ġtack": 6447,
      "Ġcities": 6448,
      "Ġbite": 6449,
      "Ġholes": 6450,
      "Ġnose": 6451,
      "ĠSal": 6452,
      "Ġoverw": 6453,
      "Ġblo": 6454,
      "Ġengaging": 6455,
      "Ġoperate": 6456,
      "Ġsalts": 6457,
      "Ġpersonalized": 6458,
      "Ġrevolution": 6459,
      "Ġsusp": 6460,
      "Ġexpertise": 6461,
      "Ġhundreds": 6462,
      "ĠDavid": 6463,
      "Rec": 6464,
      "tic": 6465,
      "illa": 6466,
      "Ġsharing": 6467,
      "ĠRet": 6468,
      "ulty": 6469,
      "Ġblank": 6470,
      "Ġinterpret": 6471,
      "Ġeffectiveness": 6472,
      "Ġmillions": 6473,
      "Ġintroduce": 6474,
      "Also": 6475,
      "Ġevaluate": 6476,
      "ĠLearning": 6477,
      "Ġlaboratory": 6478,
      "Ġaxis": 6479,
      "Ġorientation": 6480,
      "Ġconsequences": 6481,
      "Ġvulnerable": 6482,
      "61": 6483,
      "69": 6484,
      "Rel": 6485,
      "uzz": 6486,
      "Ġtables": 6487,
      "Ġtaught": 6488,
      "Ġpink": 6489,
      "Ġease": 6490,
      "ĠTime": 6491,
      "terior": 6492,
      "Ġcannab": 6493,
      "Ġhaven": 6494,
      "ĠBre": 6495,
      "oga": 6496,
      "Ġcorn": 6497,
      "Ġcharging": 6498,
      "ĠProject": 6499,
      "Ġharder": 6500,
      "Ġobjective": 6501,
      "ffective": 6502,
      "Ġdynamic": 6503,
      "96": 6504,
      "MCS": 6505,
      "ndrome": 6506,
      "Ġnorthern": 6507,
      "urb": 6508,
      "Ġancest": 6509,
      "ĠMex": 6510,
      "ĠExt": 6511,
      "Ġspinal": 6512,
      "anger": 6513,
      "Ġtrib": 6514,
      "Ġinfrastructure": 6515,
      "efits": 6516,
      "Ġbridge": 6517,
      "aterials": 6518,
      "Ġclassic": 6519,
      "Ġconfig": 6520,
      "Ġfinished": 6521,
      "Ġcultures": 6522,
      "ognitive": 6523,
      "Ġreplaced": 6524,
      "apping": 6525,
      "Ġcopper": 6526,
      "Ġprinciple": 6527,
      "Ġcrypt": 6528,
      "Ġplatforms": 6529,
      "Ġmissing": 6530,
      "Ġalgorithms": 6531,
      "Ġsessions": 6532,
      "pecific": 6533,
      "ĠFurthermore": 6534,
      "ungeons": 6535,
      "abulary": 6536,
      "58": 6537,
      "66": 6538,
      "fts": 6539,
      "Ġmoon": 6540,
      "Ġdurable": 6541,
      "Ġlik": 6542,
      "Ġyounger": 6543,
      "ĠPat": 6544,
      "Ġclus": 6545,
      "Ġclient": 6546,
      "avy": 6547,
      "aped": 6548,
      "Ġapparent": 6549,
      "ondon": 6550,
      "Ġcarp": 6551,
      "Ġdied": 6552,
      "Ġminor": 6553,
      "Ġvector": 6554,
      "Ġdirector": 6555,
      "Ġrestaur": 6556,
      "Ġlisten": 6557,
      "77": 6558,
      "81": 6559,
      "aj": 6560,
      "kins": 6561,
      "Ġfract": 6562,
      "rooms": 6563,
      "entle": 6564,
      "Ġrect": 6565,
      "ĠTest": 6566,
      "oto": 6567,
      "Ġalter": 6568,
      "ella": 6569,
      "Ġrab": 6570,
      "rency": 6571,
      "ĠAsia": 6572,
      "Ġsignificance": 6573,
      "Ġsecondary": 6574,
      "Ġfeelings": 6575,
      "bris": 6576,
      "Ġflexibility": 6577,
      "Ġchannel": 6578,
      "Ġloved": 6579,
      "Ġspiritual": 6580,
      "Ġsupplies": 6581,
      "Arabian": 6582,
      "Don": 6583,
      "SC": 6584,
      "box": 6585,
      "hole": 6586,
      "Ġcord": 6587,
      "Ġoven": 6588,
      "Ġtoys": 6589,
      "Ġreef": 6590,
      "ĠBro": 6591,
      "Ġcontents": 6592,
      "Ġunf": 6593,
      "Ġcorner": 6594,
      "Ġvegan": 6595,
      "Ġbask": 6596,
      "Ġmeasuring": 6597,
      "Ġcapital": 6598,
      "Ġanswers": 6599,
      "Ġfacilities": 6600,
      "Ġpackaging": 6601,
      "Ġarrange": 6602,
      "ĠManagement": 6603,
      "ĠAfrican": 6604,
      "Ġmanufacturer": 6605,
      "Ġexhibit": 6606,
      "ĠPhoto": 6607,
      "otherapy": 6608,
      "Ġlifespan": 6609,
      "Or": 6610,
      "lock": 6611,
      "uum": 6612,
      "uous": 6613,
      "Ġtape": 6614,
      "Ġtires": 6615,
      "Ġpin": 6616,
      "anc": 6617,
      "omfort": 6618,
      "Ġbee": 6619,
      "otal": 6620,
      "Ġseal": 6621,
      "ĠPost": 6622,
      "Ġchart": 6623,
      "Ġrib": 6624,
      "Ġdoctors": 6625,
      "Ġtrials": 6626,
      "Ġunderst": 6627,
      "Ġextend": 6628,
      "Ġears": 6629,
      "Ġserved": 6630,
      "Ġgreatly": 6631,
      "Ġcontrols": 6632,
      "Ġsitting": 6633,
      "Ġobserve": 6634,
      "Ġnetworks": 6635,
      "Ġmanufacturers": 6636,
      "Using": 6637,
      "ĠTHE": 6638,
      "Ġframework": 6639,
      "-A": 6640,
      "-of": 6641,
      "62": 6642,
      "Read": 6643,
      "TS": 6644,
      "but": 6645,
      "ooth": 6646,
      "Ġmales": 6647,
      "Ġinver": 6648,
      "icted": 6649,
      "Ġgerm": 6650,
      "stances": 6651,
      "ĠAlex": 6652,
      "Ġasking": 6653,
      "ĠPlease": 6654,
      "osion": 6655,
      "ĠMount": 6656,
      "ĠNA": 6657,
      "ĠGreek": 6658,
      "Ġmanip": 6659,
      "ĠUV": 6660,
      "Ġflour": 6661,
      "Ġbreaking": 6662,
      "Ġfollows": 6663,
      "Ġdrinking": 6664,
      "Ġbrands": 6665,
      "Ġexchange": 6666,
      "rapeutic": 6667,
      "erior": 6668,
      "ilos": 6669,
      "ĠSociety": 6670,
      "ĠMich": 6671,
      "ĠLong": 6672,
      "Ġevolved": 6673,
      "Ġremark": 6674,
      "Ġmode": 6675,
      "Ġformer": 6676,
      "Ġsubs": 6677,
      "Ġemployees": 6678,
      "Ġquantum": 6679,
      "Ġdiamonds": 6680,
      "ĠInternet": 6681,
      "uminum": 6682,
      "Ġvessels": 6683,
      "ĠMuseum": 6684,
      "Does": 6685,
      "Ġcul": 6686,
      "Ġfisher": 6687,
      "Ġbio": 6688,
      "ĠTV": 6689,
      "ĠCP": 6690,
      "Ġcomments": 6691,
      "earchers": 6692,
      "Ġapplying": 6693,
      "Ġtraits": 6694,
      "Ġacts": 6695,
      "Ġobesity": 6696,
      "Ġmedication": 6697,
      "Ġpottery": 6698,
      "Ġparticle": 6699,
      "awning": 6700,
      "Ġdefine": 6701,
      "Ġletters": 6702,
      "Ġrevealed": 6703,
      "Ġcategory": 6704,
      "Ġfairly": 6705,
      "Ġcomparison": 6706,
      "Ġgirls": 6707,
      "Since": 6708,
      "you": 6709,
      "Ġcivil": 6710,
      "itness": 6711,
      "alian": 6712,
      "imals": 6713,
      "Ġfort": 6714,
      "Ġstated": 6715,
      "Ġconventional": 6716,
      "Ġseam": 6717,
      "Ġdebris": 6718,
      "Ġkilled": 6719,
      "ĠNature": 6720,
      "Ġincome": 6721,
      "Ġouter": 6722,
      "Ġspeaking": 6723,
      "Ġspeeds": 6724,
      "berry": 6725,
      "Ġapple": 6726,
      "Ġtrim": 6727,
      "Ġassign": 6728,
      "Ġpharm": 6729,
      "Ġequival": 6730,
      "Ġrestrict": 6731,
      "onomic": 6732,
      "Ġcrus": 6733,
      "Ġcrust": 6734,
      "Ġresponsibility": 6735,
      "ĠSecond": 6736,
      "Ġcomplicated": 6737,
      "-P": 6738,
      "68": 6739,
      "HO": 6740,
      "See": 6741,
      "from": 6742,
      "lings": 6743,
      "sis": 6744,
      "ĪĴ": 6745,
      "inity": 6746,
      "ĠpH": 6747,
      "Ġbond": 6748,
      "arant": 6749,
      "Ġdimens": 6750,
      "ette": 6751,
      "etime": 6752,
      "ifier": 6753,
      "umes": 6754,
      "acific": 6755,
      "ĠMP": 6756,
      "ĠMult": 6757,
      "Ġchol": 6758,
      "Ġshipping": 6759,
      "Ġknew": 6760,
      "Ġgenome": 6761,
      "Ġconscious": 6762,
      "ooked": 6763,
      "Ġgenerator": 6764,
      "Ġgrand": 6765,
      "Ġtempl": 6766,
      "Ġdrag": 6767,
      "Ġstanding": 6768,
      "Ġcris": 6769,
      "Ġinfected": 6770,
      "Ġpollen": 6771,
      "Ġsexual": 6772,
      "Ġliterature": 6773,
      "Ġparameters": 6774,
      "Ġclothing": 6775,
      "MP": 6776,
      "Te": 6777,
      "URE": 6778,
      "Ġtip": 6779,
      "Ġaest": 6780,
      "Ġpy": 6781,
      "Ġreached": 6782,
      "amins": 6783,
      "ĠPract": 6784,
      "ivated": 6785,
      "ĠHistory": 6786,
      "ĠFind": 6787,
      "outs": 6788,
      "eren": 6789,
      "Ġintensity": 6790,
      "Ġmanaging": 6791,
      "Ġinvas": 6792,
      "Ġvariables": 6793,
      "Ġentertain": 6794,
      "-by": 6795,
      "Ġcameras": 6796,
      "Ġselecting": 6797,
      "Ġresistant": 6798,
      "Ġsustainability": 6799,
      "ĠJapanese": 6800,
      "Ġmammals": 6801,
      "cule": 6802,
      "Ġ{": 6803,
      "Ġtheore": 6804,
      "oral": 6805,
      "Ġreaches": 6806,
      "Ġitem": 6807,
      "ifies": 6808,
      "amic": 6809,
      "Ġhed": 6810,
      "iber": 6811,
      "Ġformal": 6812,
      "Ġedges": 6813,
      "Ġrealize": 6814,
      "Ġidentity": 6815,
      "Ġstructural": 6816,
      "Ġlimits": 6817,
      "Ġultimately": 6818,
      "Ġasthma": 6819,
      "Ġsuffering": 6820,
      "ĠWestern": 6821,
      "Ġagricultural": 6822,
      "Ġtrouble": 6823,
      "Ġpregnancy": 6824,
      "Ġsatisf": 6825,
      "Ġversatile": 6826,
      "\"We": 6827,
      "MA": 6828,
      "Ġthrow": 6829,
      "Ġrecept": 6830,
      "Ġstars": 6831,
      "ĠSometimes": 6832,
      "Ġdealing": 6833,
      "Ġwilling": 6834,
      "Ġpoison": 6835,
      "ritis": 6836,
      "Ġinsulin": 6837,
      "Ġcalm": 6838,
      "Ġhimself": 6839,
      "Ġassociation": 6840,
      "âĢ¦âĢ¦": 6841,
      "Ġdifficulty": 6842,
      "hemistry": 6843,
      "Ġconcerned": 6844,
      "haust": 6845,
      "________": 6846,
      "ĠFlorida": 6847,
      "-L": 6848,
      "47": 6849,
      "87": 6850,
      "TH": 6851,
      "ham": 6852,
      "mall": 6853,
      "onge": 6854,
      "Ġmer": 6855,
      "Ġmand": 6856,
      "Ġdil": 6857,
      "Ġdive": 6858,
      "icity": 6859,
      "urd": 6860,
      "ĠWashing": 6861,
      "ĠPress": 6862,
      "ĠLondon": 6863,
      "ieves": 6864,
      "Ġcolon": 6865,
      "Ġthanks": 6866,
      "Ġforming": 6867,
      "Ġexamine": 6868,
      "Ġsupporting": 6869,
      "ĠIsland": 6870,
      "Ġlaun": 6871,
      "ounced": 6872,
      "Ġwelding": 6873,
      "ĠAND": 6874,
      "Ġstyles": 6875,
      "//": 6876,
      "Ġ.ĊĊ": 6877,
      "onna": 6878,
      "Ġcable": 6879,
      "edom": 6880,
      "Ġlies": 6881,
      "ĠTer": 6882,
      "Ġvan": 6883,
      "Ġintric": 6884,
      "Ġchest": 6885,
      "Ġlarv": 6886,
      "Ġvalve": 6887,
      "Ġowner": 6888,
      "Ġcattle": 6889,
      "Ġcalories": 6890,
      "Ġeco": 6891,
      "Ġreviews": 6892,
      "Ġcampa": 6893,
      "ĠControl": 6894,
      "Ġabsorb": 6895,
      "Ġfrozen": 6896,
      "Ġvocabulary": 6897,
      "Ġpilot": 6898,
      "()": 6899,
      "-day": 6900,
      ".;": 6901,
      "57": 6902,
      "71": 6903,
      "Every": 6904,
      "bra": 6905,
      "men": 6906,
      "tt": 6907,
      "Ġpests": 6908,
      "rox": 6909,
      "ota": 6910,
      "eli": 6911,
      "ĠSn": 6912,
      "unning": 6913,
      "Ġshut": 6914,
      "Ġnoted": 6915,
      "eping": 6916,
      "Ġdishes": 6917,
      "Ġprocessed": 6918,
      "Ġgoods": 6919,
      "Ġdiscomfort": 6920,
      "ioxid": 6921,
      "Ġequations": 6922,
      "Ġrespiratory": 6923,
      "ĠSpace": 6924,
      "Ġreceiving": 6925,
      "Ġbringing": 6926,
      "Ġfuels": 6927,
      "Ġmedications": 6928,
      "Ġgolden": 6929,
      "Ġsavings": 6930,
      "Ġcrisis": 6931,
      "/d": 6932,
      "73": 6933,
      "89": 6934,
      "DS": 6935,
      "lig": 6936,
      "oids": 6937,
      "Ġtrick": 6938,
      "Ġod": 6939,
      "Ġov": 6940,
      "Ġdense": 6941,
      "amil": 6942,
      "Ġanch": 6943,
      "ĠDraw": 6944,
      "Ġimper": 6945,
      "Ġunw": 6946,
      "ints": 6947,
      "ĠJournal": 6948,
      "ĠWeb": 6949,
      "Ġshowc": 6950,
      "Ġtreats": 6951,
      "Ġcirculation": 6952,
      "Ġresponses": 6953,
      "ĠCentral": 6954,
      "Ġassistance": 6955,
      "Ġtransportation": 6956,
      "Ġattractive": 6957,
      "Ġecosystems": 6958,
      "Ġwonderful": 6959,
      "ĠService": 6960,
      "Ġempty": 6961,
      "-and": 6962,
      "74": 6963,
      "PA": 6964,
      "sor": 6965,
      "Ġyouth": 6966,
      "owered": 6967,
      "Ġstorm": 6968,
      "rian": 6969,
      "rium": 6970,
      "enses": 6971,
      "berries": 6972,
      "Ġtract": 6973,
      "atively": 6974,
      "Ġcouldn": 6975,
      "Ġsheep": 6976,
      "Ġentry": 6977,
      "ocket": 6978,
      "Ġclaims": 6979,
      "Ġconvert": 6980,
      "ĠAcad": 6981,
      "Ġdriver": 6982,
      "Ġchannels": 6983,
      "Ġbranches": 6984,
      "ĠEnvironmental": 6985,
      "ynthesis": 6986,
      "Ġcolleagues": 6987,
      "Ġcotton": 6988,
      ".m": 6989,
      "Other": 6990,
      "TP": 6991,
      "pher": 6992,
      "Ġdow": 6993,
      "icit": 6994,
      "Ġlamp": 6995,
      "Ġgentle": 6996,
      "ĠTex": 6997,
      "Ġheated": 6998,
      "ĠWill": 6999,
      "ĠGarden": 7000,
      "Ġunex": 7001,
      "Ġscript": 7002,
      "Ġminute": 7003,
      "ĠProper": 7004,
      "Ġengagement": 7005,
      "Ġgrid": 7006,
      "Ġperfectly": 7007,
      "Ġremoval": 7008,
      "ĠRegular": 7009,
      "esterol": 7010,
      "Ġsodium": 7011,
      "Ġcircumstances": 7012,
      "-ch": 7013,
      "Water": 7014,
      "awn": 7015,
      "dent": 7016,
      "hu": 7017,
      "ounce": 7018,
      "Ġine": 7019,
      "Ġgently": 7020,
      "utrition": 7021,
      "stone": 7022,
      "ĠPet": 7023,
      "ĠDef": 7024,
      "Ġimaging": 7025,
      "ĠOh": 7026,
      "Ġjoy": 7027,
      "ĠUnder": 7028,
      "cket": 7029,
      "Ġmodified": 7030,
      "Inst": 7031,
      "Ġfocusing": 7032,
      "Ġviews": 7033,
      "Ġpaying": 7034,
      "ĠMedical": 7035,
      "Ġimplications": 7036,
      "Ġpregnant": 7037,
      "Ġbowl": 7038,
      "-shaped": 7039,
      "Ġveterin": 7040,
      "Ġsplit": 7041,
      "93": 7042,
      "GB": 7043,
      "zi": 7044,
      "ini": 7045,
      "Ġpod": 7046,
      "arter": 7047,
      "Ġlip": 7048,
      "iled": 7049,
      "ĠTry": 7050,
      "amination": 7051,
      "ĠSl": 7052,
      "ĠSolar": 7053,
      "ĠWood": 7054,
      "emp": 7055,
      "ivest": 7056,
      "agers": 7057,
      "Ġuniform": 7058,
      "Ġobst": 7059,
      "Ġinfest": 7060,
      "Ġpotat": 7061,
      "Ġcomplement": 7062,
      "Ġcharacterized": 7063,
      "Ġbehavioral": 7064,
      "ĠArabian": 7065,
      "Ġsuscept": 7066,
      "Ġdigestive": 7067,
      "78": 7068,
      "IR": 7069,
      "ker": 7070,
      "Ġcater": 7071,
      "Ġcrow": 7072,
      "Ġpand": 7073,
      "Ġpipe": 7074,
      "Ġfan": 7075,
      "uses": 7076,
      "amps": 7077,
      "adian": 7078,
      "ĠCell": 7079,
      "ĠMat": 7080,
      "ĠDise": 7081,
      "ĠFish": 7082,
      "ĠRich": 7083,
      "Ġtele": 7084,
      "Ġspending": 7085,
      "Ġquiet": 7086,
      "Ġourselves": 7087,
      "ĠVe": 7088,
      "Ġdecay": 7089,
      "Ġdecline": 7090,
      "Ġauto": 7091,
      "Ġoptical": 7092,
      "Ġproductivity": 7093,
      "Ġoriginally": 7094,
      "ĠAvoid": 7095,
      "Ġpaid": 7096,
      "ĠProfessor": 7097,
      "Sim": 7098,
      "hal": 7099,
      "rich": 7100,
      "zym": 7101,
      "Ġcort": 7102,
      "Ġpun": 7103,
      "omal": 7104,
      "Ġgroom": 7105,
      "rays": 7106,
      "ĠFace": 7107,
      "Ġabilities": 7108,
      "ags": 7109,
      "Ġresil": 7110,
      "Ġmini": 7111,
      "Ġperforming": 7112,
      "Ġaffecting": 7113,
      "ĠShould": 7114,
      "Ġzinc": 7115,
      "Ġconsumed": 7116,
      "Ġnecessarily": 7117,
      "ĠConf": 7118,
      "Ġrecognition": 7119,
      "Ġseparated": 7120,
      "Ġdomestic": 7121,
      "Ġdemonstrate": 7122,
      "Ġdemonstrated": 7123,
      "Ġrecycl": 7124,
      "Ġknee": 7125,
      "-H": 7126,
      "ME": 7127,
      "Where": 7128,
      "ao": 7129,
      "rink": 7130,
      "uel": 7131,
      "zer": 7132,
      "{\\": 7133,
      "Ġ**": 7134,
      "onia": 7135,
      "Ġyes": 7136,
      "imental": 7137,
      "heric": 7138,
      "Ġexhaust": 7139,
      "Ġweap": 7140,
      "ivate": 7141,
      "ĠDist": 7142,
      "alled": 7143,
      "ĠFire": 7144,
      "ĠNet": 7145,
      "Ġteen": 7146,
      "Ġapps": 7147,
      "Ġarms": 7148,
      "Ġsauce": 7149,
      "Ġregul": 7150,
      "odynam": 7151,
      "lessly": 7152,
      "Ġcleaner": 7153,
      "Ġhybrid": 7154,
      "Ġimprovement": 7155,
      "Ġsnails": 7156,
      "Ġtargeted": 7157,
      "Ġexcited": 7158,
      "Ġlogical": 7159,
      "Ġburning": 7160,
      "Ġinitially": 7161,
      "Ġexpressed": 7162,
      "Ġvibrant": 7163,
      "Get": 7164,
      "LC": 7165,
      "Le": 7166,
      "SP": 7167,
      "vas": 7168,
      "Ġtough": 7169,
      "esides": 7170,
      "Ġwax": 7171,
      "Ġpit": 7172,
      "Ġlith": 7173,
      "etch": 7174,
      "utch": 7175,
      "sts": 7176,
      "istant": 7177,
      "Ġchip": 7178,
      "ĠFlow": 7179,
      "Ġadvert": 7180,
      "Ġcontem": 7181,
      "ĠOpen": 7182,
      "Ġinvention": 7183,
      "Ġsupposed": 7184,
      "Ġcalls": 7185,
      "Ġpassing": 7186,
      "Ġavailability": 7187,
      "Ġerrors": 7188,
      "Ġembra": 7189,
      "coming": 7190,
      "ĠCommon": 7191,
      "Ġwaiting": 7192,
      "Ġquantity": 7193,
      "Ġrecommendations": 7194,
      "Ġimmediate": 7195,
      "Ġdanger": 7196,
      "Ġflexible": 7197,
      "Ġswimming": 7198,
      "Ġsession": 7199,
      "Ġhormone": 7200,
      "Ġtitle": 7201,
      "ivestock": 7202,
      "-cl": 7203,
      "92": 7204,
      "Che": 7205,
      "night": 7206,
      "win": 7207,
      "Ġgap": 7208,
      "oted": 7209,
      "ĠSil": 7210,
      "erson": 7211,
      "ĠBur": 7212,
      "ĠBest": 7213,
      "Ġride": 7214,
      "Ġriding": 7215,
      "Ġgenetics": 7216,
      "althy": 7217,
      "Ġflash": 7218,
      "Ġemit": 7219,
      "Ġcurriculum": 7220,
      "Ġpossibility": 7221,
      "roduct": 7222,
      "Ġmuse": 7223,
      "Stud": 7224,
      "Ġcombat": 7225,
      "Ġmarks": 7226,
      "à¤°": 7227,
      "Ġlaunch": 7228,
      "Ġlogic": 7229,
      "Ġanalyze": 7230,
      "Ġhabitats": 7231,
      "while": 7232,
      "Ġfertilizer": 7233,
      "Ġrecycling": 7234,
      "Ġadequate": 7235,
      "Ġexpansion": 7236,
      "94": 7237,
      "bage": 7238,
      "such": 7239,
      "Ġfinger": 7240,
      "Ġdim": 7241,
      "omas": 7242,
      "Ġstems": 7243,
      "Ġstitch": 7244,
      "ĠCur": 7245,
      "emia": 7246,
      "Ġsuit": 7247,
      "Ġran": 7248,
      "Ġkm": 7249,
      "Ġpersist": 7250,
      "Ġdrawn": 7251,
      "Ġnearby": 7252,
      "Ġforeign": 7253,
      "Ġdietary": 7254,
      "Ġmenu": 7255,
      "Ġautomatically": 7256,
      "ĠĠĠĠ": 7257,
      "Ġcartridge": 7258,
      "Ġcategories": 7259,
      "Ġeliminate": 7260,
      "ĠJewish": 7261,
      "Ġreligious": 7262,
      "Ġassembly": 7263,
      "Ġequivalent": 7264,
      ",ĊĊ": 7265,
      "Understanding": 7266,
      "nel": 7267,
      "Ġwider": 7268,
      "Ġlived": 7269,
      "ading": 7270,
      "quit": 7271,
      "Ġshield": 7272,
      "Ġintense": 7273,
      "Ġmoderate": 7274,
      "Ġinstit": 7275,
      "Ġgenerations": 7276,
      "Ġbreaks": 7277,
      "Ġrising": 7278,
      "Ġvolcan": 7279,
      "Ġengineers": 7280,
      "Ġsensors": 7281,
      "Ġexperiencing": 7282,
      "Ġimplementation": 7283,
      "Ġsuffer": 7284,
      "Ġnuclear": 7285,
      "Ġunusual": 7286,
      "UR": 7287,
      "Ġion": 7288,
      "Ġ...ĊĊ": 7289,
      "Ġsoph": 7290,
      "Ġwires": 7291,
      "Ġlighter": 7292,
      "Ġgaming": 7293,
      "igra": 7294,
      "ĠProp": 7295,
      "Ġprevents": 7296,
      "ĠUN": 7297,
      "bert": 7298,
      "Ġtransmit": 7299,
      "Ġartist": 7300,
      "Ġdelay": 7301,
      "Ġheads": 7302,
      "Ġwarmer": 7303,
      "Ġcraft": 7304,
      "Ġjobs": 7305,
      "itudes": 7306,
      "Ġintegrated": 7307,
      "ĠPhysics": 7308,
      "Ġbuffer": 7309,
      "ĠTexas": 7310,
      "79": 7311,
      "UC": 7312,
      "hell": 7313,
      "Ġske": 7314,
      "Ġfif": 7315,
      "Ġmood": 7316,
      "Ġeast": 7317,
      "Ġepid": 7318,
      "ĠTen": 7319,
      "eles": 7320,
      "Ġants": 7321,
      "Ġdeploy": 7322,
      "ĠMil": 7323,
      "ĠFollow": 7324,
      "ĠLake": 7325,
      "Ġdispl": 7326,
      "Ġpeer": 7327,
      "ĠStand": 7328,
      "Ġtwist": 7329,
      "Ġhealthier": 7330,
      "Ġorganism": 7331,
      "ĠNews": 7332,
      "Ġidentifying": 7333,
      "Ġpenet": 7334,
      "Ġincorporating": 7335,
      "Ġcontributing": 7336,
      "ĠHuman": 7337,
      "Ġjewel": 7338,
      "Ġexplanation": 7339,
      "Because": 7340,
      "Col": 7341,
      "May": 7342,
      "Ġaids": 7343,
      "orph": 7344,
      "roid": 7345,
      "Ġreaching": 7346,
      "uting": 7347,
      "ĠBig": 7348,
      "ĠMr": 7349,
      "ĠMot": 7350,
      "Ġranging": 7351,
      "Ġsoy": 7352,
      "Ġjack": 7353,
      "Ġperception": 7354,
      "cknow": 7355,
      "Ġdiagram": 7356,
      "ĠVis": 7357,
      "Ġassume": 7358,
      "ucks": 7359,
      "Ġcoral": 7360,
      "Ġreaders": 7361,
      "Ġbiod": 7362,
      "Ġexistence": 7363,
      "Ġfunding": 7364,
      "Ġinvestigating": 7365,
      "Ġalgae": 7366,
      "Ġincorporate": 7367,
      "Ġjuice": 7368,
      "Ġgravity": 7369,
      "Ġvacuum": 7370,
      "Ġdoubt": 7371,
      "Ġdiesel": 7372,
      "Ġunderstood": 7373,
      "Tra": 7374,
      "gien": 7375,
      "pread": 7376,
      "vity": 7377,
      "Â·": 7378,
      "rem": 7379,
      "Ġsoci": 7380,
      "itage": 7381,
      "Ġbeef": 7382,
      "ĠTre": 7383,
      "ĠType": 7384,
      "Ġstations": 7385,
      "Ġsections": 7386,
      "Ġshock": 7387,
      "ĠFinally": 7388,
      "Ġabnormal": 7389,
      "Ġwatering": 7390,
      "Ġphosph": 7391,
      "Ġrequest": 7392,
      "Ġpresents": 7393,
      "Ġprotocol": 7394,
      "acteria": 7395,
      "Ġoccurred": 7396,
      "Ġessentially": 7397,
      "Ġworkshop": 7398,
      "Ġparticipate": 7399,
      "Ġvitamins": 7400,
      "Ġinvestigate": 7401,
      "Ġforests": 7402,
      "Introduction": 7403,
      "Ġshooting": 7404,
      "Ġphenomenon": 7405,
      "'.": 7406,
      "-known": 7407,
      "EO": 7408,
      "Ps": 7409,
      "Red": 7410,
      "gra": 7411,
      "lo": 7412,
      "Ġwings": 7413,
      "Ġbrows": 7414,
      "Ġyard": 7415,
      "ostic": 7416,
      "Ġintest": 7417,
      "Ġtraum": 7418,
      "angered": 7419,
      "Ġprinter": 7420,
      "Ġtransistor": 7421,
      "Ġpreserve": 7422,
      "Ġorganized": 7423,
      "Ġprotecting": 7424,
      "Ġgreatest": 7425,
      "ĠOnly": 7426,
      "Ġmatters": 7427,
      "Ġterminal": 7428,
      "Ġtells": 7429,
      "ĠUSA": 7430,
      "Ġextraction": 7431,
      "Ġmolecule": 7432,
      "Ġoxid": 7433,
      "Ġregardless": 7434,
      "Ġduct": 7435,
      "Ġevolutionary": 7436,
      "ĠChristian": 7437,
      "forcement": 7438,
      "Ġpermanent": 7439,
      "Ġcholesterol": 7440,
      "ĠWashington": 7441,
      "Just": 7442,
      "Ġtherapeutic": 7443,
      "Ġwing": 7444,
      "ita": 7445,
      "olph": 7446,
      "ircle": 7447,
      "ĠSam": 7448,
      "Ġexists": 7449,
      "Ġrural": 7450,
      "ocr": 7451,
      "ĠDid": 7452,
      "ĠDungeons": 7453,
      "Ġdisrupt": 7454,
      "Ġdisappe": 7455,
      "Ġmanual": 7456,
      "Ġmanaged": 7457,
      "Ġsched": 7458,
      "ressed": 7459,
      "ailable": 7460,
      "ĠJames": 7461,
      "Ġinvent": 7462,
      "Ġdecade": 7463,
      "Ġextent": 7464,
      "Ġstrings": 7465,
      "ventions": 7466,
      "ommod": 7467,
      "egin": 7468,
      "Ġcycl": 7469,
      "Ġinvolving": 7470,
      "Ġinterests": 7471,
      "Ġstraw": 7472,
      "Ġgardening": 7473,
      "Ġutilized": 7474,
      "Ġnucleus": 7475,
      "Ġbehaviour": 7476,
      "Ġdynamics": 7477,
      "à¥į": 7478,
      "Ġhedge": 7479,
      "-out": 7480,
      ".'": 7481,
      ".C": 7482,
      "59": 7483,
      "88": 7484,
      "py": 7485,
      "|Ċ": 7486,
      "Ġ`": 7487,
      "reens": 7488,
      "eric": 7489,
      "Ġwat": 7490,
      "Ġham": 7491,
      "usiness": 7492,
      "ĠTrue": 7493,
      "Ġprove": 7494,
      "osquit": 7495,
      "Ġcompound": 7496,
      "aren": 7497,
      "Ġclothes": 7498,
      "Ġrose": 7499,
      "Ġroles": 7500,
      "Ġcolumn": 7501,
      "lectric": 7502,
      "oving": 7503,
      "Ġshouldn": 7504,
      "Ġherbs": 7505,
      "Ġflows": 7506,
      "Ġprevention": 7507,
      "Ġlayout": 7508,
      "Ġdocuments": 7509,
      "Ġroads": 7510,
      "Ġmountain": 7511,
      "Ġneighbor": 7512,
      "Ġstreet": 7513,
      "-scale": 7514,
      "Am": 7515,
      "bor": 7516,
      "bone": 7517,
      "war": 7518,
      "Ġsle": 7519,
      "Ġselling": 7520,
      "Ġcognitive": 7521,
      "Ġhurt": 7522,
      "Ġlung": 7523,
      "Ġvict": 7524,
      "opl": 7525,
      "ĠPot": 7526,
      "Ġenerg": 7527,
      "perm": 7528,
      "ĠFree": 7529,
      "ources": 7530,
      "ĠLED": 7531,
      "ĠOF": 7532,
      "Ġperce": 7533,
      "ĠJes": 7534,
      "Ġregional": 7535,
      "rosion": 7536,
      "Ġherb": 7537,
      "Ġpersonality": 7538,
      "Ġserves": 7539,
      "Ġdelicate": 7540,
      "Ġcaps": 7541,
      "Ġappeal": 7542,
      "Ġembod": 7543,
      "Ġdegrad": 7544,
      "Ġprecision": 7545,
      "Ġsatell": 7546,
      "Ġnutrient": 7547,
      "ĠDragons": 7548,
      "67": 7549,
      "84": 7550,
      "Fig": 7551,
      "gical": 7552,
      "Ġtons": 7553,
      "Ġaward": 7554,
      "Ġcred": 7555,
      "Ġcake": 7556,
      "Ġok": 7557,
      "itter": 7558,
      "edge": 7559,
      "Ġtomat": 7560,
      "Ġdrought": 7561,
      "Ġduration": 7562,
      "ĠTrib": 7563,
      "iders": 7564,
      "antly": 7565,
      "ĠPen": 7566,
      "ĠPacific": 7567,
      "ĠBack": 7568,
      "Ġchances": 7569,
      "izz": 7570,
      "Ġking": 7571,
      "pling": 7572,
      "Ġblind": 7573,
      "Ġvariations": 7574,
      "ĠChoose": 7575,
      "Ġdiscipl": 7576,
      "Ġcorrel": 7577,
      "Ġentered": 7578,
      "Ġopened": 7579,
      "Ġfocuses": 7580,
      "ĠSaudiArabian": 7581,
      "Ġcalculated": 7582,
      "ĠAgricult": 7583,
      "Ġnutritional": 7584,
      "Ġpreparing": 7585,
      "Ġspectrum": 7586,
      "Ġneutral": 7587,
      "Ġnervous": 7588,
      "Ġantibiotics": 7589,
      "-E": 7590,
      "Even": 7591,
      "IV": 7592,
      "kal": 7593,
      "mble": 7594,
      "reet": 7595,
      "Ġodd": 7596,
      "Ġpapers": 7597,
      "Ġdial": 7598,
      "Ġdirty": 7599,
      "icide": 7600,
      "Ġlosing": 7601,
      "Ġbeach": 7602,
      "ĠMill": 7603,
      "Ġenzym": 7604,
      "Ġleak": 7605,
      "ĠDogs": 7606,
      "ĠNon": 7607,
      "onday": 7608,
      "ĠJava": 7609,
      "Ġphr": 7610,
      "Ġphilos": 7611,
      "Ġmeters": 7612,
      "Ġguarant": 7613,
      "exp": 7614,
      "Ġantioxid": 7615,
      "Ġestimate": 7616,
      "Ġoccurring": 7617,
      "Ġsensitivity": 7618,
      "ĠWorks": 7619,
      "Ġpackage": 7620,
      "Ġprinted": 7621,
      "Ġlawn": 7622,
      "ĠGeneral": 7623,
      "Ġmessages": 7624,
      "ĠAmazon": 7625,
      "Ġpriorit": 7626,
      "Ġcalculate": 7627,
      "Ġdistinctive": 7628,
      "ĠCreate": 7629,
      "Ġconclud": 7630,
      "Ġlungs": 7631,
      "Ġoverwhel": 7632,
      "ĠNASA": 7633,
      "63": 7634,
      "Ins": 7635,
      "OC": 7636,
      "gal": 7637,
      "power": 7638,
      "Ġid": 7639,
      "inent": 7640,
      "Ġcement": 7641,
      "Ġdys": 7642,
      "olt": 7643,
      "ĠCop": 7644,
      "ĠBab": 7645,
      "ĠMal": 7646,
      "ĠMiddle": 7647,
      "ĠFarm": 7648,
      "ĠNatural": 7649,
      "Ġsoap": 7650,
      "Ġgrams": 7651,
      "Ġresulted": 7652,
      "Ġcenturies": 7653,
      "Ġenvironmentally": 7654,
      "Ġdriven": 7655,
      "Ġlargely": 7656,
      "ĠThose": 7657,
      "Ġmarked": 7658,
      "Ġbiom": 7659,
      "agnetic": 7660,
      "Ġenhanced": 7661,
      "Ġastron": 7662,
      "Ġvisitors": 7663,
      "ĠFrance": 7664,
      "Ġfoam": 7665,
      "Ġdimensions": 7666,
      "Ġinstitutions": 7667,
      "Aut": 7668,
      "Source": 7669,
      "auc": 7670,
      "yal": 7671,
      "inction": 7672,
      "itic": 7673,
      "Ġdaughter": 7674,
      "Ġgal": 7675,
      "Ġstones": 7676,
      "pection": 7677,
      "this": 7678,
      "Ġvill": 7679,
      "ĠPublic": 7680,
      "ppers": 7681,
      "Ġsucc": 7682,
      "Ġshower": 7683,
      "indle": 7684,
      "Ġresolution": 7685,
      "Ġarth": 7686,
      "ĠVer": 7687,
      "Ġregist": 7688,
      "chnology": 7689,
      "Ġplanted": 7690,
      "Ġeleg": 7691,
      "Ġfunctionality": 7692,
      "Ġconsideration": 7693,
      "Ġposts": 7694,
      "Ġspecialist": 7695,
      "Which": 7696,
      "Ġstrengthen": 7697,
      "Ġfibers": 7698,
      "Ġrotation": 7699,
      "Ġroute": 7700,
      "Ġbags": 7701,
      "Ġrepeated": 7702,
      "ĠDifferent": 7703,
      "Ġbasket": 7704,
      "-en": 7705,
      "Fe": 7706,
      "ÃĹ": 7707,
      "Ġtone": 7708,
      "ittle": 7709,
      "Ġpou": 7710,
      "aria": 7711,
      "Ġgate": 7712,
      "Ġgift": 7713,
      "Ġstack": 7714,
      "Ġstrict": 7715,
      "ĠCoun": 7716,
      "emat": 7717,
      "Ġusual": 7718,
      "ĠBi": 7719,
      "ĠBay": 7720,
      "ĠMel": 7721,
      "ockey": 7722,
      "ourse": 7723,
      "ĠNext": 7724,
      "ĠGovern": 7725,
      "ĠLow": 7726,
      "Ġuniversity": 7727,
      "ĠUlt": 7728,
      "tee": 7729,
      "Ġrecipes": 7730,
      "Ġpeak": 7731,
      "ĠJer": 7732,
      "Ġindeed": 7733,
      "Ġpositions": 7734,
      "Ġinfo": 7735,
      "Ġvet": 7736,
      "ĠProcess": 7737,
      "Ġtreating": 7738,
      "Ġadvoc": 7739,
      "ĠThough": 7740,
      "Ġconfident": 7741,
      "Ġanalys": 7742,
      "Ġscientist": 7743,
      "Ġwriter": 7744,
      "Ġdescribes": 7745,
      "Ġemployed": 7746,
      "Ġmorph": 7747,
      "vantages": 7748,
      "ogenic": 7749,
      "ĠAustralian": 7750,
      "Ġlimitations": 7751,
      "Ġbranch": 7752,
      "Ġmitig": 7753,
      "Ġconvenient": 7754,
      "Ġthoroughly": 7755,
      "ĠFoundation": 7756,
      "-a": 7757,
      "Further": 7758,
      "LL": 7759,
      "Note": 7760,
      "SD": 7761,
      "\\)": 7762,
      "Ġtang": 7763,
      "Ġsan": 7764,
      "athy": 7765,
      "itamin": 7766,
      "Ġpus": 7767,
      "Ġfans": 7768,
      "Ġbills": 7769,
      "Ġbicy": 7770,
      "Ġbought": 7771,
      "ĠIT": 7772,
      "adder": 7773,
      "peed": 7774,
      "Ġdeer": 7775,
      "ĠMach": 7776,
      "ĠRen": 7777,
      "ĠNorthern": 7778,
      "ĠLi": 7779,
      "ĠLabor": 7780,
      "soft": 7781,
      "Ġthereby": 7782,
      "Ġtrial": 7783,
      "Ġcoil": 7784,
      "Ġagents": 7785,
      "cycle": 7786,
      "Ġgrains": 7787,
      "Ġchildhood": 7788,
      "certain": 7789,
      "Ġzones": 7790,
      "Ġconsumer": 7791,
      "Ġfourth": 7792,
      "Ġpopularity": 7793,
      "ĠPrince": 7794,
      "Ġintegr": 7795,
      "Ġwebsites": 7796,
      "Ġhypot": 7797,
      "-rich": 7798,
      "Ġleadership": 7799,
      "Ġsenior": 7800,
      "BC": 7801,
      "Of": 7802,
      "eal": 7803,
      "live": 7804,
      "oa": 7805,
      "Ġpra": 7806,
      "Ġmouse": 7807,
      "Ġgender": 7808,
      "Ġbeans": 7809,
      "amily": 7810,
      "uning": 7811,
      "ivered": 7812,
      "ĠMass": 7813,
      "thernet": 7814,
      "Ġunknown": 7815,
      "Ġoutcome": 7816,
      "Ġtheme": 7817,
      "Ġscreens": 7818,
      "Ġsomewhere": 7819,
      "ĠYear": 7820,
      "obal": 7821,
      "ĠThanks": 7822,
      "Ġfatty": 7823,
      "Ġpurchasing": 7824,
      "ĠMoreover": 7825,
      "Ġaccurately": 7826,
      "Ġconstructed": 7827,
      "People": 7828,
      "Ġlarvae": 7829,
      "IF": 7830,
      "IP": 7831,
      "Sum": 7832,
      "cope": 7833,
      "gent": 7834,
      "rument": 7835,
      "Ġtab": 7836,
      "Ġcash": 7837,
      "Ġfav": 7838,
      "Ġdried": 7839,
      "rots": 7840,
      "ĠTher": 7841,
      "Ġstead": 7842,
      "Ġconvey": 7843,
      "Ġhem": 7844,
      "opia": 7845,
      "Ġshorter": 7846,
      "ĠDog": 7847,
      "Ġplacing": 7848,
      "ĠEnd": 7849,
      "Ġdischarge": 7850,
      "Ġjelly": 7851,
      "Ġwhenever": 7852,
      "Ġparty": 7853,
      "Ġrays": 7854,
      "idespread": 7855,
      "Ġmarkets": 7856,
      "Ġpasses": 7857,
      "Ġlistening": 7858,
      "Ġfreedom": 7859,
      "Ġstrongly": 7860,
      "Ġseemed": 7861,
      "Ġclimates": 7862,
      "Ġaimed": 7863,
      "Ġdrops": 7864,
      "Ġintelligent": 7865,
      "Ġcandid": 7866,
      "Ġsynthetic": 7867,
      "Ġhormones": 7868,
      "About": 7869,
      "Ġunexpected": 7870,
      "Ġveterinarian": 7871,
      "-v": 7872,
      "LA": 7873,
      "Like": 7874,
      "hav": 7875,
      "Ġì": 7876,
      "inse": 7877,
      "Ġbits": 7878,
      "ĠTop": 7879,
      "ulent": 7880,
      "ĠMor": 7881,
      "ĠFore": 7882,
      "Ġabuse": 7883,
      "ĠRad": 7884,
      "apse": 7885,
      "Ġscope": 7886,
      "Ġneedle": 7887,
      "Ġcoop": 7888,
      "Ġaccidents": 7889,
      "luding": 7890,
      "Ġintermedi": 7891,
      "ĠVR": 7892,
      "taining": 7893,
      "Ġsubt": 7894,
      "Ġautism": 7895,
      "Ġguard": 7896,
      "Ġcenters": 7897,
      "ĠAnimal": 7898,
      "Ġdelivered": 7899,
      "akespe": 7900,
      "azine": 7901,
      "anguages": 7902,
      "Ġindicated": 7903,
      "Ġcompetitive": 7904,
      "ĠTraining": 7905,
      "Ġsymbols": 7906,
      "Ġconversion": 7907,
      "Ġcarbohydrates": 7908,
      "%),": 7909,
      "ona": 7910,
      "Ġslic": 7911,
      "Ġcables": 7912,
      "Ġow": 7913,
      "esium": 7914,
      "Ġwidespread": 7915,
      "ingly": 7916,
      "Ġmeth": 7917,
      "Ġmosquit": 7918,
      "asant": 7919,
      "Ġnine": 7920,
      "ĠTree": 7921,
      "utting": 7922,
      "olars": 7923,
      "Ġongoing": 7924,
      "Ġproof": 7925,
      "ĠSing": 7926,
      "ĠSpecial": 7927,
      "ĠSocial": 7928,
      "ĠWilli": 7929,
      "anta": 7930,
      "Ġvib": 7931,
      "ĠPal": 7932,
      "lder": 7933,
      "plane": 7934,
      "Ġrelation": 7935,
      "Ġleader": 7936,
      "Ġadvis": 7937,
      "onto": 7938,
      "Ġprofile": 7939,
      "ĠAdv": 7940,
      "Ġenhancing": 7941,
      "Ġheavily": 7942,
      "Ġpurchased": 7943,
      "Ġreturned": 7944,
      "Ġcontrolling": 7945,
      "Ġfaith": 7946,
      "Ġdeficiency": 7947,
      "Ġathletes": 7948,
      "Ġcannabis": 7949,
      "/m": 7950,
      "82": 7951,
      "Av": 7952,
      "CD": 7953,
      "born": 7954,
      "wo": 7955,
      "Ġcow": 7956,
      "anish": 7957,
      "icon": 7958,
      "Ġbeet": 7959,
      "Ġstake": 7960,
      "ĠSign": 7961,
      "ĠSuch": 7962,
      "Ġhence": 7963,
      "ĠBlu": 7964,
      "ĠMart": 7965,
      "ocur": 7966,
      "ĠNor": 7967,
      "ĠGroup": 7968,
      "rub": 7969,
      "Ġunable": 7970,
      "Ġtiming": 7971,
      "Ġrecip": 7972,
      "Ġacting": 7973,
      "owners": 7974,
      "Ġinsight": 7975,
      "Ġpossibilities": 7976,
      "Ġguy": 7977,
      "-con": 7978,
      "ĠArctic": 7979,
      "ĠSciences": 7980,
      "Ġconnecting": 7981,
      "Ġlift": 7982,
      "Ġjourn": 7983,
      "Ġcovering": 7984,
      "Ġconsistency": 7985,
      "Ġjoints": 7986,
      "Ġcarrying": 7987,
      "Ġvarying": 7988,
      "Ġfloat": 7989,
      "imensional": 7990,
      "Ġinspired": 7991,
      "Ġethical": 7992,
      "Ġstatist": 7993,
      "Ġremarkable": 7994,
      "ĠCouncil": 7995,
      "akespeare": 7996,
      "DP": 7997,
      "Ġpill": 7998,
      "Ġpants": 7999,
      "Ġbrick": 8000,
      "etooth": 8001,
      "utive": 8002,
      "Ġforg": 8003,
      "ĠHaw": 8004,
      "rous": 8005,
      "Ġcomprom": 8006,
      "astics": 8007,
      "Ġsyndrome": 8008,
      "Ġblend": 8009,
      "Ġdesire": 8010,
      "Ġaccommod": 8011,
      "ĠStar": 8012,
      "Ġrelief": 8013,
      "ega": 8014,
      "Ġvisiting": 8015,
      "Ġgrant": 8016,
      "Ġhygien": 8017,
      "Ġcamps": 8018,
      "Ġcombining": 8019,
      "onomics": 8020,
      "Ġfacility": 8021,
      "ĠConst": 8022,
      "Ġobservations": 8023,
      "Add": 8024,
      "Ġfootprint": 8025,
      "Ġgained": 8026,
      "Ġstimul": 8027,
      "Ġconversation": 8028,
      "ĠCharacter": 8029,
      "Ġallergic": 8030,
      "Ġfrust": 8031,
      "gypt": 8032,
      "Ġtumor": 8033,
      "Ġaccomplish": 8034,
      "ĠEngineering": 8035,
      "Go": 8036,
      "Have": 8037,
      "Per": 8038,
      "gu": 8039,
      "rie": 8040,
      "Ġ...Ċ": 8041,
      "oned": 8042,
      "Ġcodes": 8043,
      "Ġwound": 8044,
      "itational": 8045,
      "Ġfant": 8046,
      "oul": 8047,
      "Ġinher": 8048,
      "Ġlin": 8049,
      "otype": 8050,
      "ceans": 8051,
      "ĠIll": 8052,
      "Ġaluminum": 8053,
      "ĠWin": 8054,
      "alls": 8055,
      "ĠFalse": 8056,
      "Ġdoors": 8057,
      "Ġmeets": 8058,
      "Ġreliability": 8059,
      "Ġregulation": 8060,
      "Ġsolving": 8061,
      "uesday": 8062,
      "type": 8063,
      "Ġmetric": 8064,
      "Ġdefect": 8065,
      "Ġcircular": 8066,
      "Ġtargets": 8067,
      "Ġupdate": 8068,
      "ĠSmith": 8069,
      "Ġmathematics": 8070,
      "Ġincredibly": 8071,
      "Ġholiday": 8072,
      "Ġpandemic": 8073,
      "76": 8074,
      "Car": 8075,
      "RNA": 8076,
      "bar": 8077,
      "band": 8078,
      "lation": 8079,
      "pm": 8080,
      "inery": 8081,
      "Ġcups": 8082,
      "Ġmere": 8083,
      "ifer": 8084,
      "istan": 8085,
      "ĠPD": 8086,
      "ĠMethod": 8087,
      "Ġcompression": 8088,
      "Ġworn": 8089,
      "Ġthank": 8090,
      "Ġspecified": 8091,
      "Ġregulate": 8092,
      "Ġvariation": 8093,
      "iances": 8094,
      "Ġearn": 8095,
      "Ġcombine": 8096,
      "âĢĶâĢĶ": 8097,
      "bean": 8098,
      "Ġoils": 8099,
      "Ġdrying": 8100,
      "Ġtotally": 8101,
      "Ġgarlic": 8102,
      "Ġpreference": 8103,
      "Ġpairs": 8104,
      "Ġmathematical": 8105,
      "Ġtherapies": 8106,
      "Ġprevalence": 8107,
      "ĠDigital": 8108,
      "%,": 8109,
      "rass": 8110,
      "ðŁ": 8111,
      "Ġarom": 8112,
      "Ġacknow": 8113,
      "Ġwife": 8114,
      "Ġpear": 8115,
      "Ġpond": 8116,
      "Ġtoy": 8117,
      "icul": 8118,
      "ione": 8119,
      "ola": 8120,
      "thon": 8121,
      "opes": 8122,
      "ĠFin": 8123,
      "elled": 8124,
      "Ġclock": 8125,
      "avirus": 8126,
      "atures": 8127,
      "oved": 8128,
      "ĠView": 8129,
      "Ġinstrum": 8130,
      "Ġinstrument": 8131,
      "Ġcorrosion": 8132,
      "Ġsafer": 8133,
      "Ġlasting": 8134,
      "Ġcircuits": 8135,
      "Ġcharacteristic": 8136,
      "Ġbrother": 8137,
      "Ġmatrix": 8138,
      "Ġvegetation": 8139,
      "-step": 8140,
      "Ġboxes": 8141,
      "Ġdecreased": 8142,
      "Ġultimate": 8143,
      "Ġviruses": 8144,
      "Ġhighlights": 8145,
      "Ġnavigate": 8146,
      "Ġwestern": 8147,
      "Ġrefrigerator": 8148,
      "Ġadventure": 8149,
      "cont": 8150,
      "df": 8151,
      "face": 8152,
      "mia": 8153,
      "uis": 8154,
      "usive": 8155,
      "rained": 8156,
      "ĠAM": 8157,
      "Ġrivers": 8158,
      "ĠNeed": 8159,
      "ĠOv": 8160,
      "ĠInf": 8161,
      "Ġarc": 8162,
      "Ġaged": 8163,
      "Ġagent": 8164,
      "othing": 8165,
      "ĠKids": 8166,
      "forest": 8167,
      "riting": 8168,
      "Ġcheaper": 8169,
      "Ġreproduction": 8170,
      "Ġexamined": 8171,
      "ĠSoft": 8172,
      "ĠExp": 8173,
      "Ġcriteria": 8174,
      "ĠMaybe": 8175,
      "ĠGener": 8176,
      "Ġevaluation": 8177,
      "Ġexceptional": 8178,
      "Ġfrost": 8179,
      "Ġaggressive": 8180,
      "ĠSuper": 8181,
      "Ġboundaries": 8182,
      "Ġbleeding": 8183,
      "Ġfeathers": 8184,
      "Related": 8185,
      "Ġlaunched": 8186,
      "Ġenzymes": 8187,
      "EF": 8188,
      "IA": 8189,
      "Last": 8190,
      "iary": 8191,
      "oons": 8192,
      "Ġsaving": 8193,
      "Ġsulf": 8194,
      "Ġfalse": 8195,
      "lete": 8196,
      "ctive": 8197,
      "ilage": 8198,
      "Ġnor": 8199,
      "eterm": 8200,
      "Ġgum": 8201,
      "Ġgaps": 8202,
      "Ġstabil": 8203,
      "ĠNote": 8204,
      "Ġmanif": 8205,
      "Ġrod": 8206,
      "Ġdiffer": 8207,
      "Ġcoverage": 8208,
      "Ġchecking": 8209,
      "Ġdistrict": 8210,
      "Ġboiling": 8211,
      "ĠWithout": 8212,
      "ĠIndust": 8213,
      "Ġterrit": 8214,
      "Ġsensory": 8215,
      "afe": 8216,
      "Ġerosion": 8217,
      "Ġcomplexity": 8218,
      "Ġdreams": 8219,
      "Ġgeomet": 8220,
      "Ġconcentrations": 8221,
      "ĠSimilar": 8222,
      "Ġstruggle": 8223,
      "Ġsediment": 8224,
      "Ġaffordable": 8225,
      "Ġphotographs": 8226,
      "Ġmirror": 8227,
      "Each": 8228,
      "ML": 8229,
      "birds": 8230,
      "kers": 8231,
      "mas": 8232,
      "oin": 8233,
      "rint": 8234,
      "Ġcub": 8235,
      "Ġwed": 8236,
      "Ġwiring": 8237,
      "itative": 8238,
      "Ġpest": 8239,
      "Ġfellow": 8240,
      "Ġlivestock": 8241,
      "Ġrent": 8242,
      "ĠTim": 8243,
      "imp": 8244,
      "Ġstuck": 8245,
      "ĠIC": 8246,
      "acles": 8247,
      "ĠMiss": 8248,
      "Ġneu": 8249,
      "ĠFil": 8250,
      "ideo": 8251,
      "Ġtech": 8252,
      "ĠItalian": 8253,
      "Ġaccomp": 8254,
      "Ġoffic": 8255,
      "Ġcomputed": 8256,
      "Ġappeared": 8257,
      "Ġmultip": 8258,
      "Ġmindful": 8259,
      "Ġtruck": 8260,
      "Ġcracks": 8261,
      "Ġpositioned": 8262,
      "Ġfarms": 8263,
      "Who": 8264,
      "aska": 8265,
      "Ġaddressing": 8266,
      "Ġrepresented": 8267,
      "Ġcompanion": 8268,
      "Ġanalyzing": 8269,
      "Ġepis": 8270,
      "Ġthickness": 8271,
      "Ġoutdoors": 8272,
      "Ġgraphics": 8273,
      "Ġdependent": 8274,
      "Ġreproduce": 8275,
      "Ġelectronics": 8276,
      "ĠMarket": 8277,
      "Ġdollars": 8278,
      "Ġintricate": 8279,
      "Ġgrooming": 8280,
      ".A": 8281,
      ".org": 8282,
      "CI": 8283,
      "Scient": 8284,
      "list": 8285,
      "Ġca": 8286,
      "Ġpale": 8287,
      "ilation": 8288,
      "ilib": 8289,
      "Ġgly": 8290,
      "igue": 8291,
      "ĠSouthern": 8292,
      "ĠCurrent": 8293,
      "osh": 8294,
      "Ġrating": 8295,
      "ogether": 8296,
      "pert": 8297,
      "ĠFig": 8298,
      "ĠEgypt": 8299,
      "ria": 8300,
      "Ġcommands": 8301,
      "ĠJe": 8302,
      "Ġdiets": 8303,
      "Ġtransformation": 8304,
      "Ġpolice": 8305,
      "-col": 8306,
      "Ġanticip": 8307,
      "Ġescape": 8308,
      "ĠClick": 8309,
      "Ġproviders": 8310,
      "Ġterror": 8311,
      "Ġsubstrate": 8312,
      "Ġachieving": 8313,
      "Ġanalyzed": 8314,
      "Ġshaped": 8315,
      "Ġillustrated": 8316,
      "Ġupdated": 8317,
      "Ġkidney": 8318,
      "Ġdrainage": 8319,
      "ĠEastern": 8320,
      "\"I": 8321,
      "/inc": 8322,
      "ael": 8323,
      "eath": 8324,
      "zil": 8325,
      "Ġions": 8326,
      "Ġtends": 8327,
      "erts": 8328,
      "Ġpipes": 8329,
      "icular": 8330,
      "lymp": 8331,
      "olves": 8332,
      "ĠAcc": 8333,
      "Ġstains": 8334,
      "ĠCost": 8335,
      "Ġhero": 8336,
      "ĠBul": 8337,
      "Ġneural": 8338,
      "Ġrust": 8339,
      "ocado": 8340,
      "ĠFigure": 8341,
      "ĠRight": 8342,
      "ĠNO": 8343,
      "Ġtradition": 8344,
      "Ġoverview": 8345,
      "Ġdesk": 8346,
      "onscious": 8347,
      "Ġsurve": 8348,
      "ĠChange": 8349,
      "Ġlightweight": 8350,
      "ĠUnion": 8351,
      "Ġoperator": 8352,
      "Ġinvestors": 8353,
      "-powered": 8354,
      "aneously": 8355,
      "Ġportable": 8356,
      "Ġsummary": 8357,
      "Ġreplacing": 8358,
      "ĠColl": 8359,
      "ĠImp": 8360,
      "Ġwarning": 8361,
      "Ġconsistently": 8362,
      "ĠDespite": 8363,
      "Ġmoral": 8364,
      "Ġdiagnosed": 8365,
      "Ġutilize": 8366,
      "Ġpreferred": 8367,
      "Ġextracted": 8368,
      "Ġjoined": 8369,
      "Ġstimulation": 8370,
      "Ġconvenience": 8371,
      "Ġhazard": 8372,
      "Ġflavors": 8373,
      "Learn": 8374,
      "ĠAcademy": 8375,
      "%.": 8376,
      "Man": 8377,
      "NG": 8378,
      "eous": 8379,
      "tub": 8380,
      "Ġille": 8381,
      "Ġpip": 8382,
      "Ġfraction": 8383,
      "road": 8384,
      "Ġshallow": 8385,
      "ĠDiv": 8386,
      "action": 8387,
      "Ġcompens": 8388,
      "Ġjet": 8389,
      "Ġimpressive": 8390,
      "Ġscales": 8391,
      "Ġrecover": 8392,
      "Ġarts": 8393,
      "Ġtechnological": 8394,
      "Ġdepartment": 8395,
      "Ġcentros": 8396,
      "Ġdefense": 8397,
      "Ġclassification": 8398,
      "Ġbasics": 8399,
      "Ġbelieves": 8400,
      "Ġbikes": 8401,
      "ushing": 8402,
      "ĠReview": 8403,
      "Any": 8404,
      "rolled": 8405,
      "Ġfalls": 8406,
      "ymph": 8407,
      "ĠComputer": 8408,
      "Ġencounter": 8409,
      "Ġpleasure": 8410,
      "proof": 8411,
      "Ġwondering": 8412,
      "Ġemerging": 8413,
      "Ġaccepted": 8414,
      "Ġmutations": 8415,
      "Ġmigration": 8416,
      "Ġaggreg": 8417,
      "Ġhonest": 8418,
      "irable": 8419,
      "ĠToronto": 8420,
      "Ġcavity": 8421,
      "Ġenabling": 8422,
      "erenn": 8423,
      "Ġsusceptible": 8424,
      "PM": 8425,
      "den": 8426,
      "heast": 8427,
      "erted": 8428,
      "Ġsad": 8429,
      "orp": 8430,
      "Ġfing": 8431,
      "Ġreven": 8432,
      "chain": 8433,
      "sey": 8434,
      "ĠSand": 8435,
      "ĠWord": 8436,
      "acity": 8437,
      "Ġvaries": 8438,
      "Ġru": 8439,
      "Ġrhy": 8440,
      "ĠHaving": 8441,
      "Ġdose": 8442,
      "Ġkg": 8443,
      "ĠGulf": 8444,
      "Ġsole": 8445,
      "Ġspan": 8446,
      "Ġsomewhat": 8447,
      "necess": 8448,
      "Ġairport": 8449,
      "Ġdistract": 8450,
      "Ġpolar": 8451,
      "they": 8452,
      "ĠShakespeare": 8453,
      "Ġgasoline": 8454,
      "ĠConnect": 8455,
      "Ġavoiding": 8456,
      "ĠDeep": 8457,
      "Ġexpectations": 8458,
      "Ġgrew": 8459,
      "ĠPhil": 8460,
      "Ġcooler": 8461,
      "Ġversions": 8462,
      "Ġdetected": 8463,
      "Ġalternatives": 8464,
      "Ġdecreases": 8465,
      "Ġreveal": 8466,
      "Ġelectroly": 8467,
      "Ġsurprising": 8468,
      "Ġobviously": 8469,
      "ĠBetween": 8470,
      "Ġisolated": 8471,
      "Ġincredible": 8472,
      "Ġfigures": 8473,
      "ĠAtlantic": 8474,
      "ĠMexico": 8475,
      "Ġjewelry": 8476,
      "ilibrium": 8477,
      "!\"": 8478,
      "Mod": 8479,
      "Make": 8480,
      "PE": 8481,
      "Wor": 8482,
      "gain": 8483,
      "ked": 8484,
      "rons": 8485,
      "under": 8486,
      "word": 8487,
      "Ġtear": 8488,
      "Ġpuzz": 8489,
      "Ġdates": 8490,
      "icians": 8491,
      "Ġhus": 8492,
      "Ġlamin": 8493,
      "etically": 8494,
      "Ġgiant": 8495,
      "urated": 8496,
      "Ġexceed": 8497,
      "Ġvapor": 8498,
      "ĠMem": 8499,
      "Ġshades": 8500,
      "ĠHor": 8501,
      "Ġworm": 8502,
      "ĠList": 8503,
      "Ġspine": 8504,
      "Ġspawning": 8505,
      "Ġassigned": 8506,
      "Ġgray": 8507,
      "Ġgravel": 8508,
      "Ġeditor": 8509,
      "rolog": 8510,
      "engu": 8511,
      "Ġguys": 8512,
      "Ġcommunic": 8513,
      "Ġbeneath": 8514,
      "Ġswitches": 8515,
      "Ġphotograp": 8516,
      "ĠPlus": 8517,
      "Ġretail": 8518,
      "Ġcouns": 8519,
      "ĠAtt": 8520,
      "Ġdryer": 8521,
      "Ġsnakes": 8522,
      "Ġfalling": 8523,
      "ĠImport": 8524,
      "Ġaccounts": 8525,
      "Ġbaseball": 8526,
      "Ġadapted": 8527,
      "Ġfulf": 8528,
      "Ġmistakes": 8529,
      "Ġcertific": 8530,
      "Ġallergies": 8531,
      "Ġinfluenced": 8532,
      "Ġenthusiasts": 8533,
      "(s": 8534,
      ";ĊĊ": 8535,
      "Ne": 8536,
      "SS": 8537,
      "Well": 8538,
      "fly": 8539,
      "iy": 8540,
      "Ġsail": 8541,
      "Ġpine": 8542,
      "Ġfats": 8543,
      "Ġbeds": 8544,
      "igan": 8545,
      "ĠAR": 8546,
      "urday": 8547,
      "ĠSU": 8548,
      "ĠBal": 8549,
      "Ġshore": 8550,
      "ĠDar": 8551,
      "izza": 8552,
      "ĠIncre": 8553,
      "Ġdevelopers": 8554,
      "Ġentering": 8555,
      "Ġfilters": 8556,
      "ĠPlace": 8557,
      "Ġcoupled": 8558,
      "Ġfaced": 8559,
      "-made": 8560,
      "Ġstopped": 8561,
      "Ġadjustments": 8562,
      "Ġdivide": 8563,
      "Ġingredient": 8564,
      "ĠDiam": 8565,
      "ĠGermany": 8566,
      "Ġcompressor": 8567,
      "Ġmacro": 8568,
      "Ġroughly": 8569,
      "Ġchloride": 8570,
      "Remember": 8571,
      "Ġconflict": 8572,
      "Ġsubstantial": 8573,
      "/incorrect": 8574,
      "\".ĊĊ": 8575,
      "83": 8576,
      "Finally": 8577,
      "Sub": 8578,
      "fast": 8579,
      "ij": 8580,
      "mond": 8581,
      "onnect": 8582,
      "onavirus": 8583,
      "Ġlanguages": 8584,
      "ĠSar": 8585,
      "Ġseiz": 8586,
      "osaur": 8587,
      "ĠEaster": 8588,
      "ĠEss": 8589,
      "ĠRoad": 8590,
      "Then": 8591,
      "inds": 8592,
      "hism": 8593,
      "formance": 8594,
      "Ġovercome": 8595,
      "Ġindoors": 8596,
      "Ġproducers": 8597,
      "Ġactively": 8598,
      "Ġexamination": 8599,
      "ĠUnlike": 8600,
      "ictor": 8601,
      "Ġfunctioning": 8602,
      "Ġmultipl": 8603,
      "Ġdemands": 8604,
      "Ġsoils": 8605,
      "Ġdigestion": 8606,
      "Ġpacket": 8607,
      "ĠCommun": 8608,
      "ĠConservation": 8609,
      "Ġabsorption": 8610,
      "Ġthousand": 8611,
      "Ġpsychological": 8612,
      "Ġadopted": 8613,
      "Ġcorrespond": 8614,
      "Ġrubber": 8615,
      "Ġmetabolic": 8616,
      "ĠSummer": 8617,
      "-off": 8618,
      "Date": 8619,
      "Main": 8620,
      "RA": 8621,
      "TE": 8622,
      "aired": 8623,
      "fting": 8624,
      "han": 8625,
      "rane": 8626,
      "va": 8627,
      "Ġsin": 8628,
      "Ġsink": 8629,
      "Ġore": 8630,
      "ano": 8631,
      "Ġhur": 8632,
      "ctu": 8633,
      "Ġreverse": 8634,
      "Ġwithstand": 8635,
      "Ġalike": 8636,
      "ĠFund": 8637,
      "ĠLine": 8638,
      "ipal": 8639,
      "Ġsprou": 8640,
      "Ġupg": 8641,
      "Ġexperimental": 8642,
      "Ġsmallest": 8643,
      "Ġcycling": 8644,
      "-down": 8645,
      "Ġbusy": 8646,
      "ĠClimate": 8647,
      "ĠDev": 8648,
      "Ġabsence": 8649,
      "Ġwooden": 8650,
      "Ġbarrier": 8651,
      "Ġstaying": 8652,
      "Ġsuperior": 8653,
      "Ġrobots": 8654,
      "Ġdispers": 8655,
      "ĠGeorge": 8656,
      "Ġthreats": 8657,
      "Ġpromotes": 8658,
      "ĠClean": 8659,
      "stein": 8660,
      "Ġmetabolism": 8661,
      "Ġproportion": 8662,
      "Ġreturns": 8663,
      ".s": 8664,
      "Part": 8665,
      "des": 8666,
      "herent": 8667,
      "Ġbor": 8668,
      "Ġlatter": 8669,
      "etal": 8670,
      "ĠAbs": 8671,
      "Ġprox": 8672,
      "Ġanth": 8673,
      "ĠPV": 8674,
      "ĠPain": 8675,
      "ude": 8676,
      "ĠHen": 8677,
      "acts": 8678,
      "ruit": 8679,
      "Ġscar": 8680,
      "ĠâĢĺ": 8681,
      "obe": 8682,
      "Ġcorpor": 8683,
      "Ġcharged": 8684,
      "arents": 8685,
      "Ġsalmon": 8686,
      "Ġenhances": 8687,
      "Ġsleeping": 8688,
      "Ġtender": 8689,
      "Ġintegration": 8690,
      "riction": 8691,
      "Ġurine": 8692,
      "Ġglasses": 8693,
      "Ġimplant": 8694,
      "scrib": 8695,
      "Ġdatas": 8696,
      "Ġmelting": 8697,
      "ĠValley": 8698,
      "Ġfederal": 8699,
      "ĠMaine": 8700,
      "Ġbattle": 8701,
      "-level": 8702,
      "Ġviolence": 8703,
      "ĠSafety": 8704,
      "Ġrecycled": 8705,
      "bu": 8706,
      "bits": 8707,
      "comm": 8708,
      "fol": 8709,
      "ju": 8710,
      "ses": 8711,
      "Â®": 8712,
      "Ġtong": 8713,
      "Ġbark": 8714,
      "oust": 8715,
      "also": 8716,
      "Ġmask": 8717,
      "arks": 8718,
      "asters": 8719,
      "Ġharsh": 8720,
      "Ġlux": 8721,
      "Ġglow": 8722,
      "ĠTO": 8723,
      "oler": 8724,
      "Ġforced": 8725,
      "Ġstunning": 8726,
      "ĠIce": 8727,
      "Ġunp": 8728,
      "Ġunass": 8729,
      "Ġreson": 8730,
      "Ġoutl": 8731,
      "Ġinterventions": 8732,
      "ĠVir": 8733,
      "Ġdifferently": 8734,
      "Ġdecomp": 8735,
      "Ġeverywhere": 8736,
      "Ġgenerating": 8737,
      "Ġequally": 8738,
      "Ġbrake": 8739,
      "Ġswelling": 8740,
      "Ġwarmth": 8741,
      "Ġradi": 8742,
      "Ġembed": 8743,
      "iscipl": 8744,
      "Ġscreening": 8745,
      "Ġbabies": 8746,
      "Ġimplemented": 8747,
      "Ġseriously": 8748,
      "ENT": 8749,
      "Ġadvancements": 8750,
      "ĠServices": 8751,
      "ĠGolden": 8752,
      "cribe": 8753,
      "Ġprolong": 8754,
      "Ġcasual": 8755,
      "ĠTribes": 8756,
      "Ġjournals": 8757,
      "Ġhygiene": 8758,
      "MC": 8759,
      "Post": 8760,
      "Take": 8761,
      "Today": 8762,
      "Up": 8763,
      "even": 8764,
      "iage": 8765,
      "heets": 8766,
      "Ġcircle": 8767,
      "Ġoz": 8768,
      "Ġboys": 8769,
      "Ġmim": 8770,
      "Ġmile": 8771,
      "leg": 8772,
      "roat": 8773,
      "Ġlid": 8774,
      "iler": 8775,
      "Ġnone": 8776,
      "Ġgast": 8777,
      "owing": 8778,
      "ĠAud": 8779,
      "Ġstiff": 8780,
      "ulpt": 8781,
      "Ġvine": 8782,
      "ĠMaster": 8783,
      "Ġrul": 8784,
      "ĠDO": 8785,
      "ĠDem": 8786,
      "ĠDown": 8787,
      "ĠHy": 8788,
      "izens": 8789,
      "Ġkin": 8790,
      "ĠYES": 8791,
      "neum": 8792,
      "Ġexploration": 8793,
      "ĠHead": 8794,
      "Ġequipped": 8795,
      "Ġcontained": 8796,
      "Ġphysically": 8797,
      "Ġrealistic": 8798,
      "Ġdevelopmental": 8799,
      "Ġsnake": 8800,
      "ĠImpro": 8801,
      "Ġgovernments": 8802,
      "eeding": 8803,
      "ĠKey": 8804,
      "holders": 8805,
      "Ġextracting": 8806,
      "Ġtailored": 8807,
      "Ġgravitational": 8808,
      "Ġshelf": 8809,
      "color": 8810,
      "Ġabsolutely": 8811,
      "fraid": 8812,
      "Ġcryptocur": 8813,
      "ĠDisease": 8814,
      "Ġcontemporary": 8815,
      "Ġembodiment": 8816,
      "bird": 8817,
      "Ġtag": 8818,
      "Ġafraid": 8819,
      "hent": 8820,
      "Ġcer": 8821,
      "Ġpestic": 8822,
      "Ġfest": 8823,
      "Ġmul": 8824,
      "Ġmelt": 8825,
      "Ġdot": 8826,
      "iche": 8827,
      "roider": 8828,
      "Ġloud": 8829,
      "ĠTips": 8830,
      "chark": 8831,
      "ĠID": 8832,
      "oded": 8833,
      "Ġchips": 8834,
      "Ġshall": 8835,
      "Ġshark": 8836,
      "ocation": 8837,
      "ĠHard": 8838,
      "Ġupl": 8839,
      "ĠLim": 8840,
      "Ġunset": 8841,
      "angular": 8842,
      "arios": 8843,
      "ools": 8844,
      "Ġdesigning": 8845,
      "Ġcharger": 8846,
      "Ġmeter": 8847,
      "Ġconsiderations": 8848,
      "Ġrealm": 8849,
      "Ġrealized": 8850,
      "-dr": 8851,
      "Ġappliances": 8852,
      "ylon": 8853,
      "Ġfailed": 8854,
      "Ġimplementing": 8855,
      "Ġsuspect": 8856,
      "Ġknife": 8857,
      "Ġflooring": 8858,
      "zyme": 8859,
      "ĠFIGURE": 8860,
      "Ġinduced": 8861,
      "Ġdentist": 8862,
      "ĠOvchark": 8863,
      "-ray": 8864,
      "Eng": 8865,
      "She": 8866,
      "Tube": 8867,
      "cal": 8868,
      "dis": 8869,
      "Ġtens": 8870,
      "Ġwitness": 8871,
      "Ġfilling": 8872,
      "edy": 8873,
      "Ġhip": 8874,
      "Ġhung": 8875,
      "cture": 8876,
      "Ġbeings": 8877,
      "Ġbell": 8878,
      "olic": 8879,
      "Ġasp": 8880,
      "ĠBox": 8881,
      "ĠMo": 8882,
      "Ġleather": 8883,
      "ĠHol": 8884,
      "ĠHand": 8885,
      "ĠRock": 8886,
      "ĠOlymp": 8887,
      "Ġunnecess": 8888,
      "Ġrecre": 8889,
      "Ġraising": 8890,
      "ĠKen": 8891,
      "everal": 8892,
      "Ġgrab": 8893,
      "Ġcalling": 8894,
      "ĠUnfortunately": 8895,
      "ĠProv": 8896,
      "Ġdefault": 8897,
      "Ġflowering": 8898,
      "Ġdamaging": 8899,
      "Ġconference": 8900,
      "-dimensional": 8901,
      "Ġfreeze": 8902,
      "ĠCancer": 8903,
      "ĠSpring": 8904,
      "Ġcraw": 8905,
      "anned": 8906,
      "Ġprobability": 8907,
      "Ġsequencing": 8908,
      "Ġremained": 8909,
      "Ġultra": 8910,
      "ependent": 8911,
      "Ġutilizing": 8912,
      "Ġreflects": 8913,
      "working": 8914,
      "........": 8915,
      "Ġnitrate": 8916,
      "Art": 8917,
      "Ġshopping": 8918,
      "Ġcrystal": 8919,
      "Ġconfirmed": 8920,
      "odynamics": 8921,
      "Ġdisplays": 8922,
      "ĠBluetooth": 8923,
      "-he": 8924,
      "Sec": 8925,
      "books": 8926,
      "pres": 8927,
      "onut": 8928,
      "Ġom": 8929,
      "itle": 8930,
      "Ġpose": 8931,
      "Ġpumps": 8932,
      "oured": 8933,
      "asy": 8934,
      "Ġthumb": 8935,
      "Ġlact": 8936,
      "Ġnarr": 8937,
      "Ġbeer": 8938,
      "Ġbeat": 8939,
      "Ġprost": 8940,
      "ĠWall": 8941,
      "ĠMag": 8942,
      "ĠNov": 8943,
      "Ġmanager": 8944,
      "Ġperm": 8945,
      "Ġcolours": 8946,
      "weet": 8947,
      "ovascular": 8948,
      "Ġprone": 8949,
      "Ġsupplements": 8950,
      "Ġinspection": 8951,
      "Ġfinds": 8952,
      "Ġdesigners": 8953,
      "Ġsheets": 8954,
      "Ġendangered": 8955,
      "Ġexplicit": 8956,
      "Ġmemor": 8957,
      "Ġimproves": 8958,
      "ĠAnn": 8959,
      "Ġserver": 8960,
      "Ġeaten": 8961,
      "Ġstrategic": 8962,
      "Ġmagnesium": 8963,
      "Ġdominant": 8964,
      "Ġfibre": 8965,
      "Ġconverted": 8966,
      "Ġcommitted": 8967,
      "Ġbulb": 8968,
      "ĠModel": 8969,
      "Ġmagic": 8970,
      "Ġdebate": 8971,
      "Ġexpanding": 8972,
      "Ġshifting": 8973,
      "ĠBrazil": 8974,
      "Ġinjection": 8975,
      "Ġcomplain": 8976,
      "Ġreputation": 8977,
      "Ġcompatible": 8978,
      "ĠPractice": 8979,
      "Ġcampaign": 8980,
      "Cle": 8981,
      "DI": 8982,
      "Med": 8983,
      "Ob": 8984,
      "rd": 8985,
      "rative": 8986,
      "tra": 8987,
      "reated": 8988,
      "onent": 8989,
      "Ġsale": 8990,
      "nds": 8991,
      "Ġfusion": 8992,
      "eta": 8993,
      "Ġgod": 8994,
      "ĠTimes": 8995,
      "stery": 8996,
      "Ġstoring": 8997,
      "aying": 8998,
      "Ġalph": 8999,
      "Ġdehyd": 9000,
      "ĠMary": 9001,
      "Ġchair": 9002,
      "iva": 9003,
      "ivating": 9004,
      "ortion": 9005,
      "Ġlever": 9006,
      "ĠDou": 9007,
      "ĠEst": 9008,
      "Ġadj": 9009,
      "ĠGig": 9010,
      "Ġsof": 9011,
      "ĠOk": 9012,
      "velength": 9013,
      "ctional": 9014,
      "ensed": 9015,
      "Ġrooms": 9016,
      "text": 9017,
      "Ġtracking": 9018,
      "Ġcoaching": 9019,
      "arious": 9020,
      "Ġprovider": 9021,
      "Ġbugs": 9022,
      "Ġdecent": 9023,
      "Ġcurious": 9024,
      "away": 9025,
      "Ġequilibrium": 9026,
      "unday": 9027,
      "Ġcoloring": 9028,
      "Ġmarking": 9029,
      "Ġconsuming": 9030,
      "ĠSpanish": 9031,
      "Ġtraveling": 9032,
      "Ġbarriers": 9033,
      "Ġfatigue": 9034,
      "appy": 9035,
      "ĠCommunity": 9036,
      "Ġquantities": 9037,
      "Ġprivacy": 9038,
      "Ġrarely": 9039,
      "Ġgraduate": 9040,
      "ĠMarine": 9041,
      "Ġlandscap": 9042,
      "Ġupdates": 9043,
      "Ġoccasionally": 9044,
      "Ġillnesses": 9045,
      "ĠBetter": 9046,
      "Ġarchitecture": 9047,
      "Ġappointment": 9048,
      "ĠFacebook": 9049,
      "Ġmuseum": 9050,
      "Ġintermediate": 9051,
      "CL": 9052,
      "bec": 9053,
      "á¹": 9054,
      "Ġq": 9055,
      "Ġcoding": 9056,
      "Ġfits": 9057,
      "Ġdolph": 9058,
      "Ġloyal": 9059,
      "ĠAqu": 9060,
      "Ġexclus": 9061,
      "ĠWomen": 9062,
      "ĠBook": 9063,
      "ĠMO": 9064,
      "Ġchains": 9065,
      "ĠDu": 9066,
      "ĠDire": 9067,
      "ĠDue": 9068,
      "Ġnewly": 9069,
      "Ġtransmitted": 9070,
      "Ġsimult": 9071,
      "Ġinsert": 9072,
      "Ġsettle": 9073,
      "Ġpainful": 9074,
      "Ġlearners": 9075,
      "Ġrestore": 9076,
      "Ġobjectives": 9077,
      "-making": 9078,
      "Ġinstalling": 9079,
      "Ġinfluences": 9080,
      "ĠQuestions": 9081,
      "Ġcontinuously": 9082,
      "ĠApple": 9083,
      "Ġrocket": 9084,
      "ĠStudy": 9085,
      "ometers": 9086,
      "Ġbulk": 9087,
      "Ġliterally": 9088,
      "Ġscenarios": 9089,
      "Ġrepeat": 9090,
      "Ġdinner": 9091,
      "Keep": 9092,
      "Ġunlikely": 9093,
      "ĠHelp": 9094,
      "ĠOffice": 9095,
      "Ġsubsequent": 9096,
      "Check": 9097,
      "ĠAgriculture": 9098,
      "Dec": 9099,
      "Trans": 9100,
      "bling": 9101,
      "rin": 9102,
      "oning": 9103,
      "Ġbore": 9104,
      "ĠSen": 9105,
      "mented": 9106,
      "Ġseats": 9107,
      "ĠEffect": 9108,
      "Ġmaps": 9109,
      "duction": 9110,
      "Ġwheat": 9111,
      "Ġwheels": 9112,
      "ĠLast": 9113,
      "ĠLaw": 9114,
      "riage": 9115,
      "ĠInit": 9116,
      "ĠYet": 9117,
      "issance": 9118,
      "Ġcrew": 9119,
      "Ġoptimize": 9120,
      "Ġclassified": 9121,
      "reaming": 9122,
      "-cont": 9123,
      "Ġpromising": 9124,
      "oxy": 9125,
      "Ġwinds": 9126,
      "Ġauthority": 9127,
      "Ġpathways": 9128,
      "Ġexcit": 9129,
      "Ġrepresentation": 9130,
      "Ġannounced": 9131,
      "Ġmaximize": 9132,
      "Â°F": 9133,
      "ĠAmong": 9134,
      "Ġpriority": 9135,
      "flamm": 9136,
      "Ġresidents": 9137,
      "Ġfighting": 9138,
      "Ġfoliage": 9139,
      "Ġscheme": 9140,
      "Ġstreets": 9141,
[...]
