{
  "version": "1.0",
  "truncation": null,
  "padding": null,
  "added_tokens": [
    {
      "id": 0,
      "content": "<|bos|>",
      "single_word": false,
      "lstrip": false,
      "rstrip": false,
      "normalized": false,
      "special": true
    },
    {
      "id": 1,
      "content": "<|user_start|>",
      "single_word": false,
      "lstrip": false,
      "rstrip": false,
      "normalized": false,
      "special": true
    },
    {
      "id": 2,
      "content": "<|user_end|>",
      "single_word": false,
      "lstrip": false,
      "rstrip": false,
      "normalized": false,
      "special": true
    },
    {
      "id": 3,
      "content": "<|assistant_start|>",
      "single_word": false,
      "lstrip": false,
      "rstrip": false,
      "normalized": false,
      "special": true
    },
    {
      "id": 4,
      "content": "<|assistant_end|>",
      "single_word": false,
      "lstrip": false,
      "rstrip": false,
      "normalized": false,
      "special": true
    },
    {
      "id": 5,
      "content": "<|python_start|>",
      "single_word": false,
      "lstrip": false,
      "rstrip": false,
      "normalized": false,
      "special": true
    },
    {
      "id": 6,
      "content": "<|python_end|>",
      "single_word": false,
      "lstrip": false,
      "rstrip": false,
      "normalized": false,
      "special": true
    },
    {
      "id": 7,
      "content": "<|output_start|>",
      "single_word": false,
      "lstrip": false,
      "rstrip": false,
      "normalized": false,
      "special": true
    },
    {
      "id": 8,
      "content": "<|output_end|>",
      "single_word": false,
      "lstrip": false,
      "rstrip": false,
      "normalized": false,
      "special": true
    },
    {
      "id": 9,
      "content": "<|unk|>",
      "single_word": false,
      "lstrip": false,
      "rstrip": false,
      "normalized": false,
      "special": true
    }
  ],
  "normalizer": null,
  "pre_tokenizer": {
    "type": "Sequence",
    "pretokenizers": [
      {
        "type": "Split",
        "pattern": {
          "Regex": "'(?i:[sdmt]|ll|ve|re)|[^\\r\\n\\p{L}\\p{N}]?+\\p{L}+|\\p{N}{1,2}| ?[^\\s\\p{L}\\p{N}]++[\\r\\n]*|\\s*[\\r\\n]|\\s+(?!\\S)|\\s+"
        },
        "behavior": "Isolated",
        "invert": false
      },
      {
        "type": "ByteLevel",
        "add_prefix_space": false,
        "trim_offsets": true,
        "use_regex": false
      }
    ]
  },
  "post_processor": {
    "type": "TemplateProcessing",
    "single": [
      {
        "Sequence": {
          "id": "A",
          "type_id": 0
        }
      }
    ],
    "pair": [
      {
        "Sequence": {
          "id": "A",
          "type_id": 0
        }
      },
      {
        "Sequence": {
          "id": "B",
          "type_id": 1
        }
      }
    ],
    "special_tokens": {}
  },
  "decoder": null,
  "model": {
    "type": "Unigram",
    "unk_id": 9,
    "vocab": [
      [
        "<|bos|>",
        0.0
      ],
      [
        "<|user_start|>",
        0.0
      ],
      [
        "<|user_end|>",
        0.0
      ],
      [
        "<|assistant_start|>",
        0.0
      ],
      [
        "<|assistant_end|>",
        0.0
      ],
      [
        "<|python_start|>",
        0.0
      ],
      [
        "<|python_end|>",
        0.0
      ],
      [
        "<|output_start|>",
        0.0
      ],
      [
        "<|output_end|>",
        0.0
      ],
      [
        "<|unk|>",
        0.0
      ],
      [
        "s",
        -2.951003000499881
      ],
      [
        "Ġthe",
        -3.3844767128830036
      ],
      [
        ",",
        -3.4519785685316435
      ],
      [
        "Ġ",
        -3.7279189346181454
      ],
      [
        ".",
        -3.7571412178702186
      ],
      [
        "Ġand",
        -3.937553529240178
      ],
      [
        "Ġto",
        -3.9680378748494807
      ],
      [
        "Ġof",
        -3.9923969254358376
      ],
      [
        "Ġa",
        -4.108926739718266
      ],
      [
        "ing",
        -4.234107926600776
      ],
      [
        "Ġin",
        -4.498475551226219
      ],
      [
        "Ġis",
        -4.59912513014814
      ],
      [
        "ed",
        -4.704203865373657
      ],
      [
        "y",
        -4.892289780634819
      ],
      [
        "'",
        -4.898390794624129
      ],
      [
        "d",
        -4.951963889520091
      ],
      [
        "Ġthat",
        -5.002761069039538
      ],
      [
        "Ġfor",
        -5.029933890409717
      ],
      [
        "ly",
        -5.036935770644609
      ],
      [
        "0",
        -5.055752780913762
      ],
      [
        "e",
        -5.150256352281973
      ],
      [
        ":",
        -5.2209557674160045
      ],
      [
        "Ġare",
        -5.222974611122909
      ],
      [
        "1",
        -5.227749086169107
      ],
      [
        ".Ċ",
        -5.252414915828812
      ],
      [
        "Ġit",
        -5.28253138876701
      ],
      [
        "Ġyou",
        -5.297790814001676
      ],
      [
        "Ġwith",
        -5.312192369870175
      ],
      [
        ".ĊĊ",
        -5.3405664283039265
      ],
      [
        "Ċ",
        -5.352114789779341
      ],
      [
        "Ġbe",
        -5.395746094174649
      ],
      [
        "t",
        -5.449188763530614
      ],
      [
        "Ġor",
        -5.449488950729993
      ],
      [
        "2",
        -5.461488549100849
      ],
      [
        "Ġon",
        -5.473232343847881
      ],
      [
        "Ġcan",
        -5.5067055974284145
      ],
      [
        "ĊĊ",
        -5.595876897705573
      ],
      [
        "-",
        -5.606881448229403
      ],
      [
        "Ġyour",
        -5.665456945315842
      ],
      [
        "Ġas",
        -5.780792648972602
      ],
      [
        "Ġ(",
        -5.812971513769424
      ],
      [
        "Ġfrom",
        -5.876568058147846
      ],
      [
        "Ġhave",
        -5.887062906621058
      ],
      [
        "ĠThe",
        -5.90357965903922
      ],
      [
        "ĠI",
        -5.9126625728064415
      ],
      [
        "\"",
        -5.924363808460903
      ],
      [
        "Ġby",
        -5.9758717343145324
      ],
      [
        ")",
        -5.99724171076226
      ],
      [
        "Ġan",
        -6.0162644934119935
      ],
      [
        "Ġthis",
        -6.035361303483425
      ],
      [
        "3",
        -6.054541895872278
      ],
      [
        "n",
        -6.064147145543005
      ],
      [
        "Ġnot",
        -6.066483217614506
      ],
      [
        "?",
        -6.12337313014633
      ],
      [
        "Ġat",
        -6.149959886836033
      ],
      [
        "5",
        -6.151333405942443
      ],
      [
        "Ġwill",
        -6.198480118473315
      ],
      [
        "Ġtheir",
        -6.216687586649284
      ],
      [
        "a",
        -6.264267824882028
      ],
      [
        "4",
        -6.302809364780817
      ],
      [
        "Ġmore",
        -6.32928168449506
      ],
      [
        "Ġthey",
        -6.3470083221306
      ],
      [
        "ies",
        -6.380032466626298
      ],
      [
        "9",
        -6.418911221402963
      ],
      [
        "Ġwas",
        -6.430575951355262
      ],
      [
        "The",
        -6.452453863925696
      ],
      [
        "Ġbut",
        -6.467615640142162
      ],
      [
        "Ġhas",
        -6.503828507843812
      ],
      [
        "Ġwhich",
        -6.506880089932837
      ],
      [
        "Ġwe",
        -6.516760116624745
      ],
      [
        "Ġother",
        -6.52971261042808
      ],
      [
        "Ġone",
        -6.541420034222002
      ],
      [
        "Ġalso",
        -6.566154233775178
      ],
      [
        "6",
        -6.570614045588162
      ],
      [
        "Question",
        -6.603303439815921
      ],
      [
        "er",
        -6.609741851758377
      ],
      [
        "ĠAnswer",
        -6.622917008980046
      ],
      [
        "8",
        -6.626808603860317
      ],
      [
        "Ġall",
        -6.63501963463588
      ],
      [
        "Ġlike",
        -6.6533278598838415
      ],
      [
        "Ġabout",
        -6.662120363027425
      ],
      [
        "ĠA",
        -6.7079619139246045
      ],
      [
        "Ġwhen",
        -6.722440491793369
      ],
      [
        "7",
        -6.725675886991153
      ],
      [
        "Ġmay",
        -6.732246489057861
      ],
      [
        "Ġif",
        -6.734348426142363
      ],
      [
        "Ġtime",
        -6.752294185946255
      ],
      [
        "ĠIt",
        -6.75668142893276
      ],
      [
        "Ġdo",
        -6.762535706189835
      ],
      [
        "o",
        -6.763671469427393
      ],
      [
        "Ġthem",
        -6.76638500488127
      ],
      [
        "Ġneed",
        -6.771537225289457
      ],
      [
        "Ġuse",
        -6.7916146098358325
      ],
      [
        "Ġinto",
        -6.797246090648301
      ],
      [
        "i",
        -6.8016175545922675
      ],
      [
        "Ġup",
        -6.802302031466553
      ],
      [
        "Ġsome",
        -6.826359383175461
      ],
      [
        "on",
        -6.826798458145628
      ],
      [
        "Ġso",
        -6.844303998995743
      ],
      [
        "Ġhow",
        -6.84677583260458
      ],
      [
        "r",
        -6.859060738003723
      ],
      [
        "ĠThis",
        -6.879853203743139
      ],
      [
        "Ġthan",
        -6.908102942029494
      ],
      [
        "Ġout",
        -6.923894731934734
      ],
      [
        "ĠWhat",
        -6.926778775983424
      ],
      [
        "Ġthese",
        -6.953333232862818
      ],
      [
        "Ġthere",
        -6.960835349944013
      ],
      [
        "m",
        -6.9647709995953555
      ],
      [
        "Ġget",
        -6.973214820366795
      ],
      [
        "Ġmake",
        -6.98813143307035
      ],
      [
        "re",
        -7.012360139987743
      ],
      [
        "A",
        -7.032207442106946
      ],
      [
        "Ġwhat",
        -7.038308535430902
      ],
      [
        "Ġused",
        -7.040566571856516
      ],
      [
        "Ġwater",
        -7.044962647241757
      ],
      [
        "Ġany",
        -7.045197725018497
      ],
      [
        "Ġmost",
        -7.061826593814567
      ],
      [
        "such",
        -7.0643329718825925
      ],
      [
        "able",
        -7.066146329981832
      ],
      [
        "al",
        -7.085577889098655
      ],
      [
        "Ġour",
        -7.096674220691845
      ],
      [
        "Ġhelp",
        -7.100783001774312
      ],
      [
        "ĠIn",
        -7.10993014357687
      ],
      [
        "/",
        -7.138290533192498
      ],
      [
        "Ġpeople",
        -7.1466690078044515
      ],
      [
        "Ġbeen",
        -7.152140111504464
      ],
      [
        "Ġwho",
        -7.158153141755548
      ],
      [
        "Ġwere",
        -7.160606962122641
      ],
      [
        "Ġshould",
        -7.167112209068108
      ],
      [
        "Ġwould",
        -7.182123654450132
      ],
      [
        "Ġthrough",
        -7.199427329377709
      ],
      [
        "Ġnew",
        -7.210246433614113
      ],
      [
        "Ġjust",
        -7.256480496699766
      ],
      [
        ";",
        -7.257961020437811
      ],
      [
        "Ġonly",
        -7.26676014914757
      ],
      [
        "Ġwork",
        -7.274343099368593
      ],
      [
        "Ġwell",
        -7.275218016771563
      ],
      [
        "?Ċ",
        -7.281481419661681
      ],
      [
        "Ġmy",
        -7.289207005121169
      ],
      [
        "ity",
        -7.291472242490531
      ],
      [
        "I",
        -7.295833859230191
      ],
      [
        "Ġmany",
        -7.299889076144442
      ],
      [
        "Ġits",
        -7.312167674323613
      ],
      [
        "l",
        -7.34030139733418
      ],
      [
        "Ġover",
        -7.35074228579068
      ],
      [
        "Ġtwo",
        -7.350802521053405
      ],
      [
        "Ġhigh",
        -7.351743791745905
      ],
      [
        "c",
        -7.374317091373595
      ],
      [
        "Ġfirst",
        -7.374722964654417
      ],
      [
        "Ġway",
        -7.383710517533697
      ],
      [
        "Ġlong",
        -7.389423366173924
      ],
      [
        "!",
        -7.3934195631809825
      ],
      [
        "Ġdifferent",
        -7.3953544954969885
      ],
      [
        "Ġwhere",
        -7.398009566465888
      ],
      [
        "Ġsee",
        -7.407256422641558
      ],
      [
        "ĠIf",
        -7.412303965310212
      ],
      [
        "Ġcould",
        -7.425019686736128
      ],
      [
        "Ġno",
        -7.434296272443699
      ],
      [
        "Ġusing",
        -7.440158393916397
      ],
      [
        "Ġprovide",
        -7.440808832048123
      ],
      [
        "Ġtake",
        -7.444622368736766
      ],
      [
        "Ġbetween",
        -7.450323237359701
      ],
      [
        "ĠC",
        -7.461593659723556
      ],
      [
        "Ġbecause",
        -7.47319258910219
      ],
      [
        "Ġlook",
        -7.474581262623055
      ],
      [
        "Ġeven",
        -7.477350816832232
      ],
      [
        "Ġpart",
        -7.481001289473646
      ],
      [
        "out",
        -7.483070638941035
      ],
      [
        "Ġknow",
        -7.501633064848477
      ],
      [
        "Ġhealth",
        -7.510145652937645
      ],
      [
        "Ġdog",
        -7.511276920785225
      ],
      [
        "Ġvery",
        -7.523934116776735
      ],
      [
        "ĠHow",
        -7.526397720422304
      ],
      [
        "Ġchange",
        -7.534137989605073
      ],
      [
        "ever",
        -7.537918110175688
      ],
      [
        "Ġsystem",
        -7.538878571855278
      ],
      [
        "Ġeach",
        -7.556245921363859
      ],
      [
        "Ġgood",
        -7.575602993455837
      ],
      [
        "Ġwant",
        -7.579204133928696
      ],
      [
        "Ġimportant",
        -7.581854099339415
      ],
      [
        "ĠâĢĵ",
        -7.586474433243525
      ],
      [
        "ĠThey",
        -7.586513778104914
      ],
      [
        "Ġmuch",
        -7.588146637910482
      ],
      [
        "Ġdoes",
        -7.59175387736571
      ],
      [
        "Ġfood",
        -7.601717030506353
      ],
      [
        "Ġhad",
        -7.602765577028962
      ],
      [
        "ĠYou",
        -7.608132602340858
      ],
      [
        "Ġhe",
        -7.622329471542684
      ],
      [
        "In",
        -7.624208783759113
      ],
      [
        "Ġcause",
        -7.629542504573353
      ],
      [
        "?ĊĊ",
        -7.637963872147009
      ],
      [
        "ve",
        -7.659296786553642
      ],
      [
        "Ġhis",
        -7.6651615401495645
      ],
      [
        "Ġwhile",
        -7.66585077083118
      ],
      [
        "Ġsmall",
        -7.666619847536868
      ],
      [
        "Ġevery",
        -7.668237700259902
      ],
      [
        "Ġresult",
        -7.676264829496896
      ],
      [
        "in",
        -7.684875304999421
      ],
      [
        "Ġdon",
        -7.693638209160785
      ],
      [
        "ness",
        -7.695280893245907
      ],
      [
        "Ġdesign",
        -7.697690565361804
      ],
      [
        "Ġafter",
        -7.698253485858626
      ],
      [
        "Ġduring",
        -7.701080744193979
      ],
      [
        "around",
        -7.713571274967369
      ],
      [
        "Ġyears",
        -7.716452011956917
      ],
      [
        "Ġreal",
        -7.7179628860124305
      ],
      [
        "Ġbefore",
        -7.72006082702782
      ],
      [
        "âĢĻ",
        -7.7385924412494145
      ],
      [
        "Ġwh",
        -7.7386294563711715
      ],
      [
        "Ġnumber",
        -7.739331696568614
      ],
      [
        "Ġprocess",
        -7.739790028688443
      ],
      [
        "Ġallow",
        -7.741323223919744
      ],
      [
        "Ġcome",
        -7.747714101961673
      ],
      [
        "(",
        -7.750579492164145
      ],
      [
        "Ġfollow",
        -7.757485322988653
      ],
      [
        "Ġbest",
        -7.75939179623441
      ],
      [
        "Ġbody",
        -7.762110698930135
      ],
      [
        "Ġbeing",
        -7.764965408140536
      ],
      [
        "Ġsame",
        -7.765454530882126
      ],
      [
        "h",
        -7.774293506799907
      ],
      [
        "Ġoften",
        -7.7781212175935055
      ],
      [
        "Ġlevel",
        -7.778259378027318
      ],
      [
        "S",
        -7.781425860963432
      ],
      [
        "Ġworld",
        -7.781928233657146
      ],
      [
        "What",
        -7.782122025273853
      ],
      [
        "Ġcreate",
        -7.782799029953087
      ],
      [
        "Ġback",
        -7.784107465990143
      ],
      [
        "Ġkeep",
        -7.786337539332147
      ],
      [
        "Ġright",
        -7.79163162797575
      ],
      [
        "Ġplant",
        -7.798481647777914
      ],
      [
        ").",
        -7.800309190998436
      ],
      [
        "Ġfound",
        -7.806003376460972
      ],
      [
        "ĠS",
        -7.807936699273596
      ],
      [
        "Ġlight",
        -7.809106121233341
      ],
      [
        "Ġlife",
        -7.809140197409253
      ],
      [
        "ll",
        -7.824616502286176
      ],
      [
        "Ġinclude",
        -7.828152931248939
      ],
      [
        "Ġfind",
        -7.8301057410485795
      ],
      [
        "Ġexperience",
        -7.830676248562034
      ],
      [
        "Ġcommon",
        -7.838282544988252
      ],
      [
        "Ġmade",
        -7.847541464950415
      ],
      [
        "Ġhome",
        -7.8510723053412255
      ],
      [
        "Ġday",
        -7.8602205993317265
      ],
      [
        "us",
        -7.863506292271223
      ],
      [
        "ĠB",
        -7.865926749757463
      ],
      [
        "g",
        -7.868748074042116
      ],
      [
        "ion",
        -7.868772634355269
      ],
      [
        "Ġyear",
        -7.873151709025972
      ],
      [
        "Ġexample",
        -7.880663991943726
      ],
      [
        "Ġboth",
        -7.885792766964359
      ],
      [
        "Ġpower",
        -7.891016340925539
      ],
      [
        "is",
        -7.892536171531577
      ],
      [
        "Ġsaid",
        -7.89414900567146
      ],
      [
        "D",
        -7.898016956284747
      ],
      [
        "Ġmean",
        -7.909406876509312
      ],
      [
        "Ġdata",
        -7.912020393676095
      ],
      [
        "Ġform",
        -7.919841431489615
      ],
      [
        "Ġstudents",
        -7.924035732605391
      ],
      [
        "ation",
        -7.925127427826703
      ],
      [
        "ce",
        -7.925972398823944
      ],
      [
        "Ġinformation",
        -7.926135050209699
      ],
      [
        "Ġstart",
        -7.934240429766776
      ],
      [
        "Ġmight",
        -7.93571384155724
      ],
      [
        "ĠFor",
        -7.936284708234536
      ],
      [
        "Ġenergy",
        -7.936756007468426
      ],
      [
        "Ġthink",
        -7.938444258387282
      ],
      [
        "Ġus",
        -7.939535995477116
      ],
      [
        "p",
        -7.943479239338368
      ],
      [
        "Ġdown",
        -7.943916712766094
      ],
      [
        "Ġconsider",
        -7.945200032410035
      ],
      [
        "Ġlarge",
        -7.946234977575297
      ],
      [
        "Ġher",
        -7.946676364362999
      ],
      [
        "Ġincrease",
        -7.953363824008184
      ],
      [
        "How",
        -7.9533745048857165
      ],
      [
        "Ġsupport",
        -7.953859919820396
      ],
      [
        "Ġgo",
        -7.956506337419925
      ],
      [
        "Ġspecies",
        -7.956752561509199
      ],
      [
        "%",
        -7.961509488184257
      ],
      [
        "ic",
        -7.963615001653922
      ],
      [
        "Ġplace",
        -7.966000706449504
      ],
      [
        "ĠWe",
        -7.968151037468953
      ],
      [
        "Ġmak",
        -7.96849946047537
      ],
      [
        ":Ċ",
        -7.97412650689113
      ],
      [
        "Ġplants",
        -7.975580821458385
      ],
      [
        "This",
        -7.981739506400929
      ],
      [
        "Ġnow",
        -7.9825171914730015
      ],
      [
        "),",
        -7.984418993180967
      ],
      [
        "um",
        -7.986929767832217
      ],
      [
        "Ġown",
        -7.987143422894952
      ],
      [
        "Ġshow",
        -7.9892450221204045
      ],
      [
        "ĠThese",
        -7.99708210991655
      ],
      [
        "Ġair",
        -7.9997686428649715
      ],
      [
        "Ġme",
        -8.007857595790014
      ],
      [
        "Ġresearch",
        -8.008343030403925
      ],
      [
        "ĠTo",
        -8.010095301388438
      ],
      [
        "If",
        -8.01168737248775
      ],
      [
        "Ġcolor",
        -8.012369792833198
      ],
      [
        "Ġunder",
        -8.013351367428651
      ],
      [
        "Ġfew",
        -8.020034590413404
      ],
      [
        "Ġvalue",
        -8.021647048916865
      ],
      [
        "ment",
        -8.025127220817318
      ],
      [
        "Ġcase",
        -8.026381392752242
      ],
      [
        "Ġstudy",
        -8.028790239190801
      ],
      [
        "Ġdevelop",
        -8.029339308698253
      ],
      [
        "f",
        -8.030266856017683
      ],
      [
        "Ġoff",
        -8.030912927420216
      ],
      [
        "Ġpoint",
        -8.032374211805195
      ],
      [
        "Ġgreat",
        -8.037426604426901
      ],
      [
        "Ġbetter",
        -8.040687889396592
      ],
      [
        "Ġun",
        -8.042310499823355
      ],
      [
        "Ġstill",
        -8.043913781643024
      ],
      [
        "ability",
        -8.04462279407597
      ],
      [
        "Ġhuman",
        -8.047003682580723
      ],
      [
        "Ġissue",
        -8.047610182170231
      ],
      [
        "Ġless",
        -8.052392336695181
      ],
      [
        "Ġset",
        -8.06030125728298
      ],
      [
        "Ġtype",
        -8.062584024553487
      ],
      [
        "Ġtemperature",
        -8.066074321298064
      ],
      [
        "Ġincluding",
        -8.068188427005857
      ],
      [
        "Ġtoo",
        -8.070998146314489
      ],
      [
        "Ġprevent",
        -8.08121933955072
      ],
      [
        "Ġnatural",
        -8.085212296610793
      ],
      [
        "th",
        -8.089556494570564
      ],
      [
        "or",
        -8.091411226782643
      ],
      [
        "Ġarea",
        -8.096561325115125
      ],
      [
        "le",
        -8.097841342633552
      ],
      [
        "Ġcontrol",
        -8.099024775474422
      ],
      [
        "Ġlead",
        -8.099257497482025
      ],
      [
        "Ġend",
        -8.102438227958686
      ],
      [
        "C",
        -8.103311535614406
      ],
      [
        "Ġgive",
        -8.106621790782137
      ],
      [
        "Ġtest",
        -8.107271095552353
      ],
      [
        "It",
        -8.113863000319226
      ],
      [
        "Ġoffer",
        -8.114980457233681
      ],
      [
        "Ġensure",
        -8.1150698250191
      ],
      [
        "Ġrisk",
        -8.116195530206845
      ],
      [
        "Ġmain",
        -8.116728721812919
      ],
      [
        "Ġchildren",
        -8.127166153816589
      ],
      [
        "Ġproject",
        -8.128750629100038
      ],
      [
        "Ġpotential",
        -8.129209850265113
      ],
      [
        "Ġsure",
        -8.140482648099976
      ],
      [
        "x",
        -8.147986308569852
      ],
      [
        "ĠBut",
        -8.148942326442391
      ],
      [
        "Ġmust",
        -8.157008647859785
      ],
      [
        "Ġadd",
        -8.173354983979767
      ],
      [
        ":ĊĊ",
        -8.173504837377635
      ],
      [
        "...",
        -8.175516369829799
      ],
      [
        "Ġmodel",
        -8.176725551984417
      ],
      [
        "Ġthree",
        -8.178064956279371
      ],
      [
        "Ġheat",
        -8.1786690013268
      ],
      [
        "quality",
        -8.179365355365746
      ],
      [
        "Ġtry",
        -8.18533933661162
      ],
      [
        "age",
        -8.188008273243057
      ],
      [
        "ĠD",
        -8.188487866265298
      ],
      [
        "Ġcost",
        -8.194115213462329
      ],
      [
        "Ġlearn",
        -8.195163694865187
      ],
      [
        "Ġthings",
        -8.195362154924295
      ],
      [
        "ĠAnd",
        -8.196776516869551
      ],
      [
        "Ġcalled",
        -8.197315928126978
      ],
      [
        "Ġblood",
        -8.20295373571775
      ],
      [
        "Ġcare",
        -8.204087560393202
      ],
      [
        "Ġcurrent",
        -8.209112350515388
      ],
      [
        "Ġdisease",
        -8.209352008926466
      ],
      [
        "Ġgrow",
        -8.210699087100167
      ],
      [
        "Ġlow",
        -8.21430691548979
      ],
      [
        "Ġsomething",
        -8.21835710987446
      ],
      [
        "Ġenvironment",
        -8.226311985642717
      ],
      [
        "Ġtreatment",
        -8.226504697175478
      ],
      [
        "Ġlot",
        -8.232098439099655
      ],
      [
        "Ġindividual",
        -8.233217231251826
      ],
      [
        "est",
        -8.233415372539255
      ],
      [
        "Ġwithin",
        -8.236694493643082
      ],
      [
        "Ġperson",
        -8.237276991639822
      ],
      [
        "Ġshe",
        -8.243868179077307
      ],
      [
        "Ġtho",
        -8.244794609786052
      ],
      [
        "Ġdue",
        -8.256025621752194
      ],
      [
        "ary",
        -8.256541773065983
      ],
      [
        "Ġper",
        -8.257399066453134
      ],
      [
        "Ġpressure",
        -8.26537220840524
      ],
      [
        "Ġpossible",
        -8.266694927735317
      ],
      [
        "known",
        -8.268766805191742
      ],
      [
        "ĠWhen",
        -8.269961018758654
      ],
      [
        "Ġeffective",
        -8.270320735422686
      ],
      [
        "Ġsoil",
        -8.270926047071788
      ],
      [
        "Ġproduce",
        -8.271315285622812
      ],
      [
        "Ġspace",
        -8.271855694933548
      ],
      [
        "Ġanother",
        -8.272085538668591
      ],
      [
        "Ġfactor",
        -8.275240267477805
      ],
      [
        "and",
        -8.276667541191104
      ],
      [
        "Ġcar",
        -8.27861807505275
      ],
      [
        "Ġreason",
        -8.280351095674353
      ],
      [
        "Ġsecond",
        -8.28098714995645
      ],
      [
        "Ġorder",
        -8.282857838178035
      ],
      [
        "Ġcells",
        -8.282879768131643
      ],
      [
        "Ġschool",
        -8.28378850759421
      ],
      [
        "Ġline",
        -8.283860131326776
      ],
      [
        "Ġname",
        -8.287104969643625
      ],
      [
        "b",
        -8.290749037346394
      ],
      [
        "Ġrequire",
        -8.294080282556887
      ],
      [
        "Ġlast",
        -8.294711724265003
      ],
      [
        "Ġbecome",
        -8.297143440685293
      ],
      [
        "u",
        -8.298055430060092
      ],
      [
        "Ġfish",
        -8.301806379957142
      ],
      [
        "Ġactual",
        -8.301850199337533
      ],
      [
        "Ġfunction",
        -8.302866957907122
      ],
      [
        "Ġeat",
        -8.304372790330527
      ],
      [
        "Ġalway",
        -8.305664755026402
      ],
      [
        "ĠT",
        -8.30779767268902
      ],
      [
        "ĠSo",
        -8.307989763602732
      ],
      [
        "Ġrange",
        -8.30902024226572
      ],
      [
        "Ġreduce",
        -8.31065580621334
      ],
      [
        "Ġclose",
        -8.315153293336447
      ],
      [
        "Ġspecific",
        -8.317114463258639
      ],
      [
        "the",
        -8.31921975872786
      ],
      [
        "Ġleave",
        -8.320260942392657
      ],
      [
        "Ġplay",
        -8.320794360706632
      ],
      [
        "Ġimpact",
        -8.32314257935397
      ],
      [
        "an",
        -8.325912651040902
      ],
      [
        "Ġlearning",
        -8.33098491684303
      ],
      [
        "Ġstate",
        -8.332919750775236
      ],
      [
        "Ġamount",
        -8.333166179864588
      ],
      [
        "Ġhere",
        -8.337929795104884
      ],
      [
        "Ġsize",
        -8.340942932134011
      ],
      [
        "Ġgoing",
        -8.343487574741555
      ],
      [
        "Ġsurface",
        -8.34463787017717
      ],
      [
        "Ġhard",
        -8.34597286490985
      ],
      [
        "Ġavailable",
        -8.346715057686382
      ],
      [
        "Ġlittle",
        -8.349350860165758
      ],
      [
        "ĠThere",
        -8.352098515536106
      ],
      [
        "Ġvarious",
        -8.353237749669308
      ],
      [
        "Ġsource",
        -8.35434416322355
      ],
      [
        "Ġenough",
        -8.363276449784081
      ],
      [
        "Ġcomplete",
        -8.364736823781882
      ],
      [
        "Ġproblem",
        -8.370170687828178
      ],
      [
        "Ġfeel",
        -8.38965999540168
      ],
      [
        "B",
        -8.390316440385245
      ],
      [
        "Ġusually",
        -8.39530489843438
      ],
      [
        "Ġdid",
        -8.395649888296372
      ],
      [
        "hose",
        -8.39880805608042
      ],
      [
        "Ġmanage",
        -8.402983732784042
      ],
      [
        "Ġaffect",
        -8.403641956154285
      ],
      [
        "Ġpatient",
        -8.419684808645304
      ],
      [
        "less",
        -8.421731038427328
      ],
      [
        "Ġareas",
        -8.422634110482512
      ],
      [
        "Ġside",
        -8.423482167363433
      ],
      [
        "Ġcat",
        -8.425151552899514
      ],
      [
        "Ġweight",
        -8.42686170605894
      ],
      [
        "Ġgarden",
        -8.428176799035937
      ],
      [
        "Ġdevice",
        -8.429258225035806
      ],
      [
        "Ġoption",
        -8.43077730989232
      ],
      [
        "Ġchild",
        -8.43606771500718
      ],
      [
        ",\"",
        -8.439196945953128
      ],
      [
        "Ġseveral",
        -8.44202856524544
      ],
      [
        "Ġtypes",
        -8.446216588762248
      ],
      [
        "Ġimprove",
        -8.451114691994153
      ],
      [
        "Ġsignificant",
        -8.45738567750556
      ],
      [
        "Ġdamage",
        -8.457819531091307
      ],
      [
        "ĠWhich",
        -8.460041550504831
      ],
      [
        "Ġput",
        -8.460166132666252
      ],
      [
        "When",
        -8.462220479681287
      ],
      [
        "Ġsafe",
        -8.464418450231442
      ],
      [
        "Ġessential",
        -8.466001739729577
      ],
      [
        "Ġuser",
        -8.466309053749956
      ],
      [
        "Ġcourse",
        -8.470123003215605
      ],
      [
        "Ġopen",
        -8.471071198449692
      ],
      [
        "Ġlive",
        -8.471654806869925
      ],
      [
        "Ġstructure",
        -8.478040088042444
      ],
      [
        "Ġteam",
        -8.480543086486428
      ],
      [
        "ally",
        -8.483634895739158
      ],
      [
        "Ġconditions",
        -8.486231806798571
      ],
      [
        "Ġdiet",
        -8.48645964372479
      ],
      [
        "Ġunderstand",
        -8.486514649619448
      ],
      [
        "Ġevent",
        -8.486649614133977
      ],
      [
        "ĠSome",
        -8.487492767033153
      ],
      [
        "Ġpresent",
        -8.487612572596849
      ],
      [
        "*",
        -8.49292351801711
      ],
      [
        "Ġparticular",
        -8.49364177315635
      ],
      [
        "Ġhour",
        -8.495454255323121
      ],
      [
        "Ġdevelopment",
        -8.495940825615076
      ],
      [
        "Ġkey",
        -8.500221267690641
      ],
      [
        "Ġlocal",
        -8.500697144072191
      ],
      [
        "Ġtext",
        -8.500717711787853
      ],
      [
        "Ġ&",
        -8.501229366762514
      ],
      [
        "T",
        -8.503962402665387
      ],
      [
        "Ġterm",
        -8.503964787168753
      ],
      [
        "]",
        -8.506152964525587
      ],
      [
        "Ġhand",
        -8.509676291030846
      ],
      [
        "Ġdifference",
        -8.5111337820479
      ],
      [
        "Ġseem",
        -8.5134696841145
      ],
      [
        "Ġproper",
        -8.513977016104088
      ],
      [
        "Ġtop",
        -8.516652139768988
      ],
      [
        "Ġuntil",
        -8.517625515424285
      ],
      [
        "Ġcell",
        -8.517986657811484
      ],
      [
        "Ġfocus",
        -8.518503654876698
      ],
      [
        "Ġfield",
        -8.523419194703013
      ],
      [
        "Ġtechnology",
        -8.524400031742847
      ],
      [
        "Ġnext",
        -8.525208586986974
      ],
      [
        "Ġfree",
        -8.525333032704864
      ],
      [
        "Ġfull",
        -8.528831137280289
      ],
      [
        "Ġvariet",
        -8.530829680051497
      ],
      [
        "Ġaway",
        -8.533202417645667
      ],
      [
        "having",
        -8.533962097288265
      ],
      [
        "Ġanimals",
        -8.53603418482474
      ],
      [
        "k",
        -8.54055308455819
      ],
      [
        "Ġfamily",
        -8.54107641154162
      ],
      [
        "Ġfuture",
        -8.541431999499949
      ],
      [
        "self",
        -8.541502785406834
      ],
      [
        "Ġnon",
        -8.54756161115166
      ],
      [
        "Ġloss",
        -8.547747497670276
      ],
      [
        "Ġmaterial",
        -8.548595444454229
      ],
      [
        "ĠP",
        -8.549700394584974
      ],
      [
        "Ġmaintain",
        -8.552129855632732
      ],
      [
        "Ġeye",
        -8.552188894791055
      ],
      [
        "ĠF",
        -8.552928038736617
      ],
      [
        "Ġpaper",
        -8.553219418064472
      ],
      [
        "Ġmaterials",
        -8.556013816799116
      ],
      [
        "Ġsince",
        -8.556303725266275
      ],
      [
        "ĠHe",
        -8.556803379616447
      ],
      [
        "Ġinvolve",
        -8.556910234626834
      ],
      [
        "Ġlet",
        -8.55715729139102
      ],
      [
        "ĠThat",
        -8.557959355081005
      ],
      [
        "Ġthing",
        -8.55905670266836
      ],
      [
        "ĠM",
        -8.559854305501279
      ],
      [
        "Ġsystems",
        -8.561841984117201
      ],
      [
        "Ġoil",
        -8.564911611057072
      ],
      [
        "Ġnecessar",
        -8.5651284292382
      ],
      [
        "Ġsimple",
        -8.56783336042777
      ],
      [
        "Ġage",
        -8.568899804804214
      ],
      [
        "Ġwide",
        -8.569697978197832
      ],
      [
        "Ġtogether",
        -8.570248862220762
      ],
      [
        "Ġ$",
        -8.570916952934775
      ],
      [
        "Ġsay",
        -8.571729956407196
      ],
      [
        "Ġeasy",
        -8.572042633770035
      ],
      [
        "Ġshort",
        -8.572471976802609
      ],
      [
        "Ġtechnique",
        -8.57459847229044
      ],
      [
        "Ġgroup",
        -8.579039264273039
      ],
      [
        "Ġkind",
        -8.57936441850985
      ],
      [
        "Ġearly",
        -8.580820350272438
      ],
      [
        "Ġalong",
        -8.581348794441027
      ],
      [
        "Ġprotect",
        -8.581971295110293
      ],
      [
        "Ġgame",
        -8.582067272261364
      ],
      [
        "Ġcheck",
        -8.582188970343697
      ],
      [
        "Ġquick",
        -8.582716300725256
      ],
      [
        "Ġdays",
        -8.587213098719452
      ],
      [
        "ĠE",
        -8.587341974322467
      ],
      [
        "Ġmethod",
        -8.589327123037954
      ],
      [
        "Ġrun",
        -8.591450779098043
      ],
      [
        "Ġproducts",
        -8.591866576339871
      ],
      [
        "Ġworking",
        -8.59363250038189
      ],
      [
        "Ġtypical",
        -8.596072312723638
      ],
      [
        "Ġrole",
        -8.59611707499619
      ],
      [
        "ĠAs",
        -8.599197573518417
      ],
      [
        "Ġtreat",
        -8.603558499483675
      ],
      [
        "Ġvideo",
        -8.603999442402866
      ],
      [
        "Ġgrowth",
        -8.604432433779351
      ],
      [
        "Ġproblems",
        -8.605056108640596
      ],
      [
        "ĠBy",
        -8.605858649960382
      ],
      [
        "Ġmeasure",
        -8.606088052665102
      ],
      [
        "Ġlove",
        -8.607214123125424
      ],
      [
        "Ġsafety",
        -8.608278269569166
      ],
      [
        "ither",
        -8.609481264012885
      ],
      [
        "Ġmachine",
        -8.609879414915245
      ],
      [
        "Ġplan",
        -8.610084200677989
      ],
      [
        "Ġdepend",
        -8.612322909145863
      ],
      [
        "Ġcontain",
        -8.612746355369278
      ],
      [
        "Ġaccess",
        -8.61283169068784
      ],
      [
        "Ġlower",
        -8.614333972871213
      ],
      [
        "Ġgiven",
        -8.614912723618897
      ],
      [
        "Ġdoesn",
        -8.615522539710794
      ],
      [
        "Ġphysical",
        -8.621322305658026
      ],
      [
        "Ġ=",
        -8.621505638440532
      ],
      [
        "Ġavoid",
        -8.625369084373933
      ],
      [
        "Ġapplication",
        -8.626058814663752
      ],
      [
        "Ġrat",
        -8.6309391429866
      ],
      [
        "Ġnever",
        -8.632450172614979
      ],
      [
        "based",
        -8.632915526737001
      ],
      [
        "Ġsimilar",
        -8.633138106420844
      ],
      [
        "Ġtraining",
        -8.634689209475251
      ],
      [
        "Ġsocial",
        -8.63585412504193
      ],
      [
        "Ġmove",
        -8.636108551967496
      ],
      [
        "ĠU",
        -8.636173124822077
      ],
      [
        "ĠUniversity",
        -8.637498691210073
      ],
      [
        "ĠWith",
        -8.638639964667089
      ],
      [
        "We",
        -8.64358069604777
      ],
      [
        "Ġdone",
        -8.644540170677956
      ],
      [
        "Ġrate",
        -8.644802889273855
      ],
      [
        "least",
        -8.645784313878163
      ],
      [
        "Ġprogram",
        -8.646371825915143
      ],
      [
        "You",
        -8.651827741543364
      ],
      [
        "Ġelectric",
        -8.65274820113677
      ],
      [
        "Ġb",
        -8.653624326588766
      ],
      [
        "Ġanswer",
        -8.654116417331654
      ],
      [
        "Ġpropert",
        -8.654681084611227
      ],
      [
        "Ġhigher",
        -8.654703194587647
      ],
      [
        "Ġbuilding",
        -8.661753917297748
      ],
      [
        "Ġcomponent",
        -8.662548963358649
      ],
      [
        "Ġstrong",
        -8.663780213824818
      ],
      [
        "Ġturn",
        -8.665237728512464
      ],
      [
        "though",
        -8.666350734561043
      ],
      [
        "ous",
        -8.668043219236264
      ],
      [
        "Ġold",
        -8.669053420435986
      ],
      [
        "Ġgas",
        -8.674972469505848
      ],
      [
        "There",
        -8.675214205035068
      ],
      [
        "Ġred",
        -8.676525354337496
      ],
      [
        "Ġclean",
        -8.676721341029406
      ],
      [
        "Ġfast",
        -8.67734858114854
      ],
      [
        "F",
        -8.677767820831425
      ],
      [
        "Ġclear",
        -8.680955947501221
      ],
      [
        "Ġespecial",
        -8.682710378179497
      ],
      [
        "Ġhealthy",
        -8.68328540022365
      ],
      [
        "Ġforce",
        -8.68843699996136
      ],
      [
        "!Ċ",
        -8.692144342705516
      ],
      [
        "Ġaccording",
        -8.694280098243198
      ],
      [
        "Ġinfection",
        -8.69492535279867
      ],
      [
        "Ġfar",
        -8.695610185958273
      ],
      [
        "Ġunique",
        -8.696716509785569
      ],
      [
        "Ġabove",
        -8.697443777038501
      ],
      [
        "Ġrecommend",
        -8.700325398594334
      ],
      [
        "Ġcertain",
        -8.701344645332323
      ],
      [
        "To",
        -8.704225068228855
      ],
      [
        "Ġcomputer",
        -8.704646916577111
      ],
      [
        "ether",
        -8.709633587197
      ],
      [
        "against",
        -8.710781795481992
      ],
      [
        "Ġscience",
        -8.711696092618645
      ],
      [
        "Ġhim",
        -8.713453293801521
      ],
      [
        "stead",
        -8.714037238442149
      ],
      [
        "Ġmarket",
        -8.715403684283883
      ],
      [
        "Ġlimit",
        -8.715819228779218
      ],
      [
        "Ġskin",
        -8.715851475069336
      ],
      [
        "Ġstep",
        -8.71792647794552
      ],
      [
        "Ġregion",
        -8.719884801702843
      ],
      [
        "Ġproduction",
        -8.723225796793644
      ],
      [
        "Ġelement",
        -8.723238561092344
      ],
      [
        "Ġmajor",
        -8.723338136974593
      ],
      [
        "ĠYour",
        -8.72475646516827
      ],
      [
        "Ġbit",
        -8.725544334382331
      ],
      [
        "Ġdetail",
        -8.727389279164218
      ],
      [
        "Ġdifficult",
        -8.735694739349485
      ],
      [
        "Ġtimes",
        -8.736121624135468
      ],
      [
        "Ġhead",
        -8.738347163066903
      ],
      [
        "Ġbelieve",
        -8.738495056185318
      ],
      [
        "Ġwhite",
        -8.738836258723609
      ],
      [
        "Ġoccur",
        -8.739189038476091
      ],
      [
        "Ġitem",
        -8.740453211875359
      ],
      [
        "Ġbook",
        -8.74105141509713
      ],
      [
        "ĠNew",
        -8.74116566763691
      ],
      [
        "Ġexist",
        -8.74129047690986
      ],
      [
        "Ġground",
        -8.742395574961026
      ],
      [
        ")ĊĊ",
        -8.742915872305641
      ],
      [
        "Ġbusiness",
        -8.743045457555183
      ],
      [
        "Ġweek",
        -8.746120507025315
      ],
      [
        "Ġchoice",
        -8.746505397739766
      ],
      [
        "Ġparent",
        -8.746749691146054
      ],
      [
        "Ġcontinue",
        -8.749457288929033
      ],
      [
        "Ġnear",
        -8.749662364527888
      ],
      [
        "Ġpopulation",
        -8.752036209330958
      ],
      [
        "Ġre",
        -8.755143880933979
      ],
      [
        "Ġenjoy",
        -8.75575593321824
      ],
      [
        "Ġdry",
        -8.756126682544533
      ],
      [
        "Ġflow",
        -8.757522406578966
      ],
      [
        "Ġcover",
        -8.757811222169178
      ],
      [
        "Ġeffects",
        -8.757936315741143
      ],
      [
        "Ġclimate",
        -8.7591241303567
      ],
      [
        "Ġchemical",
        -8.759969481886223
      ],
      [
        "Ġbasic",
        -8.762038684770719
      ],
      [
        "Ġtask",
        -8.763876054677624
      ],
      [
        "Ġobject",
        -8.764089762763614
      ],
      [
        "Ġspeed",
        -8.764474760370888
      ],
      [
        "Ġlayer",
        -8.765056071976403
      ],
      [
        "Ġremove",
        -8.765827434176373
      ],
      [
        "Ġremain",
        -8.766659222787736
      ],
      [
        "Ġde",
        -8.766759238528797
      ],
      [
        "Ġregular",
        -8.766840611131439
      ],
      [
        "Ġmakes",
        -8.769619333622579
      ],
      [
        "Ġbring",
        -8.771795064205943
      ],
      [
        "Ġpiece",
        -8.771921742917858
      ],
      [
        "Ġanimal",
        -8.773678763472281
      ],
      [
        "Ġpopular",
        -8.773729550670751
      ],
      [
        "Ġhouse",
        -8.774408896708099
      ],
      [
        "w",
        -8.775896527129799
      ],
      [
        "Ġstay",
        -8.777973600986275
      ],
      [
        "ĠR",
        -8.77820167426621
      ],
      [
        "ĠH",
        -8.778516578113742
      ],
      [
        "Ġfact",
        -8.779489714278192
      ],
      [
        "ĠNo",
        -8.78098883829566
      ],
      [
        "ance",
        -8.781929231417928
      ],
      [
        "ĠL",
        -8.782233235505004
      ],
      [
        "Ġcondition",
        -8.785683418272898
      ],
      [
        "Ġaddition",
        -8.786237419110012
      ],
      [
        "Ġdeep",
        -8.78971464291461
      ],
      [
        "Ġbehavior",
        -8.790733799064089
      ],
      [
        "Ġsingle",
        -8.790823871415474
      ],
      [
        "Ġtree",
        -8.791164140560907
      ],
      [
        "P",
        -8.793463034354733
      ],
      [
        "Ġtoday",
        -8.79608903334546
      ],
      [
        "Ġmatter",
        -8.796718853798314
      ],
      [
        "Ġfurther",
        -8.803861276359413
      ],
      [
        "Ġmedical",
        -8.804025361642678
      ],
      [
        "Ġperformance",
        -8.806287349135978
      ],
      [
        "Ġsignal",
        -8.806310523204083
      ],
      [
        "Ġleft",
        -8.807606879596875
      ],
      [
        "Ġlist",
        -8.808620847682967
      ],
      [
        "Ġskills",
        -8.809096318617287
      ],
      [
        "Ġcontent",
        -8.809829988814052
      ],
      [
        "Ġeffect",
        -8.812712011359938
      ],
      [
        "across",
        -8.812816481372984
      ],
      [
        "be",
        -8.813761252359324
      ],
      [
        "ive",
        -8.816478456225934
      ],
      [
        "Ġcommunity",
        -8.817431883959806
      ],
      [
        "her",
        -8.818132516243386
      ],
      [
        "Ġ[",
        -8.818136252912886
      ],
      [
        "ĠOn",
        -8.818903547439621
      ],
      [
        "it",
        -8.819391977428296
      ],
      [
        "ers",
        -8.819405285355348
      ],
      [
        "Ġsound",
        -8.822853160856411
      ],
      [
        "Ġpain",
        -8.822857919511641
      ],
      [
        "For",
        -8.824081544607804
      ],
      [
        "Ġstore",
        -8.824089504298168
      ],
      [
        "Ġeducation",
        -8.829326287826978
      ],
      [
        "_",
        -8.829717048479232
      ],
      [
        "ĠO",
        -8.830842279776107
      ],
      [
        "Ġarticle",
        -8.832213256290732
      ],
      [
        "Ġrecent",
        -8.832361035836668
      ],
      [
        "Ġread",
        -8.833445958996352
      ],
      [
        "coming",
        -8.838426922410154
      ],
      [
        "Ġsun",
        -8.8405721050537
      ],
      [
        "Ġprovid",
        -8.842800101315536
      ],
      [
        "Ġnormal",
        -8.842986893931565
      ],
      [
        "Ġheart",
        -8.84333162192171
      ],
      [
        "Ġconcern",
        -8.84383541143437
      ],
      [
        "Ġcomplex",
        -8.845999158436143
      ],
      [
        "Ġliv",
        -8.846064438697095
      ],
      [
        "Ġgreen",
        -8.846431245993163
      ],
      [
        "Ġpublic",
        -8.846502359267564
      ],
      [
        "Ġagain",
        -8.85053249018336
      ],
      [
        "Ġsymptom",
        -8.852850155055773
      ],
      [
        "Ġbenefits",
        -8.853041643759468
      ],
      [
        "Ġface",
        -8.853673944410957
      ],
      [
        "Ġhistory",
        -8.855856402577107
      ],
      [
        "Ġposition",
        -8.857708306615567
      ],
      [
        "Ġpost",
        -8.859477927026603
      ],
      [
        "Ġsays",
        -8.861108357282376
      ],
      [
        "Ġactiviti",
        -8.861544765236989
      ],
      [
        "Ġsolution",
        -8.86213876131935
      ],
      [
        "Ġbattery",
        -8.8639923585335
      ],
      [
        "Ġperiod",
        -8.86480075656095
      ],
      [
        "Ġenvironmental",
        -8.867372855553654
      ],
      [
        "thing",
        -8.868123206844906
      ],
      [
        "Ġfour",
        -8.868792229888303
      ],
      [
        "Ġtell",
        -8.869383689549842
      ],
      [
        "Ġquestion",
        -8.869546183763607
      ],
      [
        "Ġcold",
        -8.870971838123126
      ],
      [
        "Ġhelps",
        -8.871970947885227
      ],
      [
        ".\"Ċ",
        -8.872026278277737
      ],
      [
        "land",
        -8.873008858974938
      ],
      [
        "Ġreach",
        -8.874112655558353
      ],
      [
        "Ġshare",
        -8.874507712295962
      ],
      [
        "Ġwarm",
        -8.875567295594921
      ],
      [
        "refore",
        -8.876064257492407
      ],
      [
        "to",
        -8.880306451745264
      ],
      [
        ")Ċ",
        -8.882872807602855
      ],
      [
        "Ġindustry",
        -8.884324729730762
      ],
      [
        "E",
        -8.884474604286726
      ],
      [
        "Ġstandard",
        -8.885019554459593
      ],
      [
        "Ġgoal",
        -8.88515874725271
      ],
      [
        "Ġmillion",
        -8.886066293369693
      ],
      [
        "Ġtalk",
        -8.886368633769907
      ],
      [
        "ĠâĢĶ",
        -8.890659384649773
      ],
      [
        "Ġwhole",
        -8.891074909423187
      ],
      [
        "Ġmention",
        -8.891224720929358
      ],
      [
        "Ġexplain",
        -8.893135252314131
      ],
      [
        "Ġprotein",
        -8.893745521386537
      ],
      [
        "Ġblack",
        -8.895477709599426
      ],
      [
        "Ġassociate",
        -8.896274368723336
      ],
      [
        "ĠOne",
        -8.896852453030544
      ],
      [
        "Ġcall",
        -8.897444370270396
      ],
      [
        "Ġrequired",
        -8.897780324395544
      ],
      [
        "Ġproduct",
        -8.898300993932644
      ],
      [
        "Ġlate",
        -8.898461895083198
      ],
      [
        "Ġalread",
        -8.898554911388059
      ],
      [
        "Ġbacteria",
        -8.898901629824877
      ],
      [
        "Ġcook",
        -8.900130511424393
      ],
      [
        "Ġsetting",
        -8.901227088316647
      ],
      [
        "v",
        -8.901639295596247
      ],
      [
        "Ġblock",
        -8.903078644468028
      ],
      [
        "ĠN",
        -8.90423757722079
      ],
      [
        "Ġprofessional",
        -8.904485442005793
      ],
      [
        "Ġperfect",
        -8.905305648827571
      ],
      [
        "Ġamong",
        -8.905382663255871
      ],
      [
        "Ġunderstanding",
        -8.907327382405692
      ],
      [
        "Ġpet",
        -8.907977156170677
      ],
      [
        "Ġpersonal",
        -8.909947085077008
      ],
      [
        "Ġcontact",
        -8.910345707555901
      ],
      [
        "Ġeasily",
        -8.911405333570688
      ],
      [
        "Ġidea",
        -8.912744309646593
      ],
      [
        "Ġthough",
        -8.912756434724617
      ],
      [
        "Ġresearcher",
        -8.915416190875439
      ],
      [
        "Ġinside",
        -8.915741022195046
      ],
      [
        "Ġtoward",
        -8.915856262082057
      ],
      [
        "Ġpurpose",
        -8.921418319146598
      ],
      [
        "Ġcorrect",
        -8.922973690859031
      ],
      [
        "ember",
        -8.923975164721604
      ],
      [
        "Ġapproach",
        -8.927198433833563
      ],
      [
        "âĢĶ",
        -8.927620925493216
      ],
      [
        "Ġnetwork",
        -8.929126076974065
      ],
      [
        "Ġslow",
        -8.930847402828828
      ],
      [
        "Ġfall",
        -8.930959708660883
      ],
      [
        "below",
        -8.931040572851018
      ],
      [
        "Ġpositive",
        -8.931226451732236
      ],
      [
        "Ġbrain",
        -8.932311995007401
      ],
      [
        "Ġways",
        -8.933874141060702
      ],
      [
        "Ġcompany",
        -8.93421450947336
      ],
      [
        "Ġreport",
        -8.935326732953282
      ],
      [
        "Ġopportunit",
        -8.935462346604098
      ],
      [
        "Ġonline",
        -8.936950474664236
      ],
      [
        "Ġknowledge",
        -8.939598165410583
      ],
      [
        "Ġspecial",
        -8.941790669645783
      ],
      [
        "Ġmoney",
        -8.94187752597551
      ],
      [
        "Ġprobabl",
        -8.942445199362604
      ],
      [
        "Ġsleep",
        -8.945302961776886
      ],
      [
        "Ġsomeone",
        -8.94663079377967
      ],
      [
        "Ġprint",
        -8.947349639389145
      ],
      [
        "Ġbig",
        -8.947850386148083
      ],
      [
        "Ġfeatures",
        -8.948519171892505
      ],
      [
        "Ġmonths",
        -8.952021903506772
      ],
      [
        "Ġsituation",
        -8.952157422587913
      ],
      [
        "Ġtarget",
        -8.952282728543299
      ],
      [
        "Ġmuscle",
        -8.9526035085771
      ],
      [
        "Ġshape",
        -8.953384388986908
      ],
      [
        "Ġgrowing",
        -8.95520917544675
      ],
      [
        "âĢĵ",
        -8.955258783850535
      ],
      [
        "Ġdecision",
        -8.955979337650799
      ],
      [
        "Ġbuild",
        -8.958344935131162
      ],
      [
        "Ġyoung",
        -8.960420026909048
      ],
      [
        "Ġappear",
        -8.96123927528697
      ],
      [
        "Ġselect",
        -8.961641604805381
      ],
      [
        "Ġentire",
        -8.965152223151325
      ],
      [
        "Ġtaking",
        -8.966345958619486
      ],
      [
        "Ġguide",
        -8.966827249711748
      ],
      [
        "-based",
        -8.970384695900137
      ],
      [
        "Ġdoing",
        -8.971154291442321
      ],
      [
        "Ġlocation",
        -8.974088955614558
      ],
      [
        "Ġcrucial",
        -8.975902869245388
      ],
      [
        "Ġsection",
        -8.976793907670324
      ],
      [
        "Ġhalf",
        -8.977712297661064
      ],
      [
        "Ġfruit",
        -8.979262653658804
      ],
      [
        "Ġetc",
        -8.982378653682026
      ],
      [
        "ĠK",
        -8.98323630826577
      ],
      [
        "ĠV",
        -8.983343144516127
      ],
      [
        "Ġstor",
        -8.984697966026008
      ],
      [
        "Ġyourself",
        -8.985138804738046
      ],
      [
        "ry",
        -8.987010086290994
      ],
      [
        "Ġbuy",
        -8.988508003063778
      ],
      [
        "ĠAmerican",
        -8.988802964305439
      ],
      [
        "Ġroom",
        -8.990338639934174
      ],
      [
        "âĢ¦",
        -8.991177137625751
      ],
      [
        "Ġtool",
        -8.99361646490656
      ],
      [
        "Ġlink",
        -8.994589309308392
      ],
      [
        "Ġpractice",
        -8.994636889269895
      ],
      [
        "Ġtraditional",
        -8.995830941640058
      ],
      [
        "Ġminutes",
        -8.997093799542867
      ],
      [
        "Ġdegree",
        -8.9976174675108
      ],
      [
        "Ġsugar",
        -8.997684249794187
      ],
      [
        "ĠG",
        -8.998329991227592
      ],
      [
        "Ġpatients",
        -8.999129964705414
      ],
      [
        "Ġauthor",
        -8.999289008713328
      ],
      [
        "Ġprice",
        -9.000040697258871
      ],
      [
        "Ġbone",
        -9.000755731312855
      ],
      [
        "Ġwall",
        -9.002929224855238
      ],
      [
        "Ġservice",
        -9.004971343909162
      ],
      [
        "Ġcancer",
        -9.005884723568926
      ],
      [
        "Ġsense",
        -9.008098329961603
      ],
      [
        "Ġself",
        -9.00825777467189
      ],
      [
        "Ġlanguage",
        -9.008863486745431
      ],
      [
        "Ġmind",
        -9.01020002788256
      ],
      [
        "M",
        -9.011281242589655
      ],
      [
        "Ġaction",
        -9.013002094767934
      ],
      [
        "Ġbase",
        -9.01407907677403
      ],
      [
        "As",
        -9.014167285663834
      ],
      [
        "Ġactive",
        -9.01471338851064
      ],
      [
        "Ġrelease",
        -9.014808491557773
      ],
      [
        "Ġstress",
        -9.015654680055958
      ],
      [
        "quite",
        -9.017164890580016
      ],
      [
        "Ġdetermine",
        -9.018365391787045
      ],
      [
        "man",
        -9.018586973933797
      ],
      [
        "Ġaverage",
        -9.02162150808536
      ],
      [
        "Ġthought",
        -9.021740891770175
      ],
      [
        "Ġmethods",
        -9.022923935279882
      ],
      [
        "ĠAI",
        -9.023602569892166
      ],
      [
        "Ġgot",
        -9.025268281732998
      ],
      [
        "Ġgeneral",
        -9.026496895973892
      ],
      [
        "Ġland",
        -9.027161565765798
      ],
      [
        "ĠAl",
        -9.027759407254624
      ],
      [
        "Ġprimar",
        -9.028054928383902
      ],
      [
        "Ġaddress",
        -9.030071005573271
      ],
      [
        "Ġreading",
        -9.030522684702074
      ],
      [
        "Ġvehicle",
        -9.030630543760967
      ],
      [
        "Ġchoose",
        -9.03090095585056
      ],
      [
        "Ġstudent",
        -9.0336528596561
      ],
      [
        "Ġlarger",
        -9.033661604379784
      ],
      [
        "Ġview",
        -9.036118094782696
      ],
      [
        "From",
        -9.036743623240223
      ],
      [
        "Ġquestions",
        -9.036918755174549
      ],
      [
        "Ġdescribe",
        -9.039783163100896
      ],
      [
        "Ġeyes",
        -9.040819601578598
      ],
      [
        "Ġactivity",
        -9.040959959510689
      ],
      [
        "Ġhold",
        -9.041751202108191
      ],
      [
        "ĠX",
        -9.042028344722516
      ],
      [
        "Ġwinter",
        -9.042155525719028
      ],
      [
        "Ġapply",
        -9.042988562530237
      ],
      [
        "Ġam",
        -9.043728525632366
      ],
      [
        "Ġcool",
        -9.046735865757809
      ],
      [
        "Ġwomen",
        -9.0476839889483
      ],
      [
        "Ġcreating",
        -9.047786362582578
      ],
      [
        "Ġplastic",
        -9.047905581939474
      ],
      [
        "Ġtotal",
        -9.048847238117489
      ],
      [
        "Ġexercise",
        -9.049715118084189
      ],
      [
        "Ġsimply",
        -9.051756851027829
      ],
      [
        "Ġoverall",
        -9.053353084332716
      ],
      [
        "ĠAn",
        -9.053967011902516
      ],
      [
        "Ġwalk",
        -9.054540324468004
      ],
      [
        "Ġwon",
        -9.056812630991324
      ],
      [
        "where",
        -9.057556053445644
      ],
      [
        "Ġpercent",
        -9.05884487029176
      ],
      [
        "ĠMan",
        -9.05903252279657
      ],
      [
        "Ġbird",
        -9.059315127590652
      ],
      [
        "Ġfeet",
        -9.061592164505988
      ],
      [
        "Ġresources",
        -9.061966503585094
      ],
      [
        "Ġoutside",
        -9.063134782377428
      ],
      [
        "[",
        -9.063203946410162
      ],
      [
        "Ġwild",
        -9.063920739273152
      ],
      [
        "Ġtravel",
        -9.064227265776465
      ],
      [
        "So",
        -9.064616644843753
      ],
      [
        "Ġsolar",
        -9.06517892242574
      ],
      [
        "Ġnature",
        -9.065452154784298
      ],
      [
        "Ġkid",
        -9.068906129510616
      ],
      [
        "Ġseason",
        -9.069038681446091
      ],
      [
        "Ġeffort",
        -9.070526196721325
      ],
      [
        "Ġfuel",
        -9.07150012292362
      ],
      [
        "Ġrule",
        -9.071572966152829
      ],
      [
        "Ġsuggest",
        -9.072064098596533
      ],
      [
        "Ġresponse",
        -9.072177519842
      ],
      [
        "Ġtaken",
        -9.07253343519335
      ],
      [
        "L",
        -9.072679722688203
      ],
      [
        "Ġexpert",
        -9.073789381132883
      ],
      [
        "Ġreceive",
        -9.07650889741456
      ],
      [
        "Ġask",
        -9.07730094157651
      ],
      [
        "Ġsubject",
        -9.078557522706625
      ],
      [
        "ves",
        -9.078691548364912
      ],
      [
        "Ġservices",
        -9.079577688351014
      ],
      [
        "Ġidentify",
        -9.079677673784971
      ],
      [
        "Ġwaste",
        -9.082868935807593
      ],
      [
        "Ġbegin",
        -9.083825615970504
      ],
      [
        "Ġtools",
        -9.084174421670715
      ],
      [
        "Ġpast",
        -9.086105270160369
      ],
      [
        "Ġjob",
        -9.086754709405188
      ],
      [
        "Ġenhance",
        -9.086934957449357
      ],
      [
        "Ġwood",
        -9.087884499294724
      ],
      [
        "Ġsometime",
        -9.08819337690403
      ],
      [
        "Ġteeth",
        -9.088445687415522
      ],
      [
        "Ġtissue",
        -9.088501806215287
      ],
      [
        "Ġclass",
        -9.089823836813643
      ],
      [
        "Ġmix",
        -9.092873547244505
      ],
      [
        "Ġadditional",
        -9.092997379388557
      ],
      [
        "Ġal",
        -9.094137311589083
      ],
      [
        "Ġcut",
        -9.095310871738672
      ],
      [
        "Ġexperiment",
        -9.096960698457654
      ],
      [
        "Ġbreak",
        -9.098786593721837
      ],
      [
        "Ġattention",
        -9.099396709364695
      ],
      [
        "ĠAll",
        -9.09980399767121
      ],
      [
        "Ġrelated",
        -9.100665553876691
      ],
      [
        "Ġstage",
        -9.100758176905607
      ],
      [
        "Ġsummer",
        -9.101465965202284
      ],
      [
        "Ġvegetable",
        -9.10362173806228
      ],
      [
        "Ġserve",
        -9.10776731970438
      ],
      [
        "Ġever",
        -9.109622155903851
      ],
      [
        "Ġdark",
        -9.110081056004656
      ],
      [
        "Ġcustomer",
        -9.110177403864787
      ],
      [
        "ĠHere",
        -9.110586926954502
      ],
      [
        "Ġhappen",
        -9.111372397002716
      ],
      [
        "z",
        -9.11178565623128
      ],
      [
        "Ġact",
        -9.112422284092847
      ],
      [
        "Ġbalance",
        -9.113889618783476
      ],
      [
        "Ġbirds",
        -9.114282906479938
      ],
      [
        "Ġmetal",
        -9.114540533489643
      ],
      [
        "Ġmental",
        -9.11507026290037
      ],
      [
        "Ġthread",
        -9.11799740930087
      ],
      [
        "Ġanything",
        -9.118353909742863
      ],
      [
        "ĠWhil",
        -9.11909981648563
      ],
      [
        "R",
        -9.119892549984012
      ],
      [
        "Ġtrees",
        -9.12033685749995
      ],
      [
        "Ġadult",
        -9.12035497525093
      ],
      [
        "Ġrelationship",
        -9.120530032153784
      ],
      [
        "Ġsoftware",
        -9.121812146681794
      ],
      [
        "Ġmovement",
        -9.122141496197491
      ],
      [
        "Ġinjur",
        -9.123380028569157
      ],
      [
        "Ġpay",
        -9.124545531058908
      ],
      [
        "Ġnight",
        -9.12483950651108
      ],
      [
        "Ġlength",
        -9.125611878378317
      ],
      [
        "Ġrepresent",
        -9.126406539221453
      ],
      [
        "Ġimage",
        -9.126489102069351
      ],
      [
        "Ġgain",
        -9.128907218351603
      ],
      [
        "Ġrelative",
        -9.129862872756098
      ],
      [
        "Ġacid",
        -9.130344489038794
      ],
      [
        ").Ċ",
        -9.13141243592639
      ],
      [
        "Ġefficient",
        -9.13141915366991
      ],
      [
        "Ġalmost",
        -9.131455630438332
      ],
      [
        "Ġstop",
        -9.13391917126478
      ],
      [
        "Ġcarbon",
        -9.135607217628907
      ],
      [
        "Ġdaily",
        -9.136047605378725
      ],
      [
        "Ġfit",
        -9.136899090941103
      ],
      [
        "Ġprevious",
        -9.13898419325658
      ],
      [
        "Ġweather",
        -9.139552689430872
      ],
      [
        "Ġexact",
        -9.140473533006636
      ],
      [
        "yet",
        -9.143746128144237
      ],
      [
        "Ġsuccessful",
        -9.147005487153873
      ],
      [
        "Ġseeds",
        -9.147118429105998
      ],
      [
        "Ġeasie",
        -9.14993245825168
      ],
      [
        "once",
        -9.15295193728666
      ],
      [
        "ĠDo",
        -9.154557979562275
      ],
      [
        "Ġstudies",
        -9.154647161328132
      ],
      [
        "ĠCan",
        -9.155818719370917
      ],
      [
        "\"ĊĊ",
        -9.156433520210104
      ],
      [
        "One",
        -9.15663911460707
      ],
      [
        "Ġstarted",
        -9.157775197560102
      ],
      [
        "Ġhumans",
        -9.157936114555362
      ],
      [
        "ar",
        -9.159858497886765
      ],
      [
        "Ġfemale",
        -9.161437255614672
      ],
      [
        "Why",
        -9.162304278976872
      ],
      [
        ".\"",
        -9.16260454586456
      ],
      [
        "Ġisn",
        -9.163650881997343
      ],
      [
        "Ġvisit",
        -9.166964215296405
      ],
      [
        "N",
        -9.166991044794583
      ],
      [
        "Ġcharge",
        -9.167021200965925
      ],
      [
        "Ġhot",
        -9.168992115948903
      ],
      [
        "Ġincreasing",
        -9.17085634302703
      ],
      [
        "Ġsite",
        -9.1717868044578
      ],
      [
        "Ġextreme",
        -9.17254061980404
      ],
      [
        "cannot",
        -9.17307641717198
      ],
      [
        "Ġfront",
        -9.174089454480969
      ],
      [
        "Ġfile",
        -9.174304126004325
      ],
      [
        "Ġengine",
        -9.175250247773024
      ],
      [
        "Ġgenerally",
        -9.175298880918156
      ],
      [
        "Ġpass",
        -9.179715864713724
      ],
      [
        "Ġengineer",
        -9.181123766923756
      ],
      [
        "Ġwait",
        -9.18131449970618
      ],
      [
        "ĠNational",
        -9.1822879113296
      ],
      [
        "Ġlater",
        -9.184082358271734
      ],
      [
        "Ġcountry",
        -9.18423144644562
      ],
      [
        "Ġadvantage",
        -9.18497639810812
      ],
      [
        "Ġdigital",
        -9.185274514546752
      ],
      [
        "Ġregard",
        -9.18553630637836
      ],
      [
        "Ġflavor",
        -9.187082847201012
      ],
      [
        "Ġsea",
        -9.187216281990953
      ],
      [
        "Ġaccount",
        -9.191070202760326
      ],
      [
        "Ġreview",
        -9.193604007402833
      ],
      [
        "Ġoriginal",
        -9.193932541913377
      ],
      [
        "Ġspread",
        -9.194124902116732
      ],
      [
        "Ġnutrient",
        -9.19506637065762
      ],
      [
        "Ġdeliver",
        -9.196376373136635
      ],
      [
        "Ġbad",
        -9.196720701060617
      ],
      [
        "Ġice",
        -9.197139322882355
      ],
      [
        "ĠUse",
        -9.19747561184043
      ],
      [
        "Ġdiscuss",
        -9.197791695958704
      ],
      [
        "Ġfriend",
        -9.198605504415468
      ],
      [
        "H",
        -9.199956999252684
      ],
      [
        "Ġdirectly",
        -9.20451413455408
      ],
      [
        "ok",
        -9.20487255860936
      ],
      [
        "ĠâĢľ",
        -9.204950901416847
      ],
      [
        "Ġmultiple",
        -9.2050272920636
      ],
      [
        "Ġchance",
        -9.20506228380927
      ],
      [
        "Ġconnection",
        -9.205873715636104
      ],
      [
        "Ġplayer",
        -9.206395194390312
      ],
      [
        "Ġinterest",
        -9.207803282783916
      ],
      [
        "Ġwords",
        -9.2095592627922
      ],
      [
        "Ġglobal",
        -9.210279833463275
      ],
      [
        "Ġhear",
        -9.210300394409066
      ],
      [
        "Ġpre",
        -9.21045580829276
      ],
      [
        "Ġunit",
        -9.21054989480152
      ],
      [
        "Ġcommunication",
        -9.212056129541988
      ],
      [
        "Ġnegative",
        -9.213284621471754
      ],
      [
        "Ġtrue",
        -9.213958894014992
      ],
      [
        "Ġfinal",
        -9.214217664600127
      ],
      [
        "li",
        -9.214669911715609
      ],
      [
        "Ġfinding",
        -9.21618118548436
      ],
      [
        "Ġcompare",
        -9.218711363130945
      ],
      [
        "Ġexplore",
        -9.218920080609552
      ],
      [
        ">",
        -9.22018909231155
      ],
      [
        "Ġgenetic",
        -9.220497091081045
      ],
      [
        "Ġappropriate",
        -9.2214480692113
      ],
      [
        "Â°",
        -9.221937198357914
      ],
      [
        "Ġfive",
        -9.223002738929312
      ],
      [
        "cy",
        -9.223395077446408
      ],
      [
        "Ġextra",
        -9.223643872611508
      ],
      [
        "Ġscientists",
        -9.223849794824565
      ],
      [
        "ĠAt",
        -9.22476216796953
      ],
      [
        "Ġmeat",
        -9.226683696409845
      ],
      [
        "G",
        -9.22971319338922
      ],
      [
        "Ġthemsel",
        -9.23023906059176
      ],
      [
        "Ġdirection",
        -9.232847773899543
      ],
      [
        "Ġshown",
        -9.23339605888785
      ],
      [
        "Ġreturn",
        -9.234908811723557
      ],
      [
        "Ġfat",
        -9.240803269641884
      ],
      [
        "Ġequipment",
        -9.242698414473002
      ],
      [
        "Ġcrop",
        -9.242937149439683
      ],
      [
        "Ġmodern",
        -9.243329463824155
      ],
      [
        "Ġtopic",
        -9.243446631531109
      ],
      [
        "Ġorganization",
        -9.243861623479887
      ],
      [
        "Ġtips",
        -9.246147392383444
      ],
      [
        "Ġbenefit",
        -9.246604901034775
      ],
      [
        "Ġsave",
        -9.24776876017555
      ],
      [
        "Ġalternative",
        -9.249713385297872
      ],
      [
        "ĠHealth",
        -9.25041136896889
      ],
      [
        "Ġkill",
        -9.25229816518151
      ],
      [
        "Ġsensor",
        -9.25352088445938
      ],
      [
        "Ġsupply",
        -9.255269077846789
      ],
      [
        "Ġflowers",
        -9.256256599446369
      ],
      [
        "Ġglass",
        -9.256691140686618
      ],
      [
        "ese",
        -9.256988810720433
      ],
      [
        "Ġword",
        -9.257232435863331
      ],
      [
        "-to",
        -9.259679051861127
      ],
      [
        "Ġrunn",
        -9.26002490408595
      ],
      [
        "Ġwebsite",
        -9.260105532846492
      ],
      [
        "Ġreaction",
        -9.260561369248542
      ],
      [
        "Ġconnect",
        -9.260934320113352
      ],
      [
        "Ġsteps",
        -9.261415340876583
      ],
      [
        "Ġbehind",
        -9.261884955392214
      ],
      [
        "Ġdirect",
        -9.261933898568389
      ],
      [
        "Ġfun",
        -9.26521006967216
      ],
      [
        "ĠShe",
        -9.266517994667884
      ],
      [
        "Ġrest",
        -9.266717025815538
      ],
      [
        "Ġtable",
        -9.267922282035984
      ],
      [
        "by",
        -9.268086034247007
      ],
      [
        "ĠAfter",
        -9.268269426619495
      ],
      [
        "Ġcode",
        -9.268974517243954
      ],
      [
        "Ġart",
        -9.271259707617698
      ],
      [
        "ĠNorth",
        -9.272092852599698
      ],
      [
        "Ġeggs",
        -9.272140492483985
      ],
      [
        "ĠDr",
        -9.273181206988856
      ],
      [
        "Ġspring",
        -9.275278793247178
      ],
      [
        "Ġenter",
        -9.276306473064588
      ],
      [
        "Ġaspect",
        -9.277948565904286
      ],
      [
        "Ġelse",
        -9.27795136381534
      ],
      [
        "But",
        -9.278197557607118
      ],
      [
        "Ġrepair",
        -9.27828845738082
      ],
      [
        "Ġmonth",
        -9.278655622390463
      ],
      [
        "Ġrequirement",
        -9.278820683139784
      ],
      [
        "Ġfine",
        -9.278876063033431
      ],
      [
        "Ġmass",
        -9.27915282278218
      ],
      [
        "Ġtend",
        -9.281996820960288
      ],
      [
        "Ġeveryone",
        -9.282031251896791
      ],
      [
        "ĠScience",
        -9.283650313050124
      ],
      [
        "Ġcaus",
        -9.28385785215598
      ],
      [
        "Ġindicate",
        -9.28469749225614
      ],
      [
        "care",
        -9.28573189296751
      ],
      [
        "Ġforest",
        -9.285898243406818
      ],
      [
        "Ġaware",
        -9.28720845675815
      ],
      [
        "Ġfill",
        -9.287848058953031
      ],
      [
        "Ġwatch",
        -9.289666892522998
      ],
      [
        "gan",
        -9.290206962697546
      ],
      [
        "Another",
        -9.29100215949975
      ],
      [
        "Ġroot",
        -9.291101652542675
      ],
      [
        "Ġnotice",
        -9.293374700778116
      ],
      [
        "Ġdrive",
        -9.29527052858635
      ],
      [
        "Ġfix",
        -9.297037281084505
      ],
      [
        "Ġcontribute",
        -9.297081103336213
      ],
      [
        "Ġingredient",
        -9.298195374546152
      ],
      [
        "bility",
        -9.299384603542345
      ],
      [
        "Ġmeal",
        -9.299664799055222
      ],
      [
        "Ġmeet",
        -9.300010927559244
      ],
      [
        "Ġachieve",
        -9.300121740129372
      ],
      [
        "ĠUS",
        -9.301419383209245
      ],
      [
        "Ġco",
        -9.302121545456124
      ],
      [
        "Ġuseful",
        -9.303245886143724
      ],
      [
        "Ġprotection",
        -9.3044539490338
      ],
      [
        "ory",
        -9.305553045880965
      ],
      [
        "Ġframe",
        -9.30598498499688
      ],
      [
        "Ġmale",
        -9.306049365536976
      ],
      [
        "Ġanalysis",
        -9.306068488036091
      ],
      [
        "Ġelectrical",
        -9.307103708885649
      ],
      [
        "Ġcenter",
        -9.30729142049936
      ],
      [
        "Ġbag",
        -9.308812546688577
      ],
      [
        "Ġreduc",
        -9.308834691008276
      ],
      [
        "V",
        -9.308931881225378
      ],
      [
        "Ġserious",
        -9.309278663492968
      ],
      [
        "Ġhabitat",
        -9.311749214908756
      ],
      [
        "Ġago",
        -9.313031161351589
      ],
      [
        "Ġconstruction",
        -9.31324358955358
      ],
      [
        "ĠStates",
        -9.31344194898761
      ],
      [
        "ful",
        -9.313478958753974
      ],
      [
        "ĠW",
        -9.3135316158582
      ],
      [
        "Ġpage",
        -9.314271812319692
      ],
      [
        "Ġnote",
        -9.31427248096443
      ],
      [
        "Ġconstant",
        -9.314776294313162
      ],
      [
        "Ġscale",
        -9.316719904647409
      ],
      [
        "Ġfresh",
        -9.317679343076524
      ],
      [
        "Ġimmediate",
        -9.31856326002492
      ],
      [
        "O",
        -9.31944981046129
      ],
      [
        "Ġcycle",
        -9.319927762277931
      ],
      [
        "Ġdate",
        -9.320288590427168
      ],
      [
        "Ġsuitable",
        -9.320738553973817
      ],
      [
        "one",
        -9.321161116173164
      ],
      [
        "Ġready",
        -9.322626624892283
      ],
      [
        "Ġtrack",
        -9.322850174964016
      ],
      [
        "Ġconcept",
        -9.323742802579847
      ],
      [
        "Ġgroups",
        -9.32478888151503
      ],
      [
        "K",
        -9.32710589538252
      ],
      [
        "Ġdoctor",
        -9.327963735115208
      ],
      [
        "Ġfrequent",
        -9.328078658302267
      ],
      [
        "Ġcircuit",
        -9.328265117520615
      ],
      [
        "Ġseek",
        -9.330341143527008
      ],
      [
        "Ġadded",
        -9.330435341487595
      ],
      [
        "mm",
        -9.334359737473326
      ],
      [
        "Ġdiscover",
        -9.336275102892744
      ],
      [
        "Ġflight",
        -9.336953348618206
      ],
      [
        "ĠBe",
        -9.33843939016192
      ],
      [
        "Ġgovernment",
        -9.340274735903844
      ],
      [
        "ĠEarth",
        -9.3404062647193
      ],
      [
        "Ġinfluence",
        -9.340598667370546
      ],
      [
        "Ġsample",
        -9.34101315503314
      ],
      [
        "Ġboard",
        -9.341566862399064
      ],
      [
        "Ġstory",
        -9.342068198020293
      ],
      [
        "ĠYes",
        -9.342183599048065
      ],
      [
        "Ġhearing",
        -9.342332305343092
      ],
      [
        "Ġfiber",
        -9.344142819249669
      ],
      [
        "Ġtaste",
        -9.34433082540748
      ],
      [
        "Ġfarm",
        -9.345973139585722
      ],
      [
        "Ġfeeling",
        -9.34802071280879
      ],
      [
        "ecause",
        -9.351857055561585
      ],
      [
        "Ġbrand",
        -9.353578076832182
      ],
      [
        "Ġremember",
        -9.355138268106447
      ],
      [
        "Ġcount",
        -9.355928346224344
      ],
      [
        "Ġmemory",
        -9.357668078250365
      ],
      [
        "Ġserie",
        -9.358766754434772
      ],
      [
        "Ġdrink",
        -9.358997523709386
      ],
      [
        "Ġweeks",
        -9.35912681690572
      ],
      [
        "Ġattack",
        -9.360013135600102
      ],
      [
        "Ġcountr",
        -9.3610510816694
      ],
      [
        "Ġman",
        -9.361088638349784
      ],
      [
        "Ġtesting",
        -9.362393837894247
      ],
      [
        "Ġequal",
        -9.36362516866557
      ],
      [
        "Ġinstruction",
        -9.364882581460844
      ],
      [
        "Ġinput",
        -9.365263470126404
      ],
      [
        "Ġgenerate",
        -9.367643666216397
      ],
      [
        "Ġcritical",
        -9.36765743270395
      ],
      [
        "Whil",
        -9.367746232911989
      ],
      [
        "Ġspend",
        -9.3683400958342
      ],
      [
        "Ġprocedure",
        -9.37047388911072
      ],
      [
        "Ġprett",
        -9.370482849722308
      ],
      [
        "Ġinstall",
        -9.371137628984378
      ],
      [
        "Ġjourney",
        -9.37307453952626
      ],
      [
        "Ġplann",
        -9.375084165923225
      ],
      [
        "Ġwear",
        -9.376339315800024
      ],
      [
        "ĠCalifornia",
        -9.377042073100323
      ],
      [
        "Ġtouch",
        -9.377604936659084
      ],
      [
        "Ġgreater",
        -9.379735618090976
      ],
      [
        "Ġdistance",
        -9.381210873648154
      ],
      [
        "Ġorganic",
        -9.381387918988926
      ],
      [
        "Ġlack",
        -9.382378047549762
      ],
      [
        "Ġsix",
        -9.382840641638571
      ],
      [
        "Ġhair",
        -9.385018803979149
      ],
      [
        "Ġmembers",
        -9.385236314065727
      ],
      [
        "Ġdidn",
        -9.38638601051176
      ],
      [
        "Ġwind",
        -9.386475784613706
      ],
      [
        "ĠSouth",
        -9.386741486248582
      ],
      [
        "Ġperform",
        -9.388153537435532
      ],
      [
        "W",
        -9.38846366226834
      ],
      [
        "Ġideal",
        -9.389350602301786
      ],
      [
        "Ġdocument",
        -9.389870473580114
      ],
      [
        "Each",
        -9.390295204595857
      ],
      [
        "Ġmoment",
        -9.390314347431516
      ],
      [
        "Ġcareful",
        -9.392243679465968
      ],
      [
        "Can",
        -9.392301852497976
      ],
      [
        "+",
        -9.3941024353259
      ],
      [
        "ĠSchool",
        -9.394327585138534
      ],
      [
        "moving",
        -9.39529674062987
      ],
      [
        "These",
        -9.39692334822742
      ],
      [
        "Ġconduct",
        -9.398716814731138
      ],
      [
        "Ġcleaning",
        -9.398870287788652
      ],
      [
        "ĠMore",
        -9.401709256004429
      ],
      [
        "ul",
        -9.403244073432088
      ],
      [
        "Using",
        -9.404573716247905
      ],
      [
        "Some",
        -9.404906555392191
      ],
      [
        "Ġflower",
        -9.40537589834436
      ],
      [
        "Ġstrength",
        -9.40633942951214
      ],
      [
        "Ġextend",
        -9.40656464301949
      ],
      [
        "life",
        -9.406685432829438
      ],
      [
        "Ġgames",
        -9.408822742166976
      ],
      [
        "Ġcombination",
        -9.410977955900552
      ],
      [
        "Ġteachers",
        -9.411168694173584
      ],
      [
        "Ġfire",
        -9.411582313791708
      ],
      [
        "Ġlocate",
        -9.412235827518476
      ],
      [
        "companie",
        -9.412638909296408
      ],
      [
        "Ġblue",
        -9.413257226738477
      ],
      [
        "Ġseparate",
        -9.413603705827564
      ],
      [
        "Ġaim",
        -9.41518301400394
      ],
      [
        "ĠMay",
        -9.415465644560092
      ],
      [
        "Ġfeed",
        -9.416511079541513
      ],
      [
        "Ġcentur",
        -9.416893860639608
      ],
      [
        "Ġpattern",
        -9.417030371477706
      ],
      [
        "Ġstyle",
        -9.417179429449796
      ],
      [
        "Ġfeature",
        -9.417299682768077
      ],
      [
        "Ġedge",
        -9.41846721427764
      ],
      [
        "Ġhorse",
        -9.419053802316164
      ],
      [
        "Ġinitial",
        -9.41983897402973
      ],
      [
        "Ġchallenges",
        -9.42216889260726
      ],
      [
        "Ġwire",
        -9.422234866385176
      ],
      [
        "Ġreplace",
        -9.422889428100335
      ],
      [
        "ch",
        -9.424028627030774
      ],
      [
        "wise",
        -9.424395845611343
      ],
      [
        "Ġsecurity",
        -9.425882449529556
      ],
      [
        "Ġculture",
        -9.42643623546357
      ],
      [
        "ĠMost",
        -9.426756753846556
      ],
      [
        "Ġdeath",
        -9.42723683534944
      ],
      [
        "Ġfoot",
        -9.427522747125394
      ],
      [
        "Ġpatterns",
        -9.427633574705338
      ],
      [
        "Ġbaby",
        -9.42871065308388
      ],
      [
        "tenanc",
        -9.429038600082698
      ],
      [
        "Ġpromote",
        -9.42937056869128
      ],
      [
        "Ġnative",
        -9.42941771097525
      ],
      [
        "Ġclaim",
        -9.429466319258824
      ],
      [
        "Ġtrain",
        -9.430494061551665
      ],
      [
        "Ġimportanc",
        -9.4307544669425
      ],
      [
        "Ġstem",
        -9.431671572702832
      ],
      [
        "Ġload",
        -9.433939987923388
      ],
      [
        "ism",
        -9.434261995319172
      ],
      [
        "Ġgoe",
        -9.434625557232344
      ],
      [
        "Ġevidence",
        -9.437944839712015
      ],
      [
        "Ġrecord",
        -9.439216598350464
      ],
      [
        "Ġleg",
        -9.439296392034896
      ],
      [
        "Ġhope",
        -9.442336241296806
      ],
      [
        "Ġfilter",
        -9.44265665156242
      ],
      [
        "Ġefficiency",
        -9.442902552162147
      ],
      [
        "Ġrare",
        -9.444183852802793
      ],
      [
        "ĠRe",
        -9.445461369137805
      ],
      [
        "ship",
        -9.445497214413573
      ],
      [
        "line",
        -9.445941254733093
      ],
      [
        "ĠDNA",
        -9.44634984568142
      ],
      [
        "By",
        -9.44795091305815
      ],
      [
        "Ġbox",
        -9.44890478038432
      ],
      [
        "Ġcamera",
        -9.449794569921927
      ],
      [
        "of",
        -9.450532988047192
      ],
      [
        "Ġresponsibl",
        -9.450652301828445
      ],
      [
        "Ġmusic",
        -9.451918501093074
      ],
      [
        "Ġdeal",
        -9.453216430471649
      ],
      [
        "Ġcarry",
        -9.453275628056169
      ],
      [
        "Ġinstance",
        -9.454839349742546
      ],
      [
        "Ġdemand",
        -9.454890304145083
      ],
      [
        "Ġfoods",
        -9.455767807753595
      ],
      [
        "Ġworks",
        -9.455780073519543
      ],
      [
        "Ġvision",
        -9.455950740675371
      ],
      [
        "Ġteacher",
        -9.458599310522697
      ],
      [
        "Ġteaching",
        -9.46022548595114
      ],
      [
        "Ġgeneration",
        -9.462062517206943
      ],
      [
        "Ġfly",
        -9.462208683357971
      ],
      [
        ".S",
        -9.46466794486295
      ],
      [
        "Ġdetect",
        -9.464959618416678
      ],
      [
        "Ġpanel",
        -9.465957532491064
      ],
      [
        "Ġliquid",
        -9.46617622248712
      ],
      [
        "Ġbuilt",
        -9.466706732766813
      ],
      [
        "Ġcouple",
        -9.466820414418084
      ],
      [
        "Ġprocesses",
        -9.46743368203094
      ],
      [
        "ĠMy",
        -9.467618169555188
      ],
      [
        "Ġcapacit",
        -9.467830898261507
      ],
      [
        "Ġmouth",
        -9.469812161237211
      ],
      [
        "Ġfracture",
        -9.472279996505462
      ],
      [
        "Ġsigns",
        -9.47326891457158
      ],
      [
        "Ġensur",
        -9.473824132380804
      ],
      [
        "Ġsevere",
        -9.474320612772791
      ],
      [
        "ĠAmerica",
        -9.474385972472907
      ],
      [
        "Ġresistance",
        -9.474718243585553
      ],
      [
        "rapy",
        -9.476499867350562
      ],
      [
        "ĠAdditional",
        -9.477430987515945
      ],
      [
        "ĠThen",
        -9.478367574255572
      ],
      [
        "Ġworth",
        -9.47883448253886
      ],
      [
        "ĠâĢ¦",
        -9.479330495006987
      ],
      [
        "Ġadapt",
        -9.479531265581098
      ],
      [
        "Ġdriver",
        -9.4800549720095
      ],
      [
        "Ġheavy",
        -9.48127864854404
      ],
      [
        "ĠOur",
        -9.481758941135816
      ],
      [
        "Ġcity",
        -9.48180805858949
      ],
      [
        "><",
        -9.482657124295622
      ],
      [
        "Ġfluid",
        -9.485653850833572
      ],
      [
        "Ġversion",
        -9.486297203806012
      ],
      [
        "ical",
        -9.48694660495466
      ],
      [
        "giving",
        -9.48748902822262
      ],
      [
        "Ġdefine",
        -9.487937363816066
      ],
      [
        "Ġsmooth",
        -9.488530215170147
      ],
      [
        "Ġmulti",
        -9.489079451234144
      ],
      [
        "ĠOf",
        -9.4897804738838
      ],
      [
        "ne",
        -9.491974263201282
      ],
      [
        "Ġbright",
        -9.492297218233023
      ],
      [
        "Ġparticle",
        -9.492668072948632
      ],
      [
        "ĠModel",
        -9.492955392078697
      ],
      [
        "Ġwave",
        -9.496245854652791
      ],
      [
        "Ġscientific",
        -9.49701235741453
      ],
      [
        "ĠResearch",
        -9.49743021888954
      ],
      [
        "Ġsearch",
        -9.49789691742841
      ],
      [
        "On",
        -9.499922147242984
      ],
      [
        "Ġstand",
        -9.500763390688268
      ],
      [
        "Do",
        -9.502478511039708
      ],
      [
        "Ġwriting",
        -9.505016233048472
      ],
      [
        "Ġvary",
        -9.505162168552973
      ],
      [
        "ĠWorld",
        -9.505383163584604
      ],
      [
        "Ġbreed",
        -9.505619456471582
      ],
      [
        "Ġaccurate",
        -9.505684513538672
      ],
      [
        "Ġinteraction",
        -9.506136495748825
      ],
      [
        "Ġinches",
        -9.50777686802379
      ],
      [
        "Ġobtain",
        -9.50794384184259
      ],
      [
        "Ġdriv",
        -9.508584283558124
      ],
      [
        "Ġsuccess",
        -9.508710146620444
      ],
      [
        "Ġseed",
        -9.50888262441326
      ],
      [
        "ence",
        -9.509105906805072
      ],
      [
        "Ġincluded",
        -9.510401651433028
      ],
      [
        "Ġear",
        -9.51142214485376
      ],
      [
        "Ġnothing",
        -9.51178721275014
      ],
      [
        "ĠNot",
        -9.51237368018172
      ],
      [
        "Ġmeasurement",
        -9.513409538812729
      ],
      [
        "Ġfloor",
        -9.51435919155856
      ],
      [
        "Ġbeautiful",
        -9.514823505656988
      ],
      [
        "at",
        -9.515380515128502
      ],
      [
        "ish",
        -9.515648786682458
      ],
      [
        "Ġmedication",
        -9.517283827212523
      ],
      [
        "ĠAre",
        -9.518779553641629
      ],
      [
        "Ġrich",
        -9.519569240405303
      ],
      [
        "Ġvisual",
        -9.520800388201584
      ],
      [
        "Ġwrite",
        -9.521680400726972
      ],
      [
        "Ġcolour",
        -9.521771942545396
      ],
      [
        "Ġdraw",
        -9.524970009785644
      ],
      [
        "ĠJ",
        -9.52733314409138
      ],
      [
        "Ġprograms",
        -9.529323716676243
      ],
      [
        "-term",
        -9.530744582252003
      ],
      [
        "Ġrapid",
        -9.530919572595788
      ],
      [
        "ĠWhy",
        -9.531160270824916
      ],
      [
        "Ġexposure",
        -9.531201301892128
      ],
      [
        "Ġpull",
        -9.53130798894516
      ],
      [
        "Ġanyone",
        -9.53171734308799
      ],
      [
        "Ġslight",
        -9.53174923386593
      ],
      [
        "Al",
        -9.532007106302672
      ],
      [
        "Ġlives",
        -9.532949347159825
      ],
      [
        "Ġphone",
        -9.533052485291872
      ],
      [
        "Ġpublished",
        -9.53328380545254
      ],
      [
        "Ġmoistur",
        -9.534017326528234
      ],
      [
        "Ġadvanced",
        -9.535836022872514
      ],
      [
        "Ġsoon",
        -9.536140044024298
      ],
      [
        "Ġpick",
        -9.536370465301436
      ],
      [
        "Ġcharacteristic",
        -9.537532078735182
      ],
      [
        "Ġgene",
        -9.537791129532216
      ],
      [
        "over",
        -9.537846504643088
      ],
      [
        "Ġbottom",
        -9.538597677242446
      ],
      [
        "Ġsoft",
        -9.539362848431232
      ],
      [
        "ĠState",
        -9.539839058197575
      ],
      [
        "Ġthird",
        -9.540237118137195
      ],
      [
        "Ġphotograph",
        -9.540760337375104
      ],
      [
        "time",
        -9.542846821582646
      ],
      [
        "Ġapplied",
        -9.542949178481066
      ],
      [
        "With",
        -9.543276502498284
      ],
      [
        "Ġthinking",
        -9.5463398863056
      ],
      [
        "ate",
        -9.550016595876013
      ],
      [
        "Ġoutput",
        -9.550083139728994
      ],
      [
        "**",
        -9.55241929630991
      ],
      [
        "Step",
        -9.55347490169487
      ],
      [
        "Ġlesson",
        -9.554306003610296
      ],
      [
        "Ġenable",
        -9.554493715774298
      ],
      [
        "ities",
        -9.555258686403617
      ],
      [
        "Ġtransport",
        -9.556747512629563
      ],
      [
        "Ġyellow",
        -9.557229108265329
      ],
      [
        "Ġpowerful",
        -9.557343463528571
      ],
      [
        "ĠMake",
        -9.55859879363931
      ],
      [
        "ier",
        -9.559549539457482
      ],
      [
        "Ġfriends",
        -9.56156782398379
      ],
      [
        "Ġhit",
        -9.562459221289023
      ],
      [
        "ization",
        -9.566118146162465
      ],
      [
        "Ġadjust",
        -9.566276606147197
      ],
      [
        "Ġdiabet",
        -9.56678176894387
      ],
      [
        "Ġmilk",
        -9.566857425548308
      ],
      [
        "Ġdrain",
        -9.568620160092053
      ],
      [
        "Ġexpand",
        -9.568897516168398
      ],
      [
        "Ġconsist",
        -9.570057370576308
      ],
      [
        "Ġvaluable",
        -9.573241038460232
      ],
      [
        "Ġcap",
        -9.573531130611553
      ],
      [
        "Ġhandle",
        -9.57385126972984
      ],
      [
        "$",
        -9.573960845488578
      ],
      [
        "Ġimmune",
        -9.574632396585445
      ],
      [
        "light",
        -9.57776027863867
      ],
      [
        "Ġ#",
        -9.57788756574868
      ],
      [
        "They",
        -9.579023145454174
      ],
      [
        "Ġpath",
        -9.580758513140244
      ],
      [
        "Ġbrown",
        -9.580829126956584
      ],
      [
        "Ġapp",
        -9.581191149464162
      ],
      [
        "ĠWho",
        -9.581876753536802
      ],
      [
        "Ġimages",
        -9.58230379279761
      ],
      [
        "expensive",
        -9.58398254772558
      ],
      [
        "=",
        -9.58615145794726
      ],
      [
        "Ġcable",
        -9.58668212910688
      ],
      [
        "Ġconsistent",
        -9.58744338748657
      ],
      [
        "Ġsolutions",
        -9.587592562079251
      ],
      [
        "Ġpoor",
        -9.588518247373116
      ],
      [
        "Ġphoto",
        -9.58967307854086
      ],
      [
        "Ġpollution",
        -9.590269401740809
      ],
      [
        "Ġsecure",
        -9.591875324872031
      ],
      [
        "Ġburn",
        -9.592765256135948
      ],
      [
        "Ġmeaning",
        -9.592806403706703
      ],
      [
        "Ġencourage",
        -9.59560581594754
      ],
      [
        "Ġpicture",
        -9.596594308404732
      ],
      [
        "Ġvoltage",
        -9.597362507827798
      ],
      [
        "ĠTheir",
        -9.598869964936272
      ],
      [
        "up",
        -9.599063544895763
      ],
      [
        "Ġideas",
        -9.599335013340871
      ],
      [
        "Ġaccept",
        -9.600299644665064
      ],
      [
        "Ġhands",
        -9.600647870014791
      ],
      [
        "Ġinteresting",
        -9.60174071457796
      ],
      [
        "Ġhappens",
        -9.603173039825286
      ],
      [
        "ĠAfrica",
        -9.60322915272781
      ],
      [
        "Ġmother",
        -9.60356786578149
      ],
      [
        "Ġ--",
        -9.603584730184863
      ],
      [
        "Ġthousand",
        -9.605099018197215
      ],
      [
        "Ġdepth",
        -9.605508215751229
      ],
      [
        "Ġdecrease",
        -9.605540972884786
      ],
      [
        "Ġfigure",
        -9.60572482124109
      ],
      [
        "lost",
        -9.606214198725484
      ],
      [
        "Ġsort",
        -9.60676096376292
      ],
      [
        "Ġplatform",
        -9.608251929215225
      ],
      [
        "Ġexcellent",
        -9.608289247164318
      ],
      [
        "Ġdoor",
        -9.608939972834577
      ],
      [
        "Now",
        -9.609103626856228
      ],
      [
        "Ġvitamin",
        -9.609113687423218
      ],
      [
        "ĠFirst",
        -9.609223328111778
      ],
      [
        "Ġstates",
        -9.609330058602044
      ],
      [
        "Ġmedia",
        -9.609514934326224
      ],
      [
        "Ġcame",
        -9.609773816254084
      ],
      [
        "Ġprocessor",
        -9.61012914801614
      ],
      [
        "ĠCenter",
        -9.611113407023852
      ],
      [
        "Ġpest",
        -9.61155196086902
      ],
      [
        "Ġmanufacturer",
        -9.61288510817048
      ],
      [
        "Ġchang",
        -9.613093747216018
      ],
      [
        "Ġmatch",
        -9.613276642422507
      ],
      [
        "Ġaid",
        -9.61411043999779
      ],
      [
        "Ġmap",
        -9.614690431598923
      ],
      [
        "tic",
        -9.616203790166471
      ],
      [
        "ĠRead",
        -9.617549712123193
      ],
      [
        "Ġ|",
        -9.617647402243906
      ],
      [
        "spite",
        -9.617896649094313
      ],
      [
        "Ġpack",
        -9.618383970719922
      ],
      [
        "Ġpaint",
        -9.618795732399532
      ],
      [
        "Ġvolume",
        -9.61920021354845
      ],
      [
        "ĠEnglish",
        -9.61952356629233
      ],
      [
        "Ġplanet",
        -9.62011114075441
      ],
      [
        "Ġpurchase",
        -9.620321243790638
      ],
      [
        "Ġmonitor",
        -9.620902472520688
      ],
      [
        "Ġball",
        -9.621502998183866
      ],
      [
        "Ġcomfortabl",
        -9.622184534578675
      ],
      [
        "ĠUK",
        -9.622407616290172
      ],
      [
        "Ġattempt",
        -9.622953056203055
      ],
      [
        "side",
        -9.623051690753616
      ],
      [
        "Ġraise",
        -9.624532839434188
      ],
      [
        "Ġ+",
        -9.624836030623404
      ],
      [
        "Ġwrong",
        -9.625279143770117
      ],
      [
        ".com",
        -9.62563089126373
      ],
      [
        "Ġfund",
        -9.626399944737429
      ],
      [
        "Ġphase",
        -9.626442274270357
      ],
      [
        "Ġroad",
        -9.626804097586817
      ],
      [
        "Ġcontainer",
        -9.62696825560231
      ],
      [
        "Ġpractices",
        -9.629154741433032
      ],
      [
        "âĢ¢",
        -9.631751792954136
      ],
      [
        "Ġfinish",
        -9.631950170794957
      ],
      [
        "Ġrefer",
        -9.6320580749781
      ],
      [
        "Ġforward",
        -9.632235933012712
      ],
      [
        "ĠUnit",
        -9.632442040371632
      ],
      [
        "Ġrise",
        -9.63277567827791
      ],
      [
        "Ġsustainabl",
        -9.63476889646369
      ],
      [
        "Ġoxygen",
        -9.635285677233966
      ],
      [
        "Ġoutcome",
        -9.635629228031142
      ],
      [
        "Ġled",
        -9.635632652458025
      ],
      [
        "Ġfinancial",
        -9.635750584126328
      ],
      [
        "Ġsaw",
        -9.635981376040014
      ],
      [
        "Ġsub",
        -9.63613472516673
      ],
      [
        "-up",
        -9.63625620273194
      ],
      [
        "Ġdi",
        -9.6363046784499
      ],
      [
        "came",
        -9.63724182791759
      ],
      [
        "Ġlaw",
        -9.637605114160298
      ],
      [
        "Before",
        -9.638104155189204
      ],
      [
        "Ġnoise",
        -9.638745993337707
      ],
      [
        "Ġbatter",
        -9.638941557910988
      ],
      [
        "Ġvia",
        -9.640472091694718
      ],
      [
        "Ġangle",
        -9.641676314395635
      ],
      [
        "Ġpush",
        -9.642442716885755
      ],
      [
        "Ġtransfer",
        -9.64580248256252
      ],
      [
        "Ġplane",
        -9.646746226589617
      ],
      [
        "Ġsurrounding",
        -9.648073617963156
      ],
      [
        "Ġmid",
        -9.6491495206286
      ],
      [
        "An",
        -9.649856182094467
      ],
      [
        "Ġhospital",
        -9.65334371813666
      ],
      [
        "Ġsalt",
        -9.653773800330011
      ],
      [
        "Ġnational",
        -9.654342086193749
      ],
      [
        "work",
        -9.655000595476018
      ],
      [
        "Ġcomfort",
        -9.655248454896675
      ],
      [
        "Ġtexture",
        -9.656676712166965
      ],
      [
        "Ġdangerous",
        -9.656745223303236
      ],
      [
        "Ġscreen",
        -9.65679393981288
      ],
      [
        "Ġcommunit",
        -9.65713796935173
      ],
      [
        "Y",
        -9.65767416455911
      ],
      [
        "Ġsubstance",
        -9.659122207597356
      ],
      [
        "Ġcoast",
        -9.659590372665663
      ],
      [
        "Ġsend",
        -9.660312499789642
      ],
      [
        "Ġtechnologi",
        -9.66166387757867
      ],
      [
        "No",
        -9.661936675676332
      ],
      [
        "Ġreflect",
        -9.663289289933616
      ],
      [
        "Ġspeak",
        -9.664804876808066
      ],
      [
        "ĠDe",
        -9.666699098764418
      ],
      [
        "Ġfabric",
        -9.668413871877569
      ],
      [
        "Ġrecover",
        -9.670267991048291
      ],
      [
        "âĢĿ",
        -9.672001966057168
      ],
      [
        "Ġsign",
        -9.672310933571046
      ],
      [
        "Ġskill",
        -9.672863242987525
      ],
      [
        "And",
        -9.673061933433754
      ],
      [
        "went",
        -9.674760810793796
      ],
      [
        "Ġiron",
        -9.6747950455295
      ],
      [
        "Ġrecipe",
        -9.675127565154304
      ],
      [
        "Ġdie",
        -9.676375179918695
      ],
      [
        "Ġanti",
        -9.67742385432484
      ],
      [
        "Ġmiddle",
        -9.67821091203744
      ],
      [
        "Ġcross",
        -9.67823092565484
      ],
      [
        "Ġmessage",
        -9.67867887400827
      ],
      [
        "Ġ-->",
        -9.680446569283452
      ],
      [
        "Ġcollection",
        -9.6806609184184
      ],
      [
        "Ġhuge",
        -9.681052293970149
      ],
      [
        "Ġcompar",
        -9.682005895854438
      ],
      [
        "ĠInstitute",
        -9.682963964570076
      ],
      [
        "Ġestimate",
        -9.683134587455534
      ],
      [
        "Ġpresence",
        -9.683267208653344
      ],
      [
        "Ġvoice",
        -9.683354576118798
      ],
      [
        "Ġremov",
        -9.683594493425918
      ],
      [
        "ĠLet",
        -9.683681562053849
      ],
      [
        "Ġcutting",
        -9.683834288152546
      ],
      [
        "Ġhapp",
        -9.68417390467636
      ],
      [
        "ĠJust",
        -9.68495138398969
      ],
      [
        "Ġfair",
        -9.687091514644829
      ],
      [
        "Ġswitch",
        -9.687848860547197
      ],
      [
        "Ġemployee",
        -9.688389474838049
      ],
      [
        "Ġassessment",
        -9.68936813886956
      ],
      [
        "Ġfully",
        -9.690211987596983
      ],
      [
        "if",
        -9.690408559458556
      ],
      [
        "Ġbackground",
        -9.691233861590954
      ],
      [
        "Ġmedicine",
        -9.69152860793531
      ],
      [
        "Ġhost",
        -9.691958700039471
      ],
      [
        "Ġletter",
        -9.691967254279763
      ],
      [
        "Ġjoin",
        -9.693778831101223
      ],
      [
        "Ġplaced",
        -9.693811020835788
      ],
      [
        "Ġbeginning",
        -9.69411363090326
      ],
      [
        "Ġstaff",
        -9.694119889138126
      ],
      [
        "Ġmaximu",
        -9.694331916700555
      ],
      [
        "Ġsweet",
        -9.694551023804593
      ],
      [
        "Ġinternational",
        -9.696990575740948
      ],
      [
        "Ġoffice",
        -9.698560663526871
      ],
      [
        "Ġvaccine",
        -9.699285662660664
      ],
      [
        "Ġorganism",
        -9.69967243457384
      ],
      [
        "Ġpound",
        -9.699835673357658
      ],
      [
        "Ġsustain",
        -9.7008022497171
      ],
      [
        "Ġbusinesses",
        -9.702812738534089
      ],
      [
        "Ġaren",
        -9.702877317249785
      ],
      [
        "Ġexpected",
        -9.702902825895272
      ],
      [
        "Ġfilm",
        -9.703328773008693
      ],
      [
        "Ġtrip",
        -9.704381158482
      ],
      [
        "ĠEven",
        -9.705018034760297
      ],
      [
        "Ġoperation",
        -9.705162744691668
      ],
      [
        "Ġconnected",
        -9.7056127352122
      ],
      [
        "/or",
        -9.705773070408291
      ],
      [
        "Q",
        -9.706922780429498
      ],
      [
        "Ġmiss",
        -9.70742817714552
      ],
      [
        "den",
        -9.70749235992918
      ],
      [
        "Ġarm",
        -9.708058400796087
      ],
      [
        "Ġstick",
        -9.708182755179262
      ],
      [
        "ware",
        -9.708498327005644
      ],
      [
        "day",
        -9.709032101405327
      ],
      [
        "Ġwritten",
        -9.709283877603976
      ],
      [
        "Ġrespond",
        -9.70935220672889
      ],
      [
        "Ġround",
        -9.710207574132204
      ],
      [
        "held",
        -9.711249365475634
      ],
      [
        "Ġbigge",
        -9.711345259383602
      ],
      [
        "Ġgrain",
        -9.711377350399994
      ],
      [
        "Ġemission",
        -9.713114772696954
      ],
      [
        "ĠSystem",
        -9.714414738678734
      ],
      [
        "Ġstrategies",
        -9.714482930445122
      ],
      [
        "Ġconcentration",
        -9.71650723506723
      ],
      [
        "Ġproteins",
        -9.717428914436836
      ],
      [
        "Ġimprov",
        -9.719278303260252
      ],
      [
        "Ġtank",
        -9.719398402972852
      ],
      [
        "Ġmotion",
        -9.721027752399385
      ],
      [
        "Ġcloth",
        -9.721756176077932
      ],
      [
        "Ġoutdoor",
        -9.722954732295488
      ],
      [
        "Ġclick",
        -9.722980760482264
      ],
      [
        "Ġbreath",
        -9.723367557947824
      ],
      [
        "Ġmember",
        -9.725623045809272
      ],
      [
        "ĠNOT",
        -9.726267090285878
      ],
      [
        "Ġecosystem",
        -9.727106557309934
      ],
      [
        "Ġdental",
        -9.727161504858463
      ],
      [
        "Ġrobot",
        -9.727488096007116
      ],
      [
        "Ġchallenge",
        -9.72798482710543
      ],
      [
        "Ġlose",
        -9.728423723662452
      ],
      [
        "ĠAls",
        -9.729182541502452
      ],
      [
        "ility",
        -9.729758629242422
      ],
      [
        "Ġalgorithm",
        -9.729968065193347
      ],
      [
        "older",
        -9.730269321233123
      ],
      [
        "Ġowners",
        -9.730691275019709
      ],
      [
        "Ġselection",
        -9.73102676973651
      ],
      [
        "haps",
        -9.731657534744668
      ],
      [
        "Ġsequence",
        -9.733156442963594
      ],
      [
        "ĠRiver",
        -9.73343395903322
      ],
      [
        "Ġpractical",
        -9.734066092028105
      ],
      [
        "Ġplease",
        -9.734130060881938
      ],
      [
        "Ġconsumpti",
        -9.734632684270949
      ],
      [
        "ium",
        -9.734869967028503
      ],
      [
        "Ġcoffee",
        -9.735780135904456
      ],
      [
        "aking",
        -9.735950853360473
      ],
      [
        "Ġvariable",
        -9.73764704284932
      ],
      [
        "ĠWater",
        -9.738110770649856
      ],
      [
        "Ġupper",
        -9.73823504660065
      ],
      [
        "Ġfoundation",
        -9.738557004958654
      ],
      [
        "Ġcentral",
        -9.73931219059302
      ],
      [
        "ĠNow",
        -9.740013038391718
      ],
      [
        "Ġcontext",
        -9.741211616618848
      ],
      [
        "Ġonto",
        -9.741961046685606
      ],
      [
        "Here",
        -9.742337254338953
      ],
      [
        "Ġmanufactur",
        -9.74271569627592
      ],
      [
        "Ġrock",
        -9.742767559757716
      ],
      [
        "Ġrain",
        -9.74414155151936
      ],
      [
        "Ġbar",
        -9.744504881097145
      ],
      [
        "ĠOr",
        -9.745209970504966
      ],
      [
        "Ġgrass",
        -9.746600067899482
      ],
      [
        "Ġproduc",
        -9.747071838367305
      ],
      [
        "Ġfavorite",
        -9.74716027599703
      ],
      [
        "Ġspot",
        -9.747311345553005
      ],
      [
        "Ġdouble",
        -9.74936277337993
      ],
      [
        "|",
        -9.751261905145256
      ],
      [
        "Ġobserve",
        -9.751595550225424
      ],
      [
        "Ġtube",
        -9.75256451017307
      ],
      [
        "Ġvirtual",
        -9.753574380166192
      ],
      [
        "Ġsquare",
        -9.75458135786669
      ],
      [
        "Ġdisplay",
        -9.756291566059192
      ],
      [
        "Ġtransform",
        -9.758165239877735
      ],
      [
        "Ġsell",
        -9.758208340613333
      ],
      [
        "Ġthreat",
        -9.758496573483956
      ],
      [
        "Ġclassroom",
        -9.758651575794534
      ],
      [
        "Ġannual",
        -9.758990642107529
      ],
      [
        "ĠOther",
        -9.759429548240352
      ],
      [
        "Ġmedium",
        -9.759634640531369
      ],
      [
        "Ġstone",
        -9.760084295525772
      ],
      [
        "pril",
        -9.76140097080087
      ],
      [
        "Ġharvest",
        -9.761540515256996
      ],
      [
        "ĠDur",
        -9.76194848785364
      ],
      [
        "Ġprogress",
        -9.764071111260682
      ],
      [
        "Ġgear",
        -9.764101444170851
      ],
      [
        "Ġdiscovered",
        -9.764169393990976
      ],
      [
        "Ġpair",
        -9.764304976160872
      ],
      [
        "Ġschools",
        -9.76514742866565
      ],
      [
        "wide",
        -9.76675388333303
      ],
      [
        "Man",
        -9.76714578520956
      ],
      [
        "Ġearth",
        -9.768297525591237
      ],
      [
        "Ġdivers",
        -9.768418405048614
      ],
      [
        "Ġgate",
        -9.77016918560315
      ],
      [
        "Ġelectronic",
        -9.77120914422188
      ],
      [
        "Ġroots",
        -9.77229820463335
      ],
      [
        "Ġpipe",
        -9.772419874924443
      ],
      [
        "body",
        -9.772910516281891
      ],
      [
        "surgery",
        -9.773198753614157
      ],
      [
        "Ġbecomes",
        -9.773867584200056
      ],
      [
        "Ġexpect",
        -9.774046860419414
      ],
      [
        "Ġhighlight",
        -9.774069499267304
      ],
      [
        "Ġsheet",
        -9.777389266639249
      ],
      [
        "Ġerror",
        -9.777488472783542
      ],
      [
        "fish",
        -9.77801464278905
      ],
      [
        "Ġcomment",
        -9.779027309488836
      ],
      [
        "Ġmechanism",
        -9.77942642566979
      ],
      [
        "Ġstuff",
        -9.77976820254107
      ],
      [
        "Ġbutton",
        -9.780265947335169
      ],
      [
        "head",
        -9.782403375317848
      ],
      [
        "Ġprinciple",
        -9.782450013963626
      ],
      [
        "Ġvital",
        -9.78253224101869
      ],
      [
        "Ġsounds",
        -9.784216816188426
      ],
      [
        "Ġpredict",
        -9.785159099394091
      ],
      [
        "Ġchicken",
        -9.785893044262036
      ],
      [
        "Ġshift",
        -9.786113468593928
      ],
      [
        "Ġspecifically",
        -9.786229796089223
      ],
      [
        "Ġregulation",
        -9.786642356751091
      ],
      [
        "Ġtrust",
        -9.78689216167288
      ],
      [
        "Ġpark",
        -9.789415844952456
      ],
      [
        "ĠAustralia",
        -9.789847811116244
      ],
      [
        "Ġinter",
        -9.79024811549682
      ],
      [
        "Ġformed",
        -9.79215470660064
      ],
      [
        "Ġcareer",
        -9.794956612666343
      ],
      [
        "Ġbodie",
        -9.795877157825071
      ],
      [
        "U",
        -9.79610661487126
      ],
      [
        "Ġillness",
        -9.797212421159529
      ],
      [
        "Ġalone",
        -9.797452662763671
      ],
      [
        "ian",
        -9.797865641844776
      ],
      [
        "Ġevolution",
        -9.799033561378486
      ],
      [
        "Ġreference",
        -9.799242615964832
      ],
      [
        "Ġessay",
        -9.803276165578025
      ],
      [
        "Ġmen",
        -9.803540130006352
      ],
      [
        "Ġcommercial",
        -9.803581680463694
      ],
      [
        "Ġsolid",
        -9.803585662954845
      ],
      [
        "Ġcompound",
        -9.803994008763963
      ],
      [
        "Ġcup",
        -9.805541111793552
      ],
      [
        "Ġoperat",
        -9.805548535358245
      ],
      [
        "ĠIndia",
        -9.805629432106144
      ],
      [
        "Ġresource",
        -9.806089297006697
      ],
      [
        "Ġheight",
        -9.80710779745108
      ],
      [
        "Ġappearance",
        -9.807305177203473
      ],
      [
        "Ġinternal",
        -9.808032992332302
      ],
      [
        "Ġfamil",
        -9.808049258891844
      ],
      [
        "Ġindoor",
        -9.809382701995496
      ],
      [
        "Ġreported",
        -9.809414621838414
      ],
      [
        "am",
        -9.809750915779915
      ],
      [
        "...ĊĊ",
        -9.809855880653355
      ],
      [
        "Ġbutter",
        -9.810843511273337
      ],
      [
        "ĠAccording",
        -9.810854028982464
      ],
      [
        "ĠDepartment",
        -9.810942043883164
      ],
      [
        "-like",
        -9.812533409830149
      ],
      [
        "Ġassess",
        -9.812863147030177
      ],
      [
        "Ġdead",
        -9.813198236747295
      ],
      [
        "Ġstatement",
        -9.814430670496034
      ],
      [
        "Ġmixture",
        -9.815637339542224
      ],
      [
        "Ġworker",
        -9.816138124881483
      ],
      [
        "Ġcharacter",
        -9.816465932736834
      ],
      [
        "Ġrecognize",
        -9.817780335687852
      ],
      [
        "Ġinterested",
        -9.819686897862434
      ],
      [
        "Ġpool",
        -9.819713924966775
      ],
      [
        "Ġlegal",
        -9.820131900156264
      ],
      [
        "ĠEducation",
        -9.820571995261568
      ],
      [
        "Ġharmful",
        -9.821793986960492
      ],
      [
        "Ġinsight",
        -9.8237758941058
      ],
      [
        "Ġtail",
        -9.824892263191009
      ],
      [
        "Ġportion",
        -9.825147732822854
      ],
      [
        "Ġclasses",
        -9.825803317232891
      ],
      [
        "Ġzone",
        -9.825986875822188
      ],
      [
        "-in",
        -9.827201379303148
      ],
      [
        "Ġattract",
        -9.82760037128962
      ],
      [
        "Ġleader",
        -9.827604191447357
      ],
      [
        "Ġdecade",
        -9.827931589655602
      ],
      [
        "Ġreferr",
        -9.82815279614353
      ],
      [
        "ĠEurope",
        -9.82872199648341
      ],
      [
        "Ġwindow",
        -9.829270290673204
      ],
      [
        "Ġgenes",
        -9.82953629446772
      ],
      [
        "Ġcategor",
        -9.82976146543736
      ],
      [
        "Ġeconomic",
        -9.831093864807592
      ],
      [
        "Ġcheese",
        -9.83146760134928
      ],
      [
        "Ġdrawing",
        -9.831936760766808
      ],
      [
        "Ġintroduce",
        -9.83241877434985
      ],
      [
        "ture",
        -9.832575554521892
      ],
      [
        "Ġofficial",
        -9.832637516106267
      ],
      [
        "Ġocean",
        -9.832768961487089
      ],
      [
        "Ġinstrument",
        -9.833176119203394
      ],
      [
        "ĠOnc",
        -9.83378236368882
      ],
      [
        "Ġreveal",
        -9.834547271441192
      ],
      [
        "Ġcapture",
        -9.835051934440472
      ],
      [
        "Ġplate",
        -9.83522421439726
      ],
      [
        "Ġsociety",
        -9.835346407858426
      ],
      [
        "Ġdemonstrate",
        -9.835490439525088
      ],
      [
        "ur",
        -9.835626081559427
      ],
      [
        "Ġexpress",
        -9.836144373494948
      ],
      [
        "ĠService",
        -9.836569651319042
      ],
      [
        "Ġexpression",
        -9.836617235846395
      ],
      [
        "no",
        -9.836725902433646
      ],
      [
        "il",
        -9.836904871470129
      ],
      [
        "Ġlandscape",
        -9.838538393431165
      ],
      [
        "Ġhormone",
        -9.838953132803512
      ],
      [
        "Ġneck",
        -9.839187778079152
      ],
      [
        "Ġsilver",
        -9.839565212847557
      ],
      [
        "Ġpress",
        -9.84039372145341
      ],
      [
        "Ġconclusion",
        -9.840923048353371
      ],
      [
        "Ġbond",
        -9.841498009715282
      ],
      [
        "ĠJapan",
        -9.8416281254515
      ],
      [
        "Ġsit",
        -9.843501863698132
      ],
      [
        "Ġstrain",
        -9.844128173930615
      ],
      [
        "After",
        -9.844810518858656
      ],
      [
        "Ġcovered",
        -9.844869496216727
      ],
      [
        "Ġargument",
        -9.845713243524404
      ],
      [
        "Ġseal",
        -9.84669011050622
      ],
      [
        "Ġmovie",
        -9.847183792166046
      ],
      [
        "Ġequation",
        -9.847262811094645
      ],
      [
        "Ġperformed",
        -9.848450686968032
      ],
      [
        "Ġchain",
        -9.848651656314985
      ],
      [
        "Ġemail",
        -9.849317571234549
      ],
      [
        "Ġcomprehensive",
        -9.850017709822112
      ],
      [
        "Ġstraight",
        -9.850478240300976
      ],
      [
        "Ġindustrial",
        -9.851732407749688
      ],
      [
        "Ġregister",
        -9.852669213386248
      ],
      [
        "Ġprovider",
        -9.85277554982266
      ],
      [
        "Ġstomach",
        -9.85329860775488
      ],
      [
        "Ġearlie",
        -9.854223280186206
      ],
      [
        "Ġweb",
        -9.854427078089111
      ],
      [
        "Ġprefer",
        -9.85458372393408
      ],
      [
        "Ġabsorb",
        -9.855951656233987
      ],
      [
        "Ġpossibilit",
        -9.856693228362786
      ],
      [
        "-free",
        -9.85705909111549
      ],
      [
        "Ġattach",
        -9.857311422968248
      ],
      [
        "Ġdrop",
        -9.857385854326552
      ],
      [
        "Ġconvert",
        -9.857514856229232
      ],
      [
        "Ġcalorie",
        -9.858050794512067
      ],
      [
        "ĠDay",
        -9.858688610354529
      ],
      [
        "Ġbulb",
        -9.859628302091853
      ],
      [
        "Ġhunt",
        -9.859743427453024
      ],
      [
        "Ġrelevant",
        -9.860228632945136
      ],
      [
        "ĠDon",
        -9.861379257188354
      ],
      [
        "Ġrelax",
        -9.862854000159532
      ],
      [
        "Ġtransmission",
        -9.862862383237498
      ],
      [
        "Ġstain",
        -9.862887576301038
      ],
      [
        "Ġhundred",
        -9.86297636899073
      ],
      [
        "Ġpump",
        -9.863389654755478
      ],
      [
        "Ġantibiotic",
        -9.863461202807994
      ],
      [
        "Ġadvice",
        -9.864091645309715
      ],
      [
        "Ġeventual",
        -9.865117988658596
      ],
      [
        "ĠSince",
        -9.865816219007858
      ],
      [
        "Ġasked",
        -9.866511414034257
      ],
      [
        "Ġtransition",
        -9.8667229171656
      ],
      [
        "Ġlens",
        -9.868660854571766
      ],
      [
        "Ġtomato",
        -9.869342293540177
      ],
      [
        "Ġroll",
        -9.870487212897991
      ],
      [
        "Ġboat",
        -9.871433720982775
      ],
      [
        "ĠHigh",
        -9.871513647938556
      ],
      [
        "Ġcollect",
        -9.872435659601342
      ],
      [
        "Ġrid",
        -9.872519794103749
      ],
      [
        "Ġroutine",
        -9.873123731832614
      ],
      [
        "Ġprivate",
        -9.873127838945392
      ],
      [
        "Ġcore",
        -9.873268153326176
      ],
      [
        "Ġprogramm",
        -9.873577366089693
      ],
      [
        "Ġcatch",
        -9.87416668176058
      ],
      [
        "Ġagree",
        -9.874598249991347
      ],
      [
        "Ġartificial",
        -9.87524886971001
      ],
      [
        "Ġpreference",
        -9.875938029366711
      ],
      [
        "Ġbasi",
        -9.875993660556905
      ],
      [
        "Ġnice",
        -9.876272207190132
      ],
      [
        "Ġnearly",
        -9.87629040913299
      ],
      [
        "Ġdefinition",
        -9.876553640058962
      ],
      [
        "Ġcompost",
        -9.876949334968614
      ],
      [
        "Our",
        -9.877980764148653
      ],
      [
        "rought",
        -9.8798183151326
      ],
      [
        "Ġsites",
        -9.88043743932518
      ],
      [
        "Ġhelpful",
        -9.88148969950386
      ],
      [
        "Ġopinion",
        -9.885731568116912
      ],
      [
        "Ġfrequenc",
        -9.88649788499592
      ],
      [
        "ley",
        -9.887078091307512
      ],
      [
        "Ġteach",
        -9.887250777812248
      ],
      [
        "Ġegg",
        -9.888419579847906
      ],
      [
        "Ġancient",
        -9.889133927926345
      ],
      [
        "Ġcloud",
        -9.88998965267983
      ],
      [
        "Ġfunctional",
        -9.890671368879794
      ],
      [
        "Ġbirth",
        -9.892411460194731
      ],
      [
        "Ġcheap",
        -9.89290877969058
      ],
      [
        "ten",
        -9.893211116765851
      ],
      [
        "Ġinnovation",
        -9.893489912311196
      ],
      [
        "Ġdiscussion",
        -9.893532418770995
      ],
      [
        "All",
        -9.893583386402426
      ],
      [
        "Ġprocessing",
        -9.8941726339709
      ],
      [
        "That",
        -9.895564964794977
      ],
      [
        "ĠUnite",
        -9.897396160336646
      ],
      [
        "Ġstation",
        -9.898684945478143
      ],
      [
        "Ġperspective",
        -9.899042124548366
      ],
      [
        "Ġfailure",
        -9.899431063399588
      ],
      [
        "Ġmotor",
        -9.90166626641384
      ],
      [
        "Ġapart",
        -9.903312244118151
      ],
      [
        "Ġmiles",
        -9.907016921323798
      ],
      [
        "ĠDoes",
        -9.907101451552071
      ],
      [
        "way",
        -9.907114265495927
      ],
      [
        "X",
        -9.907151049110109
      ],
      [
        "Ġsports",
        -9.907607864053972
      ],
      [
        "Ġcars",
        -9.90793488506728
      ],
      [
        "Ġrespect",
        -9.910283578366997
      ],
      [
        "Ġassist",
        -9.911583401395648
      ],
      [
        "Ġlabel",
        -9.914309714891246
      ],
      [
        "Ġchannel",
        -9.914347274447998
      ],
      [
        "Ġprepared",
        -9.914866248393787
      ],
      [
        "Ġsurvey",
        -9.915903577894808
      ],
      [
        "Ġgift",
        -9.915914102631833
      ],
      [
        "Ġinsects",
        -9.916417643954595
      ],
      [
        "Ġclient",
        -9.916485532873182
      ],
      [
        "Ġhoney",
        -9.91660776903126
      ],
      [
        "ling",
        -9.917334068222107
      ],
      [
        "Ġship",
        -9.917963835205352
      ],
      [
        "times",
        -9.919654598222408
      ],
      [
        "Ġexternal",
        -9.919759748230554
      ],
      [
        "Ġtrigger",
        -9.920072431206052
      ],
      [
        "j",
        -9.92020922731592
      ],
      [
        "ized",
        -9.920517979278586
      ],
      [
        "Ġwar",
        -9.92087574155438
      ],
      [
        "Ġboost",
        -9.92100119956379
      ],
      [
        "Ġshade",
        -9.921491561237945
      ],
      [
        "Ġprimari",
        -9.92154162717532
      ],
      [
        "Ġorgan",
        -9.921933982642177
      ],
      [
        "Ġthick",
        -9.922103072969051
      ],
      [
        "Ġcreative",
        -9.922494143660591
      ],
      [
        "more",
        -9.922539301321638
      ],
      [
        "Ġvirus",
        -9.922551284584737
      ],
      [
        "Ġbeneficial",
        -9.922772039667231
      ],
      [
        "Ġdirt",
        -9.923162313661784
      ],
      [
        "Ġestablished",
        -9.92348837252336
      ],
      [
        "which",
        -9.92611881171988
      ],
      [
        "Ġresident",
        -9.926239259172966
      ],
      [
        "Ġfashion",
        -9.927024611000032
      ],
      [
        "Ġoptimal",
        -9.927554464742697
      ],
      [
        "ĠSt",
        -9.927611588429324
      ],
      [
        "Ġsuggests",
        -9.928309695714209
      ],
      [
        "Ġnumerous",
        -9.929656863025622
      ],
      [
        "Ġengage",
        -9.929879006300784
      ],
      [
        "Ġadopt",
        -9.930044623028683
      ],
      [
        "Ġformation",
        -9.930107508192998
      ],
      [
        "Ġvariation",
        -9.93013758570014
      ],
      [
        "Ġplanting",
        -9.931218831503
      ],
      [
        "ĠPeople",
        -9.931368649439666
      ],
      [
        "Ġflat",
        -9.934587808370512
      ],
      [
        "Ġpot",
        -9.934592403235278
      ],
      [
        "Ġdistribution",
        -9.93728603109474
      ],
      [
        "ĠKeep",
        -9.937427975099416
      ],
      [
        "Ġtechnical",
        -9.93758329703394
      ],
      [
        "Ġautomatic",
        -9.93989572593527
      ],
      [
        "Ġremote",
        -9.940205696286563
      ],
      [
        "Ġstatus",
        -9.940483270810844
      ],
      [
        "ĠWhether",
        -9.941252449017366
      ],
      [
        "Ġzero",
        -9.941938503713832
      ],
      [
        "Ġcoat",
        -9.942008663459443
      ],
      [
        "Ġemotional",
        -9.942016362240809
      ],
      [
        "Ġpolicy",
        -9.943147495408954
      ],
      [
        "Are",
        -9.943181670570592
      ],
      [
        "ĠBritish",
        -9.945380703599838
      ],
      [
        "Ġconsume",
        -9.945812534551775
      ],
      [
        "tiny",
        -9.945896138251914
      ],
      [
        "Ġcalculate",
        -9.946188875903168
      ],
      [
        "Ġintend",
        -9.94660478659603
      ],
      [
        "kept",
        -9.947079120154712
      ],
      [
        "Ġpets",
        -9.94729524903913
      ],
      [
        "Ġapproximately",
        -9.947456437842916
      ],
      [
        "Ġmeter",
        -9.948241084767991
      ],
      [
        "Ġmolecules",
        -9.948676629984188
      ],
      [
        "ĠWest",
        -9.949011353639762
      ],
      [
        "Ġcarrie",
        -9.950178999421247
      ],
      [
        "ĠEuropean",
        -9.953203516958231
      ],
      [
        "Ġdynamic",
        -9.953623544550624
      ],
      [
        "Ġcollege",
        -9.95444211098956
      ],
      [
        "Ġmask",
        -9.955280366976536
      ],
      [
        "Ġidentifie",
        -9.955686445953834
      ],
      [
        "ĠFebruary",
        -9.95629096883755
      ],
      [
        "Ġmonitoring",
        -9.956686303899358
      ],
      [
        "Ġoffering",
        -9.95717756322724
      ],
      [
        "Yes",
        -9.95769958189708
      ],
      [
        "Ġphotos",
        -9.95832175694737
      ],
      [
        "Ġcake",
        -9.959338245906142
      ],
      [
        "ĠGoogle",
        -9.96046181518826
      ],
      [
        "Ġeducational",
        -9.960920406456497
      ],
      [
        "Ġconservation",
        -9.96099381842644
      ],
      [
        "Ġconsequence",
        -9.961238765797969
      ],
      [
        "Ġharm",
        -9.96148769390602
      ],
      [
        "Ġmorning",
        -9.961904700339687
      ],
      [
        "Ġanxiet",
        -9.963782061628018
      ],
      [
        "Ġdrug",
        -9.964080181686189
      ],
      [
        "Ġchoos",
        -9.964433030463162
      ],
      [
        "Ġoperate",
        -9.965271120042438
      ],
      [
        "like",
        -9.965803406045932
      ],
      [
        "Ġheal",
        -9.96617069543584
      ],
      [
        "Ġmold",
        -9.967825198648896
      ],
      [
        "Ġminimum",
        -9.968395088964876
      ],
      [
        "Ġnerve",
        -9.968411554379966
      ],
      [
        "Conclusion",
        -9.968411696221146
      ],
      [
        "for",
        -9.969276274211284
      ],
      [
        "Ġthin",
        -9.96949530309098
      ],
      [
        "-being",
        -9.970287517587312
      ],
      [
        "Ġspeaker",
        -9.971264562293127
      ],
      [
        "Ġmeeting",
        -9.97157863395566
      ],
      [
        "Ġpercentage",
        -9.972686831388105
      ],
      [
        "ĠStep",
        -9.972784925696024
      ],
      [
        "ial",
        -9.97280156889664
      ],
      [
        "Ġguideline",
        -9.973160472559764
      ],
      [
        "ĠY",
        -9.973820160268932
      ],
      [
        "Ġrealize",
        -9.974014060706027
      ],
      [
        "Ġsurvive",
        -9.97433705057614
      ],
      [
        "Ġsteel",
        -9.975601988722216
      ],
      [
        "-year",
        -9.976180522739911
      ],
      [
        "Ġvalve",
        -9.976191060030215
      ],
      [
        "Ġaudio",
        -9.977984918183218
      ],
      [
        "Ġisland",
        -9.978872624638706
      ],
      [
        "Ġguid",
        -9.97895681078808
      ],
      [
        "Ġbowl",
        -9.979126361214105
      ],
      [
        "Ġprepare",
        -9.98115425341826
      ],
      [
        "Ġoperations",
        -9.982658512009666
      ],
      [
        "Ġhazard",
        -9.983180188542466
      ],
      [
        "ĠDec",
        -9.98353777882864
      ],
      [
        "ant",
        -9.984704251179943
      ],
      [
        "Ġshot",
        -9.98625036449141
      ],
      [
        "Ġquilt",
        -9.986729454945705
      ],
      [
        "Ġreliabl",
        -9.986808848605708
      ],
      [
        "Ġultimate",
        -9.987063488230302
      ],
      [
        "Ġmarine",
        -9.987464491342838
      ],
      [
        "ĠMarch",
        -9.98795369536914
      ],
      [
        "Ġdish",
        -9.988403944314811
      ],
      [
        "un",
        -9.98865754165153
      ],
      [
        "Ġmode",
        -9.98867232138317
      ],
      [
        "Ġshar",
        -9.988937809770448
      ],
      [
        "Ġmaster",
        -9.98961446251982
      ],
      [
        "ĠFood",
        -9.9897678704606
      ],
      [
        "Ġbroad",
        -9.992016164529776
      ],
      [
        "ĠAct",
        -9.99210448295295
      ],
      [
        "Ġattend",
        -9.99351834082231
      ],
      [
        "Ġlifestyle",
        -9.993933592227656
      ],
      [
        "ĠGod",
        -9.993980032323716
      ],
      [
        "ĠWell",
        -9.994127632869942
      ],
      [
        "Ġintelligence",
        -9.995412210831937
      ],
      [
        "Ġindependent",
        -9.996450088960549
      ],
      [
        "ĠCO",
        -9.99666040869575
      ],
      [
        "Ġleaf",
        -9.997017082291697
      ],
      [
        "Ġcreation",
        -9.997776605972916
      ],
      [
        "Ġsnake",
        -9.999672529562307
      ],
      [
        "Ġfight",
        -10.00066266791885
      ],
      [
        "Ġthorough",
        -10.00148466532016
      ],
      [
        "Ġthrow",
        -10.002360324729068
      ],
      [
        "Ġtight",
        -10.005288637549594
      ],
      [
        "Ġprecise",
        -10.005562892775297
      ],
      [
        "Ġreduction",
        -10.00574874577305
      ],
      [
        "Ġinvestment",
        -10.00601251080082
      ],
      [
        "Ġenzyme",
        -10.006115595682768
      ],
      [
        "Ġsuper",
        -10.007762601734598
      ],
      [
        "ball",
        -10.007996055774932
      ],
      [
        "Ġbike",
        -10.008369675503335
      ],
      [
        "Ġimplement",
        -10.008399562817145
      ],
      [
        "Ġrequest",
        -10.009018423911913
      ],
      [
        "-friendl",
        -10.009084997545704
      ],
      [
        "ma",
        -10.009786731056796
      ],
      [
        "Ġbread",
        -10.009868583528124
      ],
      [
        "Ġinteract",
        -10.010560161466056
      ],
      [
        "Ġfirm",
        -10.011134856422151
      ],
      [
        "Ġcapabilit",
        -10.012121436648574
      ],
      [
        "men",
        -10.01279711933344
      ],
      [
        "ĠRed",
        -10.013399939462005
      ],
      [
        "Ġfeeding",
        -10.014877146670448
      ],
      [
        "emergency",
        -10.015979245929229
      ],
      [
        "Ġfurni",
        -10.01605055524744
      ],
      [
        "Ġ...ĊĊ",
        -10.016305567675564
      ],
      [
        "Ġcontinuous",
        -10.016846859478406
      ],
      [
        "Ġlung",
        -10.017525481248118
      ],
      [
        "Ġlayers",
        -10.017965082387438
      ],
      [
        "ĠStudent",
        -10.019226460670309
      ],
      [
        "Ġapprove",
        -10.020962315355758
      ],
      [
        "Ġlift",
        -10.021898543854473
      ],
      [
        "Ġsmart",
        -10.021993178440145
      ],
      [
        "Ġbooks",
        -10.022238453818169
      ],
      [
        "Ġsupplie",
        -10.02281620984806
      ],
      [
        "Florida",
        -10.023768402053427
      ],
      [
        "Ġstructural",
        -10.024203673532073
      ],
      [
        "ĠSept",
        -10.024562179658377
      ],
      [
        "Ġmembrane",
        -10.02465655744996
      ],
      [
        "Ġcrack",
        -10.024900269738827
      ],
      [
        "Ġbear",
        -10.024961839591535
      ],
      [
        "itis",
        -10.025925271557334
      ],
      [
        "Ġimprovement",
        -10.02596226194678
      ],
      [
        "Your",
        -10.026644950724169
      ],
      [
        "Ġartist",
        -10.02699701607822
      ],
      [
        "Ġkitchen",
        -10.027562134754294
      ],
      [
        "Ġbottle",
        -10.027582597898462
      ],
      [
        "Ġresponsibilit",
        -10.027798857287229
      ],
      [
        "ĠGreen",
        -10.027898572316689
      ],
      [
        "osis",
        -10.028034749819732
      ],
      [
        "Ġreceptor",
        -10.028130609506473
      ],
      [
        "Ġpilot",
        -10.028624919480864
      ],
      [
        "Ġband",
        -10.028768388845824
      ],
      [
        "Ġchalleng",
        -10.029279840043174
      ],
      [
        "Ġgap",
        -10.029401078289991
      ],
      [
        "Ġratio",
        -10.029745709346454
      ],
      [
        "Ġoven",
        -10.031926708381729
      ],
      [
        "Ġriver",
        -10.033395474649552
      ],
      [
        "ĠDesign",
        -10.033905050243163
      ],
      [
        "Answer",
        -10.034028921273483
      ],
      [
        "Ġentit",
        -10.034184967829349
      ],
      [
        "Ġseat",
        -10.034522531963743
      ],
      [
        "Ġlawn",
        -10.03484837439423
      ],
      [
        "Ġcolon",
        -10.03636851169056
      ],
      [
        "Ġsuffer",
        -10.03644301049361
      ],
      [
        "Ġsaying",
        -10.03652480788164
      ],
      [
        "Ġhole",
        -10.037555693473845
      ],
      [
        "Ġputt",
        -10.037695161448749
      ],
      [
        "Ġblend",
        -10.038057022292444
      ],
      [
        "Ġauto",
        -10.038276810305408
      ],
      [
        "Â·",
        -10.039058464428445
      ],
      [
        "Ġdescription",
        -10.039799530479437
      ],
      [
        "Ġnail",
        -10.040426891533585
      ],
      [
        "Ġtrade",
        -10.040766274044763
      ],
      [
        "Ġleav",
        -10.04093429304453
      ],
      [
        "Ġexamine",
        -10.041563861606445
      ],
      [
        "Ġplent",
        -10.043039850507729
      ],
      [
        "Ġconversation",
        -10.04306912731404
      ],
      [
        "ĠPlant",
        -10.04350245054785
      ],
      [
        "ĠNov",
        -10.043668745062332
      ],
      [
        "Ġobvious",
        -10.043733521598538
      ],
      [
        "Ġdecided",
        -10.044825558044876
      ],
      [
        "Ġdisorder",
        -10.044982738708962
      ],
      [
        "ĠChina",
        -10.045146168129705
      ],
      [
        "ĠAir",
        -10.045560475558412
      ],
      [
        "Ġsnow",
        -10.046352990181395
      ],
      [
        "water",
        -10.04718020099941
      ],
      [
        "Ġbiological",
        -10.047455816392532
      ],
      [
        "Ġassume",
        -10.04783404919759
      ],
      [
        "My",
        -10.04848508989002
      ],
      [
        "Ġprotective",
        -10.048532871887538
      ],
      [
        "Ġdecide",
        -10.049447200553937
      ],
      [
        "Ġbreeding",
        -10.050252448273518
      ],
      [
        "Ġcharacters",
        -10.050302247325456
      ],
      [
        "Ġsector",
        -10.050775769405668
      ],
      [
        "Ġincredibl",
        -10.050976429364267
      ],
      [
        "ĠJune",
        -10.052747914178646
      ],
      [
        "Ġtitle",
        -10.054110917289314
      ],
      [
        "Ġconcrete",
        -10.05486202327666
      ],
      [
        "Ġdestroy",
        -10.055797628111044
      ],
      [
        "Ġutilize",
        -10.056044105796351
      ],
      [
        "Ġcream",
        -10.05610739140503
      ],
      [
        "ĠEnergy",
        -10.05619467806743
      ],
      [
        "Ġschedule",
        -10.056867230156694
      ],
      [
        "Ġstable",
        -10.057799561989452
      ],
      [
        "Ġfossil",
        -10.058241238649616
      ],
      [
        "Ġeliminate",
        -10.058487735001172
      ],
      [
        "Ġgreenhouse",
        -10.058567987399732
      ],
      [
        "BIM",
        -10.05880821822606
      ],
      [
        "Ġatmosphere",
        -10.059146238723669
      ],
      [
        "ĠLearn",
        -10.060226749540224
      ],
      [
        "Ġemotion",
        -10.061106830065617
      ],
      [
        "Ġsensitive",
        -10.061715439777483
      ],
      [
        "Ġtru",
        -10.063568010845062
      ],
      [
        "ĠFrench",
        -10.06416409360537
      ],
      [
        "Ġbrush",
        -10.06488007466711
      ],
      [
        "Ġdrugs",
        -10.064920690263929
      ],
      [
        "Ġfacility",
        -10.065621025589609
      ],
      [
        "Onc",
        -10.065624866859412
      ],
      [
        "Ġdishe",
        -10.065786955518083
      ],
      [
        "Ġdigesti",
        -10.066733585093893
      ],
      [
        "Ġmanual",
        -10.069093803077504
      ],
      [
        "Ġexcessive",
        -10.070487141939813
      ],
      [
        "made",
        -10.070857198487117
      ],
      [
        "Ġnovel",
        -10.071024297564067
      ],
      [
        "ĠCanada",
        -10.071406639109885
      ],
      [
        "Ġadvance",
        -10.07182951528256
      ],
      [
        "Ġlake",
        -10.071868337510573
      ],
      [
        "ĠLook",
        -10.072289450379234
      ],
      [
        "Ġblind",
        -10.072539561071238
      ],
      [
        "Ġnest",
        -10.074297676982896
      ],
      [
        "Ġconstruct",
        -10.074323501811891
      ],
      [
        "Ġeight",
        -10.074345600935835
      ],
      [
        "Ġten",
        -10.07479246730109
      ],
      [
        "Ġreplacement",
        -10.07498821335693
      ],
      [
        "ĠYork",
        -10.075809948467576
      ],
      [
        "Ġdirector",
        -10.078134275464947
      ],
      [
        "Ġcm",
        -10.078697454252984
      ],
      [
        "ĠTime",
        -10.078698624584051
      ],
      [
        "Ġwheel",
        -10.079023515701545
      ],
      [
        "ard",
        -10.080562579812534
      ],
      [
        "Ġwet",
        -10.08062270901466
      ],
      [
        "Ġsymbol",
        -10.081611165948242
      ],
      [
        "Ġcompetition",
        -10.082369031036947
      ],
      [
        "-on",
        -10.082780662772546
      ],
      [
        "Ġprofessionals",
        -10.082841123545393
      ],
      [
        "Ġchair",
        -10.083082410512612
      ],
      [
        "Ġcredit",
        -10.083404451589429
      ],
      [
        "Ġcookie",
        -10.083671784833257
      ],
      [
        "Ġrough",
        -10.083790487896026
      ],
      [
        "ĠOver",
        -10.086927402096295
      ],
      [
        "what",
        -10.086936602541403
      ],
      [
        "ĠGreat",
        -10.0874663311204
      ],
      [
        "Ġsufficient",
        -10.088127107982444
      ],
      [
        "Ġvisibl",
        -10.08860076661865
      ],
      [
        "ĠSea",
        -10.08945040561296
      ],
      [
        "Ġmainly",
        -10.089540039957216
      ],
      [
        "Ġbudget",
        -10.090810510488328
      ],
      [
        "Ġdensit",
        -10.09160419197592
      ],
      [
        "Ġbroken",
        -10.09227446557935
      ],
      [
        "ĠLike",
        -10.092290000434389
      ],
      [
        "Ġdisorders",
        -10.092346106718985
      ],
      [
        "Use",
        -10.092827939426044
      ],
      [
        "Ġclinical",
        -10.093425138935537
      ],
      [
        "Ġgrade",
        -10.094459925452847
      ],
      [
        "not",
        -10.094702261542198
      ],
      [
        "Ġowner",
        -10.095277214007204
      ],
      [
        "More",
        -10.095345879183329
      ],
      [
        "ought",
        -10.095488556435509
      ],
      [
        "Ġcard",
        -10.095690568305749
      ],
      [
        "Ġborn",
        -10.095708916767482
      ],
      [
        "Ġmanag",
        -10.096266678493638
      ],
      [
        "Ġconsideration",
        -10.09762434872652
      ],
      [
        "Ġoccurr",
        -10.09827421202218
      ],
      [
        "Ġassembl",
        -10.099511795252283
      ],
      [
        "ĠUn",
        -10.099916373605517
      ],
      [
        "Ġcommand",
        -10.100963315833862
      ],
      [
        "Ġblog",
        -10.10099024299123
      ],
      [
        "Ġstock",
        -10.101774678403777
      ],
      [
        "ible",
        -10.10216725433084
      ],
      [
        "ĠTest",
        -10.102207196297975
      ],
      [
        "Ġpregnanc",
        -10.10230486841312
      ],
      [
        "J",
        -10.102387255088429
      ],
      [
        "Ġfail",
        -10.102417075515294
      ],
      [
        "Ġsenior",
        -10.102694906393054
      ],
      [
        "Ġintake",
        -10.10297212954265
      ],
      [
        "Ġsuit",
        -10.10322045206685
      ],
      [
        "Ġattribute",
        -10.104628354158798
      ],
      [
        "Ġvs",
        -10.105605917474378
      ],
      [
        "Ġcreature",
        -10.106810120799643
      ],
      [
        "Ġintervention",
        -10.10706894392051
      ],
      [
        "Ġparameter",
        -10.108763788485843
      ],
      [
        "ĠHis",
        -10.109243514858452
      ],
      [
        "Ġstrateg",
        -10.109475100501054
      ],
      [
        "Ġprofit",
        -10.1108563051777
      ],
      [
        "ĠEvery",
        -10.110978491032292
      ],
      [
        "Ġinvolv",
        -10.111542931762765
      ],
      [
        "Ġinstallation",
        -10.111702599042795
      ],
      [
        "Ġwish",
        -10.111897318819612
      ],
      [
        "Ġleak",
        -10.112859336291915
      ],
      [
        "Ġtri",
        -10.112935196606008
      ],
      [
        "Ġworry",
        -10.11300065254419
      ],
      [
        "Ġincorporate",
        -10.11352377949528
      ],
      [
        "Ġwhatever",
        -10.114213694470983
      ],
      [
        "Ġpainting",
        -10.114230487434188
      ],
      [
        "Ġjump",
        -10.114286170358096
      ],
      [
        "Ġdelicious",
        -10.115092117309754
      ],
      [
        "Ġunits",
        -10.115238788485591
      ],
      [
        "Ġconfirm",
        -10.115293428912858
      ],
      [
        "Ġorigin",
        -10.115325355795866
      ],
      [
        "Ġdelay",
        -10.115705213517526
      ],
      [
        "Ġstorie",
        -10.11582632280859
      ],
      [
        "Ġfinger",
        -10.116158798229948
      ],
      [
        "Ġcommunicate",
        -10.11749695673776
      ],
      [
        "Ġfacilit",
        -10.119865587294871
      ],
      [
        "Ġtall",
        -10.12022606762454
      ],
      [
        "Ġprove",
        -10.120573932587067
      ],
      [
        "Ġbees",
        -10.120777069284877
      ],
      [
        "Ġloop",
        -10.122021612445732
      ],
      [
        "Ġgold",
        -10.122479207764703
      ],
      [
        "Ġradio",
        -10.123291165878896
      ],
      [
        "ĠCollege",
        -10.124309306742523
      ],
      [
        "Most",
        -10.124456758131938
      ],
      [
        "Ġsaving",
        -10.124639900608452
      ],
      [
        "Ġprior",
        -10.125714725480996
      ],
      [
        "ĠData",
        -10.126407757907891
      ],
      [
        "ĠIndian",
        -10.126419431420375
      ],
      [
        "Ġdimension",
        -10.126714787258154
      ],
      [
        "ĠHome",
        -10.127370468630971
      ],
      [
        "Ġroof",
        -10.12762133926623
      ],
      [
        "Ġparticipant",
        -10.12764416299432
      ],
      [
        "Ġchose",
        -10.127782533278236
      ],
      [
        "Ġalcohol",
        -10.12807467756504
      ],
      [
        "Ġweed",
        -10.129419623191442
      ],
      [
        "rice",
        -10.129625262992608
      ],
      [
        "Ġtea",
        -10.130023576784016
      ],
      [
        "Ġlie",
        -10.13130260661131
      ],
      [
        "ĠAugust",
        -10.131466220385596
      ],
      [
        "Ġsudden",
        -10.131863693397907
      ],
      [
        "Ġkidney",
        -10.13190983582977
      ],
      [
        "with",
        -10.132201727162656
      ],
      [
        "Ġlab",
        -10.132340896947031
      ],
      [
        "&",
        -10.132347935783695
      ],
      [
        "-related",
        -10.132403345401777
      ],
      [
        "ĠWhere",
        -10.133228160956032
      ],
      [
        "Ġvariant",
        -10.133753989104685
      ],
      [
        "ĠJohn",
        -10.134308637010545
      ],
      [
        "Ġdetermined",
        -10.134570149669454
      ],
      [
        "sium",
        -10.13507769085288
      ],
      [
        "Ġminimize",
        -10.135566240800005
      ],
      [
        "ĠPark",
        -10.136129751486644
      ],
      [
        "ver",
        -10.136465766309636
      ],
      [
        "Ġdefinite",
        -10.136826781517025
      ],
      [
        "ng",
        -10.137300745581882
      ],
      [
        "Ġseven",
        -10.138109848736487
      ],
      [
        "Ġformat",
        -10.140387321602688
      ],
      [
        "that",
        -10.140393874257528
      ],
      [
        "Ġappeal",
        -10.14049078986686
      ],
      [
        "Ġpackage",
        -10.140847271567733
      ],
      [
        "Ġobjective",
        -10.140947659907129
      ],
      [
        "ĠJanu",
        -10.14276971696136
      ],
      [
        "-time",
        -10.143836741056228
      ],
      [
        "Ġestablish",
        -10.143897852437128
      ],
      [
        "Ġdistinct",
        -10.144825992257996
      ],
      [
        "First",
        -10.146148378407316
      ],
      [
        "Be",
        -10.146731694239996
      ],
      [
        "urthermore",
        -10.14677465820412
      ],
      [
        "Ġextensive",
        -10.148932797032437
      ],
      [
        "Ġversatil",
        -10.149005064143836
      ],
      [
        "Ġdiagram",
        -10.149084535376794
      ],
      [
        "Ġwound",
        -10.149326879693277
      ],
      [
        "Ġrow",
        -10.149666041841346
      ],
      [
        "Ġpermanent",
        -10.149723655364838
      ],
      [
        "most",
        -10.150096690520485
      ],
      [
        "ĠWar",
        -10.151572717897768
      ],
      [
        "Ġprofile",
        -10.151728488433568
      ],
      [
        "Ġsurprise",
        -10.153231874731109
      ],
      [
        "Ġinternet",
        -10.15333014948877
      ],
      [
        "Ġbrief",
        -10.153788937810004
      ],
      [
        "Ġbillion",
        -10.154132205406247
      ],
      [
        "Ġrandom",
        -10.154511556774276
      ],
      [
        "co",
        -10.15509847659816
      ],
      [
        "Z",
        -10.155671926193165
      ],
      [
        "Ġcultural",
        -10.15639096374175
      ],
      [
        "Ġcalci",
        -10.15672757550567
      ],
      [
        "Ġfear",
        -10.15734018464697
      ],
      [
        "Ġvessel",
        -10.157569121229807
      ],
      [
        "how",
        -10.157603190818293
      ],
      [
        "tability",
        -10.159704118743065
      ],
      [
        "Ġhid",
        -10.159936144884576
      ],
      [
        "Ġfarmers",
        -10.160306218392218
      ],
      [
        "Ġca",
        -10.161393531320511
      ],
      [
        "Ġbean",
        -10.161432081913654
      ],
      [
        "OVID",
        -10.162004895794222
      ],
      [
        "Ġgenerator",
        -10.16211663918213
      ],
      [
        "Ġmanager",
        -10.162314287971022
      ],
      [
        "iness",
        -10.162561139339
      ],
      [
        "Ġfundamental",
        -10.162721339449744
      ],
      [
        "Ġguy",
        -10.162949951336309
      ],
      [
        "Ġmission",
        -10.164324389549591
      ],
      [
        "ĠGo",
        -10.16617395166066
      ],
      [
        "Ġrabbit",
        -10.166278412365834
      ],
      [
        "Ġfoster",
        -10.166284412945348
      ],
      [
        "Ġbill",
        -10.16777589059866
      ],
      [
        "Ġjournal",
        -10.167823780865062
      ],
      [
        "ĠSan",
        -10.169463557345294
      ],
      [
        "Ġscenario",
        -10.170661824139684
      ],
      [
        "Ġyield",
        -10.171046455791547
      ],
      [
        "Ġsauce",
        -10.1712538306346
      ],
      [
        "Ġdomain",
        -10.171542690790032
      ],
      [
        "Ġwoman",
        -10.17230116714465
      ],
      [
        "Ġpro",
        -10.173056403760857
      ],
      [
        "Ġaccident",
        -10.17329542363985
      ],
      [
        "Ġwindows",
        -10.173818552633133
      ],
      [
        "Ġonion",
        -10.174144667447989
      ],
      [
        "ĠPower",
        -10.174404243283234
      ],
      [
        "ĠInternational",
        -10.175094154110983
      ],
      [
        "Ġinsulin",
        -10.175101836591953
      ],
      [
        "Ġpreparation",
        -10.175305892749684
      ],
      [
        "Ġshoes",
        -10.175390639504316
      ],
      [
        "Ġquantit",
        -10.176194207615072
      ],
      [
        "Ġbloom",
        -10.176224463672888
      ],
      [
        "ĠChoos",
        -10.176644371728957
      ],
      [
        "ions",
        -10.176997387777812
      ],
      [
        "Ġcoal",
        -10.177100734622574
      ],
      [
        "Ġnation",
        -10.17795292198727
      ],
      [
        "Ġpond",
        -10.178859119944468
      ],
      [
        "desired",
        -10.18011647585611
      ],
      [
        "Ġpan",
        -10.181894401936896
      ],
      [
        "Ġspecialize",
        -10.182373593529809
      ],
      [
        "Ġcraft",
        -10.1835091474392
      ],
      [
        "Ġbeauty",
        -10.18393611031287
      ],
      [
        "Ġobservation",
        -10.184687458387604
      ],
      [
        "Ġlimestone",
        -10.185770540047898
      ],
      [
        "ĠGet",
        -10.18611198845342
      ],
      [
        "Ġinner",
        -10.18650297743081
      ],
      [
        "Ġauthorit",
        -10.186797946423942
      ],
      [
        "Ġspin",
        -10.187076984446852
      ],
      [
        "Ġscore",
        -10.187974041303422
      ],
      [
        "Ġrespirator",
        -10.18867993150272
      ],
      [
        "Ġpowder",
        -10.188790614280167
      ],
      [
        "ssistance",
        -10.189538212235414
      ],
      [
        "Ġmobile",
        -10.189676843790227
      ],
      [
        "Ġmechanical",
        -10.18980429877174
      ],
      [
        "Ġmolecular",
        -10.190233798701367
      ],
      [
        "ĠAbou",
        -10.190557507489132
      ],
      [
        "ĠCount",
        -10.190772395934982
      ],
      [
        "According",
        -10.1910923565286
      ],
      [
        "Ġstring",
        -10.191188684202904
      ],
      [
        "Ġcircle",
        -10.19200407052424
      ],
      [
        "Ġsizes",
        -10.192385806580194
      ],
      [
        "Ġsecret",
        -10.192705977946265
      ],
      [
        "Ġdedicate",
        -10.192994601927037
      ],
      [
        "|Ċ",
        -10.193291835766
      ],
      [
        "Ġtoxic",
        -10.19378549437038
      ],
      [
        "Ġsharp",
        -10.195034877322207
      ],
      [
        "ĠQ",
        -10.196000680920417
      ],
      [
        "Ġflood",
        -10.197097179785809
      ],
      [
        "Ġplug",
        -10.197936661695136
      ],
      [
        "Ġcampaign",
        -10.198435750011509
      ],
      [
        "}",
        -10.199173606317164
      ],
      [
        "Ġwouldn",
        -10.199732853637464
      ],
      [
        "ĠTechnolog",
        -10.200182489739769
      ],
      [
        "Ġtooth",
        -10.200197510818356
      ],
      [
        "spent",
        -10.20032771007822
      ],
      [
        "Ġtie",
        -10.200493552629483
      ],
      [
        "Ġbite",
        -10.20088988882252
      ],
      [
        "Ġfloat",
        -10.200912284212514
      ],
      [
        "ĠAustralian",
        -10.20208067154365
      ],
      [
        "Ġopening",
        -10.202295498077117
      ],
      [
        "Ġherb",
        -10.202366719142052
      ],
      [
        "Ġwash",
        -10.202660463942308
      ],
      [
        "ĠAfrican",
        -10.203025480469112
      ],
      [
        "Ġbank",
        -10.203072292785238
      ],
      [
        "Ġencounter",
        -10.203692879510402
      ],
      [
        "Ġmelt",
        -10.203897686520405
      ],
      [
        "Ġpredator",
        -10.20392706813248
      ],
      [
        "Ġcontrolle",
        -10.204148729005524
      ],
      [
        "thus",
        -10.20419111839984
      ],
      [
        "Ġgirl",
        -10.20707711975246
      ],
      [
        "Ġinnovative",
        -10.207312602312513
      ],
      [
        "ways",
        -10.207699722533718
      ],
      [
        "Ġderive",
        -10.207832373287047
      ],
      [
        "Ġlaunch",
        -10.20814377482503
      ],
      [
        "Ġadequate",
        -10.208847610827426
      ],
      [
        "ĠCheck",
        -10.21031210471558
      ],
      [
        "Ġthermal",
        -10.21046013209508
      ],
      [
        "Ġimagine",
        -10.210640884726512
      ],
      [
        "Ġedit",
        -10.211192361031236
      ],
      [
        "Ġrestaurant",
        -10.211201513115128
      ],
      [
        "ification",
        -10.21123463234365
      ],
      [
        "Ġclub",
        -10.211424978977764
      ],
      [
        "Ġradiation",
        -10.21148426422458
      ],
      [
        "Ġdatabase",
        -10.211999729216748
      ],
      [
        "Ġsolve",
        -10.212339257734149
      ],
      [
        "Ġsupplement",
        -10.21384805302757
      ],
      [
        "eath",
        -10.213995099368068
      ],
      [
        "Ġloose",
        -10.214051191764764
      ],
      [
        "Ġshrub",
        -10.215900168352915
      ],
      [
        "Ġdream",
        -10.216802042538095
      ],
      [
        "Ġthrive",
        -10.217294932466416
      ],
      [
        "Ġpure",
        -10.217498432698427
      ],
      [
        "Ġkg",
        -10.2179218178485
      ],
      [
        "Ġexplor",
        -10.218155744274654
      ],
      [
        "Ġdivide",
        -10.219130441580171
      ],
      [
        "Ġcollected",
        -10.219518269533523
      ],
      [
        "Ġinvest",
        -10.219825911187703
      ],
      [
        "Ġcooked",
        -10.220148037592825
      ],
      [
        "Ġunlike",
        -10.2211700990858
      ],
      [
        "Ġshell",
        -10.221563041693628
      ],
      [
        "Ġsport",
        -10.22192713819548
      ],
      [
        "ca",
        -10.22259244497874
      ],
      [
        "Ġconsult",
        -10.222619412585972
      ],
      [
        "ĠPro",
        -10.224417890133887
      ],
      [
        "ge",
        -10.224589189667114
      ],
      [
        "Ġguess",
        -10.224859858256014
      ],
      [
        "Ġbarrier",
        -10.225721650730646
      ],
      [
        "Ġfeedback",
        -10.225776177521638
      ],
      [
        "Ġshowing",
        -10.22612108666733
      ],
      [
        "Ġdust",
        -10.228074206336858
      ],
      [
        "Ġcurve",
        -10.228339130320492
      ],
      [
        "Ġexhibit",
        -10.229250090504353
      ],
      [
        "Ġcalm",
        -10.229531029291811
      ],
      [
        "Children",
        -10.229534211104893
      ],
      [
        "Ġconsum",
        -10.230125200525771
      ],
      [
        "Ġcharging",
        -10.230159365012964
      ],
      [
        "Let",
        -10.230311428867704
      ],
      [
        "Ġsmell",
        -10.230361140737418
      ],
      [
        "Ġprey",
        -10.23183554427242
      ],
      [
        "Ġtraffic",
        -10.233262266447433
      ],
      [
        "Ġprofessor",
        -10.23418124561406
      ],
      [
        "Ġobes",
        -10.234181912153128
      ],
      [
        "Ġconfiden",
        -10.234447181286216
      ],
      [
        "Ġabsolute",
        -10.234699564854962
      ],
      [
        "Ġvisitor",
        -10.235065089288629
      ],
      [
        "Ġformula",
        -10.23511250982595
      ],
      [
        "Ġrecorded",
        -10.235299467928517
      ],
      [
        "Ġdesigner",
        -10.23535978727691
      ],
      [
        "Ġliver",
        -10.235737717328274
      ],
      [
        "Ġlay",
        -10.236335283216416
      ],
      [
        "ĠAsia",
        -10.237595723185407
      ],
      [
        "ĠGood",
        -10.23837548557682
      ],
      [
        "ĠAny",
        -10.23863424958381
      ],
      [
        "âĢĺ",
        -10.2388698229893
      ],
      [
        "Ġfertilizer",
        -10.239698209539906
      ],
      [
        "Ġtrial",
        -10.240186142328149
      ],
      [
        "Ġgrant",
        -10.240243542844528
      ],
      [
        "Ġcalculation",
        -10.24035620680983
      ],
      [
        "Ġexciting",
        -10.24036986402468
      ],
      [
        "ĠCo",
        -10.24108211695746
      ],
      [
        "Ġillustrate",
        -10.241511253110405
      ],
      [
        "Ġsmoke",
        -10.241936185324953
      ],
      [
        "Ġarray",
        -10.242092178568772
      ],
      [
        "tion",
        -10.243170241967228
      ],
      [
        "Ġaudience",
        -10.243586671214002
      ],
      [
        "Ġpassenger",
        -10.243588514392032
      ],
      [
        "Ġamazing",
        -10.243882369091194
      ],
      [
        "Ġinterior",
        -10.243883030897264
      ],
      [
        "ĠTake",
        -10.244119676443308
      ],
      [
        "Ġinterface",
        -10.244341133141226
      ],
      [
        "Ġvector",
        -10.244876046145963
      ],
      [
        "Ġrecommendation",
        -10.245282602180655
      ],
      [
        "Ġtip",
        -10.245537028568297
      ],
      [
        "ĠLearning",
        -10.24590027898428
      ],
      [
        "Ġdebri",
        -10.247219607510322
      ],
      [
        "He",
        -10.24741810262061
      ],
      [
        "Ġblade",
        -10.248330842441598
      ],
      [
        "Ġmild",
        -10.248802283425862
      ],
      [
        "Ġvast",
        -10.248865442682304
      ],
      [
        "Ġnose",
        -10.248942150203456
      ],
      [
        "Ġacademic",
        -10.249147204105736
      ],
      [
        "uch",
        -10.249464946020591
      ],
      [
        "ĠJul",
        -10.25119448644439
      ],
      [
        "ĠWhite",
        -10.251266252589428
      ],
      [
        "Ġroute",
        -10.25136641555168
      ],
      [
        "ĠRemember",
        -10.251778445966652
      ],
      [
        "\\",
        -10.252657970485297
      ],
      [
        "Ġcontrast",
        -10.252863349044636
      ],
      [
        "Ġmassive",
        -10.25425330411838
      ],
      [
        "ĠBoth",
        -10.255334792161484
      ],
      [
        "going",
        -10.25638161859096
      ],
      [
        "Ġgraph",
        -10.257542159231232
      ],
      [
        "Ġflour",
        -10.257720616237116
      ],
      [
        "Ġprompt",
        -10.257872685268868
      ],
      [
        "Ġvegan",
        -10.25792124585602
      ],
      [
        "Introduction",
        -10.257924692193736
      ],
      [
        "Ġcombined",
        -10.25849731930437
      ],
      [
        "Ġforget",
        -10.258599397347556
      ],
      [
        "ĠIsland",
        -10.258718579974229
      ],
      [
        "Ġfan",
        -10.25898632862486
      ],
      [
        "Ġmicro",
        -10.25954332549449
      ],
      [
        "Ġwearing",
        -10.259679833685029
      ],
      [
        "Ġremoval",
        -10.25987033167748
      ],
      [
        "Ġmoral",
        -10.260023598277453
      ],
      [
        "diversity",
        -10.260027390909189
      ],
      [
        "ĠAdd",
        -10.260695587721054
      ],
      [
        "ĠEast",
        -10.260719014619545
      ],
      [
        "ĠHuman",
        -10.261552068052769
      ],
      [
        "ĠWild",
        -10.261964335035476
      ],
      [
        "Ġyard",
        -10.262755175998342
      ],
      [
        "Ġpeak",
        -10.262777660841676
      ],
      [
        "Ġcomput",
        -10.263046281534963
      ],
      [
        "Ġcontrolling",
        -10.26318622307637
      ],
      [
        "Ġevaluate",
        -10.263210599138016
      ],
      [
        "Ġ\\",
        -10.263705106322782
      ],
      [
        "Ġbug",
        -10.264125658171604
      ],
      [
        "Ġcorn",
        -10.26438134141786
      ],
      [
        "Ġlb",
        -10.264667390778657
      ],
      [
        "Ġcertainly",
        -10.264783376635483
      ],
      [
        "Ġtrouble",
        -10.265873424656958
      ],
      [
        "Ġexperienc",
        -10.266520113528216
      ],
      [
        "Ġpop",
        -10.26716478865234
      ],
      [
        "Ġexplanation",
        -10.267511137119993
      ],
      [
        "ping",
        -10.26753598520779
      ],
      [
        "Ġpictures",
        -10.268007774100392
      ],
      [
        "Ġgradual",
        -10.268046864843766
      ],
      [
        "ĠpH",
        -10.268825440117048
      ],
      [
        "ĠOpen",
        -10.269143661238743
      ],
      [
        "Ġstar",
        -10.269162056442172
      ],
      [
        "ĠConsider",
        -10.26955442421616
      ],
      [
        "Ġaircraft",
        -10.26960653405402
      ],
      [
        "Ġscene",
        -10.27062681036536
      ],
      [
        "Ġsexual",
        -10.2709297795903
      ],
      [
        "Ġboil",
        -10.271694012620843
      ],
      [
        "Ġrace",
        -10.27204968688307
      ],
      [
        "ĠClean",
        -10.272086971213447
      ],
      [
        "Ġfreeze",
        -10.272208593402556
      ],
      [
        "ER",
        -10.272592503466942
      ],
      [
        "Ġsouthern",
        -10.272807303039418
      ],
      [
        "Ġbus",
        -10.273099931867874
      ],
      [
        "#",
        -10.274194844367353
      ],
      [
        "Ġhistorical",
        -10.274568921411085
      ],
      [
        "Ġincome",
        -10.27469566486048
      ],
      [
        "ĠGarden",
        -10.275301615201808
      ],
      [
        "Ġheavi",
        -10.275555209143466
      ],
      [
        "Ġinform",
        -10.276189910494418
      ],
      [
        "Ġrely",
        -10.276406177573564
      ],
      [
        "Ġstreet",
        -10.277244551567446
      ],
      [
        "Ġrecognition",
        -10.277322607018238
      ],
      [
        "Ġchronic",
        -10.278539888438324
      ],
      [
        "Ġmining",
        -10.278543396736792
      ],
      [
        "Ġwonder",
        -10.27897366156514
      ],
      [
        "ill",
        -10.27999540292198
      ],
      [
        "Ġsew",
        -10.28042791976668
      ],
      [
        "Ġworse",
        -10.28057923100654
      ],
      [
        "Ġblow",
        -10.280739628016605
      ],
      [
        "Ġcopy",
        -10.2810715628244
      ],
      [
        "Ġnet",
        -10.281865413735831
      ],
      [
        "ĠAssociation",
        -10.282145909917176
      ],
      [
        "Ġcomplication",
        -10.28224515227098
      ],
      [
        "Ġgun",
        -10.282813953604109
      ],
      [
        "ĠUV",
        -10.283830315551162
      ],
      [
        "Ġpages",
        -10.284199171757557
      ],
      [
        "Ġmeasuring",
        -10.28707166977496
      ],
      [
        "Ġrural",
        -10.287079197922884
      ],
      [
        "Ġwonderful",
        -10.28724221913864
      ],
      [
        "ĠSilver",
        -10.28793810133326
      ],
      [
        "Ġfelt",
        -10.28836424234968
      ],
      [
        "Ġurban",
        -10.2884251754262
      ],
      [
        "Ġemploy",
        -10.288542777625722
      ],
      [
        "Ġpackag",
        -10.28876915582922
      ],
      [
        "Ġsong",
        -10.288847503742858
      ],
      [
        "Ġorange",
        -10.289975000627262
      ],
      [
        "Ġparticipate",
        -10.290589000952384
      ],
      [
        "Ġminimal",
        -10.290744964751124
      ],
      [
        "Ġraw",
        -10.291282729781798
      ],
      [
        "Ġmilitary",
        -10.292025912825942
      ],
      [
        "Ġinflammation",
        -10.292029205959016
      ],
      [
        "Ġchapter",
        -10.292333483743407
      ],
      [
        "ĠOctober",
        -10.292425713439105
      ],
      [
        "Ġsurvival",
        -10.29249793548712
      ],
      [
        "Ġtwist",
        -10.2927293170812
      ],
      [
        "Ġpreserve",
        -10.294120604146023
      ],
      [
        "Ġrespective",
        -10.294894392332282
      ],
      [
        "br",
        -10.294984175434898
      ],
      [
        "Ġbridge",
        -10.295791454461462
      ],
      [
        "Ġinfrastructure",
        -10.29721337893924
      ],
      [
        "Ġhydrogen",
        -10.298429599278148
      ],
      [
        "Ġstrip",
        -10.301384558422058
      ],
      [
        "Ġallerg",
        -10.301427872277896
      ],
      [
        "]Ċ",
        -10.301512092748125
      ],
      [
        "Ġalter",
        -10.301600031903888
      ],
      [
        "||",
        -10.302314328623854
      ],
      [
        "Ġexcess",
        -10.30255826581578
      ],
      [
        "Ġnutrition",
        -10.302853710048836
      ],
      [
        "Since",
        -10.302861964563016
      ],
      [
        "Ġheater",
        -10.303456024790304
      ],
      [
        "Ġdye",
        -10.303619702040436
      ],
      [
        "ĠPM",
        -10.305742795182152
      ],
      [
        "ring",
        -10.306135243342514
      ],
      [
        "ĠLife",
        -10.306258911534838
      ],
      [
        "Ġuniversity",
        -10.306365833881271
      ],
      [
        "we",
        -10.306607030268168
      ],
      [
        "Ġshop",
        -10.306656735963386
      ],
      [
        "Ġreward",
        -10.3070991837229
      ],
      [
        "ĠGuide",
        -10.30757444878799
      ],
      [
        "ĠBay",
        -10.307653687439757
      ],
      [
        "wimming",
        -10.307858296347929
      ],
      [
        "Ġinsert",
        -10.30789514833169
      ],
      [
        "Ġpasta",
        -10.308483095447492
      ],
      [
        "Ġw",
        -10.308541326920103
      ],
      [
        "Ġaward",
        -10.3090988901463
      ],
      [
        "Ġport",
        -10.309266945890045
      ],
      [
        "Ġthanks",
        -10.309382304111269
      ],
      [
        "Ġoral",
        -10.310025997515332
      ],
      [
        "Ġrecords",
        -10.310486159299526
      ],
      [
        "Ġcontinu",
        -10.31110009635968
      ],
      [
        "ho",
        -10.311960541704805
      ],
      [
        "Ġhousehold",
        -10.31220189432813
      ],
      [
        "Ġcustom",
        -10.31233456359495
      ],
      [
        "right",
        -10.312336992590495
      ],
      [
        "ĠSociety",
        -10.312486212874738
      ],
      [
        "Ġvacuum",
        -10.312514740515631
      ],
      [
        "ative",
        -10.31273967828939
      ],
      [
        "Ġanalyze",
        -10.313108546226957
      ],
      [
        "Ġgenome",
        -10.313650857208824
      ],
      [
        "Ġdesire",
        -10.314342880682206
      ],
      [
        "Ġboy",
        -10.314931336457036
      ],
      [
        "he",
        -10.31549468907954
      ],
      [
        "Ġhardwa",
        -10.315748970182684
      ],
      [
        "ĠArt",
        -10.315828036343667
      ],
      [
        "ĠTV",
        -10.31619976873963
      ],
      [
        "Ġvarie",
        -10.316353208389415
      ],
      [
        "Ġintroduc",
        -10.316683207163502
      ],
      [
        "Ġvet",
        -10.31686364455232
      ],
      [
        "Ġcrushing",
        -10.31693232533272
      ],
      [
        "Ġcash",
        -10.317184643511265
      ],
      [
        "Ġnorthern",
        -10.317192849293605
      ],
      [
        "Ġexpose",
        -10.317236351613383
      ],
      [
        "Ġelectrons",
        -10.31741911038748
      ],
      [
        "Ġalumin",
        -10.317597234001084
      ],
      [
        "ĠThrough",
        -10.317783771678172
      ],
      [
        "Ġhip",
        -10.319064395533184
      ],
      [
        "aught",
        -10.319187897398828
      ],
      [
        "Ġintroduction",
        -10.320035033525192
      ],
      [
        "{",
        -10.3205270508535
      ],
      [
        "Ġgram",
        -10.321442640149426
      ],
      [
        "Ġray",
        -10.32154477095044
      ],
      [
        "Ġfamiliar",
        -10.322213305574817
      ],
      [
        "Ġveterinarian",
        -10.322284004684237
      ],
      [
        "Ġbehaviour",
        -10.32269747909616
      ],
      [
        "Ġindex",
        -10.322952176351802
      ],
      [
        "Ġmoth",
        -10.325655533390632
      ],
      [
        "Ġextract",
        -10.326186128276625
      ],
      [
        "Ġplayed",
        -10.32718256142354
      ],
      [
        "ĠAnimal",
        -10.32759499188854
      ],
      [
        "Ġdepression",
        -10.327637253991451
      ],
      [
        "Ġtransportation",
        -10.328162762758666
      ],
      [
        "Ġphysics",
        -10.328483187289653
      ],
      [
        "ĠBlack",
        -10.33004553212539
      ],
      [
        "Ġcomposition",
        -10.330643560256735
      ],
      [
        "Ġshock",
        -10.332152981041467
      ],
      [
        "ĠControl",
        -10.33241261537638
      ],
      [
        "Ġsession",
        -10.3325212378781
      ],
      [
        "Ġagricultural",
        -10.332534148655157
      ],
      [
        "ĠTexa",
        -10.332986405673658
      ],
      [
        "Ġcorner",
        -10.33334524016984
      ],
      [
        "(b",
        -10.333935390900276
      ],
      [
        "Ġcord",
        -10.334138527383084
      ],
      [
        "Ġlaborator",
        -10.33429966808422
      ],
      [
        "Ġapproache",
        -10.33470762943626
      ],
      [
        "Ġjuice",
        -10.335027091358002
      ],
      [
        "ĠInformation",
        -10.336138021169171
      ],
      [
        "Ġembodiment",
        -10.336200723000657
      ],
      [
        "afety",
        -10.337374348421395
      ],
      [
        "Ġagriculture",
        -10.33771547161661
      ],
      [
        "Ġdioxide",
        -10.337741925462415
      ],
      [
        "Ġstroke",
        -10.337879917601034
      ],
      [
        "Ġdentist",
        -10.33809971901221
      ],
      [
        "Ġarrangement",
        -10.338204763798776
      ],
      [
        "ĠFree",
        -10.338807249232657
      ],
      [
        "wood",
        -10.339023717970402
      ],
      [
        "Ġtrait",
        -10.339397364760178
      ],
      [
        "ĠDevelopment",
        -10.339910656772986
      ],
      [
        "Ġalign",
        -10.34057334677557
      ],
      [
        "Ġperiods",
        -10.341984354830574
      ],
      [
        "ĠKnow",
        -10.342847978977382
      ],
      [
        "Ġsex",
        -10.34370542623092
      ],
      [
        "Ġcluster",
        -10.343896459391416
      ],
      [
        "Ġscrew",
        -10.343899513708717
      ],
      [
        "Ġweigh",
        -10.34394432900562
      ],
      [
        "Ġgather",
        -10.344076612321246
      ],
      [
        "ĠCity",
        -10.344757827634483
      ],
      [
        "ĠPlan",
        -10.34535972578697
      ],
      [
        "Ġappreciate",
        -10.345704595476146
      ],
      [
        "ists",
        -10.346951962024503
      ],
      [
        "Ġcounter",
        -10.347335344147025
      ],
      [
        "Ġtough",
        -10.347987652856704
      ],
      [
        "Ġbreast",
        -10.348381771333838
      ],
      [
        "Ġgut",
        -10.34850368060738
      ],
      [
        "Ġaccurac",
        -10.348931663782754
      ],
      [
        "Ġdurable",
        -10.348977664874557
      ],
      [
        "ED",
        -10.349781968495416
      ],
      [
        "Ġvertical",
        -10.350274335951667
      ],
      [
        "Don",
        -10.351087379193029
      ],
      [
        "Ġgraduate",
        -10.351562650084494
      ],
      [
        "gave",
        -10.351634954803078
      ],
      [
        "Ġmeant",
        -10.351730890940846
      ],
      [
        "Ġreceiv",
        -10.352973200287725
      ],
      [
        "Ġdrill",
        -10.353442292050694
      ],
      [
        "Ġinteractive",
        -10.353651289528788
      ],
      [
        "Ġbabie",
        -10.353770516887558
      ],
      [
        "Ġuniverse",
        -10.35388465562374
      ],
      [
        "Ġminute",
        -10.354075177923352
      ],
      [
        "Ġfamous",
        -10.354286201918717
      ],
      [
        "ĠPer",
        -10.357644861149286
      ],
      [
        "Ġlunch",
        -10.35843843831796
      ],
      [
        "me",
        -10.358693317926058
      ],
      [
        "Ġaesthetic",
        -10.358713349613392
      ],
      [
        "Ġcommitment",
        -10.35880553257149
      ],
      [
        "Ġshapes",
        -10.35957396740804
      ],
      [
        "Ġdischarge",
        -10.359706077127948
      ],
      [
        "Ġstrengthen",
        -10.359762145011208
      ],
      [
        "Ġstanding",
        -10.360073925342276
      ],
      [
        "Ġscar",
        -10.3601616704998
      ],
      [
        "Ġborder",
        -10.360208154616956
      ],
      [
        "Ġretain",
        -10.36112053621045
      ],
      [
        "Ġcent",
        -10.36123109537264
      ],
      [
        "Ġcapital",
        -10.36197271860388
      ],
      [
        "Ġtrauma",
        -10.362026102364306
      ],
      [
        "weight",
        -10.362140593716932
      ],
      [
        "stream",
        -10.362575764669936
      ],
      [
        "Ġeconom",
        -10.362826820371978
      ],
      [
        "Ġreli",
        -10.36337036513716
      ],
      [
        "Ġturning",
        -10.363419457621742
      ],
      [
        "Ġsuspect",
        -10.36403250395484
      ],
      [
        "ĠCommon",
        -10.364089352956288
      ],
      [
        "Ġmanner",
        -10.364121813189442
      ],
      [
        "Ġdisaster",
        -10.364204690357258
      ],
      [
        "Ġinspection",
        -10.364531362810066
      ],
      [
        "Ġrestrict",
        -10.365022162522331
      ],
      [
        "from",
        -10.366105958657243
      ],
      [
        "cal",
        -10.366522699851942
      ],
      [
        "Ġcontract",
        -10.366561805564285
      ],
      [
        "Ġtag",
        -10.36669263041092
      ],
      [
        "Ġexcept",
        -10.367355949623716
      ],
      [
        "Add",
        -10.369314748730854
      ],
      [
        "ĠII",
        -10.36939659699615
      ],
      [
        "Ġquantum",
        -10.369414426085942
      ],
      [
        "Ġcentre",
        -10.370401949052528
      ],
      [
        "Ġmutation",
        -10.370401987186968
      ],
      [
        "Ġgraphic",
        -10.370944352972655
      ],
      [
        "Ġrenewable",
        -10.37117412120026
      ],
      [
        "Ġtradition",
        -10.37140056749876
      ],
      [
        "ler",
        -10.37140095108874
      ],
      [
        "Ġflexi",
        -10.371483121849725
      ],
      [
        "stock",
        -10.372317124111031
      ],
      [
        "ĠFish",
        -10.372770367201532
      ],
      [
        "Ġbranche",
        -10.373124589956475
      ],
      [
        "Ġaccessib",
        -10.37347423476476
      ],
      [
        "Ġbio",
        -10.373480422577408
      ],
      [
        "Ġlicense",
        -10.37365406845441
      ],
      [
        "Ġplus",
        -10.373873951270864
      ],
      [
        "Ġinitiative",
        -10.374833970311585
      ],
      [
        "Ġcognitive",
        -10.375641346931625
      ],
      [
        "Ġpropose",
        -10.376340111198337
      ],
      [
        "Ġparty",
        -10.376447390511164
      ],
      [
        "Ġtrend",
        -10.377243974939958
      ],
      [
        "Ġthoughts",
        -10.378189757991567
      ],
      [
        "Ġinstitution",
        -10.378615227568208
      ],
      [
        "Ġexcited",
        -10.378947335234663
      ],
      [
        "Ġjoint",
        -10.379912354190102
      ],
      [
        "Ġopposite",
        -10.380163678664974
      ],
      [
        "ĠToday",
        -10.380401355625258
      ],
      [
        "History",
        -10.380526377309168
      ],
      [
        "ĠEngland",
        -10.38064609282793
      ],
      [
        "Ġconfiguration",
        -10.381031925421524
      ],
      [
        "Ġpartial",
        -10.38209211700546
      ],
      [
        "Final",
        -10.383200551343684
      ],
      [
        "Ġsides",
        -10.383586702704278
      ],
      [
        "Ġcurriculum",
        -10.385599670492446
      ],
      [
        "Ġworkshop",
        -10.385674625296463
      ],
      [
        "Ġlisten",
        -10.386033136579233
      ],
      [
        "ĠNatural",
        -10.386099587043894
      ],
      [
        "Ġthreaten",
        -10.386186723130162
      ],
      [
        "Ġsessions",
        -10.386220961769546
      ],
      [
        "Ġdeer",
        -10.386998085003944
      ],
      [
        "Ġconsumers",
        -10.387114577790854
      ],
      [
        "Ġabilit",
        -10.389419680660009
      ],
      [
        "Ġbiolog",
        -10.389714919737775
      ],
      [
        "ĠSee",
        -10.390039448920987
      ],
      [
        "Ġfacilitate",
        -10.390538780763515
      ],
      [
        "ĠSun",
        -10.390685169664652
      ],
      [
        "Ġpractitioner",
        -10.39106110095506
      ],
      [
        "Ġentry",
        -10.391080453890956
      ],
      [
        "Ġkitten",
        -10.391113895763487
      ],
      [
        "Ġequipp",
        -10.391285385379035
      ],
      [
        "Ġspots",
        -10.391490680506507
      ],
      [
        "Ġdetection",
        -10.392702630382768
      ],
      [
        "Ġride",
        -10.39302308204131
      ],
      [
        "ĠRight",
        -10.393162703402776
      ],
      [
        "Ġdur",
        -10.393468667320228
      ],
      [
        "Ġcolumn",
        -10.39365123868072
      ],
      [
        "Dur",
        -10.39433393376078
      ],
      [
        "ĠProgram",
        -10.394483305888189
      ],
      [
        "ĠHave",
        -10.396494387150568
      ],
      [
        "Ġnarrow",
        -10.396574613982196
      ],
      [
        "Ġcollaboration",
        -10.39661455072347
      ],
      [
        "Ġguard",
        -10.397621211169303
      ],
      [
        "im",
        -10.3978574580225
      ],
      [
        "Ġpresentation",
        -10.399002712954484
      ],
      [
        "Ġlock",
        -10.3993867830804
      ],
      [
        "-of",
        -10.399876975434903
      ],
      [
        "Ġconditioner",
        -10.39999007873956
      ],
      [
        "ĠPleas",
        -10.400079183377011
      ],
      [
        "Ġmark",
        -10.40017150583229
      ],
      [
        "Ġenhanc",
        -10.400380196578304
      ],
      [
        "ĠLa",
        -10.40067530137246
      ],
      [
        "Ġachiev",
        -10.40111182004942
      ],
      [
        "Ġluck",
        -10.401231315979002
      ],
      [
        "ĠTwo",
        -10.402109269817288
      ],
      [
        ".âĢĿ",
        -10.402119365857438
      ],
      [
        "Ġhandl",
        -10.402294857435953
      ],
      [
        "Ġdinosaur",
        -10.40256409194113
      ],
      [
        "Ġmammal",
        -10.402729774572364
      ],
      [
        ">>",
        -10.402953663982402
      ],
      [
        "ivity",
        -10.40341258853299
      ],
      [
        "Ġvi",
        -10.403729036532894
      ],
      [
        "Ġkne",
        -10.40382979655948
      ],
      [
        "ut",
        -10.40406196629495
      ],
      [
        "ĠTable",
        -10.404130992074997
      ],
      [
        "Ġsoup",
        -10.40447543150256
      ],
      [
        "Ġwarning",
        -10.40479519819602
      ],
      [
        "Ġholes",
        -10.405647371816231
      ],
      [
        "Ġpartner",
        -10.40577645686188
      ],
      [
        "Ġstream",
        -10.4059019310699
      ],
      [
        "ĠProject",
        -10.406564460028136
      ],
      [
        "Ġsold",
        -10.406986510651468
      ],
      [
        "Ġweapon",
        -10.407636060687008
      ],
      [
        "Ġconvenient",
        -10.408675761388478
      ],
      [
        "Ġpurchas",
        -10.409073987386543
      ],
      [
        "Ġpolitical",
        -10.409939959867298
      ],
      [
        "Ġhabits",
        -10.410630477692566
      ],
      [
        "Ġtrap",
        -10.411557968693645
      ],
      [
        "ĠFoundation",
        -10.413313561501994
      ],
      [
        "Ġdecay",
        -10.413852068831028
      ],
      [
        "Ġunusual",
        -10.414041740721732
      ],
      [
        "ĠMo",
        -10.41453918424164
      ],
      [
        "Ġimpossibl",
        -10.416599014341138
      ],
      [
        "cellular",
        -10.417119132925956
      ],
      [
        "Where",
        -10.417215371028224
      ],
      [
        "go",
        -10.417377396242944
      ],
      [
        "ĠGold",
        -10.417774918651332
      ],
      [
        "Ġsuffering",
        -10.41863870497059
      ],
      [
        "Ġgland",
        -10.418914314695684
      ],
      [
        "Ġpotatoes",
        -10.41901000144721
      ],
      [
        "Ġshark",
        -10.419137999666727
      ],
      [
        "ĠMexic",
        -10.419222500395872
      ],
      [
        "Ġfertil",
        -10.419419281218683
      ],
      [
        "Ġconflict",
        -10.419892084585133
      ],
      [
        "Ġpossibly",
        -10.420032193336706
      ],
      [
        "Unfortunatel",
        -10.420293155233631
      ],
      [
        "Ġfold",
        -10.421123679926469
      ],
      [
        "Ġweak",
        -10.421374298030187
      ],
      [
        "all",
        -10.421675564497155
      ],
      [
        "Ġbinding",
        -10.42207377415854
      ],
      [
        "Ġtract",
        -10.422154439628468
      ],
      [
        "\"We",
        -10.422586915098478
      ],
      [
        "Not",
        -10.422596112006564
      ],
      [
        "Ġtheme",
        -10.422841782920257
      ],
      [
        "Ġgrid",
        -10.423844754374445
      ],
      [
        "formed",
        -10.424240544578232
      ],
      [
        "you",
        -10.42427673155989
      ],
      [
        "Ġregulate",
        -10.424294092254607
      ],
      [
        "Ġsent",
        -10.424876630415731
      ],
      [
        "Ġsimulation",
        -10.425117243384372
      ],
      [
        "Ġconsumer",
        -10.425220939778036
      ],
      [
        "Ġjobs",
        -10.42548118184672
      ],
      [
        "Ġcombine",
        -10.426024615633343
      ],
      [
        "Ġwidth",
        -10.42738200934814
      ],
      [
        "Ġcontaining",
        -10.428470211732876
      ],
      [
        "Other",
        -10.42874919207499
      ],
      [
        "ĠThu",
        -10.42903196828708
      ],
      [
        "iz",
        -10.429035141284103
      ],
      [
        "ĠGerman",
        -10.429835398274594
      ],
      [
        "Ġshelter",
        -10.43019557042308
      ],
      [
        "Ġdiffer",
        -10.430277859772806
      ],
      [
        "Ġspectrum",
        -10.430363291297226
      ],
      [
        "Ġstimulate",
        -10.430508334605683
      ],
      [
        "Ġtruth",
        -10.430705842954056
      ],
      [
        "Ġreplac",
        -10.430881917516786
      ],
      [
        "Ġmount",
        -10.431031641327095
      ],
      [
        "Ġstove",
        -10.431306996804206
      ],
      [
        "Ġmature",
        -10.431650569481162
      ],
      [
        "Ġwasn",
        -10.43178017237438
      ],
      [
        "Ġinfect",
        -10.431975571463653
      ],
      [
        "Ġmodule",
        -10.43257279607043
      ],
      [
        "ĠLab",
        -10.43407206814414
      ],
      [
        "ated",
        -10.435622510151433
      ],
      [
        "Ġlaser",
        -10.435952307750078
      ],
      [
        "Ġdramatic",
        -10.436418207385518
      ],
      [
        "Ġstands",
        -10.437360938689745
      ],
      [
        "Ġminor",
        -10.437639024759388
      ],
      [
        "well",
        -10.43832514483714
      ],
      [
        "Ġsteam",
        -10.438629065949964
      ],
      [
        "?\"",
        -10.438634977697316
      ],
      [
        "Ġacids",
        -10.43960242184118
      ],
      [
        "ble",
        -10.440642480628377
      ],
      [
        "Ġspray",
        -10.441046373906817
      ],
      [
        "nce",
        -10.441579773349044
      ],
      [
        "Ġstudie",
        -10.442239960638746
      ],
      [
        "Ġinsurance",
        -10.442422946060432
      ],
      [
        "Ġmetals",
        -10.442563904669557
      ],
      [
        "Ġcrusher",
        -10.443254715116856
      ],
      [
        "Ġsight",
        -10.443959091954078
      ],
      [
        "Ġnorth",
        -10.444483926732213
      ],
      [
        "Ġincorporat",
        -10.444682322577073
      ],
      [
        "Ġmat",
        -10.444838908904584
      ],
      [
        "--",
        -10.445085323745726
      ],
      [
        "Ġsnakes",
        -10.445408881009309
      ],
      [
        "Ġindustri",
        -10.44607354811793
      ],
      [
        "...Ċ",
        -10.446207252820214
      ],
      [
        "while",
        -10.446395197537056
      ],
      [
        "ach",
        -10.446556126465069
      ],
      [
        "Ġuniform",
        -10.446629870312307
      ],
      [
        "Ġculinar",
        -10.447414518363008
      ],
      [
        "Ġapparent",
        -10.447415734844846
      ],
      [
        "Ġballoon",
        -10.447416868828816
      ],
      [
        "Ġfavor",
        -10.447421749234584
      ],
      [
        "@",
        -10.447679602446236
      ],
      [
        "].",
        -10.447745635390886
      ],
      [
        "Ġobserv",
        -10.448622157743973
      ],
      [
        "Ġdiagnosi",
        -10.44913702693694
      ],
      [
        "ĠYear",
        -10.45024268205572
      ],
      [
        "Ġlearner",
        -10.450603671616014
      ],
      [
        "Ġearn",
        -10.451160736258531
      ],
      [
        "Ġactivate",
        -10.45205426489035
      ],
      [
        "Ġstrike",
        -10.452743918369066
      ],
      [
        "ter",
        -10.453395101088857
      ],
      [
        "Ġclothes",
        -10.453851313846418
      ],
      [
        "Ġdownload",
        -10.453988017665663
      ],
      [
        "ĠZ",
        -10.454217874952777
      ],
      [
        "Ã©",
        -10.454944012947571
      ],
      [
        "Ġhaven",
        -10.455108866987391
      ],
      [
        "Ġpaid",
        -10.455434953468176
      ],
      [
        "Ġholiday",
        -10.45907579862557
      ],
      [
        "Ġsediment",
        -10.459075939208466
      ],
      [
        "library",
        -10.459076088704965
      ],
      [
        "Ġdiscomfort",
        -10.459078376556665
      ],
      [
        "Ġquiet",
        -10.459080460953317
      ],
      [
        "Ġcaught",
        -10.459093374806724
      ],
      [
        "Ġpolic",
        -10.459296254465825
      ],
      [
        "Ġvolunteer",
        -10.459442654676788
      ],
      [
        "Ġaggressive",
        -10.459442865624816
      ],
      [
        "Ġscientist",
        -10.459739475260502
      ],
      [
        "Re",
        -10.459948564958983
      ],
      [
        "Ġdough",
        -10.46046010797986
      ],
      [
        "Ġloud",
        -10.460628853909942
      ],
      [
        "Ġfather",
        -10.461032688382586
      ],
      [
        "-the",
        -10.46138977636111
      ],
      [
        "-day",
        -10.461764965923592
      ],
      [
        "gone",
        -10.462124936537268
      ],
      [
        "Ġnucle",
        -10.462720812570575
      ],
      [
        ".[",
        -10.46432156696369
      ],
      [
        "Ġpizza",
        -10.464986637265758
      ],
      [
        "Ġinfant",
        -10.4649876493349
      ],
      [
        "Ġdecline",
        -10.46501094879266
      ],
      [
        "Ġrear",
        -10.46598215266475
      ],
      [
        "Ġmountain",
        -10.466350576312822
      ],
      [
        "Ġtear",
        -10.466430183274731
      ],
      [
        "board",
        -10.466435145200242
      ],
      [
        "Ġstorm",
        -10.466624856286462
      ],
      [
        "wrot",
        -10.466864362468876
      ],
      [
        "Ġprinter",
        -10.468375359683384
      ],
      [
        "but",
        -10.468517433561704
      ],
      [
        "aging",
        -10.469889387665807
      ],
      [
        "Ġdistribute",
        -10.470072743689135
      ],
      [
        "Ġvibran",
        -10.470875818959772
      ],
      [
        "Ġsnack",
        -10.470877916435503
      ],
      [
        "ĠProfessor",
        -10.471065231667357
      ],
      [
        "Ġsitting",
        -10.471214478635869
      ],
      [
        "ĠRegular",
        -10.47176931368039
      ],
      [
        "Ġrelief",
        -10.472108712572917
      ],
      [
        "Ġgrill",
        -10.47228848022634
      ],
      [
        "ĠLED",
        -10.47284858344486
      ],
      [
        "are",
        -10.473315771463277
      ],
      [
        "Ġexchange",
        -10.473387489812318
      ],
      [
        "Ġmice",
        -10.473604150790411
      ],
      [
        "Ġhappening",
        -10.474035300670812
      ],
      [
        "Dr",
        -10.47438490923609
      ],
      [
        "Ġusage",
        -10.47448795629234
      ],
      [
        "ĠLake",
        -10.47453329197426
      ],
      [
        "ĠFinal",
        -10.474779297852532
      ],
      [
        "Ġears",
        -10.474967382068758
      ],
      [
        "Ġplays",
        -10.476768527269789
      ],
      [
        "Ġidentit",
        -10.476828216339086
      ],
      [
        "Ġglove",
        -10.476837348377028
      ],
      [
        "Ġresistan",
        -10.477189703632815
      ],
      [
        "Ġchocolate",
        -10.47728784225176
      ],
      [
        "Ġsubstantial",
        -10.47803450465191
      ],
      [
        "Ġtransplant",
        -10.478393994202282
      ],
      [
        "Ġlaws",
        -10.478612847519134
      ],
      [
        "ene",
        -10.48183278007862
      ],
      [
        "Ġserver",
        -10.48228486361772
      ],
      [
        "\"The",
        -10.482578876924808
      ],
      [
        "Water",
        -10.482600579683004
      ],
      [
        "Ġappliance",
        -10.482815755652028
      ],
      [
        "Ġthu",
        -10.482956473858636
      ],
      [
        "Ġlights",
        -10.48318605891806
      ],
      [
        "ĠMedicine",
        -10.483191947347493
      ],
      [
        "Ġholding",
        -10.484230583348822
      ],
      [
        "Ġease",
        -10.484682825218252
      ],
      [
        "Ġarrive",
        -10.484945807130808
      ],
      [
        "Ġofficer",
        -10.485217706913918
      ],
      [
        "Ġturns",
        -10.485239130710772
      ],
      [
        "ĠMe",
        -10.48590689441284
      ],
      [
        "Ġcontroller",
        -10.485994501031204
      ],
      [
        "Ġstars",
        -10.48691317454147
      ],
      [
        "Ġregulator",
        -10.487009459885172
      ],
      [
        "Ġleads",
        -10.487207405226853
      ],
      [
        "Ġbeam",
        -10.487976538077902
      ],
      [
        "Ġdepartment",
        -10.488914611532678
      ],
      [
        "ĠWork",
        -10.488967950046266
      ],
      [
        "Ġtailor",
        -10.489440794690294
      ],
      [
        "Ġrose",
        -10.490639363229963
      ],
      [
        "Ġeco",
        -10.491348539371351
      ],
      [
        "Ġfacing",
        -10.491659909475464
      ],
      [
        "Ġreact",
        -10.492761023830464
      ],
      [
        "ĠChange",
        -10.493268850956031
      ],
      [
        "ĠStart",
        -10.493894984253236
      ],
      [
        "Ġdisrupt",
        -10.494546946287585
      ],
      [
        "Ġwheels",
        -10.49480486064989
      ],
      [
        "Ġhummingbird",
        -10.494900751063948
      ],
      [
        "Ġinch",
        -10.495746944341477
      ],
      [
        "Ġrocks",
        -10.49601590619586
      ],
      [
        "Ġbelief",
        -10.496338401561824
      ],
      [
        "ĠWashington",
        -10.496339580649035
      ],
      [
        "ĠOF",
        -10.49701498051807
      ],
      [
        "Ġwings",
        -10.497018453547303
      ],
      [
        "ĠChin",
        -10.497689381838413
      ],
      [
        "ĠUnderstanding",
        -10.498354797438967
      ],
      [
        "Ġpersonalize",
        -10.498430483199929
      ],
      [
        "Ġmenu",
        -10.498512618671658
      ],
      [
        "ĠCare",
        -10.499659857332992
      ],
      [
        "ĠSpace",
        -10.499952636986452
      ],
      [
        "Related",
        -10.501000730581016
      ],
      [
        "Ġengaging",
        -10.501381302769293
      ],
      [
        "Ġhomes",
        -10.501520350273728
      ],
      [
        "ĠName",
        -10.50191468320605
      ],
      [
        "Ġpin",
[...]
