{
  "version": "1.0",
  "truncation": null,
  "padding": null,
  "added_tokens": [
    {
      "id": 0,
      "content": "<|bos|>",
      "single_word": false,
      "lstrip": false,
      "rstrip": false,
      "normalized": false,
      "special": true
    },
    {
      "id": 1,
      "content": "<|user_start|>",
      "single_word": false,
      "lstrip": false,
      "rstrip": false,
      "normalized": false,
      "special": true
    },
    {
      "id": 2,
      "content": "<|user_end|>",
      "single_word": false,
      "lstrip": false,
      "rstrip": false,
      "normalized": false,
      "special": true
    },
    {
      "id": 3,
      "content": "<|assistant_start|>",
      "single_word": false,
      "lstrip": false,
      "rstrip": false,
      "normalized": false,
      "special": true
    },
    {
      "id": 4,
      "content": "<|assistant_end|>",
      "single_word": false,
      "lstrip": false,
      "rstrip": false,
      "normalized": false,
      "special": true
    },
    {
      "id": 5,
      "content": "<|python_start|>",
      "single_word": false,
      "lstrip": false,
      "rstrip": false,
      "normalized": false,
      "special": true
    },
    {
      "id": 6,
      "content": "<|python_end|>",
      "single_word": false,
      "lstrip": false,
      "rstrip": false,
      "normalized": false,
      "special": true
    },
    {
      "id": 7,
      "content": "<|output_start|>",
      "single_word": false,
      "lstrip": false,
      "rstrip": false,
      "normalized": false,
      "special": true
    },
    {
      "id": 8,
      "content": "<|output_end|>",
      "single_word": false,
      "lstrip": false,
      "rstrip": false,
      "normalized": false,
      "special": true
    },
    {
      "id": 9,
      "content": "<|unk|>",
      "single_word": false,
      "lstrip": false,
      "rstrip": false,
      "normalized": false,
      "special": true
    }
  ],
  "normalizer": null,
  "pre_tokenizer": {
    "type": "Sequence",
    "pretokenizers": [
      {
        "type": "Split",
        "pattern": {
          "Regex": "'(?i:[sdmt]|ll|ve|re)|[^\\r\\n\\p{L}\\p{N}]?+\\p{L}+|\\p{N}{1,2}| ?[^\\s\\p{L}\\p{N}]++[\\r\\n]*|\\s*[\\r\\n]|\\s+(?!\\S)|\\s+"
        },
        "behavior": "Isolated",
        "invert": false
      },
      {
        "type": "ByteLevel",
        "add_prefix_space": false,
        "trim_offsets": true,
        "use_regex": false
      }
    ]
  },
  "post_processor": {
    "type": "TemplateProcessing",
    "single": [
      {
        "Sequence": {
          "id": "A",
          "type_id": 0
        }
      }
    ],
    "pair": [
      {
        "Sequence": {
          "id": "A",
          "type_id": 0
        }
      },
      {
        "Sequence": {
          "id": "B",
          "type_id": 1
        }
      }
    ],
    "special_tokens": {}
  },
  "decoder": null,
  "model": {
    "type": "Unigram",
    "unk_id": 9,
    "vocab": [
      [
        "<|bos|>",
        0.0
      ],
      [
        "<|user_start|>",
        0.0
      ],
      [
        "<|user_end|>",
        0.0
      ],
      [
        "<|assistant_start|>",
        0.0
      ],
      [
        "<|assistant_end|>",
        0.0
      ],
      [
        "<|python_start|>",
        0.0
      ],
      [
        "<|python_end|>",
        0.0
      ],
      [
        "<|output_start|>",
        0.0
      ],
      [
        "<|output_end|>",
        0.0
      ],
      [
        "<|unk|>",
        0.0
      ],
      [
        "s",
        -3.0324898431894542
      ],
      [
        "Ġ",
        -3.0550225497001
      ],
      [
        "Ġthe",
        -3.506843023763018
      ],
      [
        ",",
        -3.568996630218317
      ],
      [
        ".",
        -3.849499252423296
      ],
      [
        "a",
        -3.865809396624256
      ],
      [
        "Ġand",
        -4.044272092561263
      ],
      [
        "Ġto",
        -4.0976149271280775
      ],
      [
        "Ġof",
        -4.102128908436498
      ],
      [
        "ing",
        -4.4153532341261155
      ],
      [
        "Ġin",
        -4.571125172528953
      ],
      [
        "e",
        -4.653141579562476
      ],
      [
        "Ġis",
        -4.717262269578345
      ],
      [
        "ed",
        -4.7765513318142805
      ],
      [
        "t",
        -4.81271425736081
      ],
      [
        "d",
        -4.814107353447129
      ],
      [
        "y",
        -5.008148932550435
      ],
      [
        "'",
        -5.023028080437907
      ],
      [
        "Ġfor",
        -5.142743024269249
      ],
      [
        "Ġthat",
        -5.143981080833582
      ],
      [
        "0",
        -5.164290536571544
      ],
      [
        "ly",
        -5.261672089101623
      ],
      [
        "1",
        -5.318401139608833
      ],
      [
        "Ġare",
        -5.333327621289891
      ],
      [
        "Ċ",
        -5.341416439683771
      ],
      [
        ":",
        -5.342920751082136
      ],
      [
        "-",
        -5.344959593862976
      ],
      [
        "n",
        -5.395287880105046
      ],
      [
        "Ġwith",
        -5.404067582335156
      ],
      [
        ".Ċ",
        -5.412697418767923
      ],
      [
        ".ĊĊ",
        -5.413781301842466
      ],
      [
        "Ġyou",
        -5.428536661399127
      ],
      [
        "Ġit",
        -5.451245763415308
      ],
      [
        "Ġbe",
        -5.517489198913301
      ],
      [
        "2",
        -5.528795975930045
      ],
      [
        "Ġcan",
        -5.584305479455379
      ],
      [
        "Ġon",
        -5.60362222476471
      ],
      [
        "Ġor",
        -5.629601004298118
      ],
      [
        "Ġas",
        -5.632287748842902
      ],
      [
        "o",
        -5.653675588871176
      ],
      [
        "ĊĊ",
        -5.742809373103659
      ],
      [
        "i",
        -5.751598433787583
      ],
      [
        "r",
        -5.7622804271511825
      ],
      [
        "Ġyour",
        -5.821907937655128
      ],
      [
        "Ġ(",
        -5.878911436376168
      ],
      [
        "\"",
        -5.9215687636036645
      ],
      [
        "er",
        -5.980335685302871
      ],
      [
        "ĠI",
        -5.991424516334929
      ],
      [
        "Ġfrom",
        -5.99156628588165
      ],
      [
        "Ġhave",
        -5.995957205970413
      ],
      [
        "ĠThe",
        -6.028143461444454
      ],
      [
        "Ġby",
        -6.081484572290725
      ],
      [
        ")",
        -6.083034311927133
      ],
      [
        "Ġan",
        -6.11158614478598
      ],
      [
        "m",
        -6.129609710569076
      ],
      [
        "Ġthis",
        -6.1806523338828026
      ],
      [
        "?",
        -6.184842247627449
      ],
      [
        "3",
        -6.186044082560873
      ],
      [
        "Ġat",
        -6.207155586006591
      ],
      [
        "5",
        -6.210308771527728
      ],
      [
        "Ġnot",
        -6.211128091120633
      ],
      [
        "c",
        -6.215437978715375
      ],
      [
        "l",
        -6.220700200537751
      ],
      [
        "re",
        -6.241192949523128
      ],
      [
        "al",
        -6.291643717823899
      ],
      [
        "Ġtheir",
        -6.313934130275182
      ],
      [
        "Ġwill",
        -6.317660320697447
      ],
      [
        "on",
        -6.363239936397049
      ],
      [
        "in",
        -6.365368853100467
      ],
      [
        "4",
        -6.383965859522073
      ],
      [
        "Ġthey",
        -6.442699980736002
      ],
      [
        "Ġmore",
        -6.461776295911124
      ],
      [
        "9",
        -6.465407319395013
      ],
      [
        "Ġwas",
        -6.481580945759845
      ],
      [
        "The",
        -6.51659671423343
      ],
      [
        "or",
        -6.534891204975091
      ],
      [
        "ĠA",
        -6.549918394515254
      ],
      [
        "p",
        -6.562458206345198
      ],
      [
        "Ġbut",
        -6.580538788814215
      ],
      [
        "g",
        -6.581686280156003
      ],
      [
        "Ġhas",
        -6.58835727271701
      ],
      [
        "Ġwe",
        -6.590719779840942
      ],
      [
        "f",
        -6.599280177999411
      ],
      [
        "Ġwhich",
        -6.605641114581976
      ],
      [
        "b",
        -6.627278008421305
      ],
      [
        "Question",
        -6.657166836130491
      ],
      [
        "6",
        -6.6597995160003
      ],
      [
        "Ġone",
        -6.692069841857727
      ],
      [
        "Ġalso",
        -6.695031664413442
      ],
      [
        "ies",
        -6.700891818184344
      ],
      [
        "ĠAnswer",
        -6.70100032605353
      ],
      [
        "8",
        -6.703790193242906
      ],
      [
        "A",
        -6.742326018415191
      ],
      [
        "le",
        -6.747331583739589
      ],
      [
        "Ġabout",
        -6.761298688192733
      ],
      [
        "Ġall",
        -6.768384848491495
      ],
      [
        "7",
        -6.784059818373764
      ],
      [
        "Ġother",
        -6.8188328478776565
      ],
      [
        "Ġdo",
        -6.836938240018657
      ],
      [
        "k",
        -6.849610628271032
      ],
      [
        "Ġwhen",
        -6.852376861780003
      ],
      [
        "ĠIt",
        -6.853600402191033
      ],
      [
        "Ġso",
        -6.866214193471514
      ],
      [
        "Ġsome",
        -6.885448333198637
      ],
      [
        "Ġtime",
        -6.897230568248082
      ],
      [
        "Ġif",
        -6.9007340804945265
      ],
      [
        "Ġup",
        -6.901584603920325
      ],
      [
        "Ġuse",
        -6.914563944025362
      ],
      [
        "ation",
        -6.919254133397349
      ],
      [
        "Ġinto",
        -6.926476589407727
      ],
      [
        "Ġthem",
        -6.930719963651324
      ],
      [
        "Ġlike",
        -6.935392605368502
      ],
      [
        "Ġhow",
        -6.96145229395132
      ],
      [
        "I",
        -6.976650343132462
      ],
      [
        "h",
        -6.976725240055803
      ],
      [
        "Ġmay",
        -6.9770256315476225
      ],
      [
        "Ġout",
        -6.982357481219703
      ],
      [
        "is",
        -6.989646397382538
      ],
      [
        "ĠThis",
        -6.995709959655368
      ],
      [
        "ion",
        -6.998203049714348
      ],
      [
        "/",
        -7.001040416945012
      ],
      [
        "ĠIn",
        -7.006771122842606
      ],
      [
        "ĠS",
        -7.011873723155604
      ],
      [
        "Ġthan",
        -7.02015918841586
      ],
      [
        "ĠWhat",
        -7.0294710906555355
      ],
      [
        "able",
        -7.029711007418083
      ],
      [
        "u",
        -7.0316887424672245
      ],
      [
        "Ġthese",
        -7.068569414296279
      ],
      [
        "Ġwater",
        -7.070111943012199
      ],
      [
        "Ġwhat",
        -7.0841077111447746
      ],
      [
        "ĠB",
        -7.08820976276899
      ],
      [
        "ul",
        -7.095207964743839
      ],
      [
        "ic",
        -7.096685160943885
      ],
      [
        "Ġour",
        -7.109866776885601
      ],
      [
        "Ġthere",
        -7.119572838089502
      ],
      [
        "Ġused",
        -7.148583561904532
      ],
      [
        "Ġneed",
        -7.168688386047672
      ],
      [
        "Ġmake",
        -7.1719199184490865
      ],
      [
        "it",
        -7.194941494058231
      ],
      [
        "S",
        -7.202425549276061
      ],
      [
        "Ġmost",
        -7.207773435140998
      ],
      [
        "th",
        -7.213229872423328
      ],
      [
        "C",
        -7.214561177732907
      ],
      [
        "Ġpeople",
        -7.214980514921923
      ],
      [
        "Ġsuch",
        -7.21890845100493
      ],
      [
        "li",
        -7.220463528129045
      ],
      [
        "ĠC",
        -7.226210086887088
      ],
      [
        "Ġwere",
        -7.22698372883444
      ],
      [
        "an",
        -7.230262720093307
      ],
      [
        "ve",
        -7.244811437690652
      ],
      [
        "Ġany",
        -7.248613230600641
      ],
      [
        "Ġnew",
        -7.258389345244096
      ],
      [
        "Ġover",
        -7.269582390037575
      ],
      [
        "ce",
        -7.274156171683378
      ],
      [
        "Ġget",
        -7.279031550007959
      ],
      [
        "Ġbeen",
        -7.282599910269473
      ],
      [
        "Ġhelp",
        -7.283734771539411
      ],
      [
        "ers",
        -7.284421153791518
      ],
      [
        "Ġshould",
        -7.304106288031827
      ],
      [
        "Ġjust",
        -7.316956562318943
      ],
      [
        "w",
        -7.354949497647862
      ],
      [
        "v",
        -7.356388982591939
      ],
      [
        "Ġonly",
        -7.357491318268355
      ],
      [
        "Ġwould",
        -7.360829184489047
      ],
      [
        "Ġwho",
        -7.3650770405272254
      ],
      [
        "B",
        -7.373899507443326
      ],
      [
        "Ġmany",
        -7.383989731160458
      ],
      [
        "Ġhigh",
        -7.393680274441337
      ],
      [
        "Ġno",
        -7.39488675184707
      ],
      [
        "Ġits",
        -7.395066121718314
      ],
      [
        "F",
        -7.400468196876313
      ],
      [
        "ever",
        -7.414010970026956
      ],
      [
        "M",
        -7.4215188837946435
      ],
      [
        "D",
        -7.423450495248387
      ],
      [
        ";",
        -7.425047650492816
      ],
      [
        "ar",
        -7.425465759217873
      ],
      [
        "Ġwork",
        -7.432340077801117
      ],
      [
        "Ġtwo",
        -7.435635596620035
      ],
      [
        "Ġmy",
        -7.446951665922983
      ],
      [
        "Ġwell",
        -7.449238302316957
      ],
      [
        "ĠF",
        -7.450841888652175
      ],
      [
        "ll",
        -7.460089222914112
      ],
      [
        "Ġgo",
        -7.465911685112182
      ],
      [
        "ity",
        -7.472659897975014
      ],
      [
        "us",
        -7.47798622180362
      ],
      [
        "Ġfirst",
        -7.48408750274349
      ],
      [
        "Ġwhere",
        -7.484177249823379
      ],
      [
        "Ġthrough",
        -7.484643329507035
      ],
      [
        "Ġdifferent",
        -7.487557042861015
      ],
      [
        "Ġway",
        -7.489728576279024
      ],
      [
        "Ġtake",
        -7.490678013236517
      ],
      [
        "!",
        -7.496350007711047
      ],
      [
        "ur",
        -7.498425015932737
      ],
      [
        "Ġbetween",
        -7.516904045830536
      ],
      [
        "Ġhe",
        -7.525002428833636
      ],
      [
        "ent",
        -7.529722784458734
      ],
      [
        "x",
        -7.531519359046985
      ],
      [
        "ĠP",
        -7.531671855320496
      ],
      [
        "In",
        -7.5397976583178306
      ],
      [
        "?Ċ",
        -7.54545961764188
      ],
      [
        "P",
        -7.553720906594814
      ],
      [
        "ive",
        -7.560512801844112
      ],
      [
        "est",
        -7.566333754021429
      ],
      [
        "ch",
        -7.576769942565271
      ],
      [
        "Ġbecause",
        -7.577617429619286
      ],
      [
        "um",
        -7.580450303599758
      ],
      [
        "Ġcould",
        -7.58117096403957
      ],
      [
        "Ġeven",
        -7.595816976728987
      ],
      [
        "Ġusing",
        -7.599281314439969
      ],
      [
        "ment",
        -7.605242571305556
      ],
      [
        "ĠIf",
        -7.611871752313002
      ],
      [
        "ĠT",
        -7.621322708754052
      ],
      [
        "ĠE",
        -7.628855995529774
      ],
      [
        "out",
        -7.635599214384353
      ],
      [
        "Ġvery",
        -7.636624641703799
      ],
      [
        "ĠHow",
        -7.637375334759376
      ],
      [
        "ĠThey",
        -7.6457029779993295
      ],
      [
        "Ġsystem",
        -7.646101696146493
      ],
      [
        "ĠD",
        -7.660446918342245
      ],
      [
        "Ġknow",
        -7.661356273030107
      ],
      [
        "Ġsee",
        -7.665045386253635
      ],
      [
        "Ġmuch",
        -7.675554517052531
      ],
      [
        "T",
        -7.685288012678724
      ],
      [
        "Ġprovide",
        -7.696438104423899
      ],
      [
        "Ġhis",
        -7.697794574364375
      ],
      [
        "Ġchange",
        -7.703996239546138
      ],
      [
        "Ġhealth",
        -7.704719820721723
      ],
      [
        "Ġfood",
        -7.705019613307684
      ],
      [
        "while",
        -7.714145668465985
      ],
      [
        "Ġeach",
        -7.7163540507432415
      ],
      [
        "Ġwant",
        -7.716441079398102
      ],
      [
        "Ġun",
        -7.722841555633302
      ],
      [
        "ĠG",
        -7.72289880620626
      ],
      [
        "Ġimportant",
        -7.723265727401092
      ],
      [
        "Ġgood",
        -7.72601198583121
      ],
      [
        "Ġprocess",
        -7.727482134080965
      ],
      [
        "Ġdoes",
        -7.734752367391641
      ],
      [
        "Ġdesign",
        -7.7428844127507155
      ],
      [
        "?ĊĊ",
        -7.747388234437649
      ],
      [
        "Ġhad",
        -7.747558557348544
      ],
      [
        "ĠâĢĵ",
        -7.749486530173455
      ],
      [
        "Ġlong",
        -7.751742379209221
      ],
      [
        "and",
        -7.751930022227013
      ],
      [
        "ter",
        -7.752852719290955
      ],
      [
        "ĠYou",
        -7.753317064837839
      ],
      [
        ").",
        -7.7537501079759235
      ],
      [
        "ĠM",
        -7.755469858253095
      ],
      [
        "Ġyears",
        -7.7560394534125106
      ],
      [
        "Ġsmall",
        -7.763520270159278
      ],
      [
        "G",
        -7.764103452507531
      ],
      [
        "Ġdon",
        -7.766271405494537
      ],
      [
        "Ġevery",
        -7.79283561664827
      ],
      [
        "Ġafter",
        -7.795175497066063
      ],
      [
        "E",
        -7.797435468120803
      ],
      [
        "Ġaround",
        -7.83049406518751
      ],
      [
        "Ġworld",
        -7.834639489398866
      ],
      [
        "age",
        -7.8445531085116045
      ],
      [
        "Ġlife",
        -7.848144868018389
      ],
      [
        "to",
        -7.849529972989647
      ],
      [
        "Ġfound",
        -7.852777306869131
      ],
      [
        "Ġsame",
        -7.855669577823843
      ],
      [
        "Ġher",
        -7.858486646602028
      ],
      [
        "ĠFor",
        -7.861573949834858
      ],
      [
        "Ġlarge",
        -7.862251790267814
      ],
      [
        "ry",
        -7.863579370701
      ],
      [
        "Ġlight",
        -7.8671197476783234
      ],
      [
        "Ġbefore",
        -7.87078584646976
      ],
      [
        "(",
        -7.877027722328162
      ],
      [
        "Ġboth",
        -7.881083445622684
      ],
      [
        "H",
        -7.887079752139749
      ],
      [
        "Ġplace",
        -7.887472614601785
      ],
      [
        "Ġback",
        -7.888551774916955
      ],
      [
        "Ġcreate",
        -7.891738013561293
      ],
      [
        "Ġthose",
        -7.902142492463334
      ],
      [
        "W",
        -7.904164112217741
      ],
      [
        "Ġdown",
        -7.905667208897114
      ],
      [
        "ĠWe",
        -7.906447768351169
      ],
      [
        "Ġallow",
        -7.911653671063572
      ],
      [
        "Ġpart",
        -7.912903535465908
      ],
      [
        "Ġoften",
        -7.914648420752472
      ],
      [
        "%",
        -7.917085288903083
      ],
      [
        "during",
        -7.9176271272089185
      ],
      [
        "ĠH",
        -7.920219059998727
      ],
      [
        "Ġde",
        -7.9210535297255795
      ],
      [
        "ĠTo",
        -7.922116454886687
      ],
      [
        "Ġlook",
        -7.922990976109309
      ],
      [
        "z",
        -7.927810613831454
      ],
      [
        "Ġbeing",
        -7.928246338116402
      ],
      [
        "Ġbody",
        -7.931595675216078
      ],
      [
        "Ġright",
        -7.934653256382294
      ],
      [
        "Ġdata",
        -7.939357819229215
      ],
      [
        "Ġcause",
        -7.940076726862017
      ],
      [
        "What",
        -7.940926380220157
      ],
      [
        "ate",
        -7.943584407993125
      ],
      [
        "Ġkeep",
        -7.947023827860862
      ],
      [
        "Ġbest",
        -7.957647048965866
      ],
      [
        "Ġenergy",
        -7.961081008593096
      ],
      [
        "Ġme",
        -7.961508956662627
      ],
      [
        "Ġstart",
        -7.962299659123788
      ],
      [
        "Ġarea",
        -7.963703838527739
      ],
      [
        "Ġfind",
        -7.968777022829411
      ],
      [
        "Ġday",
        -7.974428102867259
      ],
      [
        "><",
        -7.974948942968258
      ],
      [
        "Ġcommon",
        -7.978865810316044
      ],
      [
        "Ġmade",
        -7.984512848659847
      ],
      [
        "Ġunder",
        -7.986716177321728
      ],
      [
        "Ġhome",
        -7.987413739002779
      ],
      [
        "Ġinformation",
        -7.98745634815489
      ],
      [
        "Ġshow",
        -7.989288810657131
      ],
      [
        "one",
        -7.989702428335727
      ],
      [
        "N",
        -8.001732827463
      ],
      [
        "Ġyear",
        -8.004551609517222
      ],
      [
        "),",
        -8.007999109440851
      ],
      [
        "Ġplant",
        -8.01213094042437
      ],
      [
        "V",
        -8.012464320944664
      ],
      [
        "ĠRe",
        -8.016073525226911
      ],
      [
        "Ġper",
        -8.017828004403432
      ],
      [
        "Ġincrease",
        -8.020999904166127
      ],
      [
        "Ġinclude",
        -8.026394112854227
      ],
      [
        "Ġsay",
        -8.030807231568247
      ],
      [
        ":Ċ",
        -8.034309044554284
      ],
      [
        "Ġnumber",
        -8.036046252537947
      ],
      [
        "ness",
        -8.039117648837003
      ],
      [
        "Ġpower",
        -8.042327947135266
      ],
      [
        "Ġend",
        -8.043399569188628
      ],
      [
        "R",
        -8.050202425528665
      ],
      [
        "Ġexperience",
        -8.051881700123527
      ],
      [
        "Ġadd",
        -8.059398656210453
      ],
      [
        "the",
        -8.06151606668744
      ],
      [
        "How",
        -8.061928407148812
      ],
      [
        "Ġmain",
        -8.063502393619295
      ],
      [
        "Ġresearch",
        -8.068199650257965
      ],
      [
        "Ġspecies",
        -8.079758257399186
      ],
      [
        "Ġus",
        -8.081592600097649
      ],
      [
        "Ġsaid",
        -8.084887859285073
      ],
      [
        "ĠW",
        -8.089935995295647
      ],
      [
        "Ġstudy",
        -8.090463427139788
      ],
      [
        "Ġlead",
        -8.092934114235927
      ],
      [
        "ary",
        -8.098062478482928
      ],
      [
        "...",
        -8.104783901545233
      ],
      [
        "Ġgrow",
        -8.106605866437238
      ],
      [
        "Ġform",
        -8.109830913441492
      ],
      [
        "Ġsupport",
        -8.112860440997206
      ],
      [
        "This",
        -8.115725011036876
      ],
      [
        "Ġbetter",
        -8.115797801425098
      ],
      [
        "Ġnow",
        -8.121077514883993
      ],
      [
        "ian",
        -8.121298258346386
      ],
      [
        "Ġmight",
        -8.121321199160345
      ],
      [
        "Ġfew",
        -8.12229106761292
      ],
      [
        "ĠThese",
        -8.12341930283783
      ],
      [
        "Ġair",
        -8.125235934193935
      ],
      [
        "un",
        -8.136254110471063
      ],
      [
        "Ġgreat",
        -8.14231078004721
      ],
      [
        "ĠN",
        -8.148731570702692
      ],
      [
        "Ġstudents",
        -8.155426920420451
      ],
      [
        "Ġstill",
        -8.156272948695726
      ],
      [
        "Ġoff",
        -8.163619565368839
      ],
      [
        "It",
        -8.165826679204047
      ],
      [
        "Ġexample",
        -8.167201625587197
      ],
      [
        "Ġcontrol",
        -8.168497653057223
      ],
      [
        "ge",
        -8.170368647861764
      ],
      [
        "ĠR",
        -8.171112635768347
      ],
      [
        "Ġown",
        -8.171376192873682
      ],
      [
        "Ġcar",
        -8.17162106917463
      ],
      [
        "Ġdog",
        -8.17239630045885
      ],
      [
        "ally",
        -8.175905313554049
      ],
      [
        "Ġincluding",
        -8.177294294838187
      ],
      [
        "If",
        -8.178571474835096
      ],
      [
        "ut",
        -8.179614117360325
      ],
      [
        "Ġthink",
        -8.183988000358642
      ],
      [
        "K",
        -8.189792889932127
      ],
      [
        "Ġplants",
        -8.192962829848726
      ],
      [
        "Ġset",
        -8.195977610555305
      ],
      [
        "Ġtype",
        -8.201658116480184
      ],
      [
        "L",
        -8.20232309416561
      ],
      [
        "ĠL",
        -8.203956536836612
      ],
      [
        "Ġmaking",
        -8.210249904787203
      ],
      [
        "less",
        -8.214688838772288
      ],
      [
        "Ġchildren",
        -8.221012007932883
      ],
      [
        "Ġprevent",
        -8.227161642316865
      ],
      [
        "Ġless",
        -8.22721015496484
      ],
      [
        "ĠBut",
        -8.23010298511408
      ],
      [
        "Ġgroup",
        -8.230290944660354
      ],
      [
        "Ġtest",
        -8.231421130264367
      ],
      [
        "ability",
        -8.232362944816382
      ],
      [
        "Ġindividual",
        -8.23571911193683
      ],
      [
        "Ġgive",
        -8.238472921439506
      ],
      [
        "ĠSo",
        -8.238908513344997
      ],
      [
        "Ġmethod",
        -8.242417427624634
      ],
      [
        "im",
        -8.243868746823358
      ],
      [
        "Ġhuman",
        -8.243952278767518
      ],
      [
        "me",
        -8.254621437190341
      ],
      [
        "Ġspecific",
        -8.255305639273963
      ],
      [
        "Ġknown",
        -8.259726401215948
      ],
      [
        "Ġschool",
        -8.266035692209831
      ],
      [
        "ĠK",
        -8.27121116257513
      ],
      [
        "am",
        -8.271450265141718
      ],
      [
        "Ġsize",
        -8.271829878401359
      ],
      [
        "Ġplay",
        -8.273701939720791
      ],
      [
        "ous",
        -8.274215737328058
      ],
      [
        "Ġmust",
        -8.275857288211695
      ],
      [
        "Ġshe",
        -8.279166386901844
      ],
      [
        "ful",
        -8.282064651670213
      ],
      [
        "ĠHe",
        -8.2867871439104
      ],
      [
        ":ĊĊ",
        -8.288580129380678
      ],
      [
        "Ġpotential",
        -8.289926368323417
      ],
      [
        "Ġthree",
        -8.290868184299427
      ],
      [
        "Ġspace",
        -8.291581942283784
      ],
      [
        "Ġcurrent",
        -8.291642071555287
      ],
      [
        "Ġname",
        -8.294279353800164
      ],
      [
        "ten",
        -8.298009958811614
      ],
      [
        "Ġsure",
        -8.29913287667402
      ],
      [
        "op",
        -8.301136180812843
      ],
      [
        "Ġmodel",
        -8.306717450843548
      ],
      [
        "Ġoffer",
        -8.306901644012294
      ],
      [
        "Ġpoint",
        -8.307889617828485
      ],
      [
        "ated",
        -8.30810676765149
      ],
      [
        "Ġresult",
        -8.310314649129182
      ],
      [
        "ant",
        -8.311475755876607
      ],
      [
        "Ġsurface",
        -8.315602189734273
      ],
      [
        "Ġensure",
        -8.319895741129066
      ],
      [
        "Ġwhy",
        -8.324632888562444
      ],
      [
        "Ġfish",
        -8.32478376950911
      ],
      [
        "Ġsoil",
        -8.325068173958341
      ],
      [
        "Ġlearn",
        -8.326798845506433
      ],
      [
        "ver",
        -8.326805161183454
      ],
      [
        "Ġreduce",
        -8.331469163791777
      ],
      [
        "Ġnatural",
        -8.333585513423069
      ],
      [
        "ance",
        -8.336022759708776
      ],
      [
        "Ġcome",
        -8.336880109310417
      ],
      [
        "ĠAnd",
        -8.34228197528609
      ],
      [
        "Ġlow",
        -8.342672884267934
      ],
      [
        "Ġtoo",
        -8.345860349062269
      ],
      [
        "tic",
        -8.346192997353892
      ],
      [
        "âĢĻ",
        -8.349103743626165
      ],
      [
        "ĠWhen",
        -8.351714967786773
      ],
      [
        "ĠO",
        -8.355117660393002
      ],
      [
        "Ġthings",
        -8.356120563144758
      ],
      [
        "Ġcost",
        -8.356304285855881
      ],
      [
        "ial",
        -8.35920171824127
      ],
      [
        "O",
        -8.359424051996468
      ],
      [
        "Ġcon",
        -8.36466394184082
      ],
      [
        "Ġbecome",
        -8.36756980203506
      ],
      [
        "Ġcolor",
        -8.370862308203918
      ],
      [
        "line",
        -8.371330171561404
      ],
      [
        "Ġcalled",
        -8.376225895563138
      ],
      [
        "Ġclose",
        -8.376427035006884
      ],
      [
        "ĠJ",
        -8.381131944901691
      ],
      [
        "Ġvarious",
        -8.381630818960488
      ],
      [
        "Ġturn",
        -8.385028534280558
      ],
      [
        "Ġtry",
        -8.385679454757327
      ],
      [
        "Ġdue",
        -8.385802852453716
      ],
      [
        "Ġlot",
        -8.389571417570487
      ],
      [
        "Ġblood",
        -8.391987367842953
      ],
      [
        "Ġreally",
        -8.392675149001175
      ],
      [
        "Ġlevel",
        -8.394254187571269
      ],
      [
        "Ġwithin",
        -8.3950817106149
      ],
      [
        "Ġco",
        -8.396501467317716
      ],
      [
        "Ġsomething",
        -8.405260876985839
      ],
      [
        "Ġenvironment",
        -8.406171953120518
      ],
      [
        "Ġsource",
        -8.4075454448956
      ],
      [
        "Ġamount",
        -8.409156529572797
      ],
      [
        "Ġside",
        -8.412946227934373
      ],
      [
        "Ġfollowing",
        -8.416222936134568
      ],
      [
        "Ġrisk",
        -8.418009911336247
      ],
      [
        "ke",
        -8.418305774886647
      ],
      [
        "Ġaffect",
        -8.418668680261808
      ],
      [
        "ish",
        -8.418815290747588
      ],
      [
        "ill",
        -8.41950029708935
      ],
      [
        "Ġcells",
        -8.422767028488817
      ],
      [
        "Ġcare",
        -8.42386432727356
      ],
      [
        "Ġbenefit",
        -8.425807524213319
      ],
      [
        "Ġanother",
        -8.429444030275482
      ],
      [
        "Ġweek",
        -8.437623680914978
      ],
      [
        "Ġdisease",
        -8.438697476970265
      ],
      [
        "Ġimpact",
        -8.439581103478158
      ],
      [
        "Ġhard",
        -8.440996767596069
      ],
      [
        "Ġhere",
        -8.441263948253386
      ],
      [
        "Ġdevelopment",
        -8.441304559132316
      ],
      [
        "Ġpossible",
        -8.442272265376044
      ],
      [
        "Ġrange",
        -8.445878363546786
      ],
      [
        "ĠThere",
        -8.451442050786369
      ],
      [
        "Ġheat",
        -8.453124888427297
      ],
      [
        "Ġlittle",
        -8.453799188232999
      ],
      [
        "Ġactual",
        -8.454992779034239
      ],
      [
        "Ġhand",
        -8.456442161275312
      ],
      [
        "ĠAs",
        -8.457261925435429
      ],
      [
        "Ġrequire",
        -8.45961151608474
      ],
      [
        "ĠU",
        -8.461437139956042
      ],
      [
        "Ġmeans",
        -8.461653127488486
      ],
      [
        "Ġlearning",
        -8.464297490254332
      ],
      [
        "Ġproblem",
        -8.470828662754425
      ],
      [
        "Ġsignificant",
        -8.47524389750685
      ],
      [
        "Ġalways",
        -8.477038935035385
      ],
      [
        "Ġdid",
        -8.478477642968011
      ],
      [
        "Ġlast",
        -8.48316073876759
      ],
      [
        "U",
        -8.484054271887366
      ],
      [
        "Ġlive",
        -8.49167341945003
      ],
      [
        "Ġfeel",
        -8.49625002267692
      ],
      [
        "Ġfield",
        -8.496520100649192
      ],
      [
        "Ġstate",
        -8.498187388866867
      ],
      [
        ">",
        -8.499707954276184
      ],
      [
        "Ġal",
        -8.501825141946053
      ],
      [
        "Ġusually",
        -8.505158647601851
      ],
      [
        "Ġtext",
        -8.50624131675869
      ],
      [
        "Ġopen",
        -8.507169705004124
      ],
      [
        "Ġoption",
        -8.509424315669037
      ],
      [
        "Ġtreatment",
        -8.510196180544101
      ],
      [
        "Ġgeneral",
        -8.511497149266994
      ],
      [
        "Ġcontain",
        -8.512356216842214
      ],
      [
        "Ġfocus",
        -8.512650115805565
      ],
      [
        "ĠSt",
        -8.51272081923717
      ],
      [
        "ĠWhich",
        -8.51397371845549
      ],
      [
        "Ġorder",
        -8.51417880005078
      ],
      [
        "Ġdevice",
        -8.516558781016652
      ],
      [
        "Ġtemperature",
        -8.518982650386224
      ],
      [
        ",\"",
        -8.522959942652797
      ],
      [
        "Ġnon",
        -8.524784009311825
      ],
      [
        "per",
        -8.527219249603892
      ],
      [
        "land",
        -8.52752780011788
      ],
      [
        "Ġproject",
        -8.529724436253403
      ],
      [
        "Ġavailable",
        -8.53109150398733
      ],
      [
        "Ġleave",
        -8.531591668386694
      ],
      [
        "Ġunderstand",
        -8.531837938436691
      ],
      [
        "Ġpressure",
        -8.532425052527106
      ],
      [
        "ence",
        -8.535972182178305
      ],
      [
        "Ġquality",
        -8.537441786865987
      ],
      [
        "be",
        -8.537827381076308
      ],
      [
        "act",
        -8.538633075384991
      ],
      [
        "Ġimprove",
        -8.53886698526011
      ],
      [
        "Ġbased",
        -8.539527026623254
      ],
      [
        "Ġperson",
        -8.5443579420166
      ],
      [
        "if",
        -8.54522779386189
      ],
      [
        "Ġessential",
        -8.549275263872303
      ],
      [
        "We",
        -8.549389537605077
      ],
      [
        "Ġdiet",
        -8.551120780438339
      ],
      [
        "Ġreal",
        -8.551812977971379
      ],
      [
        "Ġ=",
        -8.553973875007
      ],
      [
        "Ġseveral",
        -8.55416776970641
      ],
      [
        "ating",
        -8.555203306502271
      ],
      [
        "ling",
        -8.556650252797684
      ],
      [
        "Ġhead",
        -8.557825087316505
      ],
      [
        "Ġmaterials",
        -8.562910364952142
      ],
      [
        "ĠMa",
        -8.566504626385905
      ],
      [
        "Ġgarden",
        -8.569764977167566
      ],
      [
        "Ġneeds",
        -8.572081082992765
      ],
      [
        "Ġenough",
        -8.572666133320752
      ],
      [
        "Ġteam",
        -8.573550572651344
      ],
      [
        "Ġpresent",
        -8.574572008978393
      ],
      [
        "ĠV",
        -8.576976502788295
      ],
      [
        "Ġcreat",
        -8.577237088121464
      ],
      [
        "Ġeffective",
        -8.579786073837628
      ],
      [
        "technology",
        -8.581836869650864
      ],
      [
        "Ġlevels",
        -8.587060989553578
      ],
      [
        "Ġlocal",
        -8.587397432694328
      ],
      [
        "Ġagain",
        -8.589058697812915
      ],
      [
        "ber",
        -8.59057427781497
      ],
      [
        "Ġcheck",
        -8.591172545084884
      ],
      [
        "Ġage",
        -8.592880327762078
      ],
      [
        "up",
        -8.59385084775279
      ],
      [
        "Ġcertain",
        -8.595766313344695
      ],
      [
        "Ġfree",
        -8.597271784507305
      ],
      [
        "When",
        -8.597399815282134
      ],
      [
        "]",
        -8.599152555253015
      ],
      [
        "Ġoil",
        -8.59920507192042
      ],
      [
        "Ġcourse",
        -8.601257329396347
      ],
      [
        "Ġcat",
        -8.602782026404551
      ],
      [
        "Ġpro",
        -8.602897634090631
      ],
      [
        "Ġuntil",
        -8.603996941640762
      ],
      [
        "Ġmaterial",
        -8.605354930186351
      ],
      [
        "Ġpre",
        -8.60827533329924
      ],
      [
        "Ġconsider",
        -8.6088215211987
      ],
      [
        "Ġconditions",
        -8.609781174133943
      ],
      [
        "You",
        -8.611821076919751
      ],
      [
        "Ġkey",
        -8.611905798873579
      ],
      [
        "Ġtypes",
        -8.614317121253144
      ],
      [
        "Ġput",
        -8.61609111268386
      ],
      [
        "min",
        -8.619268241463583
      ],
      [
        "Ġrun",
        -8.619840135453702
      ],
      [
        "Ġpatient",
        -8.619926920275965
      ],
      [
        "Ġaway",
        -8.622888461687321
      ],
      [
        "ĠWith",
        -8.62501014779506
      ],
      [
        "Ġeye",
        -8.625399734331262
      ],
      [
        "Ġfunction",
        -8.626890312097533
      ],
      [
        "Ġweight",
        -8.627379390041959
      ],
      [
        "Ġ$",
        -8.629196065695059
      ],
      [
        "Ġshort",
        -8.630231545443493
      ],
      [
        "Ġanimals",
        -8.631524924296947
      ],
      [
        "Ġgrowth",
        -8.631586614414672
      ],
      [
        "Ġrole",
        -8.6326394009222
      ],
      [
        "ĠBe",
        -8.635505180011759
      ],
      [
        "Ġwide",
        -8.63573931848449
      ],
      [
        "Ġprogram",
        -8.636777900695439
      ],
      [
        "Y",
        -8.637525815490466
      ],
      [
        "not",
        -8.638806816426618
      ],
      [
        "Ġfamily",
        -8.639629350087908
      ],
      [
        "Ġrate",
        -8.64208872684923
      ],
      [
        "Ġline",
        -8.643638047670455
      ],
      [
        "Ġsystems",
        -8.645287637052364
      ],
      [
        "early",
        -8.64848416673632
      ],
      [
        "Ġb",
        -8.649058986032436
      ],
      [
        "Ġsolution",
        -8.650713144657846
      ],
      [
        "Ġvalue",
        -8.651986639402775
      ],
      [
        "Ġam",
        -8.652553335919562
      ],
      [
        "Ġtogether",
        -8.654892954434796
      ],
      [
        "Ġproduct",
        -8.656624257137107
      ],
      [
        "Ġsince",
        -8.656661545829962
      ],
      [
        "ized",
        -8.659527938286072
      ],
      [
        "pe",
        -8.661429210573896
      ],
      [
        "ide",
        -8.662646767964263
      ],
      [
        "ĠDe",
        -8.666787729312416
      ],
      [
        "Ġmo",
        -8.666841927639723
      ],
      [
        "To",
        -8.66698417035214
      ],
      [
        "ĠUniversity",
        -8.668021444943374
      ],
      [
        "Ġtop",
        -8.671668749857421
      ],
      [
        "Ġcomplete",
        -8.67235762484285
      ],
      [
        "!Ċ",
        -8.672464000114367
      ],
      [
        "âĢĶ",
        -8.672920537673114
      ],
      [
        "ĠNew",
        -8.673587785921574
      ],
      [
        "man",
        -8.676419580216468
      ],
      [
        "Ġsimple",
        -8.681793830615407
      ],
      [
        "Ġproblems",
        -8.682351058704088
      ],
      [
        "ph",
        -8.68505806037376
      ],
      [
        "Ġcase",
        -8.685118088694924
      ],
      [
        "ard",
        -8.686012249368261
      ],
      [
        "ster",
        -8.68747172888748
      ],
      [
        "Ġstructure",
        -8.69106932518904
      ],
      [
        "Ġprotect",
        -8.692413685540586
      ],
      [
        "Ġpost",
        -8.694570528985308
      ],
      [
        "ĠThat",
        -8.697231046744765
      ],
      [
        "Ġperiod",
        -8.69813358775061
      ],
      [
        "Ġlower",
        -8.698212928318892
      ],
      [
        "Ġ&",
        -8.700627310263298
      ],
      [
        "Ġchild",
        -8.701533108963098
      ],
      [
        "con",
        -8.702429245755635
      ],
      [
        "Ġseem",
        -8.703327267158194
      ],
      [
        "Ġclear",
        -8.705867616406755
      ],
      [
        "having",
        -8.706194313549437
      ],
      [
        "Ġread",
        -8.70771114704591
      ],
      [
        "Ġworking",
        -8.707821898617269
      ],
      [
        "ĠBy",
        -8.7078285563214
      ],
      [
        "vi",
        -8.708869296739241
      ],
      [
        "Ġresults",
        -8.711168863095878
      ],
      [
        "ect",
        -8.711198712904007
      ],
      [
        "Ġhigher",
        -8.711362416537721
      ],
      [
        "ĠAn",
        -8.711655066015805
      ],
      [
        "der",
        -8.712800710058684
      ],
      [
        "Ġmarket",
        -8.714780870182567
      ],
      [
        "Ġobject",
        -8.716143050644956
      ],
      [
        "Ġfact",
        -8.717583552346376
      ],
      [
        "Ġlet",
        -8.718071454846822
      ],
      [
        "Ġfollow",
        -8.720921017348598
      ],
      [
        "Ġhealthy",
        -8.722611168657295
      ],
      [
        "Ġbit",
        -8.72383233624544
      ],
      [
        "Ġkind",
        -8.726096219163729
      ],
      [
        "Ġnext",
        -8.728237639353495
      ],
      [
        "Ġvariet",
        -8.729087192137296
      ],
      [
        "Ġdepend",
        -8.729192765622209
      ],
      [
        "Ġphysical",
        -8.731153764286962
      ],
      [
        "by",
        -8.731222289482474
      ],
      [
        "ism",
        -8.7324205926109
      ],
      [
        "*",
        -8.732754275719035
      ],
      [
        "Ġpopulation",
        -8.733571381544063
      ],
      [
        "Ġfull",
        -8.734962766771918
      ],
      [
        "we",
        -8.73692679427461
      ],
      [
        "Ġdays",
        -8.738056486692251
      ],
      [
        "Ġdamage",
        -8.739201524027862
      ],
      [
        "Ġsecond",
        -8.743133426978158
      ],
      [
        "Ġremain",
        -8.744382140488673
      ],
      [
        "Ġmakes",
        -8.74485863349361
      ],
      [
        "Ġlove",
        -8.746468850886675
      ],
      [
        "Ġstep",
        -8.748287606829956
      ],
      [
        "There",
        -8.74870328888488
      ],
      [
        "Ġground",
        -8.749171473933831
      ],
      [
        "ions",
        -8.749906755515678
      ],
      [
        "Ġcomes",
        -8.750975502939538
      ],
      [
        "Ġunique",
        -8.751299971502824
      ],
      [
        "Ġold",
        -8.752071405576043
      ],
      [
        "Ġresource",
        -8.754294170728127
      ],
      [
        "way",
        -8.754902154071912
      ],
      [
        "Ġpast",
        -8.755813172928328
      ],
      [
        "Ġfuture",
        -8.756283638671546
      ],
      [
        "Ġsocial",
        -8.756789425190629
      ],
      [
        "mm",
        -8.757527557014054
      ],
      [
        "Ġeasy",
        -8.75879187994829
      ],
      [
        "Ġlikely",
        -8.760090910837302
      ],
      [
        "Ġproducts",
        -8.761629557090114
      ],
      [
        "Ġdoesn",
        -8.761822411310668
      ],
      [
        "ĠNo",
        -8.76213454391424
      ],
      [
        "Ġalong",
        -8.765090761363016
      ],
      [
        "ure",
        -8.766850624719517
      ],
      [
        "Ġproduce",
        -8.76806695598129
      ],
      [
        ")Ċ",
        -8.768577635210905
      ],
      [
        "ĠDr",
        -8.768978350730784
      ],
      [
        "Ġmove",
        -8.769282182911297
      ],
      [
        "Ġdry",
        -8.769812232549683
      ],
      [
        "J",
        -8.769844036800922
      ],
      [
        "Ġleast",
        -8.77038175353289
      ],
      [
        "ow",
        -8.771002179170612
      ],
      [
        "Ġcell",
        -8.772298700491511
      ],
      [
        "gu",
        -8.773594927942034
      ],
      [
        "Ġtypical",
        -8.77417617162882
      ],
      [
        "Ġacross",
        -8.774398793496129
      ],
      [
        "_",
        -8.775265547977906
      ],
      [
        "go",
        -8.775922945646222
      ],
      [
        "Ġwhite",
        -8.776515159606216
      ],
      [
        "Ġnecessar",
        -8.777960400130322
      ],
      [
        "end",
        -8.782122549029005
      ],
      [
        "For",
        -8.782184184350884
      ],
      [
        "Ġheart",
        -8.783143521664083
      ],
      [
        "Ġsimilar",
        -8.78461004246114
      ],
      [
        "ical",
        -8.784669524440758
      ],
      [
        "Ġbuilding",
        -8.784936683321849
      ],
      [
        "Ġespecial",
        -8.785176096165799
      ],
      [
        "tra",
        -8.79239531228344
      ],
      [
        "Ġthing",
        -8.79402292185718
      ],
      [
        "Ġavoid",
        -8.800126952581532
      ],
      [
        "ok",
        -8.800249165443082
      ],
      [
        "Ġcall",
        -8.800695536066296
      ],
      [
        "Ġnever",
        -8.801501683909112
      ],
      [
        "thing",
        -8.801773915786736
      ],
      [
        "Ġsub",
        -8.80186223554325
      ],
      [
        "Ġclean",
        -8.804226359124918
      ],
      [
        "Ġtimes",
        -8.804589626365193
      ],
      [
        "Ġlist",
        -8.804989606614324
      ],
      [
        "Ġimage",
        -8.808729323956182
      ],
      [
        "ell",
        -8.809002354215313
      ],
      [
        "ex",
        -8.810569313384836
      ],
      [
        "Ġissues",
        -8.811275460494594
      ],
      [
        "Ġabove",
        -8.813243744602413
      ],
      [
        "ĠDo",
        -8.81356546467131
      ],
      [
        "Ġpaper",
        -8.817297638362973
      ],
      [
        "Ġvideo",
        -8.817485222492866
      ],
      [
        "Ġanimal",
        -8.817663418336934
      ],
      [
        "Ġdifficult",
        -8.82013218596828
      ],
      [
        "Ġproduction",
        -8.820811432312642
      ],
      [
        "Ġ[",
        -8.821823393149849
      ],
      [
        "Ġcontinue",
        -8.822158069080851
      ],
      [
        "Ġclimate",
        -8.824398065404475
      ],
      [
        "Ġgiven",
        -8.826079586347166
      ],
      [
        "Ġloss",
        -8.82838270798636
      ],
      [
        "Ġsafe",
        -8.82901388542598
      ],
      [
        "Ġfar",
        -8.829881223568108
      ],
      [
        "uc",
        -8.83036931702026
      ],
      [
        "Ġmachine",
        -8.830825227060416
      ],
      [
        "Ġdogs",
        -8.832574229308833
      ],
      [
        "ug",
        -8.835214754066566
      ],
      [
        "ize",
        -8.835413028664142
      ],
      [
        "Ġfactors",
        -8.836306710621937
      ],
      [
        "Ġnormal",
        -8.837052206745058
      ],
      [
        "Ġrecommend",
        -8.83901300311516
      ],
      [
        "Ġblack",
        -8.839495479717229
      ],
      [
        "Ġcondition",
        -8.841530937887004
      ],
      [
        "our",
        -8.841699913649059
      ],
      [
        "Ġyoung",
        -8.84302605950682
      ],
      [
        "Ġreason",
        -8.844273472427108
      ],
      [
        "Ġcancer",
        -8.845458763534527
      ],
      [
        "Ġdifference",
        -8.845923949591318
      ],
      [
        "her",
        -8.846284461522572
      ],
      [
        "Ġcool",
        -8.84664558108117
      ],
      [
        "Ġmillion",
        -8.847459890823082
      ],
      [
        "Ġbook",
        -8.85016098673207
      ],
      [
        "Ġeffects",
        -8.85072552843672
      ],
      [
        "most",
        -8.852009139991585
      ],
      [
        "Ġeat",
        -8.853384309449144
      ],
      [
        "mer",
        -8.8536951267216
      ],
      [
        "ĠYour",
        -8.854545644989923
      ],
      [
        "Ġsun",
        -8.85460311459121
      ],
      [
        "Ġarticle",
        -8.859108190402655
      ],
      [
        "Ġaccording",
        -8.86138634271903
      ],
      [
        "ĠSome",
        -8.861807362568603
      ],
      [
        "ative",
        -8.86269821388763
      ],
      [
        "Ġnear",
        -8.862843823795203
      ],
      [
        "Ġroom",
        -8.863911244933256
      ],
      [
        "he",
        -8.865106827918954
      ],
      [
        "Ġdone",
        -8.865463350916794
      ],
      [
        "Ġview",
        -8.86719767921343
      ],
      [
        "Ġhim",
        -8.872098314256462
      ],
      [
        "Ġdevelop",
        -8.872270912977651
      ],
      [
        "ring",
        -8.872427579075243
      ],
      [
        "Ġstrong",
        -8.872794245313713
      ],
      [
        "Ġcontent",
        -8.873664232229727
      ],
      [
        "Ġspeed",
        -8.87374354006687
      ],
      [
        "Ġquestion",
        -8.877197987670417
      ],
      [
        "Ġskin",
        -8.877544356789144
      ],
      [
        "tro",
        -8.880261907824963
      ],
      [
        "Ġinterest",
        -8.88050575132483
      ],
      [
        "Ġstress",
        -8.880973468177928
      ],
      [
        "Ġmean",
        -8.88134569388156
      ],
      [
        "Ġremove",
        -8.881388303884185
      ],
      [
        "light",
        -8.881505124851016
      ],
      [
        "Ġleft",
        -8.882108200786305
      ],
      [
        "Ġtraining",
        -8.88376141343052
      ],
      [
        "Ġscience",
        -8.884599969331724
      ],
      [
        "Ġstore",
        -8.885469081046914
      ],
      [
        "Ġbreak",
        -8.88572148742623
      ],
      [
        "Ġaddition",
        -8.887882787876578
      ],
      [
        "Ġgas",
        -8.887935862006962
      ],
      [
        "Ġreceive",
        -8.890631048760401
      ],
      [
        "Ġdis",
        -8.890654418986838
      ],
      [
        "Ġwarm",
        -8.890672925410982
      ],
      [
        "Ġpet",
        -8.890718222094495
      ],
      [
        "Ġsingle",
        -8.89088536770408
      ],
      [
        "ĠCo",
        -8.891196733794414
      ],
      [
        "Ġbring",
        -8.892453904707722
      ],
      [
        "Ġamong",
        -8.892984346333721
      ],
      [
        "Ġcut",
        -8.89317093397211
      ],
      [
        "Ġeither",
        -8.894629881232465
      ],
      [
        "Ġexist",
        -8.89484185407129
      ],
      [
        "So",
        -8.894881531783291
      ],
      [
        "Ġforce",
        -8.894925841196812
      ],
      [
        "Ġdi",
        -8.895241081725825
      ],
      [
        "Ġfall",
        -8.895912488511843
      ],
      [
        "Ġthought",
        -8.897460483974864
      ],
      [
        "Ġgame",
        -8.902783271533629
      ],
      [
        "Ġparent",
        -8.903981246923781
      ],
      [
        "ha",
        -8.904210317220521
      ],
      [
        "ium",
        -8.90535998055592
      ],
      [
        "hi",
        -8.906277131556662
      ],
      [
        "ship",
        -8.909097929298241
      ],
      [
        "Ġperformance",
        -8.909581209013224
      ],
      [
        "Ġnature",
        -8.912016498811063
      ],
      [
        "Ġflow",
        -8.912119917897412
      ],
      [
        "Ġbelieve",
        -8.91495260492069
      ],
      [
        "Ġtoday",
        -8.91548497555388
      ],
      [
        "Ġfour",
        -8.918882270070544
      ],
      [
        "Ġlooking",
        -8.92014750106345
      ],
      [
        "Ġface",
        -8.92199726497257
      ],
      [
        "ĠPro",
        -8.92201099051234
      ],
      [
        "Ġunderstanding",
        -8.923321593593549
      ],
      [
        "Ġenjoy",
        -8.923692204419936
      ],
      [
        "Ġsea",
        -8.924518346042731
      ],
      [
        "Ġrecent",
        -8.924750008614755
      ],
      [
        "Ġcomputer",
        -8.925116221321666
      ],
      [
        "Ġwild",
        -8.930013026784799
      ],
      [
        "ĠAmerican",
        -8.931179735975707
      ],
      [
        "Ġmatter",
        -8.932123697044748
      ],
      [
        "Ġreport",
        -8.93304709991813
      ],
      [
        "Ġpublic",
        -8.934223512889446
      ],
      [
        ")ĊĊ",
        -8.93614314887858
      ],
      [
        "cy",
        -8.9361774628232
      ],
      [
        "taking",
        -8.93729632150685
      ],
      [
        "Ġflower",
        -8.938118025797074
      ],
      [
        "Ġeffect",
        -8.938790327903966
      ],
      [
        "Ġposition",
        -8.939679396797814
      ],
      [
        "Ġaccess",
        -8.940940327898119
      ],
      [
        "Ġactivity",
        -8.941652282394788
      ],
      [
        "Ġask",
        -8.943230756799277
      ],
      [
        "Ġhistor",
        -8.94491267990194
      ],
      [
        "Ġpass",
        -8.945603032739523
      ],
      [
        "Ġbasic",
        -8.947691986052654
      ],
      [
        "Ġlayer",
        -8.949947487995694
      ],
      [
        "ĠCa",
        -8.951094995308775
      ],
      [
        "Ġcover",
        -8.951191035519479
      ],
      [
        "Ġfurther",
        -8.951823739810646
      ],
      [
        "Ġred",
        -8.951825680980804
      ],
      [
        "Ġbrain",
        -8.951966518735034
      ],
      [
        "Ġseason",
        -8.952497813989247
      ],
      [
        "ization",
        -8.95424029348506
      ],
      [
        "Ġbalance",
        -8.954654428093363
      ],
      [
        "Ġpain",
        -8.954805308689199
      ],
      [
        "Ġaction",
        -8.95495509516569
      ],
      [
        "ĠLa",
        -8.958205408647537
      ],
      [
        "Ġbehavior",
        -8.95874649198293
      ],
      [
        "Ġtalk",
        -8.959743506632044
      ],
      [
        "Ġskills",
        -8.960017226925913
      ],
      [
        "Ġtell",
        -8.960842006010704
      ],
      [
        "ach",
        -8.962357375618787
      ],
      [
        "Ġstudie",
        -8.962711707732677
      ],
      [
        "Ġland",
        -8.963239670928374
      ],
      [
        "Ġgreen",
        -8.963272217331241
      ],
      [
        "Ġtri",
        -8.963687714205708
      ],
      [
        "Ġanswer",
        -8.964812673412972
      ],
      [
        "Ġinside",
        -8.965427566239018
      ],
      [
        "Ġbig",
        -8.965469696198312
      ],
      [
        "Ġonce",
        -8.965942111921422
      ],
      [
        "Ġassociate",
        -8.96831823665125
      ],
      [
        "Ġsignal",
        -8.970305108577115
      ],
      [
        "Ġapproach",
        -8.972187478421331
      ],
      [
        "Ġappear",
        -8.973648952774926
      ],
      [
        "Ġchallenge",
        -8.975328596789998
      ],
      [
        "ĠMo",
        -8.975533782790055
      ],
      [
        "Ġhouse",
        -8.975905111581763
      ],
      [
        "ner",
        -8.976799143158718
      ],
      [
        "Ġlanguage",
        -8.977611983312253
      ],
      [
        "Ġwomen",
        -8.978857812174034
      ],
      [
        "Ġmetal",
        -8.97948256278401
      ],
      [
        "mp",
        -8.98217066291458
      ],
      [
        "Ġgetting",
        -8.982523807525777
      ],
      [
        "Ġcarbon",
        -8.98540675395683
      ],
      [
        "iv",
        -8.987296900565855
      ],
      [
        "for",
        -8.987923181663934
      ],
      [
        "j",
        -8.988148054266958
      ],
      [
        "ember",
        -8.98850637626931
      ],
      [
        "Ġways",
        -8.98866934732865
      ],
      [
        "Ġwhether",
        -8.99015357191045
      ],
      [
        "Ġmaintain",
        -8.990713942150755
      ],
      [
        "Ġperform",
        -8.990763489145886
      ],
      [
        "Ġcontact",
        -8.992035400532234
      ],
      [
        "Ġselect",
        -8.99219128812148
      ],
      [
        "ĠâĢĶ",
        -8.994244891544334
      ],
      [
        "Ġmention",
        -8.994856981211267
      ],
      [
        "ĠCon",
        -8.994891404543722
      ],
      [
        "Ġspecial",
        -8.998911767915391
      ],
      [
        "Ġrecord",
        -8.999126178797031
      ],
      [
        "Ġpersonal",
        -8.999327262331256
      ],
      [
        "Ġfruit",
        -9.00090313636409
      ],
      [
        "Ġindustry",
        -9.000912801676918
      ],
      [
        "Ġcommunity",
        -9.000950281329203
      ],
      [
        "Ġenvironmental",
        -9.00124057236006
      ],
      [
        "Ġstay",
        -9.00157097902908
      ],
      [
        "As",
        -9.002548846185306
      ],
      [
        "Ġservice",
        -9.002583756631067
      ],
      [
        "Ġexplain",
        -9.00282605187753
      ],
      [
        "already",
        -9.003484719387409
      ],
      [
        "Ġsymptoms",
        -9.004152369863018
      ],
      [
        "+",
        -9.00516979193642
      ],
      [
        "Ġelectric",
        -9.005611952087563
      ],
      [
        "ier",
        -9.006121497653734
      ],
      [
        "Ġman",
        -9.007767612963235
      ],
      [
        "Ġparts",
        -9.010552803545307
      ],
      [
        "Ġmind",
        -9.011019171287222
      ],
      [
        "Ġmajor",
        -9.013810123736013
      ],
      [
        "Ġperfect",
        -9.0163232164334
      ],
      [
        "Ġclass",
        -9.017052994317789
      ],
      [
        "que",
        -9.01840906624372
      ],
      [
        "Ġbusiness",
        -9.019121788347729
      ],
      [
        "Ġfeatures",
        -9.01933751446795
      ],
      [
        "Ġactivities",
        -9.01956285272306
      ],
      [
        "ki",
        -9.020751687064326
      ],
      [
        "Ġtoward",
        -9.021967546186662
      ],
      [
        "Ġknowledge",
        -9.024117300644178
      ],
      [
        "Ġbuild",
        -9.024421377488594
      ],
      [
        "Ġsugar",
        -9.02479667849498
      ],
      [
        "pro",
        -9.025228664670449
      ],
      [
        "Ġrequired",
        -9.02569709283178
      ],
      [
        "Ġcomplex",
        -9.026698346742704
      ],
      [
        "ĠLe",
        -9.027106073070485
      ],
      [
        "Ġmoney",
        -9.02744993112452
      ],
      [
        "Ġidea",
        -9.028848674155068
      ],
      [
        "Ġwalk",
        -9.029349750085611
      ],
      [
        "âĢĵ",
        -9.030275128871557
      ],
      [
        "Ġaddress",
        -9.03067176239023
      ],
      [
        "Ġliving",
        -9.03131960327286
      ],
      [
        "ivity",
        -9.033602254710557
      ],
      [
        "Ġhours",
        -9.034285636101
      ],
      [
        "Ġcold",
        -9.034934872780706
      ],
      [
        "Ġwhole",
        -9.03502794123568
      ],
      [
        "ĠAll",
        -9.036094588573269
      ],
      [
        "Ġmix",
        -9.03613494237046
      ],
      [
        "ĠMi",
        -9.038898227629002
      ],
      [
        "gen",
        -9.040356212125436
      ],
      [
        "Ġtree",
        -9.041540545234538
      ],
      [
        "Ġself",
        -9.041557960031705
      ],
      [
        "afety",
        -9.041815602743467
      ],
      [
        "Ġuser",
        -9.04255861482982
      ],
      [
        "Ġart",
        -9.042768193615164
      ],
      [
        "Ġprint",
        -9.044361752939926
      ],
      [
        "row",
        -9.044754470423104
      ],
      [
        "Ġplan",
        -9.045064209853038
      ],
      [
        "ual",
        -9.04748536216624
      ],
      [
        "Re",
        -9.050318748523864
      ],
      [
        "Ġadult",
        -9.050548135547842
      ],
      [
        "Ġstrateg",
        -9.051218506277523
      ],
      [
        "Ġsp",
        -9.051700439600369
      ],
      [
        "Ġbelow",
        -9.052349159245816
      ],
      [
        "Ġcr",
        -9.054060827710178
      ],
      [
        "ng",
        -9.054351993342102
      ],
      [
        "qui",
        -9.05530239343425
      ],
      [
        "Ġfarm",
        -9.058522353325785
      ],
      [
        "Ġtreat",
        -9.060483095639215
      ],
      [
        "ang",
        -9.06075503985564
      ],
      [
        "Ġpopular",
        -9.061437379666778
      ],
      [
        "ack",
        -9.0622694824741
      ],
      [
        "Ġtools",
        -9.06370420571058
      ],
      [
        "Ġsense",
        -9.06375771440266
      ],
      [
        "Ġthough",
        -9.064098879114608
      ],
      [
        "ĠUnit",
        -9.064220532615527
      ],
      [
        "ub",
        -9.06637234999324
      ],
      [
        "ĠLo",
        -9.067567120241623
      ],
      [
        "Ġwall",
        -9.068629277882076
      ],
      [
        "ĠOne",
        -9.06966238164538
      ],
      [
        "Ġdeep",
        -9.069714026858705
      ],
      [
        "over",
        -9.071008314433204
      ],
      [
        "Ġoverall",
        -9.073873607645382
      ],
      [
        "Ġitem",
        -9.074442553238416
      ],
      [
        "Ġtravel",
        -9.07563404480829
      ],
      [
        "Ġengine",
        -9.075959281708808
      ],
      [
        "Ġresearchers",
        -9.07647137828858
      ],
      [
        "ather",
        -9.076525979172848
      ],
      [
        "Ġmeasure",
        -9.076552884592084
      ],
      [
        "Ġsound",
        -9.077623719951603
      ],
      [
        "Ġcompany",
        -9.077697930374638
      ],
      [
        "Ġmedical",
        -9.077707060446237
      ],
      [
        "tion",
        -9.07979584835873
      ],
      [
        "ler",
        -9.079919170450314
      ],
      [
        "Ġpositive",
        -9.080451242593975
      ],
      [
        "ĠAt",
        -9.081156842576236
      ],
      [
        "Ġfuel",
        -9.081893524748216
      ],
      [
        "Ġentire",
        -9.082524406178289
      ],
      [
        "Ġpractice",
        -9.083896206268136
      ],
      [
        "Ġaverage",
        -9.083907487745195
      ],
      [
        "Ġauthor",
        -9.084496085715324
      ],
      [
        "Ġprofessional",
        -9.08463689842278
      ],
      [
        "Ġwear",
        -9.08530932699301
      ],
      [
        "ick",
        -9.086142906852318
      ],
      [
        "Ġshape",
        -9.086280512798783
      ],
      [
        "Ġissue",
        -9.086848237379735
      ],
      [
        "An",
        -9.087064076085944
      ],
      [
        "gan",
        -9.088185689740936
      ],
      [
        "cal",
        -9.088496832916311
      ],
      [
        "ator",
        -9.088983686040685
      ],
      [
        "Ġacid",
        -9.091270484394514
      ],
      [
        "Ġlonger",
        -9.091536698406522
      ],
      [
        "Ġcrucial",
        -9.09155091365933
      ],
      [
        "ĠAI",
        -9.09177016943515
      ],
      [
        "Ġeasily",
        -9.092248772438296
      ],
      [
        "Ġscientist",
        -9.095745213789971
      ],
      [
        "Ġopportunit",
        -9.095745213920674
      ],
      [
        "Ġmonths",
        -9.096012572825988
      ],
      [
        "ĠBo",
        -9.096396317610449
      ],
      [
        "Ġmanagement",
        -9.097520627413433
      ],
      [
        "Ġbirds",
        -9.099893041750937
      ],
      [
        "X",
        -9.10386419932276
      ],
      [
        "|",
        -9.106275867794356
      ],
      [
        "Ġmedia",
        -9.1067391877704
      ],
      [
        ".\"ĊĊ",
        -9.10727188803967
      ],
      [
        "Ġresponse",
        -9.10772563586601
      ],
      [
        "Ġdoing",
        -9.108034428141432
      ],
      [
        "Ġbegin",
        -9.109164333454972
      ],
      [
        "Ġchoose",
        -9.109666809030251
      ],
      [
        "Ġstop",
        -9.11072373742622
      ],
      [
        "Ġglobal",
        -9.111277004150551
      ],
      [
        "Ġtable",
        -9.111497319602249
      ],
      [
        "Ġrest",
        -9.111585882562668
      ],
      [
        "Ġtraditional",
        -9.11410973012028
      ],
      [
        "Ġothers",
        -9.11515036967
      ],
      [
        "Ġhot",
        -9.11732492980099
      ],
      [
        ".\"Ċ",
        -9.11741002155328
      ],
      [
        "Ġhappen",
        -9.117628027802926
      ],
      [
        "Ġrelative",
        -9.118563995833869
      ],
      [
        "-base",
        -9.121806867359943
      ],
      [
        "ĠCan",
        -9.12208812242429
      ],
      [
        "Ġgot",
        -9.12248528095732
      ],
      [
        "Ġreach",
        -9.122931953378536
      ],
      [
        "Ġsuggest",
        -9.125490422131254
      ],
      [
        "ound",
        -9.126522725244511
      ],
      [
        "Ġfire",
        -9.128191085409735
      ],
      [
        "Ġetc",
        -9.128435693033474
      ],
      [
        "lin",
        -9.134833738716946
      ],
      [
        "ĠBr",
        -9.136358727661827
      ],
      [
        "Ġact",
        -9.136460691264084
      ],
      [
        "lic",
        -9.136568899232238
      ],
      [
        "king",
        -9.136664400593022
      ],
      [
        "Ġquestions",
        -9.136970224828817
      ],
      [
        "ĠPo",
        -9.137176845895054
      ],
      [
        "ĠOn",
        -9.137530234061042
      ],
      [
        "Ġquickly",
        -9.137944325228418
      ],
      [
        "ail",
        -9.140104222164284
      ],
      [
        "ĠRa",
        -9.14170763809583
      ],
      [
        "Ġinvolve",
        -9.142176658626887
      ],
      [
        "Ġthroughout",
        -9.14269790804588
      ],
      [
        "Ġplastic",
        -9.143263051553197
      ],
      [
        "cu",
        -9.14347459896902
      ],
      [
        "ight",
        -9.143901754758833
      ],
      [
        "Ġfun",
        -9.144708761809133
      ],
      [
        "Ġwood",
        -9.146427263108333
      ],
      [
        "red",
        -9.14705395021286
      ],
      [
        "Ġwinter",
        -9.148463180647552
      ],
      [
        "[",
        -9.148606530992389
      ],
      [
        "Ġmovement",
        -9.148967886963067
      ],
      [
        "Ġdescribe",
        -9.150863142240496
      ],
      [
        "Ġminutes",
        -9.150889599943536
      ],
      [
        "Ġshare",
        -9.151739487308614
      ],
      [
        "Ġdetermine",
        -9.151781672226129
      ],
      [
        "Ġinfection",
        -9.151905159163798
      ],
      [
        "Ġtechniques",
        -9.153453082439878
      ],
      [
        "Ġeyes",
        -9.154794671779976
      ],
      [
        "Ġnetwork",
        -9.154930949379883
      ],
      [
        "Ġprotein",
        -9.156437905885134
      ],
      [
        "Ġconsidered",
        -9.15775522495222
      ],
      [
        "Ġdrive",
        -9.158652530365796
      ],
      [
        "Ġwaste",
        -9.158785428266718
      ],
      [
        "ĠMe",
        -9.159623942373807
      ],
      [
        "ĠX",
        -9.159896300836674
      ],
      [
        "tri",
        -9.16013215247259
      ],
      [
        "=",
        -9.160202374317056
      ],
      [
        "ze",
        -9.161017123189747
      ],
      [
        "Ġrelationship",
        -9.16240051340852
      ],
      [
        "ĠWhil",
        -9.162870682785083
      ],
      [
        "ĠLi",
        -9.163079196828296
      ],
      [
        "ĠShe",
        -9.163774317137852
      ],
      [
        "Ġbase",
        -9.164282477887491
      ],
      [
        "ven",
        -9.164935606127315
      ],
      [
        "Ġcountry",
        -9.166077630439126
      ],
      [
        "Ġcode",
        -9.166706917482523
      ],
      [
        "Ġyourself",
        -9.166959896904611
      ],
      [
        "lar",
        -9.167459524296609
      ],
      [
        "Ġcamera",
        -9.167668529823402
      ],
      [
        "ĠCar",
        -9.168675508372177
      ],
      [
        "Ġreturn",
        -9.169151026588068
      ],
      [
        "Ġbad",
        -9.170283085848023
      ],
      [
        "Ġsetting",
        -9.170907909014396
      ],
      [
        "Ġcases",
        -9.17140897120888
      ],
      [
        "Ġprimary",
        -9.173659487019744
      ],
      [
        "Ġfeed",
        -9.174291034640165
      ],
      [
        "Ġrelease",
        -9.176042150299075
      ],
      [
        "Ġbuy",
        -9.17620994804197
      ],
      [
        "Ġprobabl",
        -9.17746332466224
      ],
      [
        "pp",
        -9.17794704591843
      ],
      [
        "Ġblue",
        -9.178624656069942
      ],
      [
        "ign",
        -9.17895193365142
      ],
      [
        "Ġprovid",
        -9.179562087483536
      ],
      [
        "Ġmultiple",
        -9.179633481599168
      ],
      [
        "Ġenhance",
        -9.180476913278788
      ],
      [
        "online",
        -9.180590508551589
      ],
      [
        "Ġchemical",
        -9.181208207248176
      ],
      [
        "Ġrec",
        -9.183487723253045
      ],
      [
        "Ġlength",
        -9.185438565416826
      ],
      [
        "ice",
        -9.185645813651607
      ],
      [
        "ash",
        -9.18671678089693
      ],
      [
        "Ġvisit",
        -9.187516526918325
      ],
      [
        "Ġactive",
        -9.18854621280541
      ],
      [
        "Ġidentify",
        -9.19046012405084
      ],
      [
        "Ġmonitor",
        -9.190460130230026
      ],
      [
        "Ġhelps",
        -9.191000443363148
      ],
      [
        "Ġattention",
        -9.191231246367996
      ],
      [
        "Ġexercise",
        -9.191628706472706
      ],
      [
        "Ġglass",
        -9.191833054531356
      ],
      [
        "Ġrelated",
        -9.192283864447203
      ],
      [
        "Ġscreen",
        -9.19250934624879
      ],
      [
        "Ġstyle",
        -9.192774662626489
      ],
      [
        "ities",
        -9.194789976110084
      ],
      [
        "Ġsoftware",
        -9.195138854682837
      ],
      [
        "Ġachieve",
        -9.19591287637075
      ],
      [
        "Ġoutside",
        -9.1960995774595
      ],
      [
        "Ġtool",
        -9.196321877152345
      ],
      [
        "Ġpay",
        -9.196409574004484
      ],
      [
        "Ġdecision",
        -9.196641742248696
      ],
      [
        "Ġca",
        -9.198590342154418
      ],
      [
        "Ġtrees",
        -9.19866003600936
      ],
      [
        "}",
        -9.198967517987096
      ],
      [
        "âĢ¦",
        -9.199273893713183
      ],
      [
        "Ġequipment",
        -9.200522124100338
      ],
      [
        "Ġex",
        -9.202086820888136
      ],
      [
        "of",
        -9.202413000189676
      ],
      [
        "qu",
        -9.202945854823271
      ],
      [
        "Ġregard",
        -9.203639320119462
      ],
      [
        "Ġsite",
        -9.20369123444749
      ],
      [
        "Ġmodern",
        -9.205992815344729
      ],
      [
        "Ġcenter",
        -9.206201167866665
      ],
      [
        "Ġma",
        -9.206308635311892
      ],
      [
        "Ġterm",
        -9.207288037987263
      ],
      [
        "Ġnight",
        -9.207773222948124
      ],
      [
        "Ġmicro",
        -9.209465732212148
      ],
      [
        "ĠRo",
        -9.209825732262969
      ],
      [
        "Ġsubject",
        -9.2114726068423
      ],
      [
        "Ġwebsite",
        -9.211490006726136
      ],
      [
        "fer",
        -9.213507696456125
      ],
      [
        ").Ċ",
        -9.21362548640098
      ],
      [
        "Ġleg",
        -9.219676279496802
      ],
      [
        "ca",
        -9.220029869475836
      ],
      [
        "Ġfeet",
        -9.221030655103595
      ],
      [
        "wa",
        -9.221271488383016
      ],
      [
        "Ġexplore",
        -9.221533850039908
      ],
      [
        "side",
        -9.222243008223106
      ],
      [
        "ĠHa",
        -9.222425377202075
      ],
      [
        "ĠDi",
        -9.22414191947207
      ],
      [
        "ward",
        -9.224297020310075
      ],
      [
        "Ġfe",
        -9.224732641269142
      ],
      [
        "Ġmass",
        -9.225219451530666
      ],
      [
        "Ġweather",
        -9.225709467360469
      ],
      [
        "Ġbreed",
        -9.225740520200103
      ],
      [
        "Ġtotal",
        -9.226279882408422
      ],
      [
        "ĠAl",
        -9.226513515679294
      ],
      [
        "Ġchoice",
        -9.227417450438928
      ],
      [
        "ile",
        -9.228687120028413
      ],
      [
        "Ġcorrect",
        -9.22921094679993
      ],
      [
        "Ġeducation",
        -9.229347181313216
      ],
      [
        "Ġpercent",
        -9.229661105152976
      ],
      [
        "Q",
        -9.230216123946548
      ],
      [
        "Ġfast",
        -9.231079797315669
      ],
      [
        "all",
        -9.23144917799448
      ],
      [
        "ries",
        -9.231492885665292
      ],
      [
        "ches",
        -9.233752446911277
      ],
      [
        "amp",
        -9.234474934926588
      ],
      [
        "Ġrepresent",
        -9.235032944731143
      ],
      [
        "Ġdiscuss",
        -9.23594996835796
      ],
      [
        "simply",
        -9.236157450981564
      ],
      [
        "Ġlater",
        -9.236934356668309
      ],
      [
        "ĠNational",
        -9.236969471681531
      ],
      [
        "Ġhalf",
        -9.238149828664724
      ],
      [
        "ĠZ",
        -9.238299309391216
      ],
      [
        "Ġextreme",
        -9.238576659114464
      ],
      [
        "Ġthemselves",
        -9.2388717501772
      ],
      [
        "Ġblock",
        -9.239134630398212
      ],
      [
        "Ġever",
        -9.24050480290288
      ],
      [
        "Ġelements",
        -9.240962178200668
      ],
      [
        "Ġgenetic",
        -9.241827637898323
      ],
      [
        "Ġdeveloped",
        -9.242037822539617
      ],
      [
        "uch",
        -9.24321219464403
      ],
      [
        "Ġguide",
        -9.243229107778967
      ],
      [
        "Ġcl",
        -9.244125266158774
      ],
      [
        "Why",
        -9.24533000607038
      ],
      [
        "Ġregular",
        -9.245548188898276
      ],
      [
        "Ġdaily",
        -9.24588014848619
      ],
      [
        "ĠPa",
        -9.248338690144376
      ],
      [
        "ĠY",
        -9.249599376665667
      ],
      [
        "Ġincreasing",
        -9.25159026231119
      ],
      [
        "Ġparticular",
        -9.252122241831175
      ],
      [
        "gra",
        -9.252586882161772
      ],
      [
        "Ġanything",
        -9.252805123625537
      ],
      [
        "RE",
        -9.253468184128105
      ],
      [
        "Ġfl",
        -9.255030968521664
      ],
      [
        "quite",
        -9.255268229031724
      ],
      [
        "par",
        -9.255728848045894
      ],
      [
        "Ġspread",
        -9.256036845001656
      ],
      [
        "Ġsometime",
        -9.256604947670407
      ],
      [
        "Ġfive",
        -9.257156973234768
      ],
      [
        "Ġsummer",
        -9.257374042360745
      ],
      [
        "Ġwind",
        -9.257509756296631
      ],
      [
        "Ġdigital",
        -9.258717555238151
      ],
      [
        "ĠCom",
        -9.25872096385451
      ],
      [
        "Ġinput",
        -9.26041024484316
      ],
      [
        "Ġlimit",
        -9.26092397636306
      ],
      [
        "Ġmilk",
        -9.2614916809593
      ],
      [
        "Ġkill",
        -9.26175241716444
      ],
      [
        "ĠMar",
        -9.261894056813318
      ],
      [
        "Ġwords",
        -9.2620599567692
      ],
      [
        "Ġfat",
        -9.2635197439269
      ],
      [
        "Ġconcept",
        -9.264133807316815
      ],
      [
        "Ġbo",
        -9.265095698837984
      ],
      [
        "lan",
        -9.266213474091476
      ],
      [
        "cent",
        -9.266426039527946
      ],
      [
        "Ġspot",
        -9.266454738216156
      ],
      [
        "ade",
        -9.26693110053632
      ],
      [
        "ĠOr",
        -9.267043738071258
      ],
      [
        "Ġorganic",
        -9.267214822403044
      ],
      [
        "Ġinstead",
        -9.268166667833436
      ],
      [
        "Ġevent",
        -9.2687186851178
      ],
      [
        "ple",
        -9.269069618468912
      ],
      [
        "life",
        -9.26970074492149
      ],
      [
        "Ġstandard",
        -9.270630950428297
      ],
      [
        "ric",
        -9.271699464263548
      ],
      [
        "Ġyet",
        -9.272525687274737
      ],
      [
        "Ġfinal",
        -9.2753273791761
      ],
      [
        "Ġdrink",
        -9.275619415023346
      ],
      [
        "Ġgain",
        -9.2759424556138
      ],
      [
        "ck",
        -9.277784565746495
      ],
      [
        "Ġadditional",
        -9.278222002323574
      ],
      [
        "Ġvisual",
        -9.27898538728486
      ],
      [
        "Ġhold",
        -9.279458165379456
      ],
      [
        "Ġestablish",
        -9.279819610208094
      ],
      [
        "One",
        -9.28013081091628
      ],
      [
        "Ġaccount",
        -9.280683834747038
      ],
      [
        "Ġfit",
        -9.281805565729108
      ],
      [
        "Ġfresh",
        -9.282277681175824
      ],
      [
        "Ġbattery",
        -9.282286212898246
      ],
      [
        "Ġunit",
        -9.282593606678972
      ],
      [
        "air",
        -9.285123621148172
      ],
      [
        "Ġtarget",
        -9.28574281450377
      ],
      [
        "Ġfriend",
        -9.28615923098609
      ],
      [
        "Ġdistance",
        -9.286582323905368
      ],
      [
        "Ġcaused",
        -9.287172853139973
      ],
      [
        "Ġsensor",
        -9.287887313798691
      ],
      [
        "Ġhumans",
        -9.28830589955623
      ],
      [
        "use",
        -9.2887772717027
      ],
      [
        "ists",
        -9.289731185010604
      ],
      [
        "Ġear",
        -9.28997292965425
      ],
      [
        "ĠHere",
        -9.290176071474598
      ],
      [
        "$",
        -9.2915165625172
      ],
      [
        "ene",
        -9.292811233931646
      ],
      [
        "ĠEarth",
        -9.293404109294048
      ],
      [
        "Ġitself",
        -9.294314615767464
      ],
      [
        "\\",
        -9.294396352069707
      ],
      [
        "Ġanalysis",
        -9.294606955836208
      ],
      [
        "let",
        -9.294662298294806
      ],
      [
        "Ġsuccessful",
        -9.296198638043544
      ],
      [
        "Ġbird",
        -9.297605140734982
      ],
      [
        "Ġconduct",
        -9.29768560064838
      ],
      [
        "Ġreading",
        -9.2982264349559
      ],
      [
        "rac",
        -9.29915219636135
      ],
      [
        "Ġ</",
        -9.299568107731991
      ],
      [
        "ĠDNA",
        -9.299572372746516
      ],
      [
        "Ġproper",
        -9.299720076158806
      ],
      [
        "Ġwon",
        -9.299802612212378
      ],
      [
        "Ġago",
        -9.301260168391025
      ],
      [
        "port",
        -9.301606787621784
      ],
      [
        "ĠScience",
        -9.303504040138938
      ],
      [
        "uff",
        -9.304288481553254
      ],
      [
        "Ġfactor",
        -9.305400722694484
      ],
      [
        "Ġcustomer",
        -9.305636326729717
      ],
      [
        "Ġvehicle",
        -9.305725140939469
      ],
      [
        "Ġtrack",
        -9.308899969896078
      ],
      [
        "Ġcomponents",
        -9.310089030998885
      ],
      [
        "set",
        -9.310317604143115
      ],
      [
        "Ġservices",
        -9.313692051440626
      ],
      [
        "ran",
        -9.314058889089402
      ],
      [
        "Ġattack",
        -9.314106244874688
      ],
      [
        "Ġplayer",
        -9.314252609802244
      ],
      [
        "Ġreduc",
        -9.314281044318175
      ],
      [
        "Ġsuccess",
        -9.314701675684931
      ],
      [
        "Ġregion",
        -9.314765393779355
      ],
      [
        "ger",
        -9.315154826745552
      ],
      [
        "Ġexact",
        -9.31606038811229
      ],
      [
        "ction",
        -9.316923741420702
      ],
      [
        "Ġbacteria",
        -9.317127775653956
      ],
      [
        "seen",
        -9.318226406583754
      ],
      [
        "Ġstudent",
        -9.318525431602266
      ],
      [
        "Ġimmun",
        -9.32026016574412
      ],
      [
        "Ã",
        -9.320997934071858
      ],
      [
        "ĠUS",
        -9.322593411357818
      ],
      [
        "Ġconcern",
        -9.32309405109032
      ],
      [
        "Ġapply",
        -9.324222222907176
      ],
      [
        "Ġsave",
        -9.324470659123154
      ],
      [
        "Ġbrand",
        -9.325826875066513
      ],
      [
        "com",
        -9.326242503928151
      ],
      [
        "Ġkids",
        -9.32654499044926
      ],
      [
        "ĠTh",
        -9.326927846565509
      ],
      [
        "Ġtrue",
        -9.327015531871876
      ],
      [
        "But",
        -9.328779251750609
      ],
      [
        "Ġadvantage",
        -9.32900985136314
      ],
      [
        "Ġdark",
        -9.32906772158279
      ],
      [
        "Ġtissue",
        -9.32989480893086
      ],
      [
        "day",
        -9.329991054667609
      ],
      [
        "Ġphoto",
        -9.330357903444987
      ],
      [
        "Ġpage",
        -9.332211324372848
      ],
      [
        "Ġharm",
        -9.332334921642572
      ],
      [
        "Ġserve",
        -9.333579134890435
      ],
      [
        "Ġapplications",
        -9.334055847118586
      ],
      [
        "Ġexperiment",
        -9.334244858642188
      ],
      [
        "Ġpurpose",
        -9.33614480443186
      ],
      [
        "Ġnegative",
        -9.337002793084093
      ],
      [
        "Ġfill",
        -9.339077975876007
      ],
      [
        "Ġextra",
        -9.33974511785526
      ],
      [
        "Ġlink",
        -9.340771714805276
      ],
      [
        "Ġapplication",
        -9.341748983876982
      ],
      [
        "pos",
        -9.343158916821404
      ],
      [
        "Ġdisplay",
        -9.343313520266236
      ],
      [
        "mal",
        -9.343964630281928
      ],
      [
        "ĠAfter",
        -9.343990100710805
      ],
      [
        "ĠHealth",
        -9.34403223699494
      ],
      [
        "Do",
        -9.344150014640096
      ],
      [
        "Ġcompar",
        -9.344522204379103
      ],
      [
        "Ġmeet",
        -9.344942568580992
      ],
      [
        "Ġocean",
        -9.34596057087199
      ],
      [
        "Ġdeal",
        -9.346538820016548
      ],
      [
        "Can",
        -9.34734369173392
      ],
      [
        "Ġdraw",
        -9.347541733692344
      ],
      [
        "ĠFi",
        -9.349105099234684
      ],
      [
        "ĠNorth",
        -9.350059742434734
      ],
      [
        "che",
        -9.351264131258066
      ],
      [
        "oid",
        -9.351370219726626
      ],
      [
        "Ġeasie",
        -9.352488346229404
      ],
      [
        "Ġanti",
        -9.35391003781491
      ],
      [
        "form",
        -9.354305779030128
      ],
      [
        "Ġfront",
        -9.355883409513764
      ],
      [
        "gainst",
        -9.356764156539136
      ],
      [
        "Ġhear",
        -9.357253538358677
      ],
      [
        "ood",
        -9.359255472409124
      ],
      [
        "Ġmusic",
        -9.35928343587691
      ],
      [
        "Ġcommunication",
        -9.359714589784542
      ],
      [
        "Ġaspect",
        -9.360471959391404
      ],
      [
        "Ġprice",
        -9.360563399964676
      ],
      [
        "Ġinter",
        -9.362899908201824
      ],
      [
        "Ġmeat",
        -9.363994694831243
      ],
      [
        "Ġcontribute",
        -9.365175412375644
      ],
      [
        "und",
        -9.365211694004586
      ],
      [
        "Ġprovided",
        -9.36572205594822
      ],
      [
        "ory",
        -9.36596017878678
      ],
      [
        "Ġconnect",
        -9.368262813588837
      ],
      [
        "Ġgovernment",
        -9.36852986740237
      ],
      [
        "#",
        -9.370607655559516
      ],
      [
        "work",
        -9.374181709278869
      ],
      [
        "time",
        -9.374296312803189
      ],
      [
        "Ġrock",
        -9.375194745306995
      ],
      [
        "Ġprocesses",
        -9.375694665042351
      ],
      [
        "har",
        -9.375927357526116
      ],
      [
        "Ġten",
        -9.376290407018304
      ],
      [
        "ĠSa",
        -9.376994450108306
      ],
      [
        "Ġwatch",
        -9.377790081312405
      ],
      [
        "Ġbreath",
        -9.377962541029934
      ],
      [
        "Ġpick",
        -9.381019385574737
      ],
      [
        "hu",
        -9.381276355859493
      ],
      [
        "len",
        -9.381377598124374
      ],
      [
        "izing",
        -9.38231751262476
      ],
      [
        "Ġappropriate",
        -9.382451523542189
      ],
      [
        "Ġbaby",
        -9.383553801228016
      ],
      [
        "Ġmoment",
        -9.38359812455061
      ],
      [
        "Ġreview",
        -9.383598935965365
      ],
      [
        "Ġindicate",
        -9.384154124777908
      ],
      [
        "ĠSouth",
        -9.384189794060038
      ],
      [
        "Ġload",
        -9.386203385633904
      ],
      [
        "Ġeggs",
        -9.386488376216263
      ],
      [
        "Ġfemale",
        -9.38728870657348
      ],
      [
        "Ġice",
        -9.387613427570066
      ],
      [
        "Ġculture",
        -9.388595790496296
      ],
      [
        "Ġevidence",
        -9.389164656031324
      ],
      [
        "Ġdirection",
        -9.3925726946991
      ],
      [
        "Ġcharge",
        -9.392939559594728
      ],
      [
        "where",
        -9.393888949711542
      ],
      [
        "Ġcollect",
        -9.393921908082092
      ],
      [
        "ology",
        -9.39497225656742
      ],
      [
        "Ġcap",
        -9.39550678032759
      ],
      [
        "Ġdiscover",
        -9.396769563300564
      ],
      [
        "Ġpo",
        -9.397914479828636
      ],
      [
        "lat",
        -9.3999831464136
      ],
      [
        "Ġfeature",
        -9.400646507220683
      ],
      [
        "Ġsleep",
        -9.403336095491277
      ],
      [
        "Ġlack",
        -9.403584881158189
      ],
      [
        "Ġteeth",
        -9.404309639054876
      ],
      [
        "fish",
        -9.404543353134724
      ],
      [
        "Ġlocation",
        -9.404927135211004
      ],
      [
        "Ġtouch",
        -9.405201036628764
      ],
      [
        "Ġdoctor",
        -9.405263844232216
      ],
      [
        "Ġparticularly",
        -9.40560593331199
      ],
      [
        "Ġdidn",
        -9.40812266373426
      ],
      [
        "gg",
        -9.408169592361988
      ],
      [
        "Ġsh",
        -9.408856056893756
      ],
      [
        "ping",
        -9.409743971069975
      ],
      [
        "kin",
        -9.410366043386446
      ],
      [
        "Ġeating",
        -9.412665851542528
      ],
      [
        "Ġmental",
        -9.41302821685414
      ],
      [
        "Ġcritical",
        -9.413669469531916
      ],
      [
        "sustainable",
        -9.414424572918424
      ],
      [
        "ĠStates",
        -9.41544974006882
      ],
      [
        "led",
        -9.415704818699478
      ],
      [
        "âĢĿ",
        -9.416433743854364
      ],
      [
        "ix",
        -9.416850717493489
      ],
      [
        "ible",
        -9.417361038289071
      ],
      [
        "Ġapp",
        -9.41817595384542
      ],
      [
        "Ġrunning",
        -9.418841277831902
      ],
      [
        "Ġworks",
        -9.419786037951916
      ],
      [
        "Ġobserve",
        -9.420282033453311
      ],
      [
        "Ġpull",
        -9.421735279927884
      ],
      [
        "ging",
        -9.421880811864856
      ],
      [
        "Ġsection",
        -9.423622934637969
      ],
      [
        "Ġsuper",
        -9.424314124917654
      ],
      [
        "Ġboard",
        -9.42439462398066
      ],
      [
        "Ġbox",
        -9.424651352397184
      ],
      [
        "Ġterms",
        -9.424757327390624
      ],
      [
        "ĠSe",
        -9.425113703111306
      ],
      [
        "log",
        -9.42536570999672
      ],
      [
        "Ġchance",
        -9.425599780055204
      ],
      [
        "Ġeveryone",
        -9.426363859854863
      ],
      [
        "Ġmu",
        -9.427133946033894
      ],
      [
        "AR",
        -9.42750623605003
      ],
      [
        "Ġdirect",
        -9.427891196991526
      ],
      [
        "Ġstory",
        -9.430106052450297
      ],
      [
        "Ġword",
        -9.430177389891057
      ],
      [
        "Ġsearch",
        -9.430472054769949
      ],
      [
        "Ġelse",
        -9.430686744526234
      ],
      [
        "Ġflavor",
        -9.431377321635097
      ],
      [
        "Ġrat",
        -9.431417387901906
      ],
      [
        "ĠPer",
        -9.43159506375537
      ],
      [
        "Ġsign",
        -9.432886621308429
      ],
      [
        "Ġshows",
        -9.433435447751854
      ],
      [
        "Ġhope",
        -9.434525741900888
      ],
      [
        "Ġgoal",
        -9.434934121438978
      ],
      [
        "Ġnotice",
        -9.43505510097334
      ],
      [
        "mar",
        -9.436166452771438
      ],
      [
        "ose",
        -9.436446185854816
      ],
      [
        "Ġaim",
        -9.436673170707882
      ],
      [
        ".\"",
        -9.436829948724236
      ],
      [
        "Ġequal",
        -9.437283165556035
      ],
      [
        "Ġconnection",
        -9.437487297653426
      ],
      [
        "Ġsupply",
        -9.43826041457976
      ],
      [
        "Ġproduced",
        -9.438502092925312
      ],
      [
        "Ġoccur",
        -9.438896802564283
      ],
      [
        "Ġtend",
        -9.43908688721502
      ],
      [
        "Ġstatement",
        -9.439547352440892
      ],
      [
        "Ġbio",
        -9.440258437449888
      ],
      [
        "Ġinfluence",
        -9.44058062793263
      ],
      [
        "Ġparticle",
        -9.441237476721408
      ],
      [
        "Ġslow",
        -9.442032483418185
      ],
      [
        "Ġroad",
        -9.443316788401203
      ],
      [
        "Ġmeal",
        -9.444662775090336
      ],
      [
        "Ġmulti",
        -9.444810365200487
      ],
      [
        "ĠFrom",
        -9.445543089325708
      ],
      [
        "Sp",
        -9.446048705063976
      ],
      [
        "Ġspring",
        -9.446443473893538
      ],
      [
        "Ġhole",
        -9.447903490818934
      ],
      [
        "qua",
        -9.448129548865486
      ],
      [
        "Ġserious",
        -9.448180901056364
      ],
      [
        "Ġla",
        -9.448287964013565
      ],
      [
        "Ġdiseases",
        -9.448449778581864
      ],
      [
        "Ġconstant",
        -9.449174781186771
      ],
      [
        "Ġenter",
        -9.449777334825786
      ],
      [
        "-to",
        -9.45035763875246
      ],
      [
        "Ġframe",
        -9.450764227515002
      ],
      [
        "ĠOf",
        -9.45101635722192
      ],
      [
        "Ġdocument",
        -9.452170712761584
      ],
      [
        "Ġpromote",
        -9.453171090109953
      ],
      [
        "companie",
        -9.454388327324695
      ],
      [
        "Ġapplie",
        -9.455148446558107
      ],
      [
        "Ġoutput",
        -9.45570079597684
      ],
      [
        "Ġac",
        -9.456546578800031
      ],
      [
        "ĠYes",
        -9.456952330990188
      ],
      [
        "Ġmanage",
        -9.458145155808396
      ],
      [
        "Ġfilter",
        -9.458205028485605
      ],
      [
        "Ġpiece",
        -9.460089633715407
      ],
      [
        "more",
        -9.460288247054557
      ],
      [
        "Ġbuilt",
        -9.460447952892173
      ],
      [
        "Ġstrength",
        -9.461553382050052
      ],
      [
        "bu",
        -9.462366381211332
      ],
      [
        "Ġjob",
        -9.46313220723453
      ],
      [
        "Ġstem",
        -9.465216148557298
      ],
      [
        "Ġmonth",
        -9.46692140813046
      ],
      [
        "Ġtaste",
        -9.466958699643794
      ],
      [
        "Ġball",
        -9.46705121976296
      ],
      [
        "bra",
        -9.467337437832754
      ],
      [
        "Ġcook",
        -9.467372980936757
      ],
      [
        "With",
        -9.46811871806383
      ],
      [
        "Ġideal",
        -9.468147926166443
      ],
      [
        "Z",
        -9.46869420745666
      ],
      [
        "ari",
        -9.468951954674967
      ],
      [
        "ĠâĢľ",
        -9.4690950717657
      ],
      [
        "older",
        -9.46977136478122
      ],
      [
        "Ġpaint",
        -9.46978556560252
      ],
      [
        "ĠUse",
        -9.470551723771516
      ],
      [
        "Ġproperly",
        -9.47143818267583
      ],
      [
        "ese",
        -9.471528920528414
      ],
      [
        "Ġfine",
        -9.471804500555358
      ],
      [
        "Ġseries",
        -9.472502343436926
      ],
      [
        "Ġbehin",
        -9.47308010023352
      ],
      [
        ".S",
        -9.473879561811888
      ],
      [
        "ĠAmerica",
        -9.474012597035127
      ],
      [
        "Ġproperties",
        -9.47444510771946
      ],
      [
        "Ġevents",
        -9.474907574888878
      ],
      [
        "Ġseparate",
        -9.475005094193875
      ],
      [
        "Ġfoods",
        -9.475387202336552
      ],
      [
        "Ġalternative",
        -9.476475421478732
      ],
      [
        "Ġfile",
        -9.476490407554085
      ],
      [
        "Ġuseful",
        -9.476721849065882
      ],
      [
        "Ġcombination",
        -9.476854990389564
      ],
      [
        "Ġscale",
        -9.47693791474827
      ],
      [
        "Ġcarry",
        -9.476954279152976
      ],
      [
        "Ġcount",
        -9.478431474727383
      ],
      [
        "ĠHo",
        -9.478893020220996
      ],
      [
        "Ġfoot",
        -9.478961809571942
      ],
      [
        "ĠMore",
        -9.479562476477216
      ],
      [
        "Ġdemand",
        -9.479566283575608
      ],
      [
        "Ġdirectly",
        -9.480041959803454
      ],
      [
        "ture",
        -9.480850394695269
      ],
      [
        "Ġfeeling",
        -9.481083306915142
      ],
      [
        "On",
        -9.481203197804444
      ],
      [
        "Their",
        -9.48149398922871
      ],
      [
        "Ġdeath",
        -9.481688450134664
      ],
      [
        "{",
        -9.482628345657597
      ],
      [
        "Ġpot",
        -9.482724931150534
      ],
      [
        "Ġgrade",
        -9.483405038106214
      ],
      [
        "Ġhair",
        -9.483744220622103
      ],
      [
        "Ġtransport",
        -9.48375034625597
      ],
      [
        "Ġstar",
        -9.483835325713809
      ],
      [
        "Ġsix",
        -9.484005722103486
      ],
      [
        "Ġinvolved",
        -9.48419713916828
      ],
      [
        "Ġmembers",
        -9.484366655894668
      ],
      [
        "Ġlives",
        -9.484643990387015
      ],
      [
        "Ġcapacit",
        -9.484713709031578
      ],
      [
        "ept",
        -9.485561845550382
      ],
      [
        "ER",
        -9.485957376144494
      ],
      [
        "And",
        -9.486140947527923
      ],
      [
        "Ġmotor",
        -9.48680696958388
      ],
      [
        "Ġtire",
        -9.48788522603578
      ],
      [
        "Ġcountr",
        -9.488035691980356
      ],
      [
        "Ġgreater",
        -9.488240319941347
      ],
      [
        "Ġgrass",
        -9.48836542161867
      ],
      [
        "Ġimages",
        -9.488498681892793
      ],
      [
        "Ġvision",
        -9.488961337969837
      ],
      [
        "Ġinitial",
        -9.490960773411135
      ],
      [
        "Ġcross",
        -9.491013285704817
      ],
      [
        "ification",
        -9.49115196611224
      ],
      [
        "ST",
        -9.491240127431418
      ],
      [
        "Ġbar",
        -9.491857819823377
      ],
      [
        "Ġphase",
        -9.492331322187855
      ],
      [
        "Ġtank",
        -9.493018246910369
      ],
      [
        "Ġswitch",
        -9.493491688083465
      ],
      [
        "Ġoriginal",
        -9.494549400573796
      ],
      [
        "Ġclaim",
        -9.494572295556331
      ],
      [
        "Ġcolors",
        -9.494754134257905
      ],
      [
        "pl",
        -9.494917625866954
      ],
      [
        "Ġremember",
        -9.495099743530512
      ],
      [
        "ĠJu",
        -9.495892976115387
      ],
      [
        "Ġbag",
        -9.496086426395014
      ],
      [
        "Ġslight",
        -9.496150053042523
      ],
      [
        "ĠCr",
        -9.496374326804467
      ],
      [
        "Ġcaus",
        -9.49684525833755
      ],
      [
        "ĠPre",
        -9.497306891044108
      ],
      [
        "Ġcycle",
        -9.498025329794068
      ],
      [
        "Ġlaw",
        -9.500439661813136
      ],
      [
        "water",
        -9.502050590207674
      ],
      [
        "Ġwheel",
        -9.50207834383268
      ],
      [
        "chi",
        -9.502511232031598
      ],
      [
        "Ġcompare",
        -9.502704592700118
      ],
      [
        "ĠGo",
        -9.502971129905914
      ],
      [
        "Ġinstall",
        -9.503559230644626
      ],
      [
        "Ġbi",
        -9.5039474166844
      ],
      [
        "Ġwar",
        -9.505252950616104
      ],
      [
        "ink",
        -9.505506517670764
      ],
      [
        "Ġsteps",
        -9.505686284496417
      ],
      [
        "Ġ+",
        -9.50594952002581
      ],
      [
        "âĢ¢",
        -9.506189091558458
      ],
      [
        "Ġpatterns",
        -9.507511755427808
      ],
      [
        "Ġnote",
        -9.509028163232143
      ],
      [
        "ĠEx",
        -9.509491269164426
      ],
      [
        "Ġhost",
        -9.509555301210314
      ],
      [
        "ĠBu",
        -9.510527030136938
      ],
      [
        "Ġmale",
        -9.511999982500535
      ],
      [
        "ĠUs",
        -9.512062082729182
      ],
      [
        "Ġpoor",
        -9.512419777988846
      ],
      [
        "Ġencourage",
        -9.51245774720896
      ],
      [
        "Ġensur",
        -9.513712828388943
      ],
      [
        "Ġsoft",
        -9.514105244565531
      ],
      [
        "-in",
        -9.51415490756915
      ],
      [
        "Ġseeds",
        -9.514468075792868
      ],
      [
        "ĠAre",
        -9.514564958868148
      ],
      [
        "Ġadapt",
        -9.517352899207676
      ],
      [
        "Ġextend",
        -9.518348663474118
      ],
      [
        "own",
        -9.518916469245417
      ],
      [
        "ĠMy",
        -9.52028417178192
      ],
      [
        "Ġefficienc",
        -9.520408488596416
      ],
      [
        "ants",
        -9.520979582715714
      ],
      [
        "Ġdecrease",
        -9.521556363460157
      ],
      [
        "Â°",
        -9.521567692997143
      ],
      [
        "Ġinstruction",
        -9.521583454913262
      ],
      [
        "Ġsituation",
        -9.52172815662406
      ],
      [
        "**",
        -9.521934929201302
      ],
      [
        "Ġcircuit",
        -9.522628961932735
      ],
      [
        "Ġscientific",
        -9.523703051455463
      ],
      [
        "Ġreflect",
        -9.524313737865128
      ],
      [
        "itis",
        -9.524437543477235
      ],
      [
        "Ġgra",
        -9.52456758288998
      ],
      [
        "Ġvalues",
        -9.525106696166729
      ],
      [
        "den",
        -9.527044672429478
      ],
      [
        "Ġprett",
        -9.527100459788365
      ],
      [
        "men",
        -9.52719658099178
      ],
      [
        "cer",
        -9.527344063375132
      ],
      [
        "Ġlines",
        -9.528424942087351
      ],
      [
        "Whil",
        -9.529733035444352
      ],
      [
        "Ġphone",
        -9.5302708024651
      ],
      [
        "Ġplanet",
        -9.530378537642909
      ],
      [
        "Ġvitamin",
        -9.531254454422443
      ],
      [
        "ore",
        -9.53222598942158
      ],
      [
        "Ġtips",
        -9.53471536011589
      ],
      [
        "low",
        -9.535364905637511
      ],
      [
        "ĠSchool",
        -9.536899790130386
      ],
      [
        "Ġarm",
        -9.537761448929126
      ],
      [
        "Ġaccurate",
        -9.537772554607551
      ],
      [
        "Ġcur",
        -9.538021220506884
      ],
      [
        "ĠVi",
        -9.538659742533856
      ],
      [
        "Ġestimate",
        -9.538864665308978
      ],
      [
        "Ġrequirements",
        -9.540280914104985
      ],
      [
        "Ġraise",
        -9.54216515040772
      ],
      [
        "Ġstage",
        -9.542319019342198
      ],
      [
        "Ġroot",
        -9.543504810930102
      ],
      [
        "ĠWorld",
        -9.544108496357204
      ],
      [
        "ĠNot",
        -9.544815851676198
      ],
      [
        "Ġversion",
        -9.545445573967484
      ],
      [
        "Ġsolar",
        -9.545875932837603
      ],
      [
        "Ġgeneration",
        -9.546610460933923
      ],
      [
        "Ġlate",
        -9.548073182064854
      ],
      [
        "ĠSu",
        -9.548428282944334
      ],
      [
        "Ġmuscle",
        -9.549139558967097
      ],
      [
        "ĠAr",
        -9.549582758369702
      ],
      [
        "Ġfloor",
        -9.549866286604392
      ],
      [
        "Ġpest",
        -9.5504285126991
      ],
      [
        "Ġprotection",
        -9.551102589568336
      ],
      [
        "ĠResearch",
        -9.551228394784577
      ],
      [
        "ES",
        -9.551914061384778
      ],
      [
        "Ġsmooth",
        -9.554034035142552
      ],
      [
        "Ġmoving",
        -9.554404208331253
      ],
      [
        "Ġadjust",
        -9.554866180740216
      ],
      [
        "Ġfinish",
        -9.556543891096052
      ],
      [
        "Ġresponsibl",
        -9.557254487688994
      ],
      [
        "Ġliquid",
        -9.558698881058843
      ],
      [
        "Ġhappens",
        -9.56002144338634
      ],
      [
        "Ġpair",
        -9.560908028832468
      ],
      [
        "wing",
        -9.560936707957351
      ],
      [
        "Ġgoe",
        -9.56245707914585
      ],
      [
        "Ġgl",
        -9.563449235171088
      ],
      [
        "Ġhandle",
        -9.563513247725036
      ],
      [
        "Ġdate",
        -9.563630687016063
      ],
      [
        "ja",
        -9.564049232263445
      ],
      [
        "care",
        -9.566329666437724
      ],
      [
        "No",
        -9.566956020781314
      ],
      [
        "Ġbr",
        -9.567466445023255
      ],
      [
        "Ġtesting",
        -9.567707738787114
      ],
      [
        "Ġiron",
        -9.56772480209521
      ],
      [
        "Ġfrequent",
        -9.568765616550431
      ],
      [
        "val",
        -9.568922229873504
      ],
      [
        "eat",
        -9.569125004194053
      ],
      [
        "ĠMost",
        -9.570333965901886
      ],
      [
        "Ġbottom",
        -9.57101662967004
      ],
      [
        "Ġelectrical",
        -9.571102240957355
      ],
      [
        "Ġrepair",
        -9.57222782064837
      ],
      [
        "art",
        -9.572485177163657
      ],
      [
        "Ġsteel",
        -9.573284908301178
      ],
      [
        "-term",
        -9.573446805877278
      ],
      [
        "Be",
        -9.574037523069316
      ],
      [
        "Ġrich",
        -9.574450236133275
      ],
      [
        "Ġcame",
        -9.575300078664764
      ],
      [
        "Ġreasons",
        -9.576530642876955
      ],
      [
        "Ġcareful",
        -9.577495760698692
      ],
      [
        "Ġvary",
        -9.578053550204729
      ],
      [
        "Ġmen",
        -9.578225532347496
      ],
      [
        "Ġinjur",
        -9.578230604259776
      ],
      [
        "Ġstick",
        -9.5783488905078
      ],
      [
        "ĠMu",
        -9.578719716182311
      ],
      [
        "ĠRi",
        -9.578810365212796
      ],
      [
        "Ġmatch",
        -9.579413543811292
      ],
      [
        "<",
        -9.582448669724576
      ],
      [
        "Ġpoints",
        -9.583547532508245
      ],
      [
        "Ġdoor",
        -9.583850777573666
      ],
      [
        "Ġnoise",
        -9.584720062767136
      ],
      [
        "ition",
        -9.585082209520426
      ],
      [
        "Pro",
        -9.58539749751543
      ],
      [
        "ĠJapan",
        -9.58577694613371
      ],
      [
        "Ġcontainer",
        -9.585833125907165
      ],
      [
        "Ġbrown",
        -9.586993540150823
      ],
      [
        "Ġfiber",
        -9.58817612535905
      ],
      [
        "cor",
        -9.58870405568665
      ],
      [
        "ĠWho",
        -9.589706606133577
      ],
      [
        "Ġprograms",
        -9.589740872327456
      ],
      [
        "Ġsuitable",
        -9.589963925455216
      ],
      [
        "Ġexpect",
        -9.590296738834546
      ],
      [
        "Ġoxygen",
        -9.5903591027455
      ],
      [
        "Ġemission",
        -9.590518044434562
      ],
      [
        "Ġmechanism",
        -9.591506813525893
      ],
      [
        "rom",
        -9.591724735313976
      ],
      [
        "ped",
        -9.592636358962904
      ],
      [
        "Ġwindow",
        -9.592884738537428
      ],
      [
        "Ġeconomic",
        -9.593485925100069
      ],
      [
        "ĠCenter",
        -9.593831101918964
      ],
      [
        "ĠMany",
        -9.595982923502577
      ],
      [
        "Ġdeveloping",
        -9.596913676587526
      ],
      [
        "ĠAdditional",
        -9.598294673294532
      ],
      [
        "Ġtemperatures",
        -9.59998826153889
      ],
      [
        "Ġinteraction",
        -9.600056878954874
      ],
      [
        "Ġpush",
        -9.601916238116104
      ],
      [
        "ĠAir",
        -9.602557174517198
      ],
      [
        "Ġjourney",
        -9.603074295892638
      ],
      [
        "Ġmanufactur",
        -9.603824603741453
      ],
      [
        "mic",
        -9.603920742972416
      ],
      [
        "Ġefficient",
        -9.603958298576382
      ],
      [
        "He",
        -9.604289334231144
      ],
      [
        "Ġsevere",
        -9.604669695337067
      ],
      [
        "Ġcity",
        -9.60478804096348
      ],
      [
        "Ġfigure",
        -9.60527728956638
      ],
      [
        "Ġrefer",
        -9.60653886389667
      ],
      [
        "giving",
        -9.606602522335956
      ],
      [
        "ĠWhy",
        -9.607416965885252
      ],
      [
        "Ġobtain",
        -9.607739026337502
      ],
      [
        "Ġaccept",
        -9.608527896922128
      ],
      [
        "-up",
        -9.609343843543904
      ],
      [
        "Ġpublished",
        -9.609582435895897
      ],
      [
        "Ġvi",
        -9.610509255573293
      ],
      [
        "ious",
        -9.610592011926109
      ],
      [
        "Ġwriting",
        -9.61125192212003
      ],
      [
        "Ġconsist",
        -9.611272803399658
      ],
      [
        "Ġsigns",
        -9.612640335429615
      ],
      [
        "Ġsalt",
        -9.612951805136015
      ],
      [
        "Ġgene",
        -9.614096526523491
      ],
      [
        "rap",
        -9.615236506372227
      ],
      [
        "Ġreaction",
        -9.616840557022446
      ],
      [
        "Ġwire",
        -9.622458731373731
      ],
      [
        "Ġdur",
        -9.62267996808916
      ],
      [
        "Ġhit",
        -9.623171932374587
      ],
      [
        "Ġpractices",
        -9.62364063426818
      ],
      [
        "These",
        -9.624622688915174
      ],
      [
        "By",
        -9.62518763599141
      ],
      [
        "Ġcompound",
        -9.626702090380071
      ],
      [
        "Ġ--",
        -9.626942866261675
      ],
      [
        "vol",
        -9.626993959702435
      ],
      [
        "Ġfr",
        -9.627209186614692
      ],
      [
        "IN",
        -9.627244619129236
      ],
      [
        "Ġyellow",
        -9.627810659303432
      ],
      [
        "Ġcouple",
        -9.6302013611812
      ],
      [
        "Ġnutrients",
        -9.630857853004889
      ],
      [
        "Ġwrong",
        -9.631394842476812
      ],
      [
        "Ġresistance",
        -9.63154025829828
      ],
      [
        "Ġmis",
        -9.631802661031148
      ],
      [
        "Ġchicken",
        -9.632605577363492
      ],
      [
        "Ġnothing",
        -9.634445427400143
      ],
      [
        "gar",
        -9.634751345790908
      ],
      [
        "Ġmemory",
        -9.634993060693107
      ],
      [
        "Ġnumbers",
        -9.635658476670574
      ],
      [
        "Ġingredients",
        -9.636219965120809
      ],
      [
        "mat",
        -9.63710649689078
      ],
      [
        "Ġbasi",
        -9.637190303130495
      ],
      [
        "Ġvegetables",
        -9.637259162778903
      ],
      [
        "Ġsell",
        -9.637857831235856
      ],
      [
        "ĠCO",
        -9.637860971757268
      ],
      [
        "Ġmotion",
        -9.638888153947743
      ],
      [
        "Ġpack",
        -9.640243550102912
      ],
      [
        "ĠWi",
        -9.640953750592596
      ],
      [
        "ĠEven",
        -9.641308997676
      ],
      [
        "top",
        -9.641533748517295
      ],
      [
        "tenance",
        -9.64153907217172
      ],
      [
        "Ġcats",
        -9.641851698578083
      ],
      [
        "rate",
        -9.641912681495906
      ],
      [
        "Ġinstance",
        -9.64224689460924
      ],
      [
        "Ġseek",
        -9.643029258643022
      ],
      [
        "Ġfund",
        -9.643701652343434
      ],
      [
        "nic",
        -9.644628058802889
      ],
      [
        "Ġconsumpti",
        -9.645717642103811
      ],
      [
        "Ġvia",
        -9.645888122313975
      ],
      [
        "Ġvariable",
        -9.647076715816098
      ],
      [
        "ĠLet",
        -9.647354974390089
      ],
      [
        "Ġimportan",
        -9.64792241058371
      ],
      [
        "Ġfriends",
        -9.648128423909334
      ],
      [
        "phy",
        -9.648939736066689
      ],
      [
        "Ġstand",
        -9.649244618853851
      ],
      [
        "Ġstorage",
        -9.64962254012201
      ],
      [
        "cho",
        -9.650034229315365
      ],
      [
        "Ġconstruction",
        -9.650178221575528
      ],
      [
        "Ġelement",
        -9.650797629874887
      ],
      [
        "Ġwrite",
        -9.651264726172702
      ],
      [
        "Ġinteresting",
        -9.65127644944564
      ],
      [
        "ĠOur",
        -9.651409994883537
      ],
      [
        "Ġusers",
        -9.65194026178884
      ],
      [
        "Ġbeautiful",
        -9.65195171701019
      ],
      [
        "Ġsweet",
        -9.651969438322372
      ],
      [
        "Ġpredict",
        -9.651974875172716
      ],
      [
        "Ġfilm",
        -9.652027752706005
      ],
      [
        "Ġtherapy",
        -9.65307369250986
      ],
      [
        "Ġconvert",
        -9.653195529309992
      ],
      [
        "Ġmessage",
        -9.653313770173227
      ],
      [
        "Ġrise",
        -9.653350292072858
      ],
      [
        "ĠNe",
        -9.654039480741384
      ],
      [
        "Ġspend",
        -9.654283435354373
      ],
      [
        "Ġsubstance",
        -9.65562400736406
      ],
      [
        "Ġwonder",
        -9.655661578227804
      ],
      [
        "lost",
        -9.656446033691326
      ],
      [
        "Ġrare",
        -9.657166682908777
      ],
      [
        "Ġcollection",
        -9.657620544463136
      ],
      [
        "Ġearth",
        -9.657726419979412
      ],
      [
        "Ġwait",
        -9.658145395824112
      ],
      [
        "ĠEn",
        -9.65860597799433
      ],
      [
        "Ġtask",
        -9.659203331929728
      ],
      [
        "Ġcoast",
        -9.659434412938133
      ],
      [
        "Ġtechnique",
        -9.6604838848166
      ],
      [
        "ther",
        -9.660573459153404
      ],
      [
        "Ġexposure",
        -9.660587307345793
      ],
      [
        "Ġsolid",
        -9.660643575035095
      ],
      [
        "oma",
        -9.660837375341416
      ],
      [
        "Ġflight",
        -9.662070900091994
      ],
      [
        "Ġbank",
        -9.663088208725616
      ],
      [
        "Ġfight",
        -9.664351772479275
      ],
      [
        "ware",
        -9.66662727757392
      ],
      [
        "Ġsend",
        -9.667226100862514
      ],
      [
        "limited",
        -9.66727751238841
      ],
      [
        "Ġheavy",
        -9.667962683893473
      ],
      [
        "Ġpowerful",
        -9.668017978149813
      ],
      [
        "They",
        -9.668980421887778
      ],
      [
        "Ġlandscape",
        -9.669652696340574
      ],
      [
        "AN",
        -9.671463906057774
      ],
      [
        "ĠPi",
        -9.671955481692583
      ],
      [
        "Ġtheory",
        -9.672990943156528
      ],
      [
        "ĠNOT",
        -9.673170097920869
      ],
      [
        "uck",
        -9.673670083255235
      ],
      [
        "Ġmark",
        -9.673900453816447
      ],
      [
        "Ġweb",
        -9.674112790875265
      ],
      [
        "Ġideas",
        -9.674810446601544
      ],
      [
        "Ġradio",
        -9.674866597696782
      ],
      [
        "Ġdeliver",
        -9.67500283806687
      ],
      [
        "Ġrice",
        -9.675284939390046
      ],
      [
        "Ġmedication",
        -9.67543868428668
      ],
      [
        "efore",
        -9.675528764915626
      ],
      [
        "Ġgenerate",
        -9.676579230024773
      ],
      [
        "ĠKi",
        -9.676727199801322
      ],
      [
        "Ġready",
        -9.676908054137485
      ],
      [
        "Ġflat",
        -9.677025243447943
      ],
      [
        "ĠWar",
        -9.677316609222238
      ],
      [
        "Ġbone",
        -9.67797195955216
      ],
      [
        "Ġpath",
        -9.67865447777783
      ],
      [
        "Ġjoint",
        -9.680077034516843
      ],
      [
        "Ġpicture",
        -9.680106307568918
      ],
      [
        "aught",
        -9.680346150813214
      ],
      [
        "Ġalcohol",
        -9.680454263340028
      ],
      [
        "ung",
        -9.682127069839868
      ],
      [
        "stan",
        -9.68314624713682
      ],
      [
        "bility",
        -9.683549105173512
      ],
      [
        "Ġfaster",
        -9.684598560821389
      ],
      [
        "Ġimp",
        -9.684947393902595
      ],
      [
        "Â",
        -9.68542545536616
      ],
      [
        "Ġmode",
        -9.685486045054486
      ],
      [
        "Ġvolume",
        -9.685527592881977
      ],
      [
        "Ġpa",
        -9.686117099330634
      ],
      [
        "ĠNow",
        -9.686712340772171
      ],
      [
        "Ġrecognize",
        -9.686759452633192
      ],
      [
        "Ġbright",
        -9.687074158897357
      ],
      [
        "Ġbigge",
        -9.687585845011755
      ],
      [
        "Ġmeasurement",
        -9.68767991878554
      ],
      [
        "Ġcentury",
        -9.6880255605513
      ],
      [
        "ĠAls",
        -9.688185887736784
      ],
      [
        "ĠMay",
        -9.688202676328608
      ],
      [
        "Ġheight",
        -9.688997628467751
      ],
      [
        "OR",
        -9.689276857101977
      ],
      [
        "Ġtransform",
        -9.689655820047962
      ],
      [
        "Ġprogress",
        -9.689718083682788
      ],
      [
        "Ġpieces",
        -9.689874007112884
      ],
      [
        "Ġstarting",
        -9.68995334777727
      ],
      [
        "Ġroll",
        -9.690281063576998
      ],
      [
        "ĠVe",
        -9.691283227148295
      ],
      [
        "Ġhuge",
        -9.69185269258387
      ],
      [
        "Ġangle",
        -9.693896952624616
      ],
      [
        "ju",
        -9.693968236142885
      ],
      [
        "Ġimplement",
        -9.69594055436984
      ],
      [
        "east",
        -9.69601028296049
      ],
      [
        "Ġga",
        -9.696021861211168
      ],
      [
        "osis",
        -9.696176223268443
      ],
      [
        "Ġcutting",
        -9.697157775058916
      ],
      [
        "Ġexpert",
        -9.697413058384512
      ],
      [
        "Ġprinciple",
        -9.698209957577248
      ],
      [
        "Ġsoon",
        -9.69842049072859
      ],
      [
        "Ġanyone",
        -9.698576784909989
      ],
      [
        "duct",
        -9.699995796263211
      ],
      [
        "Ġmap",
        -9.702254720592409
      ],
      [
        "Ġsaw",
        -9.702283468220209
      ],
      [
        "Ġoutdoor",
        -9.702375674797343
      ],
      [
        "Ġforward",
        -9.702427910269236
      ],
      [
        "Ġthin",
        -9.70296120706411
      ],
      [
        "pen",
        -9.703823273785837
      ],
      [
        "Ġexcellent",
        -9.704628757726953
      ],
      [
        "ĠPlant",
        -9.704948189680934
      ],
      [
        "Ġplate",
        -9.705092653171691
      ],
      [
        "Some",
        -9.705477377257653
      ],
      [
        "Ġfluid",
        -9.705933095437736
      ],
      [
        "IT",
        -9.706589351558572
      ],
      [
        "AS",
        -9.706863025871469
      ],
      [
        "coming",
        -9.70686974310908
      ],
      [
        "Ġfabric",
        -9.707207615009946
      ],
      [
        "AT",
        -9.710911449445998
      ],
      [
        "although",
        -9.711091353102123
      ],
      [
        "Ġerror",
        -9.71239442489696
      ],
      [
        "ley",
        -9.71301824357576
      ],
      [
        "Ġsort",
        -9.713289587808845
      ],
      [
        "can",
        -9.713330455029862
      ],
      [
        "ham",
        -9.71365168331642
      ],
      [
        "AD",
        -9.713876124163374
      ],
      [
        "Ġmeaning",
        -9.713989721189748
      ],
      [
        "Ġhands",
        -9.714132335444312
      ],
      [
        "Co",
        -9.714525514373891
      ],
      [
        "iness",
        -9.71474432613006
      ],
      [
        "Ġtrans",
        -9.715098147747243
      ],
      [
        "ural",
        -9.7167897030514
      ],
      [
        "Ġseed",
        -9.7187603498625
      ],
      [
        "press",
        -9.718866246582978
      ],
      [
        "Ġquick",
        -9.719072463183752
      ],
      [
        "SA",
        -9.719239835626633
      ],
      [
        "Al",
        -9.720071646305955
      ],
      [
        "Ġlesson",
        -9.720480398893036
      ],
      [
        ".com",
        -9.72085726826007
      ],
      [
        "Ġeffort",
        -9.721235676403198
      ],
      [
        "Ġcleaning",
        -9.724296032186938
      ],
      [
        "Now",
        -9.724776729623404
      ],
      [
        "Ġclick",
        -9.725666356008126
      ],
      [
        "ĠThen",
        -9.726846296237149
      ],
      [
        "Ġinsects",
        -9.727116695624687
      ],
      [
        "Ġres",
        -9.72763849431526
      ],
      [
        "Ġcooking",
        -9.727874742188789
      ],
      [
        "ĠOther",
        -9.728369808604494
      ],
      [
        "Ġmolecule",
        -9.72940156619223
      ],
      [
        "Ġthird",
        -9.729401634591852
      ],
      [
        "col",
        -9.729596709880026
      ],
      [
        "ĠGu",
        -9.731002229359955
      ],
      [
        "zz",
        -9.732344897812768
      ],
      [
        "ĠBecause",
        -9.732735754687711
      ],
      [
        "Ġsample",
        -9.735755264560591
      ],
      [
        "hether",
        -9.737484874579632
      ],
      [
        "Ġelectronic",
        -9.737591879253074
      ],
      [
        "Ġfully",
        -9.737991319077052
      ],
      [
        "Ġplatform",
        -9.738685469819895
      ],
      [
        "cus",
        -9.738824005502243
      ],
      [
        "ogen",
        -9.739681396553053
      ],
      [
        "Ġdrop",
        -9.743132184749104
      ],
      [
        "Ġthousand",
        -9.744029551780107
      ],
      [
        "Ġcontext",
        -9.744107085532937
      ],
      [
        "Ġtrip",
        -9.745036438622254
      ],
      [
        "Ġworth",
        -9.74519817280528
      ],
      [
        "ĠPh",
        -9.745537968056944
      ],
      [
        "Ġhorse",
        -9.74557705756303
      ],
      [
        "Ġcommunitie",
        -9.745656977518234
      ],
      [
        "Ġcloth",
        -9.74647124240279
      ],
      [
        "Ġpurchase",
        -9.746739138468724
      ],
      [
        "Ġpattern",
        -9.746968102136789
      ],
      [
        "Ġdivers",
        -9.747471110355551
      ],
      [
        "Ġoccurs",
        -9.747551089968724
      ],
      [
        "Ġcustom",
        -9.747700042753472
      ],
      [
        "went",
        -9.749117419722516
      ],
      [
        "Ġprojects",
        -9.7503147125279
      ],
      [
        "Ġcoming",
        -9.750586552250825
      ],
      [
        "pan",
        -9.750729405706956
      ],
      [
        "spite",
        -9.75101869915154
      ],
      [
        "board",
        -9.751059820825834
      ],
      [
        "Ġreported",
        -9.751195140833437
      ],
      [
        "Ġlabel",
        -9.751826429003518
      ],
      [
        "een",
        -9.752239264567711
      ],
      [
        "Ġmouth",
        -9.752254374520705
      ],
      [
        "Ġled",
        -9.75338136611902
      ],
      [
        "Ġrain",
        -9.753447737199238
      ],
      [
        "ĠState",
        -9.754342712558358
      ],
      [
        "Ġcrop",
        -9.754619795111434
      ],
      [
        "@",
        -9.75480399729045
      ],
      [
        "van",
        -9.75492008962042
      ],
      [
        "IS",
        -9.755051932322814
      ],
      [
        "Ġmoistur",
        -9.755103232098891
      ],
      [
        "Ġstone",
        -9.756062344612168
      ],
      [
        "ban",
        -9.756088270291476
      ],
      [
        "Ġplanning",
        -9.757626873294814
      ],
      [
        "ock",
        -9.758372253316498
      ],
      [
        "ological",
        -9.758875561312646
      ],
      [
        "Ġstates",
        -9.759225275353288
      ],
      [
        "Ġconsumer",
        -9.759690949204415
      ],
      [
        "Ġbecomes",
        -9.760480772386751
      ],
      [
        "mark",
        -9.761945321356894
      ],
      [
        "AL",
        -9.763729596448016
      ],
      [
        "Ġexpensive",
        -9.764327880058232
      ],
      [
        "pic",
        -9.765210182791789
      ],
      [
        "Ġdiabetes",
        -9.765695866426716
      ],
      [
        "Ġidentifie",
        -9.76569595619893
      ],
      [
        "came",
        -9.76627780493696
      ],
      [
        "Ġadvanced",
        -9.766847390555
      ],
      [
        "therefore",
        -9.766972337886756
      ],
      [
        "Ġmaximum",
        -9.767065732118557
      ],
      [
        "Ġlocated",
        -9.767261190766243
      ],
      [
        "off",
        -9.767947746651602
      ],
      [
        "Ġcolour",
        -9.76844630524374
      ],
      [
        "Ġpractical",
        -9.768732184780248
      ],
      [
        "ĠSystem",
        -9.76981128073653
      ],
      [
        "Ġvoltage",
        -9.769898411341549
      ],
      [
        "Ġdead",
        -9.77123911263766
      ],
      [
        "Ġoutcome",
        -9.771597441594851
      ],
      [
        "About",
        -9.771614734472225
      ],
      [
        "Ġsuit",
        -9.771878313257757
      ],
      [
        "read",
        -9.772198229841978
      ],
      [
        "Ġdetails",
        -9.773167219817925
      ],
      [
        "Ġlose",
        -9.773284637762332
      ],
      [
        "Ġpan",
        -9.773581623614934
      ],
      [
        "Ġthinking",
        -9.774120688803055
      ],
      [
        "Ġreference",
        -9.774176803583956
      ],
      [
        "Ġsecurity",
        -9.774532202793049
      ],
      [
        "PS",
        -9.775470588240427
      ],
      [
        "ĠWater",
        -9.777577576235135
      ],
      [
        "Ġsurrounding",
        -9.777851045761423
      ],
      [
        "body",
        -9.777956189698042
      ],
      [
        "Ġreveal",
        -9.778105344456025
      ],
      [
        "Ġpresence",
        -9.778123723712737
      ],
      [
        "istic",
        -9.77974043319428
      ],
      [
        "Ġplease",
        -9.780878325495753
      ],
      [
        "taken",
        -9.78104696091776
      ],
      [
        "Ġbeyond",
        -9.782266073754515
      ],
      [
        "Ġfair",
        -9.782380321942671
      ],
      [
        "ĠHar",
        -9.783022628865655
      ],
      [
        "Ġpi",
        -9.785495715062998
      ],
      [
        "LE",
        -9.78641798385382
      ],
      [
        "Ġfamilies",
        -9.78644353623326
      ],
      [
        "ĠInstitute",
        -9.786443562690591
      ],
      [
        "Ġexpand",
        -9.78645898967871
      ],
      [
        "haps",
        -9.786784126684203
      ],
      [
        "self",
        -9.789633671281011
      ],
      [
        "Ġchang",
        -9.789678548600335
      ],
      [
        "Ġspeak",
        -9.789689548664231
      ],
      [
        "ĠEach",
        -9.789786556438557
      ],
      [
        "ĠMake",
        -9.79014237389477
      ],
      [
        "Ġcombine",
        -9.790732243765904
      ],
      [
        "`",
        -9.7920496663858
      ],
      [
        "Ġmiddle",
        -9.792073898569342
      ],
      [
        "Ġpool",
        -9.79215912338162
      ],
      [
        "ĠGra",
        -9.792593722830924
      ],
      [
        "Ġstuff",
        -9.793485958303672
      ],
      [
        "ute",
        -9.793854750297896
      ],
      [
        "Ġtube",
        -9.793954011143605
      ],
      [
        "Ġhabit",
        -9.794051155241196
      ],
      [
        "Ġtexture",
        -9.794175185247962
      ],
      [
        "cop",
        -9.79434435952429
      ],
      [
        "Ġfrequency",
        -9.794753879989203
      ],
      [
        "ble",
        -9.794953011815648
      ],
      [
        "Ch",
        -9.797513614578008
      ],
      [
        "Ġchain",
        -9.79777739361722
      ],
      [
        "Ġtiny",
        -9.799180586915435
      ],
      [
        "tern",
        -9.799228747228984
      ],
      [
        "Ġnational",
        -9.799307859750206
      ],
      [
        "Ġtechnologie",
        -9.800518320655776
      ],
      [
        "Ġstaff",
        -9.800518366611144
      ],
      [
        "my",
        -9.80102127628622
      ],
      [
        "Ġround",
        -9.801097431938832
      ],
      [
        "ĠFe",
        -9.801359238418351
      ],
      [
        "Ġchannel",
        -9.801938158399487
      ],
      [
        "Ġshift",
        -9.801941420268165
      ],
      [
        "ĠGa",
        -9.802165732372142
      ],
      [
        "Di",
        -9.80350618925756
      ],
      [
        "Ġstream",
        -9.80385322218574
      ],
      [
        "win",
        -9.80406173890627
      ],
      [
        "Ġmember",
        -9.80406213097846
      ],
      [
        "Ġ#",
        -9.804691939728864
      ],
      [
        "Ġpump",
        -9.804753555145524
      ],
      [
        "Ġvital",
        -9.804884896957706
      ],
      [
        "bin",
        -9.805229932476973
      ],
      [
        "Ġconcentration",
        -9.806204192747895
      ],
      [
        "Ġcomment",
        -9.806270063633567
      ],
      [
        "Ġrule",
        -9.80627575909425
      ],
      [
        "tract",
        -9.806502019578584
      ],
      [
        "rain",
        -9.806853695443143
      ],
      [
        "Ġmeasures",
        -9.807539384394042
      ],
      [
        "Ġfavorite",
        -9.807633176718728
      ],
      [
        "ĠBar",
        -9.807634334959086
      ],
      [
        "Step",
        -9.808559119756804
      ],
      [
        "Ġexpress",
        -9.80902479748257
      ],
      [
        "how",
        -9.8104725161146
      ],
      [
        "Ġprevious",
        -9.811007761343072
      ],
      [
        "late",
        -9.811433585364371
      ],
      [
        "Ġlo",
        -9.811989088615224
      ],
      [
        "Ġdiscovered",
        -9.812048775847206
      ],
      [
        "Ġmother",
        -9.812202647141392
      ],
      [
        "Ġthus",
        -9.812334821022375
      ],
      [
        "back",
        -9.813430124314024
      ],
      [
        "Ġevolution",
        -9.81413406423259
      ],
      [
        "app",
        -9.815921200215929
      ],
      [
        "Ġrespond",
        -9.816233384439355
      ],
      [
        "Ġincluded",
        -9.81696390187792
      ],
      [
        "Ġcommercial",
        -9.81767384934713
      ],
      [
        "ĠJust",
        -9.818698627432791
      ],
      [
        "ĠUn",
        -9.820558750766905
      ],
      [
        "lob",
        -9.82059966423173
      ],
      [
        "ami",
        -9.820644783350929
      ],
      [
        "Ġlisten",
        -9.822032955550991
      ],
      [
        "Ð",
        -9.823381681094784
      ],
      [
        "ĠNa",
        -9.823400816567103
      ],
      [
        "lies",
        -9.823690605217523
      ],
      [
        "bit",
        -9.82695527839762
      ],
      [
        "Con",
        -9.827154431252056
      ],
      [
        "Ġdef",
        -9.827159743789846
      ],
      [
        "ĠHigh",
        -9.827425565743797
      ],
      [
        "Ġvaluable",
        -9.829142258581443
      ],
      [
        "Ġfail",
        -9.829284109438486
      ],
      [
        "Ġcharacter",
        -9.829915311944069
      ],
      [
        "generat",
        -9.830613904088803
      ],
      [
        "Ġproperty",
        -9.830828663524926
      ],
      [
        "Ġho",
        -9.831033606523423
      ],
      [
        "ĠMan",
        -9.83130436869098
      ],
      [
        "bri",
        -9.831457803533606
      ],
      [
        "wide",
        -9.832521211710564
      ],
      [
        "CT",
        -9.832611116974896
      ],
      [
        "Ġhabitat",
        -9.83485673166902
      ],
      [
        "ĠEnglish",
        -9.835030298134948
      ],
      [
        "Ġconnected",
        -9.835774623469751
      ],
      [
        "ĠMon",
        -9.836141295274018
      ],
      [
        "ole",
        -9.836401157578392
      ],
      [
        "Ġbond",
        -9.836720067000762
      ],
      [
        "Ġdecade",
        -9.836741519096073
      ],
      [
        "ĠDec",
        -9.83690529169943
      ],
      [
        "Ġdie",
        -9.836967736520489
      ],
      [
        "Ġforest",
        -9.8370532504826
      ],
      [
        "Ġalone",
        -9.837142470972555
      ],
      [
        "â",
        -9.838010186513888
      ],
      [
        "Ġmin",
        -9.83846613360378
      ],
      [
        "Ġengage",
        -9.839040014573188
      ],
      [
        "Ġaid",
        -9.83918897772588
      ],
      [
        "Ġformed",
        -9.839290635387384
      ],
      [
        "Ġbeginning",
        -9.839654485494364
      ],
      [
        "ĠTe",
        -9.840008143585196
      ],
      [
        "SS",
        -9.841033142239592
      ],
      [
        "pre",
        -9.841206702102252
      ],
      [
        "Ġfarmer",
        -9.841813471298696
      ],
      [
        "rus",
        -9.84221428476244
      ],
      [
        "Ġfossil",
        -9.842492649285404
      ],
      [
        "Ġteaching",
        -9.842624953515962
      ],
      [
        "Ġskill",
        -9.843575287408015
      ],
      [
        "net",
        -9.8437671465547
      ],
      [
        "Ġriver",
        -9.844009130816458
      ],
      [
        "ĠDon",
        -9.844317697553835
      ],
      [
        "CH",
        -9.845095956138596
      ],
      [
        "ĠUK",
        -9.84662586377059
      ],
      [
        "Ġconservation",
        -9.847466282273636
      ],
      [
        "lie",
        -9.84768188479471
      ],
      [
        "Ġthick",
        -9.848207833995303
      ],
      [
        "Ġonto",
        -9.849064781005708
      ],
      [
        "Ġgames",
        -9.851397199723335
      ],
      [
        "Ġdrawing",
        -9.852063813390773
      ],
      [
        "Ġcup",
        -9.852222299692
      ],
      [
        "lam",
        -9.85278349917207
      ],
      [
        "ĠGerman",
        -9.852898268564376
      ],
      [
        "Ġannual",
        -9.852919415669652
      ],
      [
        "Ġtwi",
        -9.85384239943598
      ],
      [
        "Ġcorn",
        -9.854121243403457
      ],
      [
        "Ġanxiet",
        -9.854388691513272
      ],
      [
        "Ġinternational",
        -9.854388812359788
      ],
      [
        "Ġhearing",
        -9.85504824832869
      ],
      [
        "iz",
        -9.855423564834176
      ],
      [
        "Ġcomp",
        -9.85629829837882
      ],
      [
        "Ġjoin",
        -9.856413133221793
      ],
      [
        "Ġappearance",
        -9.85796483241441
      ],
      [
        "ĠEl",
        -9.858121628088508
      ],
      [
        "Ġteach",
        -9.858248901613951
      ],
      [
        "Ġowner",
        -9.858895343911549
      ],
      [
        "Ġgenes",
        -9.859597660405996
      ],
      [
        "Ġpanel",
        -9.859686915102824
      ],
      [
        "mod",
        -9.859692165237387
      ],
      [
        "ĠIndia",
        -9.860625592091695
      ],
      [
        "Ġmiles",
        -9.860664936177123
      ],
      [
        "ĠCha",
        -9.861087635294576
      ],
      [
        "book",
        -9.861295604378745
      ],
      [
        "Ġorganization",
        -9.86136050496868
      ],
      [
        "Ġdetect",
        -9.861488613928742
      ],
      [
        "but",
        -9.861654242211408
      ],
      [
        "ĠSi",
        -9.862588983517636
      ],
      [
        "Ġstraight",
        -9.86340528110323
      ],
      [
        "Ġdegrees",
        -9.863727498239047
      ],
      [
        "held",
        -9.864039643170996
      ],
      [
        "Here",
        -9.864843049976596
      ],
      [
        "Ġmarine",
        -9.86685185628983
      ],
      [
        "Ġdouble",
        -9.866882068389298
      ],
      [
        "Ġimprov",
        -9.867340748556536
      ],
      [
        "Ġcapture",
        -9.867828459168368
      ],
      [
        "Ġcheese",
        -9.867950032332878
      ],
      [
        "Ġmedium",
        -9.86796977493147
      ],
      [
        "Ġbutton",
        -9.868366990666855
      ],
      [
        "-p",
        -9.869150826390808
      ],
      [
        "PA",
        -9.869556551731726
      ],
      [
        "Ġinternal",
        -9.869573988209062
      ],
      [
        "Ġship",
        -9.86970923431656
      ],
      [
        "Ġburn",
        -9.870774318250156
      ],
      [
        "Ġtrain",
        -9.870854276437402
      ],
      [
        "ĠKa",
        -9.87154203113796
      ],
      [
        "Ġformat",
        -9.87191114460395
      ],
      [
        "Ġnest",
        -9.871939378911817
      ],
      [
        "Our",
        -9.872008021439914
      ],
      [
        "ĠPe",
        -9.87333312616281
      ],
      [
        "Ġfashion",
        -9.874026949275478
      ],
      [
        "Ġtrigger",
        -9.8740283897449
      ],
      [
        "Ġoperation",
        -9.8740898977027
      ],
      [
        "ĠNi",
        -9.874101849598642
      ],
      [
        "Ġcharacteristics",
        -9.875091544230871
      ],
      [
        "ĠFirst",
        -9.875587413092015
      ],
      [
        "Ġconsistent",
        -9.8759960681298
      ],
      [
        "right",
        -9.876747829851098
      ],
      [
        "Ġsites",
        -9.876760769718988
      ],
      [
        "AC",
        -9.877000090597315
      ],
      [
        "Ġvoice",
        -9.877082792696552
      ],
      [
        "Ġsociety",
        -9.877431727013242
      ],
      [
        "Ġpin",
        -9.877519598299331
      ],
      [
        "type",
        -9.877647311714988
      ],
      [
        "That",
        -9.877996732099575
      ],
      [
        "Ġbooks",
        -9.87817360011759
      ],
      [
        "Ġschedule",
        -9.878301184979993
      ],
      [
        "Ġleaf",
        -9.878644896279322
      ],
      [
        "Ġfeeding",
        -9.87911153025291
      ],
      [
        "Ġregularly",
        -9.879231485894056
      ],
      [
        "Ġattract",
        -9.88102720938712
      ],
      [
        "-b",
        -9.881333795004617
      ],
      [
        "get",
        -9.881657438190064
      ],
      [
        "Ġcoat",
        -9.88235664476248
      ],
      [
        "Ġtasks",
        -9.883362671825443
      ],
      [
        "Ġbackground",
        -9.883441054841809
      ],
      [
        "Ġcreative",
        -9.883620178367378
      ],
      [
        "Ġsecure",
        -9.884192309554058
      ],
      [
        "Ġdegree",
        -9.884433418578173
      ],
      [
        "els",
        -9.884554280017747
      ],
      [
        "Ġdriv",
        -9.88461044361962
      ],
      [
        "Ġpark",
        -9.885473542840543
      ],
      [
        "Ġexamples",
        -9.88548116358677
      ],
      [
        "Ġseal",
        -9.886794908664614
      ],
      [
        "Answer",
        -9.887248263306477
      ],
      [
        "Ġha",
        -9.887338147511386
      ],
      [
        "Ġroof",
        -9.887852964396227
      ],
      [
        "aging",
        -9.88800147261265
      ],
      [
        "nel",
        -9.88808855663623
      ],
      [
        "Ġnative",
        -9.88845082774845
      ],
      [
        "view",
        -9.888829320145136
      ],
      [
        "Ġdemonstrate",
        -9.88892767695136
      ],
      [
        "ĠRu",
        -9.8895347772589
      ],
      [
        "lock",
        -9.890689355015432
      ],
      [
        "Ġparticipant",
        -9.892503048055133
      ],
      [
        "Ġmi",
        -9.893758208124057
      ],
      [
        "Ġmaintaining",
        -9.89420452917012
      ],
      [
        "ĠAlthough",
        -9.894321119618262
      ],
      [
        "Ġimmediately",
        -9.894682343915449
      ],
      [
        "Ġfinding",
        -9.895660869591364
      ],
      [
        "Ġlegal",
        -9.89608155866621
      ],
      [
        "-free",
        -9.896761758016751
      ],
      [
        "Ġattempt",
        -9.89717597108881
      ],
      [
        "RI",
        -9.897293368580735
      ],
      [
        "Ġdangerous",
        -9.897327174027502
      ],
      [
        "All",
        -9.897584889614278
      ],
      [
        "Ġmeter",
        -9.897861653125666
      ],
      [
        "IC",
        -9.898596069787692
      ],
      [
        "Ġroutine",
        -9.898738652445786
      ],
      [
        "-year",
        -9.898775364744916
      ],
      [
        "Ġteachers",
        -9.898820281042884
      ],
      [
        "Ġlargest",
        -9.9001654452258
      ],
      [
        "Ġintroduce",
        -9.901783926108273
      ],
      [
        "ĠBlack",
        -9.901798888280831
      ],
      [
        "Ġcentral",
        -9.901871749098545
      ],
      [
        "happy",
        -9.901893673308466
      ],
      [
        "ong",
        -9.902399277640315
      ],
      [
        "Ġtopic",
        -9.90327154434102
      ],
      [
        "Ġtrust",
        -9.90406625296545
      ],
      [
        "Ġbirth",
        -9.904102595710022
      ],
      [
        "Ġru",
        -9.904863173292291
      ],
      [
        "Ġcomprehensive",
        -9.905153104973524
      ],
      [
        "ĠAfrica",
        -9.905227189808606
      ],
      [
        "-be",
        -9.905338579354815
      ],
      [
        "lus",
        -9.905427605639286
      ],
      [
        "comm",
        -9.905625908464508
      ],
      [
        "Ġprefer",
        -9.905807069535708
      ],
      [
        "rip",
        -9.90656614987121
      ],
      [
        "Ġbroad",
        -9.906761805248522
      ],
      [
        "After",
        -9.906930108362282
      ],
      [
        "struct",
        -9.907025624516464
      ],
      [
        "ĠEurope",
        -9.907358877650523
      ],
      [
        "Ġhour",
        -9.9080779862768
      ],
      [
        "ĠChina",
        -9.908266938858842
      ],
      [
        "Ġstation",
        -9.90852994610389
      ],
      [
        "ĠSc",
        -9.908640789452026
      ],
      [
        "Ġmid",
        -9.908656752961509
      ],
      [
        "til",
        -9.908770009299005
      ],
      [
        "Ġorgan",
        -9.91013939162036
      ],
      [
        "Ġcomponent",
        -9.910684830517251
      ],
      [
        "Î",
        -9.911253194525012
      ],
      [
        "Ġapproximate",
        -9.911327129388242
      ],
      [
        "Ġcoffee",
        -9.911327139965229
      ],
      [
        "ĠDepartment",
        -9.911327218918816
      ],
      [
        "Ġratio",
        -9.911939142853536
      ],
      [
        "Ġalgorithm",
        -9.912911915442294
      ],
      [
        "Ġrecipe",
        -9.912913118738018
      ],
      [
        "part",
        -9.913047504984636
      ],
      [
        "Ġhighlight",
        -9.913056034656528
      ],
      [
        "Ġalter",
        -9.913062771505071
      ],
      [
        "pit",
        -9.913075698114351
      ],
      [
        "ĠDay",
        -9.91592113780931
      ],
      [
        "Ġvirtual",
        -9.91608906527312
      ],
      [
        "Ġartist",
        -9.916866530400563
      ],
      [
        "Ġlayers",
        -9.91737225929414
      ],
      [
        "Ġreli",
        -9.917823607195466
      ],
      [
        "Ġdriver",
        -9.918017503184313
      ],
      [
        "ought",
        -9.91821359339844
      ],
      [
        "Ġcomfortable",
        -9.918216495302548
      ],
      [
        "Ġdesire",
        -9.918395504633043
      ],
      [
        "ED",
        -9.918747645678238
      ],
      [
        "cia",
        -9.91940787752758
      ],
      [
        "Ġplane",
        -9.919710823100091
      ],
      [
        "Ġsolve",
        -9.919951097739569
      ],
      [
        "ĠOnc",
        -9.920108582849384
      ],
      [
        "Ġmagnetic",
        -9.920447375821638
      ],
      [
        "pol",
        -9.921258621672578
      ],
      [
        "ĠOver",
        -9.92157395383072
      ],
      [
        "ome",
        -9.922231765007004
      ],
      [
        "Ġsupplement",
        -9.92247373974648
      ],
      [
        "ĠCh",
        -9.923091541268358
      ],
      [
        "Ġfinger",
        -9.924242528430565
      ],
      [
        "Ġegg",
        -9.924604029649268
      ],
      [
        "Ġfan",
        -9.924795128448247
      ],
      [
        "cro",
        -9.925507390283704
      ],
      [
        "Ġabsorb",
        -9.925681635625336
      ],
      [
        "ĠCalifornia",
        -9.926334037922928
      ],
      [
        "Ġbodie",
        -9.926434917765071
      ],
      [
        "Ġfly",
        -9.926501857302014
      ],
      [
        "Ġtransfer",
        -9.927167673504796
      ],
      [
        "Dr",
        -9.927171222020112
      ],
      [
        "Ġsquare",
        -9.927299703901385
      ],
      [
        "Ã©",
        -9.9273049520328
      ],
      [
        "ĠAccording",
        -9.927466614043304
      ],
      [
        "Com",
        -9.927849052924042
      ],
      [
        "Ġedge",
        -9.927879639494687
      ],
      [
        "Ġdepth",
        -9.928653669381935
      ],
      [
        "Ġroots",
        -9.928941477890833
      ],
      [
        "Ġelectron",
        -9.929227793407328
      ],
      [
        "matic",
        -9.929704868540275
      ],
      [
        "well",
        -9.929751181256014
      ],
      [
        "Ġblend",
        -9.930653686962248
      ],
      [
        "ING",
        -9.930908683147766
      ],
      [
        "Ġassess",
        -9.930909783008936
      ],
      [
        "Ġshot",
        -9.931599045032256
      ],
      [
        "Ġdrain",
        -9.932154295204594
      ],
      [
        "Ġtransmission",
        -9.932158825901542
      ],
      [
        "Choos",
        -9.932595334943876
      ],
      [
        "ney",
        -9.932922519409358
      ],
      [
        "Ġemploy",
        -9.933781954625292
      ],
      [
        "Ġgear",
        -9.93394170668624
      ],
      [
        "Ġthreat",
        -9.934724050484936
      ],
      [
        "Ġnearly",
        -9.935150342682968
      ],
      [
        "Ġcontinuous",
        -9.935549008010009
      ],
      [
        "car",
        -9.936808592550705
      ],
      [
        "Ġclient",
        -9.936994143959716
      ],
      [
        "Ġinsight",
        -9.938099287927052
      ],
      [
        "Ġgold",
        -9.938237811247625
      ],
      [
        "raw",
        -9.93868592151498
      ],
      [
        "long",
        -9.939234185200736
      ],
      [
        "Ġcomfort",
        -9.939332929570682
      ],
      [
        "ĠJo",
        -9.939333012701264
      ],
      [
        "Ġrep",
        -9.939706561316529
      ],
      [
        "Ġselection",
        -9.939834741932527
      ],
      [
        "inches",
        -9.940223319945236
      ],
      [
        "Ġwet",
        -9.942081635177598
      ],
      [
        "Ġaware",
        -9.942977460859868
      ],
      [
        "ĠGe",
        -9.943842337366831
      ],
      [
        "cha",
        -9.944412356384891
      ],
      [
        "wise",
        -9.944482022791409
      ],
      [
        "Ġfunctions",
        -9.945188366960998
      ],
      [
        "Ġemergenc",
        -9.945285317323377
      ],
      [
        "mas",
        -9.945340313081603
      ],
      [
        "ool",
        -9.945490196220838
      ],
      [
        "Ġoffice",
        -9.94614918719472
      ],
      [
        "Ġab",
        -9.946842729443844
      ],
      [
        "MP",
        -9.948060370664496
      ],
      [
        "Ġoptimal",
        -9.948428806602688
      ],
      [
        "point",
        -9.949732817698328
      ],
      [
        "ker",
        -9.95040855744304
      ],
      [
        "Ġfinancial",
        -9.95172033423014
      ],
      [
        "Ġdental",
        -9.951742267770712
      ],
      [
        "load",
        -9.951904742504324
      ],
      [
        "ified",
        -9.953597653889954
      ],
      [
        "Ġlog",
        -9.9538005901519
      ],
      [
        "Ġmaybe",
        -9.954133585223213
      ],
      [
        "Ġgrain",
        -9.954524861818475
      ],
      [
        "expected",
        -9.95459046670727
      ],
      [
        "Ġpolicy",
        -9.955838662295816
      ],
      [
        "Ġatmosphere",
        -9.957583487033627
      ],
      [
        "Ġcommand",
        -9.95838648373412
      ],
      [
        "Ġbreast",
        -9.958428703837356
      ],
      [
        "jo",
        -9.959053757451862
      ],
      [
        "Ġsequence",
        -9.959227037941927
      ],
      [
        "Ġconsult",
        -9.960000194723438
      ],
      [
        "-m",
        -9.960006832021229
      ],
      [
        "ĠCol",
        -9.960800979545873
      ],
      [
        "gram",
        -9.961130671495168
      ],
      [
        "Ġyield",
        -9.961662421743831
      ],
      [
        "Ġassessment",
        -9.962179076063126
      ],
      [
        "ĠSince",
        -9.962899935263088
      ],
      [
        "Ġrid",
        -9.963193504112752
      ],
      [
        "Ġartificial",
        -9.96332908544132
      ],
      [
        "Ġemail",
        -9.963331298655518
      ],
      [
        "Ġheal",
        -9.963444347222802
      ],
      [
        "TE",
        -9.96353462299964
      ],
      [
        "Ġmold",
        -9.963832963552852
      ],
      [
        "EN",
        -9.963945472125816
      ],
      [
        "old",
        -9.96521473890811
      ],
      [
        "Ġrespect",
        -9.965353855367963
      ],
      [
        "Ġrules",
        -9.96570123645402
      ],
      [
        "ĠBi",
        -9.966327734285173
      ],
      [
        "Ġsmart",
        -9.966748403210936
      ],
      [
        "proof",
        -9.9674957691117
      ],
      [
        "Ġlab",
        -9.968299904431486
      ],
      [
        "Ġpress",
        -9.969559206048086
      ],
      [
        "ĠProgram",
        -9.970163246558764
      ],
      [
        "Ġstock",
        -9.970379456041298
      ],
      [
        "ular",
        -9.970486399169696
      ],
      [
        "Ġboat",
        -9.971201427820484
      ],
      [
        "aving",
        -9.971425507574708
      ],
      [
        "Ġbrush",
        -9.971863581180802
      ],
      [
        "ĠAustralia",
        -9.97247648705213
      ],
      [
        "fold",
        -9.973245342455971
      ],
      [
        "Ġremov",
        -9.973423384725717
      ],
      [
        "Ġdrug",
        -9.974096530355292
      ],
      [
        "Ġgoals",
        -9.974510112080823
      ],
      [
        "Ġconclusion",
        -9.97507418473154
      ],
      [
        "Ġpossibilit",
        -9.97507431704173
      ],
      [
        "Ġmixture",
        -9.975280074574467
      ],
      [
        "Ġteacher",
        -9.975288600964364
      ],
      [
        "Ġexamine",
        -9.975903853157964
      ],
      [
        "Ġvirus",
        -9.976089555528844
      ],
      [
        "Ġtransition",
        -9.976857622311949
      ],
      [
        "-like",
        -9.977452021935544
      ],
      [
        "Ġadopt",
        -9.977460809990966
      ],
      [
        "Ġcatch",
        -9.977824555776015
      ],
      [
        "Ġdetail",
        -9.97783151723441
      ],
      [
        "Ġbeneficial",
        -9.9784554205646
      ],
      [
        "Ġancient",
        -9.978455584525072
      ],
      [
        "Ġaren",
        -9.979250245860666
      ],
      [
        "Ġtold",
        -9.97943858783731
      ],
      [
        "My",
        -9.979681547033904
      ],
      [
        "Ġsuffer",
        -9.979913495440416
      ],
      [
        "Ġengineering",
        -9.980779197024164
      ],
      [
        "Ġreact",
        -9.981119775129413
      ],
      [
        "Ġsurvey",
        -9.981172709212885
      ],
      [
        "Ġpr",
        -9.98159864113302
      ],
      [
        "Ġcloud",
        -9.98184910966183
      ],
      [
        "Ġsports",
        -9.982201561167212
      ],
      [
        "Ġdynamic",
        -9.982233295803422
      ],
      [
        "Pla",
        -9.983443248426813
      ],
      [
        "Ġvalve",
        -9.983601781637084
      ],
      [
        "Ġsurger",
        -9.98388456266517
      ],
      [
        "Ġbatter",
        -9.984038428621355
      ],
      [
        "cil",
        -9.98412962539965
      ],
      [
        "ĠFood",
        -9.984673216092933
      ],
      [
        "Ġdistribution",
        -9.985602157784347
      ],
      [
        "lot",
        -9.985719094197666
      ],
      [
        "Ġkitchen",
        -9.988668697742614
      ],
      [
        "Ġspeaker",
        -9.98920564114236
      ],
      [
        "ET",
        -9.98937310214706
      ],
      [
        "ĠLu",
        -9.989741572224196
      ],
      [
        "fil",
        -9.99007247560776
      ],
      [
        "Ġjournal",
        -9.990380603020904
      ],
      [
        "ĠTi",
        -9.990421636177174
      ],
      [
        "Ġwin",
        -9.991767253323587
      ],
      [
        "Ġrobot",
        -9.992576089972102
      ],
      [
        "eel",
        -9.992754288596371
      ],
      [
        "ĠTherefor",
        -9.993954356556271
      ],
      [
        "Ġcrack",
        -9.994120997510588
      ],
      [
        "ĠGreen",
        -9.994455418041202
      ],
      [
        "ON",
        -9.994655652999796
      ],
      [
        "Ġfertilizer",
        -9.994756498207414
      ],
      [
        "Ġpartner",
        -9.995009617314746
      ],
      [
        "Ġpipe",
        -9.99590914004757
      ],
      [
        "Ġcore",
        -9.99700977623358
      ],
      [
        "Ġefforts",
        -9.99762355266067
      ],
      [
        "Ġagree",
        -9.998503000326185
      ],
      [
        "Ġrace",
        -9.998519215425596
      ],
      [
        "ria",
        -9.998683609358894
      ],
      [
        "Ġwritten",
        -10.00071660871939
      ],
      [
        "kept",
        -10.0009177736397
      ],
      [
        "Ġenable",
        -10.002605242624956
      ],
      [
        "CE",
        -10.003201965424845
      ],
      [
        "ĠEvery",
        -10.00326675948974
      ],
      [
        "ologist",
        -10.003577189980398
      ],
      [
        "Ġdeposit",
        -10.00381004648732
      ],
      [
        "Ġbear",
        -10.004046173390496
      ],
      [
        "Ġtechnical",
        -10.004186127097087
      ],
      [
        "Ġregulation",
        -10.004243774239484
      ],
      [
        "Ġpollution",
        -10.00438793371388
      ],
      [
        "ĠArt",
        -10.00512687099554
      ],
      [
        "ump",
        -10.005952747677018
      ],
      [
        "ĠSan",
        -10.005992571267118
      ],
      [
        "Ġcarrie",
        -10.006152919176278
      ],
      [
        "Ġorigin",
        -10.00639799314271
      ],
      [
        "ĠDuring",
        -10.006473430241588
      ],
      [
        "EM",
        -10.007323275793524
      ],
      [
        "han",
        -10.008758471050198
      ],
      [
        "Ġbillion",
        -10.008932698913863
      ],
      [
        "ĠHer",
        -10.009275476439685
      ],
      [
        "circ",
        -10.009408462682153
      ],
      [
        "Ġexhibit",
        -10.009412336035336
      ],
      [
        "Ġlens",
        -10.00949620312701
      ],
      [
        "Ġphotograph",
        -10.009513435644482
      ],
      [
        "Ġsession",
        -10.011163359840143
      ],
      [
        "Ġreplace",
        -10.011675962567674
      ],
      [
        "Le",
        -10.01257069145829
      ],
      [
        "Ġpets",
        -10.013147078752214
      ],
      [
        "Ġdiscussion",
        -10.01338757068438
      ],
      [
        "ID",
        -10.014198515533424
      ],
      [
        "Ġquantit",
        -10.014668448602762
      ],
      [
        "Ġplug",
        -10.01627011713864
      ],
      [
        "Ġassembl",
        -10.0165329090237
      ],
      [
        "Ġtru",
        -10.016579036868016
      ],
      [
        "Ġimprovement",
        -10.01685754371758
      ],
      [
        "Ġcream",
        -10.01819711983941
      ],
      [
        "Ġnutrition",
        -10.01902514649947
      ],
      [
        "ette",
        -10.019693992695403
      ],
      [
        "Ġtrail",
        -10.019958813206657
      ],
      [
        "ĠDesign",
        -10.021476035573048
      ],
      [
        "Ġoperate",
        -10.022686847780609
      ],
      [
        "Ġindependent",
        -10.022901288927324
      ],
      [
        "Ġnumerou",
        -10.023484698353297
      ],
      [
        "Ġcheap",
        -10.023548666909612
      ],
      [
        "Ġreferr",
        -10.023857297039816
      ],
      [
        "Ġhelpful",
        -10.023877508391465
      ],
      [
        "Ġport",
        -10.02399885179527
      ],
      [
        "rum",
        -10.024705687110671
      ],
      [
        "ĠâĢ¦",
        -10.025349834410292
      ],
      [
        "Ġauto",
        -10.026310248794635
      ],
      [
        "Ġtrade",
        -10.02668445778995
      ],
      [
        "wood",
        -10.027162042140844
      ],
      [
        "rie",
        -10.028109924063203
      ],
      [
        "Ġwhi",
        -10.028778541442218
      ],
      [
        "Ġsouth",
        -10.028865899809391
      ],
      [
        "char",
        -10.029014065153367
      ],
      [
        "Ġemotional",
        -10.030946374966264
      ],
      [
        "Ġlu",
        -10.031662874248791
      ],
      [
        "Ġsit",
        -10.032177414356529
      ],
      [
        "Ġperspective",
        -10.032381525634737
      ],
      [
        "Ġsecret",
        -10.03238157537916
      ],
      [
        "Ġthrow",
        -10.03248135215793
      ],
      [
        "Ġexternal",
        -10.034171215889463
      ],
      [
        "Ġclassroom",
        -10.034266141878623
      ],
      [
        "rib",
        -10.035809039100576
      ],
      [
        "-quality",
        -10.035962560384744
      ],
      [
        "Ġspin",
        -10.036045915178066
      ],
      [
        "try",
        -10.03675544489384
      ],
      [
        "Un",
        -10.03697994771004
      ],
      [
        "Ġchemicals",
        -10.03716458930152
      ],
      [
        "Ġproteins",
        -10.037616335256658
      ],
      [
        "what",
        -10.037963502825656
      ],
      [
        "Ġcolon",
        -10.037982929508992
      ],
      [
        "ĠDog",
        -10.038662264305092
      ],
      [
        "Ġharvest",
        -10.039556526666177
      ],
      [
        "Ġcit",
        -10.039689498849263
      ],
      [
        "Ġshoes",
        -10.040680677523932
      ],
      [
        "Ġlaunch",
        -10.041366381624352
      ],
      [
        "Another",
        -10.041375360440853
      ],
      [
        "ĠDownload",
        -10.041524879483823
      ],
      [
        "emi",
        -10.041660728227036
      ],
      [
        "Ġsuggests",
        -10.042384981237284
      ],
      [
        "MO",
        -10.042721559338352
      ],
      [
        "ĠSha",
        -10.04296174903864
      ],
      [
        "Ġinvestment",
        -10.04338934197612
      ],
      [
        "ĠQu",
        -10.043544498661308
      ],
      [
        "Ġadvice",
        -10.04497170471442
      ],
      [
        "which",
        -10.045056380741784
      ],
      [
        "Ġportion",
        -10.045152186113947
      ],
      [
        "ĠApril",
        -10.046172908216104
      ],
      [
        "ĠYork",
        -10.046788225949054
      ],
      [
        "ĠEuropean",
        -10.04687671304616
      ],
      [
        "ï¿½",
        -10.047116804587777
      ],
      [
        "Ġmaster",
        -10.047241393991014
      ],
      [
        "hose",
        -10.04786178366594
      ],
      [
        "Ġdec",
        -10.04788774043238
      ],
      [
        "Ġnorth",
        -10.0486404758622
      ],
      [
        "Ġprepared",
        -10.04919715453724
      ],
      [
        "Ġborn",
        -10.04954439003884
      ],
      [
        "oil",
        -10.049822729202928
      ],
      [
        "Ġjump",
        -10.05043241264349
      ],
      [
        "cycl",
        -10.05173493024567
      ],
      [
        "Ġfear",
        -10.05193687983772
      ],
      [
        "Ġbeauty",
        -10.052241423747596
      ],
      [
        "Ġsymbol",
        -10.05224243893051
      ],
      [
        "Ġboost",
        -10.052305461270542
      ],
      [
        "inter",
        -10.052913143133416
      ],
      [
        "Ġfa",
        -10.053694863148156
      ],
      [
        "some",
        -10.053990340765688
      ],
      [
        "Ġmountain",
        -10.054087108057365
      ],
      [
        "Ġletter",
        -10.054206601700322
      ],
      [
        "Ġintegrat",
        -10.054407806190998
      ],
      [
        "AM",
        -10.055647879995089
      ],
      [
        "nstead",
        -10.055750185923632
      ],
      [
        "Ġleak",
        -10.05595244623542
      ],
      [
        "Ġaudio",
        -10.05618993395568
      ],
      [
        "zi",
        -10.057332250568916
      ],
      [
        "Ġski",
        -10.057780282757587
      ],
      [
        "Ġdifferences",
        -10.058058874893302
      ],
      [
        "Ġcard",
        -10.058154760219246
      ],
      [
        "Ġexperts",
        -10.058869698688849
      ],
      [
        "Ġhundred",
        -10.059557107200892
      ],
      [
        "SE",
        -10.060792429759497
      ],
      [
        "ĠService",
        -10.06139536105218
      ],
      [
        "Ġmedicine",
        -10.061396073400042
      ],
      [
        "ĠIndian",
        -10.061473301293208
      ],
      [
        "Ġinteract",
        -10.062411553836093
      ],
      [
        "Ġofficial",
        -10.063242164573712
      ],
      [
        "Ġstorie",
        -10.063385501945872
      ],
      [
        "bar",
        -10.06351087440552
      ],
      [
        "Ġcreation",
        -10.063969805791832
      ],
      [
        "Ġsurvive",
        -10.064531761827716
      ],
      [
        "Ġconsume",
        -10.06454588788364
      ],
      [
        "Ġsheet",
        -10.06489152198414
      ],
      [
        "head",
        -10.0655710343175
      ],
      [
        "Ġupper",
        -10.066123733859092
      ],
      [
        "ĠMarch",
        -10.066725924967908
      ],
      [
        "cap",
        -10.067391640329436
      ],
      [
        "ĠIsland",
        -10.06750668657034
      ],
      [
        "nes",
        -10.068076137652431
      ],
      [
        "pon",
        -10.068094869325243
      ],
      [
        "ĠSun",
        -10.06816050099616
      ],
      [
        "ĠNov",
        -10.068665532928998
      ],
      [
        "Understanding",
        -10.068875077017845
      ],
      [
        "].",
        -10.06955690268995
      ],
      [
        "ĠJohn",
        -10.07028510040032
      ],
      [
        "ically",
        -10.070486853093346
      ],
      [
        "hel",
        -10.070651159674846
      ],
      [
        "OS",
        -10.071733716007708
      ],
      [
        "CA",
        -10.072673153212254
      ],
      [
        "Ġnice",
        -10.073307232376152
      ],
      [
        "ou",
        -10.073430070845529
      ],
      [
        "Ġchalleng",
        -10.0737481215407
      ],
      [
        "Ġultimate",
        -10.074358470560112
      ],
      [
        "Ġsnake",
        -10.07435964352577
      ],
      [
        "Ġblog",
        -10.07485203654534
      ],
      [
        "PL",
        -10.075028873642616
      ],
      [
        "Ġseat",
        -10.0753965985151
      ],
      [
        "onic",
        -10.0756125854768
      ],
      [
        "Ġprepare",
        -10.07561651376241
      ],
      [
        "cut",
        -10.075926113984428
      ],
      [
        "ĠGreat",
        -10.076034508735894
      ],
      [
        "ĠPark",
        -10.076275472157189
      ],
      [
        "Ġrot",
        -10.077350318042877
      ],
      [
        "with",
        -10.077919402412933
      ],
      [
        "Ġhospital",
        -10.07809330567137
      ],
      [
        "Ġgather",
        -10.078368847995346
      ],
      [
        "Ġtooth",
        -10.079781218875048
      ],
      [
        "Ġprimari",
        -10.079966289957348
      ],
      [
        "ĠLED",
        -10.080356218607964
      ],
      [
        "Ġconstruct",
        -10.081103997782854
      ],
      [
        "Ġcareer",
        -10.081359319082289
      ],
      [
        "Ġformation",
        -10.08144490660964
      ],
      [
        "Ġwor",
        -10.081694105203734
      ],
      [
        "put",
        -10.08185846338436
      ],
      [
        "Ġregions",
        -10.082052273328664
      ],
      [
        "ography",
        -10.082139902956278
      ],
      [
        "Ġaccident",
        -10.082236454953405
      ],
      [
        "Ġdistinct",
        -10.08320416606901
      ],
      [
        "Ġcultural",
        -10.083614527346358
      ],
      [
        "Ġpregnancy",
        -10.083721831260767
      ],
      [
        "Ġwave",
        -10.083729437694192
      ],
      [
        "Ġstatus",
        -10.083916316536886
      ],
      [
        "Ġorganiz",
        -10.084096545080271
      ],
      [
        "TH",
        -10.084336190347504
      ],
      [
        "Ġextract",
        -10.084764677600424
      ],
      [
        "US",
        -10.084970507614614
      ],
      [
        "teen",
        -10.085099441279567
      ],
      [
        "Ġtitle",
        -10.085623282192888
      ],
      [
        "Ġpreference",
        -10.085840844478906
      ],
      [
        "Ġreduction",
        -10.085970281476513
      ],
      [
        "cat",
        -10.087388909167032
      ],
      [
        "Ġmanual",
        -10.087902554494187
      ],
      [
        "Ġgrown",
        -10.088029669323134
      ],
      [
        "Ġmechanical",
        -10.08822473476056
      ],
      [
        "Ġspa",
        -10.088642692711936
      ],
      [
        "MS",
        -10.088759365949109
      ],
      [
        "Ġindoor",
        -10.088868400708396
      ],
      [
        "exposed",
        -10.088870666106878
      ],
      [
        "Ġdress",
        -10.08942425035913
      ],
      [
        "MA",
        -10.089631437275756
      ],
      [
        "Ġshade",
        -10.089731553990024
      ],
      [
        "Th",
        -10.08997448634449
      ],
      [
        "Ġbill",
        -10.091022910873647
      ],
      [
        "Ġcars",
        -10.091059654583944
      ],
      [
        "Ġblade",
        -10.0913746990763
      ],
      [
        "worm",
        -10.091438054231102
      ],
      [
        "Ġassist",
        -10.091466019085049
      ],
      [
        "ides",
        -10.092218894747267
      ],
      [
        "Ġlibrar",
        -10.093177768489683
      ],
      [
        "Ġbreeding",
        -10.093379594249164
      ],
      [
        "Ġreliabl",
        -10.093938518158245
      ],
      [
        "Ġband",
        -10.094238063596004
      ],
      [
        "Ġcrops",
        -10.094245758557154
      ],
      [
        "ĠInter",
        -10.095134316022346
      ],
      [
        "mol",
        -10.09521849343427
      ],
      [
        "Ġoperat",
        -10.095507365216775
      ],
      [
        "Ġchanged",
        -10.095699135550731
      ],
      [
        "Ġcreature",
        -10.095807663092168
      ],
      [
        "logical",
        -10.09615902661519
      ],
      [
        "Ġcraft",
        -10.096564540683715
      ],
      [
        "Ġpolic",
        -10.096594222813458
      ],
      [
        "Ġgenome",
        -10.096986450033391
      ],
      [
        "Ġadvis",
        -10.096989640193698
      ],
      [
        "Ġweigh",
        -10.097194407959986
      ],
      [
        "Ġtea",
        -10.097683011852713
      ],
      [
        "Ġdefined",
        -10.097729330948187
      ],
      [
        "mate",
        -10.098198184706348
      ],
      [
        "Ġsaying",
        -10.099324548539368
      ],
      [
        "Ġlatest",
        -10.099652771191366
      ],
      [
        "stone",
        -10.100026112202164
      ],
      [
        "Ġraw",
        -10.1002863424398
      ],
      [
        "uk",
        -10.100917713678648
      ],
      [
        "Ġlung",
        -10.101084781080662
      ],
      [
        "Ġenzyme",
        -10.101174650654606
      ],
      [
        "hol",
        -10.102171432751458
      ],
      [
        "Ġeventually",
        -10.102717852386224
      ],
      [
        "Ġscene",
        -10.102744750250572
      ],
      [
        "Ġloop",
        -10.103054926627197
      ],
      [
        "Ġsounds",
        -10.10333730243292
      ],
      [
        "Ġapart",
        -10.103448215949218
      ],
      [
        "Ġscar",
        -10.103512019729411
      ],
      [
        "Ġstorm",
        -10.103760297457688
      ],
      [
        "Ġengineer",
        -10.103908089967494
      ],
      [
        "ĠRead",
        -10.104024245440169
      ],
      [
        "tting",
        -10.10433305669732
      ],
      [
        "Ġprocedure",
        -10.104531848654624
      ],
      [
        "Ġtraffic",
        -10.104636185103027
      ],
      [
        "TO",
        -10.10472880455668
      ],
      [
        "take",
        -10.1049826793165
      ],
      [
        "ĠInternational",
        -10.10517521914305
      ],
      [
        "eek",
        -10.105473735318451
      ],
      [
        "Ġearlier",
        -10.105559705205351
      ],
      [
        "La",
        -10.10623912797222
      ],
      [
        "Car",
        -10.106403646215238
      ],
      [
        "Ġremote",
        -10.106558217313246
      ],
      [
        "Ġbike",
        -10.10685907194073
      ],
      [
        "resistant",
        -10.107140573903465
      ],
      [
        "Ġtoxic",
        -10.107152809351122
      ],
      [
        "cher",
        -10.108259729826155
      ],
      [
        "Ġparameter",
        -10.10851750129708
      ],
      [
        "Ġsnow",
        -10.108525526399758
      ],
      [
        "Ġillness",
        -10.108568101104122
      ],
      [
        "ĠSept",
        -10.108662581751336
      ],
      [
        "Ġworry",
        -10.10890019575872
      ],
      [
        "Ġfindings",
        -10.109297827633236
      ],
      [
        "Ġtall",
        -10.10932629872822
      ],
      [
        "Ġfix",
        -10.110171689002918
      ],
      [
        "Ġformula",
        -10.110224740857838
      ],
      [
        "Ġexam",
        -10.110387653499613
      ],
      [
        "Ġmorning",
        -10.110416392091466
      ],
      [
        "vin",
        -10.110573282199336
      ],
      [
        "Ġwhose",
        -10.110678425929384
      ],
      [
        "ĠDoes",
        -10.110763592665869
      ],
      [
        "ĠHi",
        -10.111269145549368
      ],
      [
        "Many",
        -10.1119381130858
      ],
      [
        "ĠWell",
        -10.111971873314271
      ],
      [
        "ĠLife",
        -10.111980882482603
      ],
      [
        "Ġnaturally",
        -10.11233497298496
      ],
      [
        "Ġquantum",
        -10.112349748159456
      ],
      [
        "Ġstandards",
        -10.112551857481831
      ],
      [
        "Ġmask",
        -10.112788118631869
      ],
      [
        "Ġcomposition",
        -10.1143445830176
      ],
      [
        "Ġattend",
        -10.114449209070573
      ],
      [
        "Ġexpression",
        -10.114489930122003
      ],
      [
        "Ġkit",
        -10.11454200938385
      ],
      [
        "Ġdive",
        -10.114694274686588
      ],
      [
        "del",
        -10.114717321491096
      ],
      [
        "Ġworked",
        -10.114775733458714
      ],
      [
        "ĠAdd",
        -10.115029219006068
      ],
      [
        "Ġbusinesses",
        -10.115654477223426
      ],
      [
        "Ġcontrast",
        -10.116229829512577
      ],
      [
        "Ġdish",
        -10.117364820107952
      ],
      [
        "ĠWork",
        -10.117597841397824
      ],
      [
        "Are",
        -10.117687837369472
      ],
      [
        "Ġleader",
        -10.117854447640797
      ],
      [
        "Ġdefinition",
        -10.118175540705522
      ],
      [
        "Ġtemp",
        -10.118898782595348
      ],
      [
        "Yes",
        -10.11897739724947
      ],
      [
        "oxide",
        -10.119238839798818
      ],
      [
        "q",
        -10.119249041223474
      ],
      [
        "pat",
        -10.119340675936469
      ],
      [
        "Ġowners",
        -10.119709347055236
      ],
      [
        "Ġcm",
        -10.119922081137869
      ],
      [
        "BC",
        -10.120642013878427
      ],
      [
        "ĠEducation",
        -10.122077578476858
      ],
      [
        "Ġvaccine",
        -10.122077713081191
      ],
      [
        "Ġprivate",
        -10.122109332235684
      ],
      [
        "Ġlay",
        -10.122832576413224
      ],
      [
        "Ġdu",
        -10.122958678099348
      ],
      [
        "Acc",
        -10.123011945388493
      ],
      [
        "Ġheating",
        -10.123036172649789
      ],
      [
        "Thank",
        -10.12374115004345
      ],
      [
        "Ġtax",
        -10.123841095069816
      ],
      [
        "ories",
        -10.123975154417789
      ],
      [
        "Ġequation",
        -10.124035627634598
      ],
      [
        "ĠTime",
        -10.12451155112267
      ],
      [
        "ĠRiver",
        -10.124516608315624
      ],
      [
        "Ġassume",
        -10.124676763645772
      ],
      [
        "ĠSea",
        -10.12474220488458
      ],
      [
        "Ġcomput",
        -10.12634606389624
      ],
      [
        "Ġrealize",
        -10.12683883021929
      ],
      [
        "Lo",
        -10.128533492330432
      ],
      [
        "rid",
        -10.129108207551626
      ],
      [
        "Ġmuscles",
        -10.129199475813328
      ],
      [
        "Ġorganizations",
        -10.1298729759629
      ],
      [
        "Ġsmell",
        -10.130020261798691
      ],
      [
        "Ġemployee",
        -10.130037622535063
      ],
      [
        "lum",
        -10.130264785499602
      ],
      [
        "Ġoffering",
        -10.1309212766563
      ],
      [
        "bur",
        -10.131265735991793
      ],
      [
        "ĠKeep",
        -10.131297515280806
      ],
      [
        "Ġatom",
        -10.132293251862516
      ],
      [
        "SC",
        -10.132434352112512
      ],
      [
        "Most",
        -10.132705441309476
      ],
      [
        "verse",
        -10.13285818350856
      ],
      [
        "Ġoperations",
        -10.133157938533156
      ],
      [
        "ĠFl",
        -10.133739162935957
      ],
      [
        "Conclusion",
        -10.133876975440277
      ],
      [
        "Ġlifestyle",
        -10.133877004994464
      ],
      [
        "/or",
        -10.134006929757897
      ],
      [
        "Ġzone",
        -10.1340271044815
      ],
      [
        "tech",
        -10.135145191883655
      ],
      [
        "Ġworse",
        -10.135569045777036
      ],
      [
        "Ġincredibl",
        -10.135857519109685
      ],
      [
        "Ġpilot",
        -10.135920126120396
      ],
      [
        "Ġinternet",
        -10.13598548369164
      ],
      [
        "Ġaircraft",
        -10.136056841592929
      ],
      [
        "Ġfunctional",
        -10.136351540187183
      ],
      [
        "Ġnutrient",
        -10.136354403032293
      ],
      [
        "Ġpropose",
        -10.13637364834312
      ],
      [
        "Ġbl",
        -10.136411511274185
      ],
      [
        "Su",
        -10.136529542890052
      ],
      [
        "Ġcable",
        -10.138124586275184
      ],
      [
        "covered",
        -10.139736204813826
      ],
      [
        "pot",
        -10.14004239652483
      ],
      [
        "Ġcor",
        -10.140314905331628
      ],
      [
        "like",
        -10.140676025278353
      ],
      [
        "RA",
        -10.140756249299889
      ],
      [
        "Ġwi",
        -10.141254909235878
      ],
      [
        "that",
        -10.141264889165331
      ],
      [
        "Ġintelligence",
        -10.14182140259062
      ],
      [
        "Ġcrystal",
        -10.14182147009036
      ],
      [
        "diversity",
        -10.142798493921193
      ],
      [
        "Ġclasse",
        -10.143016945611638
      ],
      [
        "Ġproduc",
        -10.143667029560351
      ],
      [
        "Ġfundamental",
        -10.143817584978557
      ],
      [
        "Ġwash",
        -10.145087817823203
      ],
      [
        "ĠCat",
        -10.14551670228197
      ],
      [
        "ram",
        -10.145595713790266
      ],
      [
        "duction",
        -10.146192361491917
      ],
      [
        "field",
        -10.146941290338583
      ],
      [
        "Ġref",
        -10.147126718767058
      ],
      [
        "Low",
        -10.147168644910684
      ],
      [
        "je",
        -10.147460890705355
      ],
      [
        "Ġchronic",
        -10.147821516858194
      ],
      [
        "Ġgirl",
        -10.14782160426932
      ],
      [
        "ĠBritish",
        -10.147822085504163
      ],
      [
        "Ġbiological",
        -10.148020254547257
      ],
      [
        "Ġeducational",
        -10.148964354059077
      ],
      [
        "loc",
        -10.149104776587864
      ],
      [
        "Ġscan",
        -10.1497792026154
      ],
      [
        "Ġobvious",
        -10.149829451195204
      ],
      [
        "ĠHol",
        -10.150441072583874
      ],
      [
        "Ġgum",
        -10.150446288910562
      ],
      [
        "pu",
        -10.151456607211587
      ],
      [
        "ĠPeople",
        -10.151507001400075
      ],
      [
        "Ġdecline",
        -10.152113698880497
      ],
      [
        "Ġprofessionals",
        -10.152665088008014
      ],
      [
        "Ġarch",
        -10.15325789393735
      ],
      [
        "&",
        -10.15326913414101
      ],
      [
        "ense",
        -10.153397587047426
      ],
      [
        "Ġconfirm",
        -10.153857879563866
      ],
      [
        "Ġpepper",
        -10.153857922051774
      ],
      [
        "Ġrequest",
        -10.153857980122536
      ],
      [
        "Ġamazing",
        -10.15385809322886
      ],
      [
        "Ġnerve",
        -10.15397809083455
      ],
      [
        "Ġloose",
        -10.153979777909257
      ],
      [
        "Ġvehicles",
        -10.155134401664675
      ],
      [
        "AP",
        -10.155413973748328
      ],
      [
        "Ġsamples",
        -10.156305258231123
      ],
      [
        "ĠAct",
        -10.156826267193242
      ],
      [
        "Ġcontract",
        -10.15696765666199
      ],
      [
        "Ġfi",
        -10.157732141817675
      ],
      [
        "Ĥ",
        -10.15786281768582
      ],
      [
        "Ġspray",
        -10.157903454835434
      ],
      [
        "Ġstrip",
        -10.157980832104728
      ],
      [
        "Ġpainting",
        -10.158048166431644
      ],
      [
        "Ġcapabilit",
        -10.158264331446311
      ],
      [
        "Ġenvironments",
        -10.159048920845294
      ],
      [
        "mil",
        -10.15986289843767
      ],
      [
        "ĠHu",
        -10.159909846072743
      ],
      [
        "ĠFlorida",
        -10.161963149246242
      ],
      [
        "urniture",
        -10.161986532374836
      ],
      [
        "Ġradiation",
        -10.16200740530211
      ],
      [
        "Ġarray",
        -10.164000073114074
      ],
      [
        "ĠCanada",
        -10.164012624516245
      ],
      [
        "Ġappeal",
        -10.16404087381079
      ],
      [
        "other",
        -10.164066441801358
      ],
      [
        "Ġbread",
        -10.164345817268496
      ],
      [
        "âĢĻt",
        -10.16479105239002
      ],
      [
        "tory",
        -10.165193105869006
      ],
      [
        "CO",
        -10.16566195785958
      ],
      [
        "Ġcurve",
        -10.165737613321571
      ],
      [
        "Ġmobile",
        -10.166042529618077
      ],
      [
        "Ġobservation",
        -10.166063898342642
      ],
      [
        "Ex",
        -10.166146378950426
      ],
      [
        "Ġstrain",
        -10.16630109218701
      ],
      [
        "ĠDis",
        -10.167139325059146
      ],
      [
        "Ġden",
        -10.168069581878155
      ],
      [
        "Ġinnovation",
        -10.168085536441
      ],
      [
        "Ġplent",
        -10.168735776912843
      ],
      [
        "Ġfur",
        -10.169349955656344
      ],
      [
        "Ġcamp",
        -10.16967943718557
      ],
      [
        "Ġsituations",
        -10.16980649306651
      ],
      [
        "Ġhelping",
        -10.169890746712891
      ],
      [
        "Ġcredit",
        -10.170153937851529
      ],
      [
        "Ġsent",
        -10.170415391505747
      ],
      [
        "Ġsong",
        -10.170533992308467
      ],
      [
        "Ġdirector",
        -10.171051991763733
      ],
      [
        "Ġdetailed",
        -10.17226807583445
      ],
      [
        "Ġdrugs",
        -10.173391892151502
      ],
      [
        "Ġprior",
        -10.17410744947896
      ],
      [
        "ĠHome",
        -10.174168944502734
      ],
      [
        "Ġwaves",
        -10.174386487516053
      ],
      [
        "rod",
        -10.174835855391692
      ],
      [
        "lov",
        -10.17593627735812
      ],
      [
        "Use",
        -10.175977343305371
      ],
      [
        "NT",
        -10.176278570754343
      ],
      [
        "accurac",
        -10.17630797246698
      ],
      [
        "Ġknee",
        -10.176510232263542
      ],
      [
        "cra",
        -10.176817340942469
      ],
      [
        "color",
        -10.176955959704657
      ],
      [
        "ĠBen",
        -10.176965503901137
      ],
      [
        "Ġsurvival",
        -10.176976021189072
      ],
      [
        "IP",
        -10.17747785813432
      ],
      [
        "Photo",
        -10.178130335796958
      ],
      [
        "SO",
        -10.179826945845084
      ],
      [
        "Ġrisks",
        -10.180110639505209
      ],
      [
        "Ġappreciate",
        -10.180444076649678
      ],
      [
        "Ġencounter",
        -10.180444083133304
      ],
      [
        "Ġminimum",
        -10.1804453835877
      ],
      [
        "pel",
        -10.180650247992332
      ],
      [
        "||",
        -10.180884886442708
      ],
      [
        "Ġminerals",
        -10.180979377679432
      ],
      [
        "-friendl",
        -10.181142617582491
      ],
      [
        "Sh",
        -10.181317020039168
      ],
      [
        "ĠSte",
        -10.181818713591
      ],
      [
        "Ġdisorder",
        -10.18213660267602
      ],
      [
        "Ġpen",
        -10.182280759520248
      ],
      [
        "Ġtrick",
        -10.183033590591036
      ],
      [
        "ĠChe",
        -10.183613720867932
      ],
      [
        "Ġexplor",
        -10.18416814923117
      ],
      [
        "Ġdestroy",
        -10.184598209004005
      ],
      [
        "Ġfailure",
        -10.18482403956457
      ],
      [
        "Ġawarenes",
        -10.184874519984852
      ],
      [
        "Ġdepression",
        -10.184895434818266
      ],
      [
        "script",
        -10.185786122705686
      ],
      [
        "ĠTri",
        -10.18583030531575
      ],
      [
        "Ġrelevant",
        -10.18668110199133
      ],
      [
        "Ġgraph",
        -10.186729778646423
      ],
      [
        "Ġsport",
        -10.1876332000671
      ],
      [
        "Ġlighting",
        -10.187764771672128
      ],
      [
        "Ġrecovery",
        -10.187975433761943
      ],
      [
        "Ġtreated",
        -10.188106442117409
      ],
      [
        "Ġstretch",
        -10.188769061657592
      ],
      [
        "Ġbottle",
        -10.188770233062122
      ],
      [
        "Ġspec",
        -10.189528425952886
      ],
      [
        "Ġpop",
        -10.18967920255727
      ],
      [
        "Ġguy",
        -10.190036032018044
      ],
      [
        "Ġvariation",
        -10.190860994902437
      ],
      [
        "Ġchoos",
        -10.191438293064358
      ],
      [
        "Ġbite",
        -10.19224060234984
      ],
      [
        "uel",
        -10.192283580313678
      ],
      [
        "heat",
        -10.192879648992928
      ],
      [
        "Ġpesticide",
        -10.19295848436937
      ],
      [
        "Ġdetermined",
        -10.193109405108515
      ],
      [
        "dri",
        -10.193235909260574
      ],
      [
        "Ġunits",
        -10.193404600253569
      ],
      [
        "add",
        -10.19376371704372
      ],
      [
        "Ġmeeting",
        -10.19397658233663
      ],
      [
        "chin",
        -10.194154200166617
      ],
      [
        "ĠQ",
        -10.19464583313014
      ],
      [
        "Ġadvance",
        -10.194892245489251
      ],
      [
        "Ġwish",
        -10.195394842893348
      ],
      [
        "ĠCu",
        -10.196008351697673
      ],
      [
        "Ġpercentage",
        -10.196097463285016
      ],
      [
        "Ġmistake",
        -10.196625320918486
      ],
      [
        "Ġcollege",
        -10.1971634130361
      ],
      [
        "Ġspider",
        -10.197180528472622
      ],
      [
        "Ġdamaged",
        -10.197357921908118
      ],
      [
        "Ġroute",
        -10.19787109328896
      ],
      [
        "Ġpredator",
        -10.19930286575131
      ],
      [
        "ĠGr",
        -10.199715599701277
      ],
      [
        "mph",
        -10.19984562315108
      ],
      [
        "Ġnation",
        -10.200378914798875
      ],
      [
        "Ġpor",
        -10.200422381858878
      ],
      [
        "Ġcompost",
        -10.200867689159203
      ],
      [
        "Ġconsequence",
        -10.201387958179684
      ],
      [
        "Ġopinion",
        -10.201388522153174
      ],
      [
        "?\"",
        -10.20240982591968
      ],
      [
        "ĠOut",
        -10.203252851622045
      ],
      [
        "Ġfoundation",
        -10.203308662160705
      ],
      [
        "ĠPri",
        -10.203340458066144
      ],
      [
        "Ġbug",
        -10.203400201134466
      ],
      [
        "Ġtight",
        -10.203801048738796
      ],
      [
        "Ġmini",
        -10.204285758483888
      ],
      [
        "Ġagent",
        -10.204426601931509
      ],
      [
        "Ġsharp",
        -10.205196306308178
      ],
      [
        "NE",
        -10.205353654906666
      ],
      [
        "According",
        -10.20539481562999
      ],
      [
        "RO",
        -10.205446990600256
      ],
      [
        "Ġextensive",
        -10.205629045880611
      ],
      [
        "Ġcalcium",
        -10.205629070755688
      ],
      [
        "Ġpoly",
        -10.205983374893144
      ],
      [
        "Ġprovider",
        -10.207267714717489
      ],
      [
        "hen",
        -10.20746417526574
      ],
      [
        "Ġthorough",
        -10.207756738233329
      ],
      [
        "--",
        -10.207967843469078
      ],
      [
        "ough",
        -10.209001292115946
      ],
      [
        "Ġisland",
        -10.209065190653888
      ],
      [
        "Ġscenario",
        -10.20988888420369
      ],
      [
        "Ġindustrial",
        -10.209888884615776
      ],
      [
        "are",
        -10.210075116047324
      ],
      [
        "Ġcontrolle",
        -10.210865330794975
      ],
      [
        "radi",
        -10.211524837622584
      ],
      [
        "pri",
        -10.21235595609425
      ],
      [
        "gal",
        -10.212683404964316
      ],
      [
        "lap",
        -10.21321950961105
      ],
      [
        "place",
        -10.213449609906588
      ],
      [
        "Ġnitrogen",
        -10.21416696505814
      ],
      [
        "Ġbarrier",
        -10.214168256249597
      ],
      [
        "Ġessay",
        -10.214170919055135
      ],
      [
        "Ġleaving",
        -10.214235433524989
      ],
      [
        "Ġchose",
        -10.21438411907308
      ],
      [
        "Ġflood",
        -10.21438645646774
      ],
      [
        "ball",
        -10.214539384647498
      ],
      [
        "Ġedit",
        -10.214860453900776
      ],
      [
        "Ġlawn",
        -10.214885801600609
      ],
      [
        "Your",
        -10.21489357662181
      ],
      [
        "ĠWest",
        -10.215105528442075
      ],
      [
        "Ġvisibl",
        -10.215412240152707
      ],
      [
        "Ġeight",
        -10.215488206997843
      ],
      [
        "print",
        -10.21561864018208
      ],
      [
        "Ġcorner",
        -10.215724285655858
      ],
      [
        "Ġrestaurant",
        -10.216312918608018
      ],
      [
        "ĠChine",
        -10.216485224543224
      ],
      [
        "vic",
        -10.217675259258906
      ],
      [
        "Ġmajority",
        -10.218222381582883
      ],
      [
        "Â·",
        -10.218484945846868
      ],
      [
        "ĠApp",
        -10.218860039722728
      ],
      [
        "Ġreplacement",
        -10.219081126496278
      ],
      [
        "Ġvarie",
        -10.219561849974388
      ],
      [
        "Ġchip",
        -10.22017720830331
      ],
      [
        "born",
        -10.220274428522387
      ],
      [
        "Ġinfect",
        -10.220703068459958
      ],
      [
        "Ġstable",
        -10.221066881591682
      ],
      [
        "Ġmelt",
        -10.221101409655704
      ],
      [
        "rag",
        -10.22143788609139
      ],
      [
        "ĠNature",
        -10.222478582170972
      ],
      [
        "Pre",
        -10.222566119889429
      ],
      [
        "ĠTake",
        -10.2226616192017
      ],
      [
        "Ġabsolute",
        -10.222778423945549
      ],
      [
        "hand",
        -10.223102642271218
      ],
      [
        "ĠAny",
        -10.223137591183589
      ],
      [
        "ĠCl",
        -10.2247229628071
      ],
      [
        "More",
        -10.224851575910291
      ],
      [
        "-related",
        -10.224943352199642
      ],
      [
        "Januar",
        -10.22494687627194
      ],
      [
        "Ġrough",
        -10.225093176720478
      ],
      [
        "NA",
        -10.225609300213032
      ],
      [
        "arch",
        -10.225671914062122
      ],
      [
        "ĠHave",
        -10.225766716887737
      ],
      [
        "Ġcalculate",
        -10.22614755049401
      ],
      [
        "dependent",
        -10.226789885633004
      ],
      [
        "Ġchoices",
        -10.226876766128656
      ],
      [
        "Ġflu",
        -10.227096271925303
      ],
      [
        "OVID",
        -10.227301730104616
      ],
      [
        "meter",
        -10.227479374677545
      ],
      [
        "Ġmission",
        -10.227860916330942
      ],
      [
        "upon",
        -10.228670462761624
      ],
      [
        "list",
        -10.229213814618042
      ],
      [
        "Ġstroke",
        -10.229288828256273
      ],
      [
        "strict",
        -10.23052376189304
      ],
      [
        "ĠJune",
        -10.230670453130251
      ],
      [
        "Min",
        -10.23079315353079
      ],
      [
        "Ġmembrane",
        -10.23089567200502
      ],
      [
        "Ġhormone",
        -10.231464690773764
      ],
      [
        "ĠEd",
        -10.232049196685187
      ],
      [
        "Ġguideline",
        -10.232077242277136
      ],
      [
        "medi",
        -10.232593985902064
      ],
      [
        "Source",
        -10.23369484205336
      ],
      [
        "Ġexcessive",
        -10.234091900376516
      ],
      [
        "ĠPat",
        -10.234206653534171
      ],
      [
        "Ġ...Ċ",
        -10.234330390782528
      ],
      [
        "Ġsensitive",
        -10.235614141070414
      ],
      [
        "Ġbelt",
        -10.23579072987694
      ],
      [
        "Ġcompetition",
        -10.235894695853844
      ],
      [
        "CC",
        -10.236268186006976
      ],
      [
        "ĠGood",
        -10.236966841758692
      ],
      [
        "ĠControl",
        -10.239197751519132
      ],
      [
        "Ġpara",
        -10.23978462100482
      ],
      [
        "Ġstain",
        -10.239972525317937
      ],
      [
        "Ġprecise",
        -10.240227165053064
      ],
      [
        "Ġhousehold",
        -10.240228861399244
      ],
      [
        "Ġurban",
        -10.240269409180978
      ],
      [
        "Ġobjective",
        -10.240405272228925
      ],
      [
        "Ġconsideration",
        -10.240892268025725
      ],
      [
        "have",
        -10.241310630347837
      ],
      [
        "Ġplanting",
        -10.241384513023872
      ],
      [
        "Ġspecialize",
        -10.24234654146406
      ],
      [
        "Ġbudget",
        -10.24242975045046
      ],
      [
        "ĠConsider",
        -10.242516256792726
      ],
      [
        "Ġflour",
        -10.24285110996686
      ],
      [
        "Ġpictures",
        -10.24304702538955
      ],
      [
        "key",
        -10.243182862743346
      ],
      [
        "ĠGod",
        -10.243803987860405
      ],
      [
        "rab",
        -10.244319282306751
      ],
      [
        "HO",
        -10.244471644150618
      ],
      [
        "Ġfamiliar",
        -10.244637209266283
      ],
      [
        "Ġdirt",
        -10.24473474983973
      ],
      [
        "dom",
        -10.24606572375276
      ],
      [
        "Ġslowly",
        -10.247420371676682
      ],
      [
        "Ġcounter",
        -10.24819271185489
      ],
      [
        "Ġshell",
        -10.248445802997953
      ],
      [
        "NO",
        -10.248759410592356
      ],
      [
        "Ġfirm",
        -10.24914263969032
      ],
      [
        "Ġmovie",
        -10.249310053651088
      ],
      [
        "ĠCheck",
        -10.249731607971825
      ],
      [
        "Ġbat",
        -10.250036604952538
      ],
      [
        "Ġbelong",
        -10.25012390799425
      ],
      [
        "Mo",
        -10.250217130036896
      ],
      [
        "Ġahead",
        -10.250253552139252
      ],
      [
        "Ġpreviously",
        -10.250485387703227
      ],
      [
        "Onc",
        -10.251494094397197
      ],
      [
        "ĠFurther",
        -10.251875579064404
      ],
      [
        "Ġagricultur",
        -10.253027176574223
      ],
      [
        "Ġeconomy",
        -10.253070165090374
      ],
      [
        "Ġshowing",
        -10.253325787497166
      ],
      [
        "rite",
        -10.253716848453488
      ],
      [
        "Ġdecide",
        -10.253922591941866
      ],
      [
        "Ġinsulation",
        -10.254111900373516
      ],
      [
        "ken",
        -10.254259239376855
      ],
      [
        "Ġbulb",
        -10.254764584640068
      ],
      [
        "div",
        -10.2548179372784
      ],
      [
        "ĠThu",
        -10.254832028502292
      ],
      [
        "Ġdivide",
        -10.255379038263849
      ],
      [
        "Ġtrace",
        -10.256622682517609
      ],
      [
        "Ġmat",
        -10.25712272945314
      ],
      [
        "Ġguess",
        -10.25799003563841
      ],
      [
        "Ġzero",
        -10.25799134009794
      ],
      [
        "Ġminimal",
        -10.258126428729804
      ],
      [
        "Ġcalm",
        -10.25850973057871
      ],
      [
        "ĠStudent",
        -10.25928710777755
      ],
      [
        "Ġargument",
        -10.26022778539308
      ],
      [
        "Ġpowder",
        -10.260228043606674
      ],
      [
        "Ġsudden",
        -10.26022822928903
      ],
      [
        "Ġexchange",
        -10.26028804740745
      ],
      [
        "Ġshared",
        -10.261243830300527
      ],
      [
[...]
