{
  "version": "1.0",
  "truncation": null,
  "padding": null,
  "added_tokens": [
    {
      "id": 0,
      "content": "<|bos|>",
      "single_word": false,
      "lstrip": false,
      "rstrip": false,
      "normalized": false,
      "special": true
    },
    {
      "id": 1,
      "content": "<|user_start|>",
      "single_word": false,
      "lstrip": false,
      "rstrip": false,
      "normalized": false,
      "special": true
    },
    {
      "id": 2,
      "content": "<|user_end|>",
      "single_word": false,
      "lstrip": false,
      "rstrip": false,
      "normalized": false,
      "special": true
    },
    {
      "id": 3,
      "content": "<|assistant_start|>",
      "single_word": false,
      "lstrip": false,
      "rstrip": false,
      "normalized": false,
      "special": true
    },
    {
      "id": 4,
      "content": "<|assistant_end|>",
      "single_word": false,
      "lstrip": false,
      "rstrip": false,
      "normalized": false,
      "special": true
    },
    {
      "id": 5,
      "content": "<|python_start|>",
      "single_word": false,
      "lstrip": false,
      "rstrip": false,
      "normalized": false,
      "special": true
    },
    {
      "id": 6,
      "content": "<|python_end|>",
      "single_word": false,
      "lstrip": false,
      "rstrip": false,
      "normalized": false,
      "special": true
    },
    {
      "id": 7,
      "content": "<|output_start|>",
      "single_word": false,
      "lstrip": false,
      "rstrip": false,
      "normalized": false,
      "special": true
    },
    {
      "id": 8,
      "content": "<|output_end|>",
      "single_word": false,
      "lstrip": false,
      "rstrip": false,
      "normalized": false,
      "special": true
    },
    {
      "id": 9,
      "content": "<|unk|>",
      "single_word": false,
      "lstrip": false,
      "rstrip": false,
      "normalized": false,
      "special": true
    }
  ],
  "normalizer": null,
  "pre_tokenizer": {
    "type": "Sequence",
    "pretokenizers": [
      {
        "type": "Split",
        "pattern": {
          "Regex": "'(?i:[sdmt]|ll|ve|re)|[^\\r\\n\\p{L}\\p{N}]?+\\p{L}+|\\p{N}{1,2}| ?[^\\s\\p{L}\\p{N}]++[\\r\\n]*|\\s*[\\r\\n]|\\s+(?!\\S)|\\s+"
        },
        "behavior": "Isolated",
        "invert": false
      },
      {
        "type": "ByteLevel",
        "add_prefix_space": false,
        "trim_offsets": true,
        "use_regex": false
      }
    ]
  },
  "post_processor": {
    "type": "TemplateProcessing",
    "single": [
      {
        "Sequence": {
          "id": "A",
          "type_id": 0
        }
      }
    ],
    "pair": [
      {
        "Sequence": {
          "id": "A",
          "type_id": 0
        }
      },
      {
        "Sequence": {
          "id": "B",
          "type_id": 1
        }
      }
    ],
    "special_tokens": {}
  },
  "decoder": null,
  "model": {
    "type": "Unigram",
    "unk_id": 9,
    "vocab": [
      [
        "<|bos|>",
        0.0
      ],
      [
        "<|user_start|>",
        0.0
      ],
      [
        "<|user_end|>",
        0.0
      ],
      [
        "<|assistant_start|>",
        0.0
      ],
      [
        "<|assistant_end|>",
        0.0
      ],
      [
        "<|python_start|>",
        0.0
      ],
      [
        "<|python_end|>",
        0.0
      ],
      [
        "<|output_start|>",
        0.0
      ],
      [
        "<|output_end|>",
        0.0
      ],
      [
        "<|unk|>",
        0.0
      ],
      [
        "Ġ",
        -2.654233052778899
      ],
      [
        "Ġthe",
        -3.4320236927814243
      ],
      [
        ",",
        -3.479852920751725
      ],
      [
        "s",
        -3.5276990554621612
      ],
      [
        ".",
        -3.763586884857141
      ],
      [
        "a",
        -3.7812684541206742
      ],
      [
        "Ġand",
        -3.976458955740569
      ],
      [
        "Ġto",
        -4.012020621946883
      ],
      [
        "Ġof",
        -4.018213664164021
      ],
      [
        "Ġin",
        -4.519207107781794
      ],
      [
        "Ġis",
        -4.641445296451748
      ],
      [
        "t",
        -4.7647680804436945
      ],
      [
        "'",
        -4.941581357095309
      ],
      [
        "Ġthat",
        -5.05846387956065
      ],
      [
        "0",
        -5.0658169988423705
      ],
      [
        "Ġfor",
        -5.074945997677089
      ],
      [
        "e",
        -5.162261794570563
      ],
      [
        "1",
        -5.195930281043893
      ],
      [
        "Ġare",
        -5.247009304452371
      ],
      [
        ":",
        -5.278722247007744
      ],
      [
        "-",
        -5.2916227409779015
      ],
      [
        "i",
        -5.325769613761802
      ],
      [
        "Ġyou",
        -5.3340260204556245
      ],
      [
        "o",
        -5.347438315667871
      ],
      [
        "Ċ",
        -5.352885443822419
      ],
      [
        ".Ċ",
        -5.363649846027672
      ],
      [
        "Ġit",
        -5.377826019077329
      ],
      [
        ".ĊĊ",
        -5.39432747651874
      ],
      [
        "2",
        -5.404888888003484
      ],
      [
        "Ġwith",
        -5.410912764018979
      ],
      [
        "ing",
        -5.4938137312161395
      ],
      [
        "Ġbe",
        -5.53548325905083
      ],
      [
        "Ġon",
        -5.537314288105101
      ],
      [
        "Ġcan",
        -5.550583295381205
      ],
      [
        "Ġor",
        -5.5580111067056155
      ],
      [
        "Ġas",
        -5.558134812240802
      ],
      [
        "I",
        -5.616440540241005
      ],
      [
        "d",
        -5.636090697586942
      ],
      [
        "(",
        -5.656860072910105
      ],
      [
        "n",
        -5.693113481445723
      ],
      [
        "Ġyour",
        -5.731439156333824
      ],
      [
        "ĊĊ",
        -5.740975748691653
      ],
      [
        "\"",
        -5.7541459537648265
      ],
      [
        "Ġhave",
        -5.906941369215723
      ],
      [
        "r",
        -5.915816793419557
      ],
      [
        "ed",
        -5.916257475431184
      ],
      [
        "Ġfrom",
        -5.92845664394024
      ],
      [
        "ĠThe",
        -5.945706948096632
      ],
      [
        "y",
        -5.9581319760044735
      ],
      [
        "Ġby",
        -6.003420593824821
      ],
      [
        "3",
        -6.044533119909445
      ],
      [
        "Ġan",
        -6.045779540714491
      ],
      [
        ")",
        -6.046704081342314
      ],
      [
        "f",
        -6.050913759352406
      ],
      [
        "Ġthis",
        -6.088108078230627
      ],
      [
        "A",
        -6.091189620427427
      ],
      [
        "5",
        -6.107147786368751
      ],
      [
        "m",
        -6.107923019600998
      ],
      [
        "?",
        -6.114738189303928
      ],
      [
        "Ġnot",
        -6.157316655074254
      ],
      [
        "Ġwill",
        -6.244981502604089
      ],
      [
        "4",
        -6.255588730506485
      ],
      [
        "Ġtheir",
        -6.258097320764426
      ],
      [
        "Ġthey",
        -6.300078160209072
      ],
      [
        "9",
        -6.356496597509118
      ],
      [
        "re",
        -6.37267460294291
      ],
      [
        "Ġmore",
        -6.376138699018158
      ],
      [
        "Ġwas",
        -6.3995369230503325
      ],
      [
        "The",
        -6.443137690060237
      ],
      [
        "Ġwe",
        -6.509939682827781
      ],
      [
        "Ġbut",
        -6.514743911588907
      ],
      [
        "6",
        -6.516138293691428
      ],
      [
        "Ġwhich",
        -6.528737425836226
      ],
      [
        "ly",
        -6.529739710908615
      ],
      [
        "Ġhas",
        -6.531979471499286
      ],
      [
        "8",
        -6.548876019516523
      ],
      [
        "c",
        -6.5921496103978825
      ],
      [
        "p",
        -6.602548986238949
      ],
      [
        "Ġalso",
        -6.621472233290154
      ],
      [
        "Question",
        -6.62310456502995
      ],
      [
        "Ġone",
        -6.624534806630399
      ],
      [
        "l",
        -6.626513384819466
      ],
      [
        "ĠAnswer",
        -6.647382525322998
      ],
      [
        "7",
        -6.657471956739803
      ],
      [
        "Ġall",
        -6.68624007096823
      ],
      [
        "Ġabout",
        -6.698369955807223
      ],
      [
        "Ġother",
        -6.7471717743589394
      ],
      [
        "b",
        -6.7563426013627215
      ],
      [
        "ĠIt",
        -6.758097636830719
      ],
      [
        "in",
        -6.765366487130375
      ],
      [
        "Ġwhen",
        -6.787392148116796
      ],
      [
        "Ġdo",
        -6.795747707198597
      ],
      [
        "Ġtime",
        -6.832568349981166
      ],
      [
        "g",
        -6.847623254200775
      ],
      [
        "Ġthem",
        -6.861233035640517
      ],
      [
        "Ġinto",
        -6.8663007582620885
      ],
      [
        "Ġlike",
        -6.866406681654672
      ],
      [
        "ĠThis",
        -6.901209624226306
      ],
      [
        "Ġup",
        -6.911090573990165
      ],
      [
        "Ġuse",
        -6.919881061125679
      ],
      [
        "Ġmay",
        -6.927810509070197
      ],
      [
        "Ġout",
        -6.934252862965231
      ],
      [
        "Ġsome",
        -6.942410079320316
      ],
      [
        "Ġthan",
        -6.958370131241587
      ],
      [
        "al",
        -6.9691200175268175
      ],
      [
        "ĠWhat",
        -6.9772329804075035
      ],
      [
        "S",
        -6.982030994374568
      ],
      [
        "Ġthese",
        -6.992798240633093
      ],
      [
        "Ġhow",
        -6.999652794473505
      ],
      [
        "ĠIn",
        -7.012784512855806
      ],
      [
        "h",
        -7.029164749454237
      ],
      [
        "u",
        -7.035232867181783
      ],
      [
        "or",
        -7.048011545941193
      ],
      [
        "Ġwater",
        -7.052535773539081
      ],
      [
        "/",
        -7.058798888980446
      ],
      [
        "Ġthere",
        -7.059964777840333
      ],
      [
        "Ġused",
        -7.064658697195309
      ],
      [
        "Ġwhat",
        -7.0708740253168365
      ],
      [
        "on",
        -7.07141517157304
      ],
      [
        "Ġour",
        -7.097827364484532
      ],
      [
        "Ġmake",
        -7.124609905265325
      ],
      [
        "Ġsuch",
        -7.139305941063137
      ],
      [
        "D",
        -7.156527671287753
      ],
      [
        "Ġwere",
        -7.158300271905258
      ],
      [
        "k",
        -7.163542381797216
      ],
      [
        "Ġmost",
        -7.166794362118438
      ],
      [
        "an",
        -7.168204977538153
      ],
      [
        "Ġits",
        -7.1844569511472525
      ],
      [
        "Ġpeople",
        -7.200180994766081
      ],
      [
        "Ġbeen",
        -7.203217565703175
      ],
      [
        "Ġany",
        -7.225088302340742
      ],
      [
        "Ġhelp",
        -7.228094352847757
      ],
      [
        "is",
        -7.231532799370576
      ],
      [
        "Ġshould",
        -7.25278056252866
      ],
      [
        "Ġover",
        -7.257219619851352
      ],
      [
        "Ġwould",
        -7.263855389124249
      ],
      [
        "Ġget",
        -7.271075118339352
      ],
      [
        "Ġneed",
        -7.272158550355959
      ],
      [
        "Ġonly",
        -7.279772540500103
      ],
      [
        "Ġjust",
        -7.285624685022944
      ],
      [
        "Ġnew",
        -7.299711030398454
      ],
      [
        "Ġwho",
        -7.3040133124550355
      ],
      [
        "Ġmany",
        -7.309832373931815
      ],
      [
        "he",
        -7.3153200090926624
      ],
      [
        ";",
        -7.34077935186847
      ],
      [
        "Ġtwo",
        -7.35528899086021
      ],
      [
        "Ġwell",
        -7.373294576425865
      ],
      [
        "Ġfirst",
        -7.380489224500698
      ],
      [
        "ĠC",
        -7.381970449008572
      ],
      [
        "Ġthrough",
        -7.410419170853976
      ],
      [
        "Ġway",
        -7.418813549792574
      ],
      [
        "Ġmy",
        -7.43266655606655
      ],
      [
        "Ġwork",
        -7.433538032333621
      ],
      [
        "Ġdifferent",
        -7.444644643925331
      ],
      [
        "Ġbetween",
        -7.450195311286462
      ],
      [
        "Ġno",
        -7.450443020606139
      ],
      [
        "Ġwhere",
        -7.477434919014518
      ],
      [
        "v",
        -7.477770408196619
      ],
      [
        "able",
        -7.480016062909044
      ],
      [
        "Ġusing",
        -7.480626231198322
      ],
      [
        "T",
        -7.498302539846998
      ],
      [
        "Ġbecause",
        -7.499051966842027
      ],
      [
        "?Ċ",
        -7.505394389334892
      ],
      [
        "ĠIf",
        -7.521577550762466
      ],
      [
        "Ġcould",
        -7.533522778344077
      ],
      [
        "In",
        -7.547231485245469
      ],
      [
        "Ġvery",
        -7.55052339530333
      ],
      [
        "Ġeven",
        -7.564502576576002
      ],
      [
        "ve",
        -7.568337011173801
      ],
      [
        "ĠThey",
        -7.577022998906456
      ],
      [
        "C",
        -7.5774803759548846
      ],
      [
        "Ġsystem",
        -7.583785411599294
      ],
      [
        "Ġhigh",
        -7.584263727511855
      ],
      [
        "ĠB",
        -7.590702009148391
      ],
      [
        "th",
        -7.602442631947207
      ],
      [
        "Ġmuch",
        -7.604447951578125
      ],
      [
        "w",
        -7.606465214275751
      ],
      [
        "Ġeach",
        -7.607627226709237
      ],
      [
        "!",
        -7.608762394448023
      ],
      [
        "Ġimportant",
        -7.6345988388910495
      ],
      [
        "Ġknow",
        -7.640358020633451
      ],
      [
        "Ġgood",
        -7.642606495623237
      ],
      [
        "?ĊĊ",
        -7.647702471621761
      ],
      [
        "Ġhad",
        -7.654283579556891
      ],
      [
        "Ġhis",
        -7.66085575323493
      ],
      [
        "ĠYou",
        -7.66125582327466
      ],
      [
        "x",
        -7.668500229444749
      ],
      [
        "ĠâĢĵ",
        -7.673121602103034
      ],
      [
        "Ġdoes",
        -7.673393228362883
      ],
      [
        "Ġyears",
        -7.67751535970935
      ],
      [
        "Ġtake",
        -7.678146095225463
      ],
      [
        "ll",
        -7.685020000766311
      ],
      [
        "Ġfood",
        -7.685827214484036
      ],
      [
        "Ġwhile",
        -7.689344509755735
      ],
      [
        "Ġdon",
        -7.692569041094392
      ],
      [
        ").",
        -7.699330095094879
      ],
      [
        "Ġlong",
        -7.706844936247256
      ],
      [
        "ers",
        -7.731159521769332
      ],
      [
        "Ġbeing",
        -7.741017744295556
      ],
      [
        "Ġafter",
        -7.743020804823017
      ],
      [
        "B",
        -7.74812630598862
      ],
      [
        "ion",
        -7.748201590400731
      ],
      [
        "Ġwant",
        -7.750964471895388
      ],
      [
        "Ġsee",
        -7.755686797309705
      ],
      [
        "W",
        -7.764031376555458
      ],
      [
        "Ġduring",
        -7.776788557426446
      ],
      [
        "Ġbefore",
        -7.776972043771609
      ],
      [
        "Ġaround",
        -7.779788338698184
      ],
      [
        "Ġsame",
        -7.788186860377561
      ],
      [
        "Ġhealth",
        -7.813454466560959
      ],
      [
        "Ġthose",
        -7.819725074405511
      ],
      [
        "Ġlife",
        -7.825055980766278
      ],
      [
        "it",
        -7.828718923385058
      ],
      [
        "ation",
        -7.834994751133843
      ],
      [
        "Ġworld",
        -7.841999525969964
      ],
      [
        "P",
        -7.846675224472383
      ],
      [
        "Ġoften",
        -7.847278702476261
      ],
      [
        "Ġboth",
        -7.848474196117264
      ],
      [
        "M",
        -7.848523489088544
      ],
      [
        "Ġenergy",
        -7.854910566759402
      ],
      [
        "%",
        -7.85510210888539
      ],
      [
        "Ġdata",
        -7.85682450084618
      ],
      [
        "What",
        -7.863601270407781
      ],
      [
        "Ġbest",
        -7.863915070315688
      ],
      [
        "Ġback",
        -7.863999119493087
      ],
      [
        "Ġfound",
        -7.868521384586918
      ],
      [
        "Ġprocess",
        -7.875474815772167
      ],
      [
        "Ġbody",
        -7.880034510384165
      ],
      [
        "ĠWe",
        -7.886404457013059
      ],
      [
        "Ġmade",
        -7.892919096503073
      ],
      [
        "),",
        -7.89376168842292
      ],
      [
        "Ġpart",
        -7.903544267137628
      ],
      [
        "Ġfind",
        -7.907390492025456
      ],
      [
        "ĠFor",
        -7.909699783433288
      ],
      [
        "Ġdown",
        -7.912197380469356
      ],
      [
        "Ġlight",
        -7.913589508835086
      ],
      [
        "Ġright",
        -7.922536463310246
      ],
      [
        "and",
        -7.932620324993831
      ],
      [
        "Ġsmall",
        -7.934529588826933
      ],
      [
        "Ġday",
        -7.952772754651498
      ],
      [
        "Ġyear",
        -7.958595170523891
      ],
      [
        "Ġgo",
        -7.959263663679266
      ],
      [
        "Ġinformation",
        -7.961493169857411
      ],
      [
        "Ġme",
        -7.96923084615336
      ],
      [
        "Ġnumber",
        -7.970192889302938
      ],
      [
        "le",
        -7.976449967687136
      ],
      [
        "Ġsaid",
        -7.981401438353192
      ],
      [
        "ĠTo",
        -7.984281414257337
      ],
      [
        "ĠP",
        -7.984607907707552
      ],
      [
        "Ġspecies",
        -7.987270654793802
      ],
      [
        "O",
        -7.9949074600445265
      ],
      [
        "Ġprovide",
        -7.99674833420541
      ],
      [
        "Ġhome",
        -8.00001692733619
      ],
      [
        "This",
        -8.002246173022632
      ],
      [
        "ĠE",
        -8.009199402160775
      ],
      [
        "ĠR",
        -8.012150556885492
      ],
      [
        ":Ċ",
        -8.013697225342794
      ],
      [
        "=",
        -8.015714135034274
      ],
      [
        "F",
        -8.020041513916494
      ],
      [
        "ar",
        -8.021010405572985
      ],
      [
        "Ġmight",
        -8.021664711253486
      ],
      [
        "Ġresearch",
        -8.031657061057073
      ],
      [
        "G",
        -8.032298132092974
      ],
      [
        "Ġher",
        -8.035669908312487
      ],
      [
        "Ġpower",
        -8.038255879377358
      ],
      [
        "Ġus",
        -8.039394334873098
      ],
      [
        "us",
        -8.048355718171326
      ],
      [
        "ĠThese",
        -8.050770623328122
      ],
      [
        "ĠF",
        -8.052079105137858
      ],
      [
        "âĢĶ",
        -8.053002769768383
      ],
      [
        "Ġbetter",
        -8.05614468579033
      ],
      [
        "Ġnow",
        -8.057461763239706
      ],
      [
        "Ġplant",
        -8.059706927433501
      ],
      [
        "Ġair",
        -8.066769326336805
      ],
      [
        "to",
        -8.06879055222653
      ],
      [
        "Ġchange",
        -8.072439453563762
      ],
      [
        "Ġwithout",
        -8.074745808106318
      ],
      [
        "Ġlook",
        -8.079436968210073
      ],
      [
        "Ġexample",
        -8.085244129567453
      ],
      [
        "Ġthink",
        -8.08661962044803
      ],
      [
        "Ġstill",
        -8.08985720153863
      ],
      [
        "[",
        -8.091124317742194
      ],
      [
        "Ġstudents",
        -8.091851802962047
      ],
      [
        "Ġkeep",
        -8.095378381182297
      ],
      [
        "Ġown",
        -8.097607257221151
      ],
      [
        "If",
        -8.106025827411667
      ],
      [
        "ĠAs",
        -8.109731154458037
      ],
      [
        "Ġtype",
        -8.110327798860075
      ],
      [
        "...",
        -8.112931001329406
      ],
      [
        "Ġincluding",
        -8.113396886708658
      ],
      [
        "Ġevery",
        -8.114819228801112
      ],
      [
        "Ġmaking",
        -8.121895756294125
      ],
      [
        "Ġplants",
        -8.126825152733069
      ],
      [
        "Ġun",
        -8.12792797684404
      ],
      [
        "How",
        -8.129195259743943
      ],
      [
        "Ġcreate",
        -8.133707274267167
      ],
      [
        "Ġdog",
        -8.136631438372559
      ],
      [
        "ĠSo",
        -8.13817578477685
      ],
      [
        "Ġcommon",
        -8.14097784987171
      ],
      [
        "Ġstudy",
        -8.140979554261369
      ],
      [
        "Ġfew",
        -8.14476443905339
      ],
      [
        "Ġoff",
        -8.145207930623183
      ],
      [
        "z",
        -8.147137685467515
      ],
      [
        "Ġunder",
        -8.151243116287423
      ],
      [
        ":ĊĊ",
        -8.168751904549081
      ],
      [
        "Ġknown",
        -8.169538985122845
      ],
      [
        "ĠBut",
        -8.171786791779214
      ],
      [
        "Ġcar",
        -8.173922681606138
      ],
      [
        "Ġcause",
        -8.175620728984804
      ],
      [
        "Ġthree",
        -8.175978960499855
      ],
      [
        "Ġlarge",
        -8.179807996276367
      ],
      [
        "Ġhuman",
        -8.180548836191543
      ],
      [
        "V",
        -8.182293627984404
      ],
      [
        "the",
        -8.184610553808612
      ],
      [
        "Ġless",
        -8.184823146617061
      ],
      [
        "ĠAnd",
        -8.18661969750731
      ],
      [
        "Ġlot",
        -8.189537030967479
      ],
      [
        "E",
        -8.195222732526833
      ],
      [
        "ĠG",
        -8.200027267882298
      ],
      [
        "Ġchildren",
        -8.217899562566632
      ],
      [
        "Ġcontrol",
        -8.21876202811615
      ],
      [
        "Ġthings",
        -8.224280722046695
      ],
      [
        "Ġplace",
        -8.227173618437824
      ],
      [
        "Ġsure",
        -8.227212665051429
      ],
      [
        "Ġmust",
        -8.228834916265875
      ],
      [
        "Ġset",
        -8.231536769829614
      ],
      [
        "Ġgreat",
        -8.232883416502759
      ],
      [
        "ĠHowever",
        -8.241651477256177
      ],
      [
        "Ġcalled",
        -8.246180701423176
      ],
      [
        "$",
        -8.24668075134533
      ],
      [
        "Ġend",
        -8.247411594652185
      ],
      [
        "ur",
        -8.256657541634334
      ],
      [
        "Ġexperience",
        -8.257116530775514
      ],
      [
        "Ġinclude",
        -8.258917823308419
      ],
      [
        "Ġwithin",
        -8.260502607571818
      ],
      [
        "ity",
        -8.262047190651773
      ],
      [
        "ive",
        -8.265913858385249
      ],
      [
        "ĠM",
        -8.268764798645385
      ],
      [
        "Ġwhy",
        -8.28220891182391
      ],
      [
        "Ġper",
        -8.287494276207651
      ],
      [
        "Ġreally",
        -8.2906432212548
      ],
      [
        "Ġsomething",
        -8.292922502003446
      ],
      [
        "Ġpoint",
        -8.29399621052821
      ],
      [
        "Ġcome",
        -8.304764437414574
      ],
      [
        "ĠWhen",
        -8.309068907284958
      ],
      [
        "ĠHe",
        -8.311709069649169
      ],
      [
        "Ġfollowing",
        -8.313094512723694
      ],
      [
        "N",
        -8.31310016402101
      ],
      [
        "Ġform",
        -8.31396692356194
      ],
      [
        "Ġdue",
        -8.314535043945915
      ],
      [
        "Ġpossible",
        -8.316888595599632
      ],
      [
        "Ġanother",
        -8.31840867342531
      ],
      [
        "Ġbecome",
        -8.3193613772591
      ],
      [
        "Ġnatural",
        -8.32418883925183
      ],
      [
        "&",
        -8.324262521046176
      ],
      [
        "Ġlow",
        -8.326137212423866
      ],
      [
        "Ġlevel",
        -8.32939923795938
      ],
      [
        "Ġhere",
        -8.329852993313748
      ],
      [
        "Ġgoing",
        -8.333311468980913
      ],
      [
        "ĠHow",
        -8.334101230047498
      ],
      [
        "R",
        -8.338923069119602
      ],
      [
        "Ġrange",
        -8.341355670053426
      ],
      [
        "Ġstart",
        -8.343756305414397
      ],
      [
        "Ġspecific",
        -8.344638065563704
      ],
      [
        "Ġcare",
        -8.35393757020656
      ],
      [
        "Ġvarious",
        -8.35713295434913
      ],
      [
        "Ġdesign",
        -8.361602448409801
      ],
      [
        "Ġspace",
        -8.36169286540602
      ],
      [
        "Ġlittle",
        -8.36611831128319
      ],
      [
        "Ġcells",
        -8.36626668937487
      ],
      [
        "Ġalways",
        -8.36770839319342
      ],
      [
        "ĠThere",
        -8.373410206209236
      ],
      [
        "Ġsupport",
        -8.378749068440854
      ],
      [
        "Ġsize",
        -8.380039207419896
      ],
      [
        "Ġtemperature",
        -8.38544609932873
      ],
      [
        "Ġmeans",
        -8.38828932041114
      ],
      [
        "Ġblood",
        -8.395094600838457
      ],
      [
        "Ġdid",
        -8.398298450508104
      ],
      [
        "ĠH",
        -8.404266903538728
      ],
      [
        "Ġshe",
        -8.408740808885973
      ],
      [
        "ate",
        -8.41025584958788
      ],
      [
        "ter",
        -8.413127576835917
      ],
      [
        "Ġsoil",
        -8.413235018538295
      ],
      [
        "Ġpotential",
        -8.413600290679668
      ],
      [
        "]",
        -8.41742126667922
      ],
      [
        "Ġenvironment",
        -8.420326118701603
      ],
      [
        "L",
        -8.421733082108409
      ],
      [
        "Ġdisease",
        -8.424174456635122
      ],
      [
        "Ġmain",
        -8.425735034502802
      ],
      [
        "Ġheat",
        -8.427302154972688
      ],
      [
        "Ġavailable",
        -8.427741289384945
      ],
      [
        "Ġproblem",
        -8.427781441645505
      ],
      [
        "Ġensure",
        -8.42845449366053
      ],
      [
        "Ġdevelopment",
        -8.430394085656198
      ],
      [
        "H",
        -8.4317481565392
      ],
      [
        "K",
        -8.43828396145009
      ],
      [
        "Ġfeel",
        -8.440803907341602
      ],
      [
        "Ġlearn",
        -8.441887035409328
      ],
      [
        "Ġgive",
        -8.442626306161845
      ],
      [
        "Ġschool",
        -8.444857088212533
      ],
      [
        "Ġseveral",
        -8.44676321407284
      ],
      [
        "Ġrisk",
        -8.451797522091624
      ],
      [
        "Ġlearning",
        -8.453061640133527
      ],
      [
        "ĠRe",
        -8.45506336155235
      ],
      [
        "Ġbased",
        -8.458316685402409
      ],
      [
        "ĠN",
        -8.458986900622532
      ],
      [
        "ness",
        -8.4599513452939
      ],
      [
        "Ġorder",
        -8.461168736322492
      ],
      [
        "Ġsurface",
        -8.462438832302551
      ],
      [
        "Ġlast",
        -8.465822095668457
      ],
      [
        "um",
        -8.467207283448333
      ],
      [
        "Ġtypes",
        -8.467764060711536
      ],
      [
        "+",
        -8.47105583106814
      ],
      [
        "Ġcolor",
        -8.473015615515553
      ],
      [
        "Y",
        -8.473725193478113
      ],
      [
        "Ġtext",
        -8.47738823851773
      ],
      [
        "Ġareas",
        -8.477720794755442
      ],
      [
        "Ġenough",
        -8.479321306858912
      ],
      [
        "Ġneeds",
        -8.48050788607091
      ],
      [
        "Ġusually",
        -8.486668948009491
      ],
      [
        "Ġquality",
        -8.48801251679315
      ],
      [
        "ĠWhich",
        -8.49011383163378
      ],
      [
        "Ġside",
        -8.500159738562655
      ],
      [
        "ent",
        -8.500419811586735
      ],
      [
        "Ġanimals",
        -8.507291977385108
      ],
      [
        "Ġunderstand",
        -8.507466939876418
      ],
      [
        "Ġpressure",
        -8.50825974573519
      ],
      [
        "Ġconditions",
        -8.509474525833886
      ],
      [
        "Ġperson",
        -8.50957742285186
      ],
      [
        "eat",
        -8.511156617830045
      ],
      [
        "When",
        -8.512257094612078
      ],
      [
        "Ġgroup",
        -8.512482982935616
      ],
      [
        "Ġhand",
        -8.517238505550845
      ],
      [
        "Ġtechnology",
        -8.52670009702835
      ],
      [
        "Ġcurrent",
        -8.530448513153324
      ],
      [
        "_",
        -8.532022212545336
      ],
      [
        "Ġkey",
        -8.53456134785497
      ],
      [
        "ĠU",
        -8.534712344555336
      ],
      [
        "Ġput",
        -8.536378169969712
      ],
      [
        "Ġnon",
        -8.538150535145439
      ],
      [
        "You",
        -8.538442385407345
      ],
      [
        "Ġstate",
        -8.543361611442947
      ],
      [
        "Ġsince",
        -8.546416765709765
      ],
      [
        "ĠL",
        -8.549775604684918
      ],
      [
        "Ġmaterials",
        -8.55117858520243
      ],
      [
        "We",
        -8.552279313101467
      ],
      [
        "Ġsystems",
        -8.552667019602051
      ],
      [
        "Ġamount",
        -8.554261155617631
      ],
      [
        "Ġresult",
        -8.555016033171329
      ],
      [
        "Ġimpact",
        -8.557044809621434
      ],
      [
        "Ġfish",
        -8.558262213539411
      ],
      [
        "ĠK",
        -8.56017497164811
      ],
      [
        "Ġcase",
        -8.562250458329796
      ],
      [
        "ch",
        -8.563224565539683
      ],
      [
        "Ġtogether",
        -8.563817384807232
      ],
      [
        "Ġuntil",
        -8.564870421975964
      ],
      [
        "Ġsay",
        -8.56900470029343
      ],
      [
        "ment",
        -8.569045973359183
      ],
      [
        "Ġmaterial",
        -8.573951168247394
      ],
      [
        "Ġweight",
        -8.574953897461171
      ],
      [
        "Ġincrease",
        -8.57543287355308
      ],
      [
        "Ġoil",
        -8.578367508411215
      ],
      [
        "Ġlead",
        -8.579559436554602
      ],
      [
        "Ġfamily",
        -8.586513297126993
      ],
      [
        "be",
        -8.589568906378856
      ],
      [
        "Ġaway",
        -8.591257731526923
      ],
      [
        "Ġprevent",
        -8.59127268482034
      ],
      [
        "Ġessential",
        -8.59326938101466
      ],
      [
        "Ġsecond",
        -8.595530113400514
      ],
      [
        "Ġfree",
        -8.598469346628912
      ],
      [
        "Ġopen",
        -8.598711966421062
      ],
      [
        "ary",
        -8.600206200077922
      ],
      [
        "*",
        -8.601858175447315
      ],
      [
        "Ġlevels",
        -8.601895521083584
      ],
      [
        "age",
        -8.601989360067057
      ],
      [
        "ul",
        -8.60418274752343
      ],
      [
        "Ġhaving",
        -8.605074196439457
      ],
      [
        "Ġvalue",
        -8.60511747441746
      ],
      [
        "Ġproblems",
        -8.60556953794077
      ],
      [
        "ĠBy",
        -8.606043823255494
      ],
      [
        "Ġnext",
        -8.609148885118985
      ],
      [
        "Ġmakes",
        -8.609559733416983
      ],
      [
        "Ġcourse",
        -8.612178277609685
      ],
      [
        "Ġname",
        -8.614973715849878
      ],
      [
        "Ġreduce",
        -8.615095193825807
      ],
      [
        "Ġworking",
        -8.615532593890842
      ],
      [
        "ĠAn",
        -8.61582441124348
      ],
      [
        "Ġtop",
        -8.616367820414053
      ],
      [
        "Ġline",
        -8.618362590693023
      ],
      [
        "Ġplay",
        -8.618984266462453
      ],
      [
        "Ġproject",
        -8.620204484025889
      ],
      [
        "Ġlower",
        -8.620311948288027
      ],
      [
        "Ġlocal",
        -8.620486271349902
      ],
      [
        "To",
        -8.62115993247175
      ],
      [
        "Ġage",
        -8.621726451433581
      ],
      [
        "Ġsimple",
        -8.624118454051676
      ],
      [
        "Ġtreatment",
        -8.626295952036571
      ],
      [
        "Ġresults",
        -8.62814143470546
      ],
      [
        "Ġtimes",
        -8.635541821992469
      ],
      [
        "ĠThat",
        -8.635756540507636
      ],
      [
        "est",
        -8.636199848586916
      ],
      [
        "Ġteam",
        -8.636221605369315
      ],
      [
        "Ġmethod",
        -8.637044345258953
      ],
      [
        "Ġproducts",
        -8.637346887650637
      ],
      [
        "Ġhigher",
        -8.638120575096522
      ],
      [
        "Ġearly",
        -8.638962664555956
      ],
      [
        "Ġeasy",
        -8.640700141686422
      ],
      [
        "Ġgrowth",
        -8.645427543066829
      ],
      [
        "Ġpresent",
        -8.646991416609328
      ],
      [
        "ling",
        -8.650804234987923
      ],
      [
        "Ġtest",
        -8.652072439955182
      ],
      [
        "Ġlikely",
        -8.65292238432286
      ],
      [
        "Ġshow",
        -8.654444734709271
      ],
      [
        "Ġfull",
        -8.654699472814372
      ],
      [
        "Ġchild",
        -8.655145609552658
      ],
      [
        "Ġrole",
        -8.65769120596842
      ],
      [
        "Ġactually",
        -8.662107371327302
      ],
      [
        "Ġleast",
        -8.665614002264435
      ],
      [
        "There",
        -8.667374772112055
      ],
      [
        "Ġcomes",
        -8.667932533040329
      ],
      [
        "Ġprogram",
        -8.669134474261519
      ],
      [
        "ĠUniversity",
        -8.670013198565588
      ],
      [
        "âĢĻs",
        -8.670408496418068
      ],
      [
        "ĠV",
        -8.672294109811189
      ],
      [
        "Ġdoesn",
        -8.672438112439467
      ],
      [
        "Ġhard",
        -8.672504421851933
      ],
      [
        "Ġhealthy",
        -8.673971984057149
      ],
      [
        "Ġdays",
        -8.676964710569473
      ],
      [
        "Ġcost",
        -8.684048573340975
      ],
      [
        "Ġcell",
        -8.686280303296744
      ],
      [
        "ĠWith",
        -8.688110727669965
      ],
      [
        "For",
        -8.689372010800161
      ],
      [
        "Ġgrow",
        -8.69293038114102
      ],
      [
        "Ġeye",
        -8.695626323982776
      ],
      [
        "Ġsocial",
        -8.695762135963681
      ],
      [
        "Ġfuture",
        -8.696033090082699
      ],
      [
        "Ġthing",
        -8.6960511371085
      ],
      [
        "Ġdamage",
        -8.69835508258715
      ],
      [
        "Ġunique",
        -8.698952635645922
      ],
      [
        "Ġchanges",
        -8.70132868930299
      ],
      [
        "Ġlive",
        -8.706202424882283
      ],
      [
        "Ġissues",
        -8.706809078824152
      ],
      [
        "Ġmodel",
        -8.710043672743867
      ],
      [
        "Ġfield",
        -8.7106065653954
      ],
      [
        "Ġadd",
        -8.714130168301574
      ],
      [
        "man",
        -8.714412292314533
      ],
      [
        "Ġalong",
        -8.714732510348309
      ],
      [
        "Ġespecially",
        -8.715977411969156
      ],
      [
        "Ġcat",
        -8.717152244251244
      ],
      [
        "Ġproduction",
        -8.717472539421095
      ],
      [
        "Ġfunction",
        -8.718302448831228
      ],
      [
        "ies",
        -8.718311378701017
      ],
      [
        "Ġhead",
        -8.719382028295762
      ],
      [
        "Ġbook",
        -8.721142010700856
      ],
      [
        "Ġcertain",
        -8.7219676136344
      ],
      [
        ")Ċ",
        -8.722926376098936
      ],
      [
        "Ġabove",
        -8.726223187379995
      ],
      [
        "Ġacross",
        -8.727182084210584
      ],
      [
        "Ġwhite",
        -8.729714854086822
      ],
      [
        "Ġground",
        -8.731235846911963
      ],
      [
        "Ġskin",
        -8.731482976698883
      ],
      [
        "âĢĵ",
        -8.733080097086392
      ],
      [
        "ĠDe",
        -8.73813600508615
      ],
      [
        "Ġclimate",
        -8.738447719366429
      ],
      [
        "Ġlet",
        -8.741568005051182
      ],
      [
        "Ġagainst",
        -8.741695653572094
      ],
      [
        "Ġsource",
        -8.744093387129158
      ],
      [
        "Ġdone",
        -8.746322968417543
      ],
      [
        "me",
        -8.748280773219356
      ],
      [
        "Ġgiven",
        -8.749126093690647
      ],
      [
        "Ġdogs",
        -8.751357516917768
      ],
      [
        "Ġproduce",
        -8.756000716227573
      ],
      [
        "Ġpaper",
        -8.757534811499948
      ],
      [
        "Ġreal",
        -8.757977488764595
      ],
      [
        "Ġsingle",
        -8.758075696107307
      ],
      [
        "Ġheart",
        -8.760494779619465
      ],
      [
        "Ġnever",
        -8.762238062936746
      ],
      [
        "Ġarea",
        -8.762711552300809
      ],
      [
        "j",
        -8.76361712049116
      ],
      [
        "Ġstep",
        -8.764677905879008
      ],
      [
        "ĠDo",
        -8.767127005443712
      ],
      [
        "ĠSome",
        -8.772308813482205
      ],
      [
        "Ġdiet",
        -8.773426919167415
      ],
      [
        "Ġfact",
        -8.783367677167176
      ],
      [
        "Ġshort",
        -8.784059777321541
      ],
      [
        "ous",
        -8.785445362885842
      ],
      [
        "Ġtry",
        -8.787098326327731
      ],
      [
        "Ġimprove",
        -8.787526488598232
      ],
      [
        "Q",
        -8.7913597330518
      ],
      [
        "Ġphysical",
        -8.792287338701009
      ],
      [
        "Ġfar",
        -8.792989502524948
      ],
      [
        "Ġscience",
        -8.795307583766052
      ],
      [
        "Ġlove",
        -8.796187631264477
      ],
      [
        "Ġconsider",
        -8.79808515517774
      ],
      [
        "Ġold",
        -8.798713571186441
      ],
      [
        "Ġeffects",
        -8.798813087656946
      ],
      [
        "Ġunderstanding",
        -8.799538483264849
      ],
      [
        "ĠYour",
        -8.801197836402672
      ],
      [
        "Ġsimilar",
        -8.80241476957328
      ],
      [
        "Ġbenefits",
        -8.803571505243333
      ],
      [
        "ĠJ",
        -8.80652258006169
      ],
      [
        "Ġlooking",
        -8.807255360636079
      ],
      [
        "J",
        -8.807294830800364
      ],
      [
        "Ġsignificant",
        -8.807633960142383
      ],
      [
        "ĠNew",
        -8.808111204122833
      ],
      [
        "Ġgame",
        -8.811604067977772
      ],
      [
        "Ġfactors",
        -8.814451862490397
      ],
      [
        "Ġbrain",
        -8.814622748441058
      ],
      [
        "ĠSt",
        -8.815915634300106
      ],
      [
        "Ġsays",
        -8.81606043482285
      ],
      [
        "Ġtraining",
        -8.816528208957807
      ],
      [
        "!ĊĊ",
        -8.818937323589278
      ],
      [
        "Ġmove",
        -8.82325039871107
      ],
      [
        "Ġmillion",
        -8.82407022449083
      ],
      [
        "Ġdesigned",
        -8.827331399988333
      ],
      [
        "Ġeither",
        -8.82843579926924
      ],
      [
        "Ġanimal",
        -8.828844190357941
      ],
      [
        "Ġfour",
        -8.829102942714002
      ],
      [
        "Ġcheck",
        -8.829177329058824
      ],
      [
        "Ġaccess",
        -8.831861612865557
      ],
      [
        "Ġclean",
        -8.833694952422686
      ],
      [
        "Ġspeed",
        -8.834022489894986
      ],
      [
        "Ġbit",
        -8.83428119728102
      ],
      [
        "Ġcomputer",
        -8.835262631926458
      ],
      [
        "Ġdevelop",
        -8.835536280801556
      ],
      [
        "per",
        -8.837858448423907
      ],
      [
        "Ġgas",
        -8.838593672061371
      ],
      [
        "Ġonce",
        -8.839959863592894
      ],
      [
        "ĠIs",
        -8.840157036470872
      ],
      [
        "Ġfurther",
        -8.842061776748375
      ],
      [
        "Ġaddition",
        -8.843047980417458
      ],
      [
        "Ġaccording",
        -8.84444193542951
      ],
      [
        "Ġread",
        -8.845616783159043
      ],
      [
        "Ġturn",
        -8.845624980167772
      ],
      [
        "Ġdry",
        -8.84615739440309
      ],
      [
        "Ġtoday",
        -8.847895243225155
      ],
      [
        "Ġperformance",
        -8.849882285497007
      ],
      [
        "Ġways",
        -8.851364320565565
      ],
      [
        "Ġleft",
        -8.852268430658787
      ],
      [
        "Ġeffect",
        -8.853401063853385
      ],
      [
        "less",
        -8.853788590016013
      ],
      [
        "Ġoffer",
        -8.855060114964104
      ],
      [
        "Ġdifference",
        -8.855072841857755
      ],
      [
        "Ġquestion",
        -8.856463593189522
      ],
      [
        "Ġothers",
        -8.857162481497172
      ],
      [
        "Ġwhether",
        -8.857167428758114
      ],
      [
        "Ġeffective",
        -8.858772534562192
      ],
      [
        "Ġgetting",
        -8.860479696349925
      ],
      [
        "Ġparts",
        -8.862161197074764
      ],
      [
        "Ġhim",
        -8.867646515353252
      ],
      [
        "Ġproduct",
        -8.86915275904708
      ],
      [
        "Ġfocus",
        -8.871700051184693
      ],
      [
        "X",
        -8.871814949843667
      ],
      [
        "Ġco",
        -8.87261719539665
      ],
      [
        "Ġindividual",
        -8.872627700628291
      ],
      [
        "Ġnecessary",
        -8.873223537097374
      ],
      [
        "Ġavoid",
        -8.873378379357748
      ],
      [
        "Ġcontent",
        -8.873757784763376
      ],
      [
        "ĠNo",
        -8.874270917392007
      ],
      [
        "Ġskills",
        -8.875465969159743
      ],
      [
        "Ġallows",
        -8.875815991166558
      ],
      [
        ")ĊĊ",
        -8.876256214169835
      ],
      [
        "Ġblack",
        -8.876923248046403
      ],
      [
        "Ġbelow",
        -8.877376266148538
      ],
      [
        "Ġvariety",
        -8.878082648488466
      ],
      [
        "Ġrun",
        -8.881403002043758
      ],
      [
        "Ġimage",
        -8.88196138437795
      ],
      [
        "Ġapproach",
        -8.882617919837095
      ],
      [
        "Ġtree",
        -8.886251199616574
      ],
      [
        "Ġloss",
        -8.890037109085242
      ],
      [
        "Ġpost",
        -8.892058718289366
      ],
      [
        "Ġallow",
        -8.893081528510827
      ],
      [
        "der",
        -8.893793301559871
      ],
      [
        "Ġability",
        -8.89557761492407
      ],
      [
        "Ġbig",
        -8.897219130595847
      ],
      [
        "ance",
        -8.89848510154805
      ],
      [
        "Ġknowledge",
        -8.900201198487425
      ],
      [
        "Ġpain",
        -8.901045714808783
      ],
      [
        "Ġsafe",
        -8.902661540808865
      ],
      [
        "Ġalready",
        -8.902738595164166
      ],
      [
        "Ġsound",
        -8.90573018313782
      ],
      [
        "ĠAt",
        -8.907222610744903
      ],
      [
        "Ġgreen",
        -8.908586626719028
      ],
      [
        "Ġcommunity",
        -8.90915007230966
      ],
      [
        "Ġhours",
        -8.909362772763023
      ],
      [
        "Ġreason",
        -8.909631491292082
      ],
      [
        "Ġamong",
        -8.911578158432835
      ],
      [
        "Ġkind",
        -8.911697556277268
      ],
      [
        "Ġred",
        -8.912415582941755
      ],
      [
        "Ġpre",
        -8.912570485999888
      ],
      [
        "Ġsafety",
        -8.914040512071804
      ],
      [
        "Ġmind",
        -8.914297444931737
      ],
      [
        "Ġrequire",
        -8.91435491241025
      ],
      [
        "Ġmean",
        -8.914416960479155
      ],
      [
        "Ġhistory",
        -8.915258145086016
      ],
      [
        "Ġrate",
        -8.91721764235867
      ],
      [
        "Ġneeded",
        -8.918500861502645
      ],
      [
        "Ġprovides",
        -8.920047777973544
      ],
      [
        "Ġpublic",
        -8.921245371120278
      ],
      [
        "Ġthough",
        -8.92785786189571
      ],
      [
        "Ġfeatures",
        -8.928162137946071
      ],
      [
        "Ġindustry",
        -8.928359078389077
      ],
      [
        "Ġuser",
        -8.928915818838107
      ],
      [
        "Ġcarbon",
        -8.930786508299484
      ],
      [
        "Ġhelps",
        -8.933924699730937
      ],
      [
        "Ġstructure",
        -8.93732110896792
      ],
      [
        "Ġdoing",
        -8.93765563379009
      ],
      [
        "Ġarticle",
        -8.937735514696913
      ],
      [
        "Ġinside",
        -8.937942741631902
      ],
      [
        "ĠOne",
        -8.940234570789645
      ],
      [
        "Ġgarden",
        -8.940861414483525
      ],
      [
        "Ġcontinue",
        -8.943830729944324
      ],
      [
        "Ġsymptoms",
        -8.945974965982849
      ],
      [
        "Ġpopular",
        -8.946145583444995
      ],
      [
        "Ġidea",
        -8.946837869671072
      ],
      [
        "ĠAI",
        -8.947032344090715
      ],
      [
        "Ġrequired",
        -8.948549556720574
      ],
      [
        "Ġmajor",
        -8.948730825466956
      ],
      [
        "Ġseen",
        -8.950507988260561
      ],
      [
        "âĢ¦",
        -8.951050384260059
      ],
      [
        "Ġonline",
        -8.951592767062541
      ],
      [
        "Ġcancer",
        -8.951613402846178
      ],
      [
        "Ġactivities",
        -8.952534709321565
      ],
      [
        "Ġbuilding",
        -8.952684948197964
      ],
      [
        "Ġbuild",
        -8.953177676824223
      ],
      [
        ">",
        -8.955842552370667
      ],
      [
        "!Ċ",
        -8.95658964387876
      ],
      [
        "Ġleaves",
        -8.956947202281391
      ],
      [
        "ex",
        -8.957435262703436
      ],
      [
        "Ġwhole",
        -8.959386301276352
      ],
      [
        "Ġlonger",
        -8.96128637899151
      ],
      [
        "So",
        -8.961385000785139
      ],
      [
        "Ġanswer",
        -8.961639767546847
      ],
      [
        "ĠAmerican",
        -8.96365563029006
      ],
      [
        "ill",
        -8.965046721486669
      ],
      [
        "ge",
        -8.966436337128785
      ],
      [
        "Ġagain",
        -8.9682819290542
      ],
      [
        "ĠDr",
        -8.968324266352539
      ],
      [
        "Ġbusiness",
        -8.96905815378723
      ],
      [
        "Ġclear",
        -8.972075694021896
      ],
      [
        "Ġgeneral",
        -8.973370260347316
      ],
      [
        "Ġclass",
        -8.973458030741622
      ],
      [
        "Ġsense",
        -8.973790468956146
      ],
      [
        "Ġresearchers",
        -8.978677416938856
      ],
      [
        "ke",
        -8.97878039142452
      ],
      [
        "mm",
        -8.979739950459933
      ],
      [
        "Ġmatter",
        -8.98071594570433
      ],
      [
        "Ġcontact",
        -8.981347316864214
      ],
      [
        "Ġtools",
        -8.981531754574076
      ],
      [
        "Ġplan",
        -8.98275040474018
      ],
      [
        "Ġcompany",
        -8.983140098757216
      ],
      [
        "Ġactivity",
        -8.985190107563582
      ],
      [
        "Ġenvironmental",
        -8.987664774812853
      ],
      [
        "Ġtell",
        -8.988265357692566
      ],
      [
        "Ġquestions",
        -8.98878908309932
      ],
      [
        "Ġvideo",
        -8.989116864898941
      ],
      [
        "Ġliving",
        -8.990545755928782
      ],
      [
        "Ġsub",
        -8.990734363073713
      ],
      [
        "ated",
        -8.991038398084724
      ],
      [
        "Ġperiod",
        -8.993146632154021
      ],
      [
        "Ġtaking",
        -8.993636427514383
      ],
      [
        "Ġsomeone",
        -8.996832680870021
      ],
      [
        "Ġnature",
        -8.99719575466711
      ],
      [
        "tic",
        -8.999560980909154
      ],
      [
        "Ġpast",
        -9.000570377555668
      ],
      [
        "Ġclose",
        -9.003735874109378
      ],
      [
        "Ġtypically",
        -9.004180109305187
      ],
      [
        "Ġself",
        -9.004185237075005
      ],
      [
        "ating",
        -9.004426942405225
      ],
      [
        "Ġeasily",
        -9.00844946258026
      ],
      [
        "Ġmethods",
        -9.009557108050451
      ],
      [
        "Ġprotect",
        -9.009777990473768
      ],
      [
        "ĠCo",
        -9.014199325579836
      ],
      [
        "Ġroom",
        -9.014688243824502
      ],
      [
        "Ġmarket",
        -9.014902903581373
      ],
      [
        "Ġcut",
        -9.015587600250706
      ],
      [
        "Ġcomplex",
        -9.015660965618116
      ],
      [
        "Ġpet",
        -9.016106229345905
      ],
      [
        "Ġpractice",
        -9.017085460670264
      ],
      [
        "Ġetc",
        -9.017156874625549
      ],
      [
        "Ġmonths",
        -9.018761470111892
      ],
      [
        "Ġsolution",
        -9.021536106080816
      ],
      [
        "Ġdevice",
        -9.021921834308948
      ],
      [
        "Ġassociated",
        -9.027175828914569
      ],
      [
        "Ġweek",
        -9.028428833541522
      ],
      [
        "Ġgrowing",
        -9.028866896761244
      ],
      [
        "Ġhouse",
        -9.02927588638561
      ],
      [
        "Ġever",
        -9.029435455943773
      ],
      [
        "Ġaverage",
        -9.030116909916858
      ],
      [
        "Ġindividuals",
        -9.030434336852268
      ],
      [
        "Ġcondition",
        -9.030760263121996
      ],
      [
        ".\"ĊĊ",
        -9.031040030158517
      ],
      [
        "line",
        -9.031251581256912
      ],
      [
        "Ġmoney",
        -9.032469314356902
      ],
      [
        "Ġmedical",
        -9.032547845308144
      ],
      [
        "Ġwaste",
        -9.03411036449162
      ],
      [
        "Ġtrees",
        -9.034815508724469
      ],
      [
        "one",
        -9.03503284063424
      ],
      [
        "Ġprofessional",
        -9.035324112273038
      ],
      [
        "Ġmanagement",
        -9.035603619216978
      ],
      [
        "Ġservice",
        -9.038445779123249
      ],
      [
        "ring",
        -9.038784933139892
      ],
      [
        "Ġconsidered",
        -9.039223317506668
      ],
      [
        "Ġstrong",
        -9.039904711488832
      ],
      [
        "Ġcold",
        -9.040113969371038
      ],
      [
        "Ġhumans",
        -9.04127323598978
      ],
      [
        "Ġoverall",
        -9.041781676416411
      ],
      [
        "Ġcrucial",
        -9.043540234511616
      ],
      [
        "Ġchoose",
        -9.044552373566573
      ],
      [
        "Ġrather",
        -9.046134640050488
      ],
      [
        "Ġissue",
        -9.04620641399037
      ],
      [
        "Ġpopulation",
        -9.04694643014432
      ],
      [
        "Ġminutes",
        -9.04697194884045
      ],
      [
        "Ġshare",
        -9.04757632932006
      ],
      [
        "Ġpositive",
        -9.04848833083945
      ],
      [
        "Ġdifficult",
        -9.04857646520026
      ],
      [
        "Ġhot",
        -9.049426570624496
      ],
      [
        "Ġsea",
        -9.05047122591617
      ],
      [
        "Ġtechniques",
        -9.051702163132838
      ],
      [
        "Ġbelieve",
        -9.053474887951786
      ],
      [
        "Ġspecial",
        -9.053859690438864
      ],
      [
        "|",
        -9.054194234742084
      ],
      [
        "Ġdis",
        -9.055276789398665
      ],
      [
        "Ġland",
        -9.055511591596494
      ],
      [
        "Ġresources",
        -9.055967738012702
      ],
      [
        "Ġlayer",
        -9.057167502805816
      ],
      [
        "Ġcases",
        -9.060463418459031
      ],
      [
        "Ġart",
        -9.060758854326489
      ],
      [
        "Ġcreating",
        -9.060985752756244
      ],
      [
        "Ġengine",
        -9.06204016754577
      ],
      [
        "Ġprimary",
        -9.06438359882751
      ],
      [
        "Ġprotein",
        -9.0668774374013
      ],
      [
        "âĢ¢",
        -9.0680319330119
      ],
      [
        "Ġposition",
        -9.06870655279024
      ],
      [
        "ions",
        -9.06915501533631
      ],
      [
        "Ġlist",
        -9.070103189182303
      ],
      [
        "Ġhowever",
        -9.0710195012564
      ],
      [
        "Ġpatients",
        -9.071168518531447
      ],
      [
        "-based",
        -9.072815093990076
      ],
      [
        "Ġwomen",
        -9.07295048744906
      ],
      [
        "ĠCan",
        -9.073086389296703
      ],
      [
        "Ġtraditional",
        -9.075777712235592
      ],
      [
        "Ġquickly",
        -9.07646363327239
      ],
      [
        "Ġnear",
        -9.077593993712572
      ],
      [
        "Ġthroughout",
        -9.0779443014051
      ],
      [
        "Ġyoung",
        -9.078094818471524
      ],
      [
        "Ġyourself",
        -9.07965783807002
      ],
      [
        "ization",
        -9.081836539067288
      ],
      [
        "Ġmultiple",
        -9.081998131937622
      ],
      [
        "Ġshape",
        -9.083742704148186
      ],
      [
        "Ġremove",
        -9.084751453001536
      ],
      [
        "Ġoutside",
        -9.0866238086546
      ],
      [
        "Ġtool",
        -9.087224190240285
      ],
      [
        "ized",
        -9.08813796665322
      ],
      [
        "ĠAll",
        -9.08902884067147
      ],
      [
        "Ġcall",
        -9.08973496670855
      ],
      [
        "Ġstress",
        -9.091550558445652
      ],
      [
        "Ġmachine",
        -9.093804680633196
      ],
      [
        "Ġflow",
        -9.094280630338565
      ],
      [
        "Ġwinter",
        -9.095842433813829
      ],
      [
        "Ġface",
        -9.104182559807647
      ],
      [
        "Ġnormal",
        -9.104233276030117
      ],
      [
        "Ġauthor",
        -9.104840860220758
      ],
      [
        "Ġsimply",
        -9.10588322090196
      ],
      [
        "Ġincreased",
        -9.107831095076806
      ],
      [
        "ĠWhile",
        -9.10844873269306
      ],
      [
        "Re",
        -9.10879532273349
      ],
      [
        "Ġprobably",
        -9.109235109756892
      ],
      [
        "Ġmaintain",
        -9.113757070444224
      ],
      [
        "Ġrelated",
        -9.113826498421163
      ],
      [
        "Ġpersonal",
        -9.113904158876744
      ],
      [
        "ide",
        -9.114177196878924
      ],
      [
        "Ġbehavior",
        -9.114310330142052
      ],
      [
        "Ġdeveloped",
        -9.11551330981694
      ],
      [
        ".\"Ċ",
        -9.115750822093643
      ],
      [
        "Ġwide",
        -9.1162365673418
      ],
      [
        "Ġhold",
        -9.11982265087692
      ],
      [
        "Ġcannot",
        -9.120599737567217
      ],
      [
        "Ġfeet",
        -9.12357608489696
      ],
      [
        "Ġstudies",
        -9.123935163481477
      ],
      [
        "Ġchemical",
        -9.124709065074311
      ],
      [
        "Ġcreated",
        -9.124829422611167
      ],
      [
        "Ġbirds",
        -9.125033367910776
      ],
      [
        "ha",
        -9.12538803945495
      ],
      [
        "Ġoptions",
        -9.12793395621032
      ],
      [
        "#",
        -9.13061548050981
      ],
      [
        "Ġparticular",
        -9.133571508307874
      ],
      [
        "Ġmodern",
        -9.133853264887264
      ],
      [
        "Ġlength",
        -9.135048698468983
      ],
      [
        "Ġalmost",
        -9.135136591145502
      ],
      [
        "Ġdetermine",
        -9.135702819204354
      ],
      [
        "ĠShe",
        -9.137024917847029
      ],
      [
        "Ġeducation",
        -9.137190645099407
      ],
      [
        "Ġgot",
        -9.137506954455354
      ],
      [
        "Ġstay",
        -9.137668157010635
      ],
      [
        "Ġthought",
        -9.138654063046006
      ],
      [
        "Ġfuel",
        -9.139140586955827
      ],
      [
        "up",
        -9.14127738996519
      ],
      [
        "ally",
        -9.14187438152436
      ],
      [
        "Ġguide",
        -9.142193902609383
      ],
      [
        "Ġdeep",
        -9.142358835713784
      ],
      [
        "ĠUnited",
        -9.14338307490167
      ],
      [
        "One",
        -9.147227413519175
      ],
      [
        "Ġinstead",
        -9.14815873842008
      ],
      [
        "Ġworks",
        -9.149252025486527
      ],
      [
        "Ġtotal",
        -9.149762582530558
      ],
      [
        "Ġattention",
        -9.151394548646188
      ],
      [
        "Ġhalf",
        -9.152606365454886
      ],
      [
        "Ġfive",
        -9.153421753736223
      ],
      [
        "Ġglobal",
        -9.155473293365109
      ],
      [
        "Ġsite",
        -9.15643214124113
      ],
      [
        "Ġbasic",
        -9.156791939881858
      ],
      [
        "Ġsugar",
        -9.15813389118014
      ],
      [
        "Ġwon",
        -9.158194707309972
      ],
      [
        "Ġlarger",
        -9.15871958608582
      ],
      [
        "Ġelements",
        -9.158841975486602
      ],
      [
        "Ġchoice",
        -9.159188018579718
      ],
      [
        "Ġincludes",
        -9.161158219115082
      ],
      [
        "Ġterm",
        -9.162294380505449
      ],
      [
        "Ġlater",
        -9.162695602965396
      ],
      [
        "Ġservices",
        -9.163602296258436
      ],
      [
        "Ġaffect",
        -9.16408330820306
      ],
      [
        "Ġcountry",
        -9.165033361395198
      ],
      [
        "Ġwood",
        -9.16509495477615
      ],
      [
        "Ġcode",
        -9.167353361332305
      ],
      [
        "Ġreading",
        -9.168486987639213
      ],
      [
        "\\",
        -9.169918139188905
      ],
      [
        "ĠX",
        -9.17067151479058
      ],
      [
        "Ġmeat",
        -9.171290147699349
      ],
      [
        "Ġmetal",
        -9.171297893807226
      ],
      [
        "Ġseason",
        -9.171404337801915
      ],
      [
        ").Ċ",
        -9.172521347608544
      ],
      [
        "Ġweather",
        -9.172864270957623
      ],
      [
        "ĠNational",
        -9.174458962269007
      ],
      [
        "Ġcompared",
        -9.176454440438564
      ],
      [
        "Ġscientists",
        -9.17985921348764
      ],
      [
        "Ġpercent",
        -9.1812699279153
      ],
      [
        "out",
        -9.18377183213614
      ],
      [
        "for",
        -9.184521136541315
      ],
      [
        "Ġsometimes",
        -9.185298707065192
      ],
      [
        "Ġshown",
        -9.185443660879914
      ],
      [
        "Ġproviding",
        -9.18732728910445
      ],
      [
        "Ġyet",
        -9.188520667471328
      ],
      [
        "Ġcomplete",
        -9.188527988137706
      ],
      [
        "Ġanything",
        -9.189157719294512
      ],
      [
        "Ġeverything",
        -9.189991286403632
      ],
      [
        "Ġregular",
        -9.190492778724051
      ],
      [
        "Ġtrue",
        -9.190617681885634
      ],
      [
        "mer",
        -9.191434330695952
      ],
      [
        "Ġoption",
        -9.193179916248052
      ],
      [
        "Ġapplications",
        -9.194457660847
      ],
      [
        "Ġbattery",
        -9.19499815875236
      ],
      [
        "Z",
        -9.197291079002868
      ],
      [
        "ver",
        -9.200109293184788
      ],
      [
        "Ġbad",
        -9.200418775062326
      ],
      [
        "Ġeyes",
        -9.201719441105512
      ],
      [
        "Ġlanguage",
        -9.201721948882485
      ],
      [
        "Ġexplore",
        -9.203142320210572
      ],
      [
        "Ġenjoy",
        -9.203595824904994
      ],
      [
        "Ġsummer",
        -9.20383827482627
      ],
      [
        "ĠOn",
        -9.20521386429061
      ],
      [
        "Ġforce",
        -9.20598466115141
      ],
      [
        "Ġquite",
        -9.206615269335632
      ],
      [
        "Ġadditional",
        -9.207442868299108
      ],
      [
        "Ġgenerally",
        -9.207663915178689
      ],
      [
        "Ġcaused",
        -9.208612754979486
      ],
      [
        "Ġtravel",
        -9.211232321819416
      ],
      [
        "Ġcauses",
        -9.211686822920688
      ],
      [
        "Ġfront",
        -9.212525079999365
      ],
      [
        "Ġnight",
        -9.212602760049384
      ],
      [
        "Ġstop",
        -9.21263922823672
      ],
      [
        "ĠOr",
        -9.214261656429198
      ],
      [
        "Ġequipment",
        -9.21426653345084
      ],
      [
        "ĠHere",
        -9.215208748419778
      ],
      [
        "Ġshows",
        -9.215293185823256
      ],
      [
        "Ġago",
        -9.21552373199191
      ],
      [
        "Ġwarm",
        -9.216691074113484
      ],
      [
        "Ġbacteria",
        -9.217341312456586
      ],
      [
        "Ġpurpose",
        -9.218221853510029
      ],
      [
        "Ġsoftware",
        -9.218334248263387
      ],
      [
        "U",
        -9.218974003457156
      ],
      [
        "ĠBe",
        -9.219398230735084
      ],
      [
        "Ġtaken",
        -9.219438805397814
      ],
      [
        "Ġanalysis",
        -9.220346363627495
      ],
      [
        "Ġcomponents",
        -9.220396136151516
      ],
      [
        "Ġdigital",
        -9.22356216584766
      ],
      [
        "Ġbase",
        -9.225542988112574
      ],
      [
        "Ġacid",
        -9.225862624554727
      ],
      [
        "Ġbring",
        -9.227916735544005
      ],
      [
        "Ġstarted",
        -9.228844112506083
      ],
      [
        "Ġdevices",
        -9.230531963491869
      ],
      [
        "Ġperfect",
        -9.233138234400723
      ],
      [
        "Ġtreat",
        -9.2335575556404
      ],
      [
        "Ġfollow",
        -9.233967992409388
      ],
      [
        "Ġmedia",
        -9.234980938366308
      ],
      [
        "Ġtakes",
        -9.235980166261612
      ],
      [
        "Why",
        -9.239110814063164
      ],
      [
        "ĠEarth",
        -9.2396228862805
      ],
      [
        "Ġoffers",
        -9.23994979780822
      ],
      [
        "Ġitself",
        -9.242314388190454
      ],
      [
        "Ġtrying",
        -9.242985413291564
      ],
      [
        "Ġresponse",
        -9.243478605171504
      ],
      [
        "Ġthemselves",
        -9.246114106051577
      ],
      [
        "Ġterms",
        -9.246562956388074
      ],
      [
        "ĠAl",
        -9.24706212473927
      ],
      [
        "Ġunit",
        -9.247157625067226
      ],
      [
        "Ġrest",
        -9.247431862283037
      ],
      [
        "ler",
        -9.24899651269616
      ],
      [
        "of",
        -9.249434746375536
      ],
      [
        "Ġsignal",
        -9.251522637034617
      ],
      [
        "Ġproperties",
        -9.254470582255305
      ],
      [
        "Ġstandard",
        -9.255886159482955
      ],
      [
        "Ġprovided",
        -9.256286098182777
      ],
      [
        "Ġplastic",
        -9.25741114622947
      ],
      [
        "Ġkids",
        -9.260636532029563
      ],
      [
        "Ġmass",
        -9.262832806134703
      ],
      [
        "Ġact",
        -9.262842897019556
      ],
      [
        "Ġaction",
        -9.262869502240486
      ],
      [
        "Ġmentioned",
        -9.263042809595424
      ],
      [
        "min",
        -9.26399328007996
      ],
      [
        "Ġdaily",
        -9.26415279001767
      ],
      [
        "Ġstory",
        -9.265577626527476
      ],
      [
        "Ġfun",
        -9.265915657642708
      ],
      [
        "Ġfoods",
        -9.265920403461504
      ],
      [
        "Ġsun",
        -9.267670093693814
      ],
      [
        "land",
        -9.268182830634167
      ],
      [
        "ĠDNA",
        -9.268446334770738
      ],
      [
        "Ġreach",
        -9.26852627523894
      ],
      [
        "Ġcon",
        -9.268658835918831
      ],
      [
        "Ġregion",
        -9.269060692706278
      ],
      [
        "Ġproper",
        -9.27107582469509
      ],
      [
        "Ġwords",
        -9.271111415045835
      ],
      [
        "Ġcover",
        -9.272710080690254
      ],
      [
        "ize",
        -9.273732329083138
      ],
      [
        "con",
        -9.274851856119472
      ],
      [
        "Ġcommunication",
        -9.276834497062875
      ],
      [
        "Ġsmaller",
        -9.277316140198504
      ],
      [
        "Ġevidence",
        -9.277570366922037
      ],
      [
        "Ġjob",
        -9.278098686253877
      ],
      [
        "Ġeating",
        -9.278315474356132
      ],
      [
        "Ġadded",
        -9.279521959032577
      ],
      [
        "Ġsleep",
        -9.27992848814221
      ],
      [
        "Ġbehind",
        -9.280118395139036
      ],
      [
        "ĠAfter",
        -9.280740959451448
      ],
      [
        "An",
        -9.281108517685263
      ],
      [
        "Ġblue",
        -9.281963416157248
      ],
      [
        "But",
        -9.28312756046137
      ],
      [
        "Ġfall",
        -9.283176410864584
      ],
      [
        "Ġparticularly",
        -9.283764119778615
      ],
      [
        "Ġvehicle",
        -9.28642120895162
      ],
      [
        "Ġgroups",
        -9.286553096962091
      ],
      [
        "Ġobject",
        -9.287877487259983
      ],
      [
        "Ġstudent",
        -9.288986628730122
      ],
      [
        "Ġextra",
        -9.290642589371473
      ],
      [
        "ĠStates",
        -9.292890567975745
      ],
      [
        "Ġenhance",
        -9.293662484111078
      ],
      [
        "Ġmilk",
        -9.29536449909124
      ],
      [
        "Ġpay",
        -9.298988302375742
      ],
      [
        "Ġfire",
        -9.30089047263382
      ],
      [
        "Ġdirectly",
        -9.300931550906588
      ],
      [
        "Ġapplication",
        -9.301031314671295
      ],
      [
        "Ġtend",
        -9.301442058313828
      ],
      [
        "Ġfresh",
        -9.302798649423435
      ],
      [
        "Ġgenetic",
        -9.303093299878665
      ],
      [
        "Ġrequires",
        -9.303364620498249
      ],
      [
        "Ġsteps",
        -9.303844447499191
      ],
      [
        "Ġview",
        -9.304118776680856
      ],
      [
        "Ġfeed",
        -9.305607949434933
      ],
      [
        "ner",
        -9.30769397100134
      ],
      [
        "ĠUS",
        -9.308529140601069
      ],
      [
        "Ġpro",
        -9.309438980952413
      ],
      [
        "ful",
        -9.310594152512476
      ],
      [
        "Ġice",
        -9.31193902985031
      ],
      [
        "Ġhair",
        -9.312588130378998
      ],
      [
        "Ġleading",
        -9.313460847158815
      ],
      [
        "Ġinvolved",
        -9.314216795866418
      ],
      [
        "Ġexercise",
        -9.314765843490052
      ],
      [
        "Ġtowards",
        -9.315539141517272
      ],
      [
        "Ġhighly",
        -9.31594965460137
      ],
      [
        "Ġparents",
        -9.316630252105464
      ],
      [
        ").ĊĊ",
        -9.319886830389876
      ],
      [
        "Ġchance",
        -9.320007301175488
      ],
      [
        "Ġentire",
        -9.320232783022115
      ],
      [
        "ile",
        -9.321823194255234
      ],
      [
        "ative",
        -9.322235690374985
      ],
      [
        "Ġfine",
        -9.32413451100516
      ],
      [
        "Ġmeet",
        -9.324375282059693
      ],
      [
        "Ġoutput",
        -9.325134797849648
      ],
      [
        "Step",
        -9.32549854312304
      ],
      [
        "Can",
        -9.325669471300818
      ],
      [
        "Ġsuccess",
        -9.326823312174266
      ],
      [
        "Ġeveryone",
        -9.328739793126871
      ],
      [
        "--",
        -9.32927223825092
      ],
      [
        "Ġproduced",
        -9.330621665087229
      ],
      [
        "Ġspring",
        -9.330803292725207
      ],
      [
        "Ġfast",
        -9.33098812640768
      ],
      [
        "Ġman",
        -9.331115107307625
      ],
      [
        "Ġidentify",
        -9.332140615048504
      ],
      [
        "Ġteeth",
        -9.332911067528872
      ],
      [
        "Ġtable",
        -9.333431183964134
      ],
      [
        "Ġgoal",
        -9.334743540517891
      ],
      [
        "Ġsupply",
        -9.335990626970911
      ],
      [
        "Do",
        -9.33694110058272
      ],
      [
        "ĠLe",
        -9.33838292770333
      ],
      [
        "ier",
        -9.339302330834212
      ],
      [
        "Ġevent",
        -9.341236970159349
      ],
      [
        "ĠâĢľ",
        -9.34147160372803
      ],
      [
        "Ġstore",
        -9.341535588107128
      ],
      [
        "ard",
        -9.34385375950168
      ],
      [
        "Ġsolar",
        -9.344621716705928
      ],
      [
        "Ġwebsite",
        -9.345027015774315
      ],
      [
        "Ġspot",
        -9.346928608816638
      ],
      [
        "Ġfit",
        -9.34735601698571
      ],
      [
        "Ġword",
        -9.347581322749924
      ],
      [
        "Ġbenefit",
        -9.34761456113757
      ],
      [
        "Ġbalance",
        -9.348933600549064
      ],
      [
        "ping",
        -9.349387435735691
      ],
      [
        "Ġreport",
        -9.349969153315897
      ],
      [
        "Ġeasier",
        -9.354094066190903
      ],
      [
        "Ġrecommended",
        -9.354234490145751
      ],
      [
        "Ġdidn",
        -9.354532995568146
      ],
      [
        "Ġelectric",
        -9.354929126244594
      ],
      [
        "Ġrecent",
        -9.356264216113836
      ],
      [
        "ice",
        -9.35868046971243
      ],
      [
        "Ġdiseases",
        -9.358850897143128
      ],
      [
        "Ġuses",
        -9.3593831581329
      ],
      [
        "we",
        -9.361294065496557
      ],
      [
        "Ġprice",
        -9.362427350691448
      ],
      [
        "Ġweeks",
        -9.362555929389885
      ],
      [
        "Ġcontribute",
        -9.362592897534403
      ],
      [
        "Ġnetwork",
        -9.36272116048264
      ],
      [
        "Ġstrength",
        -9.362987634392503
      ],
      [
        "Ġeggs",
        -9.36428840754382
      ],
      [
        "Ġoccur",
        -9.365127666325929
      ],
      [
        "Ġbuy",
        -9.365997276227048
      ],
      [
        "Ġcenter",
        -9.366065713239957
      ],
      [
        "Ġmovement",
        -9.366116753663556
      ],
      [
        "Ġsave",
        -9.36939529913289
      ],
      [
        "ĠScience",
        -9.369612866549671
      ],
      [
        "Ġcats",
        -9.370173527783686
      ],
      [
        "Ġcorrect",
        -9.370290664491373
      ],
      [
        "Ġcountries",
        -9.37077691991068
      ],
      [
        "-to",
        -9.37167145078382
      ],
      [
        "âĢĻ",
        -9.371894773448064
      ],
      [
        "Ġwear",
        -9.37339540297263
      ],
      [
        "Ġfruit",
        -9.37400317586883
      ],
      [
        "ger",
        -9.37528130720043
      ],
      [
        "chi",
        -9.375469839878908
      ],
      [
        "Ġmodels",
        -9.376140414506484
      ],
      [
        "Ġcontain",
        -9.376437458137463
      ],
      [
        "Ġitems",
        -9.376777406175949
      ],
      [
        "Ġprocesses",
        -9.377824039655923
      ],
      [
        "ĠSchool",
        -9.378373164114947
      ],
      [
        "red",
        -9.37937848859812
      ],
      [
        "Ġrunning",
        -9.379768122071312
      ],
      [
        "Ġask",
        -9.380075448432338
      ],
      [
        "Ġstyle",
        -9.380365569513344
      ],
      [
        "Ġpatient",
        -9.380899212159676
      ],
      [
        "Ġtips",
        -9.3813051537168
      ],
      [
        "Ġcolors",
        -9.381464090817165
      ],
      [
        "Ġal",
        -9.381661341119772
      ],
      [
        "ĠZ",
        -9.381792948337944
      ],
      [
        "ability",
        -9.38189239323679
      ],
      [
        "Ġpoints",
        -9.383503699780878
      ],
      [
        "ĠLi",
        -9.384255781623509
      ],
      [
        "Ġcompletely",
        -9.384408127940269
      ],
      [
        "Ġserve",
        -9.38525473125856
      ],
      [
        "Ġbreak",
        -9.385930984192722
      ],
      [
        "Ġsources",
        -9.38622029419154
      ],
      [
        "Ġgreater",
        -9.388089064634356
      ],
      [
        "Ġimages",
        -9.389833777570413
      ],
      [
        "Ġcamera",
        -9.390124042234362
      ],
      [
        "Ġevents",
        -9.390810413270223
      ],
      [
        "Ġuseful",
        -9.391572286513409
      ],
      [
        "Ġpiece",
        -9.391743755874932
      ],
      [
        "Ġspread",
        -9.391772246891684
      ],
      [
        "ĠAmerica",
        -9.393336982012036
      ],
      [
        "ear",
        -9.394367031906803
      ],
      [
        "ĠNorth",
        -9.396639037868765
      ],
      [
        "Ġlives",
        -9.399438630889575
      ],
      [
        "Ġcool",
        -9.39958310618273
      ],
      [
        "Ġremember",
        -9.401712522381288
      ],
      [
        "Ġorganic",
        -9.401715966024
      ],
      [
        "ĠYes",
        -9.40263341880503
      ],
      [
        "let",
        -9.40293075038345
      ],
      [
        "Ġfat",
        -9.403412025856658
      ],
      [
        "by",
        -9.403512808498991
      ],
      [
        "Ġflowers",
        -9.405888281099408
      ],
      [
        "Ġproperly",
        -9.405954744730703
      ],
      [
        "Ġwind",
        -9.406004213837369
      ],
      [
        "ure",
        -9.406191889383583
      ],
      [
        "ĠUse",
        -9.40666595725778
      ],
      [
        "Ġlocation",
        -9.407427188634
      ],
      [
        "Ġbio",
        -9.407982268917213
      ],
      [
        "Ġseeds",
        -9.408007865832095
      ],
      [
        "Ġbird",
        -9.40806253494804
      ],
      [
        "Ġseries",
        -9.409532513034426
      ],
      [
        "Ġleave",
        -9.410675688235363
      ],
      [
        "Ġactive",
        -9.410692320835311
      ],
      [
        "our",
        -9.4124091231639
      ],
      [
        "old",
        -9.417519628121456
      ],
      [
        "ĠMy",
        -9.418705175964597
      ],
      [
        "lic",
        -9.420071278307017
      ],
      [
        "Ġaddress",
        -9.420692858937487
      ],
      [
        "{",
        -9.422351548632845
      ],
      [
        "Ġtalk",
        -9.423392533817244
      ],
      [
        "Ġcame",
        -9.42412081723306
      ],
      [
        "Ġefficiency",
        -9.425598932252129
      ],
      [
        "Ġmoving",
        -9.42572526203632
      ],
      [
        "ĠCon",
        -9.427300527758645
      ],
      [
        "Ġgoes",
        -9.427968035725732
      ],
      [
        "Ġgovernment",
        -9.428516611007396
      ],
      [
        "Ġscientific",
        -9.428605885826322
      ],
      [
        "Ġprotection",
        -9.429293152771882
      ],
      [
        "Ġwild",
        -9.42935363907875
      ],
      [
        "...ĊĊ",
        -9.429413323003685
      ],
      [
        "Ġhope",
        -9.42958008518067
      ],
      [
        "Ġnegative",
        -9.42959493137642
      ],
      [
        "ĠMo",
        -9.42974679137808
      ],
      [
        "Ġcritical",
        -9.431744465493242
      ],
      [
        "Ġmental",
        -9.43224904094492
      ],
      [
        "ĠDi",
        -9.43296552159864
      ],
      [
        "Ġachieve",
        -9.433381702730223
      ],
      [
        "Ġfile",
        -9.43486607455336
      ],
      [
        "While",
        -9.436108213867731
      ],
      [
        "Ġmembers",
        -9.43644159399912
      ],
      [
        "depending",
        -9.436548105846224
      ],
      [
        "Ġphoto",
        -9.43680483632264
      ],
      [
        "ĠMost",
        -9.436977256693028
      ],
      [
        "Ġmusic",
        -9.438213787564434
      ],
      [
        "ium",
        -9.438631176280976
      ],
      [
        "ick",
        -9.43892292091338
      ],
      [
        "Ġchallenges",
        -9.440426662509829
      ],
      [
        "Ġliquid",
        -9.440648558075477
      ],
      [
        "ĠMa",
        -9.440820500767382
      ],
      [
        "Ġcompanies",
        -9.441258467220845
      ],
      [
        "Ġelectrical",
        -9.442785510121388
      ],
      [
        "Ġbuilt",
        -9.442970799478026
      ],
      [
        "Ġdistance",
        -9.44380996375633
      ],
      [
        "Ġdirect",
        -9.444789696783708
      ],
      [
        "Ġmemory",
        -9.44578438182732
      ],
      [
        "Ġtheory",
        -9.445902587391194
      ],
      [
        "Ġpromote",
        -9.446719707134063
      ],
      [
        "Ġdirection",
        -9.447379188512013
      ],
      [
        "Ġmulti",
        -9.44925535916305
      ],
      [
        "Ġlate",
        -9.450588256553733
      ],
      [
        "Ġappear",
        -9.45139410950533
      ],
      [
        "Ġscreen",
        -9.452061055447336
      ],
      [
        "ÂŃ",
        -9.45233141993554
      ],
      [
        "Ġappropriate",
        -9.453111958409506
      ],
      [
        "Ġmicro",
        -9.454214094282866
      ],
      [
        "ĠFrom",
        -9.4544840278403
      ],
      [
        "mat",
        -9.454531329088208
      ],
      [
        "Ġseem",
        -9.454698214405663
      ],
      [
        "Ġcontains",
        -9.455112725648632
      ],
      [
        "Ġtaste",
        -9.455571193404092
      ],
      [
        "ĠPro",
        -9.455597710996573
      ],
      [
        "Ġpage",
        -9.456372276784723
      ],
      [
        "}",
        -9.456745071585807
      ],
      [
        "<",
        -9.456931823974118
      ],
      [
        ".S",
        -9.457014608814053
      ],
      [
        "Ġlines",
        -9.458460265533953
      ],
      [
        "Ġdeveloping",
        -9.45963085532327
      ],
      [
        "Ġsuper",
        -9.46064494677749
      ],
      [
        "Ġoriginal",
        -9.461269644735724
      ],
      [
        "Ġallowing",
        -9.462158255852149
      ],
      [
        "Ġpatterns",
        -9.463571233983384
      ],
      [
        "Ġlack",
        -9.4642835003825
      ],
      [
        "Ġtemperatures",
        -9.464538218468112
      ],
      [
        "Ġlimited",
        -9.465647652082884
      ],
      [
        "By",
        -9.46569663623671
      ],
      [
        "ĠBo",
        -9.4667008907645
      ],
      [
        "Ġresistance",
        -9.46705384654661
      ],
      [
        "Ġsearch",
        -9.468009116695235
      ],
      [
        "Ġcommonly",
        -9.470407269709243
      ],
      [
        "Ġsubject",
        -9.470668784944229
      ],
      [
        "ĠHealth",
        -9.470965915051494
      ],
      [
        "Ġinfection",
        -9.471284010816586
      ],
      [
        "Ġdrive",
        -9.47223387537838
      ],
      [
        "ĠOf",
        -9.472906851996871
      ],
      [
        "end",
        -9.473902638483796
      ],
      [
        "time",
        -9.474230941420943
      ],
      [
        "Ġbottom",
        -9.475034389828496
      ],
      [
        "Ġmaintenance",
        -9.475444585426631
      ],
      [
        "ence",
        -9.47651736871367
      ],
      [
        "Ġinterest",
        -9.477015226929678
      ],
      [
        "Ġslow",
        -9.477238053548817
      ],
      [
        "Ġimportance",
        -9.477467320553204
      ],
      [
        "Ġvision",
        -9.477859020128118
      ],
      [
        "Ġbegin",
        -9.477861938755048
      ],
      [
        "These",
        -9.481623443290882
      ],
      [
        "Ġusers",
        -9.481788215427931
      ],
      [
        "ĠWorld",
        -9.481885031207064
      ],
      [
        "pro",
        -9.482431290608153
      ],
      [
        "ĠLa",
        -9.48259274196642
      ],
      [
        "ĠResearch",
        -9.483340963909487
      ],
      [
        "Ġvalues",
        -9.484382283695489
      ],
      [
        "ĠRo",
        -9.484735285620916
      ],
      [
        "Ġpretty",
        -9.485896538928491
      ],
      [
        "Ġhappens",
        -9.487243373862391
      ],
      [
        "Ġdeal",
        -9.487726950665294
      ],
      [
        "Ġbaby",
        -9.48806365733362
      ],
      [
        "Ġseems",
        -9.488901432272913
      ],
      [
        "Ġsalt",
        -9.490260390146998
      ],
      [
        "Ġsix",
        -9.492061239666304
      ],
      [
        "Ġstem",
        -9.492413738398012
      ],
      [
        "Ġpublished",
        -9.492640436687116
      ],
      [
        "Ġprograms",
        -9.493557797739632
      ],
      [
        "Ġideal",
        -9.494185265571309
      ],
      [
        "Ġcooking",
        -9.49424158016548
      ],
      [
        "Ġdark",
        -9.495402720704844
      ],
      [
        "ities",
        -9.49587843149512
      ],
      [
        "cal",
        -9.496304669327294
      ],
      [
        "ĠMany",
        -9.497114304229555
      ],
      [
        "Ġwriting",
        -9.497513061834873
      ],
      [
        "air",
        -9.498835469926894
      ],
      [
        "Ġprojects",
        -9.499147780713969
      ],
      [
        "Ġreasons",
        -9.500512411992904
      ],
      [
        "Ġnumbers",
        -9.501438599671792
      ],
      [
        "Ġupon",
        -9.501821386518705
      ],
      [
        "way",
        -9.502316320949587
      ],
      [
        "Ġcosts",
        -9.503029005586946
      ],
      [
        "ĠSouth",
        -9.50443295797943
      ],
      [
        "ology",
        -9.505949253223196
      ],
      [
        "ng",
        -9.507982295352344
      ],
      [
        "Ġefficient",
        -9.508940480818286
      ],
      [
        "Ġsigns",
        -9.509304057467112
      ],
      [
        "ical",
        -9.509705173961647
      ],
      [
        "ĠPo",
        -9.509721866170596
      ],
      [
        "Ġhands",
        -9.510036401010591
      ],
      [
        "Ġmeasure",
        -9.511815454663893
      ],
      [
        "Ġtarget",
        -9.512640877696589
      ],
      [
        "Ġstage",
        -9.513455609029082
      ],
      [
        "Ġbox",
        -9.514451443283845
      ],
      [
        "Ġcycle",
        -9.514501338185768
      ],
      [
        "Ġsection",
        -9.516571401721244
      ],
      [
        "Ġoxygen",
        -9.517726358348131
      ],
      [
        "Ġfinal",
        -9.51823186835258
      ],
      [
        "Ġelse",
        -9.519592723444756
      ],
      [
        "âĢĿ",
        -9.520206544704044
      ],
      [
        "Ġanti",
        -9.521508240339584
      ],
      [
        "Ġhappen",
        -9.523350137739358
      ],
      [
        "Ġinput",
        -9.523520642575988
      ],
      [
        "Ġfeature",
        -9.52521155687655
      ],
      [
        "Ġgain",
        -9.526022984499456
      ],
      [
        "Ġsustainable",
        -9.526212690568835
      ],
      [
        "Ġready",
        -9.528554241226358
      ],
      [
        "Ġincreasing",
        -9.52881617415934
      ],
      [
        "Ġobjects",
        -9.52939555611977
      ],
      [
        "Ġperform",
        -9.529685343688604
      ],
      [
        "Ġex",
        -9.52987756059484
      ],
      [
        "Ġcity",
        -9.530620453620894
      ],
      [
        "Ġreducing",
        -9.53158968272705
      ],
      [
        "Ġforms",
        -9.533034055234076
      ],
      [
        "Ġcircuit",
        -9.535459156049942
      ],
      [
        "And",
        -9.535478643271611
      ],
      [
        "**",
        -9.53564468636216
      ],
      [
        "With",
        -9.535824605418451
      ],
      [
        "Ġfactor",
        -9.536131435057133
      ],
      [
        "Ġhearing",
        -9.536133524470744
      ],
      [
        "Ġmoment",
        -9.536683525250018
      ],
      [
        "Ġimmune",
        -9.536806144609043
      ],
      [
        "Ġcleaning",
        -9.53789917402616
      ],
      [
        "ĠGo",
        -9.53852592297485
      ],
      [
        "Ġexist",
        -9.538921558209582
      ],
      [
        "Ġmeaning",
        -9.539606533317595
      ],
      [
        "Ġwrite",
        -9.542397710560364
      ],
      [
        "Ġinvolves",
        -9.543581621921737
      ],
      [
        "ĠNot",
        -9.544129480924642
      ],
      [
        "Ġresponsible",
        -9.544341934398926
      ],
      [
        "ang",
        -9.544870539518817
      ],
      [
        "king",
        -9.546407316048606
      ],
      [
        "Ġideas",
        -9.546823449500076
      ],
      [
        "Ġdi",
        -9.547070755890685
      ],
      [
        "Ġrelease",
        -9.547368510975527
      ],
      [
        "Ġroot",
        -9.547449034881852
      ],
      [
        "ten",
        -9.547803107447212
      ],
      [
        "Ġreview",
        -9.548604859077434
      ],
      [
        "Ġsuitable",
        -9.550184229360148
      ],
      [
        "aid",
        -9.55070288361842
      ],
      [
        "Ġpractices",
        -9.551060560939185
      ],
      [
        "Ġaccount",
        -9.551065733411706
      ],
      [
        "Ġapp",
        -9.55145026401158
      ],
      [
        "work",
        -9.55310160132483
      ],
      [
        "Ġpattern",
        -9.553116781996238
      ],
      [
        "Ġsolid",
        -9.553179949264164
      ],
      [
        "Ġfilm",
        -9.553524325200764
      ],
      [
        "Ġtesting",
        -9.553746178606694
      ],
      [
        "ĠWhy",
        -9.554061555747952
      ],
      [
        "Ġglass",
        -9.554245223188229
      ],
      [
        "Ġconstruction",
        -9.555709105894122
      ],
      [
        "Ġstorage",
        -9.555787209245738
      ],
      [
        "Ġcross",
        -9.556163049310763
      ],
      [
        "izing",
        -9.556286067213776
      ],
      [
        "ensuring",
        -9.5563663278969
      ],
      [
        "Ġtechnique",
        -9.557915738538536
      ],
      [
        "Ġrequirements",
        -9.558007146176584
      ],
      [
        "lin",
        -9.55867903083556
      ],
      [
        "Ġtouch",
        -9.560976416009108
      ],
      [
        "Ġthinking",
        -9.56121052572422
      ],
      [
        "ĠWho",
        -9.561246747119776
      ],
      [
        "Ġthird",
        -9.562045581479532
      ],
      [
        "Ġnoise",
        -9.562158748671209
      ],
      [
        "Ġrelationship",
        -9.56236274034142
      ],
      [
        "Ġsignificantly",
        -9.5624231722101
      ],
      [
        "ĠSp",
        -9.562566528421865
      ],
      [
        "Ġsoft",
        -9.562745270468405
      ],
      [
        "Ġstates",
        -9.562758389858846
      ],
      [
        "Ġplanet",
        -9.56348745897064
      ],
      [
        "Ġinter",
        -9.56388554743762
      ],
      [
        "ze",
        -9.564151680862508
      ],
      [
        "Ġreaction",
        -9.564498712703118
      ],
      [
        "Ġsituation",
        -9.565451584220574
      ],
      [
        "Ġphase",
        -9.566090639236076
      ],
      [
        "Ġiron",
        -9.56810168578167
      ],
      [
        "Ġwall",
        -9.568678376790032
      ],
      [
        "Ġfriends",
        -9.569280217640578
      ],
      [
        "Ġvisual",
        -9.570155187472244
      ],
      [
        "Ġnothing",
        -9.57027841811228
      ],
      [
        "Ġculture",
        -9.570412469927668
      ],
      [
        "Ġscale",
        -9.571632678226932
      ],
      [
        "Ġexposure",
        -9.572876396110503
      ],
      [
        "Ġhandle",
        -9.573481138534245
      ],
      [
        "Ġpaint",
        -9.574896232715902
      ],
      [
        "les",
        -9.575323528940624
      ],
      [
        "Ġvisit",
        -9.576072617621437
      ],
      [
        "-in",
        -9.576681781290038
      ],
      [
        "board",
        -9.577074875978546
      ],
      [
        "Ġvolume",
        -9.57713239429916
      ],
      [
        "nd",
        -9.57736947353806
      ],
      [
        "Ġearth",
        -9.57914027105934
      ],
      [
        "Ġbecomes",
        -9.580592170433572
      ],
      [
        "ĠMay",
        -9.582020234206787
      ],
      [
        "Ġsetting",
        -9.582717028511532
      ],
      [
        "Ġrich",
        -9.58420493350562
      ],
      [
        "Ġpowerful",
        -9.584511356679148
      ],
      [
        "ĠTe",
        -9.584576716301722
      ],
      [
        "Ġtook",
        -9.584669883154143
      ],
      [
        "ĠAre",
        -9.584716750176096
      ],
      [
        "Ġstarting",
        -9.584980969422013
      ],
      [
        "ĠAlso",
        -9.585380385952758
      ],
      [
        "Ġgene",
        -9.588049299889242
      ],
      [
        "Ġnutrients",
        -9.588472409693896
      ],
      [
        "den",
        -9.588929604274847
      ],
      [
        "ade",
        -9.58952805424632
      ],
      [
        "Ġapplied",
        -9.58983830281046
      ],
      [
        "Ġsolutions",
        -9.591286109956355
      ],
      [
        "Ġvoltage",
        -9.591747450916433
      ],
      [
        "fer",
        -9.592177914152508
      ],
      [
        "ĠWar",
        -9.593201804711333
      ],
      [
        "Ġmonth",
        -9.593504987940308
      ],
      [
        "can",
        -9.59376107543036
      ],
      [
        "use",
        -9.593798696231268
      ],
      [
        "Ġbar",
        -9.594011888310389
      ],
      [
        "Ġball",
        -9.59445945081796
      ],
      [
        "Ġmuscle",
        -9.595875063373256
      ],
      [
        "Ġdraw",
        -9.596045440179148
      ],
      [
        "ped",
        -9.596523116053188
      ],
      [
        "Ġmen",
        -9.59745492621809
      ],
      [
        "Ġcutting",
        -9.598309685631712
      ],
      [
        "Ġadding",
        -9.59841220020134
      ],
      [
        ".com",
        -9.598735100089236
      ],
      [
        "They",
        -9.599381358856
      ],
      [
        "ight",
        -9.599408062053136
      ],
      [
        "Ġlaw",
        -9.599889679945756
      ],
      [
        "Ġdescribe",
        -9.600996574974708
      ],
      [
        "Ġboard",
        -9.601316130226468
      ],
      [
        "Ġingredients",
        -9.602230170257675
      ],
      [
        "Ġheavy",
        -9.603893002350697
      ],
      [
        "Ġdeath",
        -9.604379869873512
      ],
      [
        "my",
        -9.605088758497066
      ],
      [
        "ĠSa",
        -9.605735721469417
      ],
      [
        "Ġrise",
        -9.607062121393104
      ],
      [
        "Ġdecision",
        -9.60780823984668
      ],
      [
        "Ġmotor",
        -9.608442017297708
      ],
      [
        "Ġjourney",
        -9.608807752744616
      ],
      [
        "Ġgives",
        -9.608997885066556
      ],
      [
        "Ġconcept",
        -9.60925805349154
      ],
      [
        "ĠCenter",
        -9.60954277021668
      ],
      [
        "qu",
        -9.609593134334997
      ],
      [
        "Ġrecommend",
        -9.609661864731056
      ],
      [
        "Ġcentury",
        -9.610090121542472
      ],
      [
        "Ġrecord",
        -9.610773866271234
      ],
      [
        "ĠMe",
        -9.612611764744072
      ],
      [
        "Ġsoon",
        -9.613291572836884
      ],
      [
        "ĠMake",
        -9.613892043139176
      ],
      [
        "ĠOur",
        -9.614236719637466
      ],
      [
        "Ġapply",
        -9.614270487873725
      ],
      [
        "Ġinteresting",
        -9.615963084069246
      ],
      [
        "Ġcurrently",
        -9.617069931800748
      ],
      [
        "Ġwrong",
        -9.617204526171257
      ],
      [
        "Ġreceive",
        -9.6176935224063
      ],
      [
        "Ġreturn",
        -9.617835554873482
      ],
      [
        "Ġsuccessful",
        -9.619585908826394
      ],
      [
        "Ġcharge",
        -9.619990378357205
      ],
      [
        "Ġtrack",
        -9.62024814416652
      ],
      [
        "Ġheight",
        -9.620678999917851
      ],
      [
        "Ġconnected",
        -9.620830614146335
      ],
      [
        "ture",
        -9.620903313429986
      ],
      [
        "Ġcombination",
        -9.620995225126055
      ],
      [
        "ĠEven",
        -9.621888933798926
      ],
      [
        "Ġlocated",
        -9.622461784036648
      ],
      [
        "ĠWater",
        -9.62274309261502
      ],
      [
        "Ġbrown",
        -9.623041385854314
      ],
      [
        "Ġserious",
        -9.623147098416158
      ],
      [
        "Ġtank",
        -9.623219576122478
      ],
      [
        "Ġcausing",
        -9.623335317494645
      ],
      [
        "-term",
        -9.623467202012764
      ],
      [
        "Ġfaster",
        -9.625040866449885
      ],
      [
        "ĠSi",
        -9.625834976981569
      ],
      [
        "Ġtissue",
        -9.626021912129092
      ],
      [
        "ĠTheir",
        -9.626720709431034
      ],
      [
        "over",
        -9.62835223565051
      ],
      [
        "her",
        -9.629196617383023
      ],
      [
        "men",
        -9.630770932878312
      ],
      [
        "Ġfilter",
        -9.631365837393092
      ],
      [
        "Ġsecurity",
        -9.63163088666715
      ],
      [
        "Ġaim",
        -9.632464409245795
      ],
      [
        "Ġsign",
        -9.633072731891104
      ],
      [
        "Ġexactly",
        -9.633694634052135
      ],
      [
        "ĠNa",
        -9.634924610691268
      ],
      [
        "Ġvegetables",
        -9.635186838057
      ],
      [
        "Ġstand",
        -9.635851107475665
      ],
      [
        "Ġanyone",
        -9.635994065977014
      ],
      [
        "Ġfrequency",
        -9.636076055809935
      ],
      [
        "q",
        -9.636760145121418
      ],
      [
        "Some",
        -9.637415367758893
      ],
      [
        "Ġfloor",
        -9.637583978867218
      ],
      [
        "Ġtask",
        -9.638478222920927
      ],
      [
        "Ġmanage",
        -9.638555600010006
      ],
      [
        "ĠTa",
        -9.639346449196251
      ],
      [
        "Ġopportunity",
        -9.639517776223595
      ],
      [
        "Ġfully",
        -9.640313429395668
      ],
      [
        "Ġyellow",
        -9.642202025076296
      ],
      [
        "Ġforward",
        -9.642334705277856
      ],
      [
        "Ġexcellent",
        -9.642861146415983
      ],
      [
        "Ġhorse",
        -9.64342918511414
      ],
      [
        "Ġcapacity",
        -9.64443227137078
      ],
      [
        "tion",
        -9.644907347044096
      ],
      [
        "gu",
        -9.64775795166887
      ],
      [
        "Ġdescribed",
        -9.648104946722166
      ],
      [
        "Ġvia",
        -9.648270953237253
      ],
      [
        "Ġeffectively",
        -9.64859292181056
      ],
      [
        "Ġear",
        -9.648880750775664
      ],
      [
        "Ġelement",
        -9.65031050135896
      ],
      [
        "Ġstrategies",
        -9.65060025575738
      ],
      [
        "Ġpieces",
        -9.65068664557876
      ],
      [
        "Ġmoisture",
        -9.650708239554271
      ],
      [
        "Now",
        -9.650963517130496
      ],
      [
        "Ġinfluence",
        -9.651093756384594
      ],
      [
        "Ġgames",
        -9.651630421637746
      ],
      [
        "Ġdisplay",
        -9.652031263455356
      ],
      [
        "Ġcollection",
        -9.65311137838296
      ],
      [
        "ace",
        -9.6534916330129
      ],
      [
        "ĠVi",
        -9.654128483423792
      ],
      [
        "Ġmotion",
        -9.656518710160832
      ],
      [
        "Ġtherefore",
        -9.656781354197353
      ],
      [
        "Ġroad",
        -9.658006822696144
      ],
      [
        "Ġocean",
        -9.660857184198903
      ],
      [
        "Ġhost",
        -9.6622489767574
      ],
      [
        "ster",
        -9.662280156258348
      ],
      [
        "Ġproperty",
        -9.66255075799242
      ],
      [
        "ĠAdditionally",
        -9.663357353526338
      ],
      [
        "Ġsort",
        -9.663615977502785
      ],
      [
        "Ġpicture",
        -9.665408697104136
      ],
      [
        "Ġbecame",
        -9.667021651859573
      ],
      [
        "Ġequal",
        -9.667056758150451
      ],
      [
        "Ġnative",
        -9.667527770868784
      ],
      [
        "Ġalternative",
        -9.669110611046332
      ],
      [
        "Ġcontext",
        -9.670119164545463
      ],
      [
        "Ġbeautiful",
        -9.671209798266553
      ],
      [
        "tal",
        -9.671991833124698
      ],
      [
        "Ġmouth",
        -9.67211008865006
      ],
      [
        "Ġreduced",
        -9.672872304281722
      ],
      [
        "ĠOnce",
        -9.67303273420092
      ],
      [
        "Ġincluded",
        -9.67325530964066
      ],
      [
        "Ġthus",
        -9.673481204594248
      ],
      [
        "Ġprocessing",
        -9.673611037219445
      ],
      [
        "Ġexplain",
        -9.67375544865202
      ],
      [
        "gen",
        -9.674709518941611
      ],
      [
        "Ġweb",
        -9.67576177026271
      ],
      [
        "ĠLet",
        -9.675775581624366
      ],
      [
        "Ġsevere",
        -9.677121922448007
      ],
      [
        "Ġinches",
        -9.677374285047796
      ],
      [
        "Ġworth",
        -9.67749892393878
      ],
      [
        "Ġoccurs",
        -9.678777020077334
      ],
      [
        "Ġcouple",
        -9.678821911636748
      ],
      [
        "Ġchallenge",
        -9.67908333911513
      ],
      [
        "Ġpath",
        -9.679154115720772
      ],
      [
        "Ġcoming",
        -9.679278415928383
      ],
      [
        "Ġtexture",
        -9.679635321513455
      ],
      [
        "form",
        -9.680056174002845
      ],
      [
        "Ġreference",
        -9.68197280327939
      ],
      [
        "Ġsteel",
        -9.683379987916467
      ],
      [
        "ĠNow",
        -9.68354335106594
      ],
      [
        "Ġbeyond",
        -9.68445933264411
      ],
      [
        "Ġtherapy",
        -9.686175140129054
      ],
      [
        "ĠPer",
        -9.68750561303536
      ],
      [
        "Ġseed",
        -9.688527413359187
      ],
      [
        "Ġpresence",
        -9.68898332373706
      ],
      [
        "ĠCar",
        -9.6895435014819
      ],
      [
        "No",
        -9.690618508192276
      ],
      [
        "ĠBecause",
        -9.690938798828546
      ],
      [
        "cu",
        -9.691059267313868
      ],
      [
        "Ġadvanced",
        -9.69129715911554
      ],
      [
        "Ġblock",
        -9.691446179377952
      ],
      [
        "Ġgiving",
        -9.69323226595259
      ],
      [
        "Ġdoctor",
        -9.69462798827569
      ],
      [
        "Ġmix",
        -9.69479165695901
      ],
      [
        "Ġextremely",
        -9.696287941348938
      ],
      [
        "Ġwalk",
        -9.69717741779606
      ],
      [
        "Ġmiddle",
        -9.699519330464495
      ],
      [
        "Ġfunctions",
        -9.699722494564783
      ],
      [
        "Ġled",
        -9.700412628855611
      ],
      [
        "rate",
        -9.700665572830642
      ],
      [
        "Ġexpect",
        -9.70095282916214
      ],
      [
        "ĠEach",
        -9.701255459930046
      ],
      [
        "ĠOther",
        -9.702049260442902
      ],
      [
        "Ġpoor",
        -9.702079777992264
      ],
      [
        "Ġmaximum",
        -9.702142441611654
      ],
      [
        "Ġexpensive",
        -9.70232753062282
      ],
      [
        "Ġbrand",
        -9.702794096998549
      ],
      [
        "ious",
        -9.703201299540249
      ],
      [
        "Ġexpected",
        -9.704156411432225
      ],
      [
        "Ġdetails",
        -9.704845963445068
      ],
      [
        "Ġrecently",
        -9.70502757243248
      ],
      [
        "Ġphone",
        -9.705871811772733
      ],
      [
        "Ġsaw",
        -9.706030088036158
      ],
      [
        "Ġdate",
        -9.706360915023131
      ],
      [
        "Ġsample",
        -9.70702463606343
      ],
      [
        "Ġelectricity",
        -9.707227220628914
      ],
      [
        "Ġteaching",
        -9.707565311933358
      ],
      [
        "Ġhuge",
        -9.70857968549292
      ],
      [
        "ĠCO",
        -9.710414435043107
      ],
      [
        "Ġconsumption",
        -9.710478463393738
      ],
      [
        "ĠHigh",
        -9.710915284727411
      ],
      [
        "Ġprevious",
        -9.71105988763108
      ],
      [
        "back",
        -9.71746404887886
      ],
      [
        "Ġalthough",
        -9.717464821680856
      ],
      [
        "Ġremain",
        -9.71880787343709
      ],
      [
        "Ġfemale",
        -9.719116858733573
      ],
      [
        "Ġparticles",
        -9.719292662385856
      ],
      [
        "Ġbone",
        -9.720561931489875
      ],
      [
        "Ġlost",
        -9.720673641923492
      ],
      [
        "Ġexperiment",
        -9.721172059309367
      ],
      [
        "Ġkeeping",
        -9.7221033237067
      ],
      [
        "Ġolder",
        -9.722676092304235
      ],
      [
        "On",
        -9.72292684206418
      ],
      [
        "Ġfoot",
        -9.72380815220441
      ],
      [
        "Ġsuggest",
        -9.72435814739628
      ],
      [
        "ĠNOT",
        -9.72542858160138
      ],
      [
        "cur",
        -9.725755443457397
      ],
      [
        "Ġversion",
        -9.726799477931326
      ],
      [
        "Ġslightly",
        -9.726860010177484
      ],
      [
        "Ġinitial",
        -9.727098789774768
      ],
      [
        "ĠAr",
        -9.730090659744498
      ],
      [
        "Ġmedium",
        -9.730640870091472
      ],
      [
        "Ġonto",
        -9.73086831964481
      ],
      [
        "Ġaffected",
        -9.731637473740726
      ],
      [
        "Ġinstance",
        -9.732043985501337
      ],
      [
        "Ġadvantage",
        -9.732635502870814
      ],
      [
        "ĠEnglish",
        -9.733648299401343
      ],
      [
        "Ġplaces",
        -9.733840742516634
      ],
      [
        "Ġcommunities",
        -9.733998767077422
      ],
      [
        "Ġseparate",
        -9.73405009822113
      ],
      [
        "Ġlargest",
        -9.7349155042373
      ],
      [
        "Ġreported",
        -9.735493451908484
      ],
      [
        "ĠâĢ¦",
        -9.736159505534824
      ],
      [
        "Ġlink",
        -9.736201922918104
      ],
      [
        "Ġconnection",
        -9.736833825824306
      ],
      [
        "Here",
        -9.73768709086234
      ],
      [
        "Ġfluid",
        -9.73855437785735
      ],
      [
        "ric",
        -9.738650655719152
      ],
      [
        "Ġevolution",
        -9.7386813369107
      ],
      [
        "Ġrelatively",
        -9.739810815683905
      ],
      [
        "ĠPi",
        -9.739908404457283
      ],
      [
        "ĠInstitute",
        -9.741158975307616
      ],
      [
        "Ġplease",
        -9.742037299191471
      ],
      [
        "led",
        -9.74217551698528
      ],
      [
        "ship",
        -9.743335697169382
      ],
      [
        "ĠSe",
        -9.743946635294796
      ],
      [
        "ash",
        -9.74466979571134
      ],
      [
        "Ġdemand",
        -9.744700367176112
      ],
      [
        "Ġcore",
        -9.74538246497375
      ],
      [
        "Ġopportunities",
        -9.745602877076209
      ],
      [
        "Ġvaluable",
        -9.745783704302454
      ],
      [
        "Ġgrass",
        -9.74636632284526
      ],
      [
        "pp",
        -9.746448281019823
      ],
      [
        "Ġchanging",
        -9.748268025057548
      ],
      [
        "Ġcarry",
        -9.748544979726958
      ],
      [
        "Ġdiscovered",
        -9.749335552489049
      ],
      [
        "Ġattack",
        -9.74958167040514
      ],
      [
        "Ġflight",
        -9.750524762687132
      ],
      [
        "Ġgenes",
        -9.750885325357013
      ],
      [
        "Ġcomfortable",
        -9.751860247995552
      ],
      [
        "Ġcharacteristics",
        -9.752225007315102
      ],
      [
        "Ġlose",
        -9.752534098852683
      ],
      [
        "Ġspend",
        -9.755350065009312
      ],
      [
        "Ġtasks",
        -9.755591438476054
      ],
      [
        "Ġeffort",
        -9.756137533012238
      ],
      [
        "Ġemissions",
        -9.756755860355913
      ],
      [
        "Ġdegrees",
        -9.75696350287814
      ],
      [
        "Ġplaced",
        -9.756970041812446
      ],
      [
        "Ġinternal",
        -9.75736937199362
      ],
      [
        "que",
        -9.757409550221746
      ],
      [
        "Ġdepth",
        -9.758309886287986
      ],
      [
        "Ġdriving",
        -9.758500333210112
      ],
      [
        "Ġconservation",
        -9.761870831736465
      ],
      [
        "Ġgets",
        -9.761900455274134
      ],
      [
        "Ġwatch",
        -9.762217110793994
      ],
      [
        "Ġprogress",
        -9.762254839991137
      ],
      [
        "Ġsites",
        -9.762320849343496
      ],
      [
        "Ġconstant",
        -9.762538212023337
      ],
      [
        "light",
        -9.763645717187416
      ],
      [
        "Ġflat",
        -9.764181200194257
      ],
      [
        "Ġpick",
        -9.76484425470325
      ],
      [
        "Ġeconomic",
        -9.765065006907877
      ],
      [
        "all",
        -9.766405103048909
      ],
      [
        "However",
        -9.766444613047112
      ],
      [
        "Ġbeginning",
        -9.766639674307314
      ],
      [
        "Ġfigure",
        -9.76697308312025
      ],
      [
        "ĠGod",
        -9.767807242040483
      ],
      [
        "Ġtechnologies",
        -9.768003251113765
      ],
      [
        "Ġremains",
        -9.76808016052827
      ],
      [
        "ble",
        -9.768122461415738
      ],
      [
        "top",
        -9.768394722229631
      ],
      [
        "Ġcommercial",
        -9.768657139685422
      ],
      [
        "Ġappearance",
        -9.76878481032021
      ],
      [
        "ĠAir",
        -9.76916677014606
      ],
      [
        "Ġnational",
        -9.770236421708688
      ],
      [
        "Ġteachers",
        -9.770328438865253
      ],
      [
        "ĠState",
        -9.770613416866292
      ],
      [
        "Ġstuff",
        -9.77150326494558
      ],
      [
        "Ġdepends",
        -9.7724708023763
      ],
      [
        "Ġalone",
        -9.77277596464058
      ],
      [
        "ĠSu",
        -9.773767534894173
      ],
      [
        "Ġgoals",
        -9.773961868084664
      ],
      [
        "Ġadults",
        -9.774273492171718
      ],
      [
        "Ġdistribution",
        -9.774632794704544
      ],
      [
        "Ġstructures",
        -9.775382988134366
      ],
      [
        "Ġflavor",
        -9.776237005655066
      ],
      [
        "Ġproteins",
        -9.77628828802247
      ],
      [
        "meter",
        -9.776368071445123
      ],
      [
        "gar",
        -9.776460083069834
      ],
      [
        "ĠHa",
        -9.777557709256444
      ],
      [
        "-up",
        -9.778921321176236
      ],
      [
        "Ġcomponent",
        -9.77971002030465
      ],
      [
        "Ġsquare",
        -9.780219191640732
      ],
      [
        "Ġvi",
        -9.780583201257398
      ],
      [
        "Ġdouble",
        -9.780861125090633
      ],
      [
        "Ġmale",
        -9.781159287701124
      ],
      [
        "ĠIndia",
        -9.782818278662528
      ],
      [
        "ker",
        -9.784325170589977
      ],
      [
        "Ġradio",
        -9.784661150317348
      ],
      [
        "Ġrepresent",
        -9.785034101682482
      ],
      [
        "ack",
        -9.785145050062775
      ],
      [
        "Ġfeeling",
        -9.78569732152038
      ],
      [
        "Ġmid",
        -9.786058788936629
      ],
      [
        "Ġbooks",
        -9.786940558782684
      ],
      [
        "Ġresulting",
        -9.787848443693646
      ],
      [
        "ified",
        -9.787968247340809
      ],
      [
        "Ġbackground",
        -9.788034107147492
      ],
      [
        "ĠMore",
        -9.789215466733982
      ],
      [
        "ĠCalifornia",
        -9.790789040549267
      ],
      [
        "Ġschools",
        -9.791451192666097
      ],
      [
        "Ġwent",
        -9.79177142553
      ],
      [
        "Ġhear",
        -9.79264048597375
      ],
      [
        "ification",
        -9.7930419749963
      ],
      [
        "Ġhabitat",
        -9.793061162552313
      ],
      [
        "Ġmeasures",
        -9.793415217820968
      ],
      [
        "nic",
        -9.793486723886213
      ],
      [
        "ley",
        -9.793609556695564
      ],
      [
        "Ġorganization",
        -9.79414200679562
      ],
      [
        "Ġselection",
        -9.794797233530227
      ],
      [
        "not",
        -9.79578133565266
      ],
      [
        "Ġinternational",
        -9.796603454424195
      ],
      [
        "ible",
        -9.796606893393928
      ],
      [
        "Ġcars",
        -9.797709281320786
      ],
      [
        "ĠAccording",
        -9.798136281052589
      ],
      [
        "Ġaudio",
        -9.798533547354742
      ],
      [
        "Ġcentral",
        -9.798618349735838
      ],
      [
        "Ġbegan",
        -9.798798026437868
      ],
      [
        "Ġfinancial",
        -9.799692668485056
      ],
      [
        "Ġdiabetes",
        -9.800378455525758
      ],
      [
        "Ġdifferences",
        -9.80062088214642
      ],
      [
        "Ġquick",
        -9.801772966831578
      ],
      [
        "ĠJust",
        -9.80281616208848
      ],
      [
        "Ġones",
        -9.803060512212491
      ],
      [
        "Ġdegree",
        -9.8043189122805
      ],
      [
        "Ġrock",
        -9.805080226743948
      ],
      [
        "Ġdoor",
        -9.806843207358371
      ],
      [
        "Ġvary",
        -9.807140229855554
      ],
      [
        "Be",
        -9.807544025023867
      ],
      [
        "Ġexisting",
        -9.80876516890262
      ],
      [
        "Ġinsects",
        -9.808774149808386
      ],
      [
        "Ġframe",
        -9.80984868938874
      ],
      [
        "Ġround",
        -9.810212937319958
      ],
      [
        "Ġswitch",
        -9.810252719341738
      ],
      [
        "Ġnotice",
        -9.811361949322054
      ],
      [
        "Ġrare",
        -9.8118260625842
      ],
      [
        "Ġexperiences",
        -9.812380070912267
      ],
      [
        "Ġtransfer",
        -9.813222088058652
      ],
      [
        "Ġaspects",
        -9.813780272839692
      ],
      [
        "Ġefforts",
        -9.813867855920648
      ],
      [
        "Ġadult",
        -9.814965840526154
      ],
      [
        "ĠFirst",
        -9.81506268758619
      ],
      [
        "Ġexamples",
        -9.815381015984808
      ],
      [
        "Ġplanning",
        -9.815477144531233
      ],
      [
        "Ġactual",
        -9.815515950955326
      ],
      [
        "Ġincreases",
        -9.81613318304436
      ],
      [
        "Ġprint",
        -9.816437633180117
      ],
      [
        "Ġfavorite",
        -9.817581274401512
      ],
      [
        "Ġtests",
        -9.81762298834168
      ],
      [
        "@",
        -9.817810951962146
      ],
      [
        "Ġroof",
        -9.818680666766191
      ],
      [
        "Ġbreed",
        -9.819318627104398
      ],
      [
        "Ġkill",
        -9.81945457550274
      ],
      [
        "Ġpool",
        -9.81953718198132
      ],
      [
        "Ġconnect",
        -9.820464400025102
      ],
      [
        "Ġlimit",
        -9.820510417138918
      ],
      [
        "Ġrules",
        -9.82127809186792
      ],
      [
        "Ġchicken",
        -9.821483249610434
      ],
      [
        "ĠAlthough",
        -9.821489719477864
      ],
      [
        "Ġoperation",
        -9.823440423020832
      ],
      [
        "Ġwritten",
        -9.824493339015428
      ],
      [
        "Ġvital",
        -9.824736794946146
      ],
      [
        "ward",
        -9.82492808404227
      ],
      [
        "Ġsounds",
        -9.825400943330395
      ],
      [
        "Ġfinding",
        -9.825738462550008
      ],
      [
        "Ġlooks",
        -9.826162791907862
      ],
      [
        "ham",
        -9.827071634196315
      ],
      [
        "Ġmaintaining",
        -9.831005205055316
      ],
      [
        "Ġreplace",
        -9.831793136850026
      ],
      [
        "Ġmedicine",
        -9.832276091310032
      ],
      [
        "Ġimmediately",
        -9.83229586391556
      ],
      [
        "Ġspecifically",
        -9.832311662371794
      ],
      [
        "Ġprefer",
        -9.833012793192475
      ],
      [
        "Ġroots",
        -9.833044009881617
      ],
      [
        "Ã",
        -9.83419613876927
      ],
      [
        "ĠYork",
        -9.83472589257962
      ],
      [
        "ja",
        -9.83551359513099
      ],
      [
        "ck",
        -9.835843866117775
      ],
      [
        "Ġformed",
        -9.83609929931576
      ],
      [
        "Ġselect",
        -9.836336280302833
      ],
      [
        "side",
        -9.837666357427976
      ],
      [
        "Ġexpression",
        -9.837707024534064
      ],
      [
        "ĠMar",
        -9.838039929700043
      ],
      [
        "Ġpass",
        -9.83938279831098
      ],
      [
        "Ġallowed",
        -9.839820001691278
      ],
      [
        "Ġstick",
        -9.841455555270072
      ],
      [
        "Ġaccurate",
        -9.841595603180002
      ],
      [
        "Ġload",
        -9.841698109313947
      ],
      [
        "Ġrepair",
        -9.841952599473018
      ],
      [
        "Ġstraight",
        -9.842252400965108
      ],
      [
        "qui",
        -9.8426096836371
      ],
      [
        "Ġfabric",
        -9.843385875263651
      ],
      [
        "Ġrain",
        -9.844399646092144
      ],
      [
        "That",
        -9.844820965658656
      ],
      [
        "Ġten",
        -9.845225854447438
      ],
      [
        "Ġregularly",
        -9.84604814384618
      ],
      [
        "Ġsnow",
        -9.84661328528725
      ],
      [
        "-like",
        -9.846663644231676
      ],
      [
        "Ġbirth",
        -9.846712606913018
      ],
      [
        "ĠPe",
        -9.8470993880227
      ],
      [
        "Ġgeneration",
        -9.84749177761133
      ],
      [
        "Ġcovered",
        -9.847886013089758
      ],
      [
        "Ġstock",
        -9.849003735461093
      ],
      [
        "Ġfly",
        -9.849173164205371
      ],
      [
        "Ġvirus",
        -9.84967830666622
      ],
      [
        "Ġpurchase",
        -9.849853413218073
      ],
      [
        "Ġinstructions",
        -9.850022045383342
      ],
      [
        "Ġasked",
        -9.85035273673688
      ],
      [
        "Ġoffice",
        -9.8514392483069
      ],
      [
        "Ġpopulations",
        -9.85282683827942
      ],
      [
        "Ġatmosphere",
        -9.852995028958109
      ],
      [
        "Ġhit",
        -9.85358518501966
      ],
      [
        "Ġbutton",
        -9.8536110404806
      ],
      [
        "Ġfamilies",
        -9.854632430174044
      ],
      [
        "Ġhour",
        -9.855529993538852
      ],
      [
        "Ġtopic",
        -9.855947273564182
      ],
      [
        "Ġsmooth",
        -9.85675964536286
      ],
      [
        "Our",
        -9.857511504463163
      ],
      [
        "Ġcreative",
        -9.8580294548133
      ],
      [
        "Ġgenerate",
        -9.858085509109763
      ],
      [
        "ĠEurope",
        -9.858884258773752
      ],
      [
        "Ġnearly",
        -9.859419552618148
      ],
      [
        "ĠLo",
        -9.860065050464414
      ],
      [
        "Ġbasis",
        -9.860536725336411
      ],
      [
        "Ġchain",
        -9.86158948565086
      ],
      [
        "Ġdrop",
        -9.861800851759456
      ],
      [
        "Ġpan",
        -9.861846282712015
      ],
      [
        "Ġdrawing",
        -9.861866377089129
      ],
      [
        "Ġangle",
        -9.861876808599355
      ],
      [
        "Ġencourage",
        -9.86198264017978
      ],
      [
        "Ġcustomer",
        -9.8620610699342
      ],
      [
        "ĠDay",
        -9.862463799625944
      ],
      [
        "ations",
        -9.863219784815987
      ],
      [
        "Ġmember",
        -9.863383676968525
      ],
      [
        "era",
        -9.864251945837152
      ],
      [
        "Ġfeeding",
        -9.864621657992274
      ],
      [
        "ĠWi",
        -9.864905590440005
      ],
      [
        "ĠTherefore",
        -9.865738905086134
      ],
      [
        "Ã©",
        -9.866834903404117
      ],
      [
        "ĠSince",
        -9.866888102808216
      ],
      [
        "IC",
        -9.867049907801302
      ],
      [
        "After",
        -9.867862174032068
      ],
      [
        "Ġdetect",
        -9.867916973819977
      ],
      [
        "ists",
        -9.868251542971194
      ],
      [
        "Ġstar",
        -9.868989156347851
      ],
      [
        "Ġratio",
        -9.869030896980446
      ],
      [
        "Ġfear",
        -9.869233754678351
      ],
      [
        "Ġcustomers",
        -9.870030790354024
      ],
      [
        "He",
        -9.870241527756052
      ],
      [
        "ĠTh",
        -9.87109477937213
      ],
      [
        "AL",
        -9.871106791365143
      ],
      [
        "ĠDon",
        -9.871300445818
      ],
      [
        "Ġstaff",
        -9.873198389525724
      ],
      [
        "Ġtrip",
        -9.873948414814013
      ],
      [
        "Ġmolecules",
        -9.8751470856719
      ],
      [
        "Ġemotional",
        -9.875330476414916
      ],
      [
        "Ġtiny",
        -9.87575398265789
      ],
      [
        "Ġmarine",
        -9.87584639017133
      ],
      [
        "Ġdrug",
        -9.877318259946374
      ],
      [
        "Ġcharacter",
        -9.877887215530864
      ],
      [
        "Ġwire",
        -9.878254711424898
      ],
      [
        "Ġfrequently",
        -9.878983675248842
      ],
      [
        "Ġowners",
        -9.879018077941575
      ],
      [
        "Ġregions",
        -9.880607403064271
      ],
      [
        "Ġblog",
        -9.880885974357184
      ],
      [
        "Ġrates",
        -9.880921580507472
      ],
      [
        "All",
        -9.88114645465397
      ],
      [
        "Ġwindow",
        -9.882115358425416
      ],
      [
        "Ġnote",
        -9.8821357910816
      ],
      [
        "Ġroutine",
        -9.882180455908056
      ],
      [
        "Ġthin",
        -9.882799223887805
      ],
      [
        "Ġmiles",
        -9.88387373138877
      ],
      [
        "val",
        -9.88410217669786
      ],
      [
        "Ġfriend",
        -9.884396585341772
      ],
      [
        "Ġdiscuss",
        -9.885070248479998
      ],
      [
        "dic",
        -9.885659102789894
      ],
      [
        "fish",
        -9.885902924598422
      ],
      [
        "ĠEx",
        -9.88697353026085
      ],
      [
        "Ġhappy",
        -9.887099445583653
      ],
      [
        "ĠAfrica",
        -9.887182715382664
      ],
      [
        "Ġrule",
        -9.887218950061152
      ],
      [
        "Ġbecoming",
        -9.889187684828462
      ],
      [
        "Ġmeal",
        -9.889780694489142
      ],
      [
        "Ġfight",
        -9.88980256698088
      ],
      [
        "ĠBr",
        -9.889934140158024
      ],
      [
        "Ġrelative",
        -9.890010097619047
      ],
      [
        "Ġadvice",
        -9.890489577043514
      ],
      [
        "Ġfashion",
        -9.890777573283858
      ],
      [
        "Ġbodies",
        -9.891294398996342
      ],
      [
        "Answer",
        -9.891432630402582
      ],
      [
        "ell",
        -9.892085379287405
      ],
      [
        "Ġobserved",
        -9.892145308681174
      ],
      [
        "ĠDepartment",
        -9.892597346861788
      ],
      [
        "Ġrespond",
        -9.892744496955103
      ],
      [
        "ĠEl",
        -9.893198146154203
      ],
      [
        "Ġedge",
        -9.893293845342086
      ],
      [
        "Ġlandscape",
        -9.893844500748653
      ],
      [
        "cul",
        -9.89431629307184
      ],
      [
        "Ġlearned",
        -9.894594763225246
      ],
      [
        "log",
        -9.89487653734674
      ],
      [
        "Ġidentified",
        -9.895280904445697
      ],
      [
        "ES",
        -9.895609600529871
      ],
      [
        "Ġegg",
        -9.896232891444852
      ],
      [
        "amp",
        -9.897116160285066
      ],
      [
        "Ġbi",
        -9.89722543187508
      ],
      [
        "Another",
        -9.90002139729842
      ],
      [
        "Ġdie",
        -9.900243802993757
      ],
      [
        "ven",
        -9.90099930921092
      ],
      [
        "Ġshade",
        -9.901025044833146
      ],
      [
        "ĠFood",
        -9.901345051998682
      ],
      [
        "Ġwildlife",
        -9.901428386383278
      ],
      [
        "Ġwar",
        -9.902511048234889
      ],
      [
        "Ġregarding",
        -9.902972671723614
      ],
      [
        "ĠUK",
        -9.903227296116883
      ],
      [
        "Ġemail",
        -9.90370981426066
      ],
      [
        "Ġinterested",
        -9.904632869413458
      ],
      [
        "Ġbillion",
        -9.905236662544098
      ],
      [
        "Ġsociety",
        -9.90530031124392
      ],
      [
        "ail",
        -9.905848778852476
      ],
      [
        "Ġimproved",
        -9.906326855972434
      ],
      [
        "Ġplaying",
        -9.906391831395446
      ],
      [
        "ING",
        -9.90699151612028
      ],
      [
        "Ġsuggests",
        -9.907479217775812
      ],
      [
        "ach",
        -9.907867927266077
      ],
      [
        "Ġforest",
        -9.908521064500611
      ],
      [
        "lip",
        -9.909888217294204
      ],
      [
        "Ġwanted",
        -9.910012189972608
      ],
      [
        "ĠNe",
        -9.9102900684944
      ],
      [
        "Ġconclusion",
        -9.910483903957262
      ],
      [
        "Ġpractical",
        -9.911264539385574
      ],
      [
        "Ġdangerous",
        -9.911268188747092
      ],
      [
        "Ġhelping",
        -9.912870550738376
      ],
      [
        "Ġwave",
        -9.913016126373137
      ],
      [
        "lan",
        -9.91308328526885
      ],
      [
        "Ġcomfort",
        -9.913372907193612
      ],
      [
        "Ġcheese",
        -9.91386325614092
      ],
      [
        "port",
        -9.91462889288618
      ],
      [
        "Ġplayers",
        -9.914708141161892
      ],
      [
        "Ġsit",
        -9.915319549330134
      ],
      [
        "-free",
        -9.91538105994731
      ],
      [
        "ĠUsing",
        -9.915607498457389
      ],
      [
        "Ġclick",
        -9.916292491664713
      ],
      [
        "Ġresource",
        -9.916703280852188
      ],
      [
        "Ġleaf",
        -9.917567356356596
      ],
      [
        "cho",
        -9.917985820280652
      ],
      [
        "âĢĻt",
        -9.919821154593022
      ],
      [
        "Ġdiverse",
        -9.919930021468549
      ],
      [
        "Ġhelpful",
        -9.920343583053722
      ],
      [
        "Ġstrain",
        -9.9206017628315
      ],
      [
        "Ġmother",
        -9.921890386876967
      ],
      [
        "...Ċ",
        -9.922203532028352
      ],
      [
        "har",
        -9.922247418558076
      ],
      [
        "Ġdead",
        -9.922723185079809
      ],
      [
        "Ġexperienced",
        -9.922884798718275
      ],
      [
        "Ġstandards",
        -9.922951928136891
      ],
      [
        "Ġsweet",
        -9.92449649068267
      ],
      [
        "Ġpets",
        -9.925330338669946
      ],
      [
        "Ġkitchen",
        -9.925787532966856
      ],
      [
        "Ġinstall",
        -9.926013160199805
      ],
      [
        "Ġnumerous",
        -9.926153359198288
      ],
      [
        "ĠCr",
        -9.92721822537627
      ],
      [
        "Ġcomprehensive",
        -9.927634536754509
      ],
      [
        "Ġmixture",
        -9.927859379429597
      ],
      [
        "ries",
        -9.92828770198074
      ],
      [
        "Ġmonitor",
        -9.928857326795404
      ],
      [
        "hal",
        -9.93061568579354
      ],
      [
        "Ġaware",
        -9.931512061258031
      ],
      [
        "Ġtransport",
        -9.931681003419715
      ],
      [
        "||",
        -9.931826082931495
      ],
      [
        "Ġteacher",
        -9.932563388635142
      ],
      [
        "Ġplate",
        -9.93296831017325
      ],
      [
        "Ġpainting",
        -9.9331779190158
      ],
      [
        "Ġtrade",
        -9.93323717099105
      ],
      [
        "Ġsend",
        -9.93477372840156
      ],
      [
        "Ġsurvive",
        -9.934895635588978
      ],
      [
        "Ġma",
        -9.935860065502045
      ],
      [
        "set",
        -9.936401948807037
      ],
      [
        "Ġtransition",
        -9.93647744707214
      ],
      [
        "ĠAustralia",
        -9.936746003032962
      ],
      [
        "Ġmode",
        -9.937549844061705
      ],
      [
        "ĠOver",
        -9.938056834288837
      ],
      [
        "Ġremoved",
        -9.93807216608618
      ],
      [
        "Ġchanged",
        -9.939195567618814
      ],
      [
        "Ġgear",
        -9.939270492483216
      ],
      [
        "Ġhealthcare",
        -9.939386582312164
      ],
      [
        "Ġreality",
        -9.939488021029865
      ],
      [
        "Ġmaybe",
        -9.93968949181432
      ],
      [
        "Ġinfections",
        -9.93971609976647
      ],
      [
        "My",
        -9.94038184510382
      ],
      [
        "Ġanxiety",
        -9.941645425623005
      ],
      [
        "ants",
        -9.941974733526797
      ],
      [
        "ĠGu",
        -9.94240564741435
      ],
      [
        "Ġlighting",
        -9.942817973531454
      ],
      [
        "itis",
        -9.942933394613092
      ],
      [
        "Ġessay",
        -9.943907113224038
      ],
      [
        "Ġpair",
        -9.944088817984008
      ],
      [
        "ER",
        -9.945750969630016
      ],
      [
        "Ġestablished",
        -9.945766184734678
      ],
      [
        "Ġsensor",
        -9.946377276630043
      ],
      [
        "ung",
        -9.946420719962196
      ],
      [
        "ĠNi",
        -9.946564710938974
      ],
      [
        "Ġheld",
        -9.947570323008676
      ],
      [
        "Ġsurgery",
        -9.948111139166697
      ],
      [
        "Ġdiscussion",
        -9.948721215284802
      ],
      [
        "cer",
        -9.94889195612529
      ],
      [
        "Ġpollution",
        -9.95088274015917
      ],
      [
        "ĠBi",
        -9.950973449675883
      ],
      [
        "Ġtail",
        -9.9512763586082
      ],
      [
        "ĠEuropean",
        -9.951409500101384
      ],
      [
        "which",
        -9.951901759601949
      ],
      [
        "uff",
        -9.952100110847114
      ],
      [
        "col",
        -9.952165419402462
      ],
      [
        "Ġartificial",
        -9.952236141339627
      ],
      [
        "Ġalcohol",
        -9.952924667255424
      ],
      [
        "Ġmuscles",
        -9.952955574898636
      ],
      [
        "kin",
        -9.954301475539594
      ],
      [
        "ĠChina",
        -9.95444572606711
      ],
      [
        "Ġclaim",
        -9.954570034124211
      ],
      [
        "Ġdesired",
        -9.954659937210067
      ],
      [
        "Ġfill",
        -9.955218500653768
      ],
      [
        "Ġoffering",
        -9.955557239495208
      ],
      [
        "Ġreduction",
        -9.9556022945374
      ],
      [
        "Ġworked",
        -9.955702449149642
      ],
      [
        "Ġfoundation",
        -9.955955159331271
      ],
      [
        "Ġapproximately",
        -9.95610520487502
      ],
      [
        "LE",
        -9.956136586278449
      ],
      [
        "Ġupper",
        -9.957051072925736
      ],
      [
        "book",
        -9.957164755469474
      ],
      [
        "Ġchemicals",
        -9.958910308672682
      ],
      [
        "ĠCor",
        -9.961412237720126
      ],
      [
        "Ġcreation",
        -9.96180482583789
      ],
      [
        "Ġcard",
        -9.96225269514683
      ],
      [
        "Ġtransmission",
        -9.962330730209173
      ],
      [
        "Ġbusinesses",
        -9.962433083308456
      ],
      [
        "Ġfruits",
        -9.96289867106314
      ],
      [
        "Ġlegal",
        -9.963416208834856
      ],
      [
        "Ġmorning",
        -9.963425562791183
      ],
      [
        "Ġdefined",
        -9.964171516924909
      ],
      [
        "car",
        -9.96419249498716
      ],
      [
        "ĠUn",
        -9.964638980930278
      ],
      [
        "Ġreceived",
        -9.965141510933792
      ],
      [
        "Ġextreme",
        -9.965183251450473
      ],
      [
        "Ġcultural",
        -9.965689836637656
      ],
      [
        "com",
        -9.965724871065603
      ],
      [
        "Ġcount",
        -9.966589884270933
      ],
      [
        "Ġfailure",
        -9.967047037148914
      ],
      [
        "Ġassessment",
        -9.96763088328483
      ],
      [
        "ĠSea",
        -9.96778870654698
      ],
      [
        "Ġcolour",
        -9.96805246982219
      ],
      [
        "Ġpump",
        -9.968970065632718
      ],
      [
        "Ġclassroom",
        -9.969956067811031
      ],
      [
        "/or",
        -9.970167506278498
      ],
      [
        "Ġtold",
        -9.970280532902716
      ],
      [
        "Ġformula",
        -9.97115771468524
      ],
      [
        "Ġconcerns",
        -9.971426794000882
      ],
      [
        "cent",
        -9.97158444334851
      ],
      [
        "Ġassist",
        -9.972714020696907
      ],
      [
        "Ġancient",
        -9.974493664650968
      ],
      [
        "Ġshowed",
        -9.975457860843214
      ],
      [
        "Ġconcrete",
        -9.975540899708705
      ],
      [
        "Ġbeneficial",
        -9.976045642369876
      ],
      [
        "Ġgold",
        -9.976937385907652
      ],
      [
        "Ġflower",
        -9.97753820848573
      ],
      [
        "ĠWell",
        -9.97754583604152
      ],
      [
        "Ġpa",
        -9.977552735345116
      ],
      [
        "Ġengineering",
        -9.977555288682415
      ],
      [
        "Ġnice",
        -9.977586018130074
      ],
      [
        "Ġsports",
        -9.978055521455117
      ],
      [
        "Ġgrown",
        -9.978634792651883
      ],
      [
        "some",
        -9.97864040066067
      ],
      [
        "Ġhighest",
        -9.979665808601458
      ],
      [
        "Ġvoice",
        -9.979898905663669
      ],
      [
        "Ġaircraft",
        -9.980484164199192
      ],
      [
        "ĠWhether",
        -9.981923989523628
      ],
      [
        "ĠHo",
        -9.98208930595211
      ],
      [
        "ĠRi",
        -9.982289600856491
      ],
      [
        "Ġperspective",
        -9.982344800196236
      ],
      [
        "ĠRiver",
        -9.982393171710182
      ],
      [
        "Ġprepare",
        -9.983053162221928
      ],
      [
        "Ġburn",
        -9.983142295562049
      ],
      [
        "ock",
        -9.983869021616249
      ],
      [
        "Ġbed",
        -9.98412082455857
      ],
      [
        "Ġgrade",
        -9.984399560612196
      ],
      [
        "Ġindustrial",
        -9.984946264515008
      ],
      [
        "Ġdental",
        -9.985479154615886
      ],
      [
        "Ġdetail",
        -9.985532741807663
      ],
      [
        "well",
        -9.985629454476795
      ],
      [
        "ĠPre",
        -9.986444872153076
      ],
      [
        "Ġmostly",
        -9.986903018362218
      ],
      [
        "Ġraw",
        -9.98742331243506
      ],
      [
        "Ġpush",
        -9.987756968067409
      ],
      [
        "Ġrisks",
        -9.987847568737696
      ],
      [
        "Ġlab",
        -9.987908221945904
      ],
      [
        "Ġearlier",
        -9.98815750783869
      ],
      [
        "-year",
        -9.988263611170352
      ],
      [
        "Ġinjury",
        -9.98878775488941
      ],
      [
        "Ġwidely",
        -9.989175710288514
      ],
      [
        "Ġvehicles",
        -9.989473722672296
      ],
      [
        "Ġheating",
        -9.989516415767005
      ],
      [
        "Ġheard",
        -9.989559998241342
      ],
      [
        "Ġoptimal",
        -9.99151689867691
      ],
      [
        "Ġcredit",
        -9.991576597239035
      ],
      [
        "Ġmaster",
        -9.992441168513624
      ],
      [
        "Ġcareer",
        -9.992945139795133
      ],
      [
        "ole",
        -9.99311418357837
      ],
      [
        "Ġprimarily",
        -9.993379660398457
      ],
      [
        "Ġformation",
        -9.993407623621772
      ],
      [
        "Ġtalking",
        -9.993453215769453
      ],
      [
        "Ġoperations",
        -9.994030732381534
      ],
      [
        "potentially",
        -9.994071845898176
      ],
      [
        "Ġcook",
        -9.994207360867623
      ],
      [
        "Ġteach",
        -9.994244989946456
      ],
      [
        "Ġplatform",
        -9.994482565600707
      ],
      [
        "Ġcontrast",
        -9.99486376375871
      ],
      [
        "Ġwait",
        -9.994960290457716
      ],
      [
        "Ġbike",
        -9.99609221573033
      ],
      [
        "Ġharmful",
        -9.996247159687334
      ],
      [
        "Ġdefinition",
        -9.996563279480728
      ],
      [
        "Ġlayers",
        -9.997441724092775
      ],
      [
        "ĠAd",
        -9.997829117413124
      ],
      [
        "Ġrespect",
        -9.997886062631974
      ],
      [
        "Ġsmell",
        -9.997956734973648
      ],
      [
        "Ġtypical",
        -9.998751670219626
      ],
      [
        "Ġelectronic",
        -9.99934366785642
      ],
      [
        "Ġcup",
        -10.00134763301966
      ],
      [
        "Ġclasses",
        -10.001360222070424
      ],
      [
        "Ġsaying",
        -10.001377975773035
      ],
      [
        "Ġbiological",
        -10.002268176094544
      ],
      [
        "Most",
        -10.0026262789504
      ],
      [
        "ĠIndian",
        -10.002815811519833
      ],
      [
        "ĠDuring",
        -10.00298690318658
      ],
      [
        "Ġexposed",
        -10.003143347067727
      ],
      [
        "Your",
        -10.003712155101876
      ],
      [
        "mic",
        -10.003999243670592
      ],
      [
        "Ġreleased",
        -10.004072454984035
      ],
      [
        "Ġparent",
        -10.005768540406562
      ],
      [
        "Ġprivate",
        -10.006288853824632
      ],
      [
        "Ġcapture",
        -10.006745560592869
      ],
      [
        "istic",
        -10.006891304394516
      ],
      [
        "ĠFi",
        -10.007184059702
      ],
      [
        "Ġdecisions",
        -10.007476944487712
      ],
      [
        "Ġadjust",
        -10.008323523013336
      ],
      [
        "Ġsell",
        -10.008767702344034
      ],
      [
        "Ġinvestment",
        -10.008850792331543
      ],
      [
        "Ġrice",
        -10.009168507896534
      ],
      [
        "Ġexperts",
        -10.009190545919594
      ],
      [
        "Ġindicate",
        -10.010360378958968
      ],
      [
        "Ġbottle",
        -10.010463029500771
      ],
      [
        "Ġmold",
        -10.010763923165287
      ],
      [
        "Yes",
        -10.011587184325723
      ],
      [
        "Ġpot",
        -10.01167180338058
      ],
      [
        "Ġprepared",
        -10.012217218974278
      ],
      [
        "Ġpolicy",
        -10.012400652095854
      ],
      [
        "Ġexternal",
        -10.01276209205815
      ],
      [
        "Ġeventually",
        -10.013034892680954
      ],
      [
        "Ġcomposition",
        -10.013304554499005
      ],
      [
        "Ġseek",
        -10.01357057567553
      ],
      [
        "Ġsignals",
        -10.014613956190148
      ],
      [
        "Ġnaturally",
        -10.01461933857317
      ],
      [
        "ĠPark",
        -10.01469924761122
      ],
      [
        "Ġplanting",
        -10.015057639448685
      ],
      [
        "pha",
        -10.015723778706649
      ],
      [
        "Ġbag",
        -10.016096361526278
      ],
      [
        "act",
        -10.017492022540427
      ],
      [
        "ĠMi",
        -10.01815356171073
      ],
      [
        "Ġtoward",
        -10.018167253157808
      ],
      [
        "Ġnamed",
        -10.01859678834682
      ],
      [
        "Ġfields",
        -10.018730509480958
      ],
      [
        "å",
        -10.019183346153568
      ],
      [
        "nes",
        -10.019726557085006
      ],
      [
        "Ġsettings",
        -10.019862276098856
      ],
      [
        "Ġstrategy",
        -10.0210983063367
      ],
      [
        "Ġrelevant",
        -10.021200152704465
      ],
      [
        "Ġsuit",
        -10.021936693772144
      ],
      [
        "ĠAm",
        -10.02194933668009
      ],
      [
        "row",
        -10.02314899358277
      ],
      [
        "Ġlatest",
        -10.023206579493932
      ],
      [
        "onic",
        -10.025508034850972
      ],
      [
        "ulation",
        -10.025983797690554
      ],
      [
        "Ġquantum",
        -10.0267704338144
      ],
      [
        "ĠCha",
        -10.02677692183778
      ],
      [
        "Ġenter",
        -10.026954887903637
      ],
      [
        "Ġdetailed",
        -10.027540196199874
      ],
      [
        "Ġtooth",
        -10.02790251060959
      ],
      [
        "Ġorganisms",
        -10.028019022889715
      ],
      [
        "ĠHu",
        -10.028102512721013
      ],
      [
        "lat",
        -10.02855128815952
      ],
      [
        "Ġdish",
        -10.028762868631848
      ],
      [
        "ĠDoes",
        -10.028935002044216
      ],
      [
        "Ġbright",
        -10.03078172072291
      ],
      [
        "</",
        -10.032565082051397
      ],
      [
        "Ġharm",
        -10.032928855943377
      ],
      [
        "Ġpull",
        -10.032956799228156
      ],
      [
        "Ġfollowed",
        -10.03300556266496
      ],
      [
        "ĠMon",
        -10.033342334437654
      ],
      [
        "late",
        -10.03348104723963
      ],
      [
        "PS",
        -10.033601700009651
      ],
      [
        "ual",
        -10.033752897509782
      ],
      [
        "Ġtreated",
        -10.034071714757362
      ],
      [
        "Ġmessage",
        -10.034274192929958
      ],
      [
        "Ġsequence",
        -10.034927123141896
      ],
      [
        "Ġrace",
        -10.036224866905297
      ],
      [
        "ĠBar",
        -10.036254633514304
      ],
      [
        "Ġoperating",
        -10.036755969833113
      ],
      [
        "Ġcarefully",
        -10.03757381758988
      ],
      [
        "ĠEducation",
        -10.038034478107706
      ],
      [
        "Ġtube",
        -10.038503885361594
      ],
      [
        "Ġdrugs",
        -10.03854623228217
      ],
      [
        "ĠJohn",
        -10.039148942436004
      ],
      [
        "Once",
        -10.03979928111613
      ],
      [
        "ches",
        -10.03986932743511
      ],
      [
        "Ġsecure",
        -10.039921291726142
      ],
      [
        "Ġdrink",
        -10.040009925276932
      ],
      [
        "Ġlifestyle",
        -10.041237094126098
      ],
      [
        "capable",
        -10.042444076061168
      ],
      [
        "Ġunits",
        -10.04281000581922
      ],
      [
        "Ġlens",
        -10.043284863378084
      ],
      [
        "Ġrelationships",
        -10.043949416784832
      ],
      [
        "Ġamounts",
        -10.044280516261948
      ],
      [
        "Ġeight",
        -10.04476367900099
      ],
      [
        "che",
        -10.0450857848858
      ],
      [
        "see",
        -10.046268706749917
      ],
      [
        "ĠCanada",
        -10.046321241752665
      ],
      [
        "tting",
        -10.047097591984151
      ],
      [
        "Ġfarm",
        -10.047330267108071
      ],
      [
        "Ġstories",
        -10.0484015699037
      ],
      [
        "Ġcrop",
        -10.048490206507378
      ],
      [
        "ĠFrench",
        -10.048491934812873
      ],
      [
        "Ġbeauty",
        -10.048771055347476
      ],
      [
        "ĠSan",
        -10.04935577232411
      ],
      [
        "Ġreliable",
        -10.04957039831418
      ],
      [
        "Ġoutdoor",
        -10.049631327298416
      ],
      [
        "-quality",
        -10.049923883096204
      ],
      [
        "Ġmatch",
        -10.0499747887974
      ],
      [
        "Ġintroduced",
        -10.049991393062967
      ],
      [
        "ĠTu",
        -10.051295129851916
      ],
      [
        "Ġstored",
        -10.051342570331755
      ],
      [
        "ĠPa",
        -10.051449097784278
      ],
      [
        "Ġsunlight",
        -10.0524109585552
      ],
      [
        "Ġsurvey",
        -10.052512575034328
      ],
      [
        "Ġfindings",
        -10.05262303971153
      ],
      [
        "lar",
        -10.053144169981143
      ],
      [
        "Ġcoat",
        -10.053417201667768
      ],
      [
        "Conclusion",
        -10.05375659627521
      ],
      [
        "Ġmanufacturing",
        -10.053967058792017
      ],
      [
        "Ġmagnetic",
        -10.05422238533398
      ],
      [
        "Ġthousands",
        -10.05448227154364
      ],
      [
        "lex",
        -10.054511640377385
      ],
      [
        "water",
        -10.05482582804786
      ],
      [
        "len",
        -10.054970221445425
      ],
      [
        "Ġwaves",
        -10.05505114048544
      ],
      [
        "Are",
        -10.055156721775202
      ],
      [
        "Ġvitamin",
        -10.055173178914748
      ],
      [
        "Ġfishing",
        -10.055228589458032
      ],
      [
        "iz",
        -10.055561217565463
      ],
      [
        "Ġconcentration",
        -10.055957594339034
      ],
      [
        "Ġchoosing",
        -10.056126933920892
      ],
      [
        "Ġfiber",
        -10.056317523201573
      ],
      [
        "Ġjoint",
        -10.0568963098554
      ],
      [
        "Ġnerve",
        -10.057946327915802
      ],
      [
        "Ġbrought",
        -10.06003712428322
      ],
      [
        "Ġconsistent",
        -10.060043349065388
      ],
      [
        "Ġpowder",
        -10.06046065709023
      ],
      [
        "Ġcontainer",
        -10.06049501181506
      ],
      [
        "ĠSc",
        -10.061273182510478
      ],
      [
        "cle",
        -10.061448320078531
      ],
      [
        "Ġca",
        -10.061552428506207
      ],
      [
        "Ġplans",
        -10.06158672364041
      ],
      [
        "Ġbatteries",
        -10.062291626212762
      ],
      [
        "Ġfarmers",
        -10.06339651804616
      ],
      [
        "tur",
        -10.063705609949766
      ],
      [
        "Ġzero",
        -10.064305100020254
      ],
      [
        "Ġadvantages",
        -10.064740275416227
      ],
      [
        "Ġcoffee",
        -10.064919552989032
      ],
      [
        "Ġdetermined",
        -10.065612984501517
      ],
      [
        "Ġwalls",
        -10.066675666195115
      ],
      [
        "Ġhydrogen",
        -10.066933832831772
      ],
      [
        "tter",
        -10.067603703991836
      ],
      [
        "Ġtitle",
        -10.06779360341627
      ],
      [
        "how",
        -10.06793779405311
      ],
      [
        "Ġextend",
        -10.068735418475892
      ],
      [
        "Ġprocedure",
        -10.069829681084594
      ],
      [
        "Ġmonitoring",
        -10.069894508583754
      ],
      [
        "part",
        -10.070010919260865
      ],
      [
        "off",
        -10.070455405871009
      ],
      [
        "ĠGreat",
        -10.070681730596403
      ],
      [
        "Ġstone",
        -10.07082069850416
      ],
      [
        "Ġsamples",
        -10.071138474822089
      ],
      [
        "ĠGreen",
        -10.071195207670293
      ],
      [
        "ĠDa",
        -10.07160593336826
      ],
      [
        "nce",
        -10.071869488596052
      ],
      [
        "ound",
        -10.072786431765802
      ],
      [
        "Ġaudience",
        -10.0734153685465
      ],
      [
        "Ġraise",
        -10.073416291769208
      ],
      [
        "ĠSystem",
        -10.073457581542844
      ],
      [
        "ĠBlack",
        -10.073939699703256
      ],
      [
        "-being",
        -10.07469011088268
      ],
      [
        "Ġclinical",
        -10.074883296849292
      ],
      [
        "Ġjournal",
        -10.074965308717555
      ],
      [
        "Finally",
        -10.074978125437736
      ],
      [
        "ĠSte",
        -10.075253448727612
      ],
      [
        "Ġmachines",
        -10.075565679708635
      ],
      [
        "Ġkept",
        -10.07594206301264
      ],
      [
        "that",
        -10.077210246915811
      ],
      [
        "Ġperformed",
        -10.077235262174538
      ],
      [
        "lie",
        -10.07778057455955
      ],
      [
        "ĠGoogle",
        -10.078070299697824
      ],
      [
        "ĠJune",
        -10.078297819457893
      ],
      [
        "Ġintelligence",
        -10.078794524071872
      ],
      [
        "Ġplayer",
        -10.078808792123729
      ],
      [
        "Ġcombined",
        -10.079134900421383
      ],
      [
        "Ġattempt",
        -10.079221398045084
      ],
      [
        "-time",
        -10.079294494600044
      ],
      [
        "Ġdiagram",
        -10.07960530321466
      ],
      [
        "ĠMan",
        -10.079731160058037
      ],
      [
        "Ġlights",
        -10.079838371054832
      ],
      [
        "Ġcatch",
        -10.08050802519421
      ],
      [
        "read",
        -10.081652734073735
      ],
      [
        "Ġhole",
        -10.082016655697522
      ],
      [
        "ĠBritish",
        -10.082132255521651
      ],
      [
        "Ġphotos",
        -10.08214056403923
      ],
      [
        "Ġmainly",
        -10.082276016519309
      ],
      [
        "OS",
        -10.0826128529322
      ],
      [
        "Many",
        -10.082836342303036
      ],
      [
        "Ġdensity",
        -10.083126454970431
      ],
      [
        "Ġstatus",
        -10.0838450091909
      ],
      [
        "Ġauto",
        -10.083934368500358
      ],
      [
        "Ġminimum",
        -10.08442081289381
      ],
      [
        "Ġlegs",
        -10.08506890329814
      ],
      [
        "Â·",
        -10.085189826227976
      ],
      [
        "Ġcollege",
        -10.085777817146733
      ],
      [
        "Ġvalve",
        -10.085823010399244
      ],
      [
        "par",
        -10.0858792502013
      ],
      [
        "Ġaspect",
        -10.08597384288268
      ],
      [
        "Ġstring",
        -10.086547558175784
      ],
      [
        "Ġformat",
        -10.087185751650122
      ],
      [
        "bal",
        -10.087548980958118
      ],
      [
        "Ġorganizations",
        -10.089130444336496
      ],
      [
        "ook",
        -10.089350205322058
      ],
      [
        "Ġbreeding",
        -10.09013397574866
      ],
      [
        "ised",
        -10.09028276905242
      ],
      [
        "Ġsituations",
        -10.090635882808876
      ],
      [
        "referred",
        -10.09097842199045
      ],
      [
        "Ġannual",
        -10.0915742447328
      ],
      [
        "ĠMarch",
        -10.091612973549648
      ],
      [
        "ever",
        -10.092320488572216
      ],
      [
        "Ġeducational",
        -10.092325559498155
      ],
      [
        "`",
        -10.0930215591601
      ],
      [
        "ĠLu",
        -10.09317912938119
      ],
      [
        "Ġsurrounding",
        -10.093307447642667
      ],
      [
        "Ġdust",
        -10.093326201726706
      ],
      [
        "Ġawareness",
        -10.093613064953551
      ],
      [
        "Use",
        -10.094003556429026
      ],
      [
        "Ġamazing",
        -10.094014315345234
      ],
      [
        "ĠJo",
        -10.094673023416927
      ],
      [
        "but",
        -10.095167694826417
      ],
      [
        "-friendly",
        -10.095769994922067
      ],
      [
        "æ",
        -10.096518699727284
      ],
      [
        "Ġchallenging",
        -10.09730600950006
      ],
      [
        "Ġtrans",
        -10.097913244852656
      ],
      [
        "Ġuniverse",
        -10.097913416333965
      ],
      [
        "Ġmembrane",
        -10.098128331946643
      ],
      [
        "ĠTi",
        -10.099570070806006
      ],
      [
        "Ġmeasured",
        -10.10016853780989
      ],
      [
        "Ġimproving",
        -10.10049855021302
      ],
      [
        "Ġsmart",
        -10.10070341647118
      ],
      [
        "Ġapart",
        -10.101066094925724
      ],
      [
        "unt",
        -10.101467264231454
      ],
      [
        "Ġappears",
        -10.102210199561902
      ],
      [
        "Ġmobile",
        -10.102407260768032
      ],
      [
        "Ġenvironments",
        -10.10264419898518
      ],
      [
        "Ġscene",
        -10.103717168797925
      ],
      [
        "ĠApril",
        -10.104060288189345
      ],
      [
        "ĠHer",
        -10.105175245540806
      ],
      [
        "Ġschedule",
        -10.10545218982073
      ],
      [
        "low",
        -10.10701553457569
      ],
      [
        "Ġsurfaces",
        -10.107184327206385
      ],
      [
        "Ġspray",
        -10.107761201951156
      ],
      [
        "].",
        -10.108401234033554
      ],
      [
        "Ġactions",
        -10.108694287087047
      ],
      [
        "Ġchronic",
        -10.10930362903061
      ],
      [
        "qua",
        -10.109380682808863
      ],
      [
        "Ġpo",
        -10.109398815887952
      ],
      [
        "ĠPeople",
        -10.109425190356433
      ],
      [
        "truly",
        -10.109497715802746
      ],
      [
        "Ġerror",
        -10.10983353122112
      ],
      [
        "eel",
        -10.109919693923636
      ],
      [
        "serv",
        -10.110004310719324
      ],
      [
        "Ġfirm",
        -10.1107743691822
      ],
      [
        "ĠAdd",
        -10.111333960577957
      ],
      [
        "Ġmis",
        -10.112684179407957
      ],
      [
        "Ġprofessionals",
        -10.11311687551039
      ],
      [
        "Ġconcern",
        -10.113325739900931
      ],
      [
        "lies",
        -10.11380941084329
      ],
      [
        "pic",
        -10.114168327302757
      ],
      [
        "Ġcrops",
        -10.114784696061552
      ],
      [
        "ED",
        -10.1148617402739
      ],
      [
        "ĠAct",
        -10.11518677261409
      ],
      [
        "plenty",
        -10.115442762194332
      ],
      [
        "Ġdecrease",
        -10.115504373049191
      ],
      [
        "Ġworry",
        -10.115720277722756
      ],
      [
        "Ġriver",
        -10.115995692193636
      ],
      [
        "Ġfundamental",
        -10.116753749307335
      ],
      [
        "ple",
        -10.11682614980328
      ],
      [
        "ĠKa",
        -10.117346216160302
      ],
      [
        "Ġskill",
        -10.11739707827727
      ],
      [
        "Ġdecide",
        -10.117850782164805
      ],
      [
        "Ġtrust",
        -10.118851411560913
      ],
      [
        "Ġdrain",
        -10.119197537315763
      ],
      [
        "rry",
        -10.119470246679446
      ],
      [
        "Ġshowing",
        -10.120191023929811
      ],
      [
        "Ġtrain",
        -10.12024683180555
      ],
      [
        "Ġsensitive",
        -10.120746398746316
      ],
      [
        "ĠInternational",
        -10.121111162661588
      ],
      [
        "with",
        -10.121875810998478
      ],
      [
        "IT",
        -10.122296429838572
      ],
      [
        "IN",
        -10.122878973020024
      ],
      [
        "ĠArt",
        -10.12339415343938
      ],
      [
        "Ġinnovation",
        -10.125286134247384
      ],
      [
        "Ġperhaps",
        -10.125454455525194
      ],
      [
        "ties",
        -10.12616451320982
      ],
      [
        "Ġplane",
        -10.126265034957944
      ],
      [
        "Ġlaser",
        -10.127491574459537
      ],
      [
        "Ġmechanism",
        -10.127938989259082
      ],
      [
        "Ġmechanical",
        -10.127999519218594
      ],
      [
        "Ġflu",
        -10.1283072486833
      ],
      [
        "Ġstatement",
        -10.128310011205247
      ],
      [
        "Ġsolve",
        -10.12837670997308
      ],
      [
        "lam",
        -10.12850019864795
      ],
      [
        "Ġpoly",
        -10.129054897163646
      ],
      [
        "Ġbite",
        -10.129700819102831
      ],
      [
        "Ġlabel",
        -10.13019514568563
      ],
      [
        "Ġwhose",
        -10.13204408351519
      ],
      [
        "Ġplays",
        -10.13222428512067
      ],
      [
        "Ġmajority",
        -10.132305760192386
      ],
      [
        "ĠCl",
        -10.13248430591228
      ],
      [
        "Ġleaving",
        -10.133621788950466
      ],
      [
        "Ġattract",
        -10.133971440666148
      ],
      [
        "mar",
        -10.133985776127243
      ],
      [
        "Ġprior",
        -10.134338406895733
      ],
      [
        "head",
        -10.135371147640162
      ],
      [
        "Ġthick",
        -10.13569006010613
      ],
      [
        "Ġprinting",
        -10.136047984983318
      ],
      [
        "und",
        -10.136784406040356
      ],
      [
        "Ġenable",
        -10.137107457885554
      ],
      [
        "Ġexhibit",
        -10.137423838383317
      ],
      [
        "focused",
        -10.138867448991329
      ],
      [
        "ĠGarden",
        -10.13922774986669
      ],
      [
        "ĠLight",
        -10.139297232598578
      ],
      [
        "Ġchocolate",
        -10.140426059828034
      ],
      [
        "Ġchoices",
        -10.14050091657385
      ],
      [
        "Ġportion",
        -10.140639934020609
      ],
      [
        "ĠHis",
        -10.140812979311312
      ],
      [
        "Pro",
        -10.14089272545468
      ],
      [
        "Ġowner",
        -10.140937393889036
      ],
      [
        "Ġbreast",
        -10.14126138001606
      ],
      [
        "Ġwheel",
        -10.141434187211471
      ],
      [
        "Ġpreviously",
        -10.142100194730224
      ],
      [
        "ware",
        -10.14210338596562
      ],
      [
        "Ġspeaker",
        -10.14302156608386
      ],
      [
        "Ġestimated",
        -10.1430600873419
      ],
      [
        "ĠBio",
        -10.143121320000605
      ],
      [
        "Ġpictures",
        -10.144678284285742
      ],
      [
        "Ġleads",
        -10.144948716454577
      ],
      [
        "Ġopening",
        -10.146901953548996
      ],
      [
        "Ġradiation",
        -10.147800682133685
      ],
      [
        "Ġfilled",
        -10.148420777240334
      ],
      [
        "Ġarm",
        -10.149003911500923
      ],
      [
        "ĠWork",
        -10.149545254283302
      ],
      [
        "Ġborn",
        -10.15076240999946
      ],
      [
        "Ġpure",
        -10.150771528668704
      ],
      [
        "ĠBoth",
        -10.151087800704012
      ],
      [
        "Ġagree",
        -10.151985074551517
      ],
      [
        "ĠLED",
        -10.152520819659594
      ],
      [
        "Ġmill",
        -10.152945677104714
      ],
      [
        "Ġtechnical",
        -10.153646324455773
      ],
      [
        "â",
        -10.154695130472591
      ],
      [
        "Ġselected",
        -10.15521150538821
      ],
      [
        "Ġpercentage",
        -10.15548544604646
      ],
      [
        "ĠRed",
        -10.155531042105952
      ],
      [
        "AN",
        -10.1556607984072
      ],
      [
        "Ġfix",
        -10.156059298018846
      ],
      [
        "Ġbees",
        -10.156271912225863
      ],
      [
        "ĠAfrican",
        -10.156852504320154
      ],
      [
        "Ġdesigns",
        -10.156959500019758
      ],
      [
        "Ġdepend",
        -10.157004892722943
      ],
      [
        "ments",
        -10.15715096510529
      ],
      [
        "Ġgenerated",
        -10.157313199186929
      ],
      [
        "Ġstarts",
        -10.157418871678107
      ],
      [
        "Ġgap",
        -10.157860135263372
      ],
      [
        "ological",
        -10.157966976704612
      ],
      [
        "ĠEn",
        -10.158041665845488
      ],
      [
        "Ġmission",
        -10.15885773876187
      ],
      [
        "ising",
        -10.159221262112462
      ],
      [
        "turned",
        -10.159431312549277
      ],
      [
        "Ġvisible",
        -10.15980962585892
      ],
      [
        "ĠEnergy",
        -10.16028998233006
      ],
      [
        "RE",
        -10.160298329447771
      ],
      [
        "Ġrequest",
        -10.160373329260551
      ],
      [
        "Ġforces",
        -10.160835559892671
      ],
      [
        "ĠGra",
        -10.161274152074329
      ],
      [
        "Ġclothing",
        -10.161985437943956
      ],
      [
        "wood",
        -10.162104313492932
      ],
      [
        "aster",
        -10.16225810528055
      ],
      [
        "Ġbutter",
        -10.162486387652798
      ],
      [
        "Ġfeedback",
        -10.162671706326304
      ],
      [
        "Ġtried",
        -10.162707126838724
      ],
      [
        "Ġconducted",
        -10.163478450742453
      ],
      [
        "Ġfamiliar",
        -10.1641129814286
      ],
      [
        "Let",
        -10.164394993107946
      ],
      [
        "Ġboat",
        -10.1648754657851
      ],
      [
        "Ġrecognize",
        -10.166078579416787
      ],
      [
        "Ġstable",
        -10.16676867336511
      ],
      [
        "Ġminerals",
        -10.166939344648496
      ],
      [
        "Ġrefers",
        -10.167338044899063
      ],
      [
        "pre",
        -10.167455635230096
      ],
      [
        "Ġbones",
        -10.169361609057654
      ],
      [
        "Ġinstallation",
        -10.16968468382768
      ],
      [
        "Ġarray",
        -10.169932431074832
      ],
      [
        "Ġcertainly",
        -10.17092484063316
      ],
      [
        "Ġcm",
        -10.171059934430634
      ],
      [
        "ĠAC",
        -10.171163056027062
      ],
      [
        "Ġsecret",
        -10.17235409149547
      ],
      [
        "Ġtreatments",
        -10.172367283610182
      ],
      [
        "Ġcream",
        -10.172857303021788
      ],
      [
        "Ġshot",
        -10.17358155036613
      ],
      [
        "Ġlawn",
        -10.173640380349708
      ],
      [
        "-related",
        -10.175163823799668
      ],
      [
        "ĠProgram",
        -10.17524535809473
      ],
      [
        "worm",
        -10.175257647785084
      ],
      [
        "hen",
        -10.175807430752556
      ],
      [
        "Ġfossil",
        -10.17621043988098
      ],
      [
        "Ġshapes",
        -10.176408791172596
      ],
      [
        "Ġbudget",
        -10.176586808862538
      ],
      [
        "matic",
        -10.176675263585285
      ],
      [
        "Ġbelief",
        -10.177311767576503
      ],
      [
        "Ġparticipants",
        -10.177581593248348
      ],
      [
        "Ġphotography",
        -10.177861877968374
      ],
      [
        "Ġshift",
        -10.178020801020311
      ],
      [
        "Ġexpand",
        -10.17826756575636
      ],
      [
        "Ġotherwise",
        -10.178343588724712
      ],
      [
        "Ġdeliver",
        -10.178701766091258
      ],
      [
        "Ġbrush",
        -10.178731037875808
      ],
      [
        "Ġconsidering",
        -10.178792466045458
      ],
      [
        "Ġintake",
        -10.179527640415536
      ],
      [
        "iness",
        -10.179830134937912
      ],
      [
        "ery",
        -10.180369720365311
      ],
      [
        "SE",
        -10.180834395487809
      ],
      [
        "Ġtea",
        -10.180850312387763
      ],
      [
        "Ġdocument",
        -10.180951073007648
      ],
      [
        "vol",
        -10.181140758878495
      ],
      [
        "gle",
        -10.181309477017669
      ],
      [
        "Ġproducing",
        -10.181390879305445
      ],
      [
        "ign",
        -10.181412730912127
      ],
      [
        "Ġpresented",
        -10.182952013672018
      ],
      [
        "Ġstrip",
        -10.183370049311744
      ],
      [
        "Ġpress",
        -10.183387330708891
      ],
      [
        "Ġrecovery",
        -10.18358227992432
      ],
      [
        "Ġreactions",
        -10.183922528918782
      ],
      [
        "uk",
        -10.183972415192136
      ],
      [
        "Ġurban",
        -10.184006232957616
      ],
      [
        "than",
        -10.184206808192114
      ],
      [
        "Ġbread",
        -10.184620452521626
      ],
      [
        "Ġmap",
        -10.185128284877877
      ],
      [
        "Ġseven",
        -10.18528966191952
      ],
      [
        "Ġexcessive",
        -10.185858870977462
      ],
      [
        "Ġcounter",
        -10.186413933464577
      ],
      [
        "ĠJe",
        -10.186587961423344
      ],
      [
        "Ġinterface",
        -10.186659054999597
      ],
      [
        "Ġcompetition",
        -10.187412010450055
      ],
      [
        "Ġnews",
        -10.187733512821971
      ],
      [
        "Ġcompounds",
        -10.188658083296533
      ],
      [
        "don",
        -10.189209876599469
      ],
      [
        "Ġdisorders",
        -10.189366489668416
      ],
      [
        "Ġinner",
        -10.18975341477938
      ],
      [
        "ĠWest",
        -10.190070089668623
      ],
      [
        "Ġinternet",
        -10.190123171476811
      ],
      [
        "Ġatoms",
        -10.190454593165573
      ],
      [
        "Ġinflammation",
        -10.191086929215423
      ],
      [
        "ĠKeep",
        -10.19126844657262
      ],
      [
        "Ġemergency",
        -10.191569895971952
      ],
      [
        "ĠCare",
        -10.19160577489779
      ],
      [
        "CO",
        -10.191928100990555
      ],
      [
        "graphic",
        -10.192450395697952
      ],
      [
        "First",
        -10.19267239598696
      ],
      [
        "Ġvirtual",
        -10.192766942998515
      ],
      [
        "like",
        -10.193696549519188
      ],
      [
        "Ġengage",
        -10.193990030480991
      ],
      [
        "Ġcooling",
        -10.194381209675718
      ],
      [
        "Ġha",
        -10.194729320097364
      ],
      [
        "Ġvarieties",
        -10.194775419403951
      ],
      [
        "Ġsauce",
        -10.195085213601132
      ],
      [
        "Ġdescription",
        -10.195320764842403
      ],
      [
        "ĠControl",
        -10.19536803423306
      ],
      [
        "Ġcommunicate",
        -10.195503195098874
      ],
      [
        "Ġdistinct",
        -10.195733954573678
      ],
      [
        "bar",
        -10.196034456443286
      ],
      [
        "According",
        -10.196908248447444
      ],
      [
        "Ġband",
        -10.197131247354411
      ],
      [
        "ĠLife",
        -10.197298467696807
      ],
      [
        "ĠJuly",
        -10.197341531106684
      ],
      [
        "Ġelectrons",
        -10.197556081245468
      ],
      [
        "Dr",
        -10.199037227906262
      ],
      [
        "ĠDesign",
        -10.199169420886616
      ],
      [
        "bri",
        -10.199243318913162
      ],
      [
        "Ġdisorder",
        -10.1993522942407
      ],
      [
        "Ġcontrolled",
        -10.199402911584588
      ],
      [
        "Ġfunctional",
        -10.200160760108302
      ],
      [
        "Ġmention",
        -10.200255563745422
      ],
      [
        "ĠCity",
        -10.200274578884164
      ],
      [
        "Ġnormally",
        -10.200358321622533
      ],
      [
        "Ġwhatever",
        -10.200598566192568
      ],
      [
        "Ġexpert",
        -10.20086364893039
      ],
      [
        "Ġdiversity",
        -10.201222607655431
      ],
      [
        "Ġsurvival",
        -10.20146134799982
      ],
      [
        "Ġwalking",
        -10.201586763551507
      ],
      [
        "Ġconsists",
        -10.201724718061596
      ],
      [
        "Ġkinds",
        -10.20206400986695
      ],
      [
        "Ġsold",
        -10.202484332276912
      ],
      [
        "Ġnutrition",
        -10.202539801020496
      ],
      [
        "ĠPlant",
        -10.20303730603708
      ],
      [
        "Ġboost",
        -10.20436470021752
      ],
      [
        "New",
        -10.205496661143696
      ],
      [
        "uck",
        -10.205511636059802
      ],
      [
        "dam",
        -10.205797134697448
      ],
      [
        "Ġpurposes",
        -10.207233220706977
      ],
      [
        "ĠTake",
        -10.207293456180064
      ],
      [
        "ĠDis",
        -10.207477578495798
      ],
      [
        "Ġconcepts",
        -10.207723917240887
      ],
      [
        "Ġtall",
        -10.208985898205702
      ],
      [
        "tract",
        -10.209536019004895
      ],
      [
        "ĠGa",
        -10.20966759487284
      ],
      [
        "bra",
        -10.209725886995226
      ],
      [
        "Ġprinciples",
        -10.209969733465822
      ],
      [
        "Ġclosely",
        -10.210948227293429
      ],
      [
        "Ġcap",
        -10.211424882113802
      ],
      [
        "Ġoven",
        -10.211678072372337
      ],
      [
        "Ġmath",
        -10.21198267710692
      ],
      [
        "Ġbroad",
        -10.212261741479686
      ],
      [
        "Ġimp",
        -10.212627938384124
      ],
      [
        "Ġship",
        -10.213094106654877
      ],
      [
        "shared",
        -10.213749646619489
      ],
      [
        "Ġcompare",
        -10.21377476211256
      ],
      [
        "Ġwarming",
        -10.213988344741788
      ],
      [
        "Ġdamaged",
        -10.214712599455035
      ],
      [
        "Ġmixed",
        -10.21506296524569
      ],
      [
        "slowly",
        -10.21559359530348
      ],
      [
        "Ġcopper",
        -10.215923872906393
      ],
      [
        "Ġcarried",
        -10.216061258272306
      ],
      [
        "ĠHome",
        -10.217074308168872
      ],
      [
        "CH",
        -10.217330868260351
      ],
      [
        "ĠII",
        -10.217867082639136
      ],
      [
        "Ġaffects",
        -10.218538628713404
      ],
      [
        "Ġchapter",
        -10.21880886102974
      ],
      [
        "Ġwonder",
        -10.21881844983457
      ],
      [
        "Ġdecided",
        -10.218930777516686
      ],
      [
        "Ġbowl",
        -10.219133189610677
      ],
      [
        "gri",
        -10.21966171441887
      ],
      [
        "Ġsharp",
        -10.219738984475196
      ],
      [
        "Ġunless",
        -10.219853368009812
      ],
      [
        "lit",
        -10.220001847241754
      ],
      [
        "IS",
        -10.220430892103357
      ],
      [
        "Ġadapt",
        -10.220577039638751
      ],
      [
        "ĠSeptember",
        -10.220917344940847
      ],
      [
        "Ġwouldn",
        -10.221126280057298
      ],
      [
        "ball",
        -10.221852536790506
      ],
      [
        "Ġlinked",
        -10.222060500574267
      ],
      [
        "Ġexcess",
        -10.222082797047468
      ],
      [
        "Ġbond",
        -10.22255157386142
      ],
      [
        "Ġdecades",
        -10.2225613740743
      ],
      [
        "Ġdishes",
        -10.223058340120872
      ],
      [
        "ĠLake",
        -10.223192362389646
      ],
      [
        "Ġdownload",
        -10.223271144640398
      ],
      [
        "Ġsets",
        -10.224426939481392
      ],
      [
        "Ġinsights",
        -10.22443337432692
      ],
      [
        "Ġspent",
        -10.224751006174298
      ],
      [
        "Ġfair",
        -10.225257023374583
      ],
      [
        "Ġkit",
        -10.225385380993036
      ],
      [
        "Ġleg",
        -10.225869339303086
      ],
      [
        "Ġimpacts",
        -10.22637798140133
      ],
      [
        "Ġdiscover",
        -10.226590390367509
      ],
      [
        "Ġprofessor",
        -10.226908170153074
      ],
      [
        "Ġinteract",
        -10.226915287188966
      ],
      [
        "Ġpop",
        -10.227071988898611
      ],
      [
        "Ġdemonstrate",
        -10.228019800644168
      ],
      [
        "Ġabsorb",
        -10.228364020544602
      ],
      [
        "Ġdefine",
        -10.228652932970023
      ],
      [
        "bit",
        -10.228741910991657
      ],
      [
        "Ġholes",
        -10.229470615503525
      ],
      [
        "Ġhomes",
        -10.22965165816593
      ],
      [
        "ĠCheck",
        -10.23041494406988
      ],
      [
        "ĠPart",
        -10.23062101042228
      ],
      [
        "Ġtraffic",
        -10.23083623347182
      ],
      [
        "Ġtight",
        -10.231298413326655
      ],
      [
        "Ġtested",
        -10.23222684283267
      ],
      [
        "Ġhospital",
        -10.232995137915692
      ],
      [
        "gre",
        -10.233100548956935
      ],
      [
        "Ġseeing",
        -10.233146695240205
      ],
      [
        "right",
        -10.233243437612533
      ],
      [
        "Ġgreenhouse",
        -10.234070976080885
      ],
      [
        "from",
        -10.234857161585708
      ],
      [
        "Ġminimize",
        -10.23526634261004
      ],
      [
        "mus",
        -10.235963523560825
      ],
      [
        "Ġconsume",
        -10.235982631863743
      ],
      [
        "Ġcorrectly",
        -10.236229086481226
      ],
      [
        "Ġtax",
        -10.236462997769538
      ],
      [
        "Ġconvert",
        -10.23654171253455
      ],
      [
        "Ġtopics",
        -10.23691257273879
      ],
      [
        "Ġport",
        -10.237198860050997
      ],
      [
        "ĠAugust",
        -10.237273037646926
      ],
      [
        "ĠSee",
        -10.238226552803312
      ],
      [
        "you",
        -10.23833112744048
      ],
      [
        "mel",
        -10.238544771446811
      ],
      [
        "ĠBu",
        -10.238556916326797
      ],
      [
        "Ġsport",
        -10.238823478117604
      ],
      [
        "ates",
        -10.238927831272326
      ],
      [
        "coming",
        -10.239072418260442
      ],
      [
        "Ġputting",
        -10.239313182846066
      ],
      [
        "Ġcontaining",
        -10.23931656882083
      ],
      [
        "Ġclearly",
        -10.239497399028616
      ],
      [
        "Ġpregnancy",
        -10.23975186375845
      ],
      [
        "app",
        -10.23988663040648
      ],
      [
        "vent",
        -10.24041905667103
      ],
      [
        "Ġrely",
        -10.240494239602816
      ],
      [
        "Ġhunting",
        -10.240798609788872
      ],
      [
        "AS",
        -10.241199391291472
      ],
      [
        "ĠRead",
        -10.241225431560238
      ],
      [
        "ĠMc",
        -10.24152280203463
      ],
      [
        "try",
        -10.241537663718358
      ],
      [
        "ration",
        -10.241552419899532
      ],
      [
        "Ġsent",
        -10.241870441207116
      ],
      [
        "Ġinteraction",
        -10.242274751263318
      ],
      [
        "Ġahead",
        -10.24235822986052
      ],
      [
        "Ġsex",
        -10.242532865901271
      ],
      [
        "ense",
        -10.24367826809122
      ],
      [
        "ĠSun",
        -10.24476964211997
      ],
      [
        "Ġprey",
        -10.246167801017265
      ],
      [
        "Ġcalcium",
        -10.24681169633592
      ],
      [
        "Ġcustom",
        -10.246948671294057
      ],
      [
        "Ġattached",
        -10.247095743130462
      ],
      [
        "cap",
        -10.247269689169094
      ],
      [
        "Ġguidelines",
        -10.247710800343386
      ],
      [
        "han",
        -10.248073572977066
      ],
      [
        "Ġbehaviour",
        -10.248215165896736
      ],
      [
        "US",
        -10.248369701643975
      ],
      [
        "Ġmanner",
        -10.248665745680476
      ],
      [
        "Ġmeeting",
        -10.248926192499958
      ],
      [
        "Ġbigger",
        -10.24905749237311
      ],
      [
        "Ġensures",
        -10.24917694621045
      ],
      [
        "vel",
        -10.24948944654901
      ],
      [
        "Ġloop",
        -10.250525667565082
      ],
      [
        "ĠThus",
        -10.250588819366175
      ],
      [
        "rum",
        -10.250605061728104
      ],
      [
        "Ġmolecular",
        -10.25068230209718
      ],
      [
        "Ġprofile",
        -10.250868244634336
      ],
      [
        "Ġtoxic",
        -10.251249616841466
      ],
      [
        "Ġdatabase",
        -10.251352391061593
      ],
      [
        "cha",
        -10.251353926189744
      ],
      [
        "Ġrandom",
        -10.251669107906816
      ],
      [
        "Ġaccuracy",
        -10.252441742499892
      ],
      [
        "Ġthrive",
        -10.253534769086963
      ],
      [
        "Ġnorth",
        -10.25400170036694
      ],
      [
        "Ġcloser",
        -10.254491223539729
      ],
      [
        "Ġacids",
        -10.254936500796411
      ],
      [
        "Ġorigin",
        -10.255346951367212
      ],
      [
        "Ġstomach",
        -10.255863737190232
      ],
      [
        "Ġcreatures",
        -10.256327527575213
      ],
      [
        "ĠInstead",
        -10.256345316848511
      ],
      [
        "Ġnano",
        -10.256526749896825
      ],
      [
        "gon",
        -10.256920287573418
      ],
      [
        "Ġcombine",
        -10.25707278117186
      ],
      [
        "Ġmarketing",
        -10.257466871306724
      ],
      [
        "Ġcommand",
        -10.258579415234989
      ],
      [
        "Ġyard",
        -10.258874846171684
      ],
      [
        "Ġphysics",
        -10.258900391291151
      ],
      [
        "Ġfiles",
        -10.260397441214364
      ],
      [
        "Ġrepresents",
        -10.260650366205269
      ],
      [
        "Ġneck",
        -10.261047937646952
      ],
      [
        "Ġmono",
        -10.261816159307289
      ],
      [
        "Ġhappened",
        -10.262152373768773
      ],
      [
        "Ġfinish",
        -10.262654637938722
      ],
      [
        "Ġdefinitely",
        -10.263346484981394
      ],
      [
        "ĠCounty",
        -10.263412286753123
      ],
      [
        "tru",
        -10.263627555691864
      ],
      [
        "ĠPower",
        -10.264303998389884
      ],
      [
        "ĠpH",
        -10.264516036404505
      ],
      [
        "Although",
        -10.264521420964188
      ],
      [
        "Ġcontract",
        -10.264739379644189
      ],
      [
        "Ġbuying",
        -10.264911746710151
      ],
      [
        "Ġvast",
        -10.265099811237173
      ],
      [
        "Ġspeak",
        -10.26524700046792
      ],
      [
        "Ġjoin",
        -10.265269978886751
      ],
      [
        "Ġapproaches",
        -10.265391317618873
      ],
      [
        "Ġdynamic",
        -10.265397106369557
      ],
      [
        "Ġpanel",
        -10.26580037385656
      ],
      [
        "ĠHi",
        -10.266386744870143
      ],
      [
        "ray",
        -10.26662138279514
      ],
      [
        "Ġpen",
        -10.266740848724032
      ],
      [
        "house",
        -10.267263065666585
      ],
      [
        "ĠAc",
        -10.267473992263906
      ],
      [
        "Ġroute",
        -10.267586160229962
      ],
      [
        "~",
        -10.267833127821204
      ],
      [
        "Ġguess",
        -10.268066796807338
      ],
      [
        "ĠHuman",
        -10.268659485387222
      ],
      [
        "Ġpounds",
        -10.268930305073292
      ],
      [
        "Ġturning",
        -10.26940280507302
      ],
      [
        "Ġbroken",
        -10.26961460583372
      ],
      [
        "Ġmedication",
        -10.269676849158763
      ],
      [
        "Don",
        -10.26990068439658
      ],
      [
        "Ġfan",
        -10.27028354726885
      ],
      [
        "Ġlesson",
        -10.270892512236692
      ],
      [
        "Ġcrystal",
        -10.272185994729934
      ],
      [
        "Ġcareful",
        -10.27238789577712
      ],
      [
        "Ġsizes",
        -10.272643686935158
      ],
      [
        "ĠOctober",
        -10.273121482089676
      ],
      [
        "ĠWa",
        -10.273143475388126
      ],
      [
        "Ġperiods",
        -10.273300125040786
      ],
      [
        "Ġacademic",
        -10.274448812122875
      ],
      [
        "Ġprices",
        -10.275367356995874
      ],
      [
        "Ġfixed",
        -10.275507971467016
      ],
      [
        "ĠKo",
        -10.275529452873004
      ],
      [
        "Ġpreserve",
        -10.27572365936824
      ],
      [
        "ral",
        -10.276513019754091
      ],
      [
        "Ġbalanced",
        -10.276547802731807
      ],
      [
        "Ġwish",
        -10.276973422625703
      ],
      [
        "Ġfail",
        -10.27711496028799
      ],
      [
        "From",
        -10.277314648851906
      ],
      [
        "Ġpredict",
        -10.277819552932575
      ],
      [
        "ĠDu",
        -10.27790250805672
      ],
      [
        "other",
        -10.278236725091617
      ],
      [
        "Ġobtained",
        -10.278820920935305
      ],
      [
        "Ġsheet",
        -10.2791344376137
      ],
      [
        "ĠGerman",
        -10.27934689094995
      ],
      [
        "Ġintended",
        -10.28002887567496
      ],
      [
        "ĠLike",
        -10.28036582112092
      ],
      [
        "Ġthermal",
        -10.280461687790323
      ],
      [
        "ĠAbout",
        -10.280488509260469
      ],
      [
        "Ġreplacement",
        -10.28075096576789
      ],
      [
        "Ġthrow",
        -10.281191037341998
      ],
      [
        "MS",
        -10.281222645774134
      ],
      [
        "Moreover",
        -10.28131324667299
      ],
      [
        "Ġeconomy",
        -10.281745483999536
      ],
      [
        "Ġvideos",
        -10.281883783973752
      ],
      [
        "Ġinstalled",
        -10.282047933574802
      ],
      [
        "Ġpassed",
        -10.28214099144738
      ],
      [
        "Ġfelt",
        -10.282178312877868
      ],
      [
        "Ġreflect",
        -10.282291000322983
      ],
      [
        "ĠPlan",
        -10.282397824203258
      ],
      [
        "Ġtown",
        -10.28331695024233
      ],
      [
        "âĢ¦ĊĊ",
        -10.283652289576452
      ],
      [
        "Ġsubstance",
        -10.283768601797654
      ],
      [
        "PA",
        -10.284307498527273
      ],
      [
        "Ġsuffer",
        -10.284431497415111
      ],
      [
        "Ġpages",
        -10.284434727176034
      ],
      [
        "Ġsharing",
        -10.28447191669653
      ],
      [
        "Ġinteractions",
        -10.284477302607192
      ],
      [
        "Ġindependent",
        -10.284747314397526
      ],
      [
        "Ġride",
        -10.285049515116006
      ],
      [
        "ction",
        -10.28540488653167
      ],
      [
        "Ġnest",
        -10.286107483516988
      ],
      [
        "Ġdioxide",
        -10.286197944690764
      ],
      [
        "Ġcoal",
        -10.286584006332784
      ],
      [
        "Ġexact",
        -10.286595511908954
      ],
      [
        "Ġdepression",
        -10.286846859577144
      ],
      [
        "rap",
        -10.286932968708136
      ],
      [
        "Ġroll",
        -10.28720510027053
      ],
      [
        "Ġlaws",
        -10.287497539928266
      ],
      [
        "Ġfamous",
        -10.287511326421518
      ],
      [
        "Ġworldwide",
        -10.28777781115606
      ],
      [
        "Ġcompound",
        -10.287826574688882
      ],
      [
        "van",
        -10.28788665258874
      ],
      [
        "rig",
        -10.287977973886512
      ],
      [
        "Ġassess",
        -10.288090675196466
      ],
      [
        "removing",
        -10.288370960503192
      ],
      [
        "Ġwoman",
        -10.288376520492134
      ],
      [
        "Ġprotected",
        -10.289985658958823
      ],
      [
        "ĠCollege",
        -10.290040296230815
      ],
      [
        "lum",
        -10.290351641182568
      ],
      [
        "Ġden",
        -10.291175015854046
      ],
      [
        "Ġdeeper",
        -10.29122229208653
      ],
      [
        "Ġcolumn",
        -10.291441341299814
      ],
      [
        "Ġstroke",
        -10.291448021335158
      ],
      [
        "Ġlocations",
        -10.291515753378976
      ],
      [
        "field",
        -10.291788900078425
      ],
      [
        "Ġtrouble",
        -10.292021054561069
      ],
      [
        "Ġrapidly",
        -10.292555040784526
      ],
      [
        "Ġtwice",
        -10.292576189619403
      ],
      [
        "Ġcomputers",
        -10.2926382221011
      ],
      [
        "Share",
        -10.29276314801912
      ],
      [
        "Ġworkers",
        -10.2939636763445
      ],
      [
        "Ġraised",
        -10.294196902477127
      ],
      [
        "Ġmirror",
        -10.294514585247509
      ],
      [
        "Ġinnovative",
        -10.294984004998222
      ],
      [
        "Ġrefer",
        -10.29549780561634
      ],
      [
        "Ġcollected",
        -10.295498133378564
      ],
      [
        "Ġsuggested",
        -10.29562862084743
      ],
      [
        "ĠRu",
        -10.295854472555892
      ],
      [
        "Ġseat",
        -10.296365270282998
      ],
      [
        "Ġmeals",
        -10.296564148256769
      ],
      [
        "ĠJanuary",
        -10.29657917137364
      ],
      [
        "Ġwin",
        -10.296682450878912
      ],
      [
        "Ġorange",
        -10.296871935324154
      ],
      [
        "Ġliver",
        -10.296911848603612
      ],
      [
        "Ġagriculture",
        -10.297598239087032
      ],
      [
        "Ġpresentation",
        -10.29795603385209
      ],
      [
        "Ġinjuries",
        -10.298405128769687
      ],
      [
        "pur",
        -10.299376457910434
      ],
      [
        "ĠGuide",
        -10.29941108593547
      ],
      [
        "Figure",
        -10.299751098410091
      ],
      [
        "Ġexchange",
        -10.30012296122742
      ],
      [
        "Ġclosed",
        -10.300255307061477
      ],
      [
        "Ġsight",
        -10.300423211416213
      ],
      [
        "Ġnitrogen",
        -10.30055745114182
      ],
      [
        "Ġestablish",
        -10.30062803320406
      ],
      [
        "uch",
        -10.30151676895505
      ],
      [
        "Ġrapid",
        -10.30152630984999
      ],
      [
        "CC",
        -10.301787484299863
      ],
      [
        "Ġecosystem",
        -10.3020933801957
      ],
      [
        "Ġwindows",
        -10.302109017484018
      ],
      [
        ".[",
        -10.302222984991593
      ],
      [
        "Ġfurniture",
        -10.30426715197915
      ],
      [
        "Ġcooked",
        -10.304587967569413
      ],
      [
        "lock",
        -10.304612229569225
      ],
      [
        "Ġoperate",
        -10.304982123567614
      ],
      [
        "bed",
        -10.305058584532638
      ],
      [
        "Ġhabits",
        -10.305314111027192
      ],
      [
        "ĠWhere",
        -10.30558124393736
      ],
      [
        "Ġbaking",
        -10.30567568731821
      ],
      [
        "Ġtip",
        -10.305997276916132
      ],
      [
        "lation",
        -10.30605946985522
      ],
      [
        "^",
        -10.306852421640844
      ],
      [
        "Ġitem",
        -10.307034224730725
      ],
      [
        "Ġpreparation",
        -10.307042511316126
      ],
      [
        "ĠProject",
        -10.30730668996906
      ],
      [
        "Ġsouth",
        -10.307328640203965
      ],
      [
        "Ġpara",
        -10.308013779004076
      ],
      [
        "ĠTHE",
        -10.308792645766417
      ],
      [
        "ĠTri",
        -10.3089059949577
      ],
      [
        "ĠChinese",
        -10.3091062253142
      ],
      [
        "Ġshoes",
        -10.309248679542854
      ],
      [
        "Ġhoney",
        -10.309266222368104
      ],
      [
        "Ġmanual",
        -10.30931159875565
      ],
      [
        "day",
        -10.309831322851077
      ],
      [
        "ĠCOVID",
        -10.310029469759698
      ],
      [
        "Ġwash",
        -10.310114748164608
      ],
      [
        "EN",
        -10.310364302562324
      ],
      [
        "Ġpe",
        -10.310515495189668
      ],
      [
        "Ġhardware",
        -10.311117338499589
      ],
      [
        "Ġbegins",
        -10.311477771688583
      ],
      [
        "Ġvector",
        -10.31162344647906
      ],
      [
        "Ġopposite",
        -10.312206393398254
      ],
      [
        "ĠTime",
        -10.312315430968612
      ],
      [
        "rim",
        -10.312432701005967
      ],
      [
        "Ġbreath",
        -10.312440852150305
      ],
      [
        "Ġobtain",
        -10.314002427878853
      ],
      [
        "Ġvariable",
        -10.314696064141051
      ],
      [
        "Ġpreventing",
        -10.31514080651652
      ],
      [
        "oil",
        -10.31531929829792
      ],
      [
        "tive",
        -10.31540563234125
      ],
      [
        "Le",
        -10.315803961031117
      ],
      [
        "Ġcurve",
        -10.315923323787704
      ],
      [
        "Ġsides",
        -10.315939697746169
      ],
      [
        "ĠTechnology",
        -10.316014254613677
      ],
      [
        "press",
        -10.31606123985208
      ],
      [
        "Ġthread",
        -10.316421849469936
      ],
      [
        "ette",
        -10.316743002618525
      ],
      [
        "ĠWhite",
        -10.317786006174318
      ],
      [
        "Ġtri",
        -10.318121114400666
      ],
      [
        "Ġnames",
        -10.318124467036467
      ],
      [
        "ong",
        -10.318443962569775
      ],
      [
        "Ġrecipe",
        -10.318472100129243
      ],
      [
        "Ġcreates",
        -10.318565709925902
      ],
      [
        "ĠWeb",
        -10.31857587127202
      ],
      [
        "Ġeliminate",
        -10.31897449527887
      ],
      [
        "Ġcraft",
        -10.319236811715111
      ],
      [
        "ET",
        -10.319266392310196
      ],
      [
        "Ġcommitment",
        -10.319436055056832
      ],
      [
        "Ġstability",
        -10.32018553899211
      ],
      [
        "Ġbiggest",
        -10.320348362876992
      ],
      [
        "Ġdiagnosis",
        -10.320464585415802
      ],
      [
        "Ġoffered",
        -10.32065273869789
      ],
      [
        "Ġsustainability",
        -10.321917403949971
      ],
      [
        "ope",
        -10.322030224840285
      ],
      [
        "phy",
        -10.322107604522108
      ],
      [
        "ency",
        -10.322247176550208
      ],
      [
        "Ġhorses",
        -10.322334649059831
      ],
      [
        "ram",
        -10.322435375646686
      ],
      [
        "ctic",
        -10.323721787407507
      ],
      [
        "Ġpests",
        -10.324444938552094
      ],
      [
        "Ġdriver",
        -10.325600227868128
      ],
      [
        "ore",
        -10.326860233934832
      ],
      [
        "ĠFlorida",
        -10.327516249877212
      ],
      [
        "Ġtape",
        -10.328125207990585
      ],
      [
        "AC",
        -10.32857716463634
      ],
      [
        "Ġtrained",
        -10.329021779373925
      ],
      [
        "ON",
        -10.329202649314883
      ],
      [
        "ĠHar",
        -10.329583074501128
      ],
      [
        "verse",
        -10.329601973606842
      ],
      [
        "Ġincreasingly",
        -10.330146264145553
      ],
      [
        "Ġstages",
        -10.33066397323077
      ],
      [
        "ĠLearning",
        -10.330800221300612
      ],
      [
        "tern",
        -10.330881573117267
      ],
      [
        "Ġmedications",
        -10.330892603564331
      ],
      [
        "Ġdiscovery",
        -10.331447767508596
      ],
      [
        "ĠTra",
        -10.331629348784762
      ],
      [
        "Ġequation",
        -10.331919082944369
      ],
      [
        "Ġcomparison",
        -10.33202196502065
      ],
      [
        "Ġexciting",
        -10.332171675986077
      ],
      [
        ";Ċ",
        -10.332244864537866
      ],
      [
        "Ġserver",
        -10.332718128697191
      ],
      [
        "Ġdetection",
        -10.333228481813206
      ],
      [
        "Ġworse",
        -10.333280857272474
      ],
      [
        "Ġturns",
        -10.333328587358936
      ],
      [
        "Ġmine",
        -10.334671153007257
      ],
      [
        "Ġdespite",
        -10.335014625283716
      ],
      [
        "Ġdelicious",
        -10.335432799721357
      ],
      [
        "Ġhistorical",
        -10.335551735527416
      ],
      [
        "Ġclothes",
        -10.336406394192576
      ],
      [
        "Ġnose",
        -10.336484894032804
      ],
      [
        "Ġreports",
        -10.336880555304107
      ],
      [
        "Ġbiology",
        -10.33688339810781
      ],
      [
        "ome",
        -10.337235759883264
      ],
      [
        "ĠClass",
        -10.337415809024712
      ],
      [
        "box",
        -10.337434957849837
      ],
      [
        "Ġforget",
        -10.337642085139892
      ],
      [
        "Ġproduces",
        -10.338053247599795
      ],
      [
        "Ġconventional",
        -10.338091819435268
      ],
      [
        "Ġcompleted",
        -10.338451571042569
      ],
      [
        "Ġflying",
        -10.338742191493216
      ],
      [
        "Ġmeasurement",
        -10.338880301090226
      ],
      [
        "Ġdedicated",
        -10.339065230474748
      ],
      [
        "Ġspeech",
        -10.339135254588058
      ],
      [
        "ĠCat",
        -10.3392017521933
      ],
      [
        "Ġindustries",
        -10.33927520178613
      ],
      [
        "Ġpolitical",
        -10.33961291575612
      ],
      [
        "ãģ",
        -10.339916890139907
      ],
      [
        "gram",
        -10.339978539269367
      ],
      [
        "Ġcapabilities",
        -10.340185809853232
      ],
      [
        "Ġpea",
        -10.340656695306125
      ],
      [
        "Ġnovel",
        -10.340790003738606
      ],
      [
        "ĠAsia",
        -10.341589998037414
      ],
      [
        "ME",
        -10.341592102220089
      ],
      [
        "Ġfriendly",
        -10.341748096333996
      ],
      [
        "Con",
        -10.341982682224367
      ],
      [
        "TH",
        -10.342017130431577
      ],
      [
        "Ġdiscussed",
        -10.342635372091722
      ],
      [
        "Ġzone",
        -10.34271085783403
      ],
      [
        "Ġthreat",
        -10.344155947852324
      ],
      [
        "hom",
        -10.344157795878242
      ],
      [
        "ink",
        -10.344561232420109
      ],
      [
        "Ġagricultural",
        -10.344820268824591
      ],
      [
        "Ġbelieved",
        -10.344980678913284
      ],
      [
        "Ġinsurance",
        -10.345172596003842
      ],
      [
        "Ġdanger",
        -10.34523585489616
      ],
      [
        "Ġpack",
        -10.34576268638128
      ],
      [
        "Car",
        -10.345977374327829
      ],
      [
        "Ġlay",
        -10.346058914904326
      ],
      [
        "Ġexploring",
        -10.346299433370744
      ],
      [
        "Ġinformed",
        -10.346393545096218
      ],
      [
        "Ġdrinking",
        -10.346507917899867
      ],
      [
        "Ġexplained",
        -10.346596816509912
      ],
      [
        "ĠHave",
        -10.346705423699357
      ],
      [
        "Ġparallel",
        -10.34684694470058
      ],
      [
        "Ġseeking",
        -10.346966224217766
      ],
      [
        "Ġpark",
        -10.347202674078506
      ],
      [
        "Ġgave",
        -10.347386501019004
      ],
      [
        "Ġsuccessfully",
        -10.347488897565718
      ],
      [
        "Ġreact",
        -10.347580384495997
      ],
      [
        "mal",
        -10.347609183950247
      ],
      [
        "fil",
        -10.348997457144051
      ],
      [
        "Ġanswers",
        -10.349157366567152
      ],
      [
        "Ġorgan",
        -10.349356273018758
      ],
      [
        "Those",
        -10.349461599430464
      ],
      [
        "Ġpackage",
        -10.349997456773616
      ],
      [
        "Ġcollect",
        -10.3502717501239
      ],
      [
        "Ġemotions",
        -10.35076497016796
      ],
      [
        "Ġlibrary",
        -10.35082097612498
      ],
      [
        "Ġregulations",
        -10.350889316142856
      ],
      [
        "place",
        -10.35152941246085
      ],
      [
        "lay",
        -10.351976465653804
      ],
      [
        "-on",
        -10.352017940705185
      ],
      [
        "lite",
        -10.35202296300118
      ],
      [
        "Ġsubstances",
        -10.35255654934278
      ],
      [
        "Ġsupplement",
        -10.352698844904744
      ],
      [
        "ĠEast",
        -10.353569152358103
      ],
      [
        "Ġindex",
        -10.35421071100371
      ],
      [
        "Qu",
        -10.354926847083892
      ],
      [
        "Ġkidney",
        -10.35501641839599
      ],
      [
        "Ġemployees",
        -10.355248366997923
      ],
      [
        "Ġconfidence",
        -10.355485821529475
      ],
      [
        "Ġprove",
        -10.356085104336
      ],
      [
        "Ġplug",
        -10.35780673210454
      ],
      [
        "Ġprogramming",
        -10.357905723320725
      ],
      [
        "Ġremote",
        -10.357926040181932
      ],
      [
        "Ġyield",
[...]
