{
  "version": "1.0",
  "truncation": null,
  "padding": null,
  "added_tokens": [
    {
      "id": 0,
      "content": "<|bos|>",
      "single_word": false,
      "lstrip": false,
      "rstrip": false,
      "normalized": false,
      "special": true
    },
    {
      "id": 1,
      "content": "<|user_start|>",
      "single_word": false,
      "lstrip": false,
      "rstrip": false,
      "normalized": false,
      "special": true
    },
    {
      "id": 2,
      "content": "<|user_end|>",
      "single_word": false,
      "lstrip": false,
      "rstrip": false,
      "normalized": false,
      "special": true
    },
    {
      "id": 3,
      "content": "<|assistant_start|>",
      "single_word": false,
      "lstrip": false,
      "rstrip": false,
      "normalized": false,
      "special": true
    },
    {
      "id": 4,
      "content": "<|assistant_end|>",
      "single_word": false,
      "lstrip": false,
      "rstrip": false,
      "normalized": false,
      "special": true
    },
    {
      "id": 5,
      "content": "<|python_start|>",
      "single_word": false,
      "lstrip": false,
      "rstrip": false,
      "normalized": false,
      "special": true
    },
    {
      "id": 6,
      "content": "<|python_end|>",
      "single_word": false,
      "lstrip": false,
      "rstrip": false,
      "normalized": false,
      "special": true
    },
    {
      "id": 7,
      "content": "<|output_start|>",
      "single_word": false,
      "lstrip": false,
      "rstrip": false,
      "normalized": false,
      "special": true
    },
    {
      "id": 8,
      "content": "<|output_end|>",
      "single_word": false,
      "lstrip": false,
      "rstrip": false,
      "normalized": false,
      "special": true
    },
    {
      "id": 9,
      "content": "<|unk|>",
      "single_word": false,
      "lstrip": false,
      "rstrip": false,
      "normalized": false,
      "special": true
    }
  ],
  "normalizer": null,
  "pre_tokenizer": {
    "type": "Sequence",
    "pretokenizers": [
      {
        "type": "Split",
        "pattern": {
          "Regex": "'(?i:[sdmt]|ll|ve|re)|[^\\r\\n\\p{L}\\p{N}]?+\\p{L}+|\\p{N}{1,2}| ?[^\\s\\p{L}\\p{N}]++[\\r\\n]*|\\s*[\\r\\n]|\\s+(?!\\S)|\\s+"
        },
        "behavior": "Isolated",
        "invert": false
      },
      {
        "type": "ByteLevel",
        "add_prefix_space": false,
        "trim_offsets": true,
        "use_regex": false
      }
    ]
  },
  "post_processor": {
    "type": "TemplateProcessing",
    "single": [
      {
        "Sequence": {
          "id": "A",
          "type_id": 0
        }
      }
    ],
    "pair": [
      {
        "Sequence": {
          "id": "A",
          "type_id": 0
        }
      },
      {
        "Sequence": {
          "id": "B",
          "type_id": 1
        }
      }
    ],
    "special_tokens": {}
  },
  "decoder": null,
  "model": {
    "type": "Unigram",
    "unk_id": 9,
    "vocab": [
      [
        "<|bos|>",
        0.0
      ],
      [
        "<|user_start|>",
        0.0
      ],
      [
        "<|user_end|>",
        0.0
      ],
      [
        "<|assistant_start|>",
        0.0
      ],
      [
        "<|assistant_end|>",
        0.0
      ],
      [
        "<|python_start|>",
        0.0
      ],
      [
        "<|python_end|>",
        0.0
      ],
      [
        "<|output_start|>",
        0.0
      ],
      [
        "<|output_end|>",
        0.0
      ],
      [
        "<|unk|>",
        0.0
      ],
      [
        "s",
        -2.9362001872641255
      ],
      [
        "Ġthe",
        -3.418694914052857
      ],
      [
        ",",
        -3.486960804801342
      ],
      [
        "Ġ",
        -3.661054549857605
      ],
      [
        ".",
        -3.790933430303516
      ],
      [
        "Ġand",
        -3.972607603006791
      ],
      [
        "Ġto",
        -4.000649859710666
      ],
      [
        "Ġof",
        -4.027099825674597
      ],
      [
        "Ġa",
        -4.128382039191791
      ],
      [
        "ing",
        -4.249925692019048
      ],
      [
        "Ġin",
        -4.524202072775973
      ],
      [
        "Ġis",
        -4.633038342713579
      ],
      [
        "ed",
        -4.686067401320763
      ],
      [
        "y",
        -4.902311749982156
      ],
      [
        "e",
        -4.9028479591326075
      ],
      [
        "d",
        -4.905353926936543
      ],
      [
        "'",
        -4.932201405067715
      ],
      [
        "Ġthat",
        -5.037785911960654
      ],
      [
        "Ġfor",
        -5.059913221466669
      ],
      [
        "ly",
        -5.066721109795862
      ],
      [
        "0",
        -5.0907651292241045
      ],
      [
        "t",
        -5.222141940029921
      ],
      [
        ":",
        -5.253358443228294
      ],
      [
        "Ġare",
        -5.257536360294365
      ],
      [
        "1",
        -5.262761434479449
      ],
      [
        ".Ċ",
        -5.285647639479448
      ],
      [
        "Ġit",
        -5.315650517070496
      ],
      [
        "Ġyou",
        -5.331634802514763
      ],
      [
        "Ġwith",
        -5.346484785738673
      ],
      [
        ".ĊĊ",
        -5.374871395492754
      ],
      [
        "Ċ",
        -5.382404100153678
      ],
      [
        "Ġbe",
        -5.4258729926360445
      ],
      [
        "-",
        -5.457382523209121
      ],
      [
        "Ġor",
        -5.48523408673508
      ],
      [
        "2",
        -5.496500897411192
      ],
      [
        "Ġon",
        -5.500535594949403
      ],
      [
        "Ġcan",
        -5.536518818886224
      ],
      [
        "ĊĊ",
        -5.628527350387655
      ],
      [
        "Ġyour",
        -5.701303008591719
      ],
      [
        "Ġas",
        -5.819147900816329
      ],
      [
        "Ġ(",
        -5.844317728818613
      ],
      [
        "n",
        -5.863844985638378
      ],
      [
        "a",
        -5.875291823654505
      ],
      [
        "Ġfrom",
        -5.9115979377620125
      ],
      [
        "Ġhave",
        -5.92163693669524
      ],
      [
        "ĠI",
        -5.92570149733503
      ],
      [
        "\"",
        -5.933646957917986
      ],
      [
        "ĠThe",
        -5.9341086300149115
      ],
      [
        "Ġby",
        -6.011199842022165
      ],
      [
        ")",
        -6.012934442188108
      ],
      [
        "Ġan",
        -6.0447872021295
      ],
      [
        "Ġthis",
        -6.070403159110619
      ],
      [
        "3",
        -6.0895542441826205
      ],
      [
        "Ġnot",
        -6.095418402585075
      ],
      [
        "?",
        -6.147262529312222
      ],
      [
        "5",
        -6.186345754252786
      ],
      [
        "Ġat",
        -6.192427030109368
      ],
      [
        "Ġwill",
        -6.233321983691958
      ],
      [
        "Ġtheir",
        -6.251732483783222
      ],
      [
        "er",
        -6.260201925333524
      ],
      [
        "o",
        -6.3181104276563715
      ],
      [
        "4",
        -6.337821713091159
      ],
      [
        "i",
        -6.349545626040962
      ],
      [
        "Ġmore",
        -6.36443081086297
      ],
      [
        "Ġthey",
        -6.3803752884047995
      ],
      [
        "r",
        -6.410569232783166
      ],
      [
        "ies",
        -6.411739608951796
      ],
      [
        "9",
        -6.4539235697133055
      ],
      [
        "Ġwas",
        -6.4645233494053045
      ],
      [
        "The",
        -6.481394363450656
      ],
      [
        "Ġbut",
        -6.500139852542992
      ],
      [
        "Ġhas",
        -6.537245745540632
      ],
      [
        "Ġwhich",
        -6.541941788068296
      ],
      [
        "Ġwe",
        -6.545877906214786
      ],
      [
        "Ġother",
        -6.564879421820391
      ],
      [
        "Ġone",
        -6.582428475254794
      ],
      [
        "Ġalso",
        -6.601190375058996
      ],
      [
        "6",
        -6.605626393898504
      ],
      [
        "m",
        -6.625052240197096
      ],
      [
        "ĠA",
        -6.627548989045417
      ],
      [
        "Question",
        -6.638223116016995
      ],
      [
        "ĠAnswer",
        -6.6579764890522295
      ],
      [
        "8",
        -6.661820952170659
      ],
      [
        "Ġall",
        -6.663819850406037
      ],
      [
        "on",
        -6.671071118780086
      ],
      [
        "Ġlike",
        -6.688382544498385
      ],
      [
        "Ġabout",
        -6.6971516700811655
      ],
      [
        "al",
        -6.731029727080301
      ],
      [
        "Ġwhen",
        -6.757490600439356
      ],
      [
        "7",
        -6.760688235301496
      ],
      [
        "re",
        -6.765480567613782
      ],
      [
        "Ġmay",
        -6.766906757461202
      ],
      [
        "Ġif",
        -6.770643006853481
      ],
      [
        "Ġdo",
        -6.776336609284909
      ],
      [
        "Ġtime",
        -6.77959559330208
      ],
      [
        "ĠIt",
        -6.791792590633941
      ],
      [
        "Ġup",
        -6.803277451604403
      ],
      [
        "Ġneed",
        -6.806280995568997
      ],
      [
        "Ġthem",
        -6.809569085540916
      ],
      [
        "Ġuse",
        -6.826972841165475
      ],
      [
        "Ġinto",
        -6.82905104862402
      ],
      [
        "Ġsome",
        -6.861335513250186
      ],
      [
        "Ġso",
        -6.873639028079388
      ],
      [
        "l",
        -6.875598621423812
      ],
      [
        "c",
        -6.876554918091784
      ],
      [
        "Ġhow",
        -6.8777728336080575
      ],
      [
        "A",
        -6.87984254775462
      ],
      [
        "ĠThis",
        -6.914102312967705
      ],
      [
        "Ġout",
        -6.932215984752897
      ],
      [
        "Ġthan",
        -6.943089964746635
      ],
      [
        "ĠWhat",
        -6.962523525631221
      ],
      [
        "Ġthese",
        -6.991711809948217
      ],
      [
        "Ġthere",
        -7.005090917277034
      ],
      [
        "Ġget",
        -7.007991980054323
      ],
      [
        "Ġmake",
        -7.02358425515645
      ],
      [
        "able",
        -7.050568190858771
      ],
      [
        "Ġwhat",
        -7.073477652888986
      ],
      [
        "Ġwater",
        -7.0740984582609325
      ],
      [
        "Ġused",
        -7.076070482609577
      ],
      [
        "ĠIn",
        -7.076572409872078
      ],
      [
        "Ġany",
        -7.080381486512813
      ],
      [
        "Ġmost",
        -7.097012884887135
      ],
      [
        "/",
        -7.098030505639107
      ],
      [
        "such",
        -7.099838643326791
      ],
      [
        "I",
        -7.119078818437339
      ],
      [
        "Ġhelp",
        -7.127414110477751
      ],
      [
        "Ġour",
        -7.13142086013411
      ],
      [
        "in",
        -7.1521107638913435
      ],
      [
        "g",
        -7.1805609189820885
      ],
      [
        "Ġpeople",
        -7.181694963475913
      ],
      [
        "Ġbeen",
        -7.187151374747351
      ],
      [
        "Ġwho",
        -7.188428747038204
      ],
      [
        "Ġwere",
        -7.1957117672355135
      ],
      [
        "Ġshould",
        -7.199970877860386
      ],
      [
        "Ġwould",
        -7.216644190896705
      ],
      [
        "p",
        -7.228369442903274
      ],
      [
        "Ġthrough",
        -7.234548059341954
      ],
      [
        "Ġnew",
        -7.24099431965497
      ],
      [
        "ity",
        -7.25548953590944
      ],
      [
        "Ġjust",
        -7.28615921512006
      ],
      [
        ";",
        -7.288474473174038
      ],
      [
        "Ġwork",
        -7.2973577122044
      ],
      [
        "or",
        -7.297703280217071
      ],
      [
        "ĠC",
        -7.298263686203345
      ],
      [
        "Ġonly",
        -7.301092408734656
      ],
      [
        "Ġover",
        -7.307495222293923
      ],
      [
        "Ġwell",
        -7.31067130670148
      ],
      [
        "?Ċ",
        -7.316268506949976
      ],
      [
        "Ġmy",
        -7.320006874669938
      ],
      [
        "Ġmany",
        -7.335028349865153
      ],
      [
        "Ġits",
        -7.356707612724842
      ],
      [
        "ĠS",
        -7.362164478642416
      ],
      [
        "Ġhigh",
        -7.385025516865149
      ],
      [
        "Ġtwo",
        -7.385835335224559
      ],
      [
        "!",
        -7.409221598017863
      ],
      [
        "Ġfirst",
        -7.409757984440779
      ],
      [
        "Ġway",
        -7.418446184689293
      ],
      [
        "f",
        -7.420524610778438
      ],
      [
        "Ġlong",
        -7.42138921100157
      ],
      [
        "ion",
        -7.428954103327346
      ],
      [
        "Ġdifferent",
        -7.42984580345362
      ],
      [
        "Ġwhere",
        -7.432353418378618
      ],
      [
        "Ġsee",
        -7.435282196214342
      ],
      [
        "S",
        -7.442228196380633
      ],
      [
        "Ġno",
        -7.445103456412438
      ],
      [
        "ĠIf",
        -7.449351311909242
      ],
      [
        "out",
        -7.453908212931479
      ],
      [
        "b",
        -7.45692960874047
      ],
      [
        "Ġcould",
        -7.459542492712661
      ],
      [
        "h",
        -7.464236697245671
      ],
      [
        "Ġtake",
        -7.469794948200315
      ],
      [
        "Ġusing",
        -7.475108639068377
      ],
      [
        "Ġprovide",
        -7.476775721002598
      ],
      [
        "Ġbetween",
        -7.485349358736157
      ],
      [
        "Ġlook",
        -7.504995630059302
      ],
      [
        "Ġbecause",
        -7.508233687965152
      ],
      [
        "Ġeven",
        -7.511568008009224
      ],
      [
        "Ġpart",
        -7.515246509551202
      ],
      [
        "Ġknow",
        -7.52104294154074
      ],
      [
        "is",
        -7.529055124636256
      ],
      [
        "ve",
        -7.531253214945423
      ],
      [
        "Ġhealth",
        -7.538755394761727
      ],
      [
        "Ġdog",
        -7.546939875192424
      ],
      [
        "In",
        -7.553715912360117
      ],
      [
        "Ġvery",
        -7.558680738452761
      ],
      [
        "ever",
        -7.561392415606745
      ],
      [
        "ĠHow",
        -7.562575298410984
      ],
      [
        "Ġsystem",
        -7.562682215104528
      ],
      [
        "Ġchange",
        -7.569795424346035
      ],
      [
        "ic",
        -7.573381227845598
      ],
      [
        "le",
        -7.582852913633904
      ],
      [
        "Ġeach",
        -7.591478771276565
      ],
      [
        "ation",
        -7.594991118408736
      ],
      [
        "Ġgood",
        -7.610733933749151
      ],
      [
        "Ġwant",
        -7.614059873612701
      ],
      [
        "Ġimportant",
        -7.616880653781696
      ],
      [
        "ĠThey",
        -7.621551709786624
      ],
      [
        "ĠâĢĵ",
        -7.6218496347847555
      ],
      [
        "Ġhe",
        -7.6226501304195615
      ],
      [
        "Ġmuch",
        -7.622988843386839
      ],
      [
        "Ġdoes",
        -7.626560022719859
      ],
      [
        "Ġhad",
        -7.628039001123961
      ],
      [
        "Ġfood",
        -7.630804300929587
      ],
      [
        "ĠB",
        -7.631433704996089
      ],
      [
        "ĠYou",
        -7.6374256053805105
      ],
      [
        "u",
        -7.639884124259177
      ],
      [
        "ce",
        -7.64498896413751
      ],
      [
        "ll",
        -7.653451726335655
      ],
      [
        "Ġcause",
        -7.666954994724119
      ],
      [
        "?ĊĊ",
        -7.672323910907525
      ],
      [
        "D",
        -7.686196865159011
      ],
      [
        "Ġhis",
        -7.69277432458795
      ],
      [
        "th",
        -7.69331084358777
      ],
      [
        "Ġwhile",
        -7.701024905929741
      ],
      [
        "Ġsmall",
        -7.70164854901279
      ],
      [
        "Ġreal",
        -7.701651791753786
      ],
      [
        "Ġevery",
        -7.703190303842466
      ],
      [
        "us",
        -7.707762287859743
      ],
      [
        "Ġresult",
        -7.711312653167073
      ],
      [
        "ness",
        -7.713205641854428
      ],
      [
        "Ġdesign",
        -7.715747324954713
      ],
      [
        "Ġdon",
        -7.71794568928047
      ],
      [
        "Ġcreate",
        -7.718075009122807
      ],
      [
        "(",
        -7.728155276763824
      ],
      [
        "Ġafter",
        -7.730810655442205
      ],
      [
        "Ġduring",
        -7.735940664505081
      ],
      [
        "Ġwh",
        -7.742967551696963
      ],
      [
        "ment",
        -7.748922896852538
      ],
      [
        "Ġyears",
        -7.752499916627947
      ],
      [
        "Ġbefore",
        -7.75508755670223
      ],
      [
        "around",
        -7.756067838327684
      ],
      [
        "Ġcome",
        -7.768466529662339
      ],
      [
        "âĢĻ",
        -7.773604879002135
      ],
      [
        "Ġnumber",
        -7.774479701044745
      ],
      [
        "um",
        -7.774588249668923
      ],
      [
        "Ġprocess",
        -7.774675046256302
      ],
      [
        "Ġallow",
        -7.776415027308123
      ],
      [
        "Ġfollow",
        -7.781547357128739
      ],
      [
        "k",
        -7.789211643937093
      ],
      [
        "Ġbest",
        -7.789676386050264
      ],
      [
        "Ġbody",
        -7.794635310050123
      ],
      [
        "Ġback",
        -7.795765753776816
      ],
      [
        "Ġbeing",
        -7.798465495152207
      ],
      [
        "Ġsame",
        -7.800510296175453
      ],
      [
        "What",
        -7.803713522628556
      ],
      [
        "Ġworld",
        -7.811357067705483
      ],
      [
        "C",
        -7.812634386278479
      ],
      [
        "Ġlevel",
        -7.81328845865252
      ],
      [
        "Ġoften",
        -7.814747715856047
      ],
      [
        ").",
        -7.815841550460198
      ],
      [
        "Ġkeep",
        -7.817423720565097
      ],
      [
        "Ġplant",
        -7.821926213320824
      ],
      [
        "Ġright",
        -7.827468639977461
      ],
      [
        "Ġlight",
        -7.828902113269142
      ],
      [
        "B",
        -7.837825758628413
      ],
      [
        "Ġlife",
        -7.837846829352025
      ],
      [
        "Ġfound",
        -7.840032155065938
      ],
      [
        "Ġtho",
        -7.852705592407095
      ],
      [
        "Ġun",
        -7.855507270531027
      ],
      [
        "an",
        -7.85655466511009
      ],
      [
        "Ġinclude",
        -7.862995746184235
      ],
      [
        "Ġhome",
        -7.863205482276809
      ],
      [
        "Ġfind",
        -7.8653348657879
      ],
      [
        "Ġexperience",
        -7.865981566945684
      ],
      [
        "Ġcommon",
        -7.8716676021527405
      ],
      [
        "Ġmade",
        -7.882762102416229
      ],
      [
        "Ġday",
        -7.894947839629157
      ],
      [
        "Ġyear",
        -7.902632719461454
      ],
      [
        "Ġher",
        -7.911752984051461
      ],
      [
        "Ġexample",
        -7.915702867428669
      ],
      [
        "Ġpower",
        -7.918384119309551
      ],
      [
        "Ġboth",
        -7.919917876018141
      ],
      [
        "ers",
        -7.924458078859784
      ],
      [
        "Ġsaid",
        -7.929218474561757
      ],
      [
        "age",
        -7.92994608171032
      ],
      [
        "ĠFor",
        -7.93252194525218
      ],
      [
        "Ġgo",
        -7.936459820495446
      ],
      [
        "ĠD",
        -7.937566804587269
      ],
      [
        "Ġmean",
        -7.940711633852053
      ],
      [
        "Ġdata",
        -7.944146800870501
      ],
      [
        "Ġdown",
        -7.947150646743832
      ],
      [
        "Ġstart",
        -7.955692657573939
      ],
      [
        "Ġstudents",
        -7.959215636853341
      ],
      [
        "Ġform",
        -7.960088484234527
      ],
      [
        "ĠWe",
        -7.960993107756632
      ],
      [
        "Ġinformation",
        -7.961145413203447
      ],
      [
        "Ġthink",
        -7.968925124115836
      ],
      [
        "Ġmight",
        -7.970594213711494
      ],
      [
        "Ġenergy",
        -7.971810047939528
      ],
      [
        "Ġconsider",
        -7.976533594944595
      ],
      [
        "Ġme",
        -7.977727308772617
      ],
      [
        "Ġus",
        -7.978940891191718
      ],
      [
        "Ġlarge",
        -7.980997668478021
      ],
      [
        "Ġsupport",
        -7.983370390542964
      ],
      [
        "ĠTo",
        -7.986778409669524
      ],
      [
        ":Ċ",
        -7.987010256641578
      ],
      [
        "How",
        -7.987032448410333
      ],
      [
        "%",
        -7.98749488768233
      ],
      [
        "Ġincrease",
        -7.988389842665751
      ],
      [
        "Ġspecies",
        -7.991101545344374
      ],
      [
        "Ġmak",
        -8.000484254163984
      ],
      [
        "Ġplace",
        -8.00155456194638
      ],
      [
        "Ġunder",
        -8.007217387576244
      ],
      [
        "Ġair",
        -8.010549718143565
      ],
      [
        "it",
        -8.011096282172488
      ],
      [
        "x",
        -8.011795818274136
      ],
      [
        "Ġplants",
        -8.01250417963031
      ],
      [
        "),",
        -8.012672148756682
      ],
      [
        "This",
        -8.014328937573527
      ],
      [
        "Ġnow",
        -8.018264268938974
      ],
      [
        "Ġown",
        -8.021996111799869
      ],
      [
        "Ġshow",
        -8.022953825991069
      ],
      [
        "Ġcolor",
        -8.023570300590636
      ],
      [
        "ĠThese",
        -8.033604590296859
      ],
      [
        "Ġresearch",
        -8.03957291354336
      ],
      [
        "Ġpoint",
        -8.044547424858665
      ],
      [
        "If",
        -8.045768381385358
      ],
      [
        "ability",
        -8.051265903207117
      ],
      [
        "Ġfew",
        -8.054948402299953
      ],
      [
        "est",
        -8.055439102859784
      ],
      [
        "Ġvalue",
        -8.056641062371789
      ],
      [
        "Ġdevelop",
        -8.061806972833466
      ],
      [
        "Ġcase",
        -8.062056754878926
      ],
      [
        "F",
        -8.06327783711151
      ],
      [
        "Ġstudy",
        -8.063801241554046
      ],
      [
        "Ġhuman",
        -8.071337241440535
      ],
      [
        "Ġgreat",
        -8.071990557619856
      ],
      [
        "Ġbetter",
        -8.075623094318232
      ],
      [
        "Ġstill",
        -8.076179495289267
      ],
      [
        "Ġoff",
        -8.079328085909612
      ],
      [
        "Ġissue",
        -8.082380639955254
      ],
      [
        "ĠP",
        -8.08480702099329
      ],
      [
        "Ġless",
        -8.091847733731772
      ],
      [
        "Ġset",
        -8.097149962689247
      ],
      [
        "Ġtype",
        -8.097594787084304
      ],
      [
        "Ġtemperature",
        -8.101124144266432
      ],
      [
        "Ġincluding",
        -8.103267170840443
      ],
      [
        "Ġend",
        -8.10649430015089
      ],
      [
        "Ġnatural",
        -8.11373308239581
      ],
      [
        "Ġprevent",
        -8.116270941748855
      ],
      [
        "ive",
        -8.122763760554474
      ],
      [
        "Ġtest",
        -8.12519573072518
      ],
      [
        "Ġcontrol",
        -8.12735878483375
      ],
      [
        "Ġlead",
        -8.132007385828128
      ],
      [
        "ĠT",
        -8.135633518043718
      ],
      [
        "Ġgive",
        -8.136968909266447
      ],
      [
        "Ġtoo",
        -8.139850290531115
      ],
      [
        "Ġarea",
        -8.14624721021344
      ],
      [
        "...",
        -8.149290904185918
      ],
      [
        "It",
        -8.15006300759934
      ],
      [
        "Ġensure",
        -8.15041371105394
      ],
      [
        "Ġrisk",
        -8.151470142086204
      ],
      [
        "Ġmain",
        -8.15240387556907
      ],
      [
        "Ġoffer",
        -8.15443532288474
      ],
      [
        "Ġper",
        -8.155117380967354
      ],
      [
        "Ġproject",
        -8.156056668976184
      ],
      [
        "Ġre",
        -8.158407555252552
      ],
      [
        "Ġchildren",
        -8.162204817055072
      ],
      [
        "Ġpotential",
        -8.164246804762264
      ],
      [
        "T",
        -8.166631922289902
      ],
      [
        "and",
        -8.17067720999095
      ],
      [
        "ĠE",
        -8.173751273767426
      ],
      [
        "ary",
        -8.175072197600228
      ],
      [
        "Ġsure",
        -8.175749980695418
      ],
      [
        "ĠBut",
        -8.1769296254976
      ],
      [
        "Ġadd",
        -8.184332644020326
      ],
      [
        "Ġmust",
        -8.191896192665263
      ],
      [
        "Ġheat",
        -8.205738478897688
      ],
      [
        ":ĊĊ",
        -8.205831369784672
      ],
      [
        "quality",
        -8.21082027988206
      ],
      [
        "Ġmodel",
        -8.212082686682365
      ],
      [
        "Ġthree",
        -8.21305675192871
      ],
      [
        "Ġtry",
        -8.220426415303242
      ],
      [
        "ĠF",
        -8.220852513877645
      ],
      [
        "Ġlearn",
        -8.227404320524023
      ],
      [
        "Ġgrow",
        -8.22779238418445
      ],
      [
        "ĠAnd",
        -8.227838692029543
      ],
      [
        "Ġcare",
        -8.228693527578063
      ],
      [
        "Ġcost",
        -8.229580073572196
      ],
      [
        "Ġthings",
        -8.231096658828287
      ],
      [
        "Ġcalled",
        -8.23176317242477
      ],
      [
        "Ġcar",
        -8.23688088853163
      ],
      [
        "Ġblood",
        -8.237998889949413
      ],
      [
        "Ġlow",
        -8.243601442015915
      ],
      [
        "Ġcurrent",
        -8.244209866877073
      ],
      [
        "Ġdisease",
        -8.244377676374086
      ],
      [
        "Ġsomething",
        -8.25340813373783
      ],
      [
        "Ġlot",
        -8.257312807452632
      ],
      [
        "w",
        -8.257901703166354
      ],
      [
        "Ġindividual",
        -8.259458147094996
      ],
      [
        "Ġenvironment",
        -8.26097774078446
      ],
      [
        "less",
        -8.260991060375202
      ],
      [
        "Ġtreatment",
        -8.261666874657074
      ],
      [
        "ĠSo",
        -8.264458232402266
      ],
      [
        "Ġspace",
        -8.266886952242624
      ],
      [
        "v",
        -8.267474210884
      ],
      [
        "Ġline",
        -8.268443492582385
      ],
      [
        "the",
        -8.268957785520097
      ],
      [
        "Ġshe",
        -8.271408377392985
      ],
      [
        "Ġperson",
        -8.272053943414651
      ],
      [
        "Ġeat",
        -8.273133079462102
      ],
      [
        "Ġwithin",
        -8.277449830389031
      ],
      [
        "Ġdue",
        -8.285580327912932
      ],
      [
        "ĠM",
        -8.287376631774217
      ],
      [
        "Ġpressure",
        -8.300145445866793
      ],
      [
        "Ġpossible",
        -8.301788938206748
      ],
      [
        "P",
        -8.303012898841716
      ],
      [
        "Ġeffective",
        -8.305451440091012
      ],
      [
        "ĠWhen",
        -8.306149511989583
      ],
      [
        "Ġsoil",
        -8.306479350065448
      ],
      [
        "Ġanother",
        -8.306921043588245
      ],
      [
        "Ġde",
        -8.308307479351196
      ],
      [
        "Ġproduce",
        -8.310329851902004
      ],
      [
        "Ġfactor",
        -8.310615283566039
      ],
      [
        "Ġname",
        -8.311653598526608
      ],
      [
        "Ġschool",
        -8.314684435297512
      ],
      [
        "Ġsecond",
        -8.31646418178125
      ],
      [
        "Ġorder",
        -8.318876286608482
      ],
      [
        "Ġcells",
        -8.320154776485865
      ],
      [
        "Ġreason",
        -8.321116872378552
      ],
      [
        "Ġfish",
        -8.32409301518905
      ],
      [
        "ĠH",
        -8.32660694792935
      ],
      [
        "Ġrequire",
        -8.32881735768226
      ],
      [
        "Ġlast",
        -8.330354393403235
      ],
      [
        "Ġbecome",
        -8.331215631596285
      ],
      [
        "known",
        -8.333615986199916
      ],
      [
        "Ġrange",
        -8.33428235735563
      ],
      [
        "Ġactual",
        -8.33729615488586
      ],
      [
        "Ġfunction",
        -8.337637682952387
      ],
      [
        "Ġplay",
        -8.338653253990298
      ],
      [
        "Ġalway",
        -8.340748516010496
      ],
      [
        "ch",
        -8.347963693141821
      ],
      [
        "Ġreduce",
        -8.348605503999298
      ],
      [
        "Ġclose",
        -8.350161726949066
      ],
      [
        "Ġspecific",
        -8.352109693675015
      ],
      [
        "Ġleave",
        -8.356032296261308
      ],
      [
        "Ġimpact",
        -8.35801734986104
      ],
      [
        "Ġlearning",
        -8.365300332256371
      ],
      [
        "Ġamount",
        -8.368580899023684
      ],
      [
        "li",
        -8.371498619145804
      ],
      [
        "Ġstate",
        -8.372123148144066
      ],
      [
        "Ġsize",
        -8.375318661199486
      ],
      [
        "ar",
        -8.375433855754654
      ],
      [
        "Ġhere",
        -8.376191442173191
      ],
      [
        "Ġgoing",
        -8.379656916587372
      ],
      [
        "Ġsurface",
        -8.379703306614203
      ],
      [
        "Ġhard",
        -8.37975502560791
      ],
      [
        "Ġavailable",
        -8.381774707133495
      ],
      [
        "Ġlittle",
        -8.384389082064459
      ],
      [
        "Ġvarious",
        -8.388253632394068
      ],
      [
        "Ġsource",
        -8.389475079411362
      ],
      [
        "ĠThere",
        -8.391194765576074
      ],
      [
        "Ġenough",
        -8.398287038403929
      ],
      [
        "Ġcomplete",
        -8.400490639941397
      ],
      [
        "Ġproblem",
        -8.404224587657279
      ],
      [
        "Ġfeel",
        -8.424937226007826
      ],
      [
        "Ġaffect",
        -8.428124070070474
      ],
      [
        "Ġb",
        -8.428693124012305
      ],
      [
        "Ġusually",
        -8.430339460276887
      ],
      [
        "Ġdid",
        -8.431189349628852
      ],
      [
        "Ġmanage",
        -8.438870477280346
      ],
      [
        "M",
        -8.440946376616694
      ],
      [
        "ous",
        -8.442972321456082
      ],
      [
        "Ġside",
        -8.446832258384683
      ],
      [
        "Ġcat",
        -8.452687934675659
      ],
      [
        "Ġpatient",
        -8.454365062604738
      ],
      [
        "]",
        -8.45507371347987
      ],
      [
        "to",
        -8.458311670908447
      ],
      [
        "Ġareas",
        -8.45926185567069
      ],
      [
        "Ġgarden",
        -8.459791340192586
      ],
      [
        "Ġweight",
        -8.462960724765981
      ],
      [
        "Ġdevice",
        -8.464294866224233
      ],
      [
        "Ġoption",
        -8.46547362608887
      ],
      [
        "Ġhand",
        -8.466797664422016
      ],
      [
        "Ġchild",
        -8.470798675978987
      ],
      [
        ",\"",
        -8.471117926619307
      ],
      [
        "ĠU",
        -8.475526387715465
      ],
      [
        "ĠHe",
        -8.476595914051957
      ],
      [
        "Ġseveral",
        -8.477042355210212
      ],
      [
        "be",
        -8.480817772747562
      ],
      [
        "Ġtypes",
        -8.482163476313717
      ],
      [
        "ĠR",
        -8.483229935749893
      ],
      [
        "*",
        -8.48925507942429
      ],
      [
        "Ġimprove",
        -8.489696440942815
      ],
      [
        "Ġput",
        -8.491129196740488
      ],
      [
        "Ġsignificant",
        -8.49242297363309
      ],
      [
        "Ġdamage",
        -8.49379346319842
      ],
      [
        "ĠWhich",
        -8.495235568108427
      ],
      [
        "When",
        -8.495843885037178
      ],
      [
        "Ġteam",
        -8.497394425222343
      ],
      [
        "Ġsafe",
        -8.499535937986979
      ],
      [
        "Ġessential",
        -8.501031058972597
      ],
      [
        "W",
        -8.50201844017246
      ],
      [
        "ally",
        -8.502056969053768
      ],
      [
        "Ġcourse",
        -8.505636492721461
      ],
      [
        "ĠK",
        -8.505730038482337
      ],
      [
        "Ġuser",
        -8.506710491290505
      ],
      [
        "Ġopen",
        -8.506948129571999
      ],
      [
        "Ġlive",
        -8.507270654086053
      ],
      [
        "ĠN",
        -8.508260621804272
      ],
      [
        "Ġseem",
        -8.508602600991326
      ],
      [
        "Ġdiet",
        -8.509509147832238
      ],
      [
        "Ġcell",
        -8.513092920992062
      ],
      [
        "Ġstructure",
        -8.513351721229188
      ],
      [
        "Ġpresent",
        -8.513445620933926
      ],
      [
        "ĠO",
        -8.514048696198794
      ],
      [
        "ĠL",
        -8.518951900975479
      ],
      [
        "ĠSome",
        -8.519262628077286
      ],
      [
        "Ġunderstand",
        -8.522018748761049
      ],
      [
        "Ġkey",
        -8.522685001696463
      ],
      [
        "Ġconditions",
        -8.522767671982324
      ],
      [
        "Ġevent",
        -8.523648120375615
      ],
      [
        "Ġtext",
        -8.524930993462071
      ],
      [
        "Ġnon",
        -8.525522752915656
      ],
      [
        "G",
        -8.526211775585775
      ],
      [
        "Ġlocal",
        -8.528219806853283
      ],
      [
        "Ġparticular",
        -8.528285108699716
      ],
      [
        "ry",
        -8.528938275929878
      ],
      [
        "Ġhour",
        -8.53050468400477
      ],
      [
        "H",
        -8.530931001775064
      ],
      [
        "Ġdevelopment",
        -8.53103450735916
      ],
      [
        "Ġ&",
        -8.531524029735362
      ],
      [
        "at",
        -8.532959801638551
      ],
      [
        "ĠG",
        -8.532961233684425
      ],
      [
        "Ġterm",
        -8.537491000648412
      ],
      [
        "Ġdifference",
        -8.54617865827493
      ],
      [
        "Ġproper",
        -8.5479909755529
      ],
      [
        "having",
        -8.548437865268854
      ],
      [
        "Ġuntil",
        -8.55242966896964
      ],
      [
        "Ġfocus",
        -8.553811764736814
      ],
      [
        "Ġfree",
        -8.553925101397347
      ],
      [
        "Ġfield",
        -8.558906289182481
      ],
      [
        "Ġtechnology",
        -8.559480363630456
      ],
      [
        "Ġnext",
        -8.559979412008342
      ],
      [
        "ĠAs",
        -8.563518155372066
      ],
      [
        "Ġfull",
        -8.56366369262155
      ],
      [
        "Ġvariet",
        -8.566031962087973
      ],
      [
        "self",
        -8.567525214506823
      ],
      [
        "Ġaway",
        -8.5693664846379
      ],
      [
        "Ġeye",
        -8.571214603354914
      ],
      [
        "Ġanimals",
        -8.571812740045527
      ],
      [
        "ance",
        -8.572684398120078
      ],
      [
        "Ġtop",
        -8.57442315766147
      ],
      [
        "Ġfamily",
        -8.57608707606084
      ],
      [
        "Ġfuture",
        -8.576460143941915
      ],
      [
        "Ġsince",
        -8.577946705367818
      ],
      [
        "Ġpaper",
        -8.580577469254983
      ],
      [
        "Ġloss",
        -8.58187850874976
      ],
      [
        "E",
        -8.582891075756253
      ],
      [
        "Ġmaterial",
        -8.583213994922556
      ],
      [
        "Ġmaintain",
        -8.587173293869313
      ],
      [
        "Ġmaterials",
        -8.592045423372095
      ],
      [
        "ĠRe",
        -8.592142489355467
      ],
      [
        "ĠThat",
        -8.593724746123652
      ],
      [
        "Ġwide",
        -8.594469737457992
      ],
      [
        "Ġthing",
        -8.594891130673695
      ],
      [
        "Ġlet",
        -8.597012710175594
      ],
      [
        "Ġnecessar",
        -8.600165057630797
      ],
      [
        "Ġoil",
        -8.600468779203148
      ],
      [
        "Ġsystems",
        -8.60090954168027
      ],
      [
        "Ġinvolve",
        -8.602018243208043
      ],
      [
        "Ġcheck",
        -8.602604691446299
      ],
      [
        "Ġsimple",
        -8.602862881966434
      ],
      [
        "Ġtogether",
        -8.605391369243415
      ],
      [
        "Ġsay",
        -8.606283427009068
      ],
      [
        "Ġshort",
        -8.606704486362906
      ],
      [
        "Ġeasy",
        -8.606843320083227
      ],
      [
        "Ġ$",
        -8.606847537036355
      ],
      [
        "ul",
        -8.606925423745285
      ],
      [
        "Ġmethod",
        -8.607666260155767
      ],
      [
        "N",
        -8.60939991086072
      ],
      [
        "Ġtechnique",
        -8.609511220659586
      ],
      [
        "Ġgroup",
        -8.613634167247636
      ],
      [
        "Ġkind",
        -8.614582993216708
      ],
      [
        "We",
        -8.614907394509839
      ],
      [
        "Ġearly",
        -8.615719057599842
      ],
      [
        "Ġalong",
        -8.616255627708512
      ],
      [
        "Ġgame",
        -8.616257000259939
      ],
      [
        "Ġprotect",
        -8.616956439628964
      ],
      [
        "Ġquick",
        -8.617564911141478
      ],
      [
        "L",
        -8.621651222794785
      ],
      [
        "Ġplan",
        -8.623690975058441
      ],
      [
        "ĠBy",
        -8.624365936235584
      ],
      [
        "Ġdays",
        -8.62448640550296
      ],
      [
        "Ġrat",
        -8.625033331664266
      ],
      [
        "Ġage",
        -8.626899772125093
      ],
      [
        "Ġvideo",
        -8.62720069979963
      ],
      [
        "Ġproducts",
        -8.627694604102256
      ],
      [
        "Ġworking",
        -8.628122158716828
      ],
      [
        "Ġrun",
        -8.628506256000566
      ],
      [
        "Ġrole",
        -8.631142776391759
      ],
      [
        "Ġtypical",
        -8.631269487845735
      ],
      [
        "Ġtreat",
        -8.635252701839072
      ],
      [
        "Ġlove",
        -8.635428748191403
      ],
      [
        "Ġmachine",
        -8.635588310226913
      ],
      [
        "Ġgrowth",
        -8.639769618581234
      ],
      [
        "Ġmeasure",
        -8.641202603242231
      ],
      [
        "Ġproblems",
        -8.641299536263713
      ],
      [
        "ither",
        -8.64280526733743
      ],
      [
        "Ġsafety",
        -8.643317260542288
      ],
      [
        "You",
        -8.643498346153054
      ],
      [
        "Ġcontain",
        -8.645867956939853
      ],
      [
        "Ġdepend",
        -8.646230748782148
      ],
      [
        "ur",
        -8.647751573113826
      ],
      [
        "K",
        -8.648486913690274
      ],
      [
        "Ġlower",
        -8.649951978340148
      ],
      [
        "Ġgiven",
        -8.65051959832002
      ],
      [
        "Ġdoesn",
        -8.65182457214729
      ],
      [
        "Ġ=",
        -8.65292560285641
      ],
      [
        "ate",
        -8.653242743125574
      ],
      [
        "Ġphysical",
        -8.656779376994468
      ],
      [
        "To",
        -8.65856034781796
      ],
      [
        "Ġaccess",
        -8.65869460088803
      ],
      [
        "Ġavoid",
        -8.660313300001935
      ],
      [
        "Ġapplication",
        -8.661093699481665
      ],
      [
        "R",
        -8.66605455977338
      ],
      [
        "Ġsocial",
        -8.6668496685187
      ],
      [
        "Ġnever",
        -8.667509121372541
      ],
      [
        "ĠWith",
        -8.667562043962631
      ],
      [
        "Ġsimilar",
        -8.668202318640052
      ],
      [
        "Ġtraining",
        -8.66926916019568
      ],
      [
        "Ġmove",
        -8.670008587578955
      ],
      [
        "ĠUniversity",
        -8.67241620028085
      ],
      [
        "ether",
        -8.672881032042822
      ],
      [
        "Ġprogram",
        -8.67420679014573
      ],
      [
        "based",
        -8.67784102309238
      ],
      [
        "Ġgas",
        -8.679967867270888
      ],
      [
        "least",
        -8.680871826621917
      ],
      [
        "z",
        -8.681197866524816
      ],
      [
        "Ġdone",
        -8.683914730870866
      ],
      [
        "Ġfar",
        -8.687879317172609
      ],
      [
        "Ġrate",
        -8.688363614435158
      ],
      [
        "Ġelectric",
        -8.688498208343018
      ],
      [
        "Ġclean",
        -8.688754242628812
      ],
      [
        "Ġanswer",
        -8.689307426574688
      ],
      [
        "Ġpropert",
        -8.690614995315066
      ],
      [
        "Ġold",
        -8.691138855205097
      ],
      [
        "Ġhigher",
        -8.691494241620372
      ],
      [
        "though",
        -8.693207004087522
      ],
      [
        "Ġclear",
        -8.693753687547822
      ],
      [
        "Ġstrong",
        -8.69401960587544
      ],
      [
        "Ġturn",
        -8.694024029313761
      ],
      [
        "_",
        -8.694824511393524
      ],
      [
        "her",
        -8.694987976322412
      ],
      [
        "Ġbuilding",
        -8.696830258319395
      ],
      [
        "Ġred",
        -8.696944194961132
      ],
      [
        "Ġcomponent",
        -8.69779828203181
      ],
      [
        "ĠW",
        -8.701413897386164
      ],
      [
        "There",
        -8.709666309600687
      ],
      [
        "Ġfast",
        -8.70975962571121
      ],
      [
        "V",
        -8.71170996194293
      ],
      [
        "!Ċ",
        -8.715544386830189
      ],
      [
        "Ġespecial",
        -8.717791324718007
      ],
      [
        "Ġhead",
        -8.717852084716336
      ],
      [
        "Ġhealthy",
        -8.717960139106435
      ],
      [
        "land",
        -8.718167315416157
      ],
      [
        "Ġforce",
        -8.720391163291268
      ],
      [
        "Ġskin",
        -8.726296995934398
      ],
      [
        "il",
        -8.727034770414399
      ],
      [
        "Ġaccording",
        -8.72932019665833
      ],
      [
        "Ġinfection",
        -8.730253761159162
      ],
      [
        "Ġbit",
        -8.730587758098398
      ],
      [
        "Ġunique",
        -8.731591070658364
      ],
      [
        "Ġabove",
        -8.732317213479405
      ],
      [
        "ĠNo",
        -8.734926400455649
      ],
      [
        "Ġrecommend",
        -8.735188147916919
      ],
      [
        "Ġcertain",
        -8.737265292021217
      ],
      [
        "Ġcomputer",
        -8.740262212063943
      ],
      [
        "stead",
        -8.741566303799143
      ],
      [
        "Ġmarket",
        -8.74161290818671
      ],
      [
        "Ġbook",
        -8.7417379584403
      ],
      [
        "For",
        -8.743084556409901
      ],
      [
        "Ġstep",
        -8.744259843749875
      ],
      [
        "against",
        -8.747296701539295
      ],
      [
        "Ġscience",
        -8.747325321328837
      ],
      [
        "Ġhim",
        -8.748918826033956
      ],
      [
        "Ġlimit",
        -8.751375316540466
      ],
      [
        "Ġregion",
        -8.754566114533468
      ],
      [
        "ĠNew",
        -8.75490042710193
      ],
      [
        "âĢĶ",
        -8.756810407992894
      ],
      [
        "Ġwhite",
        -8.757634995277211
      ],
      [
        "Ġmajor",
        -8.758109426042484
      ],
      [
        "Ġelement",
        -8.75810967227363
      ],
      [
        "Ġproduction",
        -8.758597860208708
      ],
      [
        "Ġbelieve",
        -8.75871641658242
      ],
      [
        "ĠYour",
        -8.761899887080489
      ],
      [
        ")ĊĊ",
        -8.762121958194413
      ],
      [
        "Ġdetail",
        -8.762297327463852
      ],
      [
        "Ġparent",
        -8.76470484645116
      ],
      [
        "ĠV",
        -8.768372372552479
      ],
      [
        "Ġground",
        -8.769408748119611
      ],
      [
        "Ġweek",
        -8.770335996934573
      ],
      [
        "Ġdifficult",
        -8.770590063979416
      ],
      [
        "Ġexist",
        -8.771435440464384
      ],
      [
        "Ġoccur",
        -8.77201311080287
      ],
      [
        "Ġdry",
        -8.773800356738287
      ],
      [
        "Ġitem",
        -8.775101972724231
      ],
      [
        "Ġobject",
        -8.775135900901189
      ],
      [
        "Ġpost",
        -8.776876033845966
      ],
      [
        "Ġnear",
        -8.77800845356471
      ],
      [
        "Ġbusiness",
        -8.778117982780547
      ],
      [
        "man",
        -8.780034898459466
      ],
      [
        "Ġtimes",
        -8.78088429428276
      ],
      [
        "Ġchoice",
        -8.781546265201623
      ],
      [
        "ĠAl",
        -8.785681253821389
      ],
      [
        "Ġcontinue",
        -8.785951911616985
      ],
      [
        "Ġpopulation",
        -8.787104587331122
      ],
      [
        "O",
        -8.788498146748578
      ],
      [
        "Ġfact",
        -8.790643048798504
      ],
      [
        "Ġenjoy",
        -8.790675304563537
      ],
      [
        "Ġflow",
        -8.79190451628477
      ],
      [
        "Ġcover",
        -8.79394182167784
      ],
      [
        "Ġeffects",
        -8.793984517571925
      ],
      [
        "Ġclimate",
        -8.79456690391272
      ],
      [
        "Ġchemical",
        -8.795386433431098
      ],
      [
        "Ġpopular",
        -8.797110468779852
      ],
      [
        "Ġcondition",
        -8.799037391157214
      ],
      [
        "Ġbasic",
        -8.799116671543034
      ],
      [
        "Ġspeed",
        -8.799277887401399
      ],
      [
        "Ġtask",
        -8.799570005092995
      ],
      [
        "Ġlayer",
        -8.799923844285562
      ],
      [
        "Ġremain",
        -8.801435578790215
      ],
      [
        "Ġregular",
        -8.802016896472033
      ],
      [
        "Ġmakes",
        -8.802829261732775
      ],
      [
        "Ġhouse",
        -8.80570593422065
      ],
      [
        "Ġpiece",
        -8.807469470958013
      ],
      [
        "Ġremove",
        -8.80753384769016
      ],
      [
        "Ġanimal",
        -8.807765160847188
      ],
      [
        "Ġbring",
        -8.80848080136639
      ],
      [
        "Ġstay",
        -8.81345470411226
      ],
      [
        "ne",
        -8.814621845200778
      ],
      [
        "Ġtree",
        -8.815999782281772
      ],
      [
        "Ġsingle",
        -8.820006919501079
      ],
      [
        "Ġdeep",
        -8.820234956911696
      ],
      [
        "Ġaddition",
        -8.82104939280989
      ],
      [
        "Ġfurther",
        -8.823326803082157
      ],
      [
        "Ġ[",
        -8.824980817385267
      ],
      [
        "Ġbehavior",
        -8.825897626375546
      ],
      [
        "Ġpain",
        -8.829567196874597
      ],
      [
        "Ġsun",
        -8.831434983122156
      ],
      [
        "Ġtoday",
        -8.831758170259388
      ],
      [
        "Ġmatter",
        -8.831857581186458
      ],
      [
        "Ġcontent",
        -8.833762465896829
      ],
      [
        "Ġgreen",
        -8.83762032800835
      ],
      [
        "Ġsound",
        -8.838790273830737
      ],
      [
        "Ġmedical",
        -8.8388054953828
      ],
      [
        "Ġperformance",
        -8.841400201752924
      ],
      [
        "Ġsignal",
        -8.841502121357983
      ],
      [
        "Ġleft",
        -8.842700633865924
      ],
      [
        "Ġeffect",
        -8.844014673276625
      ],
      [
        "Ġskills",
        -8.844728052878187
      ],
      [
        "Ġface",
        -8.845056416120576
      ],
      [
        "Ġlist",
        -8.845260587181816
      ],
      [
        "ĠOn",
        -8.847937228385067
      ],
      [
        "tic",
        -8.851864523547661
      ],
      [
        "Ġcommunity",
        -8.852141014111199
      ],
      [
        "Ġheart",
        -8.857769941474157
      ],
      [
        ")Ċ",
        -8.858104884132805
      ],
      [
        "Ġstore",
        -8.858653001924079
      ],
      [
        "Ġread",
        -8.862357894445726
      ],
      [
        "Ġnormal",
        -8.863878502982608
      ],
      [
        "Ġeducation",
        -8.864032673494815
      ],
      [
        "Ġcomplex",
        -8.864168334374437
      ],
      [
        "ĠAn",
        -8.865941136650282
      ],
      [
        "Ġrecent",
        -8.867254163470545
      ],
      [
        "Ġarticle",
        -8.867434022427037
      ],
      [
        "Ġprovid",
        -8.869614594693875
      ],
      [
        "coming",
        -8.871655760722007
      ],
      [
        "Ġliv",
        -8.877558782382229
      ],
      [
        "Ġconcern",
        -8.878803660634567
      ],
      [
        "Ġpublic",
        -8.881775908968049
      ],
      [
        "across",
        -8.8820869514576
      ],
      [
        "Ġagain",
        -8.883608636624524
      ],
      [
        "Ġpet",
        -8.884915176951804
      ],
      [
        "thing",
        -8.886304863905288
      ],
      [
        "Ġsymptom",
        -8.887196167306715
      ],
      [
        "Ġbenefits",
        -8.888708409150071
      ],
      [
        "Ġfour",
        -8.890100040338606
      ],
      [
        "Ġspecial",
        -8.890587412428665
      ],
      [
        "Ġhistory",
        -8.89059376410406
      ],
      [
        "ok",
        -8.890647677159992
      ],
      [
        "Ġposition",
        -8.893987282253525
      ],
      [
        "Ġenvironmental",
        -8.894594591412794
      ],
      [
        "Ġtell",
        -8.894791153269562
      ],
      [
        "Ġperiod",
        -8.896491629284714
      ],
      [
        "Ġsolution",
        -8.896605546897128
      ],
      [
        "Ġactiviti",
        -8.896629339973448
      ],
      [
        "Ġsays",
        -8.897417153153365
      ],
      [
        "Ġbattery",
        -8.898687137353921
      ],
      [
        "Ġquestion",
        -8.903732474422096
      ],
      [
        "Ġcall",
        -8.90477144144796
      ],
      [
        "Ġstandard",
        -8.904989302557183
      ],
      [
        "Ġcold",
        -8.905766936635043
      ],
      [
        ".\"Ċ",
        -8.906487589734326
      ],
      [
        "Ġreach",
        -8.906578726436003
      ],
      [
        "Ġwarm",
        -8.910500907094269
      ],
      [
        "refore",
        -8.911459069687268
      ],
      [
        "Ġshare",
        -8.913357608970353
      ],
      [
        "Ġcook",
        -8.913754182123588
      ],
      [
        "Ġhelps",
        -8.915045138854657
      ],
      [
        "Ġpersonal",
        -8.915661911730254
      ],
      [
        "Ġwhole",
        -8.916101384642381
      ],
      [
        "Ġmillion",
        -8.918672600698391
      ],
      [
        "âĢ¦",
        -8.918776677814169
      ],
      [
        "Ġindustry",
        -8.919261359466006
      ],
      [
        "ĠDo",
        -8.9204883187844
      ],
      [
        "Ġgoal",
        -8.921242182456371
      ],
      [
        "Ġproduct",
        -8.921323223360996
      ],
      [
        "Ġtalk",
        -8.921978227558128
      ],
      [
        "ish",
        -8.924837576036968
      ],
      [
        "Ġmention",
        -8.925439080592227
      ],
      [
        "ember",
        -8.925804920585824
      ],
      [
        "co",
        -8.92589751780418
      ],
      [
        "Ġblock",
        -8.926699762351443
      ],
      [
        "Ġexplain",
        -8.927797957955384
      ],
      [
        "Ġprotein",
        -8.928003407481958
      ],
      [
        "Ġblack",
        -8.930407007354276
      ],
      [
        "Ġbacteria",
        -8.931865717507518
      ],
      [
        "ĠMan",
        -8.931912733336738
      ],
      [
        "one",
        -8.931931334006705
      ],
      [
        "ĠâĢĶ",
        -8.931983432722786
      ],
      [
        "Ġalread",
        -8.932745242340275
      ],
      [
        "Ġrequired",
        -8.932961965138901
      ],
      [
        "ĠOne",
        -8.935009941804633
      ],
      [
        "Ġsetting",
        -8.935353650445059
      ],
      [
        "Ġprofessional",
        -8.938740257008039
      ],
      [
        "Ġamong",
        -8.940149882479625
      ],
      [
        "Ġperfect",
        -8.940645205196468
      ],
      [
        "Ġpurpose",
        -8.941940543316836
      ],
      [
        "Ġunderstanding",
        -8.942015484775558
      ],
      [
        "Ġreport",
        -8.9446457051436
      ],
      [
        "Ġcontact",
        -8.94510195577611
      ],
      [
        "Ġeasily",
        -8.94633983901102
      ],
      [
        "Ġidea",
        -8.946635949681404
      ],
      [
        "Ġlate",
        -8.946645426135346
      ],
      [
        "Ġthough",
        -8.948770281949312
      ],
      [
        "Ġslow",
        -8.951709686714523
      ],
      [
        "Ġinside",
        -8.952513259331472
      ],
      [
        "Ġtoward",
        -8.954903788245506
      ],
      [
        "Ġcorrect",
        -8.958452810946962
      ],
      [
        "Ġresearcher",
        -8.959901573252486
      ],
      [
        "Ġapproach",
        -8.960411927516382
      ],
      [
        "Ġbrain",
        -8.961242987981183
      ],
      [
        "am",
        -8.963268548011683
      ],
      [
        "Ġnetwork",
        -8.963983649605261
      ],
      [
        "Ġbig",
        -8.966266330322556
      ],
      [
        "Ġpositive",
        -8.96634024622309
      ],
      [
        "Ġfall",
        -8.966425527803832
      ],
      [
        "un",
        -8.967889608292639
      ],
      [
        "ĠDe",
        -8.968513701411013
      ],
      [
        "Ġcompany",
        -8.969055029900199
      ],
      [
        "Ġopportunit",
        -8.97033088288596
      ],
      [
        "Ġonline",
        -8.972071752529178
      ],
      [
        "Ġland",
        -8.972388397989121
      ],
      [
        "Ġknowledge",
        -8.974173008716164
      ],
      [
        "Ġways",
        -8.975649263555109
      ],
      [
        "Ġselect",
        -8.975824412908196
      ],
      [
        "Ġbuild",
        -8.976019238263918
      ],
      [
        "Ġmoney",
        -8.976754931163764
      ],
      [
        "Ġprobabl",
        -8.977881906719338
      ],
      [
        "Ġsleep",
        -8.980449342987583
      ],
      [
        "Ġsomeone",
        -8.981779936668612
      ],
      [
        "Ġprint",
        -8.98204877316756
      ],
      [
        "Ġfeatures",
        -8.98405508935327
      ],
      [
        "Ġshape",
        -8.985118652803031
      ],
      [
        "[",
        -8.986365501073983
      ],
      [
        "Ġsituation",
        -8.987083956130878
      ],
      [
        "Ġtarget",
        -8.987086717262548
      ],
      [
        "Ġmuscle",
        -8.987647565059161
      ],
      [
        "Ġmonths",
        -8.987736313189938
      ],
      [
        "âĢĵ",
        -8.988846407938478
      ],
      [
        "Ġgrowing",
        -8.990350761234222
      ],
      [
        "Ġdecision",
        -8.990990105575356
      ],
      [
        "Ġguide",
        -8.991901735599473
      ],
      [
        "Ġassociate",
        -8.993898801961532
      ],
      [
        "below",
        -8.994737111613265
      ],
      [
        "Ġfruit",
        -8.994892631071735
      ],
      [
        "So",
        -8.995360834742481
      ],
      [
        "Ġyoung",
        -8.995975944457996
      ],
      [
        "Ġappear",
        -8.996725737594613
      ],
      [
        "Ġsection",
        -8.997443954285824
      ],
      [
        "Ġstress",
        -8.997553711138252
      ],
      [
        "As",
        -8.998809207802719
      ],
      [
        "ves",
        -8.999423999302435
      ],
      [
        "Ġentire",
        -9.000165016007674
      ],
      [
        "Ġtaking",
        -9.000250513994366
      ],
      [
        "Ġco",
        -9.004246835439854
      ],
      [
        "Ġpre",
        -9.006073866239735
      ],
      [
        "-based",
        -9.006102757184156
      ],
      [
        "Ġdoing",
        -9.007027640808996
      ],
      [
        "ter",
        -9.008613394369496
      ],
      [
        "Ġlocation",
        -9.00959178388399
      ],
      [
        "Ġcrucial",
        -9.010792748944702
      ],
      [
        "ĠX",
        -9.01109697764523
      ],
      [
        "Ġhalf",
        -9.012836179749716
      ],
      [
        "Ġtool",
        -9.01473326578333
      ],
      [
        "Ġstor",
        -9.01473668845883
      ],
      [
        "Ġetc",
        -9.016626015593856
      ],
      [
        "Ġroom",
        -9.017141834133383
      ],
      [
        "Ġself",
        -9.018791281306472
      ],
      [
        "Ġyourself",
        -9.02001385780036
      ],
      [
        "Ġbuy",
        -9.020487979421734
      ],
      [
        "Ġgeneral",
        -9.02163645451637
      ],
      [
        "ĠAmerican",
        -9.023163492369369
      ],
      [
        "Ġauthor",
        -9.023218732122428
      ],
      [
        "ical",
        -9.02424446970904
      ],
      [
        "ful",
        -9.024838915923
      ],
      [
        "Ġpractice",
        -9.02903580400611
      ],
      [
        "Ġplastic",
        -9.030112138829358
      ],
      [
        "Ġtraditional",
        -9.03096562232894
      ],
      [
        "Ġlink",
        -9.03099813544506
      ],
      [
        "Ġsugar",
        -9.032279071745432
      ],
      [
        "Ġminutes",
        -9.032354904886349
      ],
      [
        "Ġwall",
        -9.032537905765494
      ],
      [
        "Ġdegree",
        -9.03265099449386
      ],
      [
        "Ġmind",
        -9.032956341297574
      ],
      [
        "Ġbone",
        -9.03532311267016
      ],
      [
        "Ġprice",
        -9.035449691012182
      ],
      [
        "Ġpatients",
        -9.03594227146089
      ],
      [
        "Ġservice",
        -9.039261111475142
      ],
      [
        "Ġbase",
        -9.040178216606936
      ],
      [
        "Y",
        -9.0408887115263
      ],
      [
        "Ġcancer",
        -9.041500858069492
      ],
      [
        "Ġwalk",
        -9.042003339502823
      ],
      [
        "Ġsense",
        -9.043359590507372
      ],
      [
        "Ġlanguage",
        -9.043915117752285
      ],
      [
        "Ġam",
        -9.044485937502207
      ],
      [
        "mm",
        -9.044500418651213
      ],
      [
        "Ġkid",
        -9.046004562538524
      ],
      [
        "Ġactive",
        -9.0508212404425
      ],
      [
        "Ġmix",
        -9.05296911505519
      ],
      [
        "Ġaction",
        -9.053248045164
      ],
      [
        "Ġcool",
        -9.053335356912733
      ],
      [
        "Ġdetermine",
        -9.053588242272664
      ],
      [
        "ĠAI",
        -9.055580342450448
      ],
      [
        "Ġthought",
        -9.056336904411538
      ],
      [
        "Ġrelease",
        -9.056651446683809
      ],
      [
        "Ġbreak",
        -9.056772060950967
      ],
      [
        "Ġseason",
        -9.056826906863089
      ],
      [
        "Ġaverage",
        -9.057064534340604
      ],
      [
        "quite",
        -9.057688909992184
      ],
      [
        "Ġmethods",
        -9.060581159172052
      ],
      [
        "Ġbird",
        -9.062429047765953
      ],
      [
        "Ġgot",
        -9.062825538917895
      ],
      [
        "Ġaddress",
        -9.06320524231618
      ],
      [
        "Ġprimar",
        -9.063384322072
      ],
      [
        "Ġhold",
        -9.063856195117303
      ],
      [
        "Ġreading",
        -9.064827956750085
      ],
      [
        "Ġvehicle",
        -9.065874116095484
      ],
      [
        "Ġchoose",
        -9.06649297396234
      ],
      [
        "Ġeyes",
        -9.067084130873152
      ],
      [
        "Ġstudent",
        -9.06823145312727
      ],
      [
        "Ġview",
        -9.068981506512234
      ],
      [
        "Ġwild",
        -9.069659255857752
      ],
      [
        "Ġlarger",
        -9.070322666841314
      ],
      [
        "Ġask",
        -9.07042634879763
      ],
      [
        "ĠUnit",
        -9.071586753495795
      ],
      [
        "Ġquestions",
        -9.073074985559687
      ],
      [
        "up",
        -9.073252862591024
      ],
      [
        "From",
        -9.07462660326095
      ],
      [
        "Ġserve",
        -9.0762900822774
      ],
      [
        "Ġactivity",
        -9.07655087088676
      ],
      [
        "Ġwinter",
        -9.076796708409404
      ],
      [
        "Ġapply",
        -9.078303376037224
      ],
      [
        "ma",
        -9.078606568911926
      ],
      [
        "ĠAll",
        -9.078803212723916
      ],
      [
        "if",
        -9.078813183253438
      ],
      [
        "Ġoutside",
        -9.08041329960561
      ],
      [
        "Ġwomen",
        -9.0824740104043
      ],
      [
        "Ġcreating",
        -9.08252685521804
      ],
      [
        "cy",
        -9.084451185427554
      ],
      [
        "Ġexercise",
        -9.085006411339611
      ],
      [
        "Ġtotal",
        -9.085419567170003
      ],
      [
        "Ġgain",
        -9.085534410232825
      ],
      [
        "Ġsimply",
        -9.086757247014967
      ],
      [
        "Ġoverall",
        -9.088461428115124
      ],
      [
        ">",
        -9.090126204424028
      ],
      [
        "where",
        -9.090313879729305
      ],
      [
        "Ġdescribe",
        -9.091634747272236
      ],
      [
        "Ġwon",
        -9.092081570268189
      ],
      [
        "Ġtravel",
        -9.092095348056857
      ],
      [
        "Ġpercent",
        -9.093655403711798
      ],
      [
        "Ġfeet",
        -9.09639825183342
      ],
      [
        "Ġresources",
        -9.097438975252023
      ],
      [
        "Ġsolar",
        -9.100022820762405
      ],
      [
        "Ġnature",
        -9.100474207435578
      ],
      [
        "Ġcut",
        -9.102465354429684
      ],
      [
        "Ġwaste",
        -9.103185662402163
      ],
      [
        "ant",
        -9.104640599102511
      ],
      [
        "Ġeffort",
        -9.10533616295734
      ],
      [
        "Ġsuggest",
        -9.105354782360973
      ],
      [
        "Ġrule",
        -9.10543520805328
      ],
      [
        "Ġpast",
        -9.106644765226264
      ],
      [
        "Ġresponse",
        -9.107062256841097
      ],
      [
        "ĠCan",
        -9.107286481829751
      ],
      [
        "Ġfuel",
        -9.107465988857058
      ],
      [
        "Ġexpert",
        -9.108528785240695
      ],
      [
        "Ġtaken",
        -9.109915897027289
      ],
      [
        "no",
        -9.1105996286215
      ],
      [
        "Ġsubject",
        -9.11147832221544
      ],
      [
        "Ġidentify",
        -9.11474500855836
      ],
      [
        "Ġservices",
        -9.115612105787257
      ],
      [
        "Ġact",
        -9.11642399157934
      ],
      [
        "Ġreceive",
        -9.118096382211087
      ],
      [
        "Ġbegin",
        -9.11947275645139
      ],
      [
        "Ġjob",
        -9.120683716926573
      ],
      [
        "Ġtools",
        -9.121791601822254
      ],
      [
        "Ġwood",
        -9.122652571538842
      ],
      [
        "Ġsometime",
        -9.1228988505739
      ],
      [
        "Ġtissue",
        -9.123317421111668
      ],
      [
        "Ġteeth",
        -9.12334939472374
      ],
      [
        "Ġenhance",
        -9.123751368487971
      ],
      [
        "Ġclass",
        -9.125513111162846
      ],
      [
        "Ġadditional",
        -9.128332737073215
      ],
      [
        "ence",
        -9.131260353847608
      ],
      [
        "Ġinjur",
        -9.131602212893466
      ],
      [
        "ĠBe",
        -9.1317108473535
      ],
      [
        "Ġexperiment",
        -9.131806473288805
      ],
      [
        "Ġpay",
        -9.133201387204457
      ],
      [
        "Ġimage",
        -9.134090189960103
      ],
      [
        "Ġattention",
        -9.134240369012346
      ],
      [
        "Ġstage",
        -9.135340090713417
      ],
      [
        "Ġrelated",
        -9.136058312396068
      ],
      [
        "Ġsummer",
        -9.136556077137875
      ],
      [
        "ian",
        -9.136873197039344
      ],
      [
        "Ġvegetable",
        -9.138851111823849
      ],
      [
        "U",
        -9.14061281845974
      ],
      [
        "Ġadult",
        -9.141344207796148
      ],
      [
        "Ġdark",
        -9.144321295686655
      ],
      [
        "im",
        -9.144472135718026
      ],
      [
        "Ġhappen",
        -9.145510286060968
      ],
      [
        "Ġcustomer",
        -9.14601829438316
      ],
      [
        "gan",
        -9.14659873373236
      ],
      [
        "Ġstop",
        -9.14664672481274
      ],
      [
        "Ġmetal",
        -9.148254917884383
      ],
      [
        "ĠHere",
        -9.14919198337721
      ],
      [
        "Ġmental",
        -9.149322174989384
      ],
      [
        "Ġbalance",
        -9.149896269941536
      ],
      [
        "Ġbirds",
        -9.152110851531308
      ],
      [
        "Ġever",
        -9.152501330595264
      ],
      [
        "Ġthread",
        -9.153160070715668
      ],
      [
        "Ġanything",
        -9.153196169268597
      ],
      [
        "ĠWhil",
        -9.15510984416673
      ],
      [
        "Ġrelationship",
        -9.15558021508473
      ],
      [
        "Ġnight",
        -9.155822785806224
      ],
      [
        "Ġtrees",
        -9.156220768609664
      ],
      [
        "Ġsoftware",
        -9.156846937874622
      ],
      [
        "Ġal",
        -9.156893148961514
      ],
      [
        "ge",
        -9.156911472038267
      ],
      [
        "Ġmovement",
        -9.15732480845541
      ],
      [
        "Ġcarbon",
        -9.160556048822707
      ],
      [
        "Ġlength",
        -9.160934979810984
      ],
      [
        "Ġhot",
        -9.161393177699026
      ],
      [
        ").Ċ",
        -9.161452013246356
      ],
      [
        "Ġrepresent",
        -9.1617128077373
      ],
      [
        "ĠAt",
        -9.162791291507316
      ],
      [
        "ĠDr",
        -9.163403436332684
      ],
      [
        "Ġsea",
        -9.163981837819476
      ],
      [
        "Ġrelative",
        -9.164550789807327
      ],
      [
        "Ġalmost",
        -9.16596508181264
      ],
      [
        "Ġefficient",
        -9.166462859941404
      ],
      [
        "Ġacid",
        -9.167501564060084
      ],
      [
        "Ġfront",
        -9.16793728066838
      ],
      [
        "Ġdaily",
        -9.1705762424656
      ],
      [
        "Ġfit",
        -9.171314878690712
      ],
      [
        "Ġprevious",
        -9.173703131470296
      ],
      [
        "Ġweather",
        -9.1741797185729
      ],
      [
        "Ġexact",
        -9.17528937029686
      ],
      [
        "Ġvisit",
        -9.176621626923277
      ],
      [
        "Ġunit",
        -9.1767867336965
      ],
      [
        "yet",
        -9.178566084129663
      ],
      [
        "Ġsuccessful",
        -9.182593672070656
      ],
      [
        "Ġseeds",
        -9.18299636672645
      ],
      [
        "ium",
        -9.18317540003186
      ],
      [
        "Ġeasie",
        -9.184743314732192
      ],
      [
        "ese",
        -9.18526727244485
      ],
      [
        "\"ĊĊ",
        -9.188667807799373
      ],
      [
        "Ġstudies",
        -9.189922058262937
      ],
      [
        "Ġextreme",
        -9.189928035233653
      ],
      [
        ".\"",
        -9.190062174057516
      ],
      [
        "One",
        -9.191863863070978
      ],
      [
        "ier",
        -9.192549530758384
      ],
      [
        "Ġdigital",
        -9.19285401400978
      ],
      [
        "Ġdi",
        -9.193753698633524
      ],
      [
        "Ġreview",
        -9.194372381496752
      ],
      [
        "Ġstarted",
        -9.194383255523435
      ],
      [
        "ling",
        -9.194540808307124
      ],
      [
        "Why",
        -9.19592488310458
      ],
      [
        "Ġfemale",
        -9.19648366006275
      ],
      [
        "Ġhumans",
        -9.197279720447185
      ],
      [
        "Ġsite",
        -9.198007991012526
      ],
      [
        "Ġcharge",
        -9.202951520224394
      ],
      [
        "Ġaccount",
        -9.204996323368718
      ],
      [
        "Ġfat",
        -9.20505531787535
      ],
      [
        "Ġincreasing",
        -9.20588884122171
      ],
      [
        "ized",
        -9.20669310040232
      ],
      [
        "Ġfile",
        -9.209140387619035
      ],
      [
        "Ġgenerally",
        -9.209896806084997
      ],
      [
        "Ġrest",
        -9.21010222568103
      ],
      [
        "Ġengine",
        -9.21020199167307
      ],
      [
        "Ġfriend",
        -9.210708039234508
      ],
      [
        "Ġpass",
        -9.210770408600256
      ],
      [
        "Ġextra",
        -9.213667793492592
      ],
      [
        "Ġart",
        -9.213872583689891
      ],
      [
        "by",
        -9.214124263392986
      ],
      [
        "Ġmultiple",
        -9.21527664778158
      ],
      [
        "cannot",
        -9.216755165038602
      ],
      [
        "Ġwait",
        -9.21713803142242
      ],
      [
        "Ġengineer",
        -9.217290407389804
      ],
      [
        "ĠNational",
        -9.21746037516766
      ],
      [
        "Ġadvantage",
        -9.218695149682445
      ],
      [
        "Ġcountry",
        -9.219258346762608
      ],
      [
        "Ġlater",
        -9.21952797254392
      ],
      [
        "Ġregard",
        -9.220187012175211
      ],
      [
        "Ġflavor",
        -9.221827860159603
      ],
      [
        "Ġbad",
        -9.222593341886146
      ],
      [
        "ship",
        -9.224579343062048
      ],
      [
        "Ġfinal",
        -9.22752783684171
      ],
      [
        "Ġdiscuss",
        -9.228369760759724
      ],
      [
        "Ġoriginal",
        -9.229416278764033
      ],
      [
        "Ġspread",
        -9.229475370295631
      ],
      [
        "Ġnutrient",
        -9.230078722622416
      ],
      [
        "Ġdeliver",
        -9.231399007902626
      ],
      [
        "ĠUse",
        -9.23560811763223
      ],
      [
        "Ġcrop",
        -9.23845580432468
      ],
      [
        "Ġdirectly",
        -9.239514238177517
      ],
      [
        "Ġchance",
        -9.24009198011196
      ],
      [
        "Ġice",
        -9.240897734537011
      ],
      [
        "Ġconnection",
        -9.241167762260645
      ],
      [
        "ĠâĢľ",
        -9.242182379920152
      ],
      [
        "Ġinterest",
        -9.24350602322036
      ],
      [
        "Ġisn",
        -9.245101287913103
      ],
      [
        "Ġglobal",
        -9.245104063993574
      ],
      [
        "Ġwords",
        -9.245587401390008
      ],
      [
        "Ġcommunication",
        -9.246859818786575
      ],
      [
        "Ġnegative",
        -9.248285359881551
      ],
      [
        "Ġplayer",
        -9.248359344981012
      ],
      [
        "ĠShe",
        -9.249770398048188
      ],
      [
        "Ġfinding",
        -9.249843041114596
      ],
      [
        "Ġtrue",
        -9.250104448981066
      ],
      [
        "light",
        -9.250257986126568
      ],
      [
        "Ġexplore",
        -9.254265375021662
      ],
      [
        "Ġgenetic",
        -9.255008262929865
      ],
      [
        "ated",
        -9.255194375791003
      ],
      [
        "Ġsub",
        -9.256123135595033
      ],
      [
        "Ġappropriate",
        -9.25653517787106
      ],
      [
        "Â°",
        -9.25695101215478
      ],
      [
        "Ġfive",
        -9.257072599326351
      ],
      [
        "Ġhear",
        -9.258366004940148
      ],
      [
        "Ġscientists",
        -9.25874140121718
      ],
      [
        "Ġmeat",
        -9.260735546442708
      ],
      [
        "-to",
        -9.26210196575029
      ],
      [
        "Ġfun",
        -9.262588340847431
      ],
      [
        "Ġtend",
        -9.262780607144869
      ],
      [
        "care",
        -9.263123791888052
      ],
      [
        "Ġdrive",
        -9.263277742612454
      ],
      [
        "Ġman",
        -9.26620525624902
      ],
      [
        "Ġtable",
        -9.266302102738836
      ],
      [
        "ĠUS",
        -9.267201216454628
      ],
      [
        "Ġdirection",
        -9.26750305152972
      ],
      [
        "Ġmodern",
        -9.267650667508248
      ],
      [
        "ĠNorth",
        -9.268840652070011
      ],
      [
        "Ġwatch",
        -9.26923192111497
      ],
      [
        "bility",
        -9.269494871206904
      ],
      [
        "Ġreturn",
        -9.269992571525856
      ],
      [
        "Ġshown",
        -9.270180271594263
      ],
      [
        "Ġfix",
        -9.270291487281458
      ],
      [
        "Ġdirect",
        -9.271649321647024
      ],
      [
        "Ġsensor",
        -9.271692867132687
      ],
      [
        "But",
        -9.271941946395057
      ],
      [
        "Ġcaus",
        -9.271990636185592
      ],
      [
        "over",
        -9.274510972376625
      ],
      [
        "Ġnotice",
        -9.275226254839062
      ],
      [
        "Ġkill",
        -9.277537879173186
      ],
      [
        "Ġequipment",
        -9.277607693287564
      ],
      [
        "Ġthemsel",
        -9.278254211633776
      ],
      [
        "Ġtopic",
        -9.27884630215008
      ],
      [
        "Ġorganization",
        -9.27941061359144
      ],
      [
        "Ġbenefit",
        -9.280669563534524
      ],
      [
        "ĠJ",
        -9.28280104559505
      ],
      [
        "Ġtips",
        -9.283227525394963
      ],
      [
        "Ġcenter",
        -9.283503422904916
      ],
      [
        "Ġalternative",
        -9.284583938670943
      ],
      [
        "ĠHealth",
        -9.285681671570115
      ],
      [
        "ĠAfter",
        -9.286391069207616
      ],
      [
        "Ġsave",
        -9.288595611844944
      ],
      [
        "Ġsupply",
        -9.290308972856067
      ],
      [
        "ism",
        -9.29202150805127
      ],
      [
        "Ġglass",
        -9.292180239928976
      ],
      [
        "line",
        -9.29242753154971
      ],
      [
        "Ġflowers",
        -9.293220713674698
      ],
      [
        "Ġrunn",
        -9.293317555426992
      ],
      [
        "Ġword",
        -9.294248503088124
      ],
      [
        "Ġwebsite",
        -9.29512096987184
      ],
      [
        "Ġfire",
        -9.295443690884458
      ],
      [
        "Ġreaction",
        -9.295533937557169
      ],
      [
        "ver",
        -9.295578321957665
      ],
      [
        "Ġconnect",
        -9.296766717219413
      ],
      [
        "Ġbehind",
        -9.296901429295314
      ],
      [
        "Ġenter",
        -9.296942823929554
      ],
      [
        "Ġsteps",
        -9.298711903035615
      ],
      [
        "Ġmass",
        -9.299266833964635
      ],
      [
        "Ġfill",
        -9.299527018197685
      ],
      [
        "Do",
        -9.300183968441944
      ],
      [
        "Ġcode",
        -9.302551626983952
      ],
      [
        "ĠSt",
        -9.302563980865283
      ],
      [
        "Ġfresh",
        -9.30349394081612
      ],
      [
        "ory",
        -9.30530314252937
      ],
      [
        "Ġeggs",
        -9.30765964480138
      ],
      [
        "Ġspring",
        -9.310516704308007
      ],
      [
        "Ġrepair",
        -9.312965052673782
      ],
      [
        "Ġaspect",
        -9.31297827146043
      ],
      [
        "Ġelse",
        -9.312982901962547
      ],
      [
        "Ġmonth",
        -9.313206513360432
      ],
      [
        "Ġrequirement",
        -9.314113083230318
      ],
      [
        "Ġconcept",
        -9.314145383507816
      ],
      [
        "Ġfine",
        -9.314201445336147
      ],
      [
        "Ġeveryone",
        -9.317270669697436
      ],
      [
        "ĠScience",
        -9.317703926001403
      ],
      [
        "Ġmeal",
        -9.321175982183156
      ],
      [
        "Ġindicate",
        -9.32138926770134
      ],
      [
        "Ġaware",
        -9.322994439110229
      ],
      [
        "Ġreduc",
        -9.32325941566576
      ],
      [
        "Ġmeet",
        -9.324220827339808
      ],
      [
        "ha",
        -9.324597602581232
      ],
      [
        "+",
        -9.324612787151466
      ],
      [
        "Ġforest",
        -9.32552198586608
      ],
      [
        "Ġframe",
        -9.325865918907162
      ],
      [
        "Another",
        -9.326267169924105
      ],
      [
        "Ġroot",
        -9.326552116554332
      ],
      [
        "ization",
        -9.32884378229511
      ],
      [
        "Ġinfluence",
        -9.32966255556932
      ],
      [
        "ial",
        -9.331759056621705
      ],
      [
        "Ġcontribute",
        -9.332676478221876
      ],
      [
        "Ġingredient",
        -9.332956793594274
      ],
      [
        "Ġbag",
        -9.33530027764277
      ],
      [
        "Ġseek",
        -9.337400542578187
      ],
      [
        "Ġuseful",
        -9.338131152702168
      ],
      [
        "Ġachieve",
        -9.338360647788198
      ],
      [
        "Ġinstall",
        -9.338629176685613
      ],
      [
        "once",
        -9.33877114993492
      ],
      [
        "J",
        -9.338833334750166
      ],
      [
        "Ġmale",
        -9.339535998677636
      ],
      [
        "Ġprotection",
        -9.339790868277632
      ],
      [
        "Ġanalysis",
        -9.340330118052425
      ],
      [
        "Ġdoctor",
        -9.34218674607848
      ],
      [
        "Ġelectrical",
        -9.342624487529136
      ],
      [
        "Ġserious",
        -9.34403865983396
      ],
      [
        "Ġhabitat",
        -9.346438537261374
      ],
      [
        "Ġfeed",
        -9.34663437121631
      ],
      [
        "Ġhair",
        -9.347769314198429
      ],
      [
        "Ġconstruction",
        -9.348084187134068
      ],
      [
        "ĠStates",
        -9.34928735730656
      ],
      [
        "Ġpage",
        -9.34953762836244
      ],
      [
        "Ġconstant",
        -9.349629712958023
      ],
      [
        "Ġimmediate",
        -9.3533656565407
      ],
      [
        "Ġscale",
        -9.354851370849044
      ],
      [
        "Ġfarm",
        -9.354932409633092
      ],
      [
        "Ġdate",
        -9.355102991456402
      ],
      [
        "Ġtrack",
        -9.355668799487551
      ],
      [
        "Ġsuitable",
        -9.355796520772518
      ],
      [
        "den",
        -9.356085505334327
      ],
      [
        "Ġready",
        -9.356241043999814
      ],
      [
        "Ġtouch",
        -9.356583493212511
      ],
      [
        "Ġstory",
        -9.35661370301534
      ],
      [
        "Ġago",
        -9.356628077437753
      ],
      [
        "Ġcycle",
        -9.357448709256266
      ],
      [
        "ten",
        -9.358412852963289
      ],
      [
        "Ġattack",
        -9.362150915351766
      ],
      [
        "Ġgroups",
        -9.36227447326589
      ],
      [
        "Ġsample",
        -9.362915587193717
      ],
      [
        "Ġcircuit",
        -9.363751831303311
      ],
      [
        "Ġfrequent",
        -9.363901074286716
      ],
      [
        "Ġgovernment",
        -9.36611775406936
      ],
      [
        "ĠMay",
        -9.366304226537236
      ],
      [
        "Ġadded",
        -9.366610760179526
      ],
      [
        "**",
        -9.367031464128504
      ],
      [
        "of",
        -9.367095975839298
      ],
      [
        "vi",
        -9.367914530838872
      ],
      [
        "Ġflight",
        -9.37206998053558
      ],
      [
        "Ġdiscover",
        -9.37208395782728
      ],
      [
        "ities",
        -9.373228186322676
      ],
      [
        "ĠEarth",
        -9.375557909872182
      ],
      [
        "Ġhearing",
        -9.377029018963595
      ],
      [
        "Ġperform",
        -9.379385743084924
      ],
      [
        "Ġfiber",
        -9.37953382045385
      ],
      [
        "Ġtaste",
        -9.381175895700984
      ],
      [
        "Ġfeeling",
        -9.38252304857129
      ],
      [
        "ĠYes",
        -9.383433259775392
      ],
      [
        "ecause",
        -9.383603245176182
      ],
      [
        "Ġboard",
        -9.383806495398163
      ],
      [
        "Ġcount",
        -9.386408833851032
      ],
      [
        "moving",
        -9.386732029489334
      ],
      [
        "Ġplann",
        -9.386915115770297
      ],
      [
        "Ġdocument",
        -9.388223605478188
      ],
      [
        "Ġbrand",
        -9.388932163467398
      ],
      [
        "work",
        -9.389003386718054
      ],
      [
        "Ġremember",
        -9.3896298087063
      ],
      [
        "ĠMy",
        -9.39187722943056
      ],
      [
        "Ġequal",
        -9.392029841451684
      ],
      [
        "Ġnote",
        -9.392302504624896
      ],
      [
        "Ġserie",
        -9.392594415180264
      ],
      [
        "Ġdrink",
        -9.393006445509776
      ],
      [
        "Ġmemory",
        -9.39331343397764
      ],
      [
        "Ġsix",
        -9.393954532076409
      ],
      [
        "Ġcompare",
        -9.394137391176164
      ],
      [
        "me",
        -9.395731016321268
      ],
      [
        "Ġweeks",
        -9.39692018614572
      ],
      [
        "Ġtesting",
        -9.397636148016126
      ],
      [
        "Ġinstruction",
        -9.400086610475183
      ],
      [
        "Whil",
        -9.401365684099035
      ],
      [
        "Ġcountr",
        -9.401525347976484
      ],
      [
        "Can",
        -9.40160211686257
      ],
      [
        "Ġinput",
        -9.40194062172526
      ],
      [
        "Ġcritical",
        -9.402860810705809
      ],
      [
        "Ġspend",
        -9.40344214563548
      ],
      [
        "side",
        -9.404711273953104
      ],
      [
        "Ġprocedure",
        -9.405300388079542
      ],
      [
        "Ġprett",
        -9.405344578491295
      ],
      [
        "ent",
        -9.406211247271424
      ],
      [
        "Ġjourney",
        -9.40813475381938
      ],
      [
        "=",
        -9.410352516976564
      ],
      [
        "Ġblue",
        -9.41062046503663
      ],
      [
        "Ġgenerate",
        -9.410663443621289
      ],
      [
        "ĠCalifornia",
        -9.412102467903376
      ],
      [
        "Ġwear",
        -9.4135960538267
      ],
      [
        "Ġmulti",
        -9.415284009915815
      ],
      [
        "Ġdistance",
        -9.416349646358556
      ],
      [
        "Ġgreater",
        -9.416618693422071
      ],
      [
        "Ġlack",
        -9.417262590075715
      ],
      [
        "Ġorganic",
        -9.417649384860775
      ],
      [
        "Ġinitial",
        -9.41922509456348
      ],
      [
        "Ġdeal",
        -9.420256621076
      ],
      [
        "Ġmembers",
        -9.420936708573551
      ],
      [
        "Ġdidn",
        -9.422733388161348
      ],
      [
        "ard",
        -9.423796632690902
      ],
      [
        "Ġconduct",
        -9.42458525760228
      ],
      [
        "Ġideal",
        -9.424601834869907
      ],
      [
        "Ġwind",
        -9.424756708231456
      ],
      [
        "Ġflower",
        -9.425354527994426
      ],
      [
        "Ġmoment",
        -9.425457194534811
      ],
      [
        "ĠSouth",
        -9.42694530268899
      ],
      [
        "per",
        -9.428373339810348
      ],
      [
        "Each",
        -9.428958187343152
      ],
      [
        "ĠSchool",
        -9.429469341779376
      ],
      [
        "Ġtrain",
        -9.42981675762896
      ],
      [
        "Ġrecord",
        -9.430258325737274
      ],
      [
        "Ġcareful",
        -9.43107160365065
      ],
      [
        "These",
        -9.431165245679548
      ],
      [
        "Ġhorse",
        -9.43295053901229
      ],
      [
        "Ġcleaning",
        -9.432991830386014
      ],
      [
        "Ġpromote",
        -9.433199540075588
      ],
      [
        "ure",
        -9.435757940415714
      ],
      [
        "ut",
        -9.437716267238734
      ],
      [
        "Ġfoot",
        -9.438047753974365
      ],
      [
        "Ġclaim",
        -9.438319022609004
      ],
      [
        "Some",
        -9.43879106651732
      ],
      [
        "life",
        -9.43905605760122
      ],
      [
        "Ġbaby",
        -9.439459983638663
      ],
      [
        "companie",
        -9.439490454761003
      ],
      [
        "Ġstem",
        -9.439779312223324
      ],
      [
        "ĠMore",
        -9.440058353224869
      ],
      [
        "Al",
        -9.440788417872692
      ],
      [
        "Ġstrength",
        -9.441123895339192
      ],
      [
        "Ġextend",
        -9.44148624985393
      ],
      [
        "Ġcombination",
        -9.445690053555891
      ],
      [
        "Ġload",
        -9.44607186988278
      ],
      [
        "Ġgames",
        -9.446222009479932
      ],
      [
        "Using",
        -9.446468507292929
      ],
      [
        "Ġsuccess",
        -9.446602069733864
      ],
      [
        "Ġteachers",
        -9.447227822074789
      ],
      [
        "ex",
        -9.447841687320087
      ],
      [
        "Ġbox",
        -9.448476513468048
      ],
      [
        "ions",
        -9.449537029311324
      ],
      [
        "Ġpattern",
        -9.45111637761513
      ],
      [
        "Ġedge",
        -9.451461192040426
      ],
      [
        "Ġmouth",
        -9.451543549107964
      ],
      [
        "Ġfeature",
        -9.451878189712414
      ],
      [
        "Ġcentur",
        -9.45209116873293
      ],
      [
        "Ġstyle",
        -9.45234765452747
      ],
      [
        "Ġfly",
        -9.45299014793563
      ],
      [
        "Ġhope",
        -9.453022036198622
      ],
      [
        "hose",
        -9.453727380613229
      ],
      [
        "Ġseparate",
        -9.455390035964772
      ],
      [
        "ph",
        -9.45642108291177
      ],
      [
        "Ġwire",
        -9.456893175572166
      ],
      [
        "wise",
        -9.45703174938599
      ],
      [
        "Ġchallenges",
        -9.45777945876558
      ],
      [
        "Ġapp",
        -9.460646860257448
      ],
      [
        "Ġsecurity",
        -9.460932813955766
      ],
      [
        "we",
        -9.46221163420607
      ],
      [
        "Ġdeath",
        -9.462275703388418
      ],
      [
        "ĠMost",
        -9.462625092527356
      ],
      [
        "Ġdetect",
        -9.462806935008224
      ],
      [
        "Ġculture",
        -9.463027906560985
      ],
      [
        "Ġreplace",
        -9.463429363369082
      ],
      [
        "Ġpatterns",
        -9.463630258227491
      ],
      [
        "Ġnative",
        -9.464794035001564
      ],
      [
        "Ġaim",
        -9.465235974628762
      ],
      [
        "Ġimportanc",
        -9.465340879252745
      ],
      [
        "Ġleg",
        -9.467574360526587
      ],
      [
        "ĠCo",
        -9.470054885290498
      ],
      [
        "j",
        -9.470718835557117
      ],
      [
        "Ġcon",
        -9.471753348628384
      ],
      [
        "tenanc",
        -9.471936002340607
      ],
      [
        "$",
        -9.472294240103192
      ],
      [
        "Ġevidence",
        -9.472672779134763
      ],
      [
        "Ġsearch",
        -9.473105822795503
      ],
      [
        "time",
        -9.474211002819954
      ],
      [
        "ng",
        -9.475174768886646
      ],
      [
        "rapy",
        -9.475784336908257
      ],
      [
        "Ġfilter",
        -9.47690657995173
      ],
      [
        "Ġrare",
        -9.47713151145839
      ],
      [
        "Ġefficiency",
        -9.47716140699412
      ],
      [
        "On",
        -9.47868525070663
      ],
      [
        "Ġgoe",
        -9.478833549454771
      ],
      [
        "Ġworth",
        -9.480223448907392
      ],
      [
        "ĠDNA",
        -9.48162585645938
      ],
      [
        "Ġvision",
        -9.481728731292293
      ],
      [
        "Ġadapt",
        -9.48183340808319
      ],
      [
        "aking",
        -9.483154508253934
      ],
      [
        "Ġcamera",
        -9.483459542606314
      ],
      [
        "Ġfoods",
        -9.484085956703368
      ],
      [
        "Ġcapacit",
        -9.484753644368231
      ],
      [
        "By",
        -9.48547783761499
      ],
      [
        "Ġresponsibl",
        -9.485678786582003
      ],
      [
        "Ġmusic",
        -9.486106201678666
      ],
      [
        "Q",
        -9.486805267390626
      ],
      [
        "Ġcarry",
        -9.48829708726837
      ],
      [
        "ĠOr",
        -9.489362206022264
      ],
      [
        "Ġdemand",
        -9.489717614433516
      ],
      [
        "Ġinstance",
        -9.489720357775894
      ],
      [
        "Ġteacher",
        -9.493537696528058
      ],
      [
        "Ġteaching",
        -9.49472048692185
      ],
      [
        "Ġear",
        -9.495541404777605
      ],
      [
        "Ġgeneration",
        -9.498238769795035
      ],
      [
        "Ġpanel",
        -9.500584558436389
      ],
      [
        "Ġbuilt",
        -9.501803713101182
      ],
      [
        "hi",
        -9.501968619746084
      ],
      [
        "Ġcouple",
        -9.502082439602592
      ],
      [
        "Ġliquid",
        -9.50228278923548
      ],
      [
        "Ġprocesses",
        -9.502721695547596
      ],
      [
        "Ġwave",
        -9.503583153427895
      ],
      [
        "ating",
        -9.504008907765035
      ],
      [
        "Ġworks",
        -9.504719450873008
      ],
      [
        "Ġdraw",
        -9.505975919003532
      ],
      [
        "Ġfracture",
        -9.507048012322258
      ],
      [
        "Ġensur",
        -9.507093341084294
      ],
      [
        "ĠAmerica",
        -9.508590237573982
      ],
      [
        "Ġsevere",
        -9.50935804731038
      ],
      [
        "Ġresistance",
        -9.509457028426542
      ],
      [
        "ĠâĢ¦",
        -9.50954367980077
      ],
      [
        "Ġsigns",
        -9.509734194443714
      ],
      [
        "An",
        -9.51060930174506
      ],
      [
        "Ġcap",
        -9.5118190355966
      ],
      [
        ".S",
        -9.512642242764242
      ],
      [
        "ĠAdditional",
        -9.512888835258249
      ],
      [
        "Ġsmooth",
        -9.515457970323798
      ],
      [
        "Ġcity",
        -9.51608218592702
      ],
      [
        "Ġheavy",
        -9.51626439698268
      ],
      [
        "Ġhandle",
        -9.516764878038902
      ],
      [
        "><",
        -9.51726786454645
      ],
      [
        "op",
        -9.517772391952164
      ],
      [
        "Ġdriver",
        -9.517866411345585
      ],
      [
        "ĠOur",
        -9.518091120649649
      ],
      [
        "ru",
        -9.518465545081275
      ],
      [
        "Ġcompar",
        -9.519542790219308
      ],
      [
        "Ġfluid",
        -9.520255419997088
      ],
      [
        "giving",
        -9.522611880445826
      ],
      [
        "Ġpick",
        -9.52422441294852
      ],
      [
        "Ġversion",
        -9.524509054733471
      ],
      [
        "Ġbright",
        -9.52667509034369
      ],
      [
        "Ġparticle",
        -9.52692061919117
      ],
      [
        "Ġpack",
        -9.52799297936
      ],
      [
        "ĠOf",
        -9.528089133606636
      ],
      [
        "ĠNot",
        -9.528303701240045
      ],
      [
        "ĠModel",
        -9.528600041091178
      ],
      [
        "ĠResearch",
        -9.528847808226333
      ],
      [
        "ho",
        -9.530441216447876
      ],
      [
        "Ġscientific",
        -9.532062470325226
      ],
      [
        "ĠThen",
        -9.532074597503986
      ],
      [
        "-term",
        -9.535758712846844
      ],
      [
        "Ġrich",
        -9.53601455339524
      ],
      [
        "X",
        -9.536268040659325
      ],
      [
        "Ġbreed",
        -9.53752663738159
      ],
      [
        "Ġstand",
        -9.538059663596853
      ],
      [
        "Ġvary",
        -9.538247648675656
      ],
      [
        "Ġvisual",
        -9.538380520813996
      ],
      [
        "With",
        -9.53934935078021
      ],
      [
        "Ġdriv",
        -9.539863898193405
      ],
      [
        "Ġwriting",
        -9.540201774488338
      ],
      [
        "ĠAre",
        -9.54021418749532
      ],
      [
        "Ġaccurate",
        -9.540384196419271
      ],
      [
        "ĠWorld",
        -9.540530157638653
      ],
      [
        "Ġinteraction",
        -9.54119234353517
      ],
      [
        "ill",
        -9.542558354685635
      ],
      [
        "Ġobtain",
        -9.542646639501385
      ],
      [
        "Ġroad",
        -9.542947463626495
      ],
      [
        "he",
        -9.543866609518686
      ],
      [
        "Ġseed",
        -9.543966671078833
      ],
      [
        "Ġinches",
        -9.544723551094826
      ],
      [
        "Ġsecure",
        -9.545704390054931
      ],
      [
        "Ġincluded",
        -9.54622734534915
      ],
      [
        "Ġnothing",
        -9.546372556339238
      ],
      [
        "Ġmeasurement",
        -9.548257149780229
      ],
      [
        "Ġfloor",
        -9.548755868744836
      ],
      [
        "Ġbeautiful",
        -9.549472844604724
      ],
      [
        "Ġmoistur",
        -9.550606844751814
      ],
      [
        "Ġsoft",
        -9.551489084621917
      ],
      [
        "pe",
        -9.55171219273738
      ],
      [
        "Ġmedication",
        -9.552320193675367
      ],
      [
        "ĠRo",
        -9.555759269378909
      ],
      [
        "Ġdefine",
        -9.556454769930752
      ],
      [
        "Ġwrite",
        -9.55698119034319
      ],
      [
        "Ġcolour",
        -9.557269591517668
      ],
      [
        "Ġgene",
        -9.557914621121071
      ],
      [
        "Ġfinish",
        -9.558213938791432
      ],
      [
        "Ġcross",
        -9.558288425836311
      ],
      [
        "Step",
        -9.558390127624932
      ],
      [
        "que",
        -9.560945500697716
      ],
      [
        "Ġmedia",
        -9.56227993830327
      ],
      [
        "Ġpath",
        -9.562415782263008
      ],
      [
        "Ġpro",
        -9.564206789351092
      ],
      [
        "Ġrapid",
        -9.565558580402476
      ],
      [
        "Ġpull",
        -9.56560837700684
      ],
      [
        "Ġexposure",
        -9.566290966068756
      ],
      [
        "Ġpublished",
        -9.566985601393
      ],
      [
        "Ġanyone",
        -9.567284168904823
      ],
      [
        "Ġprograms",
        -9.567293265091616
      ],
      [
        "Ġslight",
        -9.56741636952951
      ],
      [
        "ĠWhy",
        -9.567825267793664
      ],
      [
        "Ġphone",
        -9.56979677384589
      ],
      [
        "Ġlives",
        -9.570409883728573
      ],
      [
        "Ġadvanced",
        -9.570562632687423
      ],
      [
        "Ġcame",
        -9.57089630400136
      ],
      [
        "Ġcharacteristic",
        -9.572557036364712
      ],
      [
        "Ġsoon",
        -9.573253568689497
      ],
      [
        "Ġphotograph",
        -9.573401124382706
      ],
      [
        "Ġfabric",
        -9.57401009978592
      ],
      [
        "Ġbottom",
        -9.57428320629714
      ],
      [
        "Ġthird",
        -9.574870556736236
      ],
      [
        "ĠState",
        -9.575217785611091
      ],
      [
        "Ġphoto",
        -9.577574342211085
      ],
      [
        "Ġapplied",
        -9.578020173411666
      ],
      [
        "Ġpush",
        -9.57961268435547
      ],
      [
        "Ġthinking",
        -9.580771413780573
      ],
      [
        "Ġbar",
        -9.583187745158853
      ],
      [
        "Ġrise",
        -9.58387344012536
      ],
      [
        "Ġoutput",
        -9.58459949501388
      ],
      [
        "They",
        -9.58714836231164
      ],
      [
        "ture",
        -9.587919745115189
      ],
      [
        "ring",
        -9.589184836824838
      ],
      [
        "Ġdoor",
        -9.589392694218889
      ],
      [
        "No",
        -9.58998244705208
      ],
      [
        "Ġlesson",
        -9.590134568466723
      ],
      [
        "Ġenable",
        -9.590300089093208
      ],
      [
        "Ġtransport",
        -9.591687920167267
      ],
      [
        "Ġmeaning",
        -9.592072286040558
      ],
      [
        "Ġpowerful",
        -9.592210672380514
      ],
      [
        "Ġyellow",
        -9.592294198623886
      ],
      [
        "Ġhit",
        -9.59272708642391
      ],
      [
        "Ġlocate",
        -9.592868444707864
      ],
      [
        "ĠMake",
        -9.594610943234782
      ],
      [
        "Ġpaint",
        -9.595894789376718
      ],
      [
        "Ġburn",
        -9.598814056292166
      ],
      [
        "ĠRead",
        -9.599453117218149
      ],
      [
        "Ġfriends",
        -9.600229746019403
      ],
      [
        "Ġadjust",
        -9.600529014444138
      ],
      [
        "head",
        -9.601141180774691
      ],
      [
        "Ġdiabet",
        -9.601708795675073
      ],
      [
        "Ġmilk",
        -9.601916892157153
      ],
      [
        "Ġinter",
        -9.602745259138668
      ],
      [
        "Ġdrain",
        -9.603018204244869
      ],
      [
        "Ġexpand",
        -9.603345266335948
      ],
      [
        "Ġconsist",
        -9.604499330243469
      ],
      [
        "ca",
        -9.60467833912491
      ],
      [
        "day",
        -9.604884057929496
      ],
      [
        "Ġmother",
        -9.60496961277618
      ],
      [
        "Ġsuper",
        -9.607052756886803
      ],
      [
        "Ġvaluable",
        -9.608386063833995
      ],
      [
        "Ġimmune",
        -9.61122840007154
      ],
      [
        "men",
        -9.611959011763396
      ],
      [
        "ĠWho",
        -9.6131122431288
      ],
      [
        "iz",
        -9.613485511088442
      ],
      [
        "Ġ#",
        -9.61476207226544
      ],
      [
        "Ġbrown",
        -9.615503565067137
      ],
      [
        "ĠLa",
        -9.61810261846087
      ],
      [
        "fish",
        -9.619102154280933
      ],
      [
        "âĢĿ",
        -9.619269156039977
      ],
      [
        "expensive",
        -9.6193005699446
      ],
      [
        "Ġimages",
        -9.621043324797837
      ],
      [
        "Ġcable",
        -9.621190880560537
      ],
      [
        "Ġconsistent",
        -9.62263629763968
      ],
      [
        "Ġpoor",
        -9.6229688049274
      ],
      [
        "ble",
        -9.624359004274744
      ],
      [
        "Ġsolutions",
        -9.624667683573836
      ],
      [
        "min",
        -9.625208931510215
      ],
      [
        "Ġpollution",
        -9.625341060054332
      ],
      [
        "Ġlaw",
        -9.625502222841074
      ],
      [
        "lost",
        -9.629764060948524
      ],
      [
        "Ġpicture",
        -9.630039990348251
      ],
      [
        "Ġencourage",
        -9.63014194481332
      ],
      [
        "Ġvoltage",
        -9.6325782117179
      ],
      [
        "ĠTheir",
        -9.63416196764047
      ],
      [
        "Ġaccept",
        -9.634939653651928
      ],
      [
        "Ġca",
        -9.635656466001308
      ],
      [
        "Ġball",
        -9.635991915301055
      ],
      [
        "Ġcomfortabl",
        -9.636133615759706
      ],
      [
        "Ġideas",
        -9.636426648833025
      ],
      [
        "Ġinteresting",
        -9.636456682341104
      ],
      [
        "Ġtransform",
        -9.637511130040275
      ],
      [
        "ĠAfrica",
        -9.63861147744476
      ],
      [
        "Ġhappens",
        -9.639800728418898
      ],
      [
        "Ġthousand",
        -9.640111663721058
      ],
      [
        "Ġdepth",
        -9.640112081300323
      ],
      [
        "Ġoxygen",
        -9.640125287215024
      ],
      [
        "Ġsustainabl",
        -9.641306278052554
      ],
      [
        "Ġ--",
        -9.641847781397216
      ],
      [
        "Ġcoast",
        -9.642799056245687
      ],
      [
        "Ġdecrease",
        -9.642809123884842
      ],
      [
        "Now",
        -9.64293053820749
      ],
      [
        "Ġexcellent",
        -9.643040792387414
      ],
      [
        "Ġplatform",
        -9.643302049688817
      ],
      [
        "Ġsort",
        -9.643393518522462
      ],
      [
        "Ġhands",
        -9.643777036624956
      ],
      [
        "Ġvitamin",
        -9.644223903735703
      ],
      [
        "ĠFirst",
        -9.64505735564192
      ],
      [
        "Ġchang",
        -9.64506904249152
      ],
      [
        "Ġwrong",
        -9.645123467454754
      ],
      [
        "spite",
        -9.645376038956847
      ],
      [
        "Ġpest",
        -9.645489529246207
      ],
      [
        "Ġfigure",
        -9.64598891661182
      ],
      [
        "Ġrefer",
        -9.646209724560402
      ],
      [
        "ĠCenter",
        -9.646300831808729
      ],
      [
        "Ġmatch",
        -9.646497140934509
      ],
      [
        "Ġstates",
        -9.647843515786754
      ],
      [
        "Ġled",
        -9.648062079697578
      ],
      [
        "Ġdie",
        -9.648571195902422
      ],
      [
        "Ġprocessor",
        -9.648673561168122
      ],
      [
        "Ġmanufacturer",
        -9.64965015220161
      ],
      [
        "Ġmap",
        -9.64994868699676
      ],
      [
        "Ġreflect",
        -9.651582287207786
      ],
      [
        "Ġrain",
        -9.652907370066464
      ],
      [
        "came",
        -9.65338244954494
      ],
      [
        "Ġvolume",
        -9.654303747270088
      ],
      [
        "ĠEnglish",
        -9.654650106995607
      ],
      [
        "Ġplanet",
        -9.65496302583634
      ],
      [
        "Ġ|",
        -9.65610805755952
      ],
      [
        "Ġmonitor",
        -9.656116814871147
      ],
      [
        "Ġattempt",
        -9.657744592126823
      ],
      [
        "Ġaid",
        -9.657989738699117
      ],
      [
        "ĠUK",
        -9.657993627448043
      ],
      [
        "Ġsaw",
        -9.6591188942121
      ],
      [
        "Ġcomfort",
        -9.659259649028694
      ],
      [
        "Ġpurchase",
        -9.659382238416628
      ],
      [
        "Ġ+",
        -9.65950592349109
      ],
      [
        "ĠJust",
        -9.6600014050981
      ],
      [
        "Ġfund",
        -9.661178094145836
      ],
      [
        "Ġanti",
        -9.661305610354056
      ],
      [
        "Ġphase",
        -9.661601336422589
      ],
      [
        "ĠCon",
        -9.663789005779922
      ],
      [
        "-up",
        -9.66430093821794
      ],
      [
        "Ġhospital",
        -9.665343312690233
      ],
      [
        "âĢ¢",
        -9.6653927771907
      ],
      [
        "Ġpractices",
        -9.665944851364369
      ],
      [
        "ĠMo",
        -9.666910483766156
      ],
      [
        "Ġiron",
        -9.667776778593252
      ],
      [
        "Ġcontainer",
        -9.667839791696096
      ],
      [
        ".com",
        -9.668255893265677
      ],
      [
        "Ġforward",
        -9.66970279481734
      ],
      [
        "Ġfinancial",
        -9.670545061397082
      ],
      [
        "Ġoutcome",
        -9.67082150973074
      ],
      [
        "Before",
        -9.673124563235152
      ],
      [
        "Ġbatter",
        -9.673456947342682
      ],
      [
        "Ġnoise",
        -9.673952601882096
      ],
      [
        "Ġhost",
        -9.675863371399284
      ],
      [
        "Ġtransfer",
        -9.678152785988935
      ],
      [
        "Ġvia",
        -9.678767498074784
      ],
      [
        "Ġangle",
        -9.679431799581668
      ],
      [
        "Ġnational",
        -9.681672853160109
      ],
      [
        "Ġsurrounding",
        -9.683018767368187
      ],
      [
        "br",
        -9.686250902441202
      ],
      [
        "Ġmid",
        -9.686524226262698
      ],
      [
        "Ġplane",
        -9.688248088701512
      ],
      [
        "Ġraise",
        -9.688681507521649
      ],
      [
        "Ġsalt",
        -9.688855115279196
      ],
      [
        "tra",
        -9.688968647266195
      ],
      [
        "Ġscreen",
        -9.689027533897104
      ],
      [
        "Ġsign",
        -9.690268949861338
      ],
      [
        "Ġarm",
        -9.690623728387624
      ],
      [
        "Ġdangerous",
        -9.691413629486242
      ],
      [
        "Ġtexture",
        -9.691626108222415
      ],
      [
        "-in",
        -9.692081751098714
      ],
      [
        "tion",
        -9.69261144002464
      ],
      [
        "Ġcommunit",
        -9.692969927372848
      ],
      [
        "Ġsubstance",
        -9.693970071310709
      ],
      [
        "Ġvoice",
        -9.694779510336332
      ],
      [
        "Ġtechnologi",
        -9.696555069207442
      ],
      [
        "ware",
        -9.697417281867548
      ],
      [
        "Ġspeak",
        -9.69821590953086
      ],
      [
        "Ġjoin",
        -9.698330259897396
      ],
      [
        "And",
        -9.698363779481902
      ],
      [
        "Ġfilm",
        -9.69909960418406
      ],
      [
        "Ġsend",
        -9.699236886978222
      ],
      [
        "went",
        -9.699498158495532
      ],
      [
        "ize",
        -9.699781818841522
      ],
      [
        "Re",
        -9.699880199066373
      ],
      [
        "Ġskill",
        -9.70165093719912
      ],
      [
        "Ġlose",
        -9.70302690594824
      ],
      [
        "Ġrecover",
        -9.704633385430611
      ],
      [
        "Ġremov",
        -9.708943960958583
      ],
      [
        "Ġrecipe",
        -9.709906570710212
      ],
      [
        "Ġmiddle",
        -9.71259500230979
      ],
      [
        "Ġthu",
        -9.713236517434623
      ],
      [
        "Ġmessage",
        -9.713432977768708
      ],
      [
        "Ġ-->",
        -9.71482621024975
      ],
      [
        "Ġhuge",
        -9.715788867307698
      ],
      [
        "ping",
        -9.71587441628094
      ],
      [
        "Ġcollection",
        -9.71598729718446
      ],
      [
        "let",
        -9.716747962687585
      ],
      [
        "go",
        -9.716983736023677
      ],
      [
        "ĠInstitute",
        -9.717978791840178
      ],
      [
        "Ġpresence",
        -9.717982889031322
      ],
      [
        "Ġcutting",
        -9.718121665329267
      ],
      [
        "for",
        -9.719001801567298
      ],
      [
        "Ġhapp",
        -9.719436209580133
      ],
      [
        "Ġaren",
        -9.719965240739146
      ],
      [
        "Ġattach",
        -9.720287505391529
      ],
      [
        "lin",
        -9.720523115231511
      ],
      [
        "Ġswitch",
        -9.720562635373682
      ],
      [
        "Ġprogress",
        -9.720821909737682
      ],
      [
        "Ġfair",
        -9.721297623597398
      ],
      [
        "Ġwar",
        -9.722701849711168
      ],
      [
        "held",
        -9.72318816794155
      ],
      [
        "Ġemployee",
        -9.723418298226804
      ],
      [
        "ĠLet",
        -9.723492778609325
      ],
      [
        "Ġtrip",
        -9.723818385742804
      ],
      [
        "Ġassessment",
        -9.724534355690222
      ],
      [
        "ĠSystem",
        -9.724776021071603
      ],
      [
        "Ġmen",
        -9.725071403023223
      ],
      [
        "Ġimprov",
        -9.72551061734496
      ],
      [
        "Ġmedicine",
        -9.726102067439196
      ],
      [
        "Ġbackground",
        -9.726324550563335
      ],
      [
        "Ġletter",
        -9.726551420319977
      ],
      [
        "ĠWater",
        -9.727267228687907
      ],
      [
        "Ġcloth",
        -9.72732260859216
      ],
      [
        "Ġsweet",
        -9.728730928687394
      ],
      [
        "Ġstaff",
        -9.728832553773518
      ],
      [
        "Ġmaximu",
        -9.7288364549717
      ],
      [
        "Ġbeginning",
        -9.728900776677026
      ],
      [
        "Ġplaced",
        -9.730215095096504
      ],
      [
        "Ġfully",
        -9.730904989520852
      ],
      [
        "Ġinternational",
        -9.731563722803235
      ],
      [
        "Ġoffice",
        -9.732876814951297
      ],
      [
        "way",
        -9.73298238739463
      ],
      [
        "Ġvaccine",
        -9.734298026036878
      ],
      [
        "Ġpair",
        -9.734317626453953
      ],
      [
        "Ġorganism",
        -9.73462179654918
      ],
      [
        "Ġstick",
        -9.73502128922419
      ],
      [
        "ĠRa",
        -9.735978173274198
      ],
      [
        "con",
        -9.737031986067372
      ],
      [
        "Ġpound",
        -9.73784929277592
      ],
      [
        "Ġbusinesses",
        -9.73807163819248
      ],
      [
        "Ġexpected",
        -9.738535038051335
      ],
      [
        "|",
        -9.739184182190598
      ],
      [
        "ley",
        -9.739418385021068
      ],
      [
        "Ġoperation",
        -9.739889797240044
      ],
      [
        "Ġconnected",
        -9.74051405726766
      ],
      [
        "Ġrespond",
        -9.74054752774721
      ],
      [
        "older",
        -9.74151362128756
      ],
      [
        "ĠEven",
        -9.741892585535773
      ],
      [
        "Ġdivers",
        -9.7425667065231
      ],
      [
        "/or",
        -9.743710946090433
      ],
      [
        "Ġmiss",
        -9.743850593123188
      ],
      [
        "Ġwritten",
        -9.744384355177116
      ],
      [
        "ĠNow",
        -9.74589363515028
      ],
      [
        "Ġcentral",
        -9.746536766839151
      ],
      [
        "Ġgrass",
        -9.74695758620996
      ],
      [
        "Ġround",
        -9.747867579562804
      ],
      [
        "Ġemission",
        -9.748164712150034
      ],
      [
        "mp",
        -9.749064779010933
      ],
      [
        "Ġgrain",
        -9.749151324285366
      ],
      [
        "Ġstrategies",
        -9.749277357019452
      ],
      [
        "Ġconcentration",
        -9.751646636701548
      ],
      [
        "ide",
        -9.75252679790161
      ],
      [
        "Ġpool",
        -9.753701708941689
      ],
      [
        "Ġtank",
        -9.753740545551786
      ],
      [
        "Ġproteins",
        -9.75468078309183
      ],
      [
        "Ġbreath",
        -9.7555880240919
      ],
      [
        "Ġoutdoor",
        -9.75661211555732
      ],
      [
        "Ġcomment",
        -9.756679664239654
      ],
      [
        "haps",
        -9.757422153204876
      ],
      [
        "Ġmotion",
        -9.757537209752188
      ],
      [
        "Ġclick",
        -9.758083440574865
      ],
      [
        "Man",
        -9.75906085371544
      ],
      [
        "Ġmember",
        -9.759718015179486
      ],
      [
        "Ġmotor",
        -9.760146629928949
      ],
      [
        "Ġproduc",
        -9.76030939346606
      ],
      [
        "ĠNOT",
        -9.7604245996979
      ],
      [
        "Ġrobot",
        -9.761595459918148
      ],
      [
        "air",
        -9.762056273637326
      ],
      [
        "Ġecosystem",
        -9.76212071188028
      ],
      [
        "Ġdental",
        -9.762214308276452
      ],
      [
        "Ġabsorb",
        -9.76249592217222
      ],
      [
        "Ġchallenge",
        -9.764202025215738
      ],
      [
        "Ġalgorithm",
        -9.764941054527624
      ],
      [
        "Ġselection",
        -9.766833393805586
      ],
      [
        "Ġbigge",
        -9.76755647073865
      ],
      [
        "Ġowners",
        -9.76760067950023
      ],
      [
        "Ġsequence",
        -9.767773916161453
      ],
      [
        "ĠRiver",
        -9.767806047134078
      ],
      [
        "Ġsustain",
        -9.76822445373795
      ],
      [
        "ible",
        -9.768251592961873
      ],
      [
        "ĠDur",
        -9.76917103193283
      ],
      [
        "Ġpractical",
        -9.7691927881409
      ],
      [
        "Ġexpress",
        -9.76974696260931
      ],
      [
        "Ġonto",
        -9.770602831659147
      ],
      [
        "Ġcoffee",
        -9.770614825903522
      ],
      [
        "Ġplease",
        -9.771511526481538
      ],
      [
        "Ġspot",
        -9.77206783173992
      ],
      [
        "Ġvariable",
        -9.772791072031962
      ],
      [
        "Ġmanufactur",
        -9.772890461270745
      ],
      [
        "Ġdis",
        -9.772975251888258
      ],
      [
        "Ġgear",
        -9.773282056190546
      ],
      [
        "Ġconsumpti",
        -9.773975669092964
      ],
      [
        "Ġfoundation",
        -9.774088690500715
      ],
      [
        "Ġupper",
        -9.77446286328221
      ],
      [
        "Ġcontext",
        -9.776192577056598
      ],
      [
        "Here",
        -9.776915881541576
      ],
      [
        "Ġexpect",
        -9.77864682127679
      ],
      [
        "Ġestimate",
        -9.778927966767345
      ],
      [
        "Ġrock",
        -9.779052752930284
      ],
      [
        "ĠMa",
        -9.779109500238103
      ],
      [
        "Ġearth",
        -9.780077372658273
      ],
      [
        "Ġfavorite",
        -9.78206825454962
      ],
      [
        "body",
        -9.782442979915054
      ],
      [
        "Ġshift",
        -9.78452109115525
      ],
      [
        "Ġdouble",
        -9.78464921631329
      ],
      [
        "ĠSa",
        -9.784702451624725
      ],
      [
        "Be",
        -9.786163513224723
      ],
      [
        "Ġcheese",
        -9.78785065417117
      ],
      [
        "Ġvirtual",
        -9.788631319622056
      ],
      [
        "Ġcup",
        -9.788813816476026
      ],
      [
        "Ġsquare",
        -9.789698524945498
      ],
      [
        "Ġcategor",
        -9.7899234092557
      ],
      [
        "Ġdisplay",
        -9.7899587285896
      ],
      [
        "Ġtube",
        -9.791886334902207
      ],
      [
        "Ġthreat",
        -9.79330688066594
      ],
      [
        "Ġclassroom",
        -9.793697003146647
      ],
      [
        "Ġmedium",
        -9.793701508626569
      ],
      [
        "Ġannual",
        -9.79372835179375
      ],
      [
        "ative",
        -9.793803035268157
      ],
      [
        "Ġgate",
        -9.794098770152848
      ],
      [
        "ĠOther",
        -9.795122205456488
      ],
      [
        "ility",
        -9.79564881456131
      ],
      [
        "pril",
        -9.796082586664484
      ],
      [
        "Ġsell",
        -9.79639968787808
      ],
      [
        "Ġharvest",
        -9.79655287418714
      ],
      [
        "Ġbutton",
        -9.796756712120132
      ],
      [
        "Ġstone",
        -9.798322100626171
      ],
      [
        "Ġdiscovered",
        -9.799104038489508
      ],
      [
        "Ġassess",
        -9.799120967236814
      ],
      [
        "ĠWar",
        -9.799250306492766
      ],
      [
        "Ġinstrument",
        -9.7994768421763
      ],
      [
        "Ġplate",
        -9.799604640982723
      ],
      [
        "Ġdead",
        -9.800400309142969
      ],
      [
        "ĠAls",
        -9.800530213272044
      ],
      [
        "wide",
        -9.800631696705356
      ],
      [
        "Ġpipe",
        -9.80220217772899
      ],
      [
        "Ġsit",
        -9.802893992875315
      ],
      [
        "ists",
        -9.803622074587649
      ],
      [
        "Z",
        -9.804388758702418
      ],
      [
        "Ġschools",
        -9.805457363479611
      ],
      [
        "surgery",
        -9.806377720899942
      ],
      [
        "Ġmode",
        -9.806511415665163
      ],
      [
        "Ġelectronic",
        -9.807289978075993
      ],
      [
        "Ġtrust",
        -9.807796284829047
      ],
      [
        "Ġroots",
        -9.808906033801032
      ],
      [
        "Ġhighlight",
        -9.809384524362091
      ],
      [
        "ĠY",
        -9.809934820356478
      ],
      [
        "Ġbirth",
        -9.811286272457204
      ],
      [
        "Ġbutter",
        -9.81194866586926
      ],
      [
        "Ġerror",
        -9.813240007564854
      ],
      [
        "Ġbecomes",
        -9.813289675933213
      ],
      [
        "Ġtri",
        -9.813687758394249
      ],
      [
        "Ġstuff",
        -9.814229401732389
      ],
      [
        "Ġmechanism",
        -9.814263735455786
      ],
      [
        "Ġcommercial",
        -9.814727906087676
      ],
      [
        "Ġsheet",
        -9.815201985583922
      ],
      [
        "Ġprinciple",
        -9.817202546714537
      ],
      [
        "Ġvital",
        -9.817212375716975
      ],
      [
        "port",
        -9.817299015513228
      ],
      [
        "Ġpredict",
        -9.819913183607213
      ],
      [
        "Ġregulation",
        -9.820493748228383
      ],
      [
        "ĠHigh",
        -9.820590210780775
      ],
      [
        "Ġchicken",
        -9.820974775819408
      ],
      [
        "Ġspecifically",
        -9.821331378025686
      ],
      [
        "Ġpark",
        -9.823768407457427
      ],
      [
        "Ġsounds",
        -9.824290757266317
      ],
      [
        "ĠAustralia",
        -9.82527615689171
      ],
      [
        "Ġinternal",
        -9.826505870951602
      ],
      [
        "Ġlegal",
        -9.827935297863384
      ],
      [
        "Ġformed",
        -9.829772815250006
      ],
      [
        "ach",
        -9.831754268350826
      ],
      [
        "Ġillness",
        -9.832233044091328
      ],
      [
        "Ġbodie",
        -9.832562173954488
      ],
      [
        "Ġalone",
        -9.832633604049065
      ],
      [
        "Ġoperat",
        -9.834211038033027
      ],
      [
        "AL",
        -9.83429330160808
      ],
      [
        "Ġreference",
        -9.834376264661238
      ],
      [
        "...ĊĊ",
        -9.834989628819642
      ],
      [
        "Ġevolution",
        -9.835052276225689
      ],
      [
        "Ġsolid",
        -9.836508515470058
      ],
      [
        "Ġweb",
        -9.836523319051029
      ],
      [
        "Ġcareer",
        -9.837358116088517
      ],
      [
        "Ġessay",
        -9.838289228422184
      ],
      [
        "Ġcompound",
        -9.838291825806603
      ],
      [
        "Ġbasi",
        -9.839514606473871
      ],
      [
        "Ġresource",
        -9.840151076563002
      ],
      [
        "ber",
        -9.840355831022672
      ],
      [
        "ner",
        -9.840498729926097
      ],
      [
        "Ġheight",
        -9.841431269910846
      ],
      [
        "Ġappearance",
        -9.842400390105468
      ],
      [
        "ĠIndia",
        -9.842971087644935
      ],
      [
        "Ġhunt",
        -9.843026583814355
      ],
      [
        "Ġfamil",
        -9.843073208829232
      ],
      [
        "Ġocean",
        -9.843372610190944
      ],
      [
        "pl",
        -9.84361310102701
      ],
      [
        "Ġindoor",
        -9.844396371645432
      ],
      [
        "Ġcharacter",
        -9.845166178684789
      ],
      [
        "Ġreported",
        -9.845809993173464
      ],
      [
        "ĠDepartment",
        -9.846046539868542
      ],
      [
        "ĠAccording",
        -9.846585925273985
      ],
      [
        "-like",
        -9.848135808003518
      ],
      [
        "ER",
        -9.849154757509831
      ],
      [
        "Ġstatement",
        -9.84918365536965
      ],
      [
        "Ġlens",
        -9.850550304785266
      ],
      [
        "Ġmixture",
        -9.850693290783836
      ],
      [
        "Ġtail",
        -9.85139501167477
      ],
      [
        "Ġmicro",
        -9.852316604184292
      ],
      [
        "Ġroll",
        -9.853408976419868
      ],
      [
        "Ġrespect",
        -9.85467511230957
      ],
      [
        "osis",
        -9.854777495462706
      ],
      [
        "Ġinterested",
        -9.85531027315828
      ],
      [
        "ĠEducation",
        -9.855699831767408
      ],
      [
        "Ġindustrial",
        -9.85576105390985
      ],
      [
        "Ġharmful",
        -9.856850615294476
      ],
      [
        "Ġseal",
        -9.85789383073616
      ],
      [
        "Ġcatch",
        -9.85805232073318
      ],
      [
        "ĠDon",
        -9.858052890946386
      ],
      [
        "Ġcollect",
        -9.858060962209173
      ],
      [
        "Ġinsight",
        -9.86029254636296
      ],
      [
        "Ġportion",
        -9.860526369245378
      ],
      [
        "Ġdrop",
        -9.86061081095416
      ],
      [
        "Ġrecognize",
        -9.860614090255687
      ],
      [
        "Ġclasses",
        -9.860648101817429
      ],
      [
        "Ġattract",
        -9.862019410644969
      ],
      [
        "Ġzone",
        -9.86206743410841
      ],
      [
        "ĠLi",
        -9.862688660912667
      ],
      [
        "end",
        -9.862761189947609
      ],
      [
        "ĠEurope",
        -9.862846409386725
      ],
      [
        "Ġwindow",
        -9.862930927931416
      ],
      [
        "Ġdecade",
        -9.862951218201516
      ],
      [
        "Ġreferr",
        -9.865190402547109
      ],
      [
        "Ġeconomic",
        -9.865397277482533
      ],
      [
        "Ġdrawing",
        -9.86675262168462
      ],
      [
        "Ġchain",
        -9.866937956111997
      ],
      [
        "ow",
        -9.867254577661829
      ],
      [
        "Ġofficial",
        -9.867261481952932
      ],
      [
        "Ġgenes",
        -9.867305667747612
      ],
      [
        "Ġleader",
        -9.867783153061572
      ],
      [
        "Ġreveal",
        -9.869211031624362
      ],
      [
        "ĠDec",
        -9.86921134865569
      ],
      [
        "Ġsociety",
        -9.870228300367335
      ],
      [
        "ĠService",
        -9.871722608630298
      ],
      [
        "Ġexpression",
        -9.872217067509151
      ],
      [
        "Ġneck",
        -9.872409612872897
      ],
      [
        "ĠOnc",
        -9.872862457056751
      ],
      [
        "Ġcapture",
        -9.873929693461616
      ],
      [
        "und",
        -9.87425548027743
      ],
      [
        "Ġhormone",
        -9.874285817375162
      ],
      [
        "our",
        -9.87451400386319
      ],
      [
        "Ġsilver",
        -9.874709361689868
      ],
      [
        "Ġlandscape",
        -9.87490154638634
      ],
      [
        "Ġconclusion",
        -9.875512946145244
      ],
      [
        "Ġbond",
        -9.875578672305489
      ],
      [
        "ĠJapan",
        -9.876719632199336
      ],
      [
        "Ġrid",
        -9.877984626420504
      ],
      [
        "After",
        -9.878399278227551
      ],
      [
        "That",
        -9.878609089930176
      ],
      [
        "Ġargument",
        -9.879208904326775
      ],
      [
        "Ġstrain",
        -9.879238565349372
      ],
      [
        "ke",
        -9.879583449929472
      ],
      [
        "Ġcovered",
        -9.880887201635156
      ],
      [
        "ile",
        -9.88092685821145
      ],
      [
        "Ġequation",
        -9.881840386230454
      ],
      [
        "Ġmovie",
        -9.881843327858864
      ],
      [
        "ĠCO",
        -9.88274566624528
      ],
      [
        "Ġemail",
        -9.884478574735448
      ],
      [
        "Ġstraight",
        -9.884493333593198
      ],
      [
        "Ġshade",
        -9.884564252860882
      ],
      [
        "Ġperformed",
        -9.88463186322002
      ],
      [
        "Ġagree",
        -9.884681749913428
      ],
      [
        "Ġpot",
        -9.88486243353587
      ],
      [
        "Ġobserve",
        -9.884863845692063
      ],
      [
        "Ġcomprehensive",
        -9.885029669557674
      ],
      [
        "Ġearlie",
        -9.885290792108028
      ],
      [
        "more",
        -9.88561050037973
      ],
      [
        "Ġdemonstrate",
        -9.88596547774078
      ],
      [
        "ĠGo",
        -9.887115171522048
      ],
      [
        "Ġregister",
        -9.88783824445084
      ],
      [
        "Ġstomach",
        -9.888317922269218
      ],
      [
        "Ġpress",
        -9.889115322023828
      ],
      [
        "ĠDoes",
        -9.889790778810774
      ],
      [
        "Ġship",
        -9.890564260542872
      ],
      [
        "Ġprefer",
        -9.890799262998506
      ],
      [
        "Ġconvert",
        -9.890966952749324
      ],
      [
        "Ġpossibilit",
        -9.891425130175843
      ],
      [
        "-free",
        -9.892017859417283
      ],
      [
        "Ġprogramm",
        -9.892500863450078
      ],
      [
        "ĠLe",
        -9.892986156905163
      ],
      [
        "Ġcalorie",
        -9.893162812866551
      ],
      [
        "ĠZ",
        -9.894375729301805
      ],
      [
        "Ġbulb",
        -9.894641337725272
      ],
      [
        "All",
        -9.894892412577825
      ],
      [
        "Ġrelevant",
        -9.89544557387782
      ],
      [
        "ĠDay",
        -9.89548211266444
      ],
      [
        "Ġworker",
        -9.895955851854104
      ],
      [
        "ven",
        -9.897642169260036
      ],
      [
        "Ġpump",
        -9.89778161435818
      ],
      [
        "Ġhundred",
        -9.897866346970757
      ],
      [
        "Ġrelax",
        -9.897866355666483
      ],
      [
        "Ġtransmission",
        -9.897879046043876
      ],
      [
        "Ġantibiotic",
        -9.897882533338969
      ],
      [
        "Ġstain",
        -9.898060648985537
      ],
      [
        "Ġadvice",
        -9.899117560508971
      ],
      [
        "Ġprovider",
        -9.899692674682246
      ],
      [
        "water",
        -9.900002699346912
      ],
      [
        "Ġbike",
        -9.900715959501852
      ],
      [
        "Ġtransition",
        -9.901263859060643
      ],
      [
        "board",
        -9.90140967078015
      ],
      [
        "ĠSince",
        -9.90148661615272
      ],
      [
        "Ġintroduce",
        -9.902321702028653
      ],
      [
        "Ġasked",
        -9.903481133260438
      ],
      [
        "Ġeventual",
        -9.904028880771854
      ],
      [
        "Ġtomato",
        -9.904375528247344
      ],
      [
        "ler",
        -9.905348070716972
      ],
      [
        "Ġboat",
        -9.907511852191734
      ],
      [
        "Ġroutine",
        -9.907614856057531
      ],
      [
        "Ġprivate",
        -9.90817511925679
      ],
      [
        "Ġartificial",
        -9.909960332752972
      ],
      [
        "Ġauto",
        -9.910267551679295
      ],
      [
        "Ġnearly",
        -9.910876796537076
      ],
      [
        "Ġpreference",
        -9.910986178484148
      ],
      [
        "Ġdefinition",
        -9.911606912986048
      ],
      [
        "Ġnice",
        -9.911649449009214
      ],
      [
        "Our",
        -9.912005245000788
      ],
      [
        "Ġcompost",
        -9.9143853388778
      ],
      [
        "Ġvi",
        -9.914548146886377
      ],
      [
        "Ġhelpful",
        -9.916419292778938
      ],
      [
        "Ġcore",
        -9.917158104732309
      ],
      [
        "Ġsites",
        -9.918763699938346
      ],
      [
        "Ġteach",
        -9.92014286051834
      ],
      [
        "Ġegg",
        -9.920680050638529
      ],
      [
        "Ġopinion",
        -9.920743380922062
      ],
      [
        "ĠPro",
        -9.920813189261237
      ],
      [
        "Ġfunctional",
        -9.921752825410824
      ],
      [
        "cal",
        -9.92176293955563
      ],
      [
        "Ġfrequenc",
        -9.921902889703382
      ],
      [
        "itis",
        -9.922703006114649
      ],
      [
        "Ġancient",
        -9.9244557366612
      ],
      [
        "Ġcloud",
        -9.925232535404913
      ],
      [
        "Ġorgan",
        -9.92603762903195
      ],
      [
        "Ġthin",
        -9.92624378331682
      ],
      [
        "Ġsurvey",
        -9.927377632363164
      ],
      [
        "Ġcheap",
        -9.92738732802052
      ],
      [
        "Ġprocessing",
        -9.92752701495778
      ],
      [
        "Ġinnovation",
        -9.928558726472655
      ],
      [
        "Ġdiscussion",
        -9.929436598805609
      ],
      [
        "ification",
        -9.930599125147904
      ],
      [
        "Ġadopt",
        -9.930715690585412
      ],
      [
        "Ġattend",
        -9.93077771494083
      ],
      [
        "not",
        -9.93101253093485
      ],
      [
        "Ġperspective",
        -9.93405447304876
      ],
      [
        "Ġfailure",
        -9.934132495267988
      ],
      [
        "ĠFood",
        -9.935418124761505
      ],
      [
        "Ġsuit",
        -9.93543811863668
      ],
      [
        "Ġstation",
        -9.93662432785876
      ],
      [
        "Ġgift",
        -9.93741042893567
      ],
      [
        "Ġapart",
        -9.938913829694313
      ],
      [
        "ology",
        -9.94036321820885
      ],
      [
        "Ġmiles",
        -9.94242815775997
      ],
      [
        "Ġcarrie",
        -9.943441201108412
      ],
      [
        "Ġsports",
        -9.94359347810738
      ],
      [
        "Ġassist",
        -9.944103448146276
      ],
      [
        "Ġfail",
        -9.946884124751808
      ],
      [
        "ak",
        -9.947071700498498
      ],
      [
        "Ġflat",
        -9.948183764812851
      ],
      [
        "ĠUn",
        -9.948368622120896
      ],
      [
        "Ġchannel",
        -9.949466811149176
      ],
      [
        "Ġseat",
        -9.949476845323638
      ],
      [
        "Ġlabel",
        -9.950694109349968
      ],
      [
        "Ġprepared",
        -9.950851538281054
      ],
      [
        "Ġclient",
        -9.950946774147557
      ],
      [
        "Ġhoney",
        -9.950954692289908
      ],
      [
        "Ġmold",
        -9.95103735722584
      ],
      [
        "Ġboost",
        -9.953927366740452
      ],
      [
        "Ġinsects",
        -9.95419011370702
      ],
      [
        "Ġexternal",
        -9.954376199680922
      ],
      [
        "Ġfear",
        -9.95444480302412
      ],
      [
        "Ġdish",
        -9.954903840964125
      ],
      [
        "Ġtrigger",
        -9.95575432704489
      ],
      [
        "Ġthick",
        -9.95684529697954
      ],
      [
        "Ġbeneficial",
        -9.957784377152535
      ],
      [
        "Ġdirt",
        -9.957802986616592
      ],
      [
        "times",
        -9.957909489693296
      ],
      [
        "Ġprimari",
        -9.958159044321224
      ],
      [
        "Ġcreative",
        -9.958160900693937
      ],
      [
        "Ġvirus",
        -9.95824100134806
      ],
      [
        "ious",
        -9.95829115428006
      ],
      [
        "Ġestablished",
        -9.958377021595435
      ],
      [
        "rought",
        -9.959062035552275
      ],
      [
        "which",
        -9.95970805069707
      ],
      [
        "Ġten",
        -9.960946295856136
      ],
      [
        "Ġresident",
        -9.961262830568405
      ],
      [
        "Ġoptimal",
        -9.962676938828327
      ],
      [
        "Ġfashion",
        -9.963259369169013
      ],
      [
        "Ġphotos",
        -9.963285273639851
      ],
      [
        "Ġengage",
        -9.964236033500766
      ],
      [
        "Ġnumerous",
        -9.9646690849134
      ],
      [
        "Ġvariation",
        -9.964814018634913
      ],
      [
        "Ġformation",
        -9.965687242472246
      ],
      [
        "Ġsuggests",
        -9.965697005298892
      ],
      [
        "Ġplanting",
        -9.96614586822131
      ],
      [
        "ĠPeople",
        -9.966888326673828
      ],
      [
        "Ġcars",
        -9.9675532548791
      ],
      [
        "Ġquilt",
        -9.96812974479804
      ],
      [
        "Ġfurni",
        -9.968706868536245
      ],
      [
        "Ġassembl",
        -9.971602109668703
      ],
      [
        "Ġbread",
        -9.971756227280778
      ],
      [
        "Ġtechnical",
        -9.97265538153259
      ],
      [
        "Ġdrug",
        -9.972830005717556
      ],
      [
        "Ġstatus",
        -9.972943023581603
      ],
      [
        "ĠKeep",
        -9.97309899183774
      ],
      [
        "Ġdistribution",
        -9.97318420439664
      ],
      [
        "tiny",
        -9.974943313822791
      ],
      [
        "Ġremote",
        -9.97508583893608
      ],
      [
        "Ġzero",
        -9.975098428792569
      ],
      [
        "ĠStep",
        -9.975440584712551
      ],
      [
        "ck",
        -9.975930739186584
      ],
      [
        "Ġemotional",
        -9.976659248853531
      ],
      [
        "ĠWhether",
        -9.976685501606951
      ],
      [
        "like",
        -9.976818774800552
      ],
      [
        "Ġpolicy",
        -9.978126732932974
      ],
      [
        "{",
        -9.979475154185614
      ],
      [
        "ĠMar",
        -9.98009269079136
      ],
      [
        "ĠAir",
        -9.980106321519786
      ],
      [
        "ĠBritish",
        -9.980502212000676
      ],
      [
        "Ġsnow",
        -9.981591221082285
      ],
      [
        "Ġintend",
        -9.981904583631684
      ],
      [
        "kept",
        -9.982095875122052
      ],
      [
        "Ġapproximately",
        -9.982534530310808
      ],
      [
        "ĠNov",
        -9.982907107558413
      ],
      [
        "ĠCa",
        -9.983363731848224
      ],
      [
        "Ġmolecules",
        -9.984241725603091
      ],
      [
        "Ġcoat",
        -9.98479758558504
      ],
      [
        "Are",
        -9.985163834084418
      ],
      [
        "ĠWest",
        -9.98611548037293
      ],
      [
        "Ġconsume",
        -9.986156371151385
      ],
      [
        "Ġaudio",
        -9.986325104047996
      ],
      [
        "ĠAct",
        -9.98675808773472
      ],
      [
        "ger",
        -9.986809186034844
      ],
      [
        "ĠQ",
        -9.98727551580727
      ],
      [
        "hu",
        -9.987601047137025
      ],
      [
        "ĠGreen",
        -9.987993639927954
      ],
      [
        "ĠEuropean",
        -9.988514838216783
      ],
      [
        "Ġla",
        -9.988600432337984
      ],
      [
        "Ġcollege",
        -9.989145834012175
      ],
      [
        "Ġmask",
        -9.989179739210158
      ],
      [
        "Ġdynamic",
        -9.98964713989406
      ],
      [
        "my",
        -9.98990746364788
      ],
      [
        "ball",
        -9.990176004052374
      ],
      [
        "Ġoffering",
        -9.990927420960054
      ],
      [
        "are",
        -9.991260870455458
      ],
      [
        "Ġtrade",
        -9.991266770042682
      ],
      [
        "Ġcrack",
        -9.991377402573754
      ],
      [
        "Ġmonitoring",
        -9.991416194838584
      ],
      [
        "ĠFebruary",
        -9.991428795696216
      ],
      [
        "Ġmeter",
        -9.992006673656917
      ],
      [
        "Yes",
        -9.992151285131335
      ],
      [
        "ĠBar",
        -9.99286882772387
      ],
      [
        "Ġcalculate",
        -9.99292394326493
      ],
      [
        "Ġpets",
        -9.992957301181615
      ],
      [
        "fer",
        -9.993242288485762
      ],
      [
        "ĠDesign",
        -9.994220765180692
      ],
      [
        "Ġharm",
        -9.9945622881546
      ],
      [
        "ens",
        -9.994969150198248
      ],
      [
        "Ġconservation",
        -9.99547018439717
      ],
      [
        "ĠPer",
        -9.995560790469971
      ],
      [
        "ĠGoogle",
        -9.995638469241676
      ],
      [
        "Ġcake",
        -9.995897952726349
      ],
      [
        "Ġconsequence",
        -9.996250618777012
      ],
      [
        "Ġmorning",
        -9.996259569458244
      ],
      [
        "ĠMe",
        -9.996352654426396
      ],
      [
        "Ġeducational",
        -9.997041557843623
      ],
      [
        "Ġchoos",
        -9.997217315270184
      ],
      [
        "Ġanxiet",
        -9.998752818632514
      ],
      [
        "Ġex",
        -9.999753616418964
      ],
      [
        "Ġleaf",
        -10.001623489395914
      ],
      [
        "Ġminimum",
        -10.003406580657812
      ],
      [
        "Ġnerve",
        -10.003449741952188
      ],
      [
        "Conclusion",
        -10.003493985370763
      ],
      [
        "Ġoperate",
        -10.003592507103392
      ],
      [
        "Ġleak",
        -10.003649379698643
      ],
      [
        "-being",
        -10.00375982044035
      ],
      [
        "Ġriver",
        -10.004440429949454
      ],
      [
        "Ġshar",
        -10.005002171985634
      ],
      [
        "Ġheal",
        -10.005280178636994
      ],
      [
        "Ġmeeting",
        -10.006509142987658
      ],
      [
        "ick",
        -10.007361103071808
      ],
      [
        "ĠBa",
        -10.007646398133502
      ],
      [
        "Ġpercentage",
        -10.007899826528371
      ],
      [
        "Ġguideline",
        -10.008004362096932
      ],
      [
        "Ġspeaker",
        -10.008438533413935
      ],
      [
        "Ġconstruct",
        -10.009213691978676
      ],
      [
        "Ġsurvive",
        -10.01008164767609
      ],
      [
        "ways",
        -10.010521030597712
      ],
      [
        "Ġsteel",
        -10.010615453768708
      ],
      [
        "Ġbottle",
        -10.010632705937256
      ],
      [
        "Ġvalve",
        -10.010646896535947
      ],
      [
        "Ġcreation",
        -10.010690338308436
      ],
      [
        "-year",
        -10.01129415683016
      ],
      [
        "can",
        -10.011936296172191
      ],
      [
        "ang",
        -10.012824814386915
      ],
      [
        "Ġbowl",
        -10.013420263953892
      ],
      [
        "Ġguid",
        -10.014089917377357
      ],
      [
        "Ġlaunch",
        -10.01423706958565
      ],
      [
        "}",
        -10.0160369309399
      ],
      [
        "Ġband",
        -10.016858607234775
      ],
      [
        "Ġprepare",
        -10.01712625429643
      ],
      [
        "Ġhazard",
        -10.017878822185564
      ],
      [
        "Ġplent",
        -10.017935837309732
      ],
      [
        "Ġisland",
        -10.018259357341725
      ],
      [
        "Ġshot",
        -10.01840679899075
      ],
      [
        "Ġoperations",
        -10.01902206196382
      ],
      [
        "za",
        -10.019100856866322
      ],
      [
        "Ġreliabl",
        -10.02101493592488
      ],
      [
        "pro",
        -10.021089620552644
      ],
      [
        "Ġautomatic",
        -10.02125042416824
      ],
      [
        "Ġultimate",
        -10.021522694423837
      ],
      [
        "Ġherb",
        -10.02154877373285
      ],
      [
        "Ġmarine",
        -10.021694088609111
      ],
      [
        "Ġtru",
        -10.024059645075
      ],
      [
        "ĠMarch",
        -10.024409166676667
      ],
      [
        "\\",
        -10.02469587974204
      ],
      [
        "&",
        -10.025168287975532
      ],
      [
        "Ġthorough",
        -10.025185931545712
      ],
      [
        "Ġmaster",
        -10.025460226778614
      ],
      [
        "Ġbroad",
        -10.02626159182148
      ],
      [
        "Ġtea",
        -10.028100269552228
      ],
      [
        "Ġimplement",
        -10.028297500182164
      ],
      [
        "tri",
        -10.028439279580668
      ],
      [
        "Ġlifestyle",
        -10.02896613745131
      ],
      [
        "Ġwish",
        -10.029012236402824
      ],
      [
        "ĠOver",
        -10.029169405548137
      ],
      [
        "Ġsuffer",
        -10.02927909993992
      ],
      [
        "ĠGod",
        -10.029561531640809
      ],
      [
        "Ġintelligence",
        -10.030752738063764
      ],
      [
        "ĠWell",
        -10.03084356655206
      ],
      [
        "Ġindependent",
        -10.03191760256754
      ],
      [
        "Ġbooks",
        -10.0319390205516
      ],
      [
        "Ġrealize",
        -10.0325632867503
      ],
      [
        "mer",
        -10.03270021678338
      ],
      [
        "Ġsmart",
        -10.03294711658774
      ],
      [
        "ĠLearn",
        -10.033860774204244
      ],
      [
        "oid",
        -10.034298766680246
      ],
      [
        "Ġsnake",
        -10.03494510306244
      ],
      [
        "Ġbio",
        -10.0352184451565
      ],
      [
        "Use",
        -10.03575192991743
      ],
      [
        "Ġthrow",
        -10.03626112501228
      ],
      [
        "Ġfight",
        -10.036427414010396
      ],
      [
        "Ġnovel",
        -10.036738103066114
      ],
      [
        "ward",
        -10.036788497427576
      ],
      [
        "LE",
        -10.037512122457604
      ],
      [
        "Ġprecise",
        -10.039973395039114
      ],
      [
        "Ġreduction",
        -10.040178654755188
      ],
      [
        "Ġtight",
        -10.04039499159921
      ],
      [
        "ĠHer",
        -10.04075229298824
      ],
      [
        "Ġinvestment",
        -10.041155975952766
      ],
      [
        "Ġenzyme",
        -10.041239188577348
      ],
      [
        "emergency",
        -10.04342576528758
      ],
      [
        "Ġrequest",
        -10.043705036452264
      ],
      [
        "-friendl",
        -10.04420841732568
      ],
      [
        "ĠIndian",
        -10.045382943933248
      ],
      [
        "Ġinteract",
        -10.046157880165666
      ],
      [
        "Ġfirm",
        -10.04700441538269
      ],
      [
        "Ġcommand",
        -10.047451038457227
      ],
      [
        "Ġratio",
        -10.04835869168072
      ],
      [
        "Ġcapabilit",
        -10.049073126024323
      ],
      [
        "Ġgap",
        -10.050218252265736
      ],
      [
        "Ġlung",
        -10.051273903660924
      ],
      [
        "Ġcontinuous",
        -10.05137353714114
      ],
      [
        "right",
        -10.052563732694043
      ],
      [
        "Ġ...ĊĊ",
        -10.053266776659784
      ],
      [
        "Ġfeeding",
        -10.053556816896268
      ],
      [
        "ĠStudent",
        -10.05466104387816
      ],
      [
        "Ġdestroy",
        -10.054983111261889
      ],
      [
        "Ġtall",
        -10.055505570821351
      ],
      [
        "Ġlayers",
        -10.056705865241812
      ],
      [
        "Ġsupplie",
        -10.057156641258269
      ],
      [
        "Ġapprove",
        -10.05743318078694
      ],
      [
        "all",
        -10.057772940978133
      ],
      [
        "act",
        -10.05816572825144
      ],
      [
        "Florida",
        -10.058771607684204
      ],
      [
        "Ġconfirm",
        -10.058781029807143
      ],
      [
        "Ġmembrane",
        -10.058798565685192
      ],
      [
        "ĠSept",
        -10.059127137083372
      ],
      [
        "Ġstructural",
        -10.059221001528453
      ],
      [
        "Ġlift",
        -10.059589158084156
      ],
      [
        "with",
        -10.059816899295798
      ],
      [
        "Ġartist",
        -10.060757081239196
      ],
      [
        "Ġimprovement",
        -10.060851278942176
      ],
      [
        "Ġchalleng",
        -10.06151169895596
      ],
      [
        "Ġresponsibilit",
        -10.062573186581634
      ],
      [
        "Ġfossil",
        -10.062573344179532
      ],
      [
        "Ġkitchen",
        -10.062577233372824
      ],
      [
        "Ġoven",
        -10.062627098778758
      ],
      [
        "Your",
        -10.06279829851048
      ],
      [
        "Ġlawn",
        -10.063185595062958
      ],
      [
        "My",
        -10.063580766718491
      ],
      [
        "Ġpilot",
        -10.06393227799972
      ],
      [
        "Ġreceptor",
        -10.06522900699025
      ],
      [
        "Ġjump",
        -10.066398745111616
      ],
      [
        "Answer",
        -10.067614422111042
      ],
      [
        "Ġformat",
        -10.06850270852551
      ],
      [
        "Ġentit",
        -10.06889523204098
      ],
      [
        "Ġbear",
        -10.069480710895771
      ],
      [
        "ĠRed",
        -10.07001641884839
      ],
      [
        "Ġsaying",
        -10.070744517320476
      ],
      [
        "ought",
        -10.071805498171846
      ],
      [
        "He",
        -10.071824969122869
      ],
      [
        "Ġblend",
        -10.071957244131951
      ],
      [
        "ĠHis",
        -10.073401836489971
      ],
      [
        "Ġleav",
        -10.073445958930131
      ],
      [
        "Â·",
        -10.074073708669433
      ],
      [
        "Ġnail",
        -10.074135563332815
      ],
      [
        "Ġorigin",
        -10.074221120006037
      ],
      [
        "Ġdescription",
        -10.074229649949917
      ],
      [
        "Ġcolon",
        -10.075283101532932
      ],
      [
        "bu",
        -10.077268153148244
      ],
      [
        "Ġobvious",
        -10.07792855582474
      ],
      [
        "Ġconversation",
        -10.077928568182628
      ],
      [
        "Ġhole",
        -10.078015463480472
      ],
      [
        "Ġblog",
        -10.078237100335496
      ],
      [
        "pp",
        -10.078295578825005
      ],
      [
        "Ġputt",
        -10.078727525920694
      ],
      [
        "Ġdisorder",
        -10.079037686271429
      ],
      [
        "ĠJohn",
        -10.079812325157494
      ],
      [
        "ĠChina",
        -10.079856395893994
      ],
      [
        "eath",
        -10.080174818897714
      ],
      [
        "Ġdecided",
        -10.080202239379355
      ],
      [
        "off",
        -10.080245224090977
      ],
      [
        "Ġseven",
        -10.080500056259748
      ],
      [
        "Ġextract",
        -10.081148958295923
      ],
      [
        "Ġpan",
        -10.081976594732708
      ],
      [
        "Ġspecialize",
        -10.082019029217784
      ],
      [
        "Ġbiological",
        -10.08206652697634
      ],
      [
        "Ġassume",
        -10.082583808023022
      ],
      [
        "ĠPlant",
        -10.082605361474714
      ],
      [
        "Ġstock",
        -10.08271993707389
      ],
      [
        "Ġprotective",
        -10.083089129414702
      ],
      [
        "ĠCar",
        -10.083740258711824
      ],
      [
        "Ġexamine",
        -10.084193752071332
      ],
      [
        "Ġdecide",
        -10.084239627558503
      ],
      [
        "Ġbreeding",
        -10.08566253023383
      ],
      [
        "Ġincredibl",
        -10.085695624336624
      ],
      [
        "Ġsector",
        -10.086028923477258
      ],
      [
        "Ġyard",
        -10.08606902962972
      ],
      [
        "Ġcharacters",
        -10.086929698421851
      ],
      [
        "ĠTime",
        -10.087573200103654
      ],
      [
        "ĠJune",
        -10.087792540622832
      ],
      [
        "Ġstrateg",
        -10.088014674973053
      ],
      [
        "Ġblind",
        -10.088213224942614
      ],
      [
        "use",
        -10.08872544969596
      ],
      [
        "ĠSea",
        -10.088835495715472
      ],
      [
        "Ġconcrete",
        -10.089601825471664
      ],
      [
        "Ġtitle",
        -10.089996811864534
      ],
      [
        "wa",
        -10.0904434424713
      ],
      [
        "Ġcream",
        -10.091228434942307
      ],
      [
        "ĠEnergy",
        -10.09130183736158
      ],
      [
        "ĠHome",
        -10.092960364844409
      ],
      [
        "Ġstable",
        -10.09344288417475
      ],
      [
        "Ġatmosphere",
        -10.09352339546692
      ],
      [
        "Ġgreenhouse",
        -10.093635107561902
      ],
      [
        "Ġschedule",
        -10.093874558480849
      ],
      [
        "ĠPark",
        -10.094265123253424
      ],
      [
        "ED",
        -10.094661143778636
      ],
      [
        "Ġeliminate",
        -10.095379523725192
      ],
      [
        "Ġstar",
        -10.095479648516871
      ],
      [
        "Ġemotion",
        -10.095723586281476
      ],
      [
        "BIM",
        -10.096224263252154
      ],
      [
        "Ġpond",
        -10.097491192112749
      ],
      [
        "Ġborn",
        -10.097599085832275
      ],
      [
        "Ġsensitive",
        -10.09803325332642
      ],
      [
        "Ġutilize",
        -10.098819978418438
      ],
      [
        "Ġbrush",
        -10.099274779391996
      ],
      [
        "ĠFrench",
        -10.099278130035849
      ],
      [
        "ĠJu",
        -10.099674165139213
      ],
      [
        "Ġinvolv",
        -10.100189873146013
      ],
      [
        "Ġfacility",
        -10.100561441307123
      ],
      [
        "Ġdrugs",
        -10.101527354887232
      ],
      [
        "most",
        -10.102013585807423
      ],
      [
        "Ġdishe",
        -10.102802793491808
      ],
      [
        "made",
        -10.102950666190338
      ],
      [
        "ect",
        -10.10353721145682
      ],
      [
        "qua",
        -10.104032613453857
      ],
      [
        "Ġmanual",
        -10.104773438465816
      ],
      [
        "Ġencounter",
        -10.105381225453064
      ],
      [
        "Ġlake",
        -10.105456729852447
      ],
      [
        "Ġexcessive",
        -10.105616495454708
      ],
      [
        "ĠCanada",
        -10.106480373462215
      ],
      [
        "Ġradio",
        -10.106499708978912
      ],
      [
        "Ġadvance",
        -10.107590960469096
      ],
      [
        "Ġwet",
        -10.107823103560168
      ],
      [
        "ĠLook",
        -10.107943009863517
      ],
      [
        "ĠSan",
        -10.10869103037898
      ],
      [
        "Ġnest",
        -10.108705751055048
      ],
      [
        "ĠData",
        -10.1088124866855
      ],
      [
        "Ġeight",
        -10.109433745046044
      ],
      [
        "Ġsymbol",
        -10.10966534034494
      ],
      [
        "Ġreplacement",
        -10.110191403778488
      ],
      [
        "nd",
        -10.110715210257734
      ],
      [
        "ĠTa",
        -10.11136929975174
      ],
      [
        "ĠYork",
        -10.111384781662032
      ],
      [
        "Ġwheel",
        -10.111767130480551
      ],
      [
        "what",
        -10.11201342821095
      ],
      [
        "Ġdirector",
        -10.113449418138764
      ],
      [
        "Ġbi",
        -10.114217060589144
      ],
      [
        "Ġcm",
        -10.11422333362217
      ],
      [
        "Ġcard",
        -10.114767088610094
      ],
      [
        "ail",
        -10.115520244959516
      ],
      [
        "Ġcookie",
        -10.116561445948424
      ],
      [
        "Ã©",
        -10.116850905422034
      ],
      [
        "Ġcompetition",
        -10.117381445548585
      ],
      [
        "Ġchair",
        -10.117392038669909
      ],
      [
        "Ġrough",
        -10.117398292878375
      ],
      [
        "rice",
        -10.117544568859122
      ],
      [
        "Onc",
        -10.118322248076495
      ],
      [
        "Ġcraft",
        -10.11898822917415
      ],
      [
        "Ġgrade",
        -10.119069887641752
      ],
      [
        "Ġcredit",
        -10.11975844738878
      ],
      [
        "Ġprofessionals",
        -10.121088586213988
      ],
      [
        "ice",
        -10.1211423069782
      ],
      [
        "Ġdensit",
        -10.121766846471829
      ],
      [
        "Ġattribute",
        -10.12186412824219
      ],
      [
        "Ġsp",
        -10.12235669116424
      ],
      [
        "Ġmainly",
        -10.12237005881218
      ],
      [
        "ĠGreat",
        -10.12263521792429
      ],
      [
        "Ġprove",
        -10.123171735102789
      ],
      [
        "Ġsufficient",
        -10.123490581470024
      ],
      [
        "ĠLike",
        -10.124117932076835
      ],
      [
        "Ġvisibl",
        -10.124738389201038
      ],
      [
        "king",
        -10.125440219706569
      ],
      [
        "Ġbudget",
        -10.125475169459412
      ],
      [
        "Ġmanag",
        -10.126107480039952
      ],
      [
        "qui",
        -10.126259600247051
      ],
      [
        "Ġbroken",
        -10.12763749500328
      ],
      [
        "Ġloop",
        -10.128332901392888
      ],
      [
        "Ġdisorders",
        -10.128379989427527
      ],
      [
        "Ġclinical",
        -10.128683409062813
      ],
      [
        "More",
        -10.130030862546178
      ],
      [
        "ĠDis",
        -10.131651317250364
      ],
      [
        "Ġparameter",
        -10.132971789032975
      ],
      [
        "ĠPre",
        -10.133727064604134
      ],
      [
        "Ġconsideration",
        -10.133872027405353
      ],
      [
        "bi",
        -10.135404071054085
      ],
      [
        "ĠVi",
        -10.135946796587426
      ],
      [
        "Ġowner",
        -10.136949549888184
      ],
      [
        "ĠGood",
        -10.137092941091186
      ],
      [
        "Ġsenior",
        -10.137707357036447
      ],
      [
        "Ġpredator",
        -10.138029258520358
      ],
      [
        "Ġtooth",
        -10.138110010792332
      ],
      [
        "IC",
        -10.1382824318657
      ],
      [
        "tro",
        -10.138320001113687
      ],
      [
        "ĠTest",
        -10.138757442957836
      ],
      [
        "Ġpregnanc",
        -10.138981531259098
      ],
      [
        "cu",
        -10.139409631715766
      ],
      [
        "Ġintake",
        -10.140046644636454
      ],
      [
        "Ġintervention",
        -10.141822460457757
      ],
      [
        "Ġcreature",
        -10.14182250418773
      ],
      [
        "Ġfan",
        -10.142549083710035
      ],
      [
        "Ġoccurr",
        -10.142971617414537
      ],
      [
        "ĠKa",
        -10.144994727645232
      ],
      [
        "Ġprofit",
        -10.14509641881979
      ],
      [
        "Ġvs",
        -10.145937880662869
      ],
      [
        "Ġinstallation",
        -10.147087592798346
      ],
      [
        "ĠEvery",
        -10.148077199460548
      ],
      [
        "Ġworry",
        -10.148262274325395
      ],
      [
        "Ġtie",
        -10.148600382214276
      ],
      [
        "Ġwhatever",
        -10.148974823903206
      ],
      [
        "Ġstorie",
        -10.149237128945805
      ],
      [
        "urthermore",
        -10.149910066200915
      ],
      [
        "Ġdelicious",
        -10.150104072183469
      ],
      [
        "Ġsauce",
        -10.150104333680297
      ],
      [
        "Ġfinger",
        -10.150133355100166
      ],
      [
        "Ġdelay",
        -10.15021177640077
      ],
      [
        "Ġpainting",
        -10.150340246571332
      ],
      [
        "Ġlab",
        -10.150955812913184
      ],
      [
        "ather",
        -10.151198735141502
      ],
      [
        "ster",
        -10.151686555731882
      ],
      [
        "Ġscar",
        -10.151733579254058
      ],
      [
        "Ġfacilit",
        -10.152404972138214
      ],
      [
        "Ġcommunicate",
        -10.153513751858249
      ],
      [
        "Ġprior",
        -10.153661228258176
      ],
      [
        "Ġincorporate",
        -10.153923162809363
      ],
      [
        "ĠNa",
        -10.155403921881842
      ],
      [
        "ivity",
        -10.155842332084507
      ],
      [
        "Ġmanager",
        -10.155988432924042
      ],
      [
        "Ġgold",
        -10.156040697864537
      ],
      [
        "#",
        -10.156545580541632
      ],
      [
        "Co",
        -10.156700688852643
      ],
      [
        "ĠArt",
        -10.156701430314437
      ],
      [
        "uch",
        -10.15707448786472
      ],
      [
        "Ġcalci",
        -10.15708005320941
      ],
      [
        "Most",
        -10.158195351509804
      ],
      [
        "ĠCollege",
        -10.15845544312732
      ],
      [
        "ĠEx",
        -10.15905428527284
      ],
      [
        "Ġlie",
        -10.159600922665934
      ],
      [
        "Ġsaving",
        -10.161083352579736
      ],
      [
        "Ġunits",
        -10.161223423674528
      ],
      [
        "Ġidentifie",
        -10.161518931310178
      ],
      [
        "Ġdimension",
        -10.162060987228568
      ],
      [
        "Ġalcohol",
        -10.16212767140005
      ],
      [
        "ash",
        -10.162326925619393
      ],
      [
        "Ġroof",
        -10.162618947775512
      ],
      [
        "Ġparticipant",
        -10.162656511143958
      ],
      [
        "Ġflood",
        -10.16266524918558
      ],
      [
        "Ġchose",
        -10.162895957643665
      ],
      [
        "set",
        -10.163499363145329
      ],
      [
        "that",
        -10.163956977171978
      ],
      [
        "ĠAdd",
        -10.164188512325282
      ],
      [
        "ĠSp",
        -10.164848818277571
      ],
      [
        "Ġbees",
        -10.165253623947834
      ],
      [
        "ĠTechnolog",
        -10.16627104448805
      ],
      [
        "ug",
        -10.16633806759535
      ],
      [
        "Ġport",
        -10.166606618676228
      ],
      [
        "ĠAugust",
        -10.166701569753402
      ],
      [
        "Ġsudden",
        -10.16687618478839
      ],
      [
        "Ġkidney",
        -10.166941503200125
      ],
      [
        "rate",
        -10.167235776927308
      ],
      [
        "-related",
        -10.167607769213609
      ],
      [
        "Ġvariant",
        -10.16892301462208
      ],
      [
        "ĠWhere",
        -10.169292674877152
      ],
      [
        "ox",
        -10.169362302894507
      ],
      [
        "-on",
        -10.17022401707467
      ],
      [
        "Ġdetermined",
        -10.170431217093457
      ],
      [
        "Ġtrans",
        -10.170603025766043
      ],
      [
        "Ġdefinite",
        -10.171221538450853
      ],
      [
        "Ġminimize",
        -10.171324251608064
      ],
      [
        "Ġappeal",
        -10.175448078882322
      ],
      [
        "ĠJanu",
        -10.175917702006195
      ],
      [
        "Ġpackage",
        -10.17655497870242
      ],
      [
        "Ġobjective",
        -10.176579903109811
      ],
      [
        "iness",
        -10.17758304158194
      ],
      [
        "Ġestablish",
        -10.178466417293537
      ],
      [
        "ES",
        -10.179259206112564
      ],
      [
        "Ġdistinct",
        -10.179525599040067
      ],
      [
        "com",
        -10.179681622733526
      ],
      [
        "First",
        -10.179744473765934
      ],
      [
        "-time",
        -10.180875892254448
      ],
      [
        "how",
        -10.182418266996969
      ],
      [
        "Ġauthorit",
        -10.182617174244209
      ],
      [
        "Ġreli",
        -10.182744102064175
      ],
      [
        "Ġweed",
        -10.182833325686795
      ],
      [
        "Ġextensive",
        -10.183933879257562
      ],
      [
        "Ġcampaign",
        -10.183933936181166
      ],
      [
        "Ġpermanent",
        -10.18393397319812
      ],
      [
        "Ġdiagram",
        -10.183933982017468
      ],
      [
        "Ġprofile",
        -10.183935675186936
      ],
      [
        "Ġversatil",
        -10.183960785917616
      ],
      [
        "Ġwound",
        -10.184019974498447
      ],
      [
        "Ġrandom",
        -10.184277031133735
      ],
      [
        "Ġemploy",
        -10.185701206999486
      ],
      [
        "Ġcomput",
        -10.185894069779504
      ],
      [
        "Ġhid",
        -10.186699099259233
      ],
      [
        "ĠPower",
        -10.187956165547048
      ],
      [
        "Ġbillion",
        -10.188235602440871
      ],
      [
        "Ġtoxic",
        -10.188239653106764
      ],
      [
        "Ġsurprise",
        -10.18824422501865
      ],
      [
        "Ġbrief",
        -10.188244227449736
      ],
      [
        "ĠDi",
        -10.188337666596851
      ],
      [
        "Ġinternet",
        -10.188402567766044
      ],
      [
        "Ġderive",
        -10.191605881878589
      ],
      [
        "desired",
        -10.19165493322
      ],
      [
        "Ġrow",
        -10.191815408115575
      ],
      [
        "Ġcultural",
        -10.192396687964902
      ],
      [
        "Ġdedicate",
        -10.192573797145984
      ],
      [
        "Ġvessel",
        -10.192576664901232
      ],
      [
        "Ġspin",
        -10.19305944364874
      ],
      [
        "Ġmo",
        -10.193334852859667
      ],
      [
        "AS",
        -10.193479511102348
      ],
      [
        "Ġtwi",
        -10.194476720958626
      ],
      [
        "Ġtip",
        -10.196056516925855
      ],
      [
        "Ġfarmers",
        -10.196097337512406
      ],
      [
        "OVID",
        -10.197006103655127
      ],
      [
        "Ġgenerator",
        -10.197406576713352
      ],
      [
        "Ġfundamental",
        -10.197781682373114
      ],
      [
        "Ġguy",
        -10.200165314083534
      ],
      [
        "lie",
        -10.200415123540768
      ],
      [
        "Ġcoal",
        -10.201012960573996
      ],
      [
        "Ġrabbit",
        -10.201287870225546
      ],
      [
        "Ġfoster",
        -10.201313908646185
      ],
      [
        "Ġbill",
        -10.201679749452854
      ],
      [
        "ung",
        -10.202538436185469
      ],
      [
        "Ġjournal",
        -10.202770530349904
      ],
      [
        "some",
        -10.20383761740845
      ],
      [
        "ĠPa",
        -10.204136312946394
      ],
      [
        "Ġpen",
        -10.205148966388904
      ],
      [
        "Ġbus",
        -10.205633854870428
      ],
      [
        "Ġscenario",
        -10.205674189510887
      ],
      [
        "Ġquantit",
        -10.205881643386872
      ],
      [
        "Ġdomain",
        -10.205985869097322
      ],
      [
        "iv",
        -10.2063880670582
      ],
      [
        "Ġyield",
        -10.206889083963317
      ],
      [
        "Ġwoman",
        -10.207458868806942
      ],
      [
        "Ġaccident",
        -10.207731110220472
      ],
      [
        "tability",
        -10.20826616865116
      ],
      [
        "Ġmission",
        -10.20987939629508
      ],
      [
        "low",
        -10.209966543541416
      ],
      [
        "Ġtraffic",
        -10.210079116241236
      ],
      [
        "Ġinsulin",
        -10.210081793046676
      ],
      [
        "Ġwindows",
        -10.210210777200892
      ],
      [
        "ssistance",
        -10.210244245816188
      ],
      [
        "ĠInternational",
        -10.210370479960702
      ],
      [
        "Ġpreparation",
        -10.21041305738154
      ],
      [
        "Ġscore",
        -10.210430411898631
      ],
      [
        "Ġblow",
        -10.210464867547364
      ],
      [
        "Ġshoes",
        -10.210733330799872
      ],
      [
        "Ġinform",
        -10.211311842024742
      ],
      [
        "ĠChoos",
        -10.21211428363631
      ],
      [
        "sium",
        -10.212168696523303
      ],
      [
        "Ġbloom",
        -10.212462890354717
      ],
      [
        "Ġnation",
        -10.21296223474512
      ],
      [
        "Ġinner",
        -10.2135597170122
      ],
      [
        "Ġcontrast",
        -10.2145039469063
      ],
      [
        "Ġbean",
        -10.214538877287282
      ],
      [
        "Ġscene",
        -10.215955825899403
      ],
      [
        "Ġsolve",
        -10.218049596991232
      ],
      [
        "top",
        -10.218224671031386
      ],
      [
        "but",
        -10.218617424413209
      ],
      [
        "Ġbeauty",
        -10.218948660969495
      ],
      [
        "Ġlimestone",
        -10.218966371191488
      ],
      [
        "ĠPM",
        -10.218989581561983
      ],
      [
        "uck",
        -10.219043830269484
      ],
      [
        "Ġobservation",
        -10.219426389367786
      ],
      [
        "ool",
        -10.221001607463052
      ],
      [
        "Ġsight",
        -10.222506843740325
      ],
      [
        "Ġsecret",
        -10.22262756135254
      ],
      [
        "ĠGet",
        -10.222738747451649
      ],
      [
        "Ġdigesti",
        -10.222979517297558
      ],
      [
        "Ġwash",
        -10.223306470168769
      ],
      [
        "Ġpowder",
        -10.223412627861023
      ],
      [
        "Ġrespirator",
        -10.223412658657857
      ],
      [
        "Ġmobile",
        -10.223412828408389
      ],
      [
        "Ġmolecular",
        -10.22342331560953
      ],
      [
        "ade",
        -10.223928530962771
      ],
      [
        "According",
        -10.22468991933039
      ],
      [
        "Ġmechanical",
        -10.224931787642245
      ],
      [
        "Ġcircle",
        -10.2263146025741
      ],
      [
        "|Ċ",
        -10.226621005579457
      ],
      [
        "Ġconsult",
        -10.22702145584952
      ],
      [
        "ĠTi",
        -10.227071221776136
      ],
      [
        "Ġsport",
        -10.229457836733438
      ],
      [
        "Let",
        -10.229481540802768
      ],
      [
        "Ġstring",
        -10.23086675321928
      ],
      [
        "Ġsharp",
        -10.23112750680856
      ],
      [
        "ĠPo",
        -10.232080174339329
      ],
      [
        "Ġplug",
        -10.23299261750904
      ],
      [
        "ĠWild",
        -10.233583954430404
      ],
      [
        "Ġsizes",
        -10.233940471156563
      ],
      [
        "ĠAbou",
        -10.233971313682442
      ],
      [
        "ĠCount",
        -10.234233763834608
      ],
      [
        "Ġhip",
        -10.234795600915923
      ],
      [
        "Ġlay",
        -10.235177782977814
      ],
      [
        "spent",
        -10.235968804623134
      ],
      [
        "Ġfloat",
        -10.236179691966102
      ],
      [
        "Ġopening",
        -10.23623317046784
      ],
      [
        "ĠAustralian",
        -10.236683186071552
      ],
      [
        "Ġobserv",
        -10.237001634720832
      ],
      [
        "Ġmelt",
        -10.23705840513571
      ],
      [
        "late",
        -10.23747380770174
      ],
      [
        "ĠAfrican",
        -10.237560690439707
      ],
      [
        "weight",
        -10.238059986267324
      ],
      [
        "book",
        -10.23824076722924
      ],
      [
        "net",
        -10.238379534853795
      ],
      [
        "Ġbank",
        -10.238885699784616
      ],
      [
        "Ġgirl",
        -10.241465570837184
      ],
      [
        "Ġinnovative",
        -10.24147554410542
      ],
      [
        "Ġpropose",
        -10.24157507215677
      ],
      [
        "Ġgrant",
        -10.242008422618252
      ],
      [
        "Ġcurve",
        -10.242802185934046
      ],
      [
        "Ġadequate",
        -10.243387699688446
      ],
      [
        "Ġbite",
        -10.243456060852624
      ],
      [
        "ack",
        -10.244030823413397
      ],
      [
        "Ġwouldn",
        -10.245024191981216
      ],
      [
        "Ġthermal",
        -10.245994183461194
      ],
      [
        "Ġrestaurant",
        -10.246037986530348
      ],
      [
        "Ġclub",
        -10.246038005621948
      ],
      [
        "ulation",
        -10.24610091734262
      ],
      [
        "ĠCheck",
        -10.246118092891
      ],
      [
        "Ġradiation",
        -10.246161528625873
      ],
      [
        "Ġedit",
        -10.24689523955674
      ],
      [
        "Ġdatabase",
        -10.247004015761192
      ],
      [
        "Ġbug",
        -10.24727170713254
      ],
      [
        "Ġexplor",
        -10.247509481376008
      ],
      [
        "Ġloose",
        -10.247775309058843
      ],
      [
        "Ġsupplement",
        -10.247850367422965
      ],
      [
        "OS",
        -10.247970611884512
      ],
      [
        "ĠSee",
        -10.249943412653757
      ],
      [
        "Ġdream",
        -10.25062599051984
      ],
      [
        "Ġshrub",
        -10.25063252575076
      ],
      [
        "Ġsmoke",
        -10.251039274731848
      ],
      [
        "Ġpoly",
        -10.251135813386764
      ],
      [
        "ki",
        -10.251584882003703
      ],
      [
        "Ġthrive",
        -10.252723907165054
      ],
      [
        "Ġkg",
        -10.252944209859454
      ],
      [
        "Ġpop",
        -10.25299436781879
      ],
      [
        "]Ċ",
        -10.253032254225054
      ],
      [
        "Ġinvest",
        -10.254490879550977
      ],
      [
        "Ġcollected",
        -10.255190513258588
      ],
      [
        "Ġvector",
        -10.255235286553408
      ],
      [
        "Ġconsum",
        -10.255489443423505
      ],
      [
        "Ġstrip",
        -10.255567915074264
      ],
      [
        "Ġunlike",
        -10.255752089192615
      ],
      [
        "atic",
        -10.256220760471878
      ],
      [
        "wood",
        -10.257245049829136
      ],
      [
        "Ġshell",
        -10.257866127807574
      ],
      [
        "Dr",
        -10.258205941206036
      ],
      [
        "Ġcooked",
        -10.258683165136231
      ],
      [
        "Ġshowing",
        -10.259501972852508
      ],
      [
        "Ġshock",
        -10.259881454223676
      ],
      [
        "Ġbarrier",
        -10.259887213826026
      ],
      [
        "Ġguess",
        -10.25990322394967
      ],
      [
        "Ġfeedback",
        -10.25994601067347
      ],
      [
        "Ġimagine",
        -10.260273655283608
      ],
      [
        "IS",
        -10.26117001864461
      ],
      [
        "form",
        -10.26244856633249
      ],
      [
        "Ġliver",
        -10.263124153612395
      ],
      [
        "Ġnose",
        -10.263512282648833
      ],
      [
        "Ġexhibit",
        -10.263575155465317
      ],
      [
        "ĠWork",
        -10.263953733450208
      ],
      [
        "OR",
        -10.264004016889093
      ],
      [
        "Ġdust",
        -10.26409164506112
      ],
      [
        "Ġchronic",
        -10.26451423826797
      ],
      [
        "Ġcharging",
        -10.264514393772911
      ],
      [
        "Ġsmell",
        -10.264537136902478
      ],
      [
        "Children",
        -10.264562110715548
      ],
      [
        "Ġcalm",
        -10.264604769293909
      ],
      [
        "Ġpure",
        -10.264888912082448
      ],
      [
        "Ġcontrolle",
        -10.265328295060058
      ],
      [
        "Ġconfiden",
        -10.268439851811014
      ],
      [
        "Ġprofessor",
        -10.269187132949131
      ],
      [
        "Ġobes",
        -10.269205476626876
      ],
      [
        "Ġformula",
        -10.269369946805112
      ],
      [
        "ĠUV",
        -10.269430269566326
      ],
      [
        "Ġabsolute",
        -10.269742911790756
      ],
      [
        "ĠAsia",
        -10.271137394793934
      ],
      [
        "Ġvisitor",
        -10.27119817115762
      ],
      [
        "Ġrecorded",
        -10.27198663959934
      ],
      [
        "ham",
        -10.27202363374218
      ],
      [
        "Ġprey",
        -10.272338030252769
      ],
      [
        "Ġhardwa",
        -10.2725735155476
      ],
      [
        "bar",
        -10.273194682086904
      ],
      [
        "Ġrace",
        -10.273194875856252
      ],
      [
        "ST",
        -10.27367248620665
      ],
      [
        "âĢĺ",
        -10.27388322799737
      ],
      [
        "Ġexciting",
        -10.273937675190874
      ],
      [
        "Ġcalculation",
        -10.274594699112347
      ],
      [
        "ĠAny",
        -10.275024951803523
      ],
      [
        "Ġflu",
        -10.275118495052578
      ],
      [
        "Ġfertilizer",
        -10.275843426885269
      ],
      [
        "wimming",
        -10.27603035316897
      ],
      [
        "ĠSu",
        -10.27615905057835
      ],
      [
        "Ġtrial",
        -10.276475705353413
      ],
      [
        "Ġcontract",
        -10.276717835685
      ],
      [
        "Ġarray",
        -10.277291042635104
      ],
      [
        "Ġma",
        -10.277957325275462
      ],
      [
        "ĠOpen",
        -10.278167241841375
      ],
      [
        "q",
        -10.278284424474055
      ],
      [
        "Ġamazing",
        -10.27859909933027
      ],
      [
        "Ġpassenger",
        -10.278599297752288
      ],
      [
        "Ġaudience",
        -10.2785997592346
      ],
      [
        "Ġinterior",
        -10.278601316795214
      ],
      [
        "Ġdebri",
        -10.278636049221737
      ],
      [
        "Ġinterface",
        -10.278952304146372
      ],
      [
        "ĠTake",
        -10.280919994026275
      ],
      [
        "Ġrecommendation",
        -10.280958955892128
      ],
      [
        "Ġonion",
        -10.281943631404184
      ],
      [
        "going",
        -10.282123612702865
      ],
      [
        "ĠLearning",
        -10.282270608840124
      ],
      [
        "Ġblade",
        -10.283339340147364
      ],
      [
        "Ġmild",
        -10.283341075846764
      ],
      [
        "Ġim",
        -10.28343098138377
      ],
      [
        "Ġvast",
        -10.28344613867115
      ],
      [
        "Ġrelation",
        -10.283563982105024
      ],
      [
        "Ġroute",
        -10.285088371045038
      ],
      [
        "Ġacademic",
        -10.285964652501184
      ],
      [
        "ĠSilver",
        -10.286280403362218
      ],
      [
        "Ġgraph",
        -10.28671889589886
      ],
      [
        "Ġdivide",
        -10.287432884694333
      ],
      [
        "ĠRemember",
        -10.287527864761485
      ],
      [
        "Ġcustom",
        -10.287536306858804
      ],
      [
        "Ġgun",
        -10.28816817545112
      ],
      [
        "ĠWhite",
        -10.288629837097496
      ],
      [
        "Ġmassive",
        -10.288899887756994
      ],
      [
        "Ġurban",
        -10.290614494273903
      ],
      [
        "ĠBoth",
        -10.29143386059308
      ],
      [
        "Ġsong",
        -10.291566756849493
      ],
      [
        "Ġforget",
        -10.292341265215006
      ],
      [
        "Ġflour",
        -10.292786892462717
      ],
      [
        "Ġprompt",
        -10.29288553050706
      ],
      [
        "Introduction",
        -10.292901554585963
      ],
      [
        "Ġvegan",
        -10.292974529025296
      ],
      [
        "ĠProgram",
        -10.293411348161886
      ],
      [
        "Ġserver",
        -10.29370126922106
      ],
      [
        "ĠIsland",
        -10.293754810207428
      ],
      [
        "Ġcombined",
        -10.293987071696195
      ],
      [
        "Ġwearing",
        -10.2943171092907
      ],
      [
        "ik",
        -10.294992429529444
      ],
      [
        "Ġremoval",
        -10.295051196455322
      ],
      [
        "Ġexperienc",
        -10.295317180115344
      ],
      [
        "ĠEast",
        -10.295636177426417
      ],
      [
        "Ġmoral",
        -10.296188105098569
      ],
      [
        "han",
        -10.297123179955932
      ],
      [
        "ĠHuman",
        -10.297131224209435
      ],
      [
        "Ġintroduc",
        -10.29765077616955
      ],
      [
        "Ġpeak",
        -10.297917867951924
      ],
      [
        "Ġvarie",
        -10.297963302889622
      ],
      [
        "Ġcontrolling",
        -10.298711381783626
      ],
      [
        "Ġcertainly",
        -10.298972599229328
      ],
      [
        "diversity",
        -10.299184545936663
      ],
      [
        "nce",
        -10.299284110568358
      ],
      [
        "ĠEl",
        -10.2993414913642
      ],
      [
        "Ġsex",
        -10.300228699951084
      ],
      [
        "press",
        -10.30032739036142
      ],
      [
        "ĠControl",
        -10.300391145119768
      ],
      [
        "Ġcorner",
        -10.300618186999362
      ],
      [
        "Ġtrouble",
        -10.300831454323127
      ],
      [
        "ular",
        -10.301329753574551
      ],
      [
        "Ġexplanation",
        -10.302523493562866
      ],
      [
        "Ġgradual",
        -10.302531974943
      ],
      [
        "ĠpH",
        -10.302630287266634
      ],
      [
        "Ġcorn",
        -10.30330570807275
      ],
      [
        "Ġlb",
        -10.30335361557215
      ],
      [
        "Ġillustrate",
        -10.303630564275387
      ],
      [
        "well",
        -10.303918315437851
      ],
      [
        "Ġboil",
        -10.304488283927096
      ],
      [
        "Ġaircraft",
        -10.304628501056351
      ],
      [
        "Ġpictures",
        -10.30502928498764
      ],
      [
        "ĠNe",
        -10.305095946890605
      ],
      [
        "ĠConsider",
        -10.306534580209636
      ],
      [
        "Ġheavi",
        -10.30683676145561
      ],
      [
        "Ġsouthern",
        -10.307407561923974
      ],
      [
        "IN",
        -10.307417003668622
      ],
      [
        "ĠGarden",
        -10.307565666292165
      ],
      [
        "ĠClean",
        -10.30757156878738
      ],
      [
        "Ġfreeze",
        -10.307713732577744
      ],
      [
        "ĠCommon",
        -10.307822671428887
      ],
      [
        "you",
        -10.307973099276158
      ],
      [
        "Ġdesigner",
        -10.307996545188786
      ],
      [
        "Ġraw",
        -10.308150884014836
      ],
      [
        "Ġbreast",
        -10.308467651413418
      ],
      [
        "Ġsexual",
        -10.30875779390433
      ],
      [
        "Ġhistorical",
        -10.309010761544547
      ],
      [
        "Ġcounter",
        -10.309133932043864
      ],
      [
        "ja",
        -10.309154584743135
      ],
      [
        "Pa",
        -10.31077347255048
      ],
      [
        "aging",
        -10.311611878005989
      ],
      [
        "Ġboy",
        -10.311624943521672
      ],
      [
        "back",
        -10.311862473790796
      ],
      [
        "âĢĭ",
        -10.312256797535632
      ],
      [
        "Ġstreet",
        -10.312257707304717
      ],
      [
        "Ġrecognition",
        -10.312400310679404
      ],
      [
        "Ġwonder",
        -10.31287608558902
      ],
      [
        "aught",
        -10.31303109795537
      ],
      [
        "Ġincome",
        -10.313405278672873
      ],
      [
        "Ġsew",
        -10.314371051797476
      ],
      [
        "Ġcopy",
        -10.314531857369346
      ],
      [
        "Ġworse",
        -10.314613349534518
      ],
      [
        "Ġmining",
        -10.315030735186404
      ],
      [
        "stock",
        -10.315433207030791
      ],
      [
        "Ġevaluate",
        -10.316808280047498
      ],
      [
        "Ġfamiliar",
        -10.31709555941335
      ],
      [
        "Ġcomplication",
        -10.317157863127676
      ],
      [
        "ĠAssociation",
        -10.31715855525536
      ],
      [
        "Ġlunch",
        -10.317167300179264
      ],
      [
        "Ġcash",
        -10.317296794803644
      ],
      [
        "rat",
        -10.3176339998985
      ],
      [
        "Ġcent",
        -10.319041679798955
      ],
      [
        "ene",
        -10.319707576017787
      ],
      [
        "Ġpages",
        -10.320060052345765
      ],
      [
        "New",
        -10.321372352603197
      ],
      [
        "Ġvet",
        -10.321931560815504
      ],
      [
        "Ġmeasuring",
        -10.322083974514245
      ],
      [
        "Ġrural",
        -10.322104484456665
      ],
      [
        "Ġfelt",
        -10.322126175115498
      ],
      [
        "Ġwonderful",
        -10.322498745976198
      ],
      [
        "ĠStart",
        -10.322994904672903
      ],
      [
        "ĠJo",
        -10.323292754700653
      ],
      [
        "Ġminimal",
        -10.323809022832766
      ],
      [
        "Ġride",
        -10.32426712080131
      ],
      [
        "Ġorange",
        -10.325192651818105
      ],
      [
        "ĠAr",
        -10.325426507679405
      ],
      [
        "Ġparticipat",
        -10.325533283556648
      ],
      [
        "Ġexpos",
        -10.325735136205562
      ],
      [
        "Ġpackag",
        -10.325830957174109
      ],
      [
        "Ġnet",
        -10.326094968317877
      ],
      [
        "Ġchapter",
        -10.327034547357997
      ],
      [
        "Ġinflammation",
        -10.32703812696951
      ],
      [
        "Ġmilitary",
        -10.327040926179498
      ],
      [
        "ĠPlan",
        -10.327192947230628
      ],
      [
        "Ġ\\",
        -10.327223277215207
      ],
      [
        "Ġsurvival",
        -10.327275196426502
      ],
      [
        "ĠOctober",
        -10.327751694827278
      ],
      [
        "Ġtwist",
        -10.327861029097877
      ],
      [
        "Ġcontroller",
        -10.329309641288562
      ],
      [
        "car",
        -10.3294888853411
      ],
      [
        "Ġrespective",
        -10.330323136268664
      ],
      [
        "Ġbridge",
        -10.33038730790344
      ],
      [
        "Ġpreserve",
        -10.33092319402001
      ],
      [
        "uc",
        -10.33102203375007
      ],
      [
        "stream",
        -10.33131057786602
      ],
      [
        "ĠHo",
        -10.331390935804675
      ],
      [
        "Ġtown",
        -10.331801181575068
      ],
      [
        "Ġhydrogen",
        -10.332027937577834
      ],
      [
        "ĠBlack",
        -10.33220608595146
      ],
      [
        "Ġinfrastructure",
        -10.332289093748996
      ],
      [
        "ground",
        -10.33250825114543
      ],
      [
        "Ġallerg",
        -10.334776017954336
      ],
      [
        "Ġpe",
        -10.335242638385214
      ],
      [
        "Ġrely",
        -10.335870258717176
      ],
      [
        "Since",
        -10.336463525853876
      ],
      [
        "||",
        -10.336517232747616
      ],
      [
        "Ġexcess",
        -10.33671507894828
      ],
      [
        "Ġshop",
        -10.336750015027558
      ],
      [
        "cross",
        -10.336793691343274
      ],
      [
        "Ġalter",
        -10.336955518346857
      ],
      [
        "ĠAnimal",
        -10.337494111251496
      ],
      [
        "Ġnutrition",
        -10.337730957066334
      ],
      [
        "Ġcontinu",
        -10.337823108540343
      ],
      [
        "amp",
        -10.338286269332707
      ],
      [
        "Ġautomat",
        -10.33855087482635
      ],
      [
        "Ġdye",
        -10.339651815970797
      ],
      [
        "tus",
        -10.339752969645636
      ],
      [
        "Ġstream",
        -10.340179504126429
      ],
      [
        "Ġcast",
        -10.34043586961212
      ],
      [
        "ĠGuide",
        -10.341093127668644
      ],
      [
        "Ġuniversity",
        -10.341328642237167
      ],
      [
        "Ġaccessib",
        -10.341381490201217
      ],
      [
        "Ġinsert",
        -10.341525596365056
      ],
      [
        "Ġretain",
        -10.342034866754249
      ],
      [
        "Ġuniform",
        -10.342036079149583
      ],
      [
        "Ġalumin",
        -10.34203657650247
      ],
      [
        "ĠGu",
        -10.342105206705307
      ],
      [
        "Ġreward",
        -10.342445519688363
      ],
      [
        "name",
        -10.342494785768595
      ],
      [
        "ĠLake",
        -10.342613660722574
      ],
      [
        "Ġthanks",
        -10.343730295930284
      ],
      [
        "ĠFree",
        -10.343972434619786
      ],
      [
        "Ġparticipate",
        -10.34429198987842
      ],
      [
        "Ġpasta",
        -10.346627864338023
      ],
      [
        "Ġvacuum",
        -10.347085226557722
      ],
      [
        "ĠSociety",
        -10.347085263770996
      ],
      [
        "Ġhousehold",
        -10.347172603368604
      ],
      [
        "ĠWi",
        -10.347542157902758
      ],
      [
        "ĠCare",
        -10.347969303987211
      ],
      [
        "ĠTV",
        -10.348533140830622
      ],
      [
        "ĠLo",
        -10.348862303836295
      ],
      [
        "ĠLife",
        -10.349156553191564
      ],
      [
        "Ġgenome",
        -10.349685714994116
      ],
      [
        "Ġeconom",
        -10.349927404445449
      ],
      [
        "Ġheater",
        -10.35066248564577
      ],
      [
        "ĠBay",
        -10.350752777476965
      ],
      [
        "Ġcrushing",
        -10.350843174250354
      ],
      [
        "Ġnorthern",
        -10.35222136495441
      ],
      [
        "house",
        -10.352657603837336
      ],
      [
        "Ġelectrons",
        -10.353126744841576
      ],
      [
        "ĠFe",
        -10.353251380528782
      ],
      [
        "ĠThrough",
        -10.353430323886878
      ],
      [
        "Ġrecords",
        -10.3535131938056
      ],
      [
        "Ġpose",
        -10.353679994761368
      ],
      [
        "Ġw",
        -10.354719827335517
      ],
      [
        "Ġintroduction",
        -10.35524925007591
      ],
      [
        "Ġtag",
        -10.355748515396686
      ],
      [
        "Ġtrauma",
        -10.35619267507239
      ],
      [
        "Ġdesire",
        -10.35627499185538
      ],
      [
        "Ġindex",
        -10.356395316690826
      ],
      [
        "Ġbehaviour",
        -10.35726340375981
      ],
      [
        "Ġveterinarian",
        -10.357332472226153
      ],
      [
        "Ġanalyze",
        -10.35756756023672
      ],
      [
        "Ġrais",
        -10.358150321776138
      ],
      [
        "Ġaward",
        -10.358604429374513
      ],
      [
        "Ġcapital",
        -10.358789184301424
      ],
      [
        "ĠHave",
        -10.358910441596912
      ],
      [
        "Add",
        -10.358941958769442
      ],
      [
        "rich",
        -10.359331058833032
      ],
      [
        "ĠNatural",
        -10.359382633301564
      ],
      [
        "Ġmoth",
        -10.359712962660538
      ],
      [
        "Ġbattle",
        -10.360068067299569
      ],
      [
        "ĠProject",
        -10.360179292209406
      ],
      [
        "ric",
        -10.360874209412753
      ],
      [
        "Ġj",
        -10.361720110443436
      ],
      [
        "Ġreceiv",
        -10.36191132573751
      ],
      [
        "Ġguard",
        -10.362233911431078
      ],
      [
        "Ġstretch",
        -10.362408291011338
      ],
      [
        "Ġdepression",
        -10.362527783733675
      ],
      [
        "Ġtough",
        -10.362896771444792
      ],
      [
        "Ġtransportation",
        -10.36348158852506
      ],
      [
        "Ġray",
        -10.363715053786509
      ],
      [
        "Ġphysics",
        -10.363954571991648
      ],
      [
        "Ġgram",
        -10.36450625375839
      ],
      [
        "Ġcomposition",
        -10.36585748360704
      ],
      [
        "Ġsession",
        -10.365981812080648
      ],
      [
        "Ġplayed",
        -10.365998479778112
      ],
      [
        "ĠBo",
        -10.366462426160847
      ],
      [
        "ĠPleas",
        -10.366577227860516
      ],
      [
        "Ġagricultural",
        -10.367546248015127
      ],
      [
        "ĠTexa",
        -10.367552938489712
      ],
      [
        "afety",
        -10.36782258884865
      ],
      [
        "cellular",
        -10.36785223038724
      ],
      [
        "(b",
        -10.368085542674416
      ],
      [
        "Ġdrie",
        -10.368853282820623
      ],
      [
        "Share",
        -10.369078807319903
      ],
      [
        "Ġpar",
        -10.369549351340282
      ],
      [
        "Ġlaborator",
        -10.369905930930573
      ],
      [
        "ĠKnow",
        -10.369984575359368
      ],
      [
        "Ġjuice",
        -10.370094321724116
      ],
      [
        "ĠLab",
        -10.371145152174652
      ],
      [
        "ĠInformation",
        -10.371293636297738
      ],
      [
        "Ġembodiment",
        -10.37142961403262
      ],
      [
        "Ġcord",
        -10.372413928046855
      ],
      [
        "Ġagriculture",
        -10.37272759516891
      ],
      [
        "Ġdioxide",
        -10.372769196485052
      ],
      [
        "Ġdentist",
        -10.372823103553486
      ],
      [
        "ĠDevelopment",
        -10.37288334931324
      ],
      [
        "Ġarrangement",
        -10.372933079648895
      ],
      [
        "Ġstroke",
        -10.373211930610076
      ],
      [
        "Ġtrait",
        -10.37536116439308
      ],
      [
        "Ġpin",
        -10.376502208584776
      ],
      [
        "Ġapproache",
        -10.376908552779582
      ],
      [
        ");",
        -10.377431437539231
      ],
      [
        "Ġweigh",
        -10.377760445663007
      ],
      [
        "Ġcluster",
        -10.377939857007544
      ],
      [
        "Don",
        -10.378037658829154
      ],
      [
        "ĠLu",
        -10.378233400664172
      ],
      [
        "Ġgather",
        -10.379301783742074
      ],
      [
        "Ġalign",
        -10.37934538310332
      ],
      [
        "CO",
        -10.38040151786948
      ],
      [
        "Ġscrew",
        -10.380482235271808
      ],
      [
        "Ġluck",
        -10.381246457472365
      ],
      [
        "Ġcamp",
        -10.38150249763207
      ],
      [
        "ĠPi",
        -10.381552193603047
      ],
      [
        "Ġperiods",
        -10.38172423986219
      ],
      [
        "gar",
        -10.38215201336192
      ],
      [
        "ez",
        -10.382272765086594
      ],
      [
        "Â",
        -10.383101566162935
      ],
      [
        "Ġaccurac",
        -10.383171531484091
      ],
      [
        "ĠCity",
        -10.383272641109167
      ],
      [
        "Ġdurable",
        -10.38400679825182
      ],
      [
        "Ġvertical",
        -10.384465479369624
      ],
      [
        "Ġgut",
        -10.385357549004905
      ],
      [
        "pos",
        -10.385455892834958
      ],
      [
        "ran",
        -10.385476211493591
      ],
      [
        "ern",
        -10.386439720417291
      ],
      [
        "Ġoral",
        -10.388079820605167
      ],
      [
        "Ġminute",
        -10.388122146049316
      ],
      [
        "Ġuniverse",
        -10.388435300332066
      ],
      [
        "Ġfamous",
        -10.388438192653894
      ],
      [
        "Ġspray",
        -10.388448543636898
      ],
      [
        "Ġmat",
        -10.38847169433771
      ],
      [
        "Ġflexi",
        -10.388514751047186
      ],
      [
        "Ġdrill",
        -10.388518242826173
      ],
      [
        "Ġbabie",
        -10.388638181738784
      ],
      [
        "Ġinteractive",
        -10.388885869173023
      ],
      [
        "Ġsink",
        -10.389170704168642
      ],
      [
        "room",
        -10.390173931730835
      ],
      [
        "Ġgraduate",
        -10.39044456755274
      ],
      [
        "Ġstanding",
        -10.390537408049358
      ],
      [
        "Ġga",
        -10.391064042219744
      ],
      [
        "Ġappreciate",
        -10.392059498004471
      ],
      [
        "read",
        -10.393555645170508
      ],
      [
        "Ġaesthetic",
        -10.393725707550704
      ],
      [
        "Ġdischarge",
        -10.393744114713105
      ],
      [
        "Ġborder",
        -10.39382253010604
      ],
      [
        "Ġcommitment",
        -10.393883033155994
      ],
      [
        "Ġmice",
        -10.39403478239754
      ],
      [
        "gave",
        -10.394291459914
      ],
      [
        "from",
        -10.395243998454935
      ],
      [
        "Ġstrengthen",
        -10.395431166610036
      ],
      [
        "Ġturning",
        -10.39797941052123
      ],
      [
        "ĠSun",
        -10.398392290056432
      ],
      [
        "Ġshapes",
        -10.398879550362285
      ],
      [
        "Ġsuspect",
        -10.399044904145992
      ],
      [
        "Ġmeant",
        -10.399052196634557
      ],
      [
        "Ra",
        -10.399219476204497
      ],
      [
        "Ġmanner",
        -10.39925622312436
      ],
      [
        "Ġdisaster",
        -10.399377435647027
      ],
      [
        "Ġrestrict",
        -10.39941131871565
      ],
      [
        "Ġinspection",
        -10.399932199713644
      ],
      [
        "@",
        -10.400071748429502
      ],
      [
        "Ġplus",
        -10.40157294346642
      ],
      [
        "Ġexcept",
        -10.402158266901951
      ],
      [
        "AR",
        -10.404038190128317
      ],
      [
        "ĠHa",
        -10.4042226852023
      ],
      [
        "Ġquantum",
        -10.40439426840613
      ],
      [
        "Ġcolumn",
        -10.404405734168684
      ],
      [
        "Ġdigest",
        -10.40490902795202
      ],
      [
        "ĠGerman",
        -10.405074837496125
      ],
      [
        "Ġisolat",
        -10.405422762276164
      ],
      [
        "Ġcentre",
        -10.405811924697035
      ],
      [
        "Ġtradition",
        -10.4058159659246
      ],
      [
        "ĠII",
        -10.406224863437192
      ],
      [
        "Ġmutation",
        -10.406301533914052
      ],
      [
        "Ġrenewable",
        -10.406376414234115
      ],
      [
        "ĠPhoto",
        -10.406871929029098
      ],
      [
        "Ġgraphic",
        -10.407355471660216
      ],
      [
        "ĠCat",
        -10.40812789178974
      ],
      [
        "Ma",
        -10.408287618869746
      ],
      [
        "ING",
        -10.409581036639114
      ],
      [
        "Ġcognitive",
        -10.40977283296543
      ],
      [
        "gg",
        -10.409822766554566
      ],
      [
        "Ġbranche",
        -10.409823690347704
      ],
      [
        "Ġtrend",
        -10.40985331820224
      ],
      [
        "Ġinitiative",
        -10.4099003309851
      ],
      [
        "Ġmemor",
        -10.410002661739105
      ],
      [
        "Ġparty",
        -10.410067857295555
      ],
      [
        "ix",
        -10.410131545574572
      ],
      [
        "Ġplot",
        -10.41022952178417
      ],
      [
        "Ġexchange",
        -10.410502655017993
      ],
      [
        "Ġmis",
        -10.410819634094844
      ],
      [
        "Ġlicense",
        -10.411210290904537
      ],
      [
        "ĠFish",
        -10.411551867547509
      ],
      [
        "Ġexcited",
        -10.413037370350342
      ],
      [
        "Ġinstitution",
        -10.413233119124651
      ],
      [
        "ĠChange",
        -10.413792032330171
      ],
      [
        "Ġopposite",
        -10.415177494721451
      ],
      [
        "ĠEngland",
        -10.415198457178905
      ],
      [
        "ttle",
        -10.415370955598936
      ],
      [
        "History",
        -10.416006055916023
      ],
      [
        "ĠToday",
        -10.416457492071402
      ],
      [
        "Ġconfiguration",
        -10.416635712986714
      ],
      [
        "Final",
        -10.417075280620251
      ],
      [
        "Ġjoint",
        -10.417076891430376
      ],
      [
        "Ġthoughts",
        -10.417268583666475
      ],
      [
        "Ġpartial",
        -10.417317249349448
      ],
      [
        "Ġlisten",
        -10.417810597124312
      ],
      [
        "Ġsides",
        -10.419919407435096
      ],
      [
        "Ġhandl",
        -10.420131926512418
      ],
      [
        "Ġcurriculum",
        -10.420614503523632
      ],
      [
        "Ġworkshop",
        -10.42067987373436
      ],
      [
        "Ġshoot",
        -10.421150843581326
      ],
      [
        "Ġthreaten",
        -10.42122811093337
      ],
      [
        "cle",
        -10.421891083868942
      ],
      [
        "Ġsessions",
        -10.42226195154185
      ],
      [
        "ĠHand",
[...]
