{
  "version": "1.0",
  "truncation": null,
  "padding": null,
  "added_tokens": [
    {
      "id": 0,
      "content": "<|bos|>",
      "single_word": false,
      "lstrip": false,
      "rstrip": false,
      "normalized": false,
      "special": true
    },
    {
      "id": 1,
      "content": "<|user_start|>",
      "single_word": false,
      "lstrip": false,
      "rstrip": false,
      "normalized": false,
      "special": true
    },
    {
      "id": 2,
      "content": "<|user_end|>",
      "single_word": false,
      "lstrip": false,
      "rstrip": false,
      "normalized": false,
      "special": true
    },
    {
      "id": 3,
      "content": "<|assistant_start|>",
      "single_word": false,
      "lstrip": false,
      "rstrip": false,
      "normalized": false,
      "special": true
    },
    {
      "id": 4,
      "content": "<|assistant_end|>",
      "single_word": false,
      "lstrip": false,
      "rstrip": false,
      "normalized": false,
      "special": true
    },
    {
      "id": 5,
      "content": "<|python_start|>",
      "single_word": false,
      "lstrip": false,
      "rstrip": false,
      "normalized": false,
      "special": true
    },
    {
      "id": 6,
      "content": "<|python_end|>",
      "single_word": false,
      "lstrip": false,
      "rstrip": false,
      "normalized": false,
      "special": true
    },
    {
      "id": 7,
      "content": "<|output_start|>",
      "single_word": false,
      "lstrip": false,
      "rstrip": false,
      "normalized": false,
      "special": true
    },
    {
      "id": 8,
      "content": "<|output_end|>",
      "single_word": false,
      "lstrip": false,
      "rstrip": false,
      "normalized": false,
      "special": true
    },
    {
      "id": 9,
      "content": "<|unk|>",
      "single_word": false,
      "lstrip": false,
      "rstrip": false,
      "normalized": false,
      "special": true
    }
  ],
  "normalizer": null,
  "pre_tokenizer": {
    "type": "Sequence",
    "pretokenizers": [
      {
        "type": "Split",
        "pattern": {
          "Regex": "'(?i:[sdmt]|ll|ve|re)|[^\\r\\n\\p{L}\\p{N}]?+\\p{L}+|\\p{N}{1,2}| ?[^\\s\\p{L}\\p{N}]++[\\r\\n]*|\\s*[\\r\\n]|\\s+(?!\\S)|\\s+"
        },
        "behavior": "Isolated",
        "invert": false
      },
      {
        "type": "ByteLevel",
        "add_prefix_space": false,
        "trim_offsets": true,
        "use_regex": false
      }
    ]
  },
  "post_processor": {
    "type": "TemplateProcessing",
    "single": [
      {
        "Sequence": {
          "id": "A",
          "type_id": 0
        }
      }
    ],
    "pair": [
      {
        "Sequence": {
          "id": "A",
          "type_id": 0
        }
      },
      {
        "Sequence": {
          "id": "B",
          "type_id": 1
        }
      }
    ],
    "special_tokens": {}
  },
  "decoder": null,
  "model": {
    "type": "BPE",
    "dropout": null,
    "unk_token": "<|unk|>",
    "continuing_subword_prefix": null,
    "end_of_word_suffix": null,
    "fuse_unk": false,
    "byte_fallback": false,
    "ignore_merges": false,
    "vocab": {
      "<|bos|>": 0,
      "<|user_start|>": 1,
      "<|user_end|>": 2,
      "<|assistant_start|>": 3,
      "<|assistant_end|>": 4,
      "<|python_start|>": 5,
      "<|python_end|>": 6,
      "<|output_start|>": 7,
      "<|output_end|>": 8,
      "<|unk|>": 9,
      "!": 10,
      "\"": 11,
      "#": 12,
      "$": 13,
      "%": 14,
      "&": 15,
      "'": 16,
      "(": 17,
      ")": 18,
      "*": 19,
      "+": 20,
      ",": 21,
      "-": 22,
      ".": 23,
      "/": 24,
      "0": 25,
      "1": 26,
      "2": 27,
      "3": 28,
      "4": 29,
      "5": 30,
      "6": 31,
      "7": 32,
      "8": 33,
      "9": 34,
      ":": 35,
      ";": 36,
      "<": 37,
      "=": 38,
      ">": 39,
      "?": 40,
      "@": 41,
      "A": 42,
      "B": 43,
      "C": 44,
      "D": 45,
      "E": 46,
      "F": 47,
      "G": 48,
      "H": 49,
      "I": 50,
      "J": 51,
      "K": 52,
      "L": 53,
      "M": 54,
      "N": 55,
      "O": 56,
      "P": 57,
      "Q": 58,
      "R": 59,
      "S": 60,
      "T": 61,
      "U": 62,
      "V": 63,
      "W": 64,
      "X": 65,
      "Y": 66,
      "Z": 67,
      "[": 68,
      "\\": 69,
      "]": 70,
      "^": 71,
      "_": 72,
      "`": 73,
      "a": 74,
      "b": 75,
      "c": 76,
      "d": 77,
      "e": 78,
      "f": 79,
      "g": 80,
      "h": 81,
      "i": 82,
      "j": 83,
      "k": 84,
      "l": 85,
      "m": 86,
      "n": 87,
      "o": 88,
      "p": 89,
      "q": 90,
      "r": 91,
      "s": 92,
      "t": 93,
      "u": 94,
      "v": 95,
      "w": 96,
      "x": 97,
      "y": 98,
      "z": 99,
      "{": 100,
      "|": 101,
      "}": 102,
      "~": 103,
      "¡": 104,
      "¢": 105,
      "£": 106,
      "¤": 107,
      "¥": 108,
      "¦": 109,
      "§": 110,
      "¨": 111,
      "©": 112,
      "ª": 113,
      "«": 114,
      "¬": 115,
      "®": 116,
      "¯": 117,
      "°": 118,
      "±": 119,
      "²": 120,
      "³": 121,
      "´": 122,
      "µ": 123,
      "¶": 124,
      "·": 125,
      "¸": 126,
      "¹": 127,
      "º": 128,
      "»": 129,
      "¼": 130,
      "½": 131,
      "¾": 132,
      "¿": 133,
      "À": 134,
      "Á": 135,
      "Â": 136,
      "Ã": 137,
      "Ä": 138,
      "Å": 139,
      "Æ": 140,
      "Ç": 141,
      "È": 142,
      "É": 143,
      "Ê": 144,
      "Ë": 145,
      "Ì": 146,
      "Í": 147,
      "Î": 148,
      "Ï": 149,
      "Ð": 150,
      "Ñ": 151,
      "Ò": 152,
      "Ó": 153,
      "Ô": 154,
      "Õ": 155,
      "Ö": 156,
      "×": 157,
      "Ø": 158,
      "Ù": 159,
      "Ú": 160,
      "Û": 161,
      "Ü": 162,
      "Ý": 163,
      "Þ": 164,
      "ß": 165,
      "à": 166,
      "á": 167,
      "â": 168,
      "ã": 169,
      "ä": 170,
      "å": 171,
      "æ": 172,
      "ç": 173,
      "è": 174,
      "é": 175,
      "ê": 176,
      "ë": 177,
      "ì": 178,
      "í": 179,
      "î": 180,
      "ï": 181,
      "ð": 182,
      "ñ": 183,
      "ò": 184,
      "ó": 185,
      "ô": 186,
      "õ": 187,
      "ö": 188,
      "÷": 189,
      "ø": 190,
      "ù": 191,
      "ú": 192,
      "û": 193,
      "ü": 194,
      "ý": 195,
      "þ": 196,
      "ÿ": 197,
      "Ā": 198,
      "ā": 199,
      "Ă": 200,
      "ă": 201,
      "Ą": 202,
      "ą": 203,
      "Ć": 204,
      "ć": 205,
      "Ĉ": 206,
      "ĉ": 207,
      "Ċ": 208,
      "ċ": 209,
      "Č": 210,
      "č": 211,
      "Ď": 212,
      "ď": 213,
      "Đ": 214,
      "đ": 215,
      "Ē": 216,
      "ē": 217,
      "Ĕ": 218,
      "ĕ": 219,
      "Ė": 220,
      "ė": 221,
      "Ę": 222,
      "ę": 223,
      "Ě": 224,
      "ě": 225,
      "Ĝ": 226,
      "ĝ": 227,
      "Ğ": 228,
      "ğ": 229,
      "Ġ": 230,
      "ġ": 231,
      "Ģ": 232,
      "ģ": 233,
      "Ĥ": 234,
      "ĥ": 235,
      "Ħ": 236,
      "ħ": 237,
      "Ĩ": 238,
      "ĩ": 239,
      "Ī": 240,
      "ī": 241,
      "Ĭ": 242,
      "ĭ": 243,
      "Į": 244,
      "į": 245,
      "İ": 246,
      "ı": 247,
      "Ĳ": 248,
      "ĳ": 249,
      "Ĵ": 250,
      "ĵ": 251,
      "Ķ": 252,
      "ķ": 253,
      "ĸ": 254,
      "Ĺ": 255,
      "ĺ": 256,
      "Ļ": 257,
      "ļ": 258,
      "Ľ": 259,
      "ľ": 260,
      "Ŀ": 261,
      "ŀ": 262,
      "Ł": 263,
      "ł": 264,
      "Ń": 265,
      "Ġt": 266,
      "Ġa": 267,
      "in": 268,
      "he": 269,
      "re": 270,
      "on": 271,
      "Ġthe": 272,
      "er": 273,
      "Ġs": 274,
      "at": 275,
      "Ġc": 276,
      "Ġo": 277,
      "es": 278,
      "en": 279,
      "Ġw": 280,
      "nd": 281,
      "it": 282,
      "ing": 283,
      "is": 284,
      "Ġp": 285,
      "or": 286,
      "Ġb": 287,
      "Ġf": 288,
      "ou": 289,
      "al": 290,
      "an": 291,
      "Ġm": 292,
      "ed": 293,
      "Ġto": 294,
      "Ġof": 295,
      "Ġin": 296,
      "ar": 297,
      "Ġand": 298,
      "Ġd": 299,
      "ion": 300,
      "ic": 301,
      "le": 302,
      "ro": 303,
      "as": 304,
      "Ġth": 305,
      "Ġh": 306,
      "ct": 307,
      "ent": 308,
      "Ġe": 309,
      "Ġl": 310,
      "ve": 311,
      "il": 312,
      "Ġre": 313,
      "om": 314,
      "us": 315,
      "Ġis": 316,
      ".Ċ": 317,
      "Ġn": 318,
      "Ġy": 319,
      "et": 320,
      "ly": 321,
      "Ġg": 322,
      "Ġyou": 323,
      "Ġbe": 324,
      "ow": 325,
      "ot": 326,
      "ut": 327,
      "im": 328,
      "id": 329,
      "ĠT": 330,
      "ol": 331,
      "st": 332,
      "ig": 333,
      "ce": 334,
      "Ġfor": 335,
      "ra": 336,
      "ation": 337,
      "ĠA": 338,
      "ch": 339,
      "ur": 340,
      "Ġon": 341,
      "Ġthat": 342,
      "ĠI": 343,
      "Ġst": 344,
      "ir": 345,
      "ver": 346,
      "el": 347,
      "ul": 348,
      "Ġit": 349,
      "ay": 350,
      "ith": 351,
      "Ġare": 352,
      "Ġpro": 353,
      "if": 354,
      "se": 355,
      "Ġwith": 356,
      "Ġan": 357,
      "ĠS": 358,
      "am": 359,
      ".ĊĊ": 360,
      "Ġcon": 361,
      "od": 362,
      "Ġas": 363,
      "Ġor": 364,
      "est": 365,
      "Ġal": 366,
      "Ġha": 367,
      "her": 368,
      "ĠC": 369,
      "ter": 370,
      "ĊĊ": 371,
      "ke": 372,
      "un": 373,
      "Ġwh": 374,
      "Ġcan": 375,
      "ure": 376,
      "ge": 377,
      "ad": 378,
      "ess": 379,
      "ĠThe": 380,
      "Ġcom": 381,
      "ate": 382,
      "ill": 383,
      "um": 384,
      "ab": 385,
      "Ġex": 386,
      "ant": 387,
      "Ġhe": 388,
      "ĠW": 389,
      "ore": 390,
      "pe": 391,
      "ers": 392,
      "qu": 393,
      "ive": 394,
      "igh": 395,
      "'s": 396,
      "th": 397,
      "Ġus": 398,
      "em": 399,
      "ies": 400,
      "Ġwe": 401,
      "op": 402,
      "Ġv": 403,
      "ment": 404,
      "Ġyour": 405,
      "ity": 406,
      "ld": 407,
      "ac": 408,
      "os": 409,
      "ain": 410,
      "ist": 411,
      "Ġ(": 412,
      "Ġde": 413,
      "ĠP": 414,
      "pp": 415,
      "ĠM": 416,
      "rom": 417,
      "Ġne": 418,
      "Ġse": 419,
      "ĠB": 420,
      "Ġr": 421,
      "Ġch": 422,
      "Ġen": 423,
      "ect": 424,
      "Ġsu": 425,
      "Ġsh": 426,
      "Ġat": 427,
      "ial": 428,
      "iv": 429,
      "ort": 430,
      "Ġhave": 431,
      "Ġdo": 432,
      "Ġle": 433,
      "Ġfrom": 434,
      "ight": 435,
      "res": 436,
      "ĠD": 437,
      "nt": 438,
      "Ġnot": 439,
      "Ġpl": 440,
      "Ġby": 441,
      "art": 442,
      "per": 443,
      "oc": 444,
      "and": 445,
      "ĠH": 446,
      "ud": 447,
      "ust": 448,
      "all": 449,
      "ĠF": 450,
      "ical": 451,
      "Ġthis": 452,
      "ome": 453,
      "ri": 454,
      "ide": 455,
      "ould": 456,
      "Ġab": 457,
      "rou": 458,
      "ĠE": 459,
      "Ġu": 460,
      "ine": 461,
      "âĢ": 462,
      "act": 463,
      "out": 464,
      "pt": 465,
      "ard": 466,
      "ions": 467,
      "og": 468,
      "ns": 469,
      "ĠR": 470,
      "Ġcomp": 471,
      "Ġim": 472,
      "ost": 473,
      "Ġma": 474,
      "ell": 475,
      "du": 476,
      "Ġwill": 477,
      "red": 478,
      "ich": 479,
      "ast": 480,
      "Ġwhe": 481,
      "Ġint": 482,
      "ood": 483,
      "Ġwor": 484,
      "Ġk": 485,
      "Ġtheir": 486,
      "gh": 487,
      "Ġthey": 488,
      "ff": 489,
      "The": 490,
      "Ġad": 491,
      "our": 492,
      "ther": 493,
      "iz": 494,
      "ater": 495,
      "ĠN": 496,
      "age": 497,
      "king": 498,
      "ĠL": 499,
      "pl": 500,
      "Ġwas": 501,
      "Ġall": 502,
      "ated": 503,
      "able": 504,
      "Ġmore": 505,
      "ag": 506,
      "end": 507,
      "Ġcont": 508,
      "ult": 509,
      "hat": 510,
      "ans": 511,
      "ĠG": 512,
      "ere": 513,
      "ib": 514,
      "Ġso": 515,
      "ip": 516,
      "Ġbut": 517,
      "ks": 518,
      "oo": 519,
      "ally": 520,
      "ind": 521,
      "ous": 522,
      "Ġres": 523,
      "ep": 524,
      "Ġinc": 525,
      "so": 526,
      "wer": 527,
      "ĠO": 528,
      "ru": 529,
      "ike": 530,
      "are": 531,
      "Ġte": 532,
      "Ġj": 533,
      "estion": 534,
      "Ġme": 535,
      "cc": 536,
      "ry": 537,
      "orm": 538,
      "ong": 539,
      "Qu": 540,
      "ance": 541,
      "ations": 542,
      "Ġcl": 543,
      "Ġwhich": 544,
      "Ġhas": 545,
      "Ġout": 546,
      "vel": 547,
      "Ġsp": 548,
      "ents": 549,
      "Ġ\"": 550,
      "Ġun": 551,
      "Ġdis": 552,
      "Ġimp": 553,
      "ction": 554,
      "his": 555,
      "Ġother": 556,
      "Ġman": 557,
      "ear": 558,
      "ens": 559,
      "20": 560,
      "ie": 561,
      "'t": 562,
      "av": 563,
      "nswer": 564,
      "Ġalso": 565,
      "Question": 566,
      "one": 567,
      "Ġone": 568,
      "Ġtim": 569,
      "ĠAnswer": 570,
      "Ġspe": 571,
      "aus": 572,
      "very": 573,
      "reat": 574,
      "ach": 575,
      "ap": 576,
      "ace": 577,
      "ence": 578,
      "ice": 579,
      "Ġfe": 580,
      "ign": 581,
      "ack": 582,
      "Ġper": 583,
      "ition": 584,
      "Ġabout": 585,
      "ass": 586,
      "ress": 587,
      "ĠIn": 588,
      "ase": 589,
      "Ġthem": 590,
      "Ġlike": 591,
      "ary": 592,
      "Ġsc": 593,
      "Ġup": 594,
      "ors": 595,
      "ĠU": 596,
      "ile": 597,
      "Ġpre": 598,
      "low": 599,
      "ĠIt": 600,
      "iff": 601,
      "Ġro": 602,
      "Ġwhen": 603,
      "now": 604,
      "Ġqu": 605,
      "ire": 606,
      "Ġsome": 607,
      "ild": 608,
      "ound": 609,
      "Ġapp": 610,
      "ue": 611,
      "Ġev": 612,
      "Ġif": 613,
      "Ġpart": 614,
      "Ġsy": 615,
      "Ġinto": 616,
      "ite": 617,
      "ces": 618,
      "Ġneed": 619,
      "ric": 620,
      "ose": 621,
      "Ġdiff": 622,
      "Ġuse": 623,
      "ia": 624,
      "Ġtime": 625,
      "ll": 626,
      "ays": 627,
      "Ġcol": 628,
      "Ġar": 629,
      "Ġhow": 630,
      "ĠThis": 631,
      "Ġmay": 632,
      "form": 633,
      "ail": 634,
      "ĠY": 635,
      "Ġthere": 636,
      "Ġits": 637,
      "ame": 638,
      "row": 639,
      "Ġthan": 640,
      "Ġhel": 641,
      "ak": 642,
      "Ġrec": 643,
      "Ġbec": 644,
      "ting": 645,
      "ber": 646,
      "Ġbl": 647,
      "ĠWhat": 648,
      "Ġbet": 649,
      "Ġtra": 650,
      "Ġpe": 651,
      "Ġover": 652,
      "ating": 653,
      "ific": 654,
      "Ġany": 655,
      "Ġcomm": 656,
      "ree": 657,
      "Ġhelp": 658,
      "te": 659,
      "ause": 660,
      "Ġcons": 661,
      "cess": 662,
      "als": 663,
      "we": 664,
      "Ġthese": 665,
      "les": 666,
      "ord": 667,
      "lect": 668,
      "ĠâĢ": 669,
      "Ġknow": 670,
      "nder": 671,
      "ang": 672,
      "Ġgo": 673,
      "Ġwater": 674,
      "ove": 675,
      "ake": 676,
      "ish": 677,
      "Ġstud": 678,
      "..": 679,
      "Ġspec": 680,
      "ond": 681,
      "Ġtr": 682,
      "Ġget": 683,
      "ough": 684,
      "ature": 685,
      "hy": 686,
      "olog": 687,
      "Ġused": 688,
      "Ġgen": 689,
      "ons": 690,
      "Ġprodu": 691,
      "Ġsa": 692,
      "rough": 693,
      "ings": 694,
      "ory": 695,
      "stem": 696,
      "Ġwhat": 697,
      "Ġra": 698,
      "ari": 699,
      "Ġour": 700,
      "ms": 701,
      "Ġind": 702,
      "Ġdes": 703,
      "Ġfl": 704,
      "int": 705,
      "ub": 706,
      "ount": 707,
      "Ġdiffere": 708,
      "Ġeff": 709,
      "Ġco": 710,
      "ular": 711,
      "ning": 712,
      "ook": 713,
      "alth": 714,
      "ople": 715,
      "ĠJ": 716,
      "Ġoff": 717,
      "ick": 718,
      "ne": 719,
      "Ġact": 720,
      "lud": 721,
      "erv": 722,
      "Ġmost": 723,
      "Ġmake": 724,
      "round": 725,
      "Ġyear": 726,
      "Ġwere": 727,
      "Ġadd": 728,
      "Ġwho": 729,
      "Ġnew": 730,
      "vers": 731,
      "Ġshould": 732,
      "ck": 733,
      "Ġacc": 734,
      "Ġprov": 735,
      "Ġunder": 736,
      "Ġsuch": 737,
      "Ġam": 738,
      "xt": 739,
      "Ġtw": 740,
      "ates": 741,
      "Ġag": 742,
      "Ġcar": 743,
      "ility": 744,
      "ient": 745,
      "ful": 746,
      "erg": 747,
      "eth": 748,
      "Ġwould": 749,
      "Ġem": 750,
      "ject": 751,
      "Ġbeen": 752,
      "10": 753,
      "Ġsm": 754,
      "Ġdi": 755,
      "ple": 756,
      "Ġpeople": 757,
      "ĠSt": 758,
      "uring": 759,
      "oth": 760,
      "ative": 761,
      "ments": 762,
      "ble": 763,
      "ange": 764,
      "irst": 765,
      "Ġinclud": 766,
      "Ġsystem": 767,
      "Ġonly": 768,
      "ise": 769,
      "Ġjust": 770,
      "Ġplant": 771,
      "Ġthrough": 772,
      "ities": 773,
      "Ġwork": 774,
      "Ġinter": 775,
      "oss": 776,
      "ph": 777,
      "Ġno": 778,
      "Ġty": 779,
      "Ġpo": 780,
      "hes": 781,
      "Ġreg": 782,
      "ics": 783,
      "Ġmy": 784,
      "ark": 785,
      "ced": 786,
      "Ġac": 787,
      "Ġpr": 788,
      "Ġhigh": 789,
      "ov": 790,
      "ower": 791,
      "Ġmany": 792,
      "its": 793,
      "ten": 794,
      "Ġbu": 795,
      "ĠK": 796,
      "own": 797,
      "fore": 798,
      "Ġsur": 799,
      "Ġtwo": 800,
      "Ġwell": 801,
      "Ġmod": 802,
      "Ġrel": 803,
      "00": 804,
      "ob": 805,
      "Ġhealth": 806,
      "lic": 807,
      "Ġdoes": 808,
      "ible": 809,
      "hen": 810,
      "ween": 811,
      "old": 812,
      "velop": 813,
      "ram": 814,
      "Ġdifferent": 815,
      "19": 816,
      "Ġke": 817,
      "ract": 818,
      "Ġ-": 819,
      "ual": 820,
      "tain": 821,
      "chn": 822,
      "ĠV": 823,
      "ren": 824,
      "ased": 825,
      "?Ċ": 826,
      "Ġrem": 827,
      "ft": 828,
      "Ġrep": 829,
      "ink": 830,
      "Ġwhere": 831,
      "Ġexper": 832,
      "Ġtrans": 833,
      "Ġbetween": 834,
      "fter": 835,
      "Ġfirst": 836,
      "Ġche": 837,
      "ential": 838,
      "cy": 839,
      "ife": 840,
      "Ġimport": 841,
      "Ġway": 842,
      "arm": 843,
      "Ġsim": 844,
      "Ġob": 845,
      "Ġlong": 846,
      "Ġdevelop": 847,
      "Ġprocess": 848,
      "uch": 849,
      "Ġsupp": 850,
      "Ġpat": 851,
      "Ġusing": 852,
      "hed": 853,
      "Ġcould": 854,
      "ience": 855,
      "Ġvari": 856,
      "Ġinv": 857,
      "Ġfood": 858,
      "ade": 859,
      "In": 860,
      "Ġthen": 861,
      "Ġass": 862,
      "get": 863,
      "ize": 864,
      "erm": 865,
      "Ġinst": 866,
      "ĠIf": 867,
      "ually": 868,
      "Ġbecause": 869,
      "ef": 870,
      "Ġdet": 871,
      "rit": 872,
      "iron": 873,
      "Ġeven": 874,
      "Ġdec": 875,
      "ts": 876,
      "rib": 877,
      "gg": 878,
      "Ġinf": 879,
      "ution": 880,
      "ĠCh": 881,
      "Ġevery": 882,
      "iss": 883,
      "Ġatt": 884,
      "ps": 885,
      "ious": 886,
      "ically": 887,
      "Ġvery": 888,
      "Ġph": 889,
      "gan": 890,
      "mer": 891,
      "ever": 892,
      "'re": 893,
      "Ġext": 894,
      "Ġgrow": 895,
      "Ġmain": 896,
      "ĠHow": 897,
      "ĠThey": 898,
      "Ġtechn": 899,
      "ins": 900,
      "Ġeffect": 901,
      "Ġsee": 902,
      "ool": 903,
      "ural": 904,
      "wn": 905,
      "Ġhum": 906,
      "Ġcre": 907,
      "pect": 908,
      "uc": 909,
      "oy": 910,
      "ures": 911,
      "arch": 912,
      "ily": 913,
      "ĠYou": 914,
      "Ġsol": 915,
      "Ġexp": 916,
      "Ġlear": 917,
      "Ġrequ": 918,
      "Ġsub": 919,
      "ergy": 920,
      "Ġeach": 921,
      "Ġgener": 922,
      "iqu": 923,
      "Ġhad": 924,
      "Ġmuch": 925,
      "Ġback": 926,
      "Ġsk": 927,
      ").": 928,
      "Ġform": 929,
      "Ġimportant": 930,
      "Ġdog": 931,
      "ines": 932,
      "ness": 933,
      "ody": 934,
      "?ĊĊ": 935,
      "Ġlar": 936,
      "Ġsign": 937,
      "Ġnum": 938,
      "Ġfun": 939,
      "vent": 940,
      "Ġdon": 941,
      "Ġset": 942,
      "Ġrese": 943,
      "Ġins": 944,
      "ruct": 945,
      "Ġgood": 946,
      "ata": 947,
      "viron": 948,
      "Ġpres": 949,
      "ĠâĢĵ": 950,
      "cial": 951,
      "Ġfind": 952,
      "Ġexam": 953,
      "Ġresult": 954,
      "Ġwant": 955,
      "Ġmin": 956,
      "ology": 957,
      "ian": 958,
      "Ġsmall": 959,
      "),": 960,
      "ollow": 961,
      "ational": 962,
      "Ġgra": 963,
      "Ġstart": 964,
      "Ġyears": 965,
      "Ġchild": 966,
      "Ġpers": 967,
      "Ġav": 968,
      "Ġincre": 969,
      "Ġlight": 970,
      "ix": 971,
      "Ġhis": 972,
      "Ġmed": 973,
      "Ġwhile": 974,
      "Ġloc": 975,
      "Ġcle": 976,
      "Ġdisc": 977,
      "ied": 978,
      "ĠWh": 979,
      "ality": 980,
      "Ġafter": 981,
      "ues": 982,
      "ĠWe": 983,
      "ss": 984,
      "Ġtake": 985,
      "other": 986,
      "Ġve": 987,
      "stand": 988,
      "Ġbefore": 989,
      "ec": 990,
      "ron": 991,
      "Ġpot": 992,
      "Ġref": 993,
      "Ġelect": 994,
      "Ġgl": 995,
      "Ġbre": 996,
      "Ġtem": 997,
      "Ġworld": 998,
      "Ġbeing": 999,
      "ety": 1000,
      "Ġproble": 1001,
      "Ġair": 1002,
      "urn": 1003,
      "Ġsec": 1004,
      "Ġear": 1005,
      "Ġlevel": 1006,
      "ives": 1007,
      "Ġpartic": 1008,
      "vironment": 1009,
      "elf": 1010,
      "Ġdep": 1011,
      "Ġcomple": 1012,
      "Ġdown": 1013,
      "Ġcor": 1014,
      "ys": 1015,
      "Ġhand": 1016,
      "eg": 1017,
      "Ġcall": 1018,
      "ices": 1019,
      "Ġfact": 1020,
      "nce": 1021,
      "Ġfound": 1022,
      "Ġlead": 1023,
      "Ġart": 1024,
      "Ġduring": 1025,
      "Ġdesign": 1026,
      "aterial": 1027,
      "Ġcur": 1028,
      "Ġappro": 1029,
      "Ġdist": 1030,
      "ists": 1031,
      "Ġmon": 1032,
      "formation": 1033,
      "Ġprog": 1034,
      "Ġaround": 1035,
      "tle": 1036,
      "Ġallow": 1037,
      "ption": 1038,
      "ring": 1039,
      "Ġenergy": 1040,
      "ĠUn": 1041,
      "chool": 1042,
      "Ġval": 1043,
      "eld": 1044,
      "Ġsame": 1045,
      "Ġfollow": 1046,
      "ider": 1047,
      "Ġshe": 1048,
      "ases": 1049,
      "ized": 1050,
      "Ġexpl": 1051,
      "Ġcell": 1052,
      "Ġeas": 1053,
      "dition": 1054,
      "ock": 1055,
      "Ġanim": 1056,
      "Ġlife": 1057,
      "Ġboth": 1058,
      "ward": 1059,
      "tern": 1060,
      "--": 1061,
      "Ġright": 1062,
      "air": 1063,
      "Ġown": 1064,
      "Ġshow": 1065,
      "Ġent": 1066,
      "Ġthose": 1067,
      "Ġtyp": 1068,
      "Ġaut": 1069,
      "els": 1070,
      "ale": 1071,
      "ages": 1072,
      "Ġredu": 1073,
      "omm": 1074,
      "ident": 1075,
      "Ġend": 1076,
      "Ġdata": 1077,
      "Ġoften": 1078,
      ".\"": 1079,
      "Ġher": 1080,
      "ng": 1081,
      "cl": 1082,
      "Ġgu": 1083,
      "Ġcontro": 1084,
      "cer": 1085,
      "ew": 1086,
      "Ġbody": 1087,
      "Ġtoo": 1088,
      "aw": 1089,
      "atter": 1090,
      "Ġkeep": 1091,
      "Ġcare": 1092,
      "ather": 1093,
      "Ġvis": 1094,
      "Ġmaterial": 1095,
      "eng": 1096,
      "Ġbo": 1097,
      "Ġbest": 1098,
      "Ġed": 1099,
      "ets": 1100,
      "ĠPro": 1101,
      ":Ċ": 1102,
      "ty": 1103,
      "ides": 1104,
      "Ġproduct": 1105,
      "ats": 1106,
      "Ġcommon": 1107,
      "Ġread": 1108,
      "iew": 1109,
      "Ġpop": 1110,
      "Ġchar": 1111,
      "Ġprot": 1112,
      "ave": 1113,
      "Ġpower": 1114,
      "What": 1115,
      "ium": 1116,
      "ĠAs": 1117,
      "Ġday": 1118,
      "Ġmade": 1119,
      "-b": 1120,
      "ted": 1121,
      "Ġtest": 1122,
      "Ġless": 1123,
      "ars": 1124,
      "Ġstr": 1125,
      "Ġproper": 1126,
      "perature": 1127,
      "Ġenvironment": 1128,
      "Ġposs": 1129,
      "ining": 1130,
      "Ġsom": 1131,
      "ving": 1132,
      "ull": 1133,
      "ĠAl": 1134,
      "Ġpoint": 1135,
      "read": 1136,
      "iving": 1137,
      "12": 1138,
      "Ġperson": 1139,
      "ird": 1140,
      "Ġplay": 1141,
      "Ġadv": 1142,
      "ited": 1143,
      "ĠFor": 1144,
      "ethod": 1145,
      "ency": 1146,
      "Ġresp": 1147,
      "imate": 1148,
      "hys": 1149,
      "io": 1150,
      "Ġmet": 1151,
      "ield": 1152,
      "aking": 1153,
      "Ġ'": 1154,
      "ute": 1155,
      "Ġdef": 1156,
      "Ġequ": 1157,
      "Ġhome": 1158,
      "ĠHe": 1159,
      "the": 1160,
      "ason": 1161,
      "Ġdr": 1162,
      "ands": 1163,
      "cing": 1164,
      "Ġeng": 1165,
      "Ġcommun": 1166,
      "Ġunderstand": 1167,
      "ier": 1168,
      "Ġsaid": 1169,
      "Ġorgan": 1170,
      "ath": 1171,
      "ork": 1172,
      "ves": 1173,
      "Ġinformation": 1174,
      "ved": 1175,
      "hip": 1176,
      "led": 1177,
      "Ġplants": 1178,
      "any": 1179,
      "Ġpol": 1180,
      "ivid": 1181,
      "up": 1182,
      "Ġtemperature": 1183,
      "Ġprovide": 1184,
      "ivers": 1185,
      "ional": 1186,
      "ined": 1187,
      "Ġsaf": 1188,
      "Ġben": 1189,
      "Ġstudents": 1190,
      "ven": 1191,
      "ids": 1192,
      "Ġnow": 1193,
      "ots": 1194,
      "reen": 1195,
      "acter": 1196,
      "-s": 1197,
      "Ġlit": 1198,
      "Ġmethod": 1199,
      "Ġdire": 1200,
      "âĢĻ": 1201,
      "ulation": 1202,
      "Ġlook": 1203,
      "Ġsupport": 1204,
      "Ġens": 1205,
      "ĠAn": 1206,
      "How": 1207,
      "Ġnumber": 1208,
      "Ġspecies": 1209,
      "cent": 1210,
      "Ġop": 1211,
      "Ġdid": 1212,
      "ways": 1213,
      "und": 1214,
      "rent": 1215,
      "way": 1216,
      "ĠThese": 1217,
      "ĠTh": 1218,
      "oci": 1219,
      "Ġmight": 1220,
      "atch": 1221,
      "ict": 1222,
      "ants": 1223,
      "cept": 1224,
      "der": 1225,
      "Ġstudy": 1226,
      "Ġwithout": 1227,
      "Ġfam": 1228,
      "Ġgreat": 1229,
      "This": 1230,
      "Ġbetter": 1231,
      "Ġtreat": 1232,
      "Ġresearch": 1233,
      "ead": 1234,
      "Ġbeh": 1235,
      "Ġplan": 1236,
      "ĠAnd": 1237,
      "ection": 1238,
      "bs": 1239,
      "Ġimpro": 1240,
      "Ġserv": 1241,
      "day": 1242,
      "ired": 1243,
      "Ġhuman": 1244,
      "itions": 1245,
      "Ġris": 1246,
      "rap": 1247,
      "Ġactiv": 1248,
      "Ġap": 1249,
      "Ġaff": 1250,
      "Ġprof": 1251,
      "ger": 1252,
      "Ġstill": 1253,
      "Ġclass": 1254,
      "Ġtext": 1255,
      "Ġpur": 1256,
      "inal": 1257,
      "ator": 1258,
      "Ġbuild": 1259,
      "itive": 1260,
      "ash": 1261,
      "Ġbra": 1262,
      "Ġcent": 1263,
      "Ġgrou": 1264,
      "15": 1265,
      "Ġlarge": 1266,
      "ont": 1267,
      "ior": 1268,
      "Ġhapp": 1269,
      "Ġiss": 1270,
      "kes": 1271,
      "Ġincluding": 1272,
      "ince": 1273,
      "ĠBut": 1274,
      "Ġexample": 1275,
      "Ġocc": 1276,
      "Ġchang": 1277,
      "Ġpos": 1278,
      "Ġcontrol": 1279,
      "ert": 1280,
      "Ġthink": 1281,
      "Ġchange": 1282,
      "less": 1283,
      ",\"": 1284,
      "ĠTo": 1285,
      "ĠThere": 1286,
      "ability": 1287,
      "It": 1288,
      "Ġdra": 1289,
      "Ġpotential": 1290,
      "Ġbenef": 1291,
      "ared": 1292,
      "ering": 1293,
      "Ġcreat": 1294,
      "atural": 1295,
      ":ĊĊ": 1296,
      "Ġmem": 1297,
      "If": 1298,
      "...": 1299,
      "ify": 1300,
      "18": 1301,
      "Ġrun": 1302,
      "Ġtop": 1303,
      "Ġide": 1304,
      "Ġmaking": 1305,
      "ism": 1306,
      "Ġfew": 1307,
      "Ġchildren": 1308,
      "line": 1309,
      "Ġagain": 1310,
      "Ġperform": 1311,
      "ital": 1312,
      "30": 1313,
      "Ġhy": 1314,
      "rodu": 1315,
      "Ġbr": 1316,
      "rop": 1317,
      "Ġlearn": 1318,
      "Ġthree": 1319,
      "Ġwithin": 1320,
      "Ġele": 1321,
      "ording": 1322,
      "ral": 1323,
      "Ġser": 1324,
      "Ġcontain": 1325,
      "Ġbi": 1326,
      "Ġplace": 1327,
      "Ġknown": 1328,
      "-f": 1329,
      "ouse": 1330,
      "Ġess": 1331,
      "Ġdise": 1332,
      "ĠAd": 1333,
      "Ġschool": 1334,
      "Ġthings": 1335,
      "oms": 1336,
      "ware": 1337,
      "meric": 1338,
      "apt": 1339,
      "Ġcaus": 1340,
      "ross": 1341,
      "Ġtype": 1342,
      "Ġthough": 1343,
      "Ġpract": 1344,
      "ention": 1345,
      "Ġmust": 1346,
      "Ġphys": 1347,
      "Ġconf": 1348,
      "co": 1349,
      "Ġmeas": 1350,
      "Ġsl": 1351,
      "hers": 1352,
      "iven": 1353,
      "Ġindivid": 1354,
      "Ġey": 1355,
      "oid": 1356,
      "Ġcal": 1357,
      "Ġpain": 1358,
      "Ġpress": 1359,
      "'ll": 1360,
      "ape": 1361,
      "Ġmus": 1362,
      "omp": 1363,
      "Ġcost": 1364,
      "cle": 1365,
      "Ġproject": 1366,
      "Ġarea": 1367,
      "Ġprevent": 1368,
      "Ġflow": 1369,
      "ĠSo": 1370,
      "Ġdel": 1371,
      "Ġmo": 1372,
      "ank": 1373,
      "Ġcause": 1374,
      "Ġopt": 1375,
      "NA": 1376,
      "ern": 1377,
      "iness": 1378,
      "-t": 1379,
      "ooking": 1380,
      "ters": 1381,
      "Ġlow": 1382,
      "Ġcreate": 1383,
      "icle": 1384,
      "ĠWhen": 1385,
      "Ġsure": 1386,
      "Ġbel": 1387,
      "Ġcount": 1388,
      "aring": 1389,
      "here": 1390,
      "Ġconst": 1391,
      "Ġreal": 1392,
      "ense": 1393,
      "ug": 1394,
      "ner": 1395,
      "Ġcalled": 1396,
      "Ġblood": 1397,
      "Ġphot": 1398,
      "ĠHowever": 1399,
      "Ġclean": 1400,
      "Ġwhy": 1401,
      "Ġdue": 1402,
      "Ġreally": 1403,
      "Ġbas": 1404,
      "Ġgr": 1405,
      "port": 1406,
      "ique": 1407,
      "Ġfeel": 1408,
      "Ġmove": 1409,
      "Ġdev": 1410,
      "iver": 1411,
      "Ġlim": 1412,
      "gen": 1413,
      "Ġcontin": 1414,
      "Ġfunction": 1415,
      "Ġanal": 1416,
      "Ġhere": 1417,
      "ething": 1418,
      "ination": 1419,
      "Ġident": 1420,
      "Ġdam": 1421,
      "Ġsurf": 1422,
      "Ġtre": 1423,
      "ills": 1424,
      "ently": 1425,
      "ex": 1426,
      "Ġsw": 1427,
      "Ġhard": 1428,
      "Ġconn": 1429,
      "'ve": 1430,
      "Ġoper": 1431,
      "11": 1432,
      "Ġsignific": 1433,
      "Ġsour": 1434,
      "ization": 1435,
      "ox": 1436,
      "Ġdirect": 1437,
      "erest": 1438,
      "me": 1439,
      "Ġanother": 1440,
      "Ġpub": 1441,
      "ling": 1442,
      "con": 1443,
      "Ġspecific": 1444,
      "Ġconsider": 1445,
      "Ġtool": 1446,
      "Ġtry": 1447,
      "50": 1448,
      "Ġstruct": 1449,
      "Ġinclude": 1450,
      "ĠAmeric": 1451,
      "Ġgoing": 1452,
      "ration": 1453,
      "ax": 1454,
      "ected": 1455,
      "Ġcap": 1456,
      "Ġpossible": 1457,
      "be": 1458,
      "Ġavail": 1459,
      "Ġsecond": 1460,
      "ertain": 1461,
      "Ġopen": 1462,
      "Ġbus": 1463,
      "Ġmark": 1464,
      "Ġinvol": 1465,
      "Ġfollowing": 1466,
      "âĢĶ": 1467,
      "Ġprogram": 1468,
      "etic": 1469,
      "Ġsit": 1470,
      "Ġstep": 1471,
      "Ġcurrent": 1472,
      "Ġlot": 1473,
      "Ġstand": 1474,
      "Ġfree": 1475,
      "ends": 1476,
      "Ġalways": 1477,
      "Ġable": 1478,
      "Ġsomething": 1479,
      "ĠPl": 1480,
      "of": 1481,
      "land": 1482,
      "osed": 1483,
      "ode": 1484,
      "Ġold": 1485,
      "Ġbecome": 1486,
      "aste": 1487,
      "ients": 1488,
      "Ġest": 1489,
      "Ġcond": 1490,
      "ental": 1491,
      "oot": 1492,
      "Ġput": 1493,
      "Ġnatural": 1494,
      "Ġheat": 1495,
      "thing": 1496,
      "ĠSc": 1497,
      "Ġamount": 1498,
      "Ġvarious": 1499,
      "eds": 1500,
      "Ġrest": 1501,
      "16": 1502,
      "Ġpar": 1503,
      "ime": 1504,
      "icro": 1505,
      "Ġcome": 1506,
      "ours": 1507,
      "Ġpresent": 1508,
      "St": 1509,
      "ocus": 1510,
      "Ġfish": 1511,
      "Ġproblem": 1512,
      "Ġsym": 1513,
      "Ġexperience": 1514,
      "Ġprom": 1515,
      "Ġmult": 1516,
      "iversity": 1517,
      "Ġcolor": 1518,
      "Ġaddition": 1519,
      "Ġcy": 1520,
      "akes": 1521,
      "Ġstate": 1522,
      "ien": 1523,
      "uss": 1524,
      "de": 1525,
      "Ġapplic": 1526,
      "ane": 1527,
      "Ġfield": 1528,
      "Ġant": 1529,
      "Ġcomb": 1530,
      "Ġmeans": 1531,
      "ished": 1532,
      "Ġimpact": 1533,
      "Ġrange": 1534,
      "Ġpass": 1535,
      "Ġlast": 1536,
      "'m": 1537,
      "Ġes": 1538,
      "Ġsay": 1539,
      "ilar": 1540,
      "Ġel": 1541,
      "Ġcomput": 1542,
      "Ġhig": 1543,
      "ified": 1544,
      "Ġcam": 1545,
      "ĠEx": 1546,
      "ccess": 1547,
      "Ġsoil": 1548,
      "Ġwee": 1549,
      "irc": 1550,
      "Ġteam": 1551,
      "ateg": 1552,
      "Ġanimals": 1553,
      "ush": 1554,
      "Ġhead": 1555,
      "Ġlittle": 1556,
      "Ġobject": 1557,
      "__": 1558,
      "Ġret": 1559,
      "iod": 1560,
      "-c": 1561,
      "Ġneeds": 1562,
      ")Ċ": 1563,
      "Ġsever": 1564,
      "Ġareas": 1565,
      "We": 1566,
      "Ġrequire": 1567,
      "Ġz": 1568,
      "br": 1569,
      "Ġindust": 1570,
      "Ġsignificant": 1571,
      "Ġfeature": 1572,
      "ones": 1573,
      "Ġcells": 1574,
      "Ġnut": 1575,
      "Ġbased": 1576,
      "Ġappe": 1577,
      "Ġlet": 1578,
      "Ġvol": 1579,
      "Ġcut": 1580,
      "Ġfin": 1581,
      "oad": 1582,
      "Ġmean": 1583,
      "Ġquality": 1584,
      "Ġfil": 1585,
      "orn": 1586,
      "ending": 1587,
      "Ġlay": 1588,
      "ĠAr": 1589,
      "Ġavailable": 1590,
      "arent": 1591,
      "af": 1592,
      "Ġcat": 1593,
      "aves": 1594,
      "Ġchem": 1595,
      "Ġinterest": 1596,
      "par": 1597,
      "atic": 1598,
      "ances": 1599,
      "ĠRe": 1600,
      "arden": 1601,
      "ries": 1602,
      "Ġdevelopment": 1603,
      "Ġoil": 1604,
      "ards": 1605,
      "Ġtypes": 1606,
      "Ġmil": 1607,
      "Ġsystems": 1608,
      "Ġnon": 1609,
      "Ġspace": 1610,
      "ocial": 1611,
      "put": 1612,
      "ĠSh": 1613,
      "ote": 1614,
      "Ġlearning": 1615,
      "Ġfocus": 1616,
      "ĠCl": 1617,
      "Ġimm": 1618,
      "Ġmakes": 1619,
      "ieve": 1620,
      "Ġrisk": 1621,
      "omes": 1622,
      "Ġhist": 1623,
      "ological": 1624,
      "Ġsal": 1625,
      "Ġpost": 1626,
      "-d": 1627,
      "Ġusually": 1628,
      "Ġgive": 1629,
      "Ġprote": 1630,
      "**": 1631,
      "Ġdem": 1632,
      "lu": 1633,
      "Ġenough": 1634,
      "gn": 1635,
      "Ġcertain": 1636,
      "Ġmonth": 1637,
      "Ġensure": 1638,
      "Ġoccur": 1639,
      "bers": 1640,
      "ips": 1641,
      "14": 1642,
      "olution": 1643,
      "Ġfre": 1644,
      "ably": 1645,
      "pecial": 1646,
      "Ġessential": 1647,
      "aces": 1648,
      "Ġconditions": 1649,
      "Ġseveral": 1650,
      "ision": 1651,
      "Ġsize": 1652,
      "Ġprovid": 1653,
      "Ġdig": 1654,
      "over": 1655,
      "-p": 1656,
      "Ġprofess": 1657,
      "ered": 1658,
      "Ġbig": 1659,
      "Ġeffective": 1660,
      "bon": 1661,
      "ems": 1662,
      "Ġtoget": 1663,
      "Ġweight": 1664,
      "Ġtogether": 1665,
      "ton": 1666,
      "oes": 1667,
      "Ġopp": 1668,
      "oring": 1669,
      "Ġscient": 1670,
      "fort": 1671,
      "ended": 1672,
      "arc": 1673,
      "Ġ$": 1674,
      "13": 1675,
      "Ġmot": 1676,
      "Ġtimes": 1677,
      "Ġdeterm": 1678,
      "ĠIs": 1679,
      "Ġproblems": 1680,
      "Ġunt": 1681,
      "outh": 1682,
      "ĠWhich": 1683,
      "Ġ&": 1684,
      "inc": 1685,
      "Ġsens": 1686,
      "aper": 1687,
      "Ġturn": 1688,
      "Ġorder": 1689,
      "ĠSe": 1690,
      "Ġet": 1691,
      "Ġengine": 1692,
      "Ġbeg": 1693,
      "utes": 1694,
      "Ġ=": 1695,
      "au": 1696,
      "Ġparticular": 1697,
      "Ġcour": 1698,
      "alk": 1699,
      "Ġspecial": 1700,
      "cul": 1701,
      "Ġcho": 1702,
      "agement": 1703,
      "Ġresults": 1704,
      "Ġbehav": 1705,
      "Ġaccess": 1706,
      "Ġcr": 1707,
      "urther": 1708,
      "Ġmodel": 1709,
      "Ġtechnology": 1710,
      "Ġsound": 1711,
      "ĠRes": 1712,
      "Ġter": 1713,
      "ĠBe": 1714,
      "work": 1715,
      "az": 1716,
      "Ġname": 1717,
      "orts": 1718,
      "Ġpressure": 1719,
      "Ġlevels": 1720,
      "17": 1721,
      "Ġline": 1722,
      "Ġmill": 1723,
      "Ġmaterials": 1724,
      "Ġdesc": 1725,
      "Ġcirc": 1726,
      "pr": 1727,
      "Ġconsum": 1728,
      "Ġaway": 1729,
      "ustom": 1730,
      "view": 1731,
      "Ġdisease": 1732,
      "ĠCan": 1733,
      "âĢĻs": 1734,
      "Ġsurface": 1735,
      "aster": 1736,
      "ples": 1737,
      "ump": 1738,
      "asing": 1739,
      "oose": 1740,
      "Ġnear": 1741,
      "Ġside": 1742,
      "Ġsuccess": 1743,
      "As": 1744,
      "Ġeffic": 1745,
      "ah": 1746,
      "Ġsince": 1747,
      "Ġlist": 1748,
      "gs": 1749,
      "Ġperiod": 1750,
      "ories": 1751,
      "Ġimprove": 1752,
      "You": 1753,
      "ogn": 1754,
      "Ġdogs": 1755,
      "Ġeduc": 1756,
      "ctor": 1757,
      "ains": 1758,
      "fer": 1759,
      "hor": 1760,
      "omen": 1761,
      "When": 1762,
      "inter": 1763,
      "por": 1764,
      "Ġalong": 1765,
      "Ġegg": 1766,
      "Ġfeed": 1767,
      "ables": 1768,
      "Ġsing": 1769,
      "ĠThat": 1770,
      "Ġchall": 1771,
      "Ġworks": 1772,
      "ĠBy": 1773,
      "Ġprim": 1774,
      "Ġkey": 1775,
      "oint": 1776,
      "Ġ[": 1777,
      "Ġproducts": 1778,
      "ately": 1779,
      "ication": 1780,
      "-l": 1781,
      "Ġmar": 1782,
      "Ġlocal": 1783,
      "Ġkind": 1784,
      "Ġcomplete": 1785,
      "Ġgroup": 1786,
      "Ġbird": 1787,
      "Ġrecomm": 1788,
      "iting": 1789,
      "Ġdays": 1790,
      "Ġworking": 1791,
      "Ġchanges": 1792,
      "ĠInd": 1793,
      "aut": 1794,
      "Ġenc": 1795,
      "Ġmaintain": 1796,
      "Ġsoft": 1797,
      "Ġsimilar": 1798,
      "imes": 1799,
      "Ġtur": 1800,
      "ember": 1801,
      "Ġhaving": 1802,
      "Ġcase": 1803,
      "Ġfamily": 1804,
      "ĠWith": 1805,
      "Ġshort": 1806,
      "ored": 1807,
      "Ġuntil": 1808,
      "Ġearly": 1809,
      "Ġfac": 1810,
      "jor": 1811,
      "ires": 1812,
      "ggest": 1813,
      "Ġprotect": 1814,
      "pecially": 1815,
      "Ġincrease": 1816,
      "Ġgrowth": 1817,
      "Ġwarm": 1818,
      "not": 1819,
      "Ġwind": 1820,
      "let": 1821,
      "uture": 1822,
      "Ġleast": 1823,
      "Ġquick": 1824,
      "ither": 1825,
      "25": 1826,
      "Ġmach": 1827,
      "Ġnecess": 1828,
      "ury": 1829,
      "There": 1830,
      "erc": 1831,
      "Ġcomes": 1832,
      "fact": 1833,
      "âĢ¦": 1834,
      "Ġinvest": 1835,
      "ipp": 1836,
      "Ġmeasure": 1837,
      "ĠNew": 1838,
      "Ġnext": 1839,
      "Ġrad": 1840,
      "Ġgarden": 1841,
      "Ġword": 1842,
      "Ġbro": 1843,
      "Ġhigher": 1844,
      "-m": 1845,
      "Ġlikely": 1846,
      "ĠAt": 1847,
      "Ġrole": 1848,
      "Ġbusiness": 1849,
      "oun": 1850,
      "Ġstrong": 1851,
      "Ġdry": 1852,
      "Ġtru": 1853,
      "ĠâĢĶ": 1854,
      "icult": 1855,
      "Ġothers": 1856,
      "Ġsun": 1857,
      "ler": 1858,
      "izing": 1859,
      "Ġlab": 1860,
      "Ġeasy": 1861,
      "Ġmov": 1862,
      "Ġfore": 1863,
      "Ġrece": 1864,
      "Ġsuggest": 1865,
      "ilities": 1866,
      "Ġgre": 1867,
      "Ġthing": 1868,
      "Ġmind": 1869,
      "Ġissues": 1870,
      "ret": 1871,
      "self": 1872,
      "Ġcult": 1873,
      "ression": 1874,
      "Ġgiven": 1875,
      "ived": 1876,
      "Ġreduce": 1877,
      "ĠEn": 1878,
      "ooks": 1879,
      "osp": 1880,
      "Ġrele": 1881,
      "Ġdiet": 1882,
      "aging": 1883,
      "Ġlive": 1884,
      "lish": 1885,
      "bit": 1886,
      "Ġfri": 1887,
      "Ġans": 1888,
      "ĠSp": 1889,
      "ators": 1890,
      "Ġmajor": 1891,
      "Ġreason": 1892,
      "vious": 1893,
      "Ġfar": 1894,
      "ĠUniversity": 1895,
      "Ġsocial": 1896,
      "Ġresour": 1897,
      ".,": 1898,
      "40": 1899,
      "Ġflu": 1900,
      "Ġavoid": 1901,
      ")ĊĊ": 1902,
      "Ġfull": 1903,
      "Ġste": 1904,
      "Ġcourse": 1905,
      "Ġnever": 1906,
      "Ġdoesn": 1907,
      "Ġcompon": 1908,
      "Ġfour": 1909,
      "ising": 1910,
      "Ġheart": 1911,
      "oney": 1912,
      "Ġassoci": 1913,
      "rect": 1914,
      "Ġactually": 1915,
      "ream": 1916,
      "Ġi": 1917,
      "orth": 1918,
      "Ġreact": 1919,
      "Ġcustom": 1920,
      "Ġstra": 1921,
      "ches": 1922,
      "Ġways": 1923,
      "Ġfrequ": 1924,
      "Ġhim": 1925,
      "Ġrepl": 1926,
      "ised": 1927,
      "Ġsimple": 1928,
      "Ġespecially": 1929,
      "uro": 1930,
      "Ġacross": 1931,
      "ĠĠ": 1932,
      "Ġvalue": 1933,
      "Ġrepres": 1934,
      "Ġhealthy": 1935,
      "ott": 1936,
      "Ġmicro": 1937,
      "Ġchemical": 1938,
      "Ġskin": 1939,
      ",Ċ": 1940,
      "agn": 1941,
      "Ġacid": 1942,
      "Ġnet": 1943,
      "----": 1944,
      "Ġsafe": 1945,
      "verage": 1946,
      "Ġphysical": 1947,
      "Ġsum": 1948,
      "ĠCon": 1949,
      "Ġunique": 1950,
      "Ġage": 1951,
      "hem": 1952,
      "Ġlower": 1953,
      "Ġbenefits": 1954,
      "light": 1955,
      "Ġwrit": 1956,
      "An": 1957,
      "Ġaffect": 1958,
      "ĠTe": 1959,
      "omet": 1960,
      "atory": 1961,
      "Ġproduction": 1962,
      "Ġorig": 1963,
      "Ġparts": 1964,
      "Ġhouse": 1965,
      "Ġintern": 1966,
      "ĠSome": 1967,
      "Ġprob": 1968,
      "though": 1969,
      "to": 1970,
      "Ġpast": 1971,
      "Ġfuture": 1972,
      "Ġdone": 1973,
      "avor": 1974,
      "oor": 1975,
      "Ġgas": 1976,
      "Ġtreatment": 1977,
      "Ġpred": 1978,
      "anced": 1979,
      "ffic": 1980,
      "Ġdamage": 1981,
      "Ġground": 1982,
      "ivity": 1983,
      "ym": 1984,
      "side": 1985,
      "astic": 1986,
      "Ġcheck": 1987,
      "ames": 1988,
      "21": 1989,
      "Ġcharacter": 1990,
      "Ġnorm": 1991,
      "Ġpercent": 1992,
      "usion": 1993,
      "Ġvide": 1994,
      "Ġobs": 1995,
      "Ġland": 1996,
      "Ġability": 1997,
      "most": 1998,
      "Ġcool": 1999,
      "Ġsays": 2000,
      "amm": 2001,
      "Ġcra": 2002,
      "ales": 2003,
      "ensive": 2004,
      "Ġcontrib": 2005,
      "Ġwood": 2006,
      "ee": 2007,
      "ibility": 2008,
      "Ġhold": 2009,
      "Ġeat": 2010,
      "Ġbatter": 2011,
      "Ġbegin": 2012,
      "utions": 2013,
      "Ġeye": 2014,
      "Ġpath": 2015,
      "Ġagainst": 2016,
      "Ġaccording": 2017,
      "Ġred": 2018,
      "Ġreport": 2019,
      "Ġcomplex": 2020,
      "Ġsingle": 2021,
      "Ġdifficult": 2022,
      "Ġinteract": 2023,
      "Ġfu": 2024,
      "iple": 2025,
      "Ġbit": 2026,
      "Ġelectric": 2027,
      "Ġrespons": 2028,
      "Ġpie": 2029,
      "Ġregular": 2030,
      "wards": 2031,
      "ission": 2032,
      "chan": 2033,
      "ĠZ": 2034,
      "igns": 2035,
      "Ġabove": 2036,
      "Ġdeg": 2037,
      "Ġwide": 2038,
      "lement": 2039,
      "Ġtoday": 2040,
      "Ġleft": 2041,
      "ification": 2042,
      "yle": 2043,
      "ĠDe": 2044,
      "man": 2045,
      "Ġhelps": 2046,
      "Ġdetail": 2047,
      "uals": 2048,
      "Ġgreen": 2049,
      "Ġvers": 2050,
      "Ġloss": 2051,
      "fect": 2052,
      "ysis": 2053,
      "Ġpublic": 2054,
      "ledge": 2055,
      "bo": 2056,
      "Ġproduce": 2057,
      "Ġer": 2058,
      "Ġquestion": 2059,
      "To": 2060,
      "ER": 2061,
      "joy": 2062,
      "Ġabs": 2063,
      "Ġeffects": 2064,
      "resh": 2065,
      "Ġanimal": 2066,
      "Ġlooking": 2067,
      "xim": 2068,
      "Ġterm": 2069,
      "ray": 2070,
      "Ġmarket": 2071,
      "!ĊĊ": 2072,
      "Ġach": 2073,
      "Ġspeed": 2074,
      "Ġbook": 2075,
      "Ġresearc": 2076,
      "istic": 2077,
      "Ġcarbon": 2078,
      "une": 2079,
      "idence": 2080,
      "Ġwhite": 2081,
      "Ġview": 2082,
      "Ġdiscuss": 2083,
      "ĠYour": 2084,
      "Ġtraining": 2085,
      "Ġprovides": 2086,
      "ploy": 2087,
      "Ġaddress": 2088,
      "rate": 2089,
      "Ġfall": 2090,
      "Ġsubst": 2091,
      "Ġonce": 2092,
      "ores": 2093,
      "ae": 2094,
      "Ġeither": 2095,
      "Ġveh": 2096,
      "Ġyoung": 2097,
      "ĠEng": 2098,
      "Ġstructure": 2099,
      "estions": 2100,
      "ĠUS": 2101,
      "Ġclose": 2102,
      "Ġclear": 2103,
      "Ġunderstanding": 2104,
      "ustain": 2105,
      "Ġvir": 2106,
      "Ġimage": 2107,
      "Ġ--": 2108,
      "Ġcru": 2109,
      "ument": 2110,
      "Ġsn": 2111,
      "duct": 2112,
      "Ġtell": 2113,
      "Ġlove": 2114,
      "Ġfactors": 2115,
      "ystem": 2116,
      "ope": 2117,
      "uck": 2118,
      "ume": 2119,
      "Ġwr": 2120,
      "Ġmatter": 2121,
      "Ġdesigned": 2122,
      "Ġtri": 2123,
      "ask": 2124,
      "Ġoffer": 2125,
      "Ġmix": 2126,
      "Ġparent": 2127,
      "âĢĵ": 2128,
      "Ġthin": 2129,
      "Ġexpect": 2130,
      "Ġskills": 2131,
      "24": 2132,
      "Ġexist": 2133,
      "Ġneeded": 2134,
      "Ġbal": 2135,
      "for": 2136,
      "nam": 2137,
      "ready": 2138,
      "Ġamong": 2139,
      "Ġwild": 2140,
      "Ġsource": 2141,
      "Ġclimate": 2142,
      "Ġcondition": 2143,
      "22": 2144,
      "Ġill": 2145,
      "Ġgetting": 2146,
      "Ġpan": 2147,
      "Ġfeatures": 2148,
      "erence": 2149,
      "Ġindic": 2150,
      "Ġstress": 2151,
      "ties": 2152,
      "Ġallows": 2153,
      "lished": 2154,
      "For": 2155,
      "Ġauthor": 2156,
      "Ġfurther": 2157,
      "idd": 2158,
      "Ġenjoy": 2159,
      "Ġ.": 2160,
      "ibr": 2161,
      "ortun": 2162,
      "Ġcrit": 2163,
      "Ġpaper": 2164,
      "Ġmat": 2165,
      "ufact": 2166,
      "Ġapproach": 2167,
      "hing": 2168,
      "Ġleg": 2169,
      "Ġhyd": 2170,
      "Wh": 2171,
      "ina": 2172,
      "rown": 2173,
      "Ġhappen": 2174,
      "lection": 2175,
      "Ġhours": 2176,
      "upp": 2177,
      "Ġox": 2178,
      "Ġexce": 2179,
      "Ġpurp": 2180,
      "Ġenh": 2181,
      "ĠOr": 2182,
      "Ġcoll": 2183,
      "vert": 2184,
      "Ġindividual": 2185,
      "ounds": 2186,
      "Ġfram": 2187,
      "Ġalready": 2188,
      "ĠPh": 2189,
      "Ġnecessary": 2190,
      "ptoms": 2191,
      "Ġpopular": 2192,
      "Ġcomputer": 2193,
      "Ġcommunity": 2194,
      "Ġindustry": 2195,
      "Ġwhether": 2196,
      "Ġtradition": 2197,
      "Ġdraw": 2198,
      "rel": 2199,
      "Ġperformance": 2200,
      "Ġdoing": 2201,
      "Ġvariety": 2202,
      "just": 2203,
      "Ġdescrib": 2204,
      "eral": 2205,
      "edi": 2206,
      "Ġbelow": 2207,
      "Ġrequired": 2208,
      "ĠAmerican": 2209,
      "Ch": 2210,
      "Ġut": 2211,
      "Ġlif": 2212,
      "ĠCol": 2213,
      "Ġinit": 2214,
      "Ġweek": 2215,
      "ows": 2216,
      "ann": 2217,
      "Ġconcer": 2218,
      "use": 2219,
      "ĠNo": 2220,
      "aps": 2221,
      "Ġinside": 2222,
      "Ġhistory": 2223,
      "Ġfat": 2224,
      "Ġdifference": 2225,
      "ole": 2226,
      "Ġslow": 2227,
      "app": 2228,
      "itch": 2229,
      "raph": 2230,
      "Ġpersonal": 2231,
      "ging": 2232,
      "aling": 2233,
      "fully": 2234,
      "Ġexperien": 2235,
      "Ġrecord": 2236,
      "Ġchalleng": 2237,
      "alf": 2238,
      "Ġmass": 2239,
      "leep": 2240,
      "ĠOne": 2241,
      "ruction": 2242,
      "Ġblack": 2243,
      "Ġbar": 2244,
      "Ġprop": 2245,
      "Ġsafety": 2246,
      "aken": 2247,
      "Ġpay": 2248,
      "Ġactivity": 2249,
      "igure": 2250,
      "ctions": 2251,
      "Ġhumans": 2252,
      "Ġfarm": 2253,
      "Ġtools": 2254,
      "Ġstop": 2255,
      "angu": 2256,
      "So": 2257,
      "urs": 2258,
      "ĠCent": 2259,
      "Ġexperim": 2260,
      "ĠOn": 2261,
      "Ġseen": 2262,
      "Ġinstall": 2263,
      "Ġemb": 2264,
      "!Ċ": 2265,
      "Ġbreak": 2266,
      "ength": 2267,
      "by": 2268,
      "Ġextra": 2269,
      "ĠIm": 2270,
      "Ġglob": 2271,
      "Ġcontent": 2272,
      "ney": 2273,
      "Ġtot": 2274,
      "iques": 2275,
      "Ġenvironmental": 2276,
      "ges": 2277,
      "Ġmechan": 2278,
      "Ġmanagement": 2279,
      "ulations": 2280,
      "ĠBl": 2281,
      "Ġconnect": 2282,
      "Ġinteg": 2283,
      "Ġbuy": 2284,
      "ply": 2285,
      "Ġminutes": 2286,
      "Ġever": 2287,
      "Ġcook": 2288,
      "Ġmethods": 2289,
      "ik": 2290,
      "sc": 2291,
      "inary": 2292,
      "ery": 2293,
      "Ġcompany": 2294,
      "Ġlaw": 2295,
      "lying": 2296,
      "ront": 2297,
      "Ġwall": 2298,
      "Ġstrateg": 2299,
      "Ġrecogn": 2300,
      "Ġask": 2301,
      "Ġarticle": 2302,
      "Ġbuilding": 2303,
      "Ġliving": 2304,
      "verse": 2305,
      "Ġactivities": 2306,
      "oura": 2307,
      "eding": 2308,
      "Ġknowledge": 2309,
      "60": 2310,
      "Ġevent": 2311,
      "Ġpet": 2312,
      "gar": 2313,
      "ĠAll": 2314,
      "Ġisn": 2315,
      "Ġscience": 2316,
      "Al": 2317,
      "Ġexerc": 2318,
      "overed": 2319,
      "Ġgeneral": 2320,
      "Ġbacter": 2321,
      "Ġneg": 2322,
      "Ġresearchers": 2323,
      "Ġsmo": 2324,
      "ervation": 2325,
      "Ġpoll": 2326,
      "Ġport": 2327,
      "Ġdeep": 2328,
      "Ġlonger": 2329,
      "Ġnature": 2330,
      "Ġmillion": 2331,
      "Ġindividuals": 2332,
      "com": 2333,
      "Ġfast": 2334,
      "Ġuser": 2335,
      "conom": 2336,
      "Ġbehavior": 2337,
      "ule": 2338,
      "Ġprec": 2339,
      "Ġinflu": 2340,
      "Ġpositive": 2341,
      "Ġidea": 2342,
      "Ġmonths": 2343,
      "ming": 2344,
      "ilt": 2345,
      "osing": 2346,
      "ĠInst": 2347,
      "Ġtypically": 2348,
      "Ġgrowing": 2349,
      "ĠWhile": 2350,
      "Ġrelations": 2351,
      "Ġmanufact": 2352,
      "Ġbrain": 2353,
      "Ġprotein": 2354,
      "Ġgame": 2355,
      "rams": 2356,
      "Ġselect": 2357,
      "Ġrate": 2358,
      "Ġfru": 2359,
      "Ġsuper": 2360,
      "Ġcorrect": 2361,
      "Ġseason": 2362,
      "ograp": 2363,
      "Ġrob": 2364,
      "ext": 2365,
      "sel": 2366,
      "Ġintrodu": 2367,
      "Ġsolution": 2368,
      "Ġassociated": 2369,
      "Ġwhole": 2370,
      "Ġopportun": 2371,
      "nces": 2372,
      "Ġmention": 2373,
      "Ġmedical": 2374,
      "Ġminim": 2375,
      "aving": 2376,
      "reng": 2377,
      "Ġcamer": 2378,
      "Ġing": 2379,
      "osis": 2380,
      "Ġsitu": 2381,
      "Ġveget": 2382,
      "Ġmole": 2383,
      "Ġrepresent": 2384,
      "aching": 2385,
      "Ġconsist": 2386,
      "Ġgover": 2387,
      "Ġanswer": 2388,
      "Ġcases": 2389,
      "Ġsomeone": 2390,
      "Ġsetting": 2391,
      "Ġquestions": 2392,
      "ese": 2393,
      "Ġleaves": 2394,
      "Ġwaste": 2395,
      "mit": 2396,
      "Ġhor": 2397,
      "Ġhot": 2398,
      "Ġsymptoms": 2399,
      "ĠAI": 2400,
      "Ġapplications": 2401,
      "illed": 2402,
      "Ġcontact": 2403,
      "Ġfuel": 2404,
      "aches": 2405,
      "idered": 2406,
      "ĠLe": 2407,
      ").Ċ": 2408,
      "ĠComp": 2409,
      "Ġelectr": 2410,
      "Ġsustain": 2411,
      "âĢĿ": 2412,
      "Ġwar": 2413,
      "Ġbring": 2414,
      "Ġsepar": 2415,
      "Ġparticip": 2416,
      "erve": 2417,
      "Ġharm": 2418,
      "ĠWor": 2419,
      "iency": 2420,
      "room": 2421,
      "elling": 2422,
      "arget": 2423,
      "aced": 2424,
      "selves": 2425,
      "Ġstay": 2426,
      "Ġla": 2427,
      "amp": 2428,
      "Ġmen": 2429,
      "Ġeasily": 2430,
      "Ġtravel": 2431,
      "Ġaverage": 2432,
      "Ġonline": 2433,
      "Ġpopulation": 2434,
      "sect": 2435,
      "Ġposition": 2436,
      "Ġvideo": 2437,
      "Ġmagn": 2438,
      "Ġtree": 2439,
      "Ġappl": 2440,
      "ises": 2441,
      "Ġremov": 2442,
      "ged": 2443,
      "ura": 2444,
      "uff": 2445,
      "Ġfund": 2446,
      "Ġrather": 2447,
      "ellow": 2448,
      "Ġtechniques": 2449,
      "ĠCar": 2450,
      "Ġresources": 2451,
      "Ġsense": 2452,
      "Ġaltern": 2453,
      "-based": 2454,
      "oh": 2455,
      "reme": 2456,
      "rated": 2457,
      "iation": 2458,
      "Ġcollect": 2459,
      "Th": 2460,
      "Ġadult": 2461,
      "Ġappear": 2462,
      "ites": 2463,
      "Ġconsidered": 2464,
      "Ġissue": 2465,
      "eter": 2466,
      "Ġgot": 2467,
      "Ġcold": 2468,
      "Ġidentify": 2469,
      "uit": 2470,
      "lex": 2471,
      ".\"ĊĊ": 2472,
      "Ġquickly": 2473,
      "Ġuses": 2474,
      "Ġtaking": 2475,
      "Ġwomen": 2476,
      "Ġdom": 2477,
      "Ġfoods": 2478,
      "Ġperfect": 2479,
      "het": 2480,
      "Ġentire": 2481,
      "Ġfit": 2482,
      "Ġec": 2483,
      "Ġrelated": 2484,
      "Ġcrucial": 2485,
      "Ġtend": 2486,
      "Ġcancer": 2487,
      "ĠEar": 2488,
      "Ġanalysis": 2489,
      "Ġthought": 2490,
      "cre": 2491,
      "Ġlater": 2492,
      "Ġhowever": 2493,
      "Ġoverall": 2494,
      "Ġtrees": 2495,
      "ival": 2496,
      "ĠQu": 2497,
      ".\"Ċ": 2498,
      "Ġgovern": 2499,
      "Ġjob": 2500,
      "Ġmoney": 2501,
      "Ġautom": 2502,
      "Ġremain": 2503,
      "23": 2504,
      "icles": 2505,
      "Ġincreased": 2506,
      "-w": 2507,
      "80": 2508,
      "Ġetc": 2509,
      "Ġrelationship": 2510,
      "lor": 2511,
      "pro": 2512,
      "ĠDNA": 2513,
      "Ġoutside": 2514,
      "Ġstudies": 2515,
      "Ġsam": 2516,
      "Ġself": 2517,
      "Ġcompet": 2518,
      "ension": 2519,
      "Ġmodern": 2520,
      "Ġproperties": 2521,
      "Ġcreating": 2522,
      "Ġprimary": 2523,
      "Ġpack": 2524,
      "Ġcover": 2525,
      "Ġeggs": 2526,
      "Ġchoose": 2527,
      "Ġcompan": 2528,
      "Ġcomfort": 2529,
      "erous": 2530,
      "Ġstory": 2531,
      "istance": 2532,
      "Ġmeet": 2533,
      "Ġjour": 2534,
      "Ġbad": 2535,
      "Ġsite": 2536,
      "Ġinstead": 2537,
      "Ġoptim": 2538,
      "TI": 2539,
      "Ġgroups": 2540,
      "ison": 2541,
      "Ġprep": 2542,
      "Ġroom": 2543,
      "Ġdeveloped": 2544,
      "Ġprofessional": 2545,
      "ĠX": 2546,
      "Ġmachine": 2547,
      "Ġcapt": 2548,
      "Ġdoc": 2549,
      "Ġsomet": 2550,
      "Ġservice": 2551,
      "Ġhun": 2552,
      "rad": 2553,
      "Ġcreated": 2554,
      "anguage": 2555,
      "Ġsqu": 2556,
      "urope": 2557,
      "mb": 2558,
      "ĠÂ": 2559,
      "ĠCO": 2560,
      "Ġsimply": 2561,
      "ze": 2562,
      "earch": 2563,
      "Ġthroughout": 2564,
      "Ġcomponents": 2565,
      "Ġtakes": 2566,
      "abor": 2567,
      "Ġheav": 2568,
      "Ġeconom": 2569,
      "aily": 2570,
      "ipment": 2571,
      "Ġsleep": 2572,
      "Ġcannot": 2573,
      "Ġstreng": 2574,
      "aged": 2575,
      "Ġang": 2576,
      "Ġelements": 2577,
      "Ġdy": 2578,
      "Ġfive": 2579,
      "ement": 2580,
      "rig": 2581,
      "Ġnight": 2582,
      "Ġbeaut": 2583,
      "Ġexact": 2584,
      "play": 2585,
      "Ġmilk": 2586,
      "Ġtraditional": 2587,
      "amin": 2588,
      "Ġpractice": 2589,
      "Ġhabit": 2590,
      "Ġalg": 2591,
      "Ġsometimes": 2592,
      "ĠNational": 2593,
      "ift": 2594,
      "Ġdevice": 2595,
      "ĠDr": 2596,
      "Ġassess": 2597,
      "Ġsoftware": 2598,
      "Ġtarget": 2599,
      "Ġactive": 2600,
      "cies": 2601,
      "Ġfail": 2602,
      "Ġshape": 2603,
      "ners": 2604,
      "ĠComm": 2605,
      "Ġexc": 2606,
      "Ġweather": 2607,
      "ĠDo": 2608,
      "Ġincludes": 2609,
      "onst": 2610,
      "Ġur": 2611,
      "Ġdri": 2612,
      "Ġann": 2613,
      "Ġfeet": 2614,
      "Ġpatients": 2615,
      "Ġbirds": 2616,
      "Ġbur": 2617,
      "Ġmultiple": 2618,
      "Ġsequ": 2619,
      "Ġcompared": 2620,
      "Ġprobably": 2621,
      "Ġinj": 2622,
      "Ġchick": 2623,
      "Ġpoints": 2624,
      "Ġoptions": 2625,
      "AR": 2626,
      "rogen": 2627,
      "Ġshare": 2628,
      "Ġshows": 2629,
      "Ġyourself": 2630,
      "augh": 2631,
      "Ġemploy": 2632,
      "itud": 2633,
      "oll": 2634,
      "Ġsubject": 2635,
      "Ġmonit": 2636,
      "Ġface": 2637,
      "Ġnormal": 2638,
      "Ġx": 2639,
      "ĠShe": 2640,
      "ĠUs": 2641,
      "ians": 2642,
      "Ġfoot": 2643,
      "Ġlength": 2644,
      "ĠApp": 2645,
      "rict": 2646,
      "Ġwinter": 2647,
      "iot": 2648,
      "ĠUnited": 2649,
      "val": 2650,
      "Ġbab": 2651,
      "Ġmoist": 2652,
      "Ġtotal": 2653,
      "nov": 2654,
      "Ġconcept": 2655,
      "rior": 2656,
      "Ġadjust": 2657,
      "Ġalmost": 2658,
      "asons": 2659,
      "cean": 2660,
      "Ġservices": 2661,
      "Ġsurv": 2662,
      "Ġscientists": 2663,
      "Ġestab": 2664,
      "Ġanything": 2665,
      "Ġeating": 2666,
      "Ġpict": 2667,
      "Ġeducation": 2668,
      "Ġcountry": 2669,
      "ene": 2670,
      "isms": 2671,
      "90": 2672,
      "ned": 2673,
      "Ġfem": 2674,
      "Ġwebs": 2675,
      "rec": 2676,
      "Ġaccount": 2677,
      "ucle": 2678,
      "hib": 2679,
      "Ġsat": 2680,
      "Ġdigital": 2681,
      "ricult": 2682,
      "Ġlog": 2683,
      "ĠEurope": 2684,
      "Ġadapt": 2685,
      "Ad": 2686,
      "ES": 2687,
      "Ġterms": 2688,
      "Ġbattery": 2689,
      "aff": 2690,
      "ground": 2691,
      "ops": 2692,
      "lease": 2693,
      "Ġincreasing": 2694,
      "70": 2695,
      "onse": 2696,
      "Ġwon": 2697,
      "Ġaud": 2698,
      "Ġremove": 2699,
      "Ġdetermine": 2700,
      "Ġquant": 2701,
      "Ġemerg": 2702,
      "Ġteac": 2703,
      "Ġexplain": 2704,
      "Ġrot": 2705,
      "ĠAf": 2706,
      "Ġoffers": 2707,
      "Ġfresh": 2708,
      "asc": 2709,
      "Ġeverything": 2710,
      "go": 2711,
      "Ġwa": 2712,
      "ĠCons": 2713,
      "oph": 2714,
      "Ġstarted": 2715,
      "ĠTr": 2716,
      "Ġarr": 2717,
      "Ġcode": 2718,
      "aries": 2719,
      "Ġrelative": 2720,
      "ils": 2721,
      "ences": 2722,
      "Ġshown": 2723,
      "Ġprevious": 2724,
      "Ġhalf": 2725,
      "Ġlarger": 2726,
      "Ġequipment": 2727,
      "Ġtrue": 2728,
      "aim": 2729,
      "Ġspread": 2730,
      "Ġgenetic": 2731,
      "Ġextreme": 2732,
      "Ġtaken": 2733,
      "Ġge": 2734,
      "ured": 2735,
      "Ġchoice": 2736,
      "where": 2737,
      "mon": 2738,
      "Ġglobal": 2739,
      "Ġmetal": 2740,
      "Ġinsect": 2741,
      "Ġlo": 2742,
      "Ġeyes": 2743,
      "yl": 2744,
      "Ġbott": 2745,
      "Ġproviding": 2746,
      "Ġseem": 2747,
      "Ġcauses": 2748,
      "Ġcontinu": 2749,
      "Ġadvant": 2750,
      "urity": 2751,
      "Ġnutri": 2752,
      ").ĊĊ": 2753,
      "ĠAm": 2754,
      "Ġregard": 2755,
      "ules": 2756,
      "izes": 2757,
      "Ġinvolved": 2758,
      "Ġyet": 2759,
      "Ġdirectly": 2760,
      "Ġsummer": 2761,
      "Ġsil": 2762,
      "IN": 2763,
      "Ġdru": 2764,
      "Ġlands": 2765,
      "Ġefficient": 2766,
      "ograph": 2767,
      "gest": 2768,
      "ĠHere": 2769,
      "Ġfront": 2770,
      "ĠMan": 2771,
      "Ġtransport": 2772,
      "ĠHealth": 2773,
      "Ġfamil": 2774,
      "Ġcaused": 2775,
      ".S": 2776,
      "Ġcou": 2777,
      "arily": 2778,
      "Ġbasic": 2779,
      "icial": 2780,
      "Pro": 2781,
      "ĠCont": 2782,
      "Ġmedic": 2783,
      "ĠSchool": 2784,
      "Ġcop": 2785,
      "Ġmom": 2786,
      "Ġones": 2787,
      "acy": 2788,
      "ĠMed": 2789,
      "ON": 2790,
      "Ġpurpose": 2791,
      "ĠCal": 2792,
      "Ġago": 2793,
      "Ġattention": 2794,
      "-in": 2795,
      "ĠâĢľ": 2796,
      "____": 2797,
      "-st": 2798,
      "icy": 2799,
      "Ġencoura": 2800,
      "Ġquite": 2801,
      "Ġemot": 2802,
      "Ġleading": 2803,
      "Ġsuit": 2804,
      "Ġlayer": 2805,
      "cks": 2806,
      "Ġobserv": 2807,
      "Ġ+": 2808,
      "ening": 2809,
      "Ġvac": 2810,
      "acks": 2811,
      "Ġingred": 2812,
      "istics": 2813,
      "Ġregion": 2814,
      "Ġguid": 2815,
      "Ġconduct": 2816,
      "Ġstandard": 2817,
      "ulate": 2818,
      "ipe": 2819,
      "Ġoption": 2820,
      "Ġwond": 2821,
      "Ġdevices": 2822,
      "Ġbase": 2823,
      "Ġitself": 2824,
      "Ġrequires": 2825,
      "âĪ": 2826,
      "Ġadded": 2827,
      "Ġgenerally": 2828,
      "Ex": 2829,
      "One": 2830,
      "oud": 2831,
      "Ġforce": 2832,
      "new": 2833,
      "Ġmodels": 2834,
      "Why": 2835,
      "Ġsolar": 2836,
      "ests": 2837,
      "Ġcard": 2838,
      "Ġswe": 2839,
      "Ġbelieve": 2840,
      "Ġachieve": 2841,
      "Ġmentioned": 2842,
      "Ġtrying": 2843,
      "'d": 2844,
      "alking": 2845,
      "Ġthemselves": 2846,
      "Ġaspect": 2847,
      "Ġvehicle": 2848,
      "ley": 2849,
      "att": 2850,
      "ĠAg": 2851,
      "ED": 2852,
      "rist": 2853,
      "Ġdiagn": 2854,
      "rapy": 2855,
      "cri": 2856,
      "Ġprocesses": 2857,
      "Ġdistrib": 2858,
      "Ġresponse": 2859,
      "pri": 2860,
      "li": 2861,
      "artment": 2862,
      "ocol": 2863,
      "Ġbehind": 2864,
      "Ġfib": 2865,
      "ĠAfric": 2866,
      "But": 2867,
      "umb": 2868,
      "Ġice": 2869,
      "Ġtable": 2870,
      "imately": 2871,
      "AS": 2872,
      "ccording": 2873,
      "Ġplastic": 2874,
      "Ġ,": 2875,
      "Ġaction": 2876,
      "Ġvisit": 2877,
      "eed": 2878,
      "Ġmess": 2879,
      "Ġwords": 2880,
      "Ġbacteria": 2881,
      "hern": 2882,
      "Ġir": 2883,
      "oses": 2884,
      "Ġstudent": 2885,
      "Ġnegative": 2886,
      "Ġdark": 2887,
      "Ġroad": 2888,
      "Ġappropri": 2889,
      "Ġlens": 2890,
      "ino": 2891,
      "Ġrout": 2892,
      "atives": 2893,
      "Ġsignal": 2894,
      "Ġdefin": 2895,
      "Ġdaily": 2896,
      "iles": 2897,
      "osition": 2898,
      "Ġcats": 2899,
      "Ġsugar": 2900,
      "Ġparents": 2901,
      "ched": 2902,
      "Ġlanguage": 2903,
      "Ġglass": 2904,
      "sequ": 2905,
      "ditionally": 2906,
      "ĠGen": 2907,
      "Ġimplement": 2908,
      "ĠStates": 2909,
      "ecause": 2910,
      "Ġexplore": 2911,
      "Ġnetwork": 2912,
      "ygen": 2913,
      "rition": 2914,
      "Ġload": 2915,
      "life": 2916,
      "Ġguide": 2917,
      "Ġparticularly": 2918,
      "ights": 2919,
      "Ġtou": 2920,
      "Ġrain": 2921,
      "ĠCo": 2922,
      "Ġmeat": 2923,
      "pid": 2924,
      "wh": 2925,
      "ronic": 2926,
      "ĠNorth": 2927,
      "tenance": 2928,
      "Ġsources": 2929,
      "osure": 2930,
      "rees": 2931,
      "abet": 2932,
      "ha": 2933,
      "Ġprovided": 2934,
      "Ġtowards": 2935,
      "Ġunit": 2936,
      "Ġblue": 2937,
      "min": 2938,
      "Ġlink": 2939,
      "Ġlives": 2940,
      "Ġpret": 2941,
      "ĠYes": 2942,
      "Ġsmaller": 2943,
      "asks": 2944,
      "Ġpurch": 2945,
      "sy": 2946,
      "Ġbreat": 2947,
      "Ġtemperatures": 2948,
      "Ġcalcul": 2949,
      "45": 2950,
      "Ġexercise": 2951,
      "inct": 2952,
      "Ġball": 2953,
      "ĠDes": 2954,
      "ief": 2955,
      "ĠAfter": 2956,
      "Ġbag": 2957,
      "Ġadditional": 2958,
      "Ġrespect": 2959,
      "Ġgain": 2960,
      "orpor": 2961,
      "Ġinput": 2962,
      "Ġcolors": 2963,
      "like": 2964,
      "Ġapplication": 2965,
      "-g": 2966,
      "Ġsteps": 2967,
      "Ġsix": 2968,
      "Ġfire": 2969,
      "Ġimages": 2970,
      "ancy": 2971,
      "Ġdidn": 2972,
      "yp": 2973,
      "Ġful": 2974,
      "ocks": 2975,
      "iddle": 2976,
      "ror": 2977,
      "ively": 2978,
      "Ġhar": 2979,
      "Ġpatient": 2980,
      "Ġtips": 2981,
      "OT": 2982,
      "Ġfro": 2983,
      "issions": 2984,
      "Ġhighly": 2985,
      "ĠPr": 2986,
      "Ġreview": 2987,
      "Ġoutput": 2988,
      "Ġrunning": 2989,
      "water": 2990,
      "Ġsearch": 2991,
      "Ġgreater": 2992,
      "Ġprior": 2993,
      "ĠAust": 2994,
      "Ġrecommended": 2995,
      "ography": 2996,
      "ĠTra": 2997,
      "Ġdest": 2998,
      "vere": 2999,
      "ster": 3000,
      "Ġstat": 3001,
      "Ġprefer": 3002,
      "Ġevidence": 3003,
      "rid": 3004,
      "Ġgoal": 3005,
      "head": 3006,
      "ls": 3007,
      "anks": 3008,
      "EN": 3009,
      "irm": 3010,
      "ĠMay": 3011,
      "cles": 3012,
      "ĠMore": 3013,
      "ĠStud": 3014,
      "ĠEarth": 3015,
      "Ġstrength": 3016,
      "28": 3017,
      "Ġuseful": 3018,
      "Ġcontinue": 3019,
      "oles": 3020,
      "Ġbox": 3021,
      "Ġanaly": 3022,
      "Ġcompletely": 3023,
      "ID": 3024,
      "Ġreach": 3025,
      "Ġmaxim": 3026,
      "ĠNot": 3027,
      "Ġkit": 3028,
      "Ġmovement": 3029,
      "ĠMy": 3030,
      "Ġweeks": 3031,
      "itation": 3032,
      "ĠMost": 3033,
      "...ĊĊ": 3034,
      "Ġsolutions": 3035,
      "Ġseries": 3036,
      "bol": 3037,
      "Ġproduced": 3038,
      "Ġcamera": 3039,
      "Ġdang": 3040,
      "ĠâĢ¦": 3041,
      "Ġreading": 3042,
      "Ġfix": 3043,
      "ĠAre": 3044,
      "Ġproperly": 3045,
      "ounter": 3046,
      "isc": 3047,
      "Ġconcent": 3048,
      "pper": 3049,
      "Can": 3050,
      "Ġrecommend": 3051,
      "ma": 3052,
      "Ġaware": 3053,
      "oming": 3054,
      "rum": 3055,
      "Ġdou": 3056,
      "emic": 3057,
      "Ġeveryone": 3058,
      "ĠDep": 3059,
      "Ġhappens": 3060,
      "Ġsus": 3061,
      "Ġstore": 3062,
      "cape": 3063,
      "inate": 3064,
      "Ġmor": 3065,
      "Ġcontains": 3066,
      "Ġmeaning": 3067,
      "Sh": 3068,
      "Ġfile": 3069,
      "icate": 3070,
      "clusion": 3071,
      "Ġgrass": 3072,
      "Ġelse": 3073,
      "Ġchallenges": 3074,
      "And": 3075,
      "Ġgoes": 3076,
      "-e": 3077,
      "orage": 3078,
      "Ġeasier": 3079,
      "Ġconstant": 3080,
      "Ġdemonst": 3081,
      "CA": 3082,
      "Is": 3083,
      "Ġkids": 3084,
      "Ġprograms": 3085,
      "ĠMe": 3086,
      "Ġdecre": 3087,
      "Ġcosts": 3088,
      "Ġobjects": 3089,
      "ault": 3090,
      "term": 3091,
      "abric": 3092,
      "Ġdeath": 3093,
      "iding": 3094,
      "epend": 3095,
      "Ġevolution": 3096,
      "airs": 3097,
      "Ġrecent": 3098,
      "Ġdepending": 3099,
      "Ġmembers": 3100,
      "Ġstri": 3101,
      "irt": 3102,
      "Ġseeds": 3103,
      "Ġspring": 3104,
      "Ġcity": 3105,
      "Ġstyle": 3106,
      "aks": 3107,
      "rast": 3108,
      "Ġlines": 3109,
      "ĠInt": 3110,
      "ĠPre": 3111,
      "Ġgovernment": 3112,
      "Ġorganic": 3113,
      "-h": 3114,
      "Ġvision": 3115,
      "-to": 3116,
      "Ġbalance": 3117,
      "OR": 3118,
      "odes": 3119,
      "ĠWhy": 3120,
      "ĠGu": 3121,
      "orith": 3122,
      "iring": 3123,
      "08": 3124,
      "He": 3125,
      "come": 3126,
      "Ġfriend": 3127,
      "Ġtiss": 3128,
      "ros": 3129,
      "Ġitems": 3130,
      "reg": 3131,
      "Ġwebsite": 3132,
      "set": 3133,
      "Ġinnov": 3134,
      "unch": 3135,
      "Ġsupply": 3136,
      "Ġoxygen": 3137,
      "Ġcompanies": 3138,
      "Ġspeak": 3139,
      "Ġreflect": 3140,
      "ĠOf": 3141,
      "vest": 3142,
      "Ġsea": 3143,
      "Ġrefer": 3144,
      "Ġinterf": 3145,
      "Ġefficiency": 3146,
      "Be": 3147,
      "Ġaim": 3148,
      "Ġtheory": 3149,
      "ades": 3150,
      "Ġprinc": 3151,
      "Ġgraph": 3152,
      "01": 3153,
      "Ġprint": 3154,
      "ĠKe": 3155,
      "Ġappropriate": 3156,
      "26": 3157,
      "Ġdiseases": 3158,
      "abetes": 3159,
      "alu": 3160,
      "ĠMany": 3161,
      "rick": 3162,
      "ĠPe": 3163,
      "Ġevents": 3164,
      "Ġabsor": 3165,
      "Ġelectrical": 3166,
      "Ġnews": 3167,
      "Ġutil": 3168,
      "hol": 3169,
      "Ġearth": 3170,
      "itude": 3171,
      "terns": 3172,
      "Ġvary": 3173,
      "Ġdeal": 3174,
      "Ġcarry": 3175,
      "Ġthreat": 3176,
      "Ġbenefit": 3177,
      "Ġserious": 3178,
      "iate": 3179,
      "Ġmount": 3180,
      "atur": 3181,
      "ung": 3182,
      "Ġ/": 3183,
      "Ġbill": 3184,
      "rops": 3185,
      "Ġliqu": 3186,
      "27": 3187,
      "rehe": 3188,
      "Ġhair": 3189,
      "Ġwear": 3190,
      "Ġsurround": 3191,
      "Ġimportance": 3192,
      "Ġattract": 3193,
      "Ġlimited": 3194,
      "Ġcapac": 3195,
      "fl": 3196,
      "raft": 3197,
      "Ġanc": 3198,
      "ĠAss": 3199,
      "arian": 3200,
      "Ġhands": 3201,
      "Ġcountries": 3202,
      "ĠResearch": 3203,
      "These": 3204,
      "Ġgets": 3205,
      "ĠMar": 3206,
      "rought": 3207,
      "Ġreasons": 3208,
      "Ġusers": 3209,
      "Ġleave": 3210,
      "Ġmedia": 3211,
      "Ġprojects": 3212,
      "uted": 3213,
      "ĠScience": 3214,
      "Ġcycle": 3215,
      "ixt": 3216,
      "uge": 3217,
      "Ġgenes": 3218,
      "Ġforest": 3219,
      "hood": 3220,
      "vant": 3221,
      "Ġcontroll": 3222,
      "Ġwatch": 3223,
      "Ġmental": 3224,
      "Ġkn": 3225,
      "Ġbaby": 3226,
      "Ġvit": 3227,
      "ĠAmerica": 3228,
      "rew": 3229,
      "Ġstates": 3230,
      "Ġlocation": 3231,
      "Ġpiece": 3232,
      "Ġther": 3233,
      "Ġsigns": 3234,
      "Ġjoint": 3235,
      "Ġnumbers": 3236,
      "AT": 3237,
      "ping": 3238,
      "more": 3239,
      "eration": 3240,
      "Ġupon": 3241,
      "nal": 3242,
      "Ġcritical": 3243,
      "ding": 3244,
      "yond": 3245,
      "Ġnucle": 3246,
      "Ġexcess": 3247,
      "Ġpatterns": 3248,
      "ĠFrom": 3249,
      "Ġmoving": 3250,
      "aur": 3251,
      "rial": 3252,
      "ula": 3253,
      "Cl": 3254,
      "Ġexpress": 3255,
      "Ġdocument": 3256,
      "35": 3257,
      "enn": 3258,
      "Ġforms": 3259,
      "Ġtalk": 3260,
      "Ġbul": 3261,
      "Ġproced": 3262,
      "ĠThen": 3263,
      "Ġinitial": 3264,
      "odies": 3265,
      "ried": 3266,
      "ĠWorld": 3267,
      "32": 3268,
      "Ġfavor": 3269,
      "AC": 3270,
      "rs": 3271,
      "iny": 3272,
      "Ġresid": 3273,
      "Ġmaintenance": 3274,
      "Ġpoly": 3275,
      "Ġplat": 3276,
      "ai": 3277,
      "istry": 3278,
      "ightly": 3279,
      "load": 3280,
      "sh": 3281,
      "Ġsand": 3282,
      "Ġfert": 3283,
      "order": 3284,
      "Ġaccur": 3285,
      "IS": 3286,
      "Ġvalues": 3287,
      "Ġbrand": 3288,
      "Ġmemory": 3289,
      "OS": 3290,
      "ele": 3291,
      "Ġbed": 3292,
      "Ġdistance": 3293,
      "vey": 3294,
      "board": 3295,
      "Ġfabric": 3296,
      "Ġdetect": 3297,
      "Ġpretty": 3298,
      "sych": 3299,
      "Ġcame": 3300,
      "Ġcenter": 3301,
      "Ġimmedi": 3302,
      "Ġproteins": 3303,
      "cking": 3304,
      "ran": 3305,
      "elt": 3306,
      "iful": 3307,
      "Ġcommonly": 3308,
      "Ġbuilt": 3309,
      "iable": 3310,
      "ĠSouth": 3311,
      "fficient": 3312,
      "illing": 3313,
      "Ġblock": 3314,
      "ociety": 3315,
      "rag": 3316,
      "ĠUse": 3317,
      "Ġarg": 3318,
      "Ġfruit": 3319,
      "volution": 3320,
      "Ġseems": 3321,
      "Ġdisplay": 3322,
      "Ġreturn": 3323,
      "Ġfine": 3324,
      "Ġsuff": 3325,
      "Ġinstruct": 3326,
      "Ġphotos": 3327,
      "Ġ-->": 3328,
      "Ġobtain": 3329,
      "ĠReg": 3330,
      "While": 3331,
      "Ġremember": 3332,
      "wor": 3333,
      "wise": 3334,
      "Ġimpl": 3335,
      "ologies": 3336,
      "Ġrare": 3337,
      "Ġmusic": 3338,
      "Ġestim": 3339,
      "Ġinvestig": 3340,
      "Ġfriends": 3341,
      "aly": 3342,
      "Ġhearing": 3343,
      "Con": 3344,
      "Ġdeveloping": 3345,
      "Ġcleaning": 3346,
      "Â°": 3347,
      "Ġhost": 3348,
      "Ġvisual": 3349,
      "Ġthr": 3350,
      "Ġdisp": 3351,
      "Ġarch": 3352,
      "Ġult": 3353,
      "Ġcross": 3354,
      "ĠDi": 3355,
      "Ġspot": 3356,
      "Ġbond": 3357,
      "ana": 3358,
      "Ġscreen": 3359,
      "At": 3360,
      "back": 3361,
      "Ġaqu": 3362,
      "irth": 3363,
      "empt": 3364,
      "zz": 3365,
      "Ġeth": 3366,
      "ails": 3367,
      "Ġallowing": 3368,
      "Ġdirection": 3369,
      "Ġideas": 3370,
      "Ġleaf": 3371,
      "olar": 3372,
      "dd": 3373,
      "Ġled": 3374,
      "ulated": 3375,
      "ĠAustral": 3376,
      "Ġyellow": 3377,
      "Ġoriginal": 3378,
      "Ġtub": 3379,
      "Ġgives": 3380,
      "ĠPer": 3381,
      "Ġsave": 3382,
      "Ġcharge": 3383,
      "Ġscientific": 3384,
      "Ġbottom": 3385,
      "hold": 3386,
      "imens": 3387,
      "Ġgene": 3388,
      "Ġfunctions": 3389,
      "Ġcloth": 3390,
      "Ġbecomes": 3391,
      "Ġpoor": 3392,
      "Ġready": 3393,
      "Ġpublished": 3394,
      "ĠAb": 3395,
      "Ġboard": 3396,
      "Ġenhance": 3397,
      "Ġalgorith": 3398,
      "raw": 3399,
      "ached": 3400,
      "ĠGo": 3401,
      "Ġshap": 3402,
      "Ġsalt": 3403,
      "Ġreplace": 3404,
      "Ġtouch": 3405,
      "Ġpump": 3406,
      "ycl": 3407,
      "Ġseed": 3408,
      "ender": 3409,
      "mosp": 3410,
      "Ġteeth": 3411,
      "overy": 3412,
      "Ġtank": 3413,
      "Ġthick": 3414,
      "ĠIntern": 3415,
      "Ġprotection": 3416,
      "AN": 3417,
      "itute": 3418,
      "Ġpractices": 3419,
      "eb": 3420,
      "Ġjo": 3421,
      "Ġmanufacture": 3422,
      "Ġrequirements": 3423,
      "05": 3424,
      "Ġstorage": 3425,
      "Ġnothing": 3426,
      "Ġclaim": 3427,
      "oon": 3428,
      "Ġagricult": 3429,
      "Ġcausing": 3430,
      "Ġhope": 3431,
      "Ġcommunication": 3432,
      "Ġpromot": 3433,
      "Ġchicken": 3434,
      "ony": 3435,
      "Ġmiss": 3436,
      "Ġlack": 3437,
      "ĠAc": 3438,
      "Ġschools": 3439,
      "Ġexactly": 3440,
      "pre": 3441,
      "Ġcooking": 3442,
      "Ġbutter": 3443,
      "Ġver": 3444,
      "inks": 3445,
      "Ġsoon": 3446,
      "Ġlimit": 3447,
      "Ġmoisture": 3448,
      "Ġflowers": 3449,
      "Ġpull": 3450,
      "apter": 3451,
      "Ġfaster": 3452,
      "Ġnative": 3453,
      "Ġingredients": 3454,
      "By": 3455,
      "abol": 3456,
      "oxide": 3457,
      "Ġoccurs": 3458,
      "Ġresponsible": 3459,
      "mber": 3460,
      "Ġ#": 3461,
      "\",": 3462,
      "Ġrich": 3463,
      "Ġcutting": 3464,
      "Ġwet": 3465,
      "Ġtesting": 3466,
      "Ġpage": 3467,
      "Ġexcell": 3468,
      "Ġsuitable": 3469,
      "ĠOur": 3470,
      "Ġinvolves": 3471,
      "Ġdynam": 3472,
      "ĠLet": 3473,
      "--------": 3474,
      "inking": 3475,
      "Ġtask": 3476,
      "ensity": 3477,
      "Ġensuring": 3478,
      "Ġfrequency": 3479,
      "Ġwriting": 3480,
      "Ġapplied": 3481,
      "Ġsection": 3482,
      "Ġelement": 3483,
      "duc": 3484,
      "Ġdrive": 3485,
      "Ġsignificantly": 3486,
      "pite": 3487,
      "Ġgar": 3488,
      "ellig": 3489,
      "Ġtrack": 3490,
      "Ġnutrients": 3491,
      "rehens": 3492,
      "Ġpregn": 3493,
      "Ġcommer": 3494,
      "Ġpriv": 3495,
      "02": 3496,
      "lands": 3497,
      "Ġaren": 3498,
      "ĠAlso": 3499,
      "Ġthinking": 3500,
      "Ġdead": 3501,
      "Ġreducing": 3502,
      "Ġcommunities": 3503,
      "Ġideal": 3504,
      "Ġstarting": 3505,
      "Ġbroad": 3506,
      "ĠAdditionally": 3507,
      "cohol": 3508,
      "Ġantib": 3509,
      "Ġbrown": 3510,
      "Ġnutrition": 3511,
      "Ġmotor": 3512,
      "inally": 3513,
      "right": 3514,
      "Ġpick": 3515,
      "Ġrapid": 3516,
      "Ġexperiment": 3517,
      "umin": 3518,
      "Ġvia": 3519,
      "With": 3520,
      "hest": 3521,
      "Ġadding": 3522,
      "Ġwalk": 3523,
      "Ġpen": 3524,
      "Ġshar": 3525,
      "Ġdegrees": 3526,
      "Ġtasks": 3527,
      "ifically": 3528,
      "They": 3529,
      "rol": 3530,
      "Ġcircuit": 3531,
      "bor": 3532,
      "Ġthus": 3533,
      "Ġsecurity": 3534,
      "Ġfactor": 3535,
      "-term": 3536,
      "Ġadop": 3537,
      "ball": 3538,
      "oe": 3539,
      "isions": 3540,
      "Ġscale": 3541,
      "Ġroll": 3542,
      "Ġtransform": 3543,
      "ĠNe": 3544,
      "ibly": 3545,
      "Ġplatform": 3546,
      "rim": 3547,
      "Ġcontext": 3548,
      "Ġpresence": 3549,
      "Ġsuccessful": 3550,
      "Ġhandle": 3551,
      "Ġtook": 3552,
      "Ġsituation": 3553,
      "Ġalternative": 3554,
      "osystem": 3555,
      "Ġlate": 3556,
      "Ġcommit": 3557,
      "Ġbehavi": 3558,
      "07": 3559,
      "29": 3560,
      "ĠTheir": 3561,
      "Ġeffectively": 3562,
      "ams": 3563,
      "Ġapply": 3564,
      "Ġtherefore": 3565,
      "mission": 3566,
      "âĢ¢": 3567,
      "Ġthird": 3568,
      "Ġdecision": 3569,
      "On": 3570,
      "Ġimag": 3571,
      "Ġbreast": 3572,
      "Ġolder": 3573,
      ".g": 3574,
      "ffect": 3575,
      "Ġprice": 3576,
      "Ġdepend": 3577,
      "Ġrespond": 3578,
      "Ġmoment": 3579,
      "Ġaccept": 3580,
      "Ġprogress": 3581,
      "Ġcurrently": 3582,
      "Step": 3583,
      "Ġhorse": 3584,
      "Ġsustainable": 3585,
      "09": 3586,
      "Ġinform": 3587,
      "ĠWest": 3588,
      "Ġevalu": 3589,
      "Ġtechnique": 3590,
      "Ġexpensive": 3591,
      "Ġvolume": 3592,
      "Ġocean": 3593,
      "amed": 3594,
      "Ġcamp": 3595,
      "Ġsent": 3596,
      "Ġtox": 3597,
      "Ġsymbol": 3598,
      "Ġcommercial": 3599,
      "Ġbeautiful": 3600,
      "ĠAct": 3601,
      "Ġweb": 3602,
      "Ġvalu": 3603,
      "Ġwat": 3604,
      "pping": 3605,
      "Ġincorpor": 3606,
      "Ġparticles": 3607,
      "Ġcollabor": 3608,
      "Ġheavy": 3609,
      "Ġpow": 3610,
      "Ġinfect": 3611,
      "Ġliter": 3612,
      "Ġiron": 3613,
      "Ġsnow": 3614,
      "itis": 3615,
      "Ġdoctor": 3616,
      "ĠNow": 3617,
      "\".": 3618,
      "Do": 3619,
      "iction": 3620,
      "Ġconstruction": 3621,
      "Ġframe": 3622,
      "ieved": 3623,
      "06": 3624,
      "inting": 3625,
      "Ġreaction": 3626,
      "04": 3627,
      "ober": 3628,
      "Ġmut": 3629,
      "Ġworth": 3630,
      "standing": 3631,
      "Ġmuscle": 3632,
      "RE": 3633,
      "Ġsevere": 3634,
      "Ġdiabetes": 3635,
      "Ġcalc": 3636,
      "Ġvirus": 3637,
      "Ġfinal": 3638,
      "Ġchance": 3639,
      "ously": 3640,
      "Ġoutd": 3641,
      "Ġupd": 3642,
      "Ġproperty": 3643,
      "fish": 3644,
      "met": 3645,
      "Ġinsp": 3646,
      "ancing": 3647,
      "Ġpowerful": 3648,
      "Im": 3649,
      "estic": 3650,
      "acing": 3651,
      "iar": 3652,
      "omb": 3653,
      "Ġinfection": 3654,
      "Ġgames": 3655,
      "hel": 3656,
      "Ġstage": 3657,
      "ĠWater": 3658,
      "Ġatmosp": 3659,
      "Ġtransfer": 3660,
      "Ġbreed": 3661,
      "oration": 3662,
      "ĠWho": 3663,
      "Ġfully": 3664,
      "ĠBrit": 3665,
      "Ġroot": 3666,
      "Ġflavor": 3667,
      "Ġlooks": 3668,
      "Ġexpert": 3669,
      "Ġexamples": 3670,
      "hetic": 3671,
      "Ġstructures": 3672,
      "Ġtrou": 3673,
      "Ġconvers": 3674,
      "Ġroof": 3675,
      "Ġopportunity": 3676,
      "Ġconnected": 3677,
      "ĠQ": 3678,
      "enge": 3679,
      "ĠGl": 3680,
      "Ġresistance": 3681,
      "ĠOnce": 3682,
      "Ġdifferences": 3683,
      "Pl": 3684,
      "lier": 3685,
      "Ġreceive": 3686,
      "33": 3687,
      "ĠOver": 3688,
      "Ġinteresting": 3689,
      "Ġpieces": 3690,
      "Ġwrong": 3691,
      "uries": 3692,
      "Ġapprox": 3693,
      "cular": 3694,
      "ero": 3695,
      "Ġadvanced": 3696,
      "Ġhistor": 3697,
      "Ġplaces": 3698,
      "ened": 3699,
      "ership": 3700,
      "Ġprocessing": 3701,
      "Ġassist": 3702,
      "Ġstrategies": 3703,
      "Ġanyone": 3704,
      "Ġinfl": 3705,
      "Ġcapacity": 3706,
      "ancial": 3707,
      "ĠChe": 3708,
      "Ġreprodu": 3709,
      "Re": 3710,
      "ĠEach": 3711,
      "ĠCenter": 3712,
      "Ġattempt": 3713,
      "ĠEnglish": 3714,
      "ĠRem": 3715,
      "ificial": 3716,
      "Ġincluded": 3717,
      "Ġmedium": 3718,
      "care": 3719,
      "Ġlat": 3720,
      "Ġconsumption": 3721,
      "Ġplaced": 3722,
      "Ġrecycl": 3723,
      "Ġversion": 3724,
      "Ġjourney": 3725,
      "ĠTechn": 3726,
      "âĪĴ": 3727,
      "Ġexposure": 3728,
      "ĠSim": 3729,
      "Ġtests": 3730,
      "Ġcolle": 3731,
      "Ġliquid": 3732,
      "Ġcontract": 3733,
      "ĠState": 3734,
      "Ġmis": 3735,
      "Ġcoming": 3736,
      "Ġkeeping": 3737,
      "Ġinches": 3738,
      "mat": 3739,
      "Ġmother": 3740,
      "Ġmale": 3741,
      "char": 3742,
      "ĠSm": 3743,
      "Ġemissions": 3744,
      "ashion": 3745,
      "cules": 3746,
      "Ġsmooth": 3747,
      "Ġtherm": 3748,
      "othes": 3749,
      "Ġtherapy": 3750,
      "Ġstream": 3751,
      "Ġrecently": 3752,
      "Ġstraight": 3753,
      "Ġtaste": 3754,
      "Ġdat": 3755,
      "Ġpref": 3756,
      "Ġarm": 3757,
      "Ġder": 3758,
      "Ġsolid": 3759,
      "Ġcombination": 3760,
      "omy": 3761,
      "ĠGe": 3762,
      "Ġbecame": 3763,
      "Ġcateg": 3764,
      "Ġmouth": 3765,
      "ester": 3766,
      "izations": 3767,
      "Ġlocated": 3768,
      "Ġflight": 3769,
      "Ġphone": 3770,
      "Ġcontribute": 3771,
      "Ġhuge": 3772,
      "oman": 3773,
      "semb": 3774,
      "Ġbeyond": 3775,
      "hyd": 3776,
      "ĠChrist": 3777,
      "Ġmiddle": 3778,
      "arr": 3779,
      "Ġreve": 3780,
      "ĠLear": 3781,
      "Ġdepth": 3782,
      "ĠSw": 3783,
      "Ġconver": 3784,
      "obile": 3785,
      "31": 3786,
      "Ġfair": 3787,
      "anging": 3788,
      "Ġforward": 3789,
      "gram": 3790,
      "uild": 3791,
      "Ġflex": 3792,
      "Ġreduced": 3793,
      "Ġpopulations": 3794,
      "Ġthous": 3795,
      "rows": 3796,
      "Ġinsects": 3797,
      "75": 3798,
      "Ġwin": 3799,
      "Ġresulting": 3800,
      "Some": 3801,
      "ok": 3802,
      "ĠOther": 3803,
      "Ġregions": 3804,
      "Ġculture": 3805,
      "Ġcentury": 3806,
      "ocolate": 3807,
      "ĠMin": 3808,
      "ogen": 3809,
      "ĠArt": 3810,
      "Ġfluid": 3811,
      "-up": 3812,
      "36": 3813,
      "Ġdemand": 3814,
      "Ġvegetables": 3815,
      "Ġtail": 3816,
      "ĠBecause": 3817,
      "Ġmulti": 3818,
      "Ġnav": 3819,
      "off": 3820,
      "Ġbirth": 3821,
      "ĠHigh": 3822,
      "ĠRec": 3823,
      "Ġblog": 3824,
      "Ġexisting": 3825,
      "haps": 3826,
      "Ġrates": 3827,
      "Ġconservation": 3828,
      "Ġadults": 3829,
      "craft": 3830,
      "hether": 3831,
      "Ġbooks": 3832,
      "erson": 3833,
      "Ġparam": 3834,
      "abilities": 3835,
      "IG": 3836,
      "Ġund": 3837,
      "Ġsynt": 3838,
      "Ġecosystem": 3839,
      "orial": 3840,
      "Ġkill": 3841,
      "Ġchanging": 3842,
      "rain": 3843,
      "Ġnotice": 3844,
      "redit": 3845,
      "Ġexperiences": 3846,
      "bing": 3847,
      "Ġpattern": 3848,
      "Ġinstance": 3849,
      "Ġpsych": 3850,
      "Ġmeasures": 3851,
      "Now": 3852,
      "ĠIts": 3853,
      "ternal": 3854,
      "Ġplanning": 3855,
      "rier": 3856,
      "Ġcomprehens": 3857,
      "Ġextremely": 3858,
      "03": 3859,
      "Ġgiving": 3860,
      "Ġalcohol": 3861,
      "Ġvacc": 3862,
      "Ġexcellent": 3863,
      "rates": 3864,
      "Ġmid": 3865,
      "urt": 3866,
      "ĠRed": 3867,
      "Ġprofession": 3868,
      "Ġadvantage": 3869,
      "Ġdate": 3870,
      "uration": 3871,
      "elines": 3872,
      "Ġalthough": 3873,
      "Ġnote": 3874,
      "ĠFirst": 3875,
      "Ġagg": 3876,
      "Ġrules": 3877,
      "Ġflo": 3878,
      "Ġcoast": 3879,
      "ĠJoh": 3880,
      "Ġgradu": 3881,
      "Ġcharacteristics": 3882,
      "Ġdetails": 3883,
      "Ġwildlife": 3884,
      "cription": 3885,
      "tage": 3886,
      "Ġlibr": 3887,
      "ixture": 3888,
      "ĠRep": 3889,
      "ipes": 3890,
      "ĠJust": 3891,
      "ctors": 3892,
      "inating": 3893,
      "ĠAut": 3894,
      "ups": 3895,
      "ĠÎ": 3896,
      "Ġswitch": 3897,
      "zy": 3898,
      "Ġmiles": 3899,
      "Ġinfluence": 3900,
      "ET": 3901,
      "roll": 3902,
      "enty": 3903,
      "Ġclin": 3904,
      "Ġexpected": 3905,
      "Ġpicture": 3906,
      "Res": 3907,
      "Sc": 3908,
      "Ġrat": 3909,
      "resp": 3910,
      "aught": 3911,
      "Ġsex": 3912,
      "ĠNOT": 3913,
      "ĠGod": 3914,
      "Ġflat": 3915,
      "Ġcomfortable": 3916,
      "pen": 3917,
      "Ġsaw": 3918,
      "Ġwrite": 3919,
      "itect": 3920,
      "orders": 3921,
      "Ġremains": 3922,
      "Ġep": 3923,
      "ided": 3924,
      "ĠEven": 3925,
      "Ġonto": 3926,
      "Ġalone": 3927,
      "Ġhear": 3928,
      "Ġcompar": 3929,
      "Ġallowed": 3930,
      "Ġmetabol": 3931,
      "ister": 3932,
      "erences": 3933,
      "ĠAccording": 3934,
      "ĠDis": 3935,
      "Ġeffort": 3936,
      "Ġshel": 3937,
      "Ġtechnologies": 3938,
      "Ġgeneration": 3939,
      "Ġaffected": 3940,
      ".com": 3941,
      "Ġbow": 3942,
      "Ġhit": 3943,
      "Ġju": 3944,
      "Ġ|": 3945,
      "Ġrelatively": 3946,
      "dom": 3947,
      "Ġefforts": 3948,
      "Ġmotion": 3949,
      "Un": 3950,
      "icking": 3951,
      "Ġintellig": 3952,
      "Ġfed": 3953,
      "Ġdiv": 3954,
      "iling": 3955,
      "Ġrepe": 3956,
      "Ġbackground": 3957,
      "Ġrisks": 3958,
      "Ġcentral": 3959,
      "Ġslightly": 3960,
      "ban": 3961,
      "Ġlost": 3962,
      "iforn": 3963,
      "Ġsports": 3964,
      "Ġrock": 3965,
      "Ġillust": 3966,
      "Ġfemale": 3967,
      "ype": 3968,
      "inger": 3969,
      "Ġmatch": 3970,
      "Ġstuff": 3971,
      "place": 3972,
      "Ġaspects": 3973,
      "Ġvent": 3974,
      "Ġclos": 3975,
      "Ġroots": 3976,
      "Ġelectricity": 3977,
      "Ġfigure": 3978,
      "Ġcompounds": 3979,
      "Ġqual": 3980,
      "Ġhighlight": 3981,
      "That": 3982,
      "Ġseparate": 3983,
      "book": 3984,
      "eing": 3985,
      "ta": 3986,
      "Ġbound": 3987,
      "ocal": 3988,
      "inding": 3989,
      "iverse": 3990,
      "ST": 3991,
      "Ġdriving": 3992,
      "crete": 3993,
      "Ġfamilies": 3994,
      "ĠSpe": 3995,
      "ĠSystem": 3996,
      "pped": 3997,
      "Ġelim": 3998,
      "Ġfinancial": 3999,
      "ĠMod": 4000,
      "Ġdescribed": 4001,
      "Ġstim": 4002,
      "Ġspir": 4003,
      "Ġlargest": 4004,
      "Ġmaximum": 4005,
      "oom": 4006,
      "Ġbodies": 4007,
      "omic": 4008,
      "iment": 4009,
      "ĠAir": 4010,
      "ĠBi": 4011,
      "ĠEduc": 4012,
      "Ġcele": 4013,
      "ĠDay": 4014,
      "Ġcollection": 4015,
      "Ġtax": 4016,
      "Ġwire": 4017,
      "ĠPart": 4018,
      "Ġchemicals": 4019,
      "AL": 4020,
      "wers": 4021,
      "ada": 4022,
      "Ġsites": 4023,
      "Ġreported": 4024,
      "Ġvaluable": 4025,
      "aser": 4026,
      "Ġgold": 4027,
      "ĠSec": 4028,
      "Ġdepends": 4029,
      "Ġwritten": 4030,
      "Ġwonder": 4031,
      "ifornia": 4032,
      "ying": 4033,
      "Ġcry": 4034,
      "Ġbud": 4035,
      "Ġopportunities": 4036,
      "bits": 4037,
      "zing": 4038,
      "ĠMake": 4039,
      "Ġcars": 4040,
      "ĠAlthough": 4041,
      "However": 4042,
      "Ġnational": 4043,
      "Ġmanage": 4044,
      "ech": 4045,
      "Ġcit": 4046,
      "Ġevol": 4047,
      "Ġdiam": 4048,
      "Ġcomponent": 4049,
      "Ġlose": 4050,
      "Ġheight": 4051,
      "ĠUK": 4052,
      "Ġnoise": 4053,
      "equ": 4054,
      "na": 4055,
      "inated": 4056,
      "Ġsort": 4057,
      "Ġsold": 4058,
      "Ġspect": 4059,
      "Ġindepend": 4060,
      "Ġdiscovered": 4061,
      "Ġswim": 4062,
      "raction": 4063,
      "unction": 4064,
      "Ġmode": 4065,
      "Ġbright": 4066,
      "Ġteachers": 4067,
      "-y": 4068,
      "Ġast": 4069,
      "Ġhomes": 4070,
      "Ġdeb": 4071,
      "Ġdoor": 4072,
      "Ġrelease": 4073,
      "aled": 4074,
      "amb": 4075,
      "Ġround": 4076,
      "Ġactual": 4077,
      "Ġtrend": 4078,
      "Ġvirt": 4079,
      "ĠUsing": 4080,
      "Ġwent": 4081,
      "Ġfeeling": 4082,
      "Ġimmune": 4083,
      "Ġinternal": 4084,
      "Ġaccurate": 4085,
      "used": 4086,
      "Ġbegan": 4087,
      "Ġsettings": 4088,
      "ogle": 4089,
      "Ġapprec": 4090,
      "Us": 4091,
      "roup": 4092,
      "Ġmolecules": 4093,
      "onic": 4094,
      "Ġrise": 4095,
      "asting": 4096,
      "gery": 4097,
      "Ġtissue": 4098,
      "Ġvo": 4099,
      "ĠEm": 4100,
      "Ġincreases": 4101,
      "Ġdrain": 4102,
      "can": 4103,
      "undred": 4104,
      "-like": 4105,
      "Ġrobot": 4106,
      "Ġlandscape": 4107,
      "Ġpupp": 4108,
      "apan": 4109,
      "Ġdivers": 4110,
      "Ġattack": 4111,
      "Ġhabitat": 4112,
      "Ġfertil": 4113,
      "hop": 4114,
      "Ġax": 4115,
      "Ġvital": 4116,
      "ĠGerm": 4117,
      "RI": 4118,
      "know": 4119,
      "pan": 4120,
      "Ġtiny": 4121,
      "Ġsav": 4122,
      "encies": 4123,
      "Ġdiverse": 4124,
      "Ġcatch": 4125,
      "Ġrepair": 4126,
      "Ġfeeding": 4127,
      "Ġchallenge": 4128,
      "Ġsweet": 4129,
      "ius": 4130,
      "Ġmig": 4131,
      "Ġlov": 4132,
      "Ġpaint": 4133,
      "ressive": 4134,
      "Ġvoltage": 4135,
      "Ġinternational": 4136,
      "ications": 4137,
      "Ġconnection": 4138,
      "related": 4139,
      "Ġspl": 4140,
      "ille": 4141,
      "Ġfilter": 4142,
      "Ġstaff": 4143,
      "Ġsurpr": 4144,
      "Ġexpand": 4145,
      "ÂŃ": 4146,
      "Ġfly": 4147,
      "ĠTH": 4148,
      "add": 4149,
      "Ġspecifically": 4150,
      "Ġserve": 4151,
      "Ġdrug": 4152,
      "Ġshell": 4153,
      "AM": 4154,
      "tes": 4155,
      "Ġcomplic": 4156,
      "Ġclim": 4157,
      "Ġsecure": 4158,
      "Ġsounds": 4159,
      "alle": 4160,
      "Ġoperating": 4161,
      "Ġpromote": 4162,
      "ĠTw": 4163,
      "Ġstru": 4164,
      "ĠSince": 4165,
      "Ġtrig": 4166,
      "Ġsmart": 4167,
      "Ġmarine": 4168,
      "icks": 4169,
      "ĠFl": 4170,
      "Ġtrust": 4171,
      "cell": 4172,
      "ĠServ": 4173,
      "Here": 4174,
      "Ġpush": 4175,
      "Ġhyp": 4176,
      "celer": 4177,
      "umn": 4178,
      "Ġmember": 4179,
      "time": 4180,
      "Ġshoot": 4181,
      "rench": 4182,
      "Ġidentified": 4183,
      "Ġdangerous": 4184,
      "iant": 4185,
      "eters": 4186,
      "riend": 4187,
      "Ġdistinct": 4188,
      "Ġencourage": 4189,
      "Ġobserved": 4190,
      "cil": 4191,
      "Ġcounter": 4192,
      "ĠFood": 4193,
      "Ġmaybe": 4194,
      "Ġadvice": 4195,
      "Ġlearned": 4196,
      "Ġ:": 4197,
      "Ġelectro": 4198,
      "34": 4199,
      "house": 4200,
      "Ġconsult": 4201,
      "ĠDon": 4202,
      "Ġfinding": 4203,
      "Ġlabor": 4204,
      "Ġsteel": 4205,
      "sp": 4206,
      "Ġexhib": 4207,
      "Ġregularly": 4208,
      "Ġsample": 4209,
      "Ġestablish": 4210,
      "Ġregarding": 4211,
      "ĠDepartment": 4212,
      "Ġnavig": 4213,
      ".e": 4214,
      "ĠBet": 4215,
      "ĠProf": 4216,
      "Ġlayers": 4217,
      "Ġbeginning": 4218,
      "Ġasked": 4219,
      "Ġbath": 4220,
      "Ġdrop": 4221,
      "urance": 4222,
      "Ġspend": 4223,
      "Ġnearly": 4224,
      "Ġdegree": 4225,
      "ped": 4226,
      "xi": 4227,
      "Ġneut": 4228,
      "Ġenter": 4229,
      "Ġrub": 4230,
      "che": 4231,
      "Ġsty": 4232,
      "ĠGra": 4233,
      "Ġgoals": 4234,
      "ĠEnergy": 4235,
      "Ġcustomers": 4236,
      "Ġpets": 4237,
      "ĠDog": 4238,
      "Ġteaching": 4239,
      "Ġhelping": 4240,
      "Ġbasis": 4241,
      "Ġfrequently": 4242,
      "ĠCalifornia": 4243,
      "Ph": 4244,
      "ken": 4245,
      "Ġded": 4246,
      "Ġplans": 4247,
      "Ġorganization": 4248,
      "Ġhappy": 4249,
      "Ġinterested": 4250,
      "Ġpolit": 4251,
      "55": 4252,
      "Ġsess": 4253,
      "Ġdin": 4254,
      "Ġstar": 4255,
      "Ġvehicles": 4256,
      "Ġfloor": 4257,
      "All": 4258,
      "Ġwindow": 4259,
      "ky": 4260,
      "kin": 4261,
      "uary": 4262,
      "Ġple": 4263,
      "eties": 4264,
      "rupt": 4265,
      "ĠâĢ¢": 4266,
      "Ġphase": 4267,
      "Ġstandards": 4268,
      "Ġimmediately": 4269,
      "99": 4270,
      "Ã©": 4271,
      "que": 4272,
      "...Ċ": 4273,
      "Ġworked": 4274,
      "Ġwanted": 4275,
      "ashing": 4276,
      "ifying": 4277,
      "Ġlegal": 4278,
      "Ġmel": 4279,
      "olute": 4280,
      "Ġoccas": 4281,
      "ĠTrans": 4282,
      "tion": 4283,
      "atically": 4284,
      "Ġble": 4285,
      "ĠIndia": 4286,
      "ny": 4287,
      "Ġscen": 4288,
      "Ġtrain": 4289,
      "nderstanding": 4290,
      "Ġcoord": 4291,
      "ĠĠĠĠ": 4292,
      "key": 4293,
      "Ġpollution": 4294,
      "Ġsequence": 4295,
      "ublic": 4296,
      "Ġoperation": 4297,
      "azing": 4298,
      "Ġneigh": 4299,
      "Ġplayers": 4300,
      "Ġmaintaining": 4301,
      "Ġwalls": 4302,
      "ĠCount": 4303,
      "Ġbran": 4304,
      "Ġ...": 4305,
      "Ġmold": 4306,
      "Ġselection": 4307,
      "ĠBar": 4308,
      "Ġbecoming": 4309,
      "Ġdiag": 4310,
      "pective": 4311,
      "Ġdefined": 4312,
      "Ġsuggests": 4313,
      "ĠAfrica": 4314,
      "Ġinstructions": 4315,
      "Ġheard": 4316,
      "PA": 4317,
      "ux": 4318,
      "Ġsell": 4319,
      "Ġfashion": 4320,
      "ching": 4321,
      "inder": 4322,
      "oughly": 4323,
      "ipped": 4324,
      "Ġresource": 4325,
      "Ġpal": 4326,
      "Ġdie": 4327,
      "Ġexec": 4328,
      "Ġhighest": 4329,
      "vity": 4330,
      "erals": 4331,
      "uting": 4332,
      "ĠPC": 4333,
      "Ġsche": 4334,
      "-free": 4335,
      "Ġappearance": 4336,
      "Ġinjury": 4337,
      "Ġcovered": 4338,
      "Ġov": 4339,
      "Ġmist": 4340,
      "roke": 4341,
      "ource": 4342,
      "chen": 4343,
      "ek": 4344,
      "Ġpric": 4345,
      "Ġhundred": 4346,
      "Ġtransl": 4347,
      "Ġplanet": 4348,
      "Ġfol": 4349,
      "Ġmixture": 4350,
      "Ġthor": 4351,
      "ilit": 4352,
      "Ġpractical": 4353,
      "Ġcustomer": 4354,
      "bed": 4355,
      "Ġformed": 4356,
      "ĠEuropean": 4357,
      "iet": 4358,
      "uce": 4359,
      "Ġband": 4360,
      "Ġmag": 4361,
      "Ġfields": 4362,
      "Ġdistribution": 4363,
      "42": 4364,
      "Ġcore": 4365,
      "Ġstick": 4366,
      "antic": 4367,
      "Ġrid": 4368,
      "Ġhealthcare": 4369,
      "Ġdiscover": 4370,
      "Ġtypical": 4371,
      "ĠEnvironment": 4372,
      "?\"": 4373,
      "Ġwave": 4374,
      "Ġpair": 4375,
      "icated": 4376,
      "ament": 4377,
      "Ġsimpl": 4378,
      "Ġearlier": 4379,
      "ĠInstitute": 4380,
      "Ġestablished": 4381,
      "Ġdouble": 4382,
      "Ġfoss": 4383,
      "Ġconc": 4384,
      "ĠTherefore": 4385,
      "Ġreceived": 4386,
      "AD": 4387,
      "rors": 4388,
      "Ġnit": 4389,
      "Ġchocolate": 4390,
      "igned": 4391,
      "ishing": 4392,
      "Ġdrawing": 4393,
      "Ġeconomic": 4394,
      "oul": 4395,
      "Ġgear": 4396,
      "oday": 4397,
      "Ġveter": 4398,
      "Ġkid": 4399,
      "Ġchanged": 4400,
      "-S": 4401,
      "44": 4402,
      "Ġfight": 4403,
      "uth": 4404,
      "ĠJan": 4405,
      "Ġlighting": 4406,
      "Ġowners": 4407,
      "ĠPark": 4408,
      "Ġfavorite": 4409,
      "ums": 4410,
      "ares": 4411,
      "Ġphen": 4412,
      "istant": 4413,
      "rix": 4414,
      "ĠPhot": 4415,
      "respond": 4416,
      "-qu": 4417,
      "za": 4418,
      "Ġcert": 4419,
      "Ġcrops": 4420,
      "Ġtold": 4421,
      "ĠMon": 4422,
      "Ġgenerate": 4423,
      "Ġcomprehensive": 4424,
      "Ġsatis": 4425,
      "icip": 4426,
      "ĠJu": 4427,
      "Ġindicate": 4428,
      "Ar": 4429,
      "EM": 4430,
      "isher": 4431,
      "Ġhous": 4432,
      "Ġlots": 4433,
      "Ġraw": 4434,
      "Ġconstruct": 4435,
      "aturally": 4436,
      "Ġplease": 4437,
      "Ġhour": 4438,
      "ĠAC": 4439,
      "ĠMich": 4440,
      "Ġapproxim": 4441,
      "Ġpotentially": 4442,
      "Ġwidely": 4443,
      "48": 4444,
      "Our": 4445,
      "ĠWar": 4446,
      "Ġstarts": 4447,
      "IT": 4448,
      "wide": 4449,
      "Ġfill": 4450,
      "lean": 4451,
      "ĠCom": 4452,
      "ĠGreen": 4453,
      "iol": 4454,
      "Ġnice": 4455,
      "ĠEvery": 4456,
      "Ġregul": 4457,
      "vironments": 4458,
      "Ġclothing": 4459,
      "65": 4460,
      "wing": 4461,
      "Ġstom": 4462,
      "uls": 4463,
      "Ġweak": 4464,
      "ĠDuring": 4465,
      "ĠRNA": 4466,
      "vention": 4467,
      "Ġequal": 4468,
      "icious": 4469,
      "idity": 4470,
      "Ġplate": 4471,
      "âĢĻt": 4472,
      "Ġfiles": 4473,
      "Ġiniti": 4474,
      "Ġ)": 4475,
      "Ġmamm": 4476,
      "ĠAnt": 4477,
      "ĠRead": 4478,
      "ospital": 4479,
      "Ġhydrogen": 4480,
      "Ġnumerous": 4481,
      "Ġreference": 4482,
      "Ġconcerns": 4483,
      "ĠPar": 4484,
      "Ġunits": 4485,
      "Ġexpression": 4486,
      "alse": 4487,
      "asts": 4488,
      "Ġexposed": 4489,
      "ĠAustralia": 4490,
      "38": 4491,
      "After": 4492,
      "ager": 4493,
      "Ġarchitect": 4494,
      "ste": 4495,
      "ĠFr": 4496,
      "Ġfindings": 4497,
      "Ġmuscles": 4498,
      "xiety": 4499,
      "Ġtooth": 4500,
      "Ġconsequ": 4501,
      "Ġelectron": 4502,
      "Ġangle": 4503,
      "minist": 4504,
      "flow": 4505,
      "Ġshot": 4506,
      "itely": 4507,
      "Ġclasses": 4508,
      "Ġtopic": 4509,
      "Ġdetailed": 4510,
      "which": 4511,
      "ĠEd": 4512,
      "Ġdrink": 4513,
      "Ġexperienced": 4514,
      "Ġatmosphere": 4515,
      "Des": 4516,
      "cap": 4517,
      "iced": 4518,
      "Ġrenew": 4519,
      "ĠSte": 4520,
      "Ġoperations": 4521,
      "-le": 4522,
      "Ġofficial": 4523,
      "Ġimproved": 4524,
      "Ġeventually": 4525,
      "Ġsquare": 4526,
      "Ġign": 4527,
      "Ġtour": 4528,
      "Ġartificial": 4529,
      "Ġoptimal": 4530,
      "No": 4531,
      "iers": 4532,
      "itor": 4533,
      "Ġheld": 4534,
      "tered": 4535,
      "Ġindustrial": 4536,
      "Ġprofessionals": 4537,
      "mm": 4538,
      "ĠAug": 4539,
      "Ġenvironments": 4540,
      "works": 4541,
      ".)": 4542,
      "ees": 4543,
      "zen": 4544,
      "Ġnamed": 4545,
      "ida": 4546,
      "Ġchain": 4547,
      "ĠRiver": 4548,
      "ĠOct": 4549,
      "Ġhelpful": 4550,
      "-r": 4551,
      "II": 4552,
      "Ġ*": 4553,
      "Ġconcrete": 4554,
      "Ġassemb": 4555,
      "Ġplayer": 4556,
      "Ġamounts": 4557,
      "ĠPeople": 4558,
      "My": 4559,
      "imal": 4560,
      "Ġexternal": 4561,
      "Ġcloud": 4562,
      "Ġplanting": 4563,
      "Ġcreative": 4564,
      "Ġprimarily": 4565,
      "Ġpredict": 4566,
      "Ġrelationships": 4567,
      "Ġemotional": 4568,
      "mar": 4569,
      "alt": 4570,
      "Ġchann": 4571,
      "ffee": 4572,
      "Ġemp": 4573,
      "Ġacceler": 4574,
      "Ġperformed": 4575,
      "pril": 4576,
      "ĠMicro": 4577,
      "orthern": 4578,
      "Ġsport": 4579,
      "EC": 4580,
      "Ġdu": 4581,
      "Ġdress": 4582,
      "Ġpool": 4583,
      "Ġintroduced": 4584,
      "Ġteacher": 4585,
      "/or": 4586,
      "gans": 4587,
      "Ġtit": 4588,
      "Ġsod": 4589,
      "ĠpH": 4590,
      "Ġbone": 4591,
      "Ġnan": 4592,
      "igen": 4593,
      "ĠWell": 4594,
      "Ġconsistent": 4595,
      "Ġremoved": 4596,
      "Ġsurvive": 4597,
      "oly": 4598,
      "iration": 4599,
      "Ġcarefully": 4600,
      "Ġapproximately": 4601,
      "Ġstories": 4602,
      "oster": 4603,
      "ĠYork": 4604,
      "Ġcorrespond": 4605,
      "Ġfishing": 4606,
      "uman": 4607,
      "ĠInter": 4608,
      "Ġplaying": 4609,
      "Ġbatteries": 4610,
      "]Ċ": 4611,
      "bl": 4612,
      "Ġstone": 4613,
      "Ġlaws": 4614,
      "Ġcouple": 4615,
      "39": 4616,
      "organ": 4617,
      "Ġyield": 4618,
      "atever": 4619,
      "ĠBo": 4620,
      "Ġcontrast": 4621,
      "Ġassum": 4622,
      "Ġdigest": 4623,
      "Ġillness": 4624,
      "Ġmonitoring": 4625,
      "Ke": 4626,
      "aid": 4627,
      "body": 4628,
      "Ġshared": 4629,
      "Ġshowed": 4630,
      "Ġadvance": 4631,
      "Ġsurfaces": 4632,
      "Ġinteractions": 4633,
      "-C": 4634,
      "Ġfilled": 4635,
      "Ġteach": 4636,
      "Ġdiss": 4637,
      "Ġdecisions": 4638,
      "Ġfollowed": 4639,
      "Ġedge": 4640,
      "AP": 4641,
      "anges": 4642,
      "RO": 4643,
      "wood": 4644,
      "ĠAv": 4645,
      "ĠHist": 4646,
      "phas": 4647,
      "-being": 4648,
      "Ġmagnetic": 4649,
      "Ġstrugg": 4650,
      "Ġafford": 4651,
      "iveness": 4652,
      "ĠEducation": 4653,
      "Ġfold": 4654,
      "oma": 4655,
      "Ġforces": 4656,
      "ĠSur": 4657,
      "Ġupper": 4658,
      "Ġmeal": 4659,
      "Ġorganisms": 4660,
      "Ġbiological": 4661,
      "Ġbat": 4662,
      "Ġpartners": 4663,
      "rot": 4664,
      "Ġreality": 4665,
      "Ġgir": 4666,
      "unte": 4667,
      "acific": 4668,
      "Ġmostly": 4669,
      "Ġtransition": 4670,
      "Ġflower": 4671,
      "41": 4672,
      "Ġdro": 4673,
      "that": 4674,
      "ĠHar": 4675,
      "orms": 4676,
      "Ġdesired": 4677,
      "ĠJapan": 4678,
      "Ġacids": 4679,
      "Ġstrategy": 4680,
      "hab": 4681,
      "Ġhorm": 4682,
      "Ġlegs": 4683,
      "Ġdescribe": 4684,
      "Ġcelebr": 4685,
      "37": 4686,
      "ira": 4687,
      "Ġtalking": 4688,
      "isp": 4689,
      "org": 4690,
      "outhern": 4691,
      "Ġengineering": 4692,
      "Ġrelax": 4693,
      "Ġeducational": 4694,
      "ipping": 4695,
      "Ġinfections": 4696,
      "rans": 4697,
      "uments": 4698,
      "osite": 4699,
      "ĠDoes": 4700,
      "Ġroutine": 4701,
      "ĠKeep": 4702,
      "ought": 4703,
      "Ġacqu": 4704,
      "Ġaffects": 4705,
      "Ġmorning": 4706,
      "known": 4707,
      "Ġbear": 4708,
      "aming": 4709,
      "Ġexperts": 4710,
      "ĠProgram": 4711,
      "Ġwait": 4712,
      "Ġsurrounding": 4713,
      "Ġthousands": 4714,
      "-year": 4715,
      "rations": 4716,
      "Ġsociety": 4717,
      "Ġshut": 4718,
      "Ġwaves": 4719,
      "Ġbrought": 4720,
      "unk": 4721,
      "ivil": 4722,
      "Ġsurgery": 4723,
      "Ġfung": 4724,
      "Ġorganizations": 4725,
      "Ġcertainly": 4726,
      "Ġreleased": 4727,
      "iples": 4728,
      "ologists": 4729,
      "Ġcomputers": 4730,
      "Ġbillion": 4731,
      "Ġtoxic": 4732,
      "Ġinflamm": 4733,
      "52": 4734,
      "part": 4735,
      "rote": 4736,
      "Ġdish": 4737,
      "Ġanti": 4738,
      "Ġstomach": 4739,
      ".[": 4740,
      "itting": 4741,
      "ĠWill": 4742,
      "ĠPres": 4743,
      "ĠHy": 4744,
      "Ġsurvey": 4745,
      "Ġreliable": 4746,
      "ĠAdd": 4747,
      "Ġcombined": 4748,
      "Ġsensor": 4749,
      "Ġturned": 4750,
      "Ġhydro": 4751,
      "-re": 4752,
      "with": 4753,
      "Ġplays": 4754,
      "Ġscan": 4755,
      "Ġinvolve": 4756,
      "Ġchallenging": 4757,
      "Ġprepared": 4758,
      "urrent": 4759,
      "Ġactions": 4760,
      "Ġharvest": 4761,
      "Ġalgorithm": 4762,
      "ini": 4763,
      "Ġpig": 4764,
      "Ġdura": 4765,
      "Ġrule": 4766,
      "Ġflood": 4767,
      "Ġobvious": 4768,
      "Another": 4769,
      "Ġprocedure": 4770,
      "rating": 4771,
      "Ġalle": 4772,
      "ads": 4773,
      "Ġuns": 4774,
      "hesis": 4775,
      "Ġdrugs": 4776,
      "Ġnaturally": 4777,
      "active": 4778,
      "Ġcheese": 4779,
      "Ġelev": 4780,
      "erate": 4781,
      "Ġapart": 4782,
      "Ġbeneficial": 4783,
      "Ġpurchase": 4784,
      "Ġmachines": 4785,
      "Ġcultural": 4786,
      "Ġmonitor": 4787,
      "iotics": 4788,
      "ica": 4789,
      "Ġlights": 4790,
      "force": 4791,
      "Ġlatest": 4792,
      "95": 4793,
      "Ġbot": 4794,
      "Ġhaz": 4795,
      "osa": 4796,
      "ĠOut": 4797,
      "Ġfarmers": 4798,
      "-se": 4799,
      "Ab": 4800,
      "what": 4801,
      "Ġ\\": 4802,
      "ulf": 4803,
      "allow": 4804,
      "ript": 4805,
      "-sh": 4806,
      "Ġphoto": 4807,
      "Ġimpacts": 4808,
      "brid": 4809,
      "mary": 4810,
      "Ġstock": 4811,
      "Ġdioxide": 4812,
      "ructure": 4813,
      "Ġharmful": 4814,
      "Ġbreath": 4815,
      "Ġestimated": 4816,
      "Ġhol": 4817,
      "ception": 4818,
      "Ġheating": 4819,
      "acking": 4820,
      "ĠMarch": 4821,
      "Ġleads": 4822,
      "ĠAny": 4823,
      "Ġfruits": 4824,
      "Ġwaters": 4825,
      "En": 4826,
      "Ġhop": 4827,
      "Ġstem": 4828,
      "ĠSu": 4829,
      "izer": 4830,
      "Ġpolicy": 4831,
      "-quality": 4832,
      "umber": 4833,
      "ĠLake": 4834,
      "Ġshowing": 4835,
      "Ġemergency": 4836,
      "Ġancient": 4837,
      "Are": 4838,
      "Ġvibr": 4839,
      "ĠGreat": 4840,
      "Ġhon": 4841,
      "ĠWhether": 4842,
      "ĠLike": 4843,
      "Ġpresented": 4844,
      "Ġprompt": 4845,
      "Ġfilm": 4846,
      "Ġmicrob": 4847,
      "Ġmessage": 4848,
      "riendly": 4849,
      "Most": 4850,
      "Ġscr": 4851,
      "Ġopin": 4852,
      "hemical": 4853,
      "Ġerror": 4854,
      "nes": 4855,
      "Ġten": 4856,
      "Ġsmell": 4857,
      "bal": 4858,
      "ishes": 4859,
      "Ġbaking": 4860,
      "eline": 4861,
      "Ġincred": 4862,
      "fortun": 4863,
      "Ġturning": 4864,
      "ĠBlack": 4865,
      "Ġoutdoor": 4866,
      "Int": 4867,
      "Ġgall": 4868,
      "Ġstored": 4869,
      "Ġconven": 4870,
      "Ġemphas": 4871,
      "ventional": 4872,
      "ĠPlant": 4873,
      "Ġmedicine": 4874,
      "Ġdatab": 4875,
      "ĠJohn": 4876,
      "Ġthread": 4877,
      "Ġnest": 4878,
      "Ġinfluen": 4879,
      "ĠBritish": 4880,
      "ynt": 4881,
      "Ġfurn": 4882,
      "Ġextract": 4883,
      "Ġformation": 4884,
      "TION": 4885,
      "IC": 4886,
      "ptember": 4887,
      "Ġdesigns": 4888,
      "Ġgrown": 4889,
      "Ġowner": 4890,
      "Ġcapable": 4891,
      "gy": 4892,
      "olf": 4893,
      "Ġvess": 4894,
      "Ġamazing": 4895,
      "Ġguidelines": 4896,
      "ios": 4897,
      "Ġmit": 4898,
      "ĠSch": 4899,
      "ĠPower": 4900,
      "Ġoffering": 4901,
      "Ġcorn": 4902,
      "Ġchoosing": 4903,
      "Ġsituations": 4904,
      "Bl": 4905,
      "Ġcand": 4906,
      "opy": 4907,
      "ĠFound": 4908,
      "ĠFurther": 4909,
      "Ġarray": 4910,
      "Ġsunlight": 4911,
      "Ġcolour": 4912,
      "Ġcommand": 4913,
      "Ġmaster": 4914,
      "opl": 4915,
      "Ġkil": 4916,
      "Ġsaying": 4917,
      "Ġtut": 4918,
      "Ġburn": 4919,
      "Ġuniverse": 4920,
      "Ġphotograph": 4921,
      "Pre": 4922,
      "chers": 4923,
      "Ġbike": 4924,
      "Ġfear": 4925,
      "Ġfasc": 4926,
      "ĠSol": 4927,
      "rowing": 4928,
      "Ġreduction": 4929,
      "Ġdeliver": 4930,
      "Ġflav": 4931,
      "Ġkept": 4932,
      "Ġsets": 4933,
      "roduction": 4934,
      "going": 4935,
      "rief": 4936,
      "weight": 4937,
      "Ġseconds": 4938,
      "****": 4939,
      "Many": 4940,
      "ĠCor": 4941,
      "Ġchrom": 4942,
      "Ġshop": 4943,
      "Ġrights": 4944,
      "Ġrepresents": 4945,
      "oors": 4946,
      "reet": 4947,
      "Ġcup": 4948,
      "ĠBra": 4949,
      "Ġscrew": 4950,
      "ologist": 4951,
      "Ġensures": 4952,
      "Ġdetermined": 4953,
      "Ġpainting": 4954,
      "Ġchoices": 4955,
      "ometimes": 4956,
      "Ġseal": 4957,
      "Ġmeasured": 4958,
      "Ġmajority": 4959,
      "ĠAfrican": 4960,
      "PT": 4961,
      "ĠAN": 4962,
      "Ġdisorders": 4963,
      "ĠChild": 4964,
      "-time": 4965,
      "):": 4966,
      "bles": 4967,
      "cers": 4968,
      "lies": 4969,
      "med": 4970,
      "Ġnode": 4971,
      "otic": 4972,
      "ĠWind": 4973,
      "ĠDet": 4974,
      "orses": 4975,
      "Ġtexture": 4976,
      "Ġcycl": 4977,
      "46": 4978,
      "Ġfo": 4979,
      "Ġenab": 4980,
      "ĠEl": 4981,
      "Ġmembr": 4982,
      "Ġessay": 4983,
      "ĠClass": 4984,
      "Ġtrip": 4985,
      "Ġawareness": 4986,
      "ĠAssoci": 4987,
      "Ġshapes": 4988,
      "US": 4989,
      "Your": 4990,
      "my": 4991,
      "Ġsizes": 4992,
      "Ġclick": 4993,
      "Ġkitchen": 4994,
      "EL": 4995,
      "Ġcoffee": 4996,
      "paration": 4997,
      "Ġpreviously": 4998,
      "ĠChar": 4999,
      "clus": 5000,
      "Ġlabel": 5001,
      "Ġinject": 5002,
      "ighter": 5003,
      "Ġrand": 5004,
      "Ġcontinues": 5005,
      "Ġappears": 5006,
      "Ġperiods": 5007,
      "Ġrelevant": 5008,
      "Ġsides": 5009,
      "Ġcoc": 5010,
      "Ġmac": 5011,
      "Ġextensive": 5012,
      "Ġaircraft": 5013,
      "Ġradiation": 5014,
      "Ġtruly": 5015,
      "Ġaid": 5016,
      "Ġmild": 5017,
      "Ġvs": 5018,
      "ormal": 5019,
      "Ġtreated": 5020,
      "Ġconcern": 5021,
      "Ġfailure": 5022,
      "Ġadvantages": 5023,
      "cious": 5024,
      "Ġborn": 5025,
      "rooms": 5026,
      "Ġstret": 5027,
      "Ġwhose": 5028,
      "ially": 5029,
      "ĠGet": 5030,
      "ĠCanada": 5031,
      "Ġbusinesses": 5032,
      "Ġhousehold": 5033,
      "Ġabsolute": 5034,
      "Ġpictures": 5035,
      "Ġratio": 5036,
      "Ġsem": 5037,
      "Ġmal": 5038,
      "Ġtoward": 5039,
      "Ġperhaps": 5040,
      "Ġconsists": 5041,
      "....": 5042,
      "Ġdecor": 5043,
      "Ġprecise": 5044,
      "ĠHer": 5045,
      "Ġhunting": 5046,
      "Ġlaser": 5047,
      "Ġleaving": 5048,
      "Ġjud": 5049,
      "Ġtransmission": 5050,
      "Ġinstit": 5051,
      "Ġtopics": 5052,
      "ING": 5053,
      "Ġcalcium": 5054,
      "Ġtoler": 5055,
      "ĠLife": 5056,
      "irect": 5057,
      "Ġproduces": 5058,
      "Ġoffice": 5059,
      "exic": 5060,
      "Ġfamiliar": 5061,
      "ĠInternational": 5062,
      "uk": 5063,
      "Ġcart": 5064,
      "lements": 5065,
      "Ġversat": 5066,
      "ĠProfess": 5067,
      "PS": 5068,
      "Yes": 5069,
      "Ġfault": 5070,
      "Ġanxiety": 5071,
      "ĠHis": 5072,
      "Ġwasn": 5073,
      "Ġtraffic": 5074,
      "ube": 5075,
      "Ġcareer": 5076,
      "Ġfle": 5077,
      "Ġnerv": 5078,
      "Ġcarried": 5079,
      "Ġcream": 5080,
      "Ġcreates": 5081,
      "Ġintelligence": 5082,
      "-related": 5083,
      "asp": 5084,
      "ĠSaf": 5085,
      "erent": 5086,
      "Ġacad": 5087,
      "Ġseek": 5088,
      "Ġbrush": 5089,
      "iences": 5090,
      "Ġinjuries": 5091,
      "-n": 5092,
      "mark": 5093,
      "ĠCare": 5094,
      "ĠMc": 5095,
      "Ġshad": 5096,
      "ĠDiff": 5097,
      "Ġproducing": 5098,
      "Ġseeing": 5099,
      "Ġimproving": 5100,
      "Ġclassroom": 5101,
      "hemat": 5102,
      "Ġminimum": 5103,
      "Ġspirit": 5104,
      "lines": 5105,
      "iled": 5106,
      "estyle": 5107,
      "Ġcompost": 5108,
      "Ġinternet": 5109,
      "Ġconducted": 5110,
      "Comp": 5111,
      "Over": 5112,
      "dule": 5113,
      "Ġsubstances": 5114,
      "Ġpurposes": 5115,
      "Ġprepare": 5116,
      "Ġbeauty": 5117,
      "-M": 5118,
      "ipl": 5119,
      "ĠTake": 5120,
      "Ġgrad": 5121,
      "Ġparticle": 5122,
      "-D": 5123,
      "eper": 5124,
      "Ġdim": 5125,
      "Ġplenty": 5126,
      "ĠPlan": 5127,
      "uracy": 5128,
      "Ġsamples": 5129,
      "Ġurban": 5130,
      "iter": 5131,
      "Ġeight": 5132,
      "ĠIns": 5133,
      "ĠWhere": 5134,
      "rome": 5135,
      "Ġabund": 5136,
      "Ġfiber": 5137,
      "Ġdiversity": 5138,
      "ket": 5139,
      "Ġrev": 5140,
      "Ġkinds": 5141,
      "Ġexperiments": 5142,
      "ypes": 5143,
      "Ġfur": 5144,
      "roid": 5145,
      "unity": 5146,
      "ials": 5147,
      "Ġkne": 5148,
      "Ġrow": 5149,
      "Ġcreation": 5150,
      "Ġpotat": 5151,
      "Ġprotected": 5152,
      "Ġsensitive": 5153,
      "Answer": 5154,
      "CO": 5155,
      "ĠChina": 5156,
      "Ġminerals": 5157,
      "Ġmatrix": 5158,
      "Ġparticipants": 5159,
      "Se": 5160,
      "Ġrein": 5161,
      "Ġrice": 5162,
      "ued": 5163,
      "Ġvert": 5164,
      "Ġsend": 5165,
      "ama": 5166,
      "ĠHel": 5167,
      "Ġaudio": 5168,
      "Ġpregnancy": 5169,
      "Ġallerg": 5170,
      "Ġspaces": 5171,
      "Ġwouldn": 5172,
      "ado": 5173,
      "Ġmap": 5174,
      "Ġperspective": 5175,
      "iotic": 5176,
      "Ġreferred": 5177,
      "Ġprinciples": 5178,
      "Ġprivate": 5179,
      "but": 5180,
      "asive": 5181,
      "idth": 5182,
      "Ġconclusion": 5183,
      "ords": 5184,
      "ĠJune": 5185,
      "Ġinterp": 5186,
      "Ġgrade": 5187,
      "Ġdownload": 5188,
      "Ġvoice": 5189,
      "bre": 5190,
      "Ġweld": 5191,
      "Ġpil": 5192,
      "Ġrandom": 5193,
      "comes": 5194,
      "Ġgut": 5195,
      "oyal": 5196,
      "Ġtreatments": 5197,
      "Ġcontrolled": 5198,
      "Let": 5199,
      "fall": 5200,
      "Ġpounds": 5201,
      "Ġnames": 5202,
      "Ġprem": 5203,
      "Ġtempor": 5204,
      "Ġconflic": 5205,
      "Ġstatus": 5206,
      "Once": 5207,
      "Ġfrag": 5208,
      "anes": 5209,
      "Ġgerm": 5210,
      "Ġplug": 5211,
      "Ġadvent": 5212,
      "Ġrefers": 5213,
      "Ġannual": 5214,
      "Ġcredit": 5215,
      "Ġwest": 5216,
      "Ġenable": 5217,
      "Ġsignals": 5218,
      "-on": 5219,
      "ait": 5220,
      "Ġstable": 5221,
      "ibilities": 5222,
      "Ġtea": 5223,
      "Ġunc": 5224,
      "Ġotherwise": 5225,
      "Ġrecovery": 5226,
      "Ġgenerated": 5227,
      "Ġmanufacturing": 5228,
      "Ġsharp": 5229,
      "Ġâ": 5230,
      "ingu": 5231,
      "iger": 5232,
      "Ġagre": 5233,
      "Ġdepression": 5234,
      "Ġassessment": 5235,
      "Ġdynamic": 5236,
      "Sp": 5237,
      "Ġisol": 5238,
      "ĠApril": 5239,
      "Ġcomposition": 5240,
      "Ġemail": 5241,
      "Ġbuildings": 5242,
      "Ġath": 5243,
      "ĠPhys": 5244,
      "Ġregulations": 5245,
      "Ġconcepts": 5246,
      "Ġagriculture": 5247,
      "fortunately": 5248,
      "urch": 5249,
      "ĠBoth": 5250,
      "Ġring": 5251,
      "Ġchronic": 5252,
      "Ġsharing": 5253,
      "Ġradio": 5254,
      "Ġlibrary": 5255,
      "Ġmic": 5256,
      "Ġden": 5257,
      "change": 5258,
      "Ġnovel": 5259,
      "Ġfunctional": 5260,
      "Ġconsidering": 5261,
      "Ġcapture": 5262,
      "ĠGoogle": 5263,
      "cast": 5264,
      "Ġsouth": 5265,
      "Ġdust": 5266,
      "Ġdivid": 5267,
      "Ġnorth": 5268,
      "ĠFrench": 5269,
      "Ġdecided": 5270,
      "ropical": 5271,
      "Ġputting": 5272,
      "Ġspeaker": 5273,
      "43": 5274,
      "crib": 5275,
      "son": 5276,
      "Ġfirm": 5277,
      "Ġmobile": 5278,
      "ĠCity": 5279,
      "Ġworry": 5280,
      "Ġmanip": 5281,
      "Ġpassed": 5282,
      "Ġinvestment": 5283,
      "Ġreactions": 5284,
      "Ġcooked": 5285,
      "Ġdriver": 5286,
      "IM": 5287,
      "RNA": 5288,
      "TS": 5289,
      "ugg": 5290,
      "vents": 5291,
      "Ġtall": 5292,
      "Ġinner": 5293,
      "ĠPat": 5294,
      "aker": 5295,
      "Ġvirtual": 5296,
      "ĠOctober": 5297,
      "Ġaw": 5298,
      "Ġequival": 5299,
      "-friendly": 5300,
      "Ġnormally": 5301,
      "Ġmixed": 5302,
      "arant": 5303,
      "ache": 5304,
      "Ġaccuracy": 5305,
      "Ġwarming": 5306,
      "idden": 5307,
      "Ġvitamin": 5308,
      "Ġcloser": 5309,
      "ĠJuly": 5310,
      "85": 5311,
      "Ġnurs": 5312,
      "ifications": 5313,
      "Ġtechnical": 5314,
      "Ġaer": 5315,
      "Ġcrop": 5316,
      "Ġblow": 5317,
      "ĠSupp": 5318,
      "Ġseg": 5319,
      "ĠLab": 5320,
      "Ġsyn": 5321,
      "Ġbreeding": 5322,
      "Ġcultiv": 5323,
      "Ġconnections": 5324,
      "Ġportion": 5325,
      "rant": 5326,
      "Ġprinting": 5327,
      "oys": 5328,
      "Ġlesson": 5329,
      "Ġturns": 5330,
      "Ġquantum": 5331,
      "Ġdefinitely": 5332,
      "oa": 5333,
      "Ġë": 5334,
      "Ġweap": 5335,
      "ovember": 5336,
      "ework": 5337,
      "ĠÂ±": 5338,
      "Ġfixed": 5339,
      "ĠCounty": 5340,
      "47": 5341,
      "Ġtum": 5342,
      "itary": 5343,
      "uning": 5344,
      "umps": 5345,
      "Ġcolon": 5346,
      "Ġoverl": 5347,
      "Ġdream": 5348,
      "ĠPol": 5349,
      "ardens": 5350,
      "onds": 5351,
      "Ġinteraction": 5352,
      "Ġslowly": 5353,
      "Ġcameras": 5354,
      "________": 5355,
      "Ġchlor": 5356,
      "ĠFe": 5357,
      "Ġinsights": 5358,
      "Ġcalls": 5359,
      "Ġapproaches": 5360,
      "Ġcraft": 5361,
      "LE": 5362,
      "NC": 5363,
      "Ġsick": 5364,
      "Ġwalking": 5365,
      "Ġdental": 5366,
      "ctive": 5367,
      "Ġwhatever": 5368,
      "ĠNet": 5369,
      "Ġbutton": 5370,
      "haust": 5371,
      "Ġclinical": 5372,
      "Ġoven": 5373,
      "rade": 5374,
      "Ġstability": 5375,
      "amental": 5376,
      "ocking": 5377,
      "Ġcompr": 5378,
      "Ġrod": 5379,
      "Ġequation": 5380,
      "Ġcontaining": 5381,
      "Ġfocused": 5382,
      "ĠIndian": 5383,
      "Ġselected": 5384,
      "Ġhistorical": 5385,
      "rest": 5386,
      "Ġpages": 5387,
      "Ġrevolution": 5388,
      "Ġbees": 5389,
      "Ġforget": 5390,
      "ĠElect": 5391,
      "Ġclothes": 5392,
      "Ġraise": 5393,
      "Ġelectronic": 5394,
      "Ġphysics": 5395,
      "Ġzero": 5396,
      "-H": 5397,
      "Cons": 5398,
      "]ĊĊ": 5399,
      "hors": 5400,
      "Ġvul": 5401,
      "pert": 5402,
      "Ġcompound": 5403,
      "Ġunless": 5404,
      "Ġamb": 5405,
      "Ġcapabilities": 5406,
      "Ġrestaur": 5407,
      "Ġlenses": 5408,
      "].": 5409,
      "Ġvarieties": 5410,
      "Ġopening": 5411,
      "Ġvideos": 5412,
      "Ġcorrectly": 5413,
      "ĠAbout": 5414,
      "iance": 5415,
      "osen": 5416,
      "Ġadequ": 5417,
      "Ġreserv": 5418,
      "Ġtwice": 5419,
      "Ġfacilit": 5420,
      "Ġemotions": 5421,
      "ded": 5422,
      "Ġdensity": 5423,
      "Ġgave": 5424,
      "uter": 5425,
      "ĠExpl": 5426,
      "51": 5427,
      "box": 5428,
      "Ġsong": 5429,
      "Ġsufficient": 5430,
      "Ġclosely": 5431,
      "Although": 5432,
      "gin": 5433,
      "yn": 5434,
      "zer": 5435,
      "requ": 5436,
      "roc": 5437,
      "ĠMus": 5438,
      "arium": 5439,
      "ĠVal": 5440,
      "Ġboat": 5441,
      "ĠThrough": 5442,
      "print": 5443,
      "Ġexception": 5444,
      "mitted": 5445,
      "Ġhom": 5446,
      "men": 5447,
      "Ġriver": 5448,
      "ĠUp": 5449,
      "Ġblade": 5450,
      "Ġpreventing": 5451,
      "Ġdamaged": 5452,
      "Ġrecycling": 5453,
      "DF": 5454,
      "hus": 5455,
      "ye": 5456,
      "ĠTest": 5457,
      "ods": 5458,
      "Ġneck": 5459,
      "Ġcompress": 5460,
      "Ġspots": 5461,
      "Ġvisible": 5462,
      "Ġbiggest": 5463,
      "Ġanswers": 5464,
      "Ġpercentage": 5465,
      "Ġtried": 5466,
      "Ġeconomy": 5467,
      "Ġdestro": 5468,
      "Ġdecrease": 5469,
      "dden": 5470,
      "gl": 5471,
      "Ġpark": 5472,
      "Ġstring": 5473,
      "see": 5474,
      "Ġvast": 5475,
      "Ġreports": 5476,
      "Ġmainly": 5477,
      "Ġrefrig": 5478,
      "ĠOrgan": 5479,
      "rust": 5480,
      "Ġdoll": 5481,
      "Ġhorses": 5482,
      "ĠIS": 5483,
      "Ġcreatures": 5484,
      "Ġconfirm": 5485,
      "Ġindustries": 5486,
      "Ġhappened": 5487,
      "Ġexcessive": 5488,
      "cher": 5489,
      "Ġwheel": 5490,
      "Ġtele": 5491,
      "Ġsolve": 5492,
      "Ġpreserv": 5493,
      "Ġboost": 5494,
      "Ġmeasurement": 5495,
      "Ġrecorded": 5496,
      "56": 5497,
      "According": 5498,
      "enior": 5499,
      "ĠST": 5500,
      "Ġinsul": 5501,
      "Ġsuggested": 5502,
      "Ġancest": 5503,
      "Ġpup": 5504,
      "Ġsudden": 5505,
      "ĠHave": 5506,
      "ĠDevelop": 5507,
      "uminum": 5508,
      "Ġscenari": 5509,
      "la": 5510,
      "inations": 5511,
      "Ġtomat": 5512,
      "uses": 5513,
      "ĠSan": 5514,
      "ĠMexic": 5515,
      "Ġrig": 5516,
      "Ġjump": 5517,
      "Ġmanual": 5518,
      "Ġsheet": 5519,
      "Ġcontainer": 5520,
      "Ġparas": 5521,
      "Ġsusp": 5522,
      "ĠAugust": 5523,
      "aul": 5524,
      "inn": 5525,
      "Ġbio": 5526,
      "Ġgap": 5527,
      "rie": 5528,
      "Ġreduces": 5529,
      "Ġbelong": 5530,
      "Ġteams": 5531,
      "Ġinstallation": 5532,
      "Ġconcentration": 5533,
      "Ġfer": 5534,
      "Ġconventional": 5535,
      "ĠMark": 5536,
      "pected": 5537,
      "Ġwants": 5538,
      "Ġworldwide": 5539,
      "Ġcareful": 5540,
      "Ġpure": 5541,
      "Ġstores": 5542,
      "Ġhabits": 5543,
      "Ġwearing": 5544,
      "Ġattached": 5545,
      "ĠSeptember": 5546,
      "Ġinstalled": 5547,
      "Ġmort": 5548,
      "eless": 5549,
      "ulum": 5550,
      "ĠFlor": 5551,
      "ĠNature": 5552,
      "Ġmovements": 5553,
      "Ġmechanism": 5554,
      "Ġdiagnosis": 5555,
      "New": 5556,
      "Use": 5557,
      "Ġban": 5558,
      "alks": 5559,
      "Ġment": 5560,
      "igan": 5561,
      "Ġstands": 5562,
      "ĠSum": 5563,
      "Ġshade": 5564,
      "Ġunivers": 5565,
      "Ġaccum": 5566,
      "ĠVol": 5567,
      "arsh": 5568,
      "Ġcake": 5569,
      "otton": 5570,
      "elcome": 5571,
      "ĠDec": 5572,
      "ĠOb": 5573,
      "apor": 5574,
      "Ġtrade": 5575,
      "Ġdecide": 5576,
      "Ġskill": 5577,
      "Ġguess": 5578,
      "Ġremaining": 5579,
      "Ġ<": 5580,
      "Ġ?": 5581,
      "Ġlic": 5582,
      "Ġconvert": 5583,
      "Ġcomment": 5584,
      "ĠKing": 5585,
      "Ġsupplement": 5586,
      "Ġgluc": 5587,
      "Ġlooked": 5588,
      "Ġmotiv": 5589,
      "Ġmolecular": 5590,
      "Ġfundamental": 5591,
      "Ġsurvival": 5592,
      "Ġindependent": 5593,
      "98": 5594,
      "Ġfelt": 5595,
      "Ġmath": 5596,
      "Ġliver": 5597,
      "Ġspray": 5598,
      "Ġphotography": 5599,
      "Ġcooling": 5600,
      "ĠEngine": 5601,
      "Ġpanel": 5602,
      "Ġhoriz": 5603,
      "Ġinnovative": 5604,
      "Ġparameters": 5605,
      "49": 5606,
      "DA": 5607,
      "fe": 5608,
      "iated": 5609,
      "Ġord": 5610,
      "Ġexcept": 5611,
      "quit": 5612,
      "ĠOpen": 5613,
      "Ġspent": 5614,
      "ientists": 5615,
      "Ġdetection": 5616,
      "Ġwindows": 5617,
      "Ġmechanical": 5618,
      "VID": 5619,
      "down": 5620,
      "Ġtight": 5621,
      "Ġahead": 5622,
      "idents": 5623,
      "ĠAng": 5624,
      "ĠBre": 5625,
      "Ġexplan": 5626,
      "ĠProt": 5627,
      "ĠAnother": 5628,
      "cript": 5629,
      "lets": 5630,
      "Ġlinks": 5631,
      "Ġviol": 5632,
      "Ġseven": 5633,
      "ĠFeb": 5634,
      "aked": 5635,
      "Ġrecipe": 5636,
      "phone": 5637,
      "Ġtested": 5638,
      "ĠThus": 5639,
      "Ġcollected": 5640,
      "Ġcomparison": 5641,
      "Not": 5642,
      "och": 5643,
      "Ġcards": 5644,
      "Ġcivil": 5645,
      "Ġpests": 5646,
      "Ġfa": 5647,
      "Ġvariable": 5648,
      "Ġbread": 5649,
      "Ġexploring": 5650,
      "airy": 5651,
      "Ġfinish": 5652,
      "Ġjournal": 5653,
      "Ġion": 5654,
      "Ġtape": 5655,
      "Ġholes": 5656,
      "ented": 5657,
      "ompl": 5658,
      "stone": 5659,
      "Ġmeals": 5660,
      "Ġtrained": 5661,
      "Ġrace": 5662,
      "Ġconsume": 5663,
      "Ġrobots": 5664,
      "Ġdefinition": 5665,
      "More": 5666,
      "OU": 5667,
      "ris": 5668,
      "Ġ>": 5669,
      "ĠWild": 5670,
      "Ġperman": 5671,
      "ossible": 5672,
      "Ġremote": 5673,
      "Ġlocations": 5674,
      "Ġvolunte": 5675,
      "Ġbegins": 5676,
      "Ġsuccessfully": 5677,
      "Ġclearly": 5678,
      "96": 5679,
      "CS": 5680,
      "Ġnar": 5681,
      "ĠMet": 5682,
      "ĠBas": 5683,
      "Ġbugs": 5684,
      "Ġpolic": 5685,
      "ĠStudents": 5686,
      "Ġinterface": 5687,
      "Conclusion": 5688,
      "west": 5689,
      "you": 5690,
      "Ġtag": 5691,
      "Ġhoney": 5692,
      "ĠOff": 5693,
      "Ġscore": 5694,
      "Ġtrim": 5695,
      "Ġcommunicate": 5696,
      "Ġrecognize": 5697,
      "ĠInstead": 5698,
      "Ġmedications": 5699,
      "Ġrapidly": 5700,
      "FA": 5701,
      "lim": 5702,
      "ctic": 5703,
      "Ġweigh": 5704,
      "Ġoutcomes": 5705,
      "Ġfacilities": 5706,
      "Ġcardi": 5707,
      "-B": 5708,
      "Ġ...ĊĊ": 5709,
      "Ġgather": 5710,
      "ĠInc": 5711,
      "Ġobtained": 5712,
      "Ġpuppy": 5713,
      "Ġschedule": 5714,
      "ford": 5715,
      "Ġcul": 5716,
      "asses": 5717,
      "Ġformula": 5718,
      "ĠJanuary": 5719,
      "oke": 5720,
      "ĠII": 5721,
      "Ġintric": 5722,
      "iber": 5723,
      "soft": 5724,
      "Ġmeant": 5725,
      "Ġlifestyle": 5726,
      "Ġagricultural": 5727,
      "!!": 5728,
      "First": 5729,
      "ked": 5730,
      "vis": 5731,
      "Ġwoman": 5732,
      "iture": 5733,
      "Ġnation": 5734,
      "Ġneuro": 5735,
      "âĢĶâĢĶ": 5736,
      "Ġsensors": 5737,
      "Ġremoving": 5738,
      "Ġlinked": 5739,
      "ona": 5740,
      "abil": 5741,
      "udd": 5742,
      "ĠGood": 5743,
      "Ġdecl": 5744,
      "Ġorigin": 5745,
      "ĠEngland": 5746,
      "point": 5747,
      "Ġaest": 5748,
      "Ġcab": 5749,
      "orous": 5750,
      "Ġadds": 5751,
      "ĠStart": 5752,
      "Ġcompleted": 5753,
      "ĠControl": 5754,
      "Ġinflammation": 5755,
      "Ġpin": 5756,
      "ĠGold": 5757,
      "Ġincl": 5758,
      "apers": 5759,
      "ignment": 5760,
      "-spe": 5761,
      "cope": 5762,
      "Ġstyles": 5763,
      "Ġequivalent": 5764,
      "Cont": 5765,
      "orter": 5766,
      "ĠAP": 5767,
      "Ġdecades": 5768,
      "Ġbiod": 5769,
      "Ġcopy": 5770,
      "allel": 5771,
      "oding": 5772,
      "Ġexhaust": 5773,
      "Ġusage": 5774,
      "osquit": 5775,
      "ĠLED": 5776,
      "Ġformat": 5777,
      "Ġdelicious": 5778,
      "Ġoperate": 5779,
      "Ġrecognition": 5780,
      "ĠConsider": 5781,
      "ĠTechnology": 5782,
      "Ġrenewable": 5783,
      "Ġdatabase": 5784,
      "cule": 5785,
      "fly": 5786,
      "rus": 5787,
      "Ġatoms": 5788,
      "Ġinsurance": 5789,
      "Ġleadership": 5790,
      "Ġprices": 5791,
      "Ġphenomen": 5792,
      "De": 5793,
      "gers": 5794,
      "ii": 5795,
      "reate": 5796,
      "Ġsed": 5797,
      "ani": 5798,
      "sts": 5799,
      "Ġspin": 5800,
      "Ġmedication": 5801,
      "overn": 5802,
      "64": 5803,
      "ĠAT": 5804,
      "unt": 5805,
      "ĠDav": 5806,
      "Ġintake": 5807,
      "Ġvalve": 5808,
      "Ġbelief": 5809,
      "Ġhardware": 5810,
      "ouncil": 5811,
      "Ġfemales": 5812,
      "Ġguidance": 5813,
      "From": 5814,
      "sec": 5815,
      "opic": 5816,
      "ĠMac": 5817,
      "ription": 5818,
      "acts": 5819,
      "ruary": 5820,
      "Ġknowing": 5821,
      "Ġcoat": 5822,
      "Ġworkers": 5823,
      "Ġvector": 5824,
      "Ġbreeds": 5825,
      "Ġbelieved": 5826,
      "ĠSea": 5827,
      "Ġtube": 5828,
      "Ġfossil": 5829,
      "Ġconsequences": 5830,
      "onal": 5831,
      "cember": 5832,
      "Ġintended": 5833,
      "Ġends": 5834,
      "Ġsupports": 5835,
      "Ġmanufacturer": 5836,
      "-of": 5837,
      "Ġstation": 5838,
      "Ġpros": 5839,
      "ĠRuss": 5840,
      "Ġmechanisms": 5841,
      "Ġbudget": 5842,
      "Ġinterpret": 5843,
      "eah": 5844,
      "ĠCat": 5845,
      "unning": 5846,
      "Ġdespite": 5847,
      "Ġengage": 5848,
      "Ġsubstance": 5849,
      "Ġpreferred": 5850,
      "Ġconstantly": 5851,
      "Ġinnovation": 5852,
      "Ġprocedures": 5853,
      "97": 5854,
      "ĠSet": 5855,
      "Ġmanner": 5856,
      "Ġhelped": 5857,
      "Ġelectrons": 5858,
      "Ġmeeting": 5859,
      "Ġhabitats": 5860,
      "Ġbehaviors": 5861,
      "uilding": 5862,
      "ĠFlorida": 5863,
      "92": 5864,
      "Ġsector": 5865,
      "riz": 5866,
      "Ġfeedback": 5867,
      "Ġbags": 5868,
      "ĠFoundation": 5869,
      "53": 5870,
      "Ġgem": 5871,
      "ĠLong": 5872,
      "Ġcoop": 5873,
      "Ġauthors": 5874,
      "Ġcontrols": 5875,
      "Ġbiology": 5876,
      "ĠAtl": 5877,
      "Ġneutral": 5878,
      "ĠHistory": 5879,
      "Ġclosed": 5880,
      "Ġblocks": 5881,
      "Ġsupported": 5882,
      "Ġbroken": 5883,
      "ĠCheck": 5884,
      "Ġcryst": 5885,
      "Ġvulner": 5886,
      "LL": 5887,
      "aj": 5888,
      "Ġproport": 5889,
      "Ġstudied": 5890,
      "ascular": 5891,
      "Ġpowder": 5892,
      "onge": 5893,
      "Ġstages": 5894,
      "ircle": 5895,
      "plant": 5896,
      "Ġpeace": 5897,
      "Ġunderlying": 5898,
      "Ġruns": 5899,
      "Ġstatement": 5900,
      "ognitive": 5901,
      "Ġpromoting": 5902,
      "-F": 5903,
      "Figure": 5904,
      "Ġcities": 5905,
      "Ġwish": 5906,
      "Ġmission": 5907,
      "Ġpreparation": 5908,
      "ĠKnow": 5909,
      "Ġextended": 5910,
      "Ġgenerator": 5911,
      "Ġedges": 5912,
      "Ġsteam": 5913,
      "riction": 5914,
      "Rem": 5915,
      "isation": 5916,
      "arn": 5917,
      "Ġhospital": 5918,
      "Ġcompat": 5919,
      "Ġdisorder": 5920,
      "Ġattrib": 5921,
      "Ġexplains": 5922,
      "Ġpossess": 5923,
      "Ġmoved": 5924,
      "Ġerrors": 5925,
      "ĠDesign": 5926,
      ".âĢĿ": 5927,
      "tical": 5928,
      "inity": 5929,
      "Ġshed": 5930,
      "Ġpest": 5931,
      "Ġmir": 5932,
      "ĠToday": 5933,
      "Ġcompare": 5934,
      "ĠProject": 5935,
      "irds": 5936,
      "Ġstudying": 5937,
      "Ġstructural": 5938,
      "Ġopposite": 5939,
      "Ġpanels": 5940,
      "tt": 5941,
      "Ġped": 5942,
      "Ġmales": 5943,
      "Ġgro": 5944,
      "ifies": 5945,
      "emy": 5946,
      "Ġneural": 5947,
      "Ġampl": 5948,
      "Ġsignificance": 5949,
      "Ġincreasingly": 5950,
      "Ġfriendly": 5951,
      "Ġcollege": 5952,
      "Ġdedicated": 5953,
      "68": 5954,
      "72": 5955,
      "Reg": 5956,
      "Ġbite": 5957,
      "Ġdirt": 5958,
      "Ġdimens": 5959,
      "asure": 5960,
      "Ġrely": 5961,
      "Ġreward": 5962,
      "ĠTex": 5963,
      "Ġorgans": 5964,
      "terior": 5965,
      "ĠDef": 5966,
      "Ġwhereas": 5967,
      "Ġlessons": 5968,
      "Ġconfig": 5969,
      "vision": 5970,
      "inant": 5971,
      "ĠIN": 5972,
      "Ġstroke": 5973,
      "eling": 5974,
      "ĠPlease": 5975,
      "Ġcontinued": 5976,
      "Ġtip": 5977,
      "Ġcos": 5978,
      "Ġfan": 5979,
      "Ġagree": 5980,
      "ĠStep": 5981,
      "Ġmineral": 5982,
      "Ġpossibly": 5983,
      "Ġproposed": 5984,
      "Ġinformed": 5985,
      "Ġdiagram": 5986,
      "icing": 5987,
      "Ġhole": 5988,
      "iler": 5989,
      "ĠTur": 5990,
      "ĠNatural": 5991,
      "hyl": 5992,
      "Ġraised": 5993,
      "Ġcheap": 5994,
      "hips": 5995,
      "Ġefficiently": 5996,
      "CE": 5997,
      "arter": 5998,
      "etics": 5999,
      "ophy": 6000,
      "Ġwash": 6001,
      "Ġouter": 6002,
      "Ġunlike": 6003,
      "Ġbrid": 6004,
      "Ġlisted": 6005,
      "Â°C": 6006,
      "Ġbehaviour": 6007,
      "-th": 6008,
      "62": 6009,
      "anol": 6010,
      "ĠSer": 6011,
      "ĠNovember": 6012,
      "ĠOcean": 6013,
      "Ġscene": 6014,
      "Ġvalid": 6015,
      "Ġmetals": 6016,
      "Ġbigger": 6017,
      "Ġstronger": 6018,
      "Ġdiscussed": 6019,
      "Ġtutorial": 6020,
      "Gen": 6021,
      "well": 6022,
      "Ġ**": 6023,
      "Ġcm": 6024,
      "Ġfract": 6025,
      "ĠBen": 6026,
      "ĠBel": 6027,
      "ĠLaw": 6028,
      "Ġkeeps": 6029,
      "Ġdelay": 6030,
      "Ġresponsibility": 6031,
      "\"The": 6032,
      "54": 6033,
      "89": 6034,
      "nect": 6035,
      "uzz": 6036,
      "vit": 6037,
      "yth": 6038,
      "Ġì": 6039,
      "athy": 6040,
      "Ġcere": 6041,
      "Ġindu": 6042,
      "Ġgardens": 6043,
      "rab": 6044,
      "ĠHome": 6045,
      "ĠExt": 6046,
      "ava": 6047,
      "Ġcorner": 6048,
      "Ġreplaced": 6049,
      "Ġrecords": 6050,
      "Ġcompetition": 6051,
      "Ġarrange": 6052,
      "ias": 6053,
      "Ġpul": 6054,
      "Ġflying": 6055,
      "Ġnose": 6056,
      "otal": 6057,
      "Ġship": 6058,
      "âĢĭ": 6059,
      "Ġprey": 6060,
      "Ġrab": 6061,
      "Ġrelig": 6062,
      "Ġmillions": 6063,
      "Ġholds": 6064,
      "Ġbalanced": 6065,
      "MS": 6066,
      "een": 6067,
      "olve": 6068,
      "iform": 6069,
      "ĠPacific": 6070,
      "Ġcham": 6071,
      "ivest": 6072,
      "Ġremark": 6073,
      "Ġsecret": 6074,
      "Ġoccup": 6075,
      "58": 6076,
      "CH": 6077,
      "Ġbrief": 6078,
      "osal": 6079,
      "ĠWeb": 6080,
      "Ġleaders": 6081,
      "Ġdefic": 6082,
      "Ġsupporting": 6083,
      "Ġaccessible": 6084,
      "Ġmeasurements": 6085,
      "Ġaudience": 6086,
      "Ġcampa": 6087,
      "how": 6088,
      "erative": 6089,
      "Ġgun": 6090,
      "Ġhaven": 6091,
      "Ġran": 6092,
      "ĠRel": 6093,
      "Ġadminist": 6094,
      "Ġflour": 6095,
      "Ġlisten": 6096,
      "Ġnetworks": 6097,
      "Ġsafely": 6098,
      "59": 6099,
      "Ġwrote": 6100,
      "Ġloose": 6101,
      "ĠMiss": 6102,
      "Ġdrinking": 6103,
      "Ġconfidence": 6104,
      "Ġzone": 6105,
      "Ġmoves": 6106,
      "Ġdiscussion": 6107,
      "Ġbuying": 6108,
      "ridge": 6109,
      "Ġforests": 6110,
      "Ġthrive": 6111,
      "ĠRemember": 6112,
      "/s": 6113,
      "61": 6114,
      "Or": 6115,
      "Pe": 6116,
      "atin": 6117,
      "Ġlik": 6118,
      "ĠMain": 6119,
      "Ġchapter": 6120,
      "ĠLight": 6121,
      "Ġspeech": 6122,
      "Ġhandling": 6123,
      "Ġcircum": 6124,
      "Ġachieved": 6125,
      "ĠService": 6126,
      ".)Ċ": 6127,
      "App": 6128,
      "Ġsac": 6129,
      "ĠSociety": 6130,
      "osph": 6131,
      "ĠPort": 6132,
      "ĠPress": 6133,
      "ella": 6134,
      "Ġworse": 6135,
      "Ġoffered": 6136,
      "oves": 6137,
      "ĠAsia": 6138,
      "Ġresponses": 6139,
      "Ġcontinuous": 6140,
      "71": 6141,
      "zym": 6142,
      "Ġyouth": 6143,
      "ĠTV": 6144,
      "ĠEast": 6145,
      "ĠLa": 6146,
      "Ġfacts": 6147,
      "Ġconsumers": 6148,
      "Ġemployees": 6149,
      "Ġdoub": 6150,
      "ĠWestern": 6151,
      "Ġmembrane": 6152,
      ";Ċ": 6153,
      "uits": 6154,
      "Ġlun": 6155,
      "ceed": 6156,
      "ĠExper": 6157,
      "Ġentirely": 6158,
      "ivestock": 6159,
      "Dr": 6160,
      "alysis": 6161,
      "Ġdram": 6162,
      "ifier": 6163,
      "Ġjack": 6164,
      "Ġphysic": 6165,
      "Ġexplained": 6166,
      "Ġapproximation": 6167,
      "Ġtor": 6168,
      "riculum": 6169,
      "Ġinstruction": 6170,
      "Ġenthus": 6171,
      "Ġmeasuring": 6172,
      "Stud": 6173,
      "Ġfinally": 6174,
      "Ġsubstant": 6175,
      "Ġminimize": 6176,
      "iology": 6177,
      "Ġmm": 6178,
      "Ġaccident": 6179,
      "Ġpoison": 6180,
      "Ġdomestic": 6181,
      "Ġmountain": 6182,
      "Ġjoin": 6183,
      "Ġpolitical": 6184,
      "Ġhundreds": 6185,
      "Get": 6186,
      "inction": 6187,
      "urg": 6188,
      "ĠSk": 6189,
      "ĠSub": 6190,
      "Ġdeeper": 6191,
      "Ġmanaging": 6192,
      "Ġobst": 6193,
      "Ġserves": 6194,
      "Ġbrings": 6195,
      "ĠColle": 6196,
      "Ġbreathing": 6197,
      "Ġfrozen": 6198,
      "Ġderived": 6199,
      "icon": 6200,
      "Ġbeans": 6201,
      "Ġshoes": 6202,
      "ĠRob": 6203,
      "Ġadvert": 6204,
      "earchers": 6205,
      "Ġminor": 6206,
      "Ġfamous": 6207,
      "ĠMedic": 6208,
      "Ġcollaboration": 6209,
      "ĠLearning": 6210,
      "Ġscratch": 6211,
      "Ġopinion": 6212,
      "mp": 6213,
      "Ġcotton": 6214,
      "stream": 6215,
      "ĠIP": 6216,
      "ithium": 6217,
      "istor": 6218,
      "Ġdishes": 6219,
      "reek": 6220,
      "ocket": 6221,
      "Ġplane": 6222,
      "Ġchemistry": 6223,
      "Ġprotective": 6224,
      "Ġpackaging": 6225,
      "Ġalgorithms": 6226,
      "\"ĊĊ": 6227,
      "Ġdial": 6228,
      "Ġretain": 6229,
      "ĠAD": 6230,
      "Ġstain": 6231,
      "ĠWood": 6232,
      "Ġseat": 6233,
      "Ġenables": 6234,
      "Ġknows": 6235,
      "Ġtruth": 6236,
      "-sc": 6237,
      "Ġoccasion": 6238,
      "Since": 6239,
      "ĠAS": 6240,
      "Ġshift": 6241,
      "ĠLead": 6242,
      "akers": 6243,
      "Ġfunding": 6244,
      "vin": 6245,
      "Ġtension": 6246,
      "Ġcrow": 6247,
      "Ġhur": 6248,
      "Ġlived": 6249,
      "ulating": 6250,
      "ĠBay": 6251,
      "Ġresil": 6252,
      "Ġtransp": 6253,
      "Ġdiscovery": 6254,
      "Ġpurs": 6255,
      "Ġprofessor": 6256,
      "Ġstrain": 6257,
      "Ġsustainability": 6258,
      "ndrome": 6259,
      "Ġtow": 6260,
      "Ġrecept": 6261,
      "acters": 6262,
      "Ġarticles": 6263,
      "Ġprofile": 6264,
      "ourses": 6265,
      "Ġsales": 6266,
      "Ġholding": 6267,
      "Ġnutrient": 6268,
      "Ġcitiz": 6269,
      "ĠTHE": 6270,
      "uing": 6271,
      "Ġcable": 6272,
      "Ġbones": 6273,
      "Ġextend": 6274,
      "Ġdrag": 6275,
      "Ġpassion": 6276,
      "ĠExam": 6277,
      "ĠWorks": 6278,
      "ffective": 6279,
      "Ġswimming": 6280,
      "Ġathlet": 6281,
      "Rec": 6282,
      "edia": 6283,
      "ara": 6284,
      "arity": 6285,
      "ota": 6286,
      "ĠPot": 6287,
      "Ġwilling": 6288,
      "Ġcontamin": 6289,
      "Ġages": 6290,
      "Ġcharging": 6291,
      "Ġthoughts": 6292,
      "Ġcalculate": 6293,
      "Ġglucose": 6294,
      "kal": 6295,
      "rite": 6296,
      "Ġpit": 6297,
      "eli": 6298,
      "Ġnotes": 6299,
      "Ġmyself": 6300,
      "Ġcouldn": 6301,
      "ĠWhite": 6302,
      "bris": 6303,
      "Ġfarming": 6304,
      "Ġnitrogen": 6305,
      "Ġsatisf": 6306,
      "Ġvibrant": 6307,
      "ĠAssociation": 6308,
      "uel": 6309,
      "astics": 6310,
      "Ġseeking": 6311,
      "Ġdetermining": 6312,
      "ĠEnvironmental": 6313,
      "MA": 6314,
      "Ġtaught": 6315,
      "Ġol": 6316,
      "Ġprol": 6317,
      "Ġhealing": 6318,
      "Ġplus": 6319,
      "enses": 6320,
      "Ġfewer": 6321,
      "Ġanywhere": 6322,
      "Ġfinished": 6323,
      "Ġframework": 6324,
      "Ġfascinating": 6325,
      "-A": 6326,
      "from": 6327,
      "ya": 6328,
      "omfort": 6329,
      "Ġaccompl": 6330,
      "Ġbuff": 6331,
      "Ġdrivers": 6332,
      "-res": 6333,
      "Ġintest": 6334,
      "Ġunf": 6335,
      "ieving": 6336,
      "Ġcolumn": 6337,
      "ugs": 6338,
      "Ġoxid": 6339,
      "Ġlogic": 6340,
      "ĠManagement": 6341,
      "Ġloved": 6342,
      "ĠMichigan": 6343,
      "Ġacademic": 6344,
      "93": 6345,
      "Lear": 6346,
      "anted": 6347,
      "ĠBefore": 6348,
      "Ġworkshe": 6349,
      "ĠCommon": 6350,
      "Ġsuffer": 6351,
      "Ġassembly": 6352,
      "Where": 6353,
      "Ġvel": 6354,
      "era": 6355,
      "Ġinhib": 6356,
      "roph": 6357,
      "ilk": 6358,
      "angle": 6359,
      "Ġmathemat": 6360,
      "Ġcopper": 6361,
      "Ġmissing": 6362,
      "Using": 6363,
      "ĠWindows": 6364,
      "Ġadequate": 6365,
      "',": 6366,
      ".m": 6367,
      "mic": 6368,
      "uum": 6369,
      "Ġmosquit": 6370,
      "edom": 6371,
      "Ġformer": 6372,
      "mentation": 6373,
      "Ġrib": 6374,
      "Ġabilities": 6375,
      "ricks": 6376,
      "Ġgenome": 6377,
      "Ġcovers": 6378,
      "Ġturb": 6379,
      "Ġfrequent": 6380,
      "ĠĠĠ": 6381,
      "Ġtrends": 6382,
      "iest": 6383,
      "log": 6384,
      "nel": 6385,
      "Ġtap": 6386,
      "usiness": 6387,
      "ette": 6388,
      "ĠIll": 6389,
      "Ġseam": 6390,
      "Ġcharacters": 6391,
      "Ġgardening": 6392,
      "Ġmarketing": 6393,
      "ĠColor": 6394,
      "Ġmassive": 6395,
      "Ġprinciple": 6396,
      "Ġresidents": 6397,
      "Ġthermal": 6398,
      "Ġrefriger": 6399,
      "Ġpaid": 6400,
      "ĠCH": 6401,
      "ĠPen": 6402,
      "ĠInf": 6403,
      "ommon": 6404,
      "Ġcreativity": 6405,
      "Ġfacing": 6406,
      "Ġloop": 6407,
      "Ġpregnant": 6408,
      "ĠFurthermore": 6409,
      "Ġpolicies": 6410,
      "ĠTexas": 6411,
      "rem": 6412,
      "Ġoral": 6413,
      "riers": 6414,
      "ĠRef": 6415,
      "ago": 6416,
      "Ġsauce": 6417,
      "Ġsecondary": 6418,
      "Ġindicates": 6419,
      "Ġdomain": 6420,
      "Ġexpressed": 6421,
      "Ġmammals": 6422,
      "Me": 6423,
      "stract": 6424,
      "ĠMuse": 6425,
      "Ġapplying": 6426,
      "weed": 6427,
      "Ġcarp": 6428,
      "Ġintegrated": 6429,
      "Ġabsorb": 6430,
      "Ġimagine": 6431,
      "Ġtrigger": 6432,
      "Ġbranches": 6433,
      "Ind": 6434,
      "ker": 6435,
      "Ġfing": 6436,
      "ĠSocial": 6437,
      "emperature": 6438,
      "Ġdebris": 6439,
      "Ġride": 6440,
      "ondon": 6441,
      "Ġattacks": 6442,
      "Ġmolecule": 6443,
      "----------------": 6444,
      "Ġpreferences": 6445,
      "Ġfairly": 6446,
      "ras": 6447,
      "oust": 6448,
      "olor": 6449,
      "ocation": 6450,
      "eren": 6451,
      "Ġeveryday": 6452,
      "Ġexpans": 6453,
      "Ġminute": 6454,
      "Ġbreaking": 6455,
      "Ġparallel": 6456,
      "bohyd": 6457,
      "Ġalgae": 6458,
      "Ġrotation": 6459,
      "-ch": 6460,
      "EO": 6461,
      "Ġfig": 6462,
      "asy": 6463,
      "alled": 6464,
      "ĠLook": 6465,
      "Ġempt": 6466,
      "Ġassistance": 6467,
      "Ġpossibility": 6468,
      "Ġexpertise": 6469,
      "Ġcorresponding": 6470,
      "Ġions": 6471,
      "Ġtheore": 6472,
      "itter": 6473,
      "Ġfather": 6474,
      "Ġdrought": 6475,
      "Ġisland": 6476,
      "iratory": 6477,
      "iox": 6478,
      "Ġdefine": 6479,
      "Ġserver": 6480,
      "Ġphotograp": 6481,
      "Ġidentifying": 6482,
      "Ġtrouble": 6483,
      "ĠLearn": 6484,
      "Ġwonderful": 6485,
      "Ġtun": 6486,
      "Ġpun": 6487,
      "Ġfinger": 6488,
      "rape": 6489,
      "Ġfoundation": 6490,
      "Ġrecognized": 6491,
      "ĠAgricult": 6492,
      "Ġappreciate": 6493,
      "Ġdent": 6494,
      "otes": 6495,
      "olved": 6496,
      "ĠSl": 6497,
      "Ġnoted": 6498,
      "ourse": 6499,
      "Ġplanted": 6500,
      "inese": 6501,
      "Ġguarant": 6502,
      "heat": 6503,
      "Ġtown": 6504,
      "Ġnodes": 6505,
      "Ġgal": 6506,
      "cel": 6507,
      "ĠWork": 6508,
      "Ġleak": 6509,
      "ĠHuman": 6510,
      "ĠEqu": 6511,
      "rue": 6512,
      "Ġcoal": 6513,
      "Ġregist": 6514,
      "Ġrelief": 6515,
      "Ġmining": 6516,
      "Ġplayed": 6517,
      "Ġmilitary": 6518,
      "Ġspecialized": 6519,
      "Ġdescription": 6520,
      "Ġrobust": 6521,
      "Ġlandscap": 6522,
      "ĠInternet": 6523,
      "ĠTwo": 6524,
      "Ġbleeding": 6525,
      "91": 6526,
      "Le": 6527,
      "Ġaluminum": 6528,
      "Ġchances": 6529,
      "ĠFore": 6530,
      "ĠOF": 6531,
      "Ġblank": 6532,
      "Ġvariables": 6533,
      "cover": 6534,
      "Ġcapital": 6535,
      "Ġlifes": 6536,
      "Ġsession": 6537,
      "Ġduct": 6538,
      "zymes": 6539,
      "(s": 6540,
      "63": 6541,
      "hav": 6542,
      "Ġbank": 6543,
      "icity": 6544,
      "using": 6545,
      "Ġstones": 6546,
      "ĠCam": 6547,
      "Ġprinter": 6548,
      "rence": 6549,
      "Ġhumidity": 6550,
      "Ġnecessarily": 6551,
      "Ġexciting": 6552,
      "Ġtransportation": 6553,
      "Ġconclud": 6554,
      "73": 6555,
      "86": 6556,
      "lt": 6557,
      "lin": 6558,
      "rat": 6559,
      "Ġsch": 6560,
      "Ġcast": 6561,
      "Ġease": 6562,
      "irty": 6563,
      "Ġalter": 6564,
      "Ġvine": 6565,
      "lder": 6566,
      "ĠGarden": 6567,
      "Ġfollows": 6568,
      "Ġherb": 6569,
      "rastructure": 6570,
      "Ġnuclear": 6571,
      "Every": 6572,
      "ham": 6573,
      "normal": 6574,
      "Ġ{": 6575,
      "Ġtack": 6576,
      "ora": 6577,
      "Ġlies": 6578,
      "ĠDecember": 6579,
      "Ġcommitment": 6580,
      "SA": 6581,
      "Ġgift": 6582,
      "Ġalt": 6583,
      "istent": 6584,
      "rying": 6585,
      "Ġclock": 6586,
      "Ġthanks": 6587,
      "Ġunderst": 6588,
      "Ġgreenhouse": 6589,
      "Ġparticipation": 6590,
      "Ġecological": 6591,
      "Before": 6592,
      "66": 6593,
      "iam": 6594,
      "ðŁ": 6595,
      "Ġsight": 6596,
      "itors": 6597,
      "ilos": 6598,
      "iders": 6599,
      "ĠWashing": 6600,
      "Ġnoticed": 6601,
      "izers": 6602,
      "Ġmanaged": 6603,
      "Ġattach": 6604,
      "Ġlimits": 6605,
      "-the": 6606,
      "Ġdiscomfort": 6607,
      "Ġleader": 6608,
      "Ġprogramming": 6609,
      "ĠCollege": 6610,
      "88": 6611,
      "Ġtick": 6612,
      "Ġtropical": 6613,
      "icted": 6614,
      "Ġinterior": 6615,
      "Ġinterview": 6616,
      "ommod": 6617,
      "Ġfeelings": 6618,
      "Ġimprovement": 6619,
      "Ġsatell": 6620,
      "Ġtissues": 6621,
      "Ġveterin": 6622,
      "Ġdigestive": 6623,
      "Ġintricate": 6624,
      "><": 6625,
      "During": 6626,
      "IR": 6627,
      "PR": 6628,
      "lers": 6629,
      "oids": 6630,
      "ĠFree": 6631,
      "âĢľ": 6632,
      "Ġunw": 6633,
      "Ġapparent": 6634,
      "obe": 6635,
      "Ġears": 6636,
      "ĠExp": 6637,
      "Ġlinear": 6638,
      "Ġautomatically": 6639,
      "Ġantibiotics": 6640,
      "Ġcategory": 6641,
      "uis": 6642,
      "Ġwidth": 6643,
      "Ġdow": 6644,
      "otype": 6645,
      "Ġrecording": 6646,
      "Ġentry": 6647,
      "ĠAmericans": 6648,
      "aughter": 6649,
      "ĠMuseum": 6650,
      "%ĊĊ": 6651,
      "cont": 6652,
      "Ġtables": 6653,
      "Ġsin": 6654,
      "Ġod": 6655,
      "Ġlake": 6656,
      "Ġitem": 6657,
      "ĠBro": 6658,
      "ander": 6659,
      "ĠJour": 6660,
      "Ġamino": 6661,
      "Ġinfected": 6662,
      "Ġclassic": 6663,
      "ĠAdv": 6664,
      "Ġdemonstrate": 6665,
      "Ġflavors": 6666,
      "gent": 6667,
      "top": 6668,
      "Ġfisher": 6669,
      "Ġgases": 6670,
      "Ġbee": 6671,
      "ocy": 6672,
      "Ġbasically": 6673,
      "ounced": 6674,
      "Ġembra": 6675,
      "ĠChildren": 6676,
      "Rel": 6677,
      "TH": 6678,
      "mal": 6679,
      "no": 6680,
      "uous": 6681,
      "hent": 6682,
      "ĠSun": 6683,
      "ĠCB": 6684,
      "Ġapps": 6685,
      "Ġblo": 6686,
      "Ġacts": 6687,
      "Ġsubsequ": 6688,
      "Ġdistingu": 6689,
      "Ġcontainers": 6690,
      "Ġdeli": 6691,
      "Ġharder": 6692,
      "Ġlawn": 6693,
      "ographic": 6694,
      "Ġjoints": 6695,
      "charge": 6696,
      "ĠJapanese": 6697,
      "Ġdimensions": 6698,
      "kay": 6699,
      "Ġnorthern": 6700,
      "Ġyog": 6701,
      "Ġbears": 6702,
      "igue": 6703,
      "acc": 6704,
      "Ġunus": 6705,
      "Ġexperiencing": 6706,
      "ĠCentral": 6707,
      "Ġperfectly": 6708,
      "Ġrespectively": 6709,
      "Ġflexibility": 6710,
      "Ġdiameter": 6711,
      "OW": 6712,
      "mers": 6713,
      "čĊ": 6714,
      "hell": 6715,
      "Ġpairs": 6716,
      "Ġpestic": 6717,
      "Ġcompact": 6718,
      "Ġknew": 6719,
      "ĠGroup": 6720,
      "Ġclients": 6721,
      "anged": 6722,
      "Ġdepos": 6723,
      "Ġmush": 6724,
      "Ġsitting": 6725,
      "ĠCOVID": 6726,
      "ĠAmaz": 6727,
      "ĠSecond": 6728,
      "74": 6729,
      "Don": 6730,
      "iability": 6731,
      "Ġ`": 6732,
      "Ġske": 6733,
      "atric": 6734,
      "Ġcircle": 6735,
      "esides": 6736,
      "ĠClean": 6737,
      "Ġhem": 6738,
      "Ġshru": 6739,
      "ogs": 6740,
      "Ġimpossible": 6741,
      "Ġgenerations": 6742,
      "Ġexercises": 6743,
      "Ġwatching": 6744,
      "ĠAcad": 6745,
      "Ġliterature": 6746,
      "Ġknee": 6747,
      "aired": 6748,
      "reens": 6749,
      "orrect": 6750,
      "amil": 6751,
      "amins": 6752,
      "Ġclus": 6753,
      "Ġbuck": 6754,
      "Ġengagement": 6755,
      "Ġengaging": 6756,
      "Ġgreatly": 6757,
      "Ġcyl": 6758,
      "Ġjobs": 6759,
      "Ġmanufacturers": 6760,
      "Ġconversation": 6761,
      "57": 6762,
      "Te": 6763,
      "Ġcaught": 6764,
      "itness": 6765,
      "alian": 6766,
      "arge": 6767,
      "Ġreb": 6768,
      "ĠDist": 6769,
      "earing": 6770,
      "appe": 6771,
      "Ġparty": 6772,
      "angered": 6773,
      "Ġsky": 6774,
      "Ġlargely": 6775,
      "Ġconcerned": 6776,
      "Ġintroduction": 6777,
      "Ġultimately": 6778,
      "ĠFebruary": 6779,
      "Ġcement": 6780,
      "Ġcognitive": 6781,
      "itches": 6782,
      "Ġjew": 6783,
      "Ġupg": 6784,
      "Ġrocks": 6785,
      "Ġarms": 6786,
      "Ġtrad": 6787,
      "Ġstanding": 6788,
      "apping": 6789,
      "Ġecosystems": 6790,
      "Ġmetabolism": 6791,
      "igenous": 6792,
      "Ġkm": 6793,
      "Ġgrand": 6794,
      "Ġconsideration": 6795,
      "Ġirrit": 6796,
      "Ġcolleag": 6797,
      "Ġchannel": 6798,
      "rass": 6799,
      "ilation": 6800,
      "eles": 6801,
      "Ġrating": 6802,
      "Ġchart": 6803,
      "Ġclub": 6804,
      "Ġtells": 6805,
      "Ġdestroy": 6806,
      "\"Ċ": 6807,
      "aft": 6808,
      "under": 6809,
      "Ġtrick": 6810,
      "Ġmood": 6811,
      "Ġmature": 6812,
      "Ġinch": 6813,
      "Ġdense": 6814,
      "Ġgent": 6815,
      "ĠTime": 6816,
      "Ġworn": 6817,
      "ĠLondon": 6818,
      "assium": 6819,
      "ressed": 6820,
      "ĠInformation": 6821,
      "Ġblend": 6822,
      "Ġindoor": 6823,
      "Ġcoating": 6824,
      "Ġextent": 6825,
      "ometer": 6826,
      "ĠUSA": 6827,
      "Ġrecommendations": 6828,
      "-level": 6829,
      "AB": 6830,
      "gu": 6831,
      "Ġid": 6832,
      "Ġdairy": 6833,
      "omas": 6834,
      "Ġgast": 6835,
      "ĠFish": 6836,
      "Ġsupplies": 6837,
      "Ġattend": 6838,
      "Ġeffectiveness": 6839,
      "Ġmeters": 6840,
      "Ġprotecting": 6841,
      "Ġdifficulty": 6842,
      "Ġjuice": 6843,
      "ĠGerman": 6844,
      "Ġlaboratory": 6845,
      "Keep": 6846,
      "Ġversatile": 6847,
      "Ġwelding": 6848,
      "Che": 6849,
      "tic": 6850,
      "inates": 6851,
      "repre": 6852,
      "Ġcav": 6853,
      "Ġcub": 6854,
      "Ġyes": 6855,
      "empor": 6856,
      "Ġneur": 6857,
      "Ġsupplements": 6858,
      "enger": 6859,
      "Ġcalories": 6860,
      "Ġinteractive": 6861,
      "Ġbringing": 6862,
      "Ġnervous": 6863,
      "Ġpilot": 6864,
      "Ġdelivery": 6865,
      "reprene": 6866,
      ",âĢĿ": 6867,
      "Go": 6868,
      "Ġluck": 6869,
      "Ġstars": 6870,
      "ifts": 6871,
      "Ġasking": 6872,
      "Ġintense": 6873,
      "Ġinfrastructure": 6874,
      "Ġpossibilities": 6875,
      "Ġbiom": 6876,
      "Ġselecting": 6877,
      "ĠGener": 6878,
      "Ġfurniture": 6879,
      "Does": 6880,
      "Ġtough": 6881,
      "Ġreef": 6882,
      "Ġprove": 6883,
      "osc": 6884,
      "Ġwashing": 6885,
      "Ġwatering": 6886,
      "ĠVis": 6887,
      "Ġsupposed": 6888,
      "Ġserved": 6889,
      "Ġprofit": 6890,
      "ometry": 6891,
      "Ġintegr": 6892,
      "Ġmenu": 6893,
      "Ġargument": 6894,
      "OM": 6895,
      "Ġtoys": 6896,
      "Ġduration": 6897,
      "Ġgone": 6898,
      "Ġchosen": 6899,
      "ĠData": 6900,
      "aterials": 6901,
      "Ġrealize": 6902,
      "ĠClimate": 6903,
      "Ġcirculation": 6904,
      "Ġintegration": 6905,
      "ĠÂ·": 6906,
      "Ġchickens": 6907,
      "Ġingredient": 6908,
      "Ġfederal": 6909,
      "Ġneighbor": 6910,
      "ĠProfessor": 6911,
      "ĠAtlantic": 6912,
      "ka": 6913,
      "ushed": 6914,
      "ether": 6915,
      "ĠTry": 6916,
      "Ġongoing": 6917,
      "Ġstems": 6918,
      "ĠSometimes": 6919,
      "aint": 6920,
      "Ġshall": 6921,
      "Ġshorter": 6922,
      "ĠFinally": 6923,
      "Ġadvoc": 6924,
      "Ġidentification": 6925,
      "Ġhappening": 6926,
      "Ġnutritional": 6927,
      "ĠAND": 6928,
      "bility": 6929,
      "gal": 6930,
      "encing": 6931,
      "Ġnerve": 6932,
      "ĠMal": 6933,
      "ĠFind": 6934,
      "ĠFigure": 6935,
      "ources": 6936,
      "ĠUnder": 6937,
      "Ġdepartment": 6938,
      "Ġengines": 6939,
      "Ġremoval": 6940,
      "ĠApple": 6941,
      "Ġfrost": 6942,
      "Ġdivided": 6943,
      "ael": 6944,
      "dy": 6945,
      "lings": 6946,
      "such": 6947,
      "olph": 6948,
      "ĠFire": 6949,
      "Ġcomprom": 6950,
      "Ġtract": 6951,
      "Ġvariation": 6952,
      "Ġpolar": 6953,
      "Ġoils": 6954,
      "Ġnearby": 6955,
      "âĢ¦ĊĊ": 6956,
      "Ġsilver": 6957,
      "Ġbowl": 6958,
      "Ġrepeated": 6959,
      "Ġthoroughly": 6960,
      "Ġmitig": 6961,
      "Ġabsolutely": 6962,
      "Ġvertical": 6963,
      "Ġpermanent": 6964,
      "'.": 6965,
      ".D": 6966,
      "IV": 6967,
      "PC": 6968,
      "Read": 6969,
      "medi": 6970,
      "arbon": 6971,
      "ceans": 6972,
      "illage": 6973,
      "Ġblind": 6974,
      "Ġoverw": 6975,
      "Ġgrows": 6976,
      "Ġexploration": 6977,
      "Ġdelicate": 6978,
      "Ġavailability": 6979,
      "Ġmixing": 6980,
      "ĠOnly": 6981,
      "Ġminimal": 6982,
      "Ġvegetable": 6983,
      "Ġglasses": 6984,
      "Ġspectrum": 6985,
      "Ġcomplicated": 6986,
      "band": 6987,
      "face": 6988,
      "py": 6989,
      "Ġbinding": 6990,
      "Ġmice": 6991,
      "uts": 6992,
      "stances": 6993,
      "Ġrecipes": 6994,
      "ĠStr": 6995,
      "Ġproductivity": 6996,
      "Ġhybrid": 6997,
      "Ġheads": 6998,
      "Ġlift": 6999,
      "ĠMedical": 7000,
      "Ġneighb": 7001,
      "ĠMicrosoft": 7002,
      "Ġsouthern": 7003,
      "Ġca": 7004,
      "Ġfav": 7005,
      "Ġhidden": 7006,
      "heric": 7007,
      "osion": 7008,
      "reating": 7009,
      "Ġfeels": 7010,
      "Ġaccommod": 7011,
      "ĠGuide": 7012,
      "Ġcoastal": 7013,
      "Ġevolved": 7014,
      "67": 7015,
      "94": 7016,
      "Ġorange": 7017,
      "ĠMat": 7018,
      "Ġcompl": 7019,
      "Ġkg": 7020,
      "ĠChinese": 7021,
      "Ġcurriculum": 7022,
      "ditional": 7023,
      "ĠIsland": 7024,
      "Ġyounger": 7025,
      "Ġimplications": 7026,
      "Ġgradually": 7027,
      "Ġeliminate": 7028,
      "Ġtitle": 7029,
      "Ġenthusi": 7030,
      "comp": 7031,
      "esity": 7032,
      "astern": 7033,
      "Ġlact": 7034,
      "rip": 7035,
      "ĠOpt": 7036,
      "Ġclay": 7037,
      "Ġarter": 7038,
      "Ġpharm": 7039,
      "Ġbrake": 7040,
      "Ġcriter": 7041,
      "Ġnarrow": 7042,
      "Ġbiodiversity": 7043,
      "ĠWashington": 7044,
      "rich": 7045,
      "Ġcourses": 7046,
      "ingly": 7047,
      "Ġbub": 7048,
      "Ġgate": 7049,
      "Ġcomments": 7050,
      "this": 7051,
      "ĠBig": 7052,
      "Ġresistant": 7053,
      "Ġspeeds": 7054,
      "Ġlarv": 7055,
      "ĠPlants": 7056,
      "Ġestimate": 7057,
      "Ġobserve": 7058,
      "Ġpropag": 7059,
      "Ġfibers": 7060,
      "flies": 7061,
      "Ġhazard": 7062,
      "ynthesis": 7063,
      "feeding": 7064,
      "field": 7065,
      "Ġpill": 7066,
      "edge": 7067,
      "Ġlip": 7068,
      "Ġreson": 7069,
      "Ġgoods": 7070,
      "ontal": 7071,
      "Ġaffecting": 7072,
      "Ġsmoke": 7073,
      "Ġinstitutions": 7074,
      "Ġlifespan": 7075,
      "##": 7076,
      "77": 7077,
      "81": 7078,
      "Ġwast": 7079,
      "orld": 7080,
      "icit": 7081,
      "Ġreached": 7082,
      "ĠTer": 7083,
      "oli": 7084,
      "Ġdealing": 7085,
      "ĠPal": 7086,
      "Ġru": 7087,
      "Ġresolution": 7088,
      "Ġjoy": 7089,
      "Ġpartner": 7090,
      "Ġaccomp": 7091,
      "Ġcorpor": 7092,
      "Ġartist": 7093,
      "-pro": 7094,
      "Ġfacility": 7095,
      "ĠMoreover": 7096,
      "imensional": 7097,
      "\"We": 7098,
      "fit": 7099,
      "mas": 7100,
      "word": 7101,
      "anish": 7102,
      "ĠPost": 7103,
      "Ġintensity": 7104,
      "agine": 7105,
      "Ġappoint": 7106,
      "Ġdied": 7107,
      "Ġassume": 7108,
      "Ġencounter": 7109,
      "Ġdietary": 7110,
      "Ġpredators": 7111,
      "Ġcontributing": 7112,
      "Ġbacterial": 7113,
      "Ġsubjects": 7114,
      "stein": 7115,
      "ĠMexico": 7116,
      "Ġempty": 7117,
      "PU": 7118,
      "cific": 7119,
      "net": 7120,
      "erts": 7121,
      "Ġow": 7122,
      "isk": 7123,
      "urb": 7124,
      "irts": 7125,
      "Ġshark": 7126,
      "Ġroles": 7127,
      "berg": 7128,
      "phones": 7129,
      "Ġgreatest": 7130,
      "Ġinvolving": 7131,
      "ĠPhil": 7132,
      "Ġlaunch": 7133,
      "Ġbonds": 7134,
      "ĠSimilar": 7135,
      "Ġarchitecture": 7136,
      "Ġveloc": 7137,
      "Other": 7138,
      "sm": 7139,
      "hered": 7140,
      "Ġwings": 7141,
      "Ġlivestock": 7142,
      "Ġstabil": 7143,
      "ĠSal": 7144,
      "ading": 7145,
      "umes": 7146,
      "ĠEss": 7147,
      "Ġcompens": 7148,
      "ĠVe": 7149,
      "Ġdecline": 7150,
      "Ġdocuments": 7151,
      "Ġvitamins": 7152,
      "Ġimmediate": 7153,
      "Ġflexible": 7154,
      "Ġvessels": 7155,
      "Ġchromos": 7156,
      "-old": 7157,
      "Red": 7158,
      "Ġfriction": 7159,
      "avy": 7160,
      "obal": 7161,
      "Ġartists": 7162,
      "Ġanalog": 7163,
      "Ġenhancing": 7164,
      "Also": 7165,
      "Ġmessages": 7166,
      "ĠRegular": 7167,
      "Ġaquarium": 7168,
      "Ġexhibit": 7169,
      "Ġbottle": 7170,
      "Ġremarkable": 7171,
      "DS": 7172,
      "sor": 7173,
      "itage": 7174,
      "Ġpipe": 7175,
      "Ġpipes": 7176,
      "Ġeco": 7177,
      "ĠId": 7178,
      "Ġdeploy": 7179,
      "Ġchip": 7180,
      "Ġatomic": 7181,
      "Ġmanif": 7182,
      "Ġtracking": 7183,
      "Ġsubs": 7184,
      "aws": 7185,
      "ĠThose": 7186,
      "Ġreceiving": 7187,
      "Ġintroduce": 7188,
      "Ġwaiting": 7189,
      "fra": 7190,
      "ĠAR": 7191,
      "ĠID": 7192,
      "ĠMS": 7193,
      "Ġdoors": 7194,
      "Inst": 7195,
      "Ġprotocol": 7196,
      "Ġexperimental": 7197,
      "Ġaffordable": 7198,
      "Ġgirls": 7199,
      "Ġenabling": 7200,
      "Ġexplanation": 7201,
      "Ġrect": 7202,
      "illa": 7203,
      "Ġshower": 7204,
      "ĠHol": 7205,
      "ĠHouse": 7206,
      "Ġrecover": 7207,
      "ĠâĢĺ": 7208,
      "Ġvisitors": 7209,
      "Ġcategories": 7210,
      "Ġvaccine": 7211,
      "Ġexpansion": 7212,
      "ioxid": 7213,
      "78": 7214,
      "Ġsenior": 7215,
      "ĠSA": 7216,
      "Ġgravity": 7217,
      "Ġauto": 7218,
      "Ġcalm": 7219,
      "Ġprevention": 7220,
      "Ġcharacteristic": 7221,
      "Ġframes": 7222,
      "Ġexcited": 7223,
      "Ġrestaurant": 7224,
      ");": 7225,
      "then": 7226,
      "~~": 7227,
      "Ġbeam": 7228,
      "igital": 7229,
      "ĠOh": 7230,
      "Ġtraits": 7231,
      "Ġreaders": 7232,
      "Ġretur": 7233,
      "Ġdescribes": 7234,
      "Ġcalculated": 7235,
      "Share": 7236,
      "Ġdynamics": 7237,
      "ĠAvoid": 7238,
      "Ġtast": 7239,
      "Ġson": 7240,
      "Ġalkal": 7241,
      "althy": 7242,
      "Ġcarbohyd": 7243,
      "atively": 7244,
      "Ġregional": 7245,
      "Ġreput": 7246,
      "Ġrequest": 7247,
      "iances": 7248,
      "ports": 7249,
      "ĠShould": 7250,
      "Ġfocusing": 7251,
      "Ġalternatives": 7252,
      "Ġburning": 7253,
      "Ġregardless": 7254,
      "ĠDevelopment": 7255,
      "Tra": 7256,
      "ĠMount": 7257,
      "Ġatom": 7258,
      "ĠNAS": 7259,
      "ĠUnderstanding": 7260,
      "Ġforming": 7261,
      "Ġinsulation": 7262,
      "Ġentreprene": 7263,
      "Ġequipped": 7264,
      "Ġidentity": 7265,
      "ĠArch": 7266,
      "Ġquantity": 7267,
      "Ġobservations": 7268,
      "Ġplatforms": 7269,
      "Ġreproductive": 7270,
      "Ġvulnerable": 7271,
      "Ġodd": 7272,
      "ĠSing": 7273,
      "amily": 7274,
      "ĠCouncil": 7275,
      "antly": 7276,
      "outs": 7277,
      "Ġperce": 7278,
      "Ġourselves": 7279,
      "Ġprone": 7280,
      "Ġvet": 7281,
      "ometric": 7282,
      "Ġimplemented": 7283,
      "ĠFrance": 7284,
      ".org": 7285,
      "Have": 7286,
      "do": 7287,
      "van": 7288,
      "ww": 7289,
      "Ġmul": 7290,
      "Ġlithium": 7291,
      "pection": 7292,
      "ĠPan": 7293,
      "Ġenzymes": 7294,
      "rium": 7295,
      "Ġcomposed": 7296,
      "Ġkick": 7297,
      "ruit": 7298,
      "Ġspeaking": 7299,
      "ĠProcess": 7300,
      "Ġcharged": 7301,
      "Ġfunctioning": 7302,
      "Ġpassing": 7303,
      "Ġimplementation": 7304,
      "Ġaims": 7305,
      "Ġrarely": 7306,
      "Ġdurable": 7307,
      "MI": 7308,
      "night": 7309,
      "||": 7310,
      "ìĿ": 7311,
      "Ġmer": 7312,
      "utive": 7313,
      "rays": 7314,
      "Ġrivers": 7315,
      "ĠRet": 7316,
      "anger": 7317,
      "Ġcellular": 7318,
      "Ġprecision": 7319,
      "Of": 7320,
      "berry": 7321,
      "ubric": 7322,
      "Ġhealthier": 7323,
      "Ġphilos": 7324,
      "Ġrespiratory": 7325,
      "Ġcomplexity": 7326,
      "Ġembry": 7327,
      "Ġaggressive": 7328,
      "Ġculinary": 7329,
      "//": 7330,
      "Ġmes": 7331,
      "Ġsched": 7332,
      "taining": 7333,
      "Ġadvis": 7334,
      "Ġparticipate": 7335,
      "proof": 7336,
      "riday": 7337,
      "Ġsynthetic": 7338,
      "Ġrubber": 7339,
      "pm": 7340,
      "Ġaward": 7341,
      "Ġtherap": 7342,
      "Ġwine": 7343,
      "itivity": 7344,
      "orge": 7345,
      "star": 7346,
      "ĠRad": 7347,
      "pling": 7348,
      "Ġindeed": 7349,
      "Ġformal": 7350,
      "Ġhyper": 7351,
      "Ġinterests": 7352,
      "Ġfitness": 7353,
      "Ġethical": 7354,
      "Ġsexual": 7355,
      "Ġsodium": 7356,
      "-P": 7357,
      "OL": 7358,
      "Understanding": 7359,
      "atus": 7360,
      "Ġtoile": 7361,
      "Ġdrops": 7362,
      "Ġbeef": 7363,
      "opes": 7364,
      "osaur": 7365,
      "action": 7366,
      "reatment": 7367,
      "Ġprocessed": 7368,
      "Ġdetected": 7369,
      "Ġglut": 7370,
      "Ġdirector": 7371,
      "Ġcompetitive": 7372,
      "osaurs": 7373,
      "Ġcater": 7374,
      "ctu": 7375,
      "ulator": 7376,
      "ĠPublic": 7377,
      "Ġranging": 7378,
      "ĠDel": 7379,
      "ude": 7380,
      "ĠFin": 7381,
      "ĠGovern": 7382,
      "Ġprocessor": 7383,
      "Ġphosph": 7384,
      "lessly": 7385,
      "Ġgrid": 7386,
      "Ġcataly": 7387,
      "Ġconsumer": 7388,
      "Ġforeign": 7389,
      "Ġsnail": 7390,
      "Ġcovering": 7391,
      "Ġsequences": 7392,
      "Ġsuscept": 7393,
      "Ġdemonstrated": 7394,
      "Ġreplacement": 7395,
      "Ġsessions": 7396,
      "Ġkidney": 7397,
      "Ġpotatoes": 7398,
      "ĠHelp": 7399,
      "ĠMedicine": 7400,
      "69": 7401,
      "79": 7402,
      "Ġbrick": 7403,
      "Ġbeach": 7404,
      "ĠSy": 7405,
      "Ġdisrupt": 7406,
      "Ġsyndrome": 7407,
      "Ġagent": 7408,
      "Ġrepairs": 7409,
      "Ġinstrum": 7410,
      "Ġcycles": 7411,
      "Ġdegrad": 7412,
      "Ġextraction": 7413,
      "zyme": 7414,
      "Ġsavings": 7415,
      "Ġbathroom": 7416,
      "ĠSuper": 7417,
      "Ġconflict": 7418,
      "Ġlungs": 7419,
      "Ġfingers": 7420,
      "Ġwider": 7421,
      "Ġpink": 7422,
      "icide": 7423,
      "Ġexchange": 7424,
      "ĠMa": 7425,
      "ĠMach": 7426,
      "Ġunable": 7427,
      "Ġuniform": 7428,
      "ĠYear": 7429,
      "luding": 7430,
      "ools": 7431,
      "Ġfunctionality": 7432,
      "being": 7433,
      "Ġfocuses": 7434,
      "ĠConst": 7435,
      "Which": 7436,
      "Ġenhanced": 7437,
      "Ġvacuum": 7438,
      "Ġdiagnosed": 7439,
      "Ġstimul": 7440,
      "Ġnavigate": 7441,
      "Ġcampaign": 7442,
      ".'": 7443,
      "MP": 7444,
      "Note": 7445,
      "wo": 7446,
      "Ġtire": 7447,
      "Ġmine": 7448,
      "Ġdil": 7449,
      "ĠSil": 7450,
      "Ġsections": 7451,
      "ĠBack": 7452,
      "Ġkilled": 7453,
      "Ġfever": 7454,
      "Ġconscious": 7455,
      "ĠStand": 7456,
      "ĠChoose": 7457,
      "Ġdefault": 7458,
      "Ġfreedom": 7459,
      "Ġwarning": 7460,
      "Ġdistributed": 7461,
      "Ġanalyze": 7462,
      "Ġincorporating": 7463,
      "Ġshooting": 7464,
      "-day": 7465,
      "BC": 7466,
      "EE": 7467,
      "hea": 7468,
      "Ġsaving": 7469,
      "Ġpound": 7470,
      "Ġnor": 7471,
      "Ġnine": 7472,
      "Ġvan": 7473,
      "ptic": 7474,
      "ĠNative": 7475,
      "Ġregulation": 7476,
      "Ġtransformation": 7477,
      "Ġpreserve": 7478,
      "Ġcurve": 7479,
      "Ġserving": 7480,
      "roduct": 7481,
      "Ġhimself": 7482,
      "Ġcabin": 7483,
      "Ġjewel": 7484,
      "bra": 7485,
      "oral": 7486,
      "Ġgently": 7487,
      "una": 7488,
      "Ġconserv": 7489,
      "Ġoffic": 7490,
      "Ġexamine": 7491,
      "Ġcoral": 7492,
      "Ġtreating": 7493,
      "Ġdrawn": 7494,
      "exp": 7495,
      "Ġescape": 7496,
      "ĠNews": 7497,
      "Ġdecreased": 7498,
      "Ġadoption": 7499,
      "Ġdrainage": 7500,
      "-con": 7501,
      "82": 7502,
      "Ġdive": 7503,
      "Ġgender": 7504,
      "Ġorient": 7505,
      "ĠFollow": 7506,
      "duction": 7507,
      "ints": 7508,
      "Ġproven": 7509,
      "Ġinfest": 7510,
      "Ġentertain": 7511,
      "Ġoccurred": 7512,
      "ĠAtt": 7513,
      "ĠConf": 7514,
      "ENT": 7515,
      "Ġcircumstances": 7516,
      "Ġunderstood": 7517,
      "Pr": 7518,
      "bow": 7519,
      "lation": 7520,
      "Ġsoph": 7521,
      "Ġvict": 7522,
      "Ġriding": 7523,
      "ĠHard": 7524,
      "ults": 7525,
      "Ġspat": 7526,
      "Ġdesk": 7527,
      "Ġdecay": 7528,
      "-by": 7529,
      "agnetic": 7530,
      "Ġexistence": 7531,
      "Ġinitially": 7532,
      "Ġestimates": 7533,
      "Ġsharks": 7534,
      "Ġupdated": 7535,
      "Ġmetabolic": 7536,
      "ĠDogs": 7537,
      "ĠWildlife": 7538,
      ".The": 7539,
      "87": 7540,
      "CD": 7541,
      "ĠCell": 7542,
      "arded": 7543,
      "Ġincome": 7544,
      "ooked": 7545,
      "Ġinspect": 7546,
      "Ġorganized": 7547,
      "Ġevolutionary": 7548,
      "Ġconvenient": 7549,
      "Ġcolleagues": 7550,
      ".C": 7551,
      "Because": 7552,
      "Just": 7553,
      "Well": 7554,
      "zed": 7555,
      "Ġarom": 7556,
      "Ġborder": 7557,
      "Ġfrust": 7558,
      "Ġforced": 7559,
      "Ġrou": 7560,
      "Ġdoctors": 7561,
      "Ġshouldn": 7562,
      "ĠPlay": 7563,
      "Ġcombine": 7564,
      "ĠAmazon": 7565,
      "Ġcann": 7566,
      "Ġdeer": 7567,
      "ĠDraw": 7568,
      "ĠFalse": 7569,
      "Ġsoap": 7570,
      "Ġscript": 7571,
      "Ġchest": 7572,
      "Ġvariations": 7573,
      "Ġauthent": 7574,
      "Ġcultures": 7575,
      "ĠSafety": 7576,
      "-W": 7577,
      "RA": 7578,
      "Ġton": 7579,
      "erior": 7580,
      "Ġpond": 7581,
      "Ġine": 7582,
      "Ġthrow": 7583,
      "cture": 7584,
      "etime": 7585,
      "owing": 7586,
      "otive": 7587,
      "Ġstead": 7588,
      "ĠCur": 7589,
      "Ġusual": 7590,
      "ĠDise": 7591,
      "alls": 7592,
      "ogether": 7593,
      "Ġpeak": 7594,
      "Ġrealm": 7595,
      "Ġsalmon": 7596,
      "Ġrepresented": 7597,
      "while": 7598,
      "Ġabsorption": 7599,
      "Ġcarrying": 7600,
      "Ġbrands": 7601,
      "herent": 7602,
      "ĠCamp": 7603,
      "ĠMo": 7604,
      "ideo": 7605,
      "ultane": 7606,
      "ĠVir": 7607,
      "Ġdiscipl": 7608,
      "Ġconfident": 7609,
      "Ġfalling": 7610,
      "forcement": 7611,
      "Ġinsulin": 7612,
      "Even": 7613,
      "rical": 7614,
      "Ġpix": 7615,
      "Ġstorm": 7616,
      "ĠBest": 7617,
      "ĠEnd": 7618,
      "Ġscales": 7619,
      "ritis": 7620,
      "ĠAsian": 7621,
      "Ġperforming": 7622,
      "Ġcombat": 7623,
      "Ġoccurring": 7624,
      "ĠSee": 7625,
      "Ġfatigue": 7626,
      "Ġdried": 7627,
      "ĠConservation": 7628,
      "Ġsuffering": 7629,
      "ĠSystems": 7630,
      "Ġhousing": 7631,
      "Ġcandid": 7632,
      "Ġgentle": 7633,
      "GB": 7634,
      "oir": 7635,
      "pes": 7636,
      "rument": 7637,
      "win": 7638,
      "aning": 7639,
      "Ġduck": 7640,
      "Ġnone": 7641,
      "Ġnail": 7642,
      "olves": 7643,
      "ami": 7644,
      "ĠDire": 7645,
      "Ġprevents": 7646,
      "Ġgrain": 7647,
      "Ġopened": 7648,
      "Ġmarked": 7649,
      "Ġlaun": 7650,
      "Ġinvestigate": 7651,
      "84": 7652,
      "ds": 7653,
      "zil": 7654,
      "reated": 7655,
      "rene": 7656,
      "Ġsou": 7657,
      "Ġreaching": 7658,
      "Ġproof": 7659,
      "Ġweed": 7660,
      "Ġspr": 7661,
      "Ġtrial": 7662,
      "Ġraising": 7663,
      "cknow": 7664,
      "plete": 7665,
      "Ġaccurately": 7666,
      "Ġgolden": 7667,
      "ython": 7668,
      "Ġunusual": 7669,
      "Ġlarvae": 7670,
      "CT": 7671,
      "cal": 7672,
      "mble": 7673,
      "pat": 7674,
      "ita": 7675,
      "Ġdip": 7676,
      "Ġloud": 7677,
      "umbers": 7678,
      "mented": 7679,
      "ĠMax": 7680,
      "Ġroughly": 7681,
      "Ġplot": 7682,
      "Ġuniversity": 7683,
      "ĠIncre": 7684,
      "ĠProduct": 7685,
      "Ġdefect": 7686,
      "ĠThanks": 7687,
      "Ġletter": 7688,
      "Ġbarrel": 7689,
      "Ġrevealed": 7690,
      "ĠHyd": 7691,
      "Ġcocoa": 7692,
      "Make": 7693,
      "ïĤ": 7694,
      "Ġsan": 7695,
      "Ġstreet": 7696,
      "ĠBr": 7697,
      "rian": 7698,
      "agers": 7699,
      "Ġsoy": 7700,
      "aped": 7701,
      "Ġshowc": 7702,
      "Ġaddressing": 7703,
      "Ġadapted": 7704,
      "ĠPhotos": 7705,
      "Ġholid": 7706,
      "LA": 7707,
      "Î¸": 7708,
      "Ġcord": 7709,
      "Ġbare": 7710,
      "Ġfalse": 7711,
      "Ġlapt": 7712,
      "Ġlighter": 7713,
      "Ġyard": 7714,
      "ola": 7715,
      "ĠSuch": 7716,
      "Ġheater": 7717,
      "ĠBul": 7718,
      "rous": 7719,
      "ĠEU": 7720,
      "Ġinvasive": 7721,
      "Ġcleaner": 7722,
      "Ġcombust": 7723,
      "Ġposts": 7724,
      "Ġterrit": 7725,
      "Ġviews": 7726,
      "Ġpaying": 7727,
      "Ġbabies": 7728,
      "Ġevaluate": 7729,
      "Ġmultipl": 7730,
      "Ġadventure": 7731,
      "Ġchamber": 7732,
      "Sim": 7733,
      "fast": 7734,
      "iking": 7735,
      "Ġsoci": 7736,
      "Ġmask": 7737,
      "Ġhal": 7738,
      "Ġster": 7739,
      "anta": 7740,
      "Ġchol": 7741,
      "ags": 7742,
      "ĠOx": 7743,
      "Ġunex": 7744,
      "Ġdisappe": 7745,
      "cycl": 7746,
      "ĠChange": 7747,
      "Ġentering": 7748,
      "Ġcenturies": 7749,
      "Ġpositions": 7750,
      "Ġpackage": 7751,
      "ĠCommun": 7752,
      "ĠAustralian": 7753,
      "Ġaxis": 7754,
      "ĠGermany": 7755,
      "Ġcitizens": 7756,
      "Ġveterinarian": 7757,
      "emporary": 7758,
      "bage": 7759,
      "born": 7760,
      "oop": 7761,
      "oons": 7762,
      "ville": 7763,
      "Â·": 7764,
      "arks": 7765,
      "utrition": 7766,
      "ĠCit": 7767,
      "Ġrough": 7768,
      "Ġshock": 7769,
      "Ġspark": 7770,
      "Ġdifferently": 7771,
      "Ġobesity": 7772,
      "ucks": 7773,
      "Ġcorros": 7774,
      "Ġrising": 7775,
      "Ġeleph": 7776,
      "-dimensional": 7777,
      "Ġradi": 7778,
      "Ġprobability": 7779,
      "Ġfuels": 7780,
      "Ġtotally": 7781,
      "Ġconsistency": 7782,
      "Ġroute": 7783,
      "Ġgarlic": 7784,
      "Ġincredibly": 7785,
      "ĠJournal": 7786,
      "ĠNASA": 7787,
      "83": 7788,
      "rance": 7789,
      "Ġwra": 7790,
      "Ġmere": 7791,
      "Ġdys": 7792,
      "Ġreverse": 7793,
      "ĠForm": 7794,
      "Ġunknown": 7795,
      "Ġcolored": 7796,
      "Ġremed": 7797,
      "Ġtreats": 7798,
      "ĠPlace": 7799,
      "Ġrequirement": 7800,
      "Ġengineers": 7801,
      "Ġfalls": 7802,
      "Ġattractive": 7803,
      "Ġincorporate": 7804,
      "Ġagreement": 7805,
      "rapeut": 7806,
      "-cl": 7807,
      "HD": 7808,
      "IP": 7809,
      "inent": 7810,
      "Ġoceans": 7811,
      "iments": 7812,
      "ĠTO": 7813,
      "urp": 7814,
      "illation": 7815,
      "Ġplacing": 7816,
      "ulture": 7817,
      "ĠUV": 7818,
      "berries": 7819,
      "Ġaging": 7820,
      "oving": 7821,
      "efits": 7822,
      "Ġpresents": 7823,
      "Ġaquatic": 7824,
      "Ġrecycled": 7825,
      "Ġsurprising": 7826,
      "Ġcomplications": 7827,
      "Ġstruggle": 7828,
      "About": 7829,
      "Am": 7830,
      "Aut": 7831,
      "Fe": 7832,
      "Water": 7833,
      "oin": 7834,
      "rey": 7835,
      "Ġcow": 7836,
      "Ġmouse": 7837,
      "Ġreaches": 7838,
      "Ġbeet": 7839,
      "ĠDC": 7840,
      "ĠFIG": 7841,
      "ĠRight": 7842,
      "Ġdispl": 7843,
      "Ġneedle": 7844,
      "Ġindex": 7845,
      "ĠJe": 7846,
      "Ġherbs": 7847,
      "Ġdriven": 7848,
      "atching": 7849,
      "Ġcenters": 7850,
      "Ġconstit": 7851,
      "Ġfaced": 7852,
      "-making": 7853,
      "Ġincredible": 7854,
      "Ġintegrity": 7855,
      "Ġtal": 7856,
      "rog": 7857,
      "Ġanat": 7858,
      "ĠCy": 7859,
      "Ġsheep": 7860,
      "Ġbusy": 7861,
      "Ġworkshop": 7862,
      "Ġbrother": 7863,
      "coming": 7864,
      "Ġvegetation": 7865,
      "Ġtender": 7866,
      "Ġfertilizer": 7867,
      "rizona": 7868,
      "FT": 7869,
      "tles": 7870,
      "Ġcas": 7871,
      "itative": 7872,
      "Ġmob": 7873,
      "oto": 7874,
      "ĠSam": 7875,
      "Ġsole": 7876,
      "aph": 7877,
      "Ġfeather": 7878,
      "Ġaccidents": 7879,
      "ĠProper": 7880,
      "Ġdirections": 7881,
      "Ġantioxid": 7882,
      "Ġfarms": 7883,
      "Ġsmoking": 7884,
      "Ġgirl": 7885,
      "ongevity": 7886,
      "cos": 7887,
      "ounce": 7888,
      "ĠCD": 7889,
      "uma": 7890,
      "thritis": 7891,
      "ĠPract": 7892,
      "ocr": 7893,
      "Ġclient": 7894,
      "Ġspider": 7895,
      "Ġboil": 7896,
      "Ġdelve": 7897,
      "ushing": 7898,
      "ersonal": 7899,
      "Ġboundaries": 7900,
      "ĠÃ": 7901,
      "esus": 7902,
      "aria": 7903,
      "Ġdot": 7904,
      "icular": 7905,
      "roat": 7906,
      "Ġham": 7907,
      "rained": 7908,
      "unting": 7909,
      "ĠJames": 7910,
      "Ġedit": 7911,
      "Ġpresentation": 7912,
      "afe": 7913,
      "Ġlistening": 7914,
      "Ġcaptiv": 7915,
      "Ġfulf": 7916,
      "Ġpriority": 7917,
      "Ġthreats": 7918,
      "Ġdependent": 7919,
      "Ġconfiguration": 7920,
      "76": 7921,
      "iological": 7922,
      "war": 7923,
      "Ġtens": 7924,
      "etal": 7925,
      "ĠAlex": 7926,
      "Ġstir": 7927,
      "estone": 7928,
      "Ġvom": 7929,
      "Ġsug": 7930,
      "Ġshaft": 7931,
      "ogens": 7932,
      "Ġscar": 7933,
      "chnology": 7934,
      "engers": 7935,
      "Ġbelie": 7936,
      "Ġcris": 7937,
      "ĠIndust": 7938,
      "Ġversions": 7939,
      "Chapter": 7940,
      "Â°F": 7941,
      "Ġhouses": 7942,
      "Ġhormone": 7943,
      "ĠAgriculture": 7944,
      "AI": 7945,
      "CC": 7946,
      "inf": 7947,
      "othe": 7948,
      "olving": 7949,
      "ĠBur": 7950,
      "ĠNeed": 7951,
      "Ġdesire": 7952,
      "ovascular": 7953,
      "Ġboiling": 7954,
      "Ġpersonality": 7955,
      "Ġcomputing": 7956,
      "itudes": 7957,
      "ependent": 7958,
      "Ġlimitations": 7959,
      "Like": 7960,
      "Rep": 7961,
      "bar": 7962,
      "kers": 7963,
      "Ġaids": 7964,
      "Ġfant": 7965,
      "Ġvaries": 7966,
      "Ġenzyme": 7967,
      "iva": 7968,
      "ĠEc": 7969,
      "ĠLeg": 7970,
      "Ġgrains": 7971,
      "Ġediting": 7972,
      "ercise": 7973,
      "Ġcrack": 7974,
      "Ġdeaths": 7975,
      "Ġutilize": 7976,
      "Ġshelter": 7977,
      "Ġhypothes": 7978,
      "Ġwestern": 7979,
      "Ġtons": 7980,
      "Ġpand": 7981,
      "Ġpine": 7982,
      "Ġbind": 7983,
      "Ġlung": 7984,
      "ĠBal": 7985,
      "ĠFace": 7986,
      "ĠLibr": 7987,
      "Ġresc": 7988,
      "Ġdiffer": 7989,
      "Ġrays": 7990,
      "Ġrelation": 7991,
      "Ġtechnological": 7992,
      "Ġcurious": 7993,
      "ĠAnimal": 7994,
      "ĠSpace": 7995,
      "hemistry": 7996,
      "Ġcontributes": 7997,
      "Ġera": 7998,
      "Ġviruses": 7999,
      "esterol": 8000,
      "Ġhonest": 8001,
      "Med": 8002,
      "pread": 8003,
      "|Ċ": 8004,
      "ĠTips": 8005,
      "amination": 8006,
      "Ġplas": 8007,
      "ria": 8008,
      "ĠGM": 8009,
      "Ġtech": 8010,
      "Ġcheaper": 8011,
      "Ġinvent": 8012,
      "Ġfinds": 8013,
      "certain": 8014,
      "Ġmoon": 8015,
      "Ġmatters": 8016,
      "Ġemployed": 8017,
      "Ġroads": 8018,
      "Ġdanger": 8019,
      "ĠBetween": 8020,
      "-E": 8021,
      "Com": 8022,
      "SI": 8023,
      "Sm": 8024,
      "Ġpra": 8025,
      "Ġfuse": 8026,
      "Ġdies": 8027,
      "ĠSym": 8028,
      "Ġschem": 8029,
      "Ġquiet": 8030,
      "Ġsetup": 8031,
      "Ġanalys": 8032,
      "Ġscientist": 8033,
      "Ġcircular": 8034,
      "Ġmarks": 8035,
      "ometers": 8036,
      "Ġcharacterized": 8037,
      "ĠCentre": 8038,
      "Ġpurchasing": 8039,
      "ĠDespite": 8040,
      "Ġupdate": 8041,
      "Ġsatellite": 8042,
      "Ġcriteria": 8043,
      "-v": 8044,
      "ca": 8045,
      "uty": 8046,
      "ĠWord": 8047,
      "isted": 8048,
      "ĠBook": 8049,
      "Ġranges": 8050,
      "Ġovercome": 8051,
      "lectric": 8052,
      "Ġagency": 8053,
      "othing": 8054,
      "Ġinstrument": 8055,
      "Ġcrew": 8056,
      "Ġsheets": 8057,
      "Ġcrust": 8058,
      "ĠBlue": 8059,
      "Ġseparation": 8060,
      "ĠQuestions": 8061,
      "Ġcontrolling": 8062,
      "Ġbattle": 8063,
      "Ġdurability": 8064,
      "ĠEngineering": 8065,
      "ĠDavid": 8066,
      "Related": 8067,
      "-and": 8068,
      "Man": 8069,
      "Ġwing": 8070,
      "Ġlux": 8071,
      "Ġrear": 8072,
      "ĠType": 8073,
      "adder": 8074,
      "ĠHor": 8075,
      "Ġtheme": 8076,
      "Ġsomewhat": 8077,
      "Ġappeal": 8078,
      "Ġmagnet": 8079,
      "Ġharness": 8080,
      "Ġverte": 8081,
      "addle": 8082,
      "ĠServices": 8083,
      "Ġparasites": 8084,
      "oustic": 8085,
      "lear": 8086,
      "advant": 8087,
      "Ġven": 8088,
      "Ġplain": 8089,
      "Ġtransmit": 8090,
      "Ġsimultane": 8091,
      "Ġextension": 8092,
      "Ġgray": 8093,
      "ĠUnfortunately": 8094,
      "Ġorganism": 8095,
      "Ġrestrict": 8096,
      "Ġessentially": 8097,
      "Ġfootprint": 8098,
      "Ġreviews": 8099,
      "ranch": 8100,
      "Ġdivision": 8101,
      "AA": 8102,
      "OC": 8103,
      "Ġille": 8104,
      "onom": 8105,
      "Ġselling": 8106,
      "Ġlosing": 8107,
      "Ġvapor": 8108,
      "ĠMr": 8109,
      "Ġenerg": 8110,
      "rame": 8111,
      "everal": 8112,
      "Ġdrying": 8113,
      "ĠCarol": 8114,
      "Ġsplit": 8115,
      "Ġdollars": 8116,
      "Ġbridge": 8117,
      "Ġvelocity": 8118,
      "Ne": 8119,
      "ikes": 8120,
      "Ġ%": 8121,
      "Ġsle": 8122,
      "Ġpip": 8123,
      "Ġhat": 8124,
      "utch": 8125,
      "Ġstuck": 8126,
      "Ġexists": 8127,
      "Ġadhes": 8128,
      "ĠLou": 8129,
      "Ġpreval": 8130,
      "Ġbreaks": 8131,
      "Ġnuts": 8132,
      "Ġappliances": 8133,
      "ĠMaybe": 8134,
      "Ġprivacy": 8135,
      "Ġinfluenced": 8136,
      "Ġresilience": 8137,
      "Ġoverwhel": 8138,
      ",ĊĊ": 8139,
      "lock": 8140,
      "Ġbought": 8141,
      "Ġinher": 8142,
      "Ġdolph": 8143,
      "Ġrept": 8144,
      "Ġgiant": 8145,
      "ĠTable": 8146,
      "Ġstated": 8147,
      "ĠPet": 8148,
      "ĠRoad": 8149,
      "Ġadverse": 8150,
      "ĠLow": 8151,
      "Ġteen": 8152,
      "Ġarts": 8153,
      "Ġthereby": 8154,
      "tee": 8155,
      "Ġflash": 8156,
      "Ġchecking": 8157,
      "ĠProv": 8158,
      "Ġsoils": 8159,
      "Ġletters": 8160,
      "Ġcuts": 8161,
      "Ġpersonalized": 8162,
      "Ġstatist": 8163,
      "working": 8164,
      "Ġconversion": 8165,
      "Ġchannels": 8166,
      "Ġathletes": 8167,
      "-L": 8168,
      "],": 8169,
      "icians": 8170,
      "amps": 8171,
      "ĠCa": 8172,
      "Ġexterior": 8173,
      "Ġchat": 8174,
      "Ġimaging": 8175,
      "Ġoutl": 8176,
      "Ġspinal": 8177,
      "Ġemit": 8178,
      "pha": 8179,
      "Ġgenerating": 8180,
      "Ġcorrel": 8181,
      "Ġmarkets": 8182,
      "ĠWithout": 8183,
      "Ġgrew": 8184,
      "Ġpenet": 8185,
      "pres": 8186,
      "ittle": 8187,
      "icul": 8188,
      "Ġlubric": 8189,
      "Ġrender": 8190,
      "ĠBu": 8191,
      "Ġchips": 8192,
      "ĠDisc": 8193,
      "Ġperm": 8194,
      "Ġcarb": 8195,
      "Ġsurve": 8196,
      "Ġexamination": 8197,
      "Ġmetric": 8198,
      "Ġphysically": 8199,
      "Ġobjective": 8200,
      "Ġbarrier": 8201,
      "Ġangles": 8202,
      "Ġirrig": 8203,
      "CAA": 8204,
      "Ġsatisfact": 8205,
      "Ġstretch": 8206,
      "People": 8207,
      "-T": 8208,
      "Ġlongevity": 8209,
      "Ġbeer": 8210,
      "ĠTrue": 8211,
      "ĠNO": 8212,
      "ĠLabor": 8213,
      "Ġflies": 8214,
      "Ġcoverage": 8215,
      "Ġcomplement": 8216,
      "Ġconsumed": 8217,
      "Ġimprovements": 8218,
      "ĠZe": 8219,
      "Ġrepresentation": 8220,
      "ĠLevel": 8221,
      "Expl": 8222,
      "Ġinspired": 8223,
      "Ġmagic": 8224,
      "Art": 8225,
      "Ġsoda": 8226,
      "den": 8227,
      "iner": 8228,
      "Ġber": 8229,
      "Ġbol": 8230,
      "Ġbrows": 8231,
      "oted": 8232,
      "ĠSn": 8233,
      "ĠMult": 8234,
      "Ġimper": 8235,
      "Ġking": 8236,
      "cycle": 8237,
      "Ġendangered": 8238,
      "Ġguys": 8239,
      "Ġhyg": 8240,
      "Ġretail": 8241,
      "Ġtruck": 8242,
      "ĠDeep": 8243,
      "anguages": 8244,
      "ourage": 8245,
      "Ġconcentrations": 8246,
      "Ġgraphics": 8247,
      "Ġevaluation": 8248,
      "Ġmutations": 8249,
      "Ġinitiatives": 8250,
      "ĠPresident": 8251,
      "gypt": 8252,
      "Ġabundance": 8253,
      "ĠOffice": 8254,
      ".âĢĿĊ": 8255,
      "()": 8256,
      ";ĊĊ": 8257,
      "AG": 8258,
      "icago": 8259,
      "Ġhide": 8260,
      "sters": 8261,
      "ĠIB": 8262,
      "thal": 8263,
      "Ġweeds": 8264,
      "ĠMot": 8265,
      "ĠMem": 8266,
      "ĠDid": 8267,
      "ĠHand": 8268,
      "ĠNext": 8269,
      "Ġprovider": 8270,
      "Ġdiver": 8271,
      "Ġinfo": 8272,
      "Ġphr": 8273,
      "Ġguy": 8274,
      "ĠHeat": 8275,
      "Ġbasics": 8276,
      "Ġindicated": 8277,
      "ĠColl": 8278,
      "Ġembod": 8279,
      "Ġtargets": 8280,
      "Ġemerging": 8281,
      "Ġutilized": 8282,
      "Ġhighlights": 8283,
      "ĠBrazil": 8284,
      "Ġvinegar": 8285,
      "Hz": 8286,
      "Ġtires": 8287,
      "Ġcuc": 8288,
      "stru": 8289,
      "Ġarrow": 8290,
      "atures": 8291,
      "ĠJesus": 8292,
      "necess": 8293,
      "Ġagents": 8294,
      "Ġmodified": 8295,
      "Ġmini": 8296,
      "Ġguard": 8297,
      "Ġfreezing": 8298,
      "Ġenjoyed": 8299,
      "Ġpopularity": 8300,
      "Ġsuperior": 8301,
      "Ġvarying": 8302,
      "Ġoutdoors": 8303,
      "Ġnursing": 8304,
      "Ġjewelry": 8305,
      "Each": 8306,
      "SL": 8307,
      "Table": 8308,
      "onents": 8309,
      "Ġsad": 8310,
      "Ġcred": 8311,
      "Ġpose": 8312,
      "Ġfif": 8313,
      "Ġhang": 8314,
      "amic": 8315,
      "abul": 8316,
      "ĠMiddle": 8317,
      "ĠBusiness": 8318,
      "perm": 8319,
      "ĠNon": 8320,
      "ailable": 8321,
      "text": 8322,
      "hyth": 8323,
      "Ġunderg": 8324,
      "idespread": 8325,
      "Ġclassification": 8326,
      "ĠClub": 8327,
      "Ġfatty": 8328,
      "Ġhunt": 8329,
      "Ġpriorit": 8330,
      "Ġclimbing": 8331,
      "ĠDifferent": 8332,
      "Ġsuddenly": 8333,
      "Ġtomatoes": 8334,
      "Ġdoubt": 8335,
      "nds": 8336,
      "Ġfost": 8337,
      "ano": 8338,
      "Ġstack": 8339,
      "Ġsucc": 8340,
      "ĠRober": 8341,
      "pled": 8342,
      "Ġtiming": 8343,
      "ĠUN": 8344,
      "Ġpepper": 8345,
      "Ġcommands": 8346,
      "Ġspecified": 8347,
      "Ġdiarr": 8348,
      "Ġextinction": 8349,
      "Ġdistances": 8350,
      "âĢĻre": 8351,
      "Ġcondens": 8352,
      "ĠComputer": 8353,
      "Ġpreparing": 8354,
      "Ġheavily": 8355,
      "ĠApplic": 8356,
      "Ġbulbs": 8357,
      "Ġqualities": 8358,
      "Ġphotographs": 8359,
      "elihood": 8360,
      "alog": 8361,
      "Ġmol": 8362,
      "Ġgum": 8363,
      "stones": 8364,
      "ements": 8365,
      "actions": 8366,
      "ĠUt": 8367,
      "bert": 8368,
      "neys": 8369,
      "Ġchildhood": 8370,
      "Ġpolice": 8371,
      "Ġrestore": 8372,
      "Ġpathways": 8373,
      "Ġthickness": 8374,
      "Ġbutterfly": 8375,
      "Ġliterally": 8376,
      "Ġsubstantial": 8377,
      "Ġcrisis": 8378,
      "ML": 8379,
      "Ġpapers": 8380,
      "ifting": 8381,
      "ĠSat": 8382,
      "isting": 8383,
      "ĠNote": 8384,
      "Ġspending": 8385,
      "Ġcalling": 8386,
      "Ġstraw": 8387,
      "Ġtelling": 8388,
      "ĠCoast": 8389,
      "Ġfabrics": 8390,
      "Ġspiritual": 8391,
      "-scale": 8392,
      "Ġneighborhood": 8393,
      "-out": 8394,
      ".)ĊĊ": 8395,
      "Sum": 8396,
      "was": 8397,
      "Ġacknow": 8398,
      "Ġcups": 8399,
      "lete": 8400,
      "Ġthy": 8401,
      "enth": 8402,
      "ilib": 8403,
      "ĠArizona": 8404,
      "ĠMass": 8405,
      "Ġabnormal": 8406,
      "ostic": 8407,
      "Ġarise": 8408,
      "Ġregulate": 8409,
      "Ġbene": 8410,
      "venue": 8411,
      "Ġmovie": 8412,
      "Ġrepeat": 8413,
      "Ġmelting": 8414,
      "Ġregulatory": 8415,
      "Car": 8416,
      "Dis": 8417,
      "cm": 8418,
      "cons": 8419,
      "paper": 8420,
      "ï£": 8421,
      "Ġpod": 8422,
      "Ġmelt": 8423,
      "Ġlakes": 8424,
      "uled": 8425,
      "Ġwhales": 8426,
      "ĠMont": 8427,
      "ĠHaw": 8428,
      "ĠFed": 8429,
      "ĠRich": 8430,
      "Ġworst": 8431,
      "Ġspo": 8432,
      "oven": 8433,
      "Ġtempl": 8434,
      "Ġidentical": 8435,
      "Ġwarmer": 8436,
      "Ġinvesting": 8437,
      "Any": 8438,
      "Ġoriginally": 8439,
      "Ġuter": 8440,
      "Ġpollen": 8441,
      "Ġadjustments": 8442,
      "Ġimplementing": 8443,
      "ĠTraining": 8444,
      "Ġdisplayed": 8445,
      "Ġstreams": 8446,
      "Ġpsychological": 8447,
      "Ġpuppies": 8448,
      "Ġcombustion": 8449,
      "SC": 8450,
      "UN": 8451,
      "Ġ.Ċ": 8452,
      "Ġdating": 8453,
      "ĠTop": 8454,
      "ĠIT": 8455,
      "ths": 8456,
      "ĠPDF": 8457,
      "ĠMag": 8458,
      "Ġseiz": 8459,
      "Ġwheat": 8460,
      "eping": 8461,
      "Ġoutcome": 8462,
      "rowave": 8463,
      "Ġacting": 8464,
      "Ġcontained": 8465,
      "Ġflowering": 8466,
      "Ġmultip": 8467,
      "ĠReview": 8468,
      "Ġsensory": 8469,
      "Ġmirror": 8470,
      "Ġcholesterol": 8471,
      "/m": 8472,
      "Per": 8473,
      "itory": 8474,
      "asant": 8475,
      "adian": 8476,
      "Ġrural": 8477,
      "Ġcompli": 8478,
      "ĠNC": 8479,
      "weet": 8480,
      "onday": 8481,
      "Ġacute": 8482,
      "Ġexplo": 8483,
      "Ġclassified": 8484,
      "Ġstrongly": 8485,
      "Ġportable": 8486,
      "Ġbehavioral": 8487,
      "Ġconsistently": 8488,
      "Add": 8489,
      "Ġadopted": 8490,
      "Ġtoilet": 8491,
      "DI": 8492,
      "Eng": 8493,
      "OV": 8494,
      "Ġce": 8495,
      "Ġpy": 8496,
      "Ġfilling": 8497,
      "enter": 8498,
      "rared": 8499,
      "sex": 8500,
      "iller": 8501,
      "Ġexclus": 8502,
      "icals": 8503,
      "ductor": 8504,
      "Ġparties": 8505,
      "Ġpartial": 8506,
      "Ġsket": 8507,
      "ĠAltern": 8508,
      "ĠThough": 8509,
      "Ġmeaningful": 8510,
      "Ġaimed": 8511,
      "ĠKey": 8512,
      "Ġresidential": 8513,
      "Ġpromotes": 8514,
      "ĠSmall": 8515,
      "Ġlibraries": 8516,
      "Ġastron": 8517,
      "Ġweapons": 8518,
      "/d": 8519,
      "QL": 8520,
      "Sec": 8521,
      "bur": 8522,
      "meg": 8523,
      "Ġcure": 8524,
      "orrow": 8525,
      "Ġmile": 8526,
      "Ġda": 8527,
      "Ġlatter": 8528,
      "eterm": 8529,
      "imals": 8530,
      "ĠAp": 8531,
      "Ġants": 8532,
      "Ġash": 8533,
      "throp": 8534,
      "Ġunp": 8535,
      "Ġnewly": 8536,
      "Ġsafer": 8537,
      "Ġcoloring": 8538,
      "Ġprecip": 8539,
      "Ġseparated": 8540,
      "Ġmistakes": 8541,
      "Ġweapon": 8542,
      "Ġproportion": 8543,
      "Learn": 8544,
      "lig": 8545,
      "Ġsale": 8546,
      "Ġwelcome": 8547,
      "Ġwidespread": 8548,
      "Ġdough": 8549,
      "ĠIr": 8550,
      "Ġshots": 8551,
      "roud": 8552,
      "ĠNever": 8553,
      "ĠLast": 8554,
      "ague": 8555,
      "Ġinvention": 8556,
      "Ġinspection": 8557,
      "Ġpotassium": 8558,
      "ĠUnion": 8559,
      "Ġlaid": 8560,
      "Ġwebsites": 8561,
      "Ġutilizing": 8562,
      "Ġmigration": 8563,
      "Ġlikelihood": 8564,
      "rapeutic": 8565,
      "aver": 8566,
      "sis": 8567,
      "Â®": 8568,
      "Ġtab": 8569,
      "Ġpiv": 8570,
      "Ġinver": 8571,
      "iche": 8572,
      "Ġeast": 8573,
      "Ġstatic": 8574,
      "elly": 8575,
      "Ġbutt": 8576,
      "aren": 8577,
      "Ġwhenever": 8578,
      "Ġremind": 8579,
      "Ġprescrib": 8580,
      "Ġdistract": 8581,
      "Ġexpectations": 8582,
      "Ġwondering": 8583,
      "Ġbulb": 8584,
      "Ġinvestigation": 8585,
      "Ġreproduction": 8586,
      "Ġthorough": 8587,
      "Ġmathematical": 8588,
      "Ġinstruments": 8589,
      "PE": 8590,
      "Ġsail": 8591,
      "Ġwires": 8592,
      "Ġharsh": 8593,
      "ĠMethod": 8594,
      "Ġperception": 8595,
      "Ġinsight": 8596,
      "Ġrealistic": 8597,
      "Ġpromise": 8598,
      "Ġappeared": 8599,
      "ĠResp": 8600,
      "Ġavoiding": 8601,
      "ymph": 8602,
      "ĠImport": 8603,
      "Ġpollut": 8604,
      "ĠÂ°": 8605,
      "Ġactively": 8606,
      "ĠChristmas": 8607,
      "Ġscenarios": 8608,
      "Ġhorizontal": 8609,
      "-off": 8610,
      "Source": 8611,
      "VCAA": 8612,
      "pie": 8613,
      "Ġ...Ċ": 8614,
      "Ġtheories": 8615,
      "orph": 8616,
      "Ġmand": 8617,
      "Ġinhab": 8618,
      "eting": 8619,
      "ĠArab": 8620,
      "ĠIce": 8621,
      "Ġstunning": 8622,
      "ĠCert": 8623,
      "ĠWomen": 8624,
      "through": 8625,
      "ĠDown": 8626,
      "ĠFarm": 8627,
      "elled": 8628,
      "Ġjaw": 8629,
      "Ġdiets": 8630,
      "Ġdevelopers": 8631,
      "Ġsubt": 8632,
      "Ġclaims": 8633,
      "Ġcalculation": 8634,
      "-shaped": 8635,
      "********": 8636,
      "Ġfacilitate": 8637,
      "Ġpitch": 8638,
      "ashes": 8639,
      "Ġbell": 8640,
      "Ġstrict": 8641,
      "ĠMart": 8642,
      "ĠBer": 8643,
      "ĠRoyal": 8644,
      "ĠNorthern": 8645,
      "Ġsettle": 8646,
      "Ġradius": 8647,
      "Ġpasta": 8648,
      "Ġwooden": 8649,
      "Ġinstalling": 8650,
      "Ġcaptured": 8651,
      "Ġrainfall": 8652,
      "Ġdisposal": 8653,
      "Ġshaped": 8654,
      "Ġupdates": 8655,
      "Ġsusceptible": 8656,
      "Ġunexpected": 8657,
      "Gl": 8658,
      "niv": 8659,
      "wear": 8660,
      "eness": 8661,
      "Ġfaces": 8662,
      "nsure": 8663,
      "ibration": 8664,
      "Ġsurge": 8665,
      "Ġdecade": 8666,
      "Ġdecomp": 8667,
      "Ġreadily": 8668,
      "they": 8669,
      "Ġrealized": 8670,
      "ĠArctic": 8671,
      "Ġachieving": 8672,
      "anned": 8673,
      "Ġboxes": 8674,
      "Ġcampus": 8675,
      "Ġsynthesis": 8676,
      "ĠBoard": 8677,
      "Ġvessel": 8678,
      "Ġtorque": 8679,
      "Ġadvertising": 8680,
      "even": 8681,
      "Ġbills": 8682,
      "Ġfraction": 8683,
      "ĠSouthern": 8684,
      "ĠPaul": 8685,
      "Ġrust": 8686,
      "ĠFlow": 8687,
      "ĠEgypt": 8688,
      "izza": 8689,
      "ĠName": 8690,
      "Ġmeets": 8691,
      "Ġsomewhere": 8692,
      "Ġmodule": 8693,
      "Ġearn": 8694,
      "hysical": 8695,
      "Ġbasket": 8696,
      "Ġcaps": 8697,
      "Ġweights": 8698,
      "Ġmaintained": 8699,
      "Ġreasonable": 8700,
      "Ġurine": 8701,
      "Ġsuspect": 8702,
      "Ġelevated": 8703,
      "Ġexceptional": 8704,
      "Ġaesthetic": 8705,
      "Ġoccasionally": 8706,
      "Check": 8707,
      "\"I": 8708,
      "-he": 8709,
      "Last": 8710,
      "iage": 8711,
      "pact": 8712,
      "Ġsink": 8713,
      "Ġpour": 8714,
      "Ġpear": 8715,
      "Ġpace": 8716,
      "Ġfats": 8717,
      "Ġhurt": 8718,
      "chini": 8719,
      "empl": 8720,
      "ĠPain": 8721,
      "ortion": 8722,
      "formance": 8723,
      "ĠKen": 8724,
      "obby": 8725,
      "Ġrequiring": 8726,
      "ĠDev": 8727,
      "Ġstops": 8728,
      "ĠCommission": 8729,
      "rimp": 8730,
      "aniel": 8731,
      "Ġmushrooms": 8732,
      ".A": 8733,
      "Part": 8734,
      "ki": 8735,
      "ala": 8736,
      "Ġhood": 8737,
      "usive": 8738,
      "Ġgaps": 8739,
      "Ġstitch": 8740,
      "Ġvoc": 8741,
      "ĠPM": 8742,
      "oodles": 8743,
      "ĠLim": 8744,
      "apters": 8745,
      "Ġagencies": 8746,
      "uesday": 8747,
      "Ġequations": 8748,
      "Start": 8749,
      "ĠResources": 8750,
      "Ġglobe": 8751,
      "Ġannounced": 8752,
      "Ġspreading": 8753,
      "aturday": 8754,
      "Ġdebate": 8755,
      "ĠMichael": 8756,
      "Ġillegal": 8757,
      "Ġbeneath": 8758,
      "://": 8759,
      "=\"": 8760,
      "High": 8761,
      "rh": 8762,
      "inters": 8763,
      "Ġpad": 8764,
      "ione": 8765,
      "owered": 8766,
      "ĠAqu": 8767,
      "Ġstake": 8768,
      "ĠSpecial": 8769,
      "acent": 8770,
      "ĠMath": 8771,
      "ĠFriday": 8772,
      "ĠRen": 8773,
      "ĠItalian": 8774,
      "Ġthank": 8775,
      "ucchini": 8776,
      "Ġoptical": 8777,
      "isticated": 8778,
      "Ġaddresses": 8779,
      "Ġprinted": 8780,
      "Ġnucleus": 8781,
      "Ġmutation": 8782,
      "ĠGlobal": 8783,
      "Ġfoam": 8784,
      "lied": 8785,
      "heast": 8786,
      "onut": 8787,
      "Ġlanguages": 8788,
      "otypes": 8789,
      "ĠAcc": 8790,
      "sey": 8791,
      "Ġconj": 8792,
      "ĠCut": 8793,
      "illion": 8794,
      "abis": 8795,
      "Ġchair": 8796,
      "Ġshr": 8797,
      "Then": 8798,
      "ĠLess": 8799,
      "Ġscores": 8800,
      "Ġintermedi": 8801,
      "Ġeverywhere": 8802,
      "Ġgrab": 8803,
      "Ġpots": 8804,
      "Ġdepart": 8805,
      "Ġstrange": 8806,
      "there": 8807,
      "Ġcentre": 8808,
      "Ġobjectives": 8809,
      "Ġvolcan": 8810,
      "Ġmindful": 8811,
      "Ġmindset": 8812,
      "Ġacidic": 8813,
      "Ġcraw": 8814,
      "Ġhung": 8815,
      "Ġfootball": 8816,
      "Additionally": 8817,
      "Ġreveal": 8818,
      "Ġfighting": 8819,
      "Ġfungi": 8820,
      "Ġcompatible": 8821,
      "ĠAcademy": 8822,
      "\"It": 8823,
      "BA": 8824,
      "df": 8825,
      "tr": 8826,
      "´ë": 8827,
      "Ã¶": 8828,
      "onics": 8829,
      "Ġhus": 8830,
      "ige": 8831,
      "Ġconvey": 8832,
      "Ġapple": 8833,
      "uble": 8834,
      "Ġcarries": 8835,
      "Ġacoustic": 8836,
      "owners": 8837,
      "Ġdesigning": 8838,
      "Ġdrinks": 8839,
      "Ġprofound": 8840,
      "Ġfreeze": 8841,
      "ĠPlus": 8842,
      "Ġparad": 8843,
      "Ġlabels": 8844,
      "Ġversus": 8845,
      "ursday": 8846,
      "Ġquantities": 8847,
      "Ġmoments": 8848,
      "Ġdestination": 8849,
      "Ġultimate": 8850,
      "Ġdinner": 8851,
      "Ġfoliage": 8852,
      "Ġshrubs": 8853,
      "Ġcorrosion": 8854,
      "-en": 8855,
      "</": 8856,
      "Ġfoster": 8857,
      "oured": 8858,
      "Ġthroat": 8859,
      "ilst": 8860,
      "Ġye": 8861,
      "orted": 8862,
      "Ġkin": 8863,
      "Ġadj": 8864,
      "Ġscreens": 8865,
      "Ġtemper": 8866,
      "egin": 8867,
      "Ġdefense": 8868,
      "Ġmuse": 8869,
      "ĠSciences": 8870,
      "Ġconsuming": 8871,
      "Ġalongside": 8872,
      "Ġfluids": 8873,
      "Ġembed": 8874,
      "Ġconnecting": 8875,
      "Ġethanol": 8876,
      "Ġrolling": 8877,
      "Ġinspiration": 8878,
      "Ġconverted": 8879,
      "Ġcardiovascular": 8880,
      "Students": 8881,
      "SE": 8882,
      "oz": 8883,
      "pace": 8884,
      "rator": 8885,
      "Ġtang": 8886,
      "Ġpuzz": 8887,
      "Ġmeth": 8888,
      "ĠAns": 8889,
      "Ġstre": 8890,
      "amine": 8891,
      "ivered": 8892,
      "ĠDar": 8893,
      "ptom": 8894,
      "ateral": 8895,
      "ĠNor": 8896,
      "Ġcontents": 8897,
      "ipal": 8898,
      "Ġcolours": 8899,
      "Ġimproves": 8900,
      "Ġflows": 8901,
      "Ġbelt": 8902,
      "Ġdemands": 8903,
      "azine": 8904,
      "Ġperiodic": 8905,
      "ĠSpanish": 8906,
      "Ġchecked": 8907,
      "Ġstopped": 8908,
      "Ġaccounts": 8909,
      "Ġsearching": 8910,
      "holders": 8911,
      "ĠChristian": 8912,
      "Researchers": 8913,
      "ĠSolutions": 8914,
      "Ġphenomenon": 8915,
      "Ġfigures": 8916,
      "Ġmulch": 8917,
      "Please": 8918,
      "itives": 8919,
      "Ġinn": 8920,
      "Ġbeat": 8921,
      "ĠSand": 8922,
      "ĠCost": 8923,
      "Ġsewing": 8924,
      "Ġshallow": 8925,
      "ĠFran": 8926,
      "Ġtrap": 8927,
      "Ġregister": 8928,
      "Ġenvironmentally": 8929,
      "Ġfilters": 8930,
      "Ġdigestion": 8931,
      "Ġpathogen": 8932,
      "reshold": 8933,
      "Ġtraveling": 8934,
      "ĠInteg": 8935,
      "Ġbreastfeeding": 8936,
      "Ġordinary": 8937,
      "Ġlandscapes": 8938,
      "Ġsubsequent": 8939,
      "Ġcarbohydrates": 8940,
      "Ġsnailfish": 8941,
      "Ġlaunched": 8942,
      "==": 8943,
      "FL": 8944,
      "RC": 8945,
      "bot": 8946,
      "Ġwitness": 8947,
      "Ġfell": 8948,
      "rost": 8949,
      "Ġlig": 8950,
      "Ġnarr": 8951,
      "ayer": 8952,
      "emia": 8953,
      "ĠDem": 8954,
      "ĠDue": 8955,
      "Ġcontemporary": 8956,
      "ipher": 8957,
      "Ġplanned": 8958,
      "Ġobservation": 8959,
      "Ġconstructed": 8960,
      "-rich": 8961,
      "Ġhormones": 8962,
      "Ġscenario": 8963,
      "Ġslic": 8964,
      "Ġbark": 8965,
      "Ġbicy": 8966,
      "Ġforg": 8967,
      "ample": 8968,
      "ĠWrit": 8969,
      "Ġspine": 8970,
      "apse": 8971,
      "Ġrose": 8972,
      "rowth": 8973,
      "Ġwellbeing": 8974,
      "Ġmoderate": 8975,
      "Ġsubtle": 8976,
      "Ġeleg": 8977,
      "Ġessence": 8978,
      "Ġdelight": 8979,
      "Ġconsiderations": 8980,
      "Ġpasses": 8981,
      "Ġlasting": 8982,
      "arents": 8983,
      "Ġsummary": 8984,
      "namic": 8985,
      "Ġslower": 8986,
      "Ġimplant": 8987,
      "Ġatmospheric": 8988,
      "Ġthousand": 8989,
      "Ġallergies": 8990,
      "Ġvolunteers": 8991,
      "Ġprolong": 8992,
      "erenn": 8993,
      "Ġtheoretical": 8994,
      "ĠLibrary": 8995,
      "$\\": 8996,
      "Post": 8997,
      "gical": 8998,
      "hand": 8999,
      "ili": 9000,
      "Ġforth": 9001,
      "Ġalign": 9002,
      "Ġencl": 9003,
      "ĠDen": 9004,
      "Ġplates": 9005,
      "izz": 9006,
      "ĠGal": 9007,
      "Ġhelmet": 9008,
      "Ġundert": 9009,
      "Ġinsert": 9010,
      "Ġlightweight": 9011,
      "Ġsensitivity": 9012,
      "Ġcircuits": 9013,
      "Ġreplacing": 9014,
      "Ġcontribution": 9015,
      "Ġterminal": 9016,
      "ĠPrinc": 9017,
      "Ġknife": 9018,
      "Ġphotosynthesis": 9019,
      "Ġtubes": 9020,
      "Ġnavigation": 9021,
      "Ġobviously": 9022,
      "Ġconvenience": 9023,
      "Ġshopping": 9024,
      "Ġdialog": 9025,
      "Ġenthusiasts": 9026,
      "Ġgluten": 9027,
      "Ġlaptop": 9028,
      "Ġsimultaneously": 9029,
      "ilibrium": 9030,
      "Ear": 9031,
      "oard": 9032,
      "Ġfort": 9033,
      "ĠAud": 9034,
      "Ġalike": 9035,
      "ĠCong": 9036,
      "ĠCond": 9037,
      "unicip": 9038,
      "ĠDI": 9039,
      "blem": 9040,
      "ĠAnalysis": 9041,
      "Ġanticip": 9042,
      "Ġfourth": 9043,
      "Ġoxide": 9044,
      "Ġbottles": 9045,
      "-step": 9046,
      "Ġthreatened": 9047,
      "flamm": 9048,
      "Ġtroubles": 9049,
      "Ġtailored": 9050,
      "Ġbranch": 9051,
      "Ġvomiting": 9052,
      "Col": 9053,
      "May": 9054,
      "Spe": 9055,
      "pin": 9056,
      "Ġdirty": 9057,
      "Ġislands": 9058,
      "Ġorth": 9059,
      "Ġalive": 9060,
      "ĠCreate": 9061,
      "ĠPop": 9062,
      "occ": 9063,
      "Ġabuse": 9064,
      "Ġtrail": 9065,
      "Ġindoors": 9066,
      "Ġevenly": 9067,
      "Ġlock": 9068,
      "ĠThink": 9069,
      "ĠSelect": 9070,
      "Ġmicrosc": 9071,
      "Ġcooler": 9072,
      "Ġeaten": 9073,
      "umbing": 9074,
      "Ġtoxins": 9075,
      "Ġshelf": 9076,
      "Ġtemporary": 9077,
      "ĠSupport": 9078,
      "havior": 9079,
      "Ġpesticides": 9080,
      "Ġsophisticated": 9081,
      "Ġirrigation": 9082,
      "Ms": 9083,
      "hoot": 9084,
      "rary": 9085,
      "sen": 9086,
      "Ġtends": 9087,
      "esome": 9088,
      "Ġwiring": 9089,
      "Ġpel": 9090,
      "Ġbeds": 9091,
      "Ġfence": 9092,
      "Ġdates": 9093,
      "ĠTit": 9094,
      "ĠTree": 9095,
      "Ġstations": 9096,
      "Ġwithstand": 9097,
      "ĠMen": 9098,
      "Ġsuc": 9099,
      "Ġleaks": 9100,
      "ĠEV": 9101,
      "Ġspices": 9102,
      "Ġunnecess": 9103,
      "Ġmanager": 9104,
      "ĠJer": 9105,
      "ribes": 9106,
      "Ġartwork": 9107,
      "ĠUnlike": 9108,
      "Ġvisiting": 9109,
      "type": 9110,
      "Ġequally": 9111,
      "Ġlowest": 9112,
      "Ġgrant": 9113,
      "Ġgrey": 9114,
      "Ġaddressed": 9115,
      "Ġfunds": 9116,
      "Ġtargeted": 9117,
      "Ġcommitted": 9118,
      "Ġregistered": 9119,
      "ĠDisease": 9120,
      "Em": 9121,
      "FC": 9122,
      "Trans": 9123,
      "trans": 9124,
      "Ġtile": 9125,
      "Ġcer": 9126,
      "Ġbits": 9127,
      "Ġnails": 9128,
      "olars": 9129,
      "aying": 9130,
      "ĠSqu": 9131,
      "ĠCorn": 9132,
      "ady": 9133,
      "uming": 9134,
      "ĠBrown": 9135,
      "ĠFact": 9136,
      "agen": 9137,
      "agle": 9138,
[...]
