{
  "version": "1.0",
  "truncation": null,
  "padding": null,
  "added_tokens": [
    {
      "id": 0,
      "content": "<|bos|>",
      "single_word": false,
      "lstrip": false,
      "rstrip": false,
      "normalized": false,
      "special": true
    },
    {
      "id": 1,
      "content": "<|user_start|>",
      "single_word": false,
      "lstrip": false,
      "rstrip": false,
      "normalized": false,
      "special": true
    },
    {
      "id": 2,
      "content": "<|user_end|>",
      "single_word": false,
      "lstrip": false,
      "rstrip": false,
      "normalized": false,
      "special": true
    },
    {
      "id": 3,
      "content": "<|assistant_start|>",
      "single_word": false,
      "lstrip": false,
      "rstrip": false,
      "normalized": false,
      "special": true
    },
    {
      "id": 4,
      "content": "<|assistant_end|>",
      "single_word": false,
      "lstrip": false,
      "rstrip": false,
      "normalized": false,
      "special": true
    },
    {
      "id": 5,
      "content": "<|python_start|>",
      "single_word": false,
      "lstrip": false,
      "rstrip": false,
      "normalized": false,
      "special": true
    },
    {
      "id": 6,
      "content": "<|python_end|>",
      "single_word": false,
      "lstrip": false,
      "rstrip": false,
      "normalized": false,
      "special": true
    },
    {
      "id": 7,
      "content": "<|output_start|>",
      "single_word": false,
      "lstrip": false,
      "rstrip": false,
      "normalized": false,
      "special": true
    },
    {
      "id": 8,
      "content": "<|output_end|>",
      "single_word": false,
      "lstrip": false,
      "rstrip": false,
      "normalized": false,
      "special": true
    },
    {
      "id": 9,
      "content": "<|unk|>",
      "single_word": false,
      "lstrip": false,
      "rstrip": false,
      "normalized": false,
      "special": true
    }
  ],
  "normalizer": null,
  "pre_tokenizer": {
    "type": "Sequence",
    "pretokenizers": [
      {
        "type": "Split",
        "pattern": {
          "Regex": "'(?i:[sdmt]|ll|ve|re)|[^\\r\\n\\p{L}\\p{N}]?+\\p{L}+|\\p{N}{1,2}| ?[^\\s\\p{L}\\p{N}]++[\\r\\n]*|\\s*[\\r\\n]|\\s+(?!\\S)|\\s+"
        },
        "behavior": "Isolated",
        "invert": false
      },
      {
        "type": "ByteLevel",
        "add_prefix_space": false,
        "trim_offsets": true,
        "use_regex": false
      }
    ]
  },
  "post_processor": {
    "type": "TemplateProcessing",
    "single": [
      {
        "Sequence": {
          "id": "A",
          "type_id": 0
        }
      }
    ],
    "pair": [
      {
        "Sequence": {
          "id": "A",
          "type_id": 0
        }
      },
      {
        "Sequence": {
          "id": "B",
          "type_id": 1
        }
      }
    ],
    "special_tokens": {}
  },
  "decoder": null,
  "model": {
    "type": "Unigram",
    "unk_id": 9,
    "vocab": [
      [
        "<|bos|>",
        0.0
      ],
      [
        "<|user_start|>",
        0.0
      ],
      [
        "<|user_end|>",
        0.0
      ],
      [
        "<|assistant_start|>",
        0.0
      ],
      [
        "<|assistant_end|>",
        0.0
      ],
      [
        "<|python_start|>",
        0.0
      ],
      [
        "<|python_end|>",
        0.0
      ],
      [
        "<|output_start|>",
        0.0
      ],
      [
        "<|output_end|>",
        0.0
      ],
      [
        "<|unk|>",
        0.0
      ],
      [
        "s",
        -3.091173495006222
      ],
      [
        "Ġ",
        -3.1455146745014577
      ],
      [
        "Ġthe",
        -3.437964585676843
      ],
      [
        ",",
        -3.4983661141036624
      ],
      [
        ".",
        -3.779177766094291
      ],
      [
        "a",
        -3.9509611555902655
      ],
      [
        "Ġand",
        -3.972384031339555
      ],
      [
        "Ġof",
        -4.031511975158624
      ],
      [
        "Ġto",
        -4.03295548351967
      ],
      [
        "ing",
        -4.401387696209568
      ],
      [
        "Ġin",
        -4.527652715673375
      ],
      [
        "Ġis",
        -4.643618517606706
      ],
      [
        "ed",
        -4.773403627238753
      ],
      [
        "'",
        -4.951835042389826
      ],
      [
        "d",
        -4.989290532688386
      ],
      [
        "e",
        -5.011330409668409
      ],
      [
        "y",
        -5.0272259141775795
      ],
      [
        "Ġthat",
        -5.072531129426217
      ],
      [
        "Ġfor",
        -5.084688022550909
      ],
      [
        "0",
        -5.0928707898550645
      ],
      [
        "ly",
        -5.2200636539540906
      ],
      [
        "1",
        -5.246981392892353
      ],
      [
        "t",
        -5.248882147874635
      ],
      [
        "Ġare",
        -5.264513030535369
      ],
      [
        "Ċ",
        -5.271141275261703
      ],
      [
        ":",
        -5.277946046752554
      ],
      [
        "Ġwith",
        -5.334281817633242
      ],
      [
        ".Ċ",
        -5.3423743211739385
      ],
      [
        ".ĊĊ",
        -5.343596373102352
      ],
      [
        "Ġyou",
        -5.358506185329038
      ],
      [
        "Ġit",
        -5.377747314051925
      ],
      [
        "-",
        -5.4497976513697886
      ],
      [
        "2",
        -5.4573762292135655
      ],
      [
        "Ġbe",
        -5.487064210356984
      ],
      [
        "Ġcan",
        -5.526731161857409
      ],
      [
        "Ġon",
        -5.5384640295896315
      ],
      [
        "Ġor",
        -5.555260692603973
      ],
      [
        "Ġas",
        -5.5758313656922915
      ],
      [
        "ĊĊ",
        -5.671679059405481
      ],
      [
        "Ġyour",
        -5.7490328913826065
      ],
      [
        "n",
        -5.751395576537707
      ],
      [
        "Ġ(",
        -5.806490688046226
      ],
      [
        "\"",
        -5.874439188119121
      ],
      [
        "Ġfrom",
        -5.920092291981513
      ],
      [
        "Ġhave",
        -5.924260350108609
      ],
      [
        "ĠThe",
        -5.969928303498623
      ],
      [
        "ĠI",
        -5.970243284798105
      ],
      [
        "Ġby",
        -6.016045640013209
      ],
      [
        ")",
        -6.029474168184171
      ],
      [
        "Ġan",
        -6.055007392507884
      ],
      [
        "Ġthis",
        -6.109181838930628
      ],
      [
        "3",
        -6.114624335844393
      ],
      [
        "?",
        -6.128670185770186
      ],
      [
        "5",
        -6.138889024811249
      ],
      [
        "Ġat",
        -6.142538101221955
      ],
      [
        "o",
        -6.148346876360103
      ],
      [
        "Ġnot",
        -6.158710421553437
      ],
      [
        "r",
        -6.189033800167822
      ],
      [
        "Ġtheir",
        -6.242587330314642
      ],
      [
        "Ġwill",
        -6.246134432373614
      ],
      [
        "i",
        -6.253149505855461
      ],
      [
        "4",
        -6.3125461128055935
      ],
      [
        "Ġthey",
        -6.369128279390276
      ],
      [
        "Ġmore",
        -6.389918780572618
      ],
      [
        "9",
        -6.393987572678533
      ],
      [
        "er",
        -6.400316510243938
      ],
      [
        "Ġwas",
        -6.424423208979324
      ],
      [
        "The",
        -6.455730879536629
      ],
      [
        "Ġbut",
        -6.509555624083664
      ],
      [
        "Ġhas",
        -6.525246141721439
      ],
      [
        "Ġwhich",
        -6.534074098030963
      ],
      [
        "Ġwe",
        -6.5377299077924675
      ],
      [
        "6",
        -6.58837976928382
      ],
      [
        "Question",
        -6.599973413058761
      ],
      [
        "m",
        -6.600598521270021
      ],
      [
        "Ġone",
        -6.60748125843144
      ],
      [
        "Ġalso",
        -6.6235457185081525
      ],
      [
        "on",
        -6.627940070524893
      ],
      [
        "ĠAnswer",
        -6.629408443570723
      ],
      [
        "re",
        -6.629886729879338
      ],
      [
        "8",
        -6.632370446526426
      ],
      [
        "ies",
        -6.6375802970338995
      ],
      [
        "Ġabout",
        -6.689820137024737
      ],
      [
        "ĠA",
        -6.690958370254664
      ],
      [
        "c",
        -6.703778176333934
      ],
      [
        "Ġall",
        -6.7046030054703305
      ],
      [
        "7",
        -6.712640071657285
      ],
      [
        "Ġother",
        -6.749032467664225
      ],
      [
        "ĠIt",
        -6.773058837260905
      ],
      [
        "Ġwhen",
        -6.7809088446273655
      ],
      [
        "A",
        -6.80461827681432
      ],
      [
        "Ġdo",
        -6.806755793981145
      ],
      [
        "Ġsome",
        -6.813236329983205
      ],
      [
        "Ġif",
        -6.8246434348964975
      ],
      [
        "l",
        -6.8390610366613505
      ],
      [
        "Ġuse",
        -6.8422376365813395
      ],
      [
        "Ġtime",
        -6.845107125307198
      ],
      [
        "Ġthem",
        -6.847505327858865
      ],
      [
        "Ġso",
        -6.857225978266136
      ],
      [
        "Ġinto",
        -6.859717998276443
      ],
      [
        "Ġlike",
        -6.863332249297608
      ],
      [
        "in",
        -6.867231340260647
      ],
      [
        "Ġup",
        -6.876419192259712
      ],
      [
        "Ġhow",
        -6.889439840036783
      ],
      [
        "Ġmay",
        -6.9072244353642205
      ],
      [
        "ĠThis",
        -6.922758995060402
      ],
      [
        "al",
        -6.946470949287816
      ],
      [
        "Ġout",
        -6.946735122541526
      ],
      [
        "ĠWhat",
        -6.956379784339521
      ],
      [
        "Ġthan",
        -6.967766399881404
      ],
      [
        "Ġthese",
        -6.99172021549273
      ],
      [
        "/",
        -7.00425248867888
      ],
      [
        "Ġwhat",
        -7.012470475571732
      ],
      [
        "Ġthere",
        -7.024984561255222
      ],
      [
        "Ġour",
        -7.0333000629913744
      ],
      [
        "Ġwater",
        -7.060225692089491
      ],
      [
        "ĠIn",
        -7.071934926603298
      ],
      [
        "Ġused",
        -7.07602169428068
      ],
      [
        "able",
        -7.083824433687774
      ],
      [
        "g",
        -7.10716198378133
      ],
      [
        "Ġneed",
        -7.122239426271991
      ],
      [
        "Ġmake",
        -7.127644822171636
      ],
      [
        "Ġmost",
        -7.135353168958318
      ],
      [
        "I",
        -7.141047129859571
      ],
      [
        "Ġpeople",
        -7.1435208391990646
      ],
      [
        "Ġsuch",
        -7.148607205687901
      ],
      [
        "Ġwere",
        -7.1676378894156585
      ],
      [
        "Ġany",
        -7.17727801096232
      ],
      [
        "Ġnew",
        -7.198628452356765
      ],
      [
        "Ġget",
        -7.205331099898018
      ],
      [
        "Ġbeen",
        -7.211034830276697
      ],
      [
        "Ġhelp",
        -7.215383947295729
      ],
      [
        "p",
        -7.236933689848568
      ],
      [
        "Ġshould",
        -7.267166691517495
      ],
      [
        "Ġjust",
        -7.267667939327437
      ],
      [
        "Ġover",
        -7.274278512141388
      ],
      [
        "f",
        -7.274561110839942
      ],
      [
        "Ġonly",
        -7.28684998160462
      ],
      [
        "Ġwould",
        -7.291009311755845
      ],
      [
        "Ġits",
        -7.305130270463058
      ],
      [
        "Ġwho",
        -7.310930258324847
      ],
      [
        "Ġmany",
        -7.312216425641754
      ],
      [
        "Ġhigh",
        -7.338404515495624
      ],
      [
        "or",
        -7.344917323857768
      ],
      [
        ";",
        -7.354797809240553
      ],
      [
        "Ġtwo",
        -7.364827642406123
      ],
      [
        "Ġwell",
        -7.375908023386138
      ],
      [
        "b",
        -7.40196718358497
      ],
      [
        "ĠC",
        -7.4060559560022
      ],
      [
        "Ġno",
        -7.411180326516115
      ],
      [
        "Ġfirst",
        -7.412591557924676
      ],
      [
        "Ġway",
        -7.413104272067855
      ],
      [
        "Ġthrough",
        -7.415454480804517
      ],
      [
        "Ġmy",
        -7.426989371115903
      ],
      [
        "ĠS",
        -7.427978754077296
      ],
      [
        "Ġwork",
        -7.428480726613955
      ],
      [
        "ever",
        -7.430660349616525
      ],
      [
        "Ġtake",
        -7.432474144802905
      ],
      [
        "Ġwhere",
        -7.437042741867721
      ],
      [
        "Ġdifferent",
        -7.441989078058168
      ],
      [
        "h",
        -7.442859595676064
      ],
      [
        "is",
        -7.445335015901245
      ],
      [
        "Ġbetween",
        -7.4461139691812335
      ],
      [
        "le",
        -7.449871015656022
      ],
      [
        "ve",
        -7.456164231192531
      ],
      [
        "Ġgo",
        -7.466807583361737
      ],
      [
        "!",
        -7.472577597287199
      ],
      [
        "?Ċ",
        -7.476437699929972
      ],
      [
        "k",
        -7.495073231733439
      ],
      [
        "ion",
        -7.504529519491154
      ],
      [
        "Ġbecause",
        -7.506158058265726
      ],
      [
        "Ġcould",
        -7.511356288818115
      ],
      [
        "S",
        -7.518034199585548
      ],
      [
        "ul",
        -7.519833570252132
      ],
      [
        "ĠB",
        -7.523173524247092
      ],
      [
        "Ġusing",
        -7.52903081966137
      ],
      [
        "ĠIf",
        -7.534610213357583
      ],
      [
        "Ġhe",
        -7.544117086366651
      ],
      [
        "Ġeven",
        -7.547169846170943
      ],
      [
        "ĠHow",
        -7.562891214662971
      ],
      [
        "Ġvery",
        -7.565974825738127
      ],
      [
        "ation",
        -7.572080550887927
      ],
      [
        "ĠThey",
        -7.572602105821904
      ],
      [
        "In",
        -7.574784552325564
      ],
      [
        "Ġsystem",
        -7.592358210231836
      ],
      [
        "ity",
        -7.603685801607428
      ],
      [
        "Ġmuch",
        -7.604042610297343
      ],
      [
        "Ġsee",
        -7.6142045750561955
      ],
      [
        "u",
        -7.617470956746347
      ],
      [
        "Ġprovide",
        -7.626476362440066
      ],
      [
        "Ġchange",
        -7.632456143990675
      ],
      [
        "Ġhealth",
        -7.633295203019605
      ],
      [
        "Ġhis",
        -7.635490733138251
      ],
      [
        "Ġfood",
        -7.637008209510498
      ],
      [
        "Ġknow",
        -7.643031952218703
      ],
      [
        "while",
        -7.644535822445359
      ],
      [
        "Ġwant",
        -7.644997828744492
      ],
      [
        "Ġeach",
        -7.645962467895238
      ],
      [
        "Ġimportant",
        -7.6519338340571235
      ],
      [
        "li",
        -7.6554001164903855
      ],
      [
        "Ġgood",
        -7.655629464495055
      ],
      [
        "Ġprocess",
        -7.656559285779622
      ],
      [
        "Ġdoes",
        -7.664699084981249
      ],
      [
        "out",
        -7.669019527652814
      ],
      [
        "Ġhad",
        -7.675618288348117
      ],
      [
        "ĠâĢĵ",
        -7.676912588984711
      ],
      [
        "?ĊĊ",
        -7.67856762725631
      ],
      [
        "Ġyears",
        -7.68245869693204
      ],
      [
        "Ġlong",
        -7.685481815210714
      ],
      [
        "C",
        -7.689389310260987
      ],
      [
        ").",
        -7.691105142583318
      ],
      [
        "Ġsmall",
        -7.692588686581937
      ],
      [
        "Ġdesign",
        -7.693602135318164
      ],
      [
        "ĠYou",
        -7.6987030407876045
      ],
      [
        "ce",
        -7.698886825933515
      ],
      [
        "th",
        -7.713683552485936
      ],
      [
        "Ġevery",
        -7.721416084555528
      ],
      [
        "ers",
        -7.725235688234418
      ],
      [
        "Ġafter",
        -7.741304077169296
      ],
      [
        "ic",
        -7.743954675658406
      ],
      [
        "Ġdon",
        -7.745829313466814
      ],
      [
        "ll",
        -7.74613309283616
      ],
      [
        "D",
        -7.754332592624765
      ],
      [
        "Ġaround",
        -7.759777265407427
      ],
      [
        "Ġworld",
        -7.763141079051682
      ],
      [
        "B",
        -7.76585006578892
      ],
      [
        "Ġlife",
        -7.782717306900558
      ],
      [
        "Ġsame",
        -7.784217252161381
      ],
      [
        "Ġlarge",
        -7.791717434213778
      ],
      [
        "an",
        -7.792730727388024
      ],
      [
        "Ġbefore",
        -7.799827416883701
      ],
      [
        "Ġfound",
        -7.802556029821261
      ],
      [
        "us",
        -7.813572008739403
      ],
      [
        "Ġcreate",
        -7.826584722701984
      ],
      [
        "Ġthose",
        -7.8306871139138
      ],
      [
        "Ġoften",
        -7.835667750420688
      ],
      [
        "Ġallow",
        -7.837949763934855
      ],
      [
        "Ġboth",
        -7.840424476820333
      ],
      [
        "Ġplace",
        -7.848255974353501
      ],
      [
        "Ġlook",
        -7.849581205665444
      ],
      [
        "during",
        -7.853390412488398
      ],
      [
        "it",
        -7.854975945734203
      ],
      [
        "Ġbeing",
        -7.855946878973601
      ],
      [
        "Ġbody",
        -7.859306093953705
      ],
      [
        "Ġright",
        -7.860534304948935
      ],
      [
        "Ġlight",
        -7.863133001035335
      ],
      [
        "Ġpart",
        -7.86383196004924
      ],
      [
        "and",
        -7.865156009229315
      ],
      [
        "ĠFor",
        -7.866413028906411
      ],
      [
        "Ġdata",
        -7.867816700696226
      ],
      [
        "Ġarea",
        -7.869090236237827
      ],
      [
        "Ġcause",
        -7.869686983671667
      ],
      [
        "x",
        -7.870079367966635
      ],
      [
        "%",
        -7.872662247209883
      ],
      [
        "What",
        -7.873650134917282
      ],
      [
        "v",
        -7.878524560744813
      ],
      [
        "Ġbest",
        -7.884204197259731
      ],
      [
        "Ġback",
        -7.888336150126092
      ],
      [
        "ĠWe",
        -7.889210113634267
      ],
      [
        "Ġenergy",
        -7.889261774577504
      ],
      [
        "Ġkeep",
        -7.894089804636501
      ],
      [
        "(",
        -7.894704473586941
      ],
      [
        "Ġfind",
        -7.897943195298952
      ],
      [
        "Ġdown",
        -7.900563166369073
      ],
      [
        "><",
        -7.903361786806498
      ],
      [
        "Ġcommon",
        -7.908037484657466
      ],
      [
        "Ġmade",
        -7.912821997253602
      ],
      [
        "Ġinformation",
        -7.91558648800501
      ],
      [
        "ĠT",
        -7.916430653758622
      ],
      [
        "Ġun",
        -7.918041483320883
      ],
      [
        "Ġday",
        -7.934682586202737
      ],
      [
        "Ġyear",
        -7.937221742788696
      ],
      [
        "Ġplant",
        -7.940020526039413
      ],
      [
        "w",
        -7.944762414478369
      ],
      [
        "Ġincrease",
        -7.950015398414903
      ],
      [
        "ĠP",
        -7.952790943178103
      ],
      [
        "),",
        -7.953601054176659
      ],
      [
        "Ġinclude",
        -7.9567028577654
      ],
      [
        "Ġunder",
        -7.957684604757647
      ],
      [
        "Ġsay",
        -7.958950480048872
      ],
      [
        "Ġher",
        -7.962206485175999
      ],
      [
        "Ġstart",
        -7.963909383956553
      ],
      [
        "Ġnumber",
        -7.96821396038548
      ],
      [
        "ĠD",
        -7.968289603764475
      ],
      [
        "Ġpower",
        -7.970318658568305
      ],
      [
        "est",
        -7.975611866209549
      ],
      [
        "Ġus",
        -7.979846846811279
      ],
      [
        "Ġme",
        -7.98126506455932
      ],
      [
        "Ġexperience",
        -7.982371415661417
      ],
      [
        "Ġshow",
        -7.990140879859524
      ],
      [
        ":Ċ",
        -7.9906384311675485
      ],
      [
        "How",
        -7.99446182567673
      ],
      [
        "Ġhome",
        -7.995040383248817
      ],
      [
        "Ġmain",
        -8.002811049688106
      ],
      [
        "Ġspecies",
        -8.009094617968834
      ],
      [
        "Ġsaid",
        -8.013366442226936
      ],
      [
        "Ġform",
        -8.01365686456148
      ],
      [
        "ĠTo",
        -8.016845434765585
      ],
      [
        "Ġstudy",
        -8.019265683798055
      ],
      [
        "um",
        -8.022411861349898
      ],
      [
        "Ġlead",
        -8.028644203301063
      ],
      [
        "ness",
        -8.03144079065954
      ],
      [
        "Ġresearch",
        -8.037285544054459
      ],
      [
        "Ġsupport",
        -8.042448149824736
      ],
      [
        "Ġadd",
        -8.04413573525806
      ],
      [
        "Ġbetter",
        -8.044818318345754
      ],
      [
        "ĠThese",
        -8.049775739455729
      ],
      [
        "Ġmight",
        -8.049872223198792
      ],
      [
        "Ġfew",
        -8.050681454117628
      ],
      [
        "Ġnow",
        -8.050783597665811
      ],
      [
        "This",
        -8.055414486052255
      ],
      [
        "Ġgrow",
        -8.06188904554846
      ],
      [
        "Ġoff",
        -8.072268370798644
      ],
      [
        "Ġgreat",
        -8.072311697453982
      ],
      [
        "Ġstudents",
        -8.083134171231157
      ],
      [
        "Ġstill",
        -8.084841953469375
      ],
      [
        "T",
        -8.087386681864771
      ],
      [
        "Ġown",
        -8.092279223916707
      ],
      [
        "Ġexample",
        -8.098308306029875
      ],
      [
        "Ġdog",
        -8.102022655100084
      ],
      [
        "M",
        -8.103833990839117
      ],
      [
        "ĠE",
        -8.104829405410756
      ],
      [
        "Ġincluding",
        -8.105404910780182
      ],
      [
        "Ġcontrol",
        -8.105627162104803
      ],
      [
        "P",
        -8.106155277650405
      ],
      [
        "If",
        -8.1090911761551
      ],
      [
        "Ġthink",
        -8.113578289334887
      ],
      [
        "Ġplants",
        -8.118112139652801
      ],
      [
        "...",
        -8.118565422799906
      ],
      [
        "Ġtype",
        -8.126154870680807
      ],
      [
        "It",
        -8.137834367510527
      ],
      [
        "Ġmaking",
        -8.138366540626725
      ],
      [
        "Ġset",
        -8.140079897944162
      ],
      [
        "Ġend",
        -8.142353749115633
      ],
      [
        "Ġair",
        -8.142732318163851
      ],
      [
        "Ġchildren",
        -8.150317977977663
      ],
      [
        "ĠM",
        -8.155192640909775
      ],
      [
        "Ġgroup",
        -8.158436507588803
      ],
      [
        "ment",
        -8.15999610529709
      ],
      [
        "ĠF",
        -8.163723887966958
      ],
      [
        "Ġper",
        -8.165196792875097
      ],
      [
        "Ġgive",
        -8.16964713234479
      ],
      [
        "Ġless",
        -8.171893686673476
      ],
      [
        "Ġmethod",
        -8.173975056320517
      ],
      [
        "F",
        -8.175938831100213
      ],
      [
        "Ġtest",
        -8.178946914713723
      ],
      [
        "the",
        -8.17974067876594
      ],
      [
        "ĠBut",
        -8.181352348679347
      ],
      [
        "Ġhuman",
        -8.182903459399357
      ],
      [
        "Ġspecific",
        -8.18399390622277
      ],
      [
        "Ġindividual",
        -8.184529794634308
      ],
      [
        "Ġknown",
        -8.186729817861485
      ],
      [
        "ability",
        -8.190249319706894
      ],
      [
        "Ġschool",
        -8.191497903690959
      ],
      [
        "Ġcar",
        -8.193846215789222
      ],
      [
        "Ġsize",
        -8.19751949903401
      ],
      [
        "Ġtoo",
        -8.19880569413102
      ],
      [
        "Ġprevent",
        -8.206807259206968
      ],
      [
        "Ġpotential",
        -8.219023324641682
      ],
      [
        "Ġcurrent",
        -8.219512596195829
      ],
      [
        "Ġthree",
        -8.220340010961555
      ],
      [
        "Ġmust",
        -8.221947584363507
      ],
      [
        ":ĊĊ",
        -8.225313033746657
      ],
      [
        "Ġsure",
        -8.226935263176635
      ],
      [
        "Ġoffer",
        -8.228036040204463
      ],
      [
        "Ġmodel",
        -8.235630800611935
      ],
      [
        "Ġresult",
        -8.242294428463294
      ],
      [
        "Ġsurface",
        -8.245329425805906
      ],
      [
        "Ġensure",
        -8.24794897215798
      ],
      [
        "ry",
        -8.251126791939136
      ],
      [
        "Ġwhy",
        -8.254137222418317
      ],
      [
        "Ġsoil",
        -8.25547758116249
      ],
      [
        "Ġlearn",
        -8.258087673927282
      ],
      [
        "Ġnatural",
        -8.261689834104995
      ],
      [
        "one",
        -8.265780834829464
      ],
      [
        "ive",
        -8.266830264215384
      ],
      [
        "Ġcome",
        -8.267017770448843
      ],
      [
        "Ġlow",
        -8.268340023929184
      ],
      [
        "ar",
        -8.270083294570721
      ],
      [
        "Ġreduce",
        -8.27054678436652
      ],
      [
        "to",
        -8.274194499513575
      ],
      [
        "ĠWhen",
        -8.277034561915407
      ],
      [
        "Ġspace",
        -8.277387768130476
      ],
      [
        "Ġplay",
        -8.280372854620701
      ],
      [
        "âĢĻ",
        -8.280552308155372
      ],
      [
        "Ġthings",
        -8.28278109528586
      ],
      [
        "ĠAnd",
        -8.283147147951658
      ],
      [
        "ch",
        -8.283362893301442
      ],
      [
        "less",
        -8.28428336675443
      ],
      [
        "ĠSo",
        -8.28605443626374
      ],
      [
        "Ġbecome",
        -8.298354888859704
      ],
      [
        "Ġcalled",
        -8.30353698423076
      ],
      [
        "Ġclose",
        -8.30404175339097
      ],
      [
        "Ġfish",
        -8.307095628928295
      ],
      [
        "Ġtry",
        -8.30747021791305
      ],
      [
        "Ġcost",
        -8.308588552909216
      ],
      [
        "Ġvarious",
        -8.310209776761408
      ],
      [
        "Ġwithin",
        -8.310384777068858
      ],
      [
        "Ġdue",
        -8.315372997687334
      ],
      [
        "Ġpoint",
        -8.316828021269929
      ],
      [
        "Ġreally",
        -8.320683652998945
      ],
      [
        "Ġblood",
        -8.321729262327688
      ],
      [
        "Ġcolor",
        -8.32387051460567
      ],
      [
        "Ġlevel",
        -8.326581864874825
      ],
      [
        "Ġname",
        -8.326604146132201
      ],
      [
        "Ġshe",
        -8.327459365065756
      ],
      [
        "Ġsource",
        -8.333744977261873
      ],
      [
        "Ġsomething",
        -8.334465710582649
      ],
      [
        "Ġamount",
        -8.337710368800721
      ],
      [
        "Ġenvironment",
        -8.33857295213025
      ],
      [
        "ally",
        -8.339364901493692
      ],
      [
        "Ġfollowing",
        -8.344540776085122
      ],
      [
        "Ġcells",
        -8.348349234055396
      ],
      [
        "ĠG",
        -8.348609843555838
      ],
      [
        "Ġrisk",
        -8.349219487949286
      ],
      [
        "Ġde",
        -8.352096365735875
      ],
      [
        "Ġbenefit",
        -8.354766439373794
      ],
      [
        "Ġanother",
        -8.357829087336398
      ],
      [
        "Ġcare",
        -8.360930324438563
      ],
      [
        "Ġal",
        -8.36236188787564
      ],
      [
        "Ġhere",
        -8.365505363925811
      ],
      [
        "Ġweek",
        -8.367025834140358
      ],
      [
        "Ġimpact",
        -8.368114371820347
      ],
      [
        "ĠThere",
        -8.368911212355247
      ],
      [
        "Ġlot",
        -8.369718436196969
      ],
      [
        "Ġrange",
        -8.37032913344206
      ],
      [
        "Ġpossible",
        -8.37046393536086
      ],
      [
        "Ġdisease",
        -8.370687242318656
      ],
      [
        "Ġheat",
        -8.374470710061036
      ],
      [
        "ĠHe",
        -8.380082807154356
      ],
      [
        "Ġlittle",
        -8.383083771584616
      ],
      [
        "ĠW",
        -8.383233401260439
      ],
      [
        "Ġactual",
        -8.384302610930998
      ],
      [
        "Ġmeans",
        -8.388341795922408
      ],
      [
        "Ġrequire",
        -8.390172964338436
      ],
      [
        "Ġhard",
        -8.391046070321401
      ],
      [
        "Ġlearning",
        -8.393025051011389
      ],
      [
        "Ġsignificant",
        -8.403407755707086
      ],
      [
        "Ġalways",
        -8.405592437475073
      ],
      [
        "Ġdid",
        -8.406780786994386
      ],
      [
        "Ġlast",
        -8.407687050478497
      ],
      [
        "K",
        -8.414840583639037
      ],
      [
        "Ġfield",
        -8.423921903639062
      ],
      [
        "Ġdevelopment",
        -8.42509848041978
      ],
      [
        "z",
        -8.425222435259863
      ],
      [
        "Ġturn",
        -8.427209194207071
      ],
      [
        "Ġstate",
        -8.427413401588147
      ],
      [
        "ĠR",
        -8.432577131480164
      ],
      [
        "Ġusually",
        -8.433572149451637
      ],
      [
        "Ġopen",
        -8.4378841708271
      ],
      [
        "ary",
        -8.438601264381127
      ],
      [
        "Ġproblem",
        -8.439536391493633
      ],
      [
        "Ġtreatment",
        -8.439712913240475
      ],
      [
        "Ġgeneral",
        -8.441136477557132
      ],
      [
        "ĠWhich",
        -8.442018342371293
      ],
      [
        "Ġorder",
        -8.44263219756217
      ],
      [
        "Ġcontain",
        -8.444261854222148
      ],
      [
        "Ġdevice",
        -8.445137937109747
      ],
      [
        "Ġtemperature",
        -8.45008661477987
      ],
      [
        "Ġlive",
        -8.454612203192946
      ],
      [
        "ur",
        -8.45480048655548
      ],
      [
        "Ġavailable",
        -8.45951511104926
      ],
      [
        "Ġunderstand",
        -8.461259386253179
      ],
      [
        "Ġleave",
        -8.461738209999769
      ],
      [
        "Ġpressure",
        -8.462783001692207
      ],
      [
        "Ġoption",
        -8.465956252778046
      ],
      [
        "Ġquality",
        -8.466579249405534
      ],
      [
        "Ġbased",
        -8.466887164044689
      ],
      [
        "Ġperson",
        -8.469579503867553
      ],
      [
        "E",
        -8.471639403515834
      ],
      [
        ",\"",
        -8.475912270872554
      ],
      [
        "Ġimprove",
        -8.476061952682691
      ],
      [
        "Ġtext",
        -8.47798394619938
      ],
      [
        "Ġessential",
        -8.478747725296973
      ],
      [
        "Ġside",
        -8.480049244893449
      ],
      [
        "Ġ=",
        -8.48128004757914
      ],
      [
        "Ġseveral",
        -8.482819706858475
      ],
      [
        "Ġneeds",
        -8.48669301814772
      ],
      [
        "W",
        -8.488444655296641
      ],
      [
        "Ġmaterials",
        -8.488825139539692
      ],
      [
        "ĠH",
        -8.489646060865585
      ],
      [
        "G",
        -8.499280723662388
      ],
      [
        "Ġenough",
        -8.501246085827908
      ],
      [
        "Ġhand",
        -8.50132845373039
      ],
      [
        "Ġdiet",
        -8.501654434591721
      ],
      [
        "Ġpresent",
        -8.501784803306908
      ],
      [
        "ous",
        -8.502788470414366
      ],
      [
        "Ġfeel",
        -8.509239457357243
      ],
      [
        "Ġeffective",
        -8.509569477695344
      ],
      [
        "Ġlevels",
        -8.51229233496704
      ],
      [
        "Ġaffect",
        -8.518493976742656
      ],
      [
        "technology",
        -8.52145128351102
      ],
      [
        "Ġteam",
        -8.523582854265108
      ],
      [
        "ĠAs",
        -8.524420831268866
      ],
      [
        "Ġcertain",
        -8.525722392682137
      ],
      [
        "Ġcourse",
        -8.528829050313878
      ],
      [
        "When",
        -8.530078099130762
      ],
      [
        "Ġuntil",
        -8.53249245426453
      ],
      [
        "Ġconsider",
        -8.533072259329327
      ],
      [
        "Ġconditions",
        -8.533371527039314
      ],
      [
        ">",
        -8.53396125496429
      ],
      [
        "Ġlocal",
        -8.534802249170477
      ],
      [
        "age",
        -8.535862094741947
      ],
      [
        "Ġmaterial",
        -8.535880638998792
      ],
      [
        "Ġtypes",
        -8.538841872209087
      ],
      [
        "Ġcheck",
        -8.541748297384888
      ],
      [
        "Ġput",
        -8.54248854551647
      ],
      [
        "Ġcreat",
        -8.545557037354815
      ],
      [
        "Ġpatient",
        -8.548179212387453
      ],
      [
        "ĠWith",
        -8.551622496666624
      ],
      [
        "Ġaway",
        -8.553454698744863
      ],
      [
        "Ġweight",
        -8.554093725865389
      ],
      [
        "Ġ$",
        -8.554662012514012
      ],
      [
        "Ġkey",
        -8.5547035042331
      ],
      [
        "Ġfunction",
        -8.554773140678373
      ],
      [
        "H",
        -8.55628078592629
      ],
      [
        "We",
        -8.557108488569195
      ],
      [
        "Ġanimals",
        -8.557799738278305
      ],
      [
        "Ġgrowth",
        -8.559119224506112
      ],
      [
        "Ġwide",
        -8.560216366163576
      ],
      [
        "Ġrole",
        -8.561159104420561
      ],
      [
        "Ġsystems",
        -8.564622217261558
      ],
      [
        "Ġfocus",
        -8.566544676700815
      ],
      [
        "Ġfamily",
        -8.5693508173499
      ],
      [
        "Ġrate",
        -8.570576782713808
      ],
      [
        "Ġproject",
        -8.571824244783976
      ],
      [
        "ĠN",
        -8.576990715446977
      ],
      [
        "Ġsolution",
        -8.57741130864812
      ],
      [
        "N",
        -8.577761898561048
      ],
      [
        "Ġprogram",
        -8.578269519041967
      ],
      [
        "You",
        -8.578752421565547
      ],
      [
        "Ġgarden",
        -8.580097911592176
      ],
      [
        "Ġvalue",
        -8.581075969393307
      ],
      [
        "Ġfree",
        -8.585434838749656
      ],
      [
        "Ġsince",
        -8.586149419261623
      ],
      [
        "ĠRe",
        -8.586234232785621
      ],
      [
        "Ġtogether",
        -8.586249254190772
      ],
      [
        "Ġnon",
        -8.587532498412884
      ],
      [
        "ĠL",
        -8.589330566159127
      ],
      [
        "Ġeye",
        -8.589475126757662
      ],
      [
        "early",
        -8.590547142739599
      ],
      [
        "Ġtop",
        -8.591176424019952
      ],
      [
        "ian",
        -8.599146788633057
      ],
      [
        "ĠUniversity",
        -8.599196940630849
      ],
      [
        "Ġcomplete",
        -8.599865823757263
      ],
      [
        "Ġoil",
        -8.600957095272953
      ],
      [
        "Ġproblems",
        -8.605530558151386
      ],
      [
        "!Ċ",
        -8.610091692901442
      ],
      [
        "R",
        -8.612142525766275
      ],
      [
        "Ġcase",
        -8.615429381150895
      ],
      [
        "Ġstructure",
        -8.619381184690276
      ],
      [
        "Ġshort",
        -8.619853845293553
      ],
      [
        "Ġprotect",
        -8.621496228941728
      ],
      [
        "Ġline",
        -8.622090706222226
      ],
      [
        "ĠU",
        -8.623449325810421
      ],
      [
        "ĠThat",
        -8.624434387900436
      ],
      [
        "Ġlower",
        -8.625324319369334
      ],
      [
        "Ġagain",
        -8.626125682313791
      ],
      [
        "Ġrun",
        -8.626184719051063
      ],
      [
        "Ġ&",
        -8.626817209056076
      ],
      [
        "Ġchild",
        -8.62867929477555
      ],
      [
        "ĠBy",
        -8.629206461073764
      ],
      [
        "Ġseem",
        -8.629543636560534
      ],
      [
        "Ġworking",
        -8.63418391870725
      ],
      [
        "having",
        -8.634381219710642
      ],
      [
        "Ġresults",
        -8.635641852131698
      ],
      [
        "Ġhigher",
        -8.636610119996403
      ],
      [
        "Ġobject",
        -8.645749253525704
      ],
      [
        "Ġhealthy",
        -8.650853448842975
      ],
      [
        "Ġreal",
        -8.654465002205882
      ],
      [
        "Ġnext",
        -8.656816638435117
      ],
      [
        "Ġvariet",
        -8.657593919173916
      ],
      [
        "âĢĶ",
        -8.657769020929816
      ],
      [
        "Ġphysical",
        -8.659047419341531
      ],
      [
        "Ġdays",
        -8.659828083224209
      ],
      [
        "Ġpopulation",
        -8.661979881504715
      ],
      [
        "Ġfull",
        -8.66351289439893
      ],
      [
        "not",
        -8.663513627204857
      ],
      [
        "Ġmakes",
        -8.66371035292023
      ],
      [
        "Ġage",
        -8.664854873528844
      ],
      [
        "Ġdepend",
        -8.66711842001434
      ],
      [
        "Ġdamage",
        -8.66944895663411
      ],
      [
        "Ġclear",
        -8.675114875254264
      ],
      [
        "Ġcomes",
        -8.675316033489612
      ],
      [
        "Ġsimple",
        -8.675731752900617
      ],
      [
        "Ġold",
        -8.67959373716931
      ],
      [
        "ful",
        -8.679636885728911
      ],
      [
        "Ġunique",
        -8.67988020177729
      ],
      [
        "Ġproducts",
        -8.682652825888656
      ],
      [
        "Ġresource",
        -8.682865191759445
      ],
      [
        "Ġmarket",
        -8.68333443714104
      ],
      [
        "Ġfuture",
        -8.684857808019578
      ],
      [
        "Ġsecond",
        -8.685858823864159
      ],
      [
        "Ġdoesn",
        -8.68667464149166
      ],
      [
        "Ġeasy",
        -8.687362708421535
      ],
      [
        "Ġlikely",
        -8.689959860343645
      ],
      [
        "ĠO",
        -8.691341241677687
      ],
      [
        "Ġproduct",
        -8.692659741139252
      ],
      [
        "Ġalong",
        -8.693511732122094
      ],
      [
        "Ġfollow",
        -8.693937652827772
      ],
      [
        "ent",
        -8.695165478791335
      ],
      [
        "There",
        -8.696436135325182
      ],
      [
        "Ġremain",
        -8.69681686138069
      ],
      [
        "Ġleast",
        -8.698928952961644
      ],
      [
        "Ġproduce",
        -8.699053857884525
      ],
      [
        "Ġtypical",
        -8.702071448043084
      ],
      [
        "To",
        -8.702413535645817
      ],
      [
        "Ġacross",
        -8.703022051673509
      ],
      [
        "Ġkind",
        -8.704951472921728
      ],
      [
        "Ġnecessar",
        -8.707194038897779
      ],
      [
        "Ġlet",
        -8.708790913282265
      ],
      [
        "Ġbuilding",
        -8.713640403276674
      ],
      [
        "V",
        -8.713774517142546
      ],
      [
        "Ġsimilar",
        -8.71435556422695
      ],
      [
        "Ġespecial",
        -8.715979504284917
      ],
      [
        "Ġtimes",
        -8.717544956989979
      ],
      [
        "Ġthing",
        -8.718071757351087
      ],
      [
        "Ġsocial",
        -8.718357032662654
      ],
      [
        "Ġwhite",
        -8.720449741918502
      ],
      [
        "For",
        -8.722676762350378
      ],
      [
        "Ġbit",
        -8.725743123702294
      ],
      [
        "Ġlove",
        -8.729027334511823
      ],
      [
        "Ġnever",
        -8.729728163162243
      ],
      [
        "Ġcat",
        -8.732037618401261
      ],
      [
        "Ġheart",
        -8.732481824724161
      ],
      [
        "*",
        -8.732866152062822
      ],
      [
        "Ġcell",
        -8.73403348344237
      ],
      [
        "Ġground",
        -8.737759170143093
      ],
      [
        "Ġissues",
        -8.73778830610409
      ],
      [
        "ĠNew",
        -8.74053199986556
      ],
      [
        "Ġdry",
        -8.741249952188397
      ],
      [
        "Ġimage",
        -8.74165840358722
      ],
      [
        "Ġabove",
        -8.741856812422654
      ],
      [
        "Ġcontinue",
        -8.743396971569393
      ],
      [
        "Ġpaper",
        -8.744456760400542
      ],
      [
        "ter",
        -8.745942549353511
      ],
      [
        "Ġvideo",
        -8.747375060823366
      ],
      [
        "Ġdifficult",
        -8.749082953866541
      ],
      [
        "Ġstep",
        -8.749488624623957
      ],
      [
        "Ġanimal",
        -8.750131009623608
      ],
      [
        "Ġproduction",
        -8.750472009052164
      ],
      [
        "Ġclimate",
        -8.751853960609283
      ],
      [
        "Ġgiven",
        -8.752256040137343
      ],
      [
        "Ġdogs",
        -8.75563393412875
      ],
      [
        "Ġhead",
        -8.75570722607575
      ],
      [
        "Ġperiod",
        -8.756503154937882
      ],
      [
        "Ġfactors",
        -8.761523852603814
      ],
      [
        "Ġbook",
        -8.763722834969938
      ],
      [
        "Ġsafe",
        -8.764602252861305
      ],
      [
        "Ġeat",
        -8.765589609801061
      ],
      [
        "Ġnormal",
        -8.76587998937379
      ],
      [
        "_",
        -8.767194866958166
      ],
      [
        "Ġrecommend",
        -8.768067527399367
      ],
      [
        "ĠK",
        -8.770637086381978
      ],
      [
        "Ġclean",
        -8.772080861273075
      ],
      [
        "by",
        -8.773368093243304
      ],
      [
        "thing",
        -8.774081032953095
      ],
      [
        "Ġcancer",
        -8.77469185245919
      ],
      [
        "Ġeffects",
        -8.776742820146106
      ],
      [
        "Ġdifference",
        -8.777044880860858
      ],
      [
        "ĠYour",
        -8.778633927419484
      ],
      [
        "Ġmillion",
        -8.779050909318068
      ],
      [
        "ĠJ",
        -8.780008832727757
      ],
      [
        "Ġdone",
        -8.784035385114109
      ],
      [
        "ĠNo",
        -8.786081821562977
      ],
      [
        "Ġblack",
        -8.787232736943885
      ],
      [
        "Ġarticle",
        -8.787399725851671
      ],
      [
        ")Ċ",
        -8.78847970310473
      ],
      [
        "Ġlist",
        -8.788772859039545
      ],
      [
        "Ġroom",
        -8.788920380571131
      ],
      [
        "Ġfact",
        -8.789976435217124
      ],
      [
        "Ġaccording",
        -8.790701520209456
      ],
      [
        "Ġnear",
        -8.797480194265141
      ],
      [
        "Ġyoung",
        -8.798258486996556
      ],
      [
        "most",
        -8.79875623492653
      ],
      [
        "Ġ[",
        -8.800773680884866
      ],
      [
        "Ġdevelop",
        -8.801790045583964
      ],
      [
        "Ġspeed",
        -8.80226018544342
      ],
      [
        "Ġhim",
        -8.802562052016757
      ],
      [
        "Ġcontent",
        -8.803249247426644
      ],
      [
        "Ġstrong",
        -8.804671191543012
      ],
      [
        "Ġskin",
        -8.804740764506692
      ],
      [
        "Ġmachine",
        -8.806630019317359
      ],
      [
        "land",
        -8.806748375648624
      ],
      [
        "Ġquestion",
        -8.808262272548983
      ],
      [
        "Ġinterest",
        -8.811002514776241
      ],
      [
        "Ġscience",
        -8.811840833399934
      ],
      [
        "Ġtraining",
        -8.813517771428383
      ],
      [
        "Ġavoid",
        -8.813688331966869
      ],
      [
        "Ġmean",
        -8.816981583646982
      ],
      [
        "Ġpost",
        -8.817666346691155
      ],
      [
        "ĠSome",
        -8.817770653470985
      ],
      [
        "Ġaddition",
        -8.817886450324274
      ],
      [
        "Ġbring",
        -8.818150944272471
      ],
      [
        "Ġsingle",
        -8.819318425951751
      ],
      [
        "Ġwarm",
        -8.821158752040855
      ],
      [
        "ish",
        -8.821440230363606
      ],
      [
        "Ġamong",
        -8.82152624371756
      ],
      [
        "Ġstore",
        -8.823118490475526
      ],
      [
        "Ġremove",
        -8.823711836557562
      ],
      [
        "Ġeither",
        -8.824963163834028
      ],
      [
        "Ġfar",
        -8.827115753147792
      ],
      [
        "tic",
        -8.827511424668415
      ],
      [
        "]",
        -8.832659517225117
      ],
      [
        "ance",
        -8.833510134899756
      ],
      [
        "Ġread",
        -8.834083239555367
      ],
      [
        "Ġparent",
        -8.834118020837636
      ],
      [
        "O",
        -8.836696411687619
      ],
      [
        "Ġtoday",
        -8.836754198198012
      ],
      [
        "Ġexist",
        -8.8368749556555
      ],
      [
        "Ġperformance",
        -8.837893325962245
      ],
      [
        "Ġnature",
        -8.840558143856693
      ],
      [
        "ate",
        -8.841709093869152
      ],
      [
        "Ġam",
        -8.842313766227441
      ],
      [
        "man",
        -8.842740362203457
      ],
      [
        "Ġfour",
        -8.849365290085753
      ],
      [
        "Ġstress",
        -8.851232760164233
      ],
      [
        "Ġlooking",
        -8.85133597160743
      ],
      [
        "Ġunderstanding",
        -8.852175192305594
      ],
      [
        "Ġenjoy",
        -8.852272454371247
      ],
      [
        "Ġcondition",
        -8.852665074604424
      ],
      [
        "Ġrecent",
        -8.852900776670094
      ],
      [
        "Ġcomputer",
        -8.854620877331135
      ],
      [
        "L",
        -8.85547397433549
      ],
      [
        "ĠV",
        -8.855509246091453
      ],
      [
        "Ġgas",
        -8.855562273599649
      ],
      [
        "Ġask",
        -8.856303198515956
      ],
      [
        "Ġbelieve",
        -8.85705074546518
      ],
      [
        "Ġflower",
        -8.857279403169386
      ],
      [
        "Ġloss",
        -8.860480585685739
      ],
      [
        "Ġmatter",
        -8.862345417681588
      ],
      [
        "Ġpublic",
        -8.863099390088049
      ],
      [
        "ge",
        -8.866670365616226
      ],
      [
        "Ġeffect",
        -8.868084145426133
      ],
      [
        "ĠDo",
        -8.871565516163633
      ],
      [
        "Ġactivity",
        -8.872184866176983
      ],
      [
        "Ġmove",
        -8.872655425067425
      ],
      [
        "Ġleft",
        -8.874169458566499
      ],
      [
        "Ġthought",
        -8.875511956728626
      ],
      [
        "Ġbasic",
        -8.87571710456507
      ],
      [
        "Ġreason",
        -8.877041291071357
      ],
      [
        "Ġaccess",
        -8.878020188090954
      ],
      [
        "Ġfall",
        -8.880222902045794
      ],
      [
        "Ġfurther",
        -8.880389793939802
      ],
      [
        "Ġbrain",
        -8.880418528726675
      ],
      [
        "Ġgame",
        -8.881326463630947
      ],
      [
        "Ġlayer",
        -8.882551480973483
      ],
      [
        "Ġbalance",
        -8.884285125239337
      ],
      [
        "Ġskills",
        -8.88529292354068
      ],
      [
        "Ġwild",
        -8.886059215951335
      ],
      [
        "Ġonce",
        -8.887081267142332
      ],
      [
        "Ġaction",
        -8.887364747916079
      ],
      [
        "Ġbehavior",
        -8.888155501210242
      ],
      [
        "Ġinside",
        -8.889715877833705
      ],
      [
        "Ġtalk",
        -8.89122587299493
      ],
      [
        "Ġcool",
        -8.891474525327556
      ],
      [
        "Ġstudie",
        -8.892315885487122
      ],
      [
        "Ġassociate",
        -8.897274463754249
      ],
      [
        "Ġbig",
        -8.899076512458375
      ],
      [
        "ok",
        -8.899316754274917
      ],
      [
        "am",
        -8.899686178983005
      ],
      [
        "Ġapproach",
        -8.900922323143519
      ],
      [
        "Ġappear",
        -8.903588044889405
      ],
      [
        "Ġchallenge",
        -8.90456741768584
      ],
      [
        "Ġways",
        -8.905486966028715
      ],
      [
        "taking",
        -8.907022776842123
      ],
      [
        "Ġlanguage",
        -8.907437812500614
      ],
      [
        "Ġwomen",
        -8.908124419135648
      ],
      [
        "Ġpain",
        -8.908236849486443
      ],
      [
        "Ġgetting",
        -8.912155945462313
      ],
      [
        "Ġsea",
        -8.912405916531743
      ],
      [
        "ĠâĢĶ",
        -8.913593096384755
      ],
      [
        "Ġcall",
        -8.914264481042128
      ],
      [
        "ling",
        -8.916836425692253
      ],
      [
        "So",
        -8.918423089356562
      ],
      [
        "Ġwhether",
        -8.918727059405292
      ],
      [
        "Ġperform",
        -8.919284123910405
      ],
      [
        "Ġmention",
        -8.923237546763048
      ],
      [
        "Ġsun",
        -8.923732499239264
      ],
      [
        "Ġenvironmental",
        -8.927491283027262
      ],
      [
        "Ġparts",
        -8.928169690560496
      ],
      [
        "Ġforce",
        -8.92865793219103
      ],
      [
        "Ġfruit",
        -8.929314034182454
      ],
      [
        "Ġindustry",
        -8.929493039501534
      ],
      [
        "Ġcommunity",
        -8.930487341363323
      ],
      [
        "Ġstay",
        -8.931495487038582
      ],
      [
        "Ġreceive",
        -8.932042996586858
      ],
      [
        "already",
        -8.932055580268308
      ],
      [
        "Ġsymptoms",
        -8.932394215901223
      ],
      [
        "Ġgreen",
        -8.933324788040693
      ],
      [
        "Ġservice",
        -8.934204423723621
      ],
      [
        "ember",
        -8.939507942924703
      ],
      [
        "Ġpet",
        -8.940535787471742
      ],
      [
        "Ġhouse",
        -8.942732366393663
      ],
      [
        "Ġfeatures",
        -8.942804887481572
      ],
      [
        "Ġmajor",
        -8.943086324825888
      ],
      [
        ")ĊĊ",
        -8.943386374830492
      ],
      [
        "Ġtoward",
        -8.944872700415889
      ],
      [
        "ĠAn",
        -8.946984599390765
      ],
      [
        "Ġactivities",
        -8.94814323517695
      ],
      [
        "Ġbusiness",
        -8.949204234512472
      ],
      [
        "ant",
        -8.949913855451541
      ],
      [
        "Ġrequired",
        -8.95205536451999
      ],
      [
        "Ġbuild",
        -8.952525660628242
      ],
      [
        "Ġface",
        -8.953269479271796
      ],
      [
        "Ġsugar",
        -8.953357532099577
      ],
      [
        "Ġknowledge",
        -8.953637040088587
      ],
      [
        "Ġmoney",
        -8.955974200313864
      ],
      [
        "Ġidea",
        -8.959407264286607
      ],
      [
        "Ġred",
        -8.961016347607124
      ],
      [
        "Ġhours",
        -8.96169467084895
      ],
      [
        "Ġliving",
        -8.961772547646383
      ],
      [
        "Ġcontact",
        -8.962355109947197
      ],
      [
        "âĢĵ",
        -8.963020012555265
      ],
      [
        "Ġcold",
        -8.963803139741799
      ],
      [
        "afety",
        -8.967053065263059
      ],
      [
        "Ġself",
        -8.968114118674338
      ],
      [
        "Ġelectric",
        -8.968262073409367
      ],
      [
        "Ġmix",
        -8.968581467074166
      ],
      [
        "Ġanswer",
        -8.96879942319934
      ],
      [
        "Ġflow",
        -8.968823547527233
      ],
      [
        "Ġreport",
        -8.96889964162499
      ],
      [
        "Ġpersonal",
        -8.971982827599508
      ],
      [
        "Ġtree",
        -8.97517877865485
      ],
      [
        "Ġadult",
        -8.980196393546592
      ],
      [
        "Ġbelow",
        -8.98047895349817
      ],
      [
        "Ġposition",
        -8.983861108942842
      ],
      [
        "Ġclass",
        -8.983898030085935
      ],
      [
        "Ġcarbon",
        -8.984437161372242
      ],
      [
        "Ġsignal",
        -8.985760285740742
      ],
      [
        "Ġtreat",
        -8.98693515575362
      ],
      [
        "Ġtools",
        -8.988780995181909
      ],
      [
        "Ġuser",
        -8.988934733887524
      ],
      [
        "Ġpast",
        -8.98943412635149
      ],
      [
        "Ġwhole",
        -8.989662229549165
      ],
      [
        "Ġpopular",
        -8.990079533102037
      ],
      [
        "ĠOne",
        -8.991500521702356
      ],
      [
        "Ġsense",
        -8.991779008213044
      ],
      [
        "Ġhistor",
        -8.9943647102195
      ],
      [
        "ĠUnit",
        -8.994501230855818
      ],
      [
        "Ġseason",
        -8.995344689196143
      ],
      [
        "Ġthough",
        -8.997524239866252
      ],
      [
        "Ġwalk",
        -8.997747947711053
      ],
      [
        "Ġmetal",
        -8.999714880746549
      ],
      [
        "Ġsound",
        -9.001283114244261
      ],
      [
        "ber",
        -9.001336143108201
      ],
      [
        "Ġoverall",
        -9.00203201869154
      ],
      [
        "Ġitem",
        -9.002518043397076
      ],
      [
        "Ġperfect",
        -9.004717386594013
      ],
      [
        "un",
        -9.005397125610793
      ],
      [
        "Ġcompany",
        -9.006276851426009
      ],
      [
        "Ġengine",
        -9.007397807380052
      ],
      [
        "Ġmedical",
        -9.00739941080746
      ],
      [
        "Ġwear",
        -9.007923475309823
      ],
      [
        "Ġresearchers",
        -9.00926159256321
      ],
      [
        "Ġmeasure",
        -9.009713691220172
      ],
      [
        "Ġentire",
        -9.011103502965288
      ],
      [
        "Ġpositive",
        -9.01120405059121
      ],
      [
        "Ġcomplex",
        -9.012519413251798
      ],
      [
        "Ġfuel",
        -9.013079581765297
      ],
      [
        "ĠAmerican",
        -9.013420583543368
      ],
      [
        "Ġaverage",
        -9.01352971488073
      ],
      [
        "Ġtell",
        -9.01428220195134
      ],
      [
        "Ġprofessional",
        -9.016162951848102
      ],
      [
        "Ġlonger",
        -9.016747320838874
      ],
      [
        "Ġcover",
        -9.016797680287493
      ],
      [
        "Ġpractice",
        -9.016957504514618
      ],
      [
        "Ġmind",
        -9.01841796937054
      ],
      [
        "Ġshape",
        -9.018559973620889
      ],
      [
        "Ġothers",
        -9.01888342543086
      ],
      [
        "Ġcrucial",
        -9.020131124629067
      ],
      [
        "Ġissue",
        -9.020238381677714
      ],
      [
        "Ġeasily",
        -9.020828981602602
      ],
      [
        "ism",
        -9.021116349319357
      ],
      [
        "Ġselect",
        -9.02191449094727
      ],
      [
        "Ġmonths",
        -9.022672389953316
      ],
      [
        "Ġopportunit",
        -9.024325467107683
      ],
      [
        "Ġscientist",
        -9.025507105163612
      ],
      [
        "Ġmanagement",
        -9.025938494127212
      ],
      [
        "Ġbirds",
        -9.026199270582891
      ],
      [
        "Ġspecial",
        -9.031209384685582
      ],
      [
        "Ġdoing",
        -9.033419924047966
      ],
      [
        "|",
        -9.034493090541265
      ],
      [
        "Ġcut",
        -9.035614069861536
      ],
      [
        ".\"ĊĊ",
        -9.036473682142756
      ],
      [
        "Ġresponse",
        -9.036863677232413
      ],
      [
        "Ġchoose",
        -9.037282955222771
      ],
      [
        "Ġbegin",
        -9.037362694210612
      ],
      [
        "ĠAI",
        -9.038751059238988
      ],
      [
        "online",
        -9.040734284163827
      ],
      [
        "Ġglobal",
        -9.040954622134164
      ],
      [
        "+",
        -9.04222414796518
      ],
      [
        "Y",
        -9.042637964671991
      ],
      [
        "Ġplan",
        -9.042807778213646
      ],
      [
        "Ġtraditional",
        -9.042818710717206
      ],
      [
        "Ġstop",
        -9.045103031592388
      ],
      [
        "Ġbreak",
        -9.045723403908298
      ],
      [
        ".\"Ċ",
        -9.046002130705944
      ],
      [
        "Ġrelative",
        -9.048272696914822
      ],
      [
        "Ġhappen",
        -9.049448816867434
      ],
      [
        "-base",
        -9.049900586971116
      ],
      [
        "Ġland",
        -9.05332203028184
      ],
      [
        "Ġreach",
        -9.054264807055976
      ],
      [
        "Ġprint",
        -9.054526829699896
      ],
      [
        "ĠDe",
        -9.05614982039704
      ],
      [
        "Ġetc",
        -9.056468668197628
      ],
      [
        "mm",
        -9.0567298454219
      ],
      [
        "Ġsuggest",
        -9.058420082791317
      ],
      [
        "Ġquestions",
        -9.061964953051234
      ],
      [
        "Ġdeep",
        -9.062469612711666
      ],
      [
        "Ġquickly",
        -9.06664218256795
      ],
      [
        "As",
        -9.068914849638013
      ],
      [
        "Ġaddress",
        -9.06967713371688
      ],
      [
        "Ġthroughout",
        -9.07117671327758
      ],
      [
        "Ġinvolve",
        -9.071405732815398
      ],
      [
        "if",
        -9.072277620526217
      ],
      [
        "ĠAt",
        -9.074071188546917
      ],
      [
        "Ġmaintain",
        -9.074428833507122
      ],
      [
        "Ġwall",
        -9.074981134717788
      ],
      [
        "Ġauthor",
        -9.07555738473335
      ],
      [
        "Ġpre",
        -9.075663781727515
      ],
      [
        "Ġwinter",
        -9.07687639825066
      ],
      [
        "Ġmovement",
        -9.07716928576577
      ],
      [
        "Ġminutes",
        -9.078840762941027
      ],
      [
        "Ġtechniques",
        -9.08035468327012
      ],
      [
        "Ġshare",
        -9.080650715306508
      ],
      [
        "Ġdetermine",
        -9.080818169564765
      ],
      [
        "Ġinfection",
        -9.080971109447855
      ],
      [
        "Ġacid",
        -9.08285161858673
      ],
      [
        "Ġnetwork",
        -9.08350685324348
      ],
      [
        "gainst",
        -9.08497005444822
      ],
      [
        "up",
        -9.086090462665588
      ],
      [
        "Ġprotein",
        -9.086194595196268
      ],
      [
        "Ġconsidered",
        -9.086367228914856
      ],
      [
        "Ġwaste",
        -9.087446980146463
      ],
      [
        "ĠWhil",
        -9.088009002689304
      ],
      [
        "Ġrelationship",
        -9.09096869440608
      ],
      [
        "Ġeyes",
        -9.093253806581398
      ],
      [
        "ĠDr",
        -9.093485053237032
      ],
      [
        "Ġcases",
        -9.095490600909926
      ],
      [
        "Ġyourself",
        -9.095647572529243
      ],
      [
        "Ġcamera",
        -9.096230707470388
      ],
      [
        "Ġdescribe",
        -9.099657636102949
      ],
      [
        "Ġreturn",
        -9.099690727176975
      ],
      [
        "me",
        -9.099857284897318
      ],
      [
        "Ġsetting",
        -9.101168093367962
      ],
      [
        "Ġprimary",
        -9.10224581578586
      ],
      [
        "Ġhelps",
        -9.102246526795756
      ],
      [
        "ĠAll",
        -9.102896266040805
      ],
      [
        "U",
        -9.102997091645378
      ],
      [
        "Ġbad",
        -9.104088698885777
      ],
      [
        "Ġprobabl",
        -9.107177139715583
      ],
      [
        "Ġchemical",
        -9.108062581253218
      ],
      [
        "Ġmultiple",
        -9.108345349051794
      ],
      [
        "Ġstrateg",
        -9.110655259024847
      ],
      [
        "Ġactive",
        -9.111200570035525
      ],
      [
        "Ġco",
        -9.111714746143946
      ],
      [
        "Ġglass",
        -9.112545833546802
      ],
      [
        "Ġart",
        -9.115138503905136
      ],
      [
        "Ġgot",
        -9.1170732323119
      ],
      [
        "Ġprovid",
        -9.11718226327707
      ],
      [
        "Ġvisit",
        -9.117281577437906
      ],
      [
        "Ġidentify",
        -9.1190403734652
      ],
      [
        "Ġrelease",
        -9.11967629598796
      ],
      [
        "Ġmonitor",
        -9.11985412574066
      ],
      [
        "Ġattention",
        -9.1199922400745
      ],
      [
        "Ġhot",
        -9.12111740916558
      ],
      [
        "Ġrelated",
        -9.122798904498833
      ],
      [
        "Ġsoftware",
        -9.123698797818102
      ],
      [
        "Ġtrees",
        -9.124006950059576
      ],
      [
        "Ġoutside",
        -9.1241778810234
      ],
      [
        "Ġdecision",
        -9.125220627900552
      ],
      [
        "Ġequipment",
        -9.129116825546356
      ],
      [
        "Ġsite",
        -9.129557750748315
      ],
      [
        "ized",
        -9.131158607869786
      ],
      [
        "âĢ¦",
        -9.131333398982704
      ],
      [
        "Ġregard",
        -9.132219028353404
      ],
      [
        "Ġview",
        -9.132438202684597
      ],
      [
        "Ġrecord",
        -9.13388914557153
      ],
      [
        "Ġachieve",
        -9.135110379972744
      ],
      [
        "Ġmodern",
        -9.137117853666892
      ],
      [
        "Ġcenter",
        -9.137602278544508
      ],
      [
        "Ġfarm",
        -9.138306012277756
      ],
      [
        "Ġfire",
        -9.138535216069531
      ],
      [
        "Ġcountry",
        -9.138947362795893
      ],
      [
        "ence",
        -9.138977325028703
      ],
      [
        "Ġwebsite",
        -9.140064936704976
      ],
      [
        "per",
        -9.14078312082749
      ],
      [
        "im",
        -9.143196343604084
      ],
      [
        "Ġlength",
        -9.145285187558528
      ],
      [
        "Ġfeet",
        -9.150171373979614
      ],
      [
        "Ġtravel",
        -9.150679595132992
      ],
      [
        "Ġpay",
        -9.15150542959858
      ],
      [
        "Ġtool",
        -9.151510410093763
      ],
      [
        ").Ċ",
        -9.153346797918292
      ],
      [
        "Ġexplore",
        -9.153934367475529
      ],
      [
        "Ġweather",
        -9.15420560707919
      ],
      [
        "Ġtotal",
        -9.154532171584556
      ],
      [
        "be",
        -9.15599919865294
      ],
      [
        "Ġlimit",
        -9.15612063515227
      ],
      [
        "Ġpercent",
        -9.158172225950327
      ],
      [
        "Ġchoice",
        -9.158709584141876
      ],
      [
        "Ġeducation",
        -9.159842584742172
      ],
      [
        "Ġexplain",
        -9.160550259385303
      ],
      [
        "Ġrest",
        -9.161192943620982
      ],
      [
        "Ġnight",
        -9.162444073188146
      ],
      [
        "ĠCan",
        -9.162445061859373
      ],
      [
        "Ġelements",
        -9.163072007685134
      ],
      [
        "simply",
        -9.164736104130856
      ],
      [
        "Ġhalf",
        -9.16593563811897
      ],
      [
        "Ġrepresent",
        -9.166136659583142
      ],
      [
        "Ġthemselves",
        -9.167468205513838
      ],
      [
        "seen",
        -9.167495797435487
      ],
      [
        "Ġextreme",
        -9.167720074974794
      ],
      [
        "ĠNational",
        -9.168708918998616
      ],
      [
        "ill",
        -9.16880389043095
      ],
      [
        "ĠBe",
        -9.168969483580506
      ],
      [
        "cy",
        -9.17005044022289
      ],
      [
        "Ġdeveloped",
        -9.173363512019526
      ],
      [
        "Ġdaily",
        -9.174457706184684
      ],
      [
        "Ġregular",
        -9.175327527792447
      ],
      [
        "Ġact",
        -9.176120339859684
      ],
      [
        "Why",
        -9.178021130859078
      ],
      [
        "ather",
        -9.178093395255338
      ],
      [
        "Ġmedia",
        -9.178417537163996
      ],
      [
        "Ġguide",
        -9.18001820589553
      ],
      [
        "Ġparticular",
        -9.180523675675214
      ],
      [
        "Ġincreasing",
        -9.18103558300878
      ],
      [
        "Ġfun",
        -9.181172647306887
      ],
      [
        "Ġanything",
        -9.181388490559328
      ],
      [
        "pe",
        -9.182062428085306
      ],
      [
        "Ġfive",
        -9.185255405085968
      ],
      [
        "Ġsometime",
        -9.186868240780196
      ],
      [
        "Ġinput",
        -9.186882703297504
      ],
      [
        "J",
        -9.18731396177054
      ],
      [
        "Ġsummer",
        -9.187623192679986
      ],
      [
        "ĠOn",
        -9.187704638583236
      ],
      [
        "Ġwords",
        -9.187860837086426
      ],
      [
        "Ġdigital",
        -9.18919204572894
      ],
      [
        "Ġcode",
        -9.191881734175109
      ],
      [
        "Ġfat",
        -9.191978947505364
      ],
      [
        "Ġplastic",
        -9.192809917472704
      ],
      [
        "Ġorganic",
        -9.193225210553145
      ],
      [
        "Ġfeed",
        -9.196013540238194
      ],
      [
        "Ġlater",
        -9.196428453439555
      ],
      [
        "Ġpass",
        -9.196903199378102
      ],
      [
        "Ġinstead",
        -9.197622964445808
      ],
      [
        "Ġever",
        -9.200824717434925
      ],
      [
        "Ġyet",
        -9.200946966044343
      ],
      [
        "Ġfinal",
        -9.20305992308398
      ],
      [
        "quite",
        -9.203168454693762
      ],
      [
        "Ġadditional",
        -9.204568595760325
      ],
      [
        "Ġterm",
        -9.205064876176682
      ],
      [
        "Ġgain",
        -9.205858080829112
      ],
      [
        "Ġblue",
        -9.206342126187668
      ],
      [
        "Ġhumans",
        -9.208188794960323
      ],
      [
        "One",
        -9.20928412480628
      ],
      [
        "Ġfit",
        -9.209487699662445
      ],
      [
        "op",
        -9.209805389511178
      ],
      [
        "Ġbattery",
        -9.210805513791785
      ],
      [
        "Ġcaused",
        -9.210919441889844
      ],
      [
        "ier",
        -9.211078077624729
      ],
      [
        "ĠHere",
        -9.211241489992616
      ],
      [
        "ĠShe",
        -9.211657268362009
      ],
      [
        "Ġunit",
        -9.21189191165897
      ],
      [
        "Ġfresh",
        -9.212365215182928
      ],
      [
        "Ġman",
        -9.214431369163364
      ],
      [
        "Ġdistance",
        -9.215589085719724
      ],
      [
        "Ġsensor",
        -9.215811781933663
      ],
      [
        "Ġreduc",
        -9.216569301841211
      ],
      [
        "Ġtarget",
        -9.21723104347409
      ],
      [
        "ated",
        -9.21735723079907
      ],
      [
        "Ġspread",
        -9.217844339489384
      ],
      [
        "Ġmilk",
        -9.218562891042254
      ],
      [
        "ivity",
        -9.21908506355401
      ],
      [
        "Ġfast",
        -9.220733064021765
      ],
      [
        "Ġitself",
        -9.22306415146311
      ],
      [
        "Ġreading",
        -9.22321521176635
      ],
      [
        "Ġbird",
        -9.22431737991048
      ],
      [
        "Ġsuccessful",
        -9.224676756728204
      ],
      [
        "Ġanalysis",
        -9.22490257345836
      ],
      [
        "her",
        -9.225291422951647
      ],
      [
        "ver",
        -9.225729065960977
      ],
      [
        "light",
        -9.226410162920455
      ],
      [
        "Ġproper",
        -9.227117347002809
      ],
      [
        "Ġ</",
        -9.227333715423027
      ],
      [
        "ide",
        -9.227455411226645
      ],
      [
        "Ġwon",
        -9.228103692341588
      ],
      [
        "Ġcustomer",
        -9.230108398042608
      ],
      [
        "ĠDNA",
        -9.233118132689173
      ],
      [
        "Ġplayer",
        -9.234483155908084
      ],
      [
        "Ġwood",
        -9.23509115697694
      ],
      [
        "Ġago",
        -9.235613867389738
      ],
      [
        "Ġvehicle",
        -9.237042461597015
      ],
      [
        "Ġcomponents",
        -9.23713924370766
      ],
      [
        "Ġevent",
        -9.237295854856196
      ],
      [
        "Ġservices",
        -9.238475608652893
      ],
      [
        "ĠEarth",
        -9.238547729003212
      ],
      [
        "Ġattack",
        -9.243941959727934
      ],
      [
        "Ġexact",
        -9.24445216385078
      ],
      [
        "ization",
        -9.245977755361505
      ],
      [
        "we",
        -9.246962650848925
      ],
      [
        "Ġregion",
        -9.248203070258924
      ],
      [
        "Ġcorrect",
        -9.248670528054618
      ],
      [
        "Ġhold",
        -9.249722379949564
      ],
      [
        "ĠX",
        -9.250883955695633
      ],
      [
        "Ġstudent",
        -9.251553410887432
      ],
      [
        "Ġconcern",
        -9.251694771818812
      ],
      [
        "Ġapply",
        -9.251990709005607
      ],
      [
        "Ġserve",
        -9.25225759660994
      ],
      [
        "Ġkids",
        -9.254541473928295
      ],
      [
        "ha",
        -9.25528032745899
      ],
      [
        "Ġhear",
        -9.255692450927707
      ],
      [
        "Ġbrand",
        -9.25608853521828
      ],
      [
        "Ġtrue",
        -9.256451305845296
      ],
      [
        "Ġdrive",
        -9.257733609894622
      ],
      [
        "Ġbacteria",
        -9.258121768116377
      ],
      [
        "[",
        -9.258292211926804
      ],
      [
        "Ġapplications",
        -9.259886253519472
      ],
      [
        "=",
        -9.260264639589431
      ],
      [
        "Ġconcept",
        -9.26234897570456
      ],
      [
        "Ġbase",
        -9.263131344243476
      ],
      [
        "But",
        -9.265911245738042
      ],
      [
        "ial",
        -9.266171345011257
      ],
      [
        "Ġgenetic",
        -9.267600470745098
      ],
      [
        "Ġnegative",
        -9.267972591800028
      ],
      [
        "Ġpurpose",
        -9.26848704531783
      ],
      [
        "ĠHealth",
        -9.2719056621271
      ],
      [
        "Ġmeet",
        -9.273164553459164
      ],
      [
        "Ġapplication",
        -9.274401570990136
      ],
      [
        "Ġocean",
        -9.27453990588679
      ],
      [
        "An",
        -9.27630497913679
      ],
      [
        "ĠAfter",
        -9.277970485884708
      ],
      [
        "Ġice",
        -9.278263689779562
      ],
      [
        "Ġstandard",
        -9.278726121254753
      ],
      [
        "Ġfront",
        -9.278847529282825
      ],
      [
        "for",
        -9.2799282089997
      ],
      [
        "Ġsub",
        -9.280922164347022
      ],
      [
        "Ġeasie",
        -9.28098597013884
      ],
      [
        "Ġtable",
        -9.287427496078854
      ],
      [
        "Ġprovided",
        -9.287635454072046
      ],
      [
        "Ġdiscuss",
        -9.28769853151044
      ],
      [
        "Ġcontribute",
        -9.287750308460122
      ],
      [
        "line",
        -9.2883412145273
      ],
      [
        "Ġaspect",
        -9.289041472111991
      ],
      [
        "Ġcommunication",
        -9.289380021870056
      ],
      [
        "Ġfactor",
        -9.289820126434918
      ],
      [
        "Ġdark",
        -9.290657507869383
      ],
      [
        "Ġmeat",
        -9.292276714835973
      ],
      [
        "ut",
        -9.293186964271111
      ],
      [
        "Ġprice",
        -9.29450796602757
      ],
      [
        "Ġgovernment",
        -9.296844390391913
      ],
      [
        "Ġbreed",
        -9.297211426737658
      ],
      [
        "Ġb",
        -9.297859742409486
      ],
      [
        "Ġextra",
        -9.298043274148164
      ],
      [
        "Ġfriend",
        -9.298428939548906
      ],
      [
        "$",
        -9.30250501865006
      ],
      [
        "ke",
        -9.302676119230505
      ],
      [
        "Ġprocesses",
        -9.303470969082952
      ],
      [
        "Ġwatch",
        -9.305782231535332
      ],
      [
        "Ġappropriate",
        -9.30714808707432
      ],
      [
        "Ġadvantage",
        -9.310050853030411
      ],
      [
        "Ġmoment",
        -9.311364897212712
      ],
      [
        "ship",
        -9.31288712392477
      ],
      [
        "Ġmass",
        -9.31359889278717
      ],
      [
        "Ġculture",
        -9.313958730580858
      ],
      [
        "ex",
        -9.314382436017691
      ],
      [
        "Ġbaby",
        -9.31457290957755
      ],
      [
        "Ġfemale",
        -9.31586792064278
      ],
      [
        "Ġevidence",
        -9.317744908057428
      ],
      [
        "over",
        -9.320189265259636
      ],
      [
        "Ġindicate",
        -9.320405931917392
      ],
      [
        "Ġimmun",
        -9.320809270229988
      ],
      [
        "Ġdirection",
        -9.32283051084822
      ],
      [
        "vi",
        -9.325224584370885
      ],
      [
        "Ġdiscover",
        -9.325333615761217
      ],
      [
        "ĠNorth",
        -9.32567214445648
      ],
      [
        "gan",
        -9.3260199989477
      ],
      [
        "where",
        -9.326082201771117
      ],
      [
        "Ġworks",
        -9.328283136617465
      ],
      [
        "Ġsleep",
        -9.331291801743472
      ],
      [
        "Ġestablish",
        -9.331648801586422
      ],
      [
        "Ġfill",
        -9.331700279496022
      ],
      [
        "Ġteeth",
        -9.332889603600536
      ],
      [
        "Ġharm",
        -9.333216066276176
      ],
      [
        "Ġdidn",
        -9.333294167983386
      ],
      [
        "Ġcompar",
        -9.333527242526465
      ],
      [
        "Ġdoctor",
        -9.333843833737037
      ],
      [
        "Ġbuy",
        -9.334851428855188
      ],
      [
        "Ġlack",
        -9.335265723662292
      ],
      [
        "Ġparticularly",
        -9.335741039827877
      ],
      [
        "Ġeggs",
        -9.335969364371284
      ],
      [
        "Ġlink",
        -9.337309421112415
      ],
      [
        "Ġexperiment",
        -9.338253531064952
      ],
      [
        "ĠStates",
        -9.339162428371528
      ],
      [
        "Ġshows",
        -9.340037244327329
      ],
      [
        "Ġlocation",
        -9.340388575513114
      ],
      [
        "Ġmental",
        -9.340444687237106
      ],
      [
        "Ġeating",
        -9.340619448058169
      ],
      [
        "Ġcritical",
        -9.341840986243335
      ],
      [
        "of",
        -9.343218239376052
      ],
      [
        "âĢĿ",
        -9.344976436732424
      ],
      [
        "Ġboard",
        -9.345025941048124
      ],
      [
        "Ġterms",
        -9.346486401472584
      ],
      [
        "Ġwind",
        -9.346851718276843
      ],
      [
        "Ġrunning",
        -9.34737967549808
      ],
      [
        "Ġconduct",
        -9.34802745653689
      ],
      [
        "Ġdirect",
        -9.348444940774812
      ],
      [
        "sustainable",
        -9.348454484296743
      ],
      [
        "Ġword",
        -9.349019546711142
      ],
      [
        "Ġaccount",
        -9.350274176799369
      ],
      [
        "Ġspot",
        -9.351011916097786
      ],
      [
        "Ġbehin",
        -9.351089726711413
      ],
      [
        "Can",
        -9.351096755750364
      ],
      [
        "Ġbox",
        -9.353411543649797
      ],
      [
        "Ġchance",
        -9.354118645947027
      ],
      [
        "Ġdrink",
        -9.354350747602602
      ],
      [
        "Ġeveryone",
        -9.354489593204615
      ],
      [
        "Ġvisual",
        -9.356019304696206
      ],
      [
        "Ġstory",
        -9.358038145661489
      ],
      [
        "Ġcap",
        -9.35866694748058
      ],
      [
        "fish",
        -9.358949048312502
      ],
      [
        "Ġsearch",
        -9.359006570415366
      ],
      [
        "Ġelse",
        -9.359072331720728
      ],
      [
        "Ġgoal",
        -9.359352275473851
      ],
      [
        "Ġaim",
        -9.362965116666372
      ],
      [
        "Ġstyle",
        -9.364126765754856
      ],
      [
        "Ġproduced",
        -9.36454743460184
      ],
      [
        "Ġstatement",
        -9.367576032592986
      ],
      [
        "Ġsupply",
        -9.36832727333563
      ],
      [
        "Ġequal",
        -9.36853390986617
      ],
      [
        "Ġdiseases",
        -9.369617986016364
      ],
      [
        "Ġparticle",
        -9.369809859953964
      ],
      [
        "Ġcountr",
        -9.370317092970996
      ],
      [
        "Ġsuccess",
        -9.370370177430482
      ],
      [
        "Ġhole",
        -9.371657560906424
      ],
      [
        "ĠFrom",
        -9.371973479903016
      ],
      [
        "Ġinfluence",
        -9.37367635209162
      ],
      [
        "Ġspring",
        -9.374825803984876
      ],
      [
        "ĠSt",
        -9.375194931754734
      ],
      [
        "Ġserious",
        -9.376757922891958
      ],
      [
        "Ġexercise",
        -9.377460892524391
      ],
      [
        "Ġconstant",
        -9.377753529823526
      ],
      [
        "Ġoccur",
        -9.378488315413788
      ],
      [
        "Ġpromote",
        -9.38175124717061
      ],
      [
        "companie",
        -9.382770086251732
      ],
      [
        "ĠAl",
        -9.382784374074683
      ],
      [
        "ium",
        -9.382983409362993
      ],
      [
        ".S",
        -9.383049464294544
      ],
      [
        "Ġapplie",
        -9.38330434021458
      ],
      [
        "Ġdraw",
        -9.383772526616587
      ],
      [
        "Ġoutput",
        -9.384044660911387
      ],
      [
        "j",
        -9.384744402642797
      ],
      [
        "Ġcon",
        -9.386318714430807
      ],
      [
        "Ġtouch",
        -9.386554390930517
      ],
      [
        "Ġpiece",
        -9.386962929955532
      ],
      [
        "Q",
        -9.388391668887833
      ],
      [
        "Ġrock",
        -9.388392479986258
      ],
      [
        "Ġfilter",
        -9.388470072454991
      ],
      [
        "Ġbuilt",
        -9.38876391117812
      ],
      [
        "ring",
        -9.39156244148445
      ],
      [
        "Ġmeal",
        -9.391597973514504
      ],
      [
        "Ġstrength",
        -9.3916651858926
      ],
      [
        "ĠYes",
        -9.392521860950344
      ],
      [
        "Ġstem",
        -9.393243069601487
      ],
      [
        "Ġjob",
        -9.39419933594709
      ],
      [
        "Ġideal",
        -9.394886275347464
      ],
      [
        "Ġtaste",
        -9.395599885757676
      ],
      [
        "ĠUS",
        -9.396531921485607
      ],
      [
        "ĠLe",
        -9.396564659153276
      ],
      [
        "ĠâĢľ",
        -9.396704926416271
      ],
      [
        "Ġevents",
        -9.396862225620383
      ],
      [
        "Ġsave",
        -9.397634081155278
      ],
      [
        "Ġmonth",
        -9.400137547660082
      ],
      [
        "Ġproperly",
        -9.400264764689195
      ],
      [
        "Ġfoot",
        -9.400678869155264
      ],
      [
        "With",
        -9.400843364180725
      ],
      [
        "ĠMore",
        -9.400902932914118
      ],
      [
        "Ġseries",
        -9.40102826305479
      ],
      [
        "\\",
        -9.40218341350172
      ],
      [
        "Ġfine",
        -9.402699188488656
      ],
      [
        "Ġproperties",
        -9.403018612980103
      ],
      [
        "Ġlives",
        -9.403277100710753
      ],
      [
        "Ġmanage",
        -9.403815831717043
      ],
      [
        ".\"",
        -9.403893642557602
      ],
      [
        "ĠAmerica",
        -9.40393492357454
      ],
      [
        "Ġuseful",
        -9.404201195683594
      ],
      [
        "Ġcarry",
        -9.40495595727027
      ],
      [
        "Ġalternative",
        -9.405055309328858
      ],
      [
        "Ġcombination",
        -9.405263836509642
      ],
      [
        "Ġcharge",
        -9.405708316621716
      ],
      [
        "Re",
        -9.406459841564356
      ],
      [
        "Their",
        -9.406887271983717
      ],
      [
        "Ġmembers",
        -9.40713651565515
      ],
      [
        "Ġfeeling",
        -9.407467230577812
      ],
      [
        "Ġdirectly",
        -9.408771138527383
      ],
      [
        "Ġscale",
        -9.408840849871934
      ],
      [
        "Ġseparate",
        -9.408857732592995
      ],
      [
        "Ġfile",
        -9.40937374080878
      ],
      [
        "Ġvision",
        -9.409714944856788
      ],
      [
        "Ġdeath",
        -9.410219160854552
      ],
      [
        "Ġinvolved",
        -9.410995884240531
      ],
      [
        "Ġcolors",
        -9.41130110102394
      ],
      [
        "Ġimages",
        -9.411647662005464
      ],
      [
        "Ġtransport",
        -9.41230896616324
      ],
      [
        "Ġgrade",
        -9.412627347179992
      ],
      [
        "Ġgreater",
        -9.41349443565828
      ],
      [
        "Ġfoods",
        -9.414208467504608
      ],
      [
        "Ġleg",
        -9.415179547684511
      ],
      [
        "Ġclaim",
        -9.416384941944251
      ],
      [
        "Ġhair",
        -9.41684519686538
      ],
      [
        "Ġnotice",
        -9.417253220823024
      ],
      [
        "Ġsubject",
        -9.417333253543656
      ],
      [
        "Ġphase",
        -9.41786620969701
      ],
      [
        "-to",
        -9.418942696184844
      ],
      [
        "Ġ+",
        -9.4209089297922
      ],
      [
        "Ġoriginal",
        -9.421991945151904
      ],
      [
        "Ġsteps",
        -9.422150367767216
      ],
      [
        "Ġnote",
        -9.422611858984256
      ],
      [
        "Ġslight",
        -9.422927697152206
      ],
      [
        "go",
        -9.42326308539426
      ],
      [
        "Ġdisplay",
        -9.423397329818968
      ],
      [
        "life",
        -9.425159283616065
      ],
      [
        "Ġremember",
        -9.425300564670794
      ],
      [
        "ow",
        -9.425494517185465
      ],
      [
        "Ġload",
        -9.42698837412768
      ],
      [
        "Ġrat",
        -9.42716240638277
      ],
      [
        "more",
        -9.42796007524055
      ],
      [
        "Ġcaus",
        -9.428033309731871
      ],
      [
        "ĠCon",
        -9.428515425856697
      ],
      [
        "Ġdeal",
        -9.42856174040006
      ],
      [
        "ĠLa",
        -9.429697300445604
      ],
      [
        "And",
        -9.430768380934255
      ],
      [
        "Whil",
        -9.432909646259263
      ],
      [
        "Ġbag",
        -9.433073824377942
      ],
      [
        "Ġpatterns",
        -9.43389925545111
      ],
      [
        "Ġinstall",
        -9.43506093574832
      ],
      [
        "ĠUse",
        -9.4354018673254
      ],
      [
        "Ġkill",
        -9.437627791697738
      ],
      [
        "âĢ¢",
        -9.438869932922756
      ],
      [
        "Ġmale",
        -9.438907907949872
      ],
      [
        "Ġpoor",
        -9.43961145862584
      ],
      [
        "ĠScience",
        -9.43962152320541
      ],
      [
        "Ġsoft",
        -9.439895880824992
      ],
      [
        "Ġseeds",
        -9.440513228589491
      ],
      [
        "Ġefficienc",
        -9.44069633728645
      ],
      [
        "Ġfeature",
        -9.443585029384678
      ],
      [
        "Ġensur",
        -9.444293189123544
      ],
      [
        "Ġlate",
        -9.44560488431041
      ],
      [
        "Ġencourage",
        -9.446119088680708
      ],
      [
        "Ġvalues",
        -9.447143465165077
      ],
      [
        "Ġlines",
        -9.447490495066614
      ],
      [
        "Ġsign",
        -9.447692654813531
      ],
      [
        "Ġextend",
        -9.44819891216462
      ],
      [
        "Ġcollect",
        -9.449374860157365
      ],
      [
        "Ġcount",
        -9.449968087090292
      ],
      [
        "Ġdecrease",
        -9.450136324102145
      ],
      [
        "Â°",
        -9.450141049143038
      ],
      [
        "Ġinstruction",
        -9.450380583715951
      ],
      [
        "Ġcircuit",
        -9.452488852244231
      ],
      [
        "end",
        -9.45259130595968
      ],
      [
        "Ġsituation",
        -9.45305635522736
      ],
      [
        "ĠGo",
        -9.453183002435086
      ],
      [
        "Ġphone",
        -9.45375608773327
      ],
      [
        "Ġscientific",
        -9.453854532504554
      ],
      [
        "Ġprett",
        -9.45555373404061
      ],
      [
        "Ġpull",
        -9.458718846937654
      ],
      [
        "Ġtips",
        -9.460597371503765
      ],
      [
        "Ġvitamin",
        -9.461710183673969
      ],
      [
        "ĠMy",
        -9.46344972523402
      ],
      [
        "Ġgoe",
        -9.464286965650247
      ],
      [
        "ĠSouth",
        -9.464331692949914
      ],
      [
        "ĠSchool",
        -9.465008358749596
      ],
      [
        "Ġinitial",
        -9.466027106417089
      ],
      [
        "ĠCo",
        -9.466256426133292
      ],
      [
        "Ġaccurate",
        -9.466352805450446
      ],
      [
        "Ġcompare",
        -9.467134134921093
      ],
      [
        "Ġrequirements",
        -9.468199284313323
      ],
      [
        "ĠWorld",
        -9.472125688653712
      ],
      [
        "Ġraise",
        -9.473297386266635
      ],
      [
        "Ġsolar",
        -9.473340302780578
      ],
      [
        "Ġstage",
        -9.473580448931912
      ],
      [
        "Ġroot",
        -9.474143503765678
      ],
      [
        "der",
        -9.47423306720724
      ],
      [
        "Ġphoto",
        -9.47480430000914
      ],
      [
        "Ġgeneration",
        -9.475439663616603
      ],
      [
        "ical",
        -9.476671250958889
      ],
      [
        "work",
        -9.477943992139076
      ],
      [
        "Ġpest",
        -9.478590223496695
      ],
      [
        "Ġversion",
        -9.478624795666985
      ],
      [
        "Ġprotection",
        -9.478715297389549
      ],
      [
        "Ġblock",
        -9.478922430242172
      ],
      [
        "Ġhost",
        -9.479193912752724
      ],
      [
        "Ġfloor",
        -9.48047463886413
      ],
      [
        "Ġsix",
        -9.480747861020742
      ],
      [
        "ĠResearch",
        -9.481462813357652
      ],
      [
        "Ġmuscle",
        -9.481640360135374
      ],
      [
        "Ġsmooth",
        -9.482432685626437
      ],
      [
        "Ġmoving",
        -9.482944828905698
      ],
      [
        "Ġadjust",
        -9.483659821245078
      ],
      [
        "Ġhappens",
        -9.484327155530014
      ],
      [
        "Ġmusic",
        -9.484484359250803
      ],
      [
        "Ġpair",
        -9.484512026161212
      ],
      [
        "Ġresponsibl",
        -9.48566698978335
      ],
      [
        "ions",
        -9.488095915705255
      ],
      [
        "Ġpoints",
        -9.489897827826496
      ],
      [
        "Ġliquid",
        -9.49041008535222
      ],
      [
        "ĠNot",
        -9.490642599563175
      ],
      [
        "Ġreasons",
        -9.49084003424904
      ],
      [
        "Ġhope",
        -9.493942849365444
      ],
      [
        "Ġhandle",
        -9.49442592853007
      ],
      [
        "Ġconnect",
        -9.495615174777631
      ],
      [
        "ĠOr",
        -9.495945421568544
      ],
      [
        "ĠMost",
        -9.496049092244514
      ],
      [
        "Ġtesting",
        -9.496218280425222
      ],
      [
        "Ġiron",
        -9.496268830013875
      ],
      [
        "tenance",
        -9.496693735995796
      ],
      [
        "Ġelectrical",
        -9.496732837268118
      ],
      [
        "Do",
        -9.497394158576451
      ],
      [
        "ating",
        -9.497646081632046
      ],
      [
        "min",
        -9.497674112556169
      ],
      [
        "con",
        -9.497915667045456
      ],
      [
        "Ġfrequent",
        -9.499495892747229
      ],
      [
        "Ġrepair",
        -9.500738748018994
      ],
      [
        "Ġpick",
        -9.5007948608988
      ],
      [
        "tra",
        -9.50111218995507
      ],
      [
        "Ġbottom",
        -9.50124436187408
      ],
      [
        "Ġrich",
        -9.501496782455028
      ],
      [
        "Ġsteel",
        -9.501856396302902
      ],
      [
        "-term",
        -9.501888372636964
      ],
      [
        "Ġcame",
        -9.502814263725096
      ],
      [
        "Ġscreen",
        -9.504222273836373
      ],
      [
        "Ġcareful",
        -9.505793659680489
      ],
      [
        "Ġreview",
        -9.506225326873754
      ],
      [
        "Ġvary",
        -9.50650763647266
      ],
      [
        "Ġcontainer",
        -9.50699483698508
      ],
      [
        "Ġmulti",
        -9.509240360082831
      ],
      [
        "Ġenhance",
        -9.509887095037763
      ],
      [
        "Ġprograms",
        -9.510446706722174
      ],
      [
        "<",
        -9.511036279634606
      ],
      [
        "Ġdur",
        -9.5115463309002
      ],
      [
        "Ġdate",
        -9.512926197678173
      ],
      [
        "Ġnoise",
        -9.51324679077022
      ],
      [
        "Ġbrown",
        -9.51551027907622
      ],
      [
        "Ġdemand",
        -9.516376944753734
      ],
      [
        "X",
        -9.516595188102702
      ],
      [
        "Ġenter",
        -9.5182919376617
      ],
      [
        "Ġmen",
        -9.518317205122573
      ],
      [
        "Ġsuitable",
        -9.51850046886857
      ],
      [
        "Ġplanet",
        -9.518811187677002
      ],
      [
        "Ġemission",
        -9.519019246970236
      ],
      [
        "Ġmechanism",
        -9.520087046730769
      ],
      [
        "Ġanti",
        -9.520345387422996
      ],
      [
        "ĠMany",
        -9.52038876924939
      ],
      [
        "Ġtemperatures",
        -9.520593269567158
      ],
      [
        "Ġtend",
        -9.52101543021364
      ],
      [
        "ĠCenter",
        -9.52501325922376
      ],
      [
        "ĠAdditional",
        -9.525452845883487
      ],
      [
        "Ġdeveloping",
        -9.525673296993569
      ],
      [
        "Ġefficient",
        -9.52645927026378
      ],
      [
        "Ġinteraction",
        -9.527898862266202
      ],
      [
        "Ġoxygen",
        -9.529445997103986
      ],
      [
        "Ġreflect",
        -9.529481502399577
      ],
      [
        "ĠWhy",
        -9.53008290403966
      ],
      [
        "Ġpush",
        -9.53050356128717
      ],
      [
        "Ġjourney",
        -9.531654547882276
      ],
      [
        "-up",
        -9.532899583296302
      ],
      [
        "Ġsigns",
        -9.533675710416825
      ],
      [
        "ph",
        -9.533775242656176
      ],
      [
        "Ġfigure",
        -9.53443492170708
      ],
      [
        "giving",
        -9.53515956485484
      ],
      [
        "Ġobtain",
        -9.53631927876279
      ],
      [
        "Ġaccept",
        -9.536731928894618
      ],
      [
        "By",
        -9.536783547597055
      ],
      [
        "Ġsevere",
        -9.537082567258338
      ],
      [
        "Ġpublished",
        -9.539193583048624
      ],
      [
        "Ġcity",
        -9.5392752753838
      ],
      [
        "Ġsalt",
        -9.5412581686328
      ],
      [
        "Ġconsist",
        -9.54191576237517
      ],
      [
        "Ġwriting",
        -9.542059332114944
      ],
      [
        "Ġcats",
        -9.542404444630886
      ],
      [
        "way",
        -9.5430187997668
      ],
      [
        "Ġapp",
        -9.545679553746403
      ],
      [
        "itis",
        -9.54601481638896
      ],
      [
        "Ġpractices",
        -9.547469196603984
      ],
      [
        "Ġreaction",
        -9.547769321997396
      ],
      [
        "Ġestimate",
        -9.5477885003994
      ],
      [
        "he",
        -9.547925024043453
      ],
      [
        "ng",
        -9.548227101712786
      ],
      [
        "Ġ--",
        -9.54894962582609
      ],
      [
        "Z",
        -9.54925575337914
      ],
      [
        "ug",
        -9.54984086349438
      ],
      [
        "These",
        -9.5512526682027
      ],
      [
        "Ġnumbers",
        -9.551274975221387
      ],
      [
        "Ġseek",
        -9.553596617686072
      ],
      [
        "Ġwire",
        -9.553636010777977
      ],
      [
        "older",
        -9.553691426223256
      ],
      [
        "Ġcompound",
        -9.555201721904442
      ],
      [
        "Ġbreath",
        -9.555801663649705
      ],
      [
        "Ġrefer",
        -9.556339296613018
      ],
      [
        "Ġnutrients",
        -9.557732255366242
      ],
      [
        "Ġyellow",
        -9.558140271953825
      ],
      [
        "ĠPro",
        -9.558631076631686
      ],
      [
        "Ġcouple",
        -9.55877924830727
      ],
      [
        "Ġwrong",
        -9.559975036195649
      ],
      [
        "Ġresistance",
        -9.560043766567272
      ],
      [
        "Ġchicken",
        -9.562338036370583
      ],
      [
        "Ġtissue",
        -9.562486125737845
      ],
      [
        "Ġnothing",
        -9.56277267173559
      ],
      [
        "Ġvia",
        -9.563324200750213
      ],
      [
        "Ġmemory",
        -9.56357255383422
      ],
      [
        "Ġpage",
        -9.563696982615248
      ],
      [
        "Ġingredients",
        -9.563889416217735
      ],
      [
        "Ġvegetables",
        -9.564520209173324
      ],
      [
        "Ġmotion",
        -9.565010296401637
      ],
      [
        "Ġconsumpti",
        -9.56502063306312
      ],
      [
        "Ġimportan",
        -9.567310662949188
      ],
      [
        "Ġslow",
        -9.56781844457283
      ],
      [
        "Ġfriends",
        -9.567859618787423
      ],
      [
        "our",
        -9.569261692315308
      ],
      [
        "Ġinstance",
        -9.57081297581667
      ],
      [
        "ize",
        -9.57096990778934
      ],
      [
        "Ġusers",
        -9.572803774955306
      ],
      [
        "Ġexpect",
        -9.57455684573702
      ],
      [
        "ĠOur",
        -9.575200382636243
      ],
      [
        "Ġrise",
        -9.5756313520464
      ],
      [
        "Ġvariable",
        -9.575670292438794
      ],
      [
        "Ġtherapy",
        -9.575718696284769
      ],
      [
        "Ġstick",
        -9.576048055308435
      ],
      [
        "mp",
        -9.57664154413309
      ],
      [
        "Ġstorage",
        -9.578149701683616
      ],
      [
        "Ġconstruction",
        -9.578458541929166
      ],
      [
        "mer",
        -9.578678018938394
      ],
      [
        "Ġinteresting",
        -9.580223395942246
      ],
      [
        "Ġbeautiful",
        -9.580531969980951
      ],
      [
        "Ġcross",
        -9.580953502328551
      ],
      [
        "Ġmessage",
        -9.582245154956816
      ],
      [
        "ĠOf",
        -9.582708819432426
      ],
      [
        "Ġpredict",
        -9.583716494255157
      ],
      [
        "Ġwonder",
        -9.584173919842051
      ],
      [
        "Ġsubstance",
        -9.584204010500974
      ],
      [
        "Ġtheory",
        -9.58421345770571
      ],
      [
        "Ġadapt",
        -9.584952065679424
      ],
      [
        "Ġcollection",
        -9.585191580751324
      ],
      [
        "Ġspend",
        -9.585249337812677
      ],
      [
        "Ġbar",
        -9.585359502002907
      ],
      [
        "Ġrare",
        -9.585598210670792
      ],
      [
        "Ġwrite",
        -9.586170554327644
      ],
      [
        "Ġwait",
        -9.586767704280394
      ],
      [
        "Ġlaw",
        -9.58897154728098
      ],
      [
        "Ġexposure",
        -9.590045138341893
      ],
      [
        "Ġpaint",
        -9.591332020401724
      ],
      [
        "Ġtechnique",
        -9.5918589119647
      ],
      [
        "Ġtask",
        -9.593238690869995
      ],
      [
        "Ġflight",
        -9.594259332394582
      ],
      [
        "Ġcapacit",
        -9.595701469280684
      ],
      [
        "ĠWho",
        -9.59584073713549
      ],
      [
        "Ġpowerful",
        -9.596170476070927
      ],
      [
        "ĠMay",
        -9.596447581823307
      ],
      [
        "Ġtank",
        -9.596936953671966
      ],
      [
        "taken",
        -9.597020092924616
      ],
      [
        "They",
        -9.597321082284113
      ],
      [
        "Ġideas",
        -9.598144978551268
      ],
      [
        "Ġlandscape",
        -9.598160336202888
      ],
      [
        "Ġheavy",
        -9.59835796661455
      ],
      [
        "Ġsend",
        -9.598588743385625
      ],
      [
        "time",
        -9.598874572224648
      ],
      [
        "ĠThen",
        -9.601546726333543
      ],
      [
        "Ġready",
        -9.602100957641468
      ],
      [
        "Ġrice",
        -9.603122696756603
      ],
      [
        "Ġsection",
        -9.603295734731669
      ],
      [
        "Ġdeliver",
        -9.603704264857686
      ],
      [
        "Ġmedication",
        -9.604018951915444
      ],
      [
        "Ġswitch",
        -9.60575011883159
      ],
      [
        "lost",
        -9.606618362648318
      ],
      [
        "Ġgenerate",
        -9.60796032481
      ],
      [
        "Ġcycle",
        -9.60805402392985
      ],
      [
        "Ġangle",
        -9.60870699200305
      ],
      [
        "ĠAls",
        -9.608988599901402
      ],
      [
        "Ġbigge",
        -9.609582211442383
      ],
      [
        "ĠNow",
        -9.609771508377612
      ],
      [
        "Ġdi",
        -9.610562673457924
      ],
      [
        "Ġpicture",
        -9.611432872529504
      ],
      [
        "Ġfaster",
        -9.611533239168196
      ],
      [
        "care",
        -9.612242730683398
      ],
      [
        "Ġframe",
        -9.614024943897746
      ],
      [
        "Ġbone",
        -9.614071527300023
      ],
      [
        "Ġstand",
        -9.614552624181249
      ],
      [
        "Ġpieces",
        -9.614881263142829
      ],
      [
        "Ġstarting",
        -9.614948920451456
      ],
      [
        "Ġmeasurement",
        -9.615865743845015
      ],
      [
        "Ġcentury",
        -9.616606174188163
      ],
      [
        "Ġvolume",
        -9.617355618504128
      ],
      [
        "On",
        -9.618350245019895
      ],
      [
        "Ġhands",
        -9.619160605947393
      ],
      [
        "Ġmotor",
        -9.620541739644992
      ],
      [
        "Ġroad",
        -9.620675818037393
      ],
      [
        "Ġhuge",
        -9.620820446931186
      ],
      [
        "Ġimplement",
        -9.624994759345729
      ],
      [
        "Ġanyone",
        -9.626109324777255
      ],
      [
        "ĠNOT",
        -9.626683311012254
      ],
      [
        "Ġforward",
        -9.627019155333466
      ],
      [
        "ĠRa",
        -9.627412894523175
      ],
      [
        "Ġprinciple",
        -9.627682346864765
      ],
      [
        "aught",
        -9.62779044528246
      ],
      [
        "Ġcutting",
        -9.62784216206181
      ],
      [
        "Ġexpert",
        -9.628755194407765
      ],
      [
        "Ġoutdoor",
        -9.630818871412556
      ],
      [
        "Ġfund",
        -9.631547175947148
      ],
      [
        "Ġball",
        -9.631685704362932
      ],
      [
        "Ġbank",
        -9.632146340473714
      ],
      [
        ".com",
        -9.632846644368694
      ],
      [
        "Ġexcellent",
        -9.63321019958765
      ],
      [
        "ure",
        -9.634976539053971
      ],
      [
        "Ġearth",
        -9.634992777426191
      ],
      [
        "Ġsaw",
        -9.635073856444995
      ],
      [
        "Ġfluid",
        -9.635924780469054
      ],
      [
        "tro",
        -9.63649488164696
      ],
      [
        "Some",
        -9.637301376470958
      ],
      [
        "Ġseed",
        -9.63862353393463
      ],
      [
        "although",
        -9.640221527983975
      ],
      [
        "ten",
        -9.64237717631351
      ],
      [
        "Ġmeaning",
        -9.642928796509096
      ],
      [
        "Ġsort",
        -9.644909738454931
      ],
      [
        "Ġlesson",
        -9.647007075516822
      ],
      [
        "Ġquick",
        -9.647322612839782
      ],
      [
        "Ġinsects",
        -9.64844589221247
      ],
      [
        "Ġcooking",
        -9.650017149001927
      ],
      [
        "water",
        -9.651819698273773
      ],
      [
        "Ġcleaning",
        -9.65216429931326
      ],
      [
        "Ġdocument",
        -9.653387022582262
      ],
      [
        "Ġprojects",
        -9.654103036267164
      ],
      [
        "ĠOther",
        -9.654997376842855
      ],
      [
        "Now",
        -9.656372938211453
      ],
      [
        "que",
        -9.6566495183256
      ],
      [
        "Ġclick",
        -9.657012314025131
      ],
      [
        "Ġtrack",
        -9.657102312107536
      ],
      [
        "Ġled",
        -9.657444911954524
      ],
      [
        "Ġthird",
        -9.657982151856489
      ],
      [
        "ĠBecause",
        -9.65962286859938
      ],
      [
        "Ġmolecule",
        -9.660447658907742
      ],
      [
        "Ġfinish",
        -9.661829782517508
      ],
      [
        "ĠJapan",
        -9.66352059817648
      ],
      [
        "went",
        -9.66509486662353
      ],
      [
        "Ġfully",
        -9.665813132971971
      ],
      [
        "hether",
        -9.66594770755886
      ],
      [
        "Ġelectronic",
        -9.666806153125442
      ],
      [
        "port",
        -9.667038079590217
      ],
      [
        "Ġplatform",
        -9.66726570634036
      ],
      [
        "ĠAre",
        -9.668119874089474
      ],
      [
        "Ġworth",
        -9.669350715799029
      ],
      [
        "Ġsample",
        -9.669391461909232
      ],
      [
        "spite",
        -9.671257438454113
      ],
      [
        "Ġoccurs",
        -9.67207482662926
      ],
      [
        "Ġthousand",
        -9.672609762159755
      ],
      [
        "Ġcoming",
        -9.672831638162696
      ],
      [
        "Ġstone",
        -9.673210117721249
      ],
      [
        "Ġcommunitie",
        -9.67412614116308
      ],
      [
        "ĠLi",
        -9.676868683391756
      ],
      [
        "oid",
        -9.676884565600933
      ],
      [
        "Ġmicro",
        -9.677645318269803
      ],
      [
        "Ġmouth",
        -9.677681660223753
      ],
      [
        "Ġreported",
        -9.677766282122432
      ],
      [
        "Ġcoast",
        -9.678014332274731
      ],
      [
        "Ġstates",
        -9.678303269276006
      ],
      [
        "Ġbecomes",
        -9.678315349175492
      ],
      [
        "Ġpattern",
        -9.67833972531233
      ],
      [
        "Ġcloth",
        -9.678762065937647
      ],
      [
        "Ġflavor",
        -9.679973421295198
      ],
      [
        "Ġhorse",
        -9.680258283443354
      ],
      [
        "Ġradio",
        -9.68029586521023
      ],
      [
        "Ġsolid",
        -9.680412621236805
      ],
      [
        "Ġheight",
        -9.680926846494252
      ],
      [
        "Ġlabel",
        -9.683095753771486
      ],
      [
        "Ġtri",
        -9.68345810136121
      ],
      [
        "Ġfabric",
        -9.68408889411915
      ],
      [
        "ĠUs",
        -9.684652766725588
      ],
      [
        "ĠLet",
        -9.685139434446626
      ],
      [
        "Ġpurchase",
        -9.685438292934892
      ],
      [
        "-in",
        -9.685441642921518
      ],
      [
        "Ġconsumer",
        -9.685796881448953
      ],
      [
        "Ġplanning",
        -9.686170404896318
      ],
      [
        "Ġmatch",
        -9.68776818676074
      ],
      [
        "inches",
        -9.690817796065629
      ],
      [
        "Ġsuit",
        -9.691114258435997
      ],
      [
        "Ġexpensive",
        -9.692919280475897
      ],
      [
        "Ġear",
        -9.693788683576097
      ],
      [
        "Ġsuper",
        -9.694131827375266
      ],
      [
        "therefore",
        -9.69456110760159
      ],
      [
        "Ġfight",
        -9.694780824783232
      ],
      [
        "Ġidentifie",
        -9.695169259716671
      ],
      [
        "Ġadvanced",
        -9.69519730346562
      ],
      [
        "Ġalcohol",
        -9.695280304468746
      ],
      [
        "Ġdiabetes",
        -9.69529220562532
      ],
      [
        "Ġmaximum",
        -9.6956459885885
      ],
      [
        "came",
        -9.69598973882935
      ],
      [
        "Ġlocated",
        -9.69606520840043
      ],
      [
        "Ġgrass",
        -9.69667226015994
      ],
      [
        "Ġpractical",
        -9.697170784863289
      ],
      [
        "About",
        -9.698930700559917
      ],
      [
        "Ġdetails",
        -9.699481843182706
      ],
      [
        "Ġlose",
        -9.699979934016303
      ],
      [
        "Ġoutcome",
        -9.70002575587634
      ],
      [
        "Ġsecurity",
        -9.701837457601972
      ],
      [
        "Ġeconomic",
        -9.701911235101605
      ],
      [
        "Ġvoltage",
        -9.702178163644792
      ],
      [
        "Ġthinking",
        -9.703474718728598
      ],
      [
        "Ġsell",
        -9.703844566251796
      ],
      [
        "Ġconvert",
        -9.704842784817163
      ],
      [
        "Ġreference",
        -9.70572417393324
      ],
      [
        "Ġsurrounding",
        -9.706486134112897
      ],
      [
        "low",
        -9.70657424708643
      ],
      [
        "ler",
        -9.706650620399143
      ],
      [
        "Ġreveal",
        -9.706674498193689
      ],
      [
        "Ġpresence",
        -9.70668225747306
      ],
      [
        "ĠPer",
        -9.70893205062751
      ],
      [
        "iv",
        -9.710429819232669
      ],
      [
        "Ġbeyond",
        -9.710843718651017
      ],
      [
        "Ġfair",
        -9.710863239757304
      ],
      [
        "Ġplate",
        -9.71293100075297
      ],
      [
        "ĠMake",
        -9.71357528659554
      ],
      [
        "Ġround",
        -9.714138709280842
      ],
      [
        "Ġfamilies",
        -9.715023757255237
      ],
      [
        "ĠInstitute",
        -9.715023790020531
      ],
      [
        "Ġexpand",
        -9.715027878635231
      ],
      [
        "haps",
        -9.715540237993434
      ],
      [
        "ĠEach",
        -9.715854488597126
      ],
      [
        "Ġspeak",
        -9.719733590600836
      ],
      [
        "men",
        -9.71981726449696
      ],
      [
        "Ġmiddle",
        -9.720641125010545
      ],
      [
        "kin",
        -9.721007499002347
      ],
      [
        "self",
        -9.721936228769604
      ],
      [
        "Ġstuff",
        -9.722041263902684
      ],
      [
        "Ġconnection",
        -9.722246109269612
      ],
      [
        "Ġtexture",
        -9.722335843500325
      ],
      [
        "Ġfrequency",
        -9.722844544053466
      ],
      [
        "Ġhabit",
        -9.723163414690283
      ],
      [
        "Ġchang",
        -9.72474014378036
      ],
      [
        "Ġpool",
        -9.726343775786734
      ],
      [
        "Ġplease",
        -9.726635570846708
      ],
      [
        "Ġtiny",
        -9.727708024714918
      ],
      [
        "Ġtechnologie",
        -9.729098573940052
      ],
      [
        "Ġstaff",
        -9.730334163267404
      ],
      [
        "Ġhit",
        -9.73043598598628
      ],
      [
        "Ġmeasures",
        -9.730454411432884
      ],
      [
        "Ġnational",
        -9.73088266865446
      ],
      [
        "Ġpump",
        -9.733310241491662
      ],
      [
        "Ġvital",
        -9.73342352413961
      ],
      [
        "Ġshift",
        -9.734513715244796
      ],
      [
        "Ġcomment",
        -9.734864242272517
      ],
      [
        "Ġchannel",
        -9.734961664189967
      ],
      [
        "Ġflat",
        -9.735233785211662
      ],
      [
        "Ġfavorite",
        -9.736218526723608
      ],
      [
        "Ġdivers",
        -9.73667390337901
      ],
      [
        "ick",
        -9.737780212778098
      ],
      [
        "Ġincluded",
        -9.73810438362389
      ],
      [
        "Ġexpress",
        -9.738211184031218
      ],
      [
        "ĠY",
        -9.740190268368153
      ],
      [
        "let",
        -9.740408456234908
      ],
      [
        "Ġprevious",
        -9.740505544427451
      ],
      [
        "Ġthus",
        -9.740652623485502
      ],
      [
        "coming",
        -9.74088404774294
      ],
      [
        "Ġrecognize",
        -9.741407316825097
      ],
      [
        "Step",
        -9.741984886975814
      ],
      [
        "body",
        -9.742073023260277
      ],
      [
        "Ġroll",
        -9.74256333530466
      ],
      [
        "Ġdiscovered",
        -9.743107281740604
      ],
      [
        "Ġcontext",
        -9.743358993636257
      ],
      [
        "Ġmoistur",
        -9.74345012168731
      ],
      [
        "ĠJust",
        -9.745477961537942
      ],
      [
        "limited",
        -9.745826341143584
      ],
      [
        "pp",
        -9.747216340022398
      ],
      [
        "Ġinjur",
        -9.748320182729818
      ],
      [
        "Ġcommercial",
        -9.748558148829344
      ],
      [
        "Ġevolution",
        -9.749086402942442
      ],
      [
        "ĠWater",
        -9.749676760453674
      ],
      [
        "He",
        -9.749941315235596
      ],
      [
        "Ġcrop",
        -9.750948320304865
      ],
      [
        "Ġrain",
        -9.752081708391335
      ],
      [
        "Ġdis",
        -9.753439633587984
      ],
      [
        "ities",
        -9.753986754534356
      ],
      [
        "Ġsoon",
        -9.754213038077811
      ],
      [
        "Ġforest",
        -9.754249773328237
      ],
      [
        "Ġ#",
        -9.754984750745546
      ],
      [
        "Ġaid",
        -9.755039019180687
      ],
      [
        "Ġvaluable",
        -9.757088533647142
      ],
      [
        "Ġcombine",
        -9.757135337511324
      ],
      [
        "Ġfarmer",
        -9.757185813351583
      ],
      [
        "Ġfilm",
        -9.757514969977546
      ],
      [
        "ĠDon",
        -9.75821103377982
      ],
      [
        "Ġproperty",
        -9.761051772649704
      ],
      [
        "Ġconnected",
        -9.761698291084237
      ],
      [
        "ĠEnglish",
        -9.762808667179444
      ],
      [
        "Ġpro",
        -9.762838737074189
      ],
      [
        "ese",
        -9.763018209179776
      ],
      [
        "Ġdie",
        -9.763188490471418
      ],
      [
        "No",
        -9.764418838962452
      ],
      [
        "ator",
        -9.764700525905385
      ],
      [
        "Ġsweet",
        -9.764779947234947
      ],
      [
        "ard",
        -9.764788916404507
      ],
      [
        "Ġalone",
        -9.765000401141515
      ],
      [
        "Ġdecade",
        -9.765200946940112
      ],
      [
        "Ġbond",
        -9.765204735942069
      ],
      [
        "efore",
        -9.766787124623823
      ],
      [
        "Ġonto",
        -9.766823555004192
      ],
      [
        "Ġhabitat",
        -9.766933775191731
      ],
      [
        "gen",
        -9.766989214811776
      ],
      [
        "Ġelement",
        -9.767331534715623
      ],
      [
        "Ġformed",
        -9.767348312197804
      ],
      [
        "ward",
        -9.76783154458499
      ],
      [
        "Ġengage",
        -9.767833961249746
      ],
      [
        "Ġbeginning",
        -9.76820205678921
      ],
      [
        "Ġgames",
        -9.768291669270369
      ],
      [
        "Ġimprov",
        -9.768335126139004
      ],
      [
        "act",
        -9.768964245734212
      ],
      [
        "Ġteaching",
        -9.769581574540098
      ],
      [
        "ck",
        -9.770788343495838
      ],
      [
        "Ġcolour",
        -9.771101629369369
      ],
      [
        "hi",
        -9.77139531476088
      ],
      [
        "ĠBr",
        -9.773667905902062
      ],
      [
        "ative",
        -9.774277714388994
      ],
      [
        "ĠUK",
        -9.774750125473975
      ],
      [
        "Ġweb",
        -9.776988782045258
      ],
      [
        "Ġbasi",
        -9.777009488080806
      ],
      [
        "Ġgenes",
        -9.777882341747295
      ],
      [
        "ĠMo",
        -9.778380979424998
      ],
      [
        "Ġmap",
        -9.77888893808095
      ],
      [
        "Ġdrawing",
        -9.778911303286206
      ],
      [
        "ade",
        -9.77897848824612
      ],
      [
        "Ġcup",
        -9.779471631680998
      ],
      [
        "Ġannual",
        -9.781480301365328
      ],
      [
        "ĠCar",
        -9.781889337498486
      ],
      [
        "Ġinternational",
        -9.782974073254264
      ],
      [
        "Ġanxiet",
        -9.782976217105832
      ],
      [
        "ĠState",
        -9.783214815814812
      ],
      [
        "ĠMe",
        -9.783996773405615
      ],
      [
        "Ġhearing",
        -9.784448718425493
      ],
      [
        "ĠGerman",
        -9.785026378873235
      ],
      [
        "Ġowner",
        -9.785294887931874
      ],
      [
        "chi",
        -9.785873408582155
      ],
      [
        "Ġappearance",
        -9.78631802843642
      ],
      [
        "held",
        -9.786726946532864
      ],
      [
        "ory",
        -9.787005641606717
      ],
      [
        "Ġaren",
        -9.78736802501251
      ],
      [
        "Ġpanel",
        -9.787758619517088
      ],
      [
        "Ġjoin",
        -9.787770203035066
      ],
      [
        "Ġdegrees",
        -9.78959235735806
      ],
      [
        "ĠIndia",
        -9.790011061078888
      ],
      [
        "Ġmin",
        -9.79138044007806
      ],
      [
        "Ġinter",
        -9.791714513847058
      ],
      [
        "Ġpot",
        -9.793171689487355
      ],
      [
        "ice",
        -9.795216516081076
      ],
      [
        "Ġdetect",
        -9.795313594031086
      ],
      [
        "Ġdouble",
        -9.795388566357822
      ],
      [
        "ĠZ",
        -9.795578479319596
      ],
      [
        "Ġcheese",
        -9.79652552581696
      ],
      [
        "Ġmedium",
        -9.79653089202781
      ],
      [
        "Ġbutton",
        -9.796748647092974
      ],
      [
        "Ġmarine",
        -9.797431550296944
      ],
      [
        "Ġcoat",
        -9.797810160435713
      ],
      [
        "Here",
        -9.797836987427356
      ],
      [
        "Ġinternal",
        -9.798086589136425
      ],
      [
        "Ġnest",
        -9.799044211691925
      ],
      [
        "Ġburn",
        -9.799107453248908
      ],
      [
        "Ġexamples",
        -9.79947139035722
      ],
      [
        "Ġgene",
        -9.799548731582233
      ],
      [
        "Ġsites",
        -9.800129994142324
      ],
      [
        "ĠFirst",
        -9.80173785419112
      ],
      [
        "Ġfashion",
        -9.802607055301618
      ],
      [
        "Ġtrigger",
        -9.802607318303284
      ],
      [
        "Ġcharacteristics",
        -9.802721443803405
      ],
      [
        "Our",
        -9.802896211318595
      ],
      [
        "Ġconsistent",
        -9.803714993874816
      ],
      [
        "Ġprogress",
        -9.804384955831097
      ],
      [
        "ster",
        -9.804631247151022
      ],
      [
        "ĠCO",
        -9.804953347788697
      ],
      [
        "Ġsociety",
        -9.805190105835369
      ],
      [
        "Ġfeeding",
        -9.805486139587147
      ],
      [
        "Ġvoice",
        -9.805662836679067
      ],
      [
        "Ġoperation",
        -9.806227092769005
      ],
      [
        "ĠAir",
        -9.807740053897662
      ],
      [
        "red",
        -9.808185321912331
      ],
      [
        "Ġregularly",
        -9.808206672020962
      ],
      [
        "Ġtasks",
        -9.80848739980582
      ],
      [
        "Ġcapture",
        -9.809384215757216
      ],
      [
        "That",
        -9.810524520389876
      ],
      [
        "Ġdead",
        -9.81092775907558
      ],
      [
        "}",
        -9.811013978491722
      ],
      [
        "Ġcreative",
        -9.811189101815714
      ],
      [
        "Ġbackground",
        -9.811992906683518
      ],
      [
        "Ġeffort",
        -9.812289663533804
      ],
      [
        "Ġschedule",
        -9.812370724975494
      ],
      [
        "Ġmeter",
        -9.8123821007102
      ],
      [
        "ach",
        -9.813233573374871
      ],
      [
        "Ġsecure",
        -9.81482611105882
      ],
      [
        "Ġpath",
        -9.815516631996246
      ],
      [
        "Ġpark",
        -9.815725909332508
      ],
      [
        "Ġnative",
        -9.816575875009176
      ],
      [
        "ner",
        -9.81708553299718
      ],
      [
        "Ġconservation",
        -9.817911281370447
      ],
      [
        "Ġdegree",
        -9.818135092885178
      ],
      [
        "Ġlegal",
        -9.81875037438586
      ],
      [
        "Ġmaintaining",
        -9.819022638630384
      ],
      [
        "Ġdriv",
        -9.819061332338697
      ],
      [
        "Answer",
        -9.82000235672894
      ],
      [
        "ĠEven",
        -9.820087442965358
      ],
      [
        "ĠAlthough",
        -9.820416324489951
      ],
      [
        "Ġparticipant",
        -9.821083301289889
      ],
      [
        "Ġtransform",
        -9.821891567960895
      ],
      [
        "Ġdoor",
        -9.822173378435869
      ],
      [
        "Ġimmediately",
        -9.82335062311234
      ],
      [
        "tion",
        -9.82339999910908
      ],
      [
        "Ġteachers",
        -9.82448985996339
      ],
      [
        "Ġtopic",
        -9.824769135294275
      ],
      [
        "-free",
        -9.825231966250364
      ],
      [
        "Ġdangerous",
        -9.82587528888913
      ],
      [
        "Be",
        -9.826489846549768
      ],
      [
        "ĠOnc",
        -9.826710308299283
      ],
      [
        "Ġtube",
        -9.826780776431573
      ],
      [
        "Ġattempt",
        -9.826845016457993
      ],
      [
        "ang",
        -9.82700174210576
      ],
      [
        "Ġroutine",
        -9.827318747517666
      ],
      [
        "Ġlargest",
        -9.827583604550767
      ],
      [
        "-year",
        -9.828268641600683
      ],
      [
        "Ġfinding",
        -9.828335252014798
      ],
      [
        "hu",
        -9.828356410024137
      ],
      [
        "Ġbooks",
        -9.828399172486971
      ],
      [
        "ĠBlack",
        -9.829201402039631
      ],
      [
        "ĠRo",
        -9.82931798038705
      ],
      [
        "#",
        -9.829382917607788
      ],
      [
        "Ġratio",
        -9.829665724406372
      ],
      [
        "happy",
        -9.830458937133542
      ],
      [
        "Ġbirth",
        -9.83211969300713
      ],
      [
        "Ġtrip",
        -9.832792483531753
      ],
      [
        "Ġcentral",
        -9.83330849592466
      ],
      [
        "Ġcomprehensive",
        -9.833703381374278
      ],
      [
        "Ġobserve",
        -9.833875642975327
      ],
      [
        "Ġbright",
        -9.83465859560716
      ],
      [
        "ists",
        -9.834949132383615
      ],
      [
        "ĠEurope",
        -9.837310110247865
      ],
      [
        "ĠAfrica",
        -9.838162957648612
      ],
      [
        "Ġlayers",
        -9.838617105757754
      ],
      [
        "Ġhour",
        -9.838930789842305
      ],
      [
        "Ġcoffee",
        -9.839907384523148
      ],
      [
        "ĠChina",
        -9.839943988574952
      ],
      [
        "Ġdriver",
        -9.840485475376363
      ],
      [
        "ĠHigh",
        -9.840502962070769
      ],
      [
        "Ġhighlight",
        -9.841111551726955
      ],
      [
        "Ġapproximate",
        -9.841653325030702
      ],
      [
        "ĠDepartment",
        -9.841653347025265
      ],
      [
        "ze",
        -9.841940735660271
      ],
      [
        "Ġcomponent",
        -9.842065654195473
      ],
      [
        "Ġalgorithm",
        -9.842098817879316
      ],
      [
        "den",
        -9.842884941400284
      ],
      [
        "Ġstation",
        -9.843688080689727
      ],
      [
        "izing",
        -9.84426558115254
      ],
      [
        "Ġvirtual",
        -9.844669298518276
      ],
      [
        "ĠDec",
        -9.845350930225775
      ],
      [
        "Ġartist",
        -9.846042486301672
      ],
      [
        "ger",
        -9.84606418649222
      ],
      [
        "Ġcomfortable",
        -9.846370648715894
      ],
      [
        "Ġmagnetic",
        -9.84661703156786
      ],
      [
        "ĠHa",
        -9.846721328709732
      ],
      [
        "Ġdemonstrate",
        -9.848346623314688
      ],
      [
        "ĠOver",
        -9.848494524467563
      ],
      [
        "ĠSe",
        -9.848998790630716
      ],
      [
        "Ġsupplement",
        -9.851053993061612
      ],
      [
        "Ġthin",
        -9.851442994957583
      ],
      [
        "ĠAccording",
        -9.852914232815984
      ],
      [
        "After",
        -9.852971403942965
      ],
      [
        "Ġroots",
        -9.853635243053764
      ],
      [
        "ĠCalifornia",
        -9.854713912598662
      ],
      [
        "Ġbodie",
        -9.855106399926337
      ],
      [
        "Ġsquare",
        -9.855871255709303
      ],
      [
        "Ġformat",
        -9.85597621487641
      ],
      [
        "Ġdepth",
        -9.856397301321158
      ],
      [
        "Ġabsorb",
        -9.85653953610492
      ],
      [
        "Ġedge",
        -9.85734459094043
      ],
      [
        "Ġassess",
        -9.859131501589149
      ],
      [
        "lin",
        -9.859163729941264
      ],
      [
        "board",
        -9.859410171849678
      ],
      [
        "Ġten",
        -9.860557743071332
      ],
      [
        "Ġdrain",
        -9.860629925106494
      ],
      [
        "Ġtransmission",
        -9.860721599855395
      ],
      [
        "Ġgear",
        -9.86236351002871
      ],
      [
        "Ġtransfer",
        -9.862997313865655
      ],
      [
        "har",
        -9.863062060799404
      ],
      [
        "Ġthreat",
        -9.863663379127008
      ],
      [
        "Ġnearly",
        -9.863955542692432
      ],
      [
        "Ġmember",
        -9.863958900724196
      ],
      [
        "Ġcontinuous",
        -9.864044912944456
      ],
      [
        "Ġcharacter",
        -9.864300645550845
      ],
      [
        "Ġremov",
        -9.865050631214867
      ],
      [
        "ĠDay",
        -9.865062572079438
      ],
      [
        "how",
        -9.865437669273526
      ],
      [
        "Ġfunctions",
        -9.865509580620898
      ],
      [
        "Ġclient",
        -9.865570646900292
      ],
      [
        "Ġgold",
        -9.86691907149114
      ],
      [
        "Ġselection",
        -9.867076081588436
      ],
      [
        "Ġcomfort",
        -9.867974761242788
      ],
      [
        "Ġrespond",
        -9.8686587609451
      ],
      [
        "Ġinsight",
        -9.86922879255431
      ],
      [
        "Ġaware",
        -9.870395825308842
      ],
      [
        "uc",
        -9.871422065341845
      ],
      [
        "{",
        -9.87314740444775
      ],
      [
        "Ġoffice",
        -9.875334843837535
      ],
      [
        "Ġemergenc",
        -9.875335070905146
      ],
      [
        "Ġoptimal",
        -9.878302674534863
      ],
      [
        "Ġprefer",
        -9.87841262909048
      ],
      [
        "Ġheal",
        -9.879937111270534
      ],
      [
        "Ġfinancial",
        -9.880300587318777
      ],
      [
        "Ġdental",
        -9.88039776388817
      ],
      [
        "Ġintroduce",
        -9.880554519812415
      ],
      [
        "Ġwheel",
        -9.880588617411998
      ],
      [
        "Ġgrain",
        -9.880746301153035
      ],
      [
        "Ġship",
        -9.881582811158877
      ],
      [
        "Ġegg",
        -9.881803217480469
      ],
      [
        "can",
        -9.881946113715417
      ],
      [
        "Ġrule",
        -9.882264733828466
      ],
      [
        "Ġpolicy",
        -9.882277315555516
      ],
      [
        "king",
        -9.882867989711546
      ],
      [
        "Ġlisten",
        -9.882922045414611
      ],
      [
        "Ġrules",
        -9.88336730087446
      ],
      [
        "All",
        -9.883419522474474
      ],
      [
        "Ġmaybe",
        -9.88365807092012
      ],
      [
        "Ġatmosphere",
        -9.88539452174985
      ],
      [
        "bility",
        -9.885576885836144
      ],
      [
        "Ġcommand",
        -9.886929764039715
      ],
      [
        "Ġrid",
        -9.887521135204109
      ],
      [
        "ĠSince",
        -9.888864828308536
      ],
      [
        "expected",
        -9.890286741153876
      ],
      [
        "Ġassessment",
        -9.89053848705576
      ],
      [
        "Ġskill",
        -9.89083920664698
      ],
      [
        "ail",
        -9.890984907839634
      ],
      [
        "Ġfiber",
        -9.89182611172568
      ],
      [
        "Ġemail",
        -9.8919713966594
      ],
      [
        "Ġmold",
        -9.892053983041356
      ],
      [
        "Ġyield",
        -9.892228931166724
      ],
      [
        "Ġartificial",
        -9.893072706552072
      ],
      [
        "Ġsurger",
        -9.89332178750996
      ],
      [
        "Ġroof",
        -9.895210246299795
      ],
      [
        "ect",
        -9.895925137037786
      ],
      [
        "Ġstock",
        -9.89624102520619
      ],
      [
        "Ġleaf",
        -9.897355614576243
      ],
      [
        "Ġfail",
        -9.897978607936832
      ],
      [
        "Ġgoals",
        -9.898175979234528
      ],
      [
        "Ġelectron",
        -9.898288071286082
      ],
      [
        "Ġsmart",
        -9.898605832135276
      ],
      [
        "Ġcatch",
        -9.898770440276754
      ],
      [
        "Ġdrug",
        -9.899981772874275
      ],
      [
        "Ġsequence",
        -9.900336946959552
      ],
      [
        "ĠAustralia",
        -9.902079487874744
      ],
      [
        "Ġvirus",
        -9.903241016608202
      ],
      [
        "Ġconclusion",
        -9.903654437269145
      ],
      [
        "Ġpossibilit",
        -9.903656536282613
      ],
      [
        "Ġpress",
        -9.903678717375382
      ],
      [
        "Ġmixture",
        -9.903737510729524
      ],
      [
        "Ġtold",
        -9.904682650430376
      ],
      [
        "-like",
        -9.90506688851558
      ],
      [
        "Ġtransition",
        -9.905618284492554
      ],
      [
        "Ġadopt",
        -9.906445140032048
      ],
      [
        "Ġdesire",
        -9.906682001772154
      ],
      [
        "Ġstraight",
        -9.9067351606744
      ],
      [
        "Ġbeneficial",
        -9.907035673814743
      ],
      [
        "Ġancient",
        -9.907036422739823
      ],
      [
        "Ġsuffer",
        -9.908314407810357
      ],
      [
        "Ġsports",
        -9.9084725934411
      ],
      [
        "Ġteacher",
        -9.90847625451664
      ],
      [
        "Ġdetail",
        -9.909135302950396
      ],
      [
        "Ġengineering",
        -9.909562001992896
      ],
      [
        "Ġsurvey",
        -9.909734127409278
      ],
      [
        "Ġtrust",
        -9.910734854433302
      ],
      [
        "lan",
        -9.91201318206576
      ],
      [
        "Ġvalve",
        -9.912146043067995
      ],
      [
        "Ġbatter",
        -9.9124668093487
      ],
      [
        "Ġdistribution",
        -9.914054818835163
      ],
      [
        "Ġshot",
        -9.914368163708026
      ],
      [
        "Ġefforts",
        -9.9147170244579
      ],
      [
        "ĠEl",
        -9.91495299593597
      ],
      [
        "Ġspeaker",
        -9.91535840341571
      ],
      [
        "Ġthick",
        -9.916620815432395
      ],
      [
        "Ġpets",
        -9.917055041513937
      ],
      [
        "Ġkitchen",
        -9.917254299791802
      ],
      [
        "ĠDi",
        -9.91839519090128
      ],
      [
        "Ġfertilizer",
        -9.921723986322588
      ],
      [
        "Ġcore",
        -9.921875217909784
      ],
      [
        "Ġrace",
        -9.922426121746213
      ],
      [
        "ification",
        -9.922787223171408
      ],
      [
        "ĠFood",
        -9.92287919489361
      ],
      [
        "ĠWar",
        -9.92363538273128
      ],
      [
        "wide",
        -9.92420833168288
      ],
      [
        "Ġseal",
        -9.924912574426129
      ],
      [
        "tri",
        -9.92639285403376
      ],
      [
        "Ġagree",
        -9.927286148995552
      ],
      [
        "Ġpack",
        -9.927430862585156
      ],
      [
        "side",
        -9.929585107784137
      ],
      [
        "ĠTherefor",
        -9.930561548590411
      ],
      [
        "ĠEvery",
        -9.93066572934238
      ],
      [
        "AL",
        -9.931476494691886
      ],
      [
        "Ġfly",
        -9.931955357282868
      ],
      [
        "Ġtechnical",
        -9.932802738016257
      ],
      [
        "Ġpollution",
        -9.932886964434108
      ],
      [
        "Ġwritten",
        -9.933887075915424
      ],
      [
        "ĠDuring",
        -9.934928519329125
      ],
      [
        "ĠâĢ¦",
        -9.935347489598726
      ],
      [
        "My",
        -9.935871798395011
      ],
      [
        "**",
        -9.937144961690963
      ],
      [
        "Ġregulation",
        -9.93754377152375
      ],
      [
        "Ġlens",
        -9.93806474050746
      ],
      [
        "Ġbio",
        -9.938887411193194
      ],
      [
        "Ġmode",
        -9.938947288559843
      ],
      [
        "Ġcarrie",
        -9.939287556883656
      ],
      [
        "Ġsession",
        -9.939741572305502
      ],
      [
        "Ġmiles",
        -9.93987284824992
      ],
      [
        "Ġdiscussion",
        -9.93993255196143
      ],
      [
        "ology",
        -9.939988078722845
      ],
      [
        "Ġsit",
        -9.94062706547491
      ],
      [
        "Ġreplace",
        -9.94066966858358
      ],
      [
        "Ġteach",
        -9.943563043371904
      ],
      [
        "ĠPre",
        -9.944044648889548
      ],
      [
        "Ġenable",
        -9.944174922314634
      ],
      [
        "Ġimprovement",
        -9.94449218106192
      ],
      [
        "all",
        -9.945665316222168
      ],
      [
        "Ġindependent",
        -9.947164921969277
      ],
      [
        "Ġorganization",
        -9.947381649594746
      ],
      [
        "Ġmother",
        -9.947431697213696
      ],
      [
        "Ġdrop",
        -9.948555288221218
      ],
      [
        "Ġwindow",
        -9.949081485004928
      ],
      [
        "ĠUn",
        -9.949247923947029
      ],
      [
        "Ġcream",
        -9.950259182752673
      ],
      [
        "Ġhelpful",
        -9.951156374500048
      ],
      [
        "Ġbillion",
        -9.951418804304748
      ],
      [
        "ub",
        -9.952039787060732
      ],
      [
        "Ġnumerou",
        -9.95206499099844
      ],
      [
        "Ġcheap",
        -9.952085071269572
      ],
      [
        "Ġwar",
        -9.95278679307581
      ],
      [
        "ĠPi",
        -9.95312744920853
      ],
      [
        "Ġcook",
        -9.954420140560597
      ],
      [
        "ĠBo",
        -9.955205703376148
      ],
      [
        "Ġmid",
        -9.956597445216982
      ],
      [
        "Ġpipe",
        -9.958431542508514
      ],
      [
        "Ġblend",
        -9.958446906396754
      ],
      [
        "Ġchemicals",
        -9.9592521003839
      ],
      [
        "Ġproteins",
        -9.959594718111704
      ],
      [
        "Ġoperate",
        -9.959767461066171
      ],
      [
        "Ġemotional",
        -9.960483209804714
      ],
      [
        "Ġperspective",
        -9.96096177014834
      ],
      [
        "Ġthrow",
        -9.960974397406334
      ],
      [
        "rate",
        -9.961612405526663
      ],
      [
        "ĠBar",
        -9.961888859187582
      ],
      [
        "Ġexternal",
        -9.962750842419748
      ],
      [
        "Ġclassroom",
        -9.962824753903869
      ],
      [
        "Ġsuggests",
        -9.96403755957296
      ],
      [
        "-quality",
        -9.964847404078204
      ],
      [
        "lic",
        -9.96623534590118
      ],
      [
        "Ġcard",
        -9.967753040478726
      ],
      [
        "ĠDownload",
        -9.969603163591284
      ],
      [
        "pro",
        -9.96966522117754
      ],
      [
        "Ġlaunch",
        -9.969939601633184
      ],
      [
        "Ġharvest",
        -9.970446427407747
      ],
      [
        "what",
        -9.970483612470655
      ],
      [
        "Ġcars",
        -9.971609429416926
      ],
      [
        "Ġinvestment",
        -9.971872916989357
      ],
      [
        "Ġportion",
        -9.97252147271161
      ],
      [
        "Ġcorn",
        -9.972965500389474
      ],
      [
        "Ġga",
        -9.973182719570602
      ],
      [
        "Ġadvice",
        -9.973608132067394
      ],
      [
        "Pro",
        -9.973807441494774
      ],
      [
        "ĠApril",
        -9.974003410098325
      ],
      [
        "Another",
        -9.97401947948734
      ],
      [
        "Ġjoint",
        -9.974510134383827
      ],
      [
        "ĠJu",
        -9.974584587758557
      ],
      [
        "ĠEuropean",
        -9.974664992994864
      ],
      [
        "ĠYork",
        -9.975364164029449
      ],
      [
        "Ġbear",
        -9.976309316473127
      ],
      [
        "Ġrespect",
        -9.976748197748831
      ],
      [
        "].",
        -9.977396458498152
      ],
      [
        "Ġdifferences",
        -9.977597210417157
      ],
      [
        "which",
        -9.977809486993582
      ],
      [
        "Ġjump",
        -9.979000680504251
      ],
      [
        "Ġprepared",
        -9.979119539541344
      ],
      [
        "Ġfear",
        -9.979130692569289
      ],
      [
        "Ġraw",
        -9.980604096299928
      ],
      [
        "Ġbeauty",
        -9.980819066834073
      ],
      [
        "PS",
        -9.98092195033746
      ],
      [
        "Ġborn",
        -9.981898175505656
      ],
      [
        "Ġmo",
        -9.981909239144496
      ],
      [
        "Ġletter",
        -9.982171482419536
      ],
      [
        "Ġexperts",
        -9.983494811687253
      ],
      [
        "use",
        -9.983869106379563
      ],
      [
        "Ġattract",
        -9.98396389844368
      ],
      [
        "Ġshoes",
        -9.98452305894834
      ],
      [
        "Ġma",
        -9.985569756328278
      ],
      [
        "Ġbroad",
        -9.988089069884651
      ],
      [
        "Ġsheet",
        -9.98870237154268
      ],
      [
        "Ġhundred",
        -9.989914604225165
      ],
      [
        "ley",
        -9.992427664144312
      ],
      [
        "Ġmedicine",
        -9.993083035100453
      ],
      [
        "Ġstorie",
        -9.993485055865222
      ],
      [
        "ĠPo",
        -9.9936299410681
      ],
      [
        "Ġinteract",
        -9.993800891229483
      ],
      [
        "Ġchain",
        -9.99447857894676
      ],
      [
        "ĠIsland",
        -9.99589994649108
      ],
      [
        "Ġupper",
        -9.996095973995368
      ],
      [
        "Ġsurvive",
        -9.998385380989106
      ],
      [
        "lat",
        -9.99900891485979
      ],
      [
        "Ġnice",
        -9.999473708506612
      ],
      [
        "Ġchalleng",
        -10.000355649436706
      ],
      [
        "Ġcareer",
        -10.000733487048326
      ],
      [
        "Ġultimate",
        -10.002938722256872
      ],
      [
        "Ġsnake",
        -10.00293939797467
      ],
      [
        "Ġtire",
        -10.003291188654678
      ],
      [
        "ĠMarch",
        -10.00331896293019
      ],
      [
        "ĠGreat",
        -10.003807122519866
      ],
      [
        "Ġmanufactur",
        -10.004567423265811
      ],
      [
        "Ġregions",
        -10.004707127003144
      ],
      [
        "ĠNov",
        -10.005198397860523
      ],
      [
        "Ġtooth",
        -10.00538943036304
      ],
      [
        "Ġprepare",
        -10.00547142627959
      ],
      [
        "cer",
        -10.005532261163388
      ],
      [
        "Ġformation",
        -10.00575071496302
      ],
      [
        "Ġhospital",
        -10.006673554596407
      ],
      [
        "ric",
        -10.00674777095782
      ],
      [
        "ĠPark",
        -10.00683012887448
      ],
      [
        "Ġsolve",
        -10.008466672373665
      ],
      [
        "Ġprimari",
        -10.008554425700943
      ],
      [
        "Ġcultural",
        -10.010404557355738
      ],
      [
        "Ã©",
        -10.010423830676045
      ],
      [
        "osis",
        -10.010885659765629
      ],
      [
        "with",
        -10.010950000572103
      ],
      [
        "Ġtru",
        -10.011236897400613
      ],
      [
        "Ġstatus",
        -10.011968797503965
      ],
      [
        "back",
        -10.012146480331598
      ],
      [
        "Ġchanged",
        -10.012735868865953
      ],
      [
        "ible",
        -10.01286145798769
      ],
      [
        "Ġextract",
        -10.01361823053103
      ],
      [
        "ept",
        -10.013721922086305
      ],
      [
        "Ġpregnancy",
        -10.013799923066856
      ],
      [
        "Ġconsume",
        -10.014120828003032
      ],
      [
        "Ġpreference",
        -10.014311275021164
      ],
      [
        "Ġreduction",
        -10.014337714166423
      ],
      [
        "ca",
        -10.014433645285628
      ],
      [
        "Ġgrown",
        -10.014489377408708
      ],
      [
        "upon",
        -10.014706882462733
      ],
      [
        "Ġcrops",
        -10.015156337814382
      ],
      [
        "Ġindoor",
        -10.0152582219649
      ],
      [
        "exposed",
        -10.015413764876968
      ],
      [
        "ĠLED",
        -10.01568052016557
      ],
      [
        "Ġex",
        -10.015949263689787
      ],
      [
        "ĠGreen",
        -10.016497463049046
      ],
      [
        "Ġaccident",
        -10.016531286722069
      ],
      [
        "Ġmechanical",
        -10.017950901106108
      ],
      [
        "Ġblog",
        -10.018940274556137
      ],
      [
        "Ġblade",
        -10.01987713449407
      ],
      [
        "pos",
        -10.020298494782342
      ],
      [
        "Ġtitle",
        -10.020413527996917
      ],
      [
        "Ġreliabl",
        -10.020601922601038
      ],
      [
        "Ġlibrar",
        -10.021755229161126
      ],
      [
        "kept",
        -10.022248827129893
      ],
      [
        "Ġbreeding",
        -10.023086800585723
      ],
      [
        "Ġengineer",
        -10.023556380013172
      ],
      [
        "Ġbi",
        -10.0239361218396
      ],
      [
        "Ġcreature",
        -10.023957149780756
      ],
      [
        "Ġlay",
        -10.024279115242642
      ],
      [
        "Ġoperat",
        -10.02519061252088
      ],
      [
        "Ġbill",
        -10.025307188524046
      ],
      [
        "Ġgenome",
        -10.02556103509281
      ],
      [
        "Ġdefined",
        -10.025907134449042
      ],
      [
        "Ġnutrition",
        -10.026289981026096
      ],
      [
        "ĠSan",
        -10.02647097000094
      ],
      [
        "air",
        -10.026530526928257
      ],
      [
        "com",
        -10.026679016613148
      ],
      [
        "Ġconcentration",
        -10.02674838828424
      ],
      [
        "ja",
        -10.026927948116558
      ],
      [
        "Dr",
        -10.027130024436008
      ],
      [
        "Ġassembl",
        -10.02727726996942
      ],
      [
        "Ġtrain",
        -10.027583935770435
      ],
      [
        "Ġlatest",
        -10.027940254122557
      ],
      [
        "Ġstandards",
        -10.028184712737058
      ],
      [
        "Ġweigh",
        -10.028430046184438
      ],
      [
        "Ġsaying",
        -10.029233874784808
      ],
      [
        "Are",
        -10.02933610027771
      ],
      [
        "Ġenzyme",
        -10.029382373988252
      ],
      [
        "Ġlung",
        -10.02946200174253
      ],
      [
        "ĠProgram",
        -10.030222355365844
      ],
      [
        "Ġcit",
        -10.030588833604495
      ],
      [
        "ĠKa",
        -10.031606876363163
      ],
      [
        "Ġscene",
        -10.03162811543071
      ],
      [
        "Ġapart",
        -10.031663105997495
      ],
      [
        "gu",
        -10.031710243550684
      ],
      [
        "Ġeventually",
        -10.031907724119224
      ],
      [
        "ĠInternational",
        -10.033198795894585
      ],
      [
        "Ġtraffic",
        -10.03321611580945
      ],
      [
        "Ġearlier",
        -10.03382319804778
      ],
      [
        "Ġfindings",
        -10.034184161405664
      ],
      [
        "resistant",
        -10.034187873816927
      ],
      [
        "Ġjournal",
        -10.034312928301066
      ],
      [
        "ĠSystem",
        -10.034672321107127
      ],
      [
        "Ġloop",
        -10.035098630132625
      ],
      [
        "Ġworked",
        -10.035385455111252
      ],
      [
        "ĠWell",
        -10.035779778651698
      ],
      [
        "Ġprocedure",
        -10.035877209175249
      ],
      [
        "ious",
        -10.03643044264567
      ],
      [
        "ĠDoes",
        -10.036529833470698
      ],
      [
        "Ġwhose",
        -10.0368001216029
      ],
      [
        "Ġparameter",
        -10.037078880322667
      ],
      [
        "Ġillness",
        -10.03709915048864
      ],
      [
        "Ġworry",
        -10.037271295313255
      ],
      [
        "Ġspin",
        -10.037453786664678
      ],
      [
        "Ġseat",
        -10.0380858290627
      ],
      [
        "Ġmorning",
        -10.039001368862522
      ],
      [
        "Ġassist",
        -10.039002872811258
      ],
      [
        "Ġstorm",
        -10.039292641461344
      ],
      [
        "ven",
        -10.039413191711162
      ],
      [
        "cho",
        -10.03954209172337
      ],
      [
        "ought",
        -10.039723210159522
      ],
      [
        "Ġsounds",
        -10.039779528708635
      ],
      [
        "und",
        -10.040787588291357
      ],
      [
        "Ġmask",
        -10.04104610201716
      ],
      [
        "Ġatom",
        -10.041994568127825
      ],
      [
        "Ġnaturally",
        -10.042161403677568
      ],
      [
        "Ġquantum",
        -10.042564092558134
      ],
      [
        "ĠSept",
        -10.042761205947343
      ],
      [
        "Ġcomposition",
        -10.04289745460854
      ],
      [
        "Ġowners",
        -10.04313959669361
      ],
      [
        "Ġbusinesses",
        -10.043772165585754
      ],
      [
        "Ġfix",
        -10.043845350223668
      ],
      [
        "/or",
        -10.044063987449825
      ],
      [
        "Ġstar",
        -10.0443095176627
      ],
      [
        "Ġshade",
        -10.045489398883245
      ],
      [
        "Ġexpression",
        -10.045837788753865
      ],
      [
        "ches",
        -10.046304490326666
      ],
      [
        "Ġorganizations",
        -10.04635926615848
      ],
      [
        "Ġcm",
        -10.0464370721933
      ],
      [
        "Many",
        -10.046581081802376
      ],
      [
        "Ġcontrast",
        -10.04660330604255
      ],
      [
        "Ġbike",
        -10.046707161200423
      ],
      [
        "Ġdefinition",
        -10.048822972345889
      ],
      [
        "q",
        -10.05012759604577
      ],
      [
        "Ġvaccine",
        -10.050657765730453
      ],
      [
        "Ġprivate",
        -10.050672270673948
      ],
      [
        "Ġfinger",
        -10.050776402370747
      ],
      [
        "Ġheating",
        -10.050916385491911
      ],
      [
        "ung",
        -10.052274417543568
      ],
      [
        "Ġmuscles",
        -10.052882695912968
      ],
      [
        "Ġbreast",
        -10.052994963366425
      ],
      [
        "fer",
        -10.053314003461026
      ],
      [
        "Ġwet",
        -10.053493266110756
      ],
      [
        "ĠCa",
        -10.05373032715426
      ],
      [
        "Ġdish",
        -10.053971870346455
      ],
      [
        "ĠPa",
        -10.054698876916728
      ],
      [
        "ĠGu",
        -10.05484511169848
      ],
      [
        "ĠRiver",
        -10.05522318575582
      ],
      [
        "Ġexamine",
        -10.055508185535771
      ],
      [
        "Ġreferr",
        -10.055784339921258
      ],
      [
        "Ġaudio",
        -10.05635324740841
      ],
      [
        "ĠKeep",
        -10.05704907154422
      ],
      [
        "Ġtea",
        -10.057058815363586
      ],
      [
        "set",
        -10.057108432508072
      ],
      [
        "ĠEducation",
        -10.057134606289384
      ],
      [
        "Ġplane",
        -10.057271150839362
      ],
      [
        "Ġarm",
        -10.05734912361138
      ],
      [
        "Ġoperations",
        -10.058022498135056
      ],
      [
        "Ġemployee",
        -10.058551892047994
      ],
      [
        "Ġsmell",
        -10.058555908112808
      ],
      [
        "ĠPe",
        -10.058789987741932
      ],
      [
        "Ġcreation",
        -10.059615185899265
      ],
      [
        "Ġoffering",
        -10.060667160820202
      ],
      [
        "Ġclasse",
        -10.062394736251903
      ],
      [
        "Conclusion",
        -10.06245722750231
      ],
      [
        "Ġlifestyle",
        -10.062567975962072
      ],
      [
        "Ġnutrient",
        -10.063528396491495
      ],
      [
        "Ġpilot",
        -10.06444532733904
      ],
      [
        "Ġinternet",
        -10.064493728094408
      ],
      [
        "Ġpropose",
        -10.064540621103404
      ],
      [
        "Ġaircraft",
        -10.064582182381372
      ],
      [
        "cal",
        -10.064596023619432
      ],
      [
        "qu",
        -10.064653066502274
      ],
      [
        "Most",
        -10.065221182870726
      ],
      [
        "car",
        -10.065510901726558
      ],
      [
        "Ġcable",
        -10.065571779459829
      ],
      [
        "diversity",
        -10.065667353421006
      ],
      [
        "nstead",
        -10.067081328078125
      ],
      [
        "ĠPlant",
        -10.069841946296233
      ],
      [
        "Ġzone",
        -10.06993837809362
      ],
      [
        "Ġintelligence",
        -10.070401655880586
      ],
      [
        "Ġlab",
        -10.071478994714727
      ],
      [
        "Ġenvironments",
        -10.07224793715157
      ],
      [
        "Ġfundamental",
        -10.072397731144726
      ],
      [
        "that",
        -10.07315471863832
      ],
      [
        "Ġeducational",
        -10.075245614203396
      ],
      [
        "ene",
        -10.075285266682904
      ],
      [
        "Ġprofessionals",
        -10.075426710769465
      ],
      [
        "âĢĻt",
        -10.075918650371626
      ],
      [
        "Ġsent",
        -10.076021773623625
      ],
      [
        "Ġchronic",
        -10.076401688791927
      ],
      [
        "Ġvehicles",
        -10.07734375360405
      ],
      [
        "ĠPeople",
        -10.077630456402208
      ],
      [
        "Ġobvious",
        -10.078409704046416
      ],
      [
        "Ġemploy",
        -10.078603783880812
      ],
      [
        "Ġgirl",
        -10.078710935463818
      ],
      [
        "ĠAdd",
        -10.07895883194548
      ],
      [
        "Ġbiological",
        -10.07957299207467
      ],
      [
        "ĠBritish",
        -10.07970001222066
      ],
      [
        "Ġfunctional",
        -10.079992122887642
      ],
      [
        "Ġsamples",
        -10.08069553354645
      ],
      [
        "che",
        -10.081828147318928
      ],
      [
        "Ġconfirm",
        -10.082437927087916
      ],
      [
        "Ġrequest",
        -10.082437968478184
      ],
      [
        "Ġamazing",
        -10.08243809352077
      ],
      [
        "Ġnerve",
        -10.082473442620891
      ],
      [
        "Ġpainting",
        -10.082623194199606
      ],
      [
        "ĠLife",
        -10.083876129322167
      ],
      [
        "mal",
        -10.08442763706806
      ],
      [
        "Ġfossil",
        -10.085582405585251
      ],
      [
        "@",
        -10.085962046265838
      ],
      [
        "Ġauto",
        -10.086057228716877
      ],
      [
        "Ġcapabilit",
        -10.086899768637846
      ],
      [
        "Ġproduc",
        -10.088200212215678
      ],
      [
        "Ġspray",
        -10.089181653143942
      ],
      [
        "ĠMa",
        -10.089243170279316
      ],
      [
        "ING",
        -10.09019057271754
      ],
      [
        "urniture",
        -10.09054970013755
      ],
      [
        "Ġradiation",
        -10.090595803655145
      ],
      [
        "Yes",
        -10.091084449167273
      ],
      [
        "ile",
        -10.091703296050405
      ],
      [
        "ĠFlorida",
        -10.092695975402496
      ],
      [
        "Ġquantit",
        -10.092774045412307
      ],
      [
        "Ġcurve",
        -10.09307298537084
      ],
      [
        "Ġsituations",
        -10.093153231781926
      ],
      [
        "Ġsecret",
        -10.093294140847313
      ],
      [
        "Ġrisks",
        -10.093507622219304
      ],
      [
        "Ã",
        -10.09449335267522
      ],
      [
        "Ġwaves",
        -10.094804928502022
      ],
      [
        "Ġcontrolle",
        -10.094847932157194
      ],
      [
        "off",
        -10.094854073370051
      ],
      [
        "Ġobservation",
        -10.095099450059465
      ],
      [
        "ĠCanada",
        -10.095232370389898
      ],
      [
        "Ġstrain",
        -10.09578070462181
      ],
      [
        "Ġinnovation",
        -10.09666586388344
      ],
      [
        "Use",
        -10.097399026869573
      ],
      [
        "Ġmobile",
        -10.09761535678086
      ],
      [
        "Ġbread",
        -10.0982214179028
      ],
      [
        "mas",
        -10.09838557472348
      ],
      [
        "Ġarray",
        -10.098787900660373
      ],
      [
        "Ġcredit",
        -10.099258360320103
      ],
      [
        "Ġbr",
        -10.099398120313388
      ],
      [
        "Ġerror",
        -10.099464982176084
      ],
      [
        "Ġdetailed",
        -10.100800365334068
      ],
      [
        "Ġcamp",
        -10.10094651784734
      ],
      [
        "Ġhelping",
        -10.10102338058192
      ],
      [
        "ĠSea",
        -10.101306855305296
      ],
      [
        "ell",
        -10.102790346449222
      ],
      [
        "Ġcalculate",
        -10.103237755737544
      ],
      [
        "Ġexplor",
        -10.103281218874477
      ],
      [
        "Ġphotograph",
        -10.103419876722748
      ],
      [
        "Ġconstruct",
        -10.104505987235925
      ],
      [
        "accurac",
        -10.104889972355442
      ],
      [
        "Ġknee",
        -10.10496134403536
      ],
      [
        "Ġsurvival",
        -10.105434372848514
      ],
      [
        "Ġfan",
        -10.106536331202442
      ],
      [
        "Ġbite",
        -10.106537780872095
      ],
      [
        "Ġminerals",
        -10.107027370793247
      ],
      [
        "ash",
        -10.107071080743458
      ],
      [
        "ble",
        -10.107295388668229
      ],
      [
        "Ġprior",
        -10.107783965250494
      ],
      [
        "top",
        -10.10783236971386
      ],
      [
        "verse",
        -10.108834233711056
      ],
      [
        "Ġdrugs",
        -10.108839467762122
      ],
      [
        "Ġencounter",
        -10.109024330709063
      ],
      [
        "Ġminimum",
        -10.10902460152928
      ],
      [
        "||",
        -10.10948936294999
      ],
      [
        "-friendl",
        -10.109685136571258
      ],
      [
        "ĠLo",
        -10.110218708359474
      ],
      [
        "Ġlighting",
        -10.110317916581842
      ],
      [
        "Ġsp",
        -10.112877579316052
      ],
      [
        "Ġleak",
        -10.11302318260852
      ],
      [
        "Ġdecline",
        -10.113058970103406
      ],
      [
        "Ġrealize",
        -10.11323646687975
      ],
      [
        "Ġfailure",
        -10.11326222921218
      ],
      [
        "Ġdepression",
        -10.113353429104489
      ],
      [
        "Ġdisorder",
        -10.113500853262964
      ],
      [
        "uch",
        -10.11357069608247
      ],
      [
        "Ġawarenes",
        -10.114005003393435
      ],
      [
        "ural",
        -10.11417349484092
      ],
      [
        "Ġprovider",
        -10.114180873119812
      ],
      [
        "-be",
        -10.11522412032006
      ],
      [
        "Ġrelevant",
        -10.115261359823224
      ],
      [
        "Ġunits",
        -10.115467860352766
      ],
      [
        "Ġtrade",
        -10.115887821826927
      ],
      [
        "Ġboat",
        -10.115898657065635
      ],
      [
        "Ġrecovery",
        -10.11646270538998
      ],
      [
        "Ġsport",
        -10.11656008784038
      ],
      [
        "Ġtreated",
        -10.116609332057752
      ],
      [
        "net",
        -10.117289590358483
      ],
      [
        "Ġbottle",
        -10.117350337947371
      ],
      [
        "Ġguy",
        -10.117658099671452
      ],
      [
        "ries",
        -10.11844672630142
      ],
      [
        "gar",
        -10.118608435392114
      ],
      [
        "Ġstretch",
        -10.119571988140358
      ],
      [
        "ual",
        -10.119819882440437
      ],
      [
        "Ġdamaged",
        -10.120573650389089
      ],
      [
        "ĠWork",
        -10.12117733620702
      ],
      [
        "Ġtall",
        -10.121637969878382
      ],
      [
        "Ġwave",
        -10.121951530957462
      ],
      [
        "ole",
        -10.122675254309303
      ],
      [
        "Ġboost",
        -10.122779677988303
      ],
      [
        "Ġchoos",
        -10.122851549841725
      ],
      [
        "Ġmeeting",
        -10.122951223681362
      ],
      [
        "Ġwish",
        -10.123721391539554
      ],
      [
        "Ġpesticide",
        -10.123947612213628
      ],
      [
        "Ġpercentage",
        -10.124163128894562
      ],
      [
        "Ġdetermined",
        -10.12436959873809
      ],
      [
        "Ġrealit",
        -10.124599794748766
      ],
      [
        "ï¿½",
        -10.125400728884198
      ],
      [
        "ĠHome",
        -10.125653746134017
      ],
      [
        "Ġadvance",
        -10.12567216997003
      ],
      [
        "Ġcollege",
        -10.125743692596702
      ],
      [
        "Ġspider",
        -10.125759483800003
      ],
      [
        "Ġnation",
        -10.12588953846198
      ],
      [
        "Ġisland",
        -10.12617778669237
      ],
      [
        "ĠDesign",
        -10.12621465143757
      ],
      [
        "Ġwash",
        -10.126436429249663
      ],
      [
        "Ġfoundation",
        -10.126805806589022
      ],
      [
        "ran",
        -10.126901356586302
      ],
      [
        "field",
        -10.127060956237392
      ],
      [
        "Ġcompost",
        -10.127134726658063
      ],
      [
        "Ġpredator",
        -10.127859708174755
      ],
      [
        "Ġconsequence",
        -10.129967530455865
      ],
      [
        "Ġopinion",
        -10.129968022559602
      ],
      [
        "led",
        -10.130315838232532
      ],
      [
        "Ġbug",
        -10.130544933483062
      ],
      [
        "Ġband",
        -10.13131802832248
      ],
      [
        "wa",
        -10.1317138148262
      ],
      [
        "Ġtight",
        -10.131960022516058
      ],
      [
        "Ġpan",
        -10.132258899499815
      ],
      [
        "Ġsharp",
        -10.133909692013251
      ],
      [
        "Ġextensive",
        -10.134209282644782
      ],
      [
        "Ġcalcium",
        -10.134210690779156
      ],
      [
        "Ġcraft",
        -10.135759573531605
      ],
      [
        "Ġthorough",
        -10.136336954032895
      ],
      [
        "ight",
        -10.136454947633982
      ],
      [
        "Ġmaster",
        -10.136907149164912
      ],
      [
        "wise",
        -10.137028301809936
      ],
      [
        "mar",
        -10.137249631991654
      ],
      [
        "Ġobserv",
        -10.13728848972888
      ],
      [
        "ĠWest",
        -10.137707108198398
      ],
      [
        "According",
        -10.13812632998727
      ],
      [
        "Ġedit",
        -10.140017417633024
      ],
      [
        "nic",
        -10.14099259676889
      ],
      [
        "Ġindustrial",
        -10.1415939159265
      ],
      [
        "Your",
        -10.141614911632931
      ],
      [
        "ĠNa",
        -10.14259185499358
      ],
      [
        "Ġbarrier",
        -10.14274768790115
      ],
      [
        "Ġessay",
        -10.142749111529511
      ],
      [
        "Ġflood",
        -10.1427563469626
      ],
      [
        "Ġleaving",
        -10.142758742436431
      ],
      [
        "Ġchose",
        -10.142816807485826
      ],
      [
        "ped",
        -10.14461395692286
      ],
      [
        "Ġrestaurant",
        -10.14489314451437
      ],
      [
        "Ġ...Ċ",
        -10.14531568629348
      ],
      [
        "Ġnitrogen",
        -10.146282537506448
      ],
      [
        "Ġmajority",
        -10.146561572342216
      ],
      [
        "Ġmission",
        -10.147009201004128
      ],
      [
        "ĠChine",
        -10.147232624201884
      ],
      [
        "Ġreplacement",
        -10.147397008086635
      ],
      [
        "Ġchoices",
        -10.148118829376676
      ],
      [
        "ĠMan",
        -10.14816445488228
      ],
      [
        "ED",
        -10.148501812384506
      ],
      [
        "Ġvisibl",
        -10.148655056123369
      ],
      [
        "ĠNature",
        -10.149509393690888
      ],
      [
        "Ġstable",
        -10.149993841510309
      ],
      [
        "Ġvarie",
        -10.150776128827433
      ],
      [
        "Ġlock",
        -10.150845091991226
      ],
      [
        "Ġabsolute",
        -10.152867299966305
      ],
      [
        "ging",
        -10.153055202943351
      ],
      [
        "Januar",
        -10.153617266261053
      ],
      [
        "Ġspecialize",
        -10.154045336786512
      ],
      [
        "Onc",
        -10.154206135357224
      ],
      [
        "-related",
        -10.154227130857413
      ],
      [
        "Ġexhibit",
        -10.154611518011857
      ],
      [
        "bu",
        -10.154986329068304
      ],
      [
        "More",
        -10.15509885203326
      ],
      [
        "OVID",
        -10.15577291288555
      ],
      [
        "Ġreli",
        -10.155879905379962
      ],
      [
        "ĠThu",
        -10.155903015211234
      ],
      [
        "Ġtrail",
        -10.157690217338386
      ],
      [
        "Ġappreciate",
        -10.158284663801371
      ],
      [
        "ĠJune",
        -10.15954936612125
      ],
      [
        "cu",
        -10.159781910785366
      ],
      [
        "tern",
        -10.159949995704594
      ],
      [
        "Ġhormone",
        -10.16004493985589
      ],
      [
        "Ġrough",
        -10.160341203982862
      ],
      [
        "Ġnorth",
        -10.160428085839484
      ],
      [
        "Ġguideline",
        -10.16107662734052
      ],
      [
        "Ġexcessive",
        -10.16244836850083
      ],
      [
        "Ġsensitive",
        -10.162878238810636
      ],
      [
        "Ġbelt",
        -10.162906902858715
      ],
      [
        "Ġstroke",
        -10.164100986235006
      ],
      [
        "ham",
        -10.164373010094089
      ],
      [
        "Ġcompetition",
        -10.16442664199831
      ],
      [
        "Ġpictures",
        -10.166817742398258
      ],
      [
        "Ġconsideration",
        -10.167062604114545
      ],
      [
        "Ġlots",
        -10.167600098518466
      ],
      [
        "wood",
        -10.168053231678243
      ],
      [
        "Ġprecise",
        -10.168807330180773
      ],
      [
        "Ġurban",
        -10.168812050390986
      ],
      [
        "Ġhousehold",
        -10.168974084136533
      ],
      [
        "RE",
        -10.168979506430691
      ],
      [
        "ĠGod",
        -10.169347499646983
      ],
      [
        "CH",
        -10.169488608562371
      ],
      [
        "LE",
        -10.170665960693482
      ],
      [
        "IC",
        -10.170936479814795
      ],
      [
        "Ġbudget",
        -10.171009963625227
      ],
      [
        "Ġplanting",
        -10.171064357271993
      ],
      [
        "ĠJohn",
        -10.171477692211903
      ],
      [
        "ju",
        -10.171715514380406
      ],
      [
        "Ġplans",
        -10.173053679853409
      ],
      [
        "Ġsnow",
        -10.173905017946268
      ],
      [
        "ĠIndian",
        -10.173978064040352
      ],
      [
        "Ġslowly",
        -10.174325020898886
      ],
      [
        "Ġstain",
        -10.174613526497684
      ],
      [
        "ĠCheck",
        -10.176002002403116
      ],
      [
        "Ġshowing",
        -10.176163416512402
      ],
      [
        "ĠCare",
        -10.176445020266383
      ],
      [
        "Ġeliminate",
        -10.176897453901676
      ],
      [
        "Ġformula",
        -10.177122586075022
      ],
      [
        "ĠGood",
        -10.177692437478502
      ],
      [
        "Ġmovie",
        -10.177838954056922
      ],
      [
        "Ġahead",
        -10.17841431036361
      ],
      [
        "ĠFurther",
        -10.178830103146284
      ],
      [
        "Ġpreviously",
        -10.179391162374849
      ],
      [
        "IT",
        -10.179606474442425
      ],
      [
        "Ġplent",
        -10.18000152903521
      ],
      [
        "Ġputt",
        -10.1805881209187
      ],
      [
        "Ġeconomy",
        -10.181073198405736
      ],
      [
        "Ġdecide",
        -10.181525485895136
      ],
      [
        "Ġagricultur",
        -10.18200138803678
      ],
      [
        "ĠMu",
        -10.182042782634827
      ],
      [
        "Ġinsulation",
        -10.182339355413294
      ],
      [
        "Ġeight",
        -10.182402903441972
      ],
      [
        "Ġbulb",
        -10.18272426113651
      ],
      [
        "Ġtwi",
        -10.18319737925766
      ],
      [
        "Ġtrace",
        -10.184565293639729
      ],
      [
        "Ġintake",
        -10.184753097764135
      ],
      [
        "ĠStudent",
        -10.18577320331771
      ],
      [
        "Ġshared",
        -10.185988442466064
      ],
      [
        "Ġriver",
        -10.186097708451264
      ],
      [
        "Ġzero",
        -10.186595775638724
      ],
      [
        "Ġguess",
        -10.186599487318649
      ],
      [
        "ĠArt",
        -10.18684838679304
      ],
      [
        "Ġlights",
        -10.187360383980495
      ],
      [
        "Ġcalm",
        -10.187675711905277
      ],
      [
        "Ġsudden",
        -10.1888081304836
      ],
      [
        "Ġexchange",
        -10.1888277859608
      ],
      [
        "Ġargument",
        -10.18884063303084
      ],
      [
        "Ġbutter",
        -10.189940748230615
      ],
      [
        "Ġphotos",
        -10.190131568525718
      ],
      [
        "ĠStart",
        -10.190729917886635
      ],
      [
        "Ġbones",
        -10.190874231715023
      ],
      [
        "Ġpowder",
        -10.19087991847621
      ],
      [
        "ĠHuman",
        -10.19232104009606
      ],
      [
        "Ġrandom",
        -10.193316427077946
      ],
      [
        "Ġreward",
        -10.193394507102258
      ],
      [
        "ĠType",
        -10.19393506581388
      ],
      [
        "-time",
        -10.194346350791417
      ],
      [
        "Ġlawn",
        -10.194669185742066
      ],
      [
        "Ġcrack",
        -10.19522520695061
      ],
      [
        "Ġsaving",
        -10.196504308657763
      ],
      [
        "Ġvi",
        -10.1969016665527
      ],
      [
        "Ġoven",
        -10.197939044910118
      ],
      [
        "Ġbees",
        -10.198206878190806
      ],
      [
        "Ġdust",
        -10.198208024155708
      ],
      [
        "ĠGa",
        -10.198368676343176
      ],
      [
        "ĠTh",
        -10.198442256132498
      ],
      [
        "Ġsong",
        -10.19938278218105
      ],
      [
        "Ġsufficient",
        -10.200667241439222
      ],
      [
        "Ġseven",
        -10.20107198687056
      ],
      [
        "Ġbrush",
        -10.201349299622835
      ],
      [
        "Ġsauce",
        -10.20238036708595
      ],
      [
        "Ġmanag",
        -10.202669558838862
      ],
      [
        "Ġmineral",
        -10.203793190706206
      ],
      [
        "form",
        -10.204186614251968
      ],
      [
        "AS",
        -10.204779676762048
      ],
      [
        "Ġpurposes",
        -10.206706722096172
      ],
      [
        "Ġaudience",
        -10.206928505477904
      ],
      [
        "Ġecosystem",
        -10.20717386905859
      ],
      [
        "amp",
        -10.207270903043383
      ],
      [
        "Ġpin",
        -10.208930658400956
      ],
      [
        "Ġrubber",
        -10.209271943980085
      ],
      [
        "Ġfeedback",
        -10.209341427550086
      ],
      [
        "ĠEn",
        -10.210132263007775
      ],
      [
        "Ġinner",
        -10.210456961307386
      ],
      [
        "made",
        -10.210856962783687
      ],
      [
        "ĠEnergy",
        -10.211696058625211
      ],
      [
        "Ġpounds",
        -10.21179731582414
      ],
      [
        "Ġstages",
        -10.212493651632249
      ],
      [
        "Ġupdate",
        -10.212705039692176
      ],
      [
        "bar",
        -10.212706956930193
      ],
      [
        "Ġaesthetic",
        -10.213526549695928
      ],
      [
        "Ġcognitive",
        -10.213822073944606
      ],
      [
        "Ġminimize",
        -10.214086546120743
      ],
      [
        "Ġpepper",
        -10.2141401542272
      ],
      [
        "Ġconventional",
        -10.214774589090432
      ],
      [
        "some",
        -10.21512473123979
      ],
      [
        "ĠMar",
        -10.21591247487429
      ],
      [
        "Ġinflammation",
        -10.216113831453995
      ],
      [
        "Ġdioxide",
        -10.216125646938284
      ],
      [
        "Ġintroduc",
        -10.216132570045756
      ],
      [
        "Ġautomat",
        -10.216696425473224
      ],
      [
        "ware",
        -10.217413992882795
      ],
      [
        "SE",
        -10.217985408906271
      ],
      [
        "Ġtrouble",
        -10.21842022510296
      ],
      [
        "Ġnose",
        -10.218995685300236
      ],
      [
        "Ġgenerated",
        -10.21944034251321
      ],
      [
        "Let",
        -10.219851505759957
      ],
      [
        "ĠSu",
        -10.220233406012929
      ],
      [
        "AP",
        -10.22041634497372
      ],
      [
        "covered",
        -10.22044214901292
      ],
      [
        "Ġshell",
        -10.220480023725772
      ],
      [
        "Ġuniversit",
        -10.220737739828689
      ],
      [
        "Ġinterface",
        -10.220754136713431
      ],
      [
        "Ġdecided",
        -10.220879562646198
      ],
      [
        "Ġdivide",
        -10.221730028438056
      ],
      [
        "right",
        -10.222166358715018
      ],
      [
        "Ġorganisms",
        -10.223896849747268
      ],
      [
        "Ġfixed",
        -10.223969796363528
      ],
      [
        "Ġclinical",
        -10.224009166872378
      ],
      [
        "Ġdensity",
        -10.224081610702331
      ],
      [
        "Ġshop",
        -10.22413435694158
      ],
      [
        "ĠBoth",
        -10.224585154397106
      ],
      [
        "Ġplays",
        -10.226659309274195
      ],
      [
        "ified",
        -10.2273043763095
      ],
      [
        "US",
        -10.227475975381932
      ],
      [
        "Ġuniverse",
        -10.22771607860354
      ],
      [
        "ĠLike",
        -10.22833531772866
      ],
      [
        "ĠLight",
        -10.228396298668857
      ],
      [
        "ĠâĢ¢",
        -10.229036548915062
      ],
      [
        "Ġimport",
        -10.230263243023934
      ],
      [
        "affected",
        -10.23097507863302
      ],
      [
        "Ġpackage",
        -10.231541458257166
      ],
      [
        "definitely",
        -10.232058374776669
      ],
      [
        "Ġprofessor",
        -10.232392838293348
      ],
      [
        "han",
        -10.232447688024717
      ],
      [
        "Ġsector",
        -10.233144763277751
      ],
      [
        "like",
        -10.233374906288656
      ],
      [
        "but",
        -10.233747914166322
      ],
      [
        "Ġtoxic",
        -10.233889034797825
      ],
      [
        "&",
        -10.233922082481076
      ],
      [
        "jo",
        -10.23438260868976
      ],
      [
        "Ġplug",
        -10.234598519774492
      ],
      [
        "Ġjuice",
        -10.23516591223914
      ],
      [
        "Ġcomputers",
        -10.23542578751626
      ],
      [
        "ĠAct",
        -10.235755660530776
      ],
      [
        "Ġwouldn",
        -10.23613659075336
      ],
      [
        "Ġopening",
        -10.23619535244424
      ],
      [
        "Ġimagine",
        -10.236799342293214
      ],
      [
        "AT",
        -10.237048442778224
      ],
      [
        "Ġstomach",
        -10.237093194965858
      ],
      [
        "-p",
        -10.23733404952594
      ],
      [
        "Ġdishe",
        -10.237900582939949
      ],
      [
        "Ġcrystal",
        -10.238536582958664
      ],
      [
        "Ġremote",
        -10.238727629899458
      ],
      [
        "Ġlinked",
        -10.239402723575015
      ],
      [
        "ĠFe",
        -10.239633917294476
      ],
      [
        "ĠWhere",
        -10.2403420233941
      ],
      [
        "ĠTake",
        -10.240678079479387
      ],
      [
        "bit",
        -10.240866941185
      ],
      [
        "ĠWi",
        -10.242595791267178
      ],
      [
        "brough",
        -10.24273094926968
      ],
      [
        "Ġconcrete",
        -10.244185417114332
      ],
      [
        "Ġcircle",
        -10.24442057497129
      ],
      [
        "Ġotherwise",
        -10.245493234997678
      ],
      [
        "Ġdive",
        -10.246376782489794
      ],
      [
        "Ġmammal",
        -10.24656098578824
      ],
      [
        "Ġprompt",
        -10.246561332759462
      ],
      [
        "ĠTexas",
        -10.24656183210119
      ],
      [
        "Ġthread",
        -10.24657902646371
      ],
      [
        "Ġdelicious",
        -10.246580643800828
      ],
      [
        "From",
        -10.246583703197452
      ],
      [
        "IN",
        -10.246903269164848
      ],
      [
        "ple",
        -10.246992025968382
      ],
      [
        "Ġstream",
        -10.24814927089978
      ],
      [
        "ĠAsia",
        -10.248461766615993
      ],
      [
        "ĠLu",
        -10.249513005497096
      ],
      [
        "MS",
        -10.249730945134337
      ],
      [
        "Ġport",
        -10.251011155407038
      ],
      [
        "Ġmanner",
        -10.251572973747704
      ],
      [
        "New",
        -10.251589944289393
      ],
      [
        "ĠAny",
        -10.251904961922508
      ],
      [
        "Ġbelief",
        -10.25353641102824
      ],
      [
        "Ġhandl",
        -10.254137545041518
      ],
      [
        "head",
        -10.254961845843216
      ],
      [
        "Ġpeak",
        -10.255206168895704
      ],
      [
        "Ġlift",
        -10.255584016337105
      ],
      [
        "Ġimplant",
        -10.256129284189246
      ],
      [
        "Ġhydrogen",
        -10.25615742061022
      ],
      [
        "OS",
        -10.256249618066978
      ],
      [
        "Ġbroken",
        -10.25719917548707
      ],
      [
        "Ġanalyze",
        -10.257230285000128
      ],
      [
        "Ġdistinct",
        -10.257358651589604
      ],
      [
        "Ġsmoke",
        -10.25762072710897
      ],
      [
        "Ġcommunicate",
        -10.257797673605584
      ],
      [
        "well",
        -10.257985801907155
      ],
      [
        "Ġcomparison",
        -10.258524846950309
      ],
      [
        "Ġinnovative",
        -10.258529289142466
      ],
      [
        "Ġtown",
        -10.258828404663982
      ],
      [
        "Ġgraph",
        -10.259490547442216
      ],
      [
        "ĠLearning",
        -10.259665271869334
      ],
      [
        "Ġcloud",
        -10.26003810354294
      ],
      [
        "ĠCity",
        -10.260282932355498
      ],
      [
        "Ġcopy",
        -10.260958840053162
      ],
      [
        "gg",
        -10.261362135840423
      ],
      [
        "ĠAugust",
        -10.26167081560461
      ],
      [
        "ĠSi",
        -10.261717201026352
      ],
      [
        "Share",
        -10.26185105011115
      ],
      [
        "Ġshar",
        -10.261903657431194
      ],
      [
        "Ġhistorical",
        -10.262574783851733
      ],
      [
        "Ġthrive",
        -10.263364273613114
      ],
      [
        "ĠControl",
        -10.263676371788398
      ],
      [
        "len",
        -10.264342963084964
      ],
      [
        "Ro",
        -10.264355098943357
      ],
      [
        "...Ċ",
        -10.265610391735436
      ],
      [
        "Ġliver",
        -10.265797347273589
      ],
      [
        "ĠSa",
        -10.265929491204655
      ],
      [
        "Ġfamiliar",
        -10.265938976412007
      ],
      [
        "Ġdownload",
        -10.265957628207069
      ],
      [
        "Ġfiles",
        -10.266624838048768
      ],
      [
        "Con",
        -10.267258946905317
      ],
      [
        "Ġbuying",
        -10.267847006833478
      ],
      [
        "Ġsymbol",
        -10.267862049991724
      ],
      [
        "Ġpizza",
        -10.268196443379969
      ],
      [
        "book",
        -10.268243539560755
      ],
      [
        "Ġfelt",
        -10.268289197734898
      ],
      [
        "Ġla",
        -10.26859173649792
      ],
      [
        "phy",
        -10.2687911414705
      ],
      [
        "Figure",
        -10.268956580576653
      ],
      [
        "Ġwoman",
        -10.269209862546454
      ],
      [
        "ĠGet",
        -10.269227956892747
      ],
      [
        "Ġemotion",
        -10.269599256306698
      ],
      [
        "ĠQ",
        -10.26972546523118
      ],
      [
        "ĠTechnology",
        -10.270742821895892
      ],
      [
        "Ġcalories",
        -10.27082768148628
      ],
      [
        "part",
        -10.271377801297998
      ],
      [
        "Ġalter",
        -10.271463653630466
      ],
      [
        "istic",
        -10.272131999120514
      ],
      [
        "Ġinjuries",
        -10.272845658780986
      ],
      [
        "Ġincorporate",
        -10.27286552201015
      ],
      [
        "qui",
        -10.273239478373249
      ],
      [
        "Ġsouth",
        -10.27413449441799
      ],
      [
        "rich",
        -10.275096456960306
      ],
      [
        "stock",
        -10.275176660022987
      ],
      [
        "ĠSee",
        -10.27550780445112
      ],
      [
        "Ġintervention",
        -10.275513269848409
      ],
      [
        "Ġvast",
        -10.2755162738926
      ],
      [
        "Ġthreaten",
        -10.275941586307065
      ],
      [
        "ĠUp",
        -10.276294003542583
      ],
      [
        "Ġrapid",
        -10.277482624447234
      ],
      [
        "Ġderive",
        -10.2780034598722
      ],
      [
        "Ġtail",
        -10.278495415781231
      ],
      [
        "Ġcow",
        -10.278509884185391
      ],
      [
        "ĠSun",
        -10.278653852471432
      ],
      [
        "Ġsex",
        -10.2794671647151
      ],
      [
        "from",
        -10.279788523890034
      ],
      [
        "Ġstructural",
        -10.280422101538829
      ],
      [
        "ĠGarden",
        -10.28045722723726
      ],
      [
        "Ġincredibl",
        -10.28178744501519
      ],
      [
        "Ġtrial",
        -10.28230898119075
      ],
      [
        "Ġloose",
        -10.282476406603497
      ],
      [
        "Ġmanual",
        -10.282504124171872
      ],
      [
        "ĠYear",
        -10.282842243338813
      ],
      [
        "Ġgift",
        -10.28288494223106
      ],
      [
        "Ġbowl",
        -10.28412192630134
      ],
      [
        "Ġmistake",
        -10.28465052328398
      ],
      [
        "Ġmirror",
        -10.285353451154172
      ],
      [
        "Ġdescription",
        -10.28535352824263
      ],
      [
        "Ġmath",
        -10.285477461111157
      ],
      [
        "ĠGeneral",
        -10.28628345376858
      ],
      [
        "Ġgravit",
        -10.286854616789707
      ],
      [
        "Ġrely",
        -10.28701486281427
      ],
      [
        "ĠFrench",
        -10.28727562291797
      ],
      [
        "Ġattend",
        -10.287514399403328
      ],
      [
        "Ġgradual",
        -10.287828930572516
      ],
      [
        "Ġdream",
        -10.287830618817134
      ],
      [
        "Ġlaser",
        -10.288002016128187
      ],
      [
        "Ġsustainability",
        -10.288474132355784
      ],
      [
        "ĠOcto",
        -10.288981315843788
      ],
      [
        "ĠWeb",
        -10.289165030280842
      ],
      [
        "Ġho",
        -10.28934699553252
      ],
      [
        "Ġha",
        -10.289390481133434
      ],
      [
        "ĠChrist",
        -10.28991649359367
      ],
      [
        "Ġresident",
        -10.290217605825251
      ],
      [
        "Ġindustrie",
        -10.290310079888185
      ],
      [
        "Ġtrend",
        -10.291412619154686
      ],
      [
        "ĠPower",
        -10.29160191453457
      ],
      [
        "Al",
        -10.291876211517769
      ],
      [
        "my",
        -10.291886818628926
      ],
      [
        "read",
        -10.292270266211986
      ],
      [
        "Ġweed",
        -10.292477472062847
      ],
      [
        "Ġofficial",
        -10.292703282789816
      ],
      [
        "Ġclimb",
        -10.29279816056965
      ],
      [
        "Ġdiffer",
        -10.292922792228437
      ],
      [
        "Ġforget",
        -10.293410369512394
      ],
      [
        "ĠBi",
        -10.293713617720645
      ],
      [
        "Ġbecom",
        -10.294381489599068
      ],
      [
        "Ġscore",
        -10.295518040593368
      ],
      [
        "Researchers",
        -10.295535077596696
      ],
      [
        "Ġdesir",
        -10.29581763213209
      ],
      [
        "Ġcoral",
        -10.295896222746377
      ],
      [
        "Ġcoal",
        -10.296149014995445
      ],
      [
        "Ġforests",
        -10.296888828171602
      ],
      [
        "Ġacademic",
        -10.297521205244074
      ],
      [
        "Ġincorporat",
        -10.297999276289351
      ],
      [
        "ĠRed",
        -10.29807020168337
      ],
      [
        "Ġyard",
        -10.298768050758044
      ],
      [
        "gone",
        -10.29902651669274
      ],
      [
        "Ġengaging",
        -10.30029767987731
      ],
      [
        "Ġroute",
        -10.300790506837858
      ],
      [
        "ES",
        -10.301270380770372
      ],
      [
        "Ġfoster",
        -10.30283599965691
      ],
      [
        "Ġrenewable",
        -10.303031446939926
      ],
      [
        "ĠEngl",
        -10.303270399666989
      ],
      [
        "Ġconsult",
        -10.304511216881236
      ],
      [
        "ĠHis",
        -10.30493340850075
      ],
      [
        "ogen",
        -10.305053981119348
      ],
      [
        "ĠAfrican",
        -10.30536320515034
      ],
      [
        "Ġtrained",
        -10.305385746386197
      ],
      [
        "Ġdiagnosis",
        -10.305532381759232
      ],
      [
        "ĠRead",
        -10.30744186333906
      ],
      [
        "ĠConsider",
        -10.30770977472929
      ],
      [
        "Ġequivalent",
        -10.307854375362693
      ],
      [
        "Ġsurprise",
        -10.307854382822216
      ],
      [
        "Ġkidney",
        -10.30786628129222
      ],
      [
        "Ġparticipate",
        -10.308109093257386
      ],
      [
        "Ġdesigner",
        -10.308296152363791
      ],
      [
        "Hi",
        -10.30837658278462
      ],
      [
        "ĠEast",
        -10.30883021885882
      ],
      [
        "Ġinterior",
        -10.309025617246872
      ],
      [
        "Ġagricultural",
        -10.309217548075187
      ],
      [
        "Ġprove",
        -10.310523789041802
      ],
      [
        "Ġlarva",
        -10.310614539102708
      ],
      [
        "AN",
        -10.3106359926135
      ],
      [
        "ĠSociet",
        -10.311931090168432
      ],
      [
        "Ġgap",
        -10.31231625521091
      ],
      [
        "Ġdigesti",
        -10.312358254984328
      ],
      [
        "zz",
        -10.312484650736412
      ],
      [
        "Ġcollaboration",
        -10.313030555130164
      ],
      [
        "ĠTime",
        -10.313682003004802
      ],
      [
        "Ġcombin",
        -10.314292412608342
      ],
      [
        "ĠSpace",
        -10.31434378503349
      ],
      [
        "-of",
        -10.314664389829517
      ],
      [
        "Ġworse",
        -10.315124280978283
      ],
      [
        "Ġfirm",
        -10.31545390193357
      ],
      [
        "Ġinitiative",
        -10.315546570044551
      ],
      [
        "Ġinsurance",
        -10.315734071890436
      ],
      [
        "Ġrecover",
        -10.31602982105614
      ],
      [
        "Ġweak",
        -10.316427578824287
      ],
      [
        "Ġhazard",
        -10.31676111105341
      ],
      [
        "--",
        -10.317320435863277
      ],
      [
        "Ġrelax",
        -10.317502443793568
      ],
      [
        "Ġexcess",
        -10.317764016889582
      ],
      [
        "Ġcopper",
        -10.318070154713473
      ],
      [
        "Ġthermal",
        -10.318356297005996
      ],
      [
        "Ġpresentation",
        -10.318645406789408
      ],
      [
        "val",
        -10.319044865704798
      ],
      [
        "Ġprices",
        -10.319791203701335
      ],
      [
        "ĠJo",
        -10.32015229539494
      ],
      [
        "ĠWild",
        -10.320334825840408
      ],
      [
        "Ġprogramming",
        -10.320673106398552
      ],
      [
        "Ġmountain",
        -10.32087292540986
      ],
      [
        "Ġvegetable",
        -10.321380015398493
      ],
      [
        "ition",
        -10.321824597540964
      ],
      [
        "ĠCh",
        -10.321919728520529
      ],
      [
        "Ġtrans",
        -10.322577714201763
      ],
      [
        "Ġattached",
        -10.32293296790954
      ],
      [
        "Ġexciting",
        -10.3231412979101
      ],
      [
        "you",
        -10.323158582642112
      ],
      [
        "Ġrapidly",
        -10.32368124909391
      ],
      [
        "Ġdimension",
        -10.323871705515504
      ],
      [
        "Ġminimal",
        -10.325408197285515
      ],
      [
        "Ġvelocit",
        -10.325719725395402
      ],
      [
        "Ġoral",
        -10.32646425341525
      ],
      [
        "ĠRi",
        -10.326535073364196
      ],
      [
        "informed",
        -10.32662954356788
      ],
      [
        "ĠAssociation",
        -10.327276685424906
      ],
      [
        "Ġwasn",
        -10.3276112774403
      ],
      [
        "Ġecosystems",
        -10.3280239274501
      ],
      [
        "Ġgreenhouse",
        -10.328398347695092
      ],
      [
        "Ġhybrid",
        -10.328901390586696
      ],
      [
        "Ġserver",
        -10.32920061630644
      ],
      [
        "Ġdynamic",
        -10.329753538845438
      ],
      [
        "Ġconfidence",
        -10.329920396735254
      ],
      [
        "Ġlie",
        -10.330002481111524
      ],
      [
        "Ġexam",
        -10.330379262574656
      ],
      [
        "Ġchocolate",
        -10.3308732822067
      ],
      [
        "Ġworkshop",
        -10.331113066995073
      ],
      [
        "ĠWood",
        -10.331160452961257
      ],
      [
        "ĠRemember",
        -10.331591391366825
      ],
      [
        "Ġtrait",
        -10.33350366526145
      ],
      [
        "ĠSha",
        -10.333655978059676
      ],
      [
        "AND",
        -10.334525347410064
      ],
      [
        "Although",
        -10.3345996021688
      ],
      [
        "Ġinstallation",
        -10.334735855712797
      ],
      [
        "ette",
        -10.334907058012742
      ],
      [
        "Ġdisorders",
        -10.335674443764738
      ],
      [
        "ĠSam",
        -10.335959663922525
      ],
      [
        "Ġbehaviour",
        -10.336061358260618
      ],
      [
        "Ġdedicate",
        -10.33606211935226
      ],
      [
        "Ġgrant",
        -10.336721672216472
      ],
      [
        "-old",
        -10.33722502974916
      ],
      [
        "Ġspaces",
        -10.337351538020387
      ],
      [
        "Ġprotective",
        -10.337492573674783
      ],
      [
        "ping",
        -10.33749937079968
      ],
      [
        "Ġmis",
        -10.337644053215303
      ],
      [
        "Ġalign",
        -10.33764744563301
      ],
      [
        "ong",
        -10.338216851603995
      ],
      [
        "Ġray",
        -10.338352298486566
      ],
      [
        "Ġpreparation",
        -10.338665617261292
      ],
      [
        "ĠCollege",
        -10.3388148034047
      ],
      [
        "Not",
        -10.339680938107277
      ],
      [
        "Ġsmok",
        -10.33977799957653
      ],
      [
        "ĠCha",
        -10.340006813858809
      ],
      [
        "ĠTHE",
        -10.340649979184434
      ],
      [
        "Ġconversation",
        -10.3412764974021
      ],
      [
        "History",
        -10.341673732172564
      ],
      [
        "ĠAnimal",
        -10.341704861826924
      ],
      [
        "Ġheavi",
        -10.341835246623772
      ],
      [
        "First",
        -10.342768598952148
      ],
      [
        "stone",
        -10.344982625548605
      ],
      [
        "Ġreactions",
        -10.345225850542692
      ],
      [
        "Ġwin",
        -10.345275747826127
      ],
      [
        "Ġassume",
        -10.345319414922804
      ],
      [
        "Ġcooked",
        -10.34546039212973
      ],
      [
        "Ġusage",
        -10.346138071522654
      ],
      [
        "Ġhabitats",
        -10.346370967335162
      ],
      [
        "ture",
        -10.346446095285687
      ],
      [
        "uck",
        -10.346548393407328
      ],
      [
        "Ġhardware",
        -10.346778663842697
      ],
      [
        "Ġinstrument",
        -10.347655886855732
      ],
      [
        "Ġrecipe",
        -10.348391832513563
      ],
      [
        "Ġdefine",
        -10.348682123960447
      ],
      [
        "Sp",
        -10.348808146630798
      ],
      [
        "Ġwor",
        -10.34913402545444
      ],
      [
        "Ġphysics",
        -10.349150589727998
      ],
      [
        "sistance",
        -10.350297646096667
      ],
      [
        "Co",
        -10.350966198613245
      ],
      [
        "ĠII",
        -10.351335438408825
      ],
      [
        "Ġneck",
        -10.35160447380352
      ],
      [
        "ĠLook",
        -10.35163278707008
      ],
      [
        "Ġorange",
        -10.351870127557834
      ],
      [
        "Ġcustom",
        -10.351930338928163
      ],
      [
        "Ġeveryday",
        -10.35221288420228
      ],
      [
        "Ġcontract",
        -10.352739351792309
      ],
      [
        "point",
        -10.352796353873996
      ],
      [
        "Us",
        -10.353445471848255
      ],
      [
        "Ġmark",
        -10.353983692157293
      ],
      [
        "ĠpH",
        -10.354621481923946
      ],
      [
        "-on",
        -10.354731519924206
      ],
      [
        "Ġhunting",
        -10.355531737985832
      ],
      [
        "Ġaggressive",
        -10.356118294089956
      ],
      [
        "Ġtax",
        -10.356972946215391
      ],
      [
        "â",
        -10.357037037682964
      ],
      [
        "Ġprey",
        -10.35715179986978
      ],
      [
        "ĠPacifi",
        -10.357450584026422
      ],
      [
        "Ġfather",
        -10.357506285662568
      ],
      [
        "Ġmissing",
        -10.358561251976262
      ],
      [
        "Since",
        -10.35932918315376
      ],
      [
        "ose",
        -10.359870812019562
      ],
      [
        "Ġkit",
        -10.360447107588552
      ],
      [
        "ense",
        -10.362048805351325
      ],
      [
        "ĠGoogle",
        -10.36215031485239
      ],
      [
        "Ġpossibl",
        -10.363787184653685
      ],
      [
        "Ġcl",
        -10.363885546413854
      ],
      [
        "Ġpen",
        -10.364252055675196
      ],
      [
        "ĠHo",
        -10.36452547897129
      ],
      [
        "Ġbranche",
        -10.36500107649483
      ],
      [
        "illa",
        -10.365076537552408
      ],
      [
        "Ġmodule",
        -10.365105770103868
      ],
      [
        "Ġguidance",
        -10.365114156813696
      ],
      [
        "Ġtropical",
        -10.365118353960812
      ],
      [
        "Ġexplanation",
        -10.365145541047388
      ],
      [
        "Ġnet",
        -10.365289663514858
      ],
      [
        "intended",
        -10.36536708920151
      ],
      [
        "Ġunlike",
        -10.365509713093603
      ],
      [
        "Ġplus",
        -10.366657395630892
      ],
      [
        "Ġrepeat",
        -10.367309704460697
      ],
      [
        "ute",
        -10.367546608430054
      ],
      [
        "Ġfamous",
        -10.367768266506022
      ],
      [
        "Ġpermanent",
        -10.367768312170185
      ],
      [
        "see",
        -10.368063616411105
      ],
      [
        "Ch",
        -10.36908968725036
      ],
      [
        "Ġlocations",
        -10.369217101984065
      ],
      [
        "Ġresolution",
        -10.369316617443785
      ],
      [
        "Ġstarts",
        -10.369330421984682
      ],
      [
        "Ġdanger",
        -10.370350168331267
      ],
      [
        "lies",
        -10.370420521261376
      ],
      [
        "Ġsteam",
        -10.370457130205168
      ],
      [
        "Ġdiameter",
        -10.370457445858069
      ],
      [
        "Ġadequate",
        -10.370586901793798
      ],
      [
        "ET",
        -10.370889426596058
      ],
      [
        "Ġedges",
        -10.371170700278524
      ],
      [
        "Ġpop",
        -10.371583619871585
      ],
      [
        "Ġtopics",
        -10.372186472738946
      ],
      [
        "Ġcompos",
        -10.37229598718202
      ],
      [
        "zi",
        -10.37229899861517
      ],
      [
        "ÂŃ",
        -10.373156984852873
      ],
      [
        "hat",
        -10.373884629295404
      ],
      [
        "Ġfur",
        -10.373928852456682
      ],
      [
        "Ġstrengthen",
        -10.373951060884924
      ],
      [
        "Ġtear",
        -10.374219355310789
      ],
      [
        "fitness",
        -10.375179574130955
      ],
      [
        "Ġchapter",
        -10.37585445488833
      ],
      [
        "\"The",
        -10.37597596269078
      ],
      [
        "Ġdebri",
        -10.3761458032267
      ],
      [
        "ĠBlue",
        -10.376449921112522
      ],
      [
        "Ġlaws",
        -10.376477822326164
      ],
      [
        "bra",
        -10.37658411504704
      ],
      [
        "ari",
        -10.377489342435558
      ],
      [
        "Ġpure",
        -10.377558576303317
      ],
      [
        "ĠLaw",
        -10.377622302056036
      ],
      [
        "ĠGen",
        -10.377676785007893
      ],
      [
        "Di",
        -10.377826160817422
      ],
      [
        "ĠGuide",
        -10.378032601387348
      ],
      [
        "Ġstronger",
        -10.37852969019481
      ],
      [
        "Ġchromosome",
        -10.378564410474947
      ],
      [
        "Ġswimming",
        -10.378578125386325
      ],
      [
        "Ġpolitical",
        -10.3796871149024
      ],
      [
        "Ġorigin",
        -10.379716892913653
      ],
      [
        "Ġapproaches",
        -10.379902278512487
      ],
      [
        "Ġconflict",
        -10.381281804669587
      ],
      [
        "Ġopposite",
        -10.381287457484516
      ],
      [
        "ĠHer",
        -10.381465855955469
      ],
      [
        "vailability",
        -10.381653866342868
      ],
      [
        "Ġbath",
        -10.381754380794522
      ],
      [
        "ĠTri",
        -10.38256942437504
      ],
      [
        "Ġreact",
        -10.382590689106324
      ],
      [
        "Ġrotation",
        -10.382718094155663
      ],
      [
        "Ġdetermin",
        -10.382722139972255
      ],
      [
        "ME",
        -10.382948453741792
      ],
      [
        "Ġpartial",
        -10.382973812040936
      ],
      [
        "Ġscar",
        -10.383876819972365
      ],
      [
        "Ġmild",
        -10.384361340385226
      ],
      [
        "Ġreplaced",
        -10.3857550715357
      ],
      [
        "uk",
        -10.385816792474277
      ],
      [
        "Ġabilit",
        -10.386080377589646
      ],
      [
        "Ġinstitution",
        -10.386970810050864
      ],
      [
        "Ġclothes",
        -10.387356511897629
      ],
      [
        "Ġevaluate",
        -10.388119466415423
      ],
      [
        "Ġdirector",
        -10.388265710165754
      ],
      [
        "Ġshoot",
        -10.38832217020212
      ],
      [
        "Ġnovel",
        -10.38891968530242
      ],
      [
        "Ġsight",
        -10.389242933780356
      ],
      [
        "ĠMi",
        -10.390312898070135
      ],
      [
        "Ġnutritional",
        -10.390429476270716
      ],
      [
        "ĠTV",
        -10.390523037234956
      ],
      [
        "Ġconsum",
        -10.390630834674996
      ],
      [
        "Even",
        -10.390716472412551
      ],
      [
        "Ġaccessibl",
        -10.390737326857902
      ],
      [
        "ĠLong",
        -10.3909237878985
      ],
      [
        "ĠHave",
        -10.39104618440909
      ],
      [
        "Ġreaders",
        -10.391367492676206
      ],
      [
        "Ġrecommendation",
        -10.392095787654302
      ],
      [
        "Ġmolecular",
        -10.392478686208928
      ],
      [
        "than",
[...]
