{
  "version": "1.0",
  "truncation": null,
  "padding": null,
  "added_tokens": [
    {
      "id": 0,
      "content": "[UNK]",
      "single_word": false,
      "lstrip": false,
      "rstrip": false,
      "normalized": false,
      "special": true
    },
    {
      "id": 1,
      "content": "[CLS]",
      "single_word": false,
      "lstrip": false,
      "rstrip": false,
      "normalized": false,
      "special": true
    },
    {
      "id": 2,
      "content": "[SEP]",
      "single_word": false,
      "lstrip": false,
      "rstrip": false,
      "normalized": false,
      "special": true
    },
    {
      "id": 3,
      "content": "[PAD]",
      "single_word": false,
      "lstrip": false,
      "rstrip": false,
      "normalized": false,
      "special": true
    },
    {
      "id": 4,
      "content": "[MASK]",
      "single_word": false,
      "lstrip": false,
      "rstrip": false,
      "normalized": false,
      "special": true
    },
    {
      "id": 5,
      "content": "[EOS]",
      "single_word": false,
      "lstrip": false,
      "rstrip": false,
      "normalized": false,
      "special": true
    }
  ],
  "normalizer": null,
  "pre_tokenizer": {
    "type": "ByteLevel",
    "add_prefix_space": false,
    "trim_offsets": true,
    "use_regex": true
  },
  "post_processor": null,
  "decoder": null,
  "model": {
    "type": "BPE",
    "dropout": null,
    "unk_token": "[UNK]",
    "continuing_subword_prefix": null,
    "end_of_word_suffix": null,
    "fuse_unk": false,
    "byte_fallback": false,
    "ignore_merges": false,
    "vocab": {
      "[UNK]": 0,
      "[CLS]": 1,
      "[SEP]": 2,
      "[PAD]": 3,
      "[MASK]": 4,
      "[EOS]": 5,
      "!": 6,
      "\"": 7,
      "#": 8,
      "$": 9,
      "%": 10,
      "&": 11,
      "'": 12,
      "(": 13,
      ")": 14,
      "*": 15,
      "+": 16,
      ",": 17,
      "-": 18,
      ".": 19,
      "/": 20,
      "0": 21,
      "1": 22,
      "2": 23,
      "3": 24,
      "4": 25,
      "5": 26,
      "6": 27,
      "7": 28,
      "8": 29,
      "9": 30,
      ":": 31,
      ";": 32,
      "<": 33,
      "=": 34,
      ">": 35,
      "?": 36,
      "@": 37,
      "A": 38,
      "B": 39,
      "C": 40,
      "D": 41,
      "E": 42,
      "F": 43,
      "G": 44,
      "H": 45,
      "I": 46,
      "J": 47,
      "K": 48,
      "L": 49,
      "M": 50,
      "N": 51,
      "O": 52,
      "P": 53,
      "Q": 54,
      "R": 55,
      "S": 56,
      "T": 57,
      "U": 58,
      "V": 59,
      "W": 60,
      "X": 61,
      "Y": 62,
      "Z": 63,
      "[": 64,
      "\\": 65,
      "]": 66,
      "^": 67,
      "_": 68,
      "`": 69,
      "a": 70,
      "b": 71,
      "c": 72,
      "d": 73,
      "e": 74,
      "f": 75,
      "g": 76,
      "h": 77,
      "i": 78,
      "j": 79,
      "k": 80,
      "l": 81,
      "m": 82,
      "n": 83,
      "o": 84,
      "p": 85,
      "q": 86,
      "r": 87,
      "s": 88,
      "t": 89,
      "u": 90,
      "v": 91,
      "w": 92,
      "x": 93,
      "y": 94,
      "z": 95,
      "|": 96,
      "}": 97,
      "~": 98,
      "¡": 99,
      "¢": 100,
      "£": 101,
      "¤": 102,
      "¥": 103,
      "¦": 104,
      "§": 105,
      "¨": 106,
      "©": 107,
      "ª": 108,
      "«": 109,
      "¬": 110,
      "®": 111,
      "¯": 112,
      "°": 113,
      "±": 114,
      "²": 115,
      "³": 116,
      "´": 117,
      "µ": 118,
      "¶": 119,
      "·": 120,
      "¸": 121,
      "¹": 122,
      "º": 123,
      "»": 124,
      "¼": 125,
      "½": 126,
      "¾": 127,
      "¿": 128,
      "Â": 129,
      "Ã": 130,
      "Ä": 131,
      "Å": 132,
      "Ġ": 133,
      "Ģ": 134,
      "ģ": 135,
      "Ĥ": 136,
      "ĥ": 137,
      "Ħ": 138,
      "ħ": 139,
      "Ĩ": 140,
      "ĩ": 141,
      "Ī": 142,
      "ī": 143,
      "Ĭ": 144,
      "ĭ": 145,
      "Į": 146,
      "İ": 147,
      "ı": 148,
      "Ĳ": 149,
      "ĳ": 150,
      "Ĵ": 151,
      "ķ": 152,
      "ĸ": 153,
      "Ĺ": 154,
      "ĺ": 155,
      "Ļ": 156,
      "ļ": 157,
      "Ľ": 158,
      "ł": 159,
      "Ń": 160,
      "Äł": 161,
      "Äłt": 162,
      "ĠÄł": 163,
      "he": 164,
      "in": 165,
      "Äła": 166,
      "re": 167,
      "Äłthe": 168,
      "on": 169,
      "er": 170,
      "at": 171,
      "Äłs": 172,
      "Äło": 173,
      "en": 174,
      "an": 175,
      "es": 176,
      "is": 177,
      "Äłc": 178,
      "it": 179,
      "or": 180,
      "Äłw": 181,
      "al": 182,
      "ed": 183,
      "ing": 184,
      "Äłp": 185,
      "Äłan": 186,
      "ou": 187,
      "ar": 188,
      "Äłb": 189,
      "Äłf": 190,
      "Äłof": 191,
      "Äłto": 192,
      "ic": 193,
      "Äłin": 194,
      "¢Ä": 195,
      "ion": 196,
      "ÄĬ": 197,
      "Äłm": 198,
      "Äłand": 199,
      "Äłd": 200,
      "as": 201,
      "le": 202,
      "ro": 203,
      "Äłth": 204,
      "ent": 205,
      "Äłh": 206,
      "ct": 207,
      "il": 208,
      "st": 209,
      "om": 210,
      "ve": 211,
      "Äłe": 212,
      "Äłre": 213,
      "ly": 214,
      "Ã¢Ä": 215,
      "Äłl": 216,
      "Äłn": 217,
      "Ã¢Ä¢Ä": 218,
      "et": 219,
      "se": 220,
      "ol": 221,
      "ation": 222,
      "Äłis": 223,
      "im": 224,
      "id": 225,
      "ot": 226,
      "ce": 227,
      "ch": 228,
      "ut": 229,
      "ow": 230,
      "Äłbe": 231,
      "Äłg": 232,
      "ur": 233,
      "ÄłT": 234,
      "ra": 235,
      "ig": 236,
      "Äłthat": 237,
      "ver": 238,
      "Äłfor": 239,
      "ir": 240,
      "and": 241,
      "ul": 242,
      "un": 243,
      "ÄłA": 244,
      "us": 245,
      "ÄłS": 246,
      "Äłon": 247,
      "ĠÄłthe": 248,
      "ith": 249,
      "Äłst": 250,
      "ay": 251,
      "am": 252,
      "ad": 253,
      "Äły": 254,
      "el": 255,
      "ÄłC": 256,
      "her": 257,
      "ÄłI": 258,
      "Ġ,": 259,
      "Ġ.": 260,
      "if": 261,
      "Äłas": 262,
      "Äłare": 263,
      "Äłpro": 264,
      "od": 265,
      "ter": 266,
      "Äłwith": 267,
      "Äłcon": 268,
      "ge": 269,
      "Äłyou": 270,
      "ment": 271,
      "op": 272,
      "Äłit": 273,
      "th": 274,
      "Äłor": 275,
      "ab": 276,
      "ist": 277,
      "Äłal": 278,
      "ate": 279,
      "Äłwh": 280,
      "ers": 281,
      "ies": 282,
      "res": 283,
      "ess": 284,
      "ill": 285,
      "ÄłThe": 286,
      "ÄłM": 287,
      "Ã¢Ä¢Ä»": 288,
      "ĠÄłw": 289,
      "em": 290,
      "ect": 291,
      "ity": 292,
      "ac": 293,
      "ere": 294,
      "um": 295,
      "ÄłP": 296,
      "est": 297,
      "of": 298,
      "ore": 299,
      "ant": 300,
      "ive": 301,
      "os": 302,
      "rom": 303,
      "oun": 304,
      "ld": 305,
      "ke": 306,
      "Äłhe": 307,
      "iv": 308,
      "qu": 309,
      "Äłex": 310,
      "ain": 311,
      "ec": 312,
      "Äłcom": 313,
      "ÄłB": 314,
      "ĠÄłc": 315,
      "pp": 316,
      "igh": 317,
      "ĠÄłs": 318,
      "ĠÄłp": 319,
      "oc": 320,
      "ud": 321,
      "ort": 322,
      "ĠÄłof": 323,
      "Äłv": 324,
      "Äłsu": 325,
      "ave": 326,
      "ĠÄłb": 327,
      "ÄłH": 328,
      "ĠÄła": 329,
      "Äłby": 330,
      "ure": 331,
      "ĠÄłf": 332,
      "ial": 333,
      "Äłcan": 334,
      "ÄłW": 335,
      "The": 336,
      "Äłat": 337,
      "Äłch": 338,
      "art": 339,
      "ĠÄłin": 340,
      "Äłwas": 341,
      "Äłde": 342,
      "Äłr": 343,
      "Äłfrom": 344,
      "ical": 345,
      "ÄłD": 346,
      "ÄłE": 347,
      "ew": 348,
      "ĠÄłand": 349,
      "all": 350,
      "ri": 351,
      "og": 352,
      "ÄłF": 353,
      "ÄłR": 354,
      "our": 355,
      "Äłthis": 356,
      "ĠÄłm": 357,
      "ear": 358,
      "ĠÄłto": 359,
      "Äłle": 360,
      "ÄłÃ¢Ä¢Ä": 361,
      "Äłnot": 362,
      "ich": 363,
      "out": 364,
      "ight": 365,
      "Äłhave": 366,
      "pt": 367,
      "ĠÄłd": 368,
      "ions": 369,
      "ÄłG": 370,
      "gh": 371,
      "ĠÄĬ": 372,
      "ÄłN": 373,
      "du": 374,
      "ost": 375,
      "ome": 376,
      "Äłen": 377,
      "Äłsp": 378,
      "Äłsh": 379,
      "ould": 380,
      "00": 381,
      "ÄłL": 382,
      "Äłun": 383,
      "per": 384,
      "use": 385,
      "ated": 386,
      "ine": 387,
      "Äłse": 388,
      "ag": 389,
      "ard": 390,
      "Äłwor": 391,
      "Äłab": 392,
      "act": 393,
      "ough": 394,
      "Äłwe": 395,
      "ther": 396,
      "age": 397,
      "pl": 398,
      "ast": 399,
      "ak": 400,
      "ell": 401,
      "Äłpl": 402,
      "are": 403,
      "ans": 404,
      "Äłim": 405,
      "ÄłIn": 406,
      "ound": 407,
      "ff": 408,
      "iz": 409,
      "ous": 410,
      "ru": 411,
      "ult": 412,
      "Äłus": 413,
      "ide": 414,
      "hen": 415,
      "Äłtheir": 416,
      "der": 417,
      "ĠÄłh": 418,
      "ood": 419,
      "19": 420,
      "ib": 421,
      "ong": 422,
      "Äłint": 423,
      "orm": 424,
      "ations": 425,
      "ap": 426,
      "ust": 427,
      "ip": 428,
      "Äłyour": 429,
      "Ã¢Ä¢Ä¿": 430,
      "ÄłO": 431,
      "end": 432,
      "ater": 433,
      "Äłthey": 434,
      "Äłwhich": 435,
      "Äłk": 436,
      "vel": 437,
      "cc": 438,
      "ia": 439,
      "able": 440,
      "so": 441,
      "ary": 442,
      "Äłinc": 443,
      "ild": 444,
      "Äłwill": 445,
      "Äłcont": 446,
      "ÄłU": 447,
      "Äład": 448,
      "up": 449,
      "av": 450,
      "Äłall": 451,
      "Äłcomp": 452,
      "ire": 453,
      "ence": 454,
      "ep": 455,
      "ÄłJ": 456,
      "Äłmore": 457,
      "Äłdis": 458,
      "ance": 459,
      "nt": 460,
      "ual": 461,
      "ass": 462,
      "Äłar": 463,
      "ks": 464,
      "Äłres": 465,
      "Äłhas": 466,
      "Äłne": 467,
      "ĠÄłt": 468,
      "ry": 469,
      "one": 470,
      "ach": 471,
      "Äłdo": 472,
      "ind": 473,
      "ake": 474,
      "ress": 475,
      "20": 476,
      "Ġ-": 477,
      "ents": 478,
      "reat": 479,
      "Äłbut": 480,
      "ĠÄłn": 481,
      "Äłman": 482,
      "his": 483,
      "Äłcl": 484,
      "Äłother": 485,
      "ase": 486,
      "ign": 487,
      "ose": 488,
      "ction": 489,
      "ition": 490,
      "ber": 491,
      "ish": 492,
      "ĠÄłl": 493,
      "ime": 494,
      "ens": 495,
      "ice": 496,
      "Äłimp": 497,
      "Äłalso": 498,
      "Äłte": 499,
      "Äłone": 500,
      "very": 501,
      "ace": 502,
      "ory": 503,
      "ount": 504,
      "ÄłÃ¢Ä¢Ä¾": 505,
      "ĠÄłre": 506,
      "Äłme": 507,
      "Äłwere": 508,
      "Äłper": 509,
      "ub": 510,
      "ame": 511,
      "ack": 512,
      "'s": 513,
      "ue": 514,
      "ok": 515,
      "ors": 516,
      "ang": 517,
      "ord": 518,
      "Äłpre": 519,
      "now": 520,
      ").": 521,
      "ci": 522,
      "ces": 523,
      "form": 524,
      "Äłj": 525,
      "ike": 526,
      "Äłthan": 527,
      "Äłout": 528,
      "eop": 529,
      "ite": 530,
      "iff": 531,
      "olog": 532,
      "ĠÄłe": 533,
      "ree": 534,
      "low": 535,
      "ays": 536,
      "Äłpart": 537,
      "Äłabout": 538,
      "ons": 539,
      "Äłso": 540,
      "Äłapp": 541,
      "ie": 542,
      "te": 543,
      "ren": 544,
      "Äłsy": 545,
      "Äłev": 546,
      "ĠÄłis": 547,
      "ric": 548,
      "ings": 549,
      "Äłthem": 550,
      "ates": 551,
      "eople": 552,
      "Äłcomm": 553,
      "ail": 554,
      "ile": 555,
      "Äłstud": 556,
      "ĠÄłS": 557,
      "Äłwho": 558,
      "ÄłSt": 559,
      "ĠÄłg": 560,
      "ĠÄłA": 561,
      "here": 562,
      "rit": 563,
      "Äłup": 564,
      "over": 565,
      "ÄłK": 566,
      "erv": 567,
      "ph": 568,
      "rough": 569,
      "Äłbec": 570,
      "ll": 571,
      "lud": 572,
      "ian": 573,
      "Äłqu": 574,
      "mer": 575,
      "ÄłIt": 576,
      "Äłhis": 577,
      "iver": 578,
      "In": 579,
      "ause": 580,
      "ĠÄłC": 581,
      "Äłmay": 582,
      "ific": 583,
      "ove": 584,
      "ally": 585,
      "Äłwhen": 586,
      "Äłrec": 587,
      "ms": 588,
      "ob": 589,
      "irst": 590,
      "ject": 591,
      "int": 592,
      "Äłyear": 593,
      "tern": 594,
      "Äłthere": 595,
      "Äłits": 596,
      "stem": 597,
      "row": 598,
      "we": 599,
      "ÄłCh": 600,
      "Äłsome": 601,
      "ĠÄłbe": 602,
      "velop": 603,
      "ities": 604,
      "Äłinto": 605,
      "alth": 606,
      "ond": 607,
      "ys": 608,
      "ments": 609,
      "Äłdiff": 610,
      "lic": 611,
      "Äłtime": 612,
      "Äłbeen": 613,
      "les": 614,
      "Äłtra": 615,
      "Äłpeople": 616,
      "Äłhow": 617,
      "ning": 618,
      "Äłwork": 619,
      "Äłover": 620,
      "lect": 621,
      "Äłthese": 622,
      "ĠÄłthat": 623,
      "ffect": 624,
      "ple": 625,
      "Äłag": 626,
      "red": 627,
      "ÄłThis": 628,
      "Äłmost": 629,
      "Äłcol": 630,
      "ook": 631,
      "Äłcons": 632,
      "lp": 633,
      "ont": 634,
      "Äłour": 635,
      "Äłbet": 636,
      "ational": 637,
      "Äłknow": 638,
      "Äłro": 639,
      "ious": 640,
      "Äłuse": 641,
      "ĠÄłst": 642,
      "ative": 643,
      "ular": 644,
      "ating": 645,
      "Äłbl": 646,
      "Äłhad": 647,
      "10": 648,
      "Äłacc": 649,
      "Äłlike": 650,
      "Äłtr": 651,
      "ise": 652,
      "Äłra": 653,
      "ool": 654,
      "Äłact": 655,
      "rop": 656,
      "ĠÄłfor": 657,
      "iet": 658,
      "Äłneed": 659,
      "ÄłV": 660,
      "ced": 661,
      "ov": 662,
      "Äłthrough": 663,
      "Äłchild": 664,
      "200": 665,
      "hed": 666,
      "wo": 667,
      "yp": 668,
      "Äłwould": 669,
      "Äłsuch": 670,
      "ark": 671,
      "Äłgen": 672,
      "),": 673,
      "ful": 674,
      "ÄłY": 675,
      "Äłinclud": 676,
      "hat": 677,
      "Äłsa": 678,
      "Äłnew": 679,
      "Äłunder": 680,
      "Äłpr": 681,
      "ics": 682,
      "oss": 683,
      "its": 684,
      "uc": 685,
      "Äłfe": 686,
      "other": 687,
      "Äłdes": 688,
      "oth": 689,
      "ied": 690,
      "fter": 691,
      "ath": 692,
      "iss": 693,
      "rib": 694,
      "18": 695,
      "Äłhelp": 696,
      "Äłany": 697,
      "Äłgr": 698,
      "uring": 699,
      "Äłif": 700,
      "Äłrel": 701,
      "ures": 702,
      "erm": 703,
      "ĠÄłM": 704,
      "Äłused": 705,
      "Äłprodu": 706,
      "old": 707,
      "Äłmany": 708,
      "ne": 709,
      "Äłrep": 710,
      "Äłdevelop": 711,
      "ert": 712,
      "xt": 713,
      "Äłph": 714,
      "Äłprov": 715,
      "eth": 716,
      "uch": 717,
      "ility": 718,
      "ife": 719,
      "ange": 720,
      "Äłfirst": 721,
      "ible": 722,
      "own": 723,
      "ink": 724,
      "ÄłUn": 725,
      "Äłam": 726,
      "als": 727,
      "Äłoff": 728,
      "ased": 729,
      "sel": 730,
      "ĠÄłwith": 731,
      "Äłind": 732,
      "Äłonly": 733,
      "Äłwhat": 734,
      "Äłspec": 735,
      "Äłsystem": 736,
      "Äłdiffere": 737,
      "Äłac": 738,
      "ract": 739,
      "Äłexp": 740,
      "ower": 741,
      "ÄłAn": 742,
      "Äłreg": 743,
      "ram": 744,
      "Äłno": 745,
      "ten": 746,
      "ef": 747,
      "gan": 748,
      "ĠÄłP": 749,
      "ĠÄły": 750,
      "aw": 751,
      "ĠÄłon": 752,
      "ĠÄłas": 753,
      "ween": 754,
      "cess": 755,
      "ble": 756,
      "Äłsc": 757,
      "vent": 758,
      "ick": 759,
      "ution": 760,
      "omm": 761,
      "ting": 762,
      "any": 763,
      "cy": 764,
      "Äłass": 765,
      "ants": 766,
      "ever": 767,
      "arch": 768,
      "ily": 769,
      "Äładd": 770,
      "ade": 771,
      "Äłob": 772,
      "ÄłÃ¢Ä¢Äµ": 773,
      "Äłdec": 774,
      "Äłem": 775,
      "Äłtwo": 776,
      "ĠÄłThe": 777,
      "ĠÄłI": 778,
      "201": 779,
      "ss": 780,
      "ork": 781,
      "ts": 782,
      "Äłwater": 783,
      "Äłsub": 784,
      "ÄłHe": 785,
      "chool": 786,
      "ered": 787,
      "ology": 788,
      "ural": 789,
      "ivers": 790,
      "hes": 791,
      "ata": 792,
      "Äłsur": 793,
      "Äłpo": 794,
      "Äłhigh": 795,
      "Äłwell": 796,
      "ĠÄłare": 797,
      "Äłgo": 798,
      "Äłatt": 799,
      "ĠÄłT": 800,
      "ident": 801,
      "ĠÄłB": 802,
      "fore": 803,
      "Äłsupp": 804,
      "ĠÄłpro": 805,
      "ds": 806,
      "Äłinf": 807,
      "Äłrem": 808,
      "chn": 809,
      "ited": 810,
      "Äłshould": 811,
      "Äłfl": 812,
      "Ġ:": 813,
      "ines": 814,
      "ature": 815,
      "erson": 816,
      "Äłhealth": 817,
      "Äłsm": 818,
      "ness": 819,
      "ins": 820,
      "ĠÄłor": 821,
      "land": 822,
      "ically": 823,
      "formation": 824,
      "Äłbetween": 825,
      "gy": 826,
      "meric": 827,
      "Ãĥ": 828,
      "Äłrese": 829,
      "Äłyears": 830,
      "wn": 831,
      "ually": 832,
      "aking": 833,
      "ĠÄłwh": 834,
      "Äłimport": 835,
      "Äłmake": 836,
      "Äłbu": 837,
      "ict": 838,
      "ists": 839,
      "ism": 840,
      "cept": 841,
      "Äłwhere": 842,
      "Äłmod": 843,
      "Äłget": 844,
      "Äłcould": 845,
      "ĠÄłH": 846,
      "ives": 847,
      "oy": 848,
      "Äłher": 849,
      "get": 850,
      "Äłform": 851,
      "oup": 852,
      "Ã¢Ä¢Ä¾": 853,
      "Äłtrans": 854,
      "iew": 855,
      "Äłpres": 856,
      "Äłinter": 857,
      "Äłear": 858,
      "ng": 859,
      "arm": 860,
      "Äłdifferent": 861,
      "ases": 862,
      "Äłinv": 863,
      "Äłpol": 864,
      "urn": 865,
      "Äłlear": 866,
      "ollow": 867,
      "Äłnum": 868,
      "Äłfun": 869,
      "Äłinst": 870,
      "Äłsim": 871,
      "Äłcent": 872,
      "Äłthose": 873,
      "Äłeffect": 874,
      "iron": 875,
      "led": 876,
      "Äłlong": 877,
      "Äłeven": 878,
      "cer": 879,
      "Äłway": 880,
      "ĠÄłit": 881,
      "Äłdet": 882,
      "Äłexam": 883,
      "ages": 884,
      "ruct": 885,
      "Äłbecause": 886,
      "Äłcar": 887,
      "ues": 888,
      "Äłworld": 889,
      "Äłed": 890,
      "Äłprog": 891,
      "hip": 892,
      "Äłfound": 893,
      "ved": 894,
      "Äłvery": 895,
      "Äłtyp": 896,
      "ĠÄłR": 897,
      "ody": 898,
      "ĠÄłW": 899,
      "omp": 900,
      "Äłsee": 901,
      "Äłafter": 902,
      "gg": 903,
      "Äłmed": 904,
      "Äłcount": 905,
      "ĠÄłan": 906,
      "Äłincre": 907,
      "Äłjust": 908,
      "Äłexper": 909,
      "ted": 910,
      "Äłthen": 911,
      "Äłcall": 912,
      "uman": 913,
      "Äłvar": 914,
      "ublic": 915,
      "ĠÄłhe": 916,
      "ĠÄłD": 917,
      "ck": 918,
      "ized": 919,
      "ather": 920,
      "eg": 921,
      "arge": 922,
      "Äłdep": 923,
      "overn": 924,
      "Äłsign": 925,
      "Äłresp": 926,
      "ĠÄłE": 927,
      "ÄłAmeric": 928,
      "Äłke": 929,
      "Äłimportant": 930,
      "ize": 931,
      "ĠÄłv": 932,
      "Äłgener": 933,
      "Äłlife": 934,
      "ĠÄłwas": 935,
      "io": 936,
      "tle": 937,
      "Äłca": 938,
      "Äłsaid": 939,
      "Äłchildren": 940,
      "ward": 941,
      "Äłloc": 942,
      "cent": 943,
      "Äłsec": 944,
      "ale": 945,
      "Äłsoc": 946,
      "Äłref": 947,
      "ĠÄłby": 948,
      "imes": 949,
      "Äłrequ": 950,
      "Äłlead": 951,
      "..": 952,
      "Äłfam": 953,
      "onom": 954,
      "Äłevery": 955,
      "Äłdisc": 956,
      "viron": 957,
      "ÄłPro": 958,
      "air": 959,
      "ĠÃ¢Ä¢Ä»": 960,
      "ven": 961,
      "Äłresult": 962,
      "Äłprocess": 963,
      "Äłfood": 964,
      "Äłeach": 965,
      "ĠÄłG": 966,
      "Äłcommun": 967,
      "ices": 968,
      "Äłsk": 969,
      "15": 970,
      "Äłdist": 971,
      "Äłtechn": 972,
      "app": 973,
      "Äłart": 974,
      "Äłperson": 975,
      "iel": 976,
      "Äłinformation": 977,
      "ĠÄłF": 978,
      "Äłduring": 979,
      "Äłbeing": 980,
      "Äłmon": 981,
      "ection": 982,
      "||": 983,
      "ially": 984,
      "ined": 985,
      "Äłfact": 986,
      "omen": 987,
      "ality": 988,
      "Äłmuch": 989,
      "Äłdata": 990,
      "Äłpat": 991,
      "ĠÄłN": 992,
      "ĠÄłat": 993,
      "hem": 994,
      "Äłown": 995,
      "Äłread": 996,
      "ock": 997,
      "ergy": 998,
      "iversity": 999,
      "ince": 1000,
      "Äłco": 1001,
      "orn": 1002,
      "Äłset": 1003,
      "ÄłThey": 1004,
      "Äłhist": 1005,
      "Äłgrow": 1006,
      "Äłcre": 1007,
      "ivid": 1008,
      "read": 1009,
      "Äłfind": 1010,
      "ÄłIf": 1011,
      "Äłpartic": 1012,
      "to": 1013,
      "akes": 1014,
      "cient": 1015,
      "Äłstudents": 1016,
      "Ġ)": 1017,
      "ĠÄłex": 1018,
      "ient": 1019,
      "Äłshe": 1020,
      "12": 1021,
      "dition": 1022,
      "inal": 1023,
      "Äłext": 1024,
      "ars": 1025,
      "pec": 1026,
      "ute": 1027,
      "ring": 1028,
      "Äłdoes": 1029,
      "iety": 1030,
      "ĠÄłnot": 1031,
      "ex": 1032,
      "ix": 1033,
      "ÄłWe": 1034,
      "Äłdef": 1035,
      "ĠÄłal": 1036,
      "stand": 1037,
      "Äłback": 1038,
      "imate": 1039,
      "Äłpop": 1040,
      "Äłfollow": 1041,
      "ĠÄłse": 1042,
      "Äłproble": 1043,
      "rol": 1044,
      "ides": 1045,
      "Äłgra": 1046,
      "ĠÄłL": 1047,
      "port": 1048,
      "Ã¢Ä¢Äµ": 1049,
      "ury": 1050,
      "ÄłFor": 1051,
      "Äłright": 1052,
      "irect": 1053,
      "the": 1054,
      "Äłsmall": 1055,
      "vironment": 1056,
      "Äłlevel": 1057,
      "ran": 1058,
      "Äłent": 1059,
      "Äłins": 1060,
      "ty": 1061,
      "199": 1062,
      "uth": 1063,
      "Äłcomple": 1064,
      "Ġs": 1065,
      "ands": 1066,
      "Äłexpl": 1067,
      "Äłschool": 1068,
      "ulation": 1069,
      "Äłsame": 1070,
      "ral": 1071,
      "ÄłAl": 1072,
      "self": 1073,
      "eng": 1074,
      "Äłgl": 1075,
      "ax": 1076,
      "ves": 1077,
      "ÄłAs": 1078,
      "Äłboth": 1079,
      "Äłaround": 1080,
      "Äłtake": 1081,
      "ĠÄłJ": 1082,
      "Äłmy": 1083,
      "ĠÄłfrom": 1084,
      "Äłusing": 1085,
      "17": 1086,
      "Äłcur": 1087,
      "Äłend": 1088,
      "Ã¢Ä¢Ä¶": 1089,
      "Äłstudy": 1090,
      "oh": 1091,
      "hers": 1092,
      "ency": 1093,
      "Äłav": 1094,
      "ier": 1095,
      "iving": 1096,
      "Äłmin": 1097,
      "ash": 1098,
      "nce": 1099,
      "Äłgood": 1100,
      "ouse": 1101,
      "Äłbo": 1102,
      "Äłsol": 1103,
      "ital": 1104,
      "Äłmade": 1105,
      "ah": 1106,
      "Äłday": 1107,
      "ters": 1108,
      "Äłtest": 1109,
      "Äłshow": 1110,
      "cl": 1111,
      "ĠÄłch": 1112,
      "Äłgroup": 1113,
      "ared": 1114,
      "Äłserv": 1115,
      "Äłagain": 1116,
      "Äłthree": 1117,
      "Äłstr": 1118,
      "rain": 1119,
      "Äłmain": 1120,
      "ft": 1121,
      "000": 1122,
      "ÄłTh": 1123,
      "ains": 1124,
      "ee": 1125,
      "iqu": 1126,
      "Äłprot": 1127,
      "ished": 1128,
      "Äłris": 1129,
      "used": 1130,
      "acter": 1131,
      "Äłdise": 1132,
      "Äłresearch": 1133,
      "Äłocc": 1134,
      "aj": 1135,
      "Äłval": 1136,
      "Äłbefore": 1137,
      "eed": 1138,
      "ÄłHow": 1139,
      "ets": 1140,
      "els": 1141,
      "This": 1142,
      "Äłless": 1143,
      "ÄłAr": 1144,
      "Äłposs": 1145,
      "ross": 1146,
      "ional": 1147,
      "iven": 1148,
      "16": 1149,
      "Äłpower": 1150,
      "Äłbody": 1151,
      "ĠÄłun": 1152,
      "Äłcommon": 1153,
      "ron": 1154,
      "aterial": 1155,
      "Äłorgan": 1156,
      "Äłclass": 1157,
      "day": 1158,
      "Äłstart": 1159,
      "ected": 1160,
      "ertain": 1161,
      "Äłoften": 1162,
      "Äłthough": 1163,
      "vers": 1164,
      "30": 1165,
      "ision": 1166,
      "overnment": 1167,
      "Äłredu": 1168,
      "Äłsupport": 1169,
      "outh": 1170,
      "ÄłNew": 1171,
      "uss": 1172,
      "cience": 1173,
      "iod": 1174,
      "ĠÄłr": 1175,
      "ull": 1176,
      "Äłnumber": 1177,
      "lear": 1178,
      "Äłhuman": 1179,
      "ries": 1180,
      "arg": 1181,
      "Äłnow": 1182,
      "Äłdesign": 1183,
      "ential": 1184,
      "ead": 1185,
      "ividual": 1186,
      "ization": 1187,
      "Äłstate": 1188,
      "ense": 1189,
      "Äłplan": 1190,
      "Äłtreat": 1191,
      "Äłec": 1192,
      "ĠÄłcan": 1193,
      "Äłhim": 1194,
      "Äłgreat": 1195,
      "ired": 1196,
      "Äłcare": 1197,
      "ination": 1198,
      "az": 1199,
      "Äłcell": 1200,
      ".,": 1201,
      "Äłeduc": 1202,
      "way": 1203,
      "eral": 1204,
      "itive": 1205,
      "itions": 1206,
      "Äłdi": 1207,
      "Äłactiv": 1208,
      "ider": 1209,
      "Äłwhile": 1210,
      "ÄłBut": 1211,
      "reen": 1212,
      "Äłthink": 1213,
      "Äłbel": 1214,
      "Äłser": 1215,
      "Ã¢Ä¢": 1216,
      "rent": 1217,
      "oms": 1218,
      "ĠÄłhave": 1219,
      "Äłdown": 1220,
      "ĠÄłthis": 1221,
      "ids": 1222,
      "Äłallow": 1223,
      "bers": 1224,
      "Äłcor": 1225,
      "Äłelect": 1226,
      "raph": 1227,
      "oci": 1228,
      "50": 1229,
      "Äłlit": 1230,
      "osed": 1231,
      "orth": 1232,
      "Äłcontin": 1233,
      "ason": 1234,
      "pr": 1235,
      "ium": 1236,
      "Äłsom": 1237,
      "nd": 1238,
      "Äłbuild": 1239,
      "Äłcalled": 1240,
      "iness": 1241,
      "ived": 1242,
      "Äłlarge": 1243,
      "lish": 1244,
      "ethod": 1245,
      "Äłplace": 1246,
      "amp": 1247,
      "Äłincluding": 1248,
      "Äłdid": 1249,
      "Ġ'": 1250,
      "Äłmet": 1251,
      "14": 1252,
      "Äłmem": 1253,
      "ug": 1254,
      "Äłmust": 1255,
      "ified": 1256,
      "Äłpoint": 1257,
      "ÄłInd": 1258,
      "Äłop": 1259,
      "erest": 1260,
      "ration": 1261,
      "ÃĤ": 1262,
      "Äłenergy": 1263,
      "ĠÄłIn": 1264,
      "atic": 1265,
      "ify": 1266,
      "angu": 1267,
      "cing": 1268,
      "Äłknown": 1269,
      "Äłest": 1270,
      "Äłlook": 1271,
      "ĠÄłcon": 1272,
      "bs": 1273,
      "ior": 1274,
      "ner": 1275,
      "Äłequ": 1276,
      "ÄłThere": 1277,
      "de": 1278,
      "ption": 1279,
      "ources": 1280,
      "Äłconf": 1281,
      "Äłpract": 1282,
      "ton": 1283,
      "pect": 1284,
      "Äłreport": 1285,
      "com": 1286,
      "rap": 1287,
      "agn": 1288,
      "ccess": 1289,
      "Äłdr": 1290,
      "Äłquest": 1291,
      "ean": 1292,
      "Äłgu": 1293,
      "ĠÄłO": 1294,
      "aving": 1295,
      "ording": 1296,
      "ield": 1297,
      "alk": 1298,
      "ĠÄłsh": 1299,
      "man": 1300,
      "Äłwant": 1301,
      "Äłfew": 1302,
      "Äładv": 1303,
      "ajor": 1304,
      "illion": 1305,
      "und": 1306,
      "Äłwithout": 1307,
      "Äłmaterial": 1308,
      "ability": 1309,
      "Äłproduct": 1310,
      "stit": 1311,
      "Äłanother": 1312,
      "ills": 1313,
      "Äłinclude": 1314,
      "ways": 1315,
      "ained": 1316,
      "Äłunderstand": 1317,
      "Äłexample": 1318,
      "ÄłÃ¢Ä¢Äº": 1319,
      "irc": 1320,
      "ĠÄłyou": 1321,
      "ev": 1322,
      "ret": 1323,
      "Äłmight": 1324,
      "ÄłWh": 1325,
      "arent": 1326,
      "Äłtem": 1327,
      "Äłlight": 1328,
      "Äłwrit": 1329,
      "Äłcap": 1330,
      "Äłmark": 1331,
      "ffic": 1332,
      "au": 1333,
      "line": 1334,
      "ering": 1335,
      "Äłbeh": 1336,
      "ians": 1337,
      "icle": 1338,
      "ource": 1339,
      "ards": 1340,
      "oint": 1341,
      "ern": 1342,
      "arc": 1343,
      "Äłstill": 1344,
      "Äłenvironment": 1345,
      "Äłsym": 1346,
      "ĠÄłle": 1347,
      "Äłcour": 1348,
      "Äłeas": 1349,
      "ience": 1350,
      "less": 1351,
      "Äłbest": 1352,
      "ÄłThese": 1353,
      "Äłpot": 1354,
      "ÄłYou": 1355,
      "ats": 1356,
      "ining": 1357,
      "Äłphys": 1358,
      "13": 1359,
      "Äłpublic": 1360,
      "Äłpass": 1361,
      "It": 1362,
      "ÄłSp": 1363,
      "Äłindividual": 1364,
      "orld": 1365,
      "ental": 1366,
      "str": 1367,
      "ological": 1368,
      "Äłdon": 1369,
      "Äłchange": 1370,
      "Äłmus": 1371,
      "cial": 1372,
      "ised": 1373,
      "Äłwithin": 1374,
      "Äłvis": 1375,
      "Äłdevelopment": 1376,
      "atural": 1377,
      "Äłsit": 1378,
      "Äłproject": 1379,
      "Äłret": 1380,
      "ĠÄłim": 1381,
      "Äłsl": 1382,
      "Äłopp": 1383,
      "ÄłIs": 1384,
      "Äłdirect": 1385,
      "rodu": 1386,
      "Äłprof": 1387,
      "uses": 1388,
      "eb": 1389,
      "atter": 1390,
      "Äłpur": 1391,
      "Äłimpro": 1392,
      "11": 1393,
      "ĠÄłthey": 1394,
      "Äłlearn": 1395,
      "ik": 1396,
      "Äłve": 1397,
      "Äłplay": 1398,
      "ĠÄłwhich": 1399,
      "Ġ;": 1400,
      "Äłide": 1401,
      "Äłprogram": 1402,
      "Äłiss": 1403,
      "ÄłAnd": 1404,
      "Äłdisease": 1405,
      "veral": 1406,
      "lu": 1407,
      "ories": 1408,
      "Äłimm": 1409,
      "ailable": 1410,
      "Äłpain": 1411,
      ".\"": 1412,
      "Äłdem": 1413,
      "me": 1414,
      "Äłhistory": 1415,
      "ole": 1416,
      "ogn": 1417,
      "Äłold": 1418,
      "Äłbas": 1419,
      "Äłlow": 1420,
      "Äłfeel": 1421,
      "Äłchang": 1422,
      "ission": 1423,
      "rist": 1424,
      "ently": 1425,
      "ograph": 1426,
      "enef": 1427,
      "Äłwomen": 1428,
      "Äłblood": 1429,
      "ware": 1430,
      "Äłchar": 1431,
      "Äłmeas": 1432,
      "Äłappro": 1433,
      "ĠÄłU": 1434,
      "ÄłEng": 1435,
      "ank": 1436,
      "Äłpos": 1437,
      "Äłarea": 1438,
      "ients": 1439,
      "Äłcult": 1440,
      "Äłant": 1441,
      "Äłpresent": 1442,
      "ÄłAmerican": 1443,
      "ences": 1444,
      "Äłhand": 1445,
      "ĠÄłtheir": 1446,
      "gen": 1447,
      "crib": 1448,
      "Äłbre": 1449,
      "Äłbecome": 1450,
      "Äłident": 1451,
      "Äłmethod": 1452,
      "Äłproper": 1453,
      "acc": 1454,
      "Äłprovide": 1455,
      "Äłbelie": 1456,
      "ĠThe": 1457,
      "tt": 1458,
      "Äłtoo": 1459,
      "Äłthings": 1460,
      "Äłrest": 1461,
      "ĠÄłpl": 1462,
      "ÄłRes": 1463,
      "ends": 1464,
      "ĠÄłwe": 1465,
      "ples": 1466,
      "Äłsocial": 1467,
      "Äłanal": 1468,
      "Äłfamily": 1469,
      "Äłstand": 1470,
      "Äłperform": 1471,
      "ention": 1472,
      "ÄłAd": 1473,
      "Äłbetter": 1474,
      "'t": 1475,
      "urop": 1476,
      "idence": 1477,
      "Äłeng": 1478,
      "Äłrisk": 1479,
      "ÄłCl": 1480,
      "ÄłUniversity": 1481,
      "Äłlaw": 1482,
      "anguage": 1483,
      "inc": 1484,
      "Äłbr": 1485,
      "Äłche": 1486,
      "though": 1487,
      "til": 1488,
      "ator": 1489,
      "Äłanim": 1490,
      "abor": 1491,
      "Äłhere": 1492,
      "sy": 1493,
      "Äłmove": 1494,
      "ÄłSh": 1495,
      "resent": 1496,
      "Äłleg": 1497,
      "Äłmeans": 1498,
      "Äłsaf": 1499,
      "ots": 1500,
      "upp": 1501,
      "ones": 1502,
      "Äłcontrol": 1503,
      "aper": 1504,
      "Äłeconom": 1505,
      "Äłgovernment": 1506,
      "Äłreal": 1507,
      "Äłoccur": 1508,
      "What": 1509,
      "ĠÄłall": 1510,
      "isc": 1511,
      "Äłcause": 1512,
      "Äłele": 1513,
      "ided": 1514,
      "par": 1515,
      "Äłkeep": 1516,
      "gin": 1517,
      "ina": 1518,
      "ilar": 1519,
      "Äłlearning": 1520,
      "lished": 1521,
      "ery": 1522,
      "icult": 1523,
      "ression": 1524,
      "ling": 1525,
      "Äłhome": 1526,
      "ecess": 1527,
      "ĠÄłk": 1528,
      "atch": 1529,
      "Äłpossible": 1530,
      "ystem": 1531,
      "ggest": 1532,
      "Äłsecond": 1533,
      "min": 1534,
      "Äłinterest": 1535,
      "Äłter": 1536,
      "Äłscient": 1537,
      "Äłtop": 1538,
      "Äłmil": 1539,
      "olution": 1540,
      "ĠÄłwere": 1541,
      "Äłseveral": 1542,
      "Äłearly": 1543,
      "Ġ/": 1544,
      "hy": 1545,
      "Äłfin": 1546,
      "Äłnear": 1547,
      "Äłamong": 1548,
      "ÄłHowever": 1549,
      "ificant": 1550,
      "Äłmajor": 1551,
      "ended": 1552,
      "Äłaffect": 1553,
      "round": 1554,
      "Äłwhe": 1555,
      "usiness": 1556,
      "earch": 1557,
      "uthor": 1558,
      "Äłagainst": 1559,
      "Äłes": 1560,
      "Äłinvol": 1561,
      "oid": 1562,
      "Äłpress": 1563,
      "Äłoper": 1564,
      "40": 1565,
      "ames": 1566,
      "ĠA": 1567,
      "ÄłQ": 1568,
      "Äłfre": 1569,
      "Äłland": 1570,
      "ote": 1571,
      "une": 1572,
      "ÄłUnited": 1573,
      "Äłcost": 1574,
      "ÄłÃ¢Ä¢Ä¶": 1575,
      "Äłhig": 1576,
      "urther": 1577,
      "ox": 1578,
      "Äłfore": 1579,
      "Äłair": 1580,
      "Äłcertain": 1581,
      "Äłhapp": 1582,
      "Äłel": 1583,
      "ÄłCan": 1584,
      "ope": 1585,
      "Äłplant": 1586,
      "ured": 1587,
      "We": 1588,
      "ĠÄłab": 1589,
      "Äłlast": 1590,
      "ably": 1591,
      "Äłet": 1592,
      "Äłparticular": 1593,
      "af": 1594,
      "ĠÄład": 1595,
      "ately": 1596,
      "Äłcurrent": 1597,
      "ek": 1598,
      "Äłlim": 1599,
      "Äłpar": 1600,
      "Äłwar": 1601,
      "Äłindu": 1602,
      "Äłconst": 1603,
      "Äłprevent": 1604,
      "25": 1605,
      "view": 1606,
      "Äłfar": 1607,
      "ÄłCon": 1608,
      "Äłconn": 1609,
      "Äłdev": 1610,
      "ears": 1611,
      "Äłareas": 1612,
      "Äłorder": 1613,
      "ÄłEx": 1614,
      "Äłperiod": 1615,
      "erc": 1616,
      "ÄłCol": 1617,
      "ortun": 1618,
      "atory": 1619,
      "Äłothers": 1620,
      "ledge": 1621,
      "Ġ).": 1622,
      "osp": 1623,
      "Äłnon": 1624,
      "ÄłPl": 1625,
      "ploy": 1626,
      "Äłtru": 1627,
      "Äłcal": 1628,
      "Äłobject": 1629,
      "ending": 1630,
      "Äłsays": 1631,
      "Äłmen": 1632,
      "ĠÄłwill": 1633,
      "Äłcreat": 1634,
      "icro": 1635,
      "ication": 1636,
      "ember": 1637,
      "Äłsystems": 1638,
      "vious": 1639,
      "ww": 1640,
      "ths": 1641,
      "ĠÄłcont": 1642,
      "Äłaccess": 1643,
      "Äłbased": 1644,
      "Äłhead": 1645,
      "ÄłDe": 1646,
      "aken": 1647,
      "ĠÄłhis": 1648,
      "198": 1649,
      "Äłspecies": 1650,
      "Äłlocal": 1651,
      "Äłtimes": 1652,
      "ither": 1653,
      "Äłbro": 1654,
      "uture": 1655,
      "Äłopen": 1656,
      "If": 1657,
      "Äłable": 1658,
      "ÄłStates": 1659,
      "Äłavailable": 1660,
      "ances": 1661,
      "ym": 1662,
      "Äłbenef": 1663,
      "raw": 1664,
      "ÄłAt": 1665,
      "Äłfac": 1666,
      "Äłpercent": 1667,
      "ĠÄłres": 1668,
      "ÄłCent": 1669,
      "agement": 1670,
      "Äłdel": 1671,
      "Äładdition": 1672,
      "por": 1673,
      "ĠÄłother": 1674,
      ",\"": 1675,
      "ĠÄłdo": 1676,
      "Äłeducation": 1677,
      "ris": 1678,
      "omes": 1679,
      "Äłhard": 1680,
      "Â¦": 1681,
      "obal": 1682,
      "Äłfollowing": 1683,
      "face": 1684,
      "not": 1685,
      "Äłsince": 1686,
      "duct": 1687,
      "Äłfoc": 1688,
      "ilt": 1689,
      "Äłmean": 1690,
      "Äłtype": 1691,
      "--": 1692,
      "Äłcond": 1693,
      "Äłorig": 1694,
      "ÄłWhen": 1695,
      "Äłcountry": 1696,
      "Äłname": 1697,
      "ively": 1698,
      "aps": 1699,
      "Äłamount": 1700,
      "Äłproblem": 1701,
      "nal": 1702,
      "ps": 1703,
      "Äłuntil": 1704,
      "pecially": 1705,
      "ething": 1706,
      "Äłview": 1707,
      "work": 1708,
      "Äłage": 1709,
      "Äłbi": 1710,
      "Äłmult": 1711,
      "Äłlater": 1712,
      "aves": 1713,
      "Äłsay": 1714,
      "Äłtemper": 1715,
      "Äłfour": 1716,
      "idd": 1717,
      "oks": 1718,
      "ĠS": 1719,
      "ane": 1720,
      "ÄłTo": 1721,
      "ÄłPh": 1722,
      "Äłsuccess": 1723,
      "Äłintern": 1724,
      "ohn": 1725,
      "ÄłComm": 1726,
      "istic": 1727,
      "100": 1728,
      "ĠÄłen": 1729,
      "How": 1730,
      "oot": 1731,
      "aster": 1732,
      "etic": 1733,
      "ung": 1734,
      "Äłexist": 1735,
      "Äłsuggest": 1736,
      "Äłlikely": 1737,
      "Äłsignificant": 1738,
      "Äłproblems": 1739,
      "ush": 1740,
      "ems": 1741,
      "Äłcome": 1742,
      "cle": 1743,
      "ĠÄłinc": 1744,
      "Äłrun": 1745,
      "Äłrece": 1746,
      "ÄłGod": 1747,
      "Äłpe": 1748,
      "Äłflow": 1749,
      "utions": 1750,
      "Äłlevels": 1751,
      "Äłtreatment": 1752,
      "ned": 1753,
      "Äłfree": 1754,
      "ĠÄłbut": 1755,
      "Äłrad": 1756,
      "ÄłZ": 1757,
      "iting": 1758,
      "Äłbir": 1759,
      "ĠÄłÃ¢Ä¢Ä¾": 1760,
      "ilities": 1761,
      "ĠÄłhas": 1762,
      "selves": 1763,
      "rim": 1764,
      "Äłstruct": 1765,
      "Äłalways": 1766,
      "Äłshort": 1767,
      "ape": 1768,
      "22": 1769,
      "apt": 1770,
      "oad": 1771,
      "ators": 1772,
      "Äłgiven": 1773,
      "ray": 1774,
      "Äłspace": 1775,
      "ĠÄłyour": 1776,
      "Äłfunction": 1777,
      "Äłcommunity": 1778,
      "gether": 1779,
      "Äłturn": 1780,
      "ene": 1781,
      "Äłcase": 1782,
      "Äłpost": 1783,
      "Äłnatural": 1784,
      "Äłheart": 1785,
      "Äłvol": 1786,
      "Äłvir": 1787,
      "Äłimpact": 1788,
      "pos": 1789,
      "edi": 1790,
      "ored": 1791,
      "Äłwords": 1792,
      "rans": 1793,
      "Äłdue": 1794,
      "ÄłSe": 1795,
      "ĠÄłmore": 1796,
      "ĠÄłone": 1797,
      "Äłsw": 1798,
      "aching": 1799,
      "orts": 1800,
      "Äłdays": 1801,
      "ÄłEurop": 1802,
      "Äłcomput": 1803,
      "atures": 1804,
      "Äłcreate": 1805,
      "ÃĲ": 1806,
      "ours": 1807,
      "ptoms": 1808,
      "Äłess": 1809,
      "Äłmaking": 1810,
      "Äłalong": 1811,
      "Äłcells": 1812,
      "As": 1813,
      "ler": 1814,
      "ĠÄłK": 1815,
      "Äłprom": 1816,
      "Äłassoci": 1817,
      "be": 1818,
      "cul": 1819,
      "ried": 1820,
      "Äłpolit": 1821,
      "ext": 1822,
      "most": 1823,
      "tain": 1824,
      "Äłtre": 1825,
      "thing": 1826,
      "Äłput": 1827,
      "elf": 1828,
      "Äłincrease": 1829,
      "ument": 1830,
      "Äłlist": 1831,
      "Äłcho": 1832,
      "Äłusually": 1833,
      "Äłways": 1834,
      "rag": 1835,
      "ĠÄłcl": 1836,
      "ysis": 1837,
      "Äłdifficult": 1838,
      "Äłfil": 1839,
      "ateg": 1840,
      "ode": 1841,
      "ĠÄłde": 1842,
      "Äłenc": 1843,
      "asing": 1844,
      "Äłteac": 1845,
      "Äłtext": 1846,
      "Äłresearc": 1847,
      "br": 1848,
      "ving": 1849,
      "Äłcy": 1850,
      "ales": 1851,
      "ols": 1852,
      "amm": 1853,
      "rug": 1854,
      "Äłcentury": 1855,
      "mit": 1856,
      "Äłcirc": 1857,
      "alf": 1858,
      "Äłyoung": 1859,
      "ÄłOr": 1860,
      "Äłpast": 1861,
      "hern": 1862,
      "ĠÄłper": 1863,
      "Äłgive": 1864,
      "Äłmillion": 1865,
      "ivity": 1866,
      "oring": 1867,
      "acy": 1868,
      "ecause": 1869,
      "sw": 1870,
      "ising": 1871,
      "ott": 1872,
      "fric": 1873,
      "ront": 1874,
      "There": 1875,
      "ruction": 1876,
      "24": 1877,
      "pro": 1878,
      "arth": 1879,
      "aces": 1880,
      "ÄłEn": 1881,
      "Äłprim": 1882,
      "Äłmov": 1883,
      "olic": 1884,
      "oft": 1885,
      "Äłcomb": 1886,
      "Äłbook": 1887,
      "lection": 1888,
      "ÄłAll": 1889,
      "ique": 1890,
      "Äłaut": 1891,
      "oney": 1892,
      "Äłrequire": 1893,
      "21": 1894,
      "Äłnecess": 1895,
      "ÄłNational": 1896,
      "Äłrecord": 1897,
      "Äłinvest": 1898,
      "ites": 1899,
      "let": 1900,
      "Â©": 1901,
      "Äłill": 1902,
      "Äłplants": 1903,
      "Äłconsum": 1904,
      "hemical": 1905,
      "Äłlittle": 1906,
      "Äłspecific": 1907,
      "Äłvarious": 1908,
      "Äłtechnology": 1909,
      "Äłpopulation": 1910,
      "oon": 1911,
      "side": 1912,
      "Äłcases": 1913,
      "Äłcancer": 1914,
      "Äłprofess": 1915,
      "Äłtry": 1916,
      "Äłopt": 1917,
      "by": 1918,
      "cri": 1919,
      "for": 1920,
      "Äłmar": 1921,
      "erence": 1922,
      "Äłneeds": 1923,
      "__": 1924,
      "lying": 1925,
      "Äłacross": 1926,
      "Äłcharacter": 1927,
      "60": 1928,
      "aim": 1929,
      "using": 1930,
      "yd": 1931,
      "ĠÄłj": 1932,
      "Äłbusiness": 1933,
      "ley": 1934,
      "ipp": 1935,
      "Äłlet": 1936,
      "ĠÄłSt": 1937,
      "Äłsubject": 1938,
      "Äłsimilar": 1939,
      "Äławay": 1940,
      "ĠÄłhad": 1941,
      "Äłobs": 1942,
      "ires": 1943,
      "ĠÄłcomp": 1944,
      "Äłcrit": 1945,
      "Äłclear": 1946,
      "aring": 1947,
      "Äłlanguage": 1948,
      "rad": 1949,
      "ÄłChrist": 1950,
      "NA": 1951,
      "Äłdig": 1952,
      "Äłspecial": 1953,
      "Äłcourse": 1954,
      "Äłtoday": 1955,
      "Äłnet": 1956,
      "utes": 1957,
      "ĠÄłsp": 1958,
      "Äłsomething": 1959,
      "ER": 1960,
      "ued": 1961,
      "Äłer": 1962,
      "Äłfuture": 1963,
      "lean": 1964,
      "197": 1965,
      "Äłdeterm": 1966,
      "ĠÄłalso": 1967,
      "lement": 1968,
      "verage": 1969,
      "Äłenough": 1970,
      "ibility": 1971,
      "Äłnext": 1972,
      "ification": 1973,
      "Äłeffects": 1974,
      "Äłbehav": 1975,
      "23": 1976,
      "rel": 1977,
      "Äłcity": 1978,
      "Äłtogether": 1979,
      "Äłrelations": 1980,
      "ready": 1981,
      "Äłhigher": 1982,
      "aid": 1983,
      "Äłmakes": 1984,
      "Äłapplic": 1985,
      "Â¢": 1986,
      "org": 1987,
      "Äłparent": 1988,
      "Äłdeveloped": 1989,
      "Äłconditions": 1990,
      "urch": 1991,
      "Äłconsider": 1992,
      "uation": 1993,
      "ĠÄłV": 1994,
      "Äłmot": 1995,
      "urity": 1996,
      "ÄłMed": 1997,
      "Äłespecially": 1998,
      "omet": 1999,
      "chie": 2000,
      "Äłworks": 2001,
      "ils": 2002,
      "ÄłBrit": 2003,
      "ÄłWhat": 2004,
      "ournal": 2005,
      "Äłterm": 2006,
      "Äłey": 2007,
      "iple": 2008,
      "Äłhowever": 2009,
      "ables": 2010,
      "Äłaccount": 2011,
      "light": 2012,
      "Äłsing": 2013,
      "Äłsens": 2014,
      "osis": 2015,
      "ÄłBe": 2016,
      "Äłteam": 2017,
      "iation": 2018,
      "Äłrele": 2019,
      "Äłabove": 2020,
      "wards": 2021,
      "Äłcomplete": 2022,
      "bon": 2023,
      "oll": 2024,
      "Äłworking": 2025,
      "Äłdescrib": 2026,
      "ae": 2027,
      "mber": 2028,
      "Äłstrong": 2029,
      "Äłwhether": 2030,
      "stry": 2031,
      "Äłwhy": 2032,
      "ĠÄłpart": 2033,
      "Äłleast": 2034,
      "overed": 2035,
      "Äłexperience": 2036,
      "Äłkey": 2037,
      "ety": 2038,
      "Äłchanges": 2039,
      "Äłdeath": 2040,
      "ormal": 2041,
      "Äłlive": 2042,
      "Äłens": 2043,
      "Äłrespons": 2044,
      "ĠC": 2045,
      "ĠÄłout": 2046,
      "ications": 2047,
      "Äłnut": 2048,
      "ÄłBl": 2049,
      "ĠÄłapp": 2050,
      "Äłskills": 2051,
      "St": 2052,
      "idered": 2053,
      "ounds": 2054,
      "Äłresults": 2055,
      "fer": 2056,
      "iol": 2057,
      "amin": 2058,
      "Äłleft": 2059,
      "Äłgoing": 2060,
      "Äłgre": 2061,
      "Äłask": 2062,
      "Äłfull": 2063,
      "Äłdam": 2064,
      "ÄłWith": 2065,
      "Äłimprove": 2066,
      "For": 2067,
      "Ġ?": 2068,
      "oman": 2069,
      "aced": 2070,
      "Äłrange": 2071,
      "//": 2072,
      "Äłscience": 2073,
      "ann": 2074,
      "Äłfall": 2075,
      "Äłkind": 2076,
      "Äłpred": 2077,
      "ĠÄłCh": 2078,
      "Äłbegin": 2079,
      "ÄłRe": 2080,
      "ÄłOne": 2081,
      "Äłknowledge": 2082,
      "Äłcountries": 2083,
      "Äłbrain": 2084,
      "leep": 2085,
      "Äłquestion": 2086,
      "tal": 2087,
      "Äłhouse": 2088,
      "Äłloss": 2089,
      "ÄłGen": 2090,
      "Äłside": 2091,
      "Äłpatients": 2092,
      "Äłphysical": 2093,
      "sych": 2094,
      "ream": 2095,
      "Äłhaving": 2096,
      "rams": 2097,
      "ĠÄłme": 2098,
      "urg": 2099,
      "Äłstep": 2100,
      "Äłchall": 2101,
      "ÄłOn": 2102,
      "Äłsymptoms": 2103,
      "ÄłTe": 2104,
      "ÄłAfric": 2105,
      "ÄłWorld": 2106,
      "Äłnever": 2107,
      "Äłsum": 2108,
      "Äłpaper": 2109,
      "Äłdiet": 2110,
      "ÄłSo": 2111,
      "ÄłSome": 2112,
      "ival": 2113,
      "Äłtypes": 2114,
      "...": 2115,
      "Äłpotential": 2116,
      "Äłz": 2117,
      "ison": 2118,
      "Äłresources": 2119,
      "Äłarticle": 2120,
      "ĠÄłwho": 2121,
      "Äłpressure": 2122,
      "Äłresearchers": 2123,
      "When": 2124,
      "ply": 2125,
      "Ãİ": 2126,
      "iding": 2127,
      "ĠÄłbeen": 2128,
      "ĠÄłup": 2129,
      "Äłpub": 2130,
      "roll": 2131,
      "ĠÄłthem": 2132,
      "ample": 2133,
      "Äłrecogn": 2134,
      "Äłmodel": 2135,
      "ĠÄłthan": 2136,
      "Äłsource": 2137,
      "urs": 2138,
      "istance": 2139,
      "ump": 2140,
      "ÄłUS": 2141,
      "Äłestab": 2142,
      "ches": 2143,
      "Äłfield": 2144,
      "Äłprotect": 2145,
      "Äłwr": 2146,
      "Äłbelow": 2147,
      "ivil": 2148,
      "Äłauthor": 2149,
      "ened": 2150,
      "yn": 2151,
      "icial": 2152,
      "Äłreason": 2153,
      "ults": 2154,
      "Äłreduce": 2155,
      "Äłmaterials": 2156,
      "urb": 2157,
      "illed": 2158,
      "Äłseen": 2159,
      "Äłdetail": 2160,
      "ditional": 2161,
      "Äłgroups": 2162,
      "Äłfrequ": 2163,
      "itud": 2164,
      "Äłmind": 2165,
      "Äłeff": 2166,
      "Äłnature": 2167,
      "istory": 2168,
      "ÄłWar": 2169,
      "val": 2170,
      "Äłmarket": 2171,
      "fficient": 2172,
      "yl": 2173,
      "Äłnational": 2174,
      "Äłstat": 2175,
      "Äłstress": 2176,
      "ĠÄłcomm": 2177,
      "Äłcontain": 2178,
      "Äłbecame": 2179,
      "Äłrole": 2180,
      "ask": 2181,
      "Äłproduction": 2182,
      "Äłdiscuss": 2183,
      "Ġ\"": 2184,
      "ÄłGerm": 2185,
      "You": 2186,
      "fact": 2187,
      "rect": 2188,
      "cell": 2189,
      "ird": 2190,
      "ĠÄłthere": 2191,
      "ÄłJohn": 2192,
      "rict": 2193,
      "Äłphot": 2194,
      "ĠÄłop": 2195,
      "reg": 2196,
      "artment": 2197,
      "Äłrate": 2198,
      "epend": 2199,
      "Äłgrowth": 2200,
      "augh": 2201,
      "27": 2202,
      "Äłwind": 2203,
      "ume": 2204,
      "Äłsure": 2205,
      "Äłneg": 2206,
      "Äłskin": 2207,
      "Äłhistor": 2208,
      "Äłproducts": 2209,
      "ÄłEnglish": 2210,
      "nces": 2211,
      "ening": 2212,
      "Äłlot": 2213,
      "oles": 2214,
      "ID": 2215,
      "Äłfish": 2216,
      "ips": 2217,
      "Äłcontrib": 2218,
      "sp": 2219,
      "Äłlarg": 2220,
      "acks": 2221,
      "Äłabs": 2222,
      "Äłopportun": 2223,
      "Ãł": 2224,
      "Äłbig": 2225,
      "Äłline": 2226,
      "ÄłAb": 2227,
      "Äłthemselves": 2228,
      "Äłinflu": 2229,
      "Äłpolic": 2230,
      "sh": 2231,
      "Äłred": 2232,
      "ÄłShe": 2233,
      "Äłword": 2234,
      "Äłindic": 2235,
      "Äłthought": 2236,
      "ES": 2237,
      "mb": 2238,
      "erve": 2239,
      "Äłfurther": 2240,
      "ibr": 2241,
      "ildren": 2242,
      "Äłevent": 2243,
      "ÄłNorth": 2244,
      "ÄłHealth": 2245,
      "Äłactivities": 2246,
      "ai": 2247,
      "ĠÄłqu": 2248,
      "enn": 2249,
      "Äłvalue": 2250,
      "Äłbuilding": 2251,
      "Äłsite": 2252,
      "ulations": 2253,
      "ĠÄłwould": 2254,
      "Äłrather": 2255,
      "Äłconsidered": 2256,
      "An": 2257,
      "alt": 2258,
      "Äłlay": 2259,
      "Äłalready": 2260,
      "Äłclose": 2261,
      "ĠÄłits": 2262,
      "Äłfail": 2263,
      "Äłinit": 2264,
      "Äłeither": 2265,
      "Äłconcer": 2266,
      "Äłissues": 2267,
      "Äłcover": 2268,
      "sequ": 2269,
      "ows": 2270,
      "Äłactivity": 2271,
      "based": 2272,
      "oor": 2273,
      "Äłmass": 2274,
      "Äłonce": 2275,
      "ÄłIm": 2276,
      "Äłmodern": 2277,
      "26": 2278,
      "iam": 2279,
      "Äłdoc": 2280,
      "Äłclimate": 2281,
      "AS": 2282,
      "Äłsize": 2283,
      "Äłrelationship": 2284,
      "put": 2285,
      "reme": 2286,
      "Äłstory": 2287,
      "ĠÄłsome": 2288,
      "ĠÄłstud": 2289,
      "ĠÄłIt": 2290,
      "Äłfamil": 2291,
      "Äłcomplex": 2292,
      "ores": 2293,
      "icles": 2294,
      "ĠÄłag": 2295,
      "Äłquality": 2296,
      "hib": 2297,
      "Äłtaken": 2298,
      "Äłreally": 2299,
      "abit": 2300,
      "ĠÄłwhen": 2301,
      "Äłdeg": 2302,
      "ights": 2303,
      "Äłquestions": 2304,
      "28": 2305,
      "Äłansw": 2306,
      "Äłlower": 2307,
      "Äłgas": 2308,
      "ÄłSouth": 2309,
      "oph": 2310,
      "izing": 2311,
      "ÄłStud": 2312,
      "Äłann": 2313,
      "Äłliving": 2314,
      "Äłaccording": 2315,
      "iddle": 2316,
      "hold": 2317,
      "Äłcut": 2318,
      "eds": 2319,
      "Äłpers": 2320,
      "arget": 2321,
      "chan": 2322,
      "Äłstates": 2323,
      "ÄłCar": 2324,
      "Äłquick": 2325,
      "Äłcollect": 2326,
      "Äłsurface": 2327,
      "rapy": 2328,
      "AR": 2329,
      "Wh": 2330,
      "eak": 2331,
      "roup": 2332,
      "Äłsun": 2333,
      "Äłrecomm": 2334,
      "vention": 2335,
      "Äłpersonal": 2336,
      "Äłparticip": 2337,
      "Äłglobal": 2338,
      "Äłpractice": 2339,
      "Äłanimals": 2340,
      "like": 2341,
      "Äłfri": 2342,
      "ctions": 2343,
      "iment": 2344,
      "ÄłSc": 2345,
      "ĠÄłmay": 2346,
      "Äłability": 2347,
      "ervation": 2348,
      "Äłrepresent": 2349,
      "sc": 2350,
      "ule": 2351,
      "ster": 2352,
      "eter": 2353,
      "Äłwhite": 2354,
      "empt": 2355,
      "Äłweek": 2356,
      "het": 2357,
      "Äłachie": 2358,
      "ises": 2359,
      "Äłmicro": 2360,
      "Äłdrug": 2361,
      "igure": 2362,
      "ÄłCal": 2363,
      "Äłmanagement": 2364,
      "Äładdress": 2365,
      "Äłeffective": 2366,
      "Äłincreased": 2367,
      "Äłrequired": 2368,
      "Äłbegan": 2369,
      "usion": 2370,
      "Äłconcept": 2371,
      "Ġt": 2372,
      "eration": 2373,
      "erous": 2374,
      "Äłlab": 2375,
      "Äłsoil": 2376,
      "Äłwhole": 2377,
      "Äłrelated": 2378,
      "Äłfive": 2379,
      "room": 2380,
      "ÄłComp": 2381,
      "ections": 2382,
      "ÄłGe": 2383,
      "apan": 2384,
      "Äłappear": 2385,
      "ien": 2386,
      "ns": 2387,
      "Äłself": 2388,
      "ÄłDr": 2389,
      "elling": 2390,
      "ensive": 2391,
      "Äłparts": 2392,
      "Äłmembers": 2393,
      "Th": 2394,
      "yle": 2395,
      "Â°": 2396,
      "Äłdone": 2397,
      "Äłitself": 2398,
      "ĠÄłcom": 2399,
      "aged": 2400,
      "ÄłIntern": 2401,
      "Äłcoll": 2402,
      "Äłpriv": 2403,
      "Äłemploy": 2404,
      "ÄłAmerica": 2405,
      "omin": 2406,
      "ĠÄłdiff": 2407,
      "Äłgeneral": 2408,
      "Äłservices": 2409,
      "itary": 2410,
      "Äłlo": 2411,
      "ÄłAss": 2412,
      "ada": 2413,
      "aging": 2414,
      "Äłrecent": 2415,
      "Äłtemperature": 2416,
      "Äłfat": 2417,
      "Äłhum": 2418,
      "Äłprob": 2419,
      "ÄłBy": 2420,
      "To": 2421,
      "bo": 2422,
      "ÄłThat": 2423,
      "ops": 2424,
      "Äłmeet": 2425,
      "Äłassociated": 2426,
      "oes": 2427,
      "Äłcannot": 2428,
      "ĠÄłtime": 2429,
      "Äłupon": 2430,
      "Äłground": 2431,
      "ney": 2432,
      "Äłassess": 2433,
      "iction": 2434,
      "stitute": 2435,
      "Äłpolitical": 2436,
      "aut": 2437,
      "my": 2438,
      "ober": 2439,
      "uel": 2440,
      "ĠÄłth": 2441,
      "estern": 2442,
      "ÄłAct": 2443,
      "Äłexerc": 2444,
      "ĠÄłcons": 2445,
      "Äłweight": 2446,
      "astic": 2447,
      "Äłcontent": 2448,
      "Äłstudies": 2449,
      "Äłneeded": 2450,
      "fully": 2451,
      "hing": 2452,
      "ĠÄłac": 2453,
      "Äłfru": 2454,
      "alled": 2455,
      "Äłthroughout": 2456,
      "Äłfarm": 2457,
      "ĠÄłwork": 2458,
      "196": 2459,
      "Äłflu": 2460,
      "Äłsimple": 2461,
      "pid": 2462,
      "inter": 2463,
      "Äłoil": 2464,
      "arr": 2465,
      "ÄłMan": 2466,
      "off": 2467,
      "ges": 2468,
      "Â¤": 2469,
      "Ġ3": 2470,
      "Äłut": 2471,
      "onse": 2472,
      "Äłpay": 2473,
      "Äłcondition": 2474,
      "Äłfactors": 2475,
      "Äłunderstanding": 2476,
      "Äłengine": 2477,
      "cies": 2478,
      "ĠÄłte": 2479,
      "Äłhealthy": 2480,
      "Äłmedical": 2481,
      "ĠÄłabout": 2482,
      "29": 2483,
      "Äłtaking": 2484,
      "inary": 2485,
      "Äłport": 2486,
      "Äłcomes": 2487,
      "Äłprovides": 2488,
      "ony": 2489,
      "Äłcame": 2490,
      "Äłwon": 2491,
      "Äłrepl": 2492,
      "ÄłLe": 2493,
      "ĠÄłrel": 2494,
      "Ġ),": 2495,
      "Äłsix": 2496,
      "Äłmat": 2497,
      "Ġ.,": 2498,
      "istics": 2499,
      "ĠÄłso": 2500,
      "ĠÄłbet": 2501,
      "ccording": 2502,
      "ropri": 2503,
      "Äłcreated": 2504,
      "Äłpopular": 2505,
      "minist": 2506,
      "Äłnecessary": 2507,
      "anced": 2508,
      "Äłclean": 2509,
      "irm": 2510,
      "Äłintrodu": 2511,
      "Äłarg": 2512,
      "Äłmeasure": 2513,
      "Äłever": 2514,
      "Äłevidence": 2515,
      "erved": 2516,
      "rown": 2517,
      "imately": 2518,
      "Äłservice": 2519,
      "Äłcheck": 2520,
      "Äłeconomic": 2521,
      "ma": 2522,
      "Äłvers": 2523,
      "ĠÄłover": 2524,
      "Äłaverage": 2525,
      "Äłprop": 2526,
      "Äłsuff": 2527,
      "ÄłRep": 2528,
      "Äłfund": 2529,
      "ronic": 2530,
      "atives": 2531,
      "Äłsuper": 2532,
      "Äłprevious": 2533,
      "Äłactually": 2534,
      "ched": 2535,
      "ger": 2536,
      "hood": 2537,
      "Äłmach": 2538,
      "ÄłEarth": 2539,
      "Äłstudent": 2540,
      "Äłregion": 2541,
      "oly": 2542,
      "Äłtalk": 2543,
      "Äłhold": 2544,
      "Äłgreen": 2545,
      "Äłheav": 2546,
      "ĠÄłinto": 2547,
      "ÄłJew": 2548,
      "Äłdoct": 2549,
      "Äłbuilt": 2550,
      "70": 2551,
      "AT": 2552,
      "Al": 2553,
      "arily": 2554,
      "uted": 2555,
      "ÄłAm": 2556,
      "Äłprote": 2557,
      "umb": 2558,
      "udd": 2559,
      "Äłdeb": 2560,
      "ÄłDep": 2561,
      "Äłarch": 2562,
      "Äłtravel": 2563,
      "Äłfeed": 2564,
      "Äłsent": 2565,
      "Äłcat": 2566,
      "Äłdog": 2567,
      "ĠÄłthese": 2568,
      "ership": 2569,
      "rought": 2570,
      ".)": 2571,
      "ister": 2572,
      "Äłwide": 2573,
      "ÄłHis": 2574,
      "aily": 2575,
      "Äłbreak": 2576,
      "Äłcomputer": 2577,
      "Äłsingle": 2578,
      "Ch": 2579,
      "ged": 2580,
      "Äłchemical": 2581,
      "Äłdest": 2582,
      "raft": 2583,
      "ÄłMay": 2584,
      "ĠÄłgen": 2585,
      "new": 2586,
      "Äłhalf": 2587,
      "ÄłAust": 2588,
      "194": 2589,
      "ĠÄłThis": 2590,
      "Äłindividuals": 2591,
      "ĠÄłUn": 2592,
      "ĠM": 2593,
      "Äłver": 2594,
      "ese": 2595,
      "lege": 2596,
      "ÄłYork": 2597,
      "amed": 2598,
      "rench": 2599,
      "Äłsubst": 2600,
      "Äłindustry": 2601,
      "://": 2602,
      "lor": 2603,
      "Äłtw": 2604,
      "emic": 2605,
      "Äłsepar": 2606,
      "Äłblack": 2607,
      "aun": 2608,
      "aries": 2609,
      "Äłinj": 2610,
      "vey": 2611,
      "ules": 2612,
      "nown": 2613,
      "ÄłState": 2614,
      "Äłtraining": 2615,
      "uck": 2616,
      "Äłsociety": 2617,
      "Äłpublished": 2618,
      "aling": 2619,
      "Äłmonths": 2620,
      "Äłreading": 2621,
      "Äłreturn": 2622,
      "rew": 2623,
      "ancial": 2624,
      "Äłbar": 2625,
      "vere": 2626,
      "ricult": 2627,
      "Äłcop": 2628,
      "ederal": 2629,
      "Äłtook": 2630,
      "Äłrev": 2631,
      "Äłconduct": 2632,
      "duc": 2633,
      "Äłrights": 2634,
      "Äłmusic": 2635,
      "Äłanalysis": 2636,
      "uge": 2637,
      "Äłreact": 2638,
      "Äłalmost": 2639,
      "Äłarr": 2640,
      "Äłproduce": 2641,
      "Äłregular": 2642,
      "Äłinteract": 2643,
      "Äłpoll": 2644,
      "ĠÄłunder": 2645,
      "Äłparents": 2646,
      "wh": 2647,
      "itation": 2648,
      "Äłonline": 2649,
      "reng": 2650,
      "2012": 2651,
      "lands": 2652,
      "Äłcaused": 2653,
      "rig": 2654,
      "att": 2655,
      "Äłce": 2656,
      "iter": 2657,
      "ĠÄłpre": 2658,
      "Äłvariety": 2659,
      "Äłentire": 2660,
      "ÄłBritish": 2661,
      "But": 2662,
      "Ġ1": 2663,
      "lex": 2664,
      "ÄłSchool": 2665,
      "90": 2666,
      "ĠÄłuse": 2667,
      "Äłcamp": 2668,
      "ÄłSoc": 2669,
      "Äłyet": 2670,
      "atively": 2671,
      "Äłrelig": 2672,
      "Äłdiagn": 2673,
      "ÄłWhile": 2674,
      "Äłpositive": 2675,
      "Äłchalleng": 2676,
      "ÄłX": 2677,
      "Äłsense": 2678,
      "Äłsleep": 2679,
      "anies": 2680,
      "Äłforms": 2681,
      "ief": 2682,
      "ĠÄłonly": 2683,
      "2011": 2684,
      "Äłsimply": 2685,
      "ĠP": 2686,
      "Äłsoft": 2687,
      "Äłfire": 2688,
      "ÄłGu": 2689,
      "Äłschools": 2690,
      "Äłavoid": 2691,
      "Äłscientists": 2692,
      "isions": 2693,
      "orks": 2694,
      "Äłpath": 2695,
      "icine": 2696,
      "ÄłMar": 2697,
      "rior": 2698,
      "Äłidea": 2699,
      "gar": 2700,
      "ĠÄłsu": 2701,
      "80": 2702,
      "ufact": 2703,
      "Äłbacter": 2704,
      "Äłjob": 2705,
      "aul": 2706,
      "rast": 2707,
      "arv": 2708,
      "ÄłScience": 2709,
      "Äłstop": 2710,
      "Äłearth": 2711,
      "Äłshows": 2712,
      "Äłwriting": 2713,
      "ttp": 2714,
      "Äłsafety": 2715,
      "Äłensure": 2716,
      "35": 2717,
      "ze": 2718,
      "oud": 2719,
      "Äłmoney": 2720,
      "ÄłAfter": 2721,
      "Äłuses": 2722,
      "ĠÄłhow": 2723,
      "ashing": 2724,
      "Äłsafe": 2725,
      "aff": 2726,
      "Äłpict": 2727,
      "idge": 2728,
      "cean": 2729,
      "Äłge": 2730,
      "ÄłCO": 2731,
      "Äłvide": 2732,
      "Äłcompany": 2733,
      "ography": 2734,
      "Äłapproach": 2735,
      "Äłstructure": 2736,
      "ming": 2737,
      "uary": 2738,
      "ĠÄłany": 2739,
      "irit": 2740,
      "ĠÄłint": 2741,
      "Äłdesigned": 2742,
      "Äłmethods": 2743,
      "Äłbenefits": 2744,
      "dom": 2745,
      "ĠÄłif": 2746,
      "anks": 2747,
      "Äłmor": 2748,
      "lease": 2749,
      "ĠÄłpeople": 2750,
      "Äłcolor": 2751,
      "Äłremain": 2752,
      "Äłpattern": 2753,
      "Äłenvironmental": 2754,
      "ÄłResearch": 2755,
      "Ä£": 2756,
      "itor": 2757,
      "order": 2758,
      "Äłtotal": 2759,
      "asc": 2760,
      "Äłthreat": 2761,
      "Äłlif": 2762,
      "ĠÄłmost": 2763,
      "Äłcompet": 2764,
      "ĠÄłno": 2765,
      "Äłstandard": 2766,
      "Äłtell": 2767,
      "Äłtarget": 2768,
      "Äłwild": 2769,
      "ÄłAg": 2770,
      "Äłste": 2771,
      "ÄłCont": 2772,
      "Äłspread": 2773,
      "Äłgenerally": 2774,
      "Äłcauses": 2775,
      "Äłeasy": 2776,
      "where": 2777,
      "atur": 2778,
      "Äłmatter": 2779,
      "Äłimage": 2780,
      "ĠÄłrec": 2781,
      "Äłliter": 2782,
      "ana": 2783,
      "Äłhours": 2784,
      "Äłlove": 2785,
      "ÄłPr": 2786,
      "ĠÄłdes": 2787,
      "Äłdoing": 2788,
      "Äłclaim": 2789,
      "Äłincludes": 2790,
      "Äłterms": 2791,
      "Äłprimary": 2792,
      "ties": 2793,
      "ĠÄłem": 2794,
      "Äłlink": 2795,
      "Äłconc": 2796,
      "ached": 2797,
      "ressed": 2798,
      "ension": 2799,
      "Äłaccept": 2800,
      "33": 2801,
      "uly": 2802,
      "Äłfront": 2803,
      "Äłled": 2804,
      "abet": 2805,
      "Äłseem": 2806,
      "Äłfeet": 2807,
      "Äłregard": 2808,
      "ÄłQu": 2809,
      "):": 2810,
      "rition": 2811,
      "vant": 2812,
      "ĠÄłob": 2813,
      "Äłbur": 2814,
      "Äłexc": 2815,
      "ĠÄłman": 2816,
      "issions": 2817,
      "Äłlonger": 2818,
      "Äłfoods": 2819,
      "Äłfocus": 2820,
      "IN": 2821,
      "ror": 2822,
      "erg": 2823,
      "Äłface": 2824,
      "Äłemer": 2825,
      "Äłcompl": 2826,
      "Äłimplement": 2827,
      "velopment": 2828,
      "Äładded": 2829,
      "Äłincreasing": 2830,
      "Äłetc": 2831,
      "go": 2832,
      "iable": 2833,
      "Äłpage": 2834,
      "Äłfem": 2835,
      "icated": 2836,
      "resident": 2837,
      "alls": 2838,
      "Äłwebs": 2839,
      "ype": 2840,
      "Äłrefer": 2841,
      "ÄłCenter": 2842,
      "Äłbehavior": 2843,
      "rate": 2844,
      "ĠÄłass": 2845,
      "hest": 2846,
      "Äłreview": 2847,
      "Äłlate": 2848,
      "elt": 2849,
      "ĠÄłreg": 2850,
      "ords": 2851,
      "Äłprograms": 2852,
      "Äłmeaning": 2853,
      "lies": 2854,
      "olar": 2855,
      "ÄłCo": 2856,
      "ÄłKing": 2857,
      "Äłdistrib": 2858,
      "Äłslow": 2859,
      "Äłbal": 2860,
      "ÄłApp": 2861,
      "ÄłSec": 2862,
      "ÄłMin": 2863,
      "Äłheat": 2864,
      "useum": 2865,
      "oved": 2866,
      "Äłattention": 2867,
      "Äłallows": 2868,
      "Äłtrue": 2869,
      "son": 2870,
      "ÄłII": 2871,
      "Äłsex": 2872,
      "ellow": 2873,
      "pril": 2874,
      "Äłgreater": 2875,
      "lation": 2876,
      "onstr": 2877,
      "Äłlives": 2878,
      "umber": 2879,
      "ĠÄłsuch": 2880,
      "Äłshare": 2881,
      "ÄłJapan": 2882,
      "Äłhelps": 2883,
      "Äłissue": 2884,
      "Äłir": 2885,
      "hel": 2886,
      "Äłpan": 2887,
      "Äłbring": 2888,
      "Äłnight": 2889,
      "2010": 2890,
      "ĠÄłlike": 2891,
      "haps": 2892,
      "ying": 2893,
      "Äłaction": 2894,
      "Äłdraw": 2895,
      "oses": 2896,
      "Äłdeep": 2897,
      "ĠÄłtwo": 2898,
      "Äłcarbon": 2899,
      "Äłresponse": 2900,
      "Äłelectric": 2901,
      "ÄłEurope": 2902,
      "Äłencou": 2903,
      "Äłnetwork": 2904,
      "ropriate": 2905,
      "ground": 2906,
      "joy": 2907,
      "pose": 2908,
      "ĠÄłused": 2909,
      "Äłthing": 2910,
      "Äłnation": 2911,
      "aches": 2912,
      "2009": 2913,
      "Äłgrowing": 2914,
      "ength": 2915,
      "Äłsomet": 2916,
      "45": 2917,
      "lied": 2918,
      "right": 2919,
      "aly": 2920,
      "osition": 2921,
      "ĠÄłfirst": 2922,
      "izations": 2923,
      "Äłmechan": 2924,
      "Äłmaintain": 2925,
      "Äłidentify": 2926,
      "Äłinvolved": 2927,
      "Äłparticularly": 2928,
      "Äłessential": 2929,
      "cil": 2930,
      "na": 2931,
      "overy": 2932,
      "ÃĻ": 2933,
      "ĠÃ¢Ä¢Ä¿": 2934,
      "Äłtiss": 2935,
      "erent": 2936,
      "2013": 2937,
      "ÄłIndia": 2938,
      "One": 2939,
      "gram": 2940,
      "part": 2941,
      "ĠB": 2942,
      "Äłtakes": 2943,
      "iles": 2944,
      "ÄłPer": 2945,
      "ĠÄłact": 2946,
      "ha": 2947,
      "asons": 2948,
      "ÄłEm": 2949,
      "ields": 2950,
      "ĠÄłinclud": 2951,
      "itude": 2952,
      "\".": 2953,
      "EN": 2954,
      "Äłsqu": 2955,
      "Äłeat": 2956,
      "ÄłBo": 2957,
      "Äłvit": 2958,
      "ĠÄłind": 2959,
      "Äłunc": 2960,
      "Äłdispl": 2961,
      "Äłtraditional": 2962,
      "Äłproduced": 2963,
      "Äłnumbers": 2964,
      "Äłseries": 2965,
      "Äłposition": 2966,
      "ON": 2967,
      "ÃĦ": 2968,
      "attle": 2969,
      "Äłnormal": 2970,
      "Äłvacc": 2971,
      "ĠÄłneed": 2972,
      "Äłemot": 2973,
      "Äłpoor": 2974,
      "ĠÄłatt": 2975,
      "Äłorigin": 2976,
      "Äłteachers": 2977,
      "fect": 2978,
      "rs": 2979,
      "Â¼": 2980,
      "ĠÄłam": 2981,
      "uries": 2982,
      "iforn": 2983,
      "term": 2984,
      "ĠÄłbl": 2985,
      "Äłwaste": 2986,
      "outhern": 2987,
      "lin": 2988,
      "mon": 2989,
      "itch": 2990,
      "ÄłCount": 2991,
      "ĠÄłsystem": 2992,
      "Äłshown": 2993,
      "2008": 2994,
      "Äłprovided": 2995,
      "Äłquickly": 2996,
      "iency": 2997,
      "ancy": 2998,
      "itiz": 2999,
      "imum": 3000,
      "osing": 3001,
      "rie": 3002,
      "ustom": 3003,
      "Äłoutside": 3004,
      "Äłemb": 3005,
      "Äłcorrect": 3006,
      "Äłcontinue": 3007,
      "Äłculture": 3008,
      "Äłsometimes": 3009,
      "AN": 3010,
      "ÄłÃĤ": 3011,
      "ouble": 3012,
      "ĠÄłwhat": 3013,
      "Äłsust": 3014,
      "ÄłNo": 3015,
      "Äłperformance": 3016,
      "Äłmovement": 3017,
      "ls": 3018,
      "Äłsources": 3019,
      "rote": 3020,
      "Äłlack": 3021,
      "ades": 3022,
      "ÄłPre": 3023,
      "ĠÄłprov": 3024,
      "Äłscientific": 3025,
      "ÃĻÄ": 3026,
      "Äłpack": 3027,
      "Äłbab": 3028,
      "ĠÄłdis": 3029,
      "ĠÄłnew": 3030,
      "Äłoffer": 3031,
      "Äłreported": 3032,
      "Äłbroad": 3033,
      "cript": 3034,
      "Äłox": 3035,
      "isms": 3036,
      "Äłdang": 3037,
      "Äłkids": 3038,
      "Äłcompon": 3039,
      "Äłcapt": 3040,
      "Äłdoesn": 3041,
      "Äłdamage": 3042,
      "Äłdocument": 3043,
      "IC": 3044,
      "uous": 3045,
      "Äłpsych": 3046,
      "Äłmess": 3047,
      "Äłnews": 3048,
      "Äłtransport": 3049,
      "Äłrespect": 3050,
      "IS": 3051,
      "Äłtax": 3052,
      "oub": 3053,
      "ari": 3054,
      "Äłviol": 3055,
      "Äłacid": 3056,
      "Äłsecurity": 3057,
      "Äłthinking": 3058,
      "Äłoriginal": 3059,
      "lier": 3060,
      "Äłtheory": 3061,
      "ros": 3062,
      "Äłhor": 3063,
      "Äłlog": 3064,
      "ĠÄłspec": 3065,
      "ÄłFrench": 3066,
      "2000": 3067,
      "Äłstarted": 3068,
      "Äłvisit": 3069,
      "Äłfinancial": 3070,
      "uk": 3071,
      "orpor": 3072,
      "Äłbad": 3073,
      "Äłhy": 3074,
      "imin": 3075,
      "Äłcontact": 3076,
      "Äłprint": 3077,
      "Äłdifference": 3078,
      "Äłinternational": 3079,
      "36": 3080,
      "edia": 3081,
      "Äłtools": 3082,
      "imal": 3083,
      "Äłstreng": 3084,
      "ÄłCons": 3085,
      "ÄłPar": 3086,
      "Äłinteg": 3087,
      "ologies": 3088,
      "Äłcommit": 3089,
      "Äłsurv": 3090,
      "Äłreflect": 3091,
      "Äłdiseases": 3092,
      "Äłbasic": 3093,
      "rated": 3094,
      "ĠÃ¢Ä¢Äµ": 3095,
      "Äławare": 3096,
      "Äłtowards": 3097,
      "Äłdaily": 3098,
      "ille": 3099,
      "Äłproced": 3100,
      "Äłprep": 3101,
      "iverse": 3102,
      "Äłdeveloping": 3103,
      "Äłgetting": 3104,
      "nov": 3105,
      "Ġ4": 3106,
      "reed": 3107,
      "itis": 3108,
      "Äłthus": 3109,
      "Äłharm": 3110,
      "ĠÄłdec": 3111,
      "Äłsea": 3112,
      "avor": 3113,
      "Äłblock": 3114,
      "Äłanimal": 3115,
      "www": 3116,
      "ashington": 3117,
      "ifornia": 3118,
      "IV": 3119,
      "iar": 3120,
      "Ġc": 3121,
      "ĠÄłour": 3122,
      "anuary": 3123,
      "Äłcr": 3124,
      "Äłforce": 3125,
      "ift": 3126,
      "Äłselect": 3127,
      "Äłcompanies": 3128,
      "Äłevents": 3129,
      "Äłmonth": 3130,
      "undred": 3131,
      "strial": 3132,
      "38": 3133,
      "OR": 3134,
      "rance": 3135,
      "Äłaim": 3136,
      "rees": 3137,
      "Äłsil": 3138,
      "ÄłMany": 3139,
      "estic": 3140,
      "ÄłGl": 3141,
      "2007": 3142,
      "Äłinside": 3143,
      "stitution": 3144,
      "Äłsituation": 3145,
      "Äłveh": 3146,
      "Äłforest": 3147,
      "gn": 3148,
      "uff": 3149,
      "Ġ0": 3150,
      "Ġ2": 3151,
      "ĠÄłus": 3152,
      "inks": 3153,
      "arb": 3154,
      "Äłmagn": 3155,
      "Äłreve": 3156,
      "ÄłInstitute": 3157,
      "iber": 3158,
      "Äłcompared": 3159,
      "Äłprec": 3160,
      "Äłroad": 3161,
      "Äłlooking": 3162,
      "ey": 3163,
      "ham": 3164,
      "uild": 3165,
      "Äłdiv": 3166,
      "ĠÄłsub": 3167,
      "ÄłWill": 3168,
      "Äłsomeone": 3169,
      "ĠÄłY": 3170,
      "Äłwood": 3171,
      "ula": 3172,
      "ĠÄłwhere": 3173,
      "Äłmanufact": 3174,
      "Äłinstead": 3175,
      "Äłbelieve": 3176,
      "Äłanswer": 3177,
      "Äłexercise": 3178,
      "rogen": 3179,
      "Äłlabor": 3180,
      "osure": 3181,
      "ĠÄłph": 3182,
      "Äłleading": 3183,
      "Äłdefin": 3184,
      "iques": 3185,
      "Äłwritten": 3186,
      "Äłveget": 3187,
      "Äłimmedi": 3188,
      "ÄłEuropean": 3189,
      "Äłtrees": 3190,
      "iers": 3191,
      "Äłthous": 3192,
      "rage": 3193,
      "unity": 3194,
      "istor": 3195,
      "ÄłMost": 3196,
      "ĠÄłoff": 3197,
      "ÄłEd": 3198,
      "Äłquite": 3199,
      "Äłtherefore": 3200,
      "Äłdecl": 3201,
      "Äłmultiple": 3202,
      "Äłcritical": 3203,
      "Äłfamilies": 3204,
      "ÄłAustral": 3205,
      "31": 3206,
      "75": 3207,
      "So": 3208,
      "aith": 3209,
      "come": 3210,
      "ĠÄłro": 3211,
      "head": 3212,
      "Äłfoot": 3213,
      "olit": 3214,
      "ÄłHistory": 3215,
      "ÄłReg": 3216,
      "Äłclin": 3217,
      "ÄłChina": 3218,
      "Äłconsist": 3219,
      "Äłaccur": 3220,
      "fess": 3221,
      "mar": 3222,
      "ĠD": 3223,
      "Äłtree": 3224,
      "ino": 3225,
      "Äłsn": 3226,
      "Äłhabit": 3227,
      "ulate": 3228,
      "iece": 3229,
      "Äłeval": 3230,
      "ÄłYour": 3231,
      "Äłincluded": 3232,
      "Äłpatient": 3233,
      "Äłserious": 3234,
      "Äłideas": 3235,
      "Äłdetermine": 3236,
      "fort": 3237,
      "Äłaff": 3238,
      "Äłsat": 3239,
      "icip": 3240,
      "ilos": 3241,
      "resh": 3242,
      "apter": 3243,
      "ÄłOf": 3244,
      "Äłanything": 3245,
      "Äłanaly": 3246,
      "Äłsummer": 3247,
      "abetes": 3248,
      "Un": 3249,
      "cles": 3250,
      "ĠR": 3251,
      "Äłtown": 3252,
      "Äłdark": 3253,
      "ceed": 3254,
      "cember": 3255,
      "rael": 3256,
      "ulated": 3257,
      "ÄłSm": 3258,
      "ĠÄłsupp": 3259,
      "ÄłEl": 3260,
      "izes": 3261,
      "hens": 3262,
      "ÄłUs": 3263,
      "reek": 3264,
      "Äłbehind": 3265,
      "Äłsustain": 3266,
      "Ġd": 3267,
      "esus": 3268,
      "ÄłEduc": 3269,
      "ĠÄłtra": 3270,
      "Äłattempt": 3271,
      "Äłsolar": 3272,
      "Äłsymb": 3273,
      "Äłi": 3274,
      "Äłcivil": 3275,
      "illing": 3276,
      "ÄłMore": 3277,
      "ĠÄłform": 3278,
      "ruary": 3279,
      "Äłago": 3280,
      "Äłfeatures": 3281,
      "Äłindepend": 3282,
      "Äłmedia": 3283,
      "Äłcommunities": 3284,
      "ÄłAlthough": 3285,
      "Äłdirectly": 3286,
      "ebruary": 3287,
      "Äłprivate": 3288,
      "On": 3289,
      "pite": 3290,
      "ĠÄłsc": 3291,
      "ÄłWest": 3292,
      "ĠÄłmany": 3293,
      "ptember": 3294,
      "195": 3295,
      "ĠÄłtrans": 3296,
      "orders": 3297,
      "ĠÄłHe": 3298,
      "Äłprogress": 3299,
      "Äłbooks": 3300,
      "Äłestim": 3301,
      "Äłcreating": 3302,
      "Äłbacteria": 3303,
      "AL": 3304,
      "He": 3305,
      "iot": 3306,
      "life": 3307,
      "uit": 3308,
      "Äłgovern": 3309,
      "unction": 3310,
      "Äłhighly": 3311,
      "Äłextreme": 3312,
      "ugust": 3313,
      "back": 3314,
      "ging": 3315,
      "lim": 3316,
      "Ġ5": 3317,
      "ÄłÃ": 3318,
      "Äłcou": 3319,
      "Äłconcent": 3320,
      "ĠÄłwell": 3321,
      "rip": 3322,
      "Äłspeak": 3323,
      "Äłcontains": 3324,
      "cious": 3325,
      "bit": 3326,
      "just": 3327,
      "water": 3328,
      "wise": 3329,
      "Äłsal": 3330,
      "Äłtool": 3331,
      "Äłgame": 3332,
      "ulf": 3333,
      "orthern": 3334,
      "ought": 3335,
      "Äłdecre": 3336,
      "Äłcenter": 3337,
      "Äłvalues": 3338,
      "Äłpoints": 3339,
      "Äłcapac": 3340,
      "ÄłCanada": 3341,
      "Äłwebsite": 3342,
      "Äłsus": 3343,
      "Äłlands": 3344,
      "ÄłAc": 3345,
      "Äłstay": 3346,
      "oday": 3347,
      "ÄłDo": 3348,
      "ÄłDes": 3349,
      "ÄłRiver": 3350,
      "ÄłGo": 3351,
      "Äłuseful": 3352,
      "exic": 3353,
      "Äłeye": 3354,
      "Äłprobably": 3355,
      "And": 3356,
      "ED": 3357,
      "PA": 3358,
      "ding": 3359,
      "Äłten": 3360,
      "ĠÄłar": 3361,
      "ĠÄłacc": 3362,
      "ica": 3363,
      "entially": 3364,
      "oming": 3365,
      "verse": 3366,
      "ifically": 3367,
      "key": 3368,
      "Äłrapid": 3369,
      "chnology": 3370,
      "ÄłArt": 3371,
      "Äłnegative": 3372,
      "IT": 3373,
      "With": 3374,
      "inct": 3375,
      "Äłwarm": 3376,
      "eck": 3377,
      "ĠÄłsur": 3378,
      "Äłsoon": 3379,
      "Äłminutes": 3380,
      "Äłstrateg": 3381,
      "Äłanti": 3382,
      "eks": 3383,
      "Äłtend": 3384,
      "anish": 3385,
      "itect": 3386,
      "Äłbase": 3387,
      "Äłmental": 3388,
      "Äłgard": 3389,
      "ama": 3390,
      "Äłrout": 3391,
      "Äłshall": 3392,
      "Äłteaching": 3393,
      "ciples": 3394,
      "Äłquant": 3395,
      "Äłcold": 3396,
      "Äłactive": 3397,
      "2014": 3398,
      "Äłinterp": 3399,
      "airs": 3400,
      "Äłsmaller": 3401,
      "Äłprojects": 3402,
      "Äłdemonstr": 3403,
      "Äłfriends": 3404,
      "ĠÄłbetween": 3405,
      "ÄłDepartment": 3406,
      "ius": 3407,
      "mission": 3408,
      "idents": 3409,
      "Äłalthough": 3410,
      "Äłexact": 3411,
      "ĠÄłmod": 3412,
      "2015": 3413,
      "Äłbasis": 3414,
      "Äłcultural": 3415,
      "Äładditional": 3416,
      "ÄłCalifornia": 3417,
      "Äłcru": 3418,
      "omb": 3419,
      "raction": 3420,
      "ocr": 3421,
      "ĠÄłbecause": 3422,
      "ÄłRec": 3423,
      "Äłseason": 3424,
      "rugg": 3425,
      "Äłjo": 3426,
      "Äłcolon": 3427,
      "yond": 3428,
      "Äłsearch": 3429,
      "ingu": 3430,
      "Äłthird": 3431,
      "Äłgot": 3432,
      "urrent": 3433,
      "ounter": 3434,
      "occ": 3435,
      "Äłcarry": 3436,
      "Äłtypically": 3437,
      "ĠÄłNew": 3438,
      "Äłolder": 3439,
      "Äłcosts": 3440,
      "Äłestablish": 3441,
      "Ex": 3442,
      "Äłtherapy": 3443,
      "Äłmiddle": 3444,
      "Äłdom": 3445,
      "Äłhyd": 3446,
      "Äłones": 3447,
      "Äłaltern": 3448,
      "ÄłPart": 3449,
      "ĠÄłpr": 3450,
      "ocks": 3451,
      "ĠÄłbec": 3452,
      "Äłspeed": 3453,
      "Äłplaces": 3454,
      "Äłimages": 3455,
      "Äłexpected": 3456,
      "Äłsupply": 3457,
      "Äłcapital": 3458,
      "Äłult": 3459,
      "Äłcross": 3460,
      "Äłfight": 3461,
      "ÄłApril": 3462,
      "ogen": 3463,
      "Äłseems": 3464,
      "Äłweb": 3465,
      "ipment": 3466,
      "ensity": 3467,
      "ÄłChar": 3468,
      "Äłdecision": 3469,
      "inese": 3470,
      "Äłinstit": 3471,
      "Äłprotection": 3472,
      "Äłelse": 3473,
      "Äłinvestig": 3474,
      "Äłdescribed": 3475,
      "ded": 3476,
      "year": 3477,
      "Äłcard": 3478,
      "Äłcrop": 3479,
      "Äłwent": 3480,
      "Äłpen": 3481,
      "Äłbreat": 3482,
      "Äłhost": 3483,
      "Ã¢Ä¢Äº": 3484,
      "ÄłFran": 3485,
      "Äłleaves": 3486,
      "ÄłNot": 3487,
      "Äłenjoy": 3488,
      "aste": 3489,
      "ellig": 3490,
      "ondon": 3491,
      "Äłcentral": 3492,
      "Äłrequires": 3493,
      "Äładvant": 3494,
      "Äłeasily": 3495,
      "Äłelements": 3496,
      "Äłbirth": 3497,
      "Äłbeginning": 3498,
      "Äłvideo": 3499,
      "cks": 3500,
      "lamm": 3501,
      "Ġm": 3502,
      "Äłsold": 3503,
      "ara": 3504,
      "arian": 3505,
      "Äłmom": 3506,
      "Äłmount": 3507,
      "Äłdry": 3508,
      "sect": 3509,
      "amb": 3510,
      "resp": 3511,
      "ĠÄłcould": 3512,
      "ĠÄłafter": 3513,
      "Äłrise": 3514,
      "Äłunique": 3515,
      "Äłworkers": 3516,
      "ĠÄłknow": 3517,
      "Äłcalcul": 3518,
      "Äłapplication": 3519,
      "Äłpolicy": 3520,
      "Äłhumans": 3521,
      "coh": 3522,
      "Â±": 3523,
      "ĠIn": 3524,
      "Äłwalk": 3525,
      "Äłhot": 3526,
      "ctober": 3527,
      "ÄłMarch": 3528,
      "que": 3529,
      "Äłsugar": 3530,
      "ÄłHere": 3531,
      "ĠÄłinf": 3532,
      "ÄłEc": 3533,
      "ĠÄłyears": 3534,
      "Äłattack": 3535,
      "Äłremains": 3536,
      "ÄłAfrica": 3537,
      "95": 3538,
      "oice": 3539,
      "set": 3540,
      "ero": 3541,
      "aled": 3542,
      "Äłancient": 3543,
      "Äłmother": 3544,
      "Äłmention": 3545,
      "Äłnorth": 3546,
      "Äłaspect": 3547,
      "odies": 3548,
      "Äłexcept": 3549,
      "Äłimpl": 3550,
      "ibly": 3551,
      "Äłsolution": 3552,
      "ĠÄłshould": 3553,
      "Äłsuccessful": 3554,
      "Äłwrite": 3555,
      "ÄłAssoci": 3556,
      "'re": 3557,
      "aur": 3558,
      "can": 3559,
      "king": 3560,
      "Äłprior": 3561,
      "omas": 3562,
      "sec": 3563,
      "istry": 3564,
      "ouncil": 3565,
      "Äłsevere": 3566,
      "ÄłOther": 3567,
      "2017": 3568,
      "Äłmodels": 3569,
      "Äłnearly": 3570,
      "Äłobjects": 3571,
      "Äłreceived": 3572,
      "Äłapplications": 3573,
      "Äłopportunity": 3574,
      "34": 3575,
      "load": 3576,
      "men": 3577,
      "time": 3578,
      "Äłang": 3579,
      "Äłbul": 3580,
      "Äłreach": 3581,
      "Äłstage": 3582,
      "ests": 3583,
      "ĠÄłinter": 3584,
      "ooking": 3585,
      "Äłgoal": 3586,
      "Äłsett": 3587,
      "ÄłIndian": 3588,
      "Äłcurrently": 3589,
      "Äłvirus": 3590,
      "Äłachieve": 3591,
      "37": 3592,
      "By": 3593,
      "Some": 3594,
      "con": 3595,
      "Â¸": 3596,
      "ĠÄłent": 3597,
      "ĠÄłear": 3598,
      "ĠÄłvery": 3599,
      "Äłsound": 3600,
      "Äłbott": 3601,
      "icate": 3602,
      "Äłlines": 3603,
      "Äłlength": 3604,
      "rab": 3605,
      "Äłrates": 3606,
      "ourt": 3607,
      "ÄłJuly": 3608,
      "2004": 3609,
      "inking": 3610,
      "Äłinfection": 3611,
      "Äłvari": 3612,
      "ixed": 3613,
      "Äłaffected": 3614,
      "While": 3615,
      "oke": 3616,
      "tained": 3617,
      "encies": 3618,
      "see": 3619,
      "ĠÄłthen": 3620,
      "Äłheld": 3621,
      "ÄłNe": 3622,
      "ĠÄłhim": 3623,
      "ĠÄłrem": 3624,
      "Äłpregn": 3625,
      "Äłbecomes": 3626,
      "Äłprocesses": 3627,
      "Äłlaws": 3628,
      "cription": 3629,
      "ford": 3630,
      "iences": 3631,
      "uments": 3632,
      "itable": 3633,
      "Äłbit": 3634,
      "Äłfast": 3635,
      "Äłfather": 3636,
      "enty": 3637,
      "ials": 3638,
      "ÄłLear": 3639,
      "Äłofficial": 3640,
      "ÄłAmericans": 3641,
      "Äłtesting": 3642,
      "eech": 3643,
      "Äłlimited": 3644,
      "Äłdigital": 3645,
      "ÄłGerman": 3646,
      "ibrary": 3647,
      "equ": 3648,
      "mosp": 3649,
      "ĠF": 3650,
      "ĠT": 3651,
      "ĠÄłher": 3652,
      "Äłhands": 3653,
      "rade": 3654,
      "ÄłServ": 3655,
      "antly": 3656,
      "ighb": 3657,
      "ÄłWashington": 3658,
      "ĠÄłeffect": 3659,
      "ĠÄłeven": 3660,
      "Äłappropriate": 3661,
      "Äłrob": 3662,
      "Äłrare": 3663,
      "ossible": 3664,
      "Äłmilitary": 3665,
      "Äłconnect": 3666,
      "Äłteacher": 3667,
      "Äłlargest": 3668,
      "Äłdoctor": 3669,
      "oe": 3670,
      "Äłfit": 3671,
      "lev": 3672,
      "olved": 3673,
      "Äłbeaut": 3674,
      "amily": 3675,
      "ÄłDay": 3676,
      "ÄłFirst": 3677,
      "Äłenh": 3678,
      "Äładults": 3679,
      "formed": 3680,
      "Äłtechniques": 3681,
      "Äłguid": 3682,
      "Äłsites": 3683,
      "Äłsoftware": 3684,
      "bl": 3685,
      "house": 3686,
      "rid": 3687,
      "Ãĳ": 3688,
      "ĠÄłthrough": 3689,
      "anc": 3690,
      "Äłreasons": 3691,
      "ett": 3692,
      "ully": 3693,
      "ÄłSw": 3694,
      "Äłalone": 3695,
      "Äłweeks": 3696,
      "ÄłInc": 3697,
      "rupt": 3698,
      "ÄłJune": 3699,
      "Äłexposure": 3700,
      "ructure": 3701,
      "onomic": 3702,
      "known": 3703,
      "ĠN": 3704,
      "orge": 3705,
      "Äłegg": 3706,
      "semb": 3707,
      "ÄłSystem": 3708,
      "Äłwhose": 3709,
      "ÄłPresident": 3710,
      "ocal": 3711,
      "ĠÄłfe": 3712,
      "Äłdead": 3713,
      "Äłexpect": 3714,
      "Äłsurround": 3715,
      "gypt": 3716,
      "Äłcele": 3717,
      "care": 3718,
      "ky": 3719,
      "ĠÄłÃ¢Ä¢Äµ": 3720,
      "atin": 3721,
      "Äłbrought": 3722,
      "Äłhope": 3723,
      "oma": 3724,
      "ÄłMon": 3725,
      "erences": 3726,
      "ĠÄłmy": 3727,
      "Äłcontext": 3728,
      "Äłgoes": 3729,
      "Äłlocation": 3730,
      "Äłbelieved": 3731,
      "Äłefforts": 3732,
      "Äłchallenges": 3733,
      "AC": 3734,
      "ĠG": 3735,
      "Äłcitiz": 3736,
      "Äłdied": 3737,
      "ÄłCong": 3738,
      "ĠÄłway": 3739,
      "ĠÄłsim": 3740,
      "ovember": 3741,
      "Äłdifferences": 3742,
      "Äłsurg": 3743,
      "Äłimportance": 3744,
      "Äłexamples": 3745,
      "Äłrespond": 3746,
      "Äłcommonly": 3747,
      "Äłreceive": 3748,
      "Äłillust": 3749,
      "ĠÄłdifferent": 3750,
      "32": 3751,
      "500": 3752,
      "ares": 3753,
      "med": 3754,
      "Â¡": 3755,
      "reet": 3756,
      "Äłsection": 3757,
      "Äłcool": 3758,
      "Äłcustom": 3759,
      "Äłbillion": 3760,
      "Äłgain": 3761,
      "ocial": 3762,
      "Äłrich": 3763,
      "ÄłRev": 3764,
      "Äłplaced": 3765,
      "ternal": 3766,
      "Äłcollection": 3767,
      "ĠÄłhelp": 3768,
      "Äłdepend": 3769,
      "Äłlocated": 3770,
      "Äłmiles": 3771,
      "____": 3772,
      "cape": 3773,
      "eal": 3774,
      "rical": 3775,
      "ĠL": 3776,
      "Äłhundred": 3777,
      "Äłgold": 3778,
      "anted": 3779,
      "ĠÄłbel": 3780,
      "ÄłJanuary": 3781,
      "Äłjoint": 3782,
      "Äłcommand": 3783,
      "ĠÄłbeing": 3784,
      "Äłremember": 3785,
      "Äłexisting": 3786,
      "ĠÄłagain": 3787,
      "Äłmachine": 3788,
      "Äłprotein": 3789,
      "39": 3790,
      "pir": 3791,
      "xiety": 3792,
      "zz": 3793,
      "inn": 3794,
      "Äłcred": 3795,
      "Äłmill": 3796,
      "Äłep": 3797,
      "Äłeth": 3798,
      "Äłgives": 3799,
      "Äłstra": 3800,
      "ested": 3801,
      "ĠÄłfact": 3802,
      "ÄłInt": 3803,
      "Äłproviding": 3804,
      "Äłscreen": 3805,
      "ĠÄłTh": 3806,
      "iox": 3807,
      "Äłfollowed": 3808,
      "Äłreduced": 3809,
      "ÄłAfrican": 3810,
      "Äłeffort": 3811,
      "Äłrecommend": 3812,
      "wide": 3813,
      "ygen": 3814,
      "Äłder": 3815,
      "roy": 3816,
      "odes": 3817,
      "Äłconsequ": 3818,
      "ĠÄłfound": 3819,
      "ĠÄłext": 3820,
      "Äłoverall": 3821,
      "Äłagree": 3822,
      "ĠÄłsec": 3823,
      "Äłbox": 3824,
      "Äłtests": 3825,
      "Äłorganization": 3826,
      "Äłlimit": 3827,
      "Äłdevice": 3828,
      "Äłnutri": 3829,
      "II": 3830,
      "Äłice": 3831,
      "Äłaud": 3832,
      "orb": 3833,
      "alm": 3834,
      "Äłlost": 3835,
      "Äłbeyond": 3836,
      "amic": 3837,
      "ÄłMexic": 3838,
      "ĠÄłdisc": 3839,
      "Äłplanet": 3840,
      "Äłbirds": 3841,
      "mitted": 3842,
      "Äłprofessional": 3843,
      "Äłoptions": 3844,
      "Äłcompletely": 3845,
      "Äłhistorical": 3846,
      "Äłlarger": 3847,
      "rieved": 3848,
      "pe": 3849,
      "rand": 3850,
      "Â·": 3851,
      "inciples": 3852,
      "Äłmid": 3853,
      "otes": 3854,
      "ÄłGreat": 3855,
      "190": 3856,
      "ĠÄłlong": 3857,
      "ĠÄłAr": 3858,
      "Äłrelatively": 3859,
      "merican": 3860,
      "Äłfindings": 3861,
      "Äłextra": 3862,
      "Äłexplain": 3863,
      "Äłlegal": 3864,
      "ÄłInternational": 3865,
      "Äłfruit": 3866,
      "ÄłCounty": 3867,
      "AM": 3868,
      "At": 3869,
      "Äłtable": 3870,
      "Äłcode": 3871,
      "oul": 3872,
      "Äłnamed": 3873,
      "urt": 3874,
      "vert": 3875,
      "estion": 3876,
      "ÄłRuss": 3877,
      "Äłsequ": 3878,
      "Äłyourself": 3879,
      "rows": 3880,
      "Äłfunctions": 3881,
      "Äłcommunication": 3882,
      "Äłpowerful": 3883,
      "ÄłEngland": 3884,
      "Äłdevices": 3885,
      "Äłestablished": 3886,
      "ministration": 3887,
      "cohol": 3888,
      "ST": 3889,
      "ees": 3890,
      "Ġ%": 3891,
      "oration": 3892,
      "Äłmole": 3893,
      "Äłdate": 3894,
      "Äłhttp": 3895,
      "Äłstories": 3896,
      "ÄłHer": 3897,
      "ogle": 3898,
      "Äłcontroll": 3899,
      "Äładop": 3900,
      "irection": 3901,
      "igned": 3902,
      "Äłjud": 3903,
      "ÄłChildren": 3904,
      "2006": 3905,
      "Äłexpand": 3906,
      "standing": 3907,
      "Äłdiabetes": 3908,
      "Äłpresented": 3909,
      "Äłproperty": 3910,
      "Äłwrote": 3911,
      "Äłfram": 3912,
      "Äłmax": 3913,
      "Äłdrop": 3914,
      "ÄłSun": 3915,
      "Äłord": 3916,
      "ĠÄłcent": 3917,
      "ÄłHouse": 3918,
      "ÄłDav": 3919,
      "ĠÄłdef": 3920,
      "anges": 3921,
      "Äłjournal": 3922,
      "ĠÄłgroup": 3923,
      "Äłroom": 3924,
      "isease": 3925,
      "Äłdiscovered": 3926,
      "Äłorganizations": 3927,
      "Äłequipment": 3928,
      "Äłpurch": 3929,
      "Äłoccurs": 3930,
      "ĠÄłjust": 3931,
      "Äłtissue": 3932,
      "65": 3933,
      "HE": 3934,
      "aters": 3935,
      "essel": 3936,
      "Äłborn": 3937,
      "Äłfresh": 3938,
      "urance": 3939,
      "ĠÄłshe": 3940,
      "Äłnothing": 3941,
      "Äłagricult": 3942,
      "Äłacqu": 3943,
      "Äłinstance": 3944,
      "ĠÄłexp": 3945,
      "Äłvisual": 3946,
      "Äłpurpose": 3947,
      "Äłdemand": 3948,
      "urban": 3949,
      "Äłinfluence": 3950,
      "ÄłJewish": 3951,
      "97": 3952,
      "Ġb": 3953,
      "hether": 3954,
      "rest": 3955,
      "Äłfinal": 3956,
      "igr": 3957,
      "amer": 3958,
      "ĠÄłcol": 3959,
      "Äłspirit": 3960,
      "ĠÄłhigh": 3961,
      "Äłking": 3962,
      "ÄłJesus": 3963,
      "ĠÄłeach": 3964,
      "tee": 3965,
      "ÃĥÄ": 3966,
      "Äłgradu": 3967,
      "Äłhimself": 3968,
      "pective": 3969,
      "Äłidentified": 3970,
      "Äłstandards": 3971,
      "related": 3972,
      "Äłasked": 3973,
      "Äłdrugs": 3974,
      "Pro": 3975,
      "more": 3976,
      "Äłtox": 3977,
      "Äłhous": 3978,
      "othes": 3979,
      "amil": 3980,
      "ÄłMus": 3981,
      "ÄłDuring": 3982,
      "ÄłEven": 3983,
      "ÄłRed": 3984,
      "Äładapt": 3985,
      "anging": 3986,
      "ĠÄłgo": 3987,
      "ĠÄłget": 3988,
      "Äłrock": 3989,
      "Äłscale": 3990,
      "Äłcoast": 3991,
      "Äłhappen": 3992,
      "co": 3993,
      "iology": 3994,
      "ÃĹ": 3995,
      "Ġ]": 3996,
      "Ġth": 3997,
      "ĠÄłthose": 3998,
      "Äłtou": 3999,
      "ĠÄłown": 4000,
      "Äłbra": 4001,
      "Äłfol": 4002,
      "Äłfile": 4003,
      "Äłlat": 4004,
      "iders": 4005,
      "amples": 4006,
      "ÄłCity": 4007,
      "istant": 4008,
      "ĠÄłwater": 4009,
      "ĠÄłcount": 4010,
      "ĠÄłsaid": 4011,
      "Äłvia": 4012,
      "These": 4013,
      "Äłdeal": 4014,
      "rick": 4015,
      "Äłtrack": 4016,
      "Äłrain": 4017,
      "Äłeverything": 4018,
      "ospital": 4019,
      "Äłeyes": 4020,
      "Äłresponsible": 4021,
      "hav": 4022,
      "Äłx": 4023,
      "Äłtit": 4024,
      "erate": 4025,
      "road": 4026,
      "Äłisn": 4027,
      "raz": 4028,
      "ÄłAugust": 4029,
      "ÄłMc": 4030,
      "ĠÄłworld": 4031,
      "Äłuser": 4032,
      "Äłsaw": 4033,
      "Äłmonit": 4034,
      "hemat": 4035,
      "Äłoccup": 4036,
      "Äłproperties": 4037,
      "Äłmilk": 4038,
      "Äłpredict": 4039,
      "Äłstatus": 4040,
      "aught": 4041,
      "Äłutil": 4042,
      "aign": 4043,
      "atab": 4044,
      "Äłcorn": 4045,
      "icians": 4046,
      "asion": 4047,
      "astern": 4048,
      "ÄłSince": 4049,
      "Äłstim": 4050,
      "ademic": 4051,
      "iful": 4052,
      "ĠÄłboth": 4053,
      "ĠÄłinv": 4054,
      "ÄłUse": 4055,
      "phas": 4056,
      "lick": 4057,
      "Äłprice": 4058,
      "Äłeveryone": 4059,
      "vironmental": 4060,
      "iveness": 4061,
      "Äłclassroom": 4062,
      "Äłbelief": 4063,
      "Äłfreed": 4064,
      "Äłversion": 4065,
      "Äłreligious": 4066,
      "ault": 4067,
      "ference": 4068,
      "met": 4069,
      "ĠI": 4070,
      "Ġf": 4071,
      "ĠÄłet": 4072,
      "reak": 4073,
      "Äłswe": 4074,
      "Äłwa": 4075,
      "Äłpet": 4076,
      "Äłstyle": 4077,
      "Äłstrugg": 4078,
      "ĠÄłsame": 4079,
      "Äłrule": 4080,
      "ÄłFebruary": 4081,
      "Äłcommer": 4082,
      "Äłpoly": 4083,
      "Äłearlier": 4084,
      "Äłdetect": 4085,
      "Äłglass": 4086,
      "ĠÄłimport": 4087,
      "Äłeconomy": 4088,
      "Äłconstruct": 4089,
      "ÄłDecember": 4090,
      "Äłpeace": 4091,
      "Äłopportunities": 4092,
      "Äłcollabor": 4093,
      "ximately": 4094,
      "Ġ10": 4095,
      "atform": 4096,
      "roph": 4097,
      "ching": 4098,
      "Äłforces": 4099,
      "ÄłSan": 4100,
      "abilities": 4101,
      "aint": 4102,
      "reatment": 4103,
      "ishing": 4104,
      "Äłshowed": 4105,
      "fficiency": 4106,
      "Äłtrying": 4107,
      "ÄłChristian": 4108,
      "Äłheavy": 4109,
      "Äłdisplay": 4110,
      "ilosop": 4111,
      "SA": 4112,
      "gal": 4113,
      "ira": 4114,
      "iance": 4115,
      "Äłocean": 4116,
      "Äłfuel": 4117,
      "Äłfederal": 4118,
      "Äłmouth": 4119,
      "asure": 4120,
      "enth": 4121,
      "elines": 4122,
      "emy": 4123,
      "ÄłWater": 4124,
      "Äłleave": 4125,
      "Äłteeth": 4126,
      "onds": 4127,
      "2005": 4128,
      "2016": 4129,
      "Äłattract": 4130,
      "ditionally": 4131,
      "ÄłIsrael": 4132,
      "ographic": 4133,
      "Äłpicture": 4134,
      "Äłcapacity": 4135,
      "che": 4136,
      "ias": 4137,
      "with": 4138,
      "Ġp": 4139,
      "Äłfair": 4140,
      "icular": 4141,
      "Äłmis": 4142,
      "Äłmob": 4143,
      "Äłhon": 4144,
      "Äłhuge": 4145,
      "Äłnuc": 4146,
      "change": 4147,
      "ÄłSim": 4148,
      "ament": 4149,
      "ÄłMy": 4150,
      "Äłvict": 4151,
      "ÄłDis": 4152,
      "ÄłFrom": 4153,
      "Äłteach": 4154,
      "ĠÄłAl": 4155,
      "lict": 4156,
      "clus": 4157,
      "Äłdidn": 4158,
      "Äłinteresting": 4159,
      "Äłvirt": 4160,
      "force": 4161,
      "Äłbehavi": 4162,
      "48": 4163,
      "RE": 4164,
      "ken": 4165,
      "Äłcities": 4166,
      "orage": 4167,
      "opy": 4168,
      "ĠÄłfollow": 4169,
      "ÄłOur": 4170,
      "Äłcontract": 4171,
      "ÄłJournal": 4172,
      "Äłclos": 4173,
      "ĠÄłrequ": 4174,
      "ĠÄłgood": 4175,
      "ĠÄłstr": 4176,
      "ÃĥÅ": 4177,
      "Äłinstruct": 4178,
      "Äłexperiment": 4179,
      "Äłsolutions": 4180,
      "Äłeducational": 4181,
      "Äłelimin": 4182,
      "ÃĳÄ": 4183,
      "Ġ|": 4184,
      "Äłsch": 4185,
      "Äłsouth": 4186,
      "Äłwinter": 4187,
      "Äłtoward": 4188,
      "Äłinnov": 4189,
      "Äłmission": 4190,
      "imens": 4191,
      "Äłbeg": 4192,
      "ÄłAccording": 4193,
      "pped": 4194,
      "ÄłWork": 4195,
      "ĠÄłmake": 4196,
      "Äłshape": 4197,
      "Äłund": 4198,
      "Äłimag": 4199,
      "Äłincome": 4200,
      "cipl": 4201,
      "ÄłChinese": 4202,
      "Äłgenetic": 4203,
      "Äłoffice": 4204,
      "Äłemissions": 4205,
      "Äłexplore": 4206,
      "Äłcontinued": 4207,
      "Äłimmune": 4208,
      "Äłmoved": 4209,
      "Äłcombination": 4210,
      "Äłautom": 4211,
      "Äłconsumption": 4212,
      "Äłsteps": 4213,
      "ÄłEducation": 4214,
      "300": 4215,
      "ii": 4216,
      "Ġ(": 4217,
      "Äłur": 4218,
      "ÄłÃ¢Ä¢": 4219,
      "Äłast": 4220,
      "requ": 4221,
      "Äłpiece": 4222,
      "arter": 4223,
      "asks": 4224,
      "Äłhom": 4225,
      "Äłefficient": 4226,
      "etrieved": 4227,
      "ÄłIS": 4228,
      "ÄłThen": 4229,
      "ÄłHar": 4230,
      "Äłnote": 4231,
      "place": 4232,
      "Äłresistance": 4233,
      "Äłevolution": 4234,
      "Äłactions": 4235,
      "Äłprinc": 4236,
      "ĠÄłprodu": 4237,
      "Äłsigns": 4238,
      "Äłmember": 4239,
      "Äłcourt": 4240,
      "ognitive": 4241,
      "Äłchoice": 4242,
      "Äłimmediately": 4243,
      "Äłthousands": 4244,
      "Ad": 4245,
      "Ãħ": 4246,
      "atically": 4247,
      "Äłwoman": 4248,
      "alle": 4249,
      "Äłmiss": 4250,
      "Äłlaun": 4251,
      "ÄłCor": 4252,
      "ÄłEast": 4253,
      "ÄłRead": 4254,
      "ÄłLaw": 4255,
      "rust": 4256,
      "Äłcompar": 4257,
      "ube": 4258,
      "Äłblue": 4259,
      "ieties": 4260,
      "Äłanyone": 4261,
      "Äłdistance": 4262,
      "Äłtechnologies": 4263,
      "uthors": 4264,
      "Äłstarting": 4265,
      "Äłequal": 4266,
      "Äłpractices": 4267,
      "Äłsitu": 4268,
      "upper": 4269,
      "Äłtopic": 4270,
      "Äłcycle": 4271,
      "Äłbalance": 4272,
      "ÄłWilliam": 4273,
      "tical": 4274,
      "Äłball": 4275,
      "Äłnative": 4276,
      "ÄłBr": 4277,
      "ÄłBecause": 4278,
      "ĠÄłsm": 4279,
      "Äłatmosp": 4280,
      "ĠÄłdet": 4281,
      "Äłspring": 4282,
      "ÄłUK": 4283,
      "ÄłJust": 4284,
      "ĠÄłev": 4285,
      "Äłapplied": 4286,
      "ails": 4287,
      "Äłexperiences": 4288,
      "Äłlearned": 4289,
      "Äłchoose": 4290,
      "Äłmoving": 4291,
      "Äłnutrition": 4292,
      "Äłfailure": 4293,
      "Äłseparate": 4294,
      "ÄłSociety": 4295,
      "Äłvitamin": 4296,
      "book": 4297,
      "cast": 4298,
      "gor": 4299,
      "gency": 4300,
      "och": 4301,
      "Â§": 4302,
      "ittle": 4303,
      "unt": 4304,
      "ÄłPaul": 4305,
      "Äłchurch": 4306,
      "ÄłInst": 4307,
      "Äłusers": 4308,
      "ĠÄłrese": 4309,
      "Äłapply": 4310,
      "Äłtrade": 4311,
      "Äłspecifically": 4312,
      "Äłsurvey": 4313,
      "Äłfactor": 4314,
      "ĠÄłexper": 4315,
      "ifying": 4316,
      "Äłelement": 4317,
      "Äłmajority": 4318,
      "Äłconnected": 4319,
      "ÄłPlan": 4320,
      "poses": 4321,
      "Äłdetails": 4322,
      "Äłeventually": 4323,
      "Äłdegree": 4324,
      "Äłarchitect": 4325,
      "Äłfemale": 4326,
      "Äłphen": 4327,
      "olid": 4328,
      "ÄłAre": 4329,
      "ÄłAnt": 4330,
      "ÄłMod": 4331,
      "ÄłPark": 4332,
      "esting": 4333,
      "ÄłEgypt": 4334,
      "Äłrecently": 4335,
      "Äłcausing": 4336,
      "Äłevalu": 4337,
      "EC": 4338,
      "ses": 4339,
      "Äłtren": 4340,
      "onic": 4341,
      "Äłwear": 4342,
      "Äłwatch": 4343,
      "alysis": 4344,
      "Äłinh": 4345,
      "Äłden": 4346,
      "oted": 4347,
      "ÄłTra": 4348,
      "igen": 4349,
      "ÄłPeople": 4350,
      "Äłcoming": 4351,
      "ocol": 4352,
      "ÄłLondon": 4353,
      "Äłweather": 4354,
      "orms": 4355,
      "Äłneu": 4356,
      "ĠÄłrep": 4357,
      "ÄłVir": 4358,
      "Äłfeature": 4359,
      "Äłregions": 4360,
      "ĠÄłThey": 4361,
      "Äłgoals": 4362,
      "Äłmuscle": 4363,
      "Äłhighest": 4364,
      "Äłbenefit": 4365,
      "However": 4366,
      "Äłrunning": 4367,
      "ÄłSeptember": 4368,
      "Äłillness": 4369,
      "Äłlayer": 4370,
      "Äłiniti": 4371,
      "Äłencourag": 4372,
      "ÄłAustralia": 4373,
      "88": 4374,
      "Ph": 4375,
      "ij": 4376,
      "ĠE": 4377,
      "Äłtask": 4378,
      "rehens": 4379,
      "isher": 4380,
      "Äłfig": 4381,
      "Äłfaith": 4382,
      "Äłmal": 4383,
      "istan": 4384,
      "umn": 4385,
      "rome": 4386,
      "eces": 4387,
      "ĠÄłpat": 4388,
      "Äłrat": 4389,
      "ework": 4390,
      "ÄłFound": 4391,
      "Äłunivers": 4392,
      "ĠÄłless": 4393,
      "ĠÄłevery": 4394,
      "Äłqual": 4395,
      "Äłinstru": 4396,
      "Äłgeneration": 4397,
      "Äłleaders": 4398,
      "Äłmetal": 4399,
      "Äłmemory": 4400,
      "Äłmeasures": 4401,
      "Äłtemperatures": 4402,
      "Äłsuggests": 4403,
      "Äłhousehold": 4404,
      "Äłwrong": 4405,
      "Äłstrategies": 4406,
      "Äłmoment": 4407,
      "47": 4408,
      "99": 4409,
      "Â»": 4410,
      "inally": 4411,
      "onst": 4412,
      "enge": 4413,
      "Äłcand": 4414,
      "Äłpow": 4415,
      "Äłfields": 4416,
      "Äłmut": 4417,
      "Äłmist": 4418,
      "ilit": 4419,
      "Äłeight": 4420,
      "ession": 4421,
      "ÄłMary": 4422,
      "Äłchronic": 4423,
      "ÄłDNA": 4424,
      "ĠÄłmade": 4425,
      "ightly": 4426,
      "Äłunit": 4427,
      "ressive": 4428,
      "2020": 4429,
      "ÄłChurch": 4430,
      "Äłdepending": 4431,
      "ĠÄłval": 4432,
      "Äłfamous": 4433,
      "ĠÄłFor": 4434,
      "Äłready": 4435,
      "ĠÄłlead": 4436,
      "ortunately": 4437,
      "Äłbaby": 4438,
      "Here": 4439,
      "ya": 4440,
      "Â½": 4441,
      "rete": 4442,
      "inger": 4443,
      "Äłtold": 4444,
      "Äłmap": 4445,
      "rog": 4446,
      "Äłnames": 4447,
      "ÄłMe": 4448,
      "ÄłPat": 4449,
      "antic": 4450,
      "ĠÄłperson": 4451,
      "rier": 4452,
      "riage": 4453,
      "ĠÄłmon": 4454,
      "Äłworth": 4455,
      "acters": 4456,
      "Äłresource": 4457,
      "Äłrot": 4458,
      "2001": 4459,
      "ĠÄłhealth": 4460,
      "anguages": 4461,
      "Äłobserv": 4462,
      "ÄłGermany": 4463,
      ");": 4464,
      "67": 4465,
      "nes": 4466,
      "ye": 4467,
      "Äłcateg": 4468,
      "Äłformer": 4469,
      "rief": 4470,
      "Äłshap": 4471,
      "oving": 4472,
      "ception": 4473,
      "ĠÄłexpl": 4474,
      "Äłpopulations": 4475,
      "1990": 4476,
      "Äłallowed": 4477,
      "Äłvolume": 4478,
      "Äłpollution": 4479,
      "Äłpatterns": 4480,
      "ET": 4481,
      "ners": 4482,
      "works": 4483,
      "Â²": 4484,
      "Äłtri": 4485,
      "isk": 4486,
      "Äłhomes": 4487,
      "eters": 4488,
      "Äłisol": 4489,
      "ida": 4490,
      "Ġ.\"": 4491,
      "ÄłMich": 4492,
      "ĠÄłco": 4493,
      "Äłvision": 4494,
      "Äłvessel": 4495,
      "ÄłEar": 4496,
      "ÄłFrance": 4497,
      "Äłintellig": 4498,
      "ÄłKe": 4499,
      "ÄłUnder": 4500,
      "Äłinfections": 4501,
      "Äłpresence": 4502,
      "Äłdiscover": 4503,
      "ÄłProt": 4504,
      "Äłcelebr": 4505,
      "DA": 4506,
      "hi": 4507,
      "ios": 4508,
      "kin": 4509,
      "tion": 4510,
      "uable": 4511,
      "za": 4512,
      "Â³": 4513,
      "Âµ": 4514,
      "Ġg": 4515,
      "iny": 4516,
      "Äłwall": 4517,
      "ald": 4518,
      "Äłanxiety": 4519,
      "Äłfigure": 4520,
      "Äłeating": 4521,
      "oting": 4522,
      "Äłrules": 4523,
      "ÄłDec": 4524,
      "ĠÄłhuman": 4525,
      "Äłperfect": 4526,
      "ciences": 4527,
      "rices": 4528,
      "efore": 4529,
      "ÄłProgram": 4530,
      "raining": 4531,
      "Äłrisks": 4532,
      "Äłplanning": 4533,
      "Äłfilm": 4534,
      "ÄłBlack": 4535,
      "ÄłCongress": 4536,
      "Äłcommercial": 4537,
      "85": 4538,
      "Ar": 4539,
      "eaking": 4540,
      "ras": 4541,
      "ĠÄłed": 4542,
      "ĠÄłart": 4543,
      "ĠÄłend": 4544,
      "Äłson": 4545,
      "ÄłCom": 4546,
      "Äłalt": 4547,
      "ÄłBar": 4548,
      "ĠÄłdep": 4549,
      "ager": 4550,
      "apers": 4551,
      "Äłneighb": 4552,
      "Äłparty": 4553,
      "ÄłAng": 4554,
      "Äłmedicine": 4555,
      "Äłdefined": 4556,
      "Äłreducing": 4557,
      "Äłproperly": 4558,
      "Äłterrit": 4559,
      "Äłconstruction": 4560,
      "64": 4561,
      "After": 4562,
      "CC": 4563,
      "PS": 4564,
      "mp": 4565,
      "Ãı": 4566,
      "isation": 4567,
      "Äłple": 4568,
      "Äłfully": 4569,
      "Äłload": 4570,
      "acific": 4571,
      "osite": 4572,
      "ĠÄłmin": 4573,
      "ĠÄłmuch": 4574,
      "ĠÄłdist": 4575,
      "ĠÄłdem": 4576,
      "Äłincorpor": 4577,
      "ĠÄłlife": 4578,
      "ĠÄłread": 4579,
      "ologists": 4580,
      "ysical": 4581,
      "othing": 4582,
      "Äłgrass": 4583,
      "Äłoffic": 4584,
      "Äłassum": 4585,
      "Äłnumerous": 4586,
      "Äłreports": 4587,
      "Äłlegis": 4588,
      "cular": 4589,
      "ĠW": 4590,
      "ĠÄłra": 4591,
      "Äłreality": 4592,
      "uter": 4593,
      "urning": 4594,
      "amental": 4595,
      "Äłconvers": 4596,
      "Äłitems": 4597,
      "Äłexcess": 4598,
      "ĠÄłinformation": 4599,
      "ago": 4600,
      "Äłplastic": 4601,
      "Äłdisp": 4602,
      "ĠÄłnumber": 4603,
      "Äłrepe": 4604,
      "Äłsurpr": 4605,
      "ĠÄłdoes": 4606,
      "Äłrequirements": 4607,
      "Äłdogs": 4608,
      "Äłdangerous": 4609,
      "ÄłAssociation": 4610,
      "Is": 4611,
      "US": 4612,
      "iant": 4613,
      "la": 4614,
      "Ġ!": 4615,
      "Äłsave": 4616,
      "Äłsav": 4617,
      "organ": 4618,
      "Äłbatter": 4619,
      "ÄłSch": 4620,
      "Äłstore": 4621,
      "oper": 4622,
      "ĠÄłav": 4623,
      "ÄłOff": 4624,
      "2019": 4625,
      "Äłappears": 4626,
      "Äłoffers": 4627,
      "Äłexpression": 4628,
      "ĠÄłprocess": 4629,
      "Äłboard": 4630,
      "Äłpassed": 4631,
      "roduction": 4632,
      "Äłhappens": 4633,
      "ĠÄłincre": 4634,
      "ÄłOrgan": 4635,
      "Äłrelationships": 4636,
      "udden": 4637,
      "Äłcomponents": 4638,
      "Äłclinical": 4639,
      "Äłcitizens": 4640,
      "Res": 4641,
      "cont": 4642,
      "ixt": 4643,
      "uing": 4644,
      "Âº": 4645,
      "ĠH": 4646,
      "Ġ||": 4647,
      "Äłfear": 4648,
      "Äłmo": 4649,
      "ander": 4650,
      "ulum": 4651,
      "Äłalcohol": 4652,
      "ÄłPublic": 4653,
      "Äłcomfort": 4654,
      "ĠÄłcar": 4655,
      "ÄłWestern": 4656,
      "Äłspect": 4657,
      "Äłunits": 4658,
      "ously": 4659,
      "ÄłOver": 4660,
      "plete": 4661,
      "ypes": 4662,
      "onomy": 4663,
      "iquid": 4664,
      "Äłclasses": 4665,
      "Äłdrive": 4666,
      "ĠÄłlevel": 4667,
      "Äłeasier": 4668,
      "Äłconnection": 4669,
      "Äłturned": 4670,
      "hetic": 4671,
      "Äłgarden": 4672,
      "Äłbottom": 4673,
      "Many": 4674,
      "do": 4675,
      "Ãĺ": 4676,
      "Äłtour": 4677,
      "Äłap": 4678,
      "Äłsouthern": 4679,
      "Äłdram": 4680,
      "Äłdyn": 4681,
      "Äłdirection": 4682,
      "Äłlung": 4683,
      "Äłisland": 4684,
      "ceived": 4685,
      "Äłgir": 4686,
      "Äłgave": 4687,
      "ÄłTheir": 4688,
      "ÄłPress": 4689,
      "ĠÄłsign": 4690,
      "ĠÄłpower": 4691,
      "ĠÄłinst": 4692,
      "ourse": 4693,
      "ÄłNovember": 4694,
      "Äłseven": 4695,
      "inding": 4696,
      "Äłmeat": 4697,
      "Äłoutput": 4698,
      "ologist": 4699,
      "Äłgene": 4700,
      "ĠÄłIs": 4701,
      "Äłformed": 4702,
      "Äłtransfer": 4703,
      "Äłenter": 4704,
      "Äłtrust": 4705,
      "ÄłPhil": 4706,
      "Äłradio": 4707,
      "ÄłGeneral": 4708,
      "Äłdistribution": 4709,
      "Äłoxygen": 4710,
      "Äłprepared": 4711,
      "Äłmentioned": 4712,
      "Â¾": 4713,
      "Äłtrib": 4714,
      "itz": 4715,
      "Äłfavor": 4716,
      "icit": 4717,
      "Äłmag": 4718,
      "Äłhair": 4719,
      "iling": 4720,
      "olve": 4721,
      "ÄłSur": 4722,
      "ĠÄłpoint": 4723,
      "ÄłDon": 4724,
      "ria": 4725,
      "Äłkilled": 4726,
      "ÄłJames": 4727,
      "Äłdisorders": 4728,
      "bert": 4729,
      "enses": 4730,
      "ordin": 4731,
      "ĠÄłAn": 4732,
      "Äłmostly": 4733,
      "ĠÄłBut": 4734,
      "Äłinflamm": 4735,
      "Äłfeeling": 4736,
      "Äłsignificantly": 4737,
      "Äłtreated": 4738,
      "Äłcharacteristics": 4739,
      "Äłpolicies": 4740,
      "Äłinjury": 4741,
      "aturally": 4742,
      "Äłaspects": 4743,
      "Â¹": 4744,
      "Äłupper": 4745,
      "Äłsac": 4746,
      "Äłfert": 4747,
      "iments": 4748,
      "ÄłCouncil": 4749,
      "acing": 4750,
      "Äłhear": 4751,
      "ÄłHigh": 4752,
      "Äłchance": 4753,
      "Äłround": 4754,
      "Äłspent": 4755,
      "Äłspot": 4756,
      "ague": 4757,
      "ÄłOctober": 4758,
      "ÄłUN": 4759,
      "riting": 4760,
      "Äłgenes": 4761,
      "ÄłUnion": 4762,
      "icking": 4763,
      "Äłdecided": 4764,
      "Äłremove": 4765,
      "Äłfinding": 4766,
      "Äłchanged": 4767,
      "Äłperformed": 4768,
      "Äłoperations": 4769,
      "porary": 4770,
      "Äłfrequency": 4771,
      "Äłparticipants": 4772,
      "ÄłInternet": 4773,
      "des": 4774,
      "Ġ6": 4775,
      "Ġ7": 4776,
      "Äłurban": 4777,
      "itness": 4778,
      "Äłinsect": 4779,
      "ÄłChe": 4780,
      "ounced": 4781,
      "ĠÄłpop": 4782,
      "Äłvill": 4783,
      "ĠÄłback": 4784,
      "They": 4785,
      "ÄłEv": 4786,
      "ĠÄłmust": 4787,
      "ĠÄłdid": 4788,
      "ÄłGreek": 4789,
      "erves": 4790,
      "ĠÄłbefore": 4791,
      "Äłcarried": 4792,
      "Äłgraph": 4793,
      "ÄłIsland": 4794,
      "Äłantib": 4795,
      "ttps": 4796,
      "ÄłCollege": 4797,
      "Äłfrequently": 4798,
      "Äłconducted": 4799,
      "Äłelectricity": 4800,
      "44": 4801,
      "According": 4802,
      "lo": 4803,
      "rm": 4804,
      "Äłing": 4805,
      "Äłiron": 4806,
      "Äłcry": 4807,
      "oral": 4808,
      "Äłbone": 4809,
      "Äłbran": 4810,
      "Äłbank": 4811,
      "Äłthick": 4812,
      "Äłhyp": 4813,
      "andom": 4814,
      "ulating": 4815,
      "ulner": 4816,
      "abb": 4817,
      "osystem": 4818,
      "ĠÄłcare": 4819,
      "ÄłEach": 4820,
      "ÄłLet": 4821,
      "Äłplans": 4822,
      "ĠÄłref": 4823,
      "Äłjour": 4824,
      "ĠÄłAs": 4825,
      "Äłupd": 4826,
      "arket": 4827,
      "oyal": 4828,
      "rolog": 4829,
      "1998": 4830,
      "ĠÄłchildren": 4831,
      "Äłserve": 4832,
      "Äłopin": 4833,
      "ometimes": 4834,
      "Äłrelease": 4835,
      "cellent": 4836,
      "Äłdegrees": 4837,
      "Äłvehicle": 4838,
      "Äładvantage": 4839,
      "Äłsurgery": 4840,
      "\",": 4841,
      "cers": 4842,
      "name": 4843,
      "then": 4844,
      "Â¬": 4845,
      "Ã¥": 4846,
      "Äłign": 4847,
      "Äłtim": 4848,
      "eries": 4849,
      "ato": 4850,
      "Äłpun": 4851,
      "Äłpark": 4852,
      "Äłbound": 4853,
      "Äłburn": 4854,
      "Äłmer": 4855,
      "uration": 4856,
      "ÄłTr": 4857,
      "iring": 4858,
      "ÄłSy": 4859,
      "Äłstorage": 4860,
      "Äłexec": 4861,
      "Äłexhib": 4862,
      "Äłriver": 4863,
      "ĠÄłduring": 4864,
      "ÄłNow": 4865,
      "Äłweak": 4866,
      "ÄłOld": 4867,
      "avy": 4868,
      "Äłperhaps": 4869,
      "Äłactual": 4870,
      "ÄłVal": 4871,
      "athy": 4872,
      "ÄłThus": 4873,
      "ĠÄłInd": 4874,
      "ÄłWhy": 4875,
      "Äłkeeping": 4876,
      "Äłcontribute": 4877,
      "Äłwonder": 4878,
      "gorith": 4879,
      "AP": 4880,
      "RI": 4881,
      "ieces": 4882,
      "oil": 4883,
      "ped": 4884,
      "rations": 4885,
      "wood": 4886,
      "Äłbed": 4887,
      "lements": 4888,
      "eles": 4889,
      "Äłconver": 4890,
      "Äłhearing": 4891,
      "ĠÄłcre": 4892,
      "Äłspeech": 4893,
      "Äłseeds": 4894,
      "aph": 4895,
      "ĠÄłtake": 4896,
      "ĠÄłnow": 4897,
      "ificial": 4898,
      "Äłcollege": 4899,
      "atholic": 4900,
      "Äłexposed": 4901,
      "Äłincreases": 4902,
      "Äłexperien": 4903,
      "Äłprocessing": 4904,
      "Äłbreast": 4905,
      "ÄłGeorge": 4906,
      "Äłcampaign": 4907,
      "Äłreferred": 4908,
      "Äłmessage": 4909,
      "Äłexactly": 4910,
      "AD": 4911,
      "rum": 4912,
      "enry": 4913,
      "orial": 4914,
      "Äłdomin": 4915,
      "Äłdoub": 4916,
      "Äłgod": 4917,
      "urd": 4918,
      "urric": 4919,
      "ÄłTrans": 4920,
      "igration": 4921,
      "unn": 4922,
      "ÄłMac": 4923,
      "ÄłMuseum": 4924,
      "ÄłRoman": 4925,
      "Äłship": 4926,
      "ÄłInter": 4927,
      "ulture": 4928,
      "berg": 4929,
      "Äłtruth": 4930,
      "Äłprinciples": 4931,
      "Äłnovel": 4932,
      "Äłcreation": 4933,
      "arsh": 4934,
      "Äłcharacters": 4935,
      "Äłforeign": 4936,
      "Äłstructures": 4937,
      "Äłprofession": 4938,
      "Äłwidely": 4939,
      "which": 4940,
      "Äłindependent": 4941,
      "ÄłMexico": 4942,
      "96": 4943,
      "All": 4944,
      "Sh": 4945,
      "iological": 4946,
      "Ġthe": 4947,
      "ĠÄłthree": 4948,
      "Äłtips": 4949,
      "ĠÄłest": 4950,
      "rep": 4951,
      "Äłoption": 4952,
      "Äłcert": 4953,
      "itors": 4954,
      "Äłfine": 4955,
      "Äłtooth": 4956,
      "ÄłSee": 4957,
      "Äłstar": 4958,
      "Äłstream": 4959,
      "eline": 4960,
      "ÄłPol": 4961,
      "ĠÄłpar": 4962,
      "ĠÄłday": 4963,
      "ÄłGreen": 4964,
      "ÄłOnce": 4965,
      "ensus": 4966,
      "ĠÄłredu": 4967,
      "oking": 4968,
      "anged": 4969,
      "ĠÄłAnd": 4970,
      "ĠÄłstate": 4971,
      "Äłtrig": 4972,
      "2002": 4973,
      "Äłpresident": 4974,
      "Äłdepression": 4975,
      "Äłsignal": 4976,
      "Äłmetab": 4977,
      "Äłwanted": 4978,
      "Äładvanced": 4979,
      "Äłapproximately": 4980,
      "Äłrecords": 4981,
      "Äłobserved": 4982,
      "Äłfriend": 4983,
      "board": 4984,
      "Äłdestroy": 4985,
      "Äłregularly": 4986,
      "Äłemotional": 4987,
      "Äłfreedom": 4988,
      "EM": 4989,
      "eared": 4990,
      "last": 4991,
      "point": 4992,
      "ux": 4993,
      "ĠÄłec": 4994,
      "ala": 4995,
      "Äłdra": 4996,
      "ether": 4997,
      "ÄłAD": 4998,
      "Äłstret": 4999,
      "ÄłMount": 5000,
      "ÄłMont": 5001,
      "ÄłPort": 5002,
      "oung": 5003,
      "ĠÄłmed": 5004,
      "ĠÄłmain": 5005,
      "Äładjust": 5006,
      "ĠÄłreport": 5007,
      "ĠÄłgreat": 5008,
      "2003": 5009,
      "Äłremoved": 5010,
      "Äłreference": 5011,
      "Äłleads": 5012,
      "Äłminor": 5013,
      "Äłmainly": 5014,
      "ÄłSpanish": 5015,
      "Äłinvolves": 5016,
      "Äłdetailed": 5017,
      "aughter": 5018,
      "Äłrecommended": 5019,
      "uilding": 5020,
      "That": 5021,
      "rich": 5022,
      "ĠÄłident": 5023,
      "ĠÄłusing": 5024,
      "Äłwest": 5025,
      "Äłdie": 5026,
      "olars": 5027,
      "add": 5028,
      "resents": 5029,
      "umin": 5030,
      "keep": 5031,
      "ivation": 5032,
      "ÄłHol": 5033,
      "oster": 5034,
      "Äłplatform": 5035,
      "Äłdiss": 5036,
      "Äłmanage": 5037,
      "Äłclim": 5038,
      "Äłsynt": 5039,
      "ĠÄłComm": 5040,
      "Äłemp": 5041,
      "Äłemphas": 5042,
      "Äłcoal": 5043,
      "ÄłArch": 5044,
      "Äłpractical": 5045,
      "Äłideal": 5046,
      "Äłchanging": 5047,
      "Äłmulti": 5048,
      "ĠÄłdevelop": 5049,
      "Äłkinds": 5050,
      "Äłannual": 5051,
      "Although": 5052,
      "Äłsustainable": 5053,
      "Äłextremely": 5054,
      "ĠÄłimportant": 5055,
      "Ġh": 5056,
      "Äłtherap": 5057,
      "Äłcra": 5058,
      "Äłpages": 5059,
      "Äłbattle": 5060,
      "Äłbodies": 5061,
      "asp": 5062,
      "omy": 5063,
      "Äłgiving": 5064,
      "Äłfort": 5065,
      "ÄłAv": 5066,
      "ache": 5067,
      "ĠÄłfood": 5068,
      "ÄłFl": 5069,
      "ÄłLord": 5070,
      "Äłkid": 5071,
      "Äłroot": 5072,
      "Äłobvious": 5073,
      "Äłbuy": 5074,
      "ĠÄłHow": 5075,
      "Äłexperts": 5076,
      "ÄłProject": 5077,
      "ĠÄłGod": 5078,
      "Äłdistinct": 5079,
      "clusion": 5080,
      "ndrome": 5081,
      "Äłguide": 5082,
      "Äłexistence": 5083,
      "Äłsubjects": 5084,
      "Äłreleased": 5085,
      "Äłassessment": 5086,
      "Äłfarmers": 5087,
      "Äłsexual": 5088,
      "Äłviolence": 5089,
      "ĠÄłaround": 5090,
      "respond": 5091,
      "Äłstraight": 5092,
      "ÄłDavid": 5093,
      "400": 5094,
      "Qu": 5095,
      "rates": 5096,
      "tes": 5097,
      "zing": 5098,
      "ĠÃ¢Ä¢Ä¶": 5099,
      "ĠÄłcell": 5100,
      "ĠÄłÃ¢Ä¢Äº": 5101,
      "ancing": 5102,
      "Äłcovered": 5103,
      "Äłpip": 5104,
      "Äłplease": 5105,
      "iced": 5106,
      "Äłinvent": 5107,
      "Äłmath": 5108,
      "Äłmale": 5109,
      "Äłharv": 5110,
      "Äłlanguages": 5111,
      "Äłnor": 5112,
      "otic": 5113,
      "ÄłSpec": 5114,
      "Äłstaff": 5115,
      "Äłconv": 5116,
      "ortion": 5117,
      "Äłrural": 5118,
      "Äłseed": 5119,
      "ÄłOb": 5120,
      "Äładult": 5121,
      "ĠÄłPro": 5122,
      "Äłeffectively": 5123,
      "Äłexpert": 5124,
      "Äłsecret": 5125,
      "Äłtechnique": 5126,
      "exas": 5127,
      "Äłexplained": 5128,
      "ÄłAlso": 5129,
      "Äłlesson": 5130,
      "Äłcontinuous": 5131,
      "Äłbuildings": 5132,
      "Äłamounts": 5133,
      "Äłfamiliar": 5134,
      "ÄłRepublic": 5135,
      "Our": 5136,
      "free": 5137,
      "medi": 5138,
      "pan": 5139,
      "Â¨": 5140,
      "inning": 5141,
      "Äłsect": 5142,
      "Äłsample": 5143,
      "alse": 5144,
      "Äłdivid": 5145,
      "roke": 5146,
      "Äłhorm": 5147,
      "Äłstri": 5148,
      "ams": 5149,
      "Äłyellow": 5150,
      "atever": 5151,
      "osph": 5152,
      "arts": 5153,
      "Äłnoted": 5154,
      "cium": 5155,
      "overty": 5156,
      "ĠÄłstill": 5157,
      "ĠÄłproble": 5158,
      "ĠÄłvar": 5159,
      "Äłbackground": 5160,
      "Äłorganic": 5161,
      "Äłpurposes": 5162,
      "ĠÄłcontin": 5163,
      "ÄłCommun": 5164,
      "Äłradiation": 5165,
      "Äłprimarily": 5166,
      "ĠÄłstudy": 5167,
      "Äłengineering": 5168,
      "Äłreplace": 5169,
      "Äłintroduced": 5170,
      "Äłreaction": 5171,
      "Äłalternative": 5172,
      "Äłatmosphere": 5173,
      "Äłphenomen": 5174,
      "ael": 5175,
      "Â«": 5176,
      "ĠÄłZ": 5177,
      "Äłsalt": 5178,
      "itting": 5179,
      "ste": 5180,
      "Äłlib": 5181,
      "Äłnorthern": 5182,
      "uls": 5183,
      "ÄłSte": 5184,
      "ĠÄłdown": 5185,
      "Äłshared": 5186,
      "Äłuns": 5187,
      "Äłcontrast": 5188,
      "Äłdisorder": 5189,
      "Äłworked": 5190,
      "oviet": 5191,
      "185": 5192,
      "Äłdecisions": 5193,
      "Äłdecades": 5194,
      "Äłdepends": 5195,
      "ĠÄłvis": 5196,
      "ÄłProv": 5197,
      "Äłresulting": 5198,
      "Äłfacts": 5199,
      "Äłsetting": 5200,
      "Äłindustrial": 5201,
      "Äłsuggested": 5202,
      "Äłproteins": 5203,
      "rastructure": 5204,
      "ÃĦÄ£": 5205,
      "sembly": 5206,
      "'ve": 5207,
      "RC": 5208,
      "fortunately": 5209,
      "gi": 5210,
      "ooth": 5211,
      "tic": 5212,
      "Äłtum": 5213,
      "ena": 5214,
      "Äłcognitive": 5215,
      "ittee": 5216,
      "arp": 5217,
      "roops": 5218,
      "Äłlived": 5219,
      "ado": 5220,
      "opes": 5221,
      "osc": 5222,
      "ÄłBel": 5223,
      "ÄłGovernment": 5224,
      "ÄłLatin": 5225,
      "Äłprepar": 5226,
      "ĠÄłSe": 5227,
      "187": 5228,
      "Äłhelping": 5229,
      "ĠÄłIf": 5230,
      "vironments": 5231,
      "ĠÄłsee": 5232,
      "comes": 5233,
      "ĠÄłimp": 5234,
      "Äłoperating": 5235,
      "ÄłStudents": 5236,
      "Äłdiagnosis": 5237,
      "Äłaccurate": 5238,
      "Äłsymbol": 5239,
      "nic": 5240,
      "Â¥": 5241,
      "ĠÄłlear": 5242,
      "Äłcere": 5243,
      "icks": 5244,
      "Äłhour": 5245,
      "ston": 5246,
      "celer": 5247,
      "ÄłMart": 5248,
      "ĠÄłwomen": 5249,
      "ÄłPal": 5250,
      "Äłsufficient": 5251,
      "Äłcharg": 5252,
      "ÄłDef": 5253,
      "ÄłFood": 5254,
      "Äłnotes": 5255,
      "ava": 5256,
      "rence": 5257,
      "Äłflood": 5258,
      "Äłgets": 5259,
      "Äłsets": 5260,
      "ÄłWeb": 5261,
      "Äłserved": 5262,
      "ÄłThomas": 5263,
      "Äłprotected": 5264,
      "Äłstatement": 5265,
      "Äłallowing": 5266,
      "Äłpaint": 5267,
      "Äłpromote": 5268,
      "ipped": 5269,
      "ÄłJews": 5270,
      "Äłregarding": 5271,
      "ÄłJapanese": 5272,
      "Äłvaccine": 5273,
      "Äłbeautiful": 5274,
      "Äłnutrients": 5275,
      "Äłlatest": 5276,
      "Äłmonitoring": 5277,
      "atabase": 5278,
      "ÃĥÅĥ": 5279,
      "49": 5280,
      "DF": 5281,
      "EL": 5282,
      "New": 5283,
      "RO": 5284,
      "Us": 5285,
      "band": 5286,
      "oose": 5287,
      "Äłsen": 5288,
      "Äłsand": 5289,
      "Äłsem": 5290,
      "Äłsort": 5291,
      "Äłcup": 5292,
      "Äłded": 5293,
      "Äłforward": 5294,
      "irus": 5295,
      "ÄłSu": 5296,
      "isted": 5297,
      "ivate": 5298,
      "ĠÄłoften": 5299,
      "ĠÄłfl": 5300,
      "ĠÄłhand": 5301,
      "Äłarm": 5302,
      "ĠÄłlarge": 5303,
      "Äłconsult": 5304,
      "Äłphilosop": 5305,
      "Äłexpress": 5306,
      "ĠÄłwhile": 5307,
      "Äłseek": 5308,
      "ÄłAsia": 5309,
      "Äłmuscles": 5310,
      "Äłfeelings": 5311,
      "Äłelev": 5312,
      "ÄłCentral": 5313,
      "Äłflowers": 5314,
      "Äłrecorded": 5315,
      "Äłconcerns": 5316,
      "Äłportion": 5317,
      "Äłsubstant": 5318,
      "Äłsquare": 5319,
      "Äłhorse": 5320,
      "Äławareness": 5321,
      "Äłprocedures": 5322,
      "ĠÄłsupport": 5323,
      "Äłtoxic": 5324,
      "87": 5325,
      "CO": 5326,
      "bal": 5327,
      "pat": 5328,
      "ugh": 5329,
      "well": 5330,
      "ĠJ": 5331,
      "Äłtasks": 5332,
      "Äłcore": 5333,
      "orough": 5334,
      "Äłwel": 5335,
      "Äłprices": 5336,
      "arant": 5337,
      "Äłbud": 5338,
      "Äłefficiency": 5339,
      "Äłrenew": 5340,
      "ota": 5341,
      "ÄłAir": 5342,
      "osen": 5343,
      "Äłexcellent": 5344,
      "ĠÄłcond": 5345,
      "ÄłHel": 5346,
      "ÄłDi": 5347,
      "rian": 5348,
      "ibl": 5349,
      "Äłarmy": 5350,
      "ĠÄłter": 5351,
      "ĠÄłlaw": 5352,
      "rowing": 5353,
      "Äłconservation": 5354,
      "ĠÄłThere": 5355,
      "Äłhighlight": 5356,
      "Äłgrown": 5357,
      "Äłvaluable": 5358,
      "Äłsupported": 5359,
      "ÄłNews": 5360,
      "Äłmeasured": 5361,
      "olicy": 5362,
      "Äłdiscussion": 5363,
      "Äłconcern": 5364,
      "Äłcopy": 5365,
      "Äłprocedure": 5366,
      "Äłdefinition": 5367,
      "Äłsusp": 5368,
      "Äłinterpret": 5369,
      "ÄłLearning": 5370,
      "Äłenhance": 5371,
      "Äłvictim": 5372,
      "ĠÄłresearch": 5373,
      "ÃıÄ": 5374,
      "TS": 5375,
      "Why": 5376,
      "rite": 5377,
      "rem": 5378,
      "eria": 5379,
      "Äłsounds": 5380,
      "Äłpray": 5381,
      "Äłdouble": 5382,
      "level": 5383,
      "Äłthr": 5384,
      "igation": 5385,
      "abits": 5386,
      "ÄłMem": 5387,
      "ÄłPacific": 5388,
      "osa": 5389,
      "Äłheard": 5390,
      "Äłvent": 5391,
      "ÄłRef": 5392,
      "ÄłInf": 5393,
      "Äłpret": 5394,
      "Äłbecoming": 5395,
      "186": 5396,
      "Äłhelped": 5397,
      "Äłacademic": 5398,
      "Äłsecure": 5399,
      "150": 5400,
      "ashion": 5401,
      "Äłcontinues": 5402,
      "Äłlargely": 5403,
      "Äłconflict": 5404,
      "Äłoccurred": 5405,
      "Äłinternal": 5406,
      "Äłabsorb": 5407,
      "ĠÄłstudents": 5408,
      "Äłjobs": 5409,
      "fessor": 5410,
      "ĠÄłagainst": 5411,
      "EP": 5412,
      "iate": 5413,
      "oo": 5414,
      "rant": 5415,
      "Â¿": 5416,
      "Äłtaught": 5417,
      "Äłauthors": 5418,
      "Äłhaz": 5419,
      "Äłnav": 5420,
      "ÄłToday": 5421,
      "unk": 5422,
      "Äłalgorith": 5423,
      "ĠÄłcor": 5424,
      "ĠÄłpublic": 5425,
      "ÄłEvery": 5426,
      "ibilities": 5427,
      "Äłconscious": 5428,
      "tenance": 5429,
      "Äłsubs": 5430,
      "1997": 5431,
      "Äłcompleted": 5432,
      "Äłinterested": 5433,
      "Äłaffects": 5434,
      "ÄłDevelopment": 5435,
      "risis": 5436,
      "Äłprofessor": 5437,
      "Äłestimated": 5438,
      "ocratic": 5439,
      "Äłmaximum": 5440,
      "Äłnuclear": 5441,
      "ÄłFoundation": 5442,
      "Now": 5443,
      "field": 5444,
      "ship": 5445,
      "atal": 5446,
      "atric": 5447,
      "Äłdri": 5448,
      "Äłreached": 5449,
      "Äłnaturally": 5450,
      "utrition": 5451,
      "Äłgames": 5452,
      "aying": 5453,
      "ÄłMiss": 5454,
      "ĠÄłschool": 5455,
      "Äłvast": 5456,
      "ÄłHIV": 5457,
      "ÄłData": 5458,
      "Äłkm": 5459,
      "Äłmeant": 5460,
      "Äłprem": 5461,
      "ailed": 5462,
      "ÄłStand": 5463,
      "Äłcolle": 5464,
      "ĠÄłstand": 5465,
      "ropical": 5466,
      "Äłphase": 5467,
      "Äłattrib": 5468,
      "Äłkept": 5469,
      "Äłsolid": 5470,
      "Äłelectrical": 5471,
      "ĠÄłconf": 5472,
      "ircraft": 5473,
      "arents": 5474,
      "Äłdirector": 5475,
      "ĠÄłresp": 5476,
      "Äłbiological": 5477,
      "Äłessay": 5478,
      "ĠÄłdevelopment": 5479,
      "obert": 5480,
      "Äłpictures": 5481,
      "Äłrapidly": 5482,
      "Äłpregnancy": 5483,
      "Äłeggs": 5484,
      "ioxide": 5485,
      "Äłconsequences": 5486,
      "razil": 5487,
      "'ll": 5488,
      "More": 5489,
      "ball": 5490,
      "ca": 5491,
      "vis": 5492,
      "ÄłÃ¢Ä": 5493,
      "Äłsudden": 5494,
      "itt": 5495,
      "Äłbill": 5496,
      "Äłinform": 5497,
      "Äłhun": 5498,
      "Äłlic": 5499,
      "oto": 5500,
      "otion": 5501,
      "Äłstars": 5502,
      "ÄłCourt": 5503,
      "ÄłBer": 5504,
      "Äłvary": 5505,
      "ÄłDirect": 5506,
      "agers": 5507,
      "acts": 5508,
      "Äłwealth": 5509,
      "Äłintended": 5510,
      "Äłkil": 5511,
      "Äłmanner": 5512,
      "Äłtrain": 5513,
      "Äłrelative": 5514,
      "Äłindex": 5515,
      "Äłtypical": 5516,
      "Äłmedications": 5517,
      "ĠÄłanother": 5518,
      "....": 5519,
      "Äłthoughts": 5520,
      "Äłcareer": 5521,
      "ÄłWhite": 5522,
      "being": 5523,
      "ÄłMedical": 5524,
      "Äłinitial": 5525,
      "Äłemergency": 5526,
      "ĠÄłincluding": 5527,
      "Äłstrength": 5528,
      "Äłcrucial": 5529,
      "Äłcrops": 5530,
      "ÄłService": 5531,
      "Im": 5532,
      "No": 5533,
      "cap": 5534,
      "ping": 5535,
      "rish": 5536,
      "west": 5537,
      "ĠÄłide": 5538,
      "Äłaid": 5539,
      "reci": 5540,
      "atus": 5541,
      "Äłwife": 5542,
      "Äłbag": 5543,
      "Äłbones": 5544,
      "Äłfle": 5545,
      "asters": 5546,
      "imer": 5547,
      "ÄłSub": 5548,
      "ads": 5549,
      "ÄłMal": 5550,
      "Äłrul": 5551,
      "ÄłFore": 5552,
      "ÄłRem": 5553,
      "ÄłLife": 5554,
      "ĠÄłnear": 5555,
      "Äłprefer": 5556,
      "ĠÄłgl": 5557,
      "weight": 5558,
      "ÄłVol": 5559,
      "ĠÄłright": 5560,
      "Äłpotentially": 5561,
      "Äłimproved": 5562,
      "Äłcertainly": 5563,
      "Äłmotion": 5564,
      "Äłappearance": 5565,
      "Äłmathemat": 5566,
      "Äłmorning": 5567,
      "Äłencourage": 5568,
      "ÄłUsing": 5569,
      "Äłinstitutions": 5570,
      "55": 5571,
      "DC": 5572,
      "HO": 5573,
      "chers": 5574,
      "nership": 5575,
      "Ġa": 5576,
      "ĠÄłel": 5577,
      "ĠÄłocc": 5578,
      "inf": 5579,
      "Äłaqu": 5580,
      "onn": 5581,
      "Äłsend": 5582,
      "Äłcamer": 5583,
      "Äłpieces": 5584,
      "Äłband": 5585,
      "Äłmel": 5586,
      "Äłmort": 5587,
      "roc": 5588,
      "ameter": 5589,
      "adian": 5590,
      "ÄłMr": 5591,
      "ÄłMil": 5592,
      "Äłcomment": 5593,
      "ÄłBas": 5594,
      "ĠÄłcalled": 5595,
      "Äłvulner": 5596,
      "Äłcomprehens": 5597,
      "ÄłJer": 5598,
      "Äłappoint": 5599,
      "ĠÄłwithout": 5600,
      "Äłexpensive": 5601,
      "Äłassign": 5602,
      "Äłflat": 5603,
      "ĠÄłWe": 5604,
      "Äłparticles": 5605,
      "Äłextent": 5606,
      "Äłtested": 5607,
      "Äłdrink": 5608,
      "Äładvice": 5609,
      "cribed": 5610,
      "ÄłClass": 5611,
      "Äłoperation": 5612,
      "Äłconstant": 5613,
      "Äłfacilities": 5614,
      "ĠÄłclass": 5615,
      "Äłproposed": 5616,
      "going": 5617,
      "98": 5618,
      "Pl": 5619,
      "inder": 5620,
      "Äłsick": 5621,
      "ishes": 5622,
      "Äłcounter": 5623,
      "alks": 5624,
      "aria": 5625,
      "ician": 5626,
      "Äłdiversity": 5627,
      "imize": 5628,
      "ÄłTur": 5629,
      "ÄłAI": 5630,
      "abul": 5631,
      "ÄłBC": 5632,
      "Äłvoice": 5633,
      "ÄłRel": 5634,
      "ÄłGroup": 5635,
      "aker": 5636,
      "Äłplays": 5637,
      "rowth": 5638,
      "Äłagg": 5639,
      "Äłtrial": 5640,
      "Äłproducing": 5641,
      "ventions": 5642,
      "ventional": 5643,
      "Äłattacks": 5644,
      "ĠÄłprot": 5645,
      "Äłsimpl": 5646,
      "Äłdiscovery": 5647,
      "Äłbelong": 5648,
      "print": 5649,
      "Äłconfirm": 5650,
      "ĠÄłplace": 5651,
      "Äłinvolve": 5652,
      "ployment": 5653,
      "Äłbrother": 5654,
      "rison": 5655,
      "Äłclearly": 5656,
      "Äłmotor": 5657,
      "itudes": 5658,
      "Äłperspective": 5659,
      "Äłchemicals": 5660,
      "Äłliterature": 5661,
      "Äłhyper": 5662,
      "Äłhabitat": 5663,
      "ÄłVirgin": 5664,
      "94": 5665,
      "down": 5666,
      "fall": 5667,
      "iated": 5668,
      "oom": 5669,
      "rons": 5670,
      "Â¶": 5671,
      "Ã¡": 5672,
      "heast": 5673,
      "Äłtherm": 5674,
      "Äłfaster": 5675,
      "Äłmix": 5676,
      "Äłdiverse": 5677,
      "Äłliver": 5678,
      "idity": 5679,
      "irds": 5680,
      "abil": 5681,
      "aining": 5682,
      "akers": 5683,
      "ormally": 5684,
      "inds": 5685,
      "ĠÄłne": 5686,
      "ĠÄłreal": 5687,
      "ĠÄłAd": 5688,
      "Äłroots": 5689,
      "Äłhelpful": 5690,
      "Äładding": 5691,
      "Äłremained": 5692,
      "Äłcenturies": 5693,
      "Äłshel": 5694,
      "ĠÄłconst": 5695,
      "Äłdeliver": 5696,
      "Äłinternet": 5697,
      "Äłchallenge": 5698,
      "Äłmassive": 5699,
      "ASA": 5700,
      "ministr": 5701,
      "ĠÄłUniversity": 5702,
      "Äłinflammation": 5703,
      "Sp": 5704,
      "gu": 5705,
      "gment": 5706,
      "las": 5707,
      "pen": 5708,
      "rus": 5709,
      "rors": 5710,
      "ona": 5711,
      "Äłwet": 5712,
      "eding": 5713,
      "Äłpoverty": 5714,
      "Äłinput": 5715,
      "ctor": 5716,
      "Äłreb": 5717,
      "ola": 5718,
      "olf": 5719,
      "usal": 5720,
      "tery": 5721,
      "estions": 5722,
      "ÄłBay": 5723,
      "ĠÄłsince": 5724,
      "ÄłHuman": 5725,
      "ĠÄłmem": 5726,
      "ĠÄłgu": 5727,
      "ĠÄłAmerican": 5728,
      "lected": 5729,
      "icken": 5730,
      "ĠÄłarea": 5731,
      "Äłsmart": 5732,
      "Äłtransl": 5733,
      "Äłleader": 5734,
      "Äłdistrict": 5735,
      "Äłshowing": 5736,
      "ĠÄłchange": 5737,
      "Äłsomew": 5738,
      "ÄłTherefore": 5739,
      "afe": 5740,
      "Äłfilter": 5741,
      "Äłletter": 5742,
      "1970": 5743,
      "Äłrelevant": 5744,
      "Äłrecognition": 5745,
      "ĠÄłcommon": 5746,
      "Äłinfluen": 5747,
      "Äłlooks": 5748,
      "Äłreligion": 5749,
      "Äłcomponent": 5750,
      "Äłmanufacture": 5751,
      "olitical": 5752,
      "Äłgovernments": 5753,
      "Äłguidelines": 5754,
      "Äłsituations": 5755,
      "BC": 5756,
      "burg": 5757,
      "dent": 5758,
      "uber": 5759,
      "Â£": 5760,
      "ini": 5761,
      "Äłsong": 5762,
      "Äłod": 5763,
      "ener": 5764,
      "Äłcast": 5765,
      "Äłwaters": 5766,
      "Äłbow": 5767,
      "olute": 5768,
      "uts": 5769,
      "ÄłTexas": 5770,
      "unte": 5771,
      "Äłstated": 5772,
      "iest": 5773,
      "ÄłMat": 5774,
      "ÄłMicro": 5775,
      "Äłheight": 5776,
      "ÄłBoth": 5777,
      "ocation": 5778,
      "ĠÄłmen": 5779,
      "Äłnotice": 5780,
      "ĠÄłdel": 5781,
      "ĠÄłdata": 5782,
      "Äłspeaking": 5783,
      "Äłresidents": 5784,
      "Äłstudied": 5785,
      "ÄłIts": 5786,
      "Äłroll": 5787,
      "Äłchildhood": 5788,
      "Äłprison": 5789,
      "ĠÄłwithin": 5790,
      "Äłscen": 5791,
      "Äłassistance": 5792,
      "Äłinsp": 5793,
      "1999": 5794,
      "ÄłCancer": 5795,
      "Äłfocused": 5796,
      "idden": 5797,
      "Äłerror": 5798,
      "Äłindicate": 5799,
      "Äłclosely": 5800,
      "Äłfruits": 5801,
      "Äłlifest": 5802,
      "66": 5803,
      "Ab": 5804,
      "CT": 5805,
      "En": 5806,
      "IL": 5807,
      "ION": 5808,
      "Other": 5809,
      "den": 5810,
      "normal": 5811,
      "ĠÄłve": 5812,
      "inet": 5813,
      "Äłwave": 5814,
      "Äłwalls": 5815,
      "Äłfif": 5816,
      "Äłfoss": 5817,
      "Äłfiber": 5818,
      "Äłdro": 5819,
      "leg": 5820,
      "Äłhospital": 5821,
      "Äłeast": 5822,
      "Äłgun": 5823,
      "Äłstone": 5824,
      "Äłpromin": 5825,
      "Äłoral": 5826,
      "abric": 5827,
      "ÄłPe": 5828,
      "pping": 5829,
      "ĠÄłset": 5830,
      "ĠÄłpract": 5831,
      "Äłvital": 5832,
      "Äłrandom": 5833,
      "ĠÄłdirect": 5834,
      "action": 5835,
      "rue": 5836,
      "ĠÄłtr": 5837,
      "2018": 5838,
      "Äłagencies": 5839,
      "erman": 5840,
      "Äłdepth": 5841,
      "ĠÄłexample": 5842,
      "roduct": 5843,
      "Äłplayed": 5844,
      "Äłplaying": 5845,
      "Äłidentity": 5846,
      "Äłengage": 5847,
      "Äłinterests": 5848,
      "1980": 5849,
      "Äłopened": 5850,
      "Äłfluid": 5851,
      "Äłtouch": 5852,
      "ih": 5853,
      "yro": 5854,
      "Ġ8": 5855,
      "Ġw": 5856,
      "inations": 5857,
      "Äłpul": 5858,
      "arks": 5859,
      "asy": 5860,
      "Äłliquid": 5861,
      "Äłnarr": 5862,
      "uty": 5863,
      "uting": 5864,
      "ÄłSen": 5865,
      "ÄłCivil": 5866,
      "ÄłMake": 5867,
      "ĠÄłfew": 5868,
      "ĠÄłfamily": 5869,
      "Äłchain": 5870,
      "ĠÄłins": 5871,
      "riend": 5872,
      "ĠÄłmight": 5873,
      "Äłselection": 5874,
      "Äłkill": 5875,
      "aven": 5876,
      "Äłallerg": 5877,
      "ĠÄłret": 5878,
      "luding": 5879,
      "Äłrecy": 5880,
      "jects": 5881,
      "ÄłVis": 5882,
      "Äłgender": 5883,
      "Äłdecade": 5884,
      "Äłinfrastructure": 5885,
      "ĠÄłEng": 5886,
      "1995": 5887,
      "Äłdriving": 5888,
      "ÄłQue": 5889,
      "ÄłCommission": 5890,
      "cules": 5891,
      "Äłinvestment": 5892,
      "ÄłStudies": 5893,
      "Äłfundamental": 5894,
      "Äłpreviously": 5895,
      "Äłsurrounding": 5896,
      "Äłbegins": 5897,
      "BN": 5898,
      "CS": 5899,
      "lers": 5900,
      "uzz": 5901,
      "inity": 5902,
      "Äłsed": 5903,
      "ingly": 5904,
      "stream": 5905,
      "irt": 5906,
      "ÄłSam": 5907,
      "Äłaren": 5908,
      "emper": 5909,
      "Äłchann": 5910,
      "ÄłDel": 5911,
      "ÄłDist": 5912,
      "Äłenvironments": 5913,
      "ÄłLa": 5914,
      "elled": 5915,
      "oseph": 5916,
      "luded": 5917,
      "Äłoffered": 5918,
      "ĠÄłPh": 5919,
      "Äłfollows": 5920,
      "Äłgrade": 5921,
      "Äłexplains": 5922,
      "ÄłSpace": 5923,
      "Äłopposite": 5924,
      "ĠÄłperiod": 5925,
      "Äłmeeting": 5926,
      "Äłsubstance": 5927,
      "ĠÄłindividual": 5928,
      "Äłmillions": 5929,
      "ÄłRussia": 5930,
      "Äłfigures": 5931,
      "ÄłOffice": 5932,
      "Cl": 5933,
      "bed": 5934,
      "cher": 5935,
      "flow": 5936,
      "ked": 5937,
      "mic": 5938,
      "ville": 5939,
      "word": 5940,
      "Ä´": 5941,
      "Ġre": 5942,
      "indu": 5943,
      "Äłaer": 5944,
      "ania": 5945,
      "orter": 5946,
      "Äłpick": 5947,
      "Äłpush": 5948,
      "Äłbus": 5949,
      "Äłfelt": 5950,
      "Äłmuseum": 5951,
      "under": 5952,
      "ÄłST": 5953,
      "eling": 5954,
      "ategy": 5955,
      "ums": 5956,
      "ĠÄłpass": 5957,
      "ĠÄłbo": 5958,
      "ĠÄłindu": 5959,
      "ÄłGra": 5960,
      "Äłunf": 5961,
      "ipal": 5962,
      "Äłcontem": 5963,
      "teen": 5964,
      "ribution": 5965,
      "Äłdecide": 5966,
      "ĠÄłorder": 5967,
      "Äłformat": 5968,
      "Äłformal": 5969,
      "ĠÄłRes": 5970,
      "Äłdepos": 5971,
      "Äłexplan": 5972,
      "Äłcurric": 5973,
      "Äłstrategy": 5974,
      "Äłpossibly": 5975,
      "Äłcapable": 5976,
      "Äłmovements": 5977,
      "atching": 5978,
      "riminal": 5979,
      "Äłcombined": 5980,
      "Äłresponsibility": 5981,
      "Äłfailed": 5982,
      "Äłsuffering": 5983,
      "ascular": 5984,
      "Äłcouple": 5985,
      "Äłultimately": 5986,
      "igenous": 5987,
      ".|": 5988,
      "OS": 5989,
      "rine": 5990,
      "uilt": 5991,
      "Äłly": 5992,
      "erals": 5993,
      "arrow": 5994,
      "ario": 5995,
      "Äłban": 5996,
      "Äłmoon": 5997,
      "aser": 5998,
      "Äłnurs": 5999,
      "ÄłTest": 6000,
      "ÄłArab": 6001,
      "Äłstock": 6002,
      "throp": 6003,
      "Äłexternal": 6004,
      "ĠÄłca": 6005,
      "ĠÄłcase": 6006,
      "ĠÄłcertain": 6007,
      "ĠÄłprom": 6008,
      "ÄłFlor": 6009,
      "ÄłNASA": 6010,
      "ĠÄłlow": 6011,
      "Äłju": 6012,
      "Äłconsists": 6013,
      "Äłraised": 6014,
      "Äłobtained": 6015,
      "Äłemail": 6016,
      "Äłinfected": 6017,
      "Äłhealthcare": 6018,
      "Äłinstall": 6019,
      "Äłpurs": 6020,
      "ecessary": 6021,
      "ÄłConf": 6022,
      "Äłtruly": 6023,
      "Äłsaying": 6024,
      "Äłmarriage": 6025,
      "Äłletters": 6026,
      "ÄłMedicine": 6027,
      "ÄłAbout": 6028,
      "ĠÄłbetter": 6029,
      "ĠÄłUnited": 6030,
      "ÄłSocial": 6031,
      "Äłcredit": 6032,
      "Äłintelligence": 6033,
      "Äłprofessionals": 6034,
      "42": 6035,
      "46": 6036,
      "92": 6037,
      "RA": 6038,
      "].": 6039,
      "born": 6040,
      "col": 6041,
      "lam": 6042,
      "mat": 6043,
      "nam": 6044,
      "rass": 6045,
      "ĠÄłthings": 6046,
      "Äłapart": 6047,
      "ano": 6048,
      "Äłchem": 6049,
      "itter": 6050,
      "itage": 6051,
      "orne": 6052,
      "Äłflex": 6053,
      "icide": 6054,
      "state": 6055,
      "stood": 6056,
      "ulin": 6057,
      "ÄłSal": 6058,
      "Äłstem": 6059,
      "ÄłMet": 6060,
      "Äłleaving": 6061,
      "ÄłNature": 6062,
      "Äłsports": 6063,
      "Äłsharing": 6064,
      "ÄłLabor": 6065,
      "Äłabund": 6066,
      "Äłincl": 6067,
      "ĠÄłequ": 6068,
      "ÄłKore": 6069,
      "phone": 6070,
      "ifications": 6071,
      "Äłpron": 6072,
      "Äłformation": 6073,
      "Äłworldwide": 6074,
      "Äłrefers": 6075,
      "Äłdiscrim": 6076,
      "Äłelectronic": 6077,
      "Äładvance": 6078,
      "Äłvisible": 6079,
      "Äłslightly": 6080,
      "Äłimproving": 6081,
      "cribe": 6082,
      "ĠÄłplan": 6083,
      "Äłbrings": 6084,
      "ĠÄłknown": 6085,
      "Äłtopics": 6086,
      "afety": 6087,
      "ÄłSea": 6088,
      "Äłbusinesses": 6089,
      "ÄłBritain": 6090,
      "Äłconcepts": 6091,
      "Äłreturned": 6092,
      "ING": 6093,
      "Äłvehicles": 6094,
      "Äłvegetables": 6095,
      "Äłsatis": 6096,
      "ÄłSmith": 6097,
      "ÄłGoogle": 6098,
      "Äłagricultural": 6099,
      "ĠÄłsmall": 6100,
      "Med": 6101,
      "Most": 6102,
      "bran": 6103,
      "break": 6104,
      "press": 6105,
      "orrow": 6106,
      "Äłpil": 6107,
      "Äłpump": 6108,
      "Äłdial": 6109,
      "Äłdental": 6110,
      "Äłdoll": 6111,
      "Äłneck": 6112,
      "etwork": 6113,
      "ÄłTwo": 6114,
      "anda": 6115,
      "ushed": 6116,
      "ÄłSupp": 6117,
      "isting": 6118,
      "Äłwhom": 6119,
      "umes": 6120,
      "ĠÄłsym": 6121,
      "ĠÄłsocial": 6122,
      "ĠÄłprop": 6123,
      "ĠÄłbest": 6124,
      "Äłcharge": 6125,
      "ÄłEastern": 6126,
      "ÄłFederal": 6127,
      "ÄłRetrieved": 6128,
      "ĠÄłmet": 6129,
      "ĠÄłmajor": 6130,
      "earing": 6131,
      "active": 6132,
      "ÄłOut": 6133,
      "teg": 6134,
      "ritten": 6135,
      "Äłblog": 6136,
      "ĠÄłyear": 6137,
      "Äłschem": 6138,
      "ĠÄłareas": 6139,
      "Äłcars": 6140,
      "Äłfoundation": 6141,
      "ĠÄłDe": 6142,
      "Äłgenerated": 6143,
      "Äłgoods": 6144,
      "Äłgreatest": 6145,
      "Äłfinally": 6146,
      "Äłinvolving": 6147,
      "Äłbird": 6148,
      "Äłpolitics": 6149,
      "Äłcircum": 6150,
      "prove": 6151,
      "Äłnetworks": 6152,
      "ĠÄłcommun": 6153,
      "Äłindicates": 6154,
      "Äłrevolution": 6155,
      "ÄłSecond": 6156,
      "Äłlaboratory": 6157,
      "Äłofficials": 6158,
      "havior": 6159,
      "Äłmoist": 6160,
      "Äłingred": 6161,
      "UN": 6162,
      "but": 6163,
      "cest": 6164,
      "from": 6165,
      "Â´": 6166,
      "ĠThis": 6167,
      "Äłurg": 6168,
      "inction": 6169,
      "ita": 6170,
      "Äłwestern": 6171,
      "Äłpp": 6172,
      "arn": 6173,
      "Äłfashion": 6174,
      "Äłmaster": 6175,
      "asive": 6176,
      "Äłla": 6177,
      "Äłnit": 6178,
      "Äłnations": 6179,
      "etry": 6180,
      "cel": 6181,
      "utive": 6182,
      "ÄłTw": 6183,
      "ÄłAN": 6184,
      "Äłstored": 6185,
      "ÄłMa": 6186,
      "ĠÄłserv": 6187,
      "ÄłWell": 6188,
      "Äłrough": 6189,
      "ÄłFurther": 6190,
      "ÄłRobert": 6191,
      "Äłspend": 6192,
      "ÄłLike": 6193,
      "Äłdisapp": 6194,
      "ĠÄłCon": 6195,
      "Äłinstruction": 6196,
      "Äłtechnical": 6197,
      "ports": 6198,
      "Äłecosystem": 6199,
      "Äłdownload": 6200,
      "Äłlooked": 6201,
      "ĠÄłshow": 6202,
      "ÄłClin": 6203,
      "Äłperiods": 6204,
      "ÄłEnvironmental": 6205,
      "ipping": 6206,
      "ĠÄłparticular": 6207,
      "olester": 6208,
      "Another": 6209,
      "Äłachieved": 6210,
      "Äłinjuries": 6211,
      "Äłwildlife": 6212,
      "Äłburning": 6213,
      "levision": 6214,
      "Äłhundreds": 6215,
      "Äłcontrolled": 6216,
      "ÄłMuslim": 6217,
      "Äłmobile": 6218,
      "ÄłInstead": 6219,
      "05": 6220,
      "43": 6221,
      "Do": 6222,
      "Te": 6223,
      "VID": 6224,
      "comp": 6225,
      "ka": 6226,
      "rd": 6227,
      "ua": 6228,
      "wer": 6229,
      "yth": 6230,
      "yles": 6231,
      "Ġ12": 6232,
      "Ġ000": 6233,
      "Äłu": 6234,
      "Äłaircraft": 6235,
      "esity": 6236,
      "isp": 6237,
      "orse": 6238,
      "aracter": 6239,
      "Äłbrown": 6240,
      "Äłinhib": 6241,
      "Äłdensity": 6242,
      "Äłdioxide": 6243,
      "sts": 6244,
      "ÄłTHE": 6245,
      "ellect": 6246,
      "ÄłIN": 6247,
      "osh": 6248,
      "ÄłBook": 6249,
      "ĠÄłpot": 6250,
      "Äłchapter": 6251,
      "Äłrub": 6252,
      "riers": 6253,
      "Äłenable": 6254,
      "Äłworse": 6255,
      "Äłknew": 6256,
      "Äłdiscipl": 6257,
      "ĠÄłlast": 6258,
      "ĠÄłlater": 6259,
      "Äłapparent": 6260,
      "lectric": 6261,
      "Äłagency": 6262,
      "Äłtransmission": 6263,
      "Äłlessons": 6264,
      "Äłgreatly": 6265,
      "Äłcorrespond": 6266,
      "Äłprogramming": 6267,
      "Äłprevention": 6268,
      "Äłfiles": 6269,
      "Äłdescribe": 6270,
      "Äłdescribes": 6271,
      "ĠÄłappro": 6272,
      "ivalent": 6273,
      "Äłdocuments": 6274,
      "Äłforests": 6275,
      "Äłdomestic": 6276,
      "Äłmountain": 6277,
      "allel": 6278,
      "Äłinstrument": 6279,
      "Äłcandid": 6280,
      "DP": 6281,
      "bi": 6282,
      "ivery": 6283,
      "know": 6284,
      "long": 6285,
      "mark": 6286,
      "pread": 6287,
      "tra": 6288,
      "zen": 6289,
      "Â®": 6290,
      "Ä¯": 6291,
      "Äłtried": 6292,
      "Äłsin": 6293,
      "Äłsides": 6294,
      "Äłcrow": 6295,
      "Äłcook": 6296,
      "Äłwitness": 6297,
      "ione": 6298,
      "Äłlose": 6299,
      "Äłlibrary": 6300,
      "olt": 6301,
      "ÄłSum": 6302,
      "that": 6303,
      "ÄłMor": 6304,
      "anta": 6305,
      "ĠÄłfind": 6306,
      "ÄłDem": 6307,
      "ÄłRich": 6308,
      "Äłbutter": 6309,
      "Äłexpressed": 6310,
      "Äłregional": 6311,
      "Äłflo": 6312,
      "1992": 6313,
      "Äłtreatments": 6314,
      "Äłserver": 6315,
      "ĠÄłleft": 6316,
      "Äłnecessarily": 6317,
      "ĠÄłStates": 6318,
      "Äłcontaining": 6319,
      "Äłsuffer": 6320,
      "Äłgreenhouse": 6321,
      "Äłtransportation": 6322,
      "Äłrevealed": 6323,
      "Äłprecise": 6324,
      "igrants": 6325,
      "Äłgirls": 6326,
      "Äłjourney": 6327,
      "OT": 6328,
      "craft": 6329,
      "kes": 6330,
      "uro": 6331,
      "onal": 6332,
      "Äłwants": 6333,
      "Äłfirm": 6334,
      "icious": 6335,
      "icago": 6336,
      "Äłmit": 6337,
      "ompl": 6338,
      "ÄłAlex": 6339,
      "Äłstation": 6340,
      "ÄłCatholic": 6341,
      "Äłpros": 6342,
      "Äłexchange": 6343,
      "ÄłWind": 6344,
      "Äłrivers": 6345,
      "Äłunable": 6346,
      "ineering": 6347,
      "ultural": 6348,
      "Äłintake": 6349,
      "Äłneut": 6350,
      "reating": 6351,
      "hered": 6352,
      "ritical": 6353,
      "plex": 6354,
      "Äłrace": 6355,
      "oves": 6356,
      "Äłunderlying": 6357,
      "Äłproduces": 6358,
      "Äłsettle": 6359,
      "cientists": 6360,
      "Äłrising": 6361,
      "ĠÄłOn": 6362,
      "Äłmarked": 6363,
      "Äłhappened": 6364,
      "ĠÄłresult": 6365,
      "Äłcircuit": 6366,
      "Äłwindow": 6367,
      "olesc": 6368,
      "ÄłStudy": 6369,
      "holders": 6370,
      "Äłcollected": 6371,
      "ÄłCompany": 6372,
      "Äłdecrease": 6373,
      "Äłbreathing": 6374,
      "Äłcloser": 6375,
      "Äłdivided": 6376,
      "41": 6377,
      "how": 6378,
      "kins": 6379,
      "Ã£": 6380,
      "ĠO": 6381,
      "Ġn": 6382,
      "isters": 6383,
      "Äłcle": 6384,
      "Äłpig": 6385,
      "Äłmarg": 6386,
      "omic": 6387,
      "omach": 6388,
      "igital": 6389,
      "ÄłSoviet": 6390,
      "Äłonto": 6391,
      "Äłyouth": 6392,
      "ÄłBrazil": 6393,
      "ĠÄłcurrent": 6394,
      "ocra": 6395,
      "ÄłHenry": 6396,
      "ĠÄłmus": 6397,
      "ĠÄłdi": 6398,
      "ruit": 6399,
      "rying": 6400,
      "Äłcloud": 6401,
      "ĠÄłrest": 6402,
      "Äłoutcomes": 6403,
      "Äłappreci": 6404,
      "ĠÄłgovernment": 6405,
      "Äłcolour": 6406,
      "Äłrail": 6407,
      "Äłraise": 6408,
      "oven": 6409,
      "Äłgrid": 6410,
      "Äłrepresents": 6411,
      "cycl": 6412,
      "ĠÄłThese": 6413,
      "Äłattached": 6414,
      "Äłfloor": 6415,
      "Ġ://": 6416,
      "ĠÄłorgan": 6417,
      "hips": 6418,
      "Äłgenerate": 6419,
      "Äłleadership": 6420,
      "idespread": 6421,
      "Äłoccasion": 6422,
      "Äłpossess": 6423,
      "Äłsupporting": 6424,
      "Äłbright": 6425,
      "Äłyounger": 6426,
      "Äłdetermined": 6427,
      "Äłrecognize": 6428,
      "Äłmachines": 6429,
      "Äłremaining": 6430,
      "Äłconsistent": 6431,
      "ÄłCharles": 6432,
      "ĠÄłsecond": 6433,
      "Äłdoubt": 6434,
      "ught": 6435,
      "olesterol": 6436,
      "DS": 6437,
      "body": 6438,
      "lines": 6439,
      "Äłsell": 6440,
      "Äłsamples": 6441,
      "Äłwid": 6442,
      "Äłbrief": 6443,
      "stries": 6444,
      "Äłreject": 6445,
      "Äłlatter": 6446,
      "etics": 6447,
      "Äłgal": 6448,
      "Äłgall": 6449,
      "ÄłAccess": 6450,
      "emia": 6451,
      "uma": 6452,
      "Äłhel": 6453,
      "ivated": 6454,
      "ÄłBro": 6455,
      "ÄłEss": 6456,
      "earchers": 6457,
      "ÄłGet": 6458,
      "uality": 6459,
      "ĠÄłland": 6460,
      "obe": 6461,
      "Äłages": 6462,
      "Äłaccident": 6463,
      "Äłacceler": 6464,
      "ÄłAnother": 6465,
      "Äłobst": 6466,
      "Äłsubsequ": 6467,
      "ĠÄłproper": 6468,
      "Äłformula": 6469,
      "Äłinterview": 6470,
      "Äłpolice": 6471,
      "ĠÄłWh": 6472,
      "Äłmedium": 6473,
      "Äłarticles": 6474,
      "Äłinsurance": 6475,
      "1996": 6476,
      "ĠÄłchild": 6477,
      "ÄłArmy": 6478,
      "azing": 6479,
      "Äłcourses": 6480,
      "ÄłAdd": 6481,
      "Äłlimits": 6482,
      "Äłcreates": 6483,
      "Äłimpacts": 6484,
      "posal": 6485,
      "Äłswitch": 6486,
      "ĠÄłpercent": 6487,
      "Äłdeaths": 6488,
      "ĠÄłChrist": 6489,
      "Äłphotos": 6490,
      "Äłanswers": 6491,
      "ÄłCarol": 6492,
      "ÄłManagement": 6493,
      "Äłsteel": 6494,
      "Äłlinked": 6495,
      "Äłaccepted": 6496,
      "Äłharmful": 6497,
      "ÄłGlobal": 6498,
      "Äłmanufacturing": 6499,
      "istorical": 6500,
      "iotics": 6501,
      "Äłlandscape": 6502,
      "Äłroutine": 6503,
      "Äłstruggle": 6504,
      "Äłscholars": 6505,
      "59": 6506,
      "68": 6507,
      "During": 6508,
      "From": 6509,
      "auc": 6510,
      "gest": 6511,
      "lig": 6512,
      "mes": 6513,
      "pet": 6514,
      "uh": 6515,
      "win": 6516,
      "ĠK": 6517,
      "Äłtail": 6518,
      "reland": 6519,
      "erally": 6520,
      "iti": 6521,
      "Äłbath": 6522,
      "Äłdin": 6523,
      "stract": 6524,
      "omething": 6525,
      "Äłnerve": 6526,
      "etime": 6527,
      "imental": 6528,
      "igue": 6529,
      "ÄłAp": 6530,
      "amine": 6531,
      "achers": 6532,
      "umps": 6533,
      "ÄłBible": 6534,
      "ÄłBudd": 6535,
      "ĠÄłpres": 6536,
      "ÄłWomen": 6537,
      "Äłchief": 6538,
      "ĠÄłmaterial": 6539,
      "ÄłGood": 6540,
      "dule": 6541,
      "Äłimper": 6542,
      "Äłkn": 6543,
      "Äłotherwise": 6544,
      "ishment": 6545,
      "ublished": 6546,
      "ĠÄłiss": 6547,
      "ĠÄłSp": 6548,
      "ÄłStreet": 6549,
      "ĠÄłAll": 6550,
      "Äłrecovery": 6551,
      "Äłaccum": 6552,
      "Äłacts": 6553,
      "Äłregulations": 6554,
      "ĠÄłproduct": 6555,
      "ĠÄłWhen": 6556,
      "ĠÄłEx": 6557,
      "Äłdistingu": 6558,
      "apping": 6559,
      "Äłdefense": 6560,
      "ĠÄłalong": 6561,
      "ĠÄłseveral": 6562,
      "Äłinsert": 6563,
      "1994": 6564,
      "ohyd": 6565,
      "Äłreduction": 6566,
      "Äłbroken": 6567,
      "Äłsensitive": 6568,
      "ÄłTechnology": 6569,
      "Äłrecognized": 6570,
      "Äłauthority": 6571,
      "Äłargument": 6572,
      "ÄłAgricult": 6573,
      "Äłimplementation": 6574,
      "Äłselected": 6575,
      "ÄłFranc": 6576,
      "Äłtitle": 6577,
      "ÄłKeep": 6578,
      "Äłfertil": 6579,
      "ĠÄłHowever": 6580,
      "Äłcurriculum": 6581,
      "CR": 6582,
      "Comp": 6583,
      "ML": 6584,
      "bra": 6585,
      "called": 6586,
      "eper": 6587,
      "Âª": 6588,
      "Ġ9": 6589,
      "Ġe": 6590,
      "Äłtiny": 6591,
      "ĠÄłant": 6592,
      "ĠÄłhere": 6593,
      "ĠÄłeng": 6594,
      "rey": 6595,
      "itted": 6596,
      "Äłwww": 6597,
      "Äłble": 6598,
      "Äłfly": 6599,
      "Äłdust": 6600,
      "Äłthin": 6601,
      "ented": 6602,
      "stone": 6603,
      "Äłepid": 6604,
      "Äłlinks": 6605,
      "Äłbear": 6606,
      "igher": 6607,
      "andon": 6608,
      "ÄłAS": 6609,
      "ÄłSk": 6610,
      "ÄłSuch": 6611,
      "Äłstages": 6612,
      "iform": 6613,
      "Äłproport": 6614,
      "istent": 6615,
      "ocabul": 6616,
      "ude": 6617,
      "ĠÄłbody": 6618,
      "ÄłEth": 6619,
      "ĠÄłmove": 6620,
      "ÄłNor": 6621,
      "Äłspaces": 6622,
      "agram": 6623,
      "Äłplate": 6624,
      "1960": 6625,
      "ĠÄłtreatment": 6626,
      "Äłsyn": 6627,
      "ervous": 6628,
      "Äłaccompl": 6629,
      "Äłregul": 6630,
      "Äłsmooth": 6631,
      "Äłseeing": 6632,
      "Äłrespir": 6633,
      "ĠÄłview": 6634,
      "Äłmaintenance": 6635,
      "Äłelectron": 6636,
      "Äłapproaches": 6637,
      "ĠÄłallow": 6638,
      "Äłpreventing": 6639,
      "ÄłColumb": 6640,
      "Äłchoices": 6641,
      "Äłcritic": 6642,
      "Äłera": 6643,
      "Äłaccounts": 6644,
      "Ġ\".": 6645,
      "Äłfarming": 6646,
      "Äłsubstances": 6647,
      "ĠÄłinterest": 6648,
      "ĠÄłblood": 6649,
      "Äłestimates": 6650,
      "ĠÄłbecome": 6651,
      "Äłcardi": 6652,
      "Äłprinciple": 6653,
      "Äłlifestyle": 6654,
      "ocabulary": 6655,
      "51": 6656,
      "57": 6657,
      "bably": 6658,
      "eh": 6659,
      "mary": 6660,
      "top": 6661,
      "uke": 6662,
      "wing": 6663,
      "zed": 6664,
      "ĠÃ¢Ä¢Ä¾": 6665,
      "Äłaf": 6666,
      "Äłsnow": 6667,
      "Äłfill": 6668,
      "Äłfell": 6669,
      "Äłmere": 6670,
      "ifts": 6671,
      "ÄłPers": 6672,
      "ĠÄłpossible": 6673,
      "ÄłHome": 6674,
      "ÄłWik": 6675,
      "Äłunknown": 6676,
      "akistan": 6677,
      "ruption": 6678,
      "1950": 6679,
      "Äłkit": 6680,
      "Äłcompounds": 6681,
      "ĠÄłlook": 6682,
      "Äłaccomp": 6683,
      "Äłdespite": 6684,
      "olds": 6685,
      "Äłphone": 6686,
      "Äłphosph": 6687,
      "ÄłAny": 6688,
      "Äłregist": 6689,
      "Äłsupplement": 6690,
      "Äłflight": 6691,
      "Äłcalls": 6692,
      "Äłentry": 6693,
      "Äłboost": 6694,
      "Äłsolve": 6695,
      "iodiversity": 6696,
      "ĠÄłrun": 6697,
      "Äłcarefully": 6698,
      "coming": 6699,
      "Äłbrush": 6700,
      "Äłbeneficial": 6701,
      "ÄłAtl": 6702,
      "Äłmarine": 6703,
      "ĠÄłupon": 6704,
      "Äłintroduction": 6705,
      "Äłclaims": 6706,
      "Äłconcrete": 6707,
      "Äłmechanisms": 6708,
      "ĠÄłamong": 6709,
      "ĠÄłprovide": 6710,
      "Äłsatell": 6711,
      "ĠÄłearly": 6712,
      "Äłinstructions": 6713,
      "Äłterritory": 6714,
      "Äłrepeated": 6715,
      "Äłphilosophy": 6716,
      "ÄłFlorida": 6717,
      "bur": 6718,
      "draw": 6719,
      "gans": 6720,
      "mas": 6721,
      "Ġand": 6722,
      "ÄłÃİ": 6723,
      "ĠÄłes": 6724,
      "health": 6725,
      "onia": 6726,
      "Äłcrisis": 6727,
      "arl": 6728,
      "Äłthorough": 6729,
      "Äłhabits": 6730,
      "cture": 6731,
      "stances": 6732,
      "sey": 6733,
      "imm": 6734,
      "othe": 6735,
      "igious": 6736,
      "usband": 6737,
      "ÄłSciences": 6738,
      "Äłstable": 6739,
      "Äłstring": 6740,
      "ociety": 6741,
      "ÄłWild": 6742,
      "ÄłDiv": 6743,
      "ÄłFin": 6744,
      "ÄłLeg": 6745,
      "Äłabuse": 6746,
      "izer": 6747,
      "1920": 6748,
      "iah": 6749,
      "Äłcompound": 6750,
      "Äłcomposition": 6751,
      "ishop": 6752,
      "Äłperman": 6753,
      "Äłsyndrome": 6754,
      "ÄłStep": 6755,
      "ĠÄłAt": 6756,
      "Äłtradition": 6757,
      "ĠÄłstart": 6758,
      "188": 6759,
      "Äłphr": 6760,
      "Äłnoise": 6761,
      "ommod": 6762,
      "ictor": 6763,
      "Äłjustice": 6764,
      "Äłmonitor": 6765,
      "ĠÄłNational": 6766,
      "Äłreaders": 6767,
      "Äłpainting": 6768,
      "Äłrestrict": 6769,
      "Äłlegs": 6770,
      "Äłcalcium": 6771,
      "Äłcreative": 6772,
      "Äłviewed": 6773,
      "ĠÄłenergy": 6774,
      "Äłlisted": 6775,
      "bridge": 6776,
      "Äłdigest": 6777,
      "IDS": 6778,
      "ÄłControl": 6779,
      "liest": 6780,
      "Äłtissues": 6781,
      "ÄłBoard": 6782,
      "Äłbabies": 6783,
      "Äłstrengthen": 6784,
      "Äłdeclared": 6785,
      "Äłconcentration": 6786,
      "Äłwarming": 6787,
      "ĠÄłbelie": 6788,
      "Äłhousing": 6789,
      "Äłbeliefs": 6790,
      "Äłwait": 6791,
      "ĠÄłrepresent": 6792,
      "Äłvessels": 6793,
      "Äłexperienced": 6794,
      "Äłsector": 6795,
      "Äłdedicated": 6796,
      "Bl": 6797,
      "Des": 6798,
      "Figure": 6799,
      "Re": 6800,
      "Since": 6801,
      "Your": 6802,
      "hand": 6803,
      "ny": 6804,
      "wa": 6805,
      "inating": 6806,
      "Äłcards": 6807,
      "Äłinject": 6808,
      "Äłmild": 6809,
      "rost": 6810,
      "etary": 6811,
      "otton": 6812,
      "charge": 6813,
      "ÄłTime": 6814,
      "igan": 6815,
      "ademy": 6816,
      "mented": 6817,
      "ĠÄłpresent": 6818,
      "ÄłHoly": 6819,
      "allow": 6820,
      "ogue": 6821,
      "ĠÄłdon": 6822,
      "Äłspending": 6823,
      "ÄłLou": 6824,
      "ÄłLake": 6825,
      "Äłweap": 6826,
      "pled": 6827,
      "ÄłOcean": 6828,
      "Äłinches": 6829,
      "Äłarms": 6830,
      "orses": 6831,
      "Äłprev": 6832,
      "ificance": 6833,
      "Äłtrained": 6834,
      "Äłourselves": 6835,
      "Äłgrand": 6836,
      "Äłacids": 6837,
      "Äłsmoking": 6838,
      "Äłcenters": 6839,
      "Äłskill": 6840,
      "ĠÄłcontrol": 6841,
      "ÄłCommon": 6842,
      "ÄłCommittee": 6843,
      "ÄłEnergy": 6844,
      "Äłresponses": 6845,
      "ĠÄłmeans": 6846,
      "Äłzero": 6847,
      "ependent": 6848,
      "Äłlayers": 6849,
      "Äłcutting": 6850,
      "offee": 6851,
      "Äłtells": 6852,
      "Äłafford": 6853,
      "Äłderived": 6854,
      "ÄłEarly": 6855,
      "Äłmetabol": 6856,
      "ÄłVirginia": 6857,
      "ellectual": 6858,
      "Can": 6859,
      "rin": 6860,
      "rary": 6861,
      "vity": 6862,
      "zy": 6863,
      "Â¯": 6864,
      "Ä³": 6865,
      "Äłtroops": 6866,
      "heimer": 6867,
      "hedule": 6868,
      "erb": 6869,
      "Äłcod": 6870,
      "Äłcav": 6871,
      "itivity": 6872,
      "Äłwin": 6873,
      "Äłpal": 6874,
      "Äłpaid": 6875,
      "Äłancest": 6876,
      "Äłinner": 6877,
      "Äłdrain": 6878,
      "lets": 6879,
      "Äłhttps": 6880,
      "Äłlik": 6881,
      "iginal": 6882,
      "ÄłSl": 6883,
      "ÄłSym": 6884,
      "eless": 6885,
      "ÄłMag": 6886,
      "ĠÄłwar": 6887,
      "umbers": 6888,
      "ÄłPost": 6889,
      "ocy": 6890,
      "ocument": 6891,
      "Äłrid": 6892,
      "ÄłFree": 6893,
      "ĠÄłmethod": 6894,
      "Äłleaf": 6895,
      "ÄłNations": 6896,
      "Äłspl": 6897,
      "Äłshut": 6898,
      "ÄłLab": 6899,
      "agues": 6900,
      "ella": 6901,
      "ongue": 6902,
      "ÄłOF": 6903,
      "Äłwilling": 6904,
      "Äłappeared": 6905,
      "ÄłKen": 6906,
      "lude": 6907,
      "ĠÄłCan": 6908,
      "ĠÄłCent": 6909,
      "ÄłAnn": 6910,
      "Äłfounded": 6911,
      "Äłmedication": 6912,
      "Äłartificial": 6913,
      "exp": 6914,
      "1991": 6915,
      "ĠÄłJohn": 6916,
      "ĠÄłconn": 6917,
      "ĠÄłabove": 6918,
      "Äłfocuses": 6919,
      "Äłdifficulty": 6920,
      "Äłzone": 6921,
      "Äłhistoric": 6922,
      "Äłconcerned": 6923,
      "Äłtalking": 6924,
      "Äłchallenging": 6925,
      "ĠÄłsuggest": 6926,
      "Äłdrawing": 6927,
      "Äłagreement": 6928,
      "Äłpurchase": 6929,
      "ĠÄłfollowing": 6930,
      "Äłcomparison": 6931,
      "Äłratio": 6932,
      "Äłbattery": 6933,
      "operative": 6934,
      "Äłpretty": 6935,
      "CH": 6936,
      "Cont": 6937,
      "MS": 6938,
      "Ps": 6939,
      "SS": 6940,
      "eff": 6941,
      "uy": 6942,
      "yes": 6943,
      "ĠÄłrad": 6944,
      "reets": 6945,
      "ester": 6946,
      "Äłwire": 6947,
      "Äłwidespread": 6948,
      "Äłpestic": 6949,
      "Äłmixt": 6950,
      "Äłholes": 6951,
      "Äłgather": 6952,
      "ÄłTit": 6953,
      "rays": 6954,
      "iral": 6955,
      "Äłyield": 6956,
      "ifies": 6957,
      "ÄłMass": 6958,
      "lder": 6959,
      "Äłhealing": 6960,
      "Äłexists": 6961,
      "ĠÄłcap": 6962,
      "pper": 6963,
      "Äłsuitable": 6964,
      "ĠÄłair": 6965,
      "ÄłDisc": 6966,
      "ÄłFe": 6967,
      "ĠÄłdays": 6968,
      "aked": 6969,
      "ansion": 6970,
      "ideo": 6971,
      "ipedia": 6972,
      "ÄłOx": 6973,
      "ĠÄłlim": 6974,
      "ÄłItaly": 6975,
      "ternational": 6976,
      "Äłblocks": 6977,
      "Äłrelax": 6978,
      "Äłobtain": 6979,
      "Äłwhereas": 6980,
      "Äłtranslation": 6981,
      "Äłexamine": 6982,
      "Äłedge": 6983,
      "Äłdepartment": 6984,
      "Äłreader": 6985,
      "Äłstarts": 6986,
      "Äłcorpor": 6987,
      "Äłeastern": 6988,
      "Äłplayers": 6989,
      "Äłhandle": 6990,
      "Äłbrand": 6991,
      "ÄłExpl": 6992,
      "Äłfacilit": 6993,
      "ÄłPhys": 6994,
      "Stud": 6995,
      "ĠÄłrelations": 6996,
      "Äłfunding": 6997,
      "Äłdebt": 6998,
      "ĠÄłgeneral": 6999,
      "Äłcopper": 7000,
      "while": 7001,
      "Äłseemed": 7002,
      "Äłfighting": 7003,
      "Äłwalking": 7004,
      "ĠÄłgroups": 7005,
      "ocracy": 7006,
      "77": 7007,
      "93": 7008,
      "Dr": 7009,
      "MA": 7010,
      "Se": 7011,
      "faces": 7012,
      "nel": 7013,
      "yal": 7014,
      "Äłsod": 7015,
      "Äłcats": 7016,
      "ingle": 7017,
      "Äłfrag": 7018,
      "iciency": 7019,
      "Äłhole": 7020,
      "iled": 7021,
      "ÄłAcc": 7022,
      "amination": 7023,
      "ÄłIreland": 7024,
      "Äłwhatever": 7025,
      "ÄłMoses": 7026,
      "ĠÄłwhether": 7027,
      "ivered": 7028,
      "ivities": 7029,
      "ÄłBi": 7030,
      "ÄłBank": 7031,
      "ighter": 7032,
      "ocated": 7033,
      "Äłvote": 7034,
      "Äłsuc": 7035,
      "ĠÄłauthor": 7036,
      "ĠÄłtoo": 7037,
      "ĠÄłdev": 7038,
      "ÄłLibrary": 7039,
      "Äłplenty": 7040,
      "ÄłInformation": 7041,
      "Äłintest": 7042,
      "Äłclick": 7043,
      "Äłtele": 7044,
      "eoples": 7045,
      "Äłpartnership": 7046,
      "ĠÄłSh": 7047,
      "ritis": 7048,
      "ÄłChild": 7049,
      "Äłcolors": 7050,
      "ÄłYear": 7051,
      "Äłamb": 7052,
      "hesis": 7053,
      "Äłattend": 7054,
      "ĠÄłTo": 7055,
      "ĠÄłWorld": 7056,
      "Äłshell": 7057,
      "Äłexplo": 7058,
      "Äłvalid": 7059,
      "Äłcareful": 7060,
      "Äłdrinking": 7061,
      "Äłviews": 7062,
      "ĠÄłperform": 7063,
      "Äłphotograph": 7064,
      "Äłpersons": 7065,
      "Äłparticipate": 7066,
      "Äłemployees": 7067,
      "ÄłReport": 7068,
      "Äłslowly": 7069,
      "Äłemotions": 7070,
      "Äłsilver": 7071,
      "istoric": 7072,
      "Äłframework": 7073,
      "Äłagriculture": 7074,
      "Äłsweet": 7075,
      "Äłbehaviour": 7076,
      "Äłuniversal": 7077,
      "Äłopinion": 7078,
      "Äłfossil": 7079,
      "Äłprominent": 7080,
      "**": 7081,
      "58": 7082,
      "My": 7083,
      "Today": 7084,
      "comm": 7085,
      "fl": 7086,
      "iary": 7087,
      "ket": 7088,
      "pre": 7089,
      "rong": 7090,
      "ÅĤ": 7091,
      "Ġin": 7092,
      "Ġst": 7093,
      "Äłahead": 7094,
      "Äłsan": 7095,
      "esis": 7096,
      "orous": 7097,
      "Äłfib": 7098,
      "Äłfinger": 7099,
      "Äłmixed": 7100,
      "Äłdent": 7101,
      "Äłhit": 7102,
      "Äłrein": 7103,
      "ameters": 7104,
      "Äłcong": 7105,
      "abeth": 7106,
      "ÄłMiddle": 7107,
      "ÄłBur": 7108,
      "Äłcholesterol": 7109,
      "ÄłDisease": 7110,
      "ÄłRome": 7111,
      "ibb": 7112,
      "Äładequ": 7113,
      "Äłclosed": 7114,
      "iana": 7115,
      "Äłrecip": 7116,
      "Äłraw": 7117,
      "ÄłYet": 7118,
      "Äłsurve": 7119,
      "Äłcounty": 7120,
      "Äłcommunicate": 7121,
      "Äłextended": 7122,
      "1993": 7123,
      "ÄłThose": 7124,
      "ÄłThrough": 7125,
      "Äłorganisms": 7126,
      "Äłpassage": 7127,
      "Äłrealize": 7128,
      "ĠÄładd": 7129,
      "Äłfacing": 7130,
      "Äłconsumer": 7131,
      "Äłimprovement": 7132,
      "Äłlabel": 7133,
      "Äłemployed": 7134,
      "ĠÄłaccess": 7135,
      "Äłfeedback": 7136,
      "Äłincreasingly": 7137,
      "ĠÄłinclude": 7138,
      "Äłhoriz": 7139,
      "ĠÄłspecies": 7140,
      "Äłjoin": 7141,
      "ÄłFrank": 7142,
      "ÄłServices": 7143,
      "Äłguidance": 7144,
      "Äłmolecules": 7145,
      "Äłlegislation": 7146,
      "Äłbudget": 7147,
      "52": 7148,
      "AB": 7149,
      "App": 7150,
      "Con": 7151,
      "EE": 7152,
      "First": 7153,
      "OC": 7154,
      "eenth": 7155,
      "whel": 7156,
      "erior": 7157,
      "itamin": 7158,
      "Äłwish": 7159,
      "edu": 7160,
      "Äłpup": 7161,
      "Äłboy": 7162,
      "Äłmamm": 7163,
      "rot": 7164,
      "Äłlots": 7165,
      "Äłgap": 7166,
      "igate": 7167,
      "ÄłSol": 7168,
      "amber": 7169,
      "ÄłIrish": 7170,
      "ifest": 7171,
      "istical": 7172,
      "ĠÄłwords": 7173,
      "ÄłProp": 7174,
      "ÄłPsych": 7175,
      "ĠÄłpers": 7176,
      "Äłvs": 7177,
      "Äłvac": 7178,
      "ĠÄłbased": 7179,
      "ÄłRoad": 7180,
      "ÄłRights": 7181,
      "ĠÄłmean": 7182,
      "ĠÄłdr": 7183,
      "ĠÄłdisease": 7184,
      "pert": 7185,
      "izabeth": 7186,
      "Äładministration": 7187,
      "Äłarts": 7188,
      "ĠÄłnon": 7189,
      "ĠÄłlittle": 7190,
      "Äłteen": 7191,
      "Äłmeal": 7192,
      "oken": 7193,
      "Äłoutcome": 7194,
      "Äłoverl": 7195,
      "oval": 7196,
      "Äłfeels": 7197,
      "Äłherb": 7198,
      "Äłcarb": 7199,
      "Äłlocations": 7200,
      "ÄłProfessor": 7201,
      "airy": 7202,
      "cling": 7203,
      "azine": 7204,
      "Äłguarant": 7205,
      "Äłphysics": 7206,
      "Äłconstantly": 7207,
      "Äłconnections": 7208,
      "ictionary": 7209,
      "Äłexercises": 7210,
      "ĠÄłconsider": 7211,
      "ĠÄłtechn": 7212,
      "Äłvideos": 7213,
      "ÄłSecret": 7214,
      "Äłuncertain": 7215,
      "Äłrespectively": 7216,
      "Äłcommitted": 7217,
      "Äłjoined": 7218,
      "Äłdependent": 7219,
      "Äładopted": 7220,
      "ĠÄłstrong": 7221,
      "Äłeliminate": 7222,
      "Äłobservations": 7223,
      "ÄłMichael": 7224,
      "Äłcomfortable": 7225,
      "Äłdestroyed": 7226,
      "Äłsubstantial": 7227,
      "Äłhunting": 7228,
      "63": 7229,
      "600": 7230,
      "door": 7231,
      "li": 7232,
      "pd": 7233,
      "pire": 7234,
      "such": 7235,
      "zheimer": 7236,
      "Ä¤": 7237,
      "Äłax": 7238,
      "ani": 7239,
      "Äłcos": 7240,
      "Äłwaves": 7241,
      "Äłbanks": 7242,
      "Äłfilled": 7243,
      "Äłfabric": 7244,
      "Äłmm": 7245,
      "rovers": 7246,
      "omal": 7247,
      "omans": 7248,
      "Äłreform": 7249,
      "Äłnine": 7250,
      "Äłnormally": 7251,
      "Äłforced": 7252,
      "ÄłAR": 7253,
      "ÄłAge": 7254,
      "ÄłAtt": 7255,
      "ÄłSouthern": 7256,
      "Äłstomach": 7257,
      "amins": 7258,
      "ÄłCa": 7259,
      "ÄłCap": 7260,
      "ÄłIP": 7261,
      "ects": 7262,
      "ÄłPlease": 7263,
      "aine": 7264,
      "Äłcomments": 7265,
      "ĠÄłpost": 7266,
      "ĠÄłbenef": 7267,
      "ÄłHy": 7268,
      "ĠÄłaut": 7269,
      "ĠÄłfoc": 7270,
      "oga": 7271,
      "ÄłRad": 7272,
      "ÄłLanguage": 7273,
      "Äłunlike": 7274,
      "ĠÄłhome": 7275,
      "ĠÄłhapp": 7276,
      "ustain": 7277,
      "Äłmanaged": 7278,
      "Äłclust": 7279,
      "ÄłKnow": 7280,
      "ints": 7281,
      "Äłrepair": 7282,
      "Äłoffering": 7283,
      "Äłremote": 7284,
      "ĠÄłRe": 7285,
      "Äłexperiments": 7286,
      "Äłsigned": 7287,
      "Äłresulted": 7288,
      "Äłextract": 7289,
      "example": 7290,
      "Äłboys": 7291,
      "Äłconfidence": 7292,
      "Äłfewer": 7293,
      "Äłcultures": 7294,
      "Äłhappy": 7295,
      "Äłfacility": 7296,
      "aneously": 7297,
      "Äłsuccessfully": 7298,
      "Äłbiggest": 7299,
      "iament": 7300,
      "Äłfeeding": 7301,
      "Äłliteracy": 7302,
      "Äłmaintaining": 7303,
      "Äłpsychological": 7304,
      "Äłvariables": 7305,
      "Äłpregnant": 7306,
      "Äłlaunched": 7307,
      "Äłtrends": 7308,
      "Äłcomprehensive": 7309,
      "riendly": 7310,
      ".;": 7311,
      "54": 7312,
      "UT": 7313,
      "aus": 7314,
      "aud": 7315,
      "chen": 7316,
      "cend": 7317,
      "ht": 7318,
      "kl": 7319,
      "sis": 7320,
      "war": 7321,
      "ĠV": 7322,
      "ĠÄłthough": 7323,
      "ĠÃ¢Ä¢": 7324,
      "ÄłÃĥÄ": 7325,
      "ĠÄłself": 7326,
      "ender": 7327,
      "Äłpra": 7328,
      "Äłpure": 7329,
      "Äłfest": 7330,
      "Äłfalse": 7331,
      "Äłment": 7332,
      "ctic": 7333,
      "Äłrecept": 7334,
      "otype": 7335,
      "ÄłTer": 7336,
      "ÄłTor": 7337,
      "irty": 7338,
      "Äłstake": 7339,
      "Äłstick": 7340,
      "ÄłCamp": 7341,
      "Äłconven": 7342,
      "Äłconclusion": 7343,
      "iller": 7344,
      "ÄłMark": 7345,
      "ÄłPakistan": 7346,
      "iva": 7347,
      "ÄłBet": 7348,
      "ĠÄłcal": 7349,
      "ĠÄłcome": 7350,
      "orted": 7351,
      "ÄłHave": 7352,
      "ĠÄłage": 7353,
      "Äłchosen": 7354,
      "ogs": 7355,
      "ÄłGold": 7356,
      "Äłunless": 7357,
      "Äłuniverse": 7358,
      "Äłabnormal": 7359,
      "asty": 7360,
      "izz": 7361,
      "ultiple": 7362,
      "ÄłJoseph": 7363,
      "Äłdose": 7364,
      "ĠÄłlanguage": 7365,
      "Äłtea": 7366,
      "Äłparties": 7367,
      "Äłpartner": 7368,
      "ĠÄłgiven": 7369,
      "herent": 7370,
      "ĠÄłCol": 7371,
      "Äłagreed": 7372,
      "Äłcolumn": 7373,
      "Äłblind": 7374,
      "Äłunderstood": 7375,
      "ucose": 7376,
      "Äłrelation": 7377,
      "Äłdecline": 7378,
      "Äłflag": 7379,
      "Äłfunds": 7380,
      "Äłmedic": 7381,
      "ĠÄłEn": 7382,
      "Äłsocieties": 7383,
      "Äłeveryday": 7384,
      "class": 7385,
      "Äłreduces": 7386,
      "ĠÄłlet": 7387,
      "acco": 7388,
      "Äłparallel": 7389,
      "Äłvolcan": 7390,
      "ÄłOnly": 7391,
      "Äłmeasurements": 7392,
      "Äłentirely": 7393,
      "Äłdiagnosed": 7394,
      "ĠÄłsuccess": 7395,
      "ÄłCOVID": 7396,
      "Äłcomplicated": 7397,
      "ĠÄłassoci": 7398,
      "ÄłMinister": 7399,
      "haust": 7400,
      "ÄłPrevention": 7401,
      "Äłdanger": 7402,
      "Äłprepare": 7403,
      "Äłmagnetic": 7404,
      "Äłsettings": 7405,
      "ĠÄłsimilar": 7406,
      "Äłrecommendations": 7407,
      "ĠÄłdiscuss": 7408,
      "Äłhouses": 7409,
      "Äłinhabit": 7410,
      "Äłfavorite": 7411,
      "Äłsucceed": 7412,
      "01": 7413,
      "62": 7414,
      "De": 7415,
      "IA": 7416,
      "Rec": 7417,
      "fit": 7418,
      "gs": 7419,
      "iÃĥ": 7420,
      "no": 7421,
      "oin": 7422,
      "oogle": 7423,
      "vest": 7424,
      "ĠÄłkeep": 7425,
      "Äłath": 7426,
      "Äłastr": 7427,
      "Äłsight": 7428,
      "Äłcooking": 7429,
      "icon": 7430,
      "Äłinformed": 7431,
      "Äłlake": 7432,
      "Äłnose": 7433,
      "ette": 7434,
      "Äłforget": 7435,
      "irms": 7436,
      "Äłstroke": 7437,
      "aded": 7438,
      "ading": 7439,
      "advant": 7440,
      "ÄłCre": 7441,
      "ÄłIll": 7442,
      "mentation": 7443,
      "Äłitem": 7444,
      "emple": 7445,
      "ĠÄłsay": 7446,
      "ĠÄłfunction": 7447,
      "Äłrig": 7448,
      "ogether": 7449,
      "ÄłNatural": 7450,
      "ÄłLand": 7451,
      "arding": 7452,
      "actions": 7453,
      "plant": 7454,
      "aks": 7455,
      "Äłcontained": 7456,
      "Äładj": 7457,
      "Äłneur": 7458,
      "ĠÄłterm": 7459,
      "ĠÄłnatural": 7460,
      "Äłjump": 7461,
      "Äłthanks": 7462,
      "erving": 7463,
      "Äłrab": 7464,
      "ÄłVer": 7465,
      "Äłnewsp": 7466,
      "Äłdesire": 7467,
      "Äłdesired": 7468,
      "Äłanywhere": 7469,
      "Äłtransition": 7470,
      "Äłintervention": 7471,
      "ĠÄłanalysis": 7472,
      "Äłsky": 7473,
      "Äłartist": 7474,
      "Äłcoordin": 7475,
      "Äłsheet": 7476,
      "rank": 7477,
      "ĠÄłJew": 7478,
      "Äłserving": 7479,
      "Äłequivalent": 7480,
      "Äłlights": 7481,
      "ĠÄłimm": 7482,
      "Äłanalys": 7483,
      "Äłsecondary": 7484,
      "Äłnearby": 7485,
      "Äłwarning": 7486,
      "Äłobjective": 7487,
      "Äłpercentage": 7488,
      "ĠÄłothers": 7489,
      "Äłprompt": 7490,
      "Äłcharacteristic": 7491,
      "rolled": 7492,
      "ÄłScot": 7493,
      "ĠÄłdifficult": 7494,
      "Äłheavily": 7495,
      "Äłreactions": 7496,
      "Äłearthqu": 7497,
      "ÄłSecurity": 7498,
      "Äłinterpre": 7499,
      "Äłconstructed": 7500,
      "Äłarchitecture": 7501,
      "%)": 7502,
      "%.": 7503,
      "07": 7504,
      "69": 7505,
      "Be": 7506,
      "gent": 7507,
      "mm": 7508,
      "mod": 7509,
      "Ã¦": 7510,
      "Ġl": 7511,
      "Äłille": 7512,
      "ĠÄłÃ¢Ä¢Ä¶": 7513,
      "inate": 7514,
      "inear": 7515,
      "isdom": 7516,
      "Äłcoun": 7517,
      "iture": 7518,
      "Äłinher": 7519,
      "Äłmatch": 7520,
      "Äłdil": 7521,
      "rooms": 7522,
      "Äłlie": 7523,
      "eterm": 7524,
      "iger": 7525,
      "irth": 7526,
      "unicip": 7527,
      "ÄłAut": 7528,
      "Äłstorm": 7529,
      "ÄłCy": 7530,
      "oped": 7531,
      "operation": 7532,
      "Äłorgans": 7533,
      "ÄłMoon": 7534,
      "ĠÄłwant": 7535,
      "ÄłPower": 7536,
      "ĠÄłcause": 7537,
      "ĠÄłbas": 7538,
      "ÄłHaw": 7539,
      "ĠÄłfour": 7540,
      "Äłchrom": 7541,
      "ÄłEnd": 7542,
      "ĠÄłmaking": 7543,
      "Äłshop": 7544,
      "ÄłLong": 7545,
      "ulty": 7546,
      "ĠÄłhistory": 7547,
      "Äłresolution": 7548,
      "ĠÄłtest": 7549,
      "ĠÄłtimes": 7550,
      "ĠÄłtext": 7551,
      "achine": 7552,
      "Äłimpossible": 7553,
      "Äłsole": 7554,
      "text": 7555,
      "ÄłStat": 7556,
      "Äłtrials": 7557,
      "Äłscan": 7558,
      "Äłsubt": 7559,
      "Äłtransform": 7560,
      "Äłowners": 7561,
      "Ġ):": 7562,
      "pecific": 7563,
      "eek": 7564,
      "ĠÄłrather": 7565,
      "azon": 7566,
      "ÄłWho": 7567,
      "Äłwriter": 7568,
      "Äłpassing": 7569,
      "Äłslaves": 7570,
      "Äłstanding": 7571,
      "ÄłClimate": 7572,
      "Äłindustries": 7573,
      "Äłradical": 7574,
      "Äłvolt": 7575,
      "Äłoptim": 7576,
      "Äłfrequent": 7577,
      "Äłnegot": 7578,
      "Äłabsolute": 7579,
      "Äłrepresented": 7580,
      "Äłholding": 7581,
      "Äłtwenty": 7582,
      "Äłinteraction": 7583,
      "Äłmoral": 7584,
      "Äłbringing": 7585,
      "ÄłParis": 7586,
      "Äłimmediate": 7587,
      "Äłevaluation": 7588,
      "iotic": 7589,
      "Äładvantages": 7590,
      "Äłscreening": 7591,
      "Äłspiritual": 7592,
      "Äłbehaviors": 7593,
      "ĠÄłavailable": 7594,
      "Äłkilomet": 7595,
      "Äłcamera": 7596,
      "yroid": 7597,
      "Äłingredients": 7598,
      "ÄłCarolina": 7599,
      "IR": 7600,
      "Not": 7601,
      "Per": 7602,
      "Sc": 7603,
      "],": 7604,
      "ais": 7605,
      "han": 7606,
      "hma": 7607,
      "mph": 7608,
      "uct": 7609,
      "Ġto": 7610,
      "Äłtall": 7611,
      "Äłtank": 7612,
      "Äłtropical": 7613,
      "ĠÄłpp": 7614,
      "ĠÄłable": 7615,
      "Äłcart": 7616,
      "Äłcriminal": 7617,
      "ora": 7618,
      "Äłpapers": 7619,
      "arters": 7620,
      "Äłfer": 7621,
      "Äłflying": 7622,
      "Äłmic": 7623,
      "Äłmales": 7624,
      "Äłdrought": 7625,
      "Äłlip": 7626,
      "Äłnan": 7627,
      "ceive": 7628,
      "utch": 7629,
      "Äłgar": 7630,
      "Äłgone": 7631,
      "radu": 7632,
      "ÄłCam": 7633,
      "ÄłCare": 7634,
      "Ġ,\"": 7635,
      "Äłconstitution": 7636,
      "opic": 7637,
      "thod": 7638,
      "Äłhem": 7639,
      "ĠÄłsl": 7640,
      "ĠÄłposs": 7641,
      "ĠÄłfore": 7642,
      "ÄłWord": 7643,
      "Äłran": 7644,
      "Äłrhy": 7645,
      "alling": 7646,
      "ÄłRock": 7647,
      "ÄłNorthern": 7648,
      "Äłspr": 7649,
      "Äłunw": 7650,
      "Äłuniversity": 7651,
      "peror": 7652,
      "pling": 7653,
      "apse": 7654,
      "Äładministr": 7655,
      "Äłcompare": 7656,
      "ÄłJud": 7657,
      "Äłdoor": 7658,
      "ologically": 7659,
      "ieval": 7660,
      "Äłtheme": 7661,
      "ÄłChange": 7662,
      "Äłrocks": 7663,
      "Äłfever": 7664,
      "issance": 7665,
      "nee": 7666,
      "Äłproven": 7667,
      "Äłacres": 7668,
      "ĠÄłPl": 7669,
      "ĠÄłBl": 7670,
      "ĠÄłBy": 7671,
      "ĠÄłprog": 7672,
      "Äłmodified": 7673,
      "ollowing": 7674,
      "Äłinstalled": 7675,
      "Äłdetected": 7676,
      "Äłexamination": 7677,
      "Äłedition": 7678,
      "Äłdepart": 7679,
      "venue": 7680,
      "ÄłAsian": 7681,
      "Äłminimum": 7682,
      "Äłplanned": 7683,
      "Äłprofit": 7684,
      "Äłpositions": 7685,
      "Äłaffecting": 7686,
      "ÄłConstitution": 7687,
      "Äłfourth": 7688,
      "Äłfunctioning": 7689,
      "Äłturns": 7690,
      "Äłviruses": 7691,
      "Äłcomputers": 7692,
      "Äłcircle": 7693,
      "Äłconsumers": 7694,
      "Äłworksh": 7695,
      "Äłdebate": 7696,
      "Äłsentence": 7697,
      "Äłimplemented": 7698,
      "ĠÄłsystems": 7699,
      "Äłthousand": 7700,
      "ogenic": 7701,
      "Äłbreath": 7702,
      "Äłsoldiers": 7703,
      "ÄłRussian": 7704,
      "Äłinnovation": 7705,
      "Äłshapes": 7706,
      "Äłinsects": 7707,
      "ĠÄłproblem": 7708,
      "Äłdiscrimination": 7709,
      "78": 7710,
      "CL": 7711,
      "Don": 7712,
      "IG": 7713,
      "MC": 7714,
      "Or": 7715,
      "Read": 7716,
      "bes": 7717,
      "gers": 7718,
      "oz": 7719,
      "su": 7720,
      "uis": 7721,
      "uels": 7722,
      "Ä²": 7723,
      "inces": 7724,
      "reater": 7725,
      "onent": 7726,
      "Äłsales": 7727,
      "eness": 7728,
      "Äłbread": 7729,
      "Äłfurn": 7730,
      "Äłfasc": 7731,
      "Äłfixed": 7732,
      "Äłdream": 7733,
      "Äłdaughter": 7734,
      "Äłdatabase": 7735,
      "Äłhung": 7736,
      "Äłlens": 7737,
      "older": 7738,
      "Äłgases": 7739,
      "unch": 7740,
      "aming": 7741,
      "ÄłMad": 7742,
      "ÄłMars": 7743,
      "eren": 7744,
      "ositive": 7745,
      "ÄłBab": 7746,
      "ĠÄłcost": 7747,
      "ĠÄłcourse": 7748,
      "rize": 7749,
      "ÄłFort": 7750,
      "ptom": 7751,
      "ostic": 7752,
      "Äłenab": 7753,
      "Äłunus": 7754,
      "Äłabandon": 7755,
      "play": 7756,
      "ansas": 7757,
      "Äłcontamin": 7758,
      "ĠÄłname": 7759,
      "anger": 7760,
      "Äłprey": 7761,
      "Äłevil": 7762,
      "obs": 7763,
      "ÄłChicago": 7764,
      "Äłroles": 7765,
      "iseases": 7766,
      "Äłprovider": 7767,
      "Äłproviders": 7768,
      "angered": 7769,
      "Äłassist": 7770,
      "Äładds": 7771,
      "Äłinfect": 7772,
      "Äłremark": 7773,
      "inson": 7774,
      "Äłmode": 7775,
      "Äłgenerations": 7776,
      "Äłrequest": 7777,
      "Äłdefe": 7778,
      "Äłended": 7779,
      "Äłminerals": 7780,
      "Äłorganized": 7781,
      "Äłsupports": 7782,
      "Äłcorrel": 7783,
      "Äłelectro": 7784,
      "amps": 7785,
      "Äłmembran": 7786,
      "Äłdriven": 7787,
      "Äłwriters": 7788,
      "Äłmusical": 7789,
      "Äłveter": 7790,
      "ĠÄłplant": 7791,
      "ÄłAdministration": 7792,
      "incol": 7793,
      "including": 7794,
      "ÄłColor": 7795,
      "Äłopening": 7796,
      "Äłhardware": 7797,
      "Äłvolunte": 7798,
      "Äłswim": 7799,
      "Äłerrors": 7800,
      "Äłinitially": 7801,
      "ĠÄłstudies": 7802,
      "Äłfatigue": 7803,
      "Äłreplaced": 7804,
      "Äłcompetition": 7805,
      "ĠÄłobs": 7806,
      "Äłpanels": 7807,
      "Äłmechanism": 7808,
      "Äłoriginally": 7809,
      "criptions": 7810,
      "Äłcapture": 7811,
      "Äłsurvive": 7812,
      "ĠÄłbecame": 7813,
      "Äłrobot": 7814,
      "Äłsequence": 7815,
      "Äłstimul": 7816,
      "Äłcategories": 7817,
      "ĠÄłlevels": 7818,
      "Äłvillage": 7819,
      "Äłrenewable": 7820,
      "09": 7821,
      "800": 7822,
      "Let": 7823,
      "een": 7824,
      "eut": 7825,
      "fe": 7826,
      "hus": 7827,
      "iro": 7828,
      "night": 7829,
      "va": 7830,
      "Äłturb": 7831,
      "inated": 7832,
      "Äłsession": 7833,
      "Äłcatch": 7834,
      "Äłpin": 7835,
      "Äłped": 7836,
      "Äłpair": 7837,
      "Äłfract": 7838,
      "Äłrely": 7839,
      "Äłgram": 7840,
      "ÄłTV": 7841,
      "ÄłTake": 7842,
      "irs": 7843,
      "ÄłSS": 7844,
      "Äłalter": 7845,
      "ĠÄłcases": 7846,
      "ÄłWood": 7847,
      "Äłchicken": 7848,
      "Äłwasn": 7849,
      "ÄłDan": 7850,
      "ÄłDiff": 7851,
      "ÄłExt": 7852,
      "ript": 7853,
      "riends": 7854,
      "ÄłForm": 7855,
      "ÄłGree": 7856,
      "Äłenables": 7857,
      "agon": 7858,
      "Äłabilities": 7859,
      "ells": 7860,
      "Äłplus": 7861,
      "1930": 7862,
      "Äłintense": 7863,
      "apor": 7864,
      "Äładolesc": 7865,
      "Äłcomposed": 7866,
      "Äłpref": 7867,
      "Äłpreval": 7868,
      "ĠÄłelect": 7869,
      "rency": 7870,
      "Äłevolved": 7871,
      "ricts": 7872,
      "Äłtrad": 7873,
      "Äłtraffic": 7874,
      "Äłphones": 7875,
      "Äłamazing": 7876,
      "Äłschedule": 7877,
      "Äłdecor": 7878,
      "ĠÄłBrit": 7879,
      "ĠÄłprogram": 7880,
      "Äłearliest": 7881,
      "Äłdetection": 7882,
      "Äłvariable": 7883,
      "ĠÄłEurop": 7884,
      "Äłrefuge": 7885,
      "theless": 7886,
      "Äłmining": 7887,
      "Äłmineral": 7888,
      "Äłpossibility": 7889,
      "ĠÄłrisk": 7890,
      "Äłguard": 7891,
      "ĠÄłplay": 7892,
      "ercury": 7893,
      "ÄłPlant": 7894,
      "Äłcalories": 7895,
      "Äłdelivery": 7896,
      "Äłreceiving": 7897,
      "ediatric": 7898,
      "Äłcyber": 7899,
      "Äłdamaged": 7900,
      "Äłsunlight": 7901,
      "scale": 7902,
      "Äłemployment": 7903,
      "ucky": 7904,
      "Äłarrange": 7905,
      "Äłinteractions": 7906,
      "Äłprinting": 7907,
      "Äłdivision": 7908,
      "Äłaccuracy": 7909,
      "ÄłElizabeth": 7910,
      "Äłroute": 7911,
      "Äłdemonstrate": 7912,
      "ĠÄłeffects": 7913,
      "ÄłReview": 7914,
      "ÄłRevolution": 7915,
      "Äłethnic": 7916,
      "Äłaudience": 7917,
      "Äłhonor": 7918,
      "Äłevaluate": 7919,
      "Äłtrend": 7920,
      "ocolate": 7921,
      "Äłencouraged": 7922,
      "Äłisolated": 7923,
      "Äłlegisl": 7924,
      "Äłsurprising": 7925,
      "Äłhypothes": 7926,
      "Äłpreparation": 7927,
      "Äłmortality": 7928,
      "incoln": 7929,
      "91": 7930,
      "CE": 7931,
      "Comm": 7932,
      "IM": 7933,
      "IP": 7934,
      "Int": 7935,
      "OM": 7936,
      "cons": 7937,
      "dis": 7938,
      "fish": 7939,
      "liament": 7940,
      "uan": 7941,
      "words": 7942,
      "Ġ18": 7943,
      "ĠÃĤ": 7944,
      "Äłtur": 7945,
      "Äłtons": 7946,
      "Äłtrip": 7947,
      "inite": 7948,
      "onym": 7949,
      "Äłsizes": 7950,
      "encing": 7951,
      "itative": 7952,
      "ori": 7953,
      "Äłwine": 7954,
      "Äłpeoples": 7955,
      "Äłbot": 7956,
      "Äłfulf": 7957,
      "Äłmg": 7958,
      "Äłmeth": 7959,
      "Äłmaps": 7960,
      "asant": 7961,
      "Äłholid": 7962,
      "ilation": 7963,
      "Äłnice": 7964,
      "Äłforth": 7965,
      "Äłstreets": 7966,
      "adow": 7967,
      "adel": 7968,
      "essment": 7969,
      "ÄłMer": 7970,
      "emb": 7971,
      "emed": 7972,
      "ÄłPract": 7973,
      "ĠÄłcirc": 7974,
      "ĠÄłser": 7975,
      "ĠÄłsent": 7976,
      "ĠÄłpur": 7977,
      "Äłsup": 7978,
      "ĠÄłfurther": 7979,
      "Äłring": 7980,
      "ogy": 7981,
      "ÄłRoyal": 7982,
      "ĠÄłtogether": 7983,
      "outheast": 7984,
      "ĠÄłdue": 7985,
      "ÄłGrand": 7986,
      "ÄłNative": 7987,
      "oston": 7988,
      "Äłshock": 7989,
      "Äłworry": 7990,
      "aka": 7991,
      "ÄłIndu": 7992,
      "ÄłUl": 7993,
      "Äładvent": 7994,
      "Äłresistant": 7995,
      "ressing": 7996,
      "ĠÄłnational": 7997,
      "ĠÄłlight": 7998,
      "ĠÄłreason": 7999,
      "ubs": 8000,
      "Ind": 8001,
      "ĠÄłComp": 8002,
      "Äłoverwhel": 8003,
      "Äłgrant": 8004,
      "Äłscript": 8005,
      "Äłsupposed": 8006,
      "ĠÄłproject": 8007,
      "Äłeffectiveness": 8008,
      "Äłdisturb": 8009,
      "cientific": 8010,
      "Äłdefend": 8011,
      "ranean": 8012,
      "Äłstudying": 8013,
      "ĠÄłcharacter": 8014,
      "ĠÄłuntil": 8015,
      "Äłdesigns": 8016,
      "Äłdiameter": 8017,
      "lishing": 8018,
      "ĠÄłOr": 8019,
      "Äłpresentation": 8020,
      "Äłseconds": 8021,
      "Äłwheat": 8022,
      "ÄłCanadian": 8023,
      "ĠÄłabs": 8024,
      "ĠÄładv": 8025,
      "1986": 8026,
      "Äłdelivered": 8027,
      "Äłbiology": 8028,
      "Äłputting": 8029,
      "ÄłEnvironment": 8030,
      "Äłauthen": 8031,
      "Äłautism": 8032,
      "Äłconsiderable": 8033,
      "Äłteams": 8034,
      "Äłdietary": 8035,
      "ĠÄłcommunity": 8036,
      "ĠÄłoper": 8037,
      "regation": 8038,
      "Äłmeetings": 8039,
      "Äłmatters": 8040,
      "Äłarrived": 8041,
      "ÄłGuide": 8042,
      "ĠÄłhowever": 8043,
      "Äłmessages": 8044,
      "ÄłParty": 8045,
      "Äłinstitution": 8046,
      "ÄłLearn": 8047,
      "ĠÄłcountry": 8048,
      "Äłautomatically": 8049,
      "Äłprincipal": 8050,
      "Äłpowers": 8051,
      "Äłlungs": 8052,
      "ĠÄłsignificant": 8053,
      "Äłsacr": 8054,
      "Äłbranch": 8055,
      "Äłphenomenon": 8056,
      "Äłinterpretation": 8057,
      "Äłvulnerable": 8058,
      "Äłrespiratory": 8059,
      ")|": 8060,
      "53": 8061,
      "76": 8062,
      "DR": 8063,
      "Once": 8064,
      "PL": 8065,
      "She": 8066,
      "TP": 8067,
      "cre": 8068,
      "iability": 8069,
      "ki": 8070,
      "making": 8071,
      "soft": 8072,
      "Ä¶": 8073,
      "Ġ_": 8074,
      "Äłtongue": 8075,
      "ĠÄłce": 8076,
      "esh": 8077,
      "itled": 8078,
      "Äłben": 8079,
      "Äłbond": 8080,
      "Äłdance": 8081,
      "Äłhorses": 8082,
      "ctors": 8083,
      "Äłnervous": 8084,
      "eting": 8085,
      "olves": 8086,
      "Äłbees": 8087,
      "ÄłAf": 8088,
      "ÄłSer": 8089,
      "ods": 8090,
      "Äłhero": 8091,
      "Äłheating": 8092,
      "ĠÄłclear": 8093,
      "ĠÄłsays": 8094,
      "ÄłWhere": 8095,
      "ÄłRob": 8096,
      "ÄłLib": 8097,
      "ÄłLead": 8098,
      "aren": 8099,
      "Äłincred": 8100,
      "Äłresil": 8101,
      "ĠÄłtaken": 8102,
      "ĠÄłline": 8103,
      "Äłoutbreak": 8104,
      "ĠÄłevent": 8105,
      "tein": 8106,
      "Äłquarter": 8107,
      "Äłknows": 8108,
      "Äłrose": 8109,
      "ovascular": 8110,
      "fulness": 8111,
      "Äłundert": 8112,
      "Äłreliable": 8113,
      "Äłampl": 8114,
      "Äłacknow": 8115,
      "Äłscore": 8116,
      "Äłsupplies": 8117,
      "Äłflour": 8118,
      "ersonal": 8119,
      "ĠÄłwhole": 8120,
      "Äłsignals": 8121,
      "Äłsignificance": 8122,
      "Äłowner": 8123,
      "ÄłAlzheimer": 8124,
      "ĠÄłOne": 8125,
      "Äłsitting": 8126,
      "ÄłAdv": 8127,
      "hyd": 8128,
      "Äłaccessible": 8129,
      "ĠÄłresults": 8130,
      "ĠÄłenc": 8131,
      "Äłcomputing": 8132,
      "Äłassociation": 8133,
      "Äłtexts": 8134,
      "Äłauthorities": 8135,
      "Äłstatistics": 8136,
      "Äłphoto": 8137,
      "ÄłGeorg": 8138,
      "Äłcleaning": 8139,
      "Äłgeomet": 8140,
      "Äłclaimed": 8141,
      "Äłfemales": 8142,
      "Äłaims": 8143,
      "Äłreveal": 8144,
      "ÄłAustralian": 8145,
      "ĠÄłaccount": 8146,
      "Äłquantity": 8147,
      "Äłcarrying": 8148,
      "ĠÄłinflu": 8149,
      "ÄłEconomic": 8150,
      "Äłepis": 8151,
      "Äłhouseholds": 8152,
      "Äłcolleagues": 8153,
      "Äłsatisf": 8154,
      "cyclop": 8155,
      "otherapy": 8156,
      "Äłpermanent": 8157,
      "Because": 8158,
      "Every": 8159,
      "Lear": 8160,
      "bing": 8161,
      "has": 8162,
      "hio": 8163,
      "page": 8164,
      "rat": 8165,
      "ta": 8166,
      "ĠWe": 8167,
      "Äłtut": 8168,
      "ĠÄłYou": 8169,
      "Äław": 8170,
      "Äławard": 8171,
      "Äłtheore": 8172,
      "atial": 8173,
      "Äłov": 8174,
      "Äłcure": 8175,
      "orus": 8176,
      "alities": 8177,
      "Äłpool": 8178,
      "Äłpull": 8179,
      "Äłtoler": 8180,
      "Äłdies": 8181,
      "asures": 8182,
      "roat": 8183,
      "Äłhat": 8184,
      "Äłhar": 8185,
      "Äłnarrow": 8186,
      "ima": 8187,
      "Äłgut": 8188,
      "adder": 8189,
      "Äłprohib": 8190,
      "Äłconstit": 8191,
      "through": 8192,
      "istence": 8193,
      "essions": 8194,
      "acher": 8195,
      "ÄłPop": 8196,
      "ivest": 8197,
      "quare": 8198,
      "ÄłWil": 8199,
      "Äłchlor": 8200,
      "ograp": 8201,
      "ÄłFour": 8202,
      "ptions": 8203,
      "ÄłNetwork": 8204,
      "Äłenorm": 8205,
      "Äłunem": 8206,
      "Äłintellectual": 8207,
      "upreme": 8208,
      "Äłdisaster": 8209,
      "Äłarray": 8210,
      "achus": 8211,
      "Äłtelevision": 8212,
      "Äłouter": 8213,
      "ĠÄłSo": 8214,
      "Äłtrouble": 8215,
      "ÄłViet": 8216,
      "ĠÄłMed": 8217,
      "Äłindeed": 8218,
      "ĠÄłyet": 8219,
      "Äłremed": 8220,
      "Äłseeking": 8221,
      "Äłextensive": 8222,
      "Äłinsight": 8223,
      "Äłserves": 8224,
      "Äładvoc": 8225,
      "Äłmarkets": 8226,
      "ÄłAdditionally": 8227,
      "Äłbridge": 8228,
      "Äłchest": 8229,
      "Äłoperate": 8230,
      "ÄłConn": 8231,
      "ercise": 8232,
      "oftware": 8233,
      "Äłcriteria": 8234,
      "Äłsensors": 8235,
      "Äłabsor": 8236,
      "Äłabsence": 8237,
      "Äłengineers": 8238,
      "Äłmeasurement": 8239,
      "Äłdoctors": 8240,
      "ENT": 8241,
      "Äłsurvival": 8242,
      "Äłsymbols": 8243,
      "ÄłAcademy": 8244,
      "ĠÄłmodel": 8245,
      "Äłdomain": 8246,
      "ioxid": 8247,
      "Äłnutrient": 8248,
      "Äłcoastal": 8249,
      "Äłvirtual": 8250,
      "imensional": 8251,
      "Äłmissing": 8252,
      "ĠÄłexperience": 8253,
      "Äłkidney": 8254,
      "ÄłMartin": 8255,
      "Äłsenior": 8256,
      "Äłconfirmed": 8257,
      "Äłnitrogen": 8258,
      "ÄłLouis": 8259,
      "Äłvoltage": 8260,
      "'m": 8261,
      "86": 8262,
      "Col": 8263,
      "Even": 8264,
      "Gen": 8265,
      "Get": 8266,
      "HA": 8267,
      "HD": 8268,
      "NS": 8269,
      "OL": 8270,
      "ml": 8271,
      "she": 8272,
      "uum": 8273,
      "uits": 8274,
      "Ãĸ": 8275,
      "Äµ": 8276,
      "Ġ15": 8277,
      "ĠWhat": 8278,
      "ĠÄłess": 8279,
      "inent": 8280,
      "athered": 8281,
      "Äłcort": 8282,
      "itarian": 8283,
      "Äłpounds": 8284,
      "ouds": 8285,
      "Äłtom": 8286,
      "icing": 8287,
      "Äłmac": 8288,
      "Äłmice": 8289,
      "ashes": 8290,
      "Äłhusband": 8291,
      "Äłnone": 8292,
      "etts": 8293,
      "Äłislands": 8294,
      "eli": 8295,
      "ÄłCross": 8296,
      "ÄłIran": 8297,
      "Äłprove": 8298,
      "ÄłPC": 8299,
      "osion": 8300,
      "ĠÄłsw": 8301,
      "Äłvocabulary": 8302,
      "ĠÄłbook": 8303,
      "Äłchart": 8304,
      "ÄłFather": 8305,
      "ĠÄłmil": 8306,
      "Äłends": 8307,
      "Äłshift": 8308,
      "Äłsharp": 8309,
      "agraph": 8310,
      "ÄłIns": 8311,
      "rub": 8312,
      "Äładvert": 8313,
      "Äłcomprom": 8314,
      "Äłdisability": 8315,
      "Äłarrest": 8316,
      "ĠÄłlocal": 8317,
      "angle": 8318,
      "rene": 8319,
      "iances": 8320,
      "ÄłChapter": 8321,
      "ontal": 8322,
      "Äłroof": 8323,
      "ĠÄłstates": 8324,
      "Äłaccommod": 8325,
      "Äłracial": 8326,
      "Äłdescription": 8327,
      "aths": 8328,
      "ĠÄłPress": 8329,
      "Äłassume": 8330,
      "Äłsupplements": 8331,
      "ĠÄłshort": 8332,
      "Äłphysician": 8333,
      "ÄłSpain": 8334,
      "Äłdirected": 8335,
      "Äłprogramme": 8336,
      "ographical": 8337,
      "Äłparas": 8338,
      "Äłdelay": 8339,
      "ĠÄłenough": 8340,
      "Äłdifficulties": 8341,
      "brid": 8342,
      "Äłconsideration": 8343,
      "Äłstrongly": 8344,
      "Äłfishing": 8345,
      "ÄłImp": 8346,
      "Äłlabour": 8347,
      "ĠÄłcomb": 8348,
      "Äłassessments": 8349,
      "Äłarguments": 8350,
      "Äłirrig": 8351,
      "Äłmechanical": 8352,
      "Äłangle": 8353,
      "Äłrarely": 8354,
      "________": 8355,
      "Äłcorner": 8356,
      "opyright": 8357,
      "Äłinnovative": 8358,
      "Äłlaunch": 8359,
      "Äłshaped": 8360,
      "Äłconversation": 8361,
      "Äłsaved": 8362,
      "Äłconverted": 8363,
      "ĠÄłcreate": 8364,
      "urricane": 8365,
      "ĠÄłestab": 8366,
      "Äłdrawn": 8367,
      "ĠÄłcells": 8368,
      "Äłvictims": 8369,
      "Äłalgorithms": 8370,
      "Äłconsciousness": 8371,
      "Äłcontemporary": 8372,
      "Äłdollars": 8373,
      "Äłsatellite": 8374,
      "Äłmixture": 8375,
      "03": 8376,
      "56": 8377,
      "72": 8378,
      "AA": 8379,
      "IF": 8380,
      "Over": 8381,
      "See": 8382,
      "fast": 8383,
      "mith": 8384,
      "uate": 8385,
      "worth": 8386,
      "you": 8387,
      "ynt": 8388,
      "Ġorg": 8389,
      "Äłid": 8390,
      "Äłtal": 8391,
      "Äłtub": 8392,
      "ĠÄłge": 8393,
      "real": 8394,
      "Äłsections": 8395,
      "esides": 8396,
      "alo": 8397,
      "oug": 8398,
      "arbon": 8399,
      "Äłblow": 8400,
      "icy": 8401,
      "Äłmouse": 8402,
      "Äłdates": 8403,
      "Äłduty": 8404,
      "Äłhall": 8405,
      "Äłreward": 8406,
      "Äłreaching": 8407,
      "Äłloved": 8408,
      "ÄłTimes": 8409,
      "rav": 8410,
      "Äłforg": 8411,
      "amous": 8412,
      "Äłconventional": 8413,
      "ÄłPres": 8414,
      "ĠÄłpe": 8415,
      "ĠÄłpolitical": 8416,
      "ÄłHill": 8417,
      "ĠÄłfree": 8418,
      "ĠÄłfuture": 8419,
      "ÄłEU": 8420,
      "ÄłFre": 8421,
      "ĠÄłmar": 8422,
      "ĠÄłtotal": 8423,
      "Äłshore": 8424,
      "ÄłLight": 8425,
      "Äłseat": 8426,
      "activity": 8427,
      "Äłusage": 8428,
      "asses": 8429,
      "ĠÄłnever": 8430,
      "ailability": 8431,
      "ĠÄłSouth": 8432,
      "ĠÄłAm": 8433,
      "Äłnewly": 8434,
      "Äłgranted": 8435,
      "Äłspecified": 8436,
      "Äłexpansion": 8437,
      "Äładdiction": 8438,
      "Äłobesity": 8439,
      "Äłpoison": 8440,
      "idential": 8441,
      "Äłcentre": 8442,
      "ĠÄłRep": 8443,
      "ĠÄłRetrieved": 8444,
      "ĠÄłWar": 8445,
      "Äłexperimental": 8446,
      "Äłvarieties": 8447,
      "Äłprocessed": 8448,
      "Äłcommunications": 8449,
      "Äłinsulin": 8450,
      "ĠÄłchanges": 8451,
      "Äłplane": 8452,
      "Äłtemple": 8453,
      "Äłcapabilities": 8454,
      "ĠÄłleg": 8455,
      "Äłphysically": 8456,
      "ĠÄłimprove": 8457,
      "roduced": 8458,
      "ĠThere": 8459,
      "ÄłResources": 8460,
      "isco": 8461,
      "Äłwheel": 8462,
      "Äłfocusing": 8463,
      "ÄłCommunity": 8464,
      "Äłspacecraft": 8465,
      "ĠÄłState": 8466,
      "ÄłChristmas": 8467,
      "Äłminds": 8468,
      "Äłdiscussed": 8469,
      "ĠÄłopen": 8470,
      "ibraries": 8471,
      "Äłannually": 8472,
      "ÄłScott": 8473,
      "ĠÄłacross": 8474,
      "Äłsuperior": 8475,
      "Äłarchae": 8476,
      "Äłtwice": 8477,
      "Äłinteractive": 8478,
      "arvard": 8479,
      "Äłcompetitive": 8480,
      "ĠÄłrecogn": 8481,
      "ÄłKingdom": 8482,
      "ÄłIII": 8483,
      "ÄłConsider": 8484,
      "Äłdefinite": 8485,
      "Äłattempts": 8486,
      "ÄłDesign": 8487,
      "Äłcolonies": 8488,
      "Äłmolecular": 8489,
      "ĠÄłcountries": 8490,
      "Äłfairly": 8491,
      "Äłspectrum": 8492,
      "Äłdynamic": 8493,
      "ĠÄłpopulation": 8494,
      "Äłcryst": 8495,
      "giene": 8496,
      "Äłthermal": 8497,
      "usalem": 8498,
      "Äłcircumstances": 8499,
      "BT": 8500,
      "Of": 8501,
      "Ref": 8502,
      "foot": 8503,
      "power": 8504,
      "rating": 8505,
      "sen": 8506,
      "Äłtag": 8507,
      "Äłtaste": 8508,
      "ĠÄłarr": 8509,
      "heck": 8510,
      "rev": 8511,
      "Äłske": 8512,
      "esium": 8513,
      "Äłcm": 8514,
      "Äłcoffee": 8515,
      "orph": 8516,
      "ingers": 8517,
      "Äłpand": 8518,
      "oured": 8519,
      "Äłbare": 8520,
      "Äłfought": 8521,
      "icating": 8522,
      "Äłmand": 8523,
      "Äłmine": 8524,
      "Äłmood": 8525,
      "Äłmuc": 8526,
      "Äłlaser": 8527,
      "imp": 8528,
      "race": 8529,
      "Äłstores": 8530,
      "Äłstuff": 8531,
      "ÄłCat": 8532,
      "ÄłCast": 8533,
      "Ġ.)": 8534,
      "Äłproof": 8535,
      "Äłwithdraw": 8536,
      "Äłconj": 8537,
      "Äłconqu": 8538,
      "ÄłMD": 8539,
      "emies": 8540,
      "acent": 8541,
      "umatic": 8542,
      "quality": 8543,
      "ÄłBen": 8544,
      "ÄłBefore": 8545,
      "ĠÄłput": 8546,
      "ÄłWorks": 8547,
      "ÄłEffect": 8548,
      "ÄłFair": 8549,
      "ĠÄłtook": 8550,
      "outs": 8551,
      "Äłenemy": 8552,
      "Äłspin": 8553,
      "Äłshoot": 8554,
      "ÄłLos": 8555,
      "Äłweigh": 8556,
      "Äłplot": 8557,
      "aped": 8558,
      "ateral": 8559,
      "Äłincent": 8560,
      "Äłcontrovers": 8561,
      "ups": 8562,
      "Äłbutton": 8563,
      "Äłmanual": 8564,
      "Äłclothes": 8565,
      "berry": 8566,
      "angel": 8567,
      "ordination": 8568,
      "Äłoutl": 8569,
      "ĠÄłever": 8570,
      "ĠÄłSome": 8571,
      "although": 8572,
      "Äłtract": 8573,
      "Äłagents": 8574,
      "Äłcolony": 8575,
      "Äłrelief": 8576,
      "ĠÄłMay": 8577,
      "Äłdevelopments": 8578,
      "ÄłUnfortunately": 8579,
      "Äłscar": 8580,
      "Äłscene": 8581,
      "everal": 8582,
      "Äłsurfaces": 8583,
      "Äłinfant": 8584,
      "Äłdifferently": 8585,
      "Äłeverywhere": 8586,
      "Äłtechnological": 8587,
      "Äłgrows": 8588,
      "Äłgrains": 8589,
      "enger": 8590,
      "ÄłThough": 8591,
      "ÄłThree": 8592,
      "eeding": 8593,
      "Äłmeters": 8594,
      "ÄłIndians": 8595,
      "Äłguess": 8596,
      "ĠÄłleast": 8597,
      "Äłoldest": 8598,
      "Äłmeasuring": 8599,
      "Äłcontrols": 8600,
      "ilarly": 8601,
      "Äłfinished": 8602,
      "Äłescape": 8603,
      "Äłobjectives": 8604,
      "Äłfunctional": 8605,
      "Äłsensor": 8606,
      "Äłfalls": 8607,
      "Äłwindows": 8608,
      "Äłcontribution": 8609,
      "Äłcovers": 8610,
      "Äłannounced": 8611,
      "Äładdressed": 8612,
      "Äłdistributed": 8613,
      "Äłpanel": 8614,
      "Äłpackage": 8615,
      "reedom": 8616,
      "Äłroads": 8617,
      "ĠÄłYork": 8618,
      "Äłvegetation": 8619,
      "fessional": 8620,
      "Under": 8621,
      "Äłindependence": 8622,
      "ÄłDespite": 8623,
      "Äłelsewhere": 8624,
      "Äłmothers": 8625,
      "ĠÄłcentury": 8626,
      "ĠÄłgoing": 8627,
      "Äłinstruments": 8628,
      "ĠÄłvalue": 8629,
      "Ã¥Ä": 8630,
      "ÄłValley": 8631,
      "stein": 8632,
      "ĠÄłconditions": 8633,
      "ÄłDistrict": 8634,
      "Äłpesticides": 8635,
      "Äłcarbohyd": 8636,
      "ivestock": 8637,
      "250": 8638,
      "CD": 8639,
      "Cons": 8640,
      "Click": 8641,
      "EO": 8642,
      "HS": 8643,
      "Part": 8644,
      "Where": 8645,
      "cal": 8646,
      "dess": 8647,
      "eor": 8648,
      "fts": 8649,
      "front": 8650,
      "iations": 8651,
      "iors": 8652,
      "ridge": 8653,
      "wan": 8654,
      "Ä»": 8655,
      "ĠÄłthink": 8656,
      "Ġ14": 8657,
      "Äłtension": 8658,
      "Äłturning": 8659,
      "ĠÄłQ": 8660,
      "ĠÄłz": 8661,
      "ĠÄłans": 8662,
      "Äłtheories": 8663,
      "onents": 8664,
      "era": 8665,
      "Äłsale": 8666,
      "Äłsought": 8667,
      "Äłom": 8668,
      "Äłcas": 8669,
      "Äłcash": 8670,
      "Äłcotton": 8671,
      "orhood": 8672,
      "arity": 8673,
      "asma": 8674,
      "Äłhoney": 8675,
      "Äłreverse": 8676,
      "oli": 8677,
      "utation": 8678,
      "Äłgained": 8679,
      "urder": 8680,
      "raq": 8681,
      "raine": 8682,
      "rack": 8683,
      "ÄłSet": 8684,
      "Äłstability": 8685,
      "Äłstones": 8686,
      "ÄłCP": 8687,
      "heric": 8688,
      "Äłorbit": 8689,
      "illa": 8690,
      "ÄłMS": 8691,
      "umer": 8692,
      "uming": 8693,
      "ÄłPan": 8694,
      "ÄłPenn": 8695,
      "quit": 8696,
      "aints": 8697,
      "ĠÄłside": 8698,
      "ĠÄłsomething": 8699,
      "ĠÄłpaper": 8700,
      "ĠÄłfar": 8701,
      "ĠÄłflow": 8702,
      "ÄłDev": 8703,
      "ÄłElect": 8704,
      "ÄłEPA": 8705,
      "riz": 8706,
      "ÄłFund": 8707,
      "ptic": 8708,
      "ĠÄłdone": 8709,
      "ghan": 8710,
      "ÄłNon": 8711,
      "Äłenforce": 8712,
      "Äłshot": 8713,
      "agan": 8714,
      "1940": 8715,
      "ipher": 8716,
      "enda": 8717,
      "Äłcompost": 8718,
      "2021": 8719,
      "ensation": 8720,
      "overs": 8721,
      "Äłquiet": 8722,
      "weet": 8723,
      "Äłagent": 8724,
      "Äłconserv": 8725,
      "ÄłVictor": 8726,
      "ĠÄłMan": 8727,
      "aws": 8728,
      "Äłsurge": 8729,
      "ĠÄłTe": 8730,
      "ĠÄłBe": 8731,
      "ĠÄłwhy": 8732,
      "Äłtransp": 8733,
      "Äłinterface": 8734,
      "ructive": 8735,
      "Äłdepict": 8736,
      "ĠÄłvol": 8737,
      "Äłcrew": 8738,
      "Äłfinds": 8739,
      "ĠÄłJournal": 8740,
      "Äłmaintained": 8741,
      "Äłplanets": 8742,
      "agnetic": 8743,
      "Äłwrites": 8744,
      "ÄłSpirit": 8745,
      "Äłslave": 8746,
      "ÄłEngineering": 8747,
      "Äłcreatures": 8748,
      "Äłheads": 8749,
      "Äłharder": 8750,
      "aneous": 8751,
      "position": 8752,
      "Äłmoves": 8753,
      "Äłaccounting": 8754,
      "Äłasking": 8755,
      "Äłlosses": 8756,
      "Äłprotective": 8757,
      "books": 8758,
      "Äłvertical": 8759,
      "Äłbarriers": 8760,
      "iterranean": 8761,
      "Äłthreats": 8762,
      "Äłthreatened": 8763,
      "Äłirrit": 8764,
      "Äłvitamins": 8765,
      "Äłtaxes": 8766,
      "ĠÄłspecific": 8767,
      "ÄłConservation": 8768,
      "Äłcalculate": 8769,
      "Äłsettled": 8770,
      "Äłbeauty": 8771,
      "piration": 8772,
      "Äłcollaboration": 8773,
      "clusive": 8774,
      "imensions": 8775,
      "ÄłMichigan": 8776,
      "ÄłOrganization": 8777,
      "Äłbranches": 8778,
      "elesc": 8779,
      "Äłexpertise": 8780,
      "ĠÄłvarious": 8781,
      "ĠÄłlearning": 8782,
      "Äłmathematics": 8783,
      "ĠÄłmembers": 8784,
      "Äłweapons": 8785,
      "Äładequate": 8786,
      ")||": 8787,
      "120": 8788,
      "RS": 8789,
      "bacco": 8790,
      "lamic": 8791,
      "Ä·": 8792,
      "Äłwider": 8793,
      "ali": 8794,
      "ÄłpH": 8795,
      "ourage": 8796,
      "Äłborder": 8797,
      "Äłfraction": 8798,
      "Äłren": 8799,
      "olving": 8800,
      "imals": 8801,
      "uten": 8802,
      "utter": 8803,
      "owered": 8804,
      "Äłstands": 8805,
      "Äłstyles": 8806,
      "ÄłID": 8807,
      "oping": 8808,
      "Äłorb": 8809,
      "ersion": 8810,
      "emor": 8811,
      "ĠÄłsit": 8812,
      "ĠÄłpress": 8813,
      "ĠÄłprim": 8814,
      "oca": 8815,
      "ĠÄłbusiness": 8816,
      "ÄłHall": 8817,
      "ÄłWall": 8818,
      "Äłatoms": 8819,
      "Äłdeeper": 8820,
      "Äłru": 8821,
      "Äłrank": 8822,
      "ÄłEs": 8823,
      "ÄłFigure": 8824,
      "ĠÄłtop": 8825,
      "ÄłGovern": 8826,
      "Äłships": 8827,
      "Äłworship": 8828,
      "ustral": 8829,
      "ÄłOpen": 8830,
      "Äłresc": 8831,
      "ĠÄłtype": 8832,
      "ĠÄłnature": 8833,
      "ĠÄłnext": 8834,
      "Äłmanip": 8835,
      "Äłperf": 8836,
      "okes": 8837,
      "oked": 8838,
      "ordinary": 8839,
      "ĠÄłeither": 8840,
      "Äłsoils": 8841,
      "Äłappl": 8842,
      "ĠÄłgrowth": 8843,
      "ÄłKids": 8844,
      "Äłrecre": 8845,
      "lication": 8846,
      "ontin": 8847,
      "awn": 8848,
      "Äłattitudes": 8849,
      "Äłearn": 8850,
      "ĠÄłWhat": 8851,
      "ĠÄłDep": 8852,
      "Äłcoron": 8853,
      "Äłelectrons": 8854,
      "Äłestimate": 8855,
      "Äładvis": 8856,
      "Äłproductive": 8857,
      "Äłlighting": 8858,
      "Äłpublication": 8859,
      "Äłopposed": 8860,
      "Äłissued": 8861,
      "Äłdemands": 8862,
      "Äłantioxid": 8863,
      "Äłengaged": 8864,
      "Äłelection": 8865,
      "Äłfarms": 8866,
      "ÄłConst": 8867,
      "ospit": 8868,
      "Äłbroke": 8869,
      "Äłexisted": 8870,
      "Äłpeak": 8871,
      "elfare": 8872,
      "ĠÄłclose": 8873,
      "Äłconsume": 8874,
      "Äłcontributed": 8875,
      "Äłindicated": 8876,
      "Äłutility": 8877,
      "Äłfunded": 8878,
      "Äłholds": 8879,
      "ÄłAgency": 8880,
      "aturated": 8881,
      "Äłhabitats": 8882,
      "Äłimplications": 8883,
      "ealand": 8884,
      "Äłordered": 8885,
      "amilies": 8886,
      "Äłuniversities": 8887,
      "ĠÄłeduc": 8888,
      "Äłincorporated": 8889,
      "Äłofficer": 8890,
      "Äłexcessive": 8891,
      "ĠÄłincrease": 8892,
      "Äłdynam": 8893,
      "Äłboundaries": 8894,
      "Using": 8895,
      "iblical": 8896,
      "Äłsomewhat": 8897,
      "emperature": 8898,
      "ÄłKorea": 8899,
      "ĠÄłpotential": 8900,
      "Äłsubsequent": 8901,
      "Äłproportion": 8902,
      "ÄłWikipedia": 8903,
      "ÄłAtlantic": 8904,
      "ÄłSecretary": 8905,
      "%,": 8906,
      "700": 8907,
      "83": 8908,
      "Le": 8909,
      "Last": 8910,
      "MP": 8911,
      "People": 8912,
      "UL": 8913,
      "ao": 8914,
      "aired": 8915,
      "author": 8916,
      "borne": 8917,
      "friendly": 8918,
      "net": 8919,
      "Åģ": 8920,
      "ĠIf": 8921,
      "Äłtens": 8922,
      "ĠÄłment": 8923,
      "inery": 8924,
      "Äłsaving": 8925,
      "itual": 8926,
      "Äłwound": 8927,
      "Äłpit": 8928,
      "Äłbat": 8929,
      "Äłfed": 8930,
      "Äłinequ": 8931,
      "Äłdiver": 8932,
      "station": 8933,
      "Äłlies": 8934,
      "sem": 8935,
      "uris": 8936,
      "urse": 8937,
      "ÄłAuthor": 8938,
      "Äłstreet": 8939,
      "aya": 8940,
      "adi": 8941,
      "ady": 8942,
      "illance": 8943,
      "ÄłMean": 8944,
      "ema": 8945,
      "ÄłPub": 8946,
      "Äłexhaust": 8947,
      "ÄłDC": 8948,
      "ÄłEst": 8949,
      "ÄłFind": 8950,
      "ouring": 8951,
      "ĠÄłdest": 8952,
      "ÄłGal": 8953,
      "ÄłGard": 8954,
      "asts": 8955,
      "ĠÄłhaving": 8956,
      "ÄłJeff": 8957,
      "assion": 8958,
      "ĠÄłturn": 8959,
      "2022": 8960,
      "Äłclothing": 8961,
      "ĠÄłlist": 8962,
      "Äłpartners": 8963,
      "rend": 8964,
      "ricted": 8965,
      "ĠÄłCl": 8966,
      "ternet": 8967,
      "Äłknowing": 8968,
      "ieth": 8969,
      "ypically": 8970,
      "Äłprovince": 8971,
      "Äłempt": 8972,
      "Äłinterventions": 8973,
      "arming": 8974,
      "ĠÄłWith": 8975,
      "ĠÄłheart": 8976,
      "ĠÄłGe": 8977,
      "Äłdefine": 8978,
      "ĠÄłalways": 8979,
      "ĠÄłalready": 8980,
      "Äłminute": 8981,
      "Äłsolving": 8982,
      "ĠÄłconcer": 8983,
      "ĠÄłshall": 8984,
      "Äłproductivity": 8985,
      "ÄłSpring": 8986,
      "Äłsla": 8987,
      "ĠÄłUS": 8988,
      "Äłrestore": 8989,
      "Äłscientist": 8990,
      "Äłparameters": 8991,
      "viously": 8992,
      "ĠÄłenvironment": 8993,
      "Äłflows": 8994,
[...]
