{
  "version": "1.0",
  "truncation": null,
  "padding": null,
  "added_tokens": [
    {
      "id": 0,
      "content": "<|bos|>",
      "single_word": false,
      "lstrip": false,
      "rstrip": false,
      "normalized": false,
      "special": true
    },
    {
      "id": 1,
      "content": "<|user_start|>",
      "single_word": false,
      "lstrip": false,
      "rstrip": false,
      "normalized": false,
      "special": true
    },
    {
      "id": 2,
      "content": "<|user_end|>",
      "single_word": false,
      "lstrip": false,
      "rstrip": false,
      "normalized": false,
      "special": true
    },
    {
      "id": 3,
      "content": "<|assistant_start|>",
      "single_word": false,
      "lstrip": false,
      "rstrip": false,
      "normalized": false,
      "special": true
    },
    {
      "id": 4,
      "content": "<|assistant_end|>",
      "single_word": false,
      "lstrip": false,
      "rstrip": false,
      "normalized": false,
      "special": true
    },
    {
      "id": 5,
      "content": "<|python_start|>",
      "single_word": false,
      "lstrip": false,
      "rstrip": false,
      "normalized": false,
      "special": true
    },
    {
      "id": 6,
      "content": "<|python_end|>",
      "single_word": false,
      "lstrip": false,
      "rstrip": false,
      "normalized": false,
      "special": true
    },
    {
      "id": 7,
      "content": "<|output_start|>",
      "single_word": false,
      "lstrip": false,
      "rstrip": false,
      "normalized": false,
      "special": true
    },
    {
      "id": 8,
      "content": "<|output_end|>",
      "single_word": false,
      "lstrip": false,
      "rstrip": false,
      "normalized": false,
      "special": true
    },
    {
      "id": 9,
      "content": "<|unk|>",
      "single_word": false,
      "lstrip": false,
      "rstrip": false,
      "normalized": false,
      "special": true
    }
  ],
  "normalizer": null,
  "pre_tokenizer": {
    "type": "Sequence",
    "pretokenizers": [
      {
        "type": "Split",
        "pattern": {
          "Regex": "'(?i:[sdmt]|ll|ve|re)|[^\\r\\n\\p{L}\\p{N}]?+\\p{L}+|\\p{N}{1,2}| ?[^\\s\\p{L}\\p{N}]++[\\r\\n]*|\\s*[\\r\\n]|\\s+(?!\\S)|\\s+"
        },
        "behavior": "Isolated",
        "invert": false
      },
      {
        "type": "ByteLevel",
        "add_prefix_space": false,
        "trim_offsets": true,
        "use_regex": false
      }
    ]
  },
  "post_processor": {
    "type": "TemplateProcessing",
    "single": [
      {
        "Sequence": {
          "id": "A",
          "type_id": 0
        }
      }
    ],
    "pair": [
      {
        "Sequence": {
          "id": "A",
          "type_id": 0
        }
      },
      {
        "Sequence": {
          "id": "B",
          "type_id": 1
        }
      }
    ],
    "special_tokens": {}
  },
  "decoder": {
    "type": "ByteLevel",
    "add_prefix_space": true,
    "trim_offsets": true,
    "use_regex": true
  },
  "model": {
    "type": "Unigram",
    "unk_id": 9,
    "vocab": [
      [
        "<|bos|>",
        0.0
      ],
      [
        "<|user_start|>",
        0.0
      ],
      [
        "<|user_end|>",
        0.0
      ],
      [
        "<|assistant_start|>",
        0.0
      ],
      [
        "<|assistant_end|>",
        0.0
      ],
      [
        "<|python_start|>",
        0.0
      ],
      [
        "<|python_end|>",
        0.0
      ],
      [
        "<|output_start|>",
        0.0
      ],
      [
        "<|output_end|>",
        0.0
      ],
      [
        "<|unk|>",
        0.0
      ],
      [
        "Ġ",
        -2.6658726239960178
      ],
      [
        ",",
        -4.197989768213176
      ],
      [
        ".",
        -4.537563298583988
      ],
      [
        "à°¿",
        -4.786266636362191
      ],
      [
        "Ċ",
        -4.885328501426082
      ],
      [
        "à±ģ",
        -4.944975643884952
      ],
      [
        "1",
        -5.287367773430402
      ],
      [
        "0",
        -5.287786866623641
      ],
      [
        ".Ċ",
        -5.309370470151972
      ],
      [
        "à¥ĩ",
        -5.317390113827745
      ],
      [
        "Ø©",
        -5.412587440074814
      ],
      [
        "Ġà¤ķ",
        -5.432381388166492
      ],
      [
        "s",
        -5.458514345388323
      ],
      [
        "-",
        -5.478096811988253
      ],
      [
        "2",
        -5.523057289813632
      ],
      [
        "à±į",
        -5.540266703763242
      ],
      [
        "à°Ĥ",
        -5.548661087993928
      ],
      [
        "à¤¾",
        -5.591504725676753
      ],
      [
        "à°¾",
        -5.646097513012132
      ],
      [
        "à¥Ģ",
        -5.674372420723033
      ],
      [
        "Ġà°ª",
        -5.797638999340993
      ],
      [
        "à°¾à°°",
        -5.8459265265388805
      ],
      [
        "à±ĭ",
        -5.863717245792397
      ],
      [
        "a",
        -5.865734390532815
      ],
      [
        "ĠØ§ÙĦ",
        -5.880728122599274
      ],
      [
        "e",
        -5.921834001589032
      ],
      [
        "Ġà°µ",
        -5.937815452471245
      ],
      [
        "ØĮ",
        -5.977672346277329
      ],
      [
        "ĠÙģÙĬ",
        -5.9947975683242
      ],
      [
        "Ġà°ķ",
        -6.01710430278875
      ],
      [
        "ĠÙħÙĨ",
        -6.069169176235777
      ],
      [
        "Ġde",
        -6.076242422081156
      ],
      [
        "Ġà¤¹",
        -6.07697098574384
      ],
      [
        "Ġthe",
        -6.077861208939398
      ],
      [
        "°",
        -6.106879672300968
      ],
      [
        "à±įà°¨",
        -6.121781967365102
      ],
      [
        "Ġya",
        -6.134000061827415
      ],
      [
        "Ĥ",
        -6.141624835034985
      ],
      [
        "3",
        -6.160599082675011
      ],
      [
        "ĠÙĪ",
        -6.1720426713458085
      ],
      [
        "Ġ(",
        -6.173043322802609
      ],
      [
        ":",
        -6.180881169742035
      ],
      [
        "©",
        -6.188199543686212
      ],
      [
        "Ġna",
        -6.188357526517102
      ],
      [
        "Ġà°¸",
        -6.188806494716749
      ],
      [
        "¨",
        -6.189214099024607
      ],
      [
        "à¸µà¹Ī",
        -6.196258310545778
      ],
      [
        "à°¦",
        -6.224261341134062
      ],
      [
        "5",
        -6.2391952733432365
      ],
      [
        "Ġà°®",
        -6.241125554888539
      ],
      [
        "¸",
        -6.243452278788446
      ],
      [
        "à±ĩ",
        -6.265091304552124
      ],
      [
        "Ġà°ļ",
        -6.266808557021406
      ],
      [
        "Ġà¤¸",
        -6.28620937701209
      ],
      [
        "à±įà°°",
        -6.288177366260655
      ],
      [
        "à°¾à°¨",
        -6.318154964804053
      ],
      [
        ")",
        -6.32827722070002
      ],
      [
        "à±įà°¤",
        -6.335669307323084
      ],
      [
        "Ġà¤®",
        -6.352111795028751
      ],
      [
        "9",
        -6.358310516777491
      ],
      [
        "Ġà°¨",
        -6.372768519149798
      ],
      [
        "à°¾à°²",
        -6.388374569796241
      ],
      [
        "à¹Ī",
        -6.404774951739672
      ],
      [
        "à°¿à°¨",
        -6.4148380462204635
      ],
      [
        "à°¿à°ķ",
        -6.416294379297151
      ],
      [
        "ÙĬØ©",
        -6.422241996562198
      ],
      [
        "à±įà°²",
        -6.424401416554472
      ],
      [
        "4",
        -6.426399499556389
      ],
      [
        "à°ļ",
        -6.440584203732934
      ],
      [
        "Ġwa",
        -6.4408384523306665
      ],
      [
        "¤",
        -6.484273389975003
      ],
      [
        "à±įà°¯",
        -6.5031288263845415
      ],
      [
        "'",
        -6.513778755900271
      ],
      [
        "¹",
        -6.5381756901176225
      ],
      [
        "o",
        -6.565736409479358
      ],
      [
        "Ġa",
        -6.580750668120091
      ],
      [
        "ĠÐ¸",
        -6.581378233333361
      ],
      [
        "8",
        -6.583321720272014
      ],
      [
        "ĠÐ²",
        -6.595957285657272
      ],
      [
        "6",
        -6.622089542075473
      ],
      [
        "à±ģà°²",
        -6.6304324810060695
      ],
      [
        "à±įà°Ł",
        -6.646087707827823
      ],
      [
        "à¥ĩà¤Ĥ",
        -6.6675820396076695
      ],
      [
        "à±ģà°Ĥ",
        -6.6827872494836225
      ],
      [
        "µ",
        -6.6866381219300255
      ],
      [
        "à±ģà°ķ",
        -6.690447776234256
      ],
      [
        "à±ģà°¨",
        -6.696506626217287
      ],
      [
        "à¥ĭ",
        -6.697760731626799
      ],
      [
        "i",
        -6.701975720788855
      ],
      [
        "ĠØ¹ÙĦÙī",
        -6.711716633035383
      ],
      [
        "²",
        -6.713994268666649
      ],
      [
        "à±Ģ",
        -6.719083404071535
      ],
      [
        "7",
        -6.719687197668039
      ],
      [
        "à±ģ.",
        -6.731306873730098
      ],
      [
        "Ġve",
        -6.740653440794359
      ],
      [
        "Ġto",
        -6.742134846020047
      ],
      [
        "t",
        -6.745112852371358
      ],
      [
        "Ġla",
        -6.746939066578374
      ],
      [
        "Ø§",
        -6.7502579036111285
      ],
      [
        "à°¿à°",
        -6.7527532804066475
      ],
      [
        "ķ",
        -6.7534747466382825
      ],
      [
        "à°¿.",
        -6.767215975160484
      ],
      [
        "Ġof",
        -6.785993459834598
      ],
      [
        "Ġand",
        -6.8072560774912745
      ],
      [
        "à¤¾à¤°",
        -6.819526672610472
      ],
      [
        "\"",
        -6.8266927774257
      ],
      [
        "Ġà°°",
        -6.845808724860294
      ],
      [
        "à°Ł",
        -6.861318960761865
      ],
      [
        "ī",
        -6.87309375343658
      ],
      [
        "Ġkwa",
        -6.882227276256193
      ],
      [
        "n",
        -6.890057042632593
      ],
      [
        "Ġà¤ª",
        -6.892355749668113
      ],
      [
        "§",
        -6.900821771394872
      ],
      [
        "ª",
        -6.913328585035076
      ],
      [
        "Ġà°¤",
        -6.928624914562951
      ],
      [
        "Ùĭ",
        -6.9293726506309845
      ],
      [
        "Ġm",
        -6.94729459395854
      ],
      [
        "ï¼Į",
        -6.954901556092565
      ],
      [
        "à°¡",
        -6.974174329167145
      ],
      [
        "/",
        -6.984629121100088
      ],
      [
        "y",
        -6.995535159085737
      ],
      [
        "à¹ī",
        -7.009883776442056
      ],
      [
        "ÙĩØ§",
        -7.044177773686153
      ],
      [
        "Ġin",
        -7.045218113425165
      ],
      [
        "(",
        -7.048176176410799
      ],
      [
        "u",
        -7.050800158202986
      ],
      [
        "Ġà¤ľ",
        -7.052829197057141
      ],
      [
        "ĠØ¨",
        -7.053536684667433
      ],
      [
        "Ġà¤¦",
        -7.056650265728955
      ],
      [
        "à¥ĭà¤Ĥ",
        -7.056840137370308
      ],
      [
        "ĠØ£ÙĨ",
        -7.069414167356033
      ],
      [
        "Ġet",
        -7.082514515847965
      ],
      [
        "à±įà°ª",
        -7.087653923262451
      ],
      [
        "Ġbir",
        -7.107439801710866
      ],
      [
        "Ġd",
        -7.111930639342237
      ],
      [
        "à±įà°ļ",
        -7.121489128500091
      ],
      [
        "à°Ĥà°Ĺ",
        -7.144122946612175
      ],
      [
        "Ġà°²",
        -7.148176723789462
      ],
      [
        "âĢĻ",
        -7.158903945003292
      ],
      [
        "Ġà°¦",
        -7.173133666476449
      ],
      [
        "¡",
        -7.175729661434881
      ],
      [
        "à¥įà¤°",
        -7.181117451174462
      ],
      [
        "à¤¿",
        -7.184699013588194
      ],
      [
        "à°¿à°¤",
        -7.18566564614653
      ],
      [
        "Ġku",
        -7.187670107469323
      ],
      [
        "à¸·",
        -7.190879974822522
      ],
      [
        "r",
        -7.199337357086538
      ],
      [
        "ĠÐ½Ð°",
        -7.202544410178257
      ],
      [
        "à±ĩà°¸",
        -7.203467536412978
      ],
      [
        "d",
        -7.207773514465311
      ],
      [
        "à±įà°ķ",
        -7.21036458832787
      ],
      [
        "à°²",
        -7.2119326514307165
      ],
      [
        "ÙĬÙĨ",
        -7.217170891074108
      ],
      [
        "ĠÑģ",
        -7.226092663820699
      ],
      [
        "Ãł",
        -7.229367973549071
      ],
      [
        "Ġà¤²",
        -7.230723351436186
      ],
      [
        "¯",
        -7.235074967634686
      ],
      [
        "Ġà°¬",
        -7.237163777705547
      ],
      [
        "à°¾à°¯",
        -7.238260298075103
      ],
      [
        "à¤¾à¤¨",
        -7.238725073886464
      ],
      [
        "Ġà°Ĺ",
        -7.244762606827733
      ],
      [
        "Ġl",
        -7.244763193746451
      ],
      [
        "Ġà¤¨",
        -7.245538607970282
      ],
      [
        "Ġà¤¬",
        -7.263582416019817
      ],
      [
        "à¸Ļ",
        -7.2654601346340115
      ],
      [
        "à°¿à°²",
        -7.267047665383362
      ],
      [
        "à±įà°µ",
        -7.27118049430881
      ],
      [
        "Ġà°ħà°¨",
        -7.27564879885456
      ],
      [
        "ed",
        -7.277917623179883
      ],
      [
        "à±įà°¸",
        -7.280024792688136
      ],
      [
        "Ġle",
        -7.282211028032174
      ],
      [
        "à°¿à°¸",
        -7.28280627995623
      ],
      [
        "à°¨",
        -7.284496360628204
      ],
      [
        "¹Ī",
        -7.296097887650621
      ],
      [
        "Ĭ",
        -7.297377928330681
      ],
      [
        "ĠÐ½Ðµ",
        -7.299333348664115
      ],
      [
        "à°Ĥà°¦",
        -7.319506583149778
      ],
      [
        "à°Ĥà°Ł",
        -7.325760842892214
      ],
      [
        "Ġà¤µ",
        -7.331260195812595
      ],
      [
        "à±ģà°¤",
        -7.339092933299122
      ],
      [
        "Ñĭ",
        -7.342939005042439
      ],
      [
        "ing",
        -7.346629925287243
      ],
      [
        "à°¾à°¡",
        -7.354844904275918
      ],
      [
        "à°¿à°¯",
        -7.3665467076457425
      ],
      [
        "à¤¿à¤¯",
        -7.372451458433289
      ],
      [
        "Ġni",
        -7.373392858326531
      ],
      [
        "es",
        -7.38164475670891
      ],
      [
        "à¥įà¤¯",
        -7.406865525241784
      ],
      [
        "£",
        -7.413753294110071
      ],
      [
        "à¹Į",
        -7.417655990400462
      ],
      [
        "Ø¥ÙĦÙī",
        -7.417903835670181
      ],
      [
        "à±Ĭà°",
        -7.418592037160513
      ],
      [
        "k",
        -7.420820332608262
      ],
      [
        "er",
        -7.4270971888140895
      ],
      [
        "à°¾à°Ĥ",
        -7.429503911524479
      ],
      [
        ":Ċ",
        -7.430568132883884
      ],
      [
        "à¥Ī",
        -7.432158609764183
      ],
      [
        "à°ķ",
        -7.433727008041297
      ],
      [
        "m",
        -7.43454158861787
      ],
      [
        "à°¤",
        -7.443519003788472
      ],
      [
        "Ġà¤Ķà¤°",
        -7.447076035441972
      ],
      [
        "Ġen",
        -7.455584152053579
      ],
      [
        "à°¿à°Ĺ",
        -7.456477695553133
      ],
      [
        "ãĢĤ",
        -7.462812554998312
      ],
      [
        "Ġà°ħ",
        -7.464717514443
      ],
      [
        "à°Ĺ",
        -7.474567914778483
      ],
      [
        "Ġles",
        -7.478478607128061
      ],
      [
        "ãĢĤĊ",
        -7.482565139835541
      ],
      [
        "Ġdes",
        -7.483146774017532
      ],
      [
        "Ī",
        -7.4885200500747935
      ],
      [
        "à±Ĥ",
        -7.488672179240421
      ],
      [
        "Ġ\"",
        -7.490033606929094
      ],
      [
        "à±ģà°¡",
        -7.49113287557123
      ],
      [
        "à°Ĥà°¤",
        -7.496695907891306
      ],
      [
        "ĠM",
        -7.507273810786385
      ],
      [
        "ĠØ¹ÙĨ",
        -7.525634976058392
      ],
      [
        "à°®",
        -7.530858669595178
      ],
      [
        "Ġk",
        -7.534973585508064
      ],
      [
        "Ùĩ",
        -7.543561863621015
      ],
      [
        "à±ģà°Ĺ",
        -7.547782150152779
      ],
      [
        "à°¾à°¤",
        -7.564409267151643
      ],
      [
        "Ġma",
        -7.566644911659857
      ],
      [
        "à°¿à°ª",
        -7.568219859296411
      ],
      [
        "à¸µ",
        -7.570204987542569
      ],
      [
        "à±Ĩà°",
        -7.573495270702313
      ],
      [
        "à±Ĩà°²",
        -7.578275793699694
      ],
      [
        "à°ª",
        -7.593707646012831
      ],
      [
        "Ġis",
        -7.59379530004335
      ],
      [
        "à±Ĩà°Ĥ",
        -7.600115178038992
      ],
      [
        "ĠØ§ÙĦØªÙĬ",
        -7.60460407579105
      ],
      [
        "à¸µà¹ī",
        -7.608697548821528
      ],
      [
        "à¸¹à¹ī",
        -7.615417273739109
      ],
      [
        "Ġza",
        -7.618377028095598
      ],
      [
        "Ø§Øª",
        -7.621179413835824
      ],
      [
        "ĠÙĪØ§ÙĦ",
        -7.622061332195571
      ],
      [
        "à¹Ħà¸Ķ",
        -7.6269019333167165
      ],
      [
        "Ðµ",
        -7.627092470167311
      ],
      [
        "à±Īà°¨",
        -7.630989175642972
      ],
      [
        "Ġà°ī",
        -7.636823092816718
      ],
      [
        "katika",
        -7.637828120819581
      ],
      [
        "Ñĥ",
        -7.638480309466306
      ],
      [
        "ĠÙĦØ§",
        -7.641804920532422
      ],
      [
        "à¸´",
        -7.649912078908539
      ],
      [
        "®",
        -7.657682469692299
      ],
      [
        "à°¿à°°",
        -7.66510988023764
      ],
      [
        "ĠÙĦ",
        -7.678360420494755
      ],
      [
        "Ġbe",
        -7.684722920138395
      ],
      [
        "Ł",
        -7.6847620578871325
      ],
      [
        ";",
        -7.689168831199678
      ],
      [
        "Ġà¤ªà¤°",
        -7.6917402279498415
      ],
      [
        "ĠI",
        -7.691956419280375
      ],
      [
        "Ġà°Ī",
        -7.695225197530972
      ],
      [
        "Ġfor",
        -7.696351028866506
      ],
      [
        "ÑģÑı",
        -7.697506631712702
      ],
      [
        "à°¾à°ķ",
        -7.703637988745076
      ],
      [
        "Ġà¤Ń",
        -7.704071125276711
      ],
      [
        "ĠS",
        -7.711275543571659
      ],
      [
        "ĠØ£ÙĪ",
        -7.712618396528956
      ],
      [
        "ĠÙħØ§",
        -7.712864685589683
      ],
      [
        "Ġs",
        -7.719423327450004
      ],
      [
        "·",
        -7.727184625087229
      ],
      [
        "ı",
        -7.738962042285111
      ],
      [
        "à¤ķ",
        -7.744205420581423
      ],
      [
        "ĠØ§ÙĦÙĦÙĩ",
        -7.74649196563348
      ],
      [
        "ĠÑĩÑĤÐ¾",
        -7.748810435998225
      ],
      [
        "à°¾à°Ł",
        -7.752089939137917
      ],
      [
        "à±ģà°°",
        -7.752911146316004
      ],
      [
        "à±įà°®",
        -7.753548810756271
      ],
      [
        "ĠâĢľ",
        -7.759562883708428
      ],
      [
        "Ð¸",
        -7.767127452395204
      ],
      [
        "ĠA",
        -7.767588691610568
      ],
      [
        "à¸·à",
        -7.768673099762399
      ],
      [
        "à¤¿à¤ķ",
        -7.769988790246224
      ],
      [
        "Ġdu",
        -7.776586313910858
      ],
      [
        "Ġun",
        -7.777202578416857
      ],
      [
        "Ġà°®à°°",
        -7.778295518740395
      ],
      [
        "à°µ",
        -7.780532139931323
      ],
      [
        "Â«",
        -7.783208618787857
      ],
      [
        "ĠÐ¿Ð¾",
        -7.785763366914775
      ],
      [
        "à¸Ĺ",
        -7.792292126476717
      ],
      [
        "Ġà¤¤",
        -7.803398866975982
      ],
      [
        "à±ģà°µ",
        -7.803539880288952
      ],
      [
        "à¤¾à¤",
        -7.806820734726608
      ],
      [
        "ļ",
        -7.806843126462466
      ],
      [
        "Ùİ",
        -7.809885272638565
      ],
      [
        "Ġà¤°",
        -7.812801879248404
      ],
      [
        "da",
        -7.813471163077569
      ],
      [
        "³",
        -7.820076414636969
      ],
      [
        "ÑĭÑħ",
        -7.825717635138664
      ],
      [
        "âĢĿ",
        -7.83136654649349
      ],
      [
        "à¹Īà¸²",
        -7.833555357762934
      ],
      [
        "à¹Ģà¸Ľ",
        -7.838644331693304
      ],
      [
        "à¥įà¤¤",
        -7.846505246100071
      ],
      [
        "Ġà°Ń",
        -7.847877028767874
      ],
      [
        "ÙĨØ§",
        -7.848149499135575
      ],
      [
        "à¸",
        -7.850341229336072
      ],
      [
        "à¸¡",
        -7.855920049031432
      ],
      [
        "Ġau",
        -7.858372259690899
      ],
      [
        "à±Ĥà°¡",
        -7.860230088400032
      ],
      [
        "de",
        -7.860532631336541
      ],
      [
        "à°Ĥà°¡",
        -7.8636553367500355
      ],
      [
        "à°¾à°Ĺ",
        -7.864137857994274
      ],
      [
        ")Ċ",
        -7.865342250856525
      ],
      [
        "à¤¾à¤¤",
        -7.865491725392836
      ],
      [
        "ÙĩØ°Ùĩ",
        -7.871502482621832
      ],
      [
        "le",
        -7.877250298562098
      ],
      [
        "ya",
        -7.877432497294466
      ],
      [
        "à±ĩà°¦",
        -7.879129119112667
      ],
      [
        "?",
        -7.883937333617961
      ],
      [
        "ĠÙĩØ°Ø§",
        -7.883946230492171
      ],
      [
        "[",
        -7.895565534343307
      ],
      [
        "à¤¾à¤²",
        -7.897430520758855
      ],
      [
        "Ġà°ľ",
        -7.897833848389716
      ],
      [
        "à±Ī",
        -7.899093137624861
      ],
      [
        "à¥ģà¤",
        -7.9045233509766195
      ],
      [
        "Ġà°¯",
        -7.905240342224328
      ],
      [
        "Ġon",
        -7.910798871770753
      ],
      [
        "à¥Īà¥¤",
        -7.915848893343954
      ],
      [
        "¥",
        -7.919570226750233
      ],
      [
        "en",
        -7.925735214095329
      ],
      [
        "à¹Ħà¸¡",
        -7.934070682074472
      ],
      [
        "l",
        -7.938522002284586
      ],
      [
        "à¤¿à¤",
        -7.940150332449386
      ],
      [
        "à±ĭà°¨",
        -7.941260128317641
      ],
      [
        "ÙĩÙħ",
        -7.941392832301046
      ],
      [
        "à°¾à°¦",
        -7.949333524293968
      ],
      [
        "à¸¹à¹Ī",
        -7.951108777639831
      ],
      [
        "à±ĩà°¶",
        -7.955088277006716
      ],
      [
        "ĠØ£",
        -7.959664026816769
      ],
      [
        "âĢĵ",
        -7.962841100352501
      ],
      [
        "Ġkuwa",
        -7.963009634341468
      ],
      [
        "¦",
        -7.964784654243218
      ],
      [
        "à¤¿à¤¤",
        -7.965900107755205
      ],
      [
        "ĠÙĦÙĦ",
        -7.968349990605619
      ],
      [
        "à°¾à°¸",
        -7.972876375940787
      ],
      [
        "¬",
        -7.98142329592881
      ],
      [
        "«",
        -7.9822931741803025
      ],
      [
        "Ġw",
        -7.983792372191681
      ],
      [
        "à°¾à°®",
        -7.990092796955707
      ],
      [
        "ÑĤÑĮ",
        -7.992804139130966
      ],
      [
        "in",
        -7.992972927658229
      ],
      [
        "Ĺ",
        -7.993211537304367
      ],
      [
        "Ġpour",
        -7.997486996519651
      ],
      [
        "à¥Īà¤Ĥ",
        -8.001134266659724
      ],
      [
        "ĠØ§ÙĦØ°ÙĬ",
        -8.005551993401479
      ],
      [
        "à°¿à°®",
        -8.006716753262069
      ],
      [
        "à±Ĩà°Ł",
        -8.015315179921817
      ],
      [
        "ĠC",
        -8.0177067475677
      ],
      [
        "ĠÙģ",
        -8.017794976597932
      ],
      [
        "na",
        -8.021360225459366
      ],
      [
        "âĢľ",
        -8.02160550788327
      ],
      [
        "à¤¿à¤ı",
        -8.022361512715845
      ],
      [
        "ĭ",
        -8.023507505997888
      ],
      [
        "?Ċ",
        -8.030696906562609
      ],
      [
        "Ġà¤ķà¤°",
        -8.034571437550085
      ],
      [
        "à°Ĥà°",
        -8.035078565171608
      ],
      [
        "ãĢģ",
        -8.036522589216789
      ],
      [
        "ĠØ§ÙĦØ",
        -8.044243489232846
      ],
      [
        "Ġwith",
        -8.046223644428375
      ],
      [
        "wa",
        -8.046263649225976
      ],
      [
        "à°°",
        -8.051417734459797
      ],
      [
        "à¸ª",
        -8.0523193496176
      ],
      [
        "ĠÙħØ¹",
        -8.055009908760368
      ],
      [
        "çļĦ",
        -8.059411032692152
      ],
      [
        "ģ",
        -8.060619974324046
      ],
      [
        "ĠÙĬ",
        -8.06117134523977
      ],
      [
        "à¸Ķ",
        -8.061255155558841
      ],
      [
        "Ð°",
        -8.061922880752158
      ],
      [
        "Ġà¤ļ",
        -8.062452865833546
      ],
      [
        "à¸¶",
        -8.06840210066104
      ],
      [
        "Ġbu",
        -8.071225590752132
      ],
      [
        "|",
        -8.078610573075762
      ],
      [
        "à¥įà¤Ł",
        -8.07875867367376
      ],
      [
        "Ġà¤¥",
        -8.081002257603894
      ],
      [
        "Ùı",
        -8.081718478881394
      ],
      [
        "Ġà°ĩ",
        -8.08214375811059
      ],
      [
        "à¸±à¸ļ",
        -8.082289661228032
      ],
      [
        "à¤¨",
        -8.08340590873933
      ],
      [
        "Ġà°Ĵà°ķ",
        -8.083429175157878
      ],
      [
        "à°¾à°µ",
        -8.084262006418315
      ],
      [
        "A",
        -8.08458501813941
      ],
      [
        "à¤¿à¤²",
        -8.087146734924628
      ],
      [
        "à±įà°¥",
        -8.089080187199881
      ],
      [
        "ĠiÃ§in",
        -8.092449107069688
      ],
      [
        "à±Ĥà°°",
        -8.093626964051996
      ],
      [
        "Ġki",
        -8.093838442073816
      ],
      [
        "à°¿à°µ",
        -8.094110263356376
      ],
      [
        "ÙĪØ§",
        -8.097105813075371
      ],
      [
        "à±įà°¦",
        -8.099600692451547
      ],
      [
        "Ñħ",
        -8.102385754512813
      ],
      [
        "Ġà°¹",
        -8.102835601846992
      ],
      [
        "Ġà°¶",
        -8.10584386394834
      ],
      [
        "!",
        -8.11380022741401
      ],
      [
        "Ġ:",
        -8.116413507653053
      ],
      [
        "Ġà°Ĩ",
        -8.118847595291532
      ],
      [
        "ĠØª",
        -8.119089051928363
      ],
      [
        "à±įà°¡",
        -8.119121276650878
      ],
      [
        "à±Ģà°°",
        -8.125769188592923
      ],
      [
        "ĠÙĥØ§ÙĨ",
        -8.12948737556738
      ],
      [
        "à°¾à°²à°¨",
        -8.129691833067323
      ],
      [
        "Øª",
        -8.134829174435625
      ],
      [
        "à¸§",
        -8.13518937631856
      ],
      [
        "ĠÙĥÙĦ",
        -8.137067145418666
      ],
      [
        "Ġt",
        -8.138686417893153
      ],
      [
        "ĩ",
        -8.138773286633926
      ],
      [
        "ÙĪÙĨ",
        -8.141096116041993
      ],
      [
        "Ġtha",
        -8.143188393232347
      ],
      [
        "c",
        -8.145315497238395
      ],
      [
        "Ã©",
        -8.14778703212476
      ],
      [
        "Ñı",
        -8.148681162747966
      ],
      [
        "à¸£",
        -8.152079106653341
      ],
      [
        "Ń",
        -8.157129309945738
      ],
      [
        "à±ĩà°°",
        -8.159115293510412
      ],
      [
        "Ø°ÙĦÙĥ",
        -8.159794844585557
      ],
      [
        "à¥Ģà¤Ĥ",
        -8.160903792023408
      ],
      [
        "ÙİÙĳ",
        -8.16197875739978
      ],
      [
        "Ġque",
        -8.163041531208373
      ],
      [
        "Ġqui",
        -8.163226006050717
      ],
      [
        "ly",
        -8.165006289485868
      ],
      [
        "Ľ",
        -8.168820154631026
      ],
      [
        "à¤¾à¤Ĥ",
        -8.17072619236946
      ],
      [
        "Ùħ",
        -8.173566192534185
      ],
      [
        "ÙĲ",
        -8.176141490925081
      ],
      [
        "Ġà°ĩà°",
        -8.17840744879717
      ],
      [
        "à¤Ĺ",
        -8.18120683550256
      ],
      [
        "à°¸",
        -8.181836769115904
      ],
      [
        "à¹ĥà¸«",
        -8.184530478170975
      ],
      [
        "ĠÐº",
        -8.186751552631478
      ],
      [
        "Ġà¤¶",
        -8.19807664346173
      ],
      [
        "Ġcha",
        -8.199520311811092
      ],
      [
        "re",
        -8.201516186732917
      ],
      [
        "à¸±à¸Ļ",
        -8.201949575346317
      ],
      [
        "ÙĬ",
        -8.207220353608513
      ],
      [
        "Į",
        -8.223643081718322
      ],
      [
        "Ġn",
        -8.228121775792093
      ],
      [
        "Ġit",
        -8.229830825983633
      ],
      [
        "Ġune",
        -8.233767762824487
      ],
      [
        "Ġc",
        -8.234140042627246
      ],
      [
        "à±įà°·",
        -8.240418534484393
      ],
      [
        "à¸Ńà¸¢",
        -8.242723960514692
      ],
      [
        "ĠB",
        -8.245809234628918
      ],
      [
        "Ġse",
        -8.24895428351325
      ],
      [
        "Ġile",
        -8.249623376660072
      ],
      [
        "Ġà¤ıà¤ķ",
        -8.254243951012398
      ],
      [
        "Ġà°«",
        -8.254739239998868
      ],
      [
        "Ùĳ",
        -8.256057294860891
      ],
      [
        "Ġà°ªà°°",
        -8.260022201480796
      ],
      [
        "Ġkama",
        -8.261283190973124
      ],
      [
        "à°¬",
        -8.267351038240601
      ],
      [
        "Ġsur",
        -8.269070125199285
      ],
      [
        "à¤¿à¤¸",
        -8.27286921191191
      ],
      [
        "à¥ĭà¤",
        -8.27357401904089
      ],
      [
        "à¤¾à¤®",
        -8.279052029903026
      ],
      [
        "Ð¾Ð²",
        -8.282743917473054
      ],
      [
        "Ð¾Ð¹",
        -8.291890640665212
      ],
      [
        "ĠÙħ",
        -8.292816293131256
      ],
      [
        "p",
        -8.29359868726291
      ],
      [
        "Â»",
        -8.295002012922716
      ],
      [
        "Ġu",
        -8.29660156127666
      ],
      [
        "à¸·à¸Ń",
        -8.296736433300817
      ],
      [
        "Ġà¤ĩà¤¸",
        -8.298435080860251
      ],
      [
        "à±Ģà°¸",
        -8.300246584925175
      ],
      [
        "Ġà¤Ĺ",
        -8.302492958684612
      ],
      [
        "ĸ",
        -8.303764027153408
      ],
      [
        "Ġdans",
        -8.306650354194186
      ],
      [
        "à¤¿à¤¨",
        -8.308321561671304
      ],
      [
        "±",
        -8.30920200136072
      ],
      [
        "Ġpar",
        -8.311765359006941
      ],
      [
        "Ġamba",
        -8.31339225536286
      ],
      [
        "Ð´Ð»Ñı",
        -8.31555546632256
      ],
      [
        "moja",
        -8.315934615113168
      ],
      [
        "ĠT",
        -8.319833094740634
      ],
      [
        "Ġest",
        -8.319993684287432
      ],
      [
        "à±ĩà°ķ",
        -8.323106155887515
      ],
      [
        "ir",
        -8.323193020518861
      ],
      [
        "ĠØ¹ÙĦÙĬÙĩ",
        -8.32379146242518
      ],
      [
        "à¤¨à¤¹",
        -8.324253172124745
      ],
      [
        "ĠØ§ÙĨ",
        -8.32861792707197
      ],
      [
        "Ġb",
        -8.332351693307938
      ],
      [
        "ÙĴ",
        -8.33274303389724
      ],
      [
        "Ġà¤°à¤¹",
        -8.33464896789202
      ],
      [
        "à°īà°¨",
        -8.33496158436257
      ],
      [
        "à±Ĭà°¨",
        -8.335262772850637
      ],
      [
        "¾",
        -8.343795738462866
      ],
      [
        "Ġson",
        -8.344056285085763
      ],
      [
        "ľ",
        -8.346307179455838
      ],
      [
        "),",
        -8.347458763577787
      ],
      [
        "an",
        -8.348726562527629
      ],
      [
        "la",
        -8.3489300737948
      ],
      [
        "Ð¾Ð³Ð¾",
        -8.350784260983461
      ],
      [
        "Ð¾Ð¼",
        -8.351277911593126
      ],
      [
        "ĠØ¨Ø§ÙĦ",
        -8.351829812330314
      ],
      [
        "âĢĶ",
        -8.352313588426139
      ],
      [
        "¶",
        -8.352681998441835
      ],
      [
        "Ġda",
        -8.353269910294605
      ],
      [
        "on",
        -8.353738267228563
      ],
      [
        "à¤¾à¤¯",
        -8.353903800046337
      ],
      [
        "à±Ĩà°¨",
        -8.355227614753801
      ],
      [
        "%",
        -8.355319777244382
      ],
      [
        "ĠÑįÑĤÐ¾",
        -8.35551239078077
      ],
      [
        "Ġne",
        -8.358688639881747
      ],
      [
        "]Ċ",
        -8.359400403914186
      ],
      [
        "à°¿à°¦",
        -8.360898071253919
      ],
      [
        "]",
        -8.36100093749797
      ],
      [
        "ĠThe",
        -8.361903536658298
      ],
      [
        "ĠÐ¾",
        -8.363575587273036
      ],
      [
        "à±ĩà°¨",
        -8.369225390983377
      ],
      [
        "Ġat",
        -8.369237499161851
      ],
      [
        "Ġyou",
        -8.36991883785728
      ],
      [
        "ĠÙĩÙĪ",
        -8.372341404217098
      ],
      [
        "ĠÐºÐ°Ðº",
        -8.372986644874487
      ],
      [
        "z",
        -8.37418761360125
      ],
      [
        "Ġas",
        -8.37671499070057
      ],
      [
        "Ġà¤«",
        -8.3771206695893
      ],
      [
        "à±įà°Ĺ",
        -8.38458384733569
      ],
      [
        "Ġà¤¯",
        -8.385274350381108
      ],
      [
        "à¤¾à¤¦",
        -8.386107125186129
      ],
      [
        "à¸ķ",
        -8.392480347358342
      ],
      [
        "Ð¸Ñħ",
        -8.393165058733377
      ],
      [
        "à¤¯à¤¹",
        -8.394468382239836
      ],
      [
        "à¸±",
        -8.395207520395024
      ],
      [
        "Ġà¸Ĺ",
        -8.397676642908849
      ],
      [
        "ni",
        -8.398706958158229
      ],
      [
        "à¸Ń",
        -8.403036976322017
      ],
      [
        "...",
        -8.406254411438265
      ],
      [
        "Ġare",
        -8.411811028016189
      ],
      [
        "à¥Īà¤",
        -8.414258608827094
      ],
      [
        "à°¾à°ª",
        -8.415378307888515
      ],
      [
        "à¤¸",
        -8.416455812042486
      ],
      [
        "à¥įà¤µ",
        -8.421061073009437
      ],
      [
        "||",
        -8.421178068178861
      ],
      [
        "Ġà¤Ĺà¤",
        -8.421497482669778
      ],
      [
        "ĠÐ¾ÑĤ",
        -8.422234006993653
      ],
      [
        "ĠD",
        -8.424076579266234
      ],
      [
        "M",
        -8.424784128388962
      ],
      [
        "ĠU",
        -8.427404722229053
      ],
      [
        "à°µà°ļ",
        -8.430785089356878
      ],
      [
        "ĠØ¨ÙĬÙĨ",
        -8.431372417069609
      ],
      [
        "Ġh",
        -8.431826874021208
      ],
      [
        "à¥įà¤®",
        -8.434132030883294
      ],
      [
        "ĠÐ¸Ð·",
        -8.434221601172837
      ],
      [
        "S",
        -8.441819533049873
      ],
      [
        "à°¾à°ľ",
        -8.446235884146102
      ],
      [
        "à¸ģ",
        -8.448711473757939
      ],
      [
        "Ġmi",
        -8.449640415263502
      ],
      [
        "à±Ĩà°°",
        -8.453790803775371
      ],
      [
        "ĠK",
        -8.45544241670127
      ],
      [
        "Ġwas",
        -8.459831232638571
      ],
      [
        "à¤®",
        -8.460871174182941
      ],
      [
        "|Ċ",
        -8.461174459105933
      ],
      [
        "!Ċ",
        -8.462338512667882
      ],
      [
        "à±įà°³",
        -8.466163915133032
      ],
      [
        "ĠÑĤÐ°Ðº",
        -8.470432197503033
      ],
      [
        "à¸¸",
        -8.471056637247301
      ],
      [
        "ï¼ļ",
        -8.471986083886225
      ],
      [
        "ÙĨ",
        -8.472715134083202
      ],
      [
        "al",
        -8.474607772804163
      ],
      [
        "à¥įà¤²",
        -8.478306963882034
      ],
      [
        "à¹īà¸²",
        -8.48072514641536
      ],
      [
        "à±Īà°",
        -8.481626930262674
      ],
      [
        "à¸¢",
        -8.482842527223363
      ],
      [
        "Ġpas",
        -8.487302500973158
      ],
      [
        "à±Ģà°¨",
        -8.50008535850155
      ],
      [
        "à¤¦",
        -8.500822727609716
      ],
      [
        "åĴĮ",
        -8.505517495595853
      ],
      [
        "à¥ĭà¤Ĺ",
        -8.50552161224191
      ],
      [
        "Ġor",
        -8.507148517497418
      ],
      [
        "Ä±",
        -8.507188298546357
      ],
      [
        "Ġby",
        -8.508064514984811
      ],
      [
        "à°Ĥà°ª",
        -8.51221073084583
      ],
      [
        "it",
        -8.51399834183847
      ],
      [
        "Ġ-",
        -8.516133991394241
      ],
      [
        "à±įà°°à°®",
        -8.51715963608819
      ],
      [
        "ĠH",
        -8.521918171802803
      ],
      [
        "ĠÙĦÙħ",
        -8.52289472107368
      ],
      [
        "f",
        -8.523148286362424
      ],
      [
        "à±įà°§",
        -8.524942191293196
      ],
      [
        "ĠP",
        -8.52566209944709
      ],
      [
        "ÙĪ",
        -8.52569079478221
      ],
      [
        "à±ĭà°²",
        -8.526273865440796
      ],
      [
        "à±ģà°¸",
        -8.526444173179769
      ],
      [
        "à±ĩà°µ",
        -8.52707406779472
      ],
      [
        "Ð°Ñı",
        -8.527655937760343
      ],
      [
        "Ħ",
        -8.530412743201513
      ],
      [
        "den",
        -8.531939904919525
      ],
      [
        "Ġp",
        -8.5333290740643
      ],
      [
        "à¤¾à¤¸",
        -8.533424009960598
      ],
      [
        "à±ĭà°Ĺ",
        -8.533448685202924
      ],
      [
        "Ð¸Ð»Ð¸",
        -8.53585361682973
      ],
      [
        "ye",
        -8.544890176011357
      ],
      [
        "à¤¿à¤°",
        -8.546000538805332
      ],
      [
        "à¤¾à¥¤",
        -8.547411590293962
      ],
      [
        "Ġà¤ĸ",
        -8.548885785352702
      ],
      [
        "Ġà¤ħà¤ªà¤",
        -8.55151380350011
      ],
      [
        "Ġà°ķà°²",
        -8.553011655111934
      ],
      [
        "Ġà°İ",
        -8.553381576890533
      ],
      [
        ").",
        -8.555639358492272
      ],
      [
        "ĵ",
        -8.555687648327751
      ],
      [
        "à°¾à°§",
        -8.55809447211955
      ],
      [
        "à±ĭà°°",
        -8.560936095335412
      ],
      [
        "à±Ĩ",
        -8.56113182104776
      ],
      [
        "à¤¼",
        -8.56645257407721
      ],
      [
        "à¹īà¸§",
        -8.567064348117693
      ],
      [
        "à¹ĩà¸Ļ",
        -8.567593535004399
      ],
      [
        "Ġan",
        -8.568389859026766
      ],
      [
        "à±įà°°à°¤",
        -8.570862243697299
      ],
      [
        "à°¿à°Ł",
        -8.573716868941979
      ],
      [
        "à±ĭà°¯",
        -8.573905506487089
      ],
      [
        "Ñİ",
        -8.57422705625837
      ],
      [
        "Ġà¤ķà¤°à¤",
        -8.574280956081953
      ],
      [
        "Ġnot",
        -8.576468613436981
      ],
      [
        "à±Ģà°²",
        -8.581403820061825
      ],
      [
        "ÙħØ§",
        -8.582670343649504
      ],
      [
        "¼",
        -8.5835998596421
      ],
      [
        "Ġà°Ł",
        -8.585642226809835
      ],
      [
        ".com",
        -8.588822210077577
      ],
      [
        "à¥įà¤·",
        -8.590327995385978
      ],
      [
        "ĠÐ·Ð°",
        -8.590997254331521
      ],
      [
        "Ġyak",
        -8.5973956702939
      ],
      [
        "à°¾à°£",
        -8.597397497013862
      ],
      [
        "Ġà°¡",
        -8.600503672212803
      ],
      [
        "h",
        -8.600734926317092
      ],
      [
        "à¤¤",
        -8.601939531352837
      ],
      [
        "ĠØ¨ÙĨ",
        -8.602892086631606
      ],
      [
        "Ġce",
        -8.603477834945043
      ],
      [
        "ĠE",
        -8.609308443721133
      ],
      [
        "à°Ĥà°ļ",
        -8.612291943916624
      ],
      [
        "ł",
        -8.615207036591958
      ],
      [
        "ÙĴØ",
        -8.617247026219111
      ],
      [
        "Ùĥ",
        -8.61908581314993
      ],
      [
        "ÐµÐ³Ð¾",
        -8.621867021017216
      ],
      [
        "ĥ",
        -8.627307647244324
      ],
      [
        "si",
        -8.627562722003473
      ],
      [
        "olarak",
        -8.62788878438015
      ],
      [
        "Ġsa",
        -8.628809024553377
      ],
      [
        "ĠØ§",
        -8.6295219297397
      ],
      [
        "à°¾à°¬",
        -8.639911056471178
      ],
      [
        "ĠØ§ÙĪ",
        -8.642441640861595
      ],
      [
        "à±ĭà°¸",
        -8.645927419792093
      ],
      [
        "à±Ĩà°ķ",
        -8.64693939656081
      ],
      [
        "from",
        -8.649344872689582
      ],
      [
        "à¥įà¤°à¤",
        -8.65219083483099
      ],
      [
        "plus",
        -8.653957616160247
      ],
      [
        "this",
        -8.654266807181875
      ],
      [
        "ĠÐĴ",
        -8.654829853091748
      ],
      [
        "à¤¾à¤¹",
        -8.658314429617116
      ],
      [
        "Ġqu",
        -8.659978062037908
      ],
      [
        "ĠBu",
        -8.661701032875797
      ],
      [
        "à¥įà¤¥",
        -8.66386021579382
      ],
      [
        "wenye",
        -8.665744128638913
      ],
      [
        "B",
        -8.668752618246995
      ],
      [
        "à¸ĩ",
        -8.673452924168242
      ],
      [
        "ÙİØ",
        -8.67482619966653
      ],
      [
        "à¤Ĥ",
        -8.680493918286043
      ],
      [
        "ĠØ¨Ø¹Ø¯",
        -8.68109297721566
      ],
      [
        "ĳ",
        -8.68683906861794
      ],
      [
        "Ø±Ø©",
        -8.68877374392887
      ],
      [
        "ĠF",
        -8.689728796281202
      ],
      [
        "à°¿à°·",
        -8.690943285466592
      ],
      [
        "à¥ĩà¤¶",
        -8.697982115764553
      ],
      [
        "nin",
        -8.698278570075573
      ],
      [
        "äºĨ",
        -8.69917913907069
      ],
      [
        "ħ",
        -8.700432019976473
      ],
      [
        "à±Ĭà°ķ",
        -8.703350255094598
      ],
      [
        "à°¿à°ļ",
        -8.704036080866905
      ],
      [
        "ÑĥÑİ",
        -8.705623467905172
      ],
      [
        "à¥Ĥà¤°",
        -8.705767415321455
      ],
      [
        "Ġà°¤à°¨",
        -8.706719200602711
      ],
      [
        "ĠÃ§ok",
        -8.708232788518643
      ],
      [
        "à±Įà°",
        -8.714669634281453
      ],
      [
        "ÐµÑĤÑģÑı",
        -8.716025913900687
      ],
      [
        "Ùī",
        -8.717758011882182
      ],
      [
        "à°¿à°¶",
        -8.723947650253912
      ],
      [
        "ĠL",
        -8.727884896956004
      ],
      [
        "yo",
        -8.729633138876444
      ],
      [
        "Ġher",
        -8.732014801427027
      ],
      [
        "D",
        -8.732368226174692
      ],
      [
        "à±ģà°ª",
        -8.734748795340977
      ],
      [
        "à±ĭà°Ł",
        -8.73757438115012
      ],
      [
        "à±ĥà°",
        -8.739196532687611
      ],
      [
        "dan",
        -8.739752405207184
      ],
      [
        "ĠÑĥ",
        -8.742929332150737
      ],
      [
        "C",
        -8.744245839222415
      ],
      [
        "à°¾à°³",
        -8.747496604630339
      ],
      [
        "ant",
        -8.748920543924537
      ],
      [
        "à¸¶à",
        -8.749636191946273
      ],
      [
        "ment",
        -8.75166515031238
      ],
      [
        "aux",
        -8.756098873707273
      ],
      [
        "Ġdo",
        -8.756309058092317
      ],
      [
        "ĠÐ°",
        -8.761012300337576
      ],
      [
        "ĠØ§ÙĦÙħ",
        -8.761450299390273
      ],
      [
        "à¤ļ",
        -8.762303439435932
      ],
      [
        "x",
        -8.765033098595788
      ],
      [
        "à±ģà°¦",
        -8.767116056152332
      ],
      [
        "te",
        -8.767643671824402
      ],
      [
        "ĠÙĪÙĦØ§",
        -8.767812885318644
      ],
      [
        "à°¦à°°",
        -8.77087694700373
      ],
      [
        "have",
        -8.771383901075197
      ],
      [
        "Ķ",
        -8.773248035189884
      ],
      [
        "ĠÙĤØ¯",
        -8.775207209111066
      ],
      [
        "Ġvi",
        -8.775930937870587
      ],
      [
        "à±ĩà°Ĥ",
        -8.77661947450917
      ],
      [
        "ce",
        -8.77769135653271
      ],
      [
        "¢",
        -8.780627220885016
      ],
      [
        "Ġwe",
        -8.783579000030912
      ],
      [
        "ĠÙĦÙĩ",
        -8.78510738183361
      ],
      [
        "à±ĭà°ķ",
        -8.786049141728558
      ],
      [
        "ĠÐ¿ÑĢÐ¸",
        -8.788208478209276
      ],
      [
        "à±Ģà°ķ",
        -8.790480961923393
      ],
      [
        "à¹Īà¸²à¸Ļ",
        -8.793780806354166
      ],
      [
        "à¥Īà¤Ĥà¥¤",
        -8.794630114476433
      ],
      [
        "à¥įà¤¸",
        -8.794684427566756
      ],
      [
        "Ġà¸ģ",
        -8.797867051821754
      ],
      [
        "à¸±à¸ĩ",
        -8.798008718425152
      ],
      [
        "The",
        -8.799075195371227
      ],
      [
        "à±Ģà°µ",
        -8.800725687697808
      ],
      [
        "Ð¼",
        -8.804817571807536
      ],
      [
        ").Ċ",
        -8.806163775876767
      ],
      [
        "Ø§ÙĦÙī",
        -8.809055022028687
      ],
      [
        "åľ¨",
        -8.811030348712036
      ],
      [
        "ĠâĢĺ",
        -8.811478143511948
      ],
      [
        "à¥ģà¤°",
        -8.81335309468713
      ],
      [
        "à¸«à¸£",
        -8.81638174068502
      ],
      [
        "I",
        -8.82004986746053
      ],
      [
        "Ġà¸ª",
        -8.820058210915256
      ],
      [
        "à¤¾à¤ľ",
        -8.820208432154185
      ],
      [
        "ĠN",
        -8.821836288958313
      ],
      [
        "į",
        -8.824041046472079
      ],
      [
        "à°¯",
        -8.824369552139743
      ],
      [
        "à¥ĭà¤¨",
        -8.825085723423367
      ],
      [
        "à¸´à",
        -8.826668441235233
      ],
      [
        "ĠÙĥÙħØ§",
        -8.828719285253863
      ],
      [
        "à¸«à¸Ļ",
        -8.830047300903495
      ],
      [
        "is",
        -8.830111292583265
      ],
      [
        "ent",
        -8.83012837454211
      ],
      [
        "ĠR",
        -8.833710203638107
      ],
      [
        "à±ĭà°¤",
        -8.843057163254473
      ],
      [
        "à±Ĩà°¡",
        -8.843059374099436
      ],
      [
        "Ġà°¸à°®",
        -8.843891150586412
      ],
      [
        "Ġre",
        -8.844599627030105
      ],
      [
        "Ġà¸¡",
        -8.844664999226605
      ],
      [
        "à°¿à°§",
        -8.8447990056133
      ],
      [
        "ÐµÐ¹",
        -8.84657676387891
      ],
      [
        "ke",
        -8.849862779562873
      ],
      [
        "à¸´à¹",
        -8.85320955391565
      ],
      [
        "à",
        -8.854808720461186
      ],
      [
        "ÙĦ",
        -8.85505452192054
      ],
      [
        "Ġà¤Ĩà¤",
        -8.855294761131486
      ],
      [
        "à±ģà°Ł",
        -8.855666172826528
      ],
      [
        "à¹Īà¸Ļ",
        -8.85637617258515
      ],
      [
        "à¥ĩà¤ķ",
        -8.862504495270771
      ],
      [
        "ĠG",
        -8.862829568216862
      ],
      [
        "...Ċ",
        -8.866155053506981
      ],
      [
        "Ġwake",
        -8.866978926072212
      ],
      [
        "Ġju",
        -8.868270288628198
      ],
      [
        "E",
        -8.868286510130538
      ],
      [
        "ĠÐ²ÑģÐµ",
        -8.868566653565258
      ],
      [
        "à¥Ĥ",
        -8.871311303272503
      ],
      [
        "ne",
        -8.873422764780848
      ],
      [
        "Ù",
        -8.8759590440274
      ],
      [
        "Ġba",
        -8.879606300762
      ],
      [
        "Ĩ",
        -8.87999543667319
      ],
      [
        "à±Ĥà°¸",
        -8.882070660486056
      ],
      [
        "ma",
        -8.88221845979838
      ],
      [
        "à¥įà¤¹",
        -8.88396168778521
      ],
      [
        "Ġà°ħà°¦",
        -8.885776609807179
      ],
      [
        "à¤µ",
        -8.88590753960451
      ],
      [
        "à±Ĥà°ª",
        -8.888491479609238
      ],
      [
        "Ġà°ħà°®",
        -8.889295739131384
      ],
      [
        "à±ĩà°²",
        -8.890547262880988
      ],
      [
        "à¸´à¸Ļ",
        -8.891335765584596
      ],
      [
        "à¤µà¤¹",
        -8.89176425864236
      ],
      [
        "à±Ĩà°¸",
        -8.892991537286157
      ],
      [
        "Ġà°ľà°°",
        -8.895249039549268
      ],
      [
        "vous",
        -8.89584197442395
      ],
      [
        "ĠO",
        -8.896662743317364
      ],
      [
        "à±įà°¯à°ķ",
        -8.897734554234127
      ],
      [
        "à¸ĸ",
        -8.899037346430063
      ],
      [
        "âĢĻs",
        -8.900965984077128
      ],
      [
        "¹ī",
        -8.902055888092677
      ],
      [
        "à¥Įà¤",
        -8.906143878255868
      ],
      [
        "Ġolan",
        -8.90690355165147
      ],
      [
        "à±ĩà°¯",
        -8.907452196387272
      ],
      [
        "ĠÐ²Ñĭ",
        -8.910205315834382
      ],
      [
        "Ġhu",
        -8.911282817586631
      ],
      [
        "ĠØºÙĬØ±",
        -8.912823293315459
      ],
      [
        "Ġgibi",
        -8.91286075749454
      ],
      [
        "ÑĮ",
        -8.913362509269312
      ],
      [
        "ki",
        -8.915972884417767
      ],
      [
        "Ġil",
        -8.916122896406124
      ],
      [
        "à¥ĩà¤¤",
        -8.917231437231495
      ],
      [
        "ØŃÙĬØ«",
        -8.918431428492909
      ],
      [
        "à°Ĥà°ķ",
        -8.921692723961378
      ],
      [
        "ont",
        -8.92332644249217
      ],
      [
        "ĠØ£ÙĬ",
        -8.923751815190798
      ],
      [
        "Ä±n",
        -8.926776061284908
      ],
      [
        "à±ģà°®",
        -8.926941218474424
      ],
      [
        "Ġcan",
        -8.930410230219337
      ],
      [
        "will",
        -8.932674041754801
      ],
      [
        "Ġj",
        -8.935492387036994
      ],
      [
        "à¥įà¤ķ",
        -8.936958905118146
      ],
      [
        "Ġà°¤à°°",
        -8.937060680270841
      ],
      [
        "Ġou",
        -8.93766118320228
      ],
      [
        "ĠÙĩÙĬ",
        -8.937800869974355
      ],
      [
        "à¸´à¸Ķ",
        -8.939863538649005
      ],
      [
        "à±Ģà°¯",
        -8.944324581050621
      ],
      [
        "Ġà¤ħà¤¨",
        -8.94567596062561
      ],
      [
        "ĠØ¹ÙĨØ¯",
        -8.9466909598823
      ],
      [
        "ation",
        -8.947545734381517
      ],
      [
        "à°¿à°¡",
        -8.950048016559883
      ],
      [
        "Ġhas",
        -8.950081036044992
      ],
      [
        "..",
        -8.951163422876155
      ],
      [
        "à¤¿à¤¶",
        -8.952354147730773
      ],
      [
        "Ġà°İà°ķ",
        -8.954781756889755
      ],
      [
        "à¤īà¤¨",
        -8.955016054465602
      ],
      [
        "à¥īà¤",
        -8.955643799352492
      ],
      [
        "Ġtu",
        -8.956310318297719
      ],
      [
        "ãĢĤâĢĿ",
        -8.958177659257338
      ],
      [
        "à±ĩà°¤",
        -8.958524919606806
      ],
      [
        "nt",
        -8.961835551197362
      ],
      [
        "ĠØ¨Ø¹Ø¶",
        -8.962456401890831
      ],
      [
        "les",
        -8.96319084947611
      ],
      [
        "âĢ¦",
        -8.965330668607777
      ],
      [
        "Ġwatu",
        -8.965891121260757
      ],
      [
        "à¸Ħ",
        -8.967090908999378
      ],
      [
        "à¸±à",
        -8.967453232359576
      ],
      [
        "à°ĩà°¦",
        -8.968385511829498
      ],
      [
        "Ġso",
        -8.970263567721307
      ],
      [
        "Ġà¸Ħ",
        -8.970420217007534
      ],
      [
        "ÑĭÐµ",
        -8.970544601303466
      ],
      [
        "w",
        -8.97103002010505
      ],
      [
        "nÄ±n",
        -8.971370077269913
      ],
      [
        "se",
        -8.971524161744505
      ],
      [
        "Ġà°ķà°¨",
        -8.97222597974322
      ],
      [
        "Ġà¸ĭ",
        -8.97270842927989
      ],
      [
        "me",
        -8.973070740735626
      ],
      [
        "Ġsi",
        -8.974696893387637
      ],
      [
        "Ġje",
        -8.975984570120346
      ],
      [
        "à±ĩà°®",
        -8.976151398464186
      ],
      [
        "li",
        -8.976990928011563
      ],
      [
        "à¹Ģà¸£",
        -8.977321587055265
      ],
      [
        "à±ĭà°ľ",
        -8.978050834781602
      ],
      [
        "à¹īà¸§à¸¢",
        -8.978919873887506
      ],
      [
        "ve",
        -8.979975793401557
      ],
      [
        "à¸ŀ",
        -8.98155641341622
      ],
      [
        "ers",
        -8.986082849920951
      ],
      [
        "à¹Īà¸²à¸ĩ",
        -8.990450752751173
      ],
      [
        "daha",
        -8.991470817788667
      ],
      [
        "ement",
        -8.99157198815234
      ],
      [
        "à¥Ĥà¤",
        -8.992946030562164
      ],
      [
        "à°ªà°Ł",
        -8.993040419997861
      ],
      [
        "ÙĲÙ",
        -8.993302995839347
      ],
      [
        "Ġili",
        -8.99511915245152
      ],
      [
        "L",
        -8.998117116722746
      ],
      [
        "ÙĥØ§ÙĨØª",
        -8.998238815168614
      ],
      [
        "Ã©s",
        -9.000370940392154
      ],
      [
        "Ġà°ħà°²",
        -9.00183019989435
      ],
      [
        "Ġvya",
        -9.002537112120415
      ],
      [
        "à¤¹",
        -9.003931955156066
      ],
      [
        "à¤ķà¤°",
        -9.004581662398497
      ],
      [
        "hiyo",
        -9.00542525732763
      ],
      [
        "à¥ĩà¤°",
        -9.00718539178057
      ],
      [
        "ÙĦØ©",
        -9.007697113875649
      ],
      [
        "K",
        -9.010744174679854
      ],
      [
        "à±įà°ķà°¡",
        -9.010844015513172
      ],
      [
        "ĠØ«Ùħ",
        -9.01097368762271
      ],
      [
        "ĠØ¨Ùĩ",
        -9.011270670118211
      ],
      [
        "ĠÙĨ",
        -9.011490538152126
      ],
      [
        "à°¾à°¶",
        -9.015267183931758
      ],
      [
        "à¥¤",
        -9.01661769410406
      ],
      [
        "que",
        -9.017228976359023
      ],
      [
        "Mungu",
        -9.017876539274871
      ],
      [
        "à±įà°¬",
        -9.0181494331451
      ],
      [
        "T",
        -9.019230955892148
      ],
      [
        "and",
        -9.01963016200055
      ],
      [
        "Ġà°¸à°°",
        -9.01964360954857
      ],
      [
        "Ġà¤Ł",
        -9.019725247137991
      ],
      [
        "à¥Ģà¤¨",
        -9.021064158747349
      ],
      [
        "à¥ģà¤²",
        -9.023420607589262
      ],
      [
        "Ġà°Ĩà°°",
        -9.023525187752242
      ],
      [
        "Ġà¹ģà¸ķ",
        -9.024096106952836
      ],
      [
        "*",
        -9.02621446473204
      ],
      [
        "Ø§ÙĨ",
        -9.027666501474815
      ],
      [
        "P",
        -9.028834146223543
      ],
      [
        "à±ĩà°Ł",
        -9.032073594334747
      ],
      [
        "ÑĭÐ¹",
        -9.032701525168296
      ],
      [
        "b",
        -9.0336423963964
      ],
      [
        "à¤¾à¤µ",
        -9.035416335682136
      ],
      [
        "¹Ħà¸Ķ",
        -9.03968789875432
      ],
      [
        "ĠØ¥ÙĨ",
        -9.040540599060805
      ],
      [
        "Ļ",
        -9.042527398831185
      ],
      [
        "ĠÐ´Ð¾",
        -9.046650107584592
      ],
      [
        "à±ĭà°µ",
        -9.046983763478996
      ],
      [
        "ÙĴÙ",
        -9.048608560375625
      ],
      [
        "Ġal",
        -9.049455407586164
      ],
      [
        "ĠØ¨ÙĩØ§",
        -9.052802588177297
      ],
      [
        "eux",
        -9.053019918720366
      ],
      [
        "ĠÙĬÙĥÙĪÙĨ",
        -9.055374346135498
      ],
      [
        "Ġà¤īà¤¸à¤",
        -9.056532271620473
      ],
      [
        "ĠÙĪÙĩÙĪ",
        -9.057423617386206
      ],
      [
        "à¹Ģà¸Ķ",
        -9.060563873149476
      ],
      [
        "ĠMa",
        -9.061091920523571
      ],
      [
        "à¤¼à¤",
        -9.061418667027654
      ],
      [
        "İ",
        -9.063499960836326
      ],
      [
        "ĠÙĥ",
        -9.0636431396005
      ],
      [
        "your",
        -9.064096787960572
      ],
      [
        "Ġbut",
        -9.064587120549758
      ],
      [
        "à°¾à°¹",
        -9.065426688491334
      ],
      [
        "Ð¹",
        -9.065443947988513
      ],
      [
        "à¹īà¸Ńà¸ĩ",
        -9.066571277009132
      ],
      [
        "à¥ĩà¤¨",
        -9.06666427417586
      ],
      [
        "à¥įà¤¦",
        -9.067197219951066
      ],
      [
        "à°²à°ķ",
        -9.06746075862096
      ],
      [
        "N",
        -9.068670170438269
      ],
      [
        "us",
        -9.07221818784628
      ],
      [
        "Ġà¤¹à¤®",
        -9.072493754398284
      ],
      [
        "dir",
        -9.075129746477293
      ],
      [
        "ĠÙĪÙħÙĨ",
        -9.082366709519915
      ],
      [
        "Ġkazi",
        -9.08318606815515
      ],
      [
        "ĠWa",
        -9.083345166612354
      ],
      [
        "ÑĤÑģÑı",
        -9.084214372989855
      ],
      [
        "ÙİÙ",
        -9.08429673071965
      ],
      [
        "ĠØŃØªÙ",
        -9.08502806515474
      ],
      [
        "Ġà¤īà¤¸",
        -9.085053450178082
      ],
      [
        "&",
        -9.087261816407963
      ],
      [
        "à¤²",
        -9.087498402403185
      ],
      [
        "à°Ĥà°§",
        -9.08790836827515
      ],
      [
        "Ġsonra",
        -9.088218204993366
      ],
      [
        "à¸Ī",
        -9.08831053511538
      ],
      [
        "ĠW",
        -9.090927418527668
      ],
      [
        "ivyo",
        -9.092727915169323
      ],
      [
        "ĠÙĤØ¨ÙĦ",
        -9.096156158524831
      ],
      [
        "à¹Īà¸¡",
        -9.096846034443193
      ],
      [
        "ÙİØ§",
        -9.099517877127196
      ],
      [
        "Ġpa",
        -9.102102278906344
      ],
      [
        "ĠÐ½Ð¾",
        -9.104765587565726
      ],
      [
        "est",
        -9.107991991471202
      ],
      [
        "ĠÙģÙĬÙĩ",
        -9.108044380652396
      ],
      [
        "à¥Ģà¥¤",
        -9.109980975951132
      ],
      [
        "mbali",
        -9.113657593657754
      ],
      [
        "Ġà°®à°¨",
        -9.11440582100558
      ],
      [
        "ĠÐ±Ñĭ",
        -9.117072968395902
      ],
      [
        "Ø¯Ø©",
        -9.1178902159843
      ],
      [
        "à¤¾à¤Ī",
        -9.118294222503168
      ],
      [
        "hii",
        -9.118523604624308
      ],
      [
        "ĠØ®ÙĦØ§ÙĦ",
        -9.120910202195542
      ],
      [
        "Ġà°İà°",
        -9.121220454127348
      ],
      [
        "ĠÙģÙĬÙĩØ§",
        -9.12235829261592
      ],
      [
        "Ð³Ð¾",
        -9.125041637981962
      ],
      [
        "à¤¼à¤¾",
        -9.12677405904099
      ],
      [
        "Ð°Ð¼Ð¸",
        -9.127414256618565
      ],
      [
        "ler",
        -9.128565532438667
      ],
      [
        "mba",
        -9.129981177259609
      ],
      [
        "Ġà¤¡",
        -9.130757231317414
      ],
      [
        "Ġall",
        -9.13146525925459
      ],
      [
        "à±Ģà°¦",
        -9.13158525987177
      ],
      [
        "à±Ĥà°²",
        -9.13403280764241
      ],
      [
        "à°¦à°¨",
        -9.134913794025334
      ],
      [
        "rÃ¨s",
        -9.13612401962728
      ],
      [
        "Ġme",
        -9.141839844619389
      ],
      [
        "ĠÑĤÐ¾",
        -9.144865860484678
      ],
      [
        "à¥ģà¤¨",
        -9.145372189740968
      ],
      [
        "Ã©e",
        -9.145417849806504
      ],
      [
        "Ø§Ø¡",
        -9.145424654970627
      ],
      [
        "ĬØ©",
        -9.145845546115172
      ],
      [
        "more",
        -9.14823951808999
      ],
      [
        "æĺ¯",
        -9.14965211020616
      ],
      [
        "à±ģà°²à°",
        -9.150134850387545
      ],
      [
        "ĠLa",
        -9.15186513061472
      ],
      [
        "à°ļà°¡",
        -9.154156720496989
      ],
      [
        "à¹Ģà¸ģ",
        -9.156695854279548
      ],
      [
        "ĠJ",
        -9.156724878871309
      ],
      [
        "à¤¬",
        -9.157641776121697
      ],
      [
        "à±Ģà°",
        -9.157761234244044
      ],
      [
        "à¤Ĥà¤¤",
        -9.158344326655545
      ],
      [
        "Ġà¹ģà¸¥à¸°",
        -9.158576944123936
      ],
      [
        "Ġà°ħà°µ",
        -9.160019063373085
      ],
      [
        "à°Ĥà°¦à°°",
        -9.161468880380474
      ],
      [
        "à¤¿à¤µ",
        -9.161693574882044
      ],
      [
        "ĠÑı",
        -9.162108996445504
      ],
      [
        "ĠØ¹Ø§Ùħ",
        -9.163929329814698
      ],
      [
        "Ġup",
        -9.16471634872126
      ],
      [
        "à¸±à¸ķ",
        -9.167632607668768
      ],
      [
        "tout",
        -9.172195807664483
      ],
      [
        "à±ģà°²à°ķ",
        -9.172289236986169
      ],
      [
        "ani",
        -9.17237392019394
      ],
      [
        "ĠØ§ÙĦØ§",
        -9.173408259311977
      ],
      [
        "à±įà°£",
        -9.174703581764271
      ],
      [
        "Ġv",
        -9.177220859127294
      ],
      [
        "à°ªà°¨",
        -9.178104775980508
      ],
      [
        "Ġwana",
        -9.178717721716012
      ],
      [
        "ĠLe",
        -9.179245557501057
      ],
      [
        "à°¿à°ľ",
        -9.180928360219555
      ],
      [
        "à¹īà¸²à¸Ļ",
        -9.181645139841976
      ],
      [
        "Ġà¸Ī",
        -9.182026202625003
      ],
      [
        "à¥įà¤",
        -9.183990424254976
      ],
      [
        "à¸´à¸ķ",
        -9.18457003112904
      ],
      [
        "à¸¹",
        -9.18485787396989
      ],
      [
        "ĠÙĤØ§ÙĦ",
        -9.185481498759431
      ],
      [
        "ĠÙĪÙĤØ¯",
        -9.185636591387135
      ],
      [
        "à±ģà°ĸ",
        -9.185679884052432
      ],
      [
        "Ġà°ªà°¦",
        -9.188501793097824
      ],
      [
        "à¤°",
        -9.19054398114198
      ],
      [
        "à¥ģà¤ķ",
        -9.19104518917004
      ],
      [
        "âĢĻun",
        -9.192639680609968
      ],
      [
        "à¹Ģà¸Ĭ",
        -9.194144658500928
      ],
      [
        "à°¾à°·",
        -9.195672459583406
      ],
      [
        "Ġà¸ķ",
        -9.195834462356522
      ],
      [
        "sema",
        -9.196703680532602
      ],
      [
        "à¤ª",
        -9.198477950686812
      ],
      [
        "//",
        -9.19865293938792
      ],
      [
        "th",
        -9.198852213261816
      ],
      [
        "ĠØ§ÙĦÙ",
        -9.199430568833732
      ],
      [
        "à±Ĩà°¦",
        -9.201195685958378
      ],
      [
        "à¸¥",
        -9.20138312238726
      ],
      [
        "à¥ĭà¤°",
        -9.201832444020752
      ],
      [
        "à¸¸à¹",
        -9.202071106688676
      ],
      [
        "Ø§ÙĦ",
        -9.20219348654269
      ],
      [
        "Ġf",
        -9.20289541279218
      ],
      [
        "Ġsana",
        -9.205204904497563
      ],
      [
        "Ġhe",
        -9.205814738011805
      ],
      [
        "ãĢĮ",
        -9.206927657511986
      ],
      [
        "à°¶",
        -9.206933340791256
      ],
      [
        "ĠÐºÐ¾ÑĤÐ¾ÑĢÑĭÐ",
        -9.207040510955144
      ],
      [
        "ĺ",
        -9.209203437408636
      ],
      [
        "ÙĬØ§",
        -9.2101984228046
      ],
      [
        "ï¼Ī",
        -9.211851988338209
      ],
      [
        "H",
        -9.213095445122406
      ],
      [
        "à±įà°ľ",
        -9.213423490150516
      ],
      [
        "à°Ĥà°¸",
        -9.215139811309257
      ],
      [
        "à°Ĥ.",
        -9.215239360714332
      ],
      [
        "à°ľ",
        -9.215408950314997
      ],
      [
        "Ġà°Ĩà°",
        -9.216190516216471
      ],
      [
        "à°¿à°·à°¯",
        -9.2163898440259
      ],
      [
        "ĊĊ",
        -9.21906319199538
      ],
      [
        "http",
        -9.2206368925148
      ],
      [
        "Ġà¤¸à¤®",
        -9.22246087258724
      ],
      [
        "G",
        -9.222912254377963
      ],
      [
        ".âĢĿ",
        -9.225103262787112
      ],
      [
        "ÐµÐ¼",
        -9.225667015708886
      ],
      [
        "à¸±à¸§",
        -9.22631292454442
      ],
      [
        "able",
        -9.229074331262062
      ],
      [
        "à¸±à¸ģ",
        -9.22915292851551
      ],
      [
        "lar",
        -9.229817873221258
      ],
      [
        "ÐĴ",
        -9.23257820307765
      ],
      [
        "à¹īà¸Ļ",
        -9.23321436122261
      ],
      [
        "nous",
        -9.23342266147912
      ],
      [
        "Ð¼Ð¸",
        -9.233711532462516
      ],
      [
        "à¸¶à¸ĩ",
        -9.23405390066942
      ],
      [
        "ĠÑģÐ¾",
        -9.236521504731302
      ],
      [
        "Ġà°ħà°°",
        -9.240105411878698
      ],
      [
        "à±įà°¯à°®",
        -9.244619178553172
      ],
      [
        "à±įà°°à°Ń",
        -9.24470990189786
      ],
      [
        "à¥ĩà¤Ł",
        -9.245371107647244
      ],
      [
        "ĠÙħØ«ÙĦ",
        -9.246902839649772
      ],
      [
        "ada",
        -9.249960209318058
      ],
      [
        "à±ĥà°¤",
        -9.251167163052902
      ],
      [
        "ŀ",
        -9.252736951574644
      ],
      [
        "ĠØ£ÙĨÙĩ",
        -9.253525057911848
      ],
      [
        "à¸µà¸§",
        -9.254891325077889
      ],
      [
        "F",
        -9.255238617062222
      ],
      [
        "à¹īà¸",
        -9.255297052699468
      ],
      [
        "Ġà¤²à¤Ĺ",
        -9.258433365011694
      ],
      [
        "ĠØ¨ÙĦ",
        -9.259038094327265
      ],
      [
        "our",
        -9.261036785672694
      ],
      [
        "Ġà¤ħà¤",
        -9.26205936950177
      ],
      [
        "ĠØ¥Ø°Ø§",
        -9.263096501048194
      ],
      [
        "at",
        -9.263717437587282
      ],
      [
        "mais",
        -9.264337199471404
      ],
      [
        "ĠÙĬÙħÙĥÙĨ",
        -9.26582870768532
      ],
      [
        "Ġà¤¸à¤ķà¤",
        -9.266322591418104
      ],
      [
        "Ø",
        -9.267389282573385
      ],
      [
        "à°¾à°²à°ķ",
        -9.268676693003464
      ],
      [
        "à¹Ģà¸ŀ",
        -9.269024378037813
      ],
      [
        "ka",
        -9.269180913851931
      ],
      [
        "ĠØ§ÙĦØ¯ÙĬÙĨ",
        -9.269222452525842
      ],
      [
        "ion",
        -9.269228836740965
      ],
      [
        "à¤¾à¤ĩà¤",
        -9.269705624591374
      ],
      [
        "à¥ĩà¥¤",
        -9.272388835653668
      ],
      [
        "Ð±Ñĭ",
        -9.272531526913149
      ],
      [
        "ĠØ§ÙĦØ£",
        -9.275353147935238
      ],
      [
        "Ġout",
        -9.277298427659808
      ],
      [
        "à¹īà¸Ńà¸¡",
        -9.277911167745048
      ],
      [
        "à¸Ĺà¸³à¹ĥà¸«",
        -9.278181627759942
      ],
      [
        "Ð»Ð¸",
        -9.27871545850892
      ],
      [
        "ĠÐĺ",
        -9.279333626242185
      ],
      [
        "Ġmtu",
        -9.280223455938708
      ],
      [
        "Ġà°ħà°ª",
        -9.281261680873463
      ],
      [
        "à¤ķà¤°à¤¤",
        -9.281331376492409
      ],
      [
        "à±Ģà°®",
        -9.281925994092267
      ],
      [
        "å¹´",
        -9.283705618921498
      ],
      [
        "Ø³ÙĨØ©",
        -9.2858294505822
      ],
      [
        "Ġsu",
        -9.287225364706549
      ],
      [
        "à¹īà¸£",
        -9.288723613559512
      ],
      [
        "ÙĩÙĨØ§Ùĥ",
        -9.294294290372092
      ],
      [
        "à¸ļ",
        -9.295376253281734
      ],
      [
        "Ø¨Ø©",
        -9.296334437111614
      ],
      [
        "à°Ĥ,",
        -9.30036319230086
      ],
      [
        "à¥įà¤ļ",
        -9.302824309186118
      ],
      [
        "Ġà°Ĩà°¯à°¨",
        -9.30318675648889
      ],
      [
        "à¤ľ",
        -9.305644482991086
      ],
      [
        "www",
        -9.30623397270281
      ],
      [
        "ÑĤÐ¾",
        -9.306338137743364
      ],
      [
        "ÙİÙĦ",
        -9.30695888536438
      ],
      [
        "zi",
        -9.30753701505829
      ],
      [
        "Ġhis",
        -9.308130377958552
      ],
      [
        "ªà¸²à¸¡à¸²à¸£à¸ĸ",
        -9.308808766994783
      ],
      [
        "ons",
        -9.314135853841686
      ],
      [
        "à¸±à¸Ķ",
        -9.31426976051456
      ],
      [
        "à¸Ĭ",
        -9.31455738702176
      ],
      [
        "à¹Įà¸Ĺ",
        -9.315462058069617
      ],
      [
        "wakati",
        -9.317206476844223
      ],
      [
        "ait",
        -9.31735319274916
      ],
      [
        "di",
        -9.317864421835472
      ],
      [
        "à¸ľ",
        -9.31787846278302
      ],
      [
        "Ġmy",
        -9.321272879340365
      ],
      [
        "à±Ģà°¡",
        -9.322024145217222
      ],
      [
        "à¥ģà¤¤",
        -9.32209476217077
      ],
      [
        "Ġha",
        -9.32322036537312
      ],
      [
        "kutoka",
        -9.323673398523738
      ],
      [
        "Ð¶Ðµ",
        -9.326541093508023
      ],
      [
        "ĠØ§ÙĦØ¥Ø³ÙĦØ§Ùħ",
        -9.32713726706276
      ],
      [
        "Ġà°µà°°",
        -9.329670345687656
      ],
      [
        "et",
        -9.329930432831254
      ],
      [
        "ĠKi",
        -9.33068521360171
      ],
      [
        "\"Ċ",
        -9.331517763958235
      ],
      [
        "ingine",
        -9.33171587440897
      ],
      [
        "ĠØ§Ø¨ÙĨ",
        -9.33173405032454
      ],
      [
        "à°¿à°µà°°",
        -9.33320535994836
      ],
      [
        "or",
        -9.338918361690226
      ],
      [
        "ĠÐ¾Ð½",
        -9.341597377889151
      ],
      [
        "à¸¸à¸Ķ",
        -9.342370135866048
      ],
      [
        "Ġkadar",
        -9.343073677653273
      ],
      [
        "à¸±à¸Ļà¸Ĺ",
        -9.343076541712216
      ],
      [
        "à¸Ľ",
        -9.3436123483417
      ],
      [
        "Ġà°ı",
        -9.344548164689389
      ],
      [
        "Ġà¹Ģà¸Ľ",
        -9.344994068274165
      ],
      [
        "ĠÐ¡",
        -9.34534201833102
      ],
      [
        "à¤¯",
        -9.345917479442054
      ],
      [
        "other",
        -9.349221862507472
      ],
      [
        "à¥įà¤¨",
        -9.35014392319997
      ],
      [
        "lÄ±",
        -9.35096073130727
      ],
      [
        "ĠÙĪÙģÙĬ",
        -9.351923668432896
      ],
      [
        "Ġy",
        -9.355242360905088
      ],
      [
        "à¹ĩ",
        -9.355453658363592
      ],
      [
        "hat",
        -9.355921029539267
      ],
      [
        "à±ĭà°ª",
        -9.35661100382594
      ],
      [
        "Ġà¸Ń",
        -9.356796472887831
      ],
      [
        "O",
        -9.36132599917946
      ],
      [
        "Ġmo",
        -9.364829259667232
      ],
      [
        "Ð°Ñħ",
        -9.365232023535825
      ],
      [
        "à±įà°°à°¸",
        -9.366027433622213
      ],
      [
        "à¥ģ",
        -9.366398196223445
      ],
      [
        "à¥ĩà¤²",
        -9.369160961471476
      ],
      [
        "à±ĭà°¡",
        -9.369329597495778
      ],
      [
        "Ġali",
        -9.369509578758562
      ],
      [
        "à¸±à¸¢",
        -9.37074480505181
      ],
      [
        "à¤¾à¤ķ",
        -9.37123360573276
      ],
      [
        "ÐµÐµ",
        -9.373708977473065
      ],
      [
        "wamba",
        -9.375551316597438
      ],
      [
        "ji",
        -9.3762000499326
      ],
      [
        "g",
        -9.37703102451286
      ],
      [
        "Ġà¤ĩà¤¸à¤",
        -9.377630054941566
      ],
      [
        "Ġà°īà°¦",
        -9.37879791699894
      ],
      [
        "à°¾à°°à°£",
        -9.37997738546548
      ],
      [
        "Ġà¹Ģà¸ŀ",
        -9.38108279760742
      ],
      [
        "il",
        -9.382056308655468
      ],
      [
        "ĠÙħØŃÙħØ¯",
        -9.384058070122556
      ],
      [
        "à¤¡",
        -9.385648544129978
      ],
      [
        "Ġame",
        -9.38739744201192
      ],
      [
        "dÄ±r",
        -9.390181238719922
      ],
      [
        "à°Ĩà°®",
        -9.390280307650048
      ],
      [
        "ĠØ¹ÙĦÙĬ",
        -9.39141901377006
      ],
      [
        "à°²à°¨",
        -9.394377959945052
      ],
      [
        "à¹īà¸Ńà¸¢",
        -9.395688495021076
      ],
      [
        "ÐµÐ½Ð¸Ñı",
        -9.396444806626723
      ],
      [
        "à°¾à°",
        -9.396880368419575
      ],
      [
        "Ġhali",
        -9.397158396651664
      ],
      [
        "Ġave",
        -9.39753307722917
      ],
      [
        "à¥Ģà¤",
        -9.397685801594292
      ],
      [
        "à°Ĥà°¬",
        -9.397800923423038
      ],
      [
        "Ġpeu",
        -9.398633564651014
      ],
      [
        "'un",
        -9.400249488951474
      ],
      [
        "à±Īà°²",
        -9.400279911924452
      ],
      [
        "Ð½Ð¾Ð¹",
        -9.40035952330684
      ],
      [
        "ĠØ¥",
        -9.402194293571354
      ],
      [
        "Ġone",
        -9.40363758921338
      ],
      [
        "à¸µà¸¢",
        -9.403707870261254
      ],
      [
        "idi",
        -9.405082733808625
      ],
      [
        "à¥Ģà¤¯",
        -9.405568499199155
      ],
      [
        "à¸Ħà¸£",
        -9.406352443905885
      ],
      [
        "à¸Ńà¸£",
        -9.406634794047005
      ],
      [
        "sa",
        -9.407820568506017
      ],
      [
        "à¹Ģà¸¡",
        -9.408554736210444
      ],
      [
        "à¸µà¸Ĺ",
        -9.409938499270876
      ],
      [
        "à¤Ĥà¤Ĺ",
        -9.41019975442848
      ],
      [
        "V",
        -9.411274744066532
      ],
      [
        "ä¸Ń",
        -9.411350958512289
      ],
      [
        "à¸¸à",
        -9.416971916823655
      ],
      [
        "ÙĲÙĬ",
        -9.41761800380371
      ],
      [
        "W",
        -9.41819274855174
      ],
      [
        "Ãªtre",
        -9.420596143696898
      ],
      [
        "âĢĻest",
        -9.422553058416312
      ],
      [
        "ini",
        -9.42310259882034
      ],
      [
        "Ġfait",
        -9.424276236092735
      ],
      [
        "à¥ĩà¤¸",
        -9.426602749118796
      ],
      [
        "ÙĭØ",
        -9.427030005556087
      ],
      [
        "à¤µà¤°",
        -9.427115056872385
      ],
      [
        "ØŁĊ",
        -9.428291529086456
      ],
      [
        "Ġana",
        -9.43113712979213
      ],
      [
        "Ġà¸Ļ",
        -9.431696734999942
      ],
      [
        "Ø¨",
        -9.43233151412644
      ],
      [
        "à±Ģà°¤",
        -9.433053578972103
      ],
      [
        "cette",
        -9.434361043237864
      ],
      [
        "ally",
        -9.434584309438096
      ],
      [
        "à°®à°§",
        -9.437345774666952
      ],
      [
        "um",
        -9.43834495659174
      ],
      [
        "à¹Ģà¸Ħà¸£",
        -9.439290793397468
      ],
      [
        "ux",
        -9.439896551681544
      ],
      [
        "à±įà°°à°¯",
        -9.4418671219676
      ],
      [
        "ĠØ§ÙĦØ¹Ø§Ùħ",
        -9.442413881663214
      ],
      [
        "yote",
        -9.443799335384014
      ],
      [
        "Ġà¸ŀ",
        -9.443922911668746
      ],
      [
        "ez",
        -9.444981907613636
      ],
      [
        "à¥įà¤§",
        -9.447351011444823
      ],
      [
        "âĢ¢",
        -9.44781301136094
      ],
      [
        "Ø¯",
        -9.449323476933651
      ],
      [
        "Ġny",
        -9.449462296557831
      ],
      [
        "ĠÙĪØ",
        -9.450848206562416
      ],
      [
        "ÙİÙĨ",
        -9.451098245830856
      ],
      [
        "à¸´à¸ĺ",
        -9.4516379145896
      ],
      [
        "à±Ģà°Ł",
        -9.452735693143882
      ],
      [
        "ÙĨØ©",
        -9.453062912957948
      ],
      [
        "à±ĩà°ľ",
        -9.45311921362267
      ],
      [
        "à¥ĩà¤ĸ",
        -9.453646802210171
      ],
      [
        "Ã©es",
        -9.453813849613116
      ],
      [
        "ÙħØ©",
        -9.454027235191084
      ],
      [
        "à¹Īà¸Ń",
        -9.455782194005131
      ],
      [
        "à¹īà¸¡",
        -9.455901898989032
      ],
      [
        "à¥įà¤ª",
        -9.456833751931994
      ],
      [
        "nda",
        -9.457503294552854
      ],
      [
        "à¸µà¸ģ",
        -9.457595571705015
      ],
      [
        "à±ģà°ļ",
        -9.4594280243505
      ],
      [
        "à°ħà°Ń",
        -9.460325073287116
      ],
      [
        "ĠÙĥØªØ§Ø¨",
        -9.461177263274063
      ],
      [
        "ĠV",
        -9.463680887232345
      ],
      [
        "Ð½Ð¾Ð³Ð¾",
        -9.46388227385384
      ],
      [
        "Ø§ÙĦØ¹Ø±Ø¨ÙĬØ©",
        -9.46407654292872
      ],
      [
        "ch",
        -9.46426729286046
      ],
      [
        "Ġà¹Ĩ",
        -9.465337828348057
      ],
      [
        "à¸Ĥ",
        -9.469320781850389
      ],
      [
        "ĠÐ¸ÑģÐ¿Ð¾Ð»ÑĮÐ·",
        -9.469604985635671
      ],
      [
        "=",
        -9.469708900749794
      ],
      [
        "Ġg",
        -9.471397086553246
      ],
      [
        "à¤¾à¤ª",
        -9.473492905441384
      ],
      [
        "ĠØ¨Ø",
        -9.47439081390578
      ],
      [
        "Ġiyi",
        -9.474470166523409
      ],
      [
        "ine",
        -9.474719370376924
      ],
      [
        "kuwa",
        -9.475139316407711
      ],
      [
        "ÙģÙĬ",
        -9.47571361682704
      ],
      [
        "ÙĲØ",
        -9.475817854835071
      ],
      [
        "leur",
        -9.476101687314127
      ],
      [
        "ÙĢ",
        -9.476362862218036
      ],
      [
        "ĠAl",
        -9.477824974931671
      ],
      [
        "Ø¹ÙĦÙī",
        -9.47885249342071
      ],
      [
        "Ġdon",
        -9.480457951721691
      ],
      [
        "ould",
        -9.48137690795974
      ],
      [
        "zo",
        -9.48202441698756
      ],
      [
        "yla",
        -9.483558562194466
      ],
      [
        "ĠÐ¶Ðµ",
        -9.485246736011112
      ],
      [
        "ĠNa",
        -9.48528167118069
      ],
      [
        "R",
        -9.485292369397346
      ],
      [
        "Ġà°ĵ",
        -9.4856691191301
      ],
      [
        "ĠÙĦÙĥÙĨ",
        -9.486751714745411
      ],
      [
        "Ŀ",
        -9.48743924397816
      ],
      [
        "à°İà°²",
        -9.490002095268562
      ],
      [
        "ĠØ¯ÙĪÙĨ",
        -9.491472632139988
      ],
      [
        "ĠØ§ÙĦØ¯ÙĪÙĦ",
        -9.491826240638634
      ],
      [
        "à°ħà°§",
        -9.492005817909655
      ],
      [
        "ĠØ§ÙĦØ¹Ø±Ø§ÙĤ",
        -9.49387452802921
      ],
      [
        "U",
        -9.494110684929534
      ],
      [
        "ĠÙģØ¥ÙĨ",
        -9.495280049597069
      ],
      [
        "à¤Ł",
        -9.495532559985849
      ],
      [
        "Ġwho",
        -9.498789337748171
      ],
      [
        "Ġà¤Ĳà¤",
        -9.49893380095471
      ],
      [
        "Ġà°ªà°¡",
        -9.499099065501856
      ],
      [
        "+",
        -9.500222835859358
      ],
      [
        "ient",
        -9.500278373066076
      ],
      [
        "ĠØ§ÙĦØ¥ÙĨØ³Ø§ÙĨ",
        -9.500307518933962
      ],
      [
        "Ġà°ħà°¤",
        -9.50095085286032
      ],
      [
        "Ø¹Ø©",
        -9.501783476075856
      ],
      [
        "ĠÑĤ",
        -9.501946278283455
      ],
      [
        "Ð±ÑĭÐ»Ð¾",
        -9.502792051339242
      ],
      [
        "ÙĲÙĨ",
        -9.503004627117734
      ],
      [
        "leri",
        -9.505066235566067
      ],
      [
        "à±įà°°à°ª",
        -9.505309385806909
      ],
      [
        "à¹Ģà¸¥",
        -9.506561235681929
      ],
      [
        "ÑĤ",
        -9.508668000006056
      ],
      [
        "ĠÐĲ",
        -9.50918998884258
      ],
      [
        "ĠY",
        -9.509415998847278
      ],
      [
        "à¥Ģà¤°",
        -9.511816417709476
      ],
      [
        "ĠÐ¼Ñĭ",
        -9.512185755200909
      ],
      [
        "ĠØ¹",
        -9.513058913500792
      ],
      [
        "ies",
        -9.514822840700775
      ],
      [
        "ia",
        -9.518713725992937
      ],
      [
        "ÙĤØ©",
        -9.518739786275631
      ],
      [
        "ØªÙĩØ§",
        -9.519874906854133
      ],
      [
        "Ġà¸§",
        -9.521452488672368
      ],
      [
        "po",
        -9.521601587060754
      ],
      [
        "à¹īà¸²à¸ĩ",
        -9.52161333491989
      ],
      [
        "ts",
        -9.521623446970796
      ],
      [
        "ĠÙĦÙĩØ§",
        -9.521923596403887
      ],
      [
        "Ð¾",
        -9.522107878558604
      ],
      [
        "chini",
        -9.5223618967773
      ],
      [
        "à¥ģà¤¦",
        -9.52330020437294
      ],
      [
        "ĠÙĪØ§",
        -9.52397089472895
      ],
      [
        "à°µà°°à°ķ",
        -9.524818619733916
      ],
      [
        ".w",
        -9.525121113753148
      ],
      [
        "ÙıÙħ",
        -9.527133291857094
      ],
      [
        "à¹ģà¸¥",
        -9.528153754071951
      ],
      [
        "µÐ½Ð¸Ñı",
        -9.529257617730009
      ],
      [
        "à¹ģà¸ķ",
        -9.529876324597677
      ],
      [
        "Ġà°¤à°®",
        -9.529985074405284
      ],
      [
        "Ð²ÑĢÐµÐ¼Ñı",
        -9.53031548108886
      ],
      [
        "ĠÐ¿Ð¾Ð´",
        -9.53071698260034
      ],
      [
        "ãĢį",
        -9.531404707124691
      ],
      [
        "aji",
        -9.532143979816668
      ],
      [
        "ĠKwa",
        -9.532362748063694
      ],
      [
        "ï¼Ł",
        -9.533449111907242
      ],
      [
        "Ġco",
        -9.534137893420832
      ],
      [
        "ĠÙĪÙĬ",
        -9.534654075340503
      ],
      [
        "Ùį",
        -9.53555119000216
      ],
      [
        "ĠØ¹Ø¨Ø¯",
        -9.536180578715804
      ],
      [
        "Ùģ",
        -9.536246508471418
      ],
      [
        "lakini",
        -9.536548855318776
      ],
      [
        "à¸ĩà¸Ĺ",
        -9.536602319685231
      ],
      [
        "à¤Ĥà¤¦",
        -9.539878911056668
      ],
      [
        "¹Ħà¸¡",
        -9.543432183569209
      ],
      [
        "à°¹",
        -9.54401943933351
      ],
      [
        "³Ð¾",
        -9.544381909693666
      ],
      [
        "said",
        -9.54805207876353
      ],
      [
        "Ġà°·",
        -9.54883552105175
      ],
      [
        "Ġà¤Ľ",
        -9.549623451989426
      ],
      [
        "Ġtime",
        -9.551042460202336
      ],
      [
        "ĠÙĪÙĩÙĬ",
        -9.551871537820356
      ],
      [
        "Ð¼Ð¾Ð¶ÐµÑĤ",
        -9.552753909593182
      ],
      [
        "Ø¹Ø¯Ùħ",
        -9.55307734063992
      ],
      [
        "Ġà°",
        -9.55319598573374
      ],
      [
        "ÐµÑĤ",
        -9.55359078576329
      ],
      [
        "Ġà°ħà°¡",
        -9.555062463532805
      ],
      [
        "ä¸Ĭ",
        -9.555395601501417
      ],
      [
        "à±Ĥà°¨",
        -9.555421034791893
      ],
      [
        "à±ĭà°µà°",
        -9.556828298163312
      ],
      [
        "ĠJe",
        -9.558258828188828
      ],
      [
        "ÙħÙĨÙĩØ§",
        -9.558442225493536
      ],
      [
        "ise",
        -9.559031848607376
      ],
      [
        "Ġà¤ħ",
        -9.560201235692832
      ],
      [
        "à¥Ģà¤ķ",
        -9.560529601085143
      ],
      [
        "ï¼ģ",
        -9.560884271364973
      ],
      [
        "à°¾à°ļ",
        -9.562372368468337
      ],
      [
        "ĠÐ",
        -9.563237772334052
      ],
      [
        "kila",
        -9.56405954630912
      ],
      [
        "Ġà¸Ķ",
        -9.564721083871312
      ],
      [
        "à¤¾à¤ģ",
        -9.56648328665473
      ],
      [
        "_",
        -9.566606521332949
      ],
      [
        "ĠÙĪÙĦÙĥÙĨ",
        -9.56725382564362
      ],
      [
        "à±įà°°à°ķ",
        -9.56779953398003
      ],
      [
        "ĠØ§ÙĦØ¹ÙħÙĦ",
        -9.56922427820006
      ],
      [
        "Ġà¤Ĩà¤ª",
        -9.569854628092344
      ],
      [
        "à¤ªà¤¹à¤²",
        -9.571614655988917
      ],
      [
        "à¹ĥà¸",
        -9.571981907378516
      ],
      [
        "Ġà¤Ĩà¤ªà¤",
        -9.573167877050684
      ],
      [
        "à±Īà°Ł",
        -9.573595027337532
      ],
      [
        "year",
        -9.57455884634008
      ],
      [
        "Ġzaman",
        -9.575402819718043
      ],
      [
        "ĠØªÙĥÙĪÙĨ",
        -9.575526621258328
      ],
      [
        "Ø®Ø§ØµØ©",
        -9.576366204324842
      ],
      [
        "Ġà¸£",
        -9.579726477920843
      ],
      [
        "Ġyer",
        -9.579973416672756
      ],
      [
        "à±Ģà°ª",
        -9.583133300815405
      ],
      [
        "Ġà¤ħà¤²",
        -9.583350124373544
      ],
      [
        "à¥įà¤µà¤",
        -9.584774748713048
      ],
      [
        "Ġhata",
        -9.587301835145162
      ],
      [
        "ta",
        -9.58805847471992
      ],
      [
        "à¥įà¤¯à¤ķ",
        -9.588617824340416
      ],
      [
        "ÙħÙĨ",
        -9.591537481622025
      ],
      [
        "à¹Īà¸²à¸¢",
        -9.591754841828037
      ],
      [
        "Ġà°īà°",
        -9.591783565142634
      ],
      [
        "ĠÐ±ÑĭÐ»",
        -9.592640041926284
      ],
      [
        "ngu",
        -9.59294828159111
      ],
      [
        "Ð¼Ð¾Ð¶Ð½Ð¾",
        -9.593543127427644
      ],
      [
        "Ġhad",
        -9.594980308757332
      ],
      [
        "ÙĪÙĩØ°Ø§",
        -9.595203191296823
      ],
      [
        "Ġà¤§",
        -9.5956767335917
      ],
      [
        "ĠØ§ÙĦØ¹ÙĦÙħ",
        -9.595802122274996
      ],
      [
        "Ġmu",
        -9.59797711732055
      ],
      [
        "ØŁ",
        -9.598740323053557
      ],
      [
        "Ã©tÃ©",
        -9.599132534759596
      ],
      [
        ">",
        -9.599288279550198
      ],
      [
        "Ġvar",
        -9.599726627037036
      ],
      [
        "tes",
        -9.59977528598844
      ],
      [
        "Ġcomme",
        -9.599815629674357
      ],
      [
        "Ġbin",
        -9.599885130209593
      ],
      [
        "J",
        -9.600109786182138
      ],
      [
        "à¸´à¸",
        -9.600716864547174
      ],
      [
        "à¤¾à¤¯à¤",
        -9.602385103062808
      ],
      [
        "ĠØ§ÙĦØ¹Ø§ÙĦÙħ",
        -9.602904897202212
      ],
      [
        "à¤¾à¤¬",
        -9.603586026496448
      ],
      [
        "ana",
        -9.604444493905463
      ],
      [
        "à¤¼à¥Ģ",
        -9.604854777995332
      ],
      [
        "ĠÐºÐ¾ÑĤÐ¾ÑĢ",
        -9.605122140936544
      ],
      [
        "Ġà¤¬à¤¹",
        -9.605188568908597
      ],
      [
        "larÄ±",
        -9.605332716782218
      ],
      [
        "à¥ģà¤®",
        -9.605593750373668
      ],
      [
        "Ð½ÑĭÐ¹",
        -9.606484573100436
      ],
      [
        "à±įà°ªà°",
        -9.60657365038523
      ],
      [
        "Le",
        -9.608628532814151
      ],
      [
        "à±įà°Łà°",
        -9.609128248288153
      ],
      [
        "ĠIl",
        -9.609899625599793
      ],
      [
        "we",
        -9.611598520804112
      ],
      [
        "ÙĨÙĬ",
        -9.612088994936638
      ],
      [
        "za",
        -9.613011006407582
      ],
      [
        "ØªÙĩ",
        -9.613484806168522
      ],
      [
        "ubwa",
        -9.613866364106787
      ],
      [
        "Ĳ",
        -9.613881296340894
      ],
      [
        "à¹īà¸Ń",
        -9.61429232998782
      ],
      [
        "Ġhuo",
        -9.61501653827622
      ],
      [
        "Ġses",
        -9.615178000941937
      ],
      [
        "à°¬à°¡",
        -9.61554404738692
      ],
      [
        "Ġbasi",
        -9.617029680151196
      ],
      [
        "à¸³à¸«à¸£",
        -9.617249528842658
      ],
      [
        "ÙģÙī",
        -9.617253178211476
      ],
      [
        "à¹Īà¸",
        -9.617903969877894
      ],
      [
        "ĠIn",
        -9.619673603524092
      ],
      [
        "Ġmwak",
        -9.620357909376043
      ],
      [
        "æľī",
        -9.62046153207314
      ],
      [
        "Ġà°ļà°°",
        -9.62049585306278
      ],
      [
        "à¸´à¸¡",
        -9.620532136983364
      ],
      [
        "à±ĩà°·",
        -9.6206200746567
      ],
      [
        "ĠØ§ÙĦÙĬÙĪÙħ",
        -9.622756414491434
      ],
      [
        "ĠØ¹ÙħÙĦ",
        -9.623277858906144
      ],
      [
        "æĪĸ",
        -9.623674627360788
      ],
      [
        "Ġno",
        -9.623916995450625
      ],
      [
        "Ġà¸ľ",
        -9.62409062682378
      ],
      [
        "Ġà¸Ľ",
        -9.624246465157896
      ],
      [
        "Ġlike",
        -9.624449988169491
      ],
      [
        "Ġhuu",
        -9.624913581907066
      ],
      [
        "ÙİÙĬ",
        -9.625433148578622
      ],
      [
        "âĢĻa",
        -9.62597109486402
      ],
      [
        "Ġà°İà°¨",
        -9.628071224041364
      ],
      [
        "à±įà°°à°¦",
        -9.62920521035401
      ],
      [
        "à¥Ĥà¤ª",
        -9.629244229408576
      ],
      [
        "were",
        -9.632695401033075
      ],
      [
        "ĠØ³",
        -9.632899121396033
      ],
      [
        "à¥ģà¤¸",
        -9.63323158635798
      ],
      [
        "à±ĩà°·à°",
        -9.63355251652932
      ],
      [
        "à¥ģà¤µ",
        -9.634344004617844
      ],
      [
        "Ø±",
        -9.634462535841935
      ],
      [
        "à±įà°µà°°",
        -9.635185446007856
      ],
      [
        "à¸Ļà¸Ĺ",
        -9.635231224839648
      ],
      [
        "ĠÐ²Ð¾",
        -9.63552342323511
      ],
      [
        "Ġbien",
        -9.63650621814477
      ],
      [
        "à°¾à°²à°",
        -9.636541512062324
      ],
      [
        "à±ĩà°¡",
        -9.636733690055443
      ],
      [
        "´",
        -9.636900458476962
      ],
      [
        "its",
        -9.63696971155261
      ],
      [
        "Ġbi",
        -9.6371613649319
      ],
      [
        "à¹īà¸²à¸Ĺ",
        -9.63871555083881
      ],
      [
        "el",
        -9.642978681459436
      ],
      [
        "à¤ħà¤§",
        -9.643853840850948
      ],
      [
        "ÙĩØ°Ø§",
        -9.645175628592607
      ],
      [
        "kweli",
        -9.64574121969164
      ],
      [
        "Ġà°ħà°",
        -9.646909765588788
      ],
      [
        "à¸´à¸Ī",
        -9.64808229328455
      ],
      [
        "à¸´à¸ļ",
        -9.649628909696313
      ],
      [
        "à¥ĭà¤¡",
        -9.650373330048549
      ],
      [
        "$",
        -9.65068894132534
      ],
      [
        "ÙİÙħ",
        -9.650721223930006
      ],
      [
        "åĪ°",
        -9.652134021922883
      ],
      [
        "ra",
        -9.652857084915476
      ],
      [
        "Ġyeni",
        -9.654573326373814
      ],
      [
        "Â",
        -9.654608981408016
      ],
      [
        "day",
        -9.655149194433
      ],
      [
        "first",
        -9.65644082018332
      ],
      [
        "ÑĭÐ¼Ð¸",
        -9.657001341305184
      ],
      [
        "ndani",
        -9.662660698257596
      ],
      [
        "¾Ð²",
        -9.662856292568486
      ],
      [
        "Ġà°®à°¹",
        -9.663030762857924
      ],
      [
        "ca",
        -9.66367051749956
      ],
      [
        "à¥Ģà¤¤",
        -9.665822438256525
      ],
      [
        "ÙĥÙħ",
        -9.666826626205632
      ],
      [
        "ti",
        -9.667178083358117
      ],
      [
        "maisha",
        -9.667362389351627
      ],
      [
        "ĠKu",
        -9.667798107239111
      ],
      [
        "ĠÙĦÙĬØ³",
        -9.668625160410825
      ],
      [
        "ĠÙĬÙĪÙħ",
        -9.671355192466136
      ],
      [
        "Ġsome",
        -9.672175452594912
      ],
      [
        "ĠØ¨Ø£ÙĨ",
        -9.673414400252156
      ],
      [
        "Ġà¸ĸ",
        -9.674337916751396
      ],
      [
        "nde",
        -9.676077280032048
      ],
      [
        "à¤īà¤¨à¤",
        -9.676849174959091
      ],
      [
        "à¤«",
        -9.677860677364691
      ],
      [
        "äºº",
        -9.67933459729478
      ],
      [
        "Ġà¤Ĩ",
        -9.679359988280236
      ],
      [
        "aka",
        -9.6806540819394
      ],
      [
        "ÑĤÐ¾Ð³Ð¾",
        -9.681492980348263
      ],
      [
        "Je",
        -9.681675926108811
      ],
      [
        "ote",
        -9.682591918574406
      ],
      [
        "à±ģà°",
        -9.682940463620795
      ],
      [
        "ĠgÃ¶re",
        -9.683039299865465
      ],
      [
        "º",
        -9.68315880900315
      ],
      [
        "ĠØ¬ÙħÙĬØ¹",
        -9.683203007722147
      ],
      [
        "ĠØ§ÙĦÙĨØ§Ø³",
        -9.683410692192163
      ],
      [
        "bu",
        -9.684365610648712
      ],
      [
        "ĠÐ¿ÑĢÐ¾",
        -9.685137989303485
      ],
      [
        "ĠÙĪÙħØ§",
        -9.685235009531027
      ],
      [
        "à¥įà¤ľ",
        -9.685754915949342
      ],
      [
        "ĠØ£ÙĥØ«Ø±",
        -9.686210427053588
      ],
      [
        "à±ĩà°¯à°",
        -9.687436185130172
      ],
      [
        "Ġama",
        -9.68745564304264
      ],
      [
        "ÑĮÑİ",
        -9.688603309408482
      ],
      [
        "what",
        -9.68987316449656
      ],
      [
        "yi",
        -9.6911709211098
      ],
      [
        "æľĪ",
        -9.693089078040538
      ],
      [
        "Windows",
        -9.693156779457397
      ],
      [
        "Ġany",
        -9.693474143352583
      ],
      [
        "ĠÙĪØª",
        -9.694661735957467
      ],
      [
        "à¹ĥà¸«à¸¡",
        -9.695333380383609
      ],
      [
        "à¸ĭ",
        -9.69621158872227
      ],
      [
        "Ð½ÑĭÐµ",
        -9.699056943630538
      ],
      [
        "à±Ĭà°²",
        -9.699100644844496
      ],
      [
        "hich",
        -9.699160832550984
      ],
      [
        "ry",
        -9.700464935891397
      ],
      [
        "Ġus",
        -9.701883889017797
      ],
      [
        "à¤¿à¤®",
        -9.703080280868347
      ],
      [
        "tume",
        -9.703353825111872
      ],
      [
        "Ð»Ð¸ÑģÑĮ",
        -9.703706879815012
      ],
      [
        "à¥įà¤¡",
        -9.704963923312675
      ],
      [
        "à¤¶",
        -9.705116909216738
      ],
      [
        "à¸µà¸¢à¸ĩ",
        -9.705419192091975
      ],
      [
        "à¸µà¸¢à¸Ļ",
        -9.705643306084475
      ],
      [
        "Ãªme",
        -9.706046305126296
      ],
      [
        "¿",
        -9.706501429489444
      ],
      [
        "à¤ªà¤¤",
        -9.706566707102262
      ],
      [
        "à¹Īà¸ĩ",
        -9.707284752048
      ],
      [
        "mi",
        -9.708058317800978
      ],
      [
        "ur",
        -9.709367153517787
      ],
      [
        "Ð±ÑĥÐ´ÐµÑĤ",
        -9.709397150899392
      ],
      [
        ".)",
        -9.710058655196516
      ],
      [
        "à¤¿à¤¦",
        -9.710269919272749
      ],
      [
        "à¹Ģà¸Ļ",
        -9.710403920417
      ],
      [
        "Ġà¤ĩà¤¨",
        -9.711029659245
      ],
      [
        "ĠÙĪØ§ØŃØ¯",
        -9.711938802606191
      ],
      [
        "ĠÙĪØ§ÙĦØ",
        -9.712509511142896
      ],
      [
        "¾Ð³Ð¾",
        -9.716481299657604
      ],
      [
        "à¥Ģà¤ľ",
        -9.717513626468172
      ],
      [
        "à¹Īà¸Ńà¸Ļ",
        -9.71797962262319
      ],
      [
        "à°¾à°²à°²",
        -9.718253513473256
      ],
      [
        "Ð°Ð¼",
        -9.718254024633888
      ],
      [
        "Ġà¤īà¤",
        -9.718294694563529
      ],
      [
        "Ġà°īà°ªà°",
        -9.719029869084505
      ],
      [
        "ko",
        -9.719301164495496
      ],
      [
        "ĠbÃ¼yÃ¼k",
        -9.71934601857179
      ],
      [
        "à¸´à¸ĩ",
        -9.720891368655014
      ],
      [
        "Y",
        -9.721563146985046
      ],
      [
        "ans",
        -9.721623694597064
      ],
      [
        "à¤¾à¤°à¤¤",
        -9.72165276257732
      ],
      [
        "à¸µà¸Ļ",
        -9.722129644229152
      ],
      [
        "Ġover",
        -9.722224275361713
      ],
      [
        "¾Ð¼",
        -9.722847712559538
      ],
      [
        "ØªØ¹Ø§ÙĦÙī",
        -9.724337998813322
      ],
      [
        "ÙĦÙĩÙħ",
        -9.72537843233314
      ],
      [
        "..Ċ",
        -9.726250183039918
      ],
      [
        "Ġà¤ĩ",
        -9.727434143660313
      ],
      [
        "nchi",
        -9.727533647442192
      ],
      [
        "ĠHotel",
        -9.728771389785898
      ],
      [
        "à¹īà¸Ĺ",
        -9.729159324516129
      ],
      [
        "à°¿à°ķà°²",
        -9.72943973728981
      ],
      [
        "Ġiki",
        -9.729962060743372
      ],
      [
        "Ġà¤ķà¤®",
        -9.73289919299474
      ],
      [
        "à¥ĭà¤²",
        -9.734013088262495
      ],
      [
        "à¤¾à¤®à¤",
        -9.734731164998324
      ],
      [
        "à¥įà¤°à¤®",
        -9.734782745336023
      ],
      [
        "à¹ĩà¸Ļà¸ķ",
        -9.734832232327424
      ],
      [
        "à°ħà°¤à°¨",
        -9.736236250062134
      ],
      [
        "à¥ĩà¤µ",
        -9.737399224287138
      ],
      [
        "à¥ĩà¤Ĺ",
        -9.73753438494179
      ],
      [
        "Ġà¤®à¤¹",
        -9.737906013678671
      ],
      [
        "Ð¸Ðµ",
        -9.73826139164352
      ],
      [
        "à°Ī",
        -9.738372182559011
      ],
      [
        "Ġwao",
        -9.738808498633873
      ],
      [
        "vec",
        -9.738853135330448
      ],
      [
        "à°Ĥà°Ń",
        -9.738973204745117
      ],
      [
        "à¹Ģà¸Ĥ",
        -9.74101028754799
      ],
      [
        "à¤¼à¥ĩ",
        -9.74142174826846
      ],
      [
        "åıĬ",
        -9.742255396890272
      ],
      [
        "vile",
        -9.744104747032663
      ],
      [
        "ï¼ī",
        -9.74480004264556
      ],
      [
        "alikuwa",
        -9.74489756125978
      ],
      [
        "\".Ċ",
        -9.744911098830029
      ],
      [
        "à¹",
        -9.74521727173733
      ],
      [
        "¾Ð¹",
        -9.747072217525414
      ],
      [
        "Ġ..",
        -9.747204205867334
      ],
      [
        "ÙĨÙģØ³Ùĩ",
        -9.747317392362705
      ],
      [
        "Ġjust",
        -9.748327743793734
      ],
      [
        "¸Ñħ",
        -9.749117038204314
      ],
      [
        "ĠØ§ÙĦÙħØ³ÙĦÙħ",
        -9.750702080700382
      ],
      [
        "Ġthere",
        -9.751224639904349
      ],
      [
        "ÐŃÑĤÐ¾",
        -9.751591717633527
      ],
      [
        "ÐµÑģÑĤÑĮ",
        -9.75166149783182
      ],
      [
        "pia",
        -9.75177263305016
      ],
      [
        "ĠMu",
        -9.7518001484159
      ],
      [
        "ĠÐ±Ð¾Ð»ÐµÐµ",
        -9.752083507093088
      ],
      [
        "eurs",
        -9.753042522233368
      ],
      [
        "à¥ģà¤ĸ",
        -9.754926890684231
      ],
      [
        "ÐµÑģÐ»Ð",
        -9.755018678986758
      ],
      [
        "à¸´à¸§",
        -9.75504424227872
      ],
      [
        "à¸±à¸Ļà¸ĺ",
        -9.755475193984022
      ],
      [
        "à±įà°°à°¹",
        -9.756123682312248
      ],
      [
        "ĠÑĢÐ°Ð·",
        -9.757597999415388
      ],
      [
        "Ð¾Ð½Ð¸",
        -9.758678283696554
      ],
      [
        "Ð¸ÑĤÑĮ",
        -9.760047799130382
      ],
      [
        "Ġhiz",
        -9.76014086941312
      ],
      [
        "Ø¨Ø´ÙĥÙĦ",
        -9.761610897955368
      ],
      [
        "Ġnew",
        -9.76180715771644
      ],
      [
        "Ġmwa",
        -9.762073647875544
      ],
      [
        "ĠÙĤ",
        -9.76293566101283
      ],
      [
        "Ġà¤ľà¤¬",
        -9.763177298160532
      ],
      [
        "ĠØ¹Ø¯Ø¯",
        -9.763409089776005
      ],
      [
        "Ġthem",
        -9.763611469367614
      ],
      [
        "à°®à°¨",
        -9.76369842625252
      ],
      [
        "ØªÙĦÙĥ",
        -9.763701332581311
      ],
      [
        "ĠØ¹ÙĨÙĩ",
        -9.763855894852204
      ],
      [
        "ÙĦØ§",
        -9.763856469352152
      ],
      [
        "Ð½Ð°Ñı",
        -9.764306764490062
      ],
      [
        "Mwenyezi",
        -9.765724215757189
      ],
      [
        "Ð¾Ð³Ð´Ð°",
        -9.76609909922255
      ],
      [
        "ume",
        -9.766114595922955
      ],
      [
        "yle",
        -9.767392820157704
      ],
      [
        "ÑĥÐ¶Ðµ",
        -9.768356282668863
      ],
      [
        "ques",
        -9.768501412909394
      ],
      [
        "ajili",
        -9.769004145896451
      ],
      [
        "Ġuse",
        -9.769160415532848
      ],
      [
        "ÙĪØ°ÙĦÙĥ",
        -9.770582019717928
      ],
      [
        "Ġif",
        -9.771077702926055
      ],
      [
        "Ġà¹Ģà¸ŀà¸£à¸²à¸°",
        -9.771329774103677
      ],
      [
        "ĠÂ»",
        -9.772401176367469
      ],
      [
        "Ø¥Ø°Ø§",
        -9.772603044213184
      ],
      [
        "ÑģÐ»Ð¸",
        -9.772628545799355
      ],
      [
        "Z",
        -9.773256204576176
      ],
      [
        "Ø§ÙĦÙħØ±Ø£",
        -9.774222222165196
      ],
      [
        "ous",
        -9.774464177193304
      ],
      [
        "Ġà¤",
        -9.7749443664117
      ],
      [
        "ĠolduÄŁu",
        -9.77525086968874
      ],
      [
        "à±įà°¨à°¦",
        -9.77551711433472
      ],
      [
        "hilo",
        -9.7760684433565
      ],
      [
        "Ġplace",
        -9.778384911452022
      ],
      [
        "Ġsiku",
        -9.778637967388129
      ],
      [
        "La",
        -9.77919273401081
      ],
      [
        "ÙĦØ§Ø¡",
        -9.779284227815925
      ],
      [
        "ĠÙħÙĨÙĩ",
        -9.779672090952516
      ],
      [
        "Ġz",
        -9.779891126047833
      ],
      [
        "Ġth",
        -9.780016395469415
      ],
      [
        "engine",
        -9.78173621763074
      ],
      [
        "ten",
        -9.782285321700948
      ],
      [
        "ĠØ¹ÙĦÙħ",
        -9.782431048482458
      ],
      [
        "Ġget",
        -9.783177850235449
      ],
      [
        "ge",
        -9.78503267084476
      ],
      [
        "ĠÙĦØ£ÙĨ",
        -9.785060707318053
      ],
      [
        "à±įà°¸à°°",
        -9.785505993118337
      ],
      [
        "Bu",
        -9.785727657692052
      ],
      [
        "faire",
        -9.786352951057337
      ],
      [
        "ÙİØ±",
        -9.786937228201484
      ],
      [
        "à¸ģà¸¥",
        -9.788621904747002
      ],
      [
        "Ġà°µà°¦",
        -9.790186064395291
      ],
      [
        "-Ċ",
        -9.79025514830876
      ],
      [
        "ĠÐķ",
        -9.790660262042104
      ],
      [
        "à¸µà¸ª",
        -9.791125066200271
      ],
      [
        "à°¿à°¯à°",
        -9.792364314594144
      ],
      [
        "à¥ĩà¤¡",
        -9.792899528612622
      ],
      [
        "ÑĩÐµÐ½ÑĮ",
        -9.79301284336551
      ],
      [
        "à±įà°·à°£",
        -9.7930154102856
      ],
      [
        "ÐºÐ¸",
        -9.795638513720093
      ],
      [
        "jamii",
        -9.79567247498446
      ],
      [
        "à¤Ń",
        -9.795756948404064
      ],
      [
        "Ø£",
        -9.796674069513344
      ],
      [
        "asi",
        -9.797081456943822
      ],
      [
        "à±Īà°¤",
        -9.797189726009533
      ],
      [
        "à±įà°¯à°¤",
        -9.79831217195018
      ],
      [
        "à¸¨",
        -9.799016340224895
      ],
      [
        "ĠIt",
        -9.799364192562964
      ],
      [
        "Ġà°Ĩà°²",
        -9.799949276148208
      ],
      [
        "ĠAllah",
        -9.800080783417716
      ],
      [
        "à¸´à¸ģ",
        -9.8004777386723
      ],
      [
        "age",
        -9.802807993694572
      ],
      [
        "à¸¸à¸ĵ",
        -9.803046101246142
      ],
      [
        "à¸±à¸ļà¸",
        -9.80458734865108
      ],
      [
        "à±ģà°£",
        -9.80507448753902
      ],
      [
        "à¸Ńà¸ĩ",
        -9.805462674214146
      ],
      [
        "way",
        -9.806065923351555
      ],
      [
        "ĠØ·Ø±ÙĬÙĤ",
        -9.80637302729984
      ],
      [
        "»",
        -9.806448217204451
      ],
      [
        "Ġservice",
        -9.80674423779104
      ],
      [
        "ÙħØ¯ÙĬÙĨØ©",
        -9.80713414882137
      ],
      [
        "à¸µà¸",
        -9.808646612283606
      ],
      [
        "ar",
        -9.8090416191757
      ],
      [
        "Ð¾Ð¼Ñĥ",
        -9.809085865947802
      ],
      [
        "à¹īà¸ģ",
        -9.8092998351695
      ],
      [
        "Ġo",
        -9.80961587647908
      ],
      [
        "one",
        -9.810022473553698
      ],
      [
        "Ġmw",
        -9.812509908316663
      ],
      [
        "à¤Ĥà¤",
        -9.81313595062782
      ],
      [
        "ĠÙģÙĤØ¯",
        -9.814897022149369
      ],
      [
        "Ġhi",
        -9.815153033981654
      ],
      [
        "v",
        -9.81529618900656
      ],
      [
        "@",
        -9.815874530755424
      ],
      [
        "Ġi",
        -9.816461001954131
      ],
      [
        "à±Ĭà°°",
        -9.816705013629
      ],
      [
        "Ġà¹Ħà¸¡",
        -9.81756740613334
      ],
      [
        "Ġpart",
        -9.820141919703744
      ],
      [
        "ĠRe",
        -9.820953479803531
      ],
      [
        "ĠÐļ",
        -9.82215834451904
      ],
      [
        "islam",
        -9.822615511182214
      ],
      [
        "toto",
        -9.824008017845912
      ],
      [
        "Ġthan",
        -9.824795000754566
      ],
      [
        "nini",
        -9.826204361651625
      ],
      [
        "à¥¤Ċ",
        -9.826473487368864
      ],
      [
        "Ġmara",
        -9.826872136647072
      ],
      [
        "Ġsite",
        -9.828415836580634
      ],
      [
        "ĠØ§ÙĦØ´Ø¹Ø¨",
        -9.829123814978155
      ],
      [
        "à¥ĩà¤ľ",
        -9.82916619703213
      ],
      [
        "habari",
        -9.829557570551271
      ],
      [
        "à±įà°°à°µ",
        -9.829805572246103
      ],
      [
        "à±į.",
        -9.830342129186729
      ],
      [
        "arak",
        -9.832227476164928
      ],
      [
        "à¥įà¤°à¤ķ",
        -9.832346091234571
      ],
      [
        "Ġà¹ģà¸¥",
        -9.832553441619048
      ],
      [
        "lui",
        -9.832715567793688
      ],
      [
        "fu",
        -9.834371348807093
      ],
      [
        "st",
        -9.835300928020832
      ],
      [
        "ĠØµÙĦÙ",
        -9.836332310641223
      ],
      [
        "Ġinto",
        -9.837866168927322
      ],
      [
        "ÙĩÙħØ§",
        -9.838809441378888
      ],
      [
        "ĠÐ¿ÑĢÐµÐ´",
        -9.8402224504113
      ],
      [
        "Ġà¸",
        -9.842259339781808
      ],
      [
        "Ġà¸Ĭ",
        -9.844827057204492
      ],
      [
        "¹Ģà¸Ľ",
        -9.845766762885823
      ],
      [
        "Ð³Ð¾Ð´Ð°",
        -9.845934701191492
      ],
      [
        "à¸¹à¸ģ",
        -9.846084037735146
      ],
      [
        "Ġfilm",
        -9.848129316168611
      ],
      [
        "ĠØ§ÙĦØ£ÙĪÙĦ",
        -9.849110477284787
      ],
      [
        "ations",
        -9.849388691241847
      ],
      [
        "ĠÑģÐ°Ð¼",
        -9.8504561066327
      ],
      [
        "hariri",
        -9.851031367646604
      ],
      [
        "Ġdedi",
        -9.8526302137252
      ],
      [
        "ÑįÑĤÐ¾Ð¼",
        -9.85298664363703
      ],
      [
        "à±ģà°·",
        -9.853162529096796
      ],
      [
        "j",
        -9.853284770927818
      ],
      [
        "à°¦à°Ĺ",
        -9.854805680602524
      ],
      [
        "ĠØŃÙĪÙĦ",
        -9.854835384085392
      ],
      [
        "sasa",
        -9.85497472536122
      ],
      [
        "à°Ĥà°¤à°°",
        -9.855260683627115
      ],
      [
        "à°",
        -9.855592738233195
      ],
      [
        "Ġà°ıà°®",
        -9.858232616691293
      ],
      [
        "Ð¾Ð½Ð°",
        -9.858478398805657
      ],
      [
        "à¤¾à¤Ĺ",
        -9.858480156385596
      ],
      [
        "à¤°à¤£",
        -9.859171695477093
      ],
      [
        "à¤¤à¤°à¤¹",
        -9.86016439951582
      ],
      [
        "à°µà°°",
        -9.860623538234108
      ],
      [
        "à°ĩà°µ",
        -9.860877503583303
      ],
      [
        "à¥Ģà¤®",
        -9.86088601200084
      ],
      [
        "à¤ģ",
        -9.861940156818177
      ],
      [
        "à¸ļà¸£",
        -9.8625623083526
      ],
      [
        "to",
        -9.86377818216978
      ],
      [
        "ĠØ£ØŃØ¯",
        -9.864339840293574
      ],
      [
        "æĹ¶",
        -9.865675665237312
      ],
      [
        "ï¼Ľ",
        -9.8657784596832
      ],
      [
        "à°¾à°°à°¤",
        -9.866330890351817
      ],
      [
        "Ø§ÙĦÙĦØºØ©",
        -9.86690644854644
      ],
      [
        "ĠÐ¿",
        -9.86695573645076
      ],
      [
        "lÄ±k",
        -9.86697522612546
      ],
      [
        "Ġà¤ķà¤",
        -9.86715672463885
      ],
      [
        "à±Ĭà°¦",
        -9.868335291302518
      ],
      [
        "ÙĬØ§Øª",
        -9.86867706418084
      ],
      [
        "à¥ĭà¤Ł",
        -9.869364756319833
      ],
      [
        "Ġà°¤à°Ĺ",
        -9.869890602855646
      ],
      [
        "ĠÑĢÐ°Ð±Ð¾ÑĤ",
        -9.87060125532567
      ],
      [
        "à¸´à¸£",
        -9.871622023105626
      ],
      [
        "à±",
        -9.8727822798815
      ],
      [
        "ĠÙĥØ«ÙĬØ±",
        -9.87341057164663
      ],
      [
        "à¹Īà¸°",
        -9.873410811691889
      ],
      [
        "ĠØªÙħ",
        -9.87354203098686
      ],
      [
        "ĠÐ¼ÐµÐ½Ñı",
        -9.873658858305994
      ],
      [
        "à¹īà¸Ķ",
        -9.873887183861711
      ],
      [
        "kufanya",
        -9.874550240451194
      ],
      [
        "à±Ĭà°¡",
        -9.874567989477354
      ],
      [
        "Ġkitu",
        -9.874801755020284
      ],
      [
        "uz",
        -9.874885112309308
      ],
      [
        "à¹Īà¸²à¸ĩà¹Ĩ",
        -9.875853273456462
      ],
      [
        "ĠØ´Ø¹Ø¨",
        -9.876000143569978
      ],
      [
        "ababu",
        -9.876035779578284
      ],
      [
        "sÄ±",
        -9.876336405545432
      ],
      [
        "Ġr",
        -9.87839216564234
      ],
      [
        "à°¨à°®",
        -9.878977538543484
      ],
      [
        "ĠÙĪÙĥØ§ÙĨ",
        -9.88029751377444
      ],
      [
        "hili",
        -9.880865447606944
      ],
      [
        "Ġgo",
        -9.88091452532588
      ],
      [
        "ĠyÄ±l",
        -9.881616420750255
      ],
      [
        "à¥įà¤ªà¤",
        -9.882249304583835
      ],
      [
        "ĠiÃ§inde",
        -9.882507872978632
      ],
      [
        "Ð¸Ð¼",
        -9.883528333894892
      ],
      [
        "most",
        -9.883805865660872
      ],
      [
        "à¤¸à¤Ń",
        -9.884145551802238
      ],
      [
        "ĠÙĪÙĦÙħ",
        -9.884374863840836
      ],
      [
        "Ð¾Ðµ",
        -9.88445790705681
      ],
      [
        "Ľà¸£à¸°à¹Ģà¸Ĺà¸¨",
        -9.884463406987502
      ],
      [
        "æĹ¥",
        -9.884924791105842
      ],
      [
        "ĠØ¨ÙħØ§",
        -9.88592914589876
      ],
      [
        "zuri",
        -9.885985274174311
      ],
      [
        "à¹ĩà¸Ļà",
        -9.886582150283154
      ],
      [
        "à¸±à¸Ļà¸Ļ",
        -9.88671540177006
      ],
      [
        "ussi",
        -9.888152701569716
      ],
      [
        "¾Ðº",
        -9.888498269320298
      ],
      [
        "à¥Ī.",
        -9.889250259368636
      ],
      [
        "à¹ĩà¸¡",
        -9.88939596738876
      ],
      [
        "ĠÙĪØ¨",
        -9.8895995333658
      ],
      [
        "à¥ģà¤Ĩ",
        -9.88960522247042
      ],
      [
        "Ġà¹Ģà¸¡",
        -9.89037721233164
      ],
      [
        "à±įà°¯à°²",
        -9.890604035311227
      ],
      [
        "Ġkum",
        -9.89086847866986
      ],
      [
        "à°¿à°¨à°ª",
        -9.890915730019962
      ],
      [
        "Ġmaji",
        -9.890980958150042
      ],
      [
        "ĠÐ¾Ð±",
        -9.890984506642
      ],
      [
        "ĠÑįÑĤ",
        -9.891910276395269
      ],
      [
        "ĠÃ¶nce",
        -9.891994113028032
      ],
      [
        "°Ñı",
        -9.893162127017543
      ],
      [
        "weza",
        -9.893214443219362
      ],
      [
        "taifa",
        -9.894492164616402
      ],
      [
        "à±Ĥà°Ł",
        -9.89528356280202
      ],
      [
        "Ð¾Ð²Ð°ÑĤÑĮ",
        -9.89722860564675
      ],
      [
        "thing",
        -9.897397908923796
      ],
      [
        "ri",
        -9.897512940736217
      ],
      [
        "¹ĥà¸«",
        -9.897723068019822
      ],
      [
        "à¤¿à¤Ł",
        -9.899479327407713
      ],
      [
        "à±įà°Ń",
        -9.899900188652314
      ],
      [
        "ĠLes",
        -9.900064185398886
      ],
      [
        "Ġina",
        -9.900642429808766
      ],
      [
        "ÑĭÐ¼",
        -9.901332898510844
      ],
      [
        "{",
        -9.903571177281764
      ],
      [
        "ÐµÐ½Ð¸Ðµ",
        -9.904016305513965
      ],
      [
        "Ġkati",
        -9.904140680789167
      ],
      [
        "ĠØ¹Ø´Ø±",
        -9.904644453314663
      ],
      [
        "à±ĭà°",
        -9.904916660335775
      ],
      [
        "ĠÐĿÐ¾",
        -9.905185903769674
      ],
      [
        "ĠØ¢Ø®Ø±",
        -9.905609572371276
      ],
      [
        "people",
        -9.905752733997474
      ],
      [
        "¸ÑĤÑĮ",
        -9.905990316713584
      ],
      [
        "endelea",
        -9.906729536790678
      ],
      [
        "ions",
        -9.907569890712846
      ],
      [
        "Ģ",
        -9.908222652365382
      ],
      [
        "ĠUn",
        -9.909970957248728
      ],
      [
        "à±įà°²à°",
        -9.910002266439808
      ],
      [
        "à°¿à°¬",
        -9.910116645142695
      ],
      [
        "Ø°ÙĬÙĨ",
        -9.91016354341642
      ],
      [
        "Â».",
        -9.9108204520223
      ],
      [
        "Ã¨re",
        -9.91124635382533
      ],
      [
        "à±Īà°ķ",
        -9.9117762438079
      ],
      [
        "information",
        -9.912683971222162
      ],
      [
        "Ġmon",
        -9.912996103294333
      ],
      [
        "un",
        -9.913670005882135
      ],
      [
        "æĪĳ",
        -9.914567737719894
      ],
      [
        "Ġwhe",
        -9.914817841068608
      ],
      [
        "à¸«à¸¥",
        -9.915222505159566
      ],
      [
        "à¥ĥà¤",
        -9.91725813669762
      ],
      [
        "à¸·à¸Ńà¸Ļ",
        -9.917378770690648
      ],
      [
        "à±ĩà°ª",
        -9.917690102344608
      ],
      [
        "ĠiÅŁ",
        -9.918396453105462
      ],
      [
        "oni",
        -9.91897801454535
      ],
      [
        "'a",
        -9.919186887135904
      ],
      [
        "fasihi",
        -9.919853534402565
      ],
      [
        "ä¸İ",
        -9.919923354541684
      ],
      [
        "à±ģà°¬",
        -9.920435108957085
      ],
      [
        "elle",
        -9.921154989996726
      ],
      [
        "ÙģØ©",
        -9.923593571224096
      ],
      [
        "ĠÃ¶nemli",
        -9.92581406073997
      ],
      [
        "à¸µà¸¢à¸§",
        -9.925823229442257
      ],
      [
        "Ġshe",
        -9.92612711955304
      ],
      [
        "à°īà°¤",
        -9.926264930810614
      ],
      [
        "Ġà°Ĵà°",
        -9.926827756210592
      ],
      [
        "ĠarasÄ±nda",
        -9.927494301747425
      ],
      [
        "vyo",
        -9.92848451414693
      ],
      [
        "Ġhem",
        -9.928678250901694
      ],
      [
        "Ġà¤ªà¤¹",
        -9.928705333245151
      ],
      [
        "à±įà°²à°²",
        -9.92874759545408
      ],
      [
        "ä¹Ł",
        -9.92899972330108
      ],
      [
        "Ð½Ð¾",
        -9.929056994020806
      ],
      [
        "ĠÙĬØ¬Ø¨",
        -9.93370343436954
      ],
      [
        "à¤¾à¤°à¤",
        -9.934373862447512
      ],
      [
        "Ġmake",
        -9.935919983902243
      ],
      [
        "ĠÙĥØ¨ÙĬØ±",
        -9.936273410850928
      ],
      [
        "zake",
        -9.936629952064695
      ],
      [
        "çŃī",
        -9.936734746707732
      ],
      [
        "è¯´",
        -9.937733914821926
      ],
      [
        "Ġaka",
        -9.938315318009398
      ],
      [
        "ĠBir",
        -9.938765474959528
      ],
      [
        "ÑģÑĮ",
        -9.939751487708902
      ],
      [
        "Microsoft",
        -9.940683816132562
      ],
      [
        "Ġinclu",
        -9.940798553001596
      ],
      [
        "ĠÙħÙħØ§",
        -9.941350156460487
      ],
      [
        "Ġdata",
        -9.941441623615605
      ],
      [
        "res",
        -9.941654603187986
      ],
      [
        "Ġilk",
        -9.94320904880434
      ],
      [
        "ĠÙĪØ³ÙĦÙħ",
        -9.94336609282444
      ],
      [
        "Ġà¤Ĩà¤°",
        -9.943643455511948
      ],
      [
        ")ØĮ",
        -9.944933888830024
      ],
      [
        "Ġben",
        -9.945587426489263
      ],
      [
        "Ġpoint",
        -9.945653820546692
      ],
      [
        "Ø³",
        -9.947396264349909
      ],
      [
        "à¤¿à¤ĸ",
        -9.947491120206337
      ],
      [
        "à¸µà¸Ħà¸§à¸²à¸¡",
        -9.948000728795911
      ],
      [
        "ĠØ",
        -9.948611010210914
      ],
      [
        "Ø¥ÙĨ",
        -9.949225989749356
      ],
      [
        "Ð¾Ð²Ð°Ð½Ð¸Ñı",
        -9.949381548714673
      ],
      [
        "ĠNo",
        -9.950085131198836
      ],
      [
        "ÙĬØ¶Ø§",
        -9.950214137809857
      ],
      [
        "ÙĤØ§ÙĦ",
        -9.950943245365384
      ],
      [
        "à¸´à¹Į",
        -9.951030937312956
      ],
      [
        "à¥Įà¤°",
        -9.95184162305308
      ],
      [
        "ĠØ§ÙĦÙĥØ«ÙĬØ±",
        -9.952040399316576
      ],
      [
        "à±Ĥà°®",
        -9.952100993285404
      ],
      [
        "è¢«",
        -9.952138841449129
      ],
      [
        "likuwa",
        -9.956087774382716
      ],
      [
        "à°Ń",
        -9.956635268106982
      ],
      [
        "âĢĻt",
        -9.957436424372558
      ],
      [
        "à±Ĥà°ķ",
        -9.958353003775432
      ],
      [
        "Ġà°µà°²",
        -9.959592245495624
      ],
      [
        "lors",
        -9.959624084962083
      ],
      [
        "à¥Ĥà¤²",
        -9.959825641747589
      ],
      [
        "ĠÐ¿Ð¾ÑģÐ»Ðµ",
        -9.960842240756556
      ],
      [
        "ĠEn",
        -9.961991935882686
      ],
      [
        "âĢĻil",
        -9.963124046934835
      ],
      [
        "engi",
        -9.963516219954066
      ],
      [
        "}",
        -9.964271053827009
      ],
      [
        "ĠWe",
        -9.964342914276322
      ],
      [
        "ĠÑģÐ²Ð¾",
        -9.96522871253278
      ],
      [
        "à¸±à¸Īà¸Ī",
        -9.965609859283322
      ],
      [
        "Ĵ",
        -9.96608755012348
      ],
      [
        "ÙİØ§Ø",
        -9.966531556390464
      ],
      [
        "\".",
        -9.966603380509367
      ],
      [
        "ãĢĬ",
        -9.966940751641296
      ],
      [
        "Ġà°ĸ",
        -9.967198040803186
      ],
      [
        "tu",
        -9.967768069163814
      ],
      [
        "ÙĥØ°ÙĦÙĥ",
        -9.968210358428104
      ],
      [
        "à¤ļà¤²",
        -9.968867262316245
      ],
      [
        "eur",
        -9.96891454102064
      ],
      [
        "à°ļà°¬à°¡",
        -9.970515198626837
      ],
      [
        "à±įà°·à°",
        -9.971145011189494
      ],
      [
        "Ð±ÑĭÐ»Ð¸",
        -9.971521085050217
      ],
      [
        "Na",
        -9.972739098984082
      ],
      [
        "à¤¸à¤°à¤ķ",
        -9.973424680261065
      ],
      [
        "Ġmay",
        -9.973568773730982
      ],
      [
        "hemu",
        -9.97387931759505
      ],
      [
        "name",
        -9.974403991222882
      ],
      [
        "Â·",
        -9.974879408070157
      ],
      [
        "two",
        -9.976299326178736
      ],
      [
        "Ġà¤®à¤¨",
        -9.976318472567582
      ],
      [
        "ØĽ",
        -9.977405768960256
      ],
      [
        "à¤¾à¤§",
        -9.977483650247702
      ],
      [
        "Ð¾ÑģÑĤÐ¸",
        -9.978008496352864
      ],
      [
        "fanya",
        -9.978055316172936
      ],
      [
        "Ġals",
        -9.97835272457609
      ],
      [
        "Ġsee",
        -9.979528301415382
      ],
      [
        "à¥Ģà¤µ",
        -9.980308241639536
      ],
      [
        "ĠÐ¿ÑĢÐ",
        -9.980431191816844
      ],
      [
        "PM",
        -9.981220527525425
      ],
      [
        "ĠØŃØ§ÙĦ",
        -9.98125063702144
      ],
      [
        "ĠØ§ÙĦØ¹Ø±Ø§ÙĤÙĬ",
        -9.981384670792966
      ],
      [
        "erek",
        -9.981427835446294
      ],
      [
        "ĠÙĦÙĬ",
        -9.98186081162177
      ],
      [
        "Ġolur",
        -9.982460189805517
      ],
      [
        "Ġà°İà°µà°°",
        -9.982495811284403
      ],
      [
        "bila",
        -9.98322988900296
      ],
      [
        "Ġà°ķà°°",
        -9.98379464557864
      ],
      [
        "Ġdi",
        -9.984890297677758
      ],
      [
        "Ġ...",
        -9.98513605697018
      ],
      [
        "Ġces",
        -9.985173278456266
      ],
      [
        "à±įà°ķà°°",
        -9.985438406060377
      ],
      [
        "à¸´à¸©",
        -9.986652662080209
      ],
      [
        "à¸Ļà¸ķà¸£",
        -9.98763933121235
      ],
      [
        "Kwa",
        -9.98954751089394
      ],
      [
        "mambo",
        -9.99024654642804
      ],
      [
        "ĠÙĪØ¬ÙĪØ¯",
        -9.990313778900813
      ],
      [
        "à±ĩ.",
        -9.990381789702232
      ],
      [
        "à¸£à¸°à¸Ķ",
        -9.990599671278536
      ],
      [
        "Ġà¹Ħà¸Ķ",
        -9.990935990407635
      ],
      [
        "wili",
        -9.993304234931712
      ],
      [
        "Ġà¤ĺ",
        -9.994164196332534
      ],
      [
        "åİ»",
        -9.994788131742798
      ],
      [
        "à±įà°°à°§",
        -9.996376972216332
      ],
      [
        "ĠÐĴÑĭ",
        -9.997102807304303
      ],
      [
        "åľ°",
        -9.997424099020098
      ],
      [
        "à¤Ĥà¤¸",
        -9.99745894915039
      ],
      [
        "à¸«",
        -9.997467200607804
      ],
      [
        "Ġà°¸à°®à°¯",
        -9.997504668938042
      ],
      [
        "Ø®Ø±Ùī",
        -9.998519612124444
      ],
      [
        "well",
        -9.998612807163727
      ],
      [
        "à¸´à¸ª",
        -9.998672514191725
      ],
      [
        "ĠÐ¼Ð½Ðµ",
        -9.998808350074814
      ],
      [
        "maana",
        -10.00084785117047
      ],
      [
        "Ø§Ø¯Ø©",
        -10.002107972854668
      ],
      [
        "à¸Ńà¸ĩà¸Ħ",
        -10.002176202260694
      ],
      [
        "Ġà°ĩà°¤à°°",
        -10.002965138309126
      ],
      [
        "Ð¾Ð»ÑĮÐºÐ¾",
        -10.003099593521704
      ],
      [
        "ĠÙĬØ§",
        -10.004019801442697
      ],
      [
        "à¹Īà¸Ńà¸¢",
        -10.004298833249347
      ],
      [
        "Ø§ÙĦØ«Ø§ÙĨÙĬ",
        -10.004800330151149
      ],
      [
        "èĪĩ",
        -10.005501529158913
      ],
      [
        "ÙħØ±Ø©",
        -10.006407169863696
      ],
      [
        "à¹Īà¸²à¸§",
        -10.00656847773002
      ],
      [
        "à¹ĩà¸Ļà¸",
        -10.007061258475634
      ],
      [
        "Pour",
        -10.007184937635047
      ],
      [
        "Ġlong",
        -10.007229452487106
      ],
      [
        "à°Ĥà°µà°",
        -10.008725250058196
      ],
      [
        "à±ĭà°¦",
        -10.008826604438896
      ],
      [
        "à¸ĩà¸Ļ",
        -10.009495462780986
      ],
      [
        "ĠÑĤÐ¾Ð¼",
        -10.010418973837757
      ],
      [
        "each",
        -10.01058129017812
      ],
      [
        "ÐµÑīÐµ",
        -10.010704791978672
      ],
      [
        "example",
        -10.011686648643709
      ],
      [
        "mektedir",
        -10.012043283036723
      ],
      [
        "Ġsay",
        -10.012744859805736
      ],
      [
        "Ġwali",
        -10.012761468924715
      ],
      [
        "ĠDe",
        -10.01427728016175
      ],
      [
        "ĠØ¥ÙĦÙĬÙĩ",
        -10.014308088180757
      ],
      [
        "zote",
        -10.01472615185769
      ],
      [
        "ĠØ§ÙĦØ¹ÙĦÙħÙĬ",
        -10.014743171162172
      ],
      [
        "Ð±ÑĭÐ»Ð°",
        -10.015862892682827
      ],
      [
        "X",
        -10.016009044661558
      ],
      [
        "Ġcar",
        -10.016506000088553
      ],
      [
        "ĠÃ¼zerinde",
        -10.017439511386362
      ],
      [
        "Google",
        -10.017524082135967
      ],
      [
        "uch",
        -10.017649597082883
      ],
      [
        "à¸µà",
        -10.018395756437329
      ],
      [
        "à±Ĭà°¦à°²",
        -10.020015479010857
      ],
      [
        "à¤¿à¤ª",
        -10.020568857609668
      ],
      [
        "à¸¶à¸ģà¸©à¸²",
        -10.020683770295594
      ],
      [
        "Ġquel",
        -10.021232185487191
      ],
      [
        "à¹ĩà¸Ļà¸ª",
        -10.022039264143944
      ],
      [
        "ire",
        -10.022592967538516
      ],
      [
        "ĠNew",
        -10.024825525640246
      ],
      [
        "ĠÐ»ÐµÑĤ",
        -10.025101329128988
      ],
      [
        "ĠZ",
        -10.025538541690278
      ],
      [
        "à¤¿à¤ľ",
        -10.026982560848795
      ],
      [
        "sel",
        -10.027029102396668
      ],
      [
        "jibu",
        -10.027091396765949
      ],
      [
        "à¤Ĥà¤¡",
        -10.027737305182104
      ],
      [
        "hayo",
        -10.027763106258568
      ],
      [
        "ĠÐ»Ð¸",
        -10.028016917542208
      ],
      [
        "à¸ģà¸§",
        -10.029136323197816
      ],
      [
        "Ġwork",
        -10.030970566578144
      ],
      [
        "à¹Ģà¸«à¸¥",
        -10.031829854573871
      ],
      [
        "à°«",
        -10.032644097670744
      ],
      [
        "Ġneed",
        -10.032991423559237
      ],
      [
        "à¹Ģà¸Ľà¸¥",
        -10.033827178986607
      ],
      [
        "Ð¸Ð¹",
        -10.036355143603345
      ],
      [
        "ÙģÙĬÙħØ§",
        -10.036439311959665
      ],
      [
        "à°ªà°ķ",
        -10.037230281852574
      ],
      [
        "ĠAli",
        -10.037343209087886
      ],
      [
        "no",
        -10.0389248967024
      ],
      [
        "ted",
        -10.039037951679685
      ],
      [
        "ĠØ§ÙĦØª",
        -10.039225691698803
      ],
      [
        "Ġà°Ĩà°¸",
        -10.04069816390512
      ],
      [
        "ty",
        -10.041666729090707
      ],
      [
        "à¤¸à¤®à¤¯",
        -10.042311299402256
      ],
      [
        "Ġhapa",
        -10.042421517805098
      ],
      [
        "å¯¹",
        -10.042646648529155
      ],
      [
        "Ø§ÙĦØ³ÙĦØ§Ùħ",
        -10.045189317501846
      ],
      [
        "voir",
        -10.045744785708685
      ],
      [
        "à¸´à¸Ķà¸ķ",
        -10.046519381704028
      ],
      [
        "ĠÙĬØªÙħ",
        -10.046588719148488
      ],
      [
        "aires",
        -10.047409424715411
      ],
      [
        "ĠÅŁekilde",
        -10.047822883074172
      ],
      [
        "ĠØ±Ø¦ÙĬØ³",
        -10.048196796537749
      ],
      [
        "Ġà¤¤à¤",
        -10.04838969174986
      ],
      [
        "à¹Īà¸§à¸Ļ",
        -10.049277392322033
      ],
      [
        "à±ĩà°³",
        -10.049999503661454
      ],
      [
        "Ġkui",
        -10.050864002228035
      ],
      [
        "à¹īà¸³",
        -10.051032729168211
      ],
      [
        "ĠØ´ÙĬØ",
        -10.051797585448607
      ],
      [
        "ÙĦØ°ÙĦÙĥ",
        -10.052056509844816
      ],
      [
        "à¹Ģà¸ª",
        -10.052662123946275
      ],
      [
        "ĠÐ±ÐµÐ·",
        -10.053696197708264
      ],
      [
        "à¤¬à¤¢",
        -10.053770681642746
      ],
      [
        "lik",
        -10.054523635595434
      ],
      [
        "à±įà°«",
        -10.05462145473836
      ],
      [
        "à¥Ģà¤²",
        -10.054960222108736
      ],
      [
        "Ġsans",
        -10.055105859676315
      ],
      [
        "å¤§",
        -10.05638985120066
      ],
      [
        ",Ċ",
        -10.056401461879592
      ],
      [
        "ĠÐ¯",
        -10.056571718557969
      ],
      [
        "ĠÃ¼zerin",
        -10.057264366125228
      ],
      [
        "Ð»Ð¾ÑģÑĮ",
        -10.057500774995304
      ],
      [
        "à±įà°¶",
        -10.059450804992789
      ],
      [
        "Ġà°ªà°²",
        -10.059695641734008
      ],
      [
        "à±ĥà°¦",
        -10.059726652482
      ],
      [
        "ĠØ§ÙĦÙĨØ¸Ø§Ùħ",
        -10.05988222758685
      ],
      [
        "Ð»Ñı",
        -10.060074439104175
      ],
      [
        "à¸±à¸ĩà¸Ļ",
        -10.060662963170568
      ],
      [
        "à±Īà°°",
        -10.06076859656154
      ],
      [
        "ĠÐĿÐ°",
        -10.060779864582273
      ],
      [
        "avoir",
        -10.06087314002222
      ],
      [
        "ä½ł",
        -10.061243335111918
      ],
      [
        "Ġà°ķà°³",
        -10.061643825450036
      ],
      [
        "Ġà°İà°¦",
        -10.06176786401155
      ],
      [
        "à±įà°¥à°²",
        -10.062158612679603
      ],
      [
        "ĠÙĨÙģØ³",
        -10.062393448543531
      ],
      [
        "''",
        -10.062753537574816
      ],
      [
        "ongozi",
        -10.062840579029473
      ],
      [
        "à¸¢à¸§à¸ģ",
        -10.064258814359254
      ],
      [
        "½",
        -10.064620727787007
      ],
      [
        "ĠØ§ÙĦÙĥØªØ§Ø¨",
        -10.065531651316302
      ],
      [
        "ĠÑĩÐµÐ¼",
        -10.06582419629032
      ],
      [
        "à¸ĩà¹Ģà¸Ľ",
        -10.065970428290804
      ],
      [
        "as",
        -10.066424642303769
      ],
      [
        "siniz",
        -10.066497829367794
      ],
      [
        "Ġyok",
        -10.067904496235773
      ],
      [
        "Ġà¸¥",
        -10.068431995139148
      ],
      [
        "ĠÙģÙĦØ§",
        -10.069209590695234
      ],
      [
        "ity",
        -10.069446575583616
      ],
      [
        "Ġà¤¹à¤°",
        -10.069477592718556
      ],
      [
        "à¥Ĥà¤¸à¤",
        -10.069972138712911
      ],
      [
        "ĠSa",
        -10.070050155397588
      ],
      [
        "Ġà¤īà¤ªà¤",
        -10.070197048954084
      ],
      [
        "à¸Īà¸£",
        -10.070494192878805
      ],
      [
        "Ġvot",
        -10.070650328414168
      ],
      [
        "à°Ĩà°«",
        -10.070800837088264
      ],
      [
        "Ġà°¤à°²",
        -10.070961678748564
      ],
      [
        "µÐ½Ð¸Ðµ",
        -10.071048601354184
      ],
      [
        "Ġà°ľà°¨",
        -10.072223112471432
      ],
      [
        "Ø§ÙĦÙĪÙĤØª",
        -10.073918759547691
      ],
      [
        "how",
        -10.07519738664713
      ],
      [
        "ance",
        -10.07560154857723
      ],
      [
        "Ð¾ÑģÑĤÑĮ",
        -10.076121374855216
      ],
      [
        "\\",
        -10.076580480978429
      ],
      [
        "Ġhawa",
        -10.076618808206304
      ],
      [
        "à¥įà¤°à¤µ",
        -10.076911643952926
      ],
      [
        "à°¬à°°",
        -10.077176669105818
      ],
      [
        "à±ĩà°",
        -10.077255530832993
      ],
      [
        "ãĢĭ",
        -10.077844485934946
      ],
      [
        "ĠØ¬",
        -10.077871460820177
      ],
      [
        "âĢĺ",
        -10.078014585967114
      ],
      [
        "Ġiliyo",
        -10.078672343139512
      ],
      [
        "ØŃØ±ÙĥØ©",
        -10.078760151585922
      ],
      [
        "ĠØ§ÙĦØ£ÙħØ±",
        -10.080197249506792
      ],
      [
        "ÙħØ¬ÙħÙĪØ¹Ø©",
        -10.080603185135171
      ],
      [
        "ĠHe",
        -10.08120134600968
      ],
      [
        "½Ð¾ÑģÑĤÐ¸",
        -10.081426529142508
      ],
      [
        "Ġbad",
        -10.081559388473575
      ],
      [
        "à¹Īà¸§",
        -10.082123856602207
      ],
      [
        "ÑĤÐµÐ»ÑĮÐ½Ð¾",
        -10.082424045103377
      ],
      [
        "à¸Ļà¸Ķ",
        -10.082745991150857
      ],
      [
        "ndan",
        -10.082893873450582
      ],
      [
        "Les",
        -10.08460489552002
      ],
      [
        "Ð°ÑģÑĮ",
        -10.084854071781924
      ],
      [
        "à¹Įà¸ķ",
        -10.085685588028632
      ],
      [
        "à¹īà¹Ģà¸ģ",
        -10.085904254460411
      ],
      [
        "à¸¸à¸ģ",
        -10.085958062639676
      ],
      [
        "à°¤à°ķ",
        -10.087185580109796
      ],
      [
        "Ð»Ð°",
        -10.087564889659516
      ],
      [
        "à±įà°®à°ķ",
        -10.087681484029837
      ],
      [
        "ĠdeÄŁil",
        -10.08773182490505
      ],
      [
        "à°Ĥà°ľ",
        -10.088861896761378
      ],
      [
        "Ġkuna",
        -10.08891256668187
      ],
      [
        "ĠMi",
        -10.089006614737588
      ],
      [
        "à¸ģà¸³à¸¥",
        -10.089100316584824
      ],
      [
        "Ġkuhus",
        -10.08935190972555
      ],
      [
        "à¹ģà¸«",
        -10.089416596446956
      ],
      [
        "à°®à°°",
        -10.089848360154209
      ],
      [
        "à¤Ĩà¤ľ",
        -10.089962869652044
      ],
      [
        "à°Ĩà°°",
        -10.090050574069815
      ],
      [
        "Ø±ØºÙħ",
        -10.090433891057137
      ],
      [
        "ĠØ§ÙĦØŃÙĬØ§Ø",
        -10.092026258736157
      ],
      [
        "¸Ńà¸¢",
        -10.09288931573131
      ],
      [
        "ĠØ§ÙĦØ³ÙĬØ§Ø³ÙĬ",
        -10.09289422506843
      ],
      [
        "ĠvardÄ±",
        -10.0929208626581
      ],
      [
        "ÙĬÙĬÙĨ",
        -10.092928876621524
      ],
      [
        "Ġta",
        -10.092987910916436
      ],
      [
        "à°¾à°¯à°ķ",
        -10.093173207272953
      ],
      [
        "à¥ĭà¤Łà¤",
        -10.094503630674712
      ],
      [
        "Ã¼",
        -10.094874518854372
      ],
      [
        "ĠgÃ¼zel",
        -10.094987545548868
      ],
      [
        "Katika",
        -10.095082902582355
      ],
      [
        "ä¸º",
        -10.096369768402491
      ],
      [
        "à¸Ĥà¸Ńà¸ĩ",
        -10.097186680463654
      ],
      [
        "Ð¸Ð¸",
        -10.097728460131655
      ],
      [
        "ĠHa",
        -10.09825758567375
      ],
      [
        "Ġhuy",
        -10.098537111208785
      ],
      [
        "Ġplan",
        -10.09906523514029
      ],
      [
        "ÙİØ¹",
        -10.099865362409702
      ],
      [
        "à±įà°°à°ľà°²",
        -10.100747293433676
      ],
      [
        "Ġime",
        -10.102479026824607
      ],
      [
        "enzi",
        -10.103914689365851
      ],
      [
        "Ġà¤¸à¤¹",
        -10.10794312172533
      ],
      [
        "à°¾à°ľà°",
        -10.1082651268781
      ],
      [
        "âĢ¦âĢ¦",
        -10.108562031728344
      ],
      [
        "à°¾?",
        -10.11020964619269
      ],
      [
        "ĠSi",
        -10.110380852571511
      ],
      [
        "à¤¾à¤¶",
        -10.112590746568422
      ],
      [
        "ujour",
        -10.112876400908448
      ],
      [
        "eneo",
        -10.113167641856457
      ],
      [
        "Ġevery",
        -10.11415855689606
      ],
      [
        "im",
        -10.115030368615866
      ],
      [
        "à±Ĥà°¤",
        -10.115262768769924
      ],
      [
        "nzo",
        -10.115717760372494
      ],
      [
        "ĠØ§Ù",
        -10.11579309246137
      ],
      [
        "ĨØ§",
        -10.115888649147204
      ],
      [
        "Ġ)",
        -10.116695521754076
      ],
      [
        "tir",
        -10.116944159915814
      ],
      [
        "tion",
        -10.11755049783331
      ],
      [
        "Ġhaya",
        -10.118194577128923
      ],
      [
        "Ġà°ķà°µ",
        -10.118780300182094
      ],
      [
        "ÙģÙĩÙĪ",
        -10.121582134551858
      ],
      [
        "Ġhadi",
        -10.121924725095807
      ],
      [
        "å°±",
        -10.122657823425785
      ],
      [
        "serikali",
        -10.122773351132835
      ],
      [
        "know",
        -10.122908875547015
      ],
      [
        "à±Ĭà°¦à°",
        -10.12370281318344
      ],
      [
        "ĠØ°Ø§Øª",
        -10.124156160256138
      ],
      [
        "à¸¸à¸ļ",
        -10.12539603328853
      ],
      [
        "Ġà¤Ĩà¤¯",
        -10.125623484193166
      ],
      [
        "ins",
        -10.125904227954493
      ],
      [
        "autre",
        -10.12620045266075
      ],
      [
        "Ġplay",
        -10.127195360032042
      ],
      [
        "à¹ĩà¸ģ",
        -10.128550860455244
      ],
      [
        "ĠØŃ",
        -10.12865677406484
      ],
      [
        "dogo",
        -10.130050882141504
      ],
      [
        "à¹īà",
        -10.130667319988673
      ],
      [
        "à¹īà¸Ńà¸ĩà¸ģ",
        -10.13069423091143
      ],
      [
        "Ġwalio",
        -10.130803005829405
      ],
      [
        "Ġuna",
        -10.131176890285229
      ],
      [
        "Ġorta",
        -10.131856744379952
      ],
      [
        "ºÐ°",
        -10.132184617811127
      ],
      [
        "à¥įà¤·à¤",
        -10.132857223973588
      ],
      [
        "Ġà°¸à°¹",
        -10.13513063751764
      ],
      [
        "à¤ªà¤¡",
        -10.1351507954828
      ],
      [
        "ĠØ¬Ø¯ÙĬØ¯",
        -10.135160289590548
      ],
      [
        "à¹īà¹Ģà¸Ľ",
        -10.135430538022137
      ],
      [
        "ĠØ§ÙĦØŃØ¯ÙĬØ«",
        -10.135582829986776
      ],
      [
        "ĠgÃ¼n",
        -10.136083693271612
      ],
      [
        "Ð²",
        -10.136421505196122
      ],
      [
        "Ġbiz",
        -10.1366851400617
      ],
      [
        "Ġback",
        -10.1370782606882
      ],
      [
        "à°¾à°Ń",
        -10.137167774730637
      ],
      [
        "ÙĨØŃÙĨ",
        -10.137550337468085
      ],
      [
        "à¹ĩà¸Ļà¸Ĺ",
        -10.137796836385814
      ],
      [
        "Ġka",
        -10.139297409665431
      ],
      [
        "à°ķà°Ł",
        -10.139526357210483
      ],
      [
        "izi",
        -10.13995397470812
      ],
      [
        "Ð¸Ñİ",
        -10.141069814536444
      ],
      [
        "à¤¾à¤¨à¤",
        -10.141378556112649
      ],
      [
        "à°¶à°ķ",
        -10.142872709337375
      ],
      [
        "ĠØ¬Ø¯Ø§",
        -10.142914053109426
      ],
      [
        "ØŃØ©",
        -10.143491078008744
      ],
      [
        "à¸±à¸Ļà¸ķ",
        -10.144263176575617
      ],
      [
        "fois",
        -10.144703270218589
      ],
      [
        "ĠtÃ¼m",
        -10.145551879218177
      ],
      [
        "deki",
        -10.146450975796446
      ],
      [
        "à¸Ĺà¸ĺ",
        -10.146668514580572
      ],
      [
        "ĠÃ©ta",
        -10.148271827691277
      ],
      [
        "Ø§ÙĦÙĤÙĬØ§Ùħ",
        -10.148579065395914
      ],
      [
        "mo",
        -10.14878261650519
      ],
      [
        "Ġ!",
        -10.15016651609438
      ],
      [
        "tan",
        -10.15022911757642
      ],
      [
        "Ð²Ð°Ð¼",
        -10.151905556234356
      ],
      [
        "ÙĲÙĦ",
        -10.152495803209812
      ],
      [
        "Â»Ċ",
        -10.152538028275382
      ],
      [
        "rken",
        -10.153153170418062
      ],
      [
        "the",
        -10.153822634813924
      ],
      [
        "Ġfazla",
        -10.154286028075774
      ],
      [
        "ĠNi",
        -10.15569859532233
      ],
      [
        "ï¼Įåľ¨",
        -10.15618685926921
      ],
      [
        "ä»ĸ",
        -10.156626954843546
      ],
      [
        "leurs",
        -10.156763325256463
      ],
      [
        "Ð½Ð°",
        -10.156779061152498
      ],
      [
        "cho",
        -10.157024957050307
      ],
      [
        "Ġfe",
        -10.15708797655618
      ],
      [
        "ĠØ£Ø¨ÙĬ",
        -10.157665390964624
      ],
      [
        "ä½¿çĶ¨",
        -10.157746528175966
      ],
      [
        "ngo",
        -10.15777062071001
      ],
      [
        "à°Łà°°",
        -10.157902236093523
      ],
      [
        "Ġà¸ļ",
        -10.157918143630104
      ],
      [
        "\",",
        -10.158761355811912
      ],
      [
        "ĠÙĩÙĦ",
        -10.15957254339394
      ],
      [
        "Ġentre",
        -10.160591471924135
      ],
      [
        "ĠÐ¼Ð½Ð¾Ð³Ð¾",
        -10.160995531571515
      ],
      [
        "à°¾à°¯à°¨",
        -10.161383006774724
      ],
      [
        "maktadÄ±r",
        -10.161992087625642
      ],
      [
        "ĠÃĩ",
        -10.16274780956788
      ],
      [
        "à¸¸à¸Ļ",
        -10.16390512747466
      ],
      [
        "team",
        -10.164164526775052
      ],
      [
        "ĠØ§ÙĦØªØ¹ÙĦÙĬÙħ",
        -10.16487713759319
      ],
      [
        "à°¾à°®à°¨",
        -10.165145332253452
      ],
      [
        "Ġsera",
        -10.16624022961121
      ],
      [
        "ĠÙĦÙĦØ",
        -10.16655001206769
      ],
      [
        "ĠÐ£",
        -10.166902000607209
      ],
      [
        "ary",
        -10.167037535878457
      ],
      [
        "°Ð¼Ð¸",
        -10.167155487017016
      ],
      [
        "Ð³Ð´Ðµ",
        -10.167986777291128
      ],
      [
        "ĠØ§ÙĦÙĤØ§ÙĨÙĪÙĨ",
        -10.168118600709256
      ],
      [
        "ä»¥",
        -10.168135251522829
      ],
      [
        "ºÐ¸",
        -10.168561006624168
      ],
      [
        "mes",
        -10.168629540633953
      ],
      [
        "°ÑĨÐ¸Ð¸",
        -10.16876722510422
      ],
      [
        "Ġshow",
        -10.168970888834869
      ],
      [
        "Ġà°ħà°µà°ķ",
        -10.16898646786165
      ],
      [
        "à¸±à¸ļà¸ģà¸²à¸£",
        -10.169085685333076
      ],
      [
        "Ġà¸¢",
        -10.16917176786539
      ],
      [
        "ĠØ§ÙĦØŃÙĤ",
        -10.170452500188295
      ],
      [
        "ils",
        -10.17192878187682
      ],
      [
        "ĠØ£Ùħ",
        -10.173344837172138
      ],
      [
        "à¸¹à¸¡",
        -10.174513814938695
      ],
      [
        "à¸±à¸",
        -10.17478211989762
      ],
      [
        "¸Ð¹",
        -10.175928994959278
      ],
      [
        "à¤¬à¤¡",
        -10.176857851202064
      ],
      [
        "Ġplu",
        -10.177030111678974
      ],
      [
        "alisema",
        -10.17711292227307
      ],
      [
        "à±Ĥà°",
        -10.177518642625714
      ],
      [
        "mbo",
        -10.178104605530404
      ],
      [
        "ĠKa",
        -10.17845929735572
      ],
      [
        "à°¹à°°",
        -10.178480414650592
      ],
      [
        "åĲİ",
        -10.17982558326918
      ],
      [
        "à¹Ģà¸Ĺ",
        -10.179858047870962
      ],
      [
        "ule",
        -10.180266354583711
      ],
      [
        "à±įà°²à°ķ",
        -10.181282285736064
      ],
      [
        "à¤ĸ",
        -10.182121601159205
      ],
      [
        "ĠÐ½Ð¸",
        -10.183053936581825
      ],
      [
        "à±įà°ªà°¡",
        -10.183621634735855
      ],
      [
        "à¹Īà¸§à¸¢",
        -10.184089115419336
      ],
      [
        "ĠCe",
        -10.185382334763332
      ],
      [
        "à¸į",
        -10.185395937013071
      ],
      [
        "à¸ĩà¹ģà¸ķ",
        -10.186712952396874
      ],
      [
        "à±įà°¤à°ķ",
        -10.186862942834342
      ],
      [
        "ants",
        -10.186941022570451
      ],
      [
        "Q",
        -10.187282408205675
      ],
      [
        "Ġgood",
        -10.187916009286171
      ],
      [
        "ĠX",
        -10.18802000004852
      ],
      [
        "à¸Ńà¹ĥà¸«",
        -10.18819451033364
      ],
      [
        "Ø£ÙĨÙĩØ§",
        -10.189180686230449
      ],
      [
        "daki",
        -10.18925040470718
      ],
      [
        "Ð¸Ñı",
        -10.189523024899044
      ],
      [
        "system",
        -10.189947437008689
      ],
      [
        "ĠÐŀ",
        -10.190072491994712
      ],
      [
        "Ġman",
        -10.19012828594506
      ],
      [
        "cause",
        -10.19039209178241
      ],
      [
        "Ġpe",
        -10.191662482406542
      ],
      [
        "ĠÙĩÙĨØ§",
        -10.191787413894026
      ],
      [
        "ĠÐ¿ÑĢÐ¾ÑģÑĤÐ¾",
        -10.191853812593248
      ],
      [
        "En",
        -10.191923663275638
      ],
      [
        "à¹īà¸²à¸¢",
        -10.191928922409687
      ],
      [
        "kuu",
        -10.192344325622509
      ],
      [
        "à¥įà¤¤à¤°",
        -10.192455508705589
      ],
      [
        "éĥ½",
        -10.19250331897318
      ],
      [
        "Ð³Ð¾Ð´Ñĥ",
        -10.19264455877731
      ],
      [
        "Ġelle",
        -10.194727660167608
      ],
      [
        "à±ĩà°µà°²",
        -10.194744078972374
      ],
      [
        "à°¤à°¯",
        -10.195618696676862
      ],
      [
        "à°¨à°¨",
        -10.19626831724085
      ],
      [
        "ha",
        -10.196883121427978
      ],
      [
        "à¹Īà¸ķ",
        -10.197040142332831
      ],
      [
        "Ġwame",
        -10.197119329865052
      ],
      [
        "ĠØ§ÙĦØ³ÙĬØ¯",
        -10.19732186170476
      ],
      [
        "Ġà°Ĩà°¨",
        -10.197549792609747
      ],
      [
        "paka",
        -10.19758568906324
      ],
      [
        "à±ĭà°·",
        -10.197758750747308
      ],
      [
        "à¸µà¸ģà¸",
        -10.198087721085264
      ],
      [
        "Ġaki",
        -10.19819541553011
      ],
      [
        "dece",
        -10.198599034048645
      ],
      [
        "à±įà°¯à°µà°¸",
        -10.1988108974865
      ],
      [
        "Ð´Ð°Ð¶Ðµ",
        -10.20033026281988
      ],
      [
        "Ð¡",
        -10.200546253297633
      ],
      [
        "Ġva",
        -10.200593282603386
      ],
      [
        "Ġnon",
        -10.20118115871469
      ],
      [
        "ĠØ§ÙĦÙħØ¬ØªÙħØ¹",
        -10.20123020075082
      ],
      [
        "à¸Īà¸°à¹Ģà¸Ľ",
        -10.201778669502266
      ],
      [
        "tÃ©",
        -10.20181132297542
      ],
      [
        "à±įà°ŀ",
        -10.202041090615314
      ],
      [
        "à¸·à¸Ńà¸ĩ",
        -10.202178814337444
      ],
      [
        "Ġhiv",
        -10.202228224978548
      ],
      [
        "à¹ĩà¸ķ",
        -10.204452944191942
      ],
      [
        "Ø§ÙĦØ¢ÙĨ",
        -10.204659305155436
      ],
      [
        "Ø¨Ø³Ø¨Ø¨",
        -10.205001519727254
      ],
      [
        "à¤¿à¤·",
        -10.205319618330932
      ],
      [
        "ĠÙĪØ£ÙĨ",
        -10.206494958473638
      ],
      [
        "à¸Ĭà¸²à¸ķ",
        -10.20721283283376
      ],
      [
        "§Øª",
        -10.207240135329013
      ],
      [
        "Ġquestion",
        -10.207323285479594
      ],
      [
        "ĠØ£ÙħØ§",
        -10.207733150234914
      ],
      [
        "ÙİØ¨",
        -10.208248612654062
      ],
      [
        "ï¼Įä½Ĩ",
        -10.208252760496729
      ],
      [
        "ĠOn",
        -10.208513005967507
      ],
      [
        "ĠVi",
        -10.21052751558268
      ],
      [
        "à±įà°°à°¶",
        -10.210586453126773
      ],
      [
        "à¤¾à¤ľà¤",
        -10.211046127655926
      ],
      [
        "ina",
        -10.211474883291263
      ],
      [
        "Ġper",
        -10.21277318321263
      ],
      [
        "Ġà°Ĩà°¦",
        -10.212915655245492
      ],
      [
        "very",
        -10.21307321280936
      ],
      [
        "Ġtemp",
        -10.21356937982956
      ],
      [
        "ili",
        -10.21499390664685
      ],
      [
        "ÐºÑĤÐ¾",
        -10.215839678228866
      ],
      [
        "ĠBen",
        -10.21633021822622
      ],
      [
        "Ġpetit",
        -10.217362178201558
      ],
      [
        "ever",
        -10.217696236037671
      ],
      [
        "ĠAnd",
        -10.21776013093341
      ],
      [
        "è¦ģ",
        -10.217931262181068
      ],
      [
        "up",
        -10.21798371993996
      ],
      [
        "~",
        -10.218304777200109
      ],
      [
        "Ġcas",
        -10.219296020247096
      ],
      [
        "ci",
        -10.220632673303136
      ],
      [
        "à¤¿à¤¸à¤",
        -10.220831831242917
      ],
      [
        "æĿ¥",
        -10.220901548211028
      ],
      [
        "son",
        -10.220915961372183
      ],
      [
        "ĠØ§ÙĦØ¯ÙĪÙĦÙĬ",
        -10.221991586550804
      ],
      [
        "siz",
        -10.222355036165723
      ],
      [
        "ilgili",
        -10.222369577602024
      ],
      [
        "Ġmwenye",
        -10.222752087346125
      ],
      [
        "ĠØ£ÙĪÙĦ",
        -10.222999020832177
      ],
      [
        "Ø§ÙĦÙĤØ±Ø¢ÙĨ",
        -10.223188369406682
      ],
      [
        "In",
        -10.223377879709387
      ],
      [
        "'ai",
        -10.22347678675112
      ],
      [
        "ĠØ£Ø¨ÙĪ",
        -10.224458214786573
      ],
      [
        "à°ıà°¦",
        -10.224682693048395
      ],
      [
        "ĠkarÅŁÄ±",
        -10.2247208608352
      ],
      [
        "ĠÙĪØ§ÙĦØªÙĬ",
        -10.224827037081882
      ],
      [
        "`",
        -10.225672211426794
      ],
      [
        "Ġà¤¶à¤¹à¤",
        -10.226483259923942
      ],
      [
        "à±Ĩà°¤",
        -10.226658549544894
      ],
      [
        "!!!",
        -10.226838392976362
      ],
      [
        "lement",
        -10.227497949561576
      ],
      [
        "ä¸į",
        -10.22809817174438
      ],
      [
        "Ġà°¨à°¡",
        -10.228196399690724
      ],
      [
        "ĠØµ",
        -10.228353102100026
      ],
      [
        "à¸´à¸Ķà¸Ĥ",
        -10.228721945569257
      ],
      [
        "iyle",
        -10.228873011962872
      ],
      [
        "à¸Ńà¸Ļ",
        -10.228971535008196
      ],
      [
        "Ġlook",
        -10.229218164490057
      ],
      [
        "Ġdiye",
        -10.229277475679552
      ],
      [
        "ĠØ§ÙĦÙĨØ¨ÙĬ",
        -10.230087802446794
      ],
      [
        "Ġà¸Ĥ",
        -10.230158521695298
      ],
      [
        "ĠÐŁÐ¾",
        -10.23031544487258
      ],
      [
        "Ø§ÙĦØ¬Ø¯ÙĬØ¯",
        -10.230462205533918
      ],
      [
        "yeye",
        -10.231022219876998
      ],
      [
        "ĠÙĪØ£",
        -10.231154828124666
      ],
      [
        "Ġhigh",
        -10.231751499816506
      ],
      [
        "ors",
        -10.232175155422476
      ],
      [
        "ĠÐ³",
        -10.23236929320584
      ],
      [
        "Ġà°ħà°¸",
        -10.232416570530098
      ],
      [
        "ÐµÐ±Ñı",
        -10.232418830592652
      ],
      [
        "à¸¸à¸¡",
        -10.232442018147433
      ],
      [
        "¸Ðµ",
        -10.232445356208434
      ],
      [
        "à°Łà°¨",
        -10.232790136859116
      ],
      [
        "çĤº",
        -10.233122525533766
      ],
      [
        "à°µà°²à°¨",
        -10.233164830742997
      ],
      [
        "ÑıÐ¼Ð¸",
        -10.23331515863409
      ],
      [
        "à¤¬à¤¤",
        -10.233764123527916
      ],
      [
        "Ġmade",
        -10.233897906782904
      ],
      [
        "à¸³à¹Ģà¸Ļ",
        -10.234466093486413
      ],
      [
        "Ġstart",
        -10.23487780272688
      ],
      [
        "out",
        -10.235436775832516
      ],
      [
        "ette",
        -10.235524946582624
      ],
      [
        "Ġcertain",
        -10.235672894199986
      ],
      [
        "Ġjour",
        -10.23603014414766
      ],
      [
        "à¥įà¤£",
        -10.237283245244898
      ],
      [
        "Ġkendi",
        -10.23751227031384
      ],
      [
        "à±įà°Ĺà°°",
        -10.2394648075472
      ],
      [
        "à±ĩà°Ĺ",
        -10.239745629736907
      ],
      [
        "°ÑĤÑĮ",
        -10.240342391034275
      ],
      [
        "aire",
        -10.240347437321278
      ],
      [
        "ding",
        -10.240539579675604
      ],
      [
        "à¥Īà¤¨",
        -10.243202889266572
      ],
      [
        "à±įà°",
        -10.24336180613247
      ],
      [
        "ĠÙĬÙĤÙĪÙĦ",
        -10.244049311739328
      ],
      [
        "èĢĮ",
        -10.244584591540455
      ],
      [
        "à¤¾à¤µà¤",
        -10.244844633533456
      ],
      [
        "tre",
        -10.24562927922969
      ],
      [
        "à¸µà¸ķ",
        -10.2459461953937
      ],
      [
        "org",
        -10.246338513535104
      ],
      [
        "pedia",
        -10.247501167242454
      ],
      [
        "nce",
        -10.247755292851206
      ],
      [
        "ĠØ¨Ø§",
        -10.249338889202953
      ],
      [
        "ugha",
        -10.250074046185452
      ],
      [
        "ĠÙĦÙħØ§",
        -10.25025226931072
      ],
      [
        "ĠÐ½Ð°Ñģ",
        -10.250299056288595
      ],
      [
        "à¤¾à¤²à¤",
        -10.250472065539007
      ],
      [
        "oÃ",
        -10.251452379607093
      ],
      [
        "man",
        -10.252214799720791
      ],
      [
        "ware",
        -10.25267459215626
      ],
      [
        "à¸´à¸Ķà¸",
        -10.252845734821989
      ],
      [
        "nje",
        -10.253489050025486
      ],
      [
        "ĠØ§ÙĦØ³Ø§Ø¨ÙĤ",
        -10.253854656862035
      ],
      [
        "Ġkuji",
        -10.254123704277056
      ],
      [
        "ÙĪÙģÙĬ",
        -10.254887665962308
      ],
      [
        "ĠØ¶Ø¯",
        -10.254917041418182
      ],
      [
        "ĠØ£ÙĩÙħ",
        -10.255213304020256
      ],
      [
        "ĠsÃ¼re",
        -10.255346821321506
      ],
      [
        "Ġà°¨à°Ł",
        -10.255587119050908
      ],
      [
        "à¹ĩà¸Ķ",
        -10.255689379454967
      ],
      [
        "à¹Ĵà¹",
        -10.255822746878462
      ],
      [
        "à¹ĩà",
        -10.256386384787003
      ],
      [
        "à±įà°¤à°°",
        -10.256620583666162
      ],
      [
        "guvu",
        -10.256932085215656
      ],
      [
        "inde",
        -10.257944401857586
      ],
      [
        "Ġmk",
        -10.257970143457564
      ],
      [
        "à¸Ħà¸§à¸²à¸¡à¸£",
        -10.258301543026086
      ],
      [
        "à±ģà°¦à°²",
        -10.25846185748637
      ],
      [
        "encore",
        -10.258968919584465
      ],
      [
        "ĠØ§ÙĦØ£ÙĪÙĦÙ",
        -10.259776411941672
      ],
      [
        "ĠØ§ÙĦØ¢Ø®Ø±",
        -10.260768684175885
      ],
      [
        "aynÄ±",
        -10.262517717041137
      ],
      [
        "Ġà°§",
        -10.262744735733204
      ],
      [
        "Ġà¸«",
        -10.263024342593566
      ],
      [
        "tÄ±r",
        -10.263159370083844
      ],
      [
        "à°¾à°ĸ",
        -10.26316596682478
      ],
      [
        "Ġhaku",
        -10.26321773457652
      ],
      [
        "wenyewe",
        -10.26396501559346
      ],
      [
        "ĠÙĦÙĪ",
        -10.26430957190562
      ],
      [
        "ĠYe",
        -10.264492147898066
      ],
      [
        "Ġwhere",
        -10.265732550595178
      ],
      [
        "ĠÙ±ÙĦ",
        -10.265835103978764
      ],
      [
        "ida",
        -10.26636420063514
      ],
      [
        "ter",
        -10.266398671929815
      ],
      [
        "à¹ģà¸ģ",
        -10.266609800530324
      ],
      [
        "through",
        -10.2675144245675
      ],
      [
        "à¹īà¸ª",
        -10.26773089935828
      ],
      [
        "now",
        -10.268075518607494
      ],
      [
        "ĠMo",
        -10.268245724226643
      ],
      [
        "ĠÐĶ",
        -10.268492098898433
      ],
      [
        "à¥Ĥà¤Ĥ",
        -10.269469498877475
      ],
      [
        "Ð½Ð¸Ñħ",
        -10.269711111794148
      ],
      [
        "Ð²Ð°Ñģ",
        -10.269755912520305
      ],
      [
        "hidi",
        -10.27003726341182
      ],
      [
        "ĠÙħØ¬ÙĦØ³",
        -10.271411641787402
      ],
      [
        "à¥ĩà¤®",
        -10.271928025781255
      ],
      [
        "ÑģÐºÐ¾Ð»ÑĮÐºÐ¾",
        -10.27239900475816
      ],
      [
        "¹Ģà¸£",
        -10.272704470542632
      ],
      [
        "à±Ģà°ľ",
        -10.27417817750177
      ],
      [
        "puis",
        -10.274194168321932
      ],
      [
        "nÄ±",
        -10.274262467815838
      ],
      [
        "Â».Ċ",
        -10.274263848586164
      ],
      [
        "ĠÙĪØ¶Ø¹",
        -10.27430561682841
      ],
      [
        "ilikuwa",
        -10.274987030260418
      ],
      [
        "ĠdoÄŁru",
        -10.27542504865525
      ],
      [
        "Ġday",
        -10.275482049641376
      ],
      [
        "Un",
        -10.275669690392332
      ],
      [
        "à¹Īà¸²à¸ĩà¸ģ",
        -10.276961784864245
      ],
      [
        "Ġaliye",
        -10.278698779715658
      ],
      [
        "à¸µà¸¢à¸§à¸ģ",
        -10.279521900173767
      ],
      [
        "anza",
        -10.27974700207895
      ],
      [
        "à±įà°¨à°ª",
        -10.279836885103713
      ],
      [
        "Ġhaki",
        -10.280555168379102
      ],
      [
        "åı¯ä»¥",
        -10.280728135291104
      ],
      [
        "ÐµÐ¼Ñĥ",
        -10.280878274573098
      ],
      [
        "Tanzania",
        -10.280950055680766
      ],
      [
        "à¹Įà¸Ķ",
        -10.281594572603368
      ],
      [
        "à°¤à°¨",
        -10.281606418187623
      ],
      [
        "ÙĬÙĩ",
        -10.28184450579855
      ],
      [
        "Ġà¤ĵà¤",
        -10.282150656035649
      ],
      [
        "ÙĩÙĢ",
        -10.282300162750534
      ],
      [
        "à¤¾à¤¹à¤",
        -10.282560218812758
      ],
      [
        "ĠØ¯Ø§Ø®ÙĦ",
        -10.282728156787536
      ],
      [
        "Ľà¸£à¸°à¸¡à¸²à¸ĵ",
        -10.28279135833748
      ],
      [
        "gani",
        -10.282930089434664
      ],
      [
        "Ġà°¨à°Ĺà°°",
        -10.282963000775473
      ],
      [
        "ĠØ§ÙĦØ¬Ø§ÙħØ¹",
        -10.283455572660005
      ],
      [
        "±Ø©",
        -10.283699417511269
      ],
      [
        "ais",
        -10.284586361929035
      ],
      [
        "à¸µà¸Ķ",
        -10.284982096422006
      ],
      [
        "Ġà°ıà°",
        -10.286079951916818
      ],
      [
        "Ð½Ð¸Ñı",
        -10.286181338609182
      ],
      [
        "Ġhatu",
        -10.286570868796629
      ],
      [
        "Ġoff",
        -10.287110351598075
      ],
      [
        "ĠFor",
        -10.287480492705187
      ],
      [
        "Ø±Ùī",
        -10.287519399008216
      ],
      [
        "Ø¦Ø©",
        -10.287657710877674
      ],
      [
        "à°Ĥà°¶",
        -10.287939080311975
      ],
      [
        "kwa",
        -10.288222913206631
      ],
      [
        "inin",
        -10.288269575830933
      ],
      [
        "#",
        -10.288506460205886
      ],
      [
        "à¤¦à¤°",
        -10.288629766281502
      ],
      [
        "ØªÙĬÙĨ",
        -10.28881779575217
      ],
      [
        "à±įà°Łà°®",
        -10.289058446280864
      ],
      [
        "à±Ĥà°ļ",
        -10.289309232357276
      ],
      [
        "tendo",
        -10.28964002394465
      ],
      [
        "ÙħØ¹ÙĦÙĪÙħØ§Øª",
        -10.289701875252472
      ],
      [
        "Ġprocess",
        -10.290813304472074
      ],
      [
        "ĠSe",
        -10.291292041830143
      ],
      [
        "à¸ģà¸²à¸£",
        -10.291818514692206
      ],
      [
        "ĠÙĩØ",
        -10.291862227917598
      ],
      [
        "à¤ľà¤°",
        -10.29234736530497
      ],
      [
        "ĠØŃÙĬÙĨ",
        -10.292804877312058
      ],
      [
        "ĠÙĦÙĨØ§",
        -10.29313618563057
      ],
      [
        "Ø³ÙĨÙĪØ§Øª",
        -10.295732914539826
      ],
      [
        "à±ĭà°®",
        -10.298037669458171
      ],
      [
        "ĠØ§Ø³ØªØ®Ø¯Ø§Ùħ",
        -10.29878822944751
      ],
      [
        "insi",
        -10.299471217884197
      ],
      [
        "Ä±ÅŁtÄ±r",
        -10.299476959112097
      ],
      [
        "ÙİÙĪ",
        -10.299895982301322
      ],
      [
        "Ġbirlikte",
        -10.300394261026147
      ],
      [
        "yÄ±",
        -10.30052897635754
      ],
      [
        "à°ļà°Ł",
        -10.301116476525731
      ],
      [
        "ĠCo",
        -10.301864255976902
      ],
      [
        "à°¾.",
        -10.30205084402639
      ],
      [
        "enda",
        -10.303181534738464
      ],
      [
        "ama",
        -10.303843941378483
      ],
      [
        "ndio",
        -10.304205380550911
      ],
      [
        "Ġdis",
        -10.304648951735
      ],
      [
        "ĠØ¥Ø°",
        -10.304725229956013
      ],
      [
        "à±Ĩà°®",
        -10.304818747591888
      ],
      [
        "ä¸Ģ",
        -10.305083932191264
      ],
      [
        "à¤¿à¤¯à¤",
        -10.305586009474794
      ],
      [
        "à¤¯à¤¦",
        -10.305733268411604
      ],
      [
        "ĠØªØŃØª",
        -10.305979282905463
      ],
      [
        "Ġà¹Ĥà¸Ķà¸¢",
        -10.307517074629471
      ],
      [
        "à¸¸à¸Ĺà¸ĺ",
        -10.307683301315588
      ],
      [
        "ÙĥÙĨØª",
        -10.307872666206697
      ],
      [
        "ĠØ§ÙĦØŃÙĥÙħ",
        -10.308930555002878
      ],
      [
        "à¸´à¸Ĺ",
        -10.308965105078828
      ],
      [
        "à¤Ĥà¤¬",
        -10.309263696949005
      ],
      [
        "à¹īà¸²à¸",
        -10.309456149258468
      ],
      [
        "à¹īà¸Ńà¸ĩà",
        -10.309474557949112
      ],
      [
        "à¥įà¤°à¤¸",
        -10.309893626181069
      ],
      [
        "ĠØŃØ³Ø¨",
        -10.31042774259518
      ],
      [
        "erikali",
        -10.311263760441244
      ],
      [
        ",âĢĿ",
        -10.3121821710543
      ],
      [
        "Ġweek",
        -10.312275302567212
      ],
      [
        "Ġhelp",
        -10.312667768116995
      ],
      [
        "ĠÙĦÙĥÙĦ",
        -10.313019205954149
      ],
      [
        "ĠTo",
        -10.313300249441584
      ],
      [
        "ĠØ³ÙĬ",
        -10.31401574631251
      ],
      [
        "Ġprogram",
        -10.31442667369262
      ],
      [
        "à¸£à¸°à¸«à¸§",
        -10.314483898343212
      ],
      [
        "Ġmap",
        -10.314500627515368
      ],
      [
        "Ø¹Ø¯Ø©",
        -10.31523615251255
      ],
      [
        "):",
        -10.315360435908836
      ],
      [
        "ĠØ¹Ø¨Ø±",
        -10.3153950994648
      ],
      [
        "Ġpi",
        -10.315461653190589
      ],
      [
        "à¸±à¸ĩà¸ª",
        -10.31558921667558
      ],
      [
        "Ġà¤¬à¤",
        -10.315740596057427
      ],
      [
        "ÙĤ",
        -10.31605962258264
      ],
      [
        "à¥įà¤¥à¤",
        -10.31644171554125
      ],
      [
        "à¸´à¸ģà¸²à¸£",
        -10.316703300436377
      ],
      [
        "ĠÐŀÐ½",
        -10.317100085290203
      ],
      [
        "Ø°Ø§",
        -10.317161220926057
      ],
      [
        "à¸¹à¸¥",
        -10.317684513983185
      ],
      [
        "ÙıÙĪ",
        -10.317779047681192
      ],
      [
        "dvisor",
        -10.317962846688198
      ],
      [
        "ĤÑģÑı",
        -10.319631501071822
      ],
      [
        "Ġeven",
        -10.319730959767902
      ],
      [
        "æĻĤ",
        -10.319772765443345
      ],
      [
        "à¹Įà¸",
        -10.319864231060848
      ],
      [
        "à¹Īà¸ģ",
        -10.320194829900633
      ],
      [
        "think",
        -10.320704602058925
      ],
      [
        "ĠÐºÐ¾",
        -10.320778370751476
      ],
      [
        "great",
        -10.320982274952607
      ],
      [
        "çĶ¨",
        -10.321076704975384
      ],
      [
        "Ġch",
        -10.321174567374715
      ],
      [
        "be",
        -10.321666367742305
      ],
      [
        "ĠÐºÐ¾ÑĤÐ¾ÑĢÐ¾Ð",
        -10.321680953897856
      ],
      [
        "à¸·à¸Ńà¸ģ",
        -10.322593388613384
      ],
      [
        "ie",
        -10.323457918070458
      ],
      [
        "ba",
        -10.323585100951773
      ],
      [
        "Ġkutoa",
        -10.323717057494996
      ],
      [
        "à¸´à¸Ļà¸Ħ",
        -10.324189600806418
      ],
      [
        "à¤°à¤¨",
        -10.324763401263128
      ],
      [
        "à¸±à¸ĩà¸«à¸§",
        -10.325301571252034
      ],
      [
        "èĳĹ",
        -10.326376423039354
      ],
      [
        "Ġà¹Ģà¸£",
        -10.328413344301676
      ],
      [
        "Ġye",
        -10.32858719661456
      ],
      [
        "ĠyapÄ±lan",
        -10.328669622002808
      ],
      [
        "Ġam",
        -10.32907482924584
      ],
      [
        "à±įà°µà°¹",
        -10.329097979187983
      ],
      [
        "Ð½ÑĥÑİ",
        -10.330440045492738
      ],
      [
        "ĠÙĪÙĤØª",
        -10.330728743452235
      ],
      [
        "ces",
        -10.330891834137548
      ],
      [
        "Ðº",
        -10.332377465873828
      ],
      [
        "à¥ĭà¤ª",
        -10.332700169779269
      ],
      [
        "ĠÐĿÐµ",
        -10.33274345520389
      ],
      [
        "Ġbar",
        -10.33285695851024
      ],
      [
        "Ġkabi",
        -10.333040533222691
      ],
      [
        "so",
        -10.33406881895609
      ],
      [
        "à¹ģà¸¡",
        -10.334162887622938
      ],
      [
        "½ÑĭÐµ",
        -10.334494684423907
      ],
      [
        "Ð½Ð¾Ðµ",
        -10.335246019930588
      ],
      [
        "ØªÙĩÙħ",
        -10.335510329357318
      ],
      [
        ".\"",
        -10.33581264480324
      ],
      [
        "¹Ģà¸Ķ",
        -10.336084873133805
      ],
      [
        "½Ð¾Ð³Ð¾",
        -10.336275256329856
      ],
      [
        "ĠÐ²ÑĢÐµÐ¼ÐµÐ½Ð",
        -10.336717680736156
      ],
      [
        "ĠNe",
        -10.337088075279214
      ],
      [
        "Ø§ÙĦØ§Ø¬ØªÙħØ§Ø¹",
        -10.337185076362058
      ],
      [
        "Ð¿ÑĢÐ°Ð²Ð¸ÑĤÑĮ",
        -10.33764341154125
      ],
      [
        "ĠÃ¶zel",
        -10.33824506625631
      ],
      [
        "½Ð¾Ð¹",
        -10.338508076910951
      ],
      [
        "ĠØ´ÙĩØ±",
        -10.339452210859845
      ],
      [
        "article",
        -10.33955594559916
      ],
      [
        "ÑİÑĤ",
        -10.339877960990885
      ],
      [
        "à¤ļà¤¨",
        -10.340182373513256
      ],
      [
        "Ġà°§à°°",
        -10.340278544156622
      ],
      [
        "Ġchange",
        -10.341465982042626
      ],
      [
        "ĠÐ¢",
        -10.341848838459024
      ],
      [
        "à¤¸à¤²",
        -10.342015740786406
      ],
      [
        "ĠolduÄŁunu",
        -10.34209026865159
      ],
      [
        "ĠØªØ",
        -10.34242513602804
      ],
      [
        "à¸¹à¸Ļ",
        -10.342573082654008
      ],
      [
        "Ġinayo",
        -10.343192471016575
      ],
      [
        "à¤ħà¤¤",
        -10.34326083367884
      ],
      [
        "Ġmis",
        -10.343334799554835
      ],
      [
        "Ø§ÙĦØ¨ØŃØ«",
        -10.344180316531087
      ],
      [
        "ĠÙģÙĤØ§ÙĦ",
        -10.344767049799268
      ],
      [
        "ĠBa",
        -10.344853131819196
      ],
      [
        "ĠÐ´ÑĢÑĥÐ³",
        -10.345193202087312
      ],
      [
        "ĠÐ¿ÐµÑĢÐµ",
        -10.345913597270478
      ],
      [
        "Ġà¤¦à¤°",
        -10.345982500762643
      ],
      [
        "Ð¼Ð¾Ð¶ÐµÑĤÐµ",
        -10.34621197311223
      ],
      [
        "Ġwale",
        -10.346906279045276
      ],
      [
        "ĠØ§ÙĦÙĨØ¸Ø±",
        -10.347054049435144
      ],
      [
        "ÙĪÙĬØ©",
        -10.347471058185096
      ],
      [
        "Ġdevam",
        -10.34784265734204
      ],
      [
        "zao",
        -10.348488257793576
      ],
      [
        "tokana",
        -10.348730272056782
      ],
      [
        "ĠSu",
        -10.349405654575383
      ],
      [
        "ÙĪÙī",
        -10.349568991180226
      ],
      [
        "å¥½",
        -10.350663069869777
      ],
      [
        "Ġsecond",
        -10.351180094767646
      ],
      [
        "Ġkey",
        -10.351418203650256
      ],
      [
        "à±Ģà°Ĺ",
        -10.353124051970545
      ],
      [
        "ik",
        -10.353825483721137
      ],
      [
        "Ġà¸Ńà¸¢",
        -10.354316067510847
      ],
      [
        "wana",
        -10.354488646943384
      ],
      [
        "à¸¸à¸£",
        -10.35452185646134
      ],
      [
        "Ġad",
        -10.354713828185458
      ],
      [
        "à¤Ĥà¤ķ",
        -10.355429244164895
      ],
      [
        "à¤¤à¤°",
        -10.35584218496999
      ],
      [
        "ĠÑĩÐµÑĢÐµÐ",
        -10.356002414495777
      ],
      [
        "à¸µà¸Ħ",
        -10.35647566730086
      ],
      [
        "ĠÑĤÐµÐ¼",
        -10.356517947624049
      ],
      [
        "à¹Īà¸Ĺ",
        -10.3567426645983
      ],
      [
        "ĠHer",
        -10.35695215132967
      ],
      [
        "Ã¨me",
        -10.357427384762792
      ],
      [
        "ÙĤØ¶Ø§Ø¡",
        -10.35756239644464
      ],
      [
        "à°ļà°ķ",
        -10.357947657387289
      ],
      [
        "¸Ĺ",
        -10.358466561515945
      ],
      [
        "ĠÙħÙĪÙĤØ¹",
        -10.358555427443902
      ],
      [
        ":||",
        -10.359308182286227
      ],
      [
        "iÅŁtir",
        -10.359423792440856
      ],
      [
        "ĠTrip",
        -10.359963172748625
      ],
      [
        "Ø§ÙĦØ·ÙģÙĦ",
        -10.360221010777902
      ],
      [
        "ĠdiÄŁer",
        -10.360355365074104
      ],
      [
        "à¹Ģà¸ķà¸Ńà¸£",
        -10.360434399790767
      ],
      [
        "à¥ĩà¤¦",
        -10.360573935701522
      ],
      [
        "à¤Ī",
        -10.360716407652852
      ],
      [
        "Ġe",
        -10.361014233791062
      ],
      [
        "Ġav",
        -10.361793500241228
      ],
      [
        "à¤ĺà¤°",
        -10.362485734100265
      ],
      [
        "à±Ģà°ķà°°",
        -10.362725439445228
      ],
      [
        "à¤¬à¤ļ",
        -10.362822697820077
      ],
      [
        "Ġà°Ĩà°ķ",
        -10.362858683278285
      ],
      [
        "ĠØ§ÙĦØŃØ§ÙĦ",
        -10.36329356102486
      ],
      [
        "ÙĨØªÙĬØ¬Ø©",
        -10.3649004677662
      ],
      [
        "à¹Īà¸²à¸ª",
        -10.365887400425557
      ],
      [
        "Ġà¤¸à¤¬à¤",
        -10.366027132389076
      ],
      [
        "à¤Ĥà¤ªà¤",
        -10.366295473636608
      ],
      [
        "Ġoldu",
        -10.366918438832403
      ],
      [
        "wanza",
        -10.367076322969496
      ],
      [
        "æĢ§",
        -10.367404236723782
      ],
      [
        "Ġà¸ģà¸¥",
        -10.367511107236725
      ],
      [
        "ique",
        -10.367585239620034
      ],
      [
        "ĠTa",
        -10.367634378057222
      ],
      [
        "ÙĬØ§Ø¡",
        -10.36831738876128
      ],
      [
        "ĠÙĪÙĦÙĬØ³",
        -10.36929957213281
      ],
      [
        "ĠÐ¿ÑĢ",
        -10.369532720526434
      ],
      [
        "iz",
        -10.369819470297156
      ],
      [
        "sha",
        -10.370061450277207
      ],
      [
        "à¸Ļà¹Ĩ",
        -10.3701376788147
      ],
      [
        "à¸¹à¸ĩ",
        -10.370716315474516
      ],
      [
        "annÃ©e",
        -10.370878708629055
      ],
      [
        "à¹Ħà¸§",
        -10.371021459460684
      ],
      [
        "Ġà°ħà°µà°¸à°°",
        -10.37151259241792
      ],
      [
        "ĠÙĨØŃÙĪ",
        -10.372018163853326
      ],
      [
        "à°¤à°®",
        -10.372373693236032
      ],
      [
        "âĢĻai",
        -10.372959685577952
      ],
      [
        "à¤ħà¤ļ",
        -10.373137680433604
      ],
      [
        "à¸Ħà¸¥",
        -10.37327497613947
      ],
      [
        "å°Ĩ",
        -10.373435958668995
      ],
      [
        "à¥ĭà¤ķ",
        -10.37354591407026
      ],
      [
        "ÙĩÙĦ",
        -10.374372515594274
      ],
      [
        "Ä±nÄ±",
        -10.374547995203606
      ],
      [
        "tatizo",
        -10.37514431603907
      ],
      [
        "Ġà¤ħà¤°",
        -10.377219429867354
      ],
      [
        "ĠØŃÙĤ",
        -10.378510267163096
      ],
      [
        "bwa",
        -10.378577751328894
      ],
      [
        "à¹Įà¸¡",
        -10.37959692118644
      ],
      [
        "à¸±à¸¡à¸ŀ",
        -10.379852679199823
      ],
      [
        "Ð»",
        -10.380391281599252
      ],
      [
        "Ġmwana",
        -10.380398758957751
      ],
      [
        "à°¾à°Łà°²",
        -10.380729974621175
      ],
      [
        "ä¸ĭ",
        -10.380850282017166
      ],
      [
        "Ġpersonne",
        -10.381661293245177
      ],
      [
        "ive",
        -10.38216133853668
      ],
      [
        "Ġà°ķà°¥",
        -10.382248763661671
      ],
      [
        "lu",
        -10.382587396639655
      ],
      [
        "à¹ĩà¸Ļà¸ľ",
        -10.382676721474482
      ],
      [
        "à±įà°£à°¯",
        -10.38289708868259
      ],
      [
        "yetu",
        -10.383309114802593
      ],
      [
        "isha",
        -10.383576310977755
      ],
      [
        "Ġmfan",
        -10.38386271172986
      ],
      [
        "computer",
        -10.38397715245414
      ],
      [
        "Ġalan",
        -10.384424170356828
      ],
      [
        "ĠÙĦÙĨ",
        -10.384451919526803
      ],
      [
        "ĠØ£ÙĩÙĦ",
        -10.384842902377653
      ],
      [
        "sini",
        -10.385153192898857
      ],
      [
        "hapo",
        -10.385249091282343
      ],
      [
        "à°ļà°¨",
        -10.385425914512949
      ],
      [
        "à¸Ļà¸ģ",
        -10.385745414235902
      ],
      [
        "itÃ©",
        -10.38593907224245
      ],
      [
        "½Ð¾ÑģÑĤÑĮ",
        -10.38599212925714
      ],
      [
        "Ø¯Ùī",
        -10.386026369420644
      ],
      [
        "Ġhim",
        -10.38611307299561
      ],
      [
        "åĩº",
        -10.386591713519907
      ],
      [
        "nun",
        -10.387292569585435
      ],
      [
        "ÙİØ¯",
        -10.387461342396108
      ],
      [
        "tous",
        -10.3886151268526
      ],
      [
        "ĠSo",
        -10.38933353340926
      ],
      [
        "à¹Īà¸²à¸ĩà¹Ħà¸£",
        -10.389679075386027
      ],
      [
        "å°ı",
        -10.389916647634095
      ],
      [
        "du",
        -10.390525423919676
      ],
      [
        "ut",
        -10.391212034285624
      ],
      [
        "Ø¯Ø±Ø¬Ø©",
        -10.39134075580186
      ],
      [
        "Ġmany",
        -10.391425884482178
      ],
      [
        "husika",
        -10.391698334283646
      ],
      [
        "Ø§Ø¨ÙĨØ§Ø¡",
        -10.391879694202094
      ],
      [
        "Ðĺ",
        -10.39223402682514
      ],
      [
        "Ġlast",
        -10.392963931913522
      ],
      [
        "Ġhav",
        -10.393418792171625
      ],
      [
        "hi",
        -10.393611341709963
      ],
      [
        "Ġap",
        -10.393920497438742
      ],
      [
        "à°¾à°°à°®",
        -10.3945475822956
      ],
      [
        "ĠØŁ",
        -10.394810344920362
      ],
      [
        "ona",
        -10.39618029190079
      ],
      [
        "Ø«ÙĦØ§Ø«Ø©",
        -10.396193332914454
      ],
      [
        "ĠØ§ÙĦÙħØªØŃØ¯Ø",
        -10.396846886833856
      ],
      [
        "ĠØ§ÙĦØ³",
        -10.397081086721538
      ],
      [
        "kupata",
        -10.39772867912506
      ],
      [
        "à¹Įà¸ª",
        -10.397872077279708
      ],
      [
        "à±įà°¶à°ķ",
        -10.397963578593052
      ],
      [
        "Ð¾Ð½",
        -10.398238540555347
      ],
      [
        "Ġwh",
        -10.398880099958694
      ],
      [
        "ÙħÙĨØ·ÙĤØ©",
        -10.399076060221248
      ],
      [
        "ĠÙĦÙ",
        -10.399435681342997
      ],
      [
        "à¸±à¸ļà¸Ĺ",
        -10.399545827406476
      ],
      [
        "ä¾Ĩ",
        -10.39986882320203
      ],
      [
        "à¸³à¸Ħ",
        -10.400308121753737
      ],
      [
        "km",
        -10.400313407172774
      ],
      [
        "taka",
        -10.40050711491124
      ],
      [
        "à¹ģà¸¥à¸°",
        -10.401112648372946
      ],
      [
        "ĠØ±Ø³ÙĪÙĦ",
        -10.401169351192614
      ],
      [
        "à¹Īà¸²à¸Ĺ",
        -10.401379138119063
      ],
      [
        "am",
        -10.401435827168395
      ],
      [
        "à¥ĩà¤¶à¤",
        -10.401469227323217
      ],
      [
        "à±ģ..",
        -10.401643285509186
      ],
      [
        "Ġwala",
        -10.40167165277684
      ],
      [
        "à¸Ńà¸§",
        -10.403937970429634
      ],
      [
        "ĠØ¨ÙĥÙĦ",
        -10.404349254317388
      ],
      [
        "à°§",
        -10.404582355045417
      ],
      [
        "à±įà°°à°²",
        -10.404642853048522
      ],
      [
        "Ø¹Ø¯ÙĦ",
        -10.404653311230774
      ],
      [
        "à°ħ",
        -10.405023612684706
      ],
      [
        "ÙĪÙĤØ¯",
        -10.405915376975706
      ],
      [
        "Ð³",
        -10.407052454828625
      ],
      [
        "à¤¾.",
        -10.407652236892575
      ],
      [
        "à¹ĥà¸Ļ",
        -10.407715855033173
      ],
      [
        "Ġpublic",
        -10.40892003775071
      ],
      [
        "nu",
        -10.409143585558956
      ],
      [
        "Ġhere",
        -10.410126527753755
      ],
      [
        "à±Ĩà°Ĺ",
        -10.41070026820302
      ],
      [
        "isi",
        -10.411092096403578
      ],
      [
        "Ð´ÐµÐ»Ð°ÑĤÑĮ",
        -10.411310539446262
      ],
      [
        "ĠrÃ©",
        -10.411338656896532
      ],
      [
        "ici",
        -10.412647620942789
      ],
      [
        "Ġgerek",
        -10.41270550119238
      ],
      [
        "ĠÑĩÐµÐ»Ð¾Ð²ÐµÐº",
        -10.412968091678955
      ],
      [
        "à°ĸà°°",
        -10.413890601778675
      ],
      [
        "à°¡à°¬",
        -10.414273326397836
      ],
      [
        "Ø¬",
        -10.416798067930245
      ],
      [
        "bali",
        -10.416868519544748
      ],
      [
        "ĠAn",
        -10.417089711992642
      ],
      [
        "larda",
        -10.41764199730711
      ],
      [
        "à¹ĩà¸Ħ",
        -10.417772260105432
      ],
      [
        "vu",
        -10.41805693190402
      ],
      [
        "ĠØ§ÙĦØŃÙĤÙĬÙĤ",
        -10.418788004088416
      ],
      [
        "ĠAfrika",
        -10.41894766465385
      ],
      [
        "ĠØ¯ÙĪÙĦ",
        -10.419691672965229
      ],
      [
        "ĠØ§ÙĦØ¹Ø¯ÙĬØ¯",
        -10.419982839053253
      ],
      [
        "Ġful",
        -10.420587634385914
      ],
      [
        "ĠØ§ÙĦØ´ÙĬØ®",
        -10.420842690079688
      ],
      [
        "à¸´à¸¥",
        -10.420944721515951
      ],
      [
        "ĠBe",
        -10.421411543590654
      ],
      [
        "umbe",
        -10.421809575584264
      ],
      [
        "Ø£ÙĥØ¨Ø±",
        -10.422098258576984
      ],
      [
        "Ġà°ķà°¦",
        -10.422319015059236
      ],
      [
        "halisi",
        -10.42260911323863
      ],
      [
        "à¸Ŀ",
        -10.422804934214748
      ],
      [
        "à±Ģà°Ĥ",
        -10.423462081988957
      ],
      [
        "ika",
        -10.423567507135983
      ],
      [
        "Ġà¸«à¸Ļ",
        -10.423709109202036
      ],
      [
        "Ġprovide",
        -10.42396196989733
      ],
      [
        "Ä±nÄ±n",
        -10.424413911495506
      ],
      [
        "!!Ċ",
        -10.424613246061266
      ],
      [
        "ĠÐ½ÐµÑĤ",
        -10.424824974602906
      ],
      [
        "Ġà°ļà°¦",
        -10.425081190754328
      ],
      [
        "à¹Ģà¸Ī",
        -10.425227592885465
      ],
      [
        "ÐºÐ°",
        -10.426103261051717
      ],
      [
        "à¸¶à¸ģ",
        -10.426418880744189
      ],
      [
        "etu",
        -10.426547070987114
      ],
      [
        "page",
        -10.426686891438802
      ],
      [
        "Ø·Ø±ÙĬÙĤØ©",
        -10.427438448799016
      ],
      [
        "Ġgrand",
        -10.428135436897785
      ],
      [
        "Ġvie",
        -10.428306037062608
      ],
      [
        "eno",
        -10.428421670811584
      ],
      [
        "¸«à¸Ļ",
        -10.428474188259653
      ],
      [
        "email",
        -10.428735074573034
      ],
      [
        "ĠWi",
        -10.429063711158332
      ],
      [
        "Ġfin",
        -10.429296572253705
      ],
      [
        "ĠÑģÑĤÐ°ÑĤÑĮ",
        -10.42951412412474
      ],
      [
        "à¹ĩà¸Ļà¸§",
        -10.429596696613055
      ],
      [
        "kazi",
        -10.42976231660778
      ],
      [
        "ĠYou",
        -10.43018212344418
      ],
      [
        "ĠRo",
        -10.430282921223636
      ],
      [
        "à¸µà¸¢à¸ģà¸",
        -10.43043504712326
      ],
      [
        "Ġhuku",
        -10.430629891925124
      ],
      [
        "jeshi",
        -10.43120059900352
      ],
      [
        "Ø±ÙĤÙħ",
        -10.431505752591416
      ],
      [
        "Ġcompte",
        -10.431806320511685
      ],
      [
        "elles",
        -10.432872189249515
      ],
      [
        "à¤¶à¤¨",
        -10.433101054839923
      ],
      [
        "à¤ľà¤¹",
        -10.43331508610068
      ],
      [
        "ÙĪÙħÙĨ",
        -10.4334982804862
      ],
      [
        "ä¹ĭ",
        -10.433765568800627
      ],
      [
        "çĶ±",
        -10.434249398120349
      ],
      [
        "ĠØ§ÙĦÙĤØ±ÙĨ",
        -10.43456232984236
      ],
      [
        "Ġvideo",
        -10.43460652714036
      ],
      [
        "wenda",
        -10.434754713364136
      ],
      [
        "HP",
        -10.435204533115034
      ],
      [
        "à¸±à¸ļà¸ľ",
        -10.435384047257786
      ],
      [
        "à±įà°¤à°µ",
        -10.435890908905376
      ],
      [
        "pata",
        -10.436122343725168
      ],
      [
        "«à¸Ļ",
        -10.436760928423244
      ],
      [
        "Ġvo",
        -10.43729804559591
      ],
      [
        "sawa",
        -10.437788153035116
      ],
      [
        "æĬĬ",
        -10.438327610172792
      ],
      [
        "à¸±à¸ļà",
        -10.43843531473902
      ],
      [
        "iwa",
        -10.438605925423984
      ],
      [
        "à¹ĳà¹",
        -10.439573529986106
      ],
      [
        "ĠØ§ÙĦÙĪØ§ÙĤØ¹",
        -10.439604222025622
      ],
      [
        "à¤¢",
        -10.440279504548672
      ],
      [
        "Ġà°Ĩà°¡",
        -10.440315364020549
      ],
      [
        "ï¼ŁâĢĿ",
        -10.440909674931472
      ],
      [
        "ĠÐ¼ÐµÐ¶Ð´Ñĥ",
        -10.440945345802184
      ],
      [
        "à¸¹à¸ģà¸Ħ",
        -10.441118640227176
      ],
      [
        "ĠÐ´ÑĢÑĥÐ³Ð¸",
        -10.441272284469868
      ],
      [
        "à±ĩà°¦à°¨",
        -10.441464567001116
      ],
      [
        "à¥ĩà¤µà¤",
        -10.441622646343522
      ],
      [
        "ĠØ¨Ø¯",
        -10.441761548198624
      ],
      [
        "åĲĳ",
        -10.442002987595492
      ],
      [
        "Ġstate",
        -10.442003763140058
      ],
      [
        "?âĢĿ",
        -10.44209788886696
      ],
      [
        "ĠØ¯",
        -10.44230560620002
      ],
      [
        "à¸·à¸Ńà¸§",
        -10.442592859765846
      ],
      [
        "Ġuj",
        -10.442594041238396
      ],
      [
        "ĠAM",
        -10.443604322332163
      ],
      [
        "ries",
        -10.443635271921655
      ],
      [
        "Ø£ØŃÙħØ¯",
        -10.443864871881344
      ],
      [
        "ÐµÑģÑĮ",
        -10.444439150560385
      ],
      [
        "ile",
        -10.44453648991509
      ],
      [
        "larÄ±n",
        -10.44668752182174
      ],
      [
        "ĠJa",
        -10.44765902168226
      ],
      [
        "Ġgame",
        -10.448086716260828
      ],
      [
        "source",
        -10.448331719529286
      ],
      [
        "if",
        -10.449038239715996
      ],
      [
        "ĠÑģÐ²Ð¾ÐµÐ",
        -10.449063703826145
      ],
      [
        "à¸ªà¸£",
        -10.449244481228895
      ],
      [
        "au",
        -10.449730071722549
      ],
      [
        "We",
        -10.449961828529108
      ],
      [
        "ĠAd",
        -10.450252087665358
      ],
      [
        "à¤§à¤°",
        -10.45073629504967
      ],
      [
        "nouvelle",
        -10.45096885516934
      ],
      [
        "à°ĩ",
        -10.451298185787746
      ],
      [
        "¨Ø©",
        -10.451314133256442
      ],
      [
        "ĠÑĤÐµ",
        -10.452202597761712
      ],
      [
        "ĠÙħØ³ØªÙĪÙ",
        -10.45241024267953
      ],
      [
        "à¹īà¸²à¸¡",
        -10.453049940291503
      ],
      [
        "à±įà°°à°¯à°",
        -10.453106190276236
      ],
      [
        "aina",
        -10.453153584273725
      ],
      [
        "Ġà°Ĩà°¶",
        -10.453154236260009
      ],
      [
        "Ġbo",
        -10.454273918323004
      ],
      [
        "aidi",
        -10.454668121869716
      ],
      [
        "à¸Ħà¸§à¸²à¸¡",
        -10.454809606330514
      ],
      [
        "ĠØ£ÙģØ¶ÙĦ",
        -10.454867090046786
      ],
      [
        "su",
        -10.455330157143802
      ],
      [
        "à¹Īà¸Ńà¹Ħà¸Ľ",
        -10.455564570299629
      ],
      [
        "mu",
        -10.455902404586038
      ],
      [
        "à°ªà°¶",
        -10.45617006311756
      ],
      [
        "à¥įà¤Ĺ",
        -10.45646657353806
      ],
      [
        "ĠDa",
        -10.456624267213416
      ],
      [
        "Ø·Ø©",
        -10.45668154366903
      ],
      [
        "je",
        -10.456793222681403
      ],
      [
        "tofauti",
        -10.456964467519844
      ],
      [
        "à¥Īà¤²",
        -10.457383558063269
      ],
      [
        "à°¸à°®à°¸",
        -10.457784440778854
      ],
      [
        "à¹īà¹ģà¸ģ",
        -10.45782996713967
      ],
      [
        "vi",
        -10.458150212083616
      ],
      [
        "going",
        -10.4585570799832
      ],
      [
        "ÐľÑĭ",
        -10.45856886857466
      ],
      [
        "à¹Įà¸ģ",
        -10.458647281305073
      ],
      [
        "ĠØ§ÙĦÙħÙĦÙĥ",
        -10.45871358718842
      ],
      [
        "à¸¶à¹",
        -10.458770576245154
      ],
      [
        "id",
        -10.458777365067917
      ],
      [
        "ĠÅŁey",
        -10.45907589641805
      ],
      [
        "Ð",
        -10.459470408103387
      ],
      [
        "Ġcho",
        -10.4594817763806
      ],
      [
        "à°¸à°¨",
        -10.460162063235703
      ],
      [
        "ĠÐ¢Ð°Ðº",
        -10.460675335673375
      ],
      [
        "à¸¸à¸£à¸ģ",
        -10.46086496836158
      ],
      [
        "à¸Ħà¸§à¸²à¸¡à¸ª",
        -10.462210345136905
      ],
      [
        "à¹īà¸ĩ",
        -10.46253313802267
      ],
      [
        "Ã¨s",
        -10.463789204873112
      ],
      [
        "à¹Ģà¸«à¸¡",
        -10.46382777939228
      ],
      [
        "Ġhome",
        -10.464638610190828
      ],
      [
        "à°¿à°ľà°¯",
        -10.46525212968806
      ],
      [
        "ĠØ§ÙĦØ¥",
        -10.465772722578812
      ],
      [
        "åīį",
        -10.466372748916548
      ],
      [
        "ĠØ¯ÙĪØ±",
        -10.466517910614291
      ],
      [
        "tatu",
        -10.467299401301164
      ],
      [
        "à¤ªà¤°",
        -10.467340042673754
      ],
      [
        "ĠÄ°",
        -10.467349457670135
      ],
      [
        "à¸¹à¸Ķ",
        -10.46762805645784
      ],
      [
        "ic",
        -10.46806790743609
      ],
      [
        "à¸µà¸£",
        -10.468166509603678
      ],
      [
        "Ġuk",
        -10.468552029213312
      ],
      [
        "ĠÑģÐ»ÑĥÑĩÐ°Ðµ",
        -10.46900164488623
      ],
      [
        "ĠÙħØ¹ÙĬÙĨ",
        -10.469352822081795
      ],
      [
        "ØªÙħ",
        -10.46950573194428
      ],
      [
        "ÑıÑħ",
        -10.47001457359532
      ],
      [
        "<",
        -10.470050440793909
      ],
      [
        "ÙĪØ²Ø§Ø±Ø©",
        -10.470077253709553
      ],
      [
        "ĠØ´",
        -10.470097747123669
      ],
      [
        "à¥ĭà¤§",
        -10.470301412580504
      ],
      [
        "ĠØ³ÙĪØ§Ø",
        -10.47033655250666
      ],
      [
        "à¹Įà¸Ļ",
        -10.47136320681376
      ],
      [
        "ĠÙĦÙĥ",
        -10.472317064772984
      ],
      [
        "à¸µà¹",
        -10.472574620567949
      ],
      [
        "Ø§ÙĦØ¹ÙĦÙħØ§Ø¡",
        -10.472677781075856
      ],
      [
        "Ã§ok",
        -10.472735723624824
      ],
      [
        "Ġgelen",
        -10.472906895625568
      ],
      [
        "Ġbulunan",
        -10.473359980768628
      ],
      [
        "while",
        -10.473780570673092
      ],
      [
        "ĠAs",
        -10.47388270022256
      ],
      [
        "ĩØ§",
        -10.475487666446025
      ],
      [
        "à¹Īà¸²à¸",
        -10.476424828222854
      ],
      [
        ".S",
        -10.47741183852717
      ],
      [
        "Ä±nda",
        -10.477455316496354
      ],
      [
        "ÑĩÐ°Ñģ",
        -10.478540285704984
      ],
      [
        "take",
        -10.478547628377012
      ],
      [
        "ÐºÑĥ",
        -10.478607104412
      ],
      [
        "à°¿à°³",
        -10.478721870344565
      ],
      [
        "Ðļ",
        -10.479486906880602
      ],
      [
        "µÐ¹",
        -10.479897781072326
      ],
      [
        "ja",
        -10.480382291482638
      ],
      [
        "ÙĦÙĤØ¯",
        -10.480534978678332
      ],
      [
        "ĠÐ¼Ð¾Ð³ÑĥÑ",
        -10.481978949961215
      ],
      [
        "ĠÙħØµØ±",
        -10.482459765687024
      ],
      [
        "bora",
        -10.483308490604532
      ],
      [
        "Ġsahip",
        -10.483937776512551
      ],
      [
        "own",
        -10.483942904711952
      ],
      [
        "ÙĨØ³Ø§Ø¡",
        -10.48420183567374
      ],
      [
        "ªÙĩØ§",
        -10.484248034001409
      ],
      [
        "Ġja",
        -10.484569380577778
      ],
      [
        "of",
        -10.484768353148958
      ],
      [
        "ĠØ§ÙĦÙħÙĪØ¶ÙĪØ¹",
        -10.485442065472675
      ],
      [
        "sine",
        -10.48548600063572
      ],
      [
        "world",
        -10.485810239495102
      ],
      [
        "à¥Īà¤ķ",
        -10.485835884946573
      ],
      [
        "à°¿..",
        -10.48626468060815
      ],
      [
        "ĠÑıÐ²Ð»Ñı",
        -10.486827573589668
      ],
      [
        "Ġà¤ķà¤¹à¤",
        -10.487076389901546
      ],
      [
        "jua",
        -10.487632895190002
      ],
      [
        "ĠLo",
        -10.487931092479318
      ],
      [
        "¯Ø©",
        -10.488344472182746
      ],
      [
        "ĠØ§ÙĦÙĪØ·ÙĨ",
        -10.48891954830295
      ],
      [
        "Ġkuu",
        -10.488936619879798
      ],
      [
        "tant",
        -10.489030836829318
      ],
      [
        "ĠShe",
        -10.489082798627187
      ],
      [
        "Ð§ÑĤÐ¾",
        -10.489322698301573
      ],
      [
        "ĠAr",
        -10.48978762937282
      ],
      [
        "ala",
        -10.49019136139999
      ],
      [
        "ÙĳØ",
        -10.490399017997117
      ],
      [
        "à¸±à¸ļà¸ª",
        -10.491044412742326
      ],
      [
        "à¸¸à¸",
        -10.492224075656072
      ],
      [
        "ĠÐ²Ð°ÑĪ",
        -10.492824007002076
      ],
      [
        "ĠØ§ÙĦÙĥÙĪÙĨ",
        -10.492888548611738
      ],
      [
        "ĠÑįÑĤÐ¸",
        -10.49301050910596
      ],
      [
        "ĠØ§ÙĦØ·Ø¨",
        -10.49349484772394
      ],
      [
        "æīĢ",
        -10.493578928060485
      ],
      [
        "ĠÐŁ",
        -10.493804943353828
      ],
      [
        "Ġbet",
        -10.494075845766965
      ],
      [
        "à°¿à°¨à°µ",
        -10.4945455190711
      ],
      [
        "à±įà°ķà°²",
        -10.494779877859036
      ],
      [
        "ĠÐ±Ð¾Ð»ÑĮÑĪÐµ",
        -10.495028294306056
      ],
      [
        "ĠØ§ÙĦØªØ§ÙĦÙĬ",
        -10.495816970013326
      ],
      [
        "à¥įà¤Łà¤°",
        -10.49608465381062
      ],
      [
        "ken",
        -10.496158188183768
      ],
      [
        "Ø³ÙĪÙģ",
        -10.496244198808526
      ],
      [
        "Ġà¤¸à¤¬",
        -10.496706574182603
      ],
      [
        "Ġtop",
        -10.497025817106966
      ],
      [
        "ll",
        -10.497221352113192
      ],
      [
        "à°¸à°Ń",
        -10.497427602977623
      ],
      [
        "ÙİØ§ÙĦ",
        -10.497630458574635
      ],
      [
        "Ġà°Ĳà°",
        -10.497677817195456
      ],
      [
        "à¸±à¸Ļà¸ģ",
        -10.497897268468218
      ],
      [
        "ĠÑĢÐ°Ñģ",
        -10.49819696557315
      ],
      [
        "Ġbil",
        -10.498466787016213
      ],
      [
        "self",
        -10.49898555270124
      ],
      [
        "ªà¸£",
        -10.499330887131102
      ],
      [
        "ĠØ§ÙĦØ£Ø±Ø¶",
        -10.499333255030889
      ],
      [
        "å¾Į",
        -10.499903013629392
      ],
      [
        "Ġpo",
        -10.50068951200028
      ],
      [
        "ĠTÃ¼rkiye",
        -10.501027360300649
      ],
      [
        "nombre",
        -10.501179478259116
      ],
      [
        "Ġwaki",
        -10.50156063168359
      ],
      [
        "Ġbilgi",
        -10.501663707270351
      ],
      [
        "Ø§Ø±Ø©",
        -10.501724614821788
      ],
      [
        "à¤Ĥà¤Ł",
        -10.50173638996224
      ],
      [
        "éģĵ",
        -10.502261762744553
      ],
      [
        "à°¨à°·",
        -10.502727425403188
      ],
      [
        "à¹īà¸ľ",
        -10.50287639249525
      ],
      [
        "ÙħÙĨÙĩÙħ",
        -10.50290369699736
      ],
      [
        "Ġright",
        -10.503245235539357
      ],
      [
        "yÄ±lÄ±nda",
        -10.504566774704315
      ],
      [
        "à¸µà¸Ĭ",
        -10.504653918124175
      ],
      [
        "ĠBo",
        -10.504754313012103
      ],
      [
        "ix",
        -10.50542264219688
      ],
      [
        "---",
        -10.50592948066946
      ],
      [
        "Ġver",
        -10.506139262645815
      ],
      [
        "Ġstud",
        -10.5062498308745
      ],
      [
        "heria",
        -10.50713636732257
      ],
      [
        "zima",
        -10.507484583253644
      ],
      [
        "ĠÐŁÑĢÐ¸",
        -10.508270039997228
      ],
      [
        "à¸µà¸¡",
        -10.508386402013706
      ],
      [
        "Ġnos",
        -10.508416668470868
      ],
      [
        "åĲį",
        -10.508663677318442
      ],
      [
        "Ġà¤¸à¤ķ",
        -10.508705023207703
      ],
      [
        "à¸±à¸į",
        -10.50893164051117
      ],
      [
        "ĠMe",
        -10.509658710651102
      ],
      [
        "lerin",
        -10.51056241801345
      ],
      [
        "tumia",
        -10.511068304478687
      ],
      [
        "ÙħÙĬØ©",
        -10.511691952059298
      ],
      [
        "pango",
        -10.512798108042862
      ],
      [
        "à°¿à°¹",
        -10.512921026044452
      ],
      [
        "Ø§Ø©",
        -10.513036032511614
      ],
      [
        "à¹īà¸Ńà¸Ļ",
        -10.513434763452985
      ],
      [
        "ful",
        -10.513528588952576
      ],
      [
        "ĠØ§ÙĦÙĪØ·ÙĨÙĬ",
        -10.513776542761724
      ],
      [
        "ÙĥØ§ÙĨ",
        -10.514181270721288
      ],
      [
        "ĠØ±Ø¬Ø",
        -10.514686803705391
      ],
      [
        "à¸ĩà¸¡",
        -10.515248378076755
      ],
      [
        "ĠWeb",
        -10.51541880603057
      ],
      [
        "à¹Īà¸²à¸ĩà¸",
        -10.515531445968934
      ],
      [
        "à¸´à¸Ľ",
        -10.515582312207592
      ],
      [
        "number",
        -10.515612520786984
      ],
      [
        "jinsi",
        -10.515788272835888
      ],
      [
        "jeune",
        -10.516336944231366
      ],
      [
        "à¸±à¸Ķà¸ª",
        -10.51636600961864
      ],
      [
        "à¸µà¸ŀ",
        -10.516369582034809
      ],
      [
        "az",
        -10.51700314010662
      ],
      [
        "Ġmal",
        -10.51768698570822
      ],
      [
        "naweza",
        -10.517837203281289
      ],
      [
        "azi",
        -10.518983338679602
      ],
      [
        "Ġpost",
        -10.519432839266685
      ],
      [
        "Ø§ÙĦØ¹ÙĦÙĪÙħ",
        -10.520201870045671
      ],
      [
        "à¥įà¤ł",
        -10.52091516887523
      ],
      [
        "net",
        -10.5213734242188
      ],
      [
        "ĠÙħØ®ØªÙĦÙģ",
        -10.521440687660796
      ],
      [
        "à¤¾à¤¹à¤°",
        -10.522274858857845
      ],
      [
        "himu",
        -10.522293394806557
      ],
      [
        "à¥įà¤®à¤",
        -10.522537800135373
      ],
      [
        "ÙĦÙĩ",
        -10.522915596787374
      ],
      [
        "Ø¹ÙĦÙĬÙĩÙħ",
        -10.523575735274768
      ],
      [
        "des",
        -10.523669399158049
      ],
      [
        "Ġbon",
        -10.523708419386905
      ],
      [
        "èĩªå·±",
        -10.523741505540102
      ],
      [
        "à¹Īà",
        -10.524088899789067
      ],
      [
        "à¥ģà¤¡",
        -10.524138485714438
      ],
      [
        "Facebook",
        -10.524387152467522
      ],
      [
        "ting",
        -10.52460858478038
      ],
      [
        "karibu",
        -10.52467750393587
      ],
      [
        "à¤ĩà¤¸",
        -10.524797106500277
      ],
[...]
