{
  "version": "1.0",
  "truncation": null,
  "padding": null,
  "added_tokens": [
    {
      "id": 0,
      "content": "<|bos|>",
      "single_word": false,
      "lstrip": false,
      "rstrip": false,
      "normalized": false,
      "special": true
    },
    {
      "id": 1,
      "content": "<|user_start|>",
      "single_word": false,
      "lstrip": false,
      "rstrip": false,
      "normalized": false,
      "special": true
    },
    {
      "id": 2,
      "content": "<|user_end|>",
      "single_word": false,
      "lstrip": false,
      "rstrip": false,
      "normalized": false,
      "special": true
    },
    {
      "id": 3,
      "content": "<|assistant_start|>",
      "single_word": false,
      "lstrip": false,
      "rstrip": false,
      "normalized": false,
      "special": true
    },
    {
      "id": 4,
      "content": "<|assistant_end|>",
      "single_word": false,
      "lstrip": false,
      "rstrip": false,
      "normalized": false,
      "special": true
    },
    {
      "id": 5,
      "content": "<|python_start|>",
      "single_word": false,
      "lstrip": false,
      "rstrip": false,
      "normalized": false,
      "special": true
    },
    {
      "id": 6,
      "content": "<|python_end|>",
      "single_word": false,
      "lstrip": false,
      "rstrip": false,
      "normalized": false,
      "special": true
    },
    {
      "id": 7,
      "content": "<|output_start|>",
      "single_word": false,
      "lstrip": false,
      "rstrip": false,
      "normalized": false,
      "special": true
    },
    {
      "id": 8,
      "content": "<|output_end|>",
      "single_word": false,
      "lstrip": false,
      "rstrip": false,
      "normalized": false,
      "special": true
    },
    {
      "id": 9,
      "content": "<|unk|>",
      "single_word": false,
      "lstrip": false,
      "rstrip": false,
      "normalized": false,
      "special": true
    }
  ],
  "normalizer": null,
  "pre_tokenizer": {
    "type": "Sequence",
    "pretokenizers": [
      {
        "type": "Split",
        "pattern": {
          "Regex": "'(?i:[sdmt]|ll|ve|re)|[^\\r\\n\\p{L}\\p{N}]?+\\p{L}+|\\p{N}{1,2}| ?[^\\s\\p{L}\\p{N}]++[\\r\\n]*|\\s*[\\r\\n]|\\s+(?!\\S)|\\s+"
        },
        "behavior": "Isolated",
        "invert": false
      },
      {
        "type": "ByteLevel",
        "add_prefix_space": false,
        "trim_offsets": true,
        "use_regex": false
      }
    ]
  },
  "post_processor": {
    "type": "TemplateProcessing",
    "single": [
      {
        "Sequence": {
          "id": "A",
          "type_id": 0
        }
      }
    ],
    "pair": [
      {
        "Sequence": {
          "id": "A",
          "type_id": 0
        }
      },
      {
        "Sequence": {
          "id": "B",
          "type_id": 1
        }
      }
    ],
    "special_tokens": {}
  },
  "decoder": null,
  "model": {
    "type": "Unigram",
    "unk_id": 9,
    "vocab": [
      [
        "<|bos|>",
        0.0
      ],
      [
        "<|user_start|>",
        0.0
      ],
      [
        "<|user_end|>",
        0.0
      ],
      [
        "<|assistant_start|>",
        0.0
      ],
      [
        "<|assistant_end|>",
        0.0
      ],
      [
        "<|python_start|>",
        0.0
      ],
      [
        "<|python_end|>",
        0.0
      ],
      [
        "<|output_start|>",
        0.0
      ],
      [
        "<|output_end|>",
        0.0
      ],
      [
        "<|unk|>",
        0.0
      ],
      [
        "s",
        -2.9784108418972064
      ],
      [
        "Ġthe",
        -3.4263953350141083
      ],
      [
        ",",
        -3.4993667290901573
      ],
      [
        "Ġ",
        -3.619812799761789
      ],
      [
        ".",
        -3.7596153861194423
      ],
      [
        "Ġand",
        -3.987069216383121
      ],
      [
        "Ġof",
        -4.009011666664609
      ],
      [
        "Ġto",
        -4.039928106739044
      ],
      [
        "Ġa",
        -4.150863342250579
      ],
      [
        "ing",
        -4.301507423384152
      ],
      [
        "Ġin",
        -4.5148704160684225
      ],
      [
        "ed",
        -4.6171978125870705
      ],
      [
        "Ġis",
        -4.664065279189861
      ],
      [
        "y",
        -4.840079363069767
      ],
      [
        "d",
        -4.857777124243542
      ],
      [
        "e",
        -4.949103130032464
      ],
      [
        "0",
        -4.975069804658855
      ],
      [
        "'",
        -4.986466209064131
      ],
      [
        "Ġfor",
        -5.084582803453088
      ],
      [
        "Ġthat",
        -5.087975458183795
      ],
      [
        "ly",
        -5.112764496842798
      ],
      [
        "1",
        -5.124189523707043
      ],
      [
        "t",
        -5.19355016590354
      ],
      [
        ":",
        -5.233844187431449
      ],
      [
        "Ċ",
        -5.247707037415687
      ],
      [
        "2",
        -5.314471119569296
      ],
      [
        "Ġare",
        -5.326932945741989
      ],
      [
        "Ġwith",
        -5.353785928176638
      ],
      [
        "Ġbe",
        -5.3620010186291704
      ],
      [
        "Ġit",
        -5.362762962565968
      ],
      [
        ".Ċ",
        -5.369689757497577
      ],
      [
        "-",
        -5.393662156666698
      ],
      [
        "Ġyou",
        -5.408996313172537
      ],
      [
        ".ĊĊ",
        -5.417258105678409
      ],
      [
        "Ġon",
        -5.511269007236072
      ],
      [
        "Ġcan",
        -5.563929250416594
      ],
      [
        "Ġor",
        -5.58433914444106
      ],
      [
        "ĊĊ",
        -5.685966419602412
      ],
      [
        "Ġ(",
        -5.78413291880171
      ],
      [
        "Ġas",
        -5.790864536164298
      ],
      [
        "a",
        -5.822063773377714
      ],
      [
        "Ġyour",
        -5.828089868076258
      ],
      [
        "\"",
        -5.840400525117669
      ],
      [
        "ĠThe",
        -5.86713704447085
      ],
      [
        "Ġfrom",
        -5.926780936214268
      ],
      [
        "Ġhave",
        -5.943805495839543
      ],
      [
        "Ġby",
        -5.9707664248923376
      ],
      [
        "3",
        -5.978973926062748
      ],
      [
        "ĠI",
        -5.983862971951897
      ],
      [
        "?",
        -6.000561580834717
      ],
      [
        ")",
        -6.014378132150277
      ],
      [
        "5",
        -6.030813884380821
      ],
      [
        "Ġan",
        -6.03626478221692
      ],
      [
        "er",
        -6.036795048701947
      ],
      [
        "Ġthis",
        -6.096990041731271
      ],
      [
        "n",
        -6.119202711123027
      ],
      [
        "Ġnot",
        -6.188381703159848
      ],
      [
        "Ġat",
        -6.189550197167668
      ],
      [
        "4",
        -6.239585227567931
      ],
      [
        "Ġwill",
        -6.281989113462345
      ],
      [
        "Ġtheir",
        -6.284606589623346
      ],
      [
        "r",
        -6.298524073397541
      ],
      [
        "9",
        -6.300635002017604
      ],
      [
        "o",
        -6.330448657820499
      ],
      [
        "Ġwas",
        -6.3425897366401305
      ],
      [
        "i",
        -6.3591930071686456
      ],
      [
        "Ġmore",
        -6.404141323619195
      ],
      [
        "Ġthey",
        -6.432836177319299
      ],
      [
        "6",
        -6.444281719718731
      ],
      [
        "8",
        -6.452087754353464
      ],
      [
        "The",
        -6.4536137864501235
      ],
      [
        "ies",
        -6.514043217839202
      ],
      [
        "Ġwhich",
        -6.520166484745408
      ],
      [
        "Ġhas",
        -6.536523296851033
      ],
      [
        "on",
        -6.5469156269021695
      ],
      [
        "Ġbut",
        -6.562932721659749
      ],
      [
        "Ġone",
        -6.572622478118902
      ],
      [
        "Ġwe",
        -6.582277574757228
      ],
      [
        "7",
        -6.610732784376571
      ],
      [
        "Question",
        -6.618711690162339
      ],
      [
        "ĠAnswer",
        -6.63629637624633
      ],
      [
        "Ġalso",
        -6.641648863949429
      ],
      [
        "m",
        -6.648424297516479
      ],
      [
        "l",
        -6.660484826637129
      ],
      [
        "ĠA",
        -6.670769753110362
      ],
      [
        "Ġother",
        -6.698873300639352
      ],
      [
        "al",
        -6.703230496341272
      ],
      [
        "Ġall",
        -6.732693568409367
      ],
      [
        "Ġabout",
        -6.74735002252328
      ],
      [
        "Ġthem",
        -6.76173539772755
      ],
      [
        "ĠIt",
        -6.77738690497973
      ],
      [
        "Ġup",
        -6.826729214043748
      ],
      [
        "Ġwhen",
        -6.835873492855679
      ],
      [
        "Ġdo",
        -6.839958472205074
      ],
      [
        "Ġtime",
        -6.845848940280961
      ],
      [
        "Ġinto",
        -6.849656055325967
      ],
      [
        "re",
        -6.852527627991247
      ],
      [
        "Ġso",
        -6.856207826834517
      ],
      [
        "A",
        -6.8638039711453835
      ],
      [
        "Ġif",
        -6.88461778266192
      ],
      [
        "Ġsome",
        -6.890699908188367
      ],
      [
        "ĠThis",
        -6.898043623733297
      ],
      [
        "Ġhow",
        -6.89829712495958
      ],
      [
        "Ġlike",
        -6.901221887538631
      ],
      [
        "c",
        -6.910935111533961
      ],
      [
        "ĠWhat",
        -6.936150335840551
      ],
      [
        "Ġout",
        -6.937525879239612
      ],
      [
        "Ġuse",
        -6.952585206109951
      ],
      [
        "Ġneed",
        -6.954881472630275
      ],
      [
        "Ġthan",
        -6.955687041571803
      ],
      [
        "Ġmay",
        -6.995520858941388
      ],
      [
        "Ġthese",
        -7.001601365444587
      ],
      [
        "/",
        -7.0107455716506895
      ],
      [
        "Ġwater",
        -7.011589720729466
      ],
      [
        "in",
        -7.0309852603433995
      ],
      [
        "ĠIn",
        -7.0317916307990735
      ],
      [
        "Ġthere",
        -7.073252982349452
      ],
      [
        "Ġhelp",
        -7.079275355668695
      ],
      [
        "Ġhigh",
        -7.092319880315047
      ],
      [
        "Ġwhat",
        -7.096542266639373
      ],
      [
        "Ġused",
        -7.0974972611161675
      ],
      [
        "Ġwere",
        -7.113942604963613
      ],
      [
        "I",
        -7.119314990478989
      ],
      [
        "Ġmost",
        -7.134091796125814
      ],
      [
        "Ġour",
        -7.135752982817195
      ],
      [
        "Ġmake",
        -7.142940216235004
      ],
      [
        "Ġsuch",
        -7.150977045525883
      ],
      [
        "b",
        -7.160583025836889
      ],
      [
        "able",
        -7.175254034939119
      ],
      [
        "Ġpeople",
        -7.201524880600925
      ],
      [
        "ĠC",
        -7.201531777999104
      ],
      [
        "Ġnew",
        -7.214066213329392
      ],
      [
        "Ġget",
        -7.224388086568821
      ],
      [
        "Ġbeen",
        -7.2292037496024655
      ],
      [
        "Ġany",
        -7.240246002518319
      ],
      [
        "Ġover",
        -7.259035971145806
      ],
      [
        "g",
        -7.25986708054452
      ],
      [
        "p",
        -7.261154225920873
      ],
      [
        "Ġwould",
        -7.276156203347103
      ],
      [
        "Ġits",
        -7.299898816942759
      ],
      [
        "Ġwho",
        -7.300488252011194
      ],
      [
        "ity",
        -7.302954905027233
      ],
      [
        "cause",
        -7.307373609371178
      ],
      [
        "Ġshould",
        -7.307874493596895
      ],
      [
        ";",
        -7.311105031519942
      ],
      [
        "u",
        -7.314112019142856
      ],
      [
        "ic",
        -7.332751348054373
      ],
      [
        "Ġus",
        -7.333174725135272
      ],
      [
        "Ġonly",
        -7.336488191497296
      ],
      [
        "Ġmany",
        -7.344276721375213
      ],
      [
        "Ġjust",
        -7.344642715977249
      ],
      [
        "Ġtwo",
        -7.349996863617777
      ],
      [
        "Ġwork",
        -7.351985159937502
      ],
      [
        "?Ċ",
        -7.36458631453729
      ],
      [
        "k",
        -7.379725627036073
      ],
      [
        "f",
        -7.402616541540427
      ],
      [
        "Ġfirst",
        -7.409537502128883
      ],
      [
        "or",
        -7.411535570467462
      ],
      [
        "Ġwell",
        -7.417385283153616
      ],
      [
        "Ġhealth",
        -7.421213217503311
      ],
      [
        "is",
        -7.424980770025453
      ],
      [
        "Ġbetween",
        -7.431346803706385
      ],
      [
        "Ġthrough",
        -7.434361689099372
      ],
      [
        "Ġdifferent",
        -7.44264241523398
      ],
      [
        "Ġlong",
        -7.442745326677452
      ],
      [
        "h",
        -7.446388942975245
      ],
      [
        "Ġno",
        -7.454498262436809
      ],
      [
        "Ġmy",
        -7.462898811239935
      ],
      [
        "Ġway",
        -7.464514535355166
      ],
      [
        "ion",
        -7.47793396080006
      ],
      [
        "ĠB",
        -7.483538212097271
      ],
      [
        "Ġcould",
        -7.486437103624473
      ],
      [
        "Ġwhere",
        -7.502684156812325
      ],
      [
        "ever",
        -7.502804793952222
      ],
      [
        "Ġvery",
        -7.520687950052308
      ],
      [
        "Ġpart",
        -7.529727330236671
      ],
      [
        "Ġtake",
        -7.529825647486959
      ],
      [
        "Ġhe",
        -7.533626548332519
      ],
      [
        "Ġeven",
        -7.537385005505074
      ],
      [
        "Ġhis",
        -7.538258362949204
      ],
      [
        "S",
        -7.539925123289432
      ],
      [
        "Ġchange",
        -7.54221787157671
      ],
      [
        "C",
        -7.54750495424148
      ],
      [
        "ĠIf",
        -7.555357756554381
      ],
      [
        "ve",
        -7.568446745920911
      ],
      [
        "ĠHow",
        -7.591783575571801
      ],
      [
        "ation",
        -7.594841878351637
      ],
      [
        "In",
        -7.595615205152352
      ],
      [
        "Ġhad",
        -7.602195334430247
      ],
      [
        "Ġsystem",
        -7.603937910103324
      ],
      [
        "Ġsmall",
        -7.612314968105279
      ],
      [
        "ĠS",
        -7.614644125451411
      ],
      [
        "ĠThey",
        -7.625864458806479
      ],
      [
        "Ġeach",
        -7.637683068561589
      ],
      [
        "Ġgood",
        -7.638571450589402
      ],
      [
        "!",
        -7.640498485060055
      ],
      [
        ").",
        -7.650452638167639
      ],
      [
        "Ġnumber",
        -7.653113314042763
      ],
      [
        "Ġmuch",
        -7.653872315684848
      ],
      [
        "en",
        -7.655290995236689
      ],
      [
        "th",
        -7.681284853486484
      ],
      [
        "Ġyears",
        -7.6871846756966224
      ],
      [
        "le",
        -7.6893796216220816
      ],
      [
        "out",
        -7.69196589625312
      ],
      [
        "Ġresult",
        -7.694045623972659
      ],
      [
        "Ġimportant",
        -7.697063129850518
      ],
      [
        "ĠâĢĵ",
        -7.69828667817967
      ],
      [
        "um",
        -7.69848339831923
      ],
      [
        "Ġdoes",
        -7.700766084611724
      ],
      [
        "an",
        -7.702953713270311
      ],
      [
        "Ġsee",
        -7.710731977356982
      ],
      [
        "Ġthen",
        -7.719537489905549
      ],
      [
        "ĠYou",
        -7.721861173499176
      ],
      [
        "Ġlarge",
        -7.721876366070595
      ],
      [
        "D",
        -7.726005248098029
      ],
      [
        "Ġknow",
        -7.728204305703796
      ],
      [
        "Ġevery",
        -7.729406300180882
      ],
      [
        "Ġdon",
        -7.729447271717086
      ],
      [
        "Ġhuman",
        -7.731946045796599
      ],
      [
        "us",
        -7.732871049593533
      ],
      [
        "Ġafter",
        -7.733170174842816
      ],
      [
        "Ġwhile",
        -7.734461711897203
      ],
      [
        "Ġfood",
        -7.740021633735352
      ],
      [
        "Ġdesign",
        -7.7490272367169455
      ],
      [
        "Ġcall",
        -7.751192654919349
      ],
      [
        "Ġenerg",
        -7.758042155965082
      ],
      [
        "Ġcause",
        -7.760780069741409
      ],
      [
        "ers",
        -7.762539204332232
      ],
      [
        "Ġsame",
        -7.764021791693478
      ],
      [
        "Ġlight",
        -7.767418580597833
      ],
      [
        "Ġwant",
        -7.768240101874046
      ],
      [
        "those",
        -7.768746956725671
      ],
      [
        "Ġlevel",
        -7.780374592108002
      ],
      [
        "ll",
        -7.785045224145826
      ],
      [
        "B",
        -7.787020152339505
      ],
      [
        "Ġbefore",
        -7.790320061584901
      ],
      [
        "Ġworld",
        -7.793421357354404
      ],
      [
        "Ġaround",
        -7.804239526428807
      ],
      [
        "Ġgreat",
        -7.809114958811171
      ],
      [
        "Ġcreate",
        -7.8114619149542355
      ],
      [
        "Ġprovide",
        -7.812349133111444
      ],
      [
        "Ġfound",
        -7.818830237280154
      ],
      [
        "Ġdata",
        -7.821698338710545
      ],
      [
        "Ġreal",
        -7.830903041172876
      ],
      [
        "Ġcome",
        -7.832734141311439
      ],
      [
        "Ġboth",
        -7.839315279322901
      ],
      [
        "Ġlife",
        -7.842535056095614
      ],
      [
        "),",
        -7.851394288994133
      ],
      [
        "it",
        -7.851918692596641
      ],
      [
        "during",
        -7.854051406682705
      ],
      [
        "Ġplace",
        -7.857239750749025
      ],
      [
        "(",
        -7.8620263724606385
      ],
      [
        "Ġform",
        -7.870239446012986
      ],
      [
        "Ġprocess",
        -7.874043018791485
      ],
      [
        "Ġunder",
        -7.880340866363522
      ],
      [
        "ĠD",
        -7.8822513427539
      ],
      [
        "Ġbest",
        -7.882414529002333
      ],
      [
        "ness",
        -7.883637251475441
      ],
      [
        "Ġfind",
        -7.886791617150283
      ],
      [
        "x",
        -7.888109469230399
      ],
      [
        "Ġbeing",
        -7.888203097134352
      ],
      [
        "Ġexample",
        -7.892568083563241
      ],
      [
        "Ġincrease",
        -7.892834224475882
      ],
      [
        "Ġback",
        -7.894089010708219
      ],
      [
        "Ġmade",
        -7.894812974676566
      ],
      [
        "Ġday",
        -7.900590458059108
      ],
      [
        "Ġright",
        -7.901278011068907
      ],
      [
        "Ġdown",
        -7.901308787990312
      ],
      [
        "ĠFor",
        -7.91979643547965
      ],
      [
        "Ġoften",
        -7.920175119048271
      ],
      [
        "Ġinclude",
        -7.923774467137584
      ],
      [
        "Ġun",
        -7.925152960653382
      ],
      [
        "Ġshow",
        -7.936210815187226
      ],
      [
        "Ġoff",
        -7.946715423616365
      ],
      [
        "ĠP",
        -7.947622068511352
      ],
      [
        "ĠWe",
        -7.947798773470219
      ],
      [
        "Ġthink",
        -7.948467991697671
      ],
      [
        "ce",
        -7.956401970050709
      ],
      [
        "Ġdevelop",
        -7.95748497080838
      ],
      [
        "T",
        -7.969090752532767
      ],
      [
        "Ġinformation",
        -7.969208582210216
      ],
      [
        "Ġyear",
        -7.975152573011194
      ],
      [
        "ĠM",
        -7.975746167860664
      ],
      [
        "Ġlook",
        -7.976548985452563
      ],
      [
        "est",
        -7.98230229928848
      ],
      [
        "What",
        -7.984243146743483
      ],
      [
        "Ġadd",
        -7.9879493008001585
      ],
      [
        "Ġheat",
        -7.990275410996104
      ],
      [
        "Ġspecies",
        -7.994274713941065
      ],
      [
        "Ġher",
        -7.996239263611569
      ],
      [
        ":Ċ",
        -8.000041080941347
      ],
      [
        "Ġstudy",
        -8.002282322190144
      ],
      [
        "Ġsai",
        -8.002709950006079
      ],
      [
        "Ġtest",
        -8.008005881654036
      ],
      [
        "ĠF",
        -8.010295559589498
      ],
      [
        "Ġpoint",
        -8.011238535881645
      ],
      [
        "Ġexperience",
        -8.011554008892624
      ],
      [
        "Ġhome",
        -8.013703668257543
      ],
      [
        "ĠThese",
        -8.015996355348365
      ],
      [
        "%",
        -8.01646122779674
      ],
      [
        "ĠTo",
        -8.017029137255083
      ],
      [
        "Ġbody",
        -8.02117615604671
      ],
      [
        "Ġplant",
        -8.023281528009443
      ],
      [
        "Ġstart",
        -8.02534281518135
      ],
      [
        "Ġair",
        -8.032284595672989
      ],
      [
        "Ġgo",
        -8.039231068044096
      ],
      [
        "and",
        -8.042034712191871
      ],
      [
        "ary",
        -8.045264162437284
      ],
      [
        "Ġgrow",
        -8.046373812690252
      ],
      [
        "Ġinclud",
        -8.04993776760015
      ],
      [
        "Ġbetter",
        -8.050507952866557
      ],
      [
        "Ġpower",
        -8.05085037588228
      ],
      [
        "Ġmight",
        -8.05559239935905
      ],
      [
        "...",
        -8.06324138552022
      ],
      [
        "Ġnow",
        -8.063307858446919
      ],
      [
        "This",
        -8.063330596306221
      ],
      [
        "Ġsupport",
        -8.063569674454314
      ],
      [
        "Ġbecome",
        -8.06391544194733
      ],
      [
        "Ġkeep",
        -8.064291974411177
      ],
      [
        "Ġown",
        -8.066625508904888
      ],
      [
        "Ġresearch",
        -8.067814352586861
      ],
      [
        "Ġfew",
        -8.069729124677881
      ],
      [
        "w",
        -8.074150231831126
      ],
      [
        "Ġme",
        -8.07767467032216
      ],
      [
        "ĠE",
        -8.079996515657683
      ],
      [
        "Ġdog",
        -8.098463074311562
      ],
      [
        "Ġstudents",
        -8.098553785311232
      ],
      [
        "How",
        -8.099143510532677
      ],
      [
        "Ġtemperature",
        -8.104642641140991
      ],
      [
        "Ġcase",
        -8.109317101219336
      ],
      [
        "Ġstill",
        -8.113673438198902
      ],
      [
        "v",
        -8.118032715461865
      ],
      [
        "ment",
        -8.119363852461795
      ],
      [
        "Ġset",
        -8.12038818469226
      ],
      [
        "Ġcontrol",
        -8.12370961680934
      ],
      [
        "Ġgroup",
        -8.124580104730043
      ],
      [
        "Ġconsider",
        -8.128344003268172
      ],
      [
        "Ġthree",
        -8.135398520585039
      ],
      [
        "ive",
        -8.140316945146266
      ],
      [
        "ĠT",
        -8.141569241917402
      ],
      [
        "Ġal",
        -8.144610027290987
      ],
      [
        "Ġproduct",
        -8.149393118140985
      ],
      [
        "Ġplants",
        -8.15520197314384
      ],
      [
        "F",
        -8.155323760579062
      ],
      [
        "Ġarea",
        -8.16228182079561
      ],
      [
        "N",
        -8.164187592861973
      ],
      [
        "z",
        -8.165027987404333
      ],
      [
        "ally",
        -8.166400624355965
      ],
      [
        "ĠBut",
        -8.172214081845146
      ],
      [
        "If",
        -8.176198961000797
      ],
      [
        "Ġtype",
        -8.176614452102893
      ],
      [
        "Ġcurrent",
        -8.177069178968463
      ],
      [
        "ĠAnd",
        -8.178805431754899
      ],
      [
        "Ġre",
        -8.181448869247614
      ],
      [
        "Ġspecific",
        -8.181790184219217
      ],
      [
        "age",
        -8.182032890826552
      ],
      [
        "ability",
        -8.186230295233475
      ],
      [
        "ĠR",
        -8.18648365337435
      ],
      [
        "Ġknown",
        -8.192447679500935
      ],
      [
        "Ġmaking",
        -8.193088457652136
      ],
      [
        "Ġproduce",
        -8.194545875912432
      ],
      [
        "Ġcolor",
        -8.19496721357206
      ],
      [
        "Ġschool",
        -8.19902035087926
      ],
      [
        "Ġless",
        -8.200791626126938
      ],
      [
        "Ġissue",
        -8.202295421740926
      ],
      [
        "Ġcar",
        -8.203560605075324
      ],
      [
        "Ġ=",
        -8.205175583991185
      ],
      [
        "Ġreduce",
        -8.206670358552866
      ],
      [
        "Ġend",
        -8.2067548057598
      ],
      [
        "Ġtoo",
        -8.20929256219901
      ],
      [
        "Ġenvironment",
        -8.21132521854448
      ],
      [
        "Ġlow",
        -8.219300234507966
      ],
      [
        "Ġallow",
        -8.221516899455246
      ],
      [
        "ĠH",
        -8.22282779728478
      ],
      [
        "Ġsize",
        -8.225979365579141
      ],
      [
        "Ġline",
        -8.230828721852665
      ],
      [
        "Ġper",
        -8.231183617127765
      ],
      [
        "Ġlot",
        -8.232907758103753
      ],
      [
        "Ġindividual",
        -8.232939592117512
      ],
      [
        "ĠG",
        -8.23318845084114
      ],
      [
        "Ġmust",
        -8.239814607192429
      ],
      [
        "the",
        -8.240278929978896
      ],
      [
        "Ġcommon",
        -8.243038645819562
      ],
      [
        "Ġpotential",
        -8.246507801388834
      ],
      [
        "Ġmain",
        -8.249419077324108
      ],
      [
        "Ġanother",
        -8.249798499266184
      ],
      [
        "Ġfollowing",
        -8.255364153632225
      ],
      [
        "It",
        -8.256081858242709
      ],
      [
        "Ġoffer",
        -8.264445991225049
      ],
      [
        "Ġpossibl",
        -8.26559526569606
      ],
      [
        ",\"",
        -8.267940278614665
      ],
      [
        "Ġwithin",
        -8.267992654452865
      ],
      [
        "using",
        -8.271258230308034
      ],
      [
        "ĠWhen",
        -8.273547083764644
      ],
      [
        "less",
        -8.276755150657445
      ],
      [
        "Ġquestion",
        -8.28503370465163
      ],
      [
        "Ġprevent",
        -8.291391799665199
      ],
      [
        ":ĊĊ",
        -8.295575932783699
      ],
      [
        "Ġthings",
        -8.296244311534117
      ],
      [
        "Ġchildren",
        -8.296832951442386
      ],
      [
        "ĠSo",
        -8.306042190017926
      ],
      [
        "Ġlearn",
        -8.307221351854825
      ],
      [
        "ther",
        -8.30757868719097
      ],
      [
        "Ġnatural",
        -8.308951733088735
      ],
      [
        "Ġgame",
        -8.309175998876825
      ],
      [
        "Ġsure",
        -8.313476948109852
      ],
      [
        "Ġname",
        -8.314331082103593
      ],
      [
        "Ġvalue",
        -8.315728920649686
      ],
      [
        "\\",
        -8.321459549979128
      ],
      [
        "P",
        -8.32271119995644
      ],
      [
        "Ġlittle",
        -8.324856789951774
      ],
      [
        "Ġcells",
        -8.325964035798322
      ],
      [
        "Ġdid",
        -8.326196852232135
      ],
      [
        "Ġplay",
        -8.328227380018589
      ],
      [
        "Ġwhy",
        -8.328475218019047
      ],
      [
        "H",
        -8.330289492241846
      ],
      [
        "Ġdue",
        -8.338459307482179
      ],
      [
        "Ġimpact",
        -8.33955481824984
      ],
      [
        "ĠThere",
        -8.340916037291699
      ],
      [
        "Ġlead",
        -8.341128049174076
      ],
      [
        "Ġgive",
        -8.345894303761632
      ],
      [
        "Ġeffective",
        -8.347359184619702
      ],
      [
        "E",
        -8.35121862527169
      ],
      [
        "Ġsoil",
        -8.356193850480356
      ],
      [
        "Ġhere",
        -8.357406618555725
      ],
      [
        "ĠL",
        -8.363524677323053
      ],
      [
        "Ġdevelopment",
        -8.363798862513981
      ],
      [
        "G",
        -8.370823479600212
      ],
      [
        "Ġshe",
        -8.371542361356056
      ],
      [
        "Ġsource",
        -8.373092324831234
      ],
      [
        "Ġlast",
        -8.37327189689682
      ],
      [
        "Ġproblem",
        -8.373444456377449
      ],
      [
        "Ġspace",
        -8.37363447603937
      ],
      [
        "Ġtry",
        -8.379941988175219
      ],
      [
        "Ġsurface",
        -8.381035340761214
      ],
      [
        "Ġbenefit",
        -8.384278805102387
      ],
      [
        "Ġvarious",
        -8.386892253057919
      ],
      [
        "Ġamount",
        -8.386912379251896
      ],
      [
        "V",
        -8.391685375377474
      ],
      [
        "Ġrange",
        -8.391977011533573
      ],
      [
        "Ġensure",
        -8.393814267043448
      ],
      [
        "Ġde",
        -8.395848907482712
      ],
      [
        "ry",
        -8.398802189760877
      ],
      [
        "Ġcomplete",
        -8.399210738834181
      ],
      [
        "Ġseveral",
        -8.400042303726412
      ],
      [
        "Ġtext",
        -8.400940818625227
      ],
      [
        "Ġnear",
        -8.401499786194808
      ],
      [
        "O",
        -8.403372306599056
      ],
      [
        "R",
        -8.404061534658897
      ],
      [
        "Ġgeneral",
        -8.405687333698097
      ],
      [
        "Ġsomething",
        -8.407832778306137
      ],
      [
        "Ġdisease",
        -8.409187449356807
      ],
      [
        "Ġturn",
        -8.409792410566311
      ],
      [
        "Ġorder",
        -8.411299189632789
      ],
      [
        "]",
        -8.414629187525058
      ],
      [
        "at",
        -8.415782332320871
      ],
      [
        "Ġcare",
        -8.416994044149952
      ],
      [
        "Ġpresent",
        -8.418708525291402
      ],
      [
        "Ġeat",
        -8.419676815631565
      ],
      [
        "Ġreason",
        -8.421419532588889
      ],
      [
        "Ġmeans",
        -8.421556160041993
      ],
      [
        "available",
        -8.42516100892215
      ],
      [
        "Ġhard",
        -8.427319217543273
      ],
      [
        "Ġsignificant",
        -8.430247913586227
      ],
      [
        "ĠAs",
        -8.433167657495133
      ],
      [
        "_",
        -8.434062822166805
      ],
      [
        "Ġcat",
        -8.435700210909461
      ],
      [
        "Ġbased",
        -8.437174774146836
      ],
      [
        "Ġcontain",
        -8.43759736851761
      ],
      [
        "Ġprogram",
        -8.438454852834633
      ],
      [
        "ĠWhich",
        -8.444292811758087
      ],
      [
        "Ġgoing",
        -8.4527120734651
      ],
      [
        "Ġstate",
        -8.452799563198239
      ],
      [
        "Ġrequire",
        -8.453661137375331
      ],
      [
        "M",
        -8.456779016883766
      ],
      [
        "Ġrisk",
        -8.462179495758601
      ],
      [
        "to",
        -8.46301164224782
      ],
      [
        "Ġalway",
        -8.467145132756823
      ],
      [
        "ĠHe",
        -8.468344648848332
      ],
      [
        "Ġsecond",
        -8.46845324696986
      ],
      [
        "Ġhand",
        -8.469404421358831
      ],
      [
        "ar",
        -8.470400517569399
      ],
      [
        "ance",
        -8.484064860072225
      ],
      [
        "Ġareas",
        -8.484506446164744
      ],
      [
        "Ġdevice",
        -8.486837778575133
      ],
      [
        "nough",
        -8.49337161023255
      ],
      [
        "Ġblood",
        -8.49339128355284
      ],
      [
        "Ġlocal",
        -8.495300121990063
      ],
      [
        "Ġessential",
        -8.496433273623985
      ],
      [
        "Ġtreatment",
        -8.498525838914624
      ],
      [
        "Ġcourse",
        -8.502343519227079
      ],
      [
        "Ġfeel",
        -8.508136098909539
      ],
      [
        "Ġcertain",
        -8.508240593085013
      ],
      [
        "Ġlearning",
        -8.5113443612534
      ],
      [
        "ĠBe",
        -8.511446124632563
      ],
      [
        "Ġusually",
        -8.514869457273718
      ],
      [
        "ĠK",
        -8.516600800020834
      ],
      [
        "Ġdifference",
        -8.518925932457417
      ],
      [
        "Ġage",
        -8.526584155122997
      ],
      [
        "Ġleave",
        -8.527879558466529
      ],
      [
        "Ġclose",
        -8.530913564071081
      ],
      [
        "Ġunti",
        -8.53280660744801
      ],
      [
        "Ġunderstand",
        -8.537129797882457
      ],
      [
        "Ġfish",
        -8.538880980403047
      ],
      [
        "Ġconditions",
        -8.539215883330058
      ],
      [
        "ĠN",
        -8.541377867737545
      ],
      [
        "Ġquality",
        -8.542160176862698
      ],
      [
        "Ġanimals",
        -8.546376866734597
      ],
      [
        "Ġside",
        -8.548563098372313
      ],
      [
        "Ġfull",
        -8.54991178699081
      ],
      [
        "Ġput",
        -8.551891671058682
      ],
      [
        "Ġmaterial",
        -8.555442442723155
      ],
      [
        "ĠWith",
        -8.556033665461992
      ],
      [
        "Ġpatient",
        -8.55617390608657
      ],
      [
        "K",
        -8.557678351024856
      ],
      [
        "Ġ&",
        -8.558003854247794
      ],
      [
        "Ġprotect",
        -8.558041920538287
      ],
      [
        "ch",
        -8.558328989895148
      ],
      [
        "Ġperson",
        -8.55878786484861
      ],
      [
        "ur",
        -8.558945293704145
      ],
      [
        "Ġ$",
        -8.560283110692385
      ],
      [
        "Ġfield",
        -8.560481111732619
      ],
      [
        "Ġshort",
        -8.5607304643375
      ],
      [
        "Ġsay",
        -8.563225597149291
      ],
      [
        "Ġfamily",
        -8.564325164299577
      ],
      [
        "Ġwide",
        -8.564547989475493
      ],
      [
        "Ġtechnology",
        -8.565032269249189
      ],
      [
        "Ġword",
        -8.56763231449499
      ],
      [
        "Ġteam",
        -8.569549064237362
      ],
      [
        "Ġtogether",
        -8.570433376509563
      ],
      [
        "Ġmaterials",
        -8.57536489712634
      ],
      [
        "Ġdiet",
        -8.576643141973154
      ],
      [
        "Ġinvolve",
        -8.577206414605033
      ],
      [
        "Ġtypes",
        -8.578366251626276
      ],
      [
        "Ġmethod",
        -8.581512146133925
      ],
      [
        "\\n",
        -8.581871381411077
      ],
      [
        "When",
        -8.583533096683468
      ],
      [
        "Ġhappen",
        -8.585244898078194
      ],
      [
        "Ġearly",
        -8.587899793802737
      ],
      [
        "Ġimprove",
        -8.59078184075732
      ],
      [
        "Ġrun",
        -8.592172742012004
      ],
      [
        "Ġmachine",
        -8.592489245906432
      ],
      [
        ".\"Ċ",
        -8.592744211031775
      ],
      [
        "ul",
        -8.594581297778287
      ],
      [
        ")Ċ",
        -8.59873936462775
      ],
      [
        "You",
        -8.59915021301452
      ],
      [
        "Ġkey",
        -8.5998749289314
      ],
      [
        "*",
        -8.600558853514842
      ],
      [
        "Ġsince",
        -8.601377043090478
      ],
      [
        "L",
        -8.601617272281027
      ],
      [
        "Ġweight",
        -8.602093543673492
      ],
      [
        "Ġtop",
        -8.60266132997435
      ],
      [
        "Ġproject",
        -8.60284642700545
      ],
      [
        "Ġfact",
        -8.604150823411445
      ],
      [
        "Ġleast",
        -8.605166507838886
      ],
      [
        "Ġuser",
        -8.605673889493248
      ],
      [
        "ĠUniversity",
        -8.60650502856505
      ],
      [
        "having",
        -8.608693655158039
      ],
      [
        "Ġnon",
        -8.612246235994267
      ],
      [
        "Ġsystems",
        -8.612355740618266
      ],
      [
        "While",
        -8.612413190435412
      ],
      [
        "Ġtechnique",
        -8.615246524807027
      ],
      [
        "ous",
        -8.615607452540191
      ],
      [
        "next",
        -8.615870488732881
      ],
      [
        "Ġfree",
        -8.616490950767218
      ],
      [
        "ĠO",
        -8.616885088260826
      ],
      [
        "Ġlower",
        -8.618933615618477
      ],
      [
        "Ġcost",
        -8.620091279169527
      ],
      [
        "Ġhour",
        -8.626935639817045
      ],
      [
        "ĠU",
        -8.627935216846105
      ],
      [
        "Ġold",
        -8.628051644367016
      ],
      [
        "though",
        -8.629148831292785
      ],
      [
        "Ġmaintain",
        -8.630214006751718
      ],
      [
        "Ġcomputer",
        -8.633843143496131
      ],
      [
        "Ġrole",
        -8.638980573437692
      ],
      [
        "Ġhim",
        -8.639124193550167
      ],
      [
        "Ġalong",
        -8.641006193514059
      ],
      [
        "We",
        -8.642205346264388
      ],
      [
        "Ġforce",
        -8.643368149722768
      ],
      [
        ")ĊĊ",
        -8.645248951980626
      ],
      [
        "Ġproblems",
        -8.647655990533469
      ],
      [
        "âĢĻs",
        -8.649543457528516
      ],
      [
        "Ġfocus",
        -8.651819756667159
      ],
      [
        "Ġloss",
        -8.65699670743623
      ],
      [
        "self",
        -8.657626284477036
      ],
      [
        "Ġsimple",
        -8.657738976547591
      ],
      [
        "âĢĶ",
        -8.658874432803522
      ],
      [
        "ĠAmerican",
        -8.659284264582272
      ],
      [
        "Ġsolution",
        -8.65993489030033
      ],
      [
        "Ġskin",
        -8.66012817713186
      ],
      [
        "li",
        -8.660800834630754
      ],
      [
        "Ġpopulation",
        -8.661186417442078
      ],
      [
        "Ġcheck",
        -8.663049511128817
      ],
      [
        "Ġfuture",
        -8.664366796707814
      ],
      [
        "Ġoil",
        -8.665494257569957
      ],
      [
        "Ġsimilar",
        -8.668092440591991
      ],
      [
        "Ġbase",
        -8.668536309532819
      ],
      [
        "Ġcell",
        -8.66857709271509
      ],
      [
        "ĠBy",
        -8.66968902315843
      ],
      [
        "Ġdamage",
        -8.67039292276284
      ],
      [
        "ne",
        -8.670481700872331
      ],
      [
        "Ġgarden",
        -8.672076461506059
      ],
      [
        "Ġseem",
        -8.673297734309635
      ],
      [
        "Ġdirect",
        -8.675261956393
      ],
      [
        "Ġmeasure",
        -8.676835216897754
      ],
      [
        "Ġactually",
        -8.677156368843947
      ],
      [
        "Ġmodel",
        -8.677513549909886
      ],
      [
        "Ġsocial",
        -8.677718562005085
      ],
      [
        "Ġworking",
        -8.677741236486986
      ],
      [
        "ĠThat",
        -8.677939781424097
      ],
      [
        "Ġclear",
        -8.679544466732963
      ],
      [
        "ten",
        -8.680820229090841
      ],
      [
        "Ġfunction",
        -8.681674867244132
      ],
      [
        "Ġgrowth",
        -8.681887066559268
      ],
      [
        "ful",
        -8.682941082523769
      ],
      [
        "Ġ[",
        -8.682986578320406
      ],
      [
        "Ġphysical",
        -8.684199907136762
      ],
      [
        "Ġdepend",
        -8.68461451995812
      ],
      [
        "Ġmajor",
        -8.686931713247692
      ],
      [
        "Ġpaper",
        -8.691016835832432
      ],
      [
        "Ġsafe",
        -8.692184458965393
      ],
      [
        "W",
        -8.692647851901764
      ],
      [
        "Ġlet",
        -8.695951603525963
      ],
      [
        "one",
        -8.696157348957634
      ],
      [
        "man",
        -8.69624467748695
      ],
      [
        "Ġthing",
        -8.698482200261413
      ],
      [
        "not",
        -8.698880385249979
      ],
      [
        "Ġtypical",
        -8.699154881680183
      ],
      [
        "Ġeasy",
        -8.700329266599375
      ],
      [
        "Ġlive",
        -8.700863832047585
      ],
      [
        "Ġoccur",
        -8.701303398136467
      ],
      [
        "Ġfollow",
        -8.702521024353524
      ],
      [
        "Ġkind",
        -8.70334579301361
      ],
      [
        "Ġlimit",
        -8.703791205918607
      ],
      [
        "Ġsuggest",
        -8.707952900468648
      ],
      [
        "Ġmakes",
        -8.709404781503665
      ],
      [
        "Ġperiod",
        -8.709734037664427
      ],
      [
        "Ġunique",
        -8.7103008371935
      ],
      [
        "Ġpressure",
        -8.711525240455739
      ],
      [
        "Ġquick",
        -8.71427973695923
      ],
      [
        "Ġchild",
        -8.715627894311236
      ],
      [
        "Ġopen",
        -8.71564966912129
      ],
      [
        "Ġclimate",
        -8.717493987623955
      ],
      [
        "ĠRe",
        -8.72332934550202
      ],
      [
        "Ġlikely",
        -8.725281598156037
      ],
      [
        "Ġproper",
        -8.725372419028977
      ],
      [
        "Ġindustr",
        -8.72732451477151
      ],
      [
        "either",
        -8.72857765489741
      ],
      [
        "am",
        -8.729184932621383
      ],
      [
        "There",
        -8.729277590701681
      ],
      [
        "Ġcreat",
        -8.730575267940413
      ],
      [
        "Ġproduction",
        -8.732071522105628
      ],
      [
        "Ġeye",
        -8.732406226131399
      ],
      [
        "Ġsingle",
        -8.733593942839454
      ],
      [
        "Ġlove",
        -8.733627339094502
      ],
      [
        "Ġcomponent",
        -8.734051815414343
      ],
      [
        "Ġabove",
        -8.73424751213599
      ],
      [
        "Ġdoesn",
        -8.735612949398469
      ],
      [
        "ĠNew",
        -8.735701895730514
      ],
      [
        "Ġaffect",
        -8.736393270389149
      ],
      [
        "Ġstrong",
        -8.737981276974534
      ],
      [
        "ĠâĢĶ",
        -8.738894862112293
      ],
      [
        "Ġresearcher",
        -8.741285287834362
      ],
      [
        "ate",
        -8.742860457404998
      ],
      [
        "Ġtreat",
        -8.744257445681328
      ],
      [
        "Ġground",
        -8.74459636023191
      ],
      [
        "Ġscience",
        -8.749858656291543
      ],
      [
        "ian",
        -8.753700045662521
      ],
      [
        "Ġacross",
        -8.754548894812796
      ],
      [
        "Ġnever",
        -8.755472006641906
      ],
      [
        "Ġsolar",
        -8.756460628134004
      ],
      [
        "Ġnecessar",
        -8.757673051859719
      ],
      [
        "Ġheart",
        -8.762104238688027
      ],
      [
        "Ġunderstanding",
        -8.764905525753598
      ],
      [
        "Ġdetermine",
        -8.765019096641478
      ],
      [
        "Ġagains",
        -8.766620785891519
      ],
      [
        "Ġavoid",
        -8.769619925148682
      ],
      [
        "Ġclean",
        -8.770156193549386
      ],
      [
        "Ġbrain",
        -8.770922992127947
      ],
      [
        "Ġchemical",
        -8.772202368896924
      ],
      [
        "ĠSome",
        -8.772689577581172
      ],
      [
        "Ġpost",
        -8.773103458727514
      ],
      [
        "Ġwarm",
        -8.773190310188244
      ],
      [
        "ĠAl",
        -8.774343098602156
      ],
      [
        "Ġmove",
        -8.77633775793035
      ],
      [
        "Ġsign",
        -8.777727677033672
      ],
      [
        "Ġdry",
        -8.77784217591714
      ],
      [
        "Ġpre",
        -8.777993335272411
      ],
      [
        "Ġtimes",
        -8.779619373013414
      ],
      [
        "Ġdone",
        -8.780618299574456
      ],
      [
        "Ġespecial",
        -8.780931371979475
      ],
      [
        "Ġstep",
        -8.780934905248301
      ],
      [
        "Ġfast",
        -8.781166936876772
      ],
      [
        "Ġcool",
        -8.7821076273888
      ],
      [
        "Ġcycle",
        -8.782992822529351
      ],
      [
        "Ġaccording",
        -8.783849290294029
      ],
      [
        "Ġpattern",
        -8.784342276184473
      ],
      [
        "Ġrecent",
        -8.785052026071625
      ],
      [
        "Ġblack",
        -8.790831858009383
      ],
      [
        "Ġfactors",
        -8.790849566587942
      ],
      [
        "Ġimage",
        -8.791964594484519
      ],
      [
        "Ġleft",
        -8.792003697169381
      ],
      [
        "Ġsignal",
        -8.792815213050979
      ],
      [
        "ĠNo",
        -8.79367298490934
      ],
      [
        "Ġexist",
        -8.793922446021552
      ],
      [
        "Y",
        -8.794224021023016
      ],
      [
        "co",
        -8.794629056705343
      ],
      [
        "Ġcontinue",
        -8.796260824356253
      ],
      [
        "For",
        -8.798804287209073
      ],
      [
        "Ġarticle",
        -8.799304142516675
      ],
      [
        "Ġassociate",
        -8.80104657989142
      ],
      [
        "Ġregion",
        -8.801263200833816
      ],
      [
        "Ġminute",
        -8.802344386513427
      ],
      [
        "Ġhead",
        -8.802849704844611
      ],
      [
        "Ġamong",
        -8.803483924338677
      ],
      [
        ".\"",
        -8.804283049677442
      ],
      [
        "Ġinterest",
        -8.806659049036888
      ],
      [
        "ĠW",
        -8.806725932686716
      ],
      [
        "way",
        -8.807317261358161
      ],
      [
        "her",
        -8.808831706042465
      ],
      [
        "Ġbusiness",
        -8.808951686705589
      ],
      [
        "ant",
        -8.812499017750419
      ],
      [
        "Ġpopular",
        -8.816700564297978
      ],
      [
        "ent",
        -8.81692624819509
      ],
      [
        "ory",
        -8.818909598929118
      ],
      [
        "Ġeffect",
        -8.8218846358833
      ],
      [
        "ĠYour",
        -8.823156456335319
      ],
      [
        "Q",
        -8.823325091992983
      ],
      [
        "Ġactivity",
        -8.823497331617023
      ],
      [
        "Ġgetting",
        -8.823610125043132
      ],
      [
        "Ġask",
        -8.823893980827053
      ],
      [
        "Ġtoday",
        -8.82408735591024
      ],
      [
        "Ġwhite",
        -8.82538097452278
      ],
      [
        "Ġbook",
        -8.8258620540192
      ],
      [
        "Ġpropert",
        -8.82646230248628
      ],
      [
        "Ġpurpose",
        -8.831753173168554
      ],
      [
        "Ġmean",
        -8.832093076171695
      ],
      [
        "Ġface",
        -8.83454150836728
      ],
      [
        "To",
        -8.834673362295073
      ],
      [
        "Ġstation",
        -8.837310782326064
      ],
      [
        "Ġbring",
        -8.838533388035916
      ],
      [
        ">",
        -8.838657300467071
      ],
      [
        "Ġeffects",
        -8.838690126355516
      ],
      [
        "Ġfar",
        -8.83984178998951
      ],
      [
        "Ġred",
        -8.840035212161904
      ],
      [
        "Ġwhe",
        -8.840438088643754
      ],
      [
        "Ġdays",
        -8.840950168308133
      ],
      [
        "Ġbasic",
        -8.842023210460432
      ],
      [
        "Ġspeed",
        -8.842041722007977
      ],
      [
        "Ġpain",
        -8.842538736979613
      ],
      [
        "Ġfurther",
        -8.84262712086353
      ],
      [
        "Ġdeep",
        -8.842725013424182
      ],
      [
        "Ġsays",
        -8.843868269175303
      ],
      [
        "Ġunit",
        -8.84430995201067
      ],
      [
        "Ġfee",
        -8.845620834403771
      ],
      [
        "Ġlist",
        -8.845656874449283
      ],
      [
        "Ġthought",
        -8.848439248879984
      ],
      [
        "Ġbuild",
        -8.849033743850992
      ],
      [
        "Ġrecord",
        -8.849655377698564
      ],
      [
        "ready",
        -8.849744078138592
      ],
      [
        "ter",
        -8.850788203101052
      ],
      [
        "Ġfour",
        -8.851321764294905
      ],
      [
        "Ġparent",
        -8.853307611950889
      ],
      [
        "Ġbacteria",
        -8.853612550857026
      ],
      [
        "Ġbelieve",
        -8.853916966351271
      ],
      [
        "Ġvehicle",
        -8.85406632353444
      ],
      [
        "Ġregular",
        -8.854527689146487
      ],
      [
        "up",
        -8.858315736427121
      ],
      [
        "Ġremove",
        -8.858440157844528
      ],
      [
        "Ġvariety",
        -8.865577879377565
      ],
      [
        "Ġflow",
        -8.867492661432692
      ],
      [
        "thing",
        -8.867984103108085
      ],
      [
        "Ġvideo",
        -8.868168528919522
      ],
      [
        "Ġacid",
        -8.86860129446367
      ],
      [
        "Ġbit",
        -8.870865348275121
      ],
      [
        "Ġreport",
        -8.871001912048069
      ],
      [
        "âĢĻ",
        -8.8711100899083
      ],
      [
        "Ġbreak",
        -8.871335978640708
      ],
      [
        "!ĊĊ",
        -8.873801198936013
      ],
      [
        "Ġweek",
        -8.875332227429737
      ],
      [
        "Ġplan",
        -8.877041545562413
      ],
      [
        "Ġlooking",
        -8.882676653475443
      ],
      [
        "Ġanimal",
        -8.884396165915712
      ],
      [
        "Ġcold",
        -8.88685685182385
      ],
      [
        "Ġsound",
        -8.887387955705524
      ],
      [
        "Ġperformance",
        -8.888451111757256
      ],
      [
        "ĠOn",
        -8.892955045252034
      ],
      [
        "Ġelectric",
        -8.893060773417904
      ],
      [
        "Ġaddition",
        -8.893620240212858
      ],
      [
        "Ġperform",
        -8.896377403375842
      ],
      [
        "Ġobject",
        -8.897153638634682
      ],
      [
        "Ġbig",
        -8.898911430028097
      ],
      [
        "Ġaccess",
        -8.900392629339718
      ],
      [
        "ism",
        -8.901092258658503
      ],
      [
        "Ġstructure",
        -8.902386832489174
      ],
      [
        "ĠAn",
        -8.902878026822597
      ],
      [
        "Ġnormal",
        -8.902932908065505
      ],
      [
        "Ġgas",
        -8.903139275885199
      ],
      [
        "Ġenjoy",
        -8.904964895389465
      ],
      [
        "Ġpiece",
        -8.906856620946979
      ],
      [
        "given",
        -8.909576127745154
      ],
      [
        "taking",
        -8.909930957753083
      ],
      [
        "Ġhistory",
        -8.910695661959245
      ],
      [
        "Ġcommunity",
        -8.912084898044558
      ],
      [
        "Ġcancer",
        -8.912136162060682
      ],
      [
        "Ġclass",
        -8.913713927173326
      ],
      [
        "Ġtree",
        -8.917033408091566
      ],
      [
        "âĢ¦",
        -8.917579736183844
      ],
      [
        "Ġwhole",
        -8.918340896178783
      ],
      [
        "Ġtalk",
        -8.919516823839746
      ],
      [
        "Ġrate",
        -8.919836226852858
      ],
      [
        "Ġliv",
        -8.92030167245639
      ],
      [
        "Ġpositive",
        -8.920860566970243
      ],
      [
        "ĠUnit",
        -8.92146468664845
      ],
      [
        "Ġdifficult",
        -8.922077093690753
      ],
      [
        "Ġmatter",
        -8.92290090641599
      ],
      [
        "Ġshare",
        -8.923896508665415
      ],
      [
        "ĠV",
        -8.924547042886704
      ],
      [
        "Ġenvironmental",
        -8.92490962837088
      ],
      [
        "Ġallows",
        -8.925982124985753
      ],
      [
        "Ġstress",
        -8.926670938574482
      ],
      [
        "Ġroom",
        -8.927078371696993
      ],
      [
        "Ġtraining",
        -8.927403099435615
      ],
      [
        "Ġseed",
        -8.929164650961335
      ],
      [
        "Ġskills",
        -8.930234517074423
      ],
      [
        "Ġmix",
        -8.93025960267176
      ],
      [
        "Ġprovid",
        -8.93219972465479
      ],
      [
        "Ġgenetic",
        -8.932521678727426
      ],
      [
        "Ġinside",
        -8.932561968299849
      ],
      [
        "Ġknowledge",
        -8.934318550556362
      ],
      [
        "Ġblock",
        -8.939109550293427
      ],
      [
        "Ġread",
        -8.941026630010844
      ],
      [
        "Ġthough",
        -8.941487550902664
      ],
      [
        "!Ċ",
        -8.942909061115097
      ],
      [
        "Ġidea",
        -8.943295679271948
      ],
      [
        "ember",
        -8.943731085500612
      ],
      [
        "Ġposition",
        -8.943943604792706
      ],
      [
        "Ġapproach",
        -8.944598313253753
      ],
      [
        "Ġactivities",
        -8.946012477756877
      ],
      [
        "ok",
        -8.94921154202109
      ],
      [
        "ĠDo",
        -8.949394515647018
      ],
      [
        "Ġfeatures",
        -8.951271300304422
      ],
      [
        "Ġmetal",
        -8.951664734726968
      ],
      [
        "Ġcontent",
        -8.954394799482747
      ],
      [
        "Ġear",
        -8.955933454181265
      ],
      [
        "Ġmind",
        -8.95629779192694
      ],
      [
        "Ġdogs",
        -8.956316612212415
      ],
      [
        "Ġexplain",
        -8.956686832847797
      ],
      [
        "Ġbelow",
        -8.957422541552603
      ],
      [
        "As",
        -8.95761164681874
      ],
      [
        "Ġcompany",
        -8.958071786521376
      ],
      [
        "Ġanswer",
        -8.958168674643868
      ],
      [
        "Ġperfect",
        -8.961398642295952
      ],
      [
        "Ġb",
        -8.961577872026357
      ],
      [
        "Ġstay",
        -8.96244615504116
      ],
      [
        "Ġengine",
        -8.96284031684117
      ],
      [
        "Ġdi",
        -8.96409585776884
      ],
      [
        "Ġresponse",
        -8.964175596034032
      ],
      [
        "Ġprint",
        -8.966916111401783
      ],
      [
        "Ġaverage",
        -8.969378185866773
      ],
      [
        "Ġsea",
        -8.9709986381754
      ],
      [
        "selve",
        -8.97240998190585
      ],
      [
        "Ġcarbon",
        -8.974113899935197
      ],
      [
        "away",
        -8.974745381777904
      ],
      [
        "un",
        -8.975267525325652
      ],
      [
        "by",
        -8.975383324971052
      ],
      [
        "Ġrequired",
        -8.97559710220432
      ],
      [
        "Ġslow",
        -8.977281221115081
      ],
      [
        "ĠJ",
        -8.977402033136059
      ],
      [
        "Ġrat",
        -8.977538245602554
      ],
      [
        "Ġexercise",
        -8.980346315692366
      ],
      [
        "Ġyoung",
        -8.980639067769646
      ],
      [
        "Ġcomplex",
        -8.981878556258032
      ],
      [
        "Ġaction",
        -8.98603189885867
      ],
      [
        "Ġeasi",
        -8.986408905293011
      ],
      [
        "Ġterm",
        -8.986815129338408
      ],
      [
        "Ġresources",
        -8.98750322931157
      ],
      [
        "Ġfall",
        -8.987861166301531
      ],
      [
        "Ġnetwork",
        -8.987952254075223
      ],
      [
        "Ġmarket",
        -8.988360505995708
      ],
      [
        "Ġpublic",
        -8.988407497942585
      ],
      [
        "Ġcook",
        -8.98852065088085
      ],
      [
        "Ġlocation",
        -8.9891975328491
      ],
      [
        "Ġtotal",
        -8.990009438874004
      ],
      [
        "ĠOne",
        -8.992590974484806
      ],
      [
        "Ġland",
        -8.993057366268971
      ],
      [
        "Ġplastic",
        -8.994639127897845
      ],
      [
        "Ġcondition",
        -8.994930128565391
      ],
      [
        "Ġbehavior",
        -8.99672493152946
      ],
      [
        "Ġdrive",
        -9.000620895834874
      ],
      [
        "So",
        -9.001517227114807
      ],
      [
        "Ġfruit",
        -9.002845757867764
      ],
      [
        "Ġopportunit",
        -9.003156728627953
      ],
      [
        "Ġsearch",
        -9.004486543643786
      ],
      [
        "Ġshape",
        -9.004953376064552
      ],
      [
        "ĠDr",
        -9.006560942218202
      ],
      [
        "ish",
        -9.011471587914258
      ],
      [
        "Ġtell",
        -9.011484410701383
      ],
      [
        "Ġtraditional",
        -9.012123416780629
      ],
      [
        "Ġgreen",
        -9.014677537511965
      ],
      [
        "Ġways",
        -9.016742396453813
      ],
      [
        "Ġspecial",
        -9.017959706385664
      ],
      [
        "Ġcut",
        -9.019282942870792
      ],
      [
        "Ġcorrect",
        -9.01947489947664
      ],
      [
        "U",
        -9.02061718555446
      ],
      [
        "Ġitem",
        -9.02106511800994
      ],
      [
        "ĠNational",
        -9.021376863656924
      ],
      [
        "Ġprovides",
        -9.02255769863859
      ],
      [
        "Ġlate",
        -9.027225993445224
      ],
      [
        "il",
        -9.033304076229
      ],
      [
        "Ġbegin",
        -9.033384066864116
      ],
      [
        "Ġagain",
        -9.034683668760149
      ],
      [
        "Ġpersonal",
        -9.035625587108749
      ],
      [
        "Ġgot",
        -9.036083812315717
      ],
      [
        "Ġmultiple",
        -9.0372139185396
      ],
      [
        "Ġauthor",
        -9.037618227442245
      ],
      [
        "Ġwood",
        -9.037665397425258
      ],
      [
        "Ġprimar",
        -9.038989300901514
      ],
      [
        "Ġsense",
        -9.040631837837925
      ],
      [
        "Ġfit",
        -9.041278310712563
      ],
      [
        "Ġlater",
        -9.04193699432004
      ],
      [
        "Ġhouse",
        -9.04367632428474
      ],
      [
        "Ġreturn",
        -9.044048806843003
      ],
      [
        "Ġmethods",
        -9.044049076136613
      ],
      [
        "+",
        -9.047662389739864
      ],
      [
        "ĠX",
        -9.049064315875269
      ],
      [
        "Ġpractice",
        -9.049088771180203
      ],
      [
        "Ġprotein",
        -9.051243277346344
      ],
      [
        "Ġseen",
        -9.051536579109268
      ],
      [
        "Ġparticular",
        -9.05220620793324
      ],
      [
        "Ġprofessional",
        -9.05339119974428
      ],
      [
        "Ġcommunication",
        -9.055442865245752
      ],
      [
        "Ġself",
        -9.05579528192754
      ],
      [
        "Ġlanguage",
        -9.059512852998752
      ],
      [
        "Ġbuilding",
        -9.060122973477176
      ],
      [
        "Ġview",
        -9.062158404927088
      ],
      [
        "Ġmuscle",
        -9.06246090452391
      ],
      [
        "be",
        -9.062566675845876
      ],
      [
        "Ġprobabl",
        -9.06340685337758
      ],
      [
        "Ġrelative",
        -9.06353234568368
      ],
      [
        "Ġnature",
        -9.063883043035684
      ],
      [
        "Ġpast",
        -9.064699292088864
      ],
      [
        "Ġart",
        -9.064814454909149
      ],
      [
        "Ġstop",
        -9.06484812238681
      ],
      [
        "Ġentire",
        -9.065308553495662
      ],
      [
        "Ġidentify",
        -9.065720237612958
      ],
      [
        "ĠDe",
        -9.066132752502211
      ],
      [
        "Ġdoing",
        -9.066887115139288
      ],
      [
        "Ġreach",
        -9.069726771255334
      ],
      [
        "Ġchoice",
        -9.07017618475576
      ],
      [
        "Ġact",
        -9.070397733276238
      ],
      [
        "Ġsugar",
        -9.072470617117336
      ],
      [
        "ĠAll",
        -9.07364161335493
      ],
      [
        "ĠDNA",
        -9.07401433597256
      ],
      [
        "Ġtools",
        -9.075428801799584
      ],
      [
        "afety",
        -9.07742404734302
      ],
      [
        "Ġmodern",
        -9.07755747523331
      ],
      [
        "ĠCan",
        -9.077571823044371
      ],
      [
        "Ġlayer",
        -9.078724556860092
      ],
      [
        "Ġglobal",
        -9.079275396677346
      ],
      [
        "Ġconcern",
        -9.079665276458972
      ],
      [
        "land",
        -9.07972117444843
      ],
      [
        "Ġdescribe",
        -9.082350333059964
      ],
      [
        "Ġreceive",
        -9.083786082884147
      ],
      [
        "Ġsubject",
        -9.084176959562196
      ],
      [
        "Ġthroughout",
        -9.084941844452224
      ],
      [
        "Ġpaint",
        -9.085740679498093
      ],
      [
        "Ġoverall",
        -9.088919503536347
      ],
      [
        "Ġbalance",
        -9.089876620022649
      ],
      [
        "Ġsomeone",
        -9.08998402654004
      ],
      [
        "Ġestablish",
        -9.090207078991
      ],
      [
        "ling",
        -9.090491488370034
      ],
      [
        "Ġmonths",
        -9.09175684523529
      ],
      [
        "Ġetc",
        -9.09211652508188
      ],
      [
        "Ġserve",
        -9.09392530034395
      ],
      [
        "Ġcontact",
        -9.09424266055553
      ],
      [
        "Ġbad",
        -9.095452198458936
      ],
      [
        "Ġadvantage",
        -9.096985052808533
      ],
      [
        "Ġbuy",
        -9.09853450107818
      ],
      [
        "Ġwaste",
        -9.09863143886361
      ],
      [
        "Ġpage",
        -9.098667260229456
      ],
      [
        "Ġcharacter",
        -9.099299032161706
      ],
      [
        "Ġalmost",
        -9.100242883854625
      ],
      [
        "Ġwind",
        -9.100634446976825
      ],
      [
        "Ġsymptom",
        -9.101204171194423
      ],
      [
        "Ġeducation",
        -9.101731584814488
      ],
      [
        "Ġwave",
        -9.102982221484629
      ],
      [
        "Ġseason",
        -9.10318797296171
      ],
      [
        "Ġflower",
        -9.103305701538469
      ],
      [
        "Ġfuel",
        -9.104238931528908
      ],
      [
        "Ġselect",
        -9.10466262125658
      ],
      [
        "Ġam",
        -9.104947733383217
      ],
      [
        "ĠAI",
        -9.106027036557922
      ],
      [
        "ĠAt",
        -9.10663775839037
      ],
      [
        "ber",
        -9.106820916154785
      ],
      [
        "Ġco",
        -9.107230392319703
      ],
      [
        "ma",
        -9.10775402352359
      ],
      [
        "ĠScience",
        -9.10793708107346
      ],
      [
        "Ġmone",
        -9.109042353338106
      ],
      [
        "Ġcharge",
        -9.109236783280965
      ],
      [
        "Ġstudies",
        -9.11056180934159
      ],
      [
        "Ġrelease",
        -9.11108670468328
      ],
      [
        "j",
        -9.114937570534202
      ],
      [
        "Ġservice",
        -9.11678314813781
      ],
      [
        "Ġstand",
        -9.118653188453674
      ],
      [
        "Ġcrucial",
        -9.11949351468354
      ],
      [
        "Ġfive",
        -9.119646501990353
      ],
      [
        "Ġever",
        -9.122380492301485
      ],
      [
        "Ġchoose",
        -9.123748790810708
      ],
      [
        "-based",
        -9.12523096644916
      ],
      [
        "Ġinfection",
        -9.125376203853587
      ],
      [
        "mm",
        -9.126922110987824
      ],
      [
        "Ġsite",
        -9.126981048137369
      ],
      [
        "Ġinstead",
        -9.127065407340062
      ],
      [
        "ier",
        -9.12781623118957
      ],
      [
        "Ġreaction",
        -9.129029668500664
      ],
      [
        "Ġhot",
        -9.130732409211625
      ],
      [
        "me",
        -9.131862804600916
      ],
      [
        "Ġrelated",
        -9.132071901338932
      ],
      [
        "Ġscientists",
        -9.13239451236699
      ],
      [
        "Ġoptions",
        -9.13427993529069
      ],
      [
        "Ġmillion",
        -9.135518969581009
      ],
      [
        "Ġdegree",
        -9.136321931237651
      ],
      [
        "Ġlink",
        -9.136500329801024
      ],
      [
        "Ġincreasing",
        -9.136628937765863
      ],
      [
        "Ġwall",
        -9.13698184553494
      ],
      [
        "Ġtip",
        -9.137194113953075
      ],
      [
        "Ġgain",
        -9.137843780806891
      ],
      [
        "[",
        -9.141010245133977
      ],
      [
        "Ġsleep",
        -9.1416439706831
      ],
      [
        "Ġcountry",
        -9.142577519059117
      ],
      [
        "Ġpet",
        -9.143659854947696
      ],
      [
        "Ġjob",
        -9.143871985515371
      ],
      [
        "ĠEarth",
        -9.14418829757813
      ],
      [
        "aid",
        -9.144623462089111
      ],
      [
        "Ġdigital",
        -9.146180457459304
      ],
      [
        "Ġtravel",
        -9.150046731015626
      ],
      [
        "ĠShe",
        -9.150158120312373
      ],
      [
        "tic",
        -9.150527960700778
      ],
      [
        "Ġsituation",
        -9.151607407750062
      ],
      [
        "Ġrepresent",
        -9.152593731681602
      ],
      [
        "Ġweather",
        -9.153867565717302
      ],
      [
        "online",
        -9.154658724439066
      ],
      [
        "Ġsimply",
        -9.15472208401962
      ],
      [
        "Ġyet",
        -9.154798225284912
      ],
      [
        "Ġtarget",
        -9.156163192355235
      ],
      [
        "Ġpercent",
        -9.157145179767411
      ],
      [
        "Ġdark",
        -9.157880850823574
      ],
      [
        "Ġnight",
        -9.15954114247434
      ],
      [
        "Ġelements",
        -9.15960750775808
      ],
      [
        "Ġoutside",
        -9.161733964751123
      ],
      [
        "âĢĵ",
        -9.16244457891676
      ],
      [
        "Ġextreme",
        -9.164116290996802
      ],
      [
        "Ġexpert",
        -9.164117489176109
      ],
      [
        "Ġfinal",
        -9.164954544466266
      ],
      [
        "Ġstarted",
        -9.165260177795275
      ],
      [
        "Ġstory",
        -9.165478180053109
      ],
      [
        "Ġfactor",
        -9.165551824363732
      ],
      [
        "Ġexact",
        -9.167283733027864
      ],
      [
        "Ġsometime",
        -9.16896965112246
      ],
      [
        "|",
        -9.169034436856654
      ],
      [
        "Ġkids",
        -9.170771371152288
      ],
      [
        "Ġdecision",
        -9.173602530431491
      ],
      [
        "ha",
        -9.174383453316862
      ],
      [
        "Ġstandard",
        -9.17558128287942
      ],
      [
        "Ġlength",
        -9.176265624444245
      ],
      [
        "Ġfire",
        -9.176494831695225
      ],
      [
        "Ġprevious",
        -9.177158367410971
      ],
      [
        "Ġothers",
        -9.177656000036729
      ],
      [
        "bility",
        -9.17786825125624
      ],
      [
        "Ġappear",
        -9.181609745953995
      ],
      [
        "ĠStates",
        -9.181622512688875
      ],
      [
        "Ġanything",
        -9.18263169387823
      ],
      [
        "im",
        -9.183016886952426
      ],
      [
        "Ġoption",
        -9.183339593103195
      ],
      [
        "Ġtrees",
        -9.183972264626563
      ],
      [
        "Ġaddress",
        -9.184179690135313
      ],
      [
        "Ġtaken",
        -9.185081385200013
      ],
      [
        "Ġwon",
        -9.185238323444352
      ],
      [
        "no",
        -9.1881232910368
      ],
      [
        "Ġguide",
        -9.189919009130822
      ],
      [
        "Ġfresh",
        -9.190573263286009
      ],
      [
        "Ġeggs",
        -9.19096859669716
      ],
      [
        "Ġstyle",
        -9.191227126863213
      ],
      [
        "Ġadult",
        -9.191259710679656
      ],
      [
        "Ġconnection",
        -9.195485310738786
      ],
      [
        "Ġpass",
        -9.19551424605926
      ],
      [
        "Ġhalf",
        -9.195660180977969
      ],
      [
        "Ġfat",
        -9.197543592034757
      ],
      [
        "Ġculture",
        -9.197669831101434
      ],
      [
        "Ġstage",
        -9.199214147930244
      ],
      [
        "=",
        -9.20100162473792
      ],
      [
        "Ġstrength",
        -9.201499803073927
      ],
      [
        "Ġeffort",
        -9.202355977952068
      ],
      [
        "Ġfinding",
        -9.204164655414823
      ],
      [
        "Ġinitial",
        -9.20425878982308
      ],
      [
        "Ġisn",
        -9.20453516669614
      ],
      [
        "ization",
        -9.205987886496128
      ],
      [
        "Ġmov",
        -9.206018090921525
      ],
      [
        "Ġbreed",
        -9.20609231978928
      ],
      [
        "Ġpay",
        -9.20690503166742
      ],
      [
        "ĠHere",
        -9.210171092377363
      ],
      [
        "Ġstore",
        -9.210483909841535
      ],
      [
        "Ġapplication",
        -9.212143268157185
      ],
      [
        "Ġevidence",
        -9.212473808476725
      ],
      [
        "line",
        -9.21440929870879
      ],
      [
        "Ġexplore",
        -9.214514391145958
      ],
      [
        "Ġfun",
        -9.215198765345326
      ],
      [
        "Ġactive",
        -9.215827819835134
      ],
      [
        "Ġcustomer",
        -9.216066539551525
      ],
      [
        "gan",
        -9.217657319542418
      ],
      [
        "Ġcenter",
        -9.21870382041002
      ],
      [
        "ial",
        -9.219465677601564
      ],
      [
        "Ġcover",
        -9.22153896759201
      ],
      [
        "Ġoriginal",
        -9.222048604183428
      ],
      [
        "Ġmedical",
        -9.222438193222576
      ],
      [
        "Ġstor",
        -9.22424109806137
      ],
      [
        "Ġregard",
        -9.227450763268989
      ],
      [
        "Ġaccount",
        -9.227450975590331
      ],
      [
        "Ġcode",
        -9.230936883628129
      ],
      [
        ").Ċ",
        -9.23128916946922
      ],
      [
        "Ġago",
        -9.232564697798576
      ],
      [
        "X",
        -9.232575354373257
      ],
      [
        "Ġman",
        -9.233082921824929
      ],
      [
        "One",
        -9.234956870699495
      ],
      [
        "if",
        -9.236308397584748
      ],
      [
        "Ġefficient",
        -9.237089093389962
      ],
      [
        "Ġmanagement",
        -9.237782985797448
      ],
      [
        "ge",
        -9.238249453305825
      ],
      [
        "J",
        -9.24016773819466
      ],
      [
        "Ġapplications",
        -9.240737364313112
      ],
      [
        "Ġeyes",
        -9.240761241901613
      ],
      [
        "Ġdeliver",
        -9.24095222492199
      ],
      [
        "Ġgene",
        -9.242287637354028
      ],
      [
        "Ġsuccessful",
        -9.243836845655975
      ],
      [
        "Ġconstant",
        -9.244849690405054
      ],
      [
        "over",
        -9.244988164591152
      ],
      [
        "of",
        -9.2453541773442
      ],
      [
        "Ġcaus",
        -9.246493986162015
      ],
      [
        "Ġanalysis",
        -9.24688727512735
      ],
      [
        "yourself",
        -9.248090970068404
      ],
      [
        "Ġice",
        -9.248233736835951
      ],
      [
        "den",
        -9.250221612934048
      ],
      [
        "Ġtool",
        -9.25023528842555
      ],
      [
        "Ġhear",
        -9.251279563158686
      ],
      [
        "Ġequal",
        -9.251914687860776
      ],
      [
        "Ġvegetable",
        -9.252918555040312
      ],
      [
        "Ġdistance",
        -9.254222352602902
      ],
      [
        "Ġadditional",
        -9.257615225694924
      ],
      [
        "Ġwalk",
        -9.258986150294632
      ],
      [
        "Â°",
        -9.259823663611108
      ],
      [
        "Ġbirds",
        -9.259973196850115
      ],
      [
        "Ġspring",
        -9.260002663274832
      ],
      [
        "Ġwomen",
        -9.2604273050976
      ],
      [
        "Ġmentioned",
        -9.260941963127546
      ],
      [
        "Ġsun",
        -9.261163053593776
      ],
      [
        "Ġshows",
        -9.2623817254831
      ],
      [
        "Ġdai",
        -9.263187329657008
      ],
      [
        "Ġcity",
        -9.264079608324996
      ],
      [
        "Ġtend",
        -9.264522736905215
      ],
      [
        "tion",
        -9.266156664245068
      ],
      [
        "Ġnotice",
        -9.266567357894209
      ],
      [
        "Ġbehind",
        -9.266777860638305
      ],
      [
        "Ġwinter",
        -9.266829544944178
      ],
      [
        "Ġwebsite",
        -9.268532026588062
      ],
      [
        "Ġcontribute",
        -9.268881892923265
      ],
      [
        "Ġhearing",
        -9.270112408002706
      ],
      [
        "Ġdiscover",
        -9.270620373292704
      ],
      [
        "ĠAfter",
        -9.271159897444583
      ],
      [
        "Ġworks",
        -9.27138499545256
      ],
      [
        "Ġmental",
        -9.27422605335444
      ],
      [
        "Ġstudent",
        -9.27470854886148
      ],
      [
        "Ġsection",
        -9.275537337753658
      ],
      [
        "Ġequipment",
        -9.27728762418718
      ],
      [
        "Ġtissue",
        -9.277303108958122
      ],
      [
        "Ġservices",
        -9.279027430345256
      ],
      [
        "ized",
        -9.279494741044614
      ],
      [
        "Ġoperation",
        -9.279517371606367
      ],
      [
        "Ġmeat",
        -9.27997202734428
      ],
      [
        "Ġmale",
        -9.28062666822196
      ],
      [
        "Ġmovement",
        -9.28131503569659
      ],
      [
        "quite",
        -9.281439038132271
      ],
      [
        "Ġnegative",
        -9.282218282747088
      ],
      [
        "Ġrest",
        -9.283343504772263
      ],
      [
        "Ġindicate",
        -9.28412416329008
      ],
      [
        "Ġorganization",
        -9.284519976498856
      ],
      [
        "ĠHealth",
        -9.284897701036904
      ],
      [
        "Ġachieve",
        -9.287184213660744
      ],
      [
        "Ġspread",
        -9.293161534166131
      ],
      [
        "ĠSchool",
        -9.293536461110005
      ],
      [
        "Ġapply",
        -9.29410401523785
      ],
      [
        "Ġhorse",
        -9.294300238628932
      ],
      [
        "Ġdrink",
        -9.295065855452338
      ],
      [
        "Ġfilter",
        -9.29622851231247
      ],
      [
        "Ġdetail",
        -9.296250454142506
      ],
      [
        "Ġgovernment",
        -9.29698379231905
      ],
      [
        "ver",
        -9.298592933393977
      ],
      [
        "Ġbattery",
        -9.299084123427445
      ],
      [
        "Ġstrateg",
        -9.29917118693961
      ],
      [
        "Ġseparate",
        -9.299189249452573
      ],
      [
        "Ġsave",
        -9.300292368400054
      ],
      [
        "ca",
        -9.30414145774192
      ],
      [
        "Ġleading",
        -9.305267567252256
      ],
      [
        "Ġmass",
        -9.305339123499811
      ],
      [
        "Ġlack",
        -9.305927892737843
      ],
      [
        "Ġevents",
        -9.306807495833215
      ],
      [
        "Ġocean",
        -9.310595259392178
      ],
      [
        "once",
        -9.311000023324102
      ],
      [
        "Re",
        -9.31129823048386
      ],
      [
        "Ġattention",
        -9.311704605070696
      ],
      [
        "Ġvisit",
        -9.312117259964769
      ],
      [
        "Ġbuil",
        -9.312328667422852
      ],
      [
        "Ġreading",
        -9.312915110937029
      ],
      [
        "ĠMy",
        -9.314779984615988
      ],
      [
        "Ġextra",
        -9.314987857136988
      ],
      [
        "Ġdisplay",
        -9.316441472342609
      ],
      [
        "wise",
        -9.317157546182944
      ],
      [
        "Ġconnect",
        -9.317399146349944
      ],
      [
        "Ġinfluence",
        -9.31834613355419
      ],
      [
        "Ġglass",
        -9.318718055330963
      ],
      [
        "Ġpublish",
        -9.318791553178032
      ],
      [
        "ions",
        -9.319456991050473
      ],
      [
        "Ġremain",
        -9.320396047097375
      ],
      [
        "Ġfemale",
        -9.32098079460917
      ],
      [
        "Ġdirection",
        -9.3223667885537
      ],
      [
        "Ġevent",
        -9.323752166101546
      ],
      [
        "Ġsub",
        -9.323951712392669
      ],
      [
        "Ġattack",
        -9.324982939470075
      ],
      [
        "Why",
        -9.326025208365072
      ],
      [
        "Ġmonitor",
        -9.327885562112542
      ],
      [
        "Ġ+",
        -9.327889589091194
      ],
      [
        "Ġsalt",
        -9.328309183991426
      ],
      [
        "ĠSouth",
        -9.329405181698377
      ],
      [
        "Ġchance",
        -9.33161326214108
      ],
      [
        "Ġsupply",
        -9.332292354663124
      ],
      [
        "ĠNorth",
        -9.332745015598888
      ],
      [
        "ĠAmerica",
        -9.333766736248863
      ],
      [
        "Ġplayer",
        -9.33398745770636
      ],
      [
        "Ġparticularly",
        -9.33400204559235
      ],
      [
        "cy",
        -9.335751075035638
      ],
      [
        "Ġmedia",
        -9.335833053017035
      ],
      [
        "Ġdiscuss",
        -9.337821471778152
      ],
      [
        "Ġspot",
        -9.33798903626536
      ],
      [
        "Ġadvance",
        -9.339508802579026
      ],
      [
        "Ġcritical",
        -9.340743887480071
      ],
      [
        "Ġenzyme",
        -9.34180006981124
      ],
      [
        "\\u",
        -9.343416657566165
      ],
      [
        "Ġinsect",
        -9.345068517282233
      ],
      [
        "Ġsix",
        -9.345199528155726
      ],
      [
        "ated",
        -9.345589070280989
      ],
      [
        "Ġorganic",
        -9.345672181786345
      ],
      [
        "Ġanti",
        -9.347361989883863
      ],
      [
        "ĠY",
        -9.3475668437416
      ],
      [
        "Ġearth",
        -9.350665693194454
      ],
      [
        "Ġweeks",
        -9.350794290243064
      ],
      [
        "Ġcontainer",
        -9.352676467116163
      ],
      [
        "Ġscientific",
        -9.3531413855508
      ],
      [
        "Ġhole",
        -9.3540519265195
      ],
      [
        "Ġfine",
        -9.354379085805276
      ],
      [
        "Ġdate",
        -9.35482881445772
      ],
      [
        "head",
        -9.35659485213652
      ],
      [
        "Ġfill",
        -9.357886447778863
      ],
      [
        "Ġprotection",
        -9.358590941497074
      ],
      [
        "min",
        -9.35971083163411
      ],
      [
        "Ġelse",
        -9.359954077368426
      ],
      [
        "Ġalternative",
        -9.361861480637
      ],
      [
        "Ġtrack",
        -9.362618715124665
      ],
      [
        "Ġgoal",
        -9.363275171184222
      ],
      [
        "Ġtransport",
        -9.36375664357383
      ],
      [
        "work",
        -9.365063879686629
      ],
      [
        "Ġmodels",
        -9.36701879536304
      ],
      [
        "But",
        -9.367157083922958
      ],
      [
        "Ġtrue",
        -9.367473163315974
      ],
      [
        "Ġdemand",
        -9.368973107705454
      ],
      [
        "op",
        -9.37074925802973
      ],
      [
        "Ġmonth",
        -9.370862450901988
      ],
      [
        "Ġenhance",
        -9.37154594035983
      ],
      [
        "Ġcompar",
        -9.372077149001075
      ],
      [
        "Ġcompare",
        -9.372593619623792
      ],
      [
        "Ġvisual",
        -9.372747850380645
      ],
      [
        "Ġterms",
        -9.3729468547253
      ],
      [
        "Ġliquid",
        -9.373391202343957
      ],
      [
        "Ġbond",
        -9.373414861785614
      ],
      [
        "Ġfront",
        -9.373968181792923
      ],
      [
        "Ġroot",
        -9.374674603914295
      ],
      [
        "Ġsummer",
        -9.374936796756646
      ],
      [
        "Ġfeature",
        -9.37505685945406
      ],
      [
        "ĠYes",
        -9.37538271554662
      ],
      [
        "ĠCo",
        -9.375837974263971
      ],
      [
        "Ġsunspot",
        -9.377260061923089
      ],
      [
        "Ġblue",
        -9.377601358117897
      ],
      [
        "Ġelectrical",
        -9.378158473903188
      ],
      [
        "Ġversion",
        -9.378504535525517
      ],
      [
        "ĠWater",
        -9.379422507081076
      ],
      [
        "Ġfoods",
        -9.380291665109365
      ],
      [
        "Ġcharacteristic",
        -9.381237653355388
      ],
      [
        "ach",
        -9.382177937359122
      ],
      [
        "where",
        -9.382266855683806
      ],
      [
        "ĠUse",
        -9.38257159515922
      ],
      [
        "Ġhold",
        -9.382986506163284
      ],
      [
        "ĠâĢľ",
        -9.38337510302754
      ],
      [
        "Ġcolors",
        -9.383883235292195
      ],
      [
        "An",
        -9.385406664925837
      ],
      [
        "Ġfly",
        -9.386207995894054
      ],
      [
        "Ġdraw",
        -9.387042323404264
      ],
      [
        "Ġhabitat",
        -9.387328166439795
      ],
      [
        "Ġsuccess",
        -9.387661879871494
      ],
      [
        "water",
        -9.388662734674751
      ],
      [
        "more",
        -9.38876375025364
      ],
      [
        "Be",
        -9.388887915160822
      ],
      [
        "Ġcamera",
        -9.389037448571944
      ],
      [
        "Ġcountr",
        -9.389223410619282
      ],
      [
        "ship",
        -9.389271348923568
      ],
      [
        "Ġbone",
        -9.389320595744437
      ],
      [
        "ence",
        -9.390579748016211
      ],
      [
        "Ġprocesses",
        -9.390677148170386
      ],
      [
        "Ġscreen",
        -9.391458337022616
      ],
      [
        "Ġrunning",
        -9.393836338941064
      ],
      [
        "Ġappropriate",
        -9.393865458928596
      ],
      [
        "Ġbaby",
        -9.393898640248125
      ],
      [
        "Ġburn",
        -9.394080611142323
      ],
      [
        "all",
        -9.394184920981552
      ],
      [
        "Ġaim",
        -9.395187636659784
      ],
      [
        "Ġuseful",
        -9.395548039953676
      ],
      [
        "Al",
        -9.396272561394577
      ],
      [
        ".S",
        -9.39708045667696
      ],
      [
        "Ġfeeling",
        -9.39841898718019
      ],
      [
        "Ġinjur",
        -9.400987158207196
      ],
      [
        "ĠMost",
        -9.402094583727235
      ],
      [
        "Ġbrand",
        -9.404731525679926
      ],
      [
        "companie",
        -9.404918273903789
      ],
      [
        "Ġdeath",
        -9.405011595984718
      ],
      [
        "Ġcame",
        -9.40517228205687
      ],
      [
        "Ġhair",
        -9.406539112634745
      ],
      [
        "Ġevolution",
        -9.4080276170229
      ],
      [
        "ware",
        -9.40836856311208
      ],
      [
        "Ġimportance",
        -9.408990954609733
      ],
      [
        "Ġseries",
        -9.409003907928138
      ],
      [
        "ng",
        -9.414200648086162
      ],
      [
        "Ġmen",
        -9.4143380189462
      ],
      [
        "Ġprice",
        -9.414675682694392
      ],
      [
        "Ġstick",
        -9.417484644256088
      ],
      [
        "Another",
        -9.417627084539074
      ],
      [
        "q",
        -9.4211812093293
      ],
      [
        "Ġenter",
        -9.421234439612718
      ],
      [
        "Ġinput",
        -9.42160000791656
      ],
      [
        "ĠResearch",
        -9.422404762381628
      ],
      [
        "Can",
        -9.42286640234044
      ],
      [
        "Ġbag",
        -9.423006787590396
      ],
      [
        "Ġingredient",
        -9.423103035988303
      ],
      [
        "Ġapplie",
        -9.423344065146129
      ],
      [
        "Ġrecommended",
        -9.424156916665144
      ],
      [
        "Ġtowards",
        -9.424810543091455
      ],
      [
        "Ġ{",
        -9.424818131150856
      ],
      [
        "Ġwatch",
        -9.42518401386161
      ],
      [
        "ill",
        -9.42539133235562
      ],
      [
        "Ġnoise",
        -9.425447087499194
      ],
      [
        "ĠOf",
        -9.426110466400775
      ],
      [
        "Ġmulti",
        -9.426363659519232
      ],
      [
        "Ġrise",
        -9.426840295449184
      ],
      [
        "Ġrepair",
        -9.427241005109767
      ],
      [
        "Ġrequirement",
        -9.427980067270632
      ],
      [
        "Ġrelationship",
        -9.428264030495743
      ],
      [
        "Ġharm",
        -9.42956491124649
      ],
      [
        "Ġeasier",
        -9.430946881085152
      ],
      [
        "Ġoutput",
        -9.431071198816676
      ],
      [
        "Ġwriting",
        -9.431764789335496
      ],
      [
        "Ġmeet",
        -9.43226339033454
      ],
      [
        "Ġmolecules",
        -9.432931934131627
      ],
      [
        "Ġtopic",
        -9.434246310707746
      ],
      [
        "Ġefficienc",
        -9.434647235892305
      ],
      [
        "Ġhandle",
        -9.435246423906976
      ],
      [
        "ĠUS",
        -9.435320943475798
      ],
      [
        "-to",
        -9.435528599938149
      ],
      [
        "Ġideal",
        -9.435553355014363
      ],
      [
        "Ġpotato",
        -9.437477919195212
      ],
      [
        "Ġboard",
        -9.441789038331766
      ],
      [
        "came",
        -9.442474724686654
      ],
      [
        "Ġinstruction",
        -9.443877209936636
      ],
      [
        "Ġfeed",
        -9.444461986744589
      ],
      [
        "Ġeveryone",
        -9.444691471444216
      ],
      [
        "Ġclaim",
        -9.44800151078002
      ],
      [
        "Ġsteps",
        -9.448966425897009
      ],
      [
        "ex",
        -9.451122191259202
      ],
      [
        "Ġcombination",
        -9.45228558035269
      ],
      [
        "Ġextend",
        -9.452786094507346
      ],
      [
        "time",
        -9.453941324335634
      ],
      [
        "Ġhope",
        -9.45458592309198
      ],
      [
        "Ġcount",
        -9.45641778831795
      ],
      [
        "Ġrefer",
        -9.456961618530046
      ],
      [
        "Ġgenerate",
        -9.4580905355208
      ],
      [
        "ĠWorld",
        -9.458273240346
      ],
      [
        "ating",
        -9.458299666908394
      ],
      [
        "âĢĿ",
        -9.458961107101516
      ],
      [
        "ph",
        -9.460494021058004
      ],
      [
        "Ġdetect",
        -9.46142216274848
      ],
      [
        "Ġcentury",
        -9.462743861479552
      ],
      [
        "Ġproteins",
        -9.463245629369448
      ],
      [
        "Ġfluid",
        -9.464737302306403
      ],
      [
        "Ġflight",
        -9.466883097192197
      ],
      [
        "Ġmaximu",
        -9.469616933879571
      ],
      [
        "Ġspend",
        -9.470576551029165
      ],
      [
        "Ġlives",
        -9.471014227623565
      ],
      [
        "Ġpanel",
        -9.47129599739391
      ],
      [
        "Ġwear",
        -9.47207972129912
      ],
      [
        "Ġenable",
        -9.47258803808015
      ],
      [
        "Ġsensor",
        -9.473054782627148
      ],
      [
        "Ġresponsibl",
        -9.473832112011324
      ],
      [
        "Ġencourage",
        -9.475416195495583
      ],
      [
        "Ġmechanism",
        -9.475860805456277
      ],
      [
        "Ġtable",
        -9.476322840214282
      ],
      [
        "Ġball",
        -9.477154667033451
      ],
      [
        "Ġtank",
        -9.477568217653854
      ],
      [
        "Ġdeal",
        -9.480656506557096
      ],
      [
        "Ġrich",
        -9.483961607672686
      ],
      [
        "Ġmoment",
        -9.484258940391005
      ],
      [
        "Ġroad",
        -9.486166609444355
      ],
      [
        "Ġkill",
        -9.48755029879895
      ],
      [
        "con",
        -9.48787663036726
      ],
      [
        "$",
        -9.48873043571461
      ],
      [
        "-up",
        -9.489791688454044
      ],
      [
        "Ġfile",
        -9.489878785644866
      ],
      [
        "Ġpump",
        -9.492728407010285
      ],
      [
        "side",
        -9.494283315088191
      ],
      [
        "Ġexpand",
        -9.494982794959707
      ],
      [
        "Ġdecrease",
        -9.49567389447992
      ],
      [
        "Ġcloth",
        -9.495775549491992
      ],
      [
        "Ġcarry",
        -9.4958160044485
      ],
      [
        "spite",
        -9.49588393077082
      ],
      [
        "ĠBlack",
        -9.496073219448297
      ],
      [
        "Ġelectronic",
        -9.496418074841568
      ],
      [
        "ĠOr",
        -9.496428511338884
      ],
      [
        "Ġpromote",
        -9.497453169250836
      ],
      [
        "pe",
        -9.498199577266911
      ],
      [
        "Ġphone",
        -9.500260516787188
      ],
      [
        "Ġtask",
        -9.500520468826146
      ],
      [
        "ĠMore",
        -9.500860362829076
      ],
      [
        "Ġvoltage",
        -9.501579094638076
      ],
      [
        "Ġteeth",
        -9.501585762218449
      ],
      [
        "Ġprett",
        -9.501597059168004
      ],
      [
        "Ġpoor",
        -9.501769588700544
      ],
      [
        "ĠNot",
        -9.502591424338137
      ],
      [
        ".com",
        -9.502649273485511
      ],
      [
        "Ġmaintenance",
        -9.505173540956289
      ],
      [
        "Ġdie",
        -9.506034073490952
      ],
      [
        "Ġtaste",
        -9.506038468791768
      ],
      [
        "Ġgenes",
        -9.506277696042195
      ],
      [
        "ĠFrom",
        -9.508996214897302
      ],
      [
        "By",
        -9.509875209768438
      ],
      [
        "Ġserious",
        -9.5103944485367
      ],
      [
        "Ġsort",
        -9.510688048266289
      ],
      [
        "ĠMany",
        -9.511918240964164
      ],
      [
        "Ġprojects",
        -9.512077893440692
      ],
      [
        "Ġwait",
        -9.512231274997076
      ],
      [
        "vi",
        -9.512658262867111
      ],
      [
        "ĠSt",
        -9.513124584824867
      ],
      [
        "Ġobtain",
        -9.513450000647666
      ],
      [
        "hi",
        -9.51360613206165
      ],
      [
        "-term",
        -9.513667711198902
      ],
      [
        "pi",
        -9.514335362185395
      ],
      [
        "Ġimmediate",
        -9.51485173908114
      ],
      [
        "With",
        -9.51491621532735
      ],
      [
        "Ġsoftware",
        -9.514930571120228
      ],
      [
        "Ġseek",
        -9.51526858288657
      ],
      [
        "Ġslight",
        -9.51585916173983
      ],
      [
        "per",
        -9.516446798340311
      ],
      [
        "Ġpull",
        -9.517221906487858
      ],
      [
        "Ġpound",
        -9.517716748841718
      ],
      [
        "ĠAdditional",
        -9.518102674969128
      ],
      [
        "Ġtouch",
        -9.519987439188736
      ],
      [
        "Ġremember",
        -9.522354696146127
      ],
      [
        "Ġcrop",
        -9.522433858071707
      ],
      [
        "ĠMay",
        -9.525992851231202
      ],
      [
        "Ġcouple",
        -9.526088247939152
      ],
      [
        "Ġbottom",
        -9.52711656309505
      ],
      [
        "Ġdefine",
        -9.52947555336451
      ],
      [
        "can",
        -9.531095270739282
      ],
      [
        "On",
        -9.532512631695882
      ],
      [
        "Ġinstance",
        -9.535178492689246
      ],
      [
        "Ġaccept",
        -9.536207018121525
      ],
      [
        "Ġfrequent",
        -9.536962116569004
      ],
      [
        "Ġcon",
        -9.537058523719317
      ],
      [
        "Some",
        -9.53840208342788
      ],
      [
        "Ġhost",
        -9.541387311478632
      ],
      [
        "Ġdidn",
        -9.542619167945496
      ],
      [
        "ĠAre",
        -9.54310253121077
      ],
      [
        "Ġvision",
        -9.543865591711768
      ],
      [
        "Ġexpected",
        -9.543985837119244
      ],
      [
        "Ġelement",
        -9.545591876304623
      ],
      [
        "Ġmembers",
        -9.546462052904625
      ],
      [
        "Ġeconomic",
        -9.5476715990104
      ],
      [
        "Ġadapt",
        -9.54916652587399
      ],
      [
        "ĠWhy",
        -9.552468535686502
      ],
      [
        "Ġready",
        -9.55285157890784
      ],
      [
        "Ġbird",
        -9.552916300701575
      ],
      [
        "Ġdoctor",
        -9.553586016228156
      ],
      [
        "Ġfight",
        -9.55392934742706
      ],
      [
        "Ġconstruction",
        -9.55401433610412
      ],
      [
        "ure",
        -9.554342230797442
      ],
      [
        "Ġimages",
        -9.554902035916223
      ],
      [
        "Ġfigure",
        -9.554963743406946
      ],
      [
        "ble",
        -9.555430074715098
      ],
      [
        "Ġparticles",
        -9.55561517041232
      ],
      [
        "Ġsustainabl",
        -9.556977581085247
      ],
      [
        "Ġround",
        -9.557932137075326
      ],
      [
        "Ġvia",
        -9.5585996277097
      ],
      [
        "Ġaccurate",
        -9.558632266985049
      ],
      [
        "ĠWar",
        -9.559887525601216
      ],
      [
        "ĠCenter",
        -9.560579486729996
      ],
      [
        "ĠâĢ¦",
        -9.56147853172631
      ],
      [
        "Ġpick",
        -9.5643406046601
      ],
      [
        "Ġsoft",
        -9.5646576362142
      ],
      [
        "Ġscale",
        -9.565772071989583
      ],
      [
        "Ġideas",
        -9.566122541114323
      ],
      [
        "Ġnothing",
        -9.566718981541362
      ],
      [
        "day",
        -9.567334877877771
      ],
      [
        "Ġheavy",
        -9.567371637666916
      ],
      [
        "Ġswitch",
        -9.568602345346854
      ],
      [
        "Ġpot",
        -9.570852505872748
      ],
      [
        "Ġleg",
        -9.57173256201083
      ],
      [
        "Ġmagnetic",
        -9.571932831547931
      ],
      [
        "Ġreflect",
        -9.57357362779193
      ],
      [
        "Ġcapacity",
        -9.573823834350842
      ],
      [
        "Ġplanet",
        -9.574135541257236
      ],
      [
        "ut",
        -9.57567141182628
      ],
      [
        "ĠAir",
        -9.575797601216188
      ],
      [
        "Ġbox",
        -9.576099293081477
      ],
      [
        "Ġmanage",
        -9.57654459610287
      ],
      [
        "Ġrecover",
        -9.577181022858229
      ],
      [
        "Ġresistance",
        -9.579627291173226
      ],
      [
        "ĠInstitute",
        -9.581852345857936
      ],
      [
        "Ġcommonly",
        -9.583386076227557
      ],
      [
        "Ġdiseases",
        -9.583942827960437
      ],
      [
        "Ġpicture",
        -9.584188738143526
      ],
      [
        "Ġrare",
        -9.584291164824176
      ],
      [
        "Ġreplace",
        -9.585009426966243
      ],
      [
        "Ġsoon",
        -9.585177203280187
      ],
      [
        "Ġgrade",
        -9.58646989177253
      ],
      [
        "Ġdisorder",
        -9.586645581687623
      ],
      [
        "Ġbeautiful",
        -9.587007762156247
      ],
      [
        "Ġ--",
        -9.58820723378448
      ],
      [
        "Ġwild",
        -9.588296234587167
      ],
      [
        "Ġimplement",
        -9.58854092226629
      ],
      [
        "Ġrice",
        -9.58918908848588
      ],
      [
        "Ġpest",
        -9.58929434712296
      ],
      [
        "Ġchallenges",
        -9.589351961339672
      ],
      [
        "Ġstem",
        -9.589408490882269
      ],
      [
        "Ġconsist",
        -9.589619416046052
      ],
      [
        "Ġcircuit",
        -9.590008561262442
      ],
      [
        "Ġreview",
        -9.591062660337524
      ],
      [
        "Ġdesire",
        -9.591456000418423
      ],
      [
        "><",
        -9.591531897337276
      ],
      [
        "Ġload",
        -9.591616292491924
      ],
      [
        "Ġpath",
        -9.592756635033936
      ],
      [
        "Ġwonder",
        -9.593265827041066
      ],
      [
        "ĠUE",
        -9.594663110763882
      ],
      [
        "Ġmemory",
        -9.59501750379538
      ],
      [
        "Ġphoto",
        -9.59526834532795
      ],
      [
        "board",
        -9.595772652847652
      ],
      [
        "Ġconcept",
        -9.596948944971563
      ],
      [
        "Ġdoor",
        -9.597922967873645
      ],
      [
        "Ġsmooth",
        -9.598249691686975
      ],
      [
        "we",
        -9.599230618157018
      ],
      [
        "ĠWho",
        -9.601551766671006
      ],
      [
        "ho",
        -9.603022338088143
      ],
      [
        "cid",
        -9.603300627326869
      ],
      [
        "Ġbear",
        -9.6051340792482
      ],
      [
        "ĠGo",
        -9.605828201702046
      ],
      [
        "Ġthousand",
        -9.606036351650316
      ],
      [
        "Ġrapid",
        -9.606038275964709
      ],
      [
        "Ġmoistur",
        -9.606489348962846
      ],
      [
        "Ġsetting",
        -9.606948372885151
      ],
      [
        "Ġwire",
        -9.60708807465576
      ],
      [
        "Ġmeaning",
        -9.607521851745476
      ],
      [
        "These",
        -9.607628307900145
      ],
      [
        "Ġplann",
        -9.608615126422748
      ],
      [
        "Ġreducing",
        -9.60953685554847
      ],
      [
        "Ġlaw",
        -9.610752529811116
      ],
      [
        "ize",
        -9.611095548670804
      ],
      [
        "Ġappearance",
        -9.61126323124169
      ],
      [
        "Ġvolume",
        -9.61396741677538
      ],
      [
        "Ġcollect",
        -9.614135978652872
      ],
      [
        "Ġcommercial",
        -9.615876809905131
      ],
      [
        "Ġmap",
        -9.616166923360945
      ],
      [
        "Ġcleaning",
        -9.617822889371393
      ],
      [
        "Ġcosts",
        -9.617955524940632
      ],
      [
        "Z",
        -9.618365431039033
      ],
      [
        "care",
        -9.61838169994853
      ],
      [
        "qui",
        -9.61869793247252
      ],
      [
        "Ġled",
        -9.618973520815809
      ],
      [
        "ĠOur",
        -9.619183795532836
      ],
      [
        "for",
        -9.620069305177015
      ],
      [
        "Ġwrite",
        -9.621985695887409
      ],
      [
        "Ġdiscovered",
        -9.62252944503341
      ],
      [
        "Ġbright",
        -9.623405331518995
      ],
      [
        "Ġconvert",
        -9.624251650042472
      ],
      [
        "Ġfriends",
        -9.62436605101669
      ],
      [
        "Ġsolid",
        -9.624639882954614
      ],
      [
        "Ġmouth",
        -9.62574478717649
      ],
      [
        "Ġlab",
        -9.62691677215956
      ],
      [
        "Ġdrop",
        -9.627477552945052
      ],
      [
        "Ġwar",
        -9.628155490196574
      ],
      [
        "Ġattempt",
        -9.6283170795473
      ],
      [
        "Ġapp",
        -9.628744642397262
      ],
      [
        "Ġaircraft",
        -9.629506016470929
      ],
      [
        "inches",
        -9.629687608097557
      ],
      [
        "Now",
        -9.629817264321808
      ],
      [
        "Ġtherefor",
        -9.630946395148849
      ],
      [
        "Ġbirth",
        -9.63536369105634
      ],
      [
        "Ġmotion",
        -9.636404397551637
      ],
      [
        "Ġedge",
        -9.636645759764312
      ],
      [
        "Ġrobot",
        -9.63772447508216
      ],
      [
        "Ġcolour",
        -9.637911866453136
      ],
      [
        "Ġmusic",
        -9.639005662865666
      ],
      [
        "our",
        -9.63912131350068
      ],
      [
        "ĠGod",
        -9.639145792236024
      ],
      [
        "Ġdocument",
        -9.639388327721822
      ],
      [
        "ow",
        -9.640205456957132
      ],
      [
        "Ġpair",
        -9.64090926575328
      ],
      [
        "Ġexperiment",
        -9.642569338150029
      ],
      [
        "Ġdriver",
        -9.644446024310051
      ],
      [
        "efore",
        -9.644808236260488
      ],
      [
        "ang",
        -9.645800115268118
      ],
      [
        "Ġsquare",
        -9.645993180164607
      ],
      [
        "Ġreported",
        -9.647191972731225
      ],
      [
        "ĠState",
        -9.64728937610875
      ],
      [
        "ĠEuropean",
        -9.64898731522387
      ],
      [
        "Ġegg",
        -9.649011041720623
      ],
      [
        "ran",
        -9.649727802648162
      ],
      [
        "And",
        -9.649891872036209
      ],
      [
        "Ġgoe",
        -9.650734529545948
      ],
      [
        "Ġgiving",
        -9.652320863843691
      ],
      [
        "ĠCon",
        -9.653618571736892
      ],
      [
        "Ġsuitabl",
        -9.653690327565055
      ],
      [
        "Ġtransition",
        -9.653784679294311
      ],
      [
        "ĠYork",
        -9.654905316400257
      ],
      [
        "ification",
        -9.654970849852315
      ],
      [
        "Ġpowerful",
        -9.6551084125904
      ],
      [
        "ke",
        -9.655797214639817
      ],
      [
        "Ġraise",
        -9.658647550208116
      ],
      [
        "Ġabsorb",
        -9.658812368379673
      ],
      [
        "Ġmessage",
        -9.65943687446354
      ],
      [
        "Ġcollection",
        -9.659684524460854
      ],
      [
        "Ġanyone",
        -9.660867068728976
      ],
      [
        "Ġmedium",
        -9.660952932031147
      ],
      [
        "Do",
        -9.661369685538569
      ],
      [
        "Ġteaching",
        -9.6620661227374
      ],
      [
        "Ġsuper",
        -9.665037213959026
      ],
      [
        "Ġfoot",
        -9.665699918774134
      ],
      [
        "Ġelectron",
        -9.665963602203906
      ],
      [
        "Ġoxygen",
        -9.666584417449917
      ],
      [
        "Ġthird",
        -9.66658472310699
      ],
      [
        "Ġtrain",
        -9.666882663312276
      ],
      [
        "Ġobserved",
        -9.666913965161488
      ],
      [
        "Ġframe",
        -9.668590062368027
      ],
      [
        "Ġcompound",
        -9.669194696539195
      ],
      [
        "Ġexposure",
        -9.669251769049946
      ],
      [
        "lin",
        -9.669828953790708
      ],
      [
        "ard",
        -9.670098118077355
      ],
      [
        "Ġcoming",
        -9.670983533694171
      ],
      [
        "Ġadjust",
        -9.671522482435122
      ],
      [
        "Ġconcentration",
        -9.671830667436364
      ],
      [
        "Ġthus",
        -9.672068263428203
      ],
      [
        "Ġmatch",
        -9.672966579024054
      ],
      [
        "Ġfrequency",
        -9.673784186160466
      ],
      [
        "ĠMa",
        -9.673818744080297
      ],
      [
        "Ġuses",
        -9.674216690717612
      ],
      [
        "Ġmicro",
        -9.674722662927998
      ],
      [
        "Ġsevere",
        -9.674724885575593
      ],
      [
        "ice",
        -9.675054265100982
      ],
      [
        "ĠNow",
        -9.675962168332488
      ],
      [
        "ĠEnglish",
        -9.67665278897231
      ],
      [
        "Ġplatform",
        -9.677658574298242
      ],
      [
        "Ġprocessing",
        -9.677970180887751
      ],
      [
        "ĠEven",
        -9.678351064563309
      ],
      [
        "yond",
        -9.678885369759378
      ],
      [
        "Ġheight",
        -9.67890325601876
      ],
      [
        "ĠLearn",
        -9.679706912974392
      ],
      [
        "ĠOther",
        -9.680137733120713
      ],
      [
        "Ġstock",
        -9.680318121680692
      ],
      [
        "Ġfabric",
        -9.680628425721324
      ],
      [
        "Ġcup",
        -9.68223175170248
      ],
      [
        "ĠHo",
        -9.682701232918667
      ],
      [
        "Ġbasi",
        -9.682895383170647
      ],
      [
        "Ġexcellent",
        -9.6829250504125
      ],
      [
        "Ġgives",
        -9.683105047433674
      ],
      [
        "Ġconnected",
        -9.683468920905456
      ],
      [
        "qua",
        -9.683937063811058
      ],
      [
        "Ġhands",
        -9.684822254356195
      ],
      [
        "Ġwrong",
        -9.685008148746205
      ],
      [
        "middle",
        -9.685202682527954
      ],
      [
        "Ġpractices",
        -9.685954084999054
      ],
      [
        "Ġchang",
        -9.686298363940852
      ],
      [
        "ĠEach",
        -9.686767473025412
      ],
      [
        "que",
        -9.687071753991468
      ],
      [
        "Ġstuff",
        -9.687614054110927
      ],
      [
        "Ġpro",
        -9.68975011534682
      ],
      [
        "Ġreveal",
        -9.690275077274109
      ],
      [
        "Ġmedication",
        -9.690278006346244
      ],
      [
        "ĠMe",
        -9.691868274064776
      ],
      [
        "ĠGerman",
        -9.692544307110126
      ],
      [
        "Ġshift",
        -9.6928805480495
      ],
      [
        "Ġmeasurement",
        -9.693763975143703
      ],
      [
        "Ġmiss",
        -9.69638060428746
      ],
      [
        "Ġinteresting",
        -9.69654272869318
      ],
      [
        "ack",
        -9.697305243480884
      ],
      [
        "Ġpush",
        -9.698355774248808
      ],
      [
        "Ġtherap",
        -9.69931050069052
      ],
      [
        "Ġmiles",
        -9.699692209241658
      ],
      [
        "mon",
        -9.700530735525934
      ],
      [
        "Ġworth",
        -9.701269417259477
      ],
      [
        "king",
        -9.701300902323558
      ],
      [
        "Ġbrown",
        -9.701448947724856
      ],
      [
        "Ġcombine",
        -9.703786797036802
      ],
      [
        "ĠRa",
        -9.704384809346529
      ],
      [
        "Ġfossil",
        -9.704412633243065
      ],
      [
        "ĠAfrica",
        -9.706879675828608
      ],
      [
        "ĠBr",
        -9.707349034494609
      ],
      [
        "ĠIndia",
        -9.707591996968588
      ],
      [
        "Ġbodie",
        -9.70765888850302
      ],
      [
        "Ġnutrients",
        -9.708043670674034
      ],
      [
        "hu",
        -9.709155265109835
      ],
      [
        "Ġmid",
        -9.710121520373969
      ],
      [
        "gar",
        -9.710633517195795
      ],
      [
        "ĠPro",
        -9.710874960691196
      ],
      [
        "Ġwheel",
        -9.711268910418283
      ],
      [
        "âĢ¢",
        -9.711768864760824
      ],
      [
        "-in",
        -9.71443669464067
      ],
      [
        "Ġsend",
        -9.714950652043438
      ],
      [
        "Ġexpression",
        -9.715146335742409
      ],
      [
        "Ġhit",
        -9.715788958702236
      ],
      [
        "cc",
        -9.716387797289382
      ],
      [
        "Ġreference",
        -9.716460546762402
      ],
      [
        "Ġfamili",
        -9.716999040252643
      ],
      [
        "ĠEurope",
        -9.717596136011837
      ],
      [
        "Ġpark",
        -9.718872548070806
      ],
      [
        "Ġdistribution",
        -9.720007966516846
      ],
      [
        "Ġsequence",
        -9.720078121261118
      ],
      [
        "Ġbackground",
        -9.720187145305225
      ],
      [
        "Step",
        -9.720564129078202
      ],
      [
        "bi",
        -9.721236506032987
      ],
      [
        "Ġthreat",
        -9.72224984319412
      ],
      [
        "fully",
        -9.722478172823465
      ],
      [
        "Ġspeaker",
        -9.72290166284121
      ],
      [
        "ĠThei",
        -9.7229610895074
      ],
      [
        "Ġdiabet",
        -9.723566761173252
      ],
      [
        "Ġfund",
        -9.7247677331625
      ],
      [
        "Ġteachers",
        -9.725454683608172
      ],
      [
        "Ġemission",
        -9.72550377688772
      ],
      [
        "Ġminimum",
        -9.725507310899854
      ],
      [
        "Ġstates",
        -9.726027643728742
      ],
      [
        "Ġpresence",
        -9.7282772224614
      ],
      [
        "Ġensur",
        -9.72973403437208
      ],
      [
        "Ġwent",
        -9.729856309199596
      ],
      [
        "Ġsociety",
        -9.730730946936632
      ],
      [
        "Ġsustain",
        -9.731024204093377
      ],
      [
        "Ġcross",
        -9.731834713340143
      ],
      [
        "Ġplease",
        -9.73220707801783
      ],
      [
        "Ġonto",
        -9.732811253800978
      ],
      [
        "Ġbio",
        -9.73539168785912
      ],
      [
        "ĠMarch",
        -9.735827640203
      ],
      [
        "Ġfiber",
        -9.736014873704711
      ],
      [
        "Ġjoint",
        -9.73667258143633
      ],
      [
        "Ġvariation",
        -9.736713047681778
      ],
      [
        "Ġforward",
        -9.736749462111831
      ],
      [
        "Ġstone",
        -9.7367542686289
      ],
      [
        "Ġcommunit",
        -9.737059572759476
      ],
      [
        "Ġaffected",
        -9.737208614133568
      ],
      [
        "Ġlargest",
        -9.738723505576743
      ],
      [
        "Ġjourney",
        -9.73939279649009
      ],
      [
        "ĠMake",
        -9.740653661734246
      ],
      [
        "Ġmilk",
        -9.741721200740766
      ],
      [
        "ĠAccording",
        -9.743912828518209
      ],
      [
        "ÂŃ",
        -9.744151611685409
      ],
      [
        "ring",
        -9.744382083742703
      ],
      [
        "No",
        -9.744833536974124
      ],
      [
        "Ġsecurit",
        -9.746409499747994
      ],
      [
        "Ġsample",
        -9.747725498862597
      ],
      [
        "Ġjoin",
        -9.747757799412009
      ],
      [
        "aught",
        -9.748804615952732
      ],
      [
        "ĠDec",
        -9.74919830942958
      ],
      [
        "Ġrecommend",
        -9.74926401644388
      ],
      [
        "Ġconsistent",
        -9.750606670891251
      ],
      [
        "Ġmarine",
        -9.75073530756328
      ],
      [
        "men",
        -9.750871440602989
      ],
      [
        "Ġtasks",
        -9.751103996126137
      ],
      [
        "Ġrule",
        -9.753001467579674
      ],
      [
        "Ġerror",
        -9.753478774850176
      ],
      [
        "Ġdrug",
        -9.75371143808156
      ],
      [
        "Ġselection",
        -9.75470493215937
      ],
      [
        "ĠAls",
        -9.75480438438571
      ],
      [
        "ĠSea",
        -9.755107504800034
      ],
      [
        "Ġemploy",
        -9.755352445315111
      ],
      [
        "Ġdead",
        -9.75630760145364
      ],
      [
        "Ġlabel",
        -9.756373015663373
      ],
      [
        "Ġcutting",
        -9.756477452524871
      ],
      [
        "Ġphase",
        -9.756669457134318
      ],
      [
        "Ġfarm",
        -9.7583109607069
      ],
      [
        "Ġdrawing",
        -9.758948026414233
      ],
      [
        "Ġexpensive",
        -9.759168756198015
      ],
      [
        "ĠNOT",
        -9.759651975206804
      ],
      [
        "ner",
        -9.759928028943728
      ],
      [
        "Ġexpect",
        -9.760158233187596
      ],
      [
        "ium",
        -9.76039731604829
      ],
      [
        "ip",
        -9.7611410566444
      ],
      [
        "ect",
        -9.76217969377457
      ],
      [
        "Ġcomfort",
        -9.763510198246893
      ],
      [
        "Ġdur",
        -9.764266300785025
      ],
      [
        "Ġaren",
        -9.765050293619836
      ],
      [
        "ĠZ",
        -9.766078011479172
      ],
      [
        "Ġflavor",
        -9.766188025076003
      ],
      [
        "Ġyellow",
        -9.76651889025306
      ],
      [
        "Ġextract",
        -9.767174803019875
      ],
      [
        "bu",
        -9.769133472508257
      ],
      [
        "Ġmanufactur",
        -9.770374184388892
      ],
      [
        "Ġcontext",
        -9.770641855100958
      ],
      [
        "Ġecosystem",
        -9.770652508398024
      ],
      [
        "he",
        -9.771056071143384
      ],
      [
        "tra",
        -9.771761727954608
      ],
      [
        "ĠDur",
        -9.772104385601988
      ],
      [
        "Ġdecade",
        -9.7737804831129
      ],
      [
        "Ġhuge",
        -9.774060207721702
      ],
      [
        "Ġdivers",
        -9.774453426891988
      ],
      [
        "che",
        -9.774565334207464
      ],
      [
        "Ġfail",
        -9.776406315450544
      ],
      [
        "like",
        -9.776708527894872
      ],
      [
        "lost",
        -9.777074568432752
      ],
      [
        "Ġdetails",
        -9.777508673014244
      ],
      [
        "ese",
        -9.779603268721107
      ],
      [
        "ick",
        -9.780783687510306
      ],
      [
        "Ġconsumer",
        -9.780815138273738
      ],
      [
        "Ġpractical",
        -9.78096999203292
      ],
      [
        "Ġcommand",
        -9.780989043961226
      ],
      [
        "ov",
        -9.781396210461669
      ],
      [
        "Ġvital",
        -9.782269280209476
      ],
      [
        "Ġroots",
        -9.783156654781845
      ],
      [
        "Ġpilot",
        -9.78375565987756
      ],
      [
        "Ġmedicine",
        -9.784548686665351
      ],
      [
        "Ġmother",
        -9.78556388190899
      ],
      [
        "ile",
        -9.785777627837454
      ],
      [
        "#",
        -9.78645002879695
      ],
      [
        "ĠDi",
        -9.786981007747707
      ],
      [
        "Ġfavorite",
        -9.788123618832753
      ],
      [
        "Ġrequest",
        -9.788152888281145
      ],
      [
        "Ġpress",
        -9.788159182897342
      ],
      [
        "ĠOver",
        -9.788461210985986
      ],
      [
        "Ġstring",
        -9.78875309398267
      ],
      [
        "Ġlesson",
        -9.789485788325944
      ],
      [
        "ĠBo",
        -9.790805135323703
      ],
      [
        "Ġregulation",
        -9.790894414497796
      ],
      [
        "Ġreferr",
        -9.791173329633615
      ],
      [
        "Ġangle",
        -9.793181445934902
      ],
      [
        "ĠPh",
        -9.793553340628952
      ],
      [
        "Ġrecipe",
        -9.794004238458392
      ],
      [
        "Ġmotor",
        -9.795243866514468
      ],
      [
        "ĠLet",
        -9.795906421403195
      ],
      [
        "Ġlocate",
        -9.796236936152036
      ],
      [
        "Therefore",
        -9.79722451123518
      ],
      [
        "Ġfunctions",
        -9.798464525395534
      ],
      [
        "Ġremains",
        -9.799022362245086
      ],
      [
        "Ġgold",
        -9.799106753679002
      ],
      [
        "Ġskill",
        -9.799255618085116
      ],
      [
        "Ġsp",
        -9.79991323415798
      ],
      [
        "Ġweb",
        -9.800117527806773
      ],
      [
        "go",
        -9.800878977227352
      ],
      [
        "Ġsurrounding",
        -9.802297311547148
      ],
      [
        "Ġnative",
        -9.805938298823037
      ],
      [
        "Ġhapp",
        -9.806189947312664
      ],
      [
        "Ġtexture",
        -9.806234874561913
      ],
      [
        "Ġchallenge",
        -9.806610835611906
      ],
      [
        "Ġinsight",
        -9.809338002130776
      ],
      [
        "Ġtechnologies",
        -9.809671577444078
      ],
      [
        "Ġcard",
        -9.809846073872356
      ],
      [
        "ĠMar",
        -9.8106238736319
      ],
      [
        "ĠCar",
        -9.810958017310549
      ],
      [
        "Ġdepth",
        -9.811805098282942
      ],
      [
        "Ġtiny",
        -9.811907323156111
      ],
      [
        "Ġconsumpti",
        -9.811981288434293
      ],
      [
        "Ġrock",
        -9.81289404927224
      ],
      [
        "Ġsaw",
        -9.812991267441566
      ],
      [
        "ze",
        -9.81336693152456
      ],
      [
        "Ġphotograph",
        -9.814244027587488
      ],
      [
        "light",
        -9.814817143342072
      ],
      [
        "Ġdynamic",
        -9.81550195438254
      ],
      [
        "ĠLi",
        -9.815606580521395
      ],
      [
        "Ġnational",
        -9.816675040240057
      ],
      [
        "Ġfilm",
        -9.81669059763513
      ],
      [
        "ities",
        -9.816783376541666
      ],
      [
        "Ġactual",
        -9.818006916750369
      ],
      [
        "ward",
        -9.818372762978631
      ],
      [
        "Ġstructures",
        -9.818428575959867
      ],
      [
        "Ġteacher",
        -9.818442742130294
      ],
      [
        "let",
        -9.819192715984176
      ],
      [
        "ĠOnc",
        -9.81932396289787
      ],
      [
        "ĠFirst",
        -9.8205306229019
      ],
      [
        "ley",
        -9.820632806605836
      ],
      [
        "Ġcovered",
        -9.820908466479
      ],
      [
        "Ġ#",
        -9.821105909039767
      ],
      [
        "Ġlose",
        -9.82127621398465
      ],
      [
        "Ġletter",
        -9.82150834513192
      ],
      [
        "ĠRo",
        -9.821693185223264
      ],
      [
        "low",
        -9.822764303051416
      ],
      [
        "Ġcontroll",
        -9.8246024065878
      ],
      [
        "Ġrecognize",
        -9.826018745070185
      ],
      [
        "Ġchannel",
        -9.826218892188692
      ],
      [
        "Ġsuit",
        -9.826477179754352
      ],
      [
        "Ġattach",
        -9.82681187981952
      ],
      [
        "ĠCO",
        -9.82682124397001
      ],
      [
        "Ġstraight",
        -9.827040123700645
      ],
      [
        "Ġtrigger",
        -9.82704604710806
      ],
      [
        "ĠpH",
        -9.82712442983406
      ],
      [
        "Ġmanufacturer",
        -9.828086854360713
      ],
      [
        "Ġdensit",
        -9.828131584698037
      ],
      [
        "Ġapproximate",
        -9.828599508740693
      ],
      [
        "Ġinter",
        -9.829130195342188
      ],
      [
        "ĠService",
        -9.830098467090592
      ],
      [
        "Ġfinish",
        -9.830215066359784
      ],
      [
        "April",
        -9.830648728573696
      ],
      [
        "Ġdust",
        -9.831076574345383
      ],
      [
        "Ġten",
        -9.831276512047864
      ],
      [
        "Ġarray",
        -9.832744222272789
      ],
      [
        "ĠJust",
        -9.832803640189306
      ],
      [
        "Ġsession",
        -9.836243211799676
      ],
      [
        "Ġnest",
        -9.83679107625818
      ],
      [
        "Ġrules",
        -9.837861780237477
      ],
      [
        "ĠLa",
        -9.838438360097925
      ],
      [
        "Ġshoes",
        -9.838828110201051
      ],
      [
        "Ġcentral",
        -9.83918722170628
      ],
      [
        "Ġbiological",
        -9.839578883182975
      ],
      [
        "Ġexpress",
        -9.839687322629947
      ],
      [
        "ĠEducation",
        -9.839776420981476
      ],
      [
        "Ġgrown",
        -9.839849169908444
      ],
      [
        "Ġartist",
        -9.84042075033597
      ],
      [
        "Ġeventual",
        -9.840650000108376
      ],
      [
        "Ġcore",
        -9.841239564549372
      ],
      [
        "Ġatmosphere",
        -9.841265932685262
      ],
      [
        "Ġtrip",
        -9.843921650846326
      ],
      [
        "Ġparameter",
        -9.844017537023088
      ],
      [
        "ĠMo",
        -9.844380394885842
      ],
      [
        "},",
        -9.844669990930084
      ],
      [
        "Ġkeeping",
        -9.845335593518673
      ],
      [
        "ĠPa",
        -9.84660506603744
      ],
      [
        "Ġalone",
        -9.846685482660666
      ],
      [
        "Ġsheet",
        -9.84815364355692
      ],
      [
        "Ġdriving",
        -9.848645949283895
      ],
      [
        "ĠGroup",
        -9.849028209137504
      ],
      [
        "Ġgrain",
        -9.84903780080588
      ],
      [
        "Ġbreast",
        -9.849641790488723
      ],
      [
        "cu",
        -9.850175311695413
      ],
      [
        "Ġprogress",
        -9.85185429350838
      ],
      [
        "Ġvaluable",
        -9.853087932782085
      ],
      [
        "Ġimmune",
        -9.854905603169277
      ],
      [
        "ĠPark",
        -9.855041349728786
      ],
      [
        "Ġsounds",
        -9.857256248799324
      ],
      [
        "ĠUsing",
        -9.857393622102084
      ],
      [
        "Ġfashion",
        -9.858050265519454
      ],
      [
        "Ġsupplement",
        -9.858064960424802
      ],
      [
        "Ġrates",
        -9.858322934474693
      ],
      [
        "held",
        -9.858412461902953
      ],
      [
        "ĠUK",
        -9.858639914975202
      ],
      [
        "Ġclick",
        -9.858800431103049
      ],
      [
        "tro",
        -9.858932082989789
      ],
      [
        "ĠSp",
        -9.859884322787902
      ],
      [
        "dium",
        -9.861238714387614
      ],
      [
        "Ġconservation",
        -9.861254725617387
      ],
      [
        "Ġcapture",
        -9.862942071999068
      ],
      [
        "ists",
        -9.863813103407733
      ],
      [
        "ritish",
        -9.864526778226733
      ],
      [
        "They",
        -9.865792798991745
      ],
      [
        "Ġplane",
        -9.86600420142062
      ],
      [
        "Ġimprov",
        -9.86642973746461
      ],
      [
        "Ġremov",
        -9.86711380205152
      ],
      [
        "-->",
        -9.86852999323423
      ],
      [
        "Ġrespond",
        -9.868574971336889
      ],
      [
        "Ġthick",
        -9.869924307986976
      ],
      [
        "Ġsites",
        -9.870782408479808
      ],
      [
        "Ġbeginning",
        -9.870797975472485
      ],
      [
        "Ġintegrat",
        -9.87175299652723
      ],
      [
        "fish",
        -9.87208450833448
      ],
      [
        "Ġsweet",
        -9.873069579237251
      ],
      [
        "Ġcultural",
        -9.873680695077065
      ],
      [
        "||",
        -9.87417776538244
      ],
      [
        "ical",
        -9.87431995546147
      ],
      [
        "Ġoffice",
        -9.8757543141174
      ],
      [
        "Ġclient",
        -9.87714260869407
      ],
      [
        "ung",
        -9.877778133561744
      ],
      [
        "Ġindependent",
        -9.878325313526403
      ],
      [
        "Ġtransform",
        -9.878959788083204
      ],
      [
        "Ġcreative",
        -9.879111546154896
      ],
      [
        "wide",
        -9.879510129276046
      ],
      [
        "Ġfinancial",
        -9.88035533222586
      ],
      [
        "Ġpollution",
        -9.880446404480764
      ],
      [
        "iness",
        -9.88089943516884
      ],
      [
        "He",
        -9.880954605868451
      ],
      [
        "Ġpipe",
        -9.881513037408473
      ],
      [
        "Ġbar",
        -9.882348942202253
      ],
      [
        "Ġpolicy",
        -9.882724485608405
      ],
      [
        "Ġgeneration",
        -9.883231628677605
      ],
      [
        "Ġsurvive",
        -9.883569958139994
      ],
      [
        "Ġwrit",
        -9.884642706865186
      ],
      [
        "Ġseat",
        -9.88487758284018
      ],
      [
        "-like",
        -9.888653005752136
      ],
      [
        "ĠHi",
        -9.888923174226148
      ],
      [
        "Ġjournal",
        -9.889208550881593
      ],
      [
        "Ġcontrast",
        -9.89007023931484
      ],
      [
        "ĠCa",
        -9.891697859495933
      ],
      [
        "Ġbooks",
        -9.89206332159678
      ],
      [
        "Ġclasse",
        -9.892292872466978
      ],
      [
        "Ġstaff",
        -9.893312733547694
      ],
      [
        "Ġfacilit",
        -9.89405870720794
      ],
      [
        "Ġschedule",
        -9.894379090219775
      ],
      [
        "ER",
        -9.894704137763505
      ],
      [
        "Ġmining",
        -9.895066588849312
      ],
      [
        "Ġroutine",
        -9.896578285513808
      ],
      [
        "Ġfloor",
        -9.896800714462607
      ],
      [
        "Ġpurchase",
        -9.898201171036204
      ],
      [
        "}",
        -9.89975080859022
      ],
      [
        "Ġobservation",
        -9.900017492716188
      ],
      [
        "lic",
        -9.900973181195992
      ],
      [
        "ĠGreat",
        -9.90122052727483
      ],
      [
        "Ġpeak",
        -9.90143206897129
      ],
      [
        "ĠLe",
        -9.901836514227853
      ],
      [
        "ĠKa",
        -9.903563643411754
      ],
      [
        "Ġrain",
        -9.905219715250349
      ],
      [
        "Ġsamples",
        -9.906764838046044
      ],
      [
        "Our",
        -9.906910253910326
      ],
      [
        "Ġfriend",
        -9.907041530238637
      ],
      [
        "Ġsymbol",
        -9.90778313861718
      ],
      [
        "ĠArt",
        -9.908011686746333
      ],
      [
        "ĠHigh",
        -9.908314379677602
      ],
      [
        "De",
        -9.908644471462342
      ],
      [
        "Pa",
        -9.90876080502383
      ],
      [
        "Ġhundred",
        -9.909758010306884
      ],
      [
        "Ġvitamin",
        -9.909829318204553
      ],
      [
        "Ġcatch",
        -9.910172626984954
      ],
      [
        "Ġvary",
        -9.910703777582803
      ],
      [
        "Ġdouble",
        -9.912717700233737
      ],
      [
        "Ġlay",
        -9.912934395634831
      ],
      [
        "Ġjump",
        -9.913092487064263
      ],
      [
        "ler",
        -9.913244909390055
      ],
      [
        "Ġaspects",
        -9.913607767242793
      ],
      [
        "ĠAfrican",
        -9.914437644771944
      ],
      [
        "PS",
        -9.91531996507016
      ],
      [
        "Ġpack",
        -9.915869120828424
      ],
      [
        "Ġcreation",
        -9.91594659652252
      ],
      [
        "ven",
        -9.91627638645523
      ],
      [
        "Ġaudio",
        -9.916414959653002
      ],
      [
        "That",
        -9.916504979547312
      ],
      [
        "Ġdetermin",
        -9.917135850486655
      ],
      [
        "Ma",
        -9.920640927197663
      ],
      [
        "ular",
        -9.920691134967448
      ],
      [
        "Ġemergenc",
        -9.922025140647886
      ],
      [
        "Ġportion",
        -9.924043210377242
      ],
      [
        "**",
        -9.925262351539784
      ],
      [
        "Ġlisten",
        -9.925293996989357
      ],
      [
        "Ġsit",
        -9.92542222239941
      ],
      [
        "mer",
        -9.926012704423442
      ],
      [
        "Ġvaccine",
        -9.92648080177947
      ],
      [
        "Ġvirtual",
        -9.926484543017024
      ],
      [
        "ĠNa",
        -9.926636076938845
      ],
      [
        "ĠMan",
        -9.926910585466228
      ],
      [
        "ĠSince",
        -9.927378218968306
      ],
      [
        "Ġwash",
        -9.92771037060202
      ],
      [
        "Ġfear",
        -9.929946479661112
      ],
      [
        "Ġblog",
        -9.929961183256957
      ],
      [
        "Ġagree",
        -9.9301766478607
      ],
      [
        "Ġdemonstrate",
        -9.93028156680596
      ],
      [
        "Ġearlier",
        -9.930445343946658
      ],
      [
        "Ġalgorithm",
        -9.93093366909484
      ],
      [
        "Ġinvolv",
        -9.931023435605557
      ],
      [
        "Ġsurger",
        -9.931204007007462
      ],
      [
        "ĠRochester",
        -9.931575272706691
      ],
      [
        "Ġdiscussion",
        -9.9317445271586
      ],
      [
        "ĠPe",
        -9.93190348198158
      ],
      [
        "ĠJapan",
        -9.93206749070152
      ],
      [
        "Ġvoice",
        -9.933249024307168
      ],
      [
        "All",
        -9.933608908428187
      ],
      [
        "Ġmeal",
        -9.934254944774358
      ],
      [
        "producing",
        -9.9343475652551
      ],
      [
        "ĠDay",
        -9.934471515820295
      ],
      [
        "Ġintroduce",
        -9.934552530467968
      ],
      [
        "Ġkg",
        -9.935508956301115
      ],
      [
        "Ġstream",
        -9.935656316091618
      ],
      [
        "Ġlighting",
        -9.93665480746508
      ],
      [
        "Ġmixture",
        -9.936715709734042
      ],
      [
        "which",
        -9.937118173109765
      ],
      [
        "ĠNov",
        -9.937272590351512
      ],
      [
        "Ġorgan",
        -9.937397568437497
      ],
      [
        "Ġstarch",
        -9.938339472319036
      ],
      [
        "comfortable",
        -9.939960390859143
      ],
      [
        "Ġstain",
        -9.940799713863388
      ],
      [
        "ĠDepartment",
        -9.941148893872112
      ],
      [
        "Ġgravit",
        -9.941325441901109
      ],
      [
        "Ġroll",
        -9.941470329887204
      ],
      [
        "ĠJohn",
        -9.942506326962274
      ],
      [
        "Ġinstall",
        -9.942956661615115
      ],
      [
        "Ġtrade",
        -9.943235418166951
      ],
      [
        "Ġiron",
        -9.943440110417086
      ],
      [
        "Ġmorning",
        -9.94348856497628
      ],
      [
        "Ġlandscape",
        -9.943917403216542
      ],
      [
        "Ġflat",
        -9.94485493962323
      ],
      [
        "Ġforest",
        -9.94630790003539
      ],
      [
        "ought",
        -9.946333897786484
      ],
      [
        "Ġdrugs",
        -9.946706351940826
      ],
      [
        "Ġlaunch",
        -9.946924685220289
      ],
      [
        "ĠDon",
        -9.94736752030026
      ],
      [
        "ĠCalifornia",
        -9.947922416553633
      ],
      [
        "Ġglucos",
        -9.949066173232184
      ],
      [
        "how",
        -9.949612137800084
      ],
      [
        "Ġyield",
        -9.950373328806345
      ],
      [
        "Ġnerve",
        -9.95039175882212
      ],
      [
        "Ġbroad",
        -9.950471327671716
      ],
      [
        "amp",
        -9.951937960998638
      ],
      [
        "maybe",
        -9.955214532711576
      ],
      [
        "-year",
        -9.955585664377953
      ],
      [
        ".[",
        -9.95575024750849
      ],
      [
        "Ġchicken",
        -9.957067449142958
      ],
      [
        "Ġultimate",
        -9.95730512342937
      ],
      [
        "Ġsteel",
        -9.957308744025347
      ],
      [
        "Ġinternational",
        -9.957352822921782
      ],
      [
        "Ġancient",
        -9.957570475903726
      ],
      [
        "Ġtail",
        -9.958602884855065
      ],
      [
        "Ġdish",
        -9.958889960266609
      ],
      [
        "Ġalcohol",
        -9.960745874258771
      ],
      [
        "ĠPi",
        -9.960873649521218
      ],
      [
        "Ġregister",
        -9.962958630243516
      ],
      [
        "ell",
        -9.962961896411471
      ],
      [
        "Ġamylase",
        -9.96365919592995
      ],
      [
        "Ġsecure",
        -9.96375323140285
      ],
      [
        "Ġhazard",
        -9.964285971216126
      ],
      [
        "numerous",
        -9.964286134550816
      ],
      [
        "Ġtoward",
        -9.96429681171626
      ],
      [
        "Ġrandom",
        -9.964299267591166
      ],
      [
        "Ġclassroom",
        -9.964356649447309
      ],
      [
        "Ġcomment",
        -9.964461276276827
      ],
      [
        "Ġengage",
        -9.964698503302069
      ],
      [
        "ong",
        -9.964935173250248
      ],
      [
        "Ġpool",
        -9.965849873557598
      ],
      [
        "Ġtransfer",
        -9.967613286050677
      ],
      [
        "Ġconclusion",
        -9.967794717384244
      ],
      [
        "Ġmo",
        -9.968071632182388
      ],
      [
        "ĠFood",
        -9.968555906050318
      ],
      [
        "Ġspin",
        -9.9685996632412
      ],
      [
        "Ġcoat",
        -9.968953472804198
      ],
      [
        "Ġvisibl",
        -9.96968262782358
      ],
      [
        "ĠEvery",
        -9.969691496651606
      ],
      [
        "AR",
        -9.969881526447663
      ],
      [
        "ug",
        -9.970406758662424
      ],
      [
        "ily",
        -9.970822660341645
      ],
      [
        "pp",
        -9.97101154454342
      ],
      [
        "Ġnote",
        -9.972044887084529
      ],
      [
        "Ġcredit",
        -9.972706827074417
      ],
      [
        "/or",
        -9.97288485302908
      ],
      [
        "Ġoperat",
        -9.973290594118753
      ],
      [
        "Ġprefer",
        -9.973510903184646
      ],
      [
        "Ġshell",
        -9.974000902514469
      ],
      [
        "Ġcalculate",
        -9.974219722073917
      ],
      [
        "mar",
        -9.974305291177492
      ],
      [
        "Ġthin",
        -9.974421057512211
      ],
      [
        "end",
        -9.974630667525355
      ],
      [
        "Ġpreference",
        -9.974964939389924
      ],
      [
        "Ġbillion",
        -9.975473799444408
      ],
      [
        "Ġratio",
        -9.976778879393642
      ],
      [
        "Ġeducational",
        -9.978165901976771
      ],
      [
        "Ġsurvey",
        -9.978395536759294
      ],
      [
        "Ġanxiet",
        -9.979858845455125
      ],
      [
        "Ġassess",
        -9.982050168061884
      ],
      [
        "are",
        -9.982112309007558
      ],
      [
        "Ġbutton",
        -9.982230103171013
      ],
      [
        "Ġexamine",
        -9.982500171944167
      ],
      [
        "izing",
        -9.983348642469291
      ],
      [
        "After",
        -9.983701308851495
      ],
      [
        "Ġowners",
        -9.984456634782784
      ],
      [
        "ĠWhe",
        -9.984685428237588
      ],
      [
        "Ġresource",
        -9.984736583197922
      ],
      [
        "Ġinteract",
        -9.98556157226291
      ],
      [
        "Ġcomprehensive",
        -9.985604585112274
      ],
      [
        "Ġconsume",
        -9.985661299109257
      ],
      [
        "ĠMi",
        -9.985700309820524
      ],
      [
        "Ġradio",
        -9.987940073595848
      ],
      [
        "print",
        -9.987955706144074
      ],
      [
        "Ġprocedure",
        -9.988329235245626
      ],
      [
        "Ġharvest",
        -9.989109899012734
      ],
      [
        "Ġsnow",
        -9.989452211799588
      ],
      [
        "ade",
        -9.989772151196124
      ],
      [
        "Ġhighlight",
        -9.990098188452992
      ],
      [
        "Ġwhose",
        -9.990852870294583
      ],
      [
        "Ġthrow",
        -9.991144364049717
      ],
      [
        "Ġbrush",
        -9.992633556206982
      ],
      [
        "Ġmelt",
        -9.992829783527052
      ],
      [
        "Ġcable",
        -9.993227750869004
      ],
      [
        "Ġbike",
        -9.993341372623162
      ],
      [
        "Ġrisks",
        -9.994232124219485
      ],
      [
        "Ġoccurr",
        -9.99625335591756
      ],
      [
        "Ġthread",
        -9.996344987623536
      ],
      [
        "Ġdefinite",
        -9.996363164065656
      ],
      [
        "ĠWell",
        -9.99695071982628
      ],
      [
        "Ġpredict",
        -9.99706129393368
      ],
      [
        "ology",
        -9.99729805293256
      ],
      [
        "Ġzero",
        -9.998464970409785
      ],
      [
        "ES",
        -9.998946037272493
      ],
      [
        "Ġcars",
        -9.999566679212448
      ],
      [
        "Ġassembl",
        -9.999654691626684
      ],
      [
        "kept",
        -10.000300235959592
      ],
      [
        "Ġlooks",
        -10.000723041669955
      ],
      [
        "ious",
        -10.00079181158634
      ],
      [
        "Ġconduct",
        -10.002045076713577
      ],
      [
        "Ġ<",
        -10.00311542428398
      ],
      [
        "Ġlegal",
        -10.004232904166557
      ],
      [
        "Ġorganisms",
        -10.00451134022468
      ],
      [
        "Ġoffering",
        -10.004890420766955
      ],
      [
        "Ġapart",
        -10.005078015307433
      ],
      [
        "ĠColor",
        -10.00544128168858
      ],
      [
        "Ġstretch",
        -10.005674827586663
      ],
      [
        "older",
        -10.006877244142018
      ],
      [
        "Ġfundamental",
        -10.007226318088705
      ],
      [
        "Ġmember",
        -10.007617087325045
      ],
      [
        "Ġcraft",
        -10.00917578519898
      ],
      [
        "Ġplate",
        -10.009307619368489
      ],
      [
        "Ġgoals",
        -10.009653357106052
      ],
      [
        "Ġexhibit",
        -10.00989481713964
      ],
      [
        "Ġaware",
        -10.010427291053286
      ],
      [
        "Ġvessel",
        -10.010889517047262
      ],
      [
        "Ġcolon",
        -10.012205452847857
      ],
      [
        "Ġpowder",
        -10.014083949492036
      ],
      [
        "Ġhabit",
        -10.01444332544856
      ],
      [
        "Ġmaster",
        -10.014470902274468
      ],
      [
        "Ġgirl",
        -10.014563696768915
      ],
      [
        "Ġintelligence",
        -10.01457820016726
      ],
      [
        "Ġbeaut",
        -10.01458641040161
      ],
      [
        "Ġessay",
        -10.01488699299226
      ],
      [
        "Ġmeter",
        -10.01491635747351
      ],
      [
        "ible",
        -10.014959109471064
      ],
      [
        "Ġwindow",
        -10.015290800254151
      ],
      [
        "Ġblend",
        -10.015349901482242
      ],
      [
        "Ġfair",
        -10.01543674513404
      ],
      [
        "mp",
        -10.015908246038936
      ],
      [
        "Ġrelax",
        -10.018255826575038
      ],
      [
        "Ġcheese",
        -10.018257885160075
      ],
      [
        "Ġuniverse",
        -10.018261679445668
      ],
      [
        "Ġguideline",
        -10.018486639344832
      ],
      [
        "itis",
        -10.018548233552846
      ],
      [
        "ĠPlant",
        -10.020177342235002
      ],
      [
        "Ġfix",
        -10.020705222777206
      ],
      [
        "ight",
        -10.020797645335238
      ],
      [
        "Ġannual",
        -10.021077220537318
      ],
      [
        "nstead",
        -10.021913471972947
      ],
      [
        "ĠRiver",
        -10.021983849620623
      ],
      [
        "Ġreduction",
        -10.022118258222129
      ],
      [
        "ative",
        -10.02218403689859
      ],
      [
        "Ġfeeding",
        -10.023906107919572
      ],
      [
        "ĠSystem",
        -10.02416366089692
      ],
      [
        "Ġsettings",
        -10.024969814880794
      ],
      [
        "Ġarm",
        -10.02516988452746
      ],
      [
        "Ġtraffic",
        -10.025676992742552
      ],
      [
        "Ġparticipant",
        -10.02567699286813
      ],
      [
        "Ġinternet",
        -10.025748548381015
      ],
      [
        "Ġmanual",
        -10.025762845574905
      ],
      [
        "Ġinfant",
        -10.02618902054012
      ],
      [
        "Ġartificial",
        -10.026243121822748
      ],
      [
        "ake",
        -10.026730390021957
      ],
      [
        "Ġca",
        -10.028279508878576
      ],
      [
        "Ġsaying",
        -10.028551180454905
      ],
      [
        "Ġrespect",
        -10.028783108828716
      ],
      [
        "Ġfailure",
        -10.02950265447901
      ],
      [
        "Here",
        -10.030013203786153
      ],
      [
        "Ġupper",
        -10.03014035946684
      ],
      [
        "quality",
        -10.030434260675818
      ],
      [
        "Ġband",
        -10.03106511547026
      ],
      [
        "Ġformation",
        -10.031470042263583
      ],
      [
        "Ġoperate",
        -10.031573844548744
      ],
      [
        "ĠEast",
        -10.031789854930594
      ],
      [
        "Ġtube",
        -10.033081726537286
      ],
      [
        "Ġofficial",
        -10.033154289579558
      ],
      [
        "Ġworry",
        -10.033311806717409
      ],
      [
        "Ġstatus",
        -10.033453104479898
      ],
      [
        "Ġprinciples",
        -10.03369393234492
      ],
      [
        "Ġstatement",
        -10.03461174169143
      ],
      [
        "Ġmechanical",
        -10.03475728774466
      ],
      [
        "pro",
        -10.03612189346072
      ],
      [
        "ka",
        -10.036174564461913
      ],
      [
        "Ġcareer",
        -10.03620190862533
      ],
      [
        "Answer",
        -10.036464179066463
      ],
      [
        "Ġplaying",
        -10.036697202246067
      ],
      [
        "Ġdiamond",
        -10.036913070443047
      ],
      [
        "Ġformula",
        -10.037007152427446
      ],
      [
        "Ġassessment",
        -10.037228920470389
      ],
      [
        "Dr",
        -10.038036253719005
      ],
      [
        "Ġindoor",
        -10.0385008256946
      ],
      [
        "log",
        -10.03983449961004
      ],
      [
        "weight",
        -10.040400888481198
      ],
      [
        "ĠBa",
        -10.040539896845742
      ],
      [
        "Ġbehaviour",
        -10.040686637774922
      ],
      [
        "nternational",
        -10.041379664704058
      ],
      [
        "Ġcalci",
        -10.041565871662266
      ],
      [
        "Ġcarefully",
        -10.041589467954754
      ],
      [
        "Ġfac",
        -10.042404254463731
      ],
      [
        "ĠChina",
        -10.04283559189268
      ],
      [
        "ĠPeople",
        -10.043170033427137
      ],
      [
        "back",
        -10.043612370344984
      ],
      [
        "Ġdescription",
        -10.044626900931156
      ],
      [
        "ebru",
        -10.044754631723835
      ],
      [
        "Ġboil",
        -10.045406313534905
      ],
      [
        "Ġscene",
        -10.045538422587558
      ],
      [
        "Ġhospital",
        -10.046175277306736
      ],
      [
        "Ġattend",
        -10.047888363203452
      ],
      [
        "Ġintend",
        -10.0480246410051
      ],
      [
        "ator",
        -10.0497263096921
      ],
      [
        "Ġpainting",
        -10.049802776080387
      ],
      [
        "Ġinternal",
        -10.049837169254246
      ],
      [
        "Ġintroduc",
        -10.050350725166108
      ],
      [
        "Ġmode",
        -10.050651385747514
      ],
      [
        "Ġseal",
        -10.05158058523557
      ],
      [
        "ather",
        -10.052270764907068
      ],
      [
        "ĠCity",
        -10.052586044709264
      ],
      [
        "Ġautomatic",
        -10.053083190970982
      ],
      [
        "with",
        -10.05413675152931
      ],
      [
        "ĠSa",
        -10.054142036707566
      ],
      [
        "chi",
        -10.05414548748156
      ],
      [
        "Ġborn",
        -10.054665172809612
      ],
      [
        "ĠGreen",
        -10.05503387616326
      ],
      [
        "Ġstories",
        -10.05550495700002
      ],
      [
        "Ġtru",
        -10.055752786849856
      ],
      [
        "Ġweak",
        -10.055805437823825
      ],
      [
        "Ġstomach",
        -10.055925011525945
      ],
      [
        "Ġpredator",
        -10.055932172481278
      ],
      [
        "Ġcontinuous",
        -10.056025713785107
      ],
      [
        "Ġclinical",
        -10.058116373403758
      ],
      [
        "Ġprepare",
        -10.058806245312502
      ],
      [
        "Ġchain",
        -10.059343951759583
      ],
      [
        "Ġtitle",
        -10.059648929695037
      ],
      [
        "Ġport",
        -10.05976122246732
      ],
      [
        "Ġcollege",
        -10.05977121064682
      ],
      [
        "Ġchronic",
        -10.05977123609827
      ],
      [
        "istic",
        -10.059926467083883
      ],
      [
        "Ġemotional",
        -10.060162585559343
      ],
      [
        "ĠKeep",
        -10.060366343581736
      ],
      [
        "Ġtight",
        -10.060683488889314
      ],
      [
        "Ġquant",
        -10.060949221165728
      ],
      [
        "Use",
        -10.061190922686666
      ],
      [
        "Ġguy",
        -10.062423207547948
      ],
      [
        "Ġexam",
        -10.062844287317692
      ],
      [
        "Ġoutdoor",
        -10.062928816613269
      ],
      [
        "ĠUV",
        -10.063248064247585
      ],
      [
        "Ġshot",
        -10.06346770960744
      ],
      [
        "Ġsmart",
        -10.063641167297014
      ],
      [
        "Ġcomposition",
        -10.064210999906834
      ],
      [
        "Ġoptimal",
        -10.064405306543968
      ],
      [
        "Ġprimaril",
        -10.06471545996003
      ],
      [
        "Ġradiation",
        -10.06473292512846
      ],
      [
        "Ġsuffer",
        -10.065530292293428
      ],
      [
        "Ġmill",
        -10.066126795204426
      ],
      [
        "Ġdecline",
        -10.066159868429892
      ],
      [
        "Ġequation",
        -10.06750816463671
      ],
      [
        "Ġnice",
        -10.06763879044615
      ],
      [
        "Ġtrial",
        -10.068300466438846
      ],
      [
        "Ġhydrogen",
        -10.070108716765716
      ],
      [
        "Ġchose",
        -10.070294299599292
      ],
      [
        "Ġhelpful",
        -10.070887969034915
      ],
      [
        "Ġfault",
        -10.07140788062543
      ],
      [
        "Ġwildlife",
        -10.071419245905371
      ],
      [
        "Ġrough",
        -10.071431677767643
      ],
      [
        "Ġeight",
        -10.07156536098942
      ],
      [
        "Ġraw",
        -10.072242606773312
      ],
      [
        "Ġcapabilit",
        -10.072798653696474
      ],
      [
        "Ġadvice",
        -10.073128257357569
      ],
      [
        "Ġadopt",
        -10.07455505822233
      ],
      [
        "Ġattract",
        -10.074593854285794
      ],
      [
        "car",
        -10.0746857192483
      ],
      [
        "ĠBoth",
        -10.07490195463313
      ],
      [
        "Ġlb",
        -10.075939559915543
      ],
      [
        "oid",
        -10.07600374973838
      ],
      [
        "-free",
        -10.076102493284864
      ],
      [
        "Ġfoundation",
        -10.07620725565262
      ],
      [
        "Ġtall",
        -10.077148249707298
      ],
      [
        "ose",
        -10.077569266701085
      ],
      [
        "Ġdestroy",
        -10.077964773194248
      ],
      [
        "ĠAbout",
        -10.078143207830102
      ],
      [
        "Ġrelationships",
        -10.07880972116034
      ],
      [
        "Ġconstruct",
        -10.079174402559556
      ],
      [
        "My",
        -10.07993728964381
      ],
      [
        "Ġinteraction",
        -10.079955203864769
      ],
      [
        "ping",
        -10.080711988542696
      ],
      [
        "ĠFurther",
        -10.081183478637003
      ],
      [
        "port",
        -10.081963652709923
      ],
      [
        "related",
        -10.082836717787474
      ],
      [
        "Ġagriculture",
        -10.083164013090652
      ],
      [
        "Ġbatteries",
        -10.083338653130795
      ],
      [
        "Ġorigin",
        -10.084375208751348
      ],
      [
        "Ġengineering",
        -10.084536888701129
      ],
      [
        "Ġreliabl",
        -10.084818241694665
      ],
      [
        "Ġsecret",
        -10.085817021751131
      ],
      [
        "Ġboost",
        -10.08664168100158
      ],
      [
        "Ġbeneficial",
        -10.08728244543029
      ],
      [
        "Ġaspect",
        -10.08767657642651
      ],
      [
        "Ġprior",
        -10.087713734712178
      ],
      [
        "Ġeliminate",
        -10.088471122080716
      ],
      [
        "Ġcreatures",
        -10.089333860273268
      ],
      [
        "Ġstar",
        -10.089768781008123
      ],
      [
        "Ġdistinct",
        -10.089808830874787
      ],
      [
        "Ġsensitive",
        -10.089882511247229
      ],
      [
        "Ġshar",
        -10.08995329499248
      ],
      [
        "Ġleaf",
        -10.090462833574197
      ],
      [
        "off",
        -10.090664689964
      ],
      [
        "Ġspray",
        -10.091109363144165
      ],
      [
        "Ġemail",
        -10.09113651400751
      ],
      [
        "Ġdatabase",
        -10.091176102986292
      ],
      [
        "Ġnaturally",
        -10.091250715607348
      ],
      [
        "Ġmobile",
        -10.09268104382926
      ],
      [
        "Ġowner",
        -10.092832834696772
      ],
      [
        "tter",
        -10.094097382272842
      ],
      [
        "ĠIndian",
        -10.094368287687978
      ],
      [
        "Ġmolecule",
        -10.09460760351363
      ],
      [
        "Ġdiagram",
        -10.095069254582736
      ],
      [
        "Ġplent",
        -10.095142548247637
      ],
      [
        "dom",
        -10.095613893532114
      ],
      [
        "za",
        -10.095614292737062
      ],
      [
        "@",
        -10.096111759174736
      ],
      [
        "Ġgrass",
        -10.097512243367756
      ],
      [
        "Ġperspective",
        -10.099068899967456
      ],
      [
        "ĠSept",
        -10.099314810211585
      ],
      [
        "Ġresolution",
        -10.09966556559366
      ],
      [
        "set",
        -10.099712299118217
      ],
      [
        "ham",
        -10.10007373937302
      ],
      [
        "ĠCanada",
        -10.100127261144072
      ],
      [
        "Ġsupplie",
        -10.102273034183463
      ],
      [
        "Ġprecise",
        -10.103050117932446
      ],
      [
        "Ġrestaurant",
        -10.103084964789808
      ],
      [
        "Ġlibrar",
        -10.103086013520535
      ],
      [
        "Ġdental",
        -10.103438690355468
      ],
      [
        "Ġscore",
        -10.103605684710814
      ],
      [
        "Ġwish",
        -10.103709328086914
      ],
      [
        "Ġsports",
        -10.1038604437495
      ],
      [
        "Ġtile",
        -10.104105414336072
      ],
      [
        "Ġprepared",
        -10.106866895234353
      ],
      [
        "Ġsauce",
        -10.107117251178783
      ],
      [
        "Ġstandards",
        -10.107300505035267
      ],
      [
        "Pro",
        -10.108300446900545
      ],
      [
        "ĠEl",
        -10.108383869880123
      ],
      [
        "ĠLight",
        -10.109523154440534
      ],
      [
        "Ġstorm",
        -10.10976994197699
      ],
      [
        "Ġappeal",
        -10.111180400657904
      ],
      [
        "Ġinstrument",
        -10.111541402493746
      ],
      [
        "Ġestimated",
        -10.111845667409412
      ],
      [
        "Ġprove",
        -10.112791878523314
      ],
      [
        "ĠHis",
        -10.113020941955778
      ],
      [
        "Ġbi",
        -10.113090803382986
      ],
      [
        "Ġbus",
        -10.113499901912434
      ],
      [
        "Ġcarrier",
        -10.113796381651202
      ],
      [
        "Ġamazing",
        -10.11523110123482
      ],
      [
        "Ġconsequence",
        -10.115231832551988
      ],
      [
        "Ġlaser",
        -10.115324164787287
      ],
      [
        "Ġdangerous",
        -10.115383824406472
      ],
      [
        "Ġpercentage",
        -10.11596370627126
      ],
      [
        "Ġchoos",
        -10.116006890459762
      ],
      [
        "Ġprogramm",
        -10.116096029457308
      ],
      [
        "Ġfirm",
        -10.116400699643393
      ],
      [
        "Ġcm",
        -10.11672879731292
      ],
      [
        "der",
        -10.116795079739475
      ],
      [
        "told",
        -10.11743822962621
      ],
      [
        "Ġmeasur",
        -10.117590229454786
      ],
      [
        "Ġsell",
        -10.11804668662565
      ],
      [
        "ĠLED",
        -10.118509106902431
      ],
      [
        "ĠUn",
        -10.11921847882054
      ],
      [
        "Ġchair",
        -10.119320892249958
      ],
      [
        "Ġillness",
        -10.119332990426638
      ],
      [
        "ball",
        -10.119716377431564
      ],
      [
        "Ġcharg",
        -10.119857609877142
      ],
      [
        "most",
        -10.1214100385125
      ],
      [
        "rate",
        -10.121506564843996
      ],
      [
        "ern",
        -10.121796522664734
      ],
      [
        "ĠWhere",
        -10.12241947627514
      ],
      [
        "Ġrelevant",
        -10.123214253724353
      ],
      [
        "Ġpepper",
        -10.123411036375511
      ],
      [
        "Ġbottle",
        -10.123414023123814
      ],
      [
        "Ġinsurance",
        -10.123418195792606
      ],
      [
        "Ġroof",
        -10.123419295898572
      ],
      [
        "ĠDoes",
        -10.12442364441069
      ],
      [
        "wood",
        -10.12524723023289
      ],
      [
        "formed",
        -10.127494243872537
      ],
      [
        "Ġaudience",
        -10.12752606733268
      ],
      [
        "Ġprofile",
        -10.127548912707551
      ],
      [
        "Ġpropose",
        -10.12757322418658
      ],
      [
        "ru",
        -10.12811131283826
      ],
      [
        "Ġmolecular",
        -10.12843484982233
      ],
      [
        "ĠDog",
        -10.128948233157178
      ],
      [
        "Most",
        -10.12978332298407
      ],
      [
        "air",
        -10.129878311223903
      ],
      [
        "ington",
        -10.129929057160991
      ],
      [
        "Ġbroken",
        -10.130036506968803
      ],
      [
        "Ġimprovement",
        -10.130117427504771
      ],
      [
        "Ġpure",
        -10.13050713668068
      ],
      [
        "Ġshed",
        -10.13066774667393
      ],
      [
        "Ġestimate",
        -10.130681008731395
      ],
      [
        "ĠWest",
        -10.13099810993129
      ],
      [
        "Ġchalleng",
        -10.13122046841261
      ],
      [
        "Ġvariet",
        -10.132376068586844
      ],
      [
        "top",
        -10.13269143485762
      ],
      [
        "coming",
        -10.133430269297625
      ],
      [
        "ĠAsia",
        -10.133729128006348
      ],
      [
        "Ġlens",
        -10.133982966598374
      ],
      [
        "what",
        -10.134056818868707
      ],
      [
        "reality",
        -10.134648620274522
      ],
      [
        "Ġrace",
        -10.135046755654315
      ],
      [
        "Ġleaving",
        -10.135807678971638
      ],
      [
        "ĠTe",
        -10.13585349913839
      ],
      [
        "Ġgear",
        -10.13586916343565
      ],
      [
        "Ġinstallation",
        -10.136423226352994
      ],
      [
        "Ġdisk",
        -10.1365043149968
      ],
      [
        "ja",
        -10.136594795045443
      ],
      [
        "Ġpolitical",
        -10.136621163741424
      ],
      [
        "ĠOcto",
        -10.137111333689743
      ],
      [
        "Ġteach",
        -10.137427411258198
      ],
      [
        "ĠJune",
        -10.139015623903926
      ],
      [
        "Ġconsideration",
        -10.13956965281047
      ],
      [
        "Ġdrain",
        -10.13977883810717
      ],
      [
        "Ġcoffee",
        -10.139974358446953
      ],
      [
        "ĠOcean",
        -10.140593132955155
      ],
      [
        "ide",
        -10.14118046236063
      ],
      [
        "Ġassist",
        -10.14191394243829
      ],
      [
        "Ġhelping",
        -10.141933502574066
      ],
      [
        "Ġheal",
        -10.143988974454004
      ],
      [
        "Ġmineral",
        -10.144082381288245
      ],
      [
        "Ġsurvival",
        -10.144158441680394
      ],
      [
        "Ġmammal",
        -10.14415857455138
      ],
      [
        "Ġorganoid",
        -10.144211056339014
      ],
      [
        "Ġsolve",
        -10.144520905504738
      ],
      [
        "Ġbrake",
        -10.144657826517092
      ],
      [
        "Ġseven",
        -10.144889303798744
      ],
      [
        "Ġnation",
        -10.145303684514912
      ],
      [
        "Ġneuron",
        -10.145436417929968
      ],
      [
        "diversity",
        -10.145733952097755
      ],
      [
        "Are",
        -10.147885158846949
      ],
      [
        "Ġwoman",
        -10.148432758318444
      ],
      [
        "Ġlifestyle",
        -10.148470593775084
      ],
      [
        "Ġex",
        -10.149544214373766
      ],
      [
        "gen",
        -10.149569293671416
      ],
      [
        "kin",
        -10.15053845116807
      ],
      [
        "Ġmold",
        -10.150645428763804
      ],
      [
        "Ġthorough",
        -10.152579546384924
      ],
      [
        "Ġcotton",
        -10.152590753689983
      ],
      [
        "Ġsector",
        -10.152991712620253
      ],
      [
        "ĠWash",
        -10.1531364754908
      ],
      [
        "-level",
        -10.153283871751544
      ],
      [
        "Ġstrain",
        -10.153373310580228
      ],
      [
        "Ġvi",
        -10.154709441216388
      ],
      [
        "ĠHer",
        -10.155082363986136
      ],
      [
        "Ġmeeting",
        -10.155129646300251
      ],
      [
        "Ġbug",
        -10.15514410971987
      ],
      [
        "ĠWorksheets",
        -10.155388095388156
      ],
      [
        "Ġindustrial",
        -10.155410790264693
      ],
      [
        "ĠHuman",
        -10.156110239901423
      ],
      [
        "Ġidentifie",
        -10.156495209577562
      ],
      [
        "ĠHome",
        -10.15670274699987
      ],
      [
        "Ġchapter",
        -10.156816822531358
      ],
      [
        "Ġopinion",
        -10.156817138693755
      ],
      [
        "acific",
        -10.157320226619634
      ],
      [
        "Ġsport",
        -10.157473110329096
      ],
      [
        "Ġobjective",
        -10.157849703148024
      ],
      [
        "ĠJu",
        -10.158071768766328
      ],
      [
        "tood",
        -10.158526440281651
      ],
      [
        "act",
        -10.158721672425202
      ],
      [
        "idian",
        -10.158984993252988
      ],
      [
        "lip",
        -10.159629478587728
      ],
      [
        "Ġformat",
        -10.16020353992473
      ],
      [
        "Ġuniversit",
        -10.161072246314356
      ],
      [
        "Ġprompt",
        -10.161072559019402
      ],
      [
        "Ġreact",
        -10.161073943768184
      ],
      [
        "Ġencounter",
        -10.161075307326474
      ],
      [
        "Ġversatil",
        -10.161097581634191
      ],
      [
        "Ġtechnical",
        -10.161100656158894
      ],
      [
        "Many",
        -10.161311059495024
      ],
      [
        "ĠSun",
        -10.161738392220258
      ],
      [
        "Ġquantit",
        -10.161867458264696
      ],
      [
        "Ġtooth",
        -10.162230080010149
      ],
      [
        "ĠGuide",
        -10.16259152955667
      ],
      [
        "Ġworker",
        -10.162648290993497
      ],
      [
        "ĠTa",
        -10.162722584319551
      ],
      [
        "Ġrid",
        -10.163067780622448
      ],
      [
        "ria",
        -10.163378647986418
      ],
      [
        "und",
        -10.164569336101916
      ],
      [
        "Ġobvious",
        -10.165345643200125
      ],
      [
        "Ġminerals",
        -10.166128180052247
      ],
      [
        "ĠCare",
        -10.16615753416792
      ],
      [
        "Ġclothes",
        -10.166389056911427
      ],
      [
        "Ġperhap",
        -10.16693161582283
      ],
      [
        "Ġsex",
        -10.167565477417895
      ],
      [
        "Ġrais",
        -10.168294406219175
      ],
      [
        "Ġhid",
        -10.168530284517344
      ],
      [
        "that",
        -10.168864139805311
      ],
      [
        "Ġconfirm",
        -10.169125935761013
      ],
      [
        "Conclusion",
        -10.169637498079172
      ],
      [
        "Ġurban",
        -10.169639344734604
      ],
      [
        "Ġfelt",
        -10.169667343411591
      ],
      [
        "Ġsmell",
        -10.169677751974746
      ],
      [
        "itting",
        -10.169807874980282
      ],
      [
        "Ġcapabl",
        -10.170188074077942
      ],
      [
        "Ġtown",
        -10.17126606419808
      ],
      [
        "Ġemotion",
        -10.17131558233048
      ],
      [
        "Ġprivate",
        -10.171479522036083
      ],
      [
        "Yes",
        -10.171744939068397
      ],
      [
        "ĠDesign",
        -10.174195680006612
      ],
      [
        "Ġreward",
        -10.174388722258618
      ],
      [
        "fer",
        -10.174637555890175
      ],
      [
        "ck",
        -10.175952515807497
      ],
      [
        "Ġfields",
        -10.17604155508843
      ],
      [
        "Ġprobabilit",
        -10.177064941102536
      ],
      [
        "Ġsatellite",
        -10.178276838395533
      ],
      [
        "Ġexplanation",
        -10.178276846790926
      ],
      [
        "oxide",
        -10.178805381343054
      ],
      [
        "SS",
        -10.179334972376488
      ],
      [
        "Ġengag",
        -10.17983727516756
      ],
      [
        "Ġbiolog",
        -10.181802376207932
      ],
      [
        "Ġloop",
        -10.182089911055415
      ],
      [
        "Ġshade",
        -10.182329324742746
      ],
      [
        "Ġcompetition",
        -10.182629483143064
      ],
      [
        "Ġsufficient",
        -10.18277286053916
      ],
      [
        "Ġsnail",
        -10.18288336123615
      ],
      [
        "Ġweld",
        -10.183079286891688
      ],
      [
        "Ġdis",
        -10.183544648983288
      ],
      [
        "ĠJanu",
        -10.183560283875291
      ],
      [
        "Ġboundar",
        -10.184169327502843
      ],
      [
        "Ġrealize",
        -10.18504644940394
      ],
      [
        "Ġcrack",
        -10.185413179058774
      ],
      [
        "Ġkitchen",
        -10.1869916571857
      ],
      [
        "AN",
        -10.187507535280083
      ],
      [
        "Ġeconom",
        -10.187632423721952
      ],
      [
        "ĠCount",
        -10.188544182294391
      ],
      [
        "ING",
        -10.189378524168802
      ],
      [
        "cor",
        -10.189605752102135
      ],
      [
        "ĠSan",
        -10.191193120717603
      ],
      [
        "Ġspeak",
        -10.191267841003564
      ],
      [
        "har",
        -10.191324707421971
      ],
      [
        "Ġawareness",
        -10.191664933398894
      ],
      [
        "Ġplanting",
        -10.191865738014602
      ],
      [
        "\"The",
        -10.192105960035086
      ],
      [
        "brough",
        -10.193201920978046
      ],
      [
        "ĠVer",
        -10.193311845631737
      ],
      [
        "Ġcream",
        -10.19393692440639
      ],
      [
        "Ġexplor",
        -10.194246526700878
      ],
      [
        "Ġexcess",
        -10.195490970307194
      ],
      [
        "Ġtrans",
        -10.19549385086739
      ],
      [
        "ock",
        -10.195904496066015
      ],
      [
        "Ġmanner",
        -10.19600150851707
      ],
      [
        "ĠGeneral",
        -10.196186152906204
      ],
      [
        "ĠAustralia",
        -10.196432729505316
      ],
      [
        "ĠLife",
        -10.196704200298887
      ],
      [
        "imp",
        -10.196847724245174
      ],
      [
        "ĠCheck",
        -10.197127054270943
      ],
      [
        "Ġfunctional",
        -10.19725075231758
      ],
      [
        "Ġcooked",
        -10.198125274633394
      ],
      [
        "Ġsaving",
        -10.198436461642912
      ],
      [
        "AL",
        -10.199494832999113
      ],
      [
        "oma",
        -10.199969600346238
      ],
      [
        "Ġabsolute",
        -10.2002075061596
      ],
      [
        "Ġbloom",
        -10.200207570122965
      ],
      [
        "Ġcomparison",
        -10.20020972482058
      ],
      [
        "Ġvast",
        -10.200386741192244
      ],
      [
        "ches",
        -10.201002259630055
      ],
      [
        "Ġmilitar",
        -10.20124905856597
      ],
      [
        "Ġlinked",
        -10.202519956366377
      ],
      [
        "Ġprofessor",
        -10.204651950611543
      ],
      [
        "Ġinnovation",
        -10.204651974023564
      ],
      [
        "Ġtrait",
        -10.204668562904454
      ],
      [
        "Ġvirus",
        -10.20506355092044
      ],
      [
        "stone",
        -10.2050856810123
      ],
      [
        "Ġlift",
        -10.20515225733303
      ],
      [
        "ĠIsland",
        -10.205340099816995
      ],
      [
        "ĠMu",
        -10.205350038365625
      ],
      [
        "Ġtrust",
        -10.205460503213242
      ],
      [
        "Ġstable",
        -10.206098105968028
      ],
      [
        "Ġlie",
        -10.206932139680712
      ],
      [
        "Ġpen",
        -10.208410017072588
      ],
      [
        "ĠRed",
        -10.208738143309851
      ],
      [
        "ster",
        -10.208808699120356
      ],
      [
        "Ã©",
        -10.20911284661968
      ],
      [
        "Ġchocolate",
        -10.209121455831257
      ],
      [
        "ear",
        -10.2091993533672
      ],
      [
        "Ġdownload",
        -10.20935168354391
      ],
      [
        "but",
        -10.209910565733672
      ],
      [
        "IC",
        -10.209932280775591
      ],
      [
        "ola",
        -10.210135063580005
      ],
      [
        "ĠCollege",
        -10.210538017774844
      ],
      [
        "ivity",
        -10.211295974024068
      ],
      [
        "Ġsouth",
        -10.211967245708871
      ],
      [
        "ĠHistor",
        -10.21254952631
      ],
      [
        "Ġcompost",
        -10.21361399661776
      ],
      [
        "-friendl",
        -10.21386031757106
      ],
      [
        "use",
        -10.214091591959468
      ],
      [
        "Ġdirector",
        -10.215181157146937
      ],
      [
        "Ġlock",
        -10.215290106392882
      ],
      [
        "wa",
        -10.215513367993411
      ],
      [
        "Ġdeposit",
        -10.215602480131448
      ],
      [
        "ado",
        -10.215810880457536
      ],
      [
        "...Ċ",
        -10.217012456633814
      ],
      [
        "Ġaccurac",
        -10.21810505500027
      ],
      [
        "Ġvelocit",
        -10.21810509929156
      ],
      [
        "Ġsalivary",
        -10.21824654289938
      ],
      [
        "Ġcoast",
        -10.218496425212075
      ],
      [
        "Ġacademic",
        -10.21916544551886
      ],
      [
        "read",
        -10.219235828566111
      ],
      [
        "Ġpets",
        -10.21956908804184
      ],
      [
        "Ġprinter",
        -10.219942959857857
      ],
      [
        "Ġriver",
        -10.21995715431637
      ],
      [
        "cent",
        -10.220233797215013
      ],
      [
        "ĠCommon",
        -10.22039854117808
      ],
      [
        "Ġspen",
        -10.22042503336252
      ],
      [
        "lan",
        -10.220426247465731
      ],
      [
        "Ġpregnanc",
        -10.220561316017854
      ],
      [
        "Ġrelation",
        -10.221172628505212
      ],
      [
        "Ġweigh",
        -10.2216064708769
      ],
      [
        "Ġclan",
        -10.222563143457435
      ],
      [
        "Ġfurnace",
        -10.222629964796663
      ],
      [
        "Ġbabies",
        -10.222630302172178
      ],
      [
        "Ġcloud",
        -10.222634099959482
      ],
      [
        "Ġexternal",
        -10.222636804380334
      ],
      [
        "Ġsteam",
        -10.222761023505948
      ],
      [
        "Ġreplacement",
        -10.22319802673164
      ],
      [
        "Ġguid",
        -10.22481798855308
      ],
      [
        "Ġinvestment",
        -10.227379265606228
      ],
      [
        "ĠLake",
        -10.22757654900412
      ],
      [
        "Ġaccident",
        -10.228047067528957
      ],
      [
        "Ġdirt",
        -10.228416743354336
      ],
      [
        "ĠSal",
        -10.228496752779147
      ],
      [
        "ĠPower",
        -10.22872256154126
      ],
      [
        "Ġpose",
        -10.229742715876636
      ],
      [
        "Ġhistorical",
        -10.229815770225484
      ],
      [
        "Ġreplac",
        -10.229897594785111
      ],
      [
        "<",
        -10.230533610437964
      ],
      [
        "Ġprinciple",
        -10.231083026376588
      ],
      [
        "Ġlaws",
        -10.231140363553411
      ],
      [
        "Ġmission",
        -10.231576457355368
      ],
      [
        "Ġfoster",
        -10.231776408642824
      ],
      [
        "ĠFree",
        -10.232012023465492
      ],
      [
        "ĠLo",
        -10.232333680571106
      ],
      [
        "ram",
        -10.232338266256086
      ],
      [
        "First",
        -10.232428515015352
      ],
      [
        "Ġdefinition",
        -10.232820140580916
      ],
      [
        "More",
        -10.233088455092249
      ],
      [
        "Ġpar",
        -10.23341120892582
      ],
      [
        "Ġpoly",
        -10.233552344793791
      ],
      [
        "Ġexpos",
        -10.233715279818348
      ],
      [
        "Ġ...Ċ",
        -10.233885193502148
      ],
      [
        "Ġassume",
        -10.235122858705946
      ],
      [
        "Ġclock",
        -10.235867900885433
      ],
      [
        "Ġresponsibilit",
        -10.236328753999013
      ],
      [
        "Ġconversation",
        -10.236328758255002
      ],
      [
        "Ġgift",
        -10.236330482567764
      ],
      [
        "ĠHighland",
        -10.23663427110064
      ],
      [
        "Just",
        -10.237101615007177
      ],
      [
        "aging",
        -10.237583069266387
      ],
      [
        "Ġagent",
        -10.237772173822991
      ],
      [
        "Ġliver",
        -10.237798363493358
      ],
      [
        "ford",
        -10.23796490480366
      ],
      [
        "Ġstability",
        -10.241000105161277
      ],
      [
        "Ġmanag",
        -10.242055317203992
      ],
      [
        "Ġapproache",
        -10.242277477308612
      ],
      [
        "Ġincorporat",
        -10.242857599287609
      ],
      [
        "Ġsent",
        -10.243512861664652
      ],
      [
        "|Ċ",
        -10.24428374589936
      ],
      [
        "osis",
        -10.244345115609963
      ],
      [
        "made",
        -10.244432952818528
      ],
      [
        "Ġincorporate",
        -10.245113928864928
      ],
      [
        "ĠClass",
        -10.245478161510398
      ],
      [
        "ĠObs",
        -10.245695103751393
      ],
      [
        "Ġshop",
        -10.246297693786053
      ],
      [
        "-time",
        -10.246340685495753
      ],
      [
        "ĠEn",
        -10.24653380833772
      ],
      [
        "Ġinner",
        -10.246652190277404
      ],
      [
        "Ġship",
        -10.247338874739665
      ],
      [
        "Ġdecided",
        -10.247513464092318
      ],
      [
        "Ġmoon",
        -10.247810875432084
      ],
      [
        "Ġprovider",
        -10.248518520495733
      ],
      [
        "Ġsharp",
        -10.24961203509669
      ],
      [
        "Ġanalyze",
        -10.249705919768443
      ],
      [
        "Ġsurprise",
        -10.250217840577935
      ],
      [
        "Ġvacuum",
        -10.25021789746924
      ],
      [
        "Ġbill",
        -10.250481087028486
      ],
      [
        "Ġpan",
        -10.250488305863144
      ],
      [
        "ĠEnergy",
        -10.250943703459797
      ],
      [
        "Ġbecom",
        -10.25095590997881
      ],
      [
        "Ġputt",
        -10.2510859134239
      ],
      [
        "ker",
        -10.2514004554415
      ],
      [
        "New",
        -10.251423989917804
      ],
      [
        "ki",
        -10.25180231125286
      ],
      [
        "Over",
        -10.251955848580668
      ],
      [
        "ĠGet",
        -10.252235733746163
      ],
      [
        "Ġcombin",
        -10.252483498143247
      ],
      [
        "Ġcrystal",
        -10.253165953170484
      ],
      [
        "some",
        -10.253381889826509
      ],
      [
        "Ġcarried",
        -10.253988775321748
      ],
      [
        "-the",
        -10.254705491622024
      ],
      [
        "Ġconflict",
        -10.254890738094453
      ],
      [
        "Ġscenario",
        -10.254890747005923
      ],
      [
        "Ġupdate",
        -10.256141721545765
      ],
      [
        "Your",
        -10.256587491130398
      ],
      [
        "Ġopening",
        -10.2574438925055
      ],
      [
        "Ġcovers",
        -10.258300591320602
      ],
      [
        "Ġrespective",
        -10.258561764491825
      ],
      [
        "ĠPage",
        -10.259280325132895
      ],
      [
        "ĠAugust",
        -10.25949452239336
      ],
      [
        "bit",
        -10.259571551277023
      ],
      [
        "Ġdiagnose",
        -10.261731648499524
      ],
      [
        "Ġvs",
        -10.261770956828716
      ],
      [
        "Ġdigest",
        -10.261886319540366
      ],
      [
        "Ġfiles",
        -10.262035197044415
      ],
      [
        "ĠSe",
        -10.262635428149022
      ],
      [
        "Ġdiameter",
        -10.264303443928473
      ],
      [
        "Ġinteractions",
        -10.264310492637826
      ],
      [
        "ĠBorder",
        -10.264399292025407
      ],
      [
        "Ġlung",
        -10.2644029753295
      ],
      [
        "Ġsunlight",
        -10.26445154537023
      ],
      [
        "-C",
        -10.264543154776495
      ],
      [
        "Ġpreparation",
        -10.264645317666684
      ],
      [
        "cha",
        -10.264913707177858
      ],
      [
        "Ġrely",
        -10.26539717665626
      ],
      [
        "].",
        -10.265561286100382
      ],
      [
        "Ġshowing",
        -10.266600184027778
      ],
      [
        "Ġsold",
        -10.267296196002125
      ],
      [
        "Ġcrush",
        -10.267378296556524
      ],
      [
        "Ġobes",
        -10.26905292431259
      ],
      [
        "Ġtomato",
        -10.269082111581548
      ],
      [
        "Ġworkshop",
        -10.269107447083734
      ],
      [
        "ĠGu",
        -10.269487872172649
      ],
      [
        "ĠLike",
        -10.270262572403382
      ],
      [
        "Ġvariable",
        -10.27064829188772
      ],
      [
        "Ġma",
        -10.27106602144304
      ],
      [
        "Ġpermanent",
        -10.271077248743556
      ],
      [
        "Ġwasn",
        -10.27179343064601
      ],
      [
        "Ġexchange",
        -10.271942770549613
      ],
      [
        "Ġwet",
        -10.273246915736664
      ],
      [
        "Ġdecide",
        -10.273427748550972
      ],
      [
        "ĠAC",
        -10.273715212645694
      ],
      [
        "Ġbigger",
        -10.273932252956763
      ],
      [
        "ric",
        -10.274145844580724
      ],
      [
        "Ġtrend",
        -10.274375000505769
      ],
      [
        "Ġcap",
        -10.274690337065229
      ],
      [
        "Ġwro",
        -10.275328636977772
      ],
      [
        "ĠWorksheet",
        -10.275416617501868
      ],
      [
        "Ġbowl",
        -10.275485652918908
      ],
      [
        "According",
        -10.275656268206635
      ],
      [
        "?\"",
        -10.275883210130209
      ],
      [
        "Ġscratch",
        -10.276053511167907
      ],
      [
        "ĠRead",
        -10.276430444244514
      ],
      [
        "Ġroute",
        -10.2767923358776
      ],
      [
        "Ġmine",
        -10.27698755223006
      ],
      [
        "Ġisland",
        -10.277410987271454
      ],
      [
        "Ġcommunicate",
        -10.278363107026744
      ],
      [
        "Ġdiagnosi",
        -10.278588486897029
      ],
      [
        "Ġhousehold",
        -10.278653814322755
      ],
      [
        "Ġassistant",
        -10.278819406053188
      ],
      [
        "Ġexcessive",
        -10.278940928565266
      ],
      [
        "see",
        -10.279281422519276
      ],
      [
        "Ġnorth",
        -10.279331250281423
      ],
      [
        "Ġrose",
        -10.280050923322454
      ],
      [
        "Ġmath",
        -10.280225308056128
      ],
      [
        "eath",
        -10.28327050714896
      ],
      [
        "ĠEngland",
        -10.283396351029053
      ],
      [
        "ĠSociety",
        -10.28383923435289
      ],
      [
        "ĠUp",
        -10.284553293110566
      ],
      [
        "ĠÂ·",
        -10.28457681551385
      ],
      [
        "Ġride",
        -10.285787460481464
      ],
      [
        "Ġengineer",
        -10.285832312101416
      ],
      [
        "Ġfarmers",
        -10.285840057636197
      ],
      [
        "gre",
        -10.287205720030654
      ],
      [
        "ĠHave",
        -10.28723614731047
      ],
      [
        "Ġthermal",
        -10.287247402254192
      ],
      [
        "Ġnutrition",
        -10.28732415587174
      ],
      [
        "Ġleak",
        -10.287943514588004
      ],
      [
        "Ġreli",
        -10.288118999857977
      ],
      [
        "Ġextensive",
        -10.288227161204873
      ],
      [
        "Ġborder",
        -10.288252981030814
      ],
      [
        "Ġspectrum",
        -10.28852872080532
      ],
      [
        "cities",
        -10.289096223593214
      ],
      [
        "Ġnovel",
        -10.289215823616704
      ],
      [
        "Ġbean",
        -10.289304816606096
      ],
      [
        "Ġstudied",
        -10.28936690989304
      ],
      [
        "Onc",
        -10.289450554362194
      ],
      [
        "Ġboat",
        -10.28991919098702
      ],
      [
        "Ġdebri",
        -10.2900879317593
      ],
      [
        "Let",
        -10.290938041995451
      ],
      [
        "ĠPer",
        -10.291622332623588
      ],
      [
        "Ġappears",
        -10.292582229865811
      ],
      [
        "ĠThus",
        -10.292791023908856
      ],
      [
        "Ġfamiliar",
        -10.29300814753686
      ],
      [
        "Ġdedicate",
        -10.29308228561188
      ],
      [
        "Ġparallel",
        -10.293118994838569
      ],
      [
        "Ġcalm",
        -10.293127472345107
      ],
      [
        "Ġinvention",
        -10.29345973779278
      ],
      [
        "Ġclans",
        -10.294298205435602
      ],
      [
        "Ġconducted",
        -10.296707130266135
      ],
      [
        "Ġherb",
        -10.296723121329316
      ],
      [
        "Ġinch",
        -10.2980696237429
      ],
      [
        "ĠProgram",
        -10.299336282335538
      ],
      [
        "Ġlaborator",
        -10.299355652182758
      ],
      [
        "ĠBlue",
        -10.299963113285433
      ],
      [
        "Ġemployees",
        -10.299978443536355
      ],
      [
        "ĠWhite",
        -10.299978664782897
      ],
      [
        "ĠMin",
        -10.30050001912293
      ],
      [
        "Ġdimension",
        -10.300787626211262
      ],
      [
        "Ġtea",
        -10.301960695282904
      ],
      [
        "han",
        -10.302228328000188
      ],
      [
        "(x",
        -10.302262431195008
      ],
      [
        "ĠToday",
        -10.302311295138669
      ],
      [
        "Ġwin",
        -10.30281487940834
      ],
      [
        "Ġinflammation",
        -10.302865933556912
      ],
      [
        "Ġtransmission",
        -10.30288604229595
      ],
      [
        "ĠTwo",
        -10.30288839010482
      ],
      [
        "ĠFrench",
        -10.302912134345236
      ],
      [
        "Ġgreenhouse",
        -10.302949630688284
      ],
      [
        "Ġcircle",
        -10.303036572149512
      ],
      [
        "ĠCouncil",
        -10.304705473191966
      ],
      [
        "Ġpop",
        -10.305088885909235
      ],
      [
        "ĠGa",
        -10.305096612137786
      ],
      [
        "&",
        -10.305145235691292
      ],
      [
        "ĠGoogle",
        -10.305374783387098
      ],
      [
        "Ġbreath",
        -10.306162106260691
      ],
      [
        "ĠTHE",
        -10.306610299971544
      ],
      [
        "led",
        -10.306753506632358
      ],
      [
        "onic",
        -10.307274250444667
      ],
      [
        "Ġgradual",
        -10.307787876324843
      ],
      [
        "Ġsudden",
        -10.307787951142556
      ],
      [
        "Ġbelief",
        -10.307789800432104
      ],
      [
        "Ġopposite",
        -10.30779057760579
      ],
      [
        "Ġconfidence",
        -10.30779162029667
      ],
      [
        "Ġgrant",
        -10.307915077046829
      ],
      [
        "Ġmutation",
        -10.307950418757112
      ],
      [
        "Ġchest",
        -10.30801356500936
      ],
      [
        "Ġrot",
        -10.308739915813495
      ],
      [
        "Ġevolve",
        -10.30887120336152
      ],
      [
        "going",
        -10.308972570900028
      ],
      [
        "Ġcalorie",
        -10.310565905838486
      ],
      [
        "ĠSch",
        -10.31092620306881
      ],
      [
        "ST",
        -10.31094239806999
      ],
      [
        "ĠNe",
        -10.311460479767607
      ],
      [
        "Ġsizes",
        -10.31184442346771
      ],
      [
        "Ġutilize",
        -10.311937900075415
      ],
      [
        "Ġnitrogen",
        -10.31275407752789
      ],
      [
        "Ġabuse",
        -10.31325540585598
      ],
      [
        "Ġcarbohydrate",
        -10.31335607058171
      ],
      [
        "Ġatoms",
        -10.313466682768768
      ],
      [
        "LE",
        -10.31402193689508
      ],
      [
        "Ġfather",
        -10.314140288304468
      ],
      [
        "Ġgraph",
        -10.314543882526657
      ],
      [
        "Ġregulate",
        -10.314875348437898
      ],
      [
        "ĠTime",
        -10.31629353081428
      ],
      [
        "Ġflood",
        -10.31772337499484
      ],
      [
        "Ġtoxic",
        -10.31787658711455
      ],
      [
        "ĠPleas",
        -10.318114351245534
      ],
      [
        "Ġagenc",
        -10.318123351342656
      ],
      [
        "Ġcloser",
        -10.319792858623078
      ],
      [
        "Ġcheap",
        -10.320242298818869
      ],
      [
        "Ġinfect",
        -10.320487142046924
      ],
      [
        "ĠCat",
        -10.321741546478783
      ],
      [
        "ĠAny",
        -10.322035783511248
      ],
      [
        "Ġnose",
        -10.3221324693493
      ],
      [
        "Ġpartner",
        -10.322681043002326
      ],
      [
        "Ġvalve",
        -10.322713834572369
      ],
      [
        "Ġinfrastructure",
        -10.322718678945732
      ],
      [
        "Ġbudget",
        -10.322726178285816
      ],
      [
        "Ġintroduction",
        -10.322844354545603
      ],
      [
        "ole",
        -10.322922089051138
      ],
      [
        "Ġheavi",
        -10.32313417038757
      ],
      [
        "Ġimagine",
        -10.323767150684324
      ],
      [
        "Ġcurve",
        -10.323883370763184
      ],
      [
        "ĠEx",
        -10.324318832572876
      ],
      [
        "Ġintake",
        -10.324333041146224
      ],
      [
        "ĠTake",
        -10.324855779202618
      ],
      [
        "Ġchoices",
        -10.325721310228252
      ],
      [
        "Ġtrouble",
        -10.32576268385887
      ],
      [
        "Ġloose",
        -10.32576498160805
      ],
      [
        "From",
        -10.32622077692649
      ],
      [
        "Ġho",
        -10.326862067497045
      ],
      [
        "Ġtradition",
        -10.327022250955023
      ],
      [
        "Ġdelicious",
        -10.327738363882576
      ],
      [
        "Ġguess",
        -10.327746370682368
      ],
      [
        "Ġresident",
        -10.327792317732056
      ],
      [
        "Ġdelay",
        -10.327940891372936
      ],
      [
        "uck",
        -10.328099415372126
      ],
      [
        "ĠPart",
        -10.32838605013901
      ],
      [
        "Ġphotos",
        -10.3284520803368
      ],
      [
        "Ġflea",
        -10.32907998985422
      ],
      [
        "Ġcorresponding",
        -10.329329343904078
      ],
      [
        "ĠFa",
        -10.329448916178585
      ],
      [
        "ĠMac",
        -10.330627029572527
      ],
      [
        "-of",
        -10.330652345844229
      ],
      [
        "Ġconsult",
        -10.331960230815346
      ],
      [
        "Ġconcret",
        -10.332788845522158
      ],
      [
        "Ġseparation",
        -10.333007222429966
      ],
      [
        "Not",
        -10.333184180331102
      ],
      [
        "long",
        -10.333257222003445
      ],
      [
        "ĠII",
        -10.33377395298312
      ],
      [
        "Ġneck",
        -10.337067104329869
      ],
      [
        "Ġminimize",
        -10.337814817351306
      ],
      [
        "Ġinnovative",
        -10.337868885336858
      ],
      [
        "Ġnorthern",
        -10.337913133237617
      ],
      [
        "Ġreceiv",
        -10.337965967670636
      ],
      [
        "ĠWill",
        -10.338166155863554
      ],
      [
        "Ġshapes",
        -10.338290418884318
      ],
      [
        "ĠMr",
        -10.339575157044642
      ],
      [
        "iv",
        -10.339622507938536
      ],
      [
        "gin",
        -10.34039043728883
      ],
      [
        "Ġintensit",
        -10.340552054866258
      ],
      [
        "Ġdescrib",
        -10.340678739402655
      ],
      [
        "Br",
        -10.340854332391425
      ],
      [
        "bar",
        -10.342217832518344
      ],
      [
        "Ġwashing",
        -10.342399092463983
      ],
      [
        "Ġsalmon",
        -10.342951617951268
      ],
      [
        "Ġblade",
        -10.342968112354992
      ],
      [
        "Ġluck",
        -10.34337915826626
      ],
      [
        "Ġcamp",
        -10.343428823036476
      ],
      [
        "Ġcoral",
        -10.34375980427961
      ],
      [
        "ways",
        -10.34530894413322
      ],
      [
        "Ġmassive",
        -10.346129864097904
      ],
      [
        "Ġstroke",
        -10.347004844227918
      ],
      [
        "form",
        -10.347939298406558
      ],
      [
        "Ġexciting",
        -10.348113343958929
      ],
      [
        "Ġshock",
        -10.348130027357106
      ],
      [
        "Ġarrangement",
        -10.348222570429778
      ],
      [
        "lat",
        -10.34834802182094
      ],
      [
        "Ġconcepts",
        -10.348397384792335
      ],
      [
        "ĠRNA",
        -10.34858163791253
      ],
      [
        "Ġcow",
        -10.349382821575364
      ],
      [
        "Ġwouldn",
        -10.3494684646765
      ],
      [
        "uff",
        -10.349517110328485
      ],
      [
        "Ġtrace",
        -10.349920535816896
      ],
      [
        "Ġhormone",
        -10.351063762905198
      ],
      [
        "ĠHa",
        -10.351771714917128
      ],
      [
        "ĠTh",
        -10.352582503062605
      ],
      [
        "ĠWi",
        -10.353166149342726
      ],
      [
        "Ġparticle",
        -10.354054745777882
      ],
      [
        "ership",
        -10.354194407958497
      ],
      [
        "ĠCor",
        -10.354494527253165
      ],
      [
        "ĠAnimal",
        -10.355008443566105
      ],
      [
        "my",
        -10.355470587254532
      ],
      [
        "ĠPre",
        -10.3558779948471
      ],
      [
        "pl",
        -10.356226289679132
      ],
      [
        "tri",
        -10.356880672433777
      ],
      [
        "ĠLab",
        -10.357301561786738
      ],
      [
        "Â",
        -10.357452208797705
      ],
      [
        "Ġsmok",
        -10.358298745244616
      ],
      [
        "Ġirrigation",
        -10.358437614420977
      ],
      [
        "ĠFrance",
        -10.3584388466424
      ],
      [
        "Ġalign",
        -10.358492081912868
      ],
      [
        "ĠControl",
        -10.35855928085748
      ],
      [
        "Ġflexi",
        -10.35889580710909
      ],
      [
        "Ġdamaged",
        -10.35910751566332
      ],
      [
        "Ġsubstance",
        -10.35940271082898
      ],
      [
        "ign",
        -10.359404876536868
      ],
      [
        "Ġbutter",
        -10.360404944811853
      ],
      [
        "Ġcoal",
        -10.360477917410646
      ],
      [
        "len",
        -10.360796177818166
      ],
      [
        "ĠWindow",
        -10.361687544510682
      ],
      [
        "MS",
        -10.361738871694367
      ],
      [
        "ĠStudents",
        -10.3624971984042
      ],
      [
        "Which",
        -10.36292470182904
      ],
      [
        "Ġincredibl",
        -10.363355395223175
      ],
      [
        "SE",
        -10.363495352877033
      ],
      [
        "Ġcampaign",
        -10.363639635543148
      ],
      [
        "Ġchief",
        -10.36363969970722
      ],
      [
        "âĪĴ",
        -10.363640423120732
      ],
      [
        "Ġcareful",
        -10.36402723139676
      ],
      [
        "ĠAdd",
        -10.364213447825689
      ],
      [
        "Ġmeant",
        -10.36435490784944
      ],
      [
        "ĠGarden",
        -10.364500123489968
      ],
      [
        "Ġnotes",
        -10.364855253956566
      ],
      [
        "Ġnurse",
        -10.36546225345574
      ],
      [
        "ified",
        -10.365612742986398
      ],
      [
        "Ġgav",
        -10.365672366013747
      ],
      [
        "ĠBio",
        -10.366082552246692
      ],
      [
        "Ġshoulder",
        -10.366187710084724
      ],
      [
        "Ġfamous",
        -10.366455665006855
      ],
      [
        "Ġexcept",
        -10.367131190522985
      ],
      [
        "Ġinterface",
        -10.368875778741849
      ],
      [
        "Ġtumor",
        -10.368876549271082
      ],
      [
        "Ġargument",
        -10.36890995724834
      ],
      [
        "Ġcur",
        -10.368939249902851
      ],
      [
        "ĠDevelopment",
        -10.368978968975656
      ],
      [
        "Ġsignificance",
        -10.369058412148648
      ],
      [
        "Ġnewborn",
        -10.369098405853654
      ],
      [
        "ries",
        -10.369154489592503
      ],
      [
        "Ġrow",
        -10.369181624637854
      ],
      [
        "ĠSu",
        -10.36933688311002
      ],
      [
        "ash",
        -10.36948022863475
      ],
      [
        "com",
        -10.3695355630732
      ],
      [
        "Ġvertical",
        -10.36984131977152
      ],
      [
        "Ġmention",
        -10.369954350873527
      ],
      [
        "AM",
        -10.370611584684672
      ],
      [
        "nternet",
        -10.370963620779763
      ],
      [
        "Ġcontract",
        -10.372509447752826
      ],
      [
        "Ġyard",
        -10.372585092743808
      ],
      [
        "cut",
        -10.372686573005817
      ],
      [
        "Every",
        -10.373669299782396
      ],
      [
        "del",
        -10.374072173272175
      ],
      [
        "Ġmembrane",
        -10.374143350787902
      ],
      [
        "Ġcopper",
        -10.37416699112654
      ],
      [
        "Ġtwic",
        -10.374168006928604
      ],
      [
        "Ġimpossibl",
        -10.37424318700387
      ],
      [
        "ĠKo",
        -10.374268751263436
      ],
      [
        "Ġrod",
        -10.374506910240122
      ],
      [
        "cat",
        -10.374875823501728
      ],
      [
        "oster",
        -10.375000777453517
      ],
      [
        "Ġnet",
        -10.375704421493683
      ],
      [
        "Ġmarketing",
        -10.37577675293758
      ],
      [
        "Ġloud",
        -10.376932254771264
      ],
      [
        "Ġgap",
        -10.37764898782012
      ],
      [
        "Ġcorn",
        -10.377970776516246
      ],
      [
        "ĠNote",
        -10.378376657480388
      ],
      [
        "Ġcent",
        -10.379218465342577
      ],
      [
        "Ġwhale",
        -10.379453135730545
      ],
      [
        "Ġcognitive",
        -10.37949665787212
      ],
      [
        "ĠAr",
        -10.381023184724578
      ],
      [
        "Ġfertilizer",
        -10.381273476173408
      ],
      [
        "ĠThrough",
        -10.381351710817508
      ],
      [
        "Ġouter",
        -10.38144650220794
      ],
      [
        "Ġequivalent",
        -10.381557687827192
      ],
      [
        "{",
        -10.382173357691642
      ],
      [
        "ĠNatural",
        -10.382553012820274
      ],
      [
        "Ġpin",
        -10.38296204110149
      ],
      [
        "Ġdishe",
        -10.383388860181393
      ],
      [
        "ĠNor",
        -10.38381929553382
      ],
      [
        "ĠSee",
        -10.384512760351711
      ],
      [
        "Ġorange",
        -10.384837613230768
      ],
      [
        "OH",
        -10.385042830254246
      ],
      [
        "Ġexperienc",
        -10.38600282327069
      ],
      [
        "ĠTechnology",
        -10.386886679383922
      ],
      [
        "Ġsales",
        -10.387008519968788
      ],
      [
        "Ġtrail",
        -10.387089198381116
      ],
      [
        "Ġtruck",
        -10.387499015914717
      ],
      [
        "rid",
        -10.3876712064586
      ],
      [
        "ix",
        -10.387939951659623
      ],
      [
        "Ġemerg",
        -10.388435574030566
      ],
      [
        "Ġscar",
        -10.388552214658135
      ],
      [
        "Ġim",
        -10.388619075980728
      ],
      [
        "Ġchart",
        -10.3890144824303
      ],
      [
        "ĠWork",
        -10.38927519050738
      ],
      [
        "Ġmovie",
        -10.389576370016504
      ],
      [
        "ĠFind",
        -10.390013031764203
      ],
      [
        "Ġbattle",
        -10.390018846427566
      ],
      [
        "ĠMedicine",
        -10.390096051930207
      ],
      [
        "Ġscrew",
        -10.390097024900392
      ],
      [
        "Ġbiggest",
        -10.390097256686303
      ],
      [
        "IN",
        -10.390145959277374
      ],
      [
        "Ġfocuse",
        -10.390319375285353
      ],
      [
        "from",
        -10.390708957047783
      ],
      [
        "Ġphysic",
        -10.390919008101063
      ],
      [
        "Ġmemor",
        -10.392384811584297
      ],
      [
        "Ġspecialize",
        -10.392890279765584
      ],
      [
        "-being",
        -10.393045931264371
      ],
      [
        "Ġcl",
        -10.39306845181917
      ],
      [
        "win",
        -10.39322812479396
      ],
      [
        "Ġsh",
        -10.3934554041221
      ],
      [
        "Ġworse",
        -10.3935724617103
      ],
      [
        "Ġplays",
        -10.393637563246957
      ],
      [
        "Ġcrusher",
        -10.394426516666767
      ],
      [
        "mor",
        -10.394956203259769
      ],
      [
        "Ġjuice",
        -10.395146425383338
      ],
      [
        "Ġfurniture",
        -10.395473764918696
      ],
      [
        "Ġcollaboration",
        -10.395592494289527
      ],
      [
        "ĠPost",
        -10.395640933881282
      ],
      [
        "gh",
        -10.395775229967926
      ],
      [
        "Ġunlike",
        -10.396149801067896
      ],
      [
        "Ġparticipate",
        -10.396542182883056
      ],
      [
        "Ġalter",
        -10.39662359414412
      ],
      [
        "Ġmeta",
        -10.396632194343372
      ],
      [
        "Ġreceptor",
        -10.397037443262883
      ],
      [
        "Ġgun",
        -10.398058597389916
      ],
      [
        "Ġaesthetic",
        -10.39856317467506
      ],
      [
        "Ġformer",
[...]
