{
  "version": "1.0",
  "truncation": null,
  "padding": null,
  "added_tokens": [
    {
      "id": 0,
      "content": "<|bos|>",
      "single_word": false,
      "lstrip": false,
      "rstrip": false,
      "normalized": false,
      "special": true
    },
    {
      "id": 1,
      "content": "<|user_start|>",
      "single_word": false,
      "lstrip": false,
      "rstrip": false,
      "normalized": false,
      "special": true
    },
    {
      "id": 2,
      "content": "<|user_end|>",
      "single_word": false,
      "lstrip": false,
      "rstrip": false,
      "normalized": false,
      "special": true
    },
    {
      "id": 3,
      "content": "<|assistant_start|>",
      "single_word": false,
      "lstrip": false,
      "rstrip": false,
      "normalized": false,
      "special": true
    },
    {
      "id": 4,
      "content": "<|assistant_end|>",
      "single_word": false,
      "lstrip": false,
      "rstrip": false,
      "normalized": false,
      "special": true
    },
    {
      "id": 5,
      "content": "<|python_start|>",
      "single_word": false,
      "lstrip": false,
      "rstrip": false,
      "normalized": false,
      "special": true
    },
    {
      "id": 6,
      "content": "<|python_end|>",
      "single_word": false,
      "lstrip": false,
      "rstrip": false,
      "normalized": false,
      "special": true
    },
    {
      "id": 7,
      "content": "<|output_start|>",
      "single_word": false,
      "lstrip": false,
      "rstrip": false,
      "normalized": false,
      "special": true
    },
    {
      "id": 8,
      "content": "<|output_end|>",
      "single_word": false,
      "lstrip": false,
      "rstrip": false,
      "normalized": false,
      "special": true
    },
    {
      "id": 9,
      "content": "<|unk|>",
      "single_word": false,
      "lstrip": false,
      "rstrip": false,
      "normalized": false,
      "special": true
    }
  ],
  "normalizer": null,
  "pre_tokenizer": {
    "type": "Sequence",
    "pretokenizers": [
      {
        "type": "Split",
        "pattern": {
          "Regex": "'(?i:[sdmt]|ll|ve|re)|[^\\r\\n\\p{L}\\p{N}]?+\\p{L}+|\\p{N}{1,2}| ?[^\\s\\p{L}\\p{N}]++[\\r\\n]*|\\s*[\\r\\n]|\\s+(?!\\S)|\\s+"
        },
        "behavior": "Isolated",
        "invert": false
      },
      {
        "type": "ByteLevel",
        "add_prefix_space": false,
        "trim_offsets": true,
        "use_regex": false
      }
    ]
  },
  "post_processor": {
    "type": "TemplateProcessing",
    "single": [
      {
        "Sequence": {
          "id": "A",
          "type_id": 0
        }
      }
    ],
    "pair": [
      {
        "Sequence": {
          "id": "A",
          "type_id": 0
        }
      },
      {
        "Sequence": {
          "id": "B",
          "type_id": 1
        }
      }
    ],
    "special_tokens": {}
  },
  "decoder": null,
  "model": {
    "type": "Unigram",
    "unk_id": 9,
    "vocab": [
      [
        "<|bos|>",
        0.0
      ],
      [
        "<|user_start|>",
        0.0
      ],
      [
        "<|user_end|>",
        0.0
      ],
      [
        "<|assistant_start|>",
        0.0
      ],
      [
        "<|assistant_end|>",
        0.0
      ],
      [
        "<|python_start|>",
        0.0
      ],
      [
        "<|python_end|>",
        0.0
      ],
      [
        "<|output_start|>",
        0.0
      ],
      [
        "<|output_end|>",
        0.0
      ],
      [
        "<|unk|>",
        0.0
      ],
      [
        "Ġ",
        -2.190514098249917
      ],
      [
        "s",
        -3.072765328651234
      ],
      [
        ",",
        -3.5707988461650793
      ],
      [
        "Ġthe",
        -3.582215183695917
      ],
      [
        ".",
        -3.8121129143781953
      ],
      [
        "a",
        -4.114948879384961
      ],
      [
        "Ġof",
        -4.234211728394067
      ],
      [
        "Ġto",
        -4.399429234470791
      ],
      [
        "d",
        -4.419802793537205
      ],
      [
        "Ġand",
        -4.473517952819895
      ],
      [
        "t",
        -4.548247692684551
      ],
      [
        "e",
        -4.558428208410538
      ],
      [
        "ing",
        -4.6048712863915675
      ],
      [
        "Ġin",
        -4.796839131385534
      ],
      [
        "y",
        -4.849121054460532
      ],
      [
        "o",
        -4.9140920581835665
      ],
      [
        "0",
        -5.046723637838477
      ],
      [
        "'",
        -5.067135886731945
      ],
      [
        "and",
        -5.089372503004585
      ],
      [
        "Ċ",
        -5.103184309696973
      ],
      [
        "i",
        -5.181652825242423
      ],
      [
        "1",
        -5.196000328651037
      ],
      [
        "Ġfor",
        -5.220022692351758
      ],
      [
        "Ġthat",
        -5.231165417982501
      ],
      [
        ":",
        -5.2968297259516905
      ],
      [
        "n",
        -5.333390955939489
      ],
      [
        "2",
        -5.386124952748919
      ],
      [
        "ly",
        -5.409911522067123
      ],
      [
        ".ĊĊ",
        -5.477499627411651
      ],
      [
        "is",
        -5.504754489216523
      ],
      [
        "Ġyou",
        -5.514132249861218
      ],
      [
        "Ġwith",
        -5.52359079561646
      ],
      [
        ".Ċ",
        -5.614998971598876
      ],
      [
        "r",
        -5.651690286269298
      ],
      [
        "Ġbe",
        -5.670117674012802
      ],
      [
        "Ġis",
        -5.725466584811462
      ],
      [
        "Ġcan",
        -5.73314328725508
      ],
      [
        "-",
        -5.757029137862855
      ],
      [
        "on",
        -5.780727171220338
      ],
      [
        "Ġare",
        -5.791997946801143
      ],
      [
        "ed",
        -5.816743541117475
      ],
      [
        "the",
        -5.865741039464039
      ],
      [
        "ĊĊ",
        -5.909965885425768
      ],
      [
        "Ġyour",
        -5.951575210501897
      ],
      [
        "Ġa",
        -6.009624684851479
      ],
      [
        "(",
        -6.032692524581487
      ],
      [
        "to",
        -6.03377034330874
      ],
      [
        "\"",
        -6.046586903091688
      ],
      [
        "3",
        -6.050627759242371
      ],
      [
        "f",
        -6.0508005468081905
      ],
      [
        "ĠThe",
        -6.062074101383168
      ],
      [
        "Ġfrom",
        -6.06259901764993
      ],
      [
        "Ġhave",
        -6.083207578002995
      ],
      [
        ")",
        -6.098433309415343
      ],
      [
        "5",
        -6.102467717560444
      ],
      [
        "?",
        -6.122948905544616
      ],
      [
        "Ġby",
        -6.207940802084982
      ],
      [
        "in",
        -6.220943852633662
      ],
      [
        "Ġthis",
        -6.233794746999488
      ],
      [
        "it",
        -6.255399122344816
      ],
      [
        "I",
        -6.302434055211558
      ],
      [
        "4",
        -6.311239060747553
      ],
      [
        "Ġor",
        -6.330249729635252
      ],
      [
        "The",
        -6.337762772684751
      ],
      [
        "l",
        -6.3407335763411705
      ],
      [
        "Ġnot",
        -6.363229195728039
      ],
      [
        "9",
        -6.372288835197226
      ],
      [
        "of",
        -6.377336749053182
      ],
      [
        "Ġtheir",
        -6.38675035979476
      ],
      [
        "Ġas",
        -6.401678913472772
      ],
      [
        "Ġwill",
        -6.401784581189906
      ],
      [
        "Ġwas",
        -6.452860267285766
      ],
      [
        "Ġan",
        -6.4653316561598615
      ],
      [
        "ĠI",
        -6.4725890458900945
      ],
      [
        "are",
        -6.507607769604665
      ],
      [
        "6",
        -6.515935552898354
      ],
      [
        "8",
        -6.523741587533086
      ],
      [
        "Ġthey",
        -6.551595938556153
      ],
      [
        "Ġmore",
        -6.572433522155038
      ],
      [
        "or",
        -6.589989190021038
      ],
      [
        "m",
        -6.6352213847760595
      ],
      [
        "7",
        -6.682386617556194
      ],
      [
        "Question",
        -6.68722017181582
      ],
      [
        "Ġwhich",
        -6.693934686961127
      ],
      [
        "Ġbut",
        -6.724335410438371
      ],
      [
        "ĠAnswer",
        -6.748904794746142
      ],
      [
        "Ġhas",
        -6.754607808207762
      ],
      [
        "A",
        -6.770832536330477
      ],
      [
        "Ġalso",
        -6.795721762496154
      ],
      [
        "Ġwe",
        -6.834494231254878
      ],
      [
        "Ġabout",
        -6.903765452826898
      ],
      [
        "Ġthem",
        -6.946809032331947
      ],
      [
        "Ġwhen",
        -6.955086656400917
      ],
      [
        "c",
        -6.983530868455679
      ],
      [
        "h",
        -6.985833116919791
      ],
      [
        "Ġtime",
        -7.024407110931271
      ],
      [
        "Ġinto",
        -7.025861725661414
      ],
      [
        "Ġit",
        -7.035514741644695
      ],
      [
        "Ġneed",
        -7.054668369461245
      ],
      [
        "Ġlike",
        -7.067088504604765
      ],
      [
        "Ġall",
        -7.082270425424795
      ],
      [
        "Ġsome",
        -7.0916157039903
      ],
      [
        "Ġout",
        -7.101100160990274
      ],
      [
        "Ġother",
        -7.1044970942710215
      ],
      [
        "Ġmay",
        -7.116573244736712
      ],
      [
        "Ġup",
        -7.127185979936941
      ],
      [
        "an",
        -7.127918604863208
      ],
      [
        "ĠThis",
        -7.128859556455675
      ],
      [
        "ies",
        -7.135588197067127
      ],
      [
        "Ġthese",
        -7.14888064293746
      ],
      [
        "Ġ(",
        -7.160038919267661
      ],
      [
        "Ġthan",
        -7.16284416948802
      ],
      [
        "Ġhow",
        -7.178300255566526
      ],
      [
        "ĠIt",
        -7.181356097370109
      ],
      [
        "Ġwater",
        -7.182740829739668
      ],
      [
        "at",
        -7.189791712822862
      ],
      [
        "Ġthere",
        -7.204677363536224
      ],
      [
        "u",
        -7.208026882180839
      ],
      [
        "Ġhelp",
        -7.210864048643044
      ],
      [
        "one",
        -7.221495791470916
      ],
      [
        "Ġwhat",
        -7.244803907188194
      ],
      [
        "ĠA",
        -7.270155264043437
      ],
      [
        "Ġwere",
        -7.273750156880363
      ],
      [
        "Ġsuch",
        -7.2819879496216355
      ],
      [
        "ĠIn",
        -7.292836774282689
      ],
      [
        "ĠWhat",
        -7.304149254584081
      ],
      [
        "Ġon",
        -7.316733708348011
      ],
      [
        "?Ċ",
        -7.324848729853168
      ],
      [
        "Ġpeople",
        -7.327051115018454
      ],
      [
        "Ġbeen",
        -7.337999558789312
      ],
      [
        "Ġmake",
        -7.34025511980259
      ],
      [
        "/",
        -7.3404672625049265
      ],
      [
        "Ġuse",
        -7.346312879457789
      ],
      [
        "Ġmost",
        -7.358376162013204
      ],
      [
        "Ġdo",
        -7.364962572815017
      ],
      [
        "Ġwould",
        -7.371844592954078
      ],
      [
        "b",
        -7.376751651043211
      ],
      [
        "Ġshould",
        -7.407440734794507
      ],
      [
        ";",
        -7.4095914646156125
      ],
      [
        "Ġwho",
        -7.416314889541757
      ],
      [
        "Ġnew",
        -7.422006940026273
      ],
      [
        "Ġany",
        -7.423346991790975
      ],
      [
        "as",
        -7.427249045805466
      ],
      [
        "Ġget",
        -7.462956152521503
      ],
      [
        "Ġmany",
        -7.475745256009713
      ],
      [
        "g",
        -7.477500319524623
      ],
      [
        "Ġover",
        -7.487166269104771
      ],
      [
        "Ġonly",
        -7.48995213344338
      ],
      [
        "Ġjust",
        -7.50571504152847
      ],
      [
        "re",
        -7.510293787220927
      ],
      [
        "our",
        -7.510965865267307
      ],
      [
        "What",
        -7.51196324890563
      ],
      [
        "using",
        -7.521571936297333
      ],
      [
        "Ġfirst",
        -7.524057865762465
      ],
      [
        "Ġbetween",
        -7.532886923203192
      ],
      [
        "Ġdifferent",
        -7.544990805162353
      ],
      [
        "Ġhigh",
        -7.560062090007861
      ],
      [
        "Ġwork",
        -7.571067640520845
      ],
      [
        "Ġused",
        -7.5819547753861
      ],
      [
        "Ġcould",
        -7.607160872062828
      ],
      [
        "Ġtwo",
        -7.609057504879869
      ],
      [
        "al",
        -7.612505338758872
      ],
      [
        "Ġwell",
        -7.619793130850201
      ],
      [
        "Ġthrough",
        -7.624288481758226
      ],
      [
        "Ġwhere",
        -7.632237214824913
      ],
      [
        "p",
        -7.633253461300763
      ],
      [
        "Ġi",
        -7.639147185522599
      ],
      [
        "Ġone",
        -7.655041527839506
      ],
      [
        "able",
        -7.657594000742801
      ],
      [
        "Ġpart",
        -7.67418884460213
      ],
      [
        "Ġmy",
        -7.682483138097771
      ],
      [
        "Ġtake",
        -7.688322117900631
      ],
      [
        "es",
        -7.713059105914947
      ],
      [
        "Ġchange",
        -7.724133037453909
      ],
      [
        "S",
        -7.729214619459007
      ],
      [
        "Ġeven",
        -7.73691105174293
      ],
      [
        "Ġgood",
        -7.738545908852424
      ],
      [
        "D",
        -7.746807749861277
      ],
      [
        "!",
        -7.74812910735579
      ],
      [
        "Ġits",
        -7.758783067453451
      ],
      [
        "ever",
        -7.761277605708527
      ],
      [
        "Ġsystem",
        -7.761781607571948
      ],
      [
        "Ġlong",
        -7.771857664954324
      ],
      [
        "This",
        -7.77463892631324
      ],
      [
        "Ġmuch",
        -7.781658824556201
      ],
      [
        "Ġnumber",
        -7.791945616307142
      ],
      [
        "w",
        -7.805748066861441
      ],
      [
        "Ġimportant",
        -7.807830495802043
      ],
      [
        "Ġyears",
        -7.810668916790575
      ],
      [
        "Ġresult",
        -7.811240453278272
      ],
      [
        "C",
        -7.8115004079825905
      ],
      [
        ").",
        -7.816183156016196
      ],
      [
        "Ġdoes",
        -7.818888911782768
      ],
      [
        "ĠThey",
        -7.834511521885469
      ],
      [
        "Ġlarge",
        -7.837878125837516
      ],
      [
        "for",
        -7.844560684431354
      ],
      [
        "Ġafter",
        -7.847293742643226
      ],
      [
        "that",
        -7.853579438026752
      ],
      [
        "during",
        -7.856857608992258
      ],
      [
        "Ġhealth",
        -7.857765999967503
      ],
      [
        "Ġhad",
        -7.858757695589688
      ],
      [
        "ity",
        -7.858940612180144
      ],
      [
        "Ġfood",
        -7.85975601299607
      ],
      [
        "Ġhuman",
        -7.860082526748909
      ],
      [
        "Ġprovide",
        -7.862000969305562
      ],
      [
        "Ġhis",
        -7.863262394011163
      ],
      [
        "Ġcreate",
        -7.866301123395661
      ],
      [
        "those",
        -7.869501928075241
      ],
      [
        "In",
        -7.874116795405933
      ],
      [
        "Ġevery",
        -7.878125838998072
      ],
      [
        "Ġwhile",
        -7.887961015969548
      ],
      [
        "Ġbeing",
        -7.890200042424915
      ],
      [
        "Ġsame",
        -7.897543056275704
      ],
      [
        "Ġlevel",
        -7.899507020349016
      ],
      [
        "ĠYou",
        -7.900769475493506
      ],
      [
        "Ġway",
        -7.901525816012072
      ],
      [
        "Ġat",
        -7.904707736954212
      ],
      [
        "How",
        -7.912249892065226
      ],
      [
        "Ġknow",
        -7.912328629240286
      ],
      [
        "Ġworld",
        -7.916335787644515
      ],
      [
        "Ġsmall",
        -7.918278992542119
      ],
      [
        "Ġbefore",
        -7.924862099583664
      ],
      [
        "cause",
        -7.937621353353653
      ],
      [
        "Ġboth",
        -7.938784488019862
      ],
      [
        "us",
        -7.93908930980384
      ],
      [
        "Ġdata",
        -7.945590530608077
      ],
      [
        "ve",
        -7.947849849724734
      ],
      [
        "ĠIf",
        -7.948256836943141
      ],
      [
        "by",
        -7.950864013762639
      ],
      [
        "ĠC",
        -7.951142322424189
      ],
      [
        "Ġlight",
        -7.957494255162284
      ],
      [
        "Ġfound",
        -7.960794841374217
      ],
      [
        "Ġno",
        -7.964283829588588
      ],
      [
        "ally",
        -7.973044136474996
      ],
      [
        "Ġlife",
        -7.97423272935793
      ],
      [
        "Ġaround",
        -7.976514620010037
      ],
      [
        "Ġinclude",
        -7.986869201097419
      ],
      [
        "all",
        -7.993119971887362
      ],
      [
        "Ġsee",
        -7.993635462690659
      ],
      [
        "Ġbest",
        -8.000607425023556
      ],
      [
        "Ġdon",
        -8.004775187935365
      ],
      [
        "Ġwant",
        -8.007037924421251
      ],
      [
        "Ġplace",
        -8.009850534497044
      ],
      [
        "he",
        -8.010486369391554
      ],
      [
        "Ġincrease",
        -8.014546080004527
      ],
      [
        "Ġcause",
        -8.021113420219466
      ],
      [
        "Ġprocess",
        -8.026251196707967
      ],
      [
        "Ġdown",
        -8.031238417514189
      ],
      [
        "Ġback",
        -8.03271992927241
      ],
      [
        "),",
        -8.036636942262188
      ],
      [
        "Ġexample",
        -8.051743637289047
      ],
      [
        "Ġoften",
        -8.055528976496124
      ],
      [
        "Ġfind",
        -8.062337328584821
      ],
      [
        "T",
        -8.071297752146073
      ],
      [
        "Ġbecau",
        -8.07210473647536
      ],
      [
        "Ġinformation",
        -8.076534794952135
      ],
      [
        "its",
        -8.094295049696566
      ],
      [
        "Ġmade",
        -8.098108644442254
      ],
      [
        "ĠâĢĵ",
        -8.099337030096587
      ],
      [
        "Ġstudy",
        -8.10181381529446
      ],
      [
        "Ġyear",
        -8.112106927631356
      ],
      [
        "ness",
        -8.116609433439361
      ],
      [
        "if",
        -8.120554298996076
      ],
      [
        "Ġexperience",
        -8.131789828576817
      ],
      [
        "other",
        -8.132082009557994
      ],
      [
        "ĠFor",
        -8.132518872672152
      ],
      [
        "Ġspecies",
        -8.136659773205983
      ],
      [
        "Ġright",
        -8.138382599111328
      ],
      [
        "%",
        -8.144632525821248
      ],
      [
        "Ġday",
        -8.145174856592538
      ],
      [
        "Ġshow",
        -8.145377309501773
      ],
      [
        "ĠB",
        -8.146564811484996
      ],
      [
        "Ġvery",
        -8.146825579835992
      ],
      [
        "Ġlook",
        -8.147925162932559
      ],
      [
        "Ġbetter",
        -8.15257644400387
      ],
      [
        "ĠHow",
        -8.164013330002843
      ],
      [
        "ĠWe",
        -8.164397687002413
      ],
      [
        "Ġhome",
        -8.166089089603076
      ],
      [
        "used",
        -8.17172662068431
      ],
      [
        "Ġbody",
        -8.172812162473619
      ],
      [
        "Ġgrow",
        -8.173362569586768
      ],
      [
        "Ġmight",
        -8.174492891267437
      ],
      [
        "less",
        -8.1803832242108
      ],
      [
        "Ġstart",
        -8.18754655832704
      ],
      [
        "Ġso",
        -8.19058415142004
      ],
      [
        "Ġbecome",
        -8.193514612341236
      ],
      [
        "Ġgreat",
        -8.19374560130494
      ],
      [
        "Ġstudents",
        -8.195973844053295
      ],
      [
        "B",
        -8.197568465651866
      ],
      [
        "Ġoff",
        -8.202371700524251
      ],
      [
        "Ġunder",
        -8.203493296974896
      ],
      [
        "Ġdesign",
        -8.20624716893912
      ],
      [
        "Ġresearch",
        -8.207905743587247
      ],
      [
        "be",
        -8.21035226965802
      ],
      [
        "use",
        -8.210869976995
      ],
      [
        "Ġenerg",
        -8.215462411799656
      ],
      [
        "k",
        -8.217273233734975
      ],
      [
        "Ġpower",
        -8.218153409136267
      ],
      [
        "Ġplant",
        -8.218738574639321
      ],
      [
        "Ġtemperature",
        -8.227307075166644
      ],
      [
        "Ġeach",
        -8.22945134124973
      ],
      [
        "Ġdog",
        -8.230024148075342
      ],
      [
        "ability",
        -8.233043959625817
      ],
      [
        "ĠThese",
        -8.23627810068653
      ],
      [
        "Ġair",
        -8.238781524068942
      ],
      [
        "Ġcontrol",
        -8.243980886861564
      ],
      [
        "Ġheat",
        -8.24432555597161
      ],
      [
        "Ġinclud",
        -8.245926912119433
      ],
      [
        "Ġform",
        -8.247991878248659
      ],
      [
        "Ġthree",
        -8.249932638079681
      ],
      [
        "er",
        -8.252642725520538
      ],
      [
        "ation",
        -8.259071208114193
      ],
      [
        "Ġpoint",
        -8.260859028168396
      ],
      [
        "When",
        -8.270440275060093
      ],
      [
        "Ġwithou",
        -8.27084102279208
      ],
      [
        "Ġconsider",
        -8.27237125721792
      ],
      [
        "Ġfew",
        -8.273061065477233
      ],
      [
        "Ġcase",
        -8.284807502110795
      ],
      [
        "Ġcar",
        -8.287005582393942
      ],
      [
        "Ġproduct",
        -8.291552725544792
      ],
      [
        "...",
        -8.296150352343828
      ],
      [
        "th",
        -8.297393652207973
      ],
      [
        "Ġgo",
        -8.299622059450353
      ],
      [
        "ĠTo",
        -8.300314498134433
      ],
      [
        "x",
        -8.303690595747952
      ],
      [
        "Ġkeep",
        -8.303844061179024
      ],
      [
        "Ġgroup",
        -8.307210597321896
      ],
      [
        "Ġenvironment",
        -8.311574665460945
      ],
      [
        "Ġthink",
        -8.313470934157356
      ],
      [
        "Ġsupport",
        -8.316696585795482
      ],
      [
        ":ĊĊ",
        -8.324716017959297
      ],
      [
        "Ġstill",
        -8.327593234798359
      ],
      [
        "Ġreduce",
        -8.331411535025975
      ],
      [
        "Ġschool",
        -8.332291235464513
      ],
      [
        "can",
        -8.336170350312699
      ],
      [
        "Ġproduce",
        -8.340272748783766
      ],
      [
        "Ġmust",
        -8.344040316581768
      ],
      [
        "ĠBut",
        -8.344844520646415
      ],
      [
        "Ġindividual",
        -8.35286627047829
      ],
      [
        "Ġcommon",
        -8.356870958186102
      ],
      [
        "Ġissue",
        -8.35866704394508
      ],
      [
        "ĠAnd",
        -8.360567098284148
      ],
      [
        "Ġpotential",
        -8.361959506038486
      ],
      [
        "=",
        -8.364251648938104
      ],
      [
        "um",
        -8.366312746947482
      ],
      [
        "ll",
        -8.36649789836034
      ],
      [
        "Ġcolor",
        -8.368484594914765
      ],
      [
        "Ġfollowing",
        -8.369368982141065
      ],
      [
        "Ġspecific",
        -8.36961930586794
      ],
      [
        "Ġdevelop",
        -8.373505972911204
      ],
      [
        "ic",
        -8.376212197669302
      ],
      [
        "Ġplants",
        -8.376723572649384
      ],
      [
        "Ġanother",
        -8.378212570218249
      ],
      [
        "Ġher",
        -8.384018097439007
      ],
      [
        "Ġoffer",
        -8.389397413578092
      ],
      [
        "Ġtype",
        -8.394499758079935
      ],
      [
        "Ġwithin",
        -8.394529784662463
      ],
      [
        "âĢĶ",
        -8.399442660710333
      ],
      [
        "Ġthings",
        -8.40161107201321
      ],
      [
        "Ġquestion",
        -8.402662287927654
      ],
      [
        "Ġcurrent",
        -8.402992141263443
      ],
      [
        "Ġprevent",
        -8.40556960282272
      ],
      [
        "very",
        -8.410575840589257
      ],
      [
        "Ġb",
        -8.410792736563044
      ],
      [
        "Ġtest",
        -8.416492316754521
      ],
      [
        "Ġarea",
        -8.417873365151141
      ],
      [
        "Ġchildren",
        -8.423767014213166
      ],
      [
        ":Ċ",
        -8.427090987586812
      ],
      [
        "Ġvalue",
        -8.434712856531553
      ],
      [
        "Ġnatural",
        -8.439179815259584
      ],
      [
        "Ġlittle",
        -8.440605893046545
      ],
      [
        "Ġpossibl",
        -8.441421567751018
      ],
      [
        "Ġimpact",
        -8.450463053817174
      ],
      [
        "Ġknown",
        -8.450918681340417
      ],
      [
        "Ġmaking",
        -8.45131835307555
      ],
      [
        "available",
        -8.452643813614316
      ],
      [
        "Ġwhy",
        -8.458563985740168
      ],
      [
        ".\"Ċ",
        -8.466070859258831
      ],
      [
        "Ġcells",
        -8.467641615391209
      ],
      [
        "You",
        -8.468723974750123
      ],
      [
        "Ġcome",
        -8.469386995543967
      ],
      [
        "âĢĵ",
        -8.473088544360035
      ],
      [
        "how",
        -8.474732472195406
      ],
      [
        "Ġsize",
        -8.482995317605173
      ],
      [
        "Ġsoil",
        -8.483825422737212
      ],
      [
        "Ġdevelopment",
        -8.486133178365943
      ],
      [
        ",\"",
        -8.48914304270029
      ],
      [
        "Ġproblem",
        -8.490685530359011
      ],
      [
        "Ġour",
        -8.493145585576748
      ],
      [
        "Ġvarious",
        -8.493729941976692
      ],
      [
        "Ġbenefit",
        -8.49377045057912
      ],
      [
        "Ġmain",
        -8.495333104828928
      ],
      [
        "Ġgive",
        -8.496731740899225
      ],
      [
        "more",
        -8.50597816253962
      ],
      [
        "ĠM",
        -8.507052854878173
      ],
      [
        "Ġseveral",
        -8.507566506561172
      ],
      [
        "Ġensure",
        -8.509199532332055
      ],
      [
        "Ġdue",
        -8.51000259393993
      ],
      [
        "Ġlead",
        -8.510515242877279
      ],
      [
        "Ġper",
        -8.513535455643972
      ],
      [
        "Ġamount",
        -8.517732290842565
      ],
      [
        "Ġcomplete",
        -8.51844191642341
      ],
      [
        "Ġsomething",
        -8.521883226777074
      ],
      [
        "\\",
        -8.524671532241488
      ],
      [
        "Ġeffective",
        -8.525313998666093
      ],
      [
        "way",
        -8.526328267367262
      ],
      [
        "Ġsurface",
        -8.531988293658827
      ],
      [
        "Ġreason",
        -8.532645193218753
      ],
      [
        "Ġdisease",
        -8.53465823964899
      ],
      [
        "Ġcalle",
        -8.538284994720666
      ],
      [
        "Ġprogram",
        -8.540832261290873
      ],
      [
        "Ġspace",
        -8.543471684902745
      ],
      [
        "Ġmeans",
        -8.543724408288261
      ],
      [
        "Ġtext",
        -8.550771937036165
      ],
      [
        "Ġgeneral",
        -8.560927219877453
      ],
      [
        "Ġt",
        -8.561629098691897
      ],
      [
        "Ġlearn",
        -8.562959217810402
      ],
      [
        "Ġrequire",
        -8.56352443053187
      ],
      [
        "If",
        -8.563876834758906
      ],
      [
        "M",
        -8.56428837777578
      ],
      [
        "Ġinvolve",
        -8.565739450667198
      ],
      [
        "each",
        -8.567977894452742
      ],
      [
        "Ġareas",
        -8.572324712614751
      ],
      [
        "age",
        -8.573578043083138
      ],
      [
        "Ġdid",
        -8.574737992278012
      ],
      [
        "Ġth",
        -8.574761387285676
      ],
      [
        "Ġalway",
        -8.575445153529278
      ],
      [
        "nough",
        -8.583802218922585
      ],
      [
        "you",
        -8.58496479728148
      ],
      [
        "ĠD",
        -8.587942671558984
      ],
      [
        "Ġsignificant",
        -8.587974235421349
      ],
      [
        "P",
        -8.590978567468165
      ],
      [
        "Ġrisk",
        -8.593502784519908
      ],
      [
        "v",
        -8.594851836771586
      ],
      [
        "Ġplay",
        -8.595892579142161
      ],
      [
        "Ġname",
        -8.597386252354973
      ],
      [
        "Ġblood",
        -8.600444349725297
      ],
      [
        "Ġstate",
        -8.60546621687796
      ],
      [
        "Ġcontain",
        -8.607864245900636
      ],
      [
        "ĠThere",
        -8.60902080334152
      ],
      [
        "ĠAs",
        -8.61045155944889
      ],
      [
        "There",
        -8.61120829130569
      ],
      [
        "from",
        -8.61264411580014
      ],
      [
        "Ġrange",
        -8.61382208525363
      ],
      [
        "ion",
        -8.613827580385362
      ],
      [
        "Ġessential",
        -8.618632450829818
      ],
      [
        "Ġorder",
        -8.619655281489912
      ],
      [
        "Ġadd",
        -8.620502986319309
      ],
      [
        "not",
        -8.621011677907374
      ],
      [
        "Ġnow",
        -8.62412776656742
      ],
      [
        "Ġme",
        -8.624218493530703
      ],
      [
        "Ġend",
        -8.629448465872644
      ],
      [
        "Ġfeel",
        -8.62987165981032
      ],
      [
        "$",
        -8.630950995051368
      ],
      [
        "with",
        -8.631298942247161
      ],
      [
        "have",
        -8.631827335738043
      ],
      [
        "which",
        -8.633040996793403
      ],
      [
        "Ġbased",
        -8.634485156275538
      ],
      [
        "Ġcourse",
        -8.634677667219485
      ],
      [
        "Ġlearning",
        -8.634851901784844
      ],
      [
        "Ġreal",
        -8.63498741435473
      ],
      [
        "Ġcare",
        -8.63890100113066
      ],
      [
        "Ġdevice",
        -8.639289147849578
      ],
      [
        "though",
        -8.64221132123502
      ],
      [
        "Ġsecond",
        -8.645042398506948
      ],
      [
        "Ġlocal",
        -8.645268309996018
      ],
      [
        "Ġlot",
        -8.648878846871867
      ],
      [
        "Ġanimals",
        -8.648890810269421
      ],
      [
        "up",
        -8.650922122177963
      ],
      [
        "[",
        -8.651646182353694
      ],
      [
        "Ġconditions",
        -8.651668166642782
      ],
      [
        "Ġperson",
        -8.655760589990921
      ],
      [
        "Ġdifference",
        -8.657873388131774
      ],
      [
        "Ġtreatment",
        -8.65804606944255
      ],
      [
        "ĠS",
        -8.659777273268306
      ],
      [
        "Ġleave",
        -8.663375583728788
      ],
      [
        "aid",
        -8.663613203635865
      ],
      [
        "Ġusually",
        -8.663911457771666
      ],
      [
        "Ġcertain",
        -8.664064738646157
      ],
      [
        "Ġmaterial",
        -8.664397310226516
      ],
      [
        "ĠSo",
        -8.669594927190632
      ],
      [
        "ar",
        -8.670077755631024
      ],
      [
        "ary",
        -8.678075155410138
      ],
      [
        "Ġimprove",
        -8.67967643437791
      ],
      [
        "F",
        -8.68180111658619
      ],
      [
        "Ġgoing",
        -8.684355172871884
      ],
      [
        "ĠWhich",
        -8.684815912840676
      ],
      [
        "Ġlow",
        -8.685701038761042
      ],
      [
        "Ġunderstand",
        -8.68594495860153
      ],
      [
        "Ġfamily",
        -8.690704306095938
      ],
      [
        "away",
        -8.691548376025196
      ],
      [
        "Ġhappen",
        -8.691639761133118
      ],
      [
        "Ġtogether",
        -8.695715789146746
      ],
      [
        "While",
        -8.696523609518612
      ],
      [
        "H",
        -8.701222965397061
      ],
      [
        "Ġmethod",
        -8.701299561054707
      ],
      [
        "]",
        -8.704508298414904
      ],
      [
        ")ĊĊ",
        -8.71220494244462
      ],
      [
        "Ġproper",
        -8.71337199080385
      ],
      [
        "having",
        -8.715276658858677
      ],
      [
        "Ġdiet",
        -8.715806526306586
      ],
      [
        "Ġgame",
        -8.716726165775928
      ],
      [
        "Ġhard",
        -8.717247459874176
      ],
      [
        "Ġpatient",
        -8.717255981654652
      ],
      [
        "Ġleast",
        -8.717956022057102
      ],
      [
        "N",
        -8.718149803335042
      ],
      [
        "Ġquality",
        -8.723128893598314
      ],
      [
        "Ġmakes",
        -8.727208471343884
      ],
      [
        "Ġmachine",
        -8.727608200780399
      ],
      [
        "O",
        -8.72858001136563
      ],
      [
        "ĠUniversity",
        -8.729087227846977
      ],
      [
        "Ġturn",
        -8.729313161515194
      ],
      [
        "next",
        -8.729557482894808
      ],
      [
        "Ġproject",
        -8.732408196046046
      ],
      [
        "Ġsince",
        -8.732791772549099
      ],
      [
        "Ġwide",
        -8.737007819520523
      ],
      [
        "ĠHe",
        -8.738398725549345
      ],
      [
        "Ġtechnique",
        -8.741127335767002
      ],
      [
        "Ġmaterials",
        -8.745845974789695
      ],
      [
        "Ġpresent",
        -8.747107106781566
      ],
      [
        "âĢĻs",
        -8.750286307922808
      ],
      [
        "Ġsure",
        -8.753291057016028
      ],
      [
        "ĠWith",
        -8.753581629208501
      ],
      [
        "Ġun",
        -8.755618767967576
      ],
      [
        "Ġsimple",
        -8.757156255813147
      ],
      [
        "Ġfree",
        -8.757249889020931
      ],
      [
        "&",
        -8.7581360701041
      ],
      [
        "Ġmeasure",
        -8.759901570720189
      ],
      [
        "Ġhighe",
        -8.763513305839844
      ],
      [
        "Ġshe",
        -8.765284539317829
      ],
      [
        "Ġteam",
        -8.76533345895964
      ],
      [
        "Ġalong",
        -8.765779743714425
      ],
      [
        "Ġfuture",
        -8.766864245738631
      ],
      [
        "Ġproblems",
        -8.768586360297224
      ],
      [
        "Ġfish",
        -8.769561371127978
      ],
      [
        "Ġweight",
        -8.76984796166344
      ],
      [
        "Ġtypes",
        -8.7699211359342
      ],
      [
        "Ġown",
        -8.773421807264826
      ],
      [
        "Ġoccur",
        -8.77366491607303
      ],
      [
        "Ġcost",
        -8.774139597653704
      ],
      [
        "Ġhour",
        -8.777616103629633
      ],
      [
        "Ġlive",
        -8.780086526567324
      ],
      [
        "Ġuser",
        -8.780922291527496
      ],
      [
        "Ġtechnology",
        -8.7817390425996
      ],
      [
        "Ġsimilar",
        -8.782547349589358
      ],
      [
        "Ġmaintain",
        -8.783117730812327
      ],
      [
        "Ġdamage",
        -8.783340279641866
      ],
      [
        "ther",
        -8.784021949271398
      ],
      [
        "Ġactually",
        -8.784755629461081
      ],
      [
        "ĠWhen",
        -8.785493623485408
      ],
      [
        "Ġput",
        -8.787099209598534
      ],
      [
        "Ġfact",
        -8.788287320895538
      ],
      [
        "Ġset",
        -8.788749423598219
      ],
      [
        "Ġseem",
        -8.794600411009501
      ],
      [
        "For",
        -8.794987408340244
      ],
      [
        "Ġperiod",
        -8.798913861608934
      ],
      [
        "Ġhand",
        -8.800687268285122
      ],
      [
        "ĠP",
        -8.802126455471505
      ],
      [
        "Ġlikely",
        -8.8034175340863
      ],
      [
        "Ġunique",
        -8.804807534874904
      ],
      [
        "Ġsocial",
        -8.805354493840099
      ],
      [
        "Ġsystems",
        -8.805912279830316
      ],
      [
        "either",
        -8.810107496192327
      ],
      [
        "ver",
        -8.811505769924796
      ],
      [
        "Ġfunction",
        -8.811781169281886
      ],
      [
        "Ġsafe",
        -8.815219950177948
      ],
      [
        "Ġmodel",
        -8.815824958999821
      ],
      [
        "Ġdirect",
        -8.815860688994835
      ],
      [
        "Ġkey",
        -8.817489358857525
      ],
      [
        "Ġhere",
        -8.817515835841023
      ],
      [
        "Ġmove",
        -8.82028376318701
      ],
      [
        "self",
        -8.821200501436765
      ],
      [
        "Ġsuggest",
        -8.821602391102253
      ],
      [
        "Ġbase",
        -8.82312483998394
      ],
      [
        "Ġdetermine",
        -8.823368175714439
      ],
      [
        "E",
        -8.823528665072214
      ],
      [
        "Ġtimes",
        -8.823791958729155
      ],
      [
        "ĠAmerican",
        -8.82510259227661
      ],
      [
        "Ġsai",
        -8.825280852686117
      ],
      [
        "Ġtop",
        -8.826866404730449
      ],
      [
        "Ġside",
        -8.828667570893002
      ],
      [
        "Ġskin",
        -8.829234719279007
      ],
      [
        "Ġkind",
        -8.83124902281855
      ],
      [
        "Ġpaper",
        -8.831573481000806
      ],
      [
        "Ġchild",
        -8.831800678046502
      ],
      [
        "Ġnon",
        -8.833665353036167
      ],
      [
        "Ġlast",
        -8.833942656092704
      ],
      [
        "Ġfield",
        -8.833945915620554
      ],
      [
        "Ġquick",
        -8.834422467713498
      ],
      [
        "Ġshort",
        -8.834806255223
      ],
      [
        "Ġdepend",
        -8.834873201638771
      ],
      [
        "Ġforce",
        -8.834956946862901
      ],
      [
        "Ġabove",
        -8.835446892653124
      ],
      [
        "Ġsingle",
        -8.835812204856246
      ],
      [
        "Ġpopulation",
        -8.838382254304452
      ],
      [
        "Ġunti",
        -8.838958484502099
      ],
      [
        "Ġnear",
        -8.839980869819552
      ],
      [
        "Ġallow",
        -8.840419381696833
      ],
      [
        "Ġmajor",
        -8.840474715738594
      ],
      [
        "Ġthen",
        -8.84168169774195
      ],
      [
        "Ġcell",
        -8.84738247720373
      ],
      [
        "Ġless",
        -8.850671493323953
      ],
      [
        "Ġaffect",
        -8.85078248153794
      ],
      [
        "Ġdoesn",
        -8.853201587404046
      ],
      [
        "Ġresearcher",
        -8.85383439265631
      ],
      [
        "Ġeasy",
        -8.85419177677431
      ],
      [
        "Ġrole",
        -8.857778517332523
      ],
      [
        "Ġsolar",
        -8.858208206268518
      ],
      [
        "Ġcomputer",
        -8.858760988646203
      ],
      [
        "thing",
        -8.86051118307617
      ],
      [
        "ĠBy",
        -8.862051878991664
      ],
      [
        "Ġpressure",
        -8.862383432836697
      ],
      [
        "Ġacross",
        -8.863322007188675
      ],
      [
        "Ġclimate",
        -8.864365675807505
      ],
      [
        "Ġplan",
        -8.865445307855527
      ],
      [
        "Ġgrowth",
        -8.865674165068732
      ],
      [
        "*",
        -8.868141605466354
      ],
      [
        "Ġclose",
        -8.87100156179519
      ],
      [
        "Ġagains",
        -8.872533235004173
      ],
      [
        "ĠThat",
        -8.874986392493511
      ],
      [
        "Ġcheck",
        -8.875498806139667
      ],
      [
        "Ġavoid",
        -8.877875536226739
      ],
      [
        "Ġproduction",
        -8.878969179828847
      ],
      [
        "Ġsay",
        -8.878993045261046
      ],
      [
        "Ġcat",
        -8.879975218537107
      ],
      [
        "We",
        -8.880213762589541
      ],
      [
        "Ġcomponent",
        -8.880516234135339
      ],
      [
        "Ġclear",
        -8.883245731066483
      ],
      [
        "Ġaccording",
        -8.883732088201356
      ],
      [
        "Ġnecessar",
        -8.885601906582245
      ],
      [
        "Ġunderstanding",
        -8.888748927108754
      ],
      [
        "Ġremove",
        -8.889829258550021
      ],
      [
        "ĠNew",
        -8.891384213145084
      ],
      [
        "Ġhe",
        -8.891699851534618
      ],
      [
        "Ġif",
        -8.892282226646472
      ],
      [
        "Ġheart",
        -8.894193758433746
      ],
      [
        "Ġsignal",
        -8.895653545035518
      ],
      [
        "Ġworking",
        -8.89582061374363
      ],
      [
        "Ġprotect",
        -8.897935960895527
      ],
      [
        "Ġline",
        -8.899414683972818
      ],
      [
        "Ġlove",
        -8.901783825386865
      ],
      [
        "\\n",
        -8.90196741280728
      ],
      [
        "Ġstep",
        -8.904189077333541
      ],
      [
        "ready",
        -8.904306314343527
      ],
      [
        "Ġpattern",
        -8.906316516651527
      ],
      [
        "Ġleft",
        -8.906982636042603
      ],
      [
        "Ġnever",
        -8.907666753234171
      ],
      [
        "Ġamong",
        -8.908986871688953
      ],
      [
        "Ġtypical",
        -8.91121417974352
      ],
      [
        "Ġmean",
        -8.91141923345761
      ],
      [
        "âĢĻ",
        -8.912513306822259
      ],
      [
        "Ġminute",
        -8.91270521632702
      ],
      [
        "Ġbusiness",
        -8.914856853354419
      ],
      [
        "W",
        -8.918417014928238
      ],
      [
        "Ġtreat",
        -8.918948206331944
      ],
      [
        "Ġtoday",
        -8.921024477463114
      ],
      [
        "out",
        -8.922104834058203
      ],
      [
        "Ġsolution",
        -8.922916068802332
      ],
      [
        "Ġloss",
        -8.923498210091818
      ],
      [
        "Ġphysical",
        -8.923966227359667
      ],
      [
        "_",
        -8.925303645006382
      ],
      [
        "Ġassociate",
        -8.926565336328517
      ],
      [
        "Ġblack",
        -8.928399905717338
      ],
      [
        "Ġespecial",
        -8.933195274999456
      ],
      [
        ")Ċ",
        -8.933356153183059
      ],
      [
        "Ġopen",
        -8.933811839409493
      ],
      [
        "Ġcontinue",
        -8.933820979008953
      ],
      [
        "Ġrun",
        -8.935338581638739
      ],
      [
        "Ġregion",
        -8.936659455428533
      ],
      [
        "Ġfactors",
        -8.937465324802833
      ],
      [
        "Ġcool",
        -8.93757331155919
      ],
      [
        "Ġfurther",
        -8.937834387967836
      ],
      [
        "Ġbrain",
        -8.940541268535743
      ],
      [
        "healthy",
        -8.942759404025736
      ],
      [
        "Ġimage",
        -8.942946107922548
      ],
      [
        "Ġscience",
        -8.944106532081173
      ],
      [
        "!ĊĊ",
        -8.944466189837343
      ],
      [
        "Ġal",
        -8.947454231677249
      ],
      [
        "most",
        -8.947637923383343
      ],
      [
        "Ġwarm",
        -8.949046817162845
      ],
      [
        "Ġcall",
        -8.949113844005488
      ],
      [
        "Ġfocus",
        -8.949173244039619
      ],
      [
        "Ġeffect",
        -8.952743667307745
      ],
      [
        "Ġhim",
        -8.953884450002437
      ],
      [
        "Ġactivity",
        -8.954171528970551
      ],
      [
        "Ġpain",
        -8.95468625165904
      ],
      [
        "Ġspeed",
        -8.955783783656193
      ],
      [
        "Ġpopular",
        -8.958482566223179
      ],
      [
        "+",
        -8.95939146290749
      ],
      [
        "comes",
        -8.959411124904026
      ],
      [
        "Ġearly",
        -8.959452247707896
      ],
      [
        "Ġpurpose",
        -8.959528394993065
      ],
      [
        "Ġeye",
        -8.961332795766733
      ],
      [
        "Ġgetting",
        -8.965515447856259
      ],
      [
        "Ġfour",
        -8.966748171876734
      ],
      [
        "Ġdays",
        -8.967036730720876
      ],
      [
        "Ġclass",
        -8.967520271134386
      ],
      [
        "Ġfull",
        -8.969419669462805
      ],
      [
        "Ġvehicle",
        -8.969883454906974
      ],
      [
        "Ġwhite",
        -8.970043165947217
      ],
      [
        "Ġbring",
        -8.970301281098934
      ],
      [
        "own",
        -8.97251615232567
      ],
      [
        "Ġgarden",
        -8.97290119111422
      ],
      [
        "Ġbelieve",
        -8.973313718811434
      ],
      [
        "Ġ\"",
        -8.976027365175906
      ],
      [
        "like",
        -8.978698934997446
      ],
      [
        "Ġsays",
        -8.979895041934261
      ],
      [
        "Ġvariety",
        -8.981427038913687
      ],
      [
        "Ġaddition",
        -8.983709395116293
      ],
      [
        "some",
        -8.9843501282047
      ],
      [
        "ĠSome",
        -8.984623722230019
      ],
      [
        "Ġeffects",
        -8.986278945455865
      ],
      [
        "Ġregular",
        -8.98977006470292
      ],
      [
        "Ġtoo",
        -8.990278030102715
      ],
      [
        "Ġclean",
        -8.99079438322189
      ],
      [
        "Ġshare",
        -8.991159467863334
      ],
      [
        "Ġdry",
        -8.991489596186476
      ],
      [
        "Ġparent",
        -8.991620658721413
      ],
      [
        "Ġsign",
        -8.992898027071018
      ],
      [
        "L",
        -8.99402175956829
      ],
      [
        "ĠE",
        -8.994651587576715
      ],
      [
        "Ġthought",
        -8.99598909943161
      ],
      [
        "Ġlower",
        -8.998226520727982
      ],
      [
        "given",
        -8.999418067249492
      ],
      [
        "z",
        -8.99979060317444
      ],
      [
        "has",
        -9.000774967086691
      ],
      [
        "but",
        -9.000841012696254
      ],
      [
        "Ġground",
        -9.00160270979919
      ],
      [
        "Ġsource",
        -9.004678468401536
      ],
      [
        "Ġanimal",
        -9.005178597684857
      ],
      [
        "ng",
        -9.005232071796577
      ],
      [
        "once",
        -9.007707178637652
      ],
      [
        "Ġlooking",
        -9.00844961997839
      ],
      [
        "Ġbook",
        -9.008551803596449
      ],
      [
        "Ġindustr",
        -9.009359485717775
      ],
      [
        "ĠH",
        -9.010143713940888
      ],
      [
        "ĠNo",
        -9.011042159665497
      ],
      [
        "Ġcompare",
        -9.012233445035182
      ],
      [
        "Ġbasic",
        -9.013074726071943
      ],
      [
        "It",
        -9.013490815000452
      ],
      [
        "Ġcommunity",
        -9.018007901154572
      ],
      [
        "Ġbig",
        -9.020131403585392
      ],
      [
        "Ġobject",
        -9.021027732568136
      ],
      [
        "Ġdifficult",
        -9.021217731962192
      ],
      [
        "Ġperformance",
        -9.022418112008296
      ],
      [
        "Ġreport",
        -9.027747318468446
      ],
      [
        "Ġgas",
        -9.028967350897828
      ],
      [
        "Ġhistory",
        -9.031695014113934
      ],
      [
        "time",
        -9.031729959838138
      ],
      [
        "Ġweek",
        -9.032074130734973
      ],
      [
        "Ġpositive",
        -9.033193280356295
      ],
      [
        "Ġwhole",
        -9.033226705661736
      ],
      [
        "Ġinside",
        -9.03703385505607
      ],
      [
        "Ġapproach",
        -9.03704841243834
      ],
      [
        "Ġchemical",
        -9.03843080599719
      ],
      [
        "ĠYour",
        -9.038505752901504
      ],
      [
        "Ġfar",
        -9.039945161183525
      ],
      [
        "Ġbreak",
        -9.043390274547216
      ],
      [
        "Ġflow",
        -9.044118270044375
      ],
      [
        "Ġface",
        -9.044378572398797
      ],
      [
        "Ġstrong",
        -9.04492504793759
      ],
      [
        "Ġallows",
        -9.045548593422616
      ],
      [
        "nergy",
        -9.046495903346472
      ],
      [
        "Ġmatter",
        -9.047873201361847
      ],
      [
        "Ġbuild",
        -9.050266170705989
      ],
      [
        "Ġrecent",
        -9.052081758063396
      ],
      [
        "Ġunit",
        -9.055748502879094
      ],
      [
        "Ġfeatures",
        -9.055850525045766
      ],
      [
        "taking",
        -9.056551967800315
      ],
      [
        "Ġactivities",
        -9.058541924792053
      ],
      [
        "Ġbelow",
        -9.059536518204936
      ],
      [
        "where",
        -9.060150369472098
      ],
      [
        "!Ċ",
        -9.06116380629213
      ],
      [
        "Ġskills",
        -9.063070692280649
      ],
      [
        "Ġidea",
        -9.063737605527574
      ],
      [
        "Ġsound",
        -9.063966481710423
      ],
      [
        "Ġaccess",
        -9.065278401098642
      ],
      [
        "Ġpost",
        -9.06906568150242
      ],
      [
        "Ġcancer",
        -9.069870733757313
      ],
      [
        "Ġreall",
        -9.070197550003268
      ],
      [
        "Ġperfect",
        -9.07063296955117
      ],
      [
        "Ġbacteria",
        -9.071073559747006
      ],
      [
        "Ġdescribe",
        -9.075032806977118
      ],
      [
        "Ġstation",
        -9.08100267751464
      ],
      [
        "Ġcomplex",
        -9.081431305999544
      ],
      [
        "ment",
        -9.081546474056402
      ],
      [
        "Ġfollow",
        -9.081844686501
      ],
      [
        "Ġenvironmental",
        -9.082239943567089
      ],
      [
        "Ġacid",
        -9.082766971699698
      ],
      [
        "Ġanswer",
        -9.083186883181018
      ],
      [
        "Ġcold",
        -9.084839385843893
      ],
      [
        "Ġdogs",
        -9.08966054738643
      ],
      [
        "Ġprovides",
        -9.09241415773496
      ],
      [
        "Ġstress",
        -9.09310270999518
      ],
      [
        "Ġfee",
        -9.094138150692526
      ],
      [
        "Ġothers",
        -9.096612903871616
      ],
      [
        "Ġresponse",
        -9.097174939950872
      ],
      [
        "Ġengine",
        -9.098851932626506
      ],
      [
        "Ġvideo",
        -9.09921798436568
      ],
      [
        "now",
        -9.099343639036707
      ],
      [
        "Ġgenetic",
        -9.09950612239432
      ],
      [
        "Ġstay",
        -9.099710284688324
      ],
      [
        "Ġaverage",
        -9.099983935245913
      ],
      [
        "Ġreceive",
        -9.10046827378961
      ],
      [
        "this",
        -9.101086970285174
      ],
      [
        "we",
        -9.10202764544201
      ],
      [
        "Ġoil",
        -9.102764716236932
      ],
      [
        "online",
        -9.1043481445696
      ],
      [
        "Ġdoing",
        -9.104950416254326
      ],
      [
        "Ġbehavior",
        -9.105828479720865
      ],
      [
        "Ġexercise",
        -9.105860638938282
      ],
      [
        "Ġwhe",
        -9.106359822107816
      ],
      [
        "Ġcompany",
        -9.107015819102692
      ],
      [
        "Ġnetwork",
        -9.107547358516626
      ],
      [
        "Ġresources",
        -9.107729357788472
      ],
      [
        "Ġtraining",
        -9.110522100901507
      ],
      [
        "Ġcontent",
        -9.110784810306551
      ],
      [
        ").Ċ",
        -9.11236109987286
      ],
      [
        "Ġenjoy",
        -9.114425972112471
      ],
      [
        "Ġblock",
        -9.114984893312675
      ],
      [
        "Ġrequired",
        -9.116174447209245
      ],
      [
        "Ġtree",
        -9.117839227757203
      ],
      [
        "Ġexist",
        -9.118175605530991
      ],
      [
        "Ġdone",
        -9.119970164255726
      ],
      [
        "Ġcarbon",
        -9.121484623858777
      ],
      [
        "ive",
        -9.121694957667785
      ],
      [
        "ĠBe",
        -9.122482865458416
      ],
      [
        "R",
        -9.123655387668665
      ],
      [
        "ĠT",
        -9.124408704451088
      ],
      [
        "Ġmetal",
        -9.125045778820402
      ],
      [
        "Ġstructure",
        -9.125825047835908
      ],
      [
        "selve",
        -9.126754617791434
      ],
      [
        "Ġshape",
        -9.127159077872456
      ],
      [
        "Why",
        -9.128086204595316
      ],
      [
        "Ġca",
        -9.128253938266187
      ],
      [
        "Ġpublic",
        -9.131770396354153
      ],
      [
        "water",
        -9.132707588938729
      ],
      [
        "Ġpiece",
        -9.133761536529796
      ],
      [
        "Ġcorrect",
        -9.1375434556169
      ],
      [
        "Ġrecord",
        -9.14271536321532
      ],
      [
        "Ġseed",
        -9.144664176278118
      ],
      [
        "Ġspecial",
        -9.145834894934747
      ],
      [
        "Ġread",
        -9.146340124924931
      ],
      [
        "ĠNational",
        -9.14725825484049
      ],
      [
        "Ġbegin",
        -9.148339068377568
      ],
      [
        "Ġcondition",
        -9.150086331707875
      ],
      [
        "One",
        -9.150558425753044
      ],
      [
        "Ġdeep",
        -9.15056869461042
      ],
      [
        "Ġo",
        -9.15075211399524
      ],
      [
        "Ġopportunit",
        -9.1531256581756
      ],
      [
        "Ġmarket",
        -9.153439299425
      ],
      [
        "Ġhead",
        -9.153761843347516
      ],
      [
        "Ġagain",
        -9.15437371386049
      ],
      [
        "Ġrelease",
        -9.15469844946058
      ],
      [
        "Ġmethods",
        -9.156355971016248
      ],
      [
        "Ġplastic",
        -9.156678376889104
      ],
      [
        "Ġtraditional",
        -9.157059607005348
      ],
      [
        "Ġgreen",
        -9.15908175902655
      ],
      [
        "Ġmultiple",
        -9.159936392287072
      ],
      [
        "le",
        -9.160428448167083
      ],
      [
        "ĠF",
        -9.161589379384512
      ],
      [
        "Ġthough",
        -9.162561511949423
      ],
      [
        "Ġstore",
        -9.162722105762704
      ],
      [
        "afety",
        -9.162939329118611
      ],
      [
        "Ġfruit",
        -9.162952268155614
      ],
      [
        "âĢ¦",
        -9.163219664870182
      ],
      [
        "Ġparticular",
        -9.165310695942
      ],
      [
        "yourself",
        -9.16561380413686
      ],
      [
        "Ġprimar",
        -9.166069610054253
      ],
      [
        "Ġlonge",
        -9.166713220371156
      ],
      [
        "Ġelectric",
        -9.167586312362085
      ],
      [
        "ather",
        -9.169691329975931
      ],
      [
        "ĠR",
        -9.171504799922891
      ],
      [
        "Ġentire",
        -9.171876141262835
      ],
      [
        "also",
        -9.172020400992512
      ],
      [
        "Ġpropert",
        -9.172521940912686
      ],
      [
        "Ġsugar",
        -9.172569100825058
      ],
      [
        "ous",
        -9.175560619126184
      ],
      [
        "Ġtotal",
        -9.177691246241832
      ],
      [
        "Ġmuscle",
        -9.177878966967535
      ],
      [
        "Ġpast",
        -9.178391256085314
      ],
      [
        "Ġpractice",
        -9.17870690986086
      ],
      [
        "her",
        -9.178994311865315
      ],
      [
        "Ġarticle",
        -9.184461795777857
      ],
      [
        "Ġprofessional",
        -9.18473992275658
      ],
      [
        "Ġsubject",
        -9.18487639095068
      ],
      [
        "Ġidentify",
        -9.185032268325916
      ],
      [
        "Ġmonths",
        -9.189915857389217
      ],
      [
        "about",
        -9.191130763770474
      ],
      [
        "Ġchoice",
        -9.191132224271383
      ],
      [
        "Ġrelative",
        -9.192093177778425
      ],
      [
        "Ġthroughout",
        -9.19234564012493
      ],
      [
        "Ġmodern",
        -9.19238000586326
      ],
      [
        "Ġmind",
        -9.192630866859494
      ],
      [
        "Ġtry",
        -9.195967373073604
      ],
      [
        "Ġauthor",
        -9.197096641419147
      ],
      [
        "Ġconcern",
        -9.197623835185254
      ],
      [
        "Ġdrive",
        -9.197963983086424
      ],
      [
        "Ġoverall",
        -9.198597222230926
      ],
      [
        "Ġprobabl",
        -9.198901162204102
      ],
      [
        "-based",
        -9.199352282606831
      ],
      [
        "Ġfall",
        -9.199463665761993
      ],
      [
        "get",
        -9.199471132307012
      ],
      [
        "Ġthing",
        -9.20006626956907
      ],
      [
        "Ġlater",
        -9.200268486104251
      ],
      [
        "Ġcontact",
        -9.201134692135582
      ],
      [
        "Ġstudies",
        -9.20213414672796
      ],
      [
        "Ġglobal",
        -9.203649230925585
      ],
      [
        "Ġnormal",
        -9.204562505367235
      ],
      [
        "Ġtools",
        -9.205486705075325
      ],
      [
        "Ġcommunication",
        -9.20572357280995
      ],
      [
        "Ġsomeone",
        -9.20655242521624
      ],
      [
        "Ġeducation",
        -9.206810694403678
      ],
      [
        "Ġus",
        -9.208606160740684
      ],
      [
        "Ġsymptom",
        -9.20901664855341
      ],
      [
        "eating",
        -9.209291190797238
      ],
      [
        "Ġitem",
        -9.209474743300351
      ],
      [
        "early",
        -9.210914194681129
      ],
      [
        "Ġdesigne",
        -9.211185151628769
      ],
      [
        "Ġyoung",
        -9.211723066678616
      ],
      [
        "ĠUnite",
        -9.211930627697663
      ],
      [
        "Ġreturn",
        -9.2133426020945
      ],
      [
        "Ġknowledge",
        -9.216628306839706
      ],
      [
        "Ġcrucial",
        -9.217500305057056
      ],
      [
        "Ġlocation",
        -9.217503967732092
      ],
      [
        "Ġfive",
        -9.219602400915132
      ],
      [
        "Ġalmost",
        -9.219775959421812
      ],
      [
        "Ġwaste",
        -9.222577729527742
      ],
      [
        "Ġchoose",
        -9.223552627321713
      ],
      [
        "than",
        -9.225459816749956
      ],
      [
        "ĠOn",
        -9.226496582293258
      ],
      [
        "Ġinstead",
        -9.22657268295045
      ],
      [
        "Ġbit",
        -9.226723341627958
      ],
      [
        "Ġlanguage",
        -9.22682952594988
      ],
      [
        "Ġpersonal",
        -9.226947076143237
      ],
      [
        "Ġprotein",
        -9.227827379949378
      ],
      [
        "Ġhouse",
        -9.228825655765885
      ],
      [
        "two",
        -9.229235328175914
      ],
      [
        "These",
        -9.230837104850192
      ],
      [
        "Ġsense",
        -9.2313428861737
      ],
      [
        "Ġoptions",
        -9.23305867056853
      ],
      [
        "Ġcharge",
        -9.233819073804623
      ],
      [
        "ĠAl",
        -9.234305809034606
      ],
      [
        "Ġreaction",
        -9.236793593506366
      ],
      [
        "Ġadvantage",
        -9.23767914413629
      ],
      [
        "Ġservice",
        -9.23781552755141
      ],
      [
        "Ġbalance",
        -9.238235031109756
      ],
      [
        "Ġstop",
        -9.23867936599479
      ],
      [
        "ful",
        -9.239685489814356
      ],
      [
        "Ġexplain",
        -9.239937506382963
      ],
      [
        "his",
        -9.241003322725655
      ],
      [
        "But",
        -9.241245336887731
      ],
      [
        "Ġfuel",
        -9.24202277395634
      ],
      [
        "Ġpre",
        -9.24244763290202
      ],
      [
        "your",
        -9.244345615468102
      ],
      [
        "Ġseen",
        -9.24514585352295
      ],
      [
        "Ġdigital",
        -9.24547081391858
      ],
      [
        "Ġterm",
        -9.246980289904103
      ],
      [
        "Ġcharacter",
        -9.248277131548242
      ],
      [
        "Ġcountry",
        -9.249207853793958
      ],
      [
        "Ġposition",
        -9.250561311851074
      ],
      [
        "ĠDNA",
        -9.25224182531876
      ],
      [
        "Ġcook",
        -9.253047797755055
      ],
      [
        "Ġstarted",
        -9.254434132629717
      ],
      [
        "Ġwave",
        -9.25533664809101
      ],
      [
        "Ġbuilding",
        -9.256814227340332
      ],
      [
        "Ġincreasing",
        -9.257844020733373
      ],
      [
        "Ġslow",
        -9.259047423788063
      ],
      [
        ".\"",
        -9.259860056289895
      ],
      [
        "ĠScience",
        -9.259875082238976
      ],
      [
        "ance",
        -9.260153756411944
      ],
      [
        "ĠEarth",
        -9.260965596065082
      ],
      [
        "Ġjob",
        -9.261118491475395
      ],
      [
        "Ġoutside",
        -9.263876234762986
      ],
      [
        "Ġsimply",
        -9.264369052769837
      ],
      [
        "ĠOne",
        -9.265726271526836
      ],
      [
        "They",
        -9.266434561292392
      ],
      [
        "Ġweather",
        -9.267785044510848
      ],
      [
        "Ġscientists",
        -9.267859935707246
      ],
      [
        "Ġelements",
        -9.270793127740577
      ],
      [
        "Ġdegree",
        -9.270955155773024
      ],
      [
        "Ġsituation",
        -9.271921034297296
      ],
      [
        "Ġseason",
        -9.272069784381618
      ],
      [
        "Ġfinding",
        -9.273103631566569
      ],
      [
        "Ġrepresent",
        -9.273842080046556
      ],
      [
        "Ġpage",
        -9.274056074957736
      ],
      [
        "Ġcut",
        -9.27565093859491
      ],
      [
        "Ġmillion",
        -9.276355976445265
      ],
      [
        "Ġinfection",
        -9.27828874326627
      ],
      [
        "Ġprovid",
        -9.279647663889005
      ],
      [
        "Ġpercent",
        -9.280230714412864
      ],
      [
        "Ġdecision",
        -9.281908013921427
      ],
      [
        "V",
        -9.282248525610571
      ],
      [
        "Ġanything",
        -9.282272113841726
      ],
      [
        "ĠStates",
        -9.282576821846783
      ],
      [
        "G",
        -9.282788925312657
      ],
      [
        "Ġguide",
        -9.283136409286817
      ],
      [
        "Ġroom",
        -9.284613630715484
      ],
      [
        "Ġprevious",
        -9.286270431537035
      ],
      [
        "Ġcreat",
        -9.287341685207052
      ],
      [
        "Ġwall",
        -9.28802184049609
      ],
      [
        "Ġadult",
        -9.288298554795077
      ],
      [
        "Ġnature",
        -9.289366110066709
      ],
      [
        "Ġeggs",
        -9.289672264824627
      ],
      [
        "Ġextreme",
        -9.289798664013462
      ],
      [
        "Ġexpert",
        -9.291951030017753
      ],
      [
        "Ġlayer",
        -9.292033564402727
      ],
      [
        "Ġtarget",
        -9.29517942905296
      ],
      [
        "Ġsleep",
        -9.297695104067932
      ],
      [
        "day",
        -9.298062140589623
      ],
      [
        "ĠAll",
        -9.29943695904793
      ],
      [
        "over",
        -9.302199990431095
      ],
      [
        "Ġoption",
        -9.302220001384548
      ],
      [
        "Ġfun",
        -9.303126768309658
      ],
      [
        "Ġstory",
        -9.303708475636634
      ],
      [
        "Ġsometime",
        -9.30467189815056
      ],
      [
        "Ġbad",
        -9.306098765667665
      ],
      [
        "Ġtrees",
        -9.308067780702032
      ],
      [
        "Ġevidence",
        -9.30860292704525
      ],
      [
        "Ġeffort",
        -9.309320175660552
      ],
      [
        "old",
        -9.309443890060766
      ],
      [
        "Ġstandard",
        -9.309765396021028
      ],
      [
        "ĠL",
        -9.311868694258392
      ],
      [
        "Ġar",
        -9.31206525726489
      ],
      [
        "Ġstrength",
        -9.313058445934733
      ],
      [
        "Ġworks",
        -9.314078182675702
      ],
      [
        "ĠShe",
        -9.3147324737248
      ],
      [
        "Ġeyes",
        -9.315027657894865
      ],
      [
        "Ġkids",
        -9.315505258067262
      ],
      [
        "Ġlet",
        -9.31605928197207
      ],
      [
        "tion",
        -9.317746490327256
      ],
      [
        "Ġexplore",
        -9.318589226149111
      ],
      [
        "Ġhalf",
        -9.31950202849044
      ],
      [
        "Ġlength",
        -9.31977004039582
      ],
      [
        "se",
        -9.320284879496
      ],
      [
        "Ġcustomer",
        -9.323610173648024
      ],
      [
        "low",
        -9.32373685647725
      ],
      [
        "ĠU",
        -9.323944937181944
      ],
      [
        "Ġtravel",
        -9.324693626762793
      ],
      [
        "Ġnight",
        -9.327569188633646
      ],
      [
        "Ġtell",
        -9.32943705666373
      ],
      [
        "Ġfactor",
        -9.32971255742063
      ],
      [
        "work",
        -9.329900258964264
      ],
      [
        "Ġshows",
        -9.330192190253053
      ],
      [
        "words",
        -9.331483887918749
      ],
      [
        "Ġcount",
        -9.332313672024789
      ],
      [
        "well",
        -9.33270872185409
      ],
      [
        "Ġgreate",
        -9.334565825712362
      ],
      [
        "Ġinitial",
        -9.33500900057824
      ],
      [
        "Ġappear",
        -9.336371235993791
      ],
      [
        "them",
        -9.34066801398501
      ],
      [
        "Ġlink",
        -9.342139271269666
      ],
      [
        "Ġachieve",
        -9.342234118211762
      ],
      [
        "Ġfresh",
        -9.342260747024069
      ],
      [
        "Ġaccount",
        -9.342864655309164
      ],
      [
        "Ġsearch",
        -9.343302740022832
      ],
      [
        "Answer",
        -9.34368572324211
      ],
      [
        "To",
        -9.343862059531174
      ],
      [
        "Ġrelated",
        -9.34429159491481
      ],
      [
        "Ġcontribute",
        -9.34682547005638
      ],
      [
        "With",
        -9.348433527398832
      ],
      [
        "Ġapplication",
        -9.350013837095725
      ],
      [
        "Ġmanagement",
        -9.350616408871383
      ],
      [
        "Ġhear",
        -9.350638022968967
      ],
      [
        "ĠAI",
        -9.351243153541688
      ],
      [
        "Ġbreed",
        -9.351814801680048
      ],
      [
        "Ġdark",
        -9.3525183619992
      ],
      [
        "Ġcenter",
        -9.356403108059082
      ],
      [
        "ting",
        -9.356545182166906
      ],
      [
        "ĠAn",
        -9.35716810424528
      ],
      [
        "Ġetc",
        -9.360080549653825
      ],
      [
        "Ġperform",
        -9.360364899828358
      ],
      [
        "Ġvegetable",
        -9.361378253020398
      ],
      [
        "Ġdeliver",
        -9.36269075872534
      ],
      [
        "Ġapplications",
        -9.362903696302276
      ],
      [
        "Ġregard",
        -9.363173657784486
      ],
      [
        "Ġconnection",
        -9.363925495450168
      ],
      [
        "Ġwind",
        -9.36884338660162
      ],
      [
        "Ġconstant",
        -9.36897708025058
      ],
      [
        "Ġgene",
        -9.369924856054052
      ],
      [
        "Ġadditional",
        -9.371218108939363
      ],
      [
        "Ġwon",
        -9.371944640530902
      ],
      [
        "Ġindicate",
        -9.372077582522529
      ],
      [
        "ĠN",
        -9.3732104970161
      ],
      [
        "Ġbehind",
        -9.373758731364394
      ],
      [
        "Ġwebsite",
        -9.375822959400285
      ],
      [
        "Ġprint",
        -9.377222904595047
      ],
      [
        "Ġself",
        -9.377480720833788
      ],
      [
        "Ġcycle",
        -9.380050327838688
      ],
      [
        "Ġoriginal",
        -9.380557941648082
      ],
      [
        "Ġseparate",
        -9.381128758356422
      ],
      [
        "Ġmovement",
        -9.382306854909436
      ],
      [
        "ĠHowe",
        -9.383867360042617
      ],
      [
        "line",
        -9.383898788208732
      ],
      [
        "Ġwomen",
        -9.384058900987128
      ],
      [
        "Ġstage",
        -9.386234395602848
      ],
      [
        "Ġequipment",
        -9.38671571703798
      ],
      [
        "Ġsuccessful",
        -9.38742277391514
      ],
      [
        "Ġcanno",
        -9.387798522028794
      ],
      [
        "Ġadvance",
        -9.388306242965022
      ],
      [
        "Ġpet",
        -9.388345211190366
      ],
      [
        "Ġanalysis",
        -9.389426584564706
      ],
      [
        "Ġmedical",
        -9.389568986963557
      ],
      [
        "make",
        -9.39085637837799
      ],
      [
        "Ġhearing",
        -9.396114535859528
      ],
      [
        "Ġoperation",
        -9.397289830857384
      ],
      [
        "Ġdrink",
        -9.39817681099816
      ],
      [
        "Ġstudent",
        -9.399059580020571
      ],
      [
        "Ġtissue",
        -9.399079835890635
      ],
      [
        "Ġtool",
        -9.39910812458596
      ],
      [
        "Ġmentioned",
        -9.400705755314185
      ],
      [
        "Ġorganization",
        -9.4011225752898
      ],
      [
        "Ġmass",
        -9.405229229483616
      ],
      [
        ">",
        -9.40532959468951
      ],
      [
        "Ġinterest",
        -9.405503312212891
      ],
      [
        "Ġaddress",
        -9.4058971351055
      ],
      [
        "Ġcode",
        -9.406674432685918
      ],
      [
        "Ġre",
        -9.408210746301432
      ],
      [
        "rate",
        -9.411018329676269
      ],
      [
        "what",
        -9.412853942421894
      ],
      [
        "ĠSchool",
        -9.413191546587788
      ],
      [
        "Ġstyle",
        -9.414808286455468
      ],
      [
        "Ġbattery",
        -9.415040729974312
      ],
      [
        "Ġleading",
        -9.415071975164269
      ],
      [
        "Ġpaint",
        -9.416659081545369
      ],
      [
        "Ġhorse",
        -9.416678643728732
      ],
      [
        "As",
        -9.417129027894124
      ],
      [
        "Ġnegative",
        -9.417347607317486
      ],
      [
        "Ġpay",
        -9.418605414552973
      ],
      [
        "Some",
        -9.418823586449836
      ],
      [
        "Ġattention",
        -9.41914357484439
      ],
      [
        "Ġtaken",
        -9.421407729131912
      ],
      [
        "Ġ=",
        -9.42184932981746
      ],
      [
        "Ġinfluence",
        -9.422060376539068
      ],
      [
        "ber",
        -9.423506267272362
      ],
      [
        "|",
        -9.424890010270364
      ],
      [
        "Ġservices",
        -9.425326806601609
      ],
      [
        "Ġword",
        -9.425903695042685
      ],
      [
        "Ġreach",
        -9.427989826122634
      ],
      [
        "Q",
        -9.42802963582827
      ],
      [
        "Ġwinter",
        -9.430061553314369
      ],
      [
        "Ġmeat",
        -9.431417206276349
      ],
      [
        "Ġfinal",
        -9.43269665017026
      ],
      [
        "Ġspring",
        -9.432934294799708
      ],
      [
        "Ġremain",
        -9.433172453387805
      ],
      [
        "Ġcover",
        -9.435417909605931
      ],
      [
        "ĠDr",
        -9.435535730376191
      ],
      [
        "Ġsmalle",
        -9.435923205794191
      ],
      [
        "Ġmonitor",
        -9.435958372840137
      ],
      [
        "ry",
        -9.436099613471011
      ],
      [
        "quite",
        -9.4379205678486
      ],
      [
        "Ġefficient",
        -9.4382599412728
      ],
      [
        "Ġgovernment",
        -9.43858341543612
      ],
      [
        "Ġfilter",
        -9.439083276170694
      ],
      [
        "Ġfoods",
        -9.43915235052875
      ],
      [
        "ĠSouth",
        -9.439268031285629
      ],
      [
        "Ġchance",
        -9.43969403151441
      ],
      [
        "Ġevents",
        -9.44020750560972
      ],
      [
        "Ġeasi",
        -9.441560673763547
      ],
      [
        "Ġgot",
        -9.442401845354985
      ],
      [
        "Ġcontainer",
        -9.445466378625936
      ],
      [
        "Â°",
        -9.44619386201078
      ],
      [
        "ĠHere",
        -9.446982521474544
      ],
      [
        "Ġview",
        -9.447519537974408
      ],
      [
        "Ġparticularly",
        -9.450279261206546
      ],
      [
        "ĠNorth",
        -9.45102444328445
      ],
      [
        "ĠAmerica",
        -9.45127935087081
      ],
      [
        "Ġwood",
        -9.452330825314778
      ],
      [
        "Ġplayer",
        -9.45286665966742
      ],
      [
        "Ġsection",
        -9.453486894798068
      ],
      [
        "Ġmix",
        -9.454005689584502
      ],
      [
        "Ġold",
        -9.454300078498123
      ],
      [
        "Ġfemale",
        -9.45433998236351
      ],
      [
        "Ġsave",
        -9.45483532538346
      ],
      [
        "Ġsea",
        -9.45512632470059
      ],
      [
        "Ġcolors",
        -9.456200765756726
      ],
      [
        "Ġapply",
        -9.456724018929584
      ],
      [
        "Ġbuil",
        -9.457014604245751
      ],
      [
        "ĠHealth",
        -9.458126688022134
      ],
      [
        "Ġbirds",
        -9.458321322188809
      ],
      [
        "Ġinsect",
        -9.458977332981846
      ],
      [
        "Ġsite",
        -9.458995817436964
      ],
      [
        "Ġdevelope",
        -9.459368967004142
      ],
      [
        "Ġextra",
        -9.45947729741365
      ],
      [
        "Ġocean",
        -9.46048530204034
      ],
      [
        "Ġsupply",
        -9.460504646324122
      ],
      [
        "So",
        -9.461403019267026
      ],
      [
        "Ġwalk",
        -9.465235593266357
      ],
      [
        "Ġdistance",
        -9.465889170249454
      ],
      [
        "Can",
        -9.46656733686073
      ],
      [
        "Ġweeks",
        -9.466893300399274
      ],
      [
        "ce",
        -9.469145971359383
      ],
      [
        "only",
        -9.469811533786226
      ],
      [
        "ĠDo",
        -9.470551268547194
      ],
      [
        "Ġcritical",
        -9.472243677151926
      ],
      [
        "Ġprotection",
        -9.47270518765
      ],
      [
        "Ġfeature",
        -9.473329679552666
      ],
      [
        "Ġgoal",
        -9.473508621387104
      ],
      [
        "rying",
        -9.473696223884671
      ],
      [
        "Ġsalt",
        -9.473752115850935
      ],
      [
        "Ġlimit",
        -9.475303517634362
      ],
      [
        "Ġreading",
        -9.475832901840054
      ],
      [
        "Ġlist",
        -9.476841379998902
      ],
      [
        "Ġalternative",
        -9.477072203788133
      ],
      [
        "Ġterms",
        -9.477288252844208
      ],
      [
        "formed",
        -9.47745338719217
      ],
      [
        "Ġspot",
        -9.47792086211816
      ],
      [
        "Ġdemand",
        -9.47910437988778
      ],
      [
        "Ġspread",
        -9.479501760042352
      ],
      [
        "ĠCan",
        -9.480004732740476
      ],
      [
        "Ġdirection",
        -9.482489425623092
      ],
      [
        "Ġsunspot",
        -9.48293296251082
      ],
      [
        "Ġha",
        -9.483581669535784
      ],
      [
        "Ġgenerate",
        -9.483870800868928
      ],
      [
        "Ġenzyme",
        -9.483879897142934
      ],
      [
        "Ġliquid",
        -9.484646655092147
      ],
      [
        "Ġorganic",
        -9.487261084190015
      ],
      [
        "man",
        -9.488207043631355
      ],
      [
        "Ġfire",
        -9.488987173156104
      ],
      [
        "Another",
        -9.490678896036714
      ],
      [
        "U",
        -9.491961334600065
      ],
      [
        "Ġvisit",
        -9.492368991193391
      ],
      [
        "Ġvisual",
        -9.494179473867485
      ],
      [
        "Ġgain",
        -9.494460927859546
      ],
      [
        "ĠAfter",
        -9.494684782342691
      ],
      [
        "Ġsummer",
        -9.495612668287464
      ],
      [
        "Ġbaby",
        -9.496168455826131
      ],
      [
        "ĠG",
        -9.497329145058233
      ],
      [
        "Ġglass",
        -9.497668035063567
      ],
      [
        "Ġmodels",
        -9.497803926548643
      ],
      [
        "Ġearth",
        -9.497852598750796
      ],
      [
        "Ġenhance",
        -9.497882756504218
      ],
      [
        "even",
        -9.497940073892254
      ],
      [
        "Ġcamera",
        -9.498165164814178
      ],
      [
        "Ġdeath",
        -9.500033956449698
      ],
      [
        "Now",
        -9.500941131789958
      ],
      [
        "Ġsix",
        -9.502230512013572
      ],
      [
        "Ġtend",
        -9.503392469311084
      ],
      [
        "inches",
        -9.504648881542678
      ],
      [
        "--",
        -9.504723476767628
      ],
      [
        "Ġcharacteristic",
        -9.50545733990673
      ],
      [
        "Ġselect",
        -9.505781138250024
      ],
      [
        "Ġconnect",
        -9.506689720197166
      ],
      [
        "aily",
        -9.507321818634164
      ],
      [
        "Ġattack",
        -9.507502152202743
      ],
      [
        "Ġbond",
        -9.509111430042266
      ],
      [
        "Ġscientific",
        -9.510322862351988
      ],
      [
        "Ġfeeling",
        -9.510425669897735
      ],
      [
        "Ġtrue",
        -9.513019772107947
      ],
      [
        "last",
        -9.513025499822144
      ],
      [
        "Ġuseful",
        -9.513043448042648
      ],
      [
        "K",
        -9.513275306407555
      ],
      [
        "Ġelectrical",
        -9.513437227123768
      ],
      [
        "Ġmonth",
        -9.516430658106144
      ],
      [
        "Ġtowards",
        -9.516697722289896
      ],
      [
        "Ġimportance",
        -9.517999386507164
      ],
      [
        "Ġculture",
        -9.518190397953
      ],
      [
        "Ġfront",
        -9.520695010214212
      ],
      [
        "ways",
        -9.521077383088445
      ],
      [
        "Ġbrand",
        -9.522111097710578
      ],
      [
        "Ġnotice",
        -9.523461911987324
      ],
      [
        "Ġrecommended",
        -9.5273394999738
      ],
      [
        "Ġhabitat",
        -9.52753584287244
      ],
      [
        "Ġrequirement",
        -9.527790057669275
      ],
      [
        "fully",
        -9.529264566846766
      ],
      [
        "#",
        -9.52928244555796
      ],
      [
        "Ġelse",
        -9.529289944093833
      ],
      [
        "will",
        -9.530246970659764
      ],
      [
        "limited",
        -9.531754184792836
      ],
      [
        "Ġpotato",
        -9.53201939992436
      ],
      [
        "Ġinput",
        -9.532238102113674
      ],
      [
        "Ġprocesses",
        -9.534144270040349
      ],
      [
        "Ġeasier",
        -9.53448023555546
      ],
      [
        "Ġago",
        -9.536572321674257
      ],
      [
        "upon",
        -9.53801180519099
      ],
      [
        "Ġrunning",
        -9.538436764621984
      ],
      [
        "Ġred",
        -9.53867193820139
      ],
      [
        "\\u",
        -9.53886906120275
      ],
      [
        "Ġprice",
        -9.53923621535521
      ],
      [
        "Ġequal",
        -9.540162154893494
      ],
      [
        "were",
        -9.540790458413484
      ],
      [
        "Ġeveryone",
        -9.541152085721954
      ],
      [
        "Ġfast",
        -9.54260889744376
      ],
      [
        "Ġoutput",
        -9.544151156842664
      ],
      [
        "Ġmale",
        -9.544202232185828
      ],
      [
        "Ġmedia",
        -9.544500072781148
      ],
      [
        "ties",
        -9.544849247571946
      ],
      [
        "Ġappropriate",
        -9.546141846663872
      ],
      [
        "Ġreplace",
        -9.547815752495351
      ],
      [
        "Ġingredient",
        -9.548500461934925
      ],
      [
        "Ġinstruction",
        -9.549580820299033
      ],
      [
        "Ġactive",
        -9.55017523075809
      ],
      [
        "ers",
        -9.55018021977834
      ],
      [
        "Ġtrack",
        -9.55135805267
      ],
      [
        "Ġstand",
        -9.552060111749402
      ],
      [
        "nd",
        -9.552109036410236
      ],
      [
        "ities",
        -9.552149674675787
      ],
      [
        "Ġblue",
        -9.552680326436384
      ],
      [
        "Ġnoise",
        -9.553538405189723
      ],
      [
        "Y",
        -9.554885747872335
      ],
      [
        "Ġmeet",
        -9.555295350614353
      ],
      [
        "red",
        -9.556389796498577
      ],
      [
        "made",
        -9.557021420032877
      ],
      [
        "Ġroot",
        -9.559209982117917
      ],
      [
        "Ġdecrease",
        -9.559490711410527
      ],
      [
        "Ġdisplay",
        -9.559868535665808
      ],
      [
        "Ġman",
        -9.560714737947611
      ],
      [
        "Ġdefine",
        -9.56261628055832
      ],
      [
        "Ġrelationship",
        -9.563127852623412
      ],
      [
        "Ġmanage",
        -9.564373578165153
      ],
      [
        "Ġcombine",
        -9.56588864940118
      ],
      [
        "-up",
        -9.566129512031075
      ],
      [
        "iving",
        -9.567226501169358
      ],
      [
        "here",
        -9.56747362516844
      ],
      [
        "Ġsteps",
        -9.567668938270078
      ],
      [
        "head",
        -9.567675427622682
      ],
      [
        "ĠWorld",
        -9.567778806795609
      ],
      [
        "ĠUse",
        -9.568110062182583
      ],
      [
        "Ġtransport",
        -9.569428187115012
      ],
      [
        "ries",
        -9.56998402741087
      ],
      [
        "side",
        -9.571603042114663
      ],
      [
        "Ġfat",
        -9.571717778954032
      ],
      [
        "Ġmone",
        -9.571857332407728
      ],
      [
        "highly",
        -9.572202730699011
      ],
      [
        "By",
        -9.57245822716959
      ],
      [
        "Ġsun",
        -9.573477503852052
      ],
      [
        "Ġseries",
        -9.573736958465616
      ],
      [
        "Ġrepair",
        -9.573977596437365
      ],
      [
        "ĠO",
        -9.574767134699403
      ],
      [
        "Ġtopic",
        -9.575563179719715
      ],
      [
        "Ġlives",
        -9.575877860866145
      ],
      [
        "through",
        -9.576491702653268
      ],
      [
        "And",
        -9.57786980364283
      ],
      [
        "ĠResearch",
        -9.57911625563393
      ],
      [
        "ĠWater",
        -9.579733738307208
      ],
      [
        "Ġideal",
        -9.579795292395454
      ],
      [
        "was",
        -9.580157503865088
      ],
      [
        "sure",
        -9.58189206468986
      ],
      [
        "Ġenable",
        -9.582650719216144
      ],
      [
        "Ġc",
        -9.582690384024264
      ],
      [
        "Ġsuccess",
        -9.583063466133884
      ],
      [
        "care",
        -9.583216312263009
      ],
      [
        "Ġhold",
        -9.583219846814616
      ],
      [
        "Ġcame",
        -9.583239519662191
      ],
      [
        "Ġcentury",
        -9.583246893632088
      ],
      [
        "ĠOf",
        -9.583508652323715
      ],
      [
        "Ġpanel",
        -9.584488947578562
      ],
      [
        "Ġhope",
        -9.584932671706216
      ],
      [
        "Ġserve",
        -9.585048746619131
      ],
      [
        "Ġpublishe",
        -9.585651673208298
      ],
      [
        "Ġmaximu",
        -9.585666312310078
      ],
      [
        "Ġresponsibl",
        -9.585881072560188
      ],
      [
        "Ġefficienc",
        -9.588760807433072
      ],
      [
        "Ġevent",
        -9.589513104206588
      ],
      [
        "ĠYes",
        -9.589599724831828
      ],
      [
        "Ġteeth",
        -9.590171076724408
      ],
      [
        "Ġmoment",
        -9.590387481393606
      ],
      [
        "Ġways",
        -9.591053561437397
      ],
      [
        "Ġharm",
        -9.592149474616903
      ],
      [
        "companie",
        -9.59360091237087
      ],
      [
        ".com",
        -9.594822607189364
      ],
      [
        "Ġpromote",
        -9.59551558307576
      ],
      [
        "Ġhandle",
        -9.595901461875355
      ],
      [
        "Ġfluid",
        -9.59740482012236
      ],
      [
        "Ġsustainabl",
        -9.597691993266755
      ],
      [
        "Ġdraw",
        -9.5980614661039
      ],
      [
        "ĠMy",
        -9.598310055629158
      ],
      [
        "âĢ¢",
        -9.598379468228412
      ],
      [
        "Ġflight",
        -9.59956311774492
      ],
      [
        "Ġmolecules",
        -9.599847914998684
      ],
      [
        "en",
        -9.602145840596553
      ],
      [
        "Ġdetect",
        -9.602280364378576
      ],
      [
        "thinking",
        -9.6025832857319
      ],
      [
        "Ġprojects",
        -9.6026228031329
      ],
      [
        "Ġlocate",
        -9.602758843572284
      ],
      [
        "Ġmechanism",
        -9.603036742709586
      ],
      [
        "ĠK",
        -9.604682963907608
      ],
      [
        "Ġcombination",
        -9.605268160581032
      ],
      [
        "Ġbuy",
        -9.606016102302243
      ],
      [
        "Ġbag",
        -9.607493279794632
      ],
      [
        "Ġencourage",
        -9.608447146969784
      ],
      [
        "Ġwriting",
        -9.608729703861544
      ],
      [
        "Ġapplie",
        -9.609001458449162
      ],
      [
        "Ġland",
        -9.60904480536844
      ],
      [
        "making",
        -9.609473795952052
      ],
      [
        "Ġco",
        -9.609503975389934
      ],
      [
        "Ġproteins",
        -9.610633930571346
      ],
      [
        "Ġstick",
        -9.611689789262826
      ],
      [
        "Ġrefer",
        -9.612918351880603
      ],
      [
        "-term",
        -9.613921555385478
      ],
      [
        "Ġimmediate",
        -9.614114184067644
      ],
      [
        "Ġprett",
        -9.616086164145848
      ],
      [
        "Ġtaste",
        -9.616109821019824
      ],
      [
        "Ġ[",
        -9.61662416481824
      ],
      [
        "Ġtalk",
        -9.619876488882376
      ],
      [
        "Ġserious",
        -9.62036298007829
      ],
      [
        "ĠMost",
        -9.620368913949424
      ],
      [
        "Ġtask",
        -9.620470421893708
      ],
      [
        "Ġsensor",
        -9.620947316397874
      ],
      [
        "Ġraise",
        -9.621358991184705
      ],
      [
        "Ġpoor",
        -9.621842018354243
      ],
      [
        "Ġmaintenance",
        -9.622616020524251
      ],
      [
        "Ġyet",
        -9.623210166841211
      ],
      [
        "lines",
        -9.623906750957763
      ],
      [
        "Ġobtain",
        -9.62429953453796
      ],
      [
        "Ġpump",
        -9.625076814820137
      ],
      [
        "Ġspend",
        -9.628476464841729
      ],
      [
        "Ġvoltage",
        -9.631550852674176
      ],
      [
        "Ġcloth",
        -9.631957249450922
      ],
      [
        "bility",
        -9.63198833010351
      ],
      [
        "Ġask",
        -9.63207162522723
      ],
      [
        "ship",
        -9.633626578862277
      ],
      [
        "âĢĿ",
        -9.636151299225702
      ],
      [
        "X",
        -9.63743643136789
      ],
      [
        "Ġelectronic",
        -9.637823984502557
      ],
      [
        "Ġremember",
        -9.638414679474174
      ],
      [
        "Ġbottom",
        -9.639245106943587
      ],
      [
        "Ġcarry",
        -9.641224520318715
      ],
      [
        "Ġsoftware",
        -9.64129719449909
      ],
      [
        "Ġdeal",
        -9.643143255610692
      ],
      [
        "Ġtank",
        -9.644005194801736
      ],
      [
        "me",
        -9.644449297024607
      ],
      [
        "took",
        -9.646089689915616
      ],
      [
        "Ġclaim",
        -9.648826858178005
      ],
      [
        "Ġevolution",
        -9.650984231617404
      ],
      [
        "Ġideas",
        -9.651088183956082
      ],
      [
        "Ġpound",
        -9.651129671546318
      ],
      [
        "ĠUS",
        -9.651365468589429
      ],
      [
        "change",
        -9.652641563507302
      ],
      [
        "they",
        -9.6542992600769
      ],
      [
        "Ġinstance",
        -9.657861544379628
      ],
      [
        "sources",
        -9.658251097296043
      ],
      [
        "Ġanti",
        -9.658772935465224
      ],
      [
        "ĠBlack",
        -9.65982360816256
      ],
      [
        "Ġdiseases",
        -9.6601716084027
      ],
      [
        "quality",
        -9.660634827445682
      ],
      [
        "Ġseek",
        -9.664009580543745
      ],
      [
        "ĠCenter",
        -9.66548846783142
      ],
      [
        "Ġcouple",
        -9.666112163542202
      ],
      [
        "Ġeconomic",
        -9.666281759639762
      ],
      [
        "Ġslight",
        -9.666420787307114
      ],
      [
        "Ġfrequent",
        -9.672718525150628
      ],
      [
        "Ġscreen",
        -9.672728274006657
      ],
      [
        "Ġrest",
        -9.674572098379684
      ],
      [
        "Ġcommonly",
        -9.675482977233376
      ],
      [
        "Ġcosts",
        -9.67589925041215
      ],
      [
        "Ġdidn",
        -9.67642167202116
      ],
      [
        "Ġbone",
        -9.677770732112368
      ],
      [
        "Ġaccurate",
        -9.67778487762457
      ],
      [
        "Ġintroduce",
        -9.679227579158503
      ],
      [
        "ĠâĢľ",
        -9.68017727085498
      ],
      [
        "Ġmembers",
        -9.681095526028088
      ],
      [
        "Ġaction",
        -9.681255904552549
      ],
      [
        "right",
        -9.681955072288142
      ],
      [
        "Ġdisorder",
        -9.681999062369805
      ],
      [
        "Ġchallenges",
        -9.683406279199
      ],
      [
        "Ġdoctor",
        -9.683491000567436
      ],
      [
        "Ġwear",
        -9.68368198576075
      ],
      [
        "Ġwonder",
        -9.685213637904084
      ],
      [
        "Ġwait",
        -9.686652250869034
      ],
      [
        "Ġfeed",
        -9.688802078588196
      ],
      [
        ".S",
        -9.688945094604543
      ],
      [
        "wise",
        -9.689703472098024
      ],
      [
        "Ġmental",
        -9.689890460174851
      ],
      [
        "Ġfile",
        -9.690442391020568
      ],
      [
        "Ġbeautiful",
        -9.690764969408876
      ],
      [
        "ĠMore",
        -9.691866407741587
      ],
      [
        "Ġcircuit",
        -9.692284193671046
      ],
      [
        "ĠInstitute",
        -9.69241270823257
      ],
      [
        "Ġswitch",
        -9.694053737466175
      ],
      [
        "Ġheavy",
        -9.69464012035926
      ],
      [
        "Ġtip",
        -9.695152869398523
      ],
      [
        "Ġnothing",
        -9.695383607467049
      ],
      [
        "Ġrecover",
        -9.69588849651562
      ],
      [
        "Ġimages",
        -9.696572584035408
      ],
      [
        "Ġexpected",
        -9.697834684209568
      ],
      [
        "any",
        -9.69809320753502
      ],
      [
        "ĠAir",
        -9.698348087994896
      ],
      [
        "Ġsort",
        -9.699439843342953
      ],
      [
        "Ġversion",
        -9.69959591684042
      ],
      [
        "Ġpass",
        -9.70080803064562
      ],
      [
        "Ġmemory",
        -9.70138230855301
      ],
      [
        "adding",
        -9.70171644763009
      ],
      [
        "Ġresistance",
        -9.701720885391016
      ],
      [
        "Ġthousand",
        -9.701792468645568
      ],
      [
        "Ġlack",
        -9.702891064716155
      ],
      [
        "Ġconcept",
        -9.704016474275331
      ],
      [
        "Ġpicture",
        -9.704443606762952
      ],
      [
        "Ġball",
        -9.705219808817418
      ],
      [
        "><",
        -9.706011705704537
      ],
      [
        "Ġcleaning",
        -9.707218109543074
      ],
      [
        "Ġhair",
        -9.707737935646191
      ],
      [
        "Ġconstruction",
        -9.708126514638217
      ],
      [
        "Ġmeaning",
        -9.709333209277968
      ],
      [
        "flowers",
        -9.710330784645732
      ],
      [
        "Ġrapid",
        -9.710397427520244
      ],
      [
        "Which",
        -9.712885768764394
      ],
      [
        "Ġdesire",
        -9.712966673316828
      ],
      [
        "Ġcapacity",
        -9.713180213644405
      ],
      [
        "Ġreflect",
        -9.715319086116184
      ],
      [
        "Ġage",
        -9.716016566484896
      ],
      [
        "That",
        -9.716308948977955
      ],
      [
        "Ġfine",
        -9.7163242186278
      ],
      [
        "going",
        -9.716827588926852
      ],
      [
        "Ġhot",
        -9.716880475153827
      ],
      [
        "Ġwatch",
        -9.717581894010566
      ],
      [
        "Ġfriends",
        -9.718874839803522
      ],
      [
        "Step",
        -9.71922813981962
      ],
      [
        "Ġcity",
        -9.71967099431888
      ],
      [
        "Ġphone",
        -9.71984818449641
      ],
      [
        "Ġattempt",
        -9.721872007709454
      ],
      [
        "Ġconsist",
        -9.722214399262644
      ],
      [
        "Ġelement",
        -9.722632420565612
      ],
      [
        "Ġsuitabl",
        -9.722756346119066
      ],
      [
        "Ġreducing",
        -9.724290210964606
      ],
      [
        "Ġscale",
        -9.72513789337423
      ],
      [
        "Ġplanet",
        -9.726900496523973
      ],
      [
        "Ġcrop",
        -9.72709254407014
      ],
      [
        "Ġtouch",
        -9.728546561112662
      ],
      [
        "Ġever",
        -9.729998087803123
      ],
      [
        "such",
        -9.730920000904224
      ],
      [
        "Ġwire",
        -9.731618831883392
      ],
      [
        "Ġdiscovered",
        -9.73219158694989
      ],
      [
        "Ġmoistur",
        -9.734879079063033
      ],
      [
        "Ġpest",
        -9.735209058032607
      ],
      [
        "Ġwild",
        -9.73657714881574
      ],
      [
        "Ġmusic",
        -9.737295359088677
      ],
      [
        "ĠFrom",
        -9.738426018951465
      ],
      [
        "...Ċ",
        -9.739607807421589
      ],
      [
        "Ġact",
        -9.741802052795697
      ],
      [
        "ĠJ",
        -9.741843078971137
      ],
      [
        "Ġcommercial",
        -9.741971792769371
      ],
      [
        "On",
        -9.7422935085052
      ],
      [
        "had",
        -9.742338098187128
      ],
      [
        "Ġfly",
        -9.744771903706395
      ],
      [
        "-to",
        -9.74547615318976
      ],
      [
        "ice",
        -9.745898763363162
      ],
      [
        "Ġgives",
        -9.747026919915143
      ],
      [
        "ĠMany",
        -9.747603283573524
      ],
      [
        "Ġreported",
        -9.748193572856136
      ],
      [
        "est",
        -9.751485648697422
      ],
      [
        "Ġrise",
        -9.751607826273716
      ],
      [
        "Ġroad",
        -9.752038692006504
      ],
      [
        "ĠV",
        -9.752328501139823
      ],
      [
        "land",
        -9.754728812803368
      ],
      [
        "Ġpowerful",
        -9.755440804594894
      ],
      [
        "Ġdi",
        -9.756501275567064
      ],
      [
        "Ġfigure",
        -9.75768539378657
      ],
      [
        "Ġprocessing",
        -9.75844626968815
      ],
      [
        "Ġtransition",
        -9.758512020892075
      ],
      [
        "Ġaircraft",
        -9.758590868906014
      ],
      [
        "Ġanyone",
        -9.758871030249162
      ],
      [
        "Ġcollect",
        -9.760337527024303
      ],
      [
        "Ġburn",
        -9.761277054152018
      ],
      [
        "led",
        -9.76321728378143
      ],
      [
        "do",
        -9.763302126268789
      ],
      [
        "Ġparticles",
        -9.76359353662342
      ],
      [
        "Ġmessage",
        -9.766096636961818
      ],
      [
        "Ġexperiment",
        -9.76610494819807
      ],
      [
        "Ġappearance",
        -9.766382568590585
      ],
      [
        "Ġdiscuss",
        -9.766782291692852
      ],
      [
        "ĠAdditional",
        -9.766800929508614
      ],
      [
        "Ġcompound",
        -9.767945993994935
      ],
      [
        "wide",
        -9.769381206606385
      ],
      [
        "ĠGod",
        -9.770833222925974
      ],
      [
        "Ġsetting",
        -9.772166481944517
      ],
      [
        "Ġsoft",
        -9.77253159221993
      ],
      [
        "Ġinteresting",
        -9.772755412635508
      ],
      [
        "Ġm",
        -9.773020092384536
      ],
      [
        "Ġsquare",
        -9.77390869789762
      ],
      [
        "Ġobserved",
        -9.774952762307612
      ],
      [
        "Ġbox",
        -9.775510516119564
      ],
      [
        "Ġwrite",
        -9.775989011854108
      ],
      [
        "ĠEuropean",
        -9.776388291473792
      ],
      [
        "Ġhands",
        -9.77642877395828
      ],
      [
        "ĠX",
        -9.776506191322362
      ],
      [
        "ĠYork",
        -9.779302456153111
      ],
      [
        "just",
        -9.780326255414304
      ],
      [
        "light",
        -9.780434571998072
      ],
      [
        "Ġlate",
        -9.780692853209626
      ],
      [
        "ĠNot",
        -9.780799111051056
      ],
      [
        "Ġthird",
        -9.781663366002704
      ],
      [
        "Ġbirth",
        -9.78220210770547
      ],
      [
        "Ġplatform",
        -9.78346127961116
      ],
      [
        "Ġpractices",
        -9.784658572379044
      ],
      [
        "ĠWho",
        -9.784694362014996
      ],
      [
        "Ġheight",
        -9.78537058545642
      ],
      [
        "Ġrobot",
        -9.78583717360895
      ],
      [
        "Ġdriver",
        -9.786027499379184
      ],
      [
        "Ġlaw",
        -9.786189972396413
      ],
      [
        "Ġdoor",
        -9.786253248447911
      ],
      [
        "Ġexcellent",
        -9.78634351625932
      ],
      [
        "ĠEnglish",
        -9.787375506283588
      ],
      [
        "Ġteaching",
        -9.78766218592687
      ],
      [
        "Ġbird",
        -9.788933922708726
      ],
      [
        "Ġmedium",
        -9.789414105976482
      ],
      [
        "middle",
        -9.789502422533229
      ],
      [
        "Ġ$",
        -9.790873589394517
      ],
      [
        "their",
        -9.790983034171331
      ],
      [
        "ne",
        -9.791845397023897
      ],
      [
        "Ġconcentration",
        -9.792004328252345
      ],
      [
        "am",
        -9.792350986748067
      ],
      [
        "Ġcollection",
        -9.79297774377073
      ],
      [
        "older",
        -9.794630939277091
      ],
      [
        "ĠAfrica",
        -9.795287981629926
      ],
      [
        "Ġhost",
        -9.797891308858212
      ],
      [
        "Ġmedication",
        -9.798373246668346
      ],
      [
        "Ġdrop",
        -9.79842757776691
      ],
      [
        "Ġfight",
        -9.800123613379473
      ],
      [
        "xactly",
        -9.800469493398204
      ],
      [
        "Ġoxygen",
        -9.801274490616194
      ],
      [
        "Ġsevere",
        -9.80336475509161
      ],
      [
        "don",
        -9.803713637818555
      ],
      [
        "Ġmouth",
        -9.803817006308291
      ],
      [
        "ĠâĢĶ",
        -9.804020066702332
      ],
      [
        "Ġrare",
        -9.80407112079133
      ],
      [
        "Ġcolour",
        -9.805295115854882
      ],
      [
        "Ġstuff",
        -9.810529917951348
      ],
      [
        "Ġmiles",
        -9.811520771232072
      ],
      [
        "Ġtherefor",
        -9.812313435844352
      ],
      [
        "ember",
        -9.812481345638933
      ],
      [
        "Ġrich",
        -9.812618217374553
      ],
      [
        "Ġwrong",
        -9.812741765458988
      ],
      [
        "Ġmeasurement",
        -9.812920460218423
      ],
      [
        "Ġleg",
        -9.814485868485772
      ],
      [
        "Ġpot",
        -9.814829300724488
      ],
      [
        "ĠGerman",
        -9.81518576187182
      ],
      [
        "Ġexposure",
        -9.816282560299577
      ],
      [
        "Ġelectron",
        -9.816688667917422
      ],
      [
        "ĠAre",
        -9.818282998024014
      ],
      [
        "Ġboard",
        -9.819384537284948
      ],
      [
        "ĠIndia",
        -9.823044193367878
      ],
      [
        "Ġteachers",
        -9.824223193695031
      ],
      [
        "Ġfrequency",
        -9.82423628658726
      ],
      [
        "Ġgenes",
        -9.82463853728423
      ],
      [
        "ĠState",
        -9.824640338242496
      ],
      [
        "Ġsmooth",
        -9.826717501461497
      ],
      [
        "Ġdocument",
        -9.826879439220502
      ],
      [
        "Ġdetails",
        -9.827251398755187
      ],
      [
        "Ġbear",
        -9.829550851039016
      ],
      [
        "Ġbackground",
        -9.82967460381766
      ],
      [
        "Ġgiving",
        -9.832901089274005
      ],
      [
        "Ġvolume",
        -9.83387011189858
      ],
      [
        "Ġbrown",
        -9.834809353065443
      ],
      [
        "Ġminimum",
        -9.834864805141631
      ],
      [
        "ĠW",
        -9.835013124121456
      ],
      [
        "ĠEurope",
        -9.83530896375948
      ],
      [
        "Ġpresence",
        -9.835494726847989
      ],
      [
        "Ġdistribution",
        -9.835601666651083
      ],
      [
        "Ġsoon",
        -9.835668472099815
      ],
      [
        "Ġrecognize",
        -9.835796943266022
      ],
      [
        "take",
        -9.835955057537207
      ],
      [
        "Ġfabric",
        -9.836453517225442
      ],
      [
        "Ġjourney",
        -9.837057886484384
      ],
      [
        "Ġcountr",
        -9.83737423725256
      ],
      [
        "Our",
        -9.838008355722897
      ],
      [
        "Ġnutrients",
        -9.838619674636137
      ],
      [
        "Ġspeaker",
        -9.83930053248929
      ],
      [
        "Ġthreat",
        -9.83985629735501
      ],
      [
        "Ġtasks",
        -9.839891372920476
      ],
      [
        "Ġsociety",
        -9.840371536220925
      ],
      [
        "Ġestablish",
        -9.840796097467674
      ],
      [
        "Ġsolid",
        -9.84085765099652
      ],
      [
        "Ġensur",
        -9.841020632710489
      ],
      [
        "Ġp",
        -9.84109685000659
      ],
      [
        "Ġpull",
        -9.842944222998865
      ],
      [
        "Ġvariation",
        -9.842983945426557
      ],
      [
        "Ġart",
        -9.843086184552677
      ],
      [
        "Ġmagnetic",
        -9.843521698867452
      ],
      [
        "Ġplease",
        -9.843681604797656
      ],
      [
        "After",
        -9.844430579251595
      ],
      [
        "fish",
        -9.844569223061146
      ],
      [
        "ĠIs",
        -9.844750195171097
      ],
      [
        "Ġfamili",
        -9.84513471315426
      ],
      [
        "Ġstates",
        -9.846712919766173
      ],
      [
        "Ġmap",
        -9.84696292077878
      ],
      [
        "Ġdiabet",
        -9.847369862190606
      ],
      [
        "Ġpick",
        -9.847472289218764
      ],
      [
        "Ġfossil",
        -9.847536047519409
      ],
      [
        "Ġreview",
        -9.847862888319089
      ],
      [
        "Ġaffected",
        -9.848079429854993
      ],
      [
        "Ġuses",
        -9.848327900401657
      ],
      [
        "ĠOur",
        -9.84856723538214
      ],
      [
        "Ġreveal",
        -9.84993993738996
      ],
      [
        "Ġconnected",
        -9.850409089410938
      ],
      [
        "Ġframe",
        -9.850750248608495
      ],
      [
        "Ġfiber",
        -9.853777781012724
      ],
      [
        "ility",
        -9.855721923761312
      ],
      [
        "Ġreference",
        -9.856945509105106
      ],
      [
        "Ġrecommend",
        -9.857069934662253
      ],
      [
        "Ġexpression",
        -9.857343293938868
      ],
      [
        "Ġforward",
        -9.857837838328445
      ],
      [
        "Ġegg",
        -9.858401261738418
      ],
      [
        "Ġwheel",
        -9.858460378751689
      ],
      [
        "Ġenter",
        -9.859008443909229
      ],
      [
        "Ġliv",
        -9.861024101471813
      ],
      [
        "Ġlargest",
        -9.861288512657833
      ],
      [
        "nce",
        -9.861386908762512
      ],
      [
        "Ġmotion",
        -9.863020968559065
      ],
      [
        "Ġphoto",
        -9.863173053672543
      ],
      [
        "Ġjoint",
        -9.863926063482122
      ],
      [
        "Ġfaste",
        -9.864381646157703
      ],
      [
        "Ġselection",
        -9.864451917603004
      ],
      [
        "games",
        -9.866738577615765
      ],
      [
        "ĠMay",
        -9.867498483346454
      ],
      [
        "ĠEach",
        -9.86895012927328
      ],
      [
        "Ġsequence",
        -9.871853602560488
      ],
      [
        "Therefore",
        -9.871911445110076
      ],
      [
        "Ġbasi",
        -9.871978419588348
      ],
      [
        "Ġvision",
        -9.873343673131274
      ],
      [
        "Ġcontext",
        -9.873364473389408
      ],
      [
        "Here",
        -9.873554534321071
      ],
      [
        "Ġmulti",
        -9.873762424853592
      ],
      [
        "Ġaccept",
        -9.87625368684729
      ],
      [
        "Ġmilk",
        -9.876622082388016
      ],
      [
        "lot",
        -9.87700051164148
      ],
      [
        "ĠNOT",
        -9.877860998462564
      ],
      [
        "Ġhuge",
        -9.877960348885598
      ],
      [
        "board",
        -9.87835279742404
      ],
      [
        "Ġecosystem",
        -9.879458981485367
      ],
      [
        "Ġfavorite",
        -9.87970016730776
      ],
      [
        "Ġear",
        -9.88012722211502
      ],
      [
        "when",
        -9.880719760863848
      ],
      [
        "ĠOther",
        -9.884000285209735
      ],
      [
        "Ġexpect",
        -9.884546826926464
      ],
      [
        "ĠUE",
        -9.885577540662709
      ],
      [
        "Ġremains",
        -9.886705285505968
      ],
      [
        "Ġyellow",
        -9.886859291544637
      ],
      [
        "Ġpath",
        -9.88771195647683
      ],
      [
        "lower",
        -9.888886914152694
      ],
      [
        "Ġrule",
        -9.889681241951504
      ],
      [
        "into",
        -9.89022166538946
      ],
      [
        "Ġdecade",
        -9.890284176709002
      ],
      [
        "ĠMarch",
        -9.890373299093069
      ],
      [
        "Ġmatch",
        -9.89097174696847
      ],
      [
        "Ġcutting",
        -9.891701240065045
      ],
      [
        "Ġphase",
        -9.893239079095242
      ],
      [
        "interested",
        -9.893838770478936
      ],
      [
        "Ġadde",
        -9.897390575961133
      ],
      [
        "Ġvital",
        -9.897484605970666
      ],
      [
        "Ġsurrounding",
        -9.898589565859195
      ],
      [
        "Ġdate",
        -9.899453179149976
      ],
      [
        "Ġstock",
        -9.899586632414122
      ],
      [
        "Ġpractical",
        -9.89971561708236
      ],
      [
        "Ġexpensive",
        -9.899959061450533
      ],
      [
        "Ġbright",
        -9.901651800625196
      ],
      [
        "Ġcup",
        -9.90259114119966
      ],
      [
        "yond",
        -9.902622279819909
      ],
      [
        "Ġextract",
        -9.90266749826101
      ],
      [
        "Ġlesson",
        -9.902874659682592
      ],
      [
        "Ġpilot",
        -9.902941334156845
      ],
      [
        "there",
        -9.903280583515182
      ],
      [
        "Ġsample",
        -9.90355115624812
      ],
      [
        "Ġrecipe",
        -9.904087529354223
      ],
      [
        "try",
        -9.904447713184805
      ],
      [
        "Ġshift",
        -9.904664549559026
      ],
      [
        "know",
        -9.905813016455047
      ],
      [
        "Ġthus",
        -9.906937219692814
      ],
      [
        "Ġconsumer",
        -9.908223005497703
      ],
      [
        "Ġflavor",
        -9.90860443213689
      ],
      [
        "April",
        -9.908674211520085
      ],
      [
        "Ġdrug",
        -9.908855081704347
      ],
      [
        "Ġbodie",
        -9.908920204206233
      ],
      [
        "ĠLearn",
        -9.90917882093232
      ],
      [
        "Ġengage",
        -9.909245020775607
      ],
      [
        "no",
        -9.911089215532678
      ],
      [
        "Ġconsistent",
        -9.911400285183271
      ],
      [
        "Ġfit",
        -9.911440385734554
      ],
      [
        "long",
        -9.911946933235456
      ],
      [
        "Ġlab",
        -9.912017688644426
      ],
      [
        "field",
        -9.91431776475772
      ],
      [
        "uring",
        -9.914832850168818
      ],
      [
        "Ġs",
        -9.915700434714935
      ],
      [
        "while",
        -9.916223757497864
      ],
      [
        "Ġdrawing",
        -9.916531106592435
      ],
      [
        "Ġgrade",
        -9.91712470949291
      ],
      [
        "ĠEven",
        -9.91723325111766
      ],
      [
        "Ġpurchase",
        -9.917364011344183
      ],
      [
        "Ġchallenge",
        -9.917452817095842
      ],
      [
        "Ġcomfort",
        -9.918375236879331
      ],
      [
        "Ġidentifie",
        -9.91914032050412
      ],
      [
        "ĠOnc",
        -9.922258227140428
      ],
      [
        "Ġcapture",
        -9.922366566362076
      ],
      [
        "Ġrate",
        -9.92260983685782
      ],
      [
        "<",
        -9.922998356892258
      ],
      [
        "weight",
        -9.92313557302019
      ],
      [
        "Ġmanufacturer",
        -9.924088757734008
      ],
      [
        "All",
        -9.92492966275363
      ],
      [
        "allowed",
        -9.925100334329397
      ],
      [
        "ring",
        -9.925495476450756
      ],
      [
        "Ġdepth",
        -9.92712765637405
      ],
      [
        "Ġpark",
        -9.927469532853468
      ],
      [
        "Ġinsight",
        -9.92772134540516
      ],
      [
        "Ġsecurit",
        -9.928997518469716
      ],
      [
        "Ġready",
        -9.929179134379098
      ],
      [
        "Ġtexture",
        -9.93069391052794
      ],
      [
        "Ġtechnologies",
        -9.931098997737037
      ],
      [
        "Ġfunctions",
        -9.932098518447562
      ],
      [
        "Ġworth",
        -9.93244301179486
      ],
      [
        "Ġmov",
        -9.933286886307831
      ],
      [
        "ĠpH",
        -9.933962448025191
      ],
      [
        "Ġstructures",
        -9.934066886974016
      ],
      [
        "known",
        -9.934213494184672
      ],
      [
        "Ġrules",
        -9.93709247383462
      ],
      [
        "Ġadjust",
        -9.938523259170791
      ],
      [
        "Ġartist",
        -9.939245437931056
      ],
      [
        "Ġroots",
        -9.939392781604049
      ],
      [
        "Ġvia",
        -9.939497698458926
      ],
      [
        "Ġmarine",
        -9.940109121733547
      ],
      [
        "Ġdivers",
        -9.941298082714496
      ],
      [
        "-->",
        -9.942979409180651
      ],
      [
        "Ġtheor",
        -9.943173637978369
      ],
      [
        "Ġdemonstrate",
        -9.943560178073096
      ],
      [
        "related",
        -9.94377230453324
      ],
      [
        "Ġletter",
        -9.94548546408836
      ],
      [
        "Ġbega",
        -9.945566088494934
      ],
      [
        "},",
        -9.946979386534643
      ],
      [
        "Ġtrigger",
        -9.947027727704814
      ],
      [
        "Ġwent",
        -9.947208127620584
      ],
      [
        "Ġmother",
        -9.9491678118229
      ],
      [
        "Ġcaus",
        -9.949952359201507
      ],
      [
        "ĠMake",
        -9.950518642892614
      ],
      [
        "Ġchannel",
        -9.950824251344432
      ],
      [
        "Ġconsumpti",
        -9.951268263509595
      ],
      [
        "Ġedge",
        -9.952254852722586
      ],
      [
        "Ġhapp",
        -9.954265040917328
      ],
      [
        "No",
        -9.954639525074636
      ],
      [
        "Ġactual",
        -9.95506205581156
      ],
      [
        "Ġexpand",
        -9.955765499291983
      ],
      [
        "Ġteacher",
        -9.956855015211614
      ],
      [
        "aught",
        -9.957278933028483
      ],
      [
        "Ġdensit",
        -9.957510739179911
      ],
      [
        "Ġcommand",
        -9.958011600521994
      ],
      [
        "ĠWar",
        -9.958089559506714
      ],
      [
        "Ġ&",
        -9.958733325112336
      ],
      [
        "ĠService",
        -9.959255890646244
      ],
      [
        "Ġrequest",
        -9.959484793440502
      ],
      [
        "Ġapproximate",
        -9.960247659038746
      ],
      [
        "Ġpair",
        -9.960754524968184
      ],
      [
        "Ġshoes",
        -9.960849187373704
      ],
      [
        "Ġsounds",
        -9.961042026556044
      ],
      [
        "Ġdriving",
        -9.961280049153654
      ],
      [
        "Ġparameter",
        -9.962023734726108
      ],
      [
        "Ġfashion",
        -9.962175894885709
      ],
      [
        "name",
        -9.963568939850871
      ],
      [
        "Ġdetail",
        -9.964758943861348
      ],
      [
        "Ġapp",
        -9.965321636874863
      ],
      [
        "Ġmedicine",
        -9.96605623964914
      ],
      [
        "Ġma",
        -9.96638792419616
      ],
      [
        "{",
        -9.968078815073136
      ],
      [
        "maybe",
        -9.968570533487584
      ],
      [
        "Ġfilm",
        -9.968631110297924
      ],
      [
        "Most",
        -9.969339428630072
      ],
      [
        "Ġse",
        -9.969605508826628
      ],
      [
        "Ġatmosphere",
        -9.971229376002018
      ],
      [
        "Ġconsume",
        -9.971567482612093
      ],
      [
        "||",
        -9.971837919303772
      ],
      [
        "Ġregulation",
        -9.972242091293852
      ],
      [
        "-like",
        -9.972336130800326
      ],
      [
        "Ġmotor",
        -9.972740846660535
      ],
      [
        "Ġtiny",
        -9.973487899228012
      ],
      [
        "Ġcentral",
        -9.97385410693118
      ],
      [
        "Ġtable",
        -9.97579943328476
      ],
      [
        "Ġpolicy",
        -9.97603930698972
      ],
      [
        "Ġdynamic",
        -9.97627745200532
      ],
      [
        "Ġstrategi",
        -9.978212509796752
      ],
      [
        "Ġgrain",
        -9.979572906330052
      ],
      [
        "Ġadapt",
        -9.97962284401202
      ],
      [
        "ĠEducation",
        -9.97964290199272
      ],
      [
        "Ġaim",
        -9.980083658723236
      ],
      [
        "Ġbeginning",
        -9.981163541731274
      ],
      [
        "Many",
        -9.984937618189209
      ],
      [
        "st",
        -9.987087660604146
      ],
      [
        "Ġsaw",
        -9.987435516317175
      ],
      [
        "Ġconservation",
        -9.988159716668026
      ],
      [
        "Ġpollution",
        -9.9882950398268
      ],
      [
        "Ġstring",
        -9.98907924308002
      ],
      [
        "Ġphotograph",
        -9.989233042204122
      ],
      [
        "Ġcalculate",
        -9.98937636875836
      ],
      [
        "Ġcreative",
        -9.989476091304208
      ],
      [
        "Ġsurvive",
        -9.990196884746698
      ],
      [
        "Ġerror",
        -9.990456992949774
      ],
      [
        "reality",
        -9.990978751540876
      ],
      [
        "Ġtherap",
        -9.99129551749004
      ],
      [
        "call",
        -9.991446046204535
      ],
      [
        "Ġcontrast",
        -9.991556631953008
      ],
      [
        "ĠAt",
        -9.992168198427224
      ],
      [
        "Ġclient",
        -9.992179578848868
      ],
      [
        "king",
        -9.992358197333395
      ],
      [
        "eat",
        -9.99583201544231
      ],
      [
        "dium",
        -9.996114008765904
      ],
      [
        "Ġroutine",
        -9.996210883451326
      ],
      [
        "Ġvaluable",
        -9.998014288227576
      ],
      [
        "Ġload",
        -9.999053108676684
      ],
      [
        "Ġclick",
        -9.999346677125558
      ],
      [
        "body",
        -10.000387182019193
      ],
      [
        "Ġimplement",
        -10.000664070311933
      ],
      [
        "Ġfinancial",
        -10.000688930121155
      ],
      [
        "coming",
        -10.001482766225129
      ],
      [
        "Ġlooks",
        -10.001550237865183
      ],
      [
        "Ġstraight",
        -10.001842368519236
      ],
      [
        "Ġsustain",
        -10.003992598079464
      ],
      [
        "Ġfoot",
        -10.005615648142314
      ],
      [
        "Ġangle",
        -10.007675597106646
      ],
      [
        "Ġkeeping",
        -10.00788260335067
      ],
      [
        "Ġprefer",
        -10.00798306648473
      ],
      [
        "Ġbiological",
        -10.008269722033653
      ],
      [
        "comfortable",
        -10.008343080231093
      ],
      [
        "Ġstaff",
        -10.00902187290058
      ],
      [
        "ization",
        -10.009550218965629
      ],
      [
        "Ġeventual",
        -10.009866835057604
      ],
      [
        "q",
        -10.010261264895792
      ],
      [
        "Ġindependent",
        -10.010658237053294
      ],
      [
        "point",
        -10.01114704390901
      ],
      [
        "Ġnative",
        -10.011633160253492
      ],
      [
        "Ġsweet",
        -10.011707055298755
      ],
      [
        "Ġnational",
        -10.011934358920954
      ],
      [
        "ĠGroup",
        -10.012014065246204
      ],
      [
        "Ġpipe",
        -10.013275706796414
      ],
      [
        "Ġsession",
        -10.014271595880714
      ],
      [
        "Ġaspects",
        -10.014313494460245
      ],
      [
        "Ġsamples",
        -10.0146807358762
      ],
      [
        "Ġalone",
        -10.01482787759944
      ],
      [
        "ten",
        -10.01598135451986
      ],
      [
        "Ġdust",
        -10.017901468372752
      ],
      [
        "Ġdead",
        -10.018436222223208
      ],
      [
        "Ġdouble",
        -10.018632343262633
      ],
      [
        "Ġw",
        -10.01909585844966
      ],
      [
        "Ġwar",
        -10.019477741179388
      ],
      [
        "Ġdiscussion",
        -10.01999644789214
      ],
      [
        "Ġam",
        -10.020486833158854
      ],
      [
        "Ġextend",
        -10.022605201854866
      ],
      [
        "end",
        -10.022628919514537
      ],
      [
        "system",
        -10.022823648452734
      ],
      [
        "j",
        -10.023995106248012
      ],
      [
        "Ġtransfer",
        -10.02473485507717
      ],
      [
        "Ġtha",
        -10.026228008173414
      ],
      [
        "Ġpasse",
        -10.02725897533219
      ],
      [
        "Ġwa",
        -10.027946908190586
      ],
      [
        "Ġschedule",
        -10.02806456607459
      ],
      [
        "Ġonto",
        -10.02815772038258
      ],
      [
        "Ġvaccine",
        -10.030666973669224
      ],
      [
        "Ġsupplement",
        -10.030904036068174
      ],
      [
        "Ġgold",
        -10.03152895091488
      ],
      [
        "ĠUK",
        -10.03186976844428
      ],
      [
        "Ġearlier",
        -10.032632051919023
      ],
      [
        "Ġarray",
        -10.032925044264871
      ],
      [
        "Ġvitamin",
        -10.03403345908686
      ],
      [
        "ĠAccording",
        -10.034607270219324
      ],
      [
        "Ġhundred",
        -10.034934971812302
      ],
      [
        "Ġemergenc",
        -10.035163134147474
      ],
      [
        "Yes",
        -10.03550832344784
      ],
      [
        "Ġbooks",
        -10.03584883007236
      ],
      [
        "Ġemission",
        -10.035997200262916
      ],
      [
        "numerous",
        -10.037216440216394
      ],
      [
        "Ġcard",
        -10.03807412036624
      ],
      [
        "Ġgrown",
        -10.039194719181673
      ],
      [
        "ĠDec",
        -10.039524666824567
      ],
      [
        "Ġfriend",
        -10.040266021544724
      ],
      [
        "Ġvoice",
        -10.041048596164398
      ],
      [
        "lost",
        -10.041963860634429
      ],
      [
        "Ġhelping",
        -10.04231769585706
      ],
      [
        "Ġsub",
        -10.042651128163604
      ],
      [
        "put",
        -10.042824623459332
      ],
      [
        "Ġvirtual",
        -10.043373993209595
      ],
      [
        "Ġexpose",
        -10.04480990084178
      ],
      [
        "Ġoperate",
        -10.04552352259982
      ],
      [
        "ĠAfrican",
        -10.04555630599368
      ],
      [
        "Ġmid",
        -10.046114016777008
      ],
      [
        "Ġoffering",
        -10.046595606576922
      ],
      [
        "Ġagree",
        -10.047464314420887
      ],
      [
        "Ġvary",
        -10.04760071317171
      ],
      [
        "ĠOr",
        -10.048126588280605
      ],
      [
        "ĠNow",
        -10.048461628633572
      ],
      [
        "Ġconvert",
        -10.048691617834464
      ],
      [
        "new",
        -10.049445523170196
      ],
      [
        "Your",
        -10.049582199217864
      ],
      [
        "Ġrice",
        -10.049887049420567
      ],
      [
        "ted",
        -10.05038204837059
      ],
      [
        "Ġlabel",
        -10.051269298079806
      ],
      [
        "Ġimmune",
        -10.052127926045491
      ],
      [
        "Use",
        -10.052335677940986
      ],
      [
        "Ġexamine",
        -10.053017658772616
      ],
      [
        "Ġclassroom",
        -10.05366150603736
      ],
      [
        "ĠJapan",
        -10.053750239913278
      ],
      [
        "Ġlandscape",
        -10.053910230917015
      ],
      [
        "Ġcoming",
        -10.054240413577812
      ],
      [
        "Ġancient",
        -10.055257515687227
      ],
      [
        "Ġmining",
        -10.055306608588811
      ],
      [
        "Ġcovered",
        -10.055379119863016
      ],
      [
        "ĠLet",
        -10.055779668158936
      ],
      [
        "talking",
        -10.055930773205528
      ],
      [
        "ĠDepartment",
        -10.05616555876886
      ],
      [
        "Ġyield",
        -10.057113422011977
      ],
      [
        "According",
        -10.058776392850934
      ],
      [
        "Ġmorning",
        -10.059097055834576
      ],
      [
        "Ġprogress",
        -10.059348068881556
      ],
      [
        "Ġmanufactur",
        -10.05986355128024
      ],
      [
        "Ġlighting",
        -10.060601600096248
      ],
      [
        "ĠJust",
        -10.06093304127194
      ],
      [
        "men",
        -10.060936569569051
      ],
      [
        "Ġobservation",
        -10.061113948131606
      ],
      [
        "Ġinjur",
        -10.061677450642332
      ],
      [
        "Ġtoward",
        -10.06168276817814
      ],
      [
        "group",
        -10.063036642181656
      ],
      [
        "Ġrisks",
        -10.063369408461044
      ],
      [
        "Ġweb",
        -10.063880621397734
      ],
      [
        "Ġpush",
        -10.064054223621966
      ],
      [
        "Ġstarch",
        -10.06431957687717
      ],
      [
        "Ġpreference",
        -10.06444169497982
      ],
      [
        "Ġalgorithm",
        -10.065045479297556
      ],
      [
        "Ġalcohol",
        -10.065397835007484
      ],
      [
        "Ġmen",
        -10.066454185132326
      ],
      [
        "Ġnerve",
        -10.066671147238935
      ],
      [
        "Ġchicken",
        -10.067006195926592
      ],
      [
        "ĠCalifornia",
        -10.067383151713234
      ],
      [
        "/or",
        -10.0682243351557
      ],
      [
        "Ġinternational",
        -10.068806600516352
      ],
      [
        "current",
        -10.07133069088428
      ],
      [
        "Ġgeneration",
        -10.07168181495882
      ],
      [
        "ĠRochester",
        -10.073589888027769
      ],
      [
        "Ġdrugs",
        -10.075349075172449
      ],
      [
        "-year",
        -10.075869210702692
      ],
      [
        "Ġjournal",
        -10.076315262282858
      ],
      [
        "Ġeducational",
        -10.076607101403086
      ],
      [
        "efore",
        -10.076864450165685
      ],
      [
        "Ġconclusion",
        -10.07717096522102
      ],
      [
        "Do",
        -10.077756230899478
      ],
      [
        "Ġanxiet",
        -10.07806193152568
      ],
      [
        "ĠFirst",
        -10.078384788999694
      ],
      [
        "Ġdiscover",
        -10.078887089552447
      ],
      [
        "Ġevolve",
        -10.079109754794564
      ],
      [
        "Ġaudio",
        -10.07959613338672
      ],
      [
        "ritish",
        -10.079834549222152
      ],
      [
        "Ġsurvey",
        -10.079861262927457
      ],
      [
        "First",
        -10.080870181861142
      ],
      [
        "Ġgoals",
        -10.080976099149822
      ],
      [
        "standing",
        -10.081404553794624
      ],
      [
        "Ġnews",
        -10.082467787386491
      ],
      [
        "Ġdie",
        -10.082590873434846
      ],
      [
        "Ġsaying",
        -10.083885011193445
      ],
      [
        "people",
        -10.085109723498984
      ],
      [
        "Ġcomprehensive",
        -10.085149234994253
      ],
      [
        "Ġbreast",
        -10.085283978981517
      ],
      [
        "Ġexact",
        -10.087369392807869
      ],
      [
        "Ġtrade",
        -10.087387260936548
      ],
      [
        "Ġrock",
        -10.087505321321387
      ],
      [
        "ĠOver",
        -10.087517687837655
      ],
      [
        "Ġsteel",
        -10.08805836790887
      ],
      [
        "Ġcross",
        -10.088479157330578
      ],
      [
        "Ġsecure",
        -10.088555120510824
      ],
      [
        "Ġultimate",
        -10.088974001798494
      ],
      [
        "Ġmixture",
        -10.089872942688014
      ],
      [
        "Ġowners",
        -10.089986948163052
      ],
      [
        "Ġbillion",
        -10.091399496012675
      ],
      [
        "Ġglucos",
        -10.091493315330304
      ],
      [
        "Ġlisten",
        -10.091553584339218
      ],
      [
        "Ġbu",
        -10.093359686084431
      ],
      [
        "Ġkill",
        -10.09347589666604
      ],
      [
        "Ġcreation",
        -10.0943276959995
      ],
      [
        "form",
        -10.095180930276342
      ],
      [
        "ĠDay",
        -10.096404511372215
      ],
      [
        "Ġfill",
        -10.09700012412262
      ],
      [
        "Ġhazard",
        -10.098224951328724
      ],
      [
        "âĢ¦Ċ",
        -10.098723146297171
      ],
      [
        "Ġexhibit",
        -10.099296835295949
      ],
      [
        "Ġprocedure",
        -10.100239505426366
      ],
      [
        "Ġinteract",
        -10.10073931600262
      ],
      [
        "@",
        -10.101316754922845
      ],
      [
        "Ġsettings",
        -10.101906099185456
      ],
      [
        "Ġbutton",
        -10.103329121075545
      ],
      [
        "Ġdish",
        -10.104878854189767
      ],
      [
        "cid",
        -10.105062585229929
      ],
      [
        "wanted",
        -10.105929741532936
      ],
      [
        "oil",
        -10.105929914674329
      ],
      [
        "holes",
        -10.1068692712243
      ],
      [
        "Ġsurger",
        -10.108654820800965
      ],
      [
        "Ġfundamental",
        -10.109514822072471
      ],
      [
        "An",
        -10.109924979676062
      ],
      [
        "around",
        -10.110039314312637
      ],
      [
        "kept",
        -10.11222997305947
      ],
      [
        "producing",
        -10.11368986218388
      ],
      [
        "From",
        -10.114186564507463
      ],
      [
        "Ġgirl",
        -10.114473454258386
      ],
      [
        "ĠUsing",
        -10.114795653119046
      ],
      [
        "Ġparticipant",
        -10.115249532256936
      ],
      [
        "Ġwhose",
        -10.116752152162697
      ],
      [
        "Ġplane",
        -10.116917151122102
      ],
      [
        "Ġnote",
        -10.117323067349275
      ],
      [
        "ĠJohn",
        -10.120104348556708
      ],
      [
        "Ġsites",
        -10.120858695851842
      ],
      [
        "Ġgravit",
        -10.122214263301055
      ],
      [
        "Ġreliabl",
        -10.12343967274118
      ],
      [
        "Ġdecline",
        -10.123677241334374
      ],
      [
        "still",
        -10.123849210699795
      ],
      [
        "Ġrandom",
        -10.124531964858283
      ],
      [
        "Ġflat",
        -10.124829711882777
      ],
      [
        "Ġskill",
        -10.124895711694911
      ],
      [
        "ĠSea",
        -10.125866601536618
      ],
      [
        "Ġwindow",
        -10.126829049458951
      ],
      [
        "Ġbeaut",
        -10.127139064362218
      ],
      [
        "print",
        -10.127279237973513
      ],
      [
        "Ġcarefully",
        -10.12730459971865
      ],
      [
        "Ġapart",
        -10.127845265892166
      ],
      [
        "Ġabsorb",
        -10.129158184528016
      ],
      [
        "Al",
        -10.12935163467293
      ],
      [
        "Ġmeal",
        -10.1294389353075
      ],
      [
        "Ġinternet",
        -10.129880575343176
      ],
      [
        "Ġportion",
        -10.130081825993589
      ],
      [
        "Ġzero",
        -10.130202486342233
      ],
      [
        "Ġwrit",
        -10.130522750684213
      ],
      [
        "Ġthread",
        -10.130608224640998
      ],
      [
        "Ġthrow",
        -10.130827424885524
      ],
      [
        "Ġaware",
        -10.131604771046124
      ],
      [
        "Ġshell",
        -10.13182679868397
      ],
      [
        "Ġoffice",
        -10.131971492330887
      ],
      [
        "Ġindoor",
        -10.133423032866988
      ],
      [
        "Ġintelligence",
        -10.13359724182125
      ],
      [
        "ĠPark",
        -10.13425010225395
      ],
      [
        "ĠArt",
        -10.134615824064914
      ],
      [
        "Ġuniverse",
        -10.135212366881772
      ],
      [
        "Ġresource",
        -10.135445149762663
      ],
      [
        "Ġreduction",
        -10.135645744338223
      ],
      [
        "Ġcredit",
        -10.135829131439298
      ],
      [
        ".[",
        -10.135958011197085
      ],
      [
        "Ġformula",
        -10.136195974388215
      ],
      [
        "Ġbehaviour",
        -10.136435018172577
      ],
      [
        "Ġchang",
        -10.137397741041475
      ],
      [
        "Ġguideline",
        -10.138268331331592
      ],
      [
        "More",
        -10.138733396053532
      ],
      [
        "Ġfarm",
        -10.139051239975352
      ],
      [
        "Ġfailure",
        -10.139099084306398
      ],
      [
        "Ġprinciples",
        -10.139116251171554
      ],
      [
        "Ġmanual",
        -10.140304667268078
      ],
      [
        "ones",
        -10.140626370734932
      ],
      [
        "Ġorganisms",
        -10.1414088258516
      ],
      [
        "Ġdiamond",
        -10.142189814081444
      ],
      [
        "Ġforest",
        -10.142537679005798
      ],
      [
        "Ġrespect",
        -10.14279949558404
      ],
      [
        "Ġartificial",
        -10.144035877897515
      ],
      [
        "Ġpainting",
        -10.144801387706543
      ],
      [
        "Ġ{",
        -10.145514110166562
      ],
      [
        "Ġessay",
        -10.145559561768913
      ],
      [
        "Onc",
        -10.14573291466391
      ],
      [
        "Ġorigin",
        -10.146337065759925
      ],
      [
        "Ġjoin",
        -10.147157682472823
      ],
      [
        "Ġcareer",
        -10.147168496905028
      ],
      [
        "Ġtube",
        -10.147754736934491
      ],
      [
        "Ġtraffic",
        -10.147921910697908
      ],
      [
        "Ġpowder",
        -10.148037951748748
      ],
      [
        "ĠRiver",
        -10.14878111414873
      ],
      [
        "Ġrealize",
        -10.149071627634571
      ],
      [
        "Ġdiscusse",
        -10.149577260204744
      ],
      [
        "Ġmode",
        -10.149607180845871
      ],
      [
        "let",
        -10.1498091931059
      ],
      [
        "Ġvessel",
        -10.150158192397743
      ],
      [
        "Ġflower",
        -10.150294603620488
      ],
      [
        "Ġcomment",
        -10.151438416481277
      ],
      [
        "Ġcheese",
        -10.15166249562311
      ],
      [
        "Ġupper",
        -10.152049848362749
      ],
      [
        "held",
        -10.152720729155533
      ],
      [
        "Ġannual",
        -10.152936938989347
      ],
      [
        "Ġdefinite",
        -10.15375520514845
      ],
      [
        "back",
        -10.154380745090606
      ],
      [
        "Ġanalyze",
        -10.154896346972984
      ],
      [
        "Ġiron",
        -10.155493381794448
      ],
      [
        "Ġfloor",
        -10.155562877895726
      ],
      [
        "esting",
        -10.155892076084282
      ],
      [
        "my",
        -10.156219650448389
      ],
      [
        "Ġcapabilit",
        -10.156668717182882
      ],
      [
        "Ġprepare",
        -10.156967054191623
      ],
      [
        "Ġpeak",
        -10.157601767751416
      ],
      [
        "Ġstomach",
        -10.158459319803956
      ],
      [
        "ĠEast",
        -10.159111865691855
      ],
      [
        "Ġcatch",
        -10.159746412280237
      ],
      [
        "technology",
        -10.16082783622226
      ],
      [
        "Ġstream",
        -10.161386944484608
      ],
      [
        "ĠCity",
        -10.161901902005924
      ],
      [
        "Ġofficial",
        -10.163452924040175
      ],
      [
        "Ġincorporate",
        -10.164291319935478
      ],
      [
        "Ġmember",
        -10.164316737920874
      ],
      [
        "Ġmiss",
        -10.164633447422348
      ],
      [
        "Ġfeeding",
        -10.165909805584349
      ],
      [
        "Ġequation",
        -10.165933129228767
      ],
      [
        "test",
        -10.16670609281775
      ],
      [
        "Are",
        -10.166711620326677
      ],
      [
        "place",
        -10.166993729656255
      ],
      [
        "Ġexam",
        -10.168839791809669
      ],
      [
        "Ġplaying",
        -10.168900926166092
      ],
      [
        "Ġdescription",
        -10.169479702970682
      ],
      [
        "Ġinternal",
        -10.17036522709316
      ],
      [
        "ĠSince",
        -10.172024828021602
      ],
      [
        "Ġassessment",
        -10.17250679220792
      ],
      [
        "Ġeliminate",
        -10.172601633514288
      ],
      [
        "Ġamylase",
        -10.17321615091453
      ],
      [
        "Ġstretch",
        -10.173567446053232
      ],
      [
        "ĠWhy",
        -10.175660523320566
      ],
      [
        "these",
        -10.175801024502093
      ],
      [
        "Ġvisibl",
        -10.175826094933583
      ],
      [
        "article",
        -10.1761556859535
      ],
      [
        "Ġcable",
        -10.176702300052902
      ],
      [
        "Ġcreatures",
        -10.17689886020944
      ],
      [
        "Ġchronic",
        -10.177581648798858
      ],
      [
        "Ġpredator",
        -10.17761810603662
      ],
      [
        "Ġadvice",
        -10.178010546551576
      ],
      [
        "Ġstatus",
        -10.179058385184025
      ],
      [
        "-free",
        -10.17936153158494
      ],
      [
        "Ġoutdoor",
        -10.179462567584928
      ],
      [
        "Ġwildlife",
        -10.180221490835327
      ],
      [
        "Ġprimaril",
        -10.180327578307969
      ],
      [
        "Ġsend",
        -10.180620385182046
      ],
      [
        "Ġcollege",
        -10.181206453495095
      ],
      [
        "Ġbatteries",
        -10.182027698210732
      ],
      [
        "Ġcore",
        -10.182143027100285
      ],
      [
        "Ġbeneficial",
        -10.182403057047974
      ],
      [
        "size",
        -10.18290523207045
      ],
      [
        "Ġguy",
        -10.183172063906198
      ],
      [
        "Ġhelpful",
        -10.18342354940707
      ],
      [
        "Ġnaturally",
        -10.1846291960191
      ],
      [
        "ĠGreat",
        -10.18558110991678
      ],
      [
        "Ġcontinuous",
        -10.185736681671818
      ],
      [
        "ĠAls",
        -10.186036024980412
      ],
      [
        "Ġoptimal",
        -10.186099305617834
      ],
      [
        "Ġthick",
        -10.18665343142493
      ],
      [
        "Ġvarie",
        -10.18687064840476
      ],
      [
        "Ġinteraction",
        -10.18754977647737
      ],
      [
        "Ġdistinct",
        -10.188097783927528
      ],
      [
        "Ġscene",
        -10.191570446604214
      ],
      [
        "Novemb",
        -10.192048863937508
      ],
      [
        "ĠChina",
        -10.19268897956983
      ],
      [
        "Ġplann",
        -10.19345352495792
      ],
      [
        "Ġstrateg",
        -10.1948113417684
      ],
      [
        "Ġhospital",
        -10.194848751929584
      ],
      [
        "ĠUV",
        -10.195400161021036
      ],
      [
        "Ġstandards",
        -10.195516953726024
      ],
      [
        "Ġhydrogen",
        -10.195584602822464
      ],
      [
        "Ġclinical",
        -10.195608085114367
      ],
      [
        "city",
        -10.19591836220194
      ],
      [
        "Ġcomposition",
        -10.196050567674815
      ],
      [
        "many",
        -10.196548922278012
      ],
      [
        "Ġplent",
        -10.19656232295588
      ],
      [
        "Be",
        -10.19680522807156
      ],
      [
        "Ġstories",
        -10.197663038292951
      ],
      [
        "Ġcultural",
        -10.197838907405613
      ],
      [
        "Ġsymbol",
        -10.198499198798327
      ],
      [
        "Ġperspective",
        -10.199142015932877
      ],
      [
        "Ġdatabase",
        -10.1992221891301
      ],
      [
        "Ġlegal",
        -10.201155543438018
      ],
      [
        "Ġrestaurant",
        -10.202075772780578
      ],
      [
        "Ġstatement",
        -10.202616568419144
      ],
      [
        "ĠWell",
        -10.202945380905405
      ],
      [
        "Ġaspect",
        -10.203331161138763
      ],
      [
        "Ġemail",
        -10.20349513448802
      ],
      [
        "Ġchose",
        -10.203679254373238
      ],
      [
        "New",
        -10.203988033204656
      ],
      [
        "Ġdiagram",
        -10.204168327928487
      ],
      [
        "Ġpercentage",
        -10.204948776205178
      ],
      [
        "Ġhabit",
        -10.20557326442701
      ],
      [
        "Ġrelationships",
        -10.206240528569094
      ],
      [
        "Ġagriculture",
        -10.206441681205217
      ],
      [
        "Ġfault",
        -10.206923749614017
      ],
      [
        "diversity",
        -10.20692441559888
      ],
      [
        "Ġutilize",
        -10.207386948127237
      ],
      [
        "Ġcapabl",
        -10.20821610220095
      ],
      [
        "brough",
        -10.208258946054285
      ],
      [
        "Ġblend",
        -10.209529232695738
      ],
      [
        "Ġplate",
        -10.209952104046092
      ],
      [
        "Ġclasse",
        -10.210734287529744
      ],
      [
        "Ġinfant",
        -10.211070090899742
      ],
      [
        "ĠSystem",
        -10.211481577108891
      ],
      [
        "Ġchain",
        -10.211627227394755
      ],
      [
        "Ġregister",
        -10.212218871394136
      ],
      [
        "Ġradiation",
        -10.213431664244188
      ],
      [
        "Ġcoat",
        -10.213590594230698
      ],
      [
        "Ġboost",
        -10.213671722444795
      ],
      [
        "Ġblog",
        -10.213751916838095
      ],
      [
        "ĠIndian",
        -10.214012361909848
      ],
      [
        "Ġappeal",
        -10.214106090712258
      ],
      [
        "Ġquant",
        -10.21492682475108
      ],
      [
        "ically",
        -10.215863564047291
      ],
      [
        "Ġaudience",
        -10.216430710172627
      ],
      [
        "nternational",
        -10.217424703284712
      ],
      [
        "Ġowner",
        -10.21926896098637
      ],
      [
        "ĠCo",
        -10.21934154812568
      ],
      [
        "Ġchoos",
        -10.219356638929412
      ],
      [
        "ily",
        -10.22006147982459
      ],
      [
        "Ġfoundation",
        -10.221433030417112
      ],
      [
        "Ġprecise",
        -10.221635524076117
      ],
      [
        "Ġprior",
        -10.222203490727804
      ],
      [
        "ha",
        -10.222316114032376
      ],
      [
        "ĠRe",
        -10.222474319002504
      ],
      [
        "part",
        -10.222519119787217
      ],
      [
        "Ġamazing",
        -10.22264559988325
      ],
      [
        "Ġbottle",
        -10.222898006189178
      ],
      [
        "Ġpepper",
        -10.223443587275144
      ],
      [
        "Ġwh",
        -10.224361638971498
      ],
      [
        "Ġemotional",
        -10.22448386093245
      ],
      [
        "Ġhighlight",
        -10.225565462586427
      ],
      [
        "Ġdangerous",
        -10.225623888288164
      ],
      [
        "Ġconsequence",
        -10.22604028287693
      ],
      [
        "so",
        -10.2268971256699
      ],
      [
        "Ġcommunit",
        -10.227010762991622
      ],
      [
        "Ġillness",
        -10.227975548697488
      ],
      [
        "Ġjump",
        -10.228089208542553
      ],
      [
        "**",
        -10.228594798734832
      ],
      [
        "Ġprofile",
        -10.228806326058002
      ],
      [
        "-level",
        -10.228840720323603
      ],
      [
        "Ġint",
        -10.229052180934351
      ],
      [
        "Ġsports",
        -10.229737128793944
      ],
      [
        "Ġsuper",
        -10.230319133379371
      ],
      [
        "Ġengineering",
        -10.231221182271147
      ],
      [
        "Ġdisk",
        -10.232142428535631
      ],
      [
        "Ġfields",
        -10.232953988086424
      ],
      [
        "ĠPlant",
        -10.235929398765606
      ],
      [
        "Ġlaser",
        -10.236933641786727
      ],
      [
        "Ġsauce",
        -10.237226765641411
      ],
      [
        "Ġradio",
        -10.237558082805627
      ],
      [
        "ĠEvery",
        -10.238097763292489
      ],
      [
        "Ġprepared",
        -10.238604198178512
      ],
      [
        "Ġscore",
        -10.2391393231215
      ],
      [
        "Ġfail",
        -10.239169870945435
      ],
      [
        "Ġmeeting",
        -10.240123798214668
      ],
      [
        "ĠWorksheets",
        -10.24067163440317
      ],
      [
        "Ġintegrate",
        -10.24150526174953
      ],
      [
        "Ġinsurance",
        -10.24161532082334
      ],
      [
        "Ġcoffee",
        -10.241640290935598
      ],
      [
        "table",
        -10.241790022725365
      ],
      [
        "position",
        -10.242205498523065
      ],
      [
        "Ġestimated",
        -10.242572954880885
      ],
      [
        "Ġmelt",
        -10.242800189134014
      ],
      [
        "ĠBoth",
        -10.244158805216523
      ],
      [
        "Ġpool",
        -10.24504278373513
      ],
      [
        "Ġinstallation",
        -10.245718326781244
      ],
      [
        "Ġfix",
        -10.245796476336618
      ],
      [
        "\"The",
        -10.246113862141726
      ],
      [
        "Ġimprov",
        -10.246782674757856
      ],
      [
        "Ġworker",
        -10.24749785240252
      ],
      [
        "ĠHigh",
        -10.24753156488418
      ],
      [
        "Ġassume",
        -10.248465571790955
      ],
      [
        "Ġtru",
        -10.248856737852805
      ],
      [
        "ĠCanada",
        -10.248955833847807
      ],
      [
        "being",
        -10.24914720598982
      ],
      [
        "Ġassist",
        -10.249481718028584
      ],
      [
        "ory",
        -10.249643584846549
      ],
      [
        "Ġencounter",
        -10.250221656409732
      ],
      [
        "Ġcotton",
        -10.251441116185362
      ],
      [
        "Ġpropose",
        -10.252043983339226
      ],
      [
        "ĠAsia",
        -10.252217092716544
      ],
      [
        "Ġmammal",
        -10.25296995253778
      ],
      [
        "ions",
        -10.253362947970352
      ],
      [
        "Ġimprovement",
        -10.253604302093883
      ],
      [
        "Ġtrial",
        -10.253919680416075
      ],
      [
        "ying",
        -10.254120080101169
      ],
      [
        "Ġmaster",
        -10.254334855736792
      ],
      [
        "ĠColor",
        -10.2543819143807
      ],
      [
        "Ġneuron",
        -10.255933793464166
      ],
      [
        "Ġspecialize",
        -10.25626267773945
      ],
      [
        "Ġsurvival",
        -10.25630834535425
      ],
      [
        "Ġd",
        -10.256658431501886
      ],
      [
        "Ġlifestyle",
        -10.257094218270122
      ],
      [
        "Let",
        -10.25720416908436
      ],
      [
        "Ġbrake",
        -10.257360980590851
      ],
      [
        "example",
        -10.257480928859149
      ],
      [
        "My",
        -10.25829911176412
      ],
      [
        "Ġreache",
        -10.259138363799806
      ],
      [
        "Ġthorough",
        -10.260294716929977
      ],
      [
        "Ġconsideration",
        -10.260987137692034
      ],
      [
        "ium",
        -10.261204492243657
      ],
      [
        "Ġsmell",
        -10.26192024549322
      ],
      [
        "Ġround",
        -10.261994780612524
      ],
      [
        "Ġplanting",
        -10.26199968909264
      ],
      [
        "Ġsensitive",
        -10.262278992104331
      ],
      [
        "Ġmechanical",
        -10.26280496164598
      ],
      [
        "Ġleaving",
        -10.26322218167306
      ],
      [
        "plants",
        -10.26343486046089
      ],
      [
        "ĠFurther",
        -10.263531166485183
      ],
      [
        "Ġbrush",
        -10.264056712909015
      ],
      [
        "cycle",
        -10.264089811827615
      ],
      [
        "Â",
        -10.26416417702686
      ],
      [
        "number",
        -10.264428650349627
      ],
      [
        "tried",
        -10.26460277743395
      ],
      [
        "Ġprompt",
        -10.264823505429955
      ],
      [
        "Ġresolution",
        -10.265089347445484
      ],
      [
        "ĠDon",
        -10.265292390854524
      ],
      [
        "Ġminerals",
        -10.265668275679197
      ],
      [
        "Ġopinion",
        -10.265880034365164
      ],
      [
        "Ġice",
        -10.266156817627683
      ],
      [
        "Ġmo",
        -10.266782935479007
      ],
      [
        "Ġmolecule",
        -10.268090434135058
      ],
      [
        "Ġassess",
        -10.268290003866277
      ],
      [
        "Ġchalleng",
        -10.268424747270242
      ],
      [
        "Ġtrip",
        -10.26872342047084
      ],
      [
        "may",
        -10.268731695725036
      ],
      [
        "Ġfund",
        -10.269357619799765
      ],
      [
        "Ġaccident",
        -10.26937763512202
      ],
      [
        "Ġsector",
        -10.26964313795484
      ],
      [
        "Ġlose",
        -10.270492278333869
      ],
      [
        "Ġworry",
        -10.270635646122935
      ],
      [
        "Ġnice",
        -10.27130348399395
      ],
      [
        "ĠPeople",
        -10.271381337866238
      ],
      [
        "Ġconfirm",
        -10.271389469294382
      ],
      [
        "Ġestimate",
        -10.27281408596262
      ],
      [
        "Ġwoman",
        -10.272862181139695
      ],
      [
        "Ġfear",
        -10.273618895509928
      ],
      [
        "Ġexplanation",
        -10.27392563044333
      ],
      [
        "Ġpolitical",
        -10.273967314439927
      ],
      [
        "Ġmineral",
        -10.27397021644255
      ],
      [
        "Ġtitle",
        -10.274569725843152
      ],
      [
        "Ġbar",
        -10.27465495574312
      ],
      [
        "ĠKeep",
        -10.274731217176525
      ],
      [
        "Ġrelevant",
        -10.276104473990207
      ],
      [
        "Ġreferre",
        -10.276266400540148
      ],
      [
        "ĠDog",
        -10.276997765535205
      ],
      [
        "ĠFood",
        -10.277015124666136
      ],
      [
        "ĠCO",
        -10.277835782935853
      ],
      [
        "Ġemotion",
        -10.278249156067613
      ],
      [
        "ĠHis",
        -10.278628731180277
      ],
      [
        "Ġteach",
        -10.278916003335304
      ],
      [
        "Ġversatil",
        -10.279380783643486
      ],
      [
        "Ġstor",
        -10.27945782544165
      ],
      [
        "ou",
        -10.280037373305657
      ],
      [
        "Ġsmart",
        -10.28070477340587
      ],
      [
        "Ġreward",
        -10.28098062466103
      ],
      [
        "Ġsnail",
        -10.281149221710852
      ],
      [
        "Ġshowing",
        -10.281183960772523
      ],
      [
        "ated",
        -10.281850461354065
      ],
      [
        "Ġlens",
        -10.282144145044503
      ],
      [
        "Ġsuit",
        -10.28241734776655
      ],
      [
        "Ġclothes",
        -10.2826086543419
      ],
      [
        "Ġfirm",
        -10.2827043764673
      ],
      [
        "type",
        -10.283405217363477
      ],
      [
        "Ġchapter",
        -10.283509330249238
      ],
      [
        "Ġobjective",
        -10.284106456434492
      ],
      [
        "Ġobvious",
        -10.2841163090433
      ],
      [
        "Ġharvest",
        -10.284341647491647
      ],
      [
        "Ġbroken",
        -10.284796479006028
      ],
      [
        "Ġcompetition",
        -10.285201121379115
      ],
      [
        "Ġtechnical",
        -10.28576260054745
      ],
      [
        "Ġautomatic",
        -10.285806691451032
      ],
      [
        "ĠGuide",
        -10.285960724152185
      ],
      [
        "Ġfelt",
        -10.286044582822644
      ],
      [
        "Ġcalci",
        -10.286624177660954
      ],
      [
        "Ġkg",
        -10.287390555804926
      ],
      [
        "Ġshade",
        -10.287573057644884
      ],
      [
        "Ġsizes",
        -10.28766543823652
      ],
      [
        "`",
        -10.287761467086602
      ],
      [
        "orage",
        -10.288606921238811
      ],
      [
        "Ġperhap",
        -10.288894461865006
      ],
      [
        "Ġpredict",
        -10.289064353275856
      ],
      [
        "Ġsnow",
        -10.289141309785244
      ],
      [
        "Ġmanner",
        -10.29123722676026
      ],
      [
        "Ġrespond",
        -10.291509709923604
      ],
      [
        "ating",
        -10.291791398215018
      ],
      [
        "Ġgrass",
        -10.292900345779488
      ],
      [
        "live",
        -10.293601281839576
      ],
      [
        "Ġindustrial",
        -10.293748424059714
      ],
      [
        "Ġtight",
        -10.293923878946636
      ],
      [
        "Ġspray",
        -10.294587474921844
      ],
      [
        "iness",
        -10.2947058340669
      ],
      [
        "Ġoperat",
        -10.295974656534623
      ],
      [
        "Ġaren",
        -10.296182435070795
      ],
      [
        "tic",
        -10.297897769476137
      ],
      [
        "nstead",
        -10.298376457230033
      ],
      [
        "Over",
        -10.29856798225188
      ],
      [
        "air",
        -10.29926947796726
      ],
      [
        "Ġcomparison",
        -10.299305410377936
      ],
      [
        "Ġdownload",
        -10.29945818922774
      ],
      [
        "Ġkitchen",
        -10.300296293525356
      ],
      [
        "ĠIsland",
        -10.300975640648282
      ],
      [
        "Ġupdate",
        -10.300978424075169
      ],
      [
        "Ġexcess",
        -10.302427334631734
      ],
      [
        "J",
        -10.302885502495826
      ],
      [
        "chemical",
        -10.302946775297432
      ],
      [
        "Ġstem",
        -10.303200655480424
      ],
      [
        "Ġboundar",
        -10.303434108745432
      ],
      [
        "Ġones",
        -10.303435213385876
      ],
      [
        "Ġemploy",
        -10.303831632584686
      ],
      [
        "ecame",
        -10.30458661176024
      ],
      [
        "Ġfinish",
        -10.30488311820109
      ],
      [
        "ĠJune",
        -10.305250009721592
      ],
      [
        "Ġbecom",
        -10.306094353185124
      ],
      [
        "Ġprivate",
        -10.306391782285909
      ],
      [
        "Ġorgan",
        -10.306500399977288
      ],
      [
        "Ġprofessor",
        -10.307136996728827
      ],
      [
        "ĠLED",
        -10.30724200689014
      ],
      [
        "Ġleaf",
        -10.307548876272095
      ],
      [
        "Not",
        -10.30996833702322
      ],
      [
        "focused",
        -10.31095285506402
      ],
      [
        "Ġchair",
        -10.31201572901373
      ],
      [
        "Ġpack",
        -10.312472345081307
      ],
      [
        "Every",
        -10.3125140152339
      ],
      [
        "ĠOcto",
        -10.313601173501024
      ],
      [
        "ĠAustralia",
        -10.313627367268918
      ],
      [
        "ending",
        -10.313652343118497
      ],
      [
        "Ġinnovation",
        -10.314347425523405
      ],
      [
        "Ġprobabilit",
        -10.315008394677196
      ],
      [
        "Ġweigh",
        -10.315307331450512
      ],
      [
        "Ġincredibl",
        -10.315366722094726
      ],
      [
        "Ġchocolate",
        -10.315560387980366
      ],
      [
        "Conclusion",
        -10.31558930605245
      ],
      [
        "Ġshot",
        -10.316107100410573
      ],
      [
        "Ġsex",
        -10.316234475083885
      ],
      [
        "Ġspeak",
        -10.316566798504056
      ],
      [
        "Ġfurnace",
        -10.31785749726497
      ],
      [
        "ĠAbout",
        -10.318555149158149
      ],
      [
        "Ġdetaile",
        -10.319220343902296
      ],
      [
        "Ġstain",
        -10.319384685036075
      ],
      [
        "list",
        -10.31960992359114
      ],
      [
        "Ġabsolute",
        -10.319653123719426
      ],
      [
        "Ġreact",
        -10.319998561047546
      ],
      [
        "ĠJul",
        -10.320603408132472
      ],
      [
        "room",
        -10.320880881077676
      ],
      [
        "Ġthi",
        -10.321722615417023
      ],
      [
        "Ġopening",
        -10.32291922300805
      ],
      [
        "Ġsalivary",
        -10.32318801036932
      ],
      [
        "Ġsolve",
        -10.324494477427066
      ],
      [
        "Ġawareness",
        -10.324551392445056
      ],
      [
        "Ġpregnanc",
        -10.324714541182292
      ],
      [
        "Ġbloom",
        -10.324757038459698
      ],
      [
        "Ġprove",
        -10.325282253523106
      ],
      [
        "Ġisland",
        -10.325505776413875
      ],
      [
        "Ġmobile",
        -10.325523334925723
      ],
      [
        "Ġmilitar",
        -10.32686544868156
      ],
      [
        "Ġuniversit",
        -10.327048678093702
      ],
      [
        "Ġmixe",
        -10.329199077908168
      ],
      [
        "Ġcompost",
        -10.329655833893304
      ],
      [
        "Ġbabies",
        -10.329685305293632
      ],
      [
        "ĠWest",
        -10.330209028649346
      ],
      [
        "Ġpure",
        -10.330459656478707
      ],
      [
        "Ġdirector",
        -10.330975664896863
      ],
      [
        "Ġexternal",
        -10.3317156399577
      ],
      [
        "Ġlinked",
        -10.33210361905866
      ],
      [
        "Ġreplacement",
        -10.33210743444944
      ],
      [
        "Ġaccurac",
        -10.332489251723388
      ],
      [
        "source",
        -10.332628699450511
      ],
      [
        "-time",
        -10.333145371675004
      ],
      [
        "Ġcooked",
        -10.33367818560844
      ],
      [
        "ĠJanu",
        -10.333947720442517
      ],
      [
        "Ġfille",
        -10.335476373051169
      ],
      [
        "protected",
        -10.335778897476604
      ],
      [
        "Ġgift",
        -10.335942051253316
      ],
      [
        "Ġconversation",
        -10.33605820082706
      ],
      [
        "Ġsatellite",
        -10.337106389868328
      ],
      [
        "id",
        -10.337271893265026
      ],
      [
        "Ġfoster",
        -10.337360064837704
      ],
      [
        "Ġstar",
        -10.337954031008652
      ],
      [
        "Ġinvestment",
        -10.337962124019016
      ],
      [
        "Ġvelocit",
        -10.33828176293996
      ],
      [
        "ty",
        -10.33856858200523
      ],
      [
        "Ġloop",
        -10.339009125029603
      ],
      [
        "Ġacademic",
        -10.339105607490684
      ],
      [
        "Ġcream",
        -10.339970680632655
      ],
      [
        "Ġtail",
        -10.341396784959006
      ],
      [
        "ĠOcean",
        -10.34282538893796
      ],
      [
        "Ġprinciple",
        -10.343610896139804
      ],
      [
        "ur",
        -10.344182879435888
      ],
      [
        "lies",
        -10.344374438392895
      ],
      [
        "Ġurban",
        -10.3447109018001
      ],
      [
        "Ġdeposit",
        -10.344867153381522
      ],
      [
        "Ġeconom",
        -10.344871591847332
      ],
      [
        "first",
        -10.344966670771443
      ],
      [
        "Ġmold",
        -10.345804785895831
      ],
      [
        "Ġsport",
        -10.345995811809985
      ],
      [
        "Ġattract",
        -10.346190284618826
      ],
      [
        "ĠCollege",
        -10.346721445171632
      ],
      [
        "-in",
        -10.346951405879665
      ],
      [
        "Ġresponsibilit",
        -10.347366478434605
      ],
      [
        "Ġlaws",
        -10.347476756386229
      ],
      [
        "Ġvacuum",
        -10.348092180353776
      ],
      [
        "Ġde",
        -10.348244551605935
      ],
      [
        "Ġprinter",
        -10.349462078260231
      ],
      [
        "Ġroll",
        -10.3499580640323
      ],
      [
        "Ġsecret",
        -10.351209240503884
      ],
      [
        "Ġhistorical",
        -10.351435770809925
      ],
      [
        "Ġbike",
        -10.352155713486056
      ],
      [
        "Ġestablishe",
        -10.353967577752409
      ],
      [
        "Ġregulate",
        -10.354419699230196
      ],
      [
        "Ġcarried",
        -10.3547140182233
      ],
      [
        "working",
        -10.355252284632783
      ],
      [
        "ĠRed",
        -10.355300183741726
      ],
      [
        "Ġappears",
        -10.355782320358207
      ],
      [
        "Ġroof",
        -10.355899636508695
      ],
      [
        "ism",
        -10.356329178891947
      ],
      [
        "Ġvast",
        -10.356640287667986
      ],
      [
        "Ġstone",
        -10.356930463810713
      ],
      [
        "Ġworkshop",
        -10.357967723861307
      ],
      [
        "Ġremov",
        -10.358054033139164
      ],
      [
        "Ġsurprise",
        -10.359481093955196
      ],
      [
        "Ġsufficient",
        -10.35984869395822
      ],
      [
        "Ġmolecular",
        -10.360766427158346
      ],
      [
        "Ġsell",
        -10.361535594142142
      ],
      [
        "Ġconflict",
        -10.361902142216412
      ],
      [
        "Ġpress",
        -10.362375770041634
      ],
      [
        "Ġscenario",
        -10.36296773548095
      ],
      [
        "Ġsouth",
        -10.36313437234167
      ],
      [
        "Ġdefinition",
        -10.364335733712135
      ],
      [
        "installed",
        -10.36528297789546
      ],
      [
        "Ġdiameter",
        -10.365433614951598
      ],
      [
        "Ġinteractions",
        -10.365940257528475
      ],
      [
        "per",
        -10.366122668631748
      ],
      [
        "Ġsunlight",
        -10.366301588678883
      ],
      [
        "Ġconduct",
        -10.36692810199724
      ],
      [
        "Ġfunctional",
        -10.36832490680428
      ],
      [
        "ĠWorksheet",
        -10.36895824761096
      ],
      [
        "Ġclan",
        -10.370200758774285
      ],
      [
        "ĠâĢ¦",
        -10.370297476899916
      ],
      [
        "Ġdecided",
        -10.370327195233104
      ],
      [
        "Ġcovers",
        -10.371447608441994
      ],
      [
        "Ġfiles",
        -10.371611374406946
      ],
      [
        "Ġdirt",
        -10.372163117566842
      ],
      [
        "Ġbed",
        -10.3721974931987
      ],
      [
        "Ġmill",
        -10.37243222355226
      ],
      [
        "Where",
        -10.372547207827637
      ],
      [
        "cities",
        -10.37259718060194
      ],
      [
        "Since",
        -10.372989116456036
      ],
      [
        "Using",
        -10.373236350086447
      ],
      [
        "llowing",
        -10.373556081621452
      ],
      [
        "Ġbigger",
        -10.37384144472987
      ],
      [
        "Ġsheet",
        -10.374074392701845
      ],
      [
        "Ġseven",
        -10.374524312038888
      ],
      [
        "came",
        -10.375101087259557
      ],
      [
        "wood",
        -10.375685505799884
      ],
      [
        "includ",
        -10.376460691561512
      ],
      [
        "Ġprogramme",
        -10.377863294663934
      ],
      [
        "ages",
        -10.378333726567588
      ],
      [
        "ĠGeneral",
        -10.378468121143769
      ],
      [
        "Ġdecide",
        -10.378539612466462
      ],
      [
        "Ġconstruct",
        -10.378631643890609
      ],
      [
        "ĠLight",
        -10.379309358484573
      ],
      [
        "ĠWhere",
        -10.379380526542551
      ],
      [
        "Ġtrait",
        -10.380119379479485
      ],
      [
        "power",
        -10.380653789016122
      ],
      [
        "Ġcommunicate",
        -10.380709782304104
      ],
      [
        "Ġbug",
        -10.38097360462002
      ],
      [
        "Ġperforme",
        -10.381242218215322
      ],
      [
        "Ġchoices",
        -10.381759573146184
      ],
      [
        "Ġquantit",
        -10.38198747398733
      ],
      [
        "].",
        -10.382214977900611
      ],
      [
        "active",
        -10.382293616887385
      ],
      [
        "Ġpreparation",
        -10.383443999466117
      ],
      [
        "discovery",
        -10.383723220474856
      ],
      [
        "Ġboil",
        -10.384328038950688
      ],
      [
        "Ġstability",
        -10.384403655111615
      ],
      [
        "Ġclans",
        -10.384815767742246
      ],
      [
        "Does",
        -10.384876821960134
      ],
      [
        "Ġdebri",
        -10.385378921913633
      ],
      [
        "ĠLife",
        -10.386369686003412
      ],
      [
        "Ġdetermin",
        -10.386626375102557
      ],
      [
        "ĠSociety",
        -10.38729499150485
      ],
      [
        "Ġsaving",
        -10.387310816426444
      ],
      [
        "Ġrelax",
        -10.387662188579547
      ],
      [
        "Ġdental",
        -10.387909495775157
      ],
      [
        "Ġbiolog",
        -10.388198966415436
      ],
      [
        "Ġbowl",
        -10.3882650710179
      ],
      [
        "Ġtooth",
        -10.38836355711803
      ],
      [
        "Ġwish",
        -10.388606383705827
      ],
      [
        "Ġriver",
        -10.388671170576227
      ],
      [
        "ch",
        -10.388795645635604
      ],
      [
        "Ġagent",
        -10.38921223078965
      ],
      [
        "ĠMa",
        -10.38943617428096
      ],
      [
        "Ġtrend",
        -10.389779814839416
      ],
      [
        "Ġassistant",
        -10.390933196867792
      ],
      [
        "Ġinvention",
        -10.39155444528178
      ],
      [
        "Ġexcessive",
        -10.392008612200918
      ],
      [
        "ble",
        -10.392362660777623
      ],
      [
        "ish",
        -10.392492748392614
      ],
      [
        "Ġhousehold",
        -10.392551772176772
      ],
      [
        "lates",
        -10.393925019642769
      ],
      [
        "Ġconducted",
        -10.394024863058368
      ],
      [
        "ĠWhe",
        -10.394229345039864
      ],
      [
        "Ġplays",
        -10.394804092070077
      ],
      [
        "ĠCount",
        -10.394892244212564
      ],
      [
        "action",
        -10.394973939430558
      ],
      [
        "Ġcrystal",
        -10.39499508839274
      ],
      [
        "go",
        -10.395495663405118
      ],
      [
        "Ġrelation",
        -10.395609464009407
      ],
      [
        "Ġvariable",
        -10.395646049292736
      ],
      [
        "Ġextensive",
        -10.396103243032004
      ],
      [
        "heat",
        -10.396128321606852
      ],
      [
        "Ġaske",
        -10.39694228062445
      ],
      [
        "Ġborder",
        -10.397040552007828
      ],
      [
        "ĠCommon",
        -10.397240871602676
      ],
      [
        "Ġprogramm",
        -10.39764821630348
      ],
      [
        "Ġroute",
        -10.3996037398784
      ],
      [
        "ul",
        -10.399868358524849
      ],
      [
        "Ġdedicate",
        -10.400339982601086
      ],
      [
        "ĠTh",
        -10.400757137935631
      ],
      [
        "range",
        -10.40108774964401
      ],
      [
        "Ġstrain",
        -10.40155727667892
      ],
      [
        "Ġfarmers",
        -10.402903466814386
      ],
      [
        "Ġshoulder",
        -10.403369636956686
      ],
      [
        "Ġpermanent",
        -10.403504966726564
      ],
      [
        "Get",
        -10.403894400249769
      ],
      [
        "|Ċ",
        -10.404353856609744
      ],
      [
        "unti",
        -10.40441652211902
      ],
      [
        "Ġattend",
        -10.40460302390779
      ],
      [
        "ĠProgram",
        -10.405338297649743
      ],
      [
        "Ġrough",
        -10.405348029129502
      ],
      [
        "Ġcalm",
        -10.405757488557844
      ],
      [
        "ĠEngland",
        -10.406017659170743
      ],
      [
        "ĠEnergy",
        -10.406209421667798
      ],
      [
        "actions",
        -10.406998739260407
      ],
      [
        "Ġscratch",
        -10.407687608003616
      ],
      [
        "Ġemployees",
        -10.40795385647048
      ],
      [
        "Ġsudden",
        -10.409250566344811
      ],
      [
        "Ġtomato",
        -10.409258134224697
      ],
      [
        "Ġdimension",
        -10.40972691676565
      ],
      [
        "Ġopposite",
        -10.409732815685915
      ],
      [
        "supported",
        -10.409960139384475
      ],
      [
        "Ġdiagnose",
        -10.410161478148527
      ],
      [
        "Ġsharp",
        -10.410492822157416
      ],
      [
        "ĠSun",
        -10.410828993775766
      ],
      [
        "Ġparticipate",
        -10.41107575354204
      ],
      [
        "then",
        -10.41115922986966
      ],
      [
        "him",
        -10.411507081055916
      ],
      [
        "top",
        -10.411586197954136
      ],
      [
        "ĠHome",
        -10.412491420106576
      ],
      [
        "Ġinflammation",
        -10.41250646885512
      ],
      [
        "Ġnutrition",
        -10.412754799385532
      ],
      [
        "Ġtradition",
        -10.412804023222822
      ],
      [
        "un",
        -10.412940041656428
      ],
      [
        "Ġgreenhouse",
        -10.413083783111194
      ],
      [
        "ball",
        -10.413560581855588
      ],
      [
        "ĠHuman",
        -10.413938479619503
      ],
      [
        "Ġrespective",
        -10.414177999226728
      ],
      [
        "Ġsold",
        -10.414355942775774
      ],
      [
        "Ġshapes",
        -10.414720151110556
      ],
      [
        "Ġpets",
        -10.415615625565003
      ],
      [
        "ĠAugust",
        -10.417681481677487
      ],
      [
        "Understand",
        -10.417877637509882
      ],
      [
        "-friendl",
        -10.418757918282992
      ],
      [
        "ware",
        -10.419122819482563
      ],
      [
        "Ġloose",
        -10.419168723813607
      ],
      [
        "Ġapproache",
        -10.419683379968054
      ],
      [
        "ĠSt",
        -10.42020381938442
      ],
      [
        "Ġrain",
        -10.420768378730944
      ],
      [
        "Ġdelay",
        -10.42183179827281
      ],
      [
        "Ġengineer",
        -10.422563496072154
      ],
      [
        "ground",
        -10.42275961211412
      ],
      [
        "Ġclock",
        -10.422813277055754
      ],
      [
        "Ġgear",
        -10.42300902614634
      ],
      [
        "Ġstudied",
        -10.423087488591204
      ],
      [
        "Ġdelicious",
        -10.423675171911398
      ],
      [
        "Ġspectrum",
        -10.423702518741624
      ],
      [
        "Ġtransform",
        -10.42382379230174
      ],
      [
        "ear",
        -10.42382687804724
      ],
      [
        "Ġleak",
        -10.424556494424936
      ],
      [
        "Ġintake",
        -10.42511337403418
      ],
      [
        "Ġfollowe",
        -10.425208140655124
      ],
      [
        "Ġherb",
        -10.425702340500376
      ],
      [
        "force",
        -10.426538123463152
      ],
      [
        "Ġnames",
        -10.426555220846948
      ],
      [
        "ĠGoogle",
        -10.427372450577684
      ],
      [
        "Ġbudget",
        -10.428097782314763
      ],
      [
        "buying",
        -10.428351305700762
      ],
      [
        "Ġcoast",
        -10.428974680171908
      ],
      [
        "Ġmath",
        -10.429212283139762
      ],
      [
        "Ġminimize",
        -10.429358990330453
      ],
      [
        "ĠUp",
        -10.429371942302849
      ],
      [
        "ĠDe",
        -10.42944983526781
      ],
      [
        "Ġinnovative",
        -10.429531719808224
      ],
      [
        "Ġcorresponding",
        -10.429804383343733
      ],
      [
        "Ġderive",
        -10.42994557589933
      ],
      [
        "ĠCouncil",
        -10.43012607628271
      ],
      [
        "Ġpartner",
        -10.430461128629036
      ],
      [
        "Ġatoms",
        -10.43192412490827
      ],
      [
        "Ġcircle",
        -10.43220513430848
      ],
      [
        "Ġcalorie",
        -10.432794771164986
      ],
      [
        "Ġseparation",
        -10.432806478535372
      ],
      [
        "ĠLake",
        -10.432912622620414
      ],
      [
        "Ġconcret",
        -10.433376704456055
      ],
      [
        "ge",
        -10.433547255185962
      ],
      [
        "closed",
        -10.433851436599603
      ],
      [
        "Ġcarbohydrate",
        -10.434578799402788
      ],
      [
        "ĠFrench",
        -10.43472032243437
      ],
      [
        "Ġconfidence",
        -10.435940898004311
      ],
      [
        "ma",
        -10.436699106532831
      ],
      [
        "Ġinfrastructure",
        -10.437146009656663
      ],
      [
        "}",
        -10.43724177617327
      ],
      [
        "Ġcrack",
        -10.437657233995898
      ],
      [
        "Ġexciting",
        -10.43802720776927
      ],
      [
        "Ġnorthern",
        -10.438175618353192
      ],
      [
        "Ġconsult",
        -10.438968574724088
      ],
      [
        "âĢľ",
        -10.439103098832774
      ],
      [
        "Ġintroduction",
        -10.43960178866212
      ],
      [
        "uses",
        -10.439816697812056
      ],
      [
        "create",
        -10.440101213774875
      ],
      [
        "rich",
        -10.440476077801051
      ],
      [
        "Just",
        -10.440552977110716
      ],
      [
        "Ġshop",
        -10.441005951308687
      ],
      [
        "ĠPh",
        -10.441097800129825
      ],
      [
        "Ġcloud",
        -10.441127924994651
      ],
      [
        "late",
        -10.441153824699589
      ],
      [
        ";Ċ",
        -10.443447271226928
      ],
      [
        "ĠDur",
        -10.443472452895808
      ],
      [
        "Ġgradual",
        -10.44365901795381
      ],
      [
        "itting",
        -10.443769042569867
      ],
      [
        "Ġnitrogen",
        -10.444132392020194
      ],
      [
        "Ġtransmission",
        -10.444277281689272
      ],
      [
        "ĠClass",
        -10.444302260716976
      ],
      [
        "Ġnovel",
        -10.444692031542292
      ],
      [
        "Ġphotos",
        -10.444730025929934
      ],
      [
        "Ġformat",
        -10.444926731618173
      ],
      [
        "cycles",
        -10.445018336968086
      ],
      [
        "help",
        -10.445246361661455
      ],
      [
        "Ġhi",
        -10.44559197284427
      ],
      [
        "Even",
        -10.44699129162978
      ],
      [
        "round",
        -10.447251459924756
      ],
      [
        "Ġparallel",
        -10.447469860802276
      ],
      [
        "Ġnorth",
        -10.447607203115918
      ],
      [
        "Ġabuse",
        -10.448642095196366
      ],
      [
        "mm",
        -10.448976104833903
      ],
      [
        "full",
        -10.450494733340436
      ],
      [
        "ĠDesign",
        -10.451180164834554
      ],
      [
        "Ġmarketing",
        -10.45139973559672
      ],
      [
        "case",
        -10.451621779126691
      ],
      [
        "Ġnurse",
        -10.45185824353052
      ],
      [
        "Ġbelief",
        -10.452299112136435
      ],
      [
        "Ġhole",
        -10.45270975667708
      ],
      [
        "Ġemerge",
        -10.453254493749291
      ],
      [
        "Ġdrain",
        -10.454168629817731
      ],
      [
        "Ġattribute",
        -10.455101125377588
      ],
      [
        "Ġbutter",
        -10.455315768360215
      ],
      [
        "Ġrace",
        -10.455549310396432
      ],
      [
        "Ġattache",
        -10.45575480572654
      ],
      [
        "ĠGo",
        -10.455909844997914
      ],
      [
        "Ġmutation",
        -10.455912921188888
      ],
      [
        "Ġprovider",
        -10.457003719079207
      ],
      [
        "often",
        -10.457527058479524
      ],
      [
        "Ġcontrolle",
        -10.457831919134115
      ],
      [
        "Ġcoral",
        -10.457893685567992
      ],
      [
        "Ġmicro",
        -10.45849837848127
      ],
      [
        "Ġcloser",
        -10.458693972932204
      ],
      [
        "ĠHistor",
        -10.45873317569994
      ],
      [
        "ĠThus",
        -10.45880082804121
      ],
      [
        "(x",
        -10.458852785114887
      ],
      [
        "He",
        -10.459129851822908
      ],
      [
        "ĠPower",
        -10.459799521147758
      ],
      [
        "specific",
        -10.460810884255782
      ],
      [
        "Ġflood",
        -10.460973275746392
      ],
      [
        "Ġinspire",
        -10.46177923880416
      ],
      [
        "Ġleader",
        -10.462034819717749
      ],
      [
        "Ġexchange",
        -10.462489000214482
      ],
      [
        "find",
        -10.462633248312931
      ],
      [
        "found",
        -10.463067455237136
      ],
      [
        "ĠDoes",
        -10.463226869963195
      ],
      [
        "physical",
        -10.46483933752285
      ],
      [
        "ĠIts",
        -10.46534577721982
      ],
      [
        "acific",
        -10.4655928355301
      ],
      [
        "Ġweak",
        -10.467595607094996
      ],
      [
        "Ġevaluate",
        -10.468396465508832
      ],
      [
        "Ġwashing",
        -10.468483216234482
      ],
      [
        "-being",
        -10.468515221314442
      ],
      [
        "Ġinner",
        -10.468548789860304
      ],
      [
        "Ġfamiliar",
        -10.468993718917677
      ],
      [
        "Ġcareful",
        -10.4697018137036
      ],
      [
        "Ġvalve",
        -10.469853411155276
      ],
      [
        "ĠHighland",
        -10.470284705775164
      ],
      [
        "?\"",
        -10.470798121677408
      ],
      [
        "Ġimagine",
        -10.47080969445004
      ],
      [
        "Ġturns",
        -10.47118863141057
      ],
      [
        "Ġblade",
        -10.471852328065292
      ],
      [
        "Ġconcepts",
        -10.471964908180478
      ],
      [
        "Ġsubstance",
        -10.472070003083978
      ],
      [
        "Ġcopper",
        -10.47291922734085
      ],
      [
        "loss",
        -10.474357110661176
      ],
      [
        "Ġeight",
        -10.47454253240033
      ],
      [
        "meters",
        -10.474767331538237
      ],
      [
        "Ġarrangement",
        -10.47525192262092
      ],
      [
        "Ġcarrier",
        -10.475267773064587
      ],
      [
        "Ġrates",
        -10.475510698561832
      ],
      [
        "ought",
        -10.475700639755422
      ],
      [
        "Ġpackage",
        -10.476204161500323
      ],
      [
        "Ġcurve",
        -10.476845004573963
      ],
      [
        "Ġimpossibl",
        -10.476847764834025
      ],
      [
        "Other",
        -10.477616107435573
      ],
      [
        "Ġexpress",
        -10.477919379320294
      ],
      [
        "Ġassembl",
        -10.47889156400431
      ],
      [
        "Ġinter",
        -10.478945759253223
      ],
      [
        "Ġsignificance",
        -10.479087785759798
      ],
      [
        "Keep",
        -10.479132711223416
      ],
      [
        "Ġworse",
        -10.479174241777748
      ],
      [
        "Ġprocedures",
        -10.479296458833543
      ],
      [
        "Ġcampaign",
        -10.479949578377092
      ],
      [
        "Ġirrigation",
        -10.480416729837518
      ],
      [
        "ĠWhite",
        -10.48061210943827
      ],
      [
        "Ġfather",
        -10.480856863175449
      ],
      [
        "Ġsteam",
        -10.48147795039436
      ],
      [
        "Ġappreciate",
        -10.481585671699968
      ],
      [
        "Ġcognitive",
        -10.48180502443612
      ],
      [
        "Ġarrive",
        -10.48183230877486
      ],
      [
        "ling",
        -10.481920752448882
      ],
      [
        "Ġneck",
        -10.481992982166703
      ],
      [
        "ĠTHE",
        -10.482362224220427
      ],
      [
        "based",
        -10.482473015636328
      ],
      [
        "ĠGet",
        -10.482801576155913
      ],
      [
        "Ġmoon",
        -10.482914135118897
      ],
      [
        "ca",
        -10.483284968158868
      ],
      [
        "£",
        -10.48343089364173
      ],
      [
        "spread",
        -10.483635399117532
      ],
      [
        "Ġtumor",
        -10.483750493002129
      ],
      [
        "Ġouter",
        -10.483939164373393
      ],
      [
        "lbs",
        -10.484118740863066
      ],
      [
        "âĪĴ",
        -10.484332607781075
      ],
      [
        "Ġvertical",
        -10.484416940943468
      ],
      [
        "Ġfurniture",
        -10.484675298778033
      ],
      [
        "Ġmention",
        -10.485003664925928
      ],
      [
        "Ġsuffer",
        -10.485870069971824
      ],
      [
        "Ġtoxic",
        -10.486359170473053
      ],
      [
        "Ġvariables",
        -10.486979280554404
      ],
      [
        "Ġtrace",
        -10.487264752644863
      ],
      [
        "Ġmassive",
        -10.488898976079884
      ],
      [
        "ebru",
        -10.489106873462337
      ],
      [
        "Ġargument",
        -10.489225769853569
      ],
      [
        "Ġmovie",
        -10.489439310575944
      ],
      [
        "Ġchief",
        -10.4901773171525
      ],
      [
        "Ġantioxidant",
        -10.49021001096401
      ],
      [
        "Ġjuice",
        -10.491672048245729
      ],
      [
        "Ġtrust",
        -10.49223630450756
      ],
      [
        "spring",
        -10.492332324670976
      ],
      [
        "Ġcollaboration",
        -10.492338631570572
      ],
      [
        "Ġfertilizer",
        -10.493635992197692
      ],
      [
        "Ġthin",
        -10.493875605188563
      ],
      [
        "Ġintensit",
        -10.494444497669518
      ],
      [
        "ĠGreen",
        -10.494642790888667
      ],
      [
        "Ġthermal",
        -10.494828275845762
      ],
      [
        "Ġhit",
        -10.496408673831628
      ],
      [
        "Ġhormone",
        -10.496584506802064
      ],
      [
        "Ġfamous",
        -10.497133019884949
      ],
      [
        "years",
        -10.497273950204905
      ],
      [
        "Ġbiggest",
        -10.498085279239284
      ],
      [
        "Ġinterface",
        -10.498302304507742
      ],
      [
        "Ġpreserve",
        -10.498700203802574
      ],
      [
        "Ġbreath",
        -10.499066138731468
      ],
      [
        "ĠToday",
        -10.49939701437152
      ],
      [
        "Ġbill",
        -10.5002060643186
      ],
      [
        "Ġhappening",
        -10.50101464196288
      ],
      [
        "ĠCheck",
        -10.50164372639561
      ],
      [
        "Ġliver",
        -10.501962338093858
      ],
      [
        "Ġexplor",
        -10.501981670480616
      ],
      [
        "Ġmembrane",
        -10.50222936865681
      ],
      [
        "ĠTechnology",
        -10.503657032109617
      ],
      [
        "Ġphysic",
        -10.503978955174404
      ],
      [
        "amylase",
        -10.503991007441398
      ],
      [
        "Ġcelebrate",
        -10.505134577415866
      ],
      [
        "Ġstroke",
        -10.505274149534888
      ],
      [
        "vity",
        -10.505778795380229
      ],
      [
        "Ġorganize",
        -10.50653252468965
      ],
      [
        "Ġbranch",
        -10.50683355255504
      ],
      [
        "ĠMedicine",
        -10.506872084779936
      ],
      [
        "Ġrecommendation",
        -10.50725566967263
      ],
      [
        "Ġluck",
        -10.507369885686543
      ],
      [
        "Ġscrew",
        -10.507524019340336
      ],
      [
        "Ġfair",
        -10.507649140668413
      ],
      [
        "Ġguess",
        -10.508854299327146
      ],
      [
        "Ġtruck",
        -10.509252569761795
      ],
      [
        "Ġworksheet",
        -10.509337685012916
      ],
      [
        "Ġdamaged",
        -10.509516913056478
      ],
      [
        "Ġcrusher",
        -10.511462992300098
      ],
      [
        "Ġcoal",
        -10.5121746166942
      ],
      [
        "Ġvariet",
        -10.512665003831849
      ],
      [
        "night",
        -10.512888519167063
      ],
      [
        "Ġ+",
        -10.51323091635446
      ],
      [
        "Ġdiagnosi",
        -10.513625877638036
      ],
      [
        "Ġexcept",
        -10.513921270316528
      ],
      [
        "Ġlaborator",
        -10.5143467548592
      ],
      [
        "ĠLike",
        -10.514652667213074
      ],
      [
        "Ġborn",
        -10.51487611197784
      ],
      [
        "Ġnewborn",
        -10.515167262266203
      ],
      [
        "Ġaesthetic",
        -10.516002565121813
      ],
      [
        "Ġtrail",
        -10.516605021836916
      ],
      [
        "-day",
        -10.517701151872398
      ],
      [
        "Ġsouthern",
        -10.517763860259349
      ],
      [
        "ĠBorder",
        -10.517932409871804
      ],
      [
        "ĠAnimal",
        -10.518877457896396
      ],
      [
        "Ġproductivity",
        -10.519535409630484
      ],
      [
        "Ġparticle",
        -10.52039666976738
      ],
      [
        "cellular",
        -10.52068679422749
      ],
      [
        "Ġgrant",
        -10.52105807867184
      ],
      [
        "Ġflea",
        -10.521144910508864
      ],
      [
        "been",
        -10.5211518152875
      ],
      [
        "Ġwhale",
        -10.521222463779132
      ],
      [
        "Ġrenewable",
        -10.521349127385603
      ],
      [
        "Ġlicense",
        -10.522197020708454
      ],
      [
        "ĠHave",
        -10.522454157968912
      ],
      [
        "About",
        -10.52248741201832
      ],
      [
        "Ġorange",
        -10.522522275466288
      ],
      [
        "Ġshar",
        -10.522573176115117
      ],
      [
        "Ġmirror",
        -10.522702106337242
      ],
      [
        "ĠWindow",
        -10.523539014432316
      ],
      [
        "ĠMuseum",
        -10.523885156170447
      ],
      [
        "ĠTwo",
        -10.523910983149092
      ],
      [
        "Ġisn",
        -10.52456672477186
      ],
      [
        "Ġprices",
        -10.524872711329843
      ],
      [
        "Ġpuzzle",
        -10.525500025850716
      ],
      [
        "Ġpictures",
        -10.52638007552896
      ],
      [
        "Ġearthquake",
        -10.526486122793692
      ],
      [
        "Ġchart",
        -10.527184378804485
      ],
      [
        "\".",
        -10.5273710588653
      ],
      [
        "Ġtwic",
        -10.527704841921132
      ],
      [
        "Ġgap",
        -10.527855354767826
      ],
      [
        "Ġcontribution",
        -10.528273526352583
      ],
      [
        "Ġfascinating",
        -10.52909743387215
      ],
      [
        "Ġunknown",
        -10.529444029878986
      ],
      [
        "Ġequivalent",
        -10.530243924340636
      ],
      [
        "ĠAssociation",
        -10.530256622541645
      ],
      [
        "Ġcoating",
        -10.530525904573434
      ],
      [
        "solution",
        -10.530681201015454
      ],
      [
        "Ġnation",
        -10.53099760974724
      ],
      [
        "Ġsmoke",
        -10.531780008474971
      ],
      [
        "Water",
        -10.53366571273235
      ],
      [
        "People",
        -10.533734072937303
      ],
      [
        "Ġdigesti",
        -10.53435795883756
      ],
      [
        "Ġpop",
        -10.534920822356687
      ],
      [
        "Ġarm",
        -10.536686390459296
      ],
      [
        "Ġrotation",
        -10.53697139727696
      ],
      [
        "Ġformation",
        -10.537201910037568
      ],
      [
        "Ġtrouble",
        -10.537323218487344
      ],
      [
        "Ġvector",
        -10.53738214812562
      ],
      [
        "Ġspin",
        -10.537389005246755
      ],
      [
        "space",
        -10.538748311611066
      ],
      [
        "Ġmask",
        -10.539669665579009
      ],
      [
        "Ġhorses",
        -10.540450372158915
      ],
      [
        "Ġchest",
        -10.54055060992593
      ],
      [
        "Ġremaining",
        -10.541362079471297
      ],
      [
        "ĠLab",
        -10.54146454296874
      ],
      [
        "Share",
        -10.541611903449043
      ],
      [
        "Ġhardw",
        -10.542310496324223
      ],
      [
        "keep",
        -10.542376636967308
      ],
      [
        "Ġneedle",
        -10.542930782896358
      ],
      [
        "ING",
        -10.543587458854034
      ],
      [
        "Ġcluster",
        -10.543949936011444
      ],
      [
        "Ġsalmon",
        -10.544152572653704
      ],
      [
        "Ġspider",
        -10.544440148093909
      ],
      [
        "Ġalumin",
        -10.545689488136857
      ],
      [
        "Ġnest",
        -10.54696100378139
      ],
      [
        "Ġstable",
        -10.54732662926978
      ],
      [
        "ĠControl",
        -10.547510059149786
      ],
      [
        "ĠFrance",
        -10.54919796254363
      ],
      [
        "li",
        -10.549227262469772
      ],
      [
        "Ġsales",
        -10.549988792064598
      ],
      [
        "Ġalter",
        -10.550761448154908
      ],
      [
        "Ġoutcomes",
        -10.550996239966622
      ],
      [
        "ĠSeptem",
        -10.551954826965115
      ],
      [
        "possibl",
        -10.552232509402312
      ],
      [
        "Ġprofessionals",
        -10.552257754264788
      ],
      [
        "Ġfixed",
        -10.552599417926622
      ],
      [
        "Ġadequate",
        -10.552650634080388
      ],
      [
        "Ġratio",
        -10.55530461214902
      ],
      [
        "Ġnose",
        -10.555550543773409
      ],
      [
        "Ġcharg",
        -10.555711198123475
      ],
      [
        "ĠTime",
        -10.55599104545019
      ],
      [
        "Ġbaking",
        -10.557253487203088
      ],
      [
        "ill",
        -10.55968173392744
      ],
      [
        "Ġdanger",
        -10.559952935696712
      ],
      [
        "Ġleaders",
        -10.56053093286454
      ],
      [
        "Ġdespi",
        -10.560902707348529
      ],
      [
        "Ġpixel",
        -10.56097866800753
      ],
      [
        "Ġsides",
        -10.561131974925829
      ],
      [
        "Ġwearing",
        -10.561134610703355
      ],
      [
        "ĠPleas",
        -10.561446382461265
      ],
      [
        "ĠBlue",
        -10.561623942663305
      ],
      [
        "much",
        -10.562065046987282
      ],
      [
        "Ġcheap",
        -10.562178690117266
      ],
      [
        "ĠEngineer",
        -10.562761273158715
      ],
      [
        "ĠStudents",
        -10.56277231238226
      ],
      [
        "Ġshock",
        -10.563803569956631
      ],
      [
        "Learn",
        -10.563913394850807
      ],
      [
        "ĠNatural",
        -10.564393602921124
      ],
      [
        "ĠSan",
        -10.56473060835174
      ],
      [
        "ĠJournal",
        -10.564917592877208
      ],
      [
        "Ġspaces",
        -10.565330322357315
      ],
      [
        "Ġorganoid",
        -10.56546550410818
      ],
      [
        "after",
        -10.565664384802275
      ],
      [
        "Ġcomplicate",
        -10.565743368479584
      ],
      [
        "Ġrecording",
        -10.565811493304452
      ],
      [
        "Ġalgae",
        -10.567553561411184
      ],
      [
        "Ġreceptor",
        -10.568166160552636
      ],
      [
        "Ġwash",
        -10.569731180651228
      ],
      [
        "Ġthrive",
        -10.57036065392359
      ],
      [
        "aging",
        -10.57037620037608
      ],
      [
        "ĠFoundation",
        -10.571602254423816
      ],
      [
        "Ġflexibl",
        -10.571877557576968
      ],
      [
        "Ġtrain",
        -10.572029717336006
      ],
      [
        "mental",
        -10.5721146790725
      ],
      [
        "Ġlattice",
        -10.572255985597629
      ],
      [
        "Ġidentit",
        -10.57253160927289
      ],
      [
        "Ġthanks",
        -10.574158875163697
      ],
      [
        "set",
        -10.574510504749584
      ],
      [
        "would",
        -10.57625220994009
      ],
      [
        "Ġsent",
        -10.57635937719419
      ],
      [
        "before",
        -10.576994699207813
      ],
      [
        "year",
        -10.577019543015409
      ],
      [
        "Ġinstall",
        -10.577052917956676
      ],
      [
        "should",
        -10.578093082210962
      ],
      [
        "Ġspecialist",
        -10.578299816285366
      ],
      [
        "knowledge",
        -10.578373369921712
      ],
      [
        "Ġcow",
        -10.57839978066922
      ],
      [
        "Ġwipe",
        -10.578787039928436
      ],
      [
        "Ġharder",
        -10.579204409751448
      ],
      [
        "bacteria",
        -10.57921751344951
      ],
      [
        "Ġpro",
        -10.580460868509071
      ],
      [
        "Ġinvestigate",
        -10.580931469798768
      ],
      [
        "Ġmeals",
        -10.58164206576242
      ],
      [
        "site",
        -10.581721535139202
      ],
      [
        "Ġexperiments",
        -10.582046520932684
      ],
      [
        "ĠZ",
        -10.582059583582843
      ],
      [
        "Ġusage",
        -10.583254578471012
      ],
      [
        "gardening",
        -10.583430299127189
      ],
      [
        "Ġtropical",
        -10.583989094872852
      ],
      [
        "Ġuniform",
        -10.584119116344793
      ],
      [
        "Ġengag",
        -10.584795444652674
      ],
      [
        "ĠDevelopment",
        -10.58509512142784
      ],
      [
        "effective",
        -10.586139750590576
      ],
      [
        "stone",
        -10.586693799661903
      ],
      [
        "Ġextende",
        -10.587206070332789
      ],
      [
        "Ġwin",
        -10.588440172094003
      ],
      [
        "Ġweld",
        -10.58877554096665
      ],
      [
        "Ġconventional",
        -10.589283441252054
      ],
      [
        "-shape",
        -10.589851862962425
      ],
      [
        "ĠCare",
        -10.59025025836878
      ],
      [
        "Ġdishe",
        -10.590453385342666
      ],
      [
        "]ĊĊ",
        -10.59080859282048
      ],
      [
        "Ġpresente",
        -10.590985190521955
      ],
      [
        "Ġsecondar",
        -10.59201302726704
      ],
      [
        "Ġobes",
        -10.592359672872927
      ],
      [
        "Ġgenerator",
        -10.592418688498965
      ],
      [
        "need",
        -10.59285025278657
      ],
      [
        "Ġable",
        -10.59346013612895
      ],
      [
        "Ġremoval",
        -10.59381868581676
      ],
      [
        "Ġpromoting",
        -10.594062555937388
      ],
      [
        "Ġhorizontal",
        -10.5942504029328
      ],
      [
        "ĠYear",
        -10.594381481953398
      ],
      [
        "Ġsilver",
        -10.594705795807984
      ],
      [
        "Ġunusual",
        -10.59577731959251
      ],
      [
        "Ġmenu",
        -10.596488290704356
      ],
      [
        "ĠWashing",
        -10.596973666139236
      ],
      [
        "Ġaquarium",
        -10.598335362984674
      ],
      [
        "Ġrobotic",
        -10.59846790209754
      ],
      [
        "Ġadopt",
        -10.599809113556455
      ],
      [
        "Ġbrief",
        -10.600138742427347
      ],
      [
        "Ġlo",
        -10.60014966806466
      ],
      [
        "Ġtroop",
        -10.600418708311963
      ],
      [
        "Ġgland",
        -10.60043322068491
      ],
      [
        "Ġbroad",
        -10.601382182378526
      ],
      [
        "Ġmillions",
        -10.60221900986471
      ],
      [
        "Ġhousing",
        -10.602584002890955
      ],
      [
        "high",
        -10.60308599383442
      ],
      [
        "Ġlibrar",
        -10.603373729619983
      ],
      [
        "ĠMedical",
        -10.60397438131368
      ],
      [
        "Ġhealthie",
[...]
