{
  "version": "1.0",
  "truncation": null,
  "padding": null,
  "added_tokens": [
    {
      "id": 0,
      "content": "<|bos|>",
      "single_word": false,
      "lstrip": false,
      "rstrip": false,
      "normalized": false,
      "special": true
    },
    {
      "id": 1,
      "content": "<|user_start|>",
      "single_word": false,
      "lstrip": false,
      "rstrip": false,
      "normalized": false,
      "special": true
    },
    {
      "id": 2,
      "content": "<|user_end|>",
      "single_word": false,
      "lstrip": false,
      "rstrip": false,
      "normalized": false,
      "special": true
    },
    {
      "id": 3,
      "content": "<|assistant_start|>",
      "single_word": false,
      "lstrip": false,
      "rstrip": false,
      "normalized": false,
      "special": true
    },
    {
      "id": 4,
      "content": "<|assistant_end|>",
      "single_word": false,
      "lstrip": false,
      "rstrip": false,
      "normalized": false,
      "special": true
    },
    {
      "id": 5,
      "content": "<|python_start|>",
      "single_word": false,
      "lstrip": false,
      "rstrip": false,
      "normalized": false,
      "special": true
    },
    {
      "id": 6,
      "content": "<|python_end|>",
      "single_word": false,
      "lstrip": false,
      "rstrip": false,
      "normalized": false,
      "special": true
    },
    {
      "id": 7,
      "content": "<|output_start|>",
      "single_word": false,
      "lstrip": false,
      "rstrip": false,
      "normalized": false,
      "special": true
    },
    {
      "id": 8,
      "content": "<|output_end|>",
      "single_word": false,
      "lstrip": false,
      "rstrip": false,
      "normalized": false,
      "special": true
    },
    {
      "id": 9,
      "content": "<|unk|>",
      "single_word": false,
      "lstrip": false,
      "rstrip": false,
      "normalized": false,
      "special": true
    }
  ],
  "normalizer": null,
  "pre_tokenizer": {
    "type": "Sequence",
    "pretokenizers": [
      {
        "type": "Split",
        "pattern": {
          "Regex": "'(?i:[sdmt]|ll|ve|re)|[^\\r\\n\\p{L}\\p{N}]?+\\p{L}+|\\p{N}{1,2}| ?[^\\s\\p{L}\\p{N}]++[\\r\\n]*|\\s*[\\r\\n]|\\s+(?!\\S)|\\s+"
        },
        "behavior": "Isolated",
        "invert": false
      },
      {
        "type": "ByteLevel",
        "add_prefix_space": false,
        "trim_offsets": true,
        "use_regex": false
      }
    ]
  },
  "post_processor": {
    "type": "TemplateProcessing",
    "single": [
      {
        "Sequence": {
          "id": "A",
          "type_id": 0
        }
      }
    ],
    "pair": [
      {
        "Sequence": {
          "id": "A",
          "type_id": 0
        }
      },
      {
        "Sequence": {
          "id": "B",
          "type_id": 1
        }
      }
    ],
    "special_tokens": {}
  },
  "decoder": {
    "type": "ByteLevel",
    "add_prefix_space": true,
    "trim_offsets": true,
    "use_regex": true
  },
  "model": {
    "type": "Unigram",
    "unk_id": 9,
    "vocab": [
      [
        "<|bos|>",
        -1.0
      ],
      [
        "<|user_start|>",
        -1.0
      ],
      [
        "<|user_end|>",
        -1.0
      ],
      [
        "<|assistant_start|>",
        -1.0
      ],
      [
        "<|assistant_end|>",
        -1.0
      ],
      [
        "<|python_start|>",
        -1.0
      ],
      [
        "<|python_end|>",
        -1.0
      ],
      [
        "<|output_start|>",
        -1.0
      ],
      [
        "<|output_end|>",
        -1.0
      ],
      [
        "<|unk|>",
        -1.0
      ],
      [
        "wi",
        -1.0
      ],
      [
        "Ġbas",
        -1.0
      ],
      [
        "Ġour",
        -1.0
      ],
      [
        "ĠOcean",
        -1.0
      ],
      [
        "Keep",
        -1.0
      ],
      [
        "Ġevent",
        -1.0
      ],
      [
        "15",
        -1.0
      ],
      [
        "-li",
        -1.0
      ],
      [
        "How",
        -1.0
      ],
      [
        "Ġpros",
        -1.0
      ],
      [
        "ative",
        -1.0
      ],
      [
        "/h",
        -1.0
      ],
      [
        "Ġden",
        -1.0
      ],
      [
        "Ġchallenge",
        -1.0
      ],
      [
        "bre",
        -1.0
      ],
      [
        "Ġfe",
        -1.0
      ],
      [
        "Ġprepared",
        -1.0
      ],
      [
        "Ġtechnique",
        -1.0
      ],
      [
        "Ġlie",
        -1.0
      ],
      [
        "var",
        -1.0
      ],
      [
        "ĠCal",
        -1.0
      ],
      [
        "Ġcontact",
        -1.0
      ],
      [
        "Ġwanted",
        -1.0
      ],
      [
        "ops",
        -1.0
      ],
      [
        "ĠiPhone",
        -1.0
      ],
      [
        "Origin",
        -1.0
      ],
      [
        "Ġschedule",
        -1.0
      ],
      [
        "Ġtwice",
        -1.0
      ],
      [
        "ease",
        -1.0
      ],
      [
        "zard",
        -1.0
      ],
      [
        "ĠHe",
        -1.0
      ],
      [
        "Ġclearly",
        -1.0
      ],
      [
        "word",
        -1.0
      ],
      [
        "ĠTherapy",
        -1.0
      ],
      [
        "Hy",
        -1.0
      ],
      [
        "IG",
        -1.0
      ],
      [
        "Ġpursu",
        -1.0
      ],
      [
        "le",
        -1.0
      ],
      [
        "Ġmovie",
        -1.0
      ],
      [
        "Ġster",
        -1.0
      ],
      [
        "Ġbrief",
        -1.0
      ],
      [
        "Ġmodels",
        -1.0
      ],
      [
        "tics",
        -1.0
      ],
      [
        "Ġtear",
        -1.0
      ],
      [
        "ults",
        -1.0
      ],
      [
        "Ġelephant",
        -1.0
      ],
      [
        "oxide",
        -1.0
      ],
      [
        "h",
        -1.0
      ],
      [
        "Ġfeels",
        -1.0
      ],
      [
        "ĠFigure",
        -1.0
      ],
      [
        "Ġremains",
        -1.0
      ],
      [
        "PL",
        -1.0
      ],
      [
        ")ĊĊ",
        -1.0
      ],
      [
        "Ġchampion",
        -1.0
      ],
      [
        "ocal",
        -1.0
      ],
      [
        "ĠUnlike",
        -1.0
      ],
      [
        "Ġdisorders",
        -1.0
      ],
      [
        "ecutive",
        -1.0
      ],
      [
        "Ġembryo",
        -1.0
      ],
      [
        "ĠInstitute",
        -1.0
      ],
      [
        "Ġstaff",
        -1.0
      ],
      [
        "Ġfacts",
        -1.0
      ],
      [
        "made",
        -1.0
      ],
      [
        "Ġactiv",
        -1.0
      ],
      [
        "Does",
        -1.0
      ],
      [
        "ler",
        -1.0
      ],
      [
        "Ġpool",
        -1.0
      ],
      [
        "Ġmethane",
        -1.0
      ],
      [
        "Ġtalking",
        -1.0
      ],
      [
        "Ġ_",
        -1.0
      ],
      [
        "Ġages",
        -1.0
      ],
      [
        "rg",
        -1.0
      ],
      [
        "Ġentering",
        -1.0
      ],
      [
        "ĠDa",
        -1.0
      ],
      [
        "¥",
        -1.0
      ],
      [
        "\"The",
        -1.0
      ],
      [
        "Ġcells",
        -1.0
      ],
      [
        "Ġsix",
        -1.0
      ],
      [
        "Ġclassic",
        -1.0
      ],
      [
        "Ġdecreased",
        -1.0
      ],
      [
        "77",
        -1.0
      ],
      [
        "Ġetc",
        -1.0
      ],
      [
        "Ġstates",
        -1.0
      ],
      [
        "orld",
        -1.0
      ],
      [
        "log",
        -1.0
      ],
      [
        "Ġafternoon",
        -1.0
      ],
      [
        "Ġduring",
        -1.0
      ],
      [
        "NE",
        -1.0
      ],
      [
        "lk",
        -1.0
      ],
      [
        "Ġatom",
        -1.0
      ],
      [
        "Ġdate",
        -1.0
      ],
      [
        "Ġabilities",
        -1.0
      ],
      [
        "ĠNOT",
        -1.0
      ],
      [
        "Ġremember",
        -1.0
      ],
      [
        "Ġbur",
        -1.0
      ],
      [
        "oll",
        -1.0
      ],
      [
        "An",
        -1.0
      ],
      [
        "Ġproduces",
        -1.0
      ],
      [
        "OO",
        -1.0
      ],
      [
        "Ġspecial",
        -1.0
      ],
      [
        "ĠShi",
        -1.0
      ],
      [
        "uts",
        -1.0
      ],
      [
        "go",
        -1.0
      ],
      [
        "ĠEarth",
        -1.0
      ],
      [
        "lh",
        -1.0
      ],
      [
        "ĠÂ·",
        -1.0
      ],
      [
        "Ġexplained",
        -1.0
      ],
      [
        "Ġprotein",
        -1.0
      ],
      [
        "Ġtac",
        -1.0
      ],
      [
        "AG",
        -1.0
      ],
      [
        "ĠExp",
        -1.0
      ],
      [
        "Ġcarefully",
        -1.0
      ],
      [
        "Ġbee",
        -1.0
      ],
      [
        "heat",
        -1.0
      ],
      [
        "ions",
        -1.0
      ],
      [
        "Ġdisorder",
        -1.0
      ],
      [
        "Ġcub",
        -1.0
      ],
      [
        "Ġbeyond",
        -1.0
      ],
      [
        "Ġgrain",
        -1.0
      ],
      [
        "that",
        -1.0
      ],
      [
        "Ġchoose",
        -1.0
      ],
      [
        "):",
        -1.0
      ],
      [
        "ĠChicken",
        -1.0
      ],
      [
        "Ġeconomy",
        -1.0
      ],
      [
        "Ġreserve",
        -1.0
      ],
      [
        "ced",
        -1.0
      ],
      [
        "Ġsimpl",
        -1.0
      ],
      [
        "Ġupdated",
        -1.0
      ],
      [
        "Ġhypo",
        -1.0
      ],
      [
        "ĠWa",
        -1.0
      ],
      [
        "cript",
        -1.0
      ],
      [
        "Ġuniform",
        -1.0
      ],
      [
        "Si",
        -1.0
      ],
      [
        "IV",
        -1.0
      ],
      [
        "Ġcodes",
        -1.0
      ],
      [
        "Ġidentify",
        -1.0
      ],
      [
        "Ġpoint",
        -1.0
      ],
      [
        "ĠAR",
        -1.0
      ],
      [
        "Ġmood",
        -1.0
      ],
      [
        "ags",
        -1.0
      ],
      [
        "Ġcenturies",
        -1.0
      ],
      [
        "Ġideal",
        -1.0
      ],
      [
        "ĠWr",
        -1.0
      ],
      [
        "Ġtreats",
        -1.0
      ],
      [
        "ĠShe",
        -1.0
      ],
      [
        "rn",
        -1.0
      ],
      [
        "Ą",
        -1.0
      ],
      [
        "Ġshadow",
        -1.0
      ],
      [
        "lti",
        -1.0
      ],
      [
        "Ġspent",
        -1.0
      ],
      [
        "irt",
        -1.0
      ],
      [
        "ĠSol",
        -1.0
      ],
      [
        "Ġfold",
        -1.0
      ],
      [
        "Comp",
        -1.0
      ],
      [
        "Ġmoist",
        -1.0
      ],
      [
        "Ġcamera",
        -1.0
      ],
      [
        "Ġride",
        -1.0
      ],
      [
        "-co",
        -1.0
      ],
      [
        "Ġmi",
        -1.0
      ],
      [
        "ĠNow",
        -1.0
      ],
      [
        "sc",
        -1.0
      ],
      [
        "ĠMoreover",
        -1.0
      ],
      [
        "ld",
        -1.0
      ],
      [
        "Gi",
        -1.0
      ],
      [
        "Ġlies",
        -1.0
      ],
      [
        "Ġdegrees",
        -1.0
      ],
      [
        "Ġenhancing",
        -1.0
      ],
      [
        "Ġmeta",
        -1.0
      ],
      [
        "Ġcreating",
        -1.0
      ],
      [
        "Reg",
        -1.0
      ],
      [
        "yst",
        -1.0
      ],
      [
        "Ġguide",
        -1.0
      ],
      [
        "nger",
        -1.0
      ],
      [
        "Ġfirst",
        -1.0
      ],
      [
        "illa",
        -1.0
      ],
      [
        "rant",
        -1.0
      ],
      [
        "Ġstrategy",
        -1.0
      ],
      [
        "Ġconcerned",
        -1.0
      ],
      [
        "Ġclu",
        -1.0
      ],
      [
        "Ġfashion",
        -1.0
      ],
      [
        "ĠAv",
        -1.0
      ],
      [
        "Ġbottom",
        -1.0
      ],
      [
        "Ġtried",
        -1.0
      ],
      [
        "Ġhelping",
        -1.0
      ],
      [
        "Ġuncommon",
        -1.0
      ],
      [
        "Ġapple",
        -1.0
      ],
      [
        "Ġrepair",
        -1.0
      ],
      [
        "Ġrel",
        -1.0
      ],
      [
        "Ü",
        -1.0
      ],
      [
        "Ġaqu",
        -1.0
      ],
      [
        "Ġtransport",
        -1.0
      ],
      [
        "Ġlithium",
        -1.0
      ],
      [
        "Ġbin",
        -1.0
      ],
      [
        "Ġfossil",
        -1.0
      ],
      [
        "ax",
        -1.0
      ],
      [
        "Ġmanual",
        -1.0
      ],
      [
        "ĠOrgan",
        -1.0
      ],
      [
        "Ġswe",
        -1.0
      ],
      [
        "ĠV",
        -1.0
      ],
      [
        "red",
        -1.0
      ],
      [
        "Ġexposure",
        -1.0
      ],
      [
        "tern",
        -1.0
      ],
      [
        "><",
        -1.0
      ],
      [
        "ĠAI",
        -1.0
      ],
      [
        "Ġharsh",
        -1.0
      ],
      [
        "Ġdecade",
        -1.0
      ],
      [
        "ĠPan",
        -1.0
      ],
      [
        "Ġends",
        -1.0
      ],
      [
        "Ġfamily",
        -1.0
      ],
      [
        "dit",
        -1.0
      ],
      [
        "Ġfocus",
        -1.0
      ],
      [
        "Ġequ",
        -1.0
      ],
      [
        "nga",
        -1.0
      ],
      [
        "Fa",
        -1.0
      ],
      [
        "top",
        -1.0
      ],
      [
        "-br",
        -1.0
      ],
      [
        "Ġag",
        -1.0
      ],
      [
        "Ġemploy",
        -1.0
      ],
      [
        "roll",
        -1.0
      ],
      [
        "WA",
        -1.0
      ],
      [
        ".",
        -1.0
      ],
      [
        "ng",
        -1.0
      ],
      [
        "ç",
        -1.0
      ],
      [
        "bes",
        -1.0
      ],
      [
        "Ps",
        -1.0
      ],
      [
        "Ġpublic",
        -1.0
      ],
      [
        "erc",
        -1.0
      ],
      [
        ",\"",
        -1.0
      ],
      [
        "Ġclay",
        -1.0
      ],
      [
        "Fo",
        -1.0
      ],
      [
        "G",
        -1.0
      ],
      [
        "Ġthree",
        -1.0
      ],
      [
        "32",
        -1.0
      ],
      [
        "20",
        -1.0
      ],
      [
        "Definition",
        -1.0
      ],
      [
        "our",
        -1.0
      ],
      [
        "da",
        -1.0
      ],
      [
        "Ġyet",
        -1.0
      ],
      [
        "Ġmuscles",
        -1.0
      ],
      [
        "Ġdesirable",
        -1.0
      ],
      [
        "Ġmonitor",
        -1.0
      ],
      [
        "Ġpieces",
        -1.0
      ],
      [
        "Ġquite",
        -1.0
      ],
      [
        "Ġgreater",
        -1.0
      ],
      [
        "bet",
        -1.0
      ],
      [
        "bel",
        -1.0
      ],
      [
        "Ġtell",
        -1.0
      ],
      [
        "iers",
        -1.0
      ],
      [
        "ĳ",
        -1.0
      ],
      [
        "Ġaverage",
        -1.0
      ],
      [
        "eting",
        -1.0
      ],
      [
        "Ġit",
        -1.0
      ],
      [
        "53",
        -1.0
      ],
      [
        "bl",
        -1.0
      ],
      [
        "sch",
        -1.0
      ],
      [
        "Ġoven",
        -1.0
      ],
      [
        "kin",
        -1.0
      ],
      [
        "Ġplans",
        -1.0
      ],
      [
        "Ġdietary",
        -1.0
      ],
      [
        "ĠâĢĶ",
        -1.0
      ],
      [
        "ĠThere",
        -1.0
      ],
      [
        "iting",
        -1.0
      ],
      [
        "Ġreport",
        -1.0
      ],
      [
        "Hz",
        -1.0
      ],
      [
        "ergy",
        -1.0
      ],
      [
        "Ġexisting",
        -1.0
      ],
      [
        "GI",
        -1.0
      ],
      [
        "ĠRA",
        -1.0
      ],
      [
        "dal",
        -1.0
      ],
      [
        "sma",
        -1.0
      ],
      [
        "âĢĿ",
        -1.0
      ],
      [
        "cto",
        -1.0
      ],
      [
        "84",
        -1.0
      ],
      [
        "ė",
        -1.0
      ],
      [
        "vent",
        -1.0
      ],
      [
        "Ġborder",
        -1.0
      ],
      [
        "wd",
        -1.0
      ],
      [
        "Ġbehaviors",
        -1.0
      ],
      [
        "Ġprojects",
        -1.0
      ],
      [
        "Ġsemi",
        -1.0
      ],
      [
        "bil",
        -1.0
      ],
      [
        "Ġclose",
        -1.0
      ],
      [
        "ĠNA",
        -1.0
      ],
      [
        "apt",
        -1.0
      ],
      [
        "Ġshade",
        -1.0
      ],
      [
        "Ġblend",
        -1.0
      ],
      [
        "ona",
        -1.0
      ],
      [
        "Ġtrade",
        -1.0
      ],
      [
        "Ġtopics",
        -1.0
      ],
      [
        "ĠD",
        -1.0
      ],
      [
        "Ġdive",
        -1.0
      ],
      [
        "ĠNatural",
        -1.0
      ],
      [
        "Ġnational",
        -1.0
      ],
      [
        "Ġright",
        -1.0
      ],
      [
        "Ġwin",
        -1.0
      ],
      [
        "Ġopinion",
        -1.0
      ],
      [
        "nal",
        -1.0
      ],
      [
        "Sup",
        -1.0
      ],
      [
        "ĠMen",
        -1.0
      ],
      [
        "Ġnano",
        -1.0
      ],
      [
        "ĠClass",
        -1.0
      ],
      [
        "eo",
        -1.0
      ],
      [
        "cc",
        -1.0
      ],
      [
        "Ġpee",
        -1.0
      ],
      [
        "Ġfinal",
        -1.0
      ],
      [
        "lg",
        -1.0
      ],
      [
        "Ġvisit",
        -1.0
      ],
      [
        "ĠMountain",
        -1.0
      ],
      [
        "ĠBal",
        -1.0
      ],
      [
        "Cha",
        -1.0
      ],
      [
        "Ġcall",
        -1.0
      ],
      [
        "Ġlighter",
        -1.0
      ],
      [
        "Ġhand",
        -1.0
      ],
      [
        "Ġpractices",
        -1.0
      ],
      [
        "iter",
        -1.0
      ],
      [
        "LD",
        -1.0
      ],
      [
        "Ġmusic",
        -1.0
      ],
      [
        "ĠKnow",
        -1.0
      ],
      [
        "ook",
        -1.0
      ],
      [
        "Ġeasier",
        -1.0
      ],
      [
        "Ġrib",
        -1.0
      ],
      [
        "Ġhor",
        -1.0
      ],
      [
        "Á",
        -1.0
      ],
      [
        "ill",
        -1.0
      ],
      [
        "Ġplayers",
        -1.0
      ],
      [
        "Ġwere",
        -1.0
      ],
      [
        "Ġsimply",
        -1.0
      ],
      [
        "Ġimproves",
        -1.0
      ],
      [
        "ĠCD",
        -1.0
      ],
      [
        "aging",
        -1.0
      ],
      [
        "Ġwhether",
        -1.0
      ],
      [
        "Ġdelight",
        -1.0
      ],
      [
        "ĠStudies",
        -1.0
      ],
      [
        "ĠSer",
        -1.0
      ],
      [
        "oma",
        -1.0
      ],
      [
        "Ġprocessor",
        -1.0
      ],
      [
        "0",
        -1.0
      ],
      [
        "In",
        -1.0
      ],
      [
        "how",
        -1.0
      ],
      [
        "sin",
        -1.0
      ],
      [
        "Ġseparate",
        -1.0
      ],
      [
        "ĠTur",
        -1.0
      ],
      [
        "ĠAustralia",
        -1.0
      ],
      [
        "imp",
        -1.0
      ],
      [
        "Ġoriginal",
        -1.0
      ],
      [
        "26",
        -1.0
      ],
      [
        "ens",
        -1.0
      ],
      [
        "Ġflood",
        -1.0
      ],
      [
        "46",
        -1.0
      ],
      [
        "ick",
        -1.0
      ],
      [
        "%",
        -1.0
      ],
      [
        "Ġbegun",
        -1.0
      ],
      [
        "Ġharmful",
        -1.0
      ],
      [
        "umps",
        -1.0
      ],
      [
        "istic",
        -1.0
      ],
      [
        "Ġtaught",
        -1.0
      ],
      [
        "tes",
        -1.0
      ],
      [
        "hi",
        -1.0
      ],
      [
        "Ġki",
        -1.0
      ],
      [
        "eas",
        -1.0
      ],
      [
        "Ġpotential",
        -1.0
      ],
      [
        "American",
        -1.0
      ],
      [
        "nor",
        -1.0
      ],
      [
        "ĠSup",
        -1.0
      ],
      [
        "Ġleaving",
        -1.0
      ],
      [
        "Ġdifficult",
        -1.0
      ],
      [
        "Ġgarbage",
        -1.0
      ],
      [
        "ĠTraining",
        -1.0
      ],
      [
        "ĠBa",
        -1.0
      ],
      [
        "bic",
        -1.0
      ],
      [
        "Ġtemporary",
        -1.0
      ],
      [
        "iver",
        -1.0
      ],
      [
        "Ċ",
        -1.0
      ],
      [
        "OS",
        -1.0
      ],
      [
        "Ġideas",
        -1.0
      ],
      [
        "trol",
        -1.0
      ],
      [
        "sho",
        -1.0
      ],
      [
        "Ġchanged",
        -1.0
      ],
      [
        "Ġprotected",
        -1.0
      ],
      [
        "Ġrate",
        -1.0
      ],
      [
        "tein",
        -1.0
      ],
      [
        "ĠAccording",
        -1.0
      ],
      [
        "at",
        -1.0
      ],
      [
        "FC",
        -1.0
      ],
      [
        "Ġass",
        -1.0
      ],
      [
        "Ġmold",
        -1.0
      ],
      [
        "Ġenzymes",
        -1.0
      ],
      [
        "Ġtoward",
        -1.0
      ],
      [
        "tt",
        -1.0
      ],
      [
        "tri",
        -1.0
      ],
      [
        "Ġregularly",
        -1.0
      ],
      [
        "gra",
        -1.0
      ],
      [
        "ĠRob",
        -1.0
      ],
      [
        "-cha",
        -1.0
      ],
      [
        "lad",
        -1.0
      ],
      [
        "Ġelectric",
        -1.0
      ],
      [
        "gle",
        -1.0
      ],
      [
        "Ġvital",
        -1.0
      ],
      [
        "Ġgarden",
        -1.0
      ],
      [
        "97",
        -1.0
      ],
      [
        "60",
        -1.0
      ],
      [
        "95",
        -1.0
      ],
      [
        "Ġgenerator",
        -1.0
      ],
      [
        "NT",
        -1.0
      ],
      [
        "DS",
        -1.0
      ],
      [
        "Me",
        -1.0
      ],
      [
        "ĠData",
        -1.0
      ],
      [
        "Ġuntreated",
        -1.0
      ],
      [
        "Ġexpansion",
        -1.0
      ],
      [
        "Ġblood",
        -1.0
      ],
      [
        "Ġatomic",
        -1.0
      ],
      [
        "Ġseeing",
        -1.0
      ],
      [
        "ĠHVAC",
        -1.0
      ],
      [
        "den",
        -1.0
      ],
      [
        "Ġmindful",
        -1.0
      ],
      [
        "iti",
        -1.0
      ],
      [
        "ĠCO",
        -1.0
      ],
      [
        "ĠCanada",
        -1.0
      ],
      [
        "urg",
        -1.0
      ],
      [
        "Ġhighly",
        -1.0
      ],
      [
        "Ġmol",
        -1.0
      ],
      [
        "ames",
        -1.0
      ],
      [
        "Ġcotton",
        -1.0
      ],
      [
        "ib",
        -1.0
      ],
      [
        "Ġapart",
        -1.0
      ],
      [
        "Ġorganism",
        -1.0
      ],
      [
        "shing",
        -1.0
      ],
      [
        "ĠChemical",
        -1.0
      ],
      [
        "App",
        -1.0
      ],
      [
        "play",
        -1.0
      ],
      [
        "Ġwrite",
        -1.0
      ],
      [
        "oa",
        -1.0
      ],
      [
        "Ġclaims",
        -1.0
      ],
      [
        "Ġenhances",
        -1.0
      ],
      [
        "Ġbat",
        -1.0
      ],
      [
        "Ġhouses",
        -1.0
      ],
      [
        "ces",
        -1.0
      ],
      [
        "print",
        -1.0
      ],
      [
        "Ġenables",
        -1.0
      ],
      [
        "Ġ&",
        -1.0
      ],
      [
        "Ġsal",
        -1.0
      ],
      [
        "Ġmonth",
        -1.0
      ],
      [
        "Ġstones",
        -1.0
      ],
      [
        "cover",
        -1.0
      ],
      [
        "Ġusers",
        -1.0
      ],
      [
        "ĠList",
        -1.0
      ],
      [
        "Ġvalid",
        -1.0
      ],
      [
        "Ġcas",
        -1.0
      ],
      [
        "ool",
        -1.0
      ],
      [
        "Ġcreate",
        -1.0
      ],
      [
        "zu",
        -1.0
      ],
      [
        "Ġtutorial",
        -1.0
      ],
      [
        "Ġhuge",
        -1.0
      ],
      [
        "Ġcritical",
        -1.0
      ],
      [
        "Fr",
        -1.0
      ],
      [
        "ĠWest",
        -1.0
      ],
      [
        "Ġpr",
        -1.0
      ],
      [
        "ife",
        -1.0
      ],
      [
        "ama",
        -1.0
      ],
      [
        "ature",
        -1.0
      ],
      [
        "ĠSingapore",
        -1.0
      ],
      [
        "Ġrecycling",
        -1.0
      ],
      [
        "mers",
        -1.0
      ],
      [
        "Ġankle",
        -1.0
      ],
      [
        "ĠTen",
        -1.0
      ],
      [
        "ub",
        -1.0
      ],
      [
        "÷",
        -1.0
      ],
      [
        "3",
        -1.0
      ],
      [
        "Ġpad",
        -1.0
      ],
      [
        "Ġplastic",
        -1.0
      ],
      [
        "Ġplants",
        -1.0
      ],
      [
        "Stud",
        -1.0
      ],
      [
        "Ġrubber",
        -1.0
      ],
      [
        "Ġzones",
        -1.0
      ],
      [
        "Ġsubstrate",
        -1.0
      ],
      [
        "alth",
        -1.0
      ],
      [
        "ĠMon",
        -1.0
      ],
      [
        "ĠWestern",
        -1.0
      ],
      [
        "Ġnation",
        -1.0
      ],
      [
        "ĠPE",
        -1.0
      ],
      [
        "Ġprofile",
        -1.0
      ],
      [
        "Ġampl",
        -1.0
      ],
      [
        "25",
        -1.0
      ],
      [
        "yl",
        -1.0
      ],
      [
        "ĠFe",
        -1.0
      ],
      [
        "Ġpopular",
        -1.0
      ],
      [
        "Ġevents",
        -1.0
      ],
      [
        "SL",
        -1.0
      ],
      [
        "Ġnausea",
        -1.0
      ],
      [
        "Ġdelay",
        -1.0
      ],
      [
        "Ġattention",
        -1.0
      ],
      [
        "Ġsale",
        -1.0
      ],
      [
        "Ġsection",
        -1.0
      ],
      [
        "Ġconsumed",
        -1.0
      ],
      [
        "Ġput",
        -1.0
      ],
      [
        "Ġdrinking",
        -1.0
      ],
      [
        "Ġexcellent",
        -1.0
      ],
      [
        "Ġro",
        -1.0
      ],
      [
        "Ġwalls",
        -1.0
      ],
      [
        "Ġunknown",
        -1.0
      ],
      [
        "rat",
        -1.0
      ],
      [
        "Ġsuccess",
        -1.0
      ],
      [
        "Ġjob",
        -1.0
      ],
      [
        "yd",
        -1.0
      ],
      [
        ",",
        -1.0
      ],
      [
        "Ġeating",
        -1.0
      ],
      [
        "Ġba",
        -1.0
      ],
      [
        "ĠColor",
        -1.0
      ],
      [
        "ĠEnd",
        -1.0
      ],
      [
        "Ġdiss",
        -1.0
      ],
      [
        "Ġt",
        -1.0
      ],
      [
        "OA",
        -1.0
      ],
      [
        "Ġbeginning",
        -1.0
      ],
      [
        "Sta",
        -1.0
      ],
      [
        "Ġpredators",
        -1.0
      ],
      [
        "mo",
        -1.0
      ],
      [
        "sb",
        -1.0
      ],
      [
        "ĠNovember",
        -1.0
      ],
      [
        "nut",
        -1.0
      ],
      [
        "Ġcr",
        -1.0
      ],
      [
        "Ġrevi",
        -1.0
      ],
      [
        "ota",
        -1.0
      ],
      [
        "-ex",
        -1.0
      ],
      [
        "Ġselected",
        -1.0
      ],
      [
        "Ġruns",
        -1.0
      ],
      [
        "uble",
        -1.0
      ],
      [
        "Ġusually",
        -1.0
      ],
      [
        "Ġaffecting",
        -1.0
      ],
      [
        "Ġcomment",
        -1.0
      ],
      [
        "Ġtissue",
        -1.0
      ],
      [
        "Ġvaccines",
        -1.0
      ],
      [
        "Ġcraft",
        -1.0
      ],
      [
        "Ġlearn",
        -1.0
      ],
      [
        "Ġphone",
        -1.0
      ],
      [
        "Ġpictures",
        -1.0
      ],
      [
        "Ġtight",
        -1.0
      ],
      [
        "Ġdatabase",
        -1.0
      ],
      [
        "Ġ.",
        -1.0
      ],
      [
        "Ġmoment",
        -1.0
      ],
      [
        "Wh",
        -1.0
      ],
      [
        "ĠMor",
        -1.0
      ],
      [
        "iving",
        -1.0
      ],
      [
        "ĠMexico",
        -1.0
      ],
      [
        ".\"ĊĊ",
        -1.0
      ],
      [
        "Ġcannot",
        -1.0
      ],
      [
        "ĠAsk",
        -1.0
      ],
      [
        "Ġstored",
        -1.0
      ],
      [
        "ye",
        -1.0
      ],
      [
        "',",
        -1.0
      ],
      [
        "yed",
        -1.0
      ],
      [
        "olar",
        -1.0
      ],
      [
        "be",
        -1.0
      ],
      [
        "OL",
        -1.0
      ],
      [
        "ĠSpe",
        -1.0
      ],
      [
        "vision",
        -1.0
      ],
      [
        "mb",
        -1.0
      ],
      [
        "Ġcool",
        -1.0
      ],
      [
        "en",
        -1.0
      ],
      [
        "âĨĴ",
        -1.0
      ],
      [
        "wn",
        -1.0
      ],
      [
        "ises",
        -1.0
      ],
      [
        "Ġhydraulic",
        -1.0
      ],
      [
        "yb",
        -1.0
      ],
      [
        "Ġfelt",
        -1.0
      ],
      [
        "Ġrole",
        -1.0
      ],
      [
        "MO",
        -1.0
      ],
      [
        "ugh",
        -1.0
      ],
      [
        "ild",
        -1.0
      ],
      [
        "Ġpassing",
        -1.0
      ],
      [
        "Ġsti",
        -1.0
      ],
      [
        "Ġreplace",
        -1.0
      ],
      [
        "Ġhot",
        -1.0
      ],
      [
        "RL",
        -1.0
      ],
      [
        "Ġlime",
        -1.0
      ],
      [
        "ĠVol",
        -1.0
      ],
      [
        "ĠDecember",
        -1.0
      ],
      [
        "Ġinterest",
        -1.0
      ],
      [
        "Ġmotion",
        -1.0
      ],
      [
        "Ġlongevity",
        -1.0
      ],
      [
        "bol",
        -1.0
      ],
      [
        "Ġinitial",
        -1.0
      ],
      [
        "Ġthermal",
        -1.0
      ],
      [
        "ung",
        -1.0
      ],
      [
        "ĠToo",
        -1.0
      ],
      [
        "Ġprofit",
        -1.0
      ],
      [
        "uy",
        -1.0
      ],
      [
        "lla",
        -1.0
      ],
      [
        "Ġwords",
        -1.0
      ],
      [
        "Ġmachine",
        -1.0
      ],
      [
        "Ġready",
        -1.0
      ],
      [
        "-M",
        -1.0
      ],
      [
        "ter",
        -1.0
      ],
      [
        "mate",
        -1.0
      ],
      [
        "FAQ",
        -1.0
      ],
      [
        "Ġ",
        -1.0
      ],
      [
        "ĠRE",
        -1.0
      ],
      [
        "Ġanalog",
        -1.0
      ],
      [
        "Ġacc",
        -1.0
      ],
      [
        "ak",
        -1.0
      ],
      [
        "Ġmiddle",
        -1.0
      ],
      [
        "Ġintake",
        -1.0
      ],
      [
        "Ġstore",
        -1.0
      ],
      [
        "Ma",
        -1.0
      ],
      [
        "Ġeither",
        -1.0
      ],
      [
        "DNA",
        -1.0
      ],
      [
        "Ġhabitat",
        -1.0
      ],
      [
        "Li",
        -1.0
      ],
      [
        "Ġfeel",
        -1.0
      ],
      [
        "ark",
        -1.0
      ],
      [
        "Ġseason",
        -1.0
      ],
      [
        "-depth",
        -1.0
      ],
      [
        "ato",
        -1.0
      ],
      [
        "ĠLu",
        -1.0
      ],
      [
        "Ġbeliefs",
        -1.0
      ],
      [
        "Ġbl",
        -1.0
      ],
      [
        "Em",
        -1.0
      ],
      [
        "Ġroom",
        -1.0
      ],
      [
        "Ġglobal",
        -1.0
      ],
      [
        "Ġnutrient",
        -1.0
      ],
      [
        "59",
        -1.0
      ],
      [
        "Ġrecovery",
        -1.0
      ],
      [
        "Ġlights",
        -1.0
      ],
      [
        "Ġcare",
        -1.0
      ],
      [
        "Ġmagnesium",
        -1.0
      ],
      [
        "Ġcom",
        -1.0
      ],
      [
        "osed",
        -1.0
      ],
      [
        "Ġbackyard",
        -1.0
      ],
      [
        "Ġsure",
        -1.0
      ],
      [
        "57",
        -1.0
      ],
      [
        "Ġty",
        -1.0
      ],
      [
        "Ġfeet",
        -1.0
      ],
      [
        "rks",
        -1.0
      ],
      [
        "Ġhyp",
        -1.0
      ],
      [
        "Related",
        -1.0
      ],
      [
        "lock",
        -1.0
      ],
      [
        "ĠDev",
        -1.0
      ],
      [
        "Ġ?",
        -1.0
      ],
      [
        "em",
        -1.0
      ],
      [
        "Pre",
        -1.0
      ],
      [
        "Ġportion",
        -1.0
      ],
      [
        "Ġshower",
        -1.0
      ],
      [
        "ps",
        -1.0
      ],
      [
        "Ġrock",
        -1.0
      ],
      [
        "ĠTi",
        -1.0
      ],
      [
        "Ġwi",
        -1.0
      ],
      [
        "Pri",
        -1.0
      ],
      [
        "Ġtu",
        -1.0
      ],
      [
        "Wr",
        -1.0
      ],
      [
        "Ġtough",
        -1.0
      ],
      [
        ".ĊĊ",
        -1.0
      ],
      [
        "Ġbit",
        -1.0
      ],
      [
        "tur",
        -1.0
      ],
      [
        "del",
        -1.0
      ],
      [
        "sets",
        -1.0
      ],
      [
        "Ġab",
        -1.0
      ],
      [
        "ĠCo",
        -1.0
      ],
      [
        "ĠPa",
        -1.0
      ],
      [
        "Ġtelling",
        -1.0
      ],
      [
        "Ġtrees",
        -1.0
      ],
      [
        "Most",
        -1.0
      ],
      [
        "llo",
        -1.0
      ],
      [
        "fer",
        -1.0
      ],
      [
        "ĠPl",
        -1.0
      ],
      [
        "Ġcycl",
        -1.0
      ],
      [
        "fin",
        -1.0
      ],
      [
        "ĠFla",
        -1.0
      ],
      [
        "text",
        -1.0
      ],
      [
        "ĠBu",
        -1.0
      ],
      [
        "87",
        -1.0
      ],
      [
        "ĠQue",
        -1.0
      ],
      [
        "on",
        -1.0
      ],
      [
        "Ġabnormal",
        -1.0
      ],
      [
        "Ġ.Ċ",
        -1.0
      ],
      [
        "Ġgen",
        -1.0
      ],
      [
        "ree",
        -1.0
      ],
      [
        "AB",
        -1.0
      ],
      [
        "Ġfederal",
        -1.0
      ],
      [
        "Ea",
        -1.0
      ],
      [
        "Ġimpacts",
        -1.0
      ],
      [
        "ĠDu",
        -1.0
      ],
      [
        "Ġpress",
        -1.0
      ],
      [
        "ĠPsych",
        -1.0
      ],
      [
        "J",
        -1.0
      ],
      [
        "ĠTreatment",
        -1.0
      ],
      [
        "Ġsequences",
        -1.0
      ],
      [
        "Ġepisode",
        -1.0
      ],
      [
        "Ġcurrently",
        -1.0
      ],
      [
        "Ġvi",
        -1.0
      ],
      [
        "iro",
        -1.0
      ],
      [
        "ĠSl",
        -1.0
      ],
      [
        "ĠStandard",
        -1.0
      ],
      [
        "-e",
        -1.0
      ],
      [
        "ception",
        -1.0
      ],
      [
        "ever",
        -1.0
      ],
      [
        "Ġonto",
        -1.0
      ],
      [
        "ĠYo",
        -1.0
      ],
      [
        "bles",
        -1.0
      ],
      [
        "Ġcountries",
        -1.0
      ],
      [
        "Ġsurvey",
        -1.0
      ],
      [
        "âĢĻre",
        -1.0
      ],
      [
        "11",
        -1.0
      ],
      [
        "58",
        -1.0
      ],
      [
        "ĠSki",
        -1.0
      ],
      [
        "am",
        -1.0
      ],
      [
        "98",
        -1.0
      ],
      [
        "Ġfact",
        -1.0
      ],
      [
        "Ġsays",
        -1.0
      ],
      [
        "PO",
        -1.0
      ],
      [
        "Ġparts",
        -1.0
      ],
      [
        "ĠControl",
        -1.0
      ],
      [
        "Ġoxid",
        -1.0
      ],
      [
        "Ġprop",
        -1.0
      ],
      [
        "ĠGeneral",
        -1.0
      ],
      [
        "Ġnearly",
        -1.0
      ],
      [
        "Ġdress",
        -1.0
      ],
      [
        "Ġyears",
        -1.0
      ],
      [
        "Ĩ",
        -1.0
      ],
      [
        "-in",
        -1.0
      ],
      [
        "Ġaround",
        -1.0
      ],
      [
        "Ġcompound",
        -1.0
      ],
      [
        "Ġbehavior",
        -1.0
      ],
      [
        "Ġgall",
        -1.0
      ],
      [
        "ĠOffice",
        -1.0
      ],
      [
        "06",
        -1.0
      ],
      [
        "exp",
        -1.0
      ],
      [
        "Ġreceived",
        -1.0
      ],
      [
        "75",
        -1.0
      ],
      [
        "Ġni",
        -1.0
      ],
      [
        "Ġbecomes",
        -1.0
      ],
      [
        "ep",
        -1.0
      ],
      [
        "ena",
        -1.0
      ],
      [
        "Te",
        -1.0
      ],
      [
        "cle",
        -1.0
      ],
      [
        "Ġmetals",
        -1.0
      ],
      [
        "Ġmatter",
        -1.0
      ],
      [
        "Ġbranches",
        -1.0
      ],
      [
        "ĠChi",
        -1.0
      ],
      [
        "Ġremove",
        -1.0
      ],
      [
        "=\"",
        -1.0
      ],
      [
        "05",
        -1.0
      ],
      [
        "Ġsna",
        -1.0
      ],
      [
        "Ġcolor",
        -1.0
      ],
      [
        "\".ĊĊ",
        -1.0
      ],
      [
        "VI",
        -1.0
      ],
      [
        "Ġreb",
        -1.0
      ],
      [
        "pha",
        -1.0
      ],
      [
        "ĠSince",
        -1.0
      ],
      [
        "Ġperhaps",
        -1.0
      ],
      [
        "Ġemb",
        -1.0
      ],
      [
        "Ġearth",
        -1.0
      ],
      [
        "ĠYour",
        -1.0
      ],
      [
        "ress",
        -1.0
      ],
      [
        "ed",
        -1.0
      ],
      [
        ";",
        -1.0
      ],
      [
        "Ġplays",
        -1.0
      ],
      [
        "Ġcheaper",
        -1.0
      ],
      [
        "Check",
        -1.0
      ],
      [
        "Ġfurther",
        -1.0
      ],
      [
        "gage",
        -1.0
      ],
      [
        "Ç",
        -1.0
      ],
      [
        "ĠDoes",
        -1.0
      ],
      [
        "Ġhabit",
        -1.0
      ],
      [
        "SC",
        -1.0
      ],
      [
        "Ġunf",
        -1.0
      ],
      [
        "st",
        -1.0
      ],
      [
        "Ġwhole",
        -1.0
      ],
      [
        "Ġbecause",
        -1.0
      ],
      [
        "Ġreliable",
        -1.0
      ],
      [
        "Ġrely",
        -1.0
      ],
      [
        "Ġplan",
        -1.0
      ],
      [
        "Ġawareness",
        -1.0
      ],
      [
        "ĠOnly",
        -1.0
      ],
      [
        "logy",
        -1.0
      ],
      [
        "Ġcast",
        -1.0
      ],
      [
        "Ġaren",
        -1.0
      ],
      [
        "ella",
        -1.0
      ],
      [
        "s",
        -1.0
      ],
      [
        "ĠKen",
        -1.0
      ],
      [
        "ĠHere",
        -1.0
      ],
      [
        "Ġunit",
        -1.0
      ],
      [
        "ĠOp",
        -1.0
      ],
      [
        "Ġsymptoms",
        -1.0
      ],
      [
        "Ġreactions",
        -1.0
      ],
      [
        "formation",
        -1.0
      ],
      [
        "Ġoffer",
        -1.0
      ],
      [
        "Ġask",
        -1.0
      ],
      [
        "Ġinhabit",
        -1.0
      ],
      [
        "î",
        -1.0
      ],
      [
        "Ġf",
        -1.0
      ],
      [
        "...",
        -1.0
      ],
      [
        "appy",
        -1.0
      ],
      [
        "Ġemail",
        -1.0
      ],
      [
        "sh",
        -1.0
      ],
      [
        "Ġturned",
        -1.0
      ],
      [
        "ices",
        -1.0
      ],
      [
        "erry",
        -1.0
      ],
      [
        "Ġrules",
        -1.0
      ],
      [
        "valu",
        -1.0
      ],
      [
        "tin",
        -1.0
      ],
      [
        "Ġadults",
        -1.0
      ],
      [
        "Although",
        -1.0
      ],
      [
        "oves",
        -1.0
      ],
      [
        "gma",
        -1.0
      ],
      [
        "Ġvariable",
        -1.0
      ],
      [
        "-me",
        -1.0
      ],
      [
        "flower",
        -1.0
      ],
      [
        "Ġbelief",
        -1.0
      ],
      [
        "cut",
        -1.0
      ],
      [
        "St",
        -1.0
      ],
      [
        "Ġutilized",
        -1.0
      ],
      [
        "Ġcoc",
        -1.0
      ],
      [
        "Ġtreatment",
        -1.0
      ],
      [
        "ulo",
        -1.0
      ],
      [
        "Ġinform",
        -1.0
      ],
      [
        "Ġbro",
        -1.0
      ],
      [
        "ĠSn",
        -1.0
      ],
      [
        "Ġof",
        -1.0
      ],
      [
        "Ġkinds",
        -1.0
      ],
      [
        "Ġfighting",
        -1.0
      ],
      [
        "Cr",
        -1.0
      ],
      [
        "hed",
        -1.0
      ],
      [
        "TA",
        -1.0
      ],
      [
        "umin",
        -1.0
      ],
      [
        "ĠDay",
        -1.0
      ],
      [
        "Ġexperts",
        -1.0
      ],
      [
        "vers",
        -1.0
      ],
      [
        "ney",
        -1.0
      ],
      [
        "ĠEnergy",
        -1.0
      ],
      [
        "Ġactions",
        -1.0
      ],
      [
        "Ġlaser",
        -1.0
      ],
      [
        "oth",
        -1.0
      ],
      [
        "bu",
        -1.0
      ],
      [
        "Ġforeign",
        -1.0
      ],
      [
        "Ġindoor",
        -1.0
      ],
      [
        "sks",
        -1.0
      ],
      [
        "ĠEd",
        -1.0
      ],
      [
        "Ġprim",
        -1.0
      ],
      [
        "37",
        -1.0
      ],
      [
        "rch",
        -1.0
      ],
      [
        "Med",
        -1.0
      ],
      [
        "ttery",
        -1.0
      ],
      [
        "Ġteen",
        -1.0
      ],
      [
        "Ġswitch",
        -1.0
      ],
      [
        "ĠYes",
        -1.0
      ],
      [
        "Over",
        -1.0
      ],
      [
        "Ġpurpose",
        -1.0
      ],
      [
        "\"",
        -1.0
      ],
      [
        "Ò",
        -1.0
      ],
      [
        "Pr",
        -1.0
      ],
      [
        "ĠIce",
        -1.0
      ],
      [
        "Ġshould",
        -1.0
      ],
      [
        "ĠEngine",
        -1.0
      ],
      [
        "Ġmarine",
        -1.0
      ],
      [
        "Ġdoing",
        -1.0
      ],
      [
        "Ġnothing",
        -1.0
      ],
      [
        "Ġremaining",
        -1.0
      ],
      [
        "Ġphenomena",
        -1.0
      ],
      [
        "ĥ",
        -1.0
      ],
      [
        "ĠSchool",
        -1.0
      ],
      [
        "ET",
        -1.0
      ],
      [
        "cell",
        -1.0
      ],
      [
        "ined",
        -1.0
      ],
      [
        "ĠFree",
        -1.0
      ],
      [
        "EC",
        -1.0
      ],
      [
        "Ġaccepted",
        -1.0
      ],
      [
        "oss",
        -1.0
      ],
      [
        "ruit",
        -1.0
      ],
      [
        "ea",
        -1.0
      ],
      [
        "Ġtook",
        -1.0
      ],
      [
        "Ġhave",
        -1.0
      ],
      [
        "Ġexercises",
        -1.0
      ],
      [
        "52",
        -1.0
      ],
      [
        "Ġdeal",
        -1.0
      ],
      [
        "Ġfront",
        -1.0
      ],
      [
        "hand",
        -1.0
      ],
      [
        "Ġswim",
        -1.0
      ],
      [
        "Ġpartial",
        -1.0
      ],
      [
        "Ġstri",
        -1.0
      ],
      [
        "HC",
        -1.0
      ],
      [
        "mps",
        -1.0
      ],
      [
        "il",
        -1.0
      ],
      [
        "Ġpun",
        -1.0
      ],
      [
        "Ġrequire",
        -1.0
      ],
      [
        "ĠAnswer",
        -1.0
      ],
      [
        "Ġsend",
        -1.0
      ],
      [
        "Ġoccurring",
        -1.0
      ],
      [
        "Ġstep",
        -1.0
      ],
      [
        "place",
        -1.0
      ],
      [
        "Ġliver",
        -1.0
      ],
      [
        "Ġage",
        -1.0
      ],
      [
        "Ġfaced",
        -1.0
      ],
      [
        "ĠStates",
        -1.0
      ],
      [
        "Ġwatching",
        -1.0
      ],
      [
        "EL",
        -1.0
      ],
      [
        "Ġunc",
        -1.0
      ],
      [
        "Ġwonder",
        -1.0
      ],
      [
        "Ġwork",
        -1.0
      ],
      [
        "ures",
        -1.0
      ],
      [
        "los",
        -1.0
      ],
      [
        "Ġstronger",
        -1.0
      ],
      [
        "Ġsociety",
        -1.0
      ],
      [
        "cil",
        -1.0
      ],
      [
        "Ġfamiliar",
        -1.0
      ],
      [
        "Ġcooler",
        -1.0
      ],
      [
        "sta",
        -1.0
      ],
      [
        "ĠAbout",
        -1.0
      ],
      [
        "âĢĻs",
        -1.0
      ],
      [
        "Ġdiscuss",
        -1.0
      ],
      [
        "OU",
        -1.0
      ],
      [
        "Ġproperty",
        -1.0
      ],
      [
        "af",
        -1.0
      ],
      [
        "Ġmis",
        -1.0
      ],
      [
        "Ġexceed",
        -1.0
      ],
      [
        "ĠMark",
        -1.0
      ],
      [
        "gal",
        -1.0
      ],
      [
        "Ġvery",
        -1.0
      ],
      [
        "Ġwant",
        -1.0
      ],
      [
        "Ġhi",
        -1.0
      ],
      [
        "ë",
        -1.0
      ],
      [
        "Ġflexible",
        -1.0
      ],
      [
        "ĠGlobal",
        -1.0
      ],
      [
        "Ġea",
        -1.0
      ],
      [
        "Ġsub",
        -1.0
      ],
      [
        "ship",
        -1.0
      ],
      [
        "Ġcake",
        -1.0
      ],
      [
        "Ġestimated",
        -1.0
      ],
      [
        "ĠMary",
        -1.0
      ],
      [
        "Ġwisdom",
        -1.0
      ],
      [
        "Ġsomewhat",
        -1.0
      ],
      [
        "Ġinvolving",
        -1.0
      ],
      [
        "ĠThey",
        -1.0
      ],
      [
        "44",
        -1.0
      ],
      [
        "ĠBul",
        -1.0
      ],
      [
        "Ġeat",
        -1.0
      ],
      [
        "Ġmicro",
        -1.0
      ],
      [
        "Ġwithout",
        -1.0
      ],
      [
        "hy",
        -1.0
      ],
      [
        "active",
        -1.0
      ],
      [
        "Ġwrote",
        -1.0
      ],
      [
        "Ġphotos",
        -1.0
      ],
      [
        "CU",
        -1.0
      ],
      [
        "Ĥ",
        -1.0
      ],
      [
        "Ġcurrent",
        -1.0
      ],
      [
        "ad",
        -1.0
      ],
      [
        "ĠPe",
        -1.0
      ],
      [
        "plant",
        -1.0
      ],
      [
        "Ġwiring",
        -1.0
      ],
      [
        "Ġgenetic",
        -1.0
      ],
      [
        "Ġdrinks",
        -1.0
      ],
      [
        "TM",
        -1.0
      ],
      [
        "Ġmaterials",
        -1.0
      ],
      [
        "Ġrecording",
        -1.0
      ],
      [
        "Ġvariety",
        -1.0
      ],
      [
        "Ġexamine",
        -1.0
      ],
      [
        "alk",
        -1.0
      ],
      [
        "Ġplanet",
        -1.0
      ],
      [
        "ĠMore",
        -1.0
      ],
      [
        "Ġattitude",
        -1.0
      ],
      [
        "road",
        -1.0
      ],
      [
        "Ġmammals",
        -1.0
      ],
      [
        "Ġgenuine",
        -1.0
      ],
      [
        "Ġfirm",
        -1.0
      ],
      [
        "gers",
        -1.0
      ],
      [
        "Ġpoison",
        -1.0
      ],
      [
        "Ġfeature",
        -1.0
      ],
      [
        "Ġmulch",
        -1.0
      ],
      [
        "Ġsurvive",
        -1.0
      ],
      [
        "Ġrapidly",
        -1.0
      ],
      [
        "Ġin",
        -1.0
      ],
      [
        "ves",
        -1.0
      ],
      [
        "Ġattract",
        -1.0
      ],
      [
        "Similar",
        -1.0
      ],
      [
        "ĠFamily",
        -1.0
      ],
      [
        "Ġantenna",
        -1.0
      ],
      [
        "ĠThrough",
        -1.0
      ],
      [
        "Ġloose",
        -1.0
      ],
      [
        "Ġquickly",
        -1.0
      ],
      [
        "ĠAp",
        -1.0
      ],
      [
        "range",
        -1.0
      ],
      [
        "Ġdynamic",
        -1.0
      ],
      [
        "ml",
        -1.0
      ],
      [
        "Ġexercise",
        -1.0
      ],
      [
        "re",
        -1.0
      ],
      [
        "ĠCre",
        -1.0
      ],
      [
        "Ġsafety",
        -1.0
      ],
      [
        "Ġspeed",
        -1.0
      ],
      [
        "Ġcaught",
        -1.0
      ],
      [
        "ically",
        -1.0
      ],
      [
        "ĠChallenge",
        -1.0
      ],
      [
        "Ġbicycle",
        -1.0
      ],
      [
        "ĠP",
        -1.0
      ],
      [
        "Ġapproved",
        -1.0
      ],
      [
        "Ġgreen",
        -1.0
      ],
      [
        "On",
        -1.0
      ],
      [
        "@",
        -1.0
      ],
      [
        "Ġloss",
        -1.0
      ],
      [
        "thi",
        -1.0
      ],
      [
        "ored",
        -1.0
      ],
      [
        "hood",
        -1.0
      ],
      [
        "Ġsmoke",
        -1.0
      ],
      [
        "Un",
        -1.0
      ],
      [
        "Ġfast",
        -1.0
      ],
      [
        "ĠWhite",
        -1.0
      ],
      [
        "Ġcomponent",
        -1.0
      ],
      [
        "igh",
        -1.0
      ],
      [
        "ĠHigh",
        -1.0
      ],
      [
        "Ā",
        -1.0
      ],
      [
        "ą",
        -1.0
      ],
      [
        "00",
        -1.0
      ],
      [
        "mar",
        -1.0
      ],
      [
        "Ġcontract",
        -1.0
      ],
      [
        "eds",
        -1.0
      ],
      [
        "Ġwhose",
        -1.0
      ],
      [
        "ĠSeptember",
        -1.0
      ],
      [
        "Ġconflict",
        -1.0
      ],
      [
        "iness",
        -1.0
      ],
      [
        "Ġneutr",
        -1.0
      ],
      [
        "Ġpale",
        -1.0
      ],
      [
        "Ġtoxic",
        -1.0
      ],
      [
        "Ġremoving",
        -1.0
      ],
      [
        "uh",
        -1.0
      ],
      [
        "Ġanimals",
        -1.0
      ],
      [
        "Ġcle",
        -1.0
      ],
      [
        "atory",
        -1.0
      ],
      [
        "Ġintricate",
        -1.0
      ],
      [
        "Ġcourses",
        -1.0
      ],
      [
        "Ġdimension",
        -1.0
      ],
      [
        "Ġad",
        -1.0
      ],
      [
        "Ġperceive",
        -1.0
      ],
      [
        "ES",
        -1.0
      ],
      [
        "agon",
        -1.0
      ],
      [
        "$",
        -1.0
      ],
      [
        "oy",
        -1.0
      ],
      [
        "Ġorbit",
        -1.0
      ],
      [
        "ĠStar",
        -1.0
      ],
      [
        "Ġavailable",
        -1.0
      ],
      [
        "Op",
        -1.0
      ],
      [
        "Ġte",
        -1.0
      ],
      [
        "Ġskills",
        -1.0
      ],
      [
        "Ġmed",
        -1.0
      ],
      [
        "Ġbark",
        -1.0
      ],
      [
        "Am",
        -1.0
      ],
      [
        "Ġair",
        -1.0
      ],
      [
        "Ġwhilst",
        -1.0
      ],
      [
        "Ġneedle",
        -1.0
      ],
      [
        "Ġgri",
        -1.0
      ],
      [
        "Ġabove",
        -1.0
      ],
      [
        "Ġengaged",
        -1.0
      ],
      [
        "Ġemployed",
        -1.0
      ],
      [
        "Ġproject",
        -1.0
      ],
      [
        "Ġanalyze",
        -1.0
      ],
      [
        "Ġflu",
        -1.0
      ],
      [
        "Ġmicrowave",
        -1.0
      ],
      [
        "Ġchanging",
        -1.0
      ],
      [
        "ĠPro",
        -1.0
      ],
      [
        "Ġexpressed",
        -1.0
      ],
      [
        "kee",
        -1.0
      ],
      [
        "wers",
        -1.0
      ],
      [
        "sha",
        -1.0
      ],
      [
        "ĠLife",
        -1.0
      ],
      [
        "round",
        -1.0
      ],
      [
        "Ġformat",
        -1.0
      ],
      [
        "Ġpeace",
        -1.0
      ],
      [
        "Ġlubric",
        -1.0
      ],
      [
        "erts",
        -1.0
      ],
      [
        "ĠNot",
        -1.0
      ],
      [
        "Ġmoved",
        -1.0
      ],
      [
        "µ",
        -1.0
      ],
      [
        "Ġintense",
        -1.0
      ],
      [
        "RA",
        -1.0
      ],
      [
        "Ġcoating",
        -1.0
      ],
      [
        "mble",
        -1.0
      ],
      [
        "Ġshows",
        -1.0
      ],
      [
        "Ġchances",
        -1.0
      ],
      [
        "ĠHo",
        -1.0
      ],
      [
        "Ġz",
        -1.0
      ],
      [
        "ĠBar",
        -1.0
      ],
      [
        "Ġauthors",
        -1.0
      ],
      [
        "Du",
        -1.0
      ],
      [
        "ĠNote",
        -1.0
      ],
      [
        "ora",
        -1.0
      ],
      [
        "Ġwhales",
        -1.0
      ],
      [
        "Ġsampling",
        -1.0
      ],
      [
        "Ġattacks",
        -1.0
      ],
      [
        "oke",
        -1.0
      ],
      [
        "ular",
        -1.0
      ],
      [
        "Ġnative",
        -1.0
      ],
      [
        "Ġitem",
        -1.0
      ],
      [
        "Ġnearby",
        -1.0
      ],
      [
        "nz",
        -1.0
      ],
      [
        "Ġshow",
        -1.0
      ],
      [
        "Ġcooking",
        -1.0
      ],
      [
        "Ġfarmers",
        -1.0
      ],
      [
        "ĠFor",
        -1.0
      ],
      [
        "pho",
        -1.0
      ],
      [
        "Ġla",
        -1.0
      ],
      [
        "Ġfaculty",
        -1.0
      ],
      [
        "Ġthread",
        -1.0
      ],
      [
        "cs",
        -1.0
      ],
      [
        "Ġov",
        -1.0
      ],
      [
        "lis",
        -1.0
      ],
      [
        "Ġearly",
        -1.0
      ],
      [
        "Ġstage",
        -1.0
      ],
      [
        "Ġcitizen",
        -1.0
      ],
      [
        "pper",
        -1.0
      ],
      [
        "ĠYou",
        -1.0
      ],
      [
        "leep",
        -1.0
      ],
      [
        "Ġcompleted",
        -1.0
      ],
      [
        "ĠConsider",
        -1.0
      ],
      [
        "Ġcalculate",
        -1.0
      ],
      [
        "ĠChrist",
        -1.0
      ],
      [
        "Ġpel",
        -1.0
      ],
      [
        "Ġheat",
        -1.0
      ],
      [
        "new",
        -1.0
      ],
      [
        "ĠOx",
        -1.0
      ],
      [
        "ut",
        -1.0
      ],
      [
        "wed",
        -1.0
      ],
      [
        "Ġprone",
        -1.0
      ],
      [
        "39",
        -1.0
      ],
      [
        "ills",
        -1.0
      ],
      [
        "Ġtrying",
        -1.0
      ],
      [
        "tions",
        -1.0
      ],
      [
        "She",
        -1.0
      ],
      [
        "Ġelectrons",
        -1.0
      ],
      [
        "Ġseek",
        -1.0
      ],
      [
        "ver",
        -1.0
      ],
      [
        "Ġsynthetic",
        -1.0
      ],
      [
        "Ġeastern",
        -1.0
      ],
      [
        "Ġtwo",
        -1.0
      ],
      [
        "GB",
        -1.0
      ],
      [
        "Ġemissions",
        -1.0
      ],
      [
        "Ġsuc",
        -1.0
      ],
      [
        "ests",
        -1.0
      ],
      [
        "ĠRem",
        -1.0
      ],
      [
        "Ġmg",
        -1.0
      ],
      [
        "Ġmembers",
        -1.0
      ],
      [
        "ica",
        -1.0
      ],
      [
        "Ġcontinues",
        -1.0
      ],
      [
        "ĠSpa",
        -1.0
      ],
      [
        "Ġguy",
        -1.0
      ],
      [
        "-f",
        -1.0
      ],
      [
        "Ġrenowned",
        -1.0
      ],
      [
        "Ġbed",
        -1.0
      ],
      [
        "Ġnavigate",
        -1.0
      ],
      [
        "FA",
        -1.0
      ],
      [
        "Ġknown",
        -1.0
      ],
      [
        "Ġconcern",
        -1.0
      ],
      [
        "bs",
        -1.0
      ],
      [
        "ngu",
        -1.0
      ],
      [
        "01",
        -1.0
      ],
      [
        "Ġswimming",
        -1.0
      ],
      [
        "Ġstudent",
        -1.0
      ],
      [
        "Ġfla",
        -1.0
      ],
      [
        "ĠTrans",
        -1.0
      ],
      [
        "About",
        -1.0
      ],
      [
        "nu",
        -1.0
      ],
      [
        "Ġspring",
        -1.0
      ],
      [
        "ĠAC",
        -1.0
      ],
      [
        "ĠInter",
        -1.0
      ],
      [
        "Ġcouldn",
        -1.0
      ],
      [
        "ject",
        -1.0
      ],
      [
        "ĠEp",
        -1.0
      ],
      [
        "ĠSp",
        -1.0
      ],
      [
        "ience",
        -1.0
      ],
      [
        "Ġpurple",
        -1.0
      ],
      [
        "Ġceramic",
        -1.0
      ],
      [
        "ĠVideo",
        -1.0
      ],
      [
        "Ġincluding",
        -1.0
      ],
      [
        "Ġcap",
        -1.0
      ],
      [
        "Cs",
        -1.0
      ],
      [
        "Ġreview",
        -1.0
      ],
      [
        "Ġongoing",
        -1.0
      ],
      [
        "Ġresulting",
        -1.0
      ],
      [
        "ula",
        -1.0
      ],
      [
        "Ġtells",
        -1.0
      ],
      [
        "Ì",
        -1.0
      ],
      [
        "ief",
        -1.0
      ],
      [
        "Ġidentity",
        -1.0
      ],
      [
        "ĠM",
        -1.0
      ],
      [
        "ĠItalian",
        -1.0
      ],
      [
        "Dis",
        -1.0
      ],
      [
        "ĠWilliam",
        -1.0
      ],
      [
        "Ġinc",
        -1.0
      ],
      [
        "hs",
        -1.0
      ],
      [
        "Ġlack",
        -1.0
      ],
      [
        "Ġbehind",
        -1.0
      ],
      [
        "ĠWhether",
        -1.0
      ],
      [
        "ĠReg",
        -1.0
      ],
      [
        "Ġupon",
        -1.0
      ],
      [
        "Ġface",
        -1.0
      ],
      [
        "rove",
        -1.0
      ],
      [
        "Ġconstant",
        -1.0
      ],
      [
        "Ġall",
        -1.0
      ],
      [
        "just",
        -1.0
      ],
      [
        "Ġspi",
        -1.0
      ],
      [
        "Ġmultiple",
        -1.0
      ],
      [
        "Â®",
        -1.0
      ],
      [
        "<",
        -1.0
      ],
      [
        "ived",
        -1.0
      ],
      [
        "Ġduration",
        -1.0
      ],
      [
        "uge",
        -1.0
      ],
      [
        "Ġnovel",
        -1.0
      ],
      [
        "Ġvomiting",
        -1.0
      ],
      [
        "Ġwriting",
        -1.0
      ],
      [
        "Ġenjoy",
        -1.0
      ],
      [
        "Ġalong",
        -1.0
      ],
      [
        "Ġperson",
        -1.0
      ],
      [
        "sting",
        -1.0
      ],
      [
        "Ă",
        -1.0
      ],
      [
        "Ġdelivery",
        -1.0
      ],
      [
        "ments",
        -1.0
      ],
      [
        "lates",
        -1.0
      ],
      [
        "Since",
        -1.0
      ],
      [
        "Ġlistening",
        -1.0
      ],
      [
        "ĠVe",
        -1.0
      ],
      [
        "Ġsupports",
        -1.0
      ],
      [
        "Ġmaterial",
        -1.0
      ],
      [
        "ering",
        -1.0
      ],
      [
        "emo",
        -1.0
      ],
      [
        "Ġchemicals",
        -1.0
      ],
      [
        "ĠChr",
        -1.0
      ],
      [
        "Ġlunch",
        -1.0
      ],
      [
        "Ġreally",
        -1.0
      ],
      [
        "Ġdigestive",
        -1.0
      ],
      [
        "Ġhousing",
        -1.0
      ],
      [
        "Ġextreme",
        -1.0
      ],
      [
        "Ġwelfare",
        -1.0
      ],
      [
        "Ġgray",
        -1.0
      ],
      [
        "-gr",
        -1.0
      ],
      [
        "ao",
        -1.0
      ],
      [
        "Ġstrange",
        -1.0
      ],
      [
        "ĠIP",
        -1.0
      ],
      [
        "Research",
        -1.0
      ],
      [
        "Ġsurvival",
        -1.0
      ],
      [
        "Ġfan",
        -1.0
      ],
      [
        "Ġq",
        -1.0
      ],
      [
        "Ď",
        -1.0
      ],
      [
        "Ġmercury",
        -1.0
      ],
      [
        "ĠVal",
        -1.0
      ],
      [
        "Ġsea",
        -1.0
      ],
      [
        "Ġdrugs",
        -1.0
      ],
      [
        "Ġolive",
        -1.0
      ],
      [
        "Type",
        -1.0
      ],
      [
        "ĠNa",
        -1.0
      ],
      [
        "ĠMod",
        -1.0
      ],
      [
        "owers",
        -1.0
      ],
      [
        "ĠFlorida",
        -1.0
      ],
      [
        "Ġguess",
        -1.0
      ],
      [
        "Ġtypes",
        -1.0
      ],
      [
        "Ġsay",
        -1.0
      ],
      [
        "eed",
        -1.0
      ],
      [
        "ĠVietnam",
        -1.0
      ],
      [
        "Last",
        -1.0
      ],
      [
        "ator",
        -1.0
      ],
      [
        "Ġofficial",
        -1.0
      ],
      [
        "Ġman",
        -1.0
      ],
      [
        "ain",
        -1.0
      ],
      [
        "Ġfer",
        -1.0
      ],
      [
        "Ġmember",
        -1.0
      ],
      [
        "DI",
        -1.0
      ],
      [
        "ĠOne",
        -1.0
      ],
      [
        "ol",
        -1.0
      ],
      [
        "Ġthings",
        -1.0
      ],
      [
        "Ġdes",
        -1.0
      ],
      [
        "Ġevidence",
        -1.0
      ],
      [
        "tic",
        -1.0
      ],
      [
        "ĠHa",
        -1.0
      ],
      [
        "ĠSmith",
        -1.0
      ],
      [
        "Ġlooking",
        -1.0
      ],
      [
        "uty",
        -1.0
      ],
      [
        "Ġ,",
        -1.0
      ],
      [
        "Ġpi",
        -1.0
      ],
      [
        "17",
        -1.0
      ],
      [
        "ference",
        -1.0
      ],
      [
        "Ġrej",
        -1.0
      ],
      [
        "mi",
        -1.0
      ],
      [
        "ĠGreek",
        -1.0
      ],
      [
        "ĠTest",
        -1.0
      ],
      [
        "ĠBluetooth",
        -1.0
      ],
      [
        "Ġappeal",
        -1.0
      ],
      [
        "Ġindex",
        -1.0
      ],
      [
        "Ġbu",
        -1.0
      ],
      [
        "Ġpush",
        -1.0
      ],
      [
        "Ġfault",
        -1.0
      ],
      [
        "Ġlungs",
        -1.0
      ],
      [
        "Ġmodified",
        -1.0
      ],
      [
        "SP",
        -1.0
      ],
      [
        "54",
        -1.0
      ],
      [
        "Ġcapacity",
        -1.0
      ],
      [
        "Ġdrawn",
        -1.0
      ],
      [
        "ĠBuilding",
        -1.0
      ],
      [
        "Ġcream",
        -1.0
      ],
      [
        "Using",
        -1.0
      ],
      [
        "Ġdog",
        -1.0
      ],
      [
        "fore",
        -1.0
      ],
      [
        "ĠUni",
        -1.0
      ],
      [
        "Ġcovers",
        -1.0
      ],
      [
        "Ġreached",
        -1.0
      ],
      [
        "Ġtask",
        -1.0
      ],
      [
        "Ġheritage",
        -1.0
      ],
      [
        "Ġvariation",
        -1.0
      ],
      [
        "rence",
        -1.0
      ],
      [
        "Imagine",
        -1.0
      ],
      [
        "Ġessential",
        -1.0
      ],
      [
        "Ġtold",
        -1.0
      ],
      [
        "Ġpoultry",
        -1.0
      ],
      [
        "from",
        -1.0
      ],
      [
        "ky",
        -1.0
      ],
      [
        "Ġexamples",
        -1.0
      ],
      [
        "hite",
        -1.0
      ],
      [
        "AD",
        -1.0
      ],
      [
        "ĠSy",
        -1.0
      ],
      [
        "ĠMus",
        -1.0
      ],
      [
        "ĠCons",
        -1.0
      ],
      [
        "ĠEss",
        -1.0
      ],
      [
        "gg",
        -1.0
      ],
      [
        "Ġpizza",
        -1.0
      ],
      [
        "Ġmatrix",
        -1.0
      ],
      [
        "ĠEuropean",
        -1.0
      ],
      [
        "ats",
        -1.0
      ],
      [
        "tters",
        -1.0
      ],
      [
        "Ġsports",
        -1.0
      ],
      [
        "Ġnotes",
        -1.0
      ],
      [
        "Ġbal",
        -1.0
      ],
      [
        "Ġact",
        -1.0
      ],
      [
        "ies",
        -1.0
      ],
      [
        "ery",
        -1.0
      ],
      [
        "Ġminutes",
        -1.0
      ],
      [
        "Ġreceiving",
        -1.0
      ],
      [
        "Ġrobust",
        -1.0
      ],
      [
        "Ġwound",
        -1.0
      ],
      [
        "wan",
        -1.0
      ],
      [
        "Ġconv",
        -1.0
      ],
      [
        "tle",
        -1.0
      ],
      [
        "Ġdoes",
        -1.0
      ],
      [
        "ĠEn",
        -1.0
      ],
      [
        "Ġoverall",
        -1.0
      ],
      [
        "Ġatoms",
        -1.0
      ],
      [
        "ann",
        -1.0
      ],
      [
        "ris",
        -1.0
      ],
      [
        "Ġphysical",
        -1.0
      ],
      [
        "Ġfingers",
        -1.0
      ],
      [
        "Ġdrought",
        -1.0
      ],
      [
        "generation",
        -1.0
      ],
      [
        "Ġvast",
        -1.0
      ],
      [
        "Ġrepeat",
        -1.0
      ],
      [
        "airs",
        -1.0
      ],
      [
        "ĠR",
        -1.0
      ],
      [
        "itch",
        -1.0
      ],
      [
        "Ġdone",
        -1.0
      ],
      [
        "Ġcru",
        -1.0
      ],
      [
        "Ġdeb",
        -1.0
      ],
      [
        "Ġprocessed",
        -1.0
      ],
      [
        "lear",
        -1.0
      ],
      [
        "ĠTheir",
        -1.0
      ],
      [
        "'.",
        -1.0
      ],
      [
        "olf",
        -1.0
      ],
      [
        "connect",
        -1.0
      ],
      [
        "Ġhomes",
        -1.0
      ],
      [
        "Ġva",
        -1.0
      ],
      [
        "uli",
        -1.0
      ],
      [
        "Ġthinking",
        -1.0
      ],
      [
        "RP",
        -1.0
      ],
      [
        "Ġcyto",
        -1.0
      ],
      [
        "Ġtrail",
        -1.0
      ],
      [
        "Ġfurniture",
        -1.0
      ],
      [
        "ĠWisconsin",
        -1.0
      ],
      [
        "90",
        -1.0
      ],
      [
        "Ħ",
        -1.0
      ],
      [
        "Ġsol",
        -1.0
      ],
      [
        "Ġwarm",
        -1.0
      ],
      [
        "exa",
        -1.0
      ],
      [
        "Ġart",
        -1.0
      ],
      [
        "mod",
        -1.0
      ],
      [
        "Ġdrawing",
        -1.0
      ],
      [
        "ĠWork",
        -1.0
      ],
      [
        "aph",
        -1.0
      ],
      [
        "Ġtax",
        -1.0
      ],
      [
        "uel",
        -1.0
      ],
      [
        "Ġjoint",
        -1.0
      ],
      [
        "Ġyoung",
        -1.0
      ],
      [
        "Ġtrend",
        -1.0
      ],
      [
        "Ġteeth",
        -1.0
      ],
      [
        "Ġincome",
        -1.0
      ],
      [
        "So",
        -1.0
      ],
      [
        "cess",
        -1.0
      ],
      [
        "Ġimagine",
        -1.0
      ],
      [
        "Ġprint",
        -1.0
      ],
      [
        "Ġasked",
        -1.0
      ],
      [
        "Ġ%",
        -1.0
      ],
      [
        "Ġleft",
        -1.0
      ],
      [
        "Ġmentioned",
        -1.0
      ],
      [
        "Ġbatteries",
        -1.0
      ],
      [
        "ĠAT",
        -1.0
      ],
      [
        "Ġmill",
        -1.0
      ],
      [
        "Ġowner",
        -1.0
      ],
      [
        "Ġvolunteer",
        -1.0
      ],
      [
        "Ġputting",
        -1.0
      ],
      [
        "Ġju",
        -1.0
      ],
      [
        "hr",
        -1.0
      ],
      [
        "Ġmolecular",
        -1.0
      ],
      [
        "-time",
        -1.0
      ],
      [
        "iss",
        -1.0
      ],
      [
        "etal",
        -1.0
      ],
      [
        "Ġenzyme",
        -1.0
      ],
      [
        "ĠWord",
        -1.0
      ],
      [
        "ĠTe",
        -1.0
      ],
      [
        "47",
        -1.0
      ],
      [
        "zy",
        -1.0
      ],
      [
        "like",
        -1.0
      ],
      [
        "Ġrestrict",
        -1.0
      ],
      [
        "Ġmade",
        -1.0
      ],
      [
        "Ġbrown",
        -1.0
      ],
      [
        "Ġpair",
        -1.0
      ],
      [
        "ĠEv",
        -1.0
      ],
      [
        "ĠWil",
        -1.0
      ],
      [
        "way",
        -1.0
      ],
      [
        "Ġplanting",
        -1.0
      ],
      [
        "Ġdaily",
        -1.0
      ],
      [
        "Ġsoftware",
        -1.0
      ],
      [
        "Ġcord",
        -1.0
      ],
      [
        "Please",
        -1.0
      ],
      [
        "Ġhigh",
        -1.0
      ],
      [
        "Ġreverse",
        -1.0
      ],
      [
        "TU",
        -1.0
      ],
      [
        "rth",
        -1.0
      ],
      [
        "Ġurine",
        -1.0
      ],
      [
        "Ġevaluate",
        -1.0
      ],
      [
        "Ġbill",
        -1.0
      ],
      [
        "ĠYear",
        -1.0
      ],
      [
        "Ġmenu",
        -1.0
      ],
      [
        "Ġdrive",
        -1.0
      ],
      [
        "Ġrecords",
        -1.0
      ],
      [
        "spe",
        -1.0
      ],
      [
        "Ġge",
        -1.0
      ],
      [
        "Ġcharacter",
        -1.0
      ],
      [
        "Ġion",
        -1.0
      ],
      [
        "wood",
        -1.0
      ],
      [
        "Ġent",
        -1.0
      ],
      [
        "ĠDon",
        -1.0
      ],
      [
        "Ġprimarily",
        -1.0
      ],
      [
        "coming",
        -1.0
      ],
      [
        "ĠCri",
        -1.0
      ],
      [
        "Ġrod",
        -1.0
      ],
      [
        "Ġtele",
        -1.0
      ],
      [
        "cus",
        -1.0
      ],
      [
        "ĠHawaii",
        -1.0
      ],
      [
        "Ġfinds",
        -1.0
      ],
      [
        "ech",
        -1.0
      ],
      [
        "itis",
        -1.0
      ],
      [
        "et",
        -1.0
      ],
      [
        "Ġroughly",
        -1.0
      ],
      [
        "Ġder",
        -1.0
      ],
      [
        "Ġaquarium",
        -1.0
      ],
      [
        "ĠG",
        -1.0
      ],
      [
        "...ĊĊ",
        -1.0
      ],
      [
        "Ġturns",
        -1.0
      ],
      [
        "Ġsize",
        -1.0
      ],
      [
        "Ġinstead",
        -1.0
      ],
      [
        "tos",
        -1.0
      ],
      [
        "Ġbecome",
        -1.0
      ],
      [
        "Ġsector",
        -1.0
      ],
      [
        "Ġfilled",
        -1.0
      ],
      [
        "Ú",
        -1.0
      ],
      [
        "ĠLA",
        -1.0
      ],
      [
        "lings",
        -1.0
      ],
      [
        "Ġthin",
        -1.0
      ],
      [
        "ĠLake",
        -1.0
      ],
      [
        "ĠCalc",
        -1.0
      ],
      [
        "Ġtransfer",
        -1.0
      ],
      [
        "Ġband",
        -1.0
      ],
      [
        "Ġfigure",
        -1.0
      ],
      [
        "Ġmyself",
        -1.0
      ],
      [
        "Ġcli",
        -1.0
      ],
      [
        "j",
        -1.0
      ],
      [
        "ĠE",
        -1.0
      ],
      [
        "Ġcal",
        -1.0
      ],
      [
        "Ġhold",
        -1.0
      ],
      [
        "Ġbutter",
        -1.0
      ],
      [
        "Ġwidth",
        -1.0
      ],
      [
        "Ġmus",
        -1.0
      ],
      [
        "Ġdoesn",
        -1.0
      ],
      [
        "Ġwoman",
        -1.0
      ],
      [
        "±",
        -1.0
      ],
      [
        "Ġsuffer",
        -1.0
      ],
      [
        "Ġpublished",
        -1.0
      ],
      [
        "fs",
        -1.0
      ],
      [
        "it",
        -1.0
      ],
      [
        "ĠUp",
        -1.0
      ],
      [
        "rop",
        -1.0
      ],
      [
        "Ġcausing",
        -1.0
      ],
      [
        "pr",
        -1.0
      ],
      [
        "la",
        -1.0
      ],
      [
        "ĠCon",
        -1.0
      ],
      [
        "Ġoutbreak",
        -1.0
      ],
      [
        "Ġgirls",
        -1.0
      ],
      [
        "Ġbe",
        -1.0
      ],
      [
        "Ġep",
        -1.0
      ],
      [
        "gin",
        -1.0
      ],
      [
        "Ġfeed",
        -1.0
      ],
      [
        "ĠSpanish",
        -1.0
      ],
      [
        "mit",
        -1.0
      ],
      [
        "Ġever",
        -1.0
      ],
      [
        "sions",
        -1.0
      ],
      [
        "Step",
        -1.0
      ],
      [
        "Ġinvasive",
        -1.0
      ],
      [
        ",âĢĿ",
        -1.0
      ],
      [
        "sca",
        -1.0
      ],
      [
        "Ġappears",
        -1.0
      ],
      [
        "aking",
        -1.0
      ],
      [
        "Ġpolymer",
        -1.0
      ],
      [
        "Ġreduce",
        -1.0
      ],
      [
        "Ġuses",
        -1.0
      ],
      [
        "ĠWhy",
        -1.0
      ],
      [
        "Ġhair",
        -1.0
      ],
      [
        "lif",
        -1.0
      ],
      [
        "Ġthing",
        -1.0
      ],
      [
        "Ġturning",
        -1.0
      ],
      [
        "Ġtested",
        -1.0
      ],
      [
        "ful",
        -1.0
      ],
      [
        "ĠShould",
        -1.0
      ],
      [
        "Ġhimself",
        -1.0
      ],
      [
        "-ta",
        -1.0
      ],
      [
        "16",
        -1.0
      ],
      [
        "ili",
        -1.0
      ],
      [
        "Ġprocedure",
        -1.0
      ],
      [
        "tec",
        -1.0
      ],
      [
        "Th",
        -1.0
      ],
      [
        "ally",
        -1.0
      ],
      [
        "Ġchemistry",
        -1.0
      ],
      [
        "Ġdeliver",
        -1.0
      ],
      [
        "ER",
        -1.0
      ],
      [
        "ah",
        -1.0
      ],
      [
        "(s",
        -1.0
      ],
      [
        "cin",
        -1.0
      ],
      [
        "Ġtaste",
        -1.0
      ],
      [
        "Ġpl",
        -1.0
      ],
      [
        "ayer",
        -1.0
      ],
      [
        "Ġthe",
        -1.0
      ],
      [
        "Ġsell",
        -1.0
      ],
      [
        "ĠSS",
        -1.0
      ],
      [
        "Ġgenerate",
        -1.0
      ],
      [
        "Ġv",
        -1.0
      ],
      [
        ".,",
        -1.0
      ],
      [
        "we",
        -1.0
      ],
      [
        "nna",
        -1.0
      ],
      [
        "Ġdivision",
        -1.0
      ],
      [
        ".org",
        -1.0
      ],
      [
        "Ġplenty",
        -1.0
      ],
      [
        "/s",
        -1.0
      ],
      [
        "Ġallowed",
        -1.0
      ],
      [
        "Ġcircuit",
        -1.0
      ],
      [
        "fu",
        -1.0
      ],
      [
        "Symptoms",
        -1.0
      ],
      [
        "Ġprovided",
        -1.0
      ],
      [
        "Ġstarts",
        -1.0
      ],
      [
        ":Ċ",
        -1.0
      ],
      [
        "ttle",
        -1.0
      ],
      [
        "ade",
        -1.0
      ],
      [
        "Ġdelve",
        -1.0
      ],
      [
        "pl",
        -1.0
      ],
      [
        "CC",
        -1.0
      ],
      [
        "Ġrender",
        -1.0
      ],
      [
        "ĠTri",
        -1.0
      ],
      [
        "Ġevolution",
        -1.0
      ],
      [
        "Ġrandom",
        -1.0
      ],
      [
        "Ġexcessive",
        -1.0
      ],
      [
        "B",
        -1.0
      ],
      [
        "Ġfar",
        -1.0
      ],
      [
        "Ġeyes",
        -1.0
      ],
      [
        "ico",
        -1.0
      ],
      [
        "Ġconsists",
        -1.0
      ],
      [
        "Ġmaximum",
        -1.0
      ],
      [
        "ĠPen",
        -1.0
      ],
      [
        "ral",
        -1.0
      ],
      [
        "Al",
        -1.0
      ],
      [
        "Ġconfident",
        -1.0
      ],
      [
        "Ġcreates",
        -1.0
      ],
      [
        "Ġutilize",
        -1.0
      ],
      [
        "ass",
        -1.0
      ],
      [
        "ĠME",
        -1.0
      ],
      [
        "Ġx",
        -1.0
      ],
      [
        "cular",
        -1.0
      ],
      [
        "Ġreservoir",
        -1.0
      ],
      [
        "Ġdeath",
        -1.0
      ],
      [
        "ĠStu",
        -1.0
      ],
      [
        "Ġmanaged",
        -1.0
      ],
      [
        "Ġfriendly",
        -1.0
      ],
      [
        "ĠChinese",
        -1.0
      ],
      [
        "Ġpages",
        -1.0
      ],
      [
        "Ġco",
        -1.0
      ],
      [
        "iber",
        -1.0
      ],
      [
        "ĠClean",
        -1.0
      ],
      [
        "Ġkeep",
        -1.0
      ],
      [
        "Ġstainless",
        -1.0
      ],
      [
        "ie",
        -1.0
      ],
      [
        "mbo",
        -1.0
      ],
      [
        "pse",
        -1.0
      ],
      [
        "-re",
        -1.0
      ],
      [
        "Ė",
        -1.0
      ],
      [
        "ĠST",
        -1.0
      ],
      [
        "Ġsafe",
        -1.0
      ],
      [
        "Ġperiods",
        -1.0
      ],
      [
        "ston",
        -1.0
      ],
      [
        "Ġgre",
        -1.0
      ],
      [
        "cor",
        -1.0
      ],
      [
        "Ne",
        -1.0
      ],
      [
        "Ġaware",
        -1.0
      ],
      [
        "tig",
        -1.0
      ],
      [
        "Ġcount",
        -1.0
      ],
      [
        "Ġinclude",
        -1.0
      ],
      [
        "Ġlaws",
        -1.0
      ],
      [
        "ĠDisease",
        -1.0
      ],
      [
        "Ġbrought",
        -1.0
      ],
      [
        "gu",
        -1.0
      ],
      [
        "-step",
        -1.0
      ],
      [
        "ved",
        -1.0
      ],
      [
        "oj",
        -1.0
      ],
      [
        "Ġstar",
        -1.0
      ],
      [
        "Ġreal",
        -1.0
      ],
      [
        "Ġcar",
        -1.0
      ],
      [
        "Ġanti",
        -1.0
      ],
      [
        "Ġoutside",
        -1.0
      ],
      [
        "Ġraw",
        -1.0
      ],
      [
        "eff",
        -1.0
      ],
      [
        "Ġstudied",
        -1.0
      ],
      [
        "If",
        -1.0
      ],
      [
        "ize",
        -1.0
      ],
      [
        "ddle",
        -1.0
      ],
      [
        "ĠHand",
        -1.0
      ],
      [
        "Ġtrouble",
        -1.0
      ],
      [
        "ĠAf",
        -1.0
      ],
      [
        "ee",
        -1.0
      ],
      [
        "Ġcoming",
        -1.0
      ],
      [
        "Ġunwanted",
        -1.0
      ],
      [
        "ă",
        -1.0
      ],
      [
        "sp",
        -1.0
      ],
      [
        "esh",
        -1.0
      ],
      [
        "Ġworking",
        -1.0
      ],
      [
        "Ġinspired",
        -1.0
      ],
      [
        "Ġvarieties",
        -1.0
      ],
      [
        "Ġentirely",
        -1.0
      ],
      [
        "ĠMaterials",
        -1.0
      ],
      [
        "Ġru",
        -1.0
      ],
      [
        "Ġshed",
        -1.0
      ],
      [
        "-di",
        -1.0
      ],
      [
        "Ġspr",
        -1.0
      ],
      [
        "ĠGP",
        -1.0
      ],
      [
        "oom",
        -1.0
      ],
      [
        "Ġfarms",
        -1.0
      ],
      [
        "Ġgrand",
        -1.0
      ],
      [
        "ied",
        -1.0
      ],
      [
        "nti",
        -1.0
      ],
      [
        "Ġex",
        -1.0
      ],
      [
        "Ġalign",
        -1.0
      ],
      [
        "ĠFIG",
        -1.0
      ],
      [
        "Ġmarkets",
        -1.0
      ],
      [
        "Ġvertical",
        -1.0
      ],
      [
        "Ġwarmer",
        -1.0
      ],
      [
        "nks",
        -1.0
      ],
      [
        "Hel",
        -1.0
      ],
      [
        "Ġconfirmed",
        -1.0
      ],
      [
        "nning",
        -1.0
      ],
      [
        "Ġbulk",
        -1.0
      ],
      [
        "Ġspiritual",
        -1.0
      ],
      [
        "ack",
        -1.0
      ],
      [
        "Ġrepairs",
        -1.0
      ],
      [
        "Ġgemstone",
        -1.0
      ],
      [
        "Ġgenes",
        -1.0
      ],
      [
        "Ġslightly",
        -1.0
      ],
      [
        "Ġcomm",
        -1.0
      ],
      [
        "Ġcharged",
        -1.0
      ],
      [
        "Ġdepends",
        -1.0
      ],
      [
        "Ġquantity",
        -1.0
      ],
      [
        "Phys",
        -1.0
      ],
      [
        "Ġshi",
        -1.0
      ],
      [
        "ry",
        -1.0
      ],
      [
        "abo",
        -1.0
      ],
      [
        "Ġscreen",
        -1.0
      ],
      [
        "Ġintegrity",
        -1.0
      ],
      [
        "ĠSm",
        -1.0
      ],
      [
        "ĠSolutions",
        -1.0
      ],
      [
        "Ġcaffeine",
        -1.0
      ],
      [
        "Ġindicates",
        -1.0
      ],
      [
        "ĠGen",
        -1.0
      ],
      [
        ",Ċ",
        -1.0
      ],
      [
        "Ġacting",
        -1.0
      ],
      [
        "Ġst",
        -1.0
      ],
      [
        "Ġmix",
        -1.0
      ],
      [
        "Ġsuffering",
        -1.0
      ],
      [
        "Ġgrade",
        -1.0
      ],
      [
        "oi",
        -1.0
      ],
      [
        "ĠForm",
        -1.0
      ],
      [
        "Ġtool",
        -1.0
      ],
      [
        "Ġacids",
        -1.0
      ],
      [
        "-the",
        -1.0
      ],
      [
        "Ġcircle",
        -1.0
      ],
      [
        "Ġevening",
        -1.0
      ],
      [
        "ē",
        -1.0
      ],
      [
        "Ġdedicated",
        -1.0
      ],
      [
        "ĠDIY",
        -1.0
      ],
      [
        "stone",
        -1.0
      ],
      [
        "Ġplate",
        -1.0
      ],
      [
        "Ġthus",
        -1.0
      ],
      [
        "Ġmature",
        -1.0
      ],
      [
        "Ġoral",
        -1.0
      ],
      [
        "Ġstrongly",
        -1.0
      ],
      [
        "Î",
        -1.0
      ],
      [
        "Ġcloser",
        -1.0
      ],
      [
        "49",
        -1.0
      ],
      [
        "Ġinf",
        -1.0
      ],
      [
        "Ġscar",
        -1.0
      ],
      [
        "th",
        -1.0
      ],
      [
        "Like",
        -1.0
      ],
      [
        "MM",
        -1.0
      ],
      [
        "ero",
        -1.0
      ],
      [
        "Ġdish",
        -1.0
      ],
      [
        "Ġto",
        -1.0
      ],
      [
        "Ġshift",
        -1.0
      ],
      [
        "Ġallows",
        -1.0
      ],
      [
        "Bi",
        -1.0
      ],
      [
        "state",
        -1.0
      ],
      [
        "Ġswi",
        -1.0
      ],
      [
        "ave",
        -1.0
      ],
      [
        "Ġgiving",
        -1.0
      ],
      [
        "rist",
        -1.0
      ],
      [
        "Ġclothing",
        -1.0
      ],
      [
        "burg",
        -1.0
      ],
      [
        "rot",
        -1.0
      ],
      [
        "Ġcompared",
        -1.0
      ],
      [
        "Ġsh",
        -1.0
      ],
      [
        "TO",
        -1.0
      ],
      [
        "Ġwrong",
        -1.0
      ],
      [
        "orn",
        -1.0
      ],
      [
        "ĠBay",
        -1.0
      ],
      [
        "Ġalongside",
        -1.0
      ],
      [
        "-level",
        -1.0
      ],
      [
        "Ġkit",
        -1.0
      ],
      [
        "Ġpoverty",
        -1.0
      ],
      [
        "Ġscript",
        -1.0
      ],
      [
        "ĠDNA",
        -1.0
      ],
      [
        "ĠRed",
        -1.0
      ],
      [
        "ren",
        -1.0
      ],
      [
        "Ġmask",
        -1.0
      ],
      [
        "ict",
        -1.0
      ],
      [
        "und",
        -1.0
      ],
      [
        "ĠRegular",
        -1.0
      ],
      [
        "ean",
        -1.0
      ],
      [
        "Ġmark",
        -1.0
      ],
      [
        "Ġdementia",
        -1.0
      ],
      [
        "oids",
        -1.0
      ],
      [
        "Ġinsect",
        -1.0
      ],
      [
        "Ġroles",
        -1.0
      ],
      [
        "Ġsexual",
        -1.0
      ],
      [
        "phi",
        -1.0
      ],
      [
        "ĠUN",
        -1.0
      ],
      [
        "ani",
        -1.0
      ],
      [
        "Ġlocal",
        -1.0
      ],
      [
        "Ġmaking",
        -1.0
      ],
      [
        "ope",
        -1.0
      ],
      [
        "Ġlabor",
        -1.0
      ],
      [
        "Ġsignals",
        -1.0
      ],
      [
        "Ġlifespan",
        -1.0
      ],
      [
        "Ġdesigners",
        -1.0
      ],
      [
        "EN",
        -1.0
      ],
      [
        "Ġposition",
        -1.0
      ],
      [
        "Ġbigger",
        -1.0
      ],
      [
        "Ġinvolved",
        -1.0
      ],
      [
        "Ġprogress",
        -1.0
      ],
      [
        "Ġbad",
        -1.0
      ],
      [
        "ĠOb",
        -1.0
      ],
      [
        "Ġann",
        -1.0
      ],
      [
        "unch",
        -1.0
      ],
      [
        "Ġreduced",
        -1.0
      ],
      [
        "Ġfight",
        -1.0
      ],
      [
        "Ġsulf",
        -1.0
      ],
      [
        "Ġpassenger",
        -1.0
      ],
      [
        "inal",
        -1.0
      ],
      [
        "¹",
        -1.0
      ],
      [
        "ĠII",
        -1.0
      ],
      [
        "Ġpick",
        -1.0
      ],
      [
        "Ġouter",
        -1.0
      ],
      [
        "Ġstuff",
        -1.0
      ],
      [
        "oni",
        -1.0
      ],
      [
        "-L",
        -1.0
      ],
      [
        "Ġham",
        -1.0
      ],
      [
        "ok",
        -1.0
      ],
      [
        "ĠTogether",
        -1.0
      ],
      [
        "40",
        -1.0
      ],
      [
        "yn",
        -1.0
      ],
      [
        "Ġtiming",
        -1.0
      ],
      [
        "OW",
        -1.0
      ],
      [
        "76",
        -1.0
      ],
      [
        "via",
        -1.0
      ],
      [
        "đ",
        -1.0
      ],
      [
        "Ġdiv",
        -1.0
      ],
      [
        "Ġj",
        -1.0
      ],
      [
        "?Ċ",
        -1.0
      ],
      [
        "³",
        -1.0
      ],
      [
        "Pl",
        -1.0
      ],
      [
        "Ġreligion",
        -1.0
      ],
      [
        "nding",
        -1.0
      ],
      [
        "88",
        -1.0
      ],
      [
        "Ġcarrying",
        -1.0
      ],
      [
        "ã",
        -1.0
      ],
      [
        "ised",
        -1.0
      ],
      [
        "Ġstems",
        -1.0
      ],
      [
        "OD",
        -1.0
      ],
      [
        "ĠScotland",
        -1.0
      ],
      [
        "Ġarise",
        -1.0
      ],
      [
        "ĠCR",
        -1.0
      ],
      [
        ";Ċ",
        -1.0
      ],
      [
        "Ġtrue",
        -1.0
      ],
      [
        "ĠFA",
        -1.0
      ],
      [
        "Ġbelow",
        -1.0
      ],
      [
        "Ġgovern",
        -1.0
      ],
      [
        "Ġcombat",
        -1.0
      ],
      [
        "ength",
        -1.0
      ],
      [
        "Ġplus",
        -1.0
      ],
      [
        "ĠWith",
        -1.0
      ],
      [
        "ĠGreen",
        -1.0
      ],
      [
        "eg",
        -1.0
      ],
      [
        "Ġsales",
        -1.0
      ],
      [
        "Ġinfo",
        -1.0
      ],
      [
        "ĠHy",
        -1.0
      ],
      [
        "ls",
        -1.0
      ],
      [
        "Ġions",
        -1.0
      ],
      [
        "ĠJust",
        -1.0
      ],
      [
        "Ġphysics",
        -1.0
      ],
      [
        "cha",
        -1.0
      ],
      [
        "Ġfunctions",
        -1.0
      ],
      [
        "ond",
        -1.0
      ],
      [
        "Ġfoam",
        -1.0
      ],
      [
        "tum",
        -1.0
      ],
      [
        "say",
        -1.0
      ],
      [
        "-v",
        -1.0
      ],
      [
        "eet",
        -1.0
      ],
      [
        "Ġweeds",
        -1.0
      ],
      [
        "ĠOregon",
        -1.0
      ],
      [
        "Ġargument",
        -1.0
      ],
      [
        "Ġproposal",
        -1.0
      ],
      [
        "Ġcollected",
        -1.0
      ],
      [
        "Ġhol",
        -1.0
      ],
      [
        "ged",
        -1.0
      ],
      [
        "Ġdates",
        -1.0
      ],
      [
        "os",
        -1.0
      ],
      [
        "Ap",
        -1.0
      ],
      [
        "Ġax",
        -1.0
      ],
      [
        "Ġsand",
        -1.0
      ],
      [
        "Ġshowcase",
        -1.0
      ],
      [
        "Ġwheel",
        -1.0
      ],
      [
        "mark",
        -1.0
      ],
      [
        "Ġcrowd",
        -1.0
      ],
      [
        "Ġattribute",
        -1.0
      ],
      [
        "Ġpaper",
        -1.0
      ],
      [
        "ate",
        -1.0
      ],
      [
        "Ġopen",
        -1.0
      ],
      [
        "-wa",
        -1.0
      ],
      [
        "Ġfunction",
        -1.0
      ],
      [
        "Ġabs",
        -1.0
      ],
      [
        "lers",
        -1.0
      ],
      [
        "Ġguidance",
        -1.0
      ],
      [
        "int",
        -1.0
      ],
      [
        "Ġplug",
        -1.0
      ],
      [
        "OR",
        -1.0
      ],
      [
        "Ġreceptor",
        -1.0
      ],
      [
        "Ġattack",
        -1.0
      ],
      [
        "Ġriver",
        -1.0
      ],
      [
        "rty",
        -1.0
      ],
      [
        "ban",
        -1.0
      ],
      [
        "Ġmiss",
        -1.0
      ],
      [
        "Ġautumn",
        -1.0
      ],
      [
        "Ġmeasure",
        -1.0
      ],
      [
        "Ġfootball",
        -1.0
      ],
      [
        "Ġsoon",
        -1.0
      ],
      [
        "Ġliterally",
        -1.0
      ],
      [
        "68",
        -1.0
      ],
      [
        "ĠBio",
        -1.0
      ],
      [
        "LY",
        -1.0
      ],
      [
        "ines",
        -1.0
      ],
      [
        "Ġbrush",
        -1.0
      ],
      [
        "Ġtopic",
        -1.0
      ],
      [
        "Ġcourt",
        -1.0
      ],
      [
        "ove",
        -1.0
      ],
      [
        "dor",
        -1.0
      ],
      [
        "Ġsediment",
        -1.0
      ],
      [
        "ola",
        -1.0
      ],
      [
        "Ġopened",
        -1.0
      ],
      [
        "Ba",
        -1.0
      ],
      [
        "ĠBefore",
        -1.0
      ],
      [
        "Ġstudies",
        -1.0
      ],
      [
        "GA",
        -1.0
      ],
      [
        "Ġyouth",
        -1.0
      ],
      [
        "Ġproperly",
        -1.0
      ],
      [
        "Typ",
        -1.0
      ],
      [
        "irs",
        -1.0
      ],
      [
        "Ġmammal",
        -1.0
      ],
      [
        "Ġowners",
        -1.0
      ],
      [
        "Ġunder",
        -1.0
      ],
      [
        "Ġevolved",
        -1.0
      ],
      [
        "Ġserious",
        -1.0
      ],
      [
        "Ġdrying",
        -1.0
      ],
      [
        "Ġback",
        -1.0
      ],
      [
        "port",
        -1.0
      ],
      [
        "Ġmatch",
        -1.0
      ],
      [
        "mmer",
        -1.0
      ],
      [
        "35",
        -1.0
      ],
      [
        "?ĊĊ",
        -1.0
      ],
      [
        "wo",
        -1.0
      ],
      [
        "ina",
        -1.0
      ],
      [
        "Ġheavy",
        -1.0
      ],
      [
        "oons",
        -1.0
      ],
      [
        "+",
        -1.0
      ],
      [
        "Ġoutdoor",
        -1.0
      ],
      [
        "Ġbird",
        -1.0
      ],
      [
        "Before",
        -1.0
      ],
      [
        "âĢ¦ĊĊ",
        -1.0
      ],
      [
        "rif",
        -1.0
      ],
      [
        "us",
        -1.0
      ],
      [
        "Ġsink",
        -1.0
      ],
      [
        "com",
        -1.0
      ],
      [
        "ff",
        -1.0
      ],
      [
        "ification",
        -1.0
      ],
      [
        "Ġgenus",
        -1.0
      ],
      [
        "Ġpop",
        -1.0
      ],
      [
        "Ġpositive",
        -1.0
      ],
      [
        "Ö",
        -1.0
      ],
      [
        "lum",
        -1.0
      ],
      [
        "king",
        -1.0
      ],
      [
        "Ġminor",
        -1.0
      ],
      [
        "Ġmostly",
        -1.0
      ],
      [
        "Ġgender",
        -1.0
      ],
      [
        "wa",
        -1.0
      ],
      [
        "Ġhung",
        -1.0
      ],
      [
        "ef",
        -1.0
      ],
      [
        "Ġbread",
        -1.0
      ],
      [
        "Ġrobots",
        -1.0
      ],
      [
        "ities",
        -1.0
      ],
      [
        "Ġtobacco",
        -1.0
      ],
      [
        "ĠSometimes",
        -1.0
      ],
      [
        "itive",
        -1.0
      ],
      [
        "Ġcarbon",
        -1.0
      ],
      [
        "ess",
        -1.0
      ],
      [
        "Ġdeploy",
        -1.0
      ],
      [
        "is",
        -1.0
      ],
      [
        "Ġtry",
        -1.0
      ],
      [
        "Ġjo",
        -1.0
      ],
      [
        "Ġlength",
        -1.0
      ],
      [
        "ants",
        -1.0
      ],
      [
        "ĠWal",
        -1.0
      ],
      [
        "ances",
        -1.0
      ],
      [
        "Ġhormones",
        -1.0
      ],
      [
        "-c",
        -1.0
      ],
      [
        "Ġh",
        -1.0
      ],
      [
        "ĠEgypt",
        -1.0
      ],
      [
        "ĠEducation",
        -1.0
      ],
      [
        "Because",
        -1.0
      ],
      [
        "-b",
        -1.0
      ],
      [
        "Ġdiversity",
        -1.0
      ],
      [
        "cr",
        -1.0
      ],
      [
        "opla",
        -1.0
      ],
      [
        "ĠApple",
        -1.0
      ],
      [
        "Ġgeo",
        -1.0
      ],
      [
        "\":\"",
        -1.0
      ],
      [
        ".D",
        -1.0
      ],
      [
        "ocks",
        -1.0
      ],
      [
        "Ġdrops",
        -1.0
      ],
      [
        "ĠHol",
        -1.0
      ],
      [
        "ĠHospital",
        -1.0
      ],
      [
        "Ġlake",
        -1.0
      ],
      [
        "Ġvoice",
        -1.0
      ],
      [
        "Ġdrop",
        -1.0
      ],
      [
        "ĠAsia",
        -1.0
      ],
      [
        "Ġobtain",
        -1.0
      ],
      [
        "Ġstation",
        -1.0
      ],
      [
        "Ġcra",
        -1.0
      ],
      [
        "Ġleads",
        -1.0
      ],
      [
        "ĠEast",
        -1.0
      ],
      [
        "ĠHu",
        -1.0
      ],
      [
        "Ġcalorie",
        -1.0
      ],
      [
        "nus",
        -1.0
      ],
      [
        "Ġstrong",
        -1.0
      ],
      [
        "-old",
        -1.0
      ],
      [
        "ming",
        -1.0
      ],
      [
        "Ġshock",
        -1.0
      ],
      [
        "Ġvideos",
        -1.0
      ],
      [
        "Ġachieve",
        -1.0
      ],
      [
        "Ġinterview",
        -1.0
      ],
      [
        "yc",
        -1.0
      ],
      [
        "ĠRel",
        -1.0
      ],
      [
        "Ġlaundry",
        -1.0
      ],
      [
        "Ġdetermine",
        -1.0
      ],
      [
        "tage",
        -1.0
      ],
      [
        "Ġstr",
        -1.0
      ],
      [
        "bus",
        -1.0
      ],
      [
        "Ġsides",
        -1.0
      ],
      [
        "Ġkidney",
        -1.0
      ],
      [
        "#",
        -1.0
      ],
      [
        "Ġpack",
        -1.0
      ],
      [
        "Ġnot",
        -1.0
      ],
      [
        "Ġutility",
        -1.0
      ],
      [
        ":",
        -1.0
      ],
      [
        "mia",
        -1.0
      ],
      [
        "ndr",
        -1.0
      ],
      [
        "Ġheavier",
        -1.0
      ],
      [
        "-te",
        -1.0
      ],
      [
        "Ġdiabetic",
        -1.0
      ],
      [
        "Ġplumbing",
        -1.0
      ],
      [
        "Ġletter",
        -1.0
      ],
      [
        "ums",
        -1.0
      ],
      [
        "Ġconducted",
        -1.0
      ],
      [
        "41",
        -1.0
      ],
      [
        "old",
        -1.0
      ],
      [
        "24",
        -1.0
      ],
      [
        ".com",
        -1.0
      ],
      [
        "oes",
        -1.0
      ],
      [
        "Ġrep",
        -1.0
      ],
      [
        "ther",
        -1.0
      ],
      [
        "Ġpromoting",
        -1.0
      ],
      [
        "Ġpla",
        -1.0
      ],
      [
        "Ġleast",
        -1.0
      ],
      [
        "Ġagreement",
        -1.0
      ],
      [
        "Ġsy",
        -1.0
      ],
      [
        "Ġdrainage",
        -1.0
      ],
      [
        "Þ",
        -1.0
      ],
      [
        "ses",
        -1.0
      ],
      [
        "ĠSte",
        -1.0
      ],
      [
        "ĠQua",
        -1.0
      ],
      [
        "ĠPlants",
        -1.0
      ],
      [
        "Ġimagin",
        -1.0
      ],
      [
        "Ġrhythm",
        -1.0
      ],
      [
        "Ġwet",
        -1.0
      ],
      [
        "Ġillness",
        -1.0
      ],
      [
        "Ġmac",
        -1.0
      ],
      [
        "Ġvalue",
        -1.0
      ],
      [
        "fi",
        -1.0
      ],
      [
        "dd",
        -1.0
      ],
      [
        "Ġhour",
        -1.0
      ],
      [
        "Ġteach",
        -1.0
      ],
      [
        "Ġinjuries",
        -1.0
      ],
      [
        "Ġquiet",
        -1.0
      ],
      [
        "ĠOhio",
        -1.0
      ],
      [
        "Ġperfect",
        -1.0
      ],
      [
        "Ġservice",
        -1.0
      ],
      [
        "Ġhaving",
        -1.0
      ],
      [
        "-D",
        -1.0
      ],
      [
        "Ġcell",
        -1.0
      ],
      [
        "ĠYe",
        -1.0
      ],
      [
        "Ġguarantee",
        -1.0
      ],
      [
        "mping",
        -1.0
      ],
      [
        "Ġbudget",
        -1.0
      ],
      [
        "ided",
        -1.0
      ],
      [
        "tures",
        -1.0
      ],
      [
        "Ġdomain",
        -1.0
      ],
      [
        "Ġoverwhelm",
        -1.0
      ],
      [
        "Ġtar",
        -1.0
      ],
      [
        "vest",
        -1.0
      ],
      [
        "Ġlabel",
        -1.0
      ],
      [
        "aff",
        -1.0
      ],
      [
        "Ó",
        -1.0
      ],
      [
        "Ġprice",
        -1.0
      ],
      [
        "Ġchew",
        -1.0
      ],
      [
        "Ġbags",
        -1.0
      ],
      [
        "Ġcultural",
        -1.0
      ],
      [
        "Ġana",
        -1.0
      ],
      [
        "body",
        -1.0
      ],
      [
        "lain",
        -1.0
      ],
      [
        "Ġintended",
        -1.0
      ],
      [
        "Ġcow",
        -1.0
      ],
      [
        "ĠOnce",
        -1.0
      ],
      [
        "Ġdiscover",
        -1.0
      ],
      [
        "Ġda",
        -1.0
      ],
      [
        "ĠLet",
        -1.0
      ],
      [
        "Ġbus",
        -1.0
      ],
      [
        "isk",
        -1.0
      ],
      [
        "Ġsold",
        -1.0
      ],
      [
        "ds",
        -1.0
      ],
      [
        "ĠFl",
        -1.0
      ],
      [
        "Ġoptical",
        -1.0
      ],
      [
        "Ġsalmon",
        -1.0
      ],
      [
        "Ġuniverse",
        -1.0
      ],
      [
        "Ġdescribes",
        -1.0
      ],
      [
        "Ġagain",
        -1.0
      ],
      [
        "Ġlegs",
        -1.0
      ],
      [
        "Ġdig",
        -1.0
      ],
      [
        "point",
        -1.0
      ],
      [
        "bing",
        -1.0
      ],
      [
        "ĠLED",
        -1.0
      ],
      [
        "eek",
        -1.0
      ],
      [
        "Ġgla",
        -1.0
      ],
      [
        "Ġstring",
        -1.0
      ],
      [
        "Ġli",
        -1.0
      ],
      [
        "pple",
        -1.0
      ],
      [
        "rus",
        -1.0
      ],
      [
        "ĠTr",
        -1.0
      ],
      [
        "Ġpseudo",
        -1.0
      ],
      [
        "Ġfavor",
        -1.0
      ],
      [
        "back",
        -1.0
      ],
      [
        "Ġnew",
        -1.0
      ],
      [
        "Ġque",
        -1.0
      ],
      [
        "mbr",
        -1.0
      ],
      [
        "Ġfeeling",
        -1.0
      ],
      [
        "Ġreaders",
        -1.0
      ],
      [
        "Ġrobot",
        -1.0
      ],
      [
        "Ġyes",
        -1.0
      ],
      [
        "Ġbattery",
        -1.0
      ],
      [
        "Ġpred",
        -1.0
      ],
      [
        "Ġton",
        -1.0
      ],
      [
        "Ġgut",
        -1.0
      ],
      [
        "Ġbag",
        -1.0
      ],
      [
        "Ġbranch",
        -1.0
      ],
      [
        "Ġintestine",
        -1.0
      ],
      [
        "Æ",
        -1.0
      ],
      [
        "Other",
        -1.0
      ],
      [
        "Ġcoconut",
        -1.0
      ],
      [
        "Ġstraight",
        -1.0
      ],
      [
        "à",
        -1.0
      ],
      [
        "Ġkill",
        -1.0
      ],
      [
        "Ġpuppy",
        -1.0
      ],
      [
        "ĠHave",
        -1.0
      ],
      [
        "Ġodd",
        -1.0
      ],
      [
        "eak",
        -1.0
      ],
      [
        "ared",
        -1.0
      ],
      [
        "Ġign",
        -1.0
      ],
      [
        "Ġtro",
        -1.0
      ],
      [
        "Ġkey",
        -1.0
      ],
      [
        "'re",
        -1.0
      ],
      [
        "Ġspin",
        -1.0
      ],
      [
        "Ġreveal",
        -1.0
      ],
      [
        "eeze",
        -1.0
      ],
      [
        "teen",
        -1.0
      ],
      [
        "Ġrot",
        -1.0
      ],
      [
        "mission",
        -1.0
      ],
      [
        "Ġnone",
        -1.0
      ],
      [
        "Ġsoft",
        -1.0
      ],
      [
        "Ġbud",
        -1.0
      ],
      [
        "Ġdoctors",
        -1.0
      ],
      [
        "ips",
        -1.0
      ],
      [
        "tr",
        -1.0
      ],
      [
        "Ġdra",
        -1.0
      ],
      [
        "Ġdemand",
        -1.0
      ],
      [
        "Ġformal",
        -1.0
      ],
      [
        "Ġdevice",
        -1.0
      ],
      [
        "Ġcost",
        -1.0
      ],
      [
        "Ġcenter",
        -1.0
      ],
      [
        ".e",
        -1.0
      ],
      [
        "eel",
        -1.0
      ],
      [
        "ant",
        -1.0
      ],
      [
        "Ġcorn",
        -1.0
      ],
      [
        "Ġpurchase",
        -1.0
      ],
      [
        "Res",
        -1.0
      ],
      [
        "Ġd",
        -1.0
      ],
      [
        "ĠTHE",
        -1.0
      ],
      [
        "Every",
        -1.0
      ],
      [
        "Ġpowerful",
        -1.0
      ],
      [
        "Ġcomputing",
        -1.0
      ],
      [
        "Ġolder",
        -1.0
      ],
      [
        "Ġdecrease",
        -1.0
      ],
      [
        "Ġlater",
        -1.0
      ],
      [
        "Ġembrace",
        -1.0
      ],
      [
        "nj",
        -1.0
      ],
      [
        "very",
        -1.0
      ],
      [
        "ĠSch",
        -1.0
      ],
      [
        "ĠRichard",
        -1.0
      ],
      [
        "ĠJanuary",
        -1.0
      ],
      [
        "Ġissues",
        -1.0
      ],
      [
        "GR",
        -1.0
      ],
      [
        "Ġmess",
        -1.0
      ],
      [
        "ports",
        -1.0
      ],
      [
        "Ġlit",
        -1.0
      ],
      [
        "Ġrelax",
        -1.0
      ],
      [
        "ague",
        -1.0
      ],
      [
        "Ġtypically",
        -1.0
      ],
      [
        "Ġmat",
        -1.0
      ],
      [
        "Ġtrigger",
        -1.0
      ],
      [
        "uck",
        -1.0
      ],
      [
        "Ġbuild",
        -1.0
      ],
      [
        "tant",
        -1.0
      ],
      [
        "Ġprofound",
        -1.0
      ],
      [
        "gus",
        -1.0
      ],
      [
        "-on",
        -1.0
      ],
      [
        "Ġdifferent",
        -1.0
      ],
      [
        "Ġarms",
        -1.0
      ],
      [
        "ĠLearn",
        -1.0
      ],
      [
        "Ġcreative",
        -1.0
      ],
      [
        "idae",
        -1.0
      ],
      [
        "Ġun",
        -1.0
      ],
      [
        "Ġimportant",
        -1.0
      ],
      [
        "Ġroof",
        -1.0
      ],
      [
        "bec",
        -1.0
      ],
      [
        "ĠGreat",
        -1.0
      ],
      [
        "ity",
        -1.0
      ],
      [
        "ac",
        -1.0
      ],
      [
        "ĠSee",
        -1.0
      ],
      [
        "CS",
        -1.0
      ],
      [
        "bit",
        -1.0
      ],
      [
        "sk",
        -1.0
      ],
      [
        "-effective",
        -1.0
      ],
      [
        "ĠQ",
        -1.0
      ],
      [
        "Ġpest",
        -1.0
      ],
      [
        "Ġexposed",
        -1.0
      ],
      [
        "ĠMal",
        -1.0
      ],
      [
        "Ġdeeper",
        -1.0
      ],
      [
        "Ve",
        -1.0
      ],
      [
        "ĠSto",
        -1.0
      ],
      [
        "Ġwhat",
        -1.0
      ],
      [
        "Ġspecimen",
        -1.0
      ],
      [
        "Ġresponses",
        -1.0
      ],
      [
        "Ġmarket",
        -1.0
      ],
      [
        "my",
        -1.0
      ],
      [
        "Ġfiber",
        -1.0
      ],
      [
        "Ġink",
        -1.0
      ],
      [
        "Ġdetails",
        -1.0
      ],
      [
        "while",
        -1.0
      ],
      [
        "lls",
        -1.0
      ],
      [
        "Ġmillion",
        -1.0
      ],
      [
        "ĠAndr",
        -1.0
      ],
      [
        "shi",
        -1.0
      ],
      [
        "Ġpara",
        -1.0
      ],
      [
        "rce",
        -1.0
      ],
      [
        "don",
        -1.0
      ],
      [
        "Ġabandon",
        -1.0
      ],
      [
        "Ġlab",
        -1.0
      ],
      [
        "act",
        -1.0
      ],
      [
        "ĠBrown",
        -1.0
      ],
      [
        "Ġharvest",
        -1.0
      ],
      [
        "Ġboxes",
        -1.0
      ],
      [
        "app",
        -1.0
      ],
      [
        "Ġvia",
        -1.0
      ],
      [
        "Ġlarvae",
        -1.0
      ],
      [
        "Ġsilver",
        -1.0
      ],
      [
        "ater",
        -1.0
      ],
      [
        "gress",
        -1.0
      ],
      [
        "umes",
        -1.0
      ],
      [
        "Ġwebsites",
        -1.0
      ],
      [
        "Ġpreserve",
        -1.0
      ],
      [
        "Ġclimate",
        -1.0
      ],
      [
        "Ġcycle",
        -1.0
      ],
      [
        "Ġplurality",
        -1.0
      ],
      [
        "PR",
        -1.0
      ],
      [
        "ġ",
        -1.0
      ],
      [
        "Ġactually",
        -1.0
      ],
      [
        "oon",
        -1.0
      ],
      [
        "Ġbeneath",
        -1.0
      ],
      [
        "uter",
        -1.0
      ],
      [
        "Ġmechanics",
        -1.0
      ],
      [
        "Ġwithstand",
        -1.0
      ],
      [
        "fold",
        -1.0
      ],
      [
        "ĠMA",
        -1.0
      ],
      [
        "Yes",
        -1.0
      ],
      [
        "Ġarea",
        -1.0
      ],
      [
        "Ġgot",
        -1.0
      ],
      [
        "its",
        -1.0
      ],
      [
        "Ġboth",
        -1.0
      ],
      [
        "Ġmetal",
        -1.0
      ],
      [
        "Ġrad",
        -1.0
      ],
      [
        "Ġovercome",
        -1.0
      ],
      [
        "Ġweed",
        -1.0
      ],
      [
        "Ġbrowser",
        -1.0
      ],
      [
        "Ġaff",
        -1.0
      ],
      [
        "ÂŃ",
        -1.0
      ],
      [
        "Ġvo",
        -1.0
      ],
      [
        "ou",
        -1.0
      ],
      [
        "Ġmemor",
        -1.0
      ],
      [
        "ett",
        -1.0
      ],
      [
        "Ġservices",
        -1.0
      ],
      [
        "ĠGoogle",
        -1.0
      ],
      [
        "NC",
        -1.0
      ],
      [
        "oked",
        -1.0
      ],
      [
        "Ġgro",
        -1.0
      ],
      [
        "ref",
        -1.0
      ],
      [
        "AL",
        -1.0
      ],
      [
        "Ġequipment",
        -1.0
      ],
      [
        "Ġformed",
        -1.0
      ],
      [
        "Ġstop",
        -1.0
      ],
      [
        "Ġat",
        -1.0
      ],
      [
        "Ġorigin",
        -1.0
      ],
      [
        "organ",
        -1.0
      ],
      [
        "wr",
        -1.0
      ],
      [
        "ĠIN",
        -1.0
      ],
      [
        "Ġzone",
        -1.0
      ],
      [
        "Â°C",
        -1.0
      ],
      [
        "Ġend",
        -1.0
      ],
      [
        "Ġold",
        -1.0
      ],
      [
        "Ġcrisis",
        -1.0
      ],
      [
        "ĠExamples",
        -1.0
      ],
      [
        "eb",
        -1.0
      ],
      [
        "ĠEven",
        -1.0
      ],
      [
        "ush",
        -1.0
      ],
      [
        "Ġexplains",
        -1.0
      ],
      [
        "İ",
        -1.0
      ],
      [
        "Ġseven",
        -1.0
      ],
      [
        "FI",
        -1.0
      ],
      [
        "ĠDue",
        -1.0
      ],
      [
        "Ġlist",
        -1.0
      ],
      [
        "Ġdioxide",
        -1.0
      ],
      [
        "ore",
        -1.0
      ],
      [
        "Human",
        -1.0
      ],
      [
        "Ġfrequency",
        -1.0
      ],
      [
        "Ġtre",
        -1.0
      ],
      [
        "ĠDavid",
        -1.0
      ],
      [
        "Ġmanner",
        -1.0
      ],
      [
        "-free",
        -1.0
      ],
      [
        "Ġclinical",
        -1.0
      ],
      [
        "pol",
        -1.0
      ],
      [
        "ĠBen",
        -1.0
      ],
      [
        "Ġbath",
        -1.0
      ],
      [
        "hin",
        -1.0
      ],
      [
        "Ġconsumers",
        -1.0
      ],
      [
        "ı",
        -1.0
      ],
      [
        "ENT",
        -1.0
      ],
      [
        "ck",
        -1.0
      ],
      [
        "Ġca",
        -1.0
      ],
      [
        "tion",
        -1.0
      ],
      [
        "LL",
        -1.0
      ],
      [
        "unds",
        -1.0
      ],
      [
        "Ġbrain",
        -1.0
      ],
      [
        "ox",
        -1.0
      ],
      [
        "ĠZealand",
        -1.0
      ],
      [
        "rge",
        -1.0
      ],
      [
        "Ġobserved",
        -1.0
      ],
      [
        "Ġtreated",
        -1.0
      ],
      [
        "Ġgenetics",
        -1.0
      ],
      [
        "Thi",
        -1.0
      ],
      [
        "ologies",
        -1.0
      ],
      [
        "Ġtherapies",
        -1.0
      ],
      [
        ").ĊĊ",
        -1.0
      ],
      [
        "Ġcellular",
        -1.0
      ],
      [
        "ht",
        -1.0
      ],
      [
        "mus",
        -1.0
      ],
      [
        "Ġfa",
        -1.0
      ],
      [
        "ĠStrateg",
        -1.0
      ],
      [
        "Ġappear",
        -1.0
      ],
      [
        "pt",
        -1.0
      ],
      [
        "Ġpu",
        -1.0
      ],
      [
        "Ù",
        -1.0
      ],
      [
        "ki",
        -1.0
      ],
      [
        "ation",
        -1.0
      ],
      [
        "ands",
        -1.0
      ],
      [
        ".m",
        -1.0
      ],
      [
        "Ġgolden",
        -1.0
      ],
      [
        "Ġdolphin",
        -1.0
      ],
      [
        "Ġorganized",
        -1.0
      ],
      [
        "tent",
        -1.0
      ],
      [
        "ĠJohn",
        -1.0
      ],
      [
        "Ġwa",
        -1.0
      ],
      [
        "Ġfavour",
        -1.0
      ],
      [
        "rine",
        -1.0
      ],
      [
        "×",
        -1.0
      ],
      [
        "izes",
        -1.0
      ],
      [
        "aw",
        -1.0
      ],
      [
        "Ġcoa",
        -1.0
      ],
      [
        "Ġlayer",
        -1.0
      ],
      [
        "Ġchecking",
        -1.0
      ],
      [
        "Ġpat",
        -1.0
      ],
      [
        "table",
        -1.0
      ],
      [
        "sen",
        -1.0
      ],
      [
        "Ġlink",
        -1.0
      ],
      [
        "Ġmanager",
        -1.0
      ],
      [
        "ense",
        -1.0
      ],
      [
        "Ġpasses",
        -1.0
      ],
      [
        "u",
        -1.0
      ],
      [
        "fo",
        -1.0
      ],
      [
        "Ġworry",
        -1.0
      ],
      [
        "Ġfall",
        -1.0
      ],
      [
        "Ġcoil",
        -1.0
      ],
      [
        "lia",
        -1.0
      ],
      [
        "Ġbutton",
        -1.0
      ],
      [
        "Ġcolored",
        -1.0
      ],
      [
        "Ġem",
        -1.0
      ],
      [
        "east",
        -1.0
      ],
      [
        "Ġsolve",
        -1.0
      ],
      [
        "Ġreligious",
        -1.0
      ],
      [
        "Ġtailored",
        -1.0
      ],
      [
        "ebra",
        -1.0
      ],
      [
        "Ġsex",
        -1.0
      ],
      [
        "ĠNi",
        -1.0
      ],
      [
        "Au",
        -1.0
      ],
      [
        "ift",
        -1.0
      ],
      [
        "Ġhere",
        -1.0
      ],
      [
        "bi",
        -1.0
      ],
      [
        "Ġunless",
        -1.0
      ],
      [
        "ĠDC",
        -1.0
      ],
      [
        "Ġmineral",
        -1.0
      ],
      [
        "Ġsunlight",
        -1.0
      ],
      [
        "Ġfatty",
        -1.0
      ],
      [
        "Ġterminal",
        -1.0
      ],
      [
        "pon",
        -1.0
      ],
      [
        "Ġnine",
        -1.0
      ],
      [
        "Ġnorthern",
        -1.0
      ],
      [
        "velop",
        -1.0
      ],
      [
        "ĠSocial",
        -1.0
      ],
      [
        "Ġreturn",
        -1.0
      ],
      [
        "¬",
        -1.0
      ],
      [
        "Ġcombined",
        -1.0
      ],
      [
        "Ġfrom",
        -1.0
      ],
      [
        "Ġmu",
        -1.0
      ],
      [
        "Ġhorse",
        -1.0
      ],
      [
        "Ġlanguage",
        -1.0
      ],
      [
        "words",
        -1.0
      ],
      [
        "Ġremote",
        -1.0
      ],
      [
        "Ġfavorite",
        -1.0
      ],
      [
        "Ġtender",
        -1.0
      ],
      [
        "Ġorgans",
        -1.0
      ],
      [
        "z",
        -1.0
      ],
      [
        "rv",
        -1.0
      ],
      [
        "ĠJe",
        -1.0
      ],
      [
        "Ġenrich",
        -1.0
      ],
      [
        "aste",
        -1.0
      ],
      [
        "Ġotherwise",
        -1.0
      ],
      [
        "EG",
        -1.0
      ],
      [
        "llar",
        -1.0
      ],
      [
        "rie",
        -1.0
      ],
      [
        "Ġrates",
        -1.0
      ],
      [
        "13",
        -1.0
      ],
      [
        "date",
        -1.0
      ],
      [
        "-to",
        -1.0
      ],
      [
        "Ġboost",
        -1.0
      ],
      [
        "nes",
        -1.0
      ],
      [
        "Ġprove",
        -1.0
      ],
      [
        "Ġfibers",
        -1.0
      ],
      [
        "ones",
        -1.0
      ],
      [
        "ĠAll",
        -1.0
      ],
      [
        "Ġborn",
        -1.0
      ],
      [
        "oxy",
        -1.0
      ],
      [
        "Ġescape",
        -1.0
      ],
      [
        "Ġsurprise",
        -1.0
      ],
      [
        "ĠCap",
        -1.0
      ],
      [
        "Ġlisted",
        -1.0
      ],
      [
        "ite",
        -1.0
      ],
      [
        "-making",
        -1.0
      ],
      [
        "Ġdesigns",
        -1.0
      ],
      [
        "ĠPos",
        -1.0
      ],
      [
        "motion",
        -1.0
      ],
      [
        "Ġsmart",
        -1.0
      ],
      [
        "OV",
        -1.0
      ],
      [
        "Ġaccess",
        -1.0
      ],
      [
        "¼",
        -1.0
      ],
      [
        "br",
        -1.0
      ],
      [
        "Ġbias",
        -1.0
      ],
      [
        "NS",
        -1.0
      ],
      [
        "Mu",
        -1.0
      ],
      [
        "Ġensure",
        -1.0
      ],
      [
        "Ġfellow",
        -1.0
      ],
      [
        "ious",
        -1.0
      ],
      [
        "ĠSystems",
        -1.0
      ],
      [
        "ĠBel",
        -1.0
      ],
      [
        "Va",
        -1.0
      ],
      [
        "Ġboat",
        -1.0
      ],
      [
        "û",
        -1.0
      ],
      [
        "ply",
        -1.0
      ],
      [
        "Ġfile",
        -1.0
      ],
      [
        "ĠTable",
        -1.0
      ],
      [
        "Ġcere",
        -1.0
      ],
      [
        "Ġfinish",
        -1.0
      ],
      [
        "Ġenemy",
        -1.0
      ],
      [
        "Ġpotassium",
        -1.0
      ],
      [
        "aker",
        -1.0
      ],
      [
        "Not",
        -1.0
      ],
      [
        "Ġsco",
        -1.0
      ],
      [
        "Ġshared",
        -1.0
      ],
      [
        "Ġlocation",
        -1.0
      ],
      [
        "Ġemergency",
        -1.0
      ],
      [
        "Ġtable",
        -1.0
      ],
      [
        "ium",
        -1.0
      ],
      [
        "Ġengage",
        -1.0
      ],
      [
        "-scale",
        -1.0
      ],
      [
        "ents",
        -1.0
      ],
      [
        "Ġbig",
        -1.0
      ],
      [
        "Ġlast",
        -1.0
      ],
      [
        "Ġquestions",
        -1.0
      ],
      [
        "ĠPeople",
        -1.0
      ],
      [
        "33",
        -1.0
      ],
      [
        "-fr",
        -1.0
      ],
      [
        "ĠB",
        -1.0
      ],
      [
        "Ġgoal",
        -1.0
      ],
      [
        "Ġgrow",
        -1.0
      ],
      [
        "ings",
        -1.0
      ],
      [
        "Ġallergies",
        -1.0
      ],
      [
        "Ġmeet",
        -1.0
      ],
      [
        "Ġdomin",
        -1.0
      ],
      [
        "Ġheight",
        -1.0
      ],
      [
        "ndle",
        -1.0
      ],
      [
        "Ġcontrast",
        -1.0
      ],
      [
        "pose",
        -1.0
      ],
      [
        "Ġhurt",
        -1.0
      ],
      [
        "Ġcounsel",
        -1.0
      ],
      [
        "Ġwor",
        -1.0
      ],
      [
        "ins",
        -1.0
      ],
      [
        "Ġsc",
        -1.0
      ],
      [
        "ĠEurope",
        -1.0
      ],
      [
        "Û",
        -1.0
      ],
      [
        "Ġdoor",
        -1.0
      ],
      [
        "Ġdinner",
        -1.0
      ],
      [
        "ĠHowever",
        -1.0
      ],
      [
        "Ġpar",
        -1.0
      ],
      [
        "pect",
        -1.0
      ],
      [
        "ĠVictoria",
        -1.0
      ],
      [
        "Ġtime",
        -1.0
      ],
      [
        "Ġthreats",
        -1.0
      ],
      [
        "Ġensuring",
        -1.0
      ],
      [
        "Ġfairly",
        -1.0
      ],
      [
        "ems",
        -1.0
      ],
      [
        "Ġthrive",
        -1.0
      ],
      [
        "ail",
        -1.0
      ],
      [
        "Ġsw",
        -1.0
      ],
      [
        "Ġpanel",
        -1.0
      ],
      [
        "Ġsingle",
        -1.0
      ],
      [
        "Ġviral",
        -1.0
      ],
      [
        "Ġworn",
        -1.0
      ],
      [
        "Ġfields",
        -1.0
      ],
      [
        "trans",
        -1.0
      ],
      [
        "Ġthyroid",
        -1.0
      ],
      [
        "ĠPre",
        -1.0
      ],
      [
        "Ġblock",
        -1.0
      ],
      [
        "Ġtouch",
        -1.0
      ],
      [
        "Ġyou",
        -1.0
      ],
      [
        "Ġbees",
        -1.0
      ],
      [
        "âĢĻt",
        -1.0
      ],
      [
        "Ġlinked",
        -1.0
      ],
      [
        "Ġspecified",
        -1.0
      ],
      [
        "ĠPhoto",
        -1.0
      ],
      [
        "Ġexists",
        -1.0
      ],
      [
        "Ġvoltage",
        -1.0
      ],
      [
        "MC",
        -1.0
      ],
      [
        "Ġbecame",
        -1.0
      ],
      [
        "Ġelectron",
        -1.0
      ],
      [
        "ngle",
        -1.0
      ],
      [
        "abs",
        -1.0
      ],
      [
        "Ġaccurate",
        -1.0
      ],
      [
        "lus",
        -1.0
      ],
      [
        "Ġapplied",
        -1.0
      ],
      [
        "Ġsigns",
        -1.0
      ],
      [
        "Ġapp",
        -1.0
      ],
      [
        "space",
        -1.0
      ],
      [
        "tts",
        -1.0
      ],
      [
        "Ġcovered",
        -1.0
      ],
      [
        "ĠDesign",
        -1.0
      ],
      [
        "Ġchapter",
        -1.0
      ],
      [
        "Ġkilling",
        -1.0
      ],
      [
        "Ġworks",
        -1.0
      ],
      [
        "Ġarticles",
        -1.0
      ],
      [
        "ĠX",
        -1.0
      ],
      [
        "Ġplane",
        -1.0
      ],
      [
        "Ġpets",
        -1.0
      ],
      [
        "Ġtons",
        -1.0
      ],
      [
        "ere",
        -1.0
      ],
      [
        "ĠBoard",
        -1.0
      ],
      [
        "cre",
        -1.0
      ],
      [
        "ĠPacific",
        -1.0
      ],
      [
        "Ġal",
        -1.0
      ],
      [
        "ĠRes",
        -1.0
      ],
      [
        "Ġfinancial",
        -1.0
      ],
      [
        "79",
        -1.0
      ],
      [
        "ãĢģ",
        -1.0
      ],
      [
        "Ġposts",
        -1.0
      ],
      [
        "nb",
        -1.0
      ],
      [
        "Ġpowder",
        -1.0
      ],
      [
        "ĠAfter",
        -1.0
      ],
      [
        "Ġbehave",
        -1.0
      ],
      [
        "Ġjoints",
        -1.0
      ],
      [
        "xy",
        -1.0
      ],
      [
        "Ġpainful",
        -1.0
      ],
      [
        "Ġtherapy",
        -1.0
      ],
      [
        "ý",
        -1.0
      ],
      [
        "ters",
        -1.0
      ],
      [
        "Trans",
        -1.0
      ],
      [
        "Ġpuzzle",
        -1.0
      ],
      [
        "ĠHelp",
        -1.0
      ],
      [
        "ĠMedicine",
        -1.0
      ],
      [
        "ound",
        -1.0
      ],
      [
        "dom",
        -1.0
      ],
      [
        "ancy",
        -1.0
      ],
      [
        "Ġanother",
        -1.0
      ],
      [
        "Ġlung",
        -1.0
      ],
      [
        "Ġgly",
        -1.0
      ],
      [
        "Ġpromise",
        -1.0
      ],
      [
        "ike",
        -1.0
      ],
      [
        "na",
        -1.0
      ],
      [
        "Ġpage",
        -1.0
      ],
      [
        "Ġthr",
        -1.0
      ],
      [
        "Ġtail",
        -1.0
      ],
      [
        "56",
        -1.0
      ],
      [
        "erv",
        -1.0
      ],
      [
        "si",
        -1.0
      ],
      [
        "Ġtitle",
        -1.0
      ],
      [
        "ãģ",
        -1.0
      ],
      [
        "ĠChange",
        -1.0
      ],
      [
        "view",
        -1.0
      ],
      [
        "ĠAnother",
        -1.0
      ],
      [
        "Ġconstruct",
        -1.0
      ],
      [
        "Ġinvolves",
        -1.0
      ],
      [
        "ch",
        -1.0
      ],
      [
        "ĠTre",
        -1.0
      ],
      [
        "Ġlinear",
        -1.0
      ],
      [
        "Ġelements",
        -1.0
      ],
      [
        "Ġreading",
        -1.0
      ],
      [
        "Ġincreases",
        -1.0
      ],
      [
        "Ġassigned",
        -1.0
      ],
      [
        "Ġbor",
        -1.0
      ],
      [
        "Ġclean",
        -1.0
      ],
      [
        "Ġchlor",
        -1.0
      ],
      [
        "Ġfewer",
        -1.0
      ],
      [
        "virus",
        -1.0
      ],
      [
        "Ģ",
        -1.0
      ],
      [
        "ĠMu",
        -1.0
      ],
      [
        "ĠDet",
        -1.0
      ],
      [
        "Ġseat",
        -1.0
      ],
      [
        "Ġspread",
        -1.0
      ],
      [
        "ĠYork",
        -1.0
      ],
      [
        "lot",
        -1.0
      ],
      [
        "through",
        -1.0
      ],
      [
        "ª",
        -1.0
      ],
      [
        "},{\"",
        -1.0
      ],
      [
        "Ġrac",
        -1.0
      ],
      [
        "Ġmust",
        -1.0
      ],
      [
        "ys",
        -1.0
      ],
      [
        "Welcome",
        -1.0
      ],
      [
        "ĠBl",
        -1.0
      ],
      [
        "ĠCr",
        -1.0
      ],
      [
        "Ġhistory",
        -1.0
      ],
      [
        "85",
        -1.0
      ],
      [
        "Ġweek",
        -1.0
      ],
      [
        "Ġfuel",
        -1.0
      ],
      [
        "Ġgauge",
        -1.0
      ],
      [
        "Ġagree",
        -1.0
      ],
      [
        "Ġground",
        -1.0
      ],
      [
        "Ġforced",
        -1.0
      ],
      [
        "Ġsun",
        -1.0
      ],
      [
        "ĠCE",
        -1.0
      ],
      [
        "Ġthereby",
        -1.0
      ],
      [
        "ased",
        -1.0
      ],
      [
        "Ġcre",
        -1.0
      ],
      [
        "ural",
        -1.0
      ],
      [
        "ĠRa",
        -1.0
      ],
      [
        "Ġexam",
        -1.0
      ],
      [
        "now",
        -1.0
      ],
      [
        "Ġplanning",
        -1.0
      ],
      [
        "Ġfever",
        -1.0
      ],
      [
        "There",
        -1.0
      ],
      [
        "Ġmake",
        -1.0
      ],
      [
        "ĠSu",
        -1.0
      ],
      [
        "RI",
        -1.0
      ],
      [
        "Ġsens",
        -1.0
      ],
      [
        "ho",
        -1.0
      ],
      [
        "-known",
        -1.0
      ],
      [
        "Ġmonths",
        -1.0
      ],
      [
        "Ġspeeds",
        -1.0
      ],
      [
        "Ġvol",
        -1.0
      ],
      [
        "Ġcover",
        -1.0
      ],
      [
        "lass",
        -1.0
      ],
      [
        "tra",
        -1.0
      ],
      [
        "di",
        -1.0
      ],
      [
        "nk",
        -1.0
      ],
      [
        "omic",
        -1.0
      ],
      [
        "Ġdelicate",
        -1.0
      ],
      [
        "..",
        -1.0
      ],
      [
        "Ġanalysis",
        -1.0
      ],
      [
        "Ġdisc",
        -1.0
      ],
      [
        "Ġdetected",
        -1.0
      ],
      [
        "Ġaxis",
        -1.0
      ],
      [
        "Ġforget",
        -1.0
      ],
      [
        "Ġfriction",
        -1.0
      ],
      [
        "Ġpromotes",
        -1.0
      ],
      [
        "grams",
        -1.0
      ],
      [
        "Ġhole",
        -1.0
      ],
      [
        "sted",
        -1.0
      ],
      [
        "Ġpublish",
        -1.0
      ],
      [
        "Ġgone",
        -1.0
      ],
      [
        "ĠJersey",
        -1.0
      ],
      [
        "ĠChar",
        -1.0
      ],
      [
        "Ġtip",
        -1.0
      ],
      [
        "Ġblade",
        -1.0
      ],
      [
        "ĠNu",
        -1.0
      ],
      [
        "Nu",
        -1.0
      ],
      [
        "Ġlog",
        -1.0
      ],
      [
        "ets",
        -1.0
      ],
      [
        "tro",
        -1.0
      ],
      [
        "Ġtriangle",
        -1.0
      ],
      [
        "ĠWorld",
        -1.0
      ],
      [
        "Ġw",
        -1.0
      ],
      [
        "sky",
        -1.0
      ],
      [
        "ĠConnect",
        -1.0
      ],
      [
        "Ġextension",
        -1.0
      ],
      [
        "Ġhelpful",
        -1.0
      ],
      [
        "ĠGr",
        -1.0
      ],
      [
        "vailable",
        -1.0
      ],
      [
        "ĠKo",
        -1.0
      ],
      [
        "Ġtools",
        -1.0
      ],
      [
        "Ġbreeds",
        -1.0
      ],
      [
        "Ġsqu",
        -1.0
      ],
      [
        "Ġsurgical",
        -1.0
      ],
      [
        "Ĕ",
        -1.0
      ],
      [
        "Ġplanted",
        -1.0
      ],
      [
        "Ġresistant",
        -1.0
      ],
      [
        "mine",
        -1.0
      ],
      [
        "rds",
        -1.0
      ],
      [
        "ĠDown",
        -1.0
      ],
      [
        "Ġindeed",
        -1.0
      ],
      [
        "ĠSi",
        -1.0
      ],
      [
        "Ġversatile",
        -1.0
      ],
      [
        "Ġwhile",
        -1.0
      ],
      [
        "Im",
        -1.0
      ],
      [
        "end",
        -1.0
      ],
      [
        "Ġski",
        -1.0
      ],
      [
        "ank",
        -1.0
      ],
      [
        "Ġimaging",
        -1.0
      ],
      [
        "Ġselecting",
        -1.0
      ],
      [
        "vel",
        -1.0
      ],
      [
        "/d",
        -1.0
      ],
      [
        "ĠDel",
        -1.0
      ],
      [
        "Ġissue",
        -1.0
      ],
      [
        "-po",
        -1.0
      ],
      [
        "arl",
        -1.0
      ],
      [
        "ĠWhere",
        -1.0
      ],
      [
        "una",
        -1.0
      ],
      [
        "Ġstory",
        -1.0
      ],
      [
        "Ġwealth",
        -1.0
      ],
      [
        "-S",
        -1.0
      ],
      [
        "Na",
        -1.0
      ],
      [
        "Ġgrowing",
        -1.0
      ],
      [
        "Thank",
        -1.0
      ],
      [
        "Ġgas",
        -1.0
      ],
      [
        "ĠW",
        -1.0
      ],
      [
        "ĠAS",
        -1.0
      ],
      [
        "Ġsecure",
        -1.0
      ],
      [
        "Ġoffers",
        -1.0
      ],
      [
        "Ġexciting",
        -1.0
      ],
      [
        "va",
        -1.0
      ],
      [
        "Ġtraveling",
        -1.0
      ],
      [
        "dio",
        -1.0
      ],
      [
        "Ġloop",
        -1.0
      ],
      [
        "US",
        -1.0
      ],
      [
        "Ġgrab",
        -1.0
      ],
      [
        "Ġyarn",
        -1.0
      ],
      [
        "Ġpencil",
        -1.0
      ],
      [
        "Ġso",
        -1.0
      ],
      [
        "Ġpink",
        -1.0
      ],
      [
        "ect",
        -1.0
      ],
      [
        "Ġclasses",
        -1.0
      ],
      [
        "y",
        -1.0
      ],
      [
        "Ġtomatoes",
        -1.0
      ],
      [
        "Ġphoto",
        -1.0
      ],
      [
        "Ġerosion",
        -1.0
      ],
      [
        "ĠCoast",
        -1.0
      ],
      [
        "opy",
        -1.0
      ],
      [
        "Ġpeople",
        -1.0
      ],
      [
        "CT",
        -1.0
      ],
      [
        "Ġdue",
        -1.0
      ],
      [
        "Ġfilm",
        -1.0
      ],
      [
        "Ġself",
        -1.0
      ],
      [
        "Ġadapt",
        -1.0
      ],
      [
        "99",
        -1.0
      ],
      [
        "Ġbarrier",
        -1.0
      ],
      [
        "Ġviews",
        -1.0
      ],
      [
        "á",
        -1.0
      ],
      [
        "ĠTV",
        -1.0
      ],
      [
        "ĠWeb",
        -1.0
      ],
      [
        "Ġbull",
        -1.0
      ],
      [
        "Ġbear",
        -1.0
      ],
      [
        "Ġcooked",
        -1.0
      ],
      [
        "ĠSur",
        -1.0
      ],
      [
        "Ġacademic",
        -1.0
      ],
      [
        "bra",
        -1.0
      ],
      [
        "Ġtogether",
        -1.0
      ],
      [
        "Ġdiseases",
        -1.0
      ],
      [
        "Ġglo",
        -1.0
      ],
      [
        "bed",
        -1.0
      ],
      [
        "to",
        -1.0
      ],
      [
        "Ġif",
        -1.0
      ],
      [
        "Cre",
        -1.0
      ],
      [
        "Ġsurge",
        -1.0
      ],
      [
        "Ġeveryday",
        -1.0
      ],
      [
        "Ġmunicipal",
        -1.0
      ],
      [
        "Ġpure",
        -1.0
      ],
      [
        "yal",
        -1.0
      ],
      [
        "ĠSuper",
        -1.0
      ],
      [
        "r",
        -1.0
      ],
      [
        "Ġexhaust",
        -1.0
      ],
      [
        "ó",
        -1.0
      ],
      [
        "Ġpixel",
        -1.0
      ],
      [
        "ĠQu",
        -1.0
      ],
      [
        "ĠMer",
        -1.0
      ],
      [
        "TE",
        -1.0
      ],
      [
        "Ġseeking",
        -1.0
      ],
      [
        "Ġlike",
        -1.0
      ],
      [
        "cture",
        -1.0
      ],
      [
        "ix",
        -1.0
      ],
      [
        "ising",
        -1.0
      ],
      [
        "Ġplaced",
        -1.0
      ],
      [
        "Ġenergy",
        -1.0
      ],
      [
        ".Ċ",
        -1.0
      ],
      [
        "PE",
        -1.0
      ],
      [
        "Ġten",
        -1.0
      ],
      [
        "OP",
        -1.0
      ],
      [
        "Ġnear",
        -1.0
      ],
      [
        "Ġplacing",
        -1.0
      ],
      [
        "ogni",
        -1.0
      ],
      [
        "ĠDE",
        -1.0
      ],
      [
        "sy",
        -1.0
      ],
      [
        "ĠThen",
        -1.0
      ],
      [
        "Ġgames",
        -1.0
      ],
      [
        "ĠEc",
        -1.0
      ],
      [
        "Ġglue",
        -1.0
      ],
      [
        "ĠUnited",
        -1.0
      ],
      [
        "ģ",
        -1.0
      ],
      [
        "'t",
        -1.0
      ],
      [
        "Ġdiet",
        -1.0
      ],
      [
        "Ġbeds",
        -1.0
      ],
      [
        "##",
        -1.0
      ],
      [
        "Ġfollowing",
        -1.0
      ],
      [
        "ĠâĢ¢",
        -1.0
      ],
      [
        "Ġ**",
        -1.0
      ],
      [
        "nic",
        -1.0
      ],
      [
        "Ġsupplies",
        -1.0
      ],
      [
        "Ġbulb",
        -1.0
      ],
      [
        "Ġeffects",
        -1.0
      ],
      [
        "ĠAu",
        -1.0
      ],
      [
        "uring",
        -1.0
      ],
      [
        "Ê",
        -1.0
      ],
      [
        "Ġ-",
        -1.0
      ],
      [
        "ĠSo",
        -1.0
      ],
      [
        "Gen",
        -1.0
      ],
      [
        "Å",
        -1.0
      ],
      [
        "Ġoutcome",
        -1.0
      ],
      [
        "Ġnose",
        -1.0
      ],
      [
        "Ġcampaign",
        -1.0
      ],
      [
        "Ġtone",
        -1.0
      ],
      [
        "Ġcrops",
        -1.0
      ],
      [
        "ĠDes",
        -1.0
      ],
      [
        "Ġdistinct",
        -1.0
      ],
      [
        "-year",
        -1.0
      ],
      [
        "Ġ+",
        -1.0
      ],
      [
        "ĠValley",
        -1.0
      ],
      [
        "'ll",
        -1.0
      ],
      [
        "Ġamount",
        -1.0
      ],
      [
        "Ġweeks",
        -1.0
      ],
      [
        "Ġenough",
        -1.0
      ],
      [
        "hor",
        -1.0
      ],
      [
        "ia",
        -1.0
      ],
      [
        "Ġefficacy",
        -1.0
      ],
      [
        "wide",
        -1.0
      ],
      [
        "Ġrun",
        -1.0
      ],
      [
        "Ġpup",
        -1.0
      ],
      [
        "AR",
        -1.0
      ],
      [
        "ĠBas",
        -1.0
      ],
      [
        "Ġdecisions",
        -1.0
      ],
      [
        "Ġfindings",
        -1.0
      ],
      [
        "Ġicon",
        -1.0
      ],
      [
        "Ġoffice",
        -1.0
      ],
      [
        "Ġabdominal",
        -1.0
      ],
      [
        "Ġalso",
        -1.0
      ],
      [
        "Ġmainly",
        -1.0
      ],
      [
        "using",
        -1.0
      ],
      [
        "ĠLight",
        -1.0
      ],
      [
        "Ġsmooth",
        -1.0
      ],
      [
        "where",
        -1.0
      ],
      [
        "ening",
        -1.0
      ],
      [
        "Ġcertainly",
        -1.0
      ],
      [
        "Or",
        -1.0
      ],
      [
        "sm",
        -1.0
      ],
      [
        "rah",
        -1.0
      ],
      [
        "las",
        -1.0
      ],
      [
        "ĠSwe",
        -1.0
      ],
      [
        "John",
        -1.0
      ],
      [
        "ining",
        -1.0
      ],
      [
        "Ġcrystal",
        -1.0
      ],
      [
        "Ġpra",
        -1.0
      ],
      [
        "ĠMethod",
        -1.0
      ],
      [
        "ser",
        -1.0
      ],
      [
        "Ġmorning",
        -1.0
      ],
      [
        "48",
        -1.0
      ],
      [
        "Ġdriver",
        -1.0
      ],
      [
        "1",
        -1.0
      ],
      [
        "mon",
        -1.0
      ],
      [
        "Ġpitch",
        -1.0
      ],
      [
        "Ġhandle",
        -1.0
      ],
      [
        "Ġbalanced",
        -1.0
      ],
      [
        "Ġmouth",
        -1.0
      ],
      [
        "asses",
        -1.0
      ],
      [
        "ĠProblem",
        -1.0
      ],
      [
        "Ġthat",
        -1.0
      ],
      [
        "50",
        -1.0
      ],
      [
        "Ġmain",
        -1.0
      ],
      [
        "And",
        -1.0
      ],
      [
        "Ti",
        -1.0
      ],
      [
        "Ġsheet",
        -1.0
      ],
      [
        "¤",
        -1.0
      ],
      [
        "Ġsystems",
        -1.0
      ],
      [
        "ĠJapan",
        -1.0
      ],
      [
        "Cho",
        -1.0
      ],
      [
        "Ġcabbage",
        -1.0
      ],
      [
        "Ġmon",
        -1.0
      ],
      [
        "Ġcancer",
        -1.0
      ],
      [
        "CK",
        -1.0
      ],
      [
        "Ġcircuits",
        -1.0
      ],
      [
        "Ġwarming",
        -1.0
      ],
      [
        "Mar",
        -1.0
      ],
      [
        "Source",
        -1.0
      ],
      [
        "ĠDen",
        -1.0
      ],
      [
        "Ġpen",
        -1.0
      ],
      [
        "ĠI",
        -1.0
      ],
      [
        "used",
        -1.0
      ],
      [
        "Ġclub",
        -1.0
      ],
      [
        "Ġexplicit",
        -1.0
      ],
      [
        "Ġrocks",
        -1.0
      ],
      [
        "Ġdentist",
        -1.0
      ],
      [
        "Ġtoday",
        -1.0
      ],
      [
        "ĠCity",
        -1.0
      ],
      [
        "Ġincident",
        -1.0
      ],
      [
        "Ġdri",
        -1.0
      ],
      [
        "-fa",
        -1.0
      ],
      [
        "RE",
        -1.0
      ],
      [
        "Ġmuch",
        -1.0
      ],
      [
        "ĠCollege",
        -1.0
      ],
      [
        "ends",
        -1.0
      ],
      [
        "lc",
        -1.0
      ],
      [
        "Ġtext",
        -1.0
      ],
      [
        "Ġscenarios",
        -1.0
      ],
      [
        "Ġvisual",
        -1.0
      ],
      [
        "Ġfemale",
        -1.0
      ],
      [
        "nbsp",
        -1.0
      ],
      [
        "Ġthey",
        -1.0
      ],
      [
        "isation",
        -1.0
      ],
      [
        "lv",
        -1.0
      ],
      [
        "Ġadding",
        -1.0
      ],
      [
        "Ġpruning",
        -1.0
      ],
      [
        "Ġstress",
        -1.0
      ],
      [
        "ĠN",
        -1.0
      ],
      [
        "Ġcapture",
        -1.0
      ],
      [
        "ĠEffect",
        -1.0
      ],
      [
        "Ġexistence",
        -1.0
      ],
      [
        "late",
        -1.0
      ],
      [
        "Ã",
        -1.0
      ],
      [
        "Ġgases",
        -1.0
      ],
      [
        "LC",
        -1.0
      ],
      [
        "Ġflowers",
        -1.0
      ],
      [
        "Ġapps",
        -1.0
      ],
      [
        "Ġframe",
        -1.0
      ],
      [
        "sl",
        -1.0
      ],
      [
        "||",
        -1.0
      ],
      [
        "tit",
        -1.0
      ],
      [
        "EV",
        -1.0
      ],
      [
        "ze",
        -1.0
      ],
      [
        "Ġhealthy",
        -1.0
      ],
      [
        "Ġstopped",
        -1.0
      ],
      [
        "Ġprinter",
        -1.0
      ],
      [
        "Ġvictim",
        -1.0
      ],
      [
        "ĠGa",
        -1.0
      ],
      [
        "ily",
        -1.0
      ],
      [
        "light",
        -1.0
      ],
      [
        "Ġinches",
        -1.0
      ],
      [
        "TI",
        -1.0
      ],
      [
        "lex",
        -1.0
      ],
      [
        "ĠAugust",
        -1.0
      ],
      [
        "Ġmodern",
        -1.0
      ],
      [
        "ckets",
        -1.0
      ],
      [
        "Ġbone",
        -1.0
      ],
      [
        "Ġviol",
        -1.0
      ],
      [
        "Ġrecommend",
        -1.0
      ],
      [
        "Ġspecific",
        -1.0
      ],
      [
        "Ġversions",
        -1.0
      ],
      [
        "Ġtaking",
        -1.0
      ],
      [
        "ĠFarm",
        -1.0
      ],
      [
        "Ġaffected",
        -1.0
      ],
      [
        "icy",
        -1.0
      ],
      [
        "²",
        -1.0
      ],
      [
        "rum",
        -1.0
      ],
      [
        "lip",
        -1.0
      ],
      [
        ".\"Ċ",
        -1.0
      ],
      [
        "Ġland",
        -1.0
      ],
      [
        "Ġmanage",
        -1.0
      ],
      [
        "Ġuna",
        -1.0
      ],
      [
        "AN",
        -1.0
      ],
      [
        "Ġbasket",
        -1.0
      ],
      [
        "ĠCelsius",
        -1.0
      ],
      [
        "cast",
        -1.0
      ],
      [
        "rh",
        -1.0
      ],
      [
        "Ġexpand",
        -1.0
      ],
      [
        "ĠGe",
        -1.0
      ],
      [
        "ident",
        -1.0
      ],
      [
        "Ġmoderate",
        -1.0
      ],
      [
        "Ġstars",
        -1.0
      ],
      [
        "fully",
        -1.0
      ],
      [
        "ĠFre",
        -1.0
      ],
      [
        "ĺ",
        -1.0
      ],
      [
        "PD",
        -1.0
      ],
      [
        "Finally",
        -1.0
      ],
      [
        "ĠAfrica",
        -1.0
      ],
      [
        "ĠTerr",
        -1.0
      ],
      [
        "vo",
        -1.0
      ],
      [
        "ĠEV",
        -1.0
      ],
      [
        "bot",
        -1.0
      ],
      [
        "Ġen",
        -1.0
      ],
      [
        "Ġdating",
        -1.0
      ],
      [
        "Ġprecise",
        -1.0
      ],
      [
        "Ġfinger",
        -1.0
      ],
      [
        "Ġta",
        -1.0
      ],
      [
        "Ġsnake",
        -1.0
      ],
      [
        "Ġdaughter",
        -1.0
      ],
      [
        "Ġver",
        -1.0
      ],
      [
        "uro",
        -1.0
      ],
      [
        "Ġhealth",
        -1.0
      ],
      [
        "ĠBecause",
        -1.0
      ],
      [
        "Ġsafer",
        -1.0
      ],
      [
        "Ġtend",
        -1.0
      ],
      [
        "ria",
        -1.0
      ],
      [
        "ĠAss",
        -1.0
      ],
      [
        "dependent",
        -1.0
      ],
      [
        "Wi",
        -1.0
      ],
      [
        "Ġsymptom",
        -1.0
      ],
      [
        "SU",
        -1.0
      ],
      [
        "70",
        -1.0
      ],
      [
        "Ġnames",
        -1.0
      ],
      [
        "Ġcaptured",
        -1.0
      ],
      [
        "Ġwearing",
        -1.0
      ],
      [
        "ĠThose",
        -1.0
      ],
      [
        "Ġyounger",
        -1.0
      ],
      [
        "oli",
        -1.0
      ],
      [
        "pic",
        -1.0
      ],
      [
        "Ġtun",
        -1.0
      ],
      [
        "Ġpond",
        -1.0
      ],
      [
        "o",
        -1.0
      ],
      [
        "Ġpriority",
        -1.0
      ],
      [
        "ĠAsian",
        -1.0
      ],
      [
        "Ġchip",
        -1.0
      ],
      [
        "ĠAN",
        -1.0
      ],
      [
        "Ġsyndrome",
        -1.0
      ],
      [
        "Ġbottle",
        -1.0
      ],
      [
        "Ġfaster",
        -1.0
      ],
      [
        "Ġhonest",
        -1.0
      ],
      [
        "ure",
        -1.0
      ],
      [
        "gen",
        -1.0
      ],
      [
        "Ġmedium",
        -1.0
      ],
      [
        "Ġunlike",
        -1.0
      ],
      [
        "dar",
        -1.0
      ],
      [
        "Ġtreating",
        -1.0
      ],
      [
        "Ġalthough",
        -1.0
      ],
      [
        "Ġqualities",
        -1.0
      ],
      [
        "Ġwidely",
        -1.0
      ],
      [
        "Ġcredit",
        -1.0
      ],
      [
        "ans",
        -1.0
      ],
      [
        "Ġgasoline",
        -1.0
      ],
      [
        "08",
        -1.0
      ],
      [
        "V",
        -1.0
      ],
      [
        "ĠSecond",
        -1.0
      ],
      [
        "CD",
        -1.0
      ],
      [
        "Ġwinter",
        -1.0
      ],
      [
        "¦",
        -1.0
      ],
      [
        "ext",
        -1.0
      ],
      [
        "Ġcoverage",
        -1.0
      ],
      [
        "Ġmessage",
        -1.0
      ],
      [
        "Ġpartners",
        -1.0
      ],
      [
        "oys",
        -1.0
      ],
      [
        "Ġbaby",
        -1.0
      ],
      [
        "Ġdiameter",
        -1.0
      ],
      [
        "serve",
        -1.0
      ],
      [
        "Ġhelp",
        -1.0
      ],
      [
        "Ġmargin",
        -1.0
      ],
      [
        "Ġwitness",
        -1.0
      ],
      [
        "out",
        -1.0
      ],
      [
        "fts",
        -1.0
      ],
      [
        "Ġscratch",
        -1.0
      ],
      [
        "`",
        -1.0
      ],
      [
        "Ġfalls",
        -1.0
      ],
      [
        "tral",
        -1.0
      ],
      [
        "Ġavoid",
        -1.0
      ],
      [
        "Ġcha",
        -1.0
      ],
      [
        "ĠGuide",
        -1.0
      ],
      [
        "Fl",
        -1.0
      ],
      [
        "ĠBan",
        -1.0
      ],
      [
        "Ġinherit",
        -1.0
      ],
      [
        "Ġflies",
        -1.0
      ],
      [
        "Ġvin",
        -1.0
      ],
      [
        "ĠMarch",
        -1.0
      ],
      [
        "ĠPr",
        -1.0
      ],
      [
        "Ġrelease",
        -1.0
      ],
      [
        "Ġreferred",
        -1.0
      ],
      [
        "ĠIdea",
        -1.0
      ],
      [
        "Ġbathroom",
        -1.0
      ],
      [
        "tex",
        -1.0
      ],
      [
        "Several",
        -1.0
      ],
      [
        "dent",
        -1.0
      ],
      [
        "Ġsign",
        -1.0
      ],
      [
        "nas",
        -1.0
      ],
      [
        "tact",
        -1.0
      ],
      [
        "power",
        -1.0
      ],
      [
        "rf",
        -1.0
      ],
      [
        "not",
        -1.0
      ],
      [
        "ĭ",
        -1.0
      ],
      [
        "Ġprovides",
        -1.0
      ],
      [
        "Ġcondition",
        -1.0
      ],
      [
        "Ġpreparing",
        -1.0
      ],
      [
        "lysis",
        -1.0
      ],
      [
        "wl",
        -1.0
      ],
      [
        "Ġannounced",
        -1.0
      ],
      [
        "ĠAn",
        -1.0
      ],
      [
        "ai",
        -1.0
      ],
      [
        "ini",
        -1.0
      ],
      [
        "Ġphy",
        -1.0
      ],
      [
        "Ġvehicles",
        -1.0
      ],
      [
        "Ġpast",
        -1.0
      ],
      [
        "Ġoceans",
        -1.0
      ],
      [
        "nom",
        -1.0
      ],
      [
        "Ġcat",
        -1.0
      ],
      [
        "hu",
        -1.0
      ],
      [
        "gel",
        -1.0
      ],
      [
        "ĠTesla",
        -1.0
      ],
      [
        "ics",
        -1.0
      ],
      [
        "dia",
        -1.0
      ],
      [
        "Ġexcept",
        -1.0
      ],
      [
        "Ġdogs",
        -1.0
      ],
      [
        "ured",
        -1.0
      ],
      [
        "ute",
        -1.0
      ],
      [
        "Ġmessages",
        -1.0
      ],
      [
        "Ġeliminate",
        -1.0
      ],
      [
        "ĠIC",
        -1.0
      ],
      [
        "Ġcooling",
        -1.0
      ],
      [
        "Ġdis",
        -1.0
      ],
      [
        "imal",
        -1.0
      ],
      [
        "ĠSal",
        -1.0
      ],
      [
        "ows",
        -1.0
      ],
      [
        "sil",
        -1.0
      ],
      [
        "ĠSurvey",
        -1.0
      ],
      [
        "Ġ\\",
        -1.0
      ],
      [
        "ĠBoth",
        -1.0
      ],
      [
        "Ġsalt",
        -1.0
      ],
      [
        "je",
        -1.0
      ],
      [
        "ĠSouth",
        -1.0
      ],
      [
        "od",
        -1.0
      ],
      [
        "Ġlevel",
        -1.0
      ],
      [
        "F",
        -1.0
      ],
      [
        "ĠSco",
        -1.0
      ],
      [
        "oin",
        -1.0
      ],
      [
        "ham",
        -1.0
      ],
      [
        "ĠGar",
        -1.0
      ],
      [
        "lb",
        -1.0
      ],
      [
        "Ġgave",
        -1.0
      ],
      [
        "?\"",
        -1.0
      ],
      [
        "l",
        -1.0
      ],
      [
        "ster",
        -1.0
      ],
      [
        "-g",
        -1.0
      ],
      [
        "rger",
        -1.0
      ],
      [
        "pire",
        -1.0
      ],
      [
        "Ġtinnitus",
        -1.0
      ],
      [
        "Ġcolours",
        -1.0
      ],
      [
        "berg",
        -1.0
      ],
      [
        "Ġgy",
        -1.0
      ],
      [
        "Ġinstinct",
        -1.0
      ],
      [
        "Ġhappens",
        -1.0
      ],
      [
        "Ġeasiest",
        -1.0
      ],
      [
        "^",
        -1.0
      ],
      [
        "lli",
        -1.0
      ],
      [
        "Ġcontinued",
        -1.0
      ],
      [
        "Ġseems",
        -1.0
      ],
      [
        "met",
        -1.0
      ],
      [
        "Ġsodium",
        -1.0
      ],
      [
        "Ġpeak",
        -1.0
      ],
      [
        "ema",
        -1.0
      ],
      [
        "ning",
        -1.0
      ],
      [
        "Ġadopt",
        -1.0
      ],
      [
        "ait",
        -1.0
      ],
      [
        "Ġthough",
        -1.0
      ],
      [
        "ach",
        -1.0
      ],
      [
        "Ġmoon",
        -1.0
      ],
      [
        "che",
        -1.0
      ],
      [
        "Ye",
        -1.0
      ],
      [
        "Ġvaccine",
        -1.0
      ],
      [
        "ducts",
        -1.0
      ],
      [
        "Ĵ",
        -1.0
      ],
      [
        "t",
        -1.0
      ],
      [
        "ew",
        -1.0
      ],
      [
        "Ġfu",
        -1.0
      ],
      [
        "Ġcrew",
        -1.0
      ],
      [
        "Ġproof",
        -1.0
      ],
      [
        "Ġcommonly",
        -1.0
      ],
      [
        "right",
        -1.0
      ],
      [
        "âĪĴ",
        -1.0
      ],
      [
        "ĠAd",
        -1.0
      ],
      [
        "nd",
        -1.0
      ],
      [
        "ĠSet",
        -1.0
      ],
      [
        "cel",
        -1.0
      ],
      [
        "Ġvan",
        -1.0
      ],
      [
        "Pos",
        -1.0
      ],
      [
        "Ġbreeding",
        -1.0
      ],
      [
        "Ġstruggle",
        -1.0
      ],
      [
        "Ġdramatic",
        -1.0
      ],
      [
        "nte",
        -1.0
      ],
      [
        "Ġlines",
        -1.0
      ],
      [
        "but",
        -1.0
      ],
      [
        "no",
        -1.0
      ],
      [
        "ò",
        -1.0
      ],
      [
        "utes",
        -1.0
      ],
      [
        "ĠO",
        -1.0
      ],
      [
        "80",
        -1.0
      ],
      [
        "Ġformation",
        -1.0
      ],
      [
        "-p",
        -1.0
      ],
      [
        "pers",
        -1.0
      ],
      [
        "mp",
        -1.0
      ],
      [
        "Sm",
        -1.0
      ],
      [
        "tan",
        -1.0
      ],
      [
        ";ĊĊ",
        -1.0
      ],
      [
        "Ġfoliage",
        -1.0
      ],
      [
        "Ġhelped",
        -1.0
      ],
      [
        "ĠBest",
        -1.0
      ],
      [
        "ating",
        -1.0
      ],
      [
        "Ġdisposal",
        -1.0
      ],
      [
        "Ġbeat",
        -1.0
      ],
      [
        "Ġprofessor",
        -1.0
      ],
      [
        "ory",
        -1.0
      ],
      [
        "Ġtape",
        -1.0
      ],
      [
        "phones",
        -1.0
      ],
      [
        "Ġreasons",
        -1.0
      ],
      [
        "obe",
        -1.0
      ],
      [
        "uz",
        -1.0
      ],
      [
        "test",
        -1.0
      ],
      [
        "fra",
        -1.0
      ],
      [
        "Ġnutrition",
        -1.0
      ],
      [
        "Ġtheory",
        -1.0
      ],
      [
        "Ġsta",
        -1.0
      ],
      [
        "onal",
        -1.0
      ],
      [
        "Ġcuts",
        -1.0
      ],
      [
        "Ġminimum",
        -1.0
      ],
      [
        "Ġwashing",
        -1.0
      ],
      [
        "ĠCentre",
        -1.0
      ],
      [
        "Ġrivers",
        -1.0
      ],
      [
        "Ġselling",
        -1.0
      ],
      [
        "lite",
        -1.0
      ],
      [
        "Ġwood",
        -1.0
      ],
      [
        "Ġevery",
        -1.0
      ],
      [
        "ĠY",
        -1.0
      ],
      [
        "Ġinterval",
        -1.0
      ],
      [
        "oz",
        -1.0
      ],
      [
        "Ġnotice",
        -1.0
      ],
      [
        "Ġadventure",
        -1.0
      ],
      [
        "Hu",
        -1.0
      ],
      [
        "©",
        -1.0
      ],
      [
        "Ġdev",
        -1.0
      ],
      [
        "Ġethical",
        -1.0
      ],
      [
        "Ġcurious",
        -1.0
      ],
      [
        "Ġind",
        -1.0
      ],
      [
        "Ġconnected",
        -1.0
      ],
      [
        "Ġpractice",
        -1.0
      ],
      [
        "Ġdebris",
        -1.0
      ],
      [
        "x",
        -1.0
      ],
      [
        "ĠIm",
        -1.0
      ],
      [
        "Ġboards",
        -1.0
      ],
      [
        "dis",
        -1.0
      ],
      [
        "Ġliquid",
        -1.0
      ],
      [
        "Ġfactors",
        -1.0
      ],
      [
        "so",
        -1.0
      ],
      [
        "Ġmigr",
        -1.0
      ],
      [
        "Ġfly",
        -1.0
      ],
      [
        "udio",
        -1.0
      ],
      [
        "Ġcuriosity",
        -1.0
      ],
      [
        "ĠWe",
        -1.0
      ],
      [
        "Ġphase",
        -1.0
      ],
      [
        "xe",
        -1.0
      ],
      [
        "rp",
        -1.0
      ],
      [
        "df",
        -1.0
      ],
      [
        "Ġgame",
        -1.0
      ],
      [
        "w",
        -1.0
      ],
      [
        "Ġmacro",
        -1.0
      ],
      [
        "Ġlaw",
        -1.0
      ],
      [
        "Ġroute",
        -1.0
      ],
      [
        "Ġspaces",
        -1.0
      ],
      [
        "Ġaddress",
        -1.0
      ],
      [
        "ĠKey",
        -1.0
      ],
      [
        "Ġup",
        -1.0
      ],
      [
        "Ŀ",
        -1.0
      ],
      [
        "au",
        -1.0
      ],
      [
        "Ġstick",
        -1.0
      ],
      [
        "Ġrh",
        -1.0
      ],
      [
        "AC",
        -1.0
      ],
      [
        "ĠIsland",
        -1.0
      ],
      [
        "ĠNetwork",
        -1.0
      ],
      [
        "Where",
        -1.0
      ],
      [
        "Ġstock",
        -1.0
      ],
      [
        "Ġrain",
        -1.0
      ],
      [
        "Ġneck",
        -1.0
      ],
      [
        "Ġcable",
        -1.0
      ],
      [
        "Ġcan",
        -1.0
      ],
      [
        "Ğ",
        -1.0
      ],
      [
        "Ġmaintain",
        -1.0
      ],
      [
        "Ġcars",
        -1.0
      ],
      [
        "unk",
        -1.0
      ],
      [
        "Ġcri",
        -1.0
      ],
      [
        "om",
        -1.0
      ],
      [
        "Ġusage",
        -1.0
      ],
      [
        "Ġopposite",
        -1.0
      ],
      [
        "zi",
        -1.0
      ],
      [
        "Ġdeveloped",
        -1.0
      ],
      [
        "Ġproposed",
        -1.0
      ],
      [
        "Ġabout",
        -1.0
      ],
      [
        "ss",
        -1.0
      ],
      [
        "Ġcu",
        -1.0
      ],
      [
        "ons",
        -1.0
      ],
      [
        "oph",
        -1.0
      ],
      [
        "Ĭ",
        -1.0
      ],
      [
        "ĠSpi",
        -1.0
      ],
      [
        "Ġnow",
        -1.0
      ],
      [
        "Ġdirect",
        -1.0
      ],
      [
        "Ġfear",
        -1.0
      ],
      [
        "Ġking",
        -1.0
      ],
      [
        "Ġcomp",
        -1.0
      ],
      [
        "ĠFirst",
        -1.0
      ],
      [
        "Ġrural",
        -1.0
      ],
      [
        "fa",
        -1.0
      ],
      [
        "Ġfilling",
        -1.0
      ],
      [
        "ĠWar",
        -1.0
      ],
      [
        "Ġemployees",
        -1.0
      ],
      [
        "-per",
        -1.0
      ],
      [
        "ified",
        -1.0
      ],
      [
        "Ġpine",
        -1.0
      ],
      [
        "Ġcame",
        -1.0
      ],
      [
        "ĠCar",
        -1.0
      ],
      [
        "Ġminimal",
        -1.0
      ],
      [
        "Ġveggies",
        -1.0
      ],
      [
        "âĢĵ",
        -1.0
      ],
      [
        "SI",
        -1.0
      ],
      [
        "Ġtexture",
        -1.0
      ],
      [
        "Ġjoin",
        -1.0
      ],
      [
        "urn",
        -1.0
      ],
      [
        "ĠOr",
        -1.0
      ],
      [
        "Ġinvert",
        -1.0
      ],
      [
        "Ġvinegar",
        -1.0
      ],
      [
        "¶",
        -1.0
      ],
      [
        "yg",
        -1.0
      ],
      [
        "Ġcalcium",
        -1.0
      ],
      [
        "ĠEs",
        -1.0
      ],
      [
        "ĠAnti",
        -1.0
      ],
      [
        "Ġwind",
        -1.0
      ],
      [
        "ĠMuseum",
        -1.0
      ],
      [
        "Ġmistakes",
        -1.0
      ],
      [
        "Ġepi",
        -1.0
      ],
      [
        "equ",
        -1.0
      ],
      [
        "Ġmagic",
        -1.0
      ],
      [
        "Ġcheap",
        -1.0
      ],
      [
        "Ġsummary",
        -1.0
      ],
      [
        "Ġill",
        -1.0
      ],
      [
        "Ġtoilet",
        -1.0
      ],
      [
        "Ġ~",
        -1.0
      ],
      [
        "HE",
        -1.0
      ],
      [
        "Ġci",
        -1.0
      ],
      [
        "ener",
        -1.0
      ],
      [
        "ur",
        -1.0
      ],
      [
        "Gl",
        -1.0
      ],
      [
        "Ġunre",
        -1.0
      ],
      [
        "Ġchannels",
        -1.0
      ],
      [
        "Ġengine",
        -1.0
      ],
      [
        "Water",
        -1.0
      ],
      [
        "Ġlosses",
        -1.0
      ],
      [
        "Ġmoving",
        -1.0
      ],
      [
        "Ġstem",
        -1.0
      ],
      [
        "Ġassume",
        -1.0
      ],
      [
        "ĠEngland",
        -1.0
      ],
      [
        "ĠÎ",
        -1.0
      ],
      [
        "ison",
        -1.0
      ],
      [
        "work",
        -1.0
      ],
      [
        "Ġflip",
        -1.0
      ],
      [
        "Ġmushroom",
        -1.0
      ],
      [
        "Ĺ",
        -1.0
      ],
      [
        "Ġpaid",
        -1.0
      ],
      [
        "Ġapparatus",
        -1.0
      ],
      [
        "ches",
        -1.0
      ],
      [
        "ville",
        -1.0
      ],
      [
        "ĠArctic",
        -1.0
      ],
      [
        "Ġsynthesis",
        -1.0
      ],
      [
        "ĠThat",
        -1.0
      ],
      [
        "Ġpossibly",
        -1.0
      ],
      [
        "Ġnor",
        -1.0
      ],
      [
        "ku",
        -1.0
      ],
      [
        "Up",
        -1.0
      ],
      [
        "ĠMicrosoft",
        -1.0
      ],
      [
        "Ġthousand",
        -1.0
      ],
      [
        "Ġuniversal",
        -1.0
      ],
      [
        "Ġrising",
        -1.0
      ],
      [
        "Ġassociate",
        -1.0
      ],
      [
        "Ġsets",
        -1.0
      ],
      [
        "-of",
        -1.0
      ],
      [
        "Ce",
        -1.0
      ],
      [
        "mic",
        -1.0
      ],
      [
        "Ġmanaging",
        -1.0
      ],
      [
        "ĠCro",
        -1.0
      ],
      [
        "ba",
        -1.0
      ],
      [
        "yer",
        -1.0
      ],
      [
        "Ġgiven",
        -1.0
      ],
      [
        "ob",
        -1.0
      ],
      [
        "Ġpromising",
        -1.0
      ],
      [
        "é",
        -1.0
      ],
      [
        "ĠYa",
        -1.0
      ],
      [
        "Ġidentical",
        -1.0
      ],
      [
        "ĠAny",
        -1.0
      ],
      [
        "Ġerrors",
        -1.0
      ],
      [
        "Ġseparated",
        -1.0
      ],
      [
        "Ġlearned",
        -1.0
      ],
      [
        "Ġe",
        -1.0
      ],
      [
        "Ġwritten",
        -1.0
      ],
      [
        "Ġlibraries",
        -1.0
      ],
      [
        "ĠRepublic",
        -1.0
      ],
      [
        "Ġrecent",
        -1.0
      ],
      [
        "Ġdiscussed",
        -1.0
      ],
      [
        "Ġinfection",
        -1.0
      ],
      [
        "Ġfacing",
        -1.0
      ],
      [
        "Ġserved",
        -1.0
      ],
      [
        "Ġhas",
        -1.0
      ],
      [
        "pp",
        -1.0
      ],
      [
        "Ġfloor",
        -1.0
      ],
      [
        "ĠCenter",
        -1.0
      ],
      [
        "flu",
        -1.0
      ],
      [
        "Ġseed",
        -1.0
      ],
      [
        "Õ",
        -1.0
      ],
      [
        "eck",
        -1.0
      ],
      [
        "Ġfix",
        -1.0
      ],
      [
        "eous",
        -1.0
      ],
      [
        "Ġselection",
        -1.0
      ],
      [
        "du",
        -1.0
      ],
      [
        "Ġgroups",
        -1.0
      ],
      [
        "Ġsecret",
        -1.0
      ],
      [
        "Ġfeeding",
        -1.0
      ],
      [
        "Ġimproving",
        -1.0
      ],
      [
        "ose",
        -1.0
      ],
      [
        "ĠBut",
        -1.0
      ],
      [
        "Ġy",
        -1.0
      ],
      [
        "ra",
        -1.0
      ],
      [
        "rb",
        -1.0
      ],
      [
        "ĠExt",
        -1.0
      ],
      [
        "gene",
        -1.0
      ],
      [
        "Ġdirector",
        -1.0
      ],
      [
        "lands",
        -1.0
      ],
      [
        "qua",
        -1.0
      ],
      [
        "Ġamazing",
        -1.0
      ],
      [
        "urt",
        -1.0
      ],
      [
        "Ġallow",
        -1.0
      ],
      [
        "Ġdisinfect",
        -1.0
      ],
      [
        "ION",
        -1.0
      ],
      [
        "ĠPo",
        -1.0
      ],
      [
        "-ray",
        -1.0
      ],
      [
        "Ġ@",
        -1.0
      ],
      [
        "Ġdead",
        -1.0
      ],
      [
        "ird",
        -1.0
      ],
      [
        "Ġwaves",
        -1.0
      ],
      [
        "Ġtruth",
        -1.0
      ],
      [
        "ĠLand",
        -1.0
      ],
      [
        "Ġinsight",
        -1.0
      ],
      [
        "ĠNational",
        -1.0
      ],
      [
        "*",
        -1.0
      ],
      [
        "Ġfra",
        -1.0
      ],
      [
        "Ġcarrots",
        -1.0
      ],
      [
        "cate",
        -1.0
      ],
      [
        "Ġrefers",
        -1.0
      ],
      [
        "Ġammonia",
        -1.0
      ],
      [
        "vin",
        -1.0
      ],
      [
        "Ġyellow",
        -1.0
      ],
      [
        "ĠCB",
        -1.0
      ],
      [
        "ab",
        -1.0
      ],
      [
        "tte",
        -1.0
      ],
      [
        "Ġknew",
        -1.0
      ],
      [
        "Ġfabric",
        -1.0
      ],
      [
        "Ġexplore",
        -1.0
      ],
      [
        "day",
        -1.0
      ],
      [
        "Ġmouse",
        -1.0
      ],
      [
        "07",
        -1.0
      ],
      [
        "take",
        -1.0
      ],
      [
        "er",
        -1.0
      ],
      [
        "ĠJapanese",
        -1.0
      ],
      [
        "ĠCirc",
        -1.0
      ],
      [
        "ĠAmericans",
        -1.0
      ],
      [
        "ars",
        -1.0
      ],
      [
        "osis",
        -1.0
      ],
      [
        "atch",
        -1.0
      ],
      [
        "Ġextensive",
        -1.0
      ],
      [
        "Ġextract",
        -1.0
      ],
      [
        "Ġnoticed",
        -1.0
      ],
      [
        "ĠÃ",
        -1.0
      ],
      [
        "fri",
        -1.0
      ],
      [
        "ĠFood",
        -1.0
      ],
      [
        "lat",
        -1.0
      ],
      [
        "Ġbare",
        -1.0
      ],
      [
        "ring",
        -1.0
      ],
      [
        "ĠGermany",
        -1.0
      ],
      [
        "Ġthink",
        -1.0
      ],
      [
        "verse",
        -1.0
      ],
      [
        "Ġrooms",
        -1.0
      ],
      [
        "Ġhom",
        -1.0
      ],
      [
        "Ġvegetable",
        -1.0
      ],
      [
        "Ġeconomic",
        -1.0
      ],
      [
        "sec",
        -1.0
      ],
      [
        "uary",
        -1.0
      ],
      [
        "ĠpH",
        -1.0
      ],
      [
        "Ġsupply",
        -1.0
      ],
      [
        "Ġteaching",
        -1.0
      ],
      [
        "Ġentry",
        -1.0
      ],
      [
        "aving",
        -1.0
      ],
      [
        "Ġrid",
        -1.0
      ],
      [
        "Ġdrivers",
        -1.0
      ],
      [
        "Ġblack",
        -1.0
      ],
      [
        "Ġconsist",
        -1.0
      ],
      [
        "iv",
        -1.0
      ],
      [
        "pi",
        -1.0
      ],
      [
        "Ġsafely",
        -1.0
      ],
      [
        "Ġarticle",
        -1.0
      ],
      [
        "Ġplates",
        -1.0
      ],
      [
        "Ġextended",
        -1.0
      ],
      [
        "Ġcapital",
        -1.0
      ],
      [
        "Ġinvention",
        -1.0
      ],
      [
        "Ġdense",
        -1.0
      ],
      [
        "ĠOw",
        -1.0
      ],
      [
        "Ġwithdraw",
        -1.0
      ],
      [
        "Ġlay",
        -1.0
      ],
      [
        "Ġsouth",
        -1.0
      ],
      [
        "ĠColumbia",
        -1.0
      ],
      [
        "ges",
        -1.0
      ],
      [
        "oms",
        -1.0
      ],
      [
        "Ġchips",
        -1.0
      ],
      [
        "Ġsounds",
        -1.0
      ],
      [
        "Ġstrict",
        -1.0
      ],
      [
        "Ġinformed",
        -1.0
      ],
      [
        "pathy",
        -1.0
      ],
      [
        "Ġinstall",
        -1.0
      ],
      [
        "cked",
        -1.0
      ],
      [
        "âĢľ",
        -1.0
      ],
      [
        "Ġmeasured",
        -1.0
      ],
      [
        "Ġalle",
        -1.0
      ],
      [
        "Ġcontain",
        -1.0
      ],
      [
        "Ġsizes",
        -1.0
      ],
      [
        "Ġvariables",
        -1.0
      ],
      [
        "Despite",
        -1.0
      ],
      [
        "Ġunusual",
        -1.0
      ],
      [
        "Ġdeci",
        -1.0
      ],
      [
        "Ġdriving",
        -1.0
      ],
      [
        "ara",
        -1.0
      ],
      [
        "Ġvisible",
        -1.0
      ],
      [
        "Ġgum",
        -1.0
      ],
      [
        "Ġson",
        -1.0
      ],
      [
        "Ġspecies",
        -1.0
      ],
      [
        "ĠTechn",
        -1.0
      ],
      [
        "Ġrare",
        -1.0
      ],
      [
        "ĠProcess",
        -1.0
      ],
      [
        "ĠPresident",
        -1.0
      ],
      [
        "LE",
        -1.0
      ],
      [
        "Ġch",
        -1.0
      ],
      [
        "Ġstructure",
        -1.0
      ],
      [
        "Ġaccept",
        -1.0
      ],
      [
        "ĠBlue",
        -1.0
      ],
      [
        "ti",
        -1.0
      ],
      [
        "-mi",
        -1.0
      ],
      [
        "uted",
        -1.0
      ],
      [
        "Ġlenses",
        -1.0
      ],
      [
        "ĠCanadian",
        -1.0
      ],
      [
        "uk",
        -1.0
      ],
      [
        "Ġextend",
        -1.0
      ],
      [
        "Ġserve",
        -1.0
      ],
      [
        "Ġforces",
        -1.0
      ],
      [
        "VE",
        -1.0
      ],
      [
        "Ġgreat",
        -1.0
      ],
      [
        "Ġintention",
        -1.0
      ],
      [
        "Ġturn",
        -1.0
      ],
      [
        "Ġmin",
        -1.0
      ],
      [
        "TH",
        -1.0
      ],
      [
        "key",
        -1.0
      ],
      [
        "mm",
        -1.0
      ],
      [
        "Ġwatch",
        -1.0
      ],
      [
        "ĠChoose",
        -1.0
      ],
      [
        "Here",
        -1.0
      ],
      [
        "Ġpre",
        -1.0
      ],
      [
        "Ġwilling",
        -1.0
      ],
      [
        "ĠEle",
        -1.0
      ],
      [
        "Ġdirt",
        -1.0
      ],
      [
        "91",
        -1.0
      ],
      [
        "Ġavocado",
        -1.0
      ],
      [
        "42",
        -1.0
      ],
      [
        "hon",
        -1.0
      ],
      [
        "We",
        -1.0
      ],
      [
        "ĠZoo",
        -1.0
      ],
      [
        "han",
        -1.0
      ],
      [
        "Ġfinally",
        -1.0
      ],
      [
        "Ġextremely",
        -1.0
      ],
      [
        "ept",
        -1.0
      ],
      [
        "Ġlisten",
        -1.0
      ],
      [
        "Ġthis",
        -1.0
      ],
      [
        "ĠTry",
        -1.0
      ],
      [
        "Ġgive",
        -1.0
      ],
      [
        "Ġsources",
        -1.0
      ],
      [
        "Figure",
        -1.0
      ],
      [
        "Ġexample",
        -1.0
      ],
      [
        "ĠLanguage",
        -1.0
      ],
      [
        "xt",
        -1.0
      ],
      [
        "Ġsuggests",
        -1.0
      ],
      [
        "ency",
        -1.0
      ],
      [
        "als",
        -1.0
      ],
      [
        "Ġdependent",
        -1.0
      ],
      [
        "Ġoptim",
        -1.0
      ],
      [
        "ĠVis",
        -1.0
      ],
      [
        "Ġadvance",
        -1.0
      ],
      [
        "do",
        -1.0
      ],
      [
        "Ġadvis",
        -1.0
      ],
      [
        "UC",
        -1.0
      ],
      [
        "Ġbacterial",
        -1.0
      ],
      [
        "ĠPlace",
        -1.0
      ],
      [
        "ocus",
        -1.0
      ],
      [
        "BC",
        -1.0
      ],
      [
        "Qu",
        -1.0
      ],
      [
        "Ġhappy",
        -1.0
      ],
      [
        "ĠGeorgia",
        -1.0
      ],
      [
        "8",
        -1.0
      ],
      [
        "Ć",
        -1.0
      ],
      [
        "Ġplu",
        -1.0
      ],
      [
        "Ar",
        -1.0
      ],
      [
        "bo",
        -1.0
      ],
      [
        "Ra",
        -1.0
      ],
      [
        "Ġsatellite",
        -1.0
      ],
      [
        "ched",
        -1.0
      ],
      [
        "ĠFacebook",
        -1.0
      ],
      [
        "Ġmeasuring",
        -1.0
      ],
      [
        "Ġmillions",
        -1.0
      ],
      [
        "Ġdefault",
        -1.0
      ],
      [
        "AS",
        -1.0
      ],
      [
        "Ġneeded",
        -1.0
      ],
      [
        "Ġtomato",
        -1.0
      ],
      [
        "Ġregulate",
        -1.0
      ],
      [
        "Ġcloth",
        -1.0
      ],
      [
        "gy",
        -1.0
      ],
      [
        "Ġcase",
        -1.0
      ],
      [
        "Ġcome",
        -1.0
      ],
      [
        "ĠMath",
        -1.0
      ],
      [
        "Ġapproach",
        -1.0
      ],
      [
        "Ġtesting",
        -1.0
      ],
      [
        "gram",
        -1.0
      ],
      [
        "iling",
        -1.0
      ],
      [
        "hm",
        -1.0
      ],
      [
        "Ġhybrid",
        -1.0
      ],
      [
        "hol",
        -1.0
      ],
      [
        "Ġmal",
        -1.0
      ],
      [
        "ĠAg",
        -1.0
      ],
      [
        "Ġmost",
        -1.0
      ],
      [
        "Ġwouldn",
        -1.0
      ],
      [
        "iversity",
        -1.0
      ],
      [
        "Ġsu",
        -1.0
      ],
      [
        "Ġphrase",
        -1.0
      ],
      [
        "op",
        -1.0
      ],
      [
        "ducing",
        -1.0
      ],
      [
        "dh",
        -1.0
      ],
      [
        "Ġasthma",
        -1.0
      ],
      [
        "ĠSw",
        -1.0
      ],
      [
        "NG",
        -1.0
      ],
      [
        "They",
        -1.0
      ],
      [
        "az",
        -1.0
      ],
      [
        "Ġbringing",
        -1.0
      ],
      [
        "ii",
        -1.0
      ],
      [
        "Ġexact",
        -1.0
      ],
      [
        "Ġsweet",
        -1.0
      ],
      [
        "Ġprovide",
        -1.0
      ],
      [
        "Per",
        -1.0
      ],
      [
        "ĠDef",
        -1.0
      ],
      [
        "Ġspl",
        -1.0
      ],
      [
        "Ġfresh",
        -1.0
      ],
      [
        "Ġvalve",
        -1.0
      ],
      [
        "Ġlifestyle",
        -1.0
      ],
      [
        "-do",
        -1.0
      ],
      [
        "ols",
        -1.0
      ],
      [
        "Ġmovement",
        -1.0
      ],
      [
        "Ġchain",
        -1.0
      ],
      [
        "Ġins",
        -1.0
      ],
      [
        "Ġtreat",
        -1.0
      ],
      [
        "Ġparty",
        -1.0
      ],
      [
        "tim",
        -1.0
      ],
      [
        "Ġangle",
        -1.0
      ],
      [
        "Ġret",
        -1.0
      ],
      [
        "Ġfed",
        -1.0
      ],
      [
        "18",
        -1.0
      ],
      [
        "Ġsilicon",
        -1.0
      ],
      [
        "Ġbetter",
        -1.0
      ],
      [
        "nea",
        -1.0
      ],
      [
        "Ġmortality",
        -1.0
      ],
      [
        "-B",
        -1.0
      ],
      [
        "Ġhu",
        -1.0
      ],
      [
        "sty",
        -1.0
      ],
      [
        "Ġranges",
        -1.0
      ],
      [
        "Ġleading",
        -1.0
      ],
      [
        "Ġemotional",
        -1.0
      ],
      [
        "even",
        -1.0
      ],
      [
        "Ġhum",
        -1.0
      ],
      [
        "Ġmolecule",
        -1.0
      ],
      [
        "ĠForest",
        -1.0
      ],
      [
        "Ġshield",
        -1.0
      ],
      [
        "lit",
        -1.0
      ],
      [
        "10",
        -1.0
      ],
      [
        "Ġvideo",
        -1.0
      ],
      [
        "-A",
        -1.0
      ],
      [
        "mma",
        -1.0
      ],
      [
        "um",
        -1.0
      ],
      [
        "rst",
        -1.0
      ],
      [
        "Ġsurviv",
        -1.0
      ],
      [
        "Ġinterface",
        -1.0
      ],
      [
        "ka",
        -1.0
      ],
      [
        "hal",
        -1.0
      ],
      [
        "86",
        -1.0
      ],
      [
        "Ġcombining",
        -1.0
      ],
      [
        "More",
        -1.0
      ],
      [
        "Ġkid",
        -1.0
      ],
      [
        "Ġapparent",
        -1.0
      ],
      [
        "Ġcontent",
        -1.0
      ],
      [
        "ĠHouse",
        -1.0
      ],
      [
        "Ġcm",
        -1.0
      ],
      [
        "ni",
        -1.0
      ],
      [
        "Ġanyone",
        -1.0
      ],
      [
        "Ind",
        -1.0
      ],
      [
        "Ġspe",
        -1.0
      ],
      [
        "Ġlicense",
        -1.0
      ],
      [
        "Ġexc",
        -1.0
      ],
      [
        "Ġchecked",
        -1.0
      ],
      [
        "Ġstay",
        -1.0
      ],
      [
        "can",
        -1.0
      ],
      [
        "Ġagents",
        -1.0
      ],
      [
        "Ġflowering",
        -1.0
      ],
      [
        "Ġdouble",
        -1.0
      ],
      [
        "Ġinvi",
        -1.0
      ],
      [
        "'",
        -1.0
      ],
      [
        "Ġlift",
        -1.0
      ],
      [
        "Ġflat",
        -1.0
      ],
      [
        "lue",
        -1.0
      ],
      [
        "Ġtech",
        -1.0
      ],
      [
        "ĠBra",
        -1.0
      ],
      [
        "tails",
        -1.0
      ],
      [
        "Ġsteel",
        -1.0
      ],
      [
        "Ġbreathing",
        -1.0
      ],
      [
        "Ġreproduce",
        -1.0
      ],
      [
        "DM",
        -1.0
      ],
      [
        "ĠThese",
        -1.0
      ],
      [
        "oses",
        -1.0
      ],
      [
        "Ġlargest",
        -1.0
      ],
      [
        "14",
        -1.0
      ],
      [
        "Ġaesthetic",
        -1.0
      ],
      [
        "CP",
        -1.0
      ],
      [
        "Wa",
        -1.0
      ],
      [
        "Ġgran",
        -1.0
      ],
      [
        "Ġconsuming",
        -1.0
      ],
      [
        "come",
        -1.0
      ],
      [
        "Ġnorth",
        -1.0
      ],
      [
        "-su",
        -1.0
      ],
      [
        "ĠAP",
        -1.0
      ],
      [
        "ĠAfrican",
        -1.0
      ],
      [
        "Ġpackaging",
        -1.0
      ],
      [
        "Ġpolicies",
        -1.0
      ],
      [
        "Ġresult",
        -1.0
      ],
      [
        "'ve",
        -1.0
      ],
      [
        "Ġpit",
        -1.0
      ],
      [
        "ĠChildren",
        -1.0
      ],
      [
        "Ġlitter",
        -1.0
      ],
      [
        "Ġadvanced",
        -1.0
      ],
      [
        "Ġspec",
        -1.0
      ],
      [
        "Ġbloom",
        -1.0
      ],
      [
        "dra",
        -1.0
      ],
      [
        "Ġsmaller",
        -1.0
      ],
      [
        "rio",
        -1.0
      ],
      [
        "Ġrespect",
        -1.0
      ],
      [
        "ĠType",
        -1.0
      ],
      [
        "ome",
        -1.0
      ],
      [
        "Ġlevels",
        -1.0
      ],
      [
        "Ġreti",
        -1.0
      ],
      [
        "Ġhatch",
        -1.0
      ],
      [
        "ĠBur",
        -1.0
      ],
      [
        "Ġoverview",
        -1.0
      ],
      [
        "Ġ)",
        -1.0
      ],
      [
        "Ġdraw",
        -1.0
      ],
      [
        "ĠOur",
        -1.0
      ],
      [
        "Ġlikely",
        -1.0
      ],
      [
        "lin",
        -1.0
      ],
      [
        "que",
        -1.0
      ],
      [
        "dro",
        -1.0
      ],
      [
        "ĠGra",
        -1.0
      ],
      [
        "ode",
        -1.0
      ],
      [
        ",ĊĊ",
        -1.0
      ],
      [
        "ĠCBD",
        -1.0
      ],
      [
        "Ġfruit",
        -1.0
      ],
      [
        "ura",
        -1.0
      ],
      [
        "Ġcirc",
        -1.0
      ],
      [
        "scopic",
        -1.0
      ],
      [
        "Ġyogurt",
        -1.0
      ],
      [
        "po",
        -1.0
      ],
      [
        "71",
        -1.0
      ],
      [
        "Ġcosm",
        -1.0
      ],
      [
        "Ġprinted",
        -1.0
      ],
      [
        "Ġdesk",
        -1.0
      ],
      [
        "Ġincludes",
        -1.0
      ],
      [
        "Ġcleaning",
        -1.0
      ],
      [
        "Ġisn",
        -1.0
      ],
      [
        "Ġreaching",
        -1.0
      ],
      [
        "Ġseveral",
        -1.0
      ],
      [
        "Sc",
        -1.0
      ],
      [
        "Ġjourney",
        -1.0
      ],
      [
        "Ġsugar",
        -1.0
      ],
      [
        "Ġsuggest",
        -1.0
      ],
      [
        "Ġsk",
        -1.0
      ],
      [
        "Ġshots",
        -1.0
      ],
      [
        "I",
        -1.0
      ],
      [
        "llow",
        -1.0
      ],
      [
        "Ġrich",
        -1.0
      ],
      [
        "Ġhard",
        -1.0
      ],
      [
        "Ġes",
        -1.0
      ],
      [
        "Ġport",
        -1.0
      ],
      [
        "Ġprolonged",
        -1.0
      ],
      [
        "PS",
        -1.0
      ],
      [
        "ln",
        -1.0
      ],
      [
        "ul",
        -1.0
      ],
      [
        "edge",
        -1.0
      ],
      [
        "self",
        -1.0
      ],
      [
        "ec",
        -1.0
      ],
      [
        "Ġrust",
        -1.0
      ],
      [
        "ĠKu",
        -1.0
      ],
      [
        "ĠApp",
        -1.0
      ],
      [
        "ca",
        -1.0
      ],
      [
        "Ġsleep",
        -1.0
      ],
      [
        "Ġintuitive",
        -1.0
      ],
      [
        "Is",
        -1.0
      ],
      [
        "Ġremoved",
        -1.0
      ],
      [
        "Ġoccur",
        -1.0
      ],
      [
        "ĠTh",
        -1.0
      ],
      [
        "TS",
        -1.0
      ],
      [
        "ĠAm",
        -1.0
      ],
      [
        "ek",
        -1.0
      ],
      [
        "Ł",
        -1.0
      ],
      [
        "ĠStr",
        -1.0
      ],
      [
        "pet",
        -1.0
      ],
      [
        "Ġcovering",
        -1.0
      ],
      [
        "ĠJournal",
        -1.0
      ],
      [
        "ĠChurch",
        -1.0
      ],
      [
        "Ġmeat",
        -1.0
      ],
      [
        "Ġeduc",
        -1.0
      ],
      [
        "NO",
        -1.0
      ],
      [
        "IM",
        -1.0
      ],
      [
        "Ġcart",
        -1.0
      ],
      [
        "Ġbelt",
        -1.0
      ],
      [
        "Ġafford",
        -1.0
      ],
      [
        "Ġstages",
        -1.0
      ],
      [
        "Ġfilter",
        -1.0
      ],
      [
        "Ġholes",
        -1.0
      ],
      [
        "ĠHarvard",
        -1.0
      ],
      [
        "Ġstudents",
        -1.0
      ],
      [
        "inity",
        -1.0
      ],
      [
        "ñ",
        -1.0
      ],
      [
        "ours",
        -1.0
      ],
      [
        "Ġemotions",
        -1.0
      ],
      [
        "Ġrestore",
        -1.0
      ],
      [
        "Ġdrink",
        -1.0
      ],
      [
        "icul",
        -1.0
      ],
      [
        "21",
        -1.0
      ],
      [
        "Ġlost",
        -1.0
      ],
      [
        "Ġsessions",
        -1.0
      ],
      [
        "Ġbody",
        -1.0
      ],
      [
        "cker",
        -1.0
      ],
      [
        "Ġflavour",
        -1.0
      ],
      [
        "ads",
        -1.0
      ],
      [
        "Ġhumans",
        -1.0
      ],
      [
        "uit",
        -1.0
      ],
      [
        "Ġmoves",
        -1.0
      ],
      [
        "ays",
        -1.0
      ],
      [
        "Ġkilo",
        -1.0
      ],
      [
        "ĠSpecial",
        -1.0
      ],
      [
        "-resistant",
        -1.0
      ],
      [
        "Ġmale",
        -1.0
      ],
      [
        "Ġtrack",
        -1.0
      ],
      [
        "hn",
        -1.0
      ],
      [
        "Ġclaim",
        -1.0
      ],
      [
        "li",
        -1.0
      ],
      [
        "ct",
        -1.0
      ],
      [
        "Ġraised",
        -1.0
      ],
      [
        "ĠVer",
        -1.0
      ],
      [
        "Ġreduces",
        -1.0
      ],
      [
        "ā",
        -1.0
      ],
      [
        "ĠCouncil",
        -1.0
      ],
      [
        "Ġplayed",
        -1.0
      ],
      [
        "ĠOlympic",
        -1.0
      ],
      [
        "ril",
        -1.0
      ],
      [
        "Ġconduct",
        -1.0
      ],
      [
        "cur",
        -1.0
      ],
      [
        "Ġmechanism",
        -1.0
      ],
      [
        "use",
        -1.0
      ],
      [
        "Ġbase",
        -1.0
      ],
      [
        "ĠUnder",
        -1.0
      ],
      [
        "rom",
        -1.0
      ],
      [
        "Ġactively",
        -1.0
      ],
      [
        "Ġsuitable",
        -1.0
      ],
      [
        "Par",
        -1.0
      ],
      [
        "Ġreplacing",
        -1.0
      ],
      [
        "Ġroad",
        -1.0
      ],
      [
        "Ġmer",
        -1.0
      ],
      [
        "car",
        -1.0
      ],
      [
        "Ġpull",
        -1.0
      ],
      [
        "has",
        -1.0
      ],
      [
        "Ġinstalled",
        -1.0
      ],
      [
        "gm",
        -1.0
      ],
      [
        "Ġ/",
        -1.0
      ],
      [
        "Key",
        -1.0
      ],
      [
        "ash",
        -1.0
      ],
      [
        "Ġless",
        -1.0
      ],
      [
        "ĠMc",
        -1.0
      ],
      [
        "Ġwindow",
        -1.0
      ],
      [
        "ath",
        -1.0
      ],
      [
        "ues",
        -1.0
      ],
      [
        "ĠTra",
        -1.0
      ],
      [
        "Ġdark",
        -1.0
      ],
      [
        "istry",
        -1.0
      ],
      [
        "Ġbegin",
        -1.0
      ],
      [
        "Ġabsorb",
        -1.0
      ],
      [
        "ache",
        -1.0
      ],
      [
        "TP",
        -1.0
      ],
      [
        "Ġregion",
        -1.0
      ],
      [
        "Ġspo",
        -1.0
      ],
      [
        "Two",
        -1.0
      ],
      [
        "Ġdoctor",
        -1.0
      ],
      [
        "Į",
        -1.0
      ],
      [
        "ĠCul",
        -1.0
      ],
      [
        "ĠMa",
        -1.0
      ],
      [
        "Ġheld",
        -1.0
      ],
      [
        "Ġ:",
        -1.0
      ],
      [
        "Ġfruits",
        -1.0
      ],
      [
        "Ġintensity",
        -1.0
      ],
      [
        "Ġreg",
        -1.0
      ],
      [
        "ĠDe",
        -1.0
      ],
      [
        "ira",
        -1.0
      ],
      [
        "Ġprec",
        -1.0
      ],
      [
        "Ġoperation",
        -1.0
      ],
      [
        "Ġdidn",
        -1.0
      ],
      [
        "45",
        -1.0
      ],
      [
        "Ġphysician",
        -1.0
      ],
      [
        "Ġneural",
        -1.0
      ],
      [
        "Ġtw",
        -1.0
      ],
      [
        "Ġmini",
        -1.0
      ],
      [
        "Ġlooked",
        -1.0
      ],
      [
        "lated",
        -1.0
      ],
      [
        "Ġped",
        -1.0
      ],
      [
        "Ġsource",
        -1.0
      ],
      [
        "Ġexpected",
        -1.0
      ],
      [
        "Ġcash",
        -1.0
      ],
      [
        "val",
        -1.0
      ],
      [
        "ĠLevel",
        -1.0
      ],
      [
        "Ġjun",
        -1.0
      ],
      [
        "ĠOther",
        -1.0
      ],
      [
        "For",
        -1.0
      ],
      [
        "ent",
        -1.0
      ],
      [
        "ĠGet",
        -1.0
      ],
      [
        "Ġparallel",
        -1.0
      ],
      [
        "Ġparent",
        -1.0
      ],
      [
        "ote",
        -1.0
      ],
      [
        "Ġmice",
        -1.0
      ],
      [
        "Ġlock",
        -1.0
      ],
      [
        ".A",
        -1.0
      ],
      [
        "Ġglaucoma",
        -1.0
      ],
      [
        "Ġrisk",
        -1.0
      ],
      [
        "Ġstir",
        -1.0
      ],
      [
        "Ġtr",
        -1.0
      ],
      [
        "Ġclosed",
        -1.0
      ],
      [
        "ĠCarolina",
        -1.0
      ],
      [
        "Ġbased",
        -1.0
      ],
      [
        "Ġdie",
        -1.0
      ],
      [
        "Ġnest",
        -1.0
      ],
      [
        "Ġinsert",
        -1.0
      ],
      [
        "Ġmm",
        -1.0
      ],
      [
        "Ġlu",
        -1.0
      ],
      [
        "Ġcity",
        -1.0
      ],
      [
        "Ġbuying",
        -1.0
      ],
      [
        "k",
        -1.0
      ],
      [
        "or",
        -1.0
      ],
      [
        "Ġa",
        -1.0
      ],
      [
        "Ġrotation",
        -1.0
      ],
      [
        "Ġaffects",
        -1.0
      ],
      [
        "Ġbreaking",
        -1.0
      ],
      [
        "SH",
        -1.0
      ],
      [
        "Ġtraits",
        -1.0
      ],
      [
        "Ī",
        -1.0
      ],
      [
        "oid",
        -1.0
      ],
      [
        "Ġexpert",
        -1.0
      ],
      [
        "Ġsomething",
        -1.0
      ],
      [
        "wear",
        -1.0
      ],
      [
        "Ġsuit",
        -1.0
      ],
      [
        "Ġwest",
        -1.0
      ],
      [
        "Ġcattle",
        -1.0
      ],
      [
        "Ġincrease",
        -1.0
      ],
      [
        "Ġfo",
        -1.0
      ],
      [
        "ĠCounty",
        -1.0
      ],
      [
        "ĠUn",
        -1.0
      ],
      [
        "ĠRoman",
        -1.0
      ],
      [
        "ipped",
        -1.0
      ],
      [
        "Ġdecay",
        -1.0
      ],
      [
        "ĠSign",
        -1.0
      ],
      [
        "Ġpredict",
        -1.0
      ],
      [
        "Ġref",
        -1.0
      ],
      [
        "ĠCut",
        -1.0
      ],
      [
        "Ġshot",
        -1.0
      ],
      [
        "ikes",
        -1.0
      ],
      [
        "Ġrecipes",
        -1.0
      ],
      [
        "ĝ",
        -1.0
      ],
      [
        "Ġnursing",
        -1.0
      ],
      [
        "Ġlong",
        -1.0
      ],
      [
        "Ġsteam",
        -1.0
      ],
      [
        "C",
        -1.0
      ],
      [
        "more",
        -1.0
      ],
      [
        "Ġadjacent",
        -1.0
      ],
      [
        "Ġsentence",
        -1.0
      ],
      [
        "ates",
        -1.0
      ],
      [
        "les",
        -1.0
      ],
      [
        "ĠVo",
        -1.0
      ],
      [
        "Ġbreak",
        -1.0
      ],
      [
        "kins",
        -1.0
      ],
      [
        "ĸ",
        -1.0
      ],
      [
        "Ġcement",
        -1.0
      ],
      [
        "â",
        -1.0
      ],
      [
        "eth",
        -1.0
      ],
      [
        "Ġabstract",
        -1.0
      ],
      [
        "rea",
        -1.0
      ],
      [
        "Ġexactly",
        -1.0
      ],
      [
        "Ġtwenty",
        -1.0
      ],
      [
        "Ġaging",
        -1.0
      ],
      [
        "tel",
        -1.0
      ],
      [
        "Ġstate",
        -1.0
      ],
      [
        "ami",
        -1.0
      ],
      [
        "ãĤ",
        -1.0
      ],
      [
        "Ġscale",
        -1.0
      ],
      [
        "Ġtargets",
        -1.0
      ],
      [
        "Ġlearning",
        -1.0
      ],
      [
        "set",
        -1.0
      ],
      [
        "Ġweather",
        -1.0
      ],
      [
        "oo",
        -1.0
      ],
      [
        "ĠSha",
        -1.0
      ],
      [
        "Ġcondens",
        -1.0
      ],
      [
        "Ġexploring",
        -1.0
      ],
      [
        "ĠLondon",
        -1.0
      ],
      [
        "zing",
        -1.0
      ],
      [
        "Ġfurnace",
        -1.0
      ],
      [
        "ĠSen",
        -1.0
      ],
      [
        "Ġworkshop",
        -1.0
      ],
      [
        "Ġcustomers",
        -1.0
      ],
      [
        "Ġability",
        -1.0
      ],
      [
        "ipe",
        -1.0
      ],
      [
        "ame",
        -1.0
      ],
      [
        "AA",
        -1.0
      ],
      [
        "an",
        -1.0
      ],
      [
        "Now",
        -1.0
      ],
      [
        "Ġchosen",
        -1.0
      ],
      [
        "Ġet",
        -1.0
      ],
      [
        "ĠMar",
        -1.0
      ],
      [
        "Ġdisplay",
        -1.0
      ],
      [
        "Ġgentle",
        -1.0
      ],
      [
        "tru",
        -1.0
      ],
      [
        "Ġnet",
        -1.0
      ],
      [
        "Ġvirus",
        -1.0
      ],
      [
        "âĢĭ",
        -1.0
      ],
      [
        "ĠGl",
        -1.0
      ],
      [
        "Ġob",
        -1.0
      ],
      [
        "ima",
        -1.0
      ],
      [
        "name",
        -1.0
      ],
      [
        "Ġforth",
        -1.0
      ],
      [
        "Ġedge",
        -1.0
      ],
      [
        "ĠSC",
        -1.0
      ],
      [
        "aves",
        -1.0
      ],
      [
        "ĠArizona",
        -1.0
      ],
      [
        "Ġce",
        -1.0
      ],
      [
        "rap",
        -1.0
      ],
      [
        "OC",
        -1.0
      ],
      [
        "ited",
        -1.0
      ],
      [
        "Ġspeaker",
        -1.0
      ],
      [
        "Ġalone",
        -1.0
      ],
      [
        "Ġtrip",
        -1.0
      ],
      [
        "rd",
        -1.0
      ],
      [
        "Ġtire",
        -1.0
      ],
      [
        "Ġtests",
        -1.0
      ],
      [
        "Ġhad",
        -1.0
      ],
      [
        "izations",
        -1.0
      ],
      [
        "ND",
        -1.0
      ],
      [
        "Ġglasses",
        -1.0
      ],
      [
        "ĠIf",
        -1.0
      ],
      [
        "cycle",
        -1.0
      ],
      [
        "ĠVi",
        -1.0
      ],
      [
        "Ġfarm",
        -1.0
      ],
      [
        "IF",
        -1.0
      ],
      [
        "ire",
        -1.0
      ],
      [
        "Ġstand",
        -1.0
      ],
      [
        "Ġsituation",
        -1.0
      ],
      [
        "Ġsurgery",
        -1.0
      ],
      [
        "cm",
        -1.0
      ],
      [
        "Ġget",
        -1.0
      ],
      [
        "ization",
        -1.0
      ],
      [
        "Ë",
        -1.0
      ],
      [
        "men",
        -1.0
      ],
      [
        "ight",
        -1.0
      ],
      [
        "Ġshell",
        -1.0
      ],
      [
        "Ġefforts",
        -1.0
      ],
      [
        "º",
        -1.0
      ],
      [
        "aze",
        -1.0
      ],
      [
        "Then",
        -1.0
      ],
      [
        "ey",
        -1.0
      ],
      [
        "ĠEr",
        -1.0
      ],
      [
        "Ġviruses",
        -1.0
      ],
      [
        "gles",
        -1.0
      ],
      [
        "Ġsomeone",
        -1.0
      ],
      [
        "ĠMat",
        -1.0
      ],
      [
        "Ġundergo",
        -1.0
      ],
      [
        "Ġl",
        -1.0
      ],
      [
        "ji",
        -1.0
      ],
      [
        "Ġfat",
        -1.0
      ],
      [
        "Ġmedicinal",
        -1.0
      ],
      [
        "Ġfind",
        -1.0
      ],
      [
        "vas",
        -1.0
      ],
      [
        "Ġway",
        -1.0
      ],
      [
        "oken",
        -1.0
      ],
      [
        "Ġconfirm",
        -1.0
      ],
      [
        "He",
        -1.0
      ],
      [
        "metry",
        -1.0
      ],
      [
        "Z",
        -1.0
      ],
      [
        "Ġrisks",
        -1.0
      ],
      [
        "Ġproven",
        -1.0
      ],
      [
        "Ġcontains",
        -1.0
      ],
      [
        "by",
        -1.0
      ],
      [
        "Ġsubject",
        -1.0
      ],
      [
        "ĠBird",
        -1.0
      ],
      [
        "ask",
        -1.0
      ],
      [
        "Ġslu",
        -1.0
      ],
      [
        "box",
        -1.0
      ],
      [
        "ei",
        -1.0
      ],
      [
        "Ġmirror",
        -1.0
      ],
      [
        "Ġsum",
        -1.0
      ],
      [
        "bow",
        -1.0
      ],
      [
        "Ġdelivered",
        -1.0
      ],
      [
        "\\",
        -1.0
      ],
      [
        "ĠFish",
        -1.0
      ],
      [
        "ron",
        -1.0
      ],
      [
        "ha",
        -1.0
      ],
      [
        "cks",
        -1.0
      ],
      [
        "ll",
        -1.0
      ],
      [
        "Ġcop",
        -1.0
      ],
      [
        "kes",
        -1.0
      ],
      [
        "Ġop",
        -1.0
      ],
      [
        "eve",
        -1.0
      ],
      [
        "Ġcoral",
        -1.0
      ],
      [
        "Ġroads",
        -1.0
      ],
      [
        "Ġranging",
        -1.0
      ],
      [
        "Ġelderly",
        -1.0
      ],
      [
        "Ġgu",
        -1.0
      ],
      [
        "ive",
        -1.0
      ],
      [
        "ness",
        -1.0
      ],
      [
        "utch",
        -1.0
      ],
      [
        "Ġexpenses",
        -1.0
      ],
      [
        "list",
        -1.0
      ],
      [
        "Ę",
        -1.0
      ],
      [
        "ł",
        -1.0
      ],
      [
        "ock",
        -1.0
      ],
      [
        "Ġproper",
        -1.0
      ],
      [
        "uv",
        -1.0
      ],
      [
        "Ġarch",
        -1.0
      ],
      [
        "ĠPC",
        -1.0
      ],
      [
        "Ġwelding",
        -1.0
      ],
      [
        "Ġchoice",
        -1.0
      ],
      [
        "ĠOpen",
        -1.0
      ],
      [
        "ĠEvery",
        -1.0
      ],
      [
        "sti",
        -1.0
      ],
      [
        "CA",
        -1.0
      ],
      [
        "Ġsmell",
        -1.0
      ],
      [
        "ĠRock",
        -1.0
      ],
      [
        "Ġmeals",
        -1.0
      ],
      [
        "lu",
        -1.0
      ],
      [
        "Ġdecor",
        -1.0
      ],
      [
        "Ġaids",
        -1.0
      ],
      [
        "Ġdisturb",
        -1.0
      ],
      [
        "tch",
[...]
