{
  "version": "1.0",
  "truncation": null,
  "padding": null,
  "added_tokens": [
    {
      "id": 0,
      "content": "<|bos|>",
      "single_word": false,
      "lstrip": false,
      "rstrip": false,
      "normalized": false,
      "special": true
    },
    {
      "id": 1,
      "content": "<|user_start|>",
      "single_word": false,
      "lstrip": false,
      "rstrip": false,
      "normalized": false,
      "special": true
    },
    {
      "id": 2,
      "content": "<|user_end|>",
      "single_word": false,
      "lstrip": false,
      "rstrip": false,
      "normalized": false,
      "special": true
    },
    {
      "id": 3,
      "content": "<|assistant_start|>",
      "single_word": false,
      "lstrip": false,
      "rstrip": false,
      "normalized": false,
      "special": true
    },
    {
      "id": 4,
      "content": "<|assistant_end|>",
      "single_word": false,
      "lstrip": false,
      "rstrip": false,
      "normalized": false,
      "special": true
    },
    {
      "id": 5,
      "content": "<|python_start|>",
      "single_word": false,
      "lstrip": false,
      "rstrip": false,
      "normalized": false,
      "special": true
    },
    {
      "id": 6,
      "content": "<|python_end|>",
      "single_word": false,
      "lstrip": false,
      "rstrip": false,
      "normalized": false,
      "special": true
    },
    {
      "id": 7,
      "content": "<|output_start|>",
      "single_word": false,
      "lstrip": false,
      "rstrip": false,
      "normalized": false,
      "special": true
    },
    {
      "id": 8,
      "content": "<|output_end|>",
      "single_word": false,
      "lstrip": false,
      "rstrip": false,
      "normalized": false,
      "special": true
    },
    {
      "id": 9,
      "content": "<|unk|>",
      "single_word": false,
      "lstrip": false,
      "rstrip": false,
      "normalized": false,
      "special": true
    }
  ],
  "normalizer": null,
  "pre_tokenizer": {
    "type": "Sequence",
    "pretokenizers": [
      {
        "type": "Split",
        "pattern": {
          "Regex": "'(?i:[sdmt]|ll|ve|re)|[^\\r\\n\\p{L}\\p{N}]?+\\p{L}+|\\p{N}{1,2}| ?[^\\s\\p{L}\\p{N}]++[\\r\\n]*|\\s*[\\r\\n]|\\s+(?!\\S)|\\s+"
        },
        "behavior": "Isolated",
        "invert": false
      },
      {
        "type": "ByteLevel",
        "add_prefix_space": false,
        "trim_offsets": true,
        "use_regex": false
      }
    ]
  },
  "post_processor": {
    "type": "TemplateProcessing",
    "single": [
      {
        "Sequence": {
          "id": "A",
          "type_id": 0
        }
      }
    ],
    "pair": [
      {
        "Sequence": {
          "id": "A",
          "type_id": 0
        }
      },
      {
        "Sequence": {
          "id": "B",
          "type_id": 1
        }
      }
    ],
    "special_tokens": {}
  },
  "decoder": null,
  "model": {
    "type": "BPE",
    "dropout": null,
    "unk_token": "<|unk|>",
    "continuing_subword_prefix": null,
    "end_of_word_suffix": null,
    "fuse_unk": false,
    "byte_fallback": false,
    "ignore_merges": false,
    "vocab": {
      "<|bos|>": 0,
      "<|user_start|>": 1,
      "<|user_end|>": 2,
      "<|assistant_start|>": 3,
      "<|assistant_end|>": 4,
      "<|python_start|>": 5,
      "<|python_end|>": 6,
      "<|output_start|>": 7,
      "<|output_end|>": 8,
      "<|unk|>": 9,
      "!": 10,
      "\"": 11,
      "#": 12,
      "$": 13,
      "%": 14,
      "&": 15,
      "'": 16,
      "(": 17,
      ")": 18,
      "*": 19,
      "+": 20,
      ",": 21,
      "-": 22,
      ".": 23,
      "/": 24,
      "0": 25,
      "1": 26,
      "2": 27,
      "3": 28,
      "4": 29,
      "5": 30,
      "6": 31,
      "7": 32,
      "8": 33,
      "9": 34,
      ":": 35,
      ";": 36,
      "<": 37,
      "=": 38,
      ">": 39,
      "?": 40,
      "@": 41,
      "A": 42,
      "B": 43,
      "C": 44,
      "D": 45,
      "E": 46,
      "F": 47,
      "G": 48,
      "H": 49,
      "I": 50,
      "J": 51,
      "K": 52,
      "L": 53,
      "M": 54,
      "N": 55,
      "O": 56,
      "P": 57,
      "Q": 58,
      "R": 59,
      "S": 60,
      "T": 61,
      "U": 62,
      "V": 63,
      "W": 64,
      "X": 65,
      "Y": 66,
      "Z": 67,
      "[": 68,
      "\\": 69,
      "]": 70,
      "^": 71,
      "_": 72,
      "`": 73,
      "a": 74,
      "b": 75,
      "c": 76,
      "d": 77,
      "e": 78,
      "f": 79,
      "g": 80,
      "h": 81,
      "i": 82,
      "j": 83,
      "k": 84,
      "l": 85,
      "m": 86,
      "n": 87,
      "o": 88,
      "p": 89,
      "q": 90,
      "r": 91,
      "s": 92,
      "t": 93,
      "u": 94,
      "v": 95,
      "w": 96,
      "x": 97,
      "y": 98,
      "z": 99,
      "{": 100,
      "|": 101,
      "}": 102,
      "~": 103,
      "¡": 104,
      "¢": 105,
      "£": 106,
      "¤": 107,
      "¥": 108,
      "¦": 109,
      "§": 110,
      "¨": 111,
      "©": 112,
      "ª": 113,
      "«": 114,
      "¬": 115,
      "®": 116,
      "¯": 117,
      "°": 118,
      "±": 119,
      "²": 120,
      "³": 121,
      "´": 122,
      "µ": 123,
      "¶": 124,
      "·": 125,
      "¸": 126,
      "¹": 127,
      "º": 128,
      "»": 129,
      "¼": 130,
      "½": 131,
      "¾": 132,
      "¿": 133,
      "À": 134,
      "Á": 135,
      "Â": 136,
      "Ã": 137,
      "Ä": 138,
      "Å": 139,
      "Æ": 140,
      "Ç": 141,
      "È": 142,
      "É": 143,
      "Ê": 144,
      "Ë": 145,
      "Ì": 146,
      "Í": 147,
      "Î": 148,
      "Ï": 149,
      "Ð": 150,
      "Ñ": 151,
      "Ò": 152,
      "Ó": 153,
      "Ô": 154,
      "Õ": 155,
      "Ö": 156,
      "×": 157,
      "Ø": 158,
      "Ù": 159,
      "Ú": 160,
      "Û": 161,
      "Ü": 162,
      "Ý": 163,
      "Þ": 164,
      "ß": 165,
      "à": 166,
      "á": 167,
      "â": 168,
      "ã": 169,
      "ä": 170,
      "å": 171,
      "æ": 172,
      "ç": 173,
      "è": 174,
      "é": 175,
      "ê": 176,
      "ë": 177,
      "ì": 178,
      "í": 179,
      "î": 180,
      "ï": 181,
      "ð": 182,
      "ñ": 183,
      "ò": 184,
      "ó": 185,
      "ô": 186,
      "õ": 187,
      "ö": 188,
      "÷": 189,
      "ø": 190,
      "ù": 191,
      "ú": 192,
      "û": 193,
      "ü": 194,
      "ý": 195,
      "þ": 196,
      "ÿ": 197,
      "Ā": 198,
      "ā": 199,
      "Ă": 200,
      "ă": 201,
      "Ą": 202,
      "ą": 203,
      "Ć": 204,
      "ć": 205,
      "Ĉ": 206,
      "ĉ": 207,
      "Ċ": 208,
      "ċ": 209,
      "Č": 210,
      "č": 211,
      "Ď": 212,
      "ď": 213,
      "Đ": 214,
      "đ": 215,
      "Ē": 216,
      "ē": 217,
      "Ĕ": 218,
      "ĕ": 219,
      "Ė": 220,
      "ė": 221,
      "Ę": 222,
      "ę": 223,
      "Ě": 224,
      "ě": 225,
      "Ĝ": 226,
      "ĝ": 227,
      "Ğ": 228,
      "ğ": 229,
      "Ġ": 230,
      "ġ": 231,
      "Ģ": 232,
      "ģ": 233,
      "Ĥ": 234,
      "ĥ": 235,
      "Ħ": 236,
      "ħ": 237,
      "Ĩ": 238,
      "ĩ": 239,
      "Ī": 240,
      "ī": 241,
      "Ĭ": 242,
      "ĭ": 243,
      "Į": 244,
      "į": 245,
      "İ": 246,
      "ı": 247,
      "Ĳ": 248,
      "ĳ": 249,
      "Ĵ": 250,
      "ĵ": 251,
      "Ķ": 252,
      "ķ": 253,
      "ĸ": 254,
      "Ĺ": 255,
      "ĺ": 256,
      "Ļ": 257,
      "ļ": 258,
      "Ľ": 259,
      "ľ": 260,
      "Ŀ": 261,
      "ŀ": 262,
      "Ł": 263,
      "ł": 264,
      "Ń": 265,
      "Ġt": 266,
      "Ġa": 267,
      "in": 268,
      "he": 269,
      "re": 270,
      "on": 271,
      "Ġthe": 272,
      "er": 273,
      "Ġs": 274,
      "at": 275,
      "Ġc": 276,
      "Ġo": 277,
      "es": 278,
      "en": 279,
      "Ġw": 280,
      "nd": 281,
      "it": 282,
      "is": 283,
      "ing": 284,
      "Ġp": 285,
      "or": 286,
      "Ġb": 287,
      "Ġf": 288,
      "ou": 289,
      "al": 290,
      "an": 291,
      "Ġm": 292,
      "ed": 293,
      "Ġof": 294,
      "ar": 295,
      "Ġto": 296,
      "Ġin": 297,
      "Ġand": 298,
      "Ġd": 299,
      "ic": 300,
      "ion": 301,
      "le": 302,
      "ro": 303,
      "as": 304,
      "Ġh": 305,
      "Ġth": 306,
      "ct": 307,
      "Ġe": 308,
      "ent": 309,
      "Ġl": 310,
      "ve": 311,
      "il": 312,
      "Ġre": 313,
      "om": 314,
      "st": 315,
      "Ġis": 316,
      "Ġn": 317,
      ".Ċ": 318,
      "et": 319,
      "ly": 320,
      "Ġg": 321,
      "Ġy": 322,
      "ot": 323,
      "se": 324,
      "Ġbe": 325,
      "ow": 326,
      "ĠT": 327,
      "id": 328,
      "Ġyou": 329,
      "im": 330,
      "ut": 331,
      "ol": 332,
      "ig": 333,
      "ce": 334,
      "ra": 335,
      "Ġfor": 336,
      "Ġu": 337,
      "ĠA": 338,
      "ation": 339,
      "ch": 340,
      "ur": 341,
      "Ġst": 342,
      "Ġon": 343,
      "ĠI": 344,
      "Ġthat": 345,
      "ir": 346,
      "ver": 347,
      "ul": 348,
      "Ġit": 349,
      "ith": 350,
      "Ġare": 351,
      "ay": 352,
      "el": 353,
      "Ġpro": 354,
      "ĠS": 355,
      "am": 356,
      "if": 357,
      "Ġan": 358,
      "Ġwith": 359,
      "est": 360,
      "Ġas": 361,
      "Ġcon": 362,
      "Ġor": 363,
      "her": 364,
      ".ĊĊ": 365,
      "ĠC": 366,
      "Ġal": 367,
      "od": 368,
      "ad": 369,
      "ter": 370,
      "ĊĊ": 371,
      "ke": 372,
      "Ġwh": 373,
      "ge": 374,
      "ĠThe": 375,
      "Ġcan": 376,
      "ab": 377,
      "ure": 378,
      "ate": 379,
      "ĠW": 380,
      "Ġex": 381,
      "um": 382,
      "ill": 383,
      "Ġha": 384,
      "Ġcom": 385,
      "ess": 386,
      "ant": 387,
      "Ġhe": 388,
      "pe": 389,
      "igh": 390,
      "ers": 391,
      "ore": 392,
      "th": 393,
      "qu": 394,
      "ive": 395,
      "'s": 396,
      "ies": 397,
      "em": 398,
      "Ġsu": 399,
      "ac": 400,
      "op": 401,
      "ity": 402,
      "Ġv": 403,
      "ĠM": 404,
      "os": 405,
      "ĠP": 406,
      "ain": 407,
      "Ġwe": 408,
      "ment": 409,
      "Ġ(": 410,
      "Ġde": 411,
      "ist": 412,
      "rom": 413,
      "us": 414,
      "Ġyour": 415,
      "ĠB": 416,
      "ld": 417,
      "Ġse": 418,
      "Ġne": 419,
      "Ġen": 420,
      "Ġch": 421,
      "pp": 422,
      "nt": 423,
      "Ġr": 424,
      "Ġat": 425,
      "ect": 426,
      "iv": 427,
      "Ġsh": 428,
      "Ġfrom": 429,
      "ial": 430,
      "oc": 431,
      "ort": 432,
      "ight": 433,
      "Ġhave": 434,
      "Ġby": 435,
      "ĠH": 436,
      "ĠD": 437,
      "Ġle": 438,
      "un": 439,
      "and": 440,
      "og": 441,
      "res": 442,
      "Ġpl": 443,
      "art": 444,
      "ud": 445,
      "Ġnot": 446,
      "all": 447,
      "per": 448,
      "ĠF": 449,
      "Ġus": 450,
      "ical": 451,
      "ri": 452,
      "Ġthis": 453,
      "ns": 454,
      "ome": 455,
      "du": 456,
      "ĠE": 457,
      "act": 458,
      "rou": 459,
      "Ġab": 460,
      "ide": 461,
      "pt": 462,
      "ĠR": 463,
      "ould": 464,
      "ine": 465,
      "Ġma": 466,
      "ost": 467,
      "out": 468,
      "ich": 469,
      "Ġwas": 470,
      "pl": 471,
      "ard": 472,
      "ions": 473,
      "red": 474,
      "Ġim": 475,
      "ust": 476,
      "ĠN": 477,
      "ell": 478,
      "Ġint": 479,
      "gh": 480,
      "Ġwhe": 481,
      "Ġdo": 482,
      "âĢ": 483,
      "Ġwor": 484,
      "our": 485,
      "Ġk": 486,
      "ff": 487,
      "ast": 488,
      "ater": 489,
      "Ġwill": 490,
      "Ġthey": 491,
      "Ġtheir": 492,
      "ther": 493,
      "The": 494,
      "Ġcomp": 495,
      "age": 496,
      "iz": 497,
      "ĠG": 498,
      "king": 499,
      "ood": 500,
      "ĠL": 501,
      "Ġad": 502,
      "Ġall": 503,
      "ag": 504,
      "ated": 505,
      "able": 506,
      "ks": 507,
      "Ġmore": 508,
      "ans": 509,
      "Ġcont": 510,
      "ere": 511,
      "end": 512,
      "ĠO": 513,
      "hat": 514,
      "ult": 515,
      "ib": 516,
      "Ġcl": 517,
      "ally": 518,
      "Ġinc": 519,
      "ind": 520,
      "ip": 521,
      "wer": 522,
      "ous": 523,
      "oo": 524,
      "estion": 525,
      "ry": 526,
      "ru": 527,
      "Ġbut": 528,
      "Ġso": 529,
      "so": 530,
      "Ġres": 531,
      "Qu": 532,
      "ep": 533,
      "Ġme": 534,
      "Ġdis": 535,
      "Ġ\"": 536,
      "Ġte": 537,
      "ance": 538,
      "ong": 539,
      "Ġwhich": 540,
      "are": 541,
      "Ġj": 542,
      "vel": 543,
      "Ġhas": 544,
      "cc": 545,
      "ike": 546,
      "orm": 547,
      "Ġsp": 548,
      "ations": 549,
      "Ġout": 550,
      "ase": 551,
      "20": 552,
      "ear": 553,
      "ction": 554,
      "Ġimp": 555,
      "his": 556,
      "nswer": 557,
      "av": 558,
      "Ġother": 559,
      "Question": 560,
      "Ġspe": 561,
      "Ġone": 562,
      "ie": 563,
      "ĠU": 564,
      "Ġalso": 565,
      "very": 566,
      "ĠAnswer": 567,
      "ents": 568,
      "ice": 569,
      "one": 570,
      "ence": 571,
      "ign": 572,
      "reat": 573,
      "ace": 574,
      "ary": 575,
      "ĠIn": 576,
      "ack": 577,
      "Ġper": 578,
      "Ġtim": 579,
      "Ġman": 580,
      "ap": 581,
      "ach": 582,
      "au": 583,
      "'t": 584,
      "ass": 585,
      "ens": 586,
      "Ġthem": 587,
      "Ġfe": 588,
      "ition": 589,
      "Ġup": 590,
      "ĠIt": 591,
      "Ġev": 592,
      "low": 593,
      "Ġpre": 594,
      "Ġabout": 595,
      "Ġsc": 596,
      "ors": 597,
      "Ġro": 598,
      "iff": 599,
      "Ġlike": 600,
      "Ġsome": 601,
      "ound": 602,
      "ia": 603,
      "ress": 604,
      "Ġun": 605,
      "ose": 606,
      "..": 607,
      "Ġqu": 608,
      "ile": 609,
      "Ġwhen": 610,
      "ces": 611,
      "ak": 612,
      "now": 613,
      "Ġpart": 614,
      "ame": 615,
      "ire": 616,
      "ue": 617,
      "Ġcol": 618,
      "Ġsy": 619,
      "Ġinto": 620,
      "ite": 621,
      "ber": 622,
      "Ġif": 623,
      "ild": 624,
      "Ġdiff": 625,
      "ĠThis": 626,
      "Ġhow": 627,
      "ric": 628,
      "ail": 629,
      "Ġthan": 630,
      "Ġneed": 631,
      "ĠY": 632,
      "Ġuse": 633,
      "te": 634,
      "Ġtime": 635,
      "form": 636,
      "ll": 637,
      "Ġbec": 638,
      "Ġar": 639,
      "Ġpe": 640,
      "ĠWhat": 641,
      "row": 642,
      "Ġapp": 643,
      "ord": 644,
      "Ġhel": 645,
      "Ġmay": 646,
      "ings": 647,
      "Ġover": 648,
      "ree": 649,
      "nder": 650,
      "Ġany": 651,
      "ays": 652,
      "Ġthere": 653,
      "Ġrec": 654,
      "Ġbet": 655,
      "ause": 656,
      "ific": 657,
      "Ġtra": 658,
      "les": 659,
      "Ġbl": 660,
      "lect": 661,
      "als": 662,
      "Ġcomm": 663,
      "Ġspec": 664,
      "Ġthese": 665,
      "ough": 666,
      "Ġhelp": 667,
      "Ġits": 668,
      "Ġco": 669,
      "int": 670,
      "ory": 671,
      "ond": 672,
      "Ġdes": 673,
      "we": 674,
      "Ġstud": 675,
      "ating": 676,
      "cess": 677,
      "Ġwater": 678,
      "ang": 679,
      "hy": 680,
      "ĠJ": 681,
      "Ġget": 682,
      "Ġtr": 683,
      "Ġcons": 684,
      "olog": 685,
      "ish": 686,
      "Ġknow": 687,
      "ons": 688,
      "ari": 689,
      "ub": 690,
      "ĠâĢ": 691,
      "Ġgen": 692,
      "rough": 693,
      "ake": 694,
      "ature": 695,
      "Ġam": 696,
      "Ġused": 697,
      "Ġeff": 698,
      "Ġprodu": 699,
      "Ġgo": 700,
      "ove": 701,
      "ular": 702,
      "stem": 703,
      "ount": 704,
      "Ġwere": 705,
      "Ġact": 706,
      "vers": 707,
      "Ġdiffere": 708,
      "ople": 709,
      "Ġunder": 710,
      "Ġfl": 711,
      "Ġyear": 712,
      "Ġra": 713,
      "Ġoff": 714,
      "Ġmost": 715,
      "Ġour": 716,
      "ning": 717,
      "Ġwho": 718,
      "Ġnew": 719,
      "ook": 720,
      "Ġwhat": 721,
      "round": 722,
      "ms": 723,
      "Ġsuch": 724,
      "erv": 725,
      "Ġsa": 726,
      "ne": 727,
      "ick": 728,
      "ates": 729,
      "ĠSt": 730,
      "Ġcar": 731,
      "ple": 732,
      "Ġprov": 733,
      "lud": 734,
      "Ġsm": 735,
      "erg": 736,
      "ck": 737,
      "alth": 738,
      "ting": 739,
      "oth": 740,
      "Ġtw": 741,
      "Ġag": 742,
      "Ġmake": 743,
      "10": 744,
      "xt": 745,
      "ility": 746,
      "Ġacc": 747,
      "ient": 748,
      "Ġpeople": 749,
      "19": 750,
      "Ġadd": 751,
      "irst": 752,
      "Ġbeen": 753,
      "ise": 754,
      "Ġwould": 755,
      "Ġshould": 756,
      "oss": 757,
      "uring": 758,
      "ful": 759,
      "ange": 760,
      "eth": 761,
      "ject": 762,
      "Ġdi": 763,
      "Ġem": 764,
      "Ġthrough": 765,
      "Ġsystem": 766,
      "ph": 767,
      "Ġno": 768,
      "ced": 769,
      "hes": 770,
      "Ġwork": 771,
      "Ġpr": 772,
      "ics": 773,
      "ble": 774,
      "Ġrel": 775,
      "Ġinclud": 776,
      "ments": 777,
      "velop": 778,
      "ov": 779,
      "its": 780,
      "Ġonly": 781,
      "ĠV": 782,
      "ative": 783,
      "--": 784,
      "Ġty": 785,
      "ĠK": 786,
      "Ġmy": 787,
      "Ġjust": 788,
      "ities": 789,
      "00": 790,
      "Ġpo": 791,
      "ob": 792,
      "Ġreg": 793,
      "Ġplant": 794,
      "Ġind": 795,
      "hed": 796,
      "Ġhigh": 797,
      "Ġmany": 798,
      "Ġsur": 799,
      "ower": 800,
      "ark": 801,
      "own": 802,
      "Ġtwo": 803,
      "Ġke": 804,
      "ible": 805,
      "fore": 806,
      "old": 807,
      "Ġinter": 808,
      "hen": 809,
      "ten": 810,
      "ual": 811,
      "ram": 812,
      "fter": 813,
      "ract": 814,
      "ased": 815,
      "ween": 816,
      "tain": 817,
      "Ġdifferent": 818,
      "ience": 819,
      "Ġdevelop": 820,
      "Ġdoes": 821,
      "chn": 822,
      "rit": 823,
      "Ġac": 824,
      "Ġbu": 825,
      "Ġfirst": 826,
      "Ġwhere": 827,
      "Ġwell": 828,
      "Ġrem": 829,
      "Ġrep": 830,
      "Ġhealth": 831,
      "ink": 832,
      "Ġtrans": 833,
      "Ġmod": 834,
      "Ġlong": 835,
      "Ġvari": 836,
      "Ġbetween": 837,
      "Ġexper": 838,
      "ize": 839,
      "Ġche": 840,
      "erm": 841,
      "ren": 842,
      "bs": 843,
      "cy": 844,
      "ade": 845,
      "Ġsim": 846,
      "arch": 847,
      "get": 848,
      "mer": 849,
      "lic": 850,
      "Ġinv": 851,
      "Ġdec": 852,
      "ft": 853,
      "rib": 854,
      "Ġsupp": 855,
      "uch": 856,
      "Ġdet": 857,
      "gan": 858,
      "Ġcould": 859,
      "ually": 860,
      "ution": 861,
      "Ġimport": 862,
      "ife": 863,
      "Ġprocess": 864,
      "Ġass": 865,
      "ential": 866,
      "Ġgrow": 867,
      "Ġway": 868,
      "Ġbecause": 869,
      "Ġusing": 870,
      "Ġinst": 871,
      "Ġpat": 872,
      "Ġmin": 873,
      "Ġeven": 874,
      "Ġcre": 875,
      "Ġnum": 876,
      "Ġvery": 877,
      "Ġ-": 878,
      "ts": 879,
      "ef": 880,
      "Ġinf": 881,
      "ĠCh": 882,
      "In": 883,
      "Ġevery": 884,
      "ically": 885,
      "ĠIf": 886,
      "Ġeffect": 887,
      "Ġsol": 888,
      "gg": 889,
      "Ġhis": 890,
      "ian": 891,
      ").": 892,
      "Ġsign": 893,
      "iron": 894,
      "Ġmain": 895,
      "Ġlar": 896,
      "Ġatt": 897,
      "Ġfood": 898,
      "Ġear": 899,
      "ps": 900,
      "pect": 901,
      "ever": 902,
      "Ġthen": 903,
      "ĠHow": 904,
      "iqu": 905,
      "wn": 906,
      "ĠThey": 907,
      "ins": 908,
      "?Ċ": 909,
      "Ġtechn": 910,
      "ious": 911,
      "Ġlight": 912,
      "Ġexam": 913,
      "ron": 914,
      "ily": 915,
      "Ġsee": 916,
      "Ġsk": 917,
      "sel": 918,
      "ines": 919,
      "ool": 920,
      "Ġrese": 921,
      "Ġext": 922,
      "Ġhad": 923,
      "Ġhum": 924,
      "oy": 925,
      "iss": 926,
      "Ġrequ": 927,
      "Ġexp": 928,
      "Ġform": 929,
      "ural": 930,
      "'re": 931,
      "Ġsmall": 932,
      "arm": 933,
      "Ġincre": 934,
      "ergy": 935,
      "Ġph": 936,
      "Ġgra": 937,
      "ock": 938,
      "ĠYou": 939,
      "Ġeach": 940,
      "Ġgood": 941,
      "ollow": 942,
      "Ġins": 943,
      "Ġfind": 944,
      "Ġyears": 945,
      "Ġdisc": 946,
      "ĠWh": 947,
      "Ġback": 948,
      "Ġmuch": 949,
      "?ĊĊ": 950,
      "Ġcle": 951,
      "other": 952,
      "viron": 953,
      "),": 954,
      "ruct": 955,
      "ata": 956,
      "uc": 957,
      "Ġset": 958,
      "urn": 959,
      "Ġlear": 960,
      "ures": 961,
      "vent": 962,
      "ational": 963,
      "Ġdon": 964,
      "Ġca": 965,
      "Ġpres": 966,
      "tle": 967,
      "ology": 968,
      "cial": 969,
      "ĠAs": 970,
      "Ġafter": 971,
      "Ġpot": 972,
      "ied": 973,
      "ĠâĢĵ": 974,
      "ness": 975,
      "stand": 976,
      "Ġresult": 977,
      "Ġgener": 978,
      "Ġimportant": 979,
      "Ġfound": 980,
      "Ġair": 981,
      "Ġsub": 982,
      "Ġve": 983,
      "Ġfun": 984,
      "Ġgl": 985,
      "ix": 986,
      "Ġloc": 987,
      "ety": 988,
      "Ġav": 989,
      "Ġelect": 990,
      "ĠUn": 991,
      "ec": 992,
      "ption": 993,
      "Ġfact": 994,
      "Ġher": 995,
      "Ġwhile": 996,
      "Ġref": 997,
      "Ġstart": 998,
      "Ġcell": 999,
      "ues": 1000,
      "Ġdog": 1001,
      "Ġpers": 1002,
      "eld": 1003,
      "ists": 1004,
      "Ġcall": 1005,
      "Ġchar": 1006,
      "Ġchild": 1007,
      "Ġcomple": 1008,
      "Ġtake": 1009,
      "12": 1010,
      "Ġcur": 1011,
      "ros": 1012,
      "Ġfollow": 1013,
      "ases": 1014,
      "Ġdesign": 1015,
      "ody": 1016,
      "Ġsame": 1017,
      "ages": 1018,
      "Ġbeing": 1019,
      "ality": 1020,
      "Ġwant": 1021,
      "vironment": 1022,
      "Ġthose": 1023,
      "ew": 1024,
      "Ġlevel": 1025,
      "Ġpartic": 1026,
      "ring": 1027,
      "Ġmed": 1028,
      "Ġcor": 1029,
      "Ġduring": 1030,
      "ident": 1031,
      "Ġdist": 1032,
      "Ġbefore": 1033,
      "eg": 1034,
      "aterial": 1035,
      "Ġworld": 1036,
      "ices": 1037,
      "Ġart": 1038,
      ".\"": 1039,
      "Ġenergy": 1040,
      "ets": 1041,
      "Ġaround": 1042,
      "cl": 1043,
      "Ġsec": 1044,
      "Ġbre": 1045,
      "Ġproble": 1046,
      "Ġhand": 1047,
      "Ġshe": 1048,
      "Ġinform": 1049,
      "nce": 1050,
      "ys": 1051,
      "Ġshow": 1052,
      "Ġexpl": 1053,
      "Ġdown": 1054,
      "Ġdep": 1055,
      "Ġallow": 1056,
      "chool": 1057,
      "ives": 1058,
      "ides": 1059,
      "ider": 1060,
      "Ġdata": 1061,
      "air": 1062,
      "Ġtem": 1063,
      "dition": 1064,
      "ĠWe": 1065,
      "rol": 1066,
      "ng": 1067,
      "tern": 1068,
      "Ġboth": 1069,
      "Ġeas": 1070,
      "ier": 1071,
      "omm": 1072,
      "Ġown": 1073,
      "Ġredu": 1074,
      "Ġob": 1075,
      "ized": 1076,
      "cer": 1077,
      "rop": 1078,
      "Ġval": 1079,
      "acter": 1080,
      "els": 1081,
      "Ġprog": 1082,
      "Ġlead": 1083,
      "Ġmaterial": 1084,
      "Ġlife": 1085,
      "Ġbo": 1086,
      "Ġend": 1087,
      "Ġbest": 1088,
      "ather": 1089,
      "Ġtyp": 1090,
      "ien": 1091,
      "Ġpop": 1092,
      "ĠFor": 1093,
      "Ġent": 1094,
      "Ġmade": 1095,
      "ward": 1096,
      "io": 1097,
      "Ġplay": 1098,
      "18": 1099,
      "Ġorgan": 1100,
      "aw": 1101,
      "Ġtoo": 1102,
      ":Ċ": 1103,
      "Ġmon": 1104,
      "ids": 1105,
      "Ġright": 1106,
      "ale": 1107,
      "ield": 1108,
      "ull": 1109,
      "up": 1110,
      "ted": 1111,
      "ty": 1112,
      "Ġkeep": 1113,
      "Ġoften": 1114,
      "Ġnumber": 1115,
      "Ġaut": 1116,
      "Ġanim": 1117,
      "ger": 1118,
      "ĠHe": 1119,
      "ium": 1120,
      "ving": 1121,
      "ork": 1122,
      "rent": 1123,
      "Ġcommun": 1124,
      "Ġvis": 1125,
      "imate": 1126,
      "ĠPro": 1127,
      "the": 1128,
      "ute": 1129,
      "Ġday": 1130,
      "Ġdr": 1131,
      "Ġenvironment": 1132,
      "Ġcat": 1133,
      "ited": 1134,
      "ĠAl": 1135,
      "Ġed": 1136,
      "Ġpower": 1137,
      "ots": 1138,
      "atter": 1139,
      "Ġgu": 1140,
      "read": 1141,
      "Ġunderstand": 1142,
      "Ġmet": 1143,
      "oci": 1144,
      "Ġsaid": 1145,
      "Ġadv": 1146,
      "-b": 1147,
      "Ġcare": 1148,
      "ined": 1149,
      "Ġequ": 1150,
      "Ġread": 1151,
      ",\"": 1152,
      "ved": 1153,
      "Ġstr": 1154,
      "any": 1155,
      "Ġless": 1156,
      "ethod": 1157,
      "cept": 1158,
      "way": 1159,
      "Ġ'": 1160,
      "iving": 1161,
      "Ġbra": 1162,
      "Ġtest": 1163,
      "ivers": 1164,
      "Ġinformation": 1165,
      "reen": 1166,
      "Ġsom": 1167,
      "led": 1168,
      "eng": 1169,
      "aking": 1170,
      "cle": 1171,
      "Ġspecies": 1172,
      "Ġlit": 1173,
      "ands": 1174,
      "Ġposs": 1175,
      "ason": 1176,
      "Ġprot": 1177,
      "Ġdef": 1178,
      "ves": 1179,
      "Ġap": 1180,
      "Ġproduct": 1181,
      "iew": 1182,
      "Ġhome": 1183,
      "Ġresp": 1184,
      "ave": 1185,
      "Ġstudy": 1186,
      "Ġperson": 1187,
      "Ġeng": 1188,
      "ining": 1189,
      "ĠThese": 1190,
      "cent": 1191,
      "Ġcommon": 1192,
      "hys": 1193,
      "Ġpoint": 1194,
      "perature": 1195,
      "cing": 1196,
      "What": 1197,
      "Ġcent": 1198,
      "Ġbody": 1199,
      "ivid": 1200,
      "15": 1201,
      "ird": 1202,
      "ars": 1203,
      "ict": 1204,
      "nect": 1205,
      "Ġactiv": 1206,
      "Ġfam": 1207,
      "Ġtreat": 1208,
      "Ġlarge": 1209,
      "Ġpol": 1210,
      "Ġclass": 1211,
      "Ġnow": 1212,
      "Ġlook": 1213,
      "Ġocc": 1214,
      "rap": 1215,
      "me": 1216,
      "hers": 1217,
      "Ġben": 1218,
      "Ġbetter": 1219,
      "der": 1220,
      "ional": 1221,
      "Ġpain": 1222,
      "ĠTh": 1223,
      "Ġmight": 1224,
      "ath": 1225,
      "Ġdid": 1226,
      "âĢĻ": 1227,
      "Ġmethod": 1228,
      "hip": 1229,
      "Ġplan": 1230,
      "itions": 1231,
      "Ġhuman": 1232,
      "ator": 1233,
      "day": 1234,
      "itive": 1235,
      "ants": 1236,
      "Ġsupport": 1237,
      "ole": 1238,
      "kes": 1239,
      "ulation": 1240,
      "ism": 1241,
      "Ġproper": 1242,
      "ven": 1243,
      "Ġprovide": 1244,
      "Ġgreat": 1245,
      "Ġstudents": 1246,
      "Ġwithout": 1247,
      "ash": 1248,
      "Ġhy": 1249,
      "Ġexample": 1250,
      "con": 1251,
      "ĠAnd": 1252,
      "-s": 1253,
      "This": 1254,
      "Ġpur": 1255,
      "Ġcreat": 1256,
      "...": 1257,
      "Ġplants": 1258,
      "ffect": 1259,
      "Ġcontain": 1260,
      "Ġresearch": 1261,
      "Ġris": 1262,
      "Ġtemperature": 1263,
      "less": 1264,
      "Ġgrou": 1265,
      "Ġtext": 1266,
      "ĠAn": 1267,
      "irect": 1268,
      "Ġstill": 1269,
      "Ġserv": 1270,
      "Ġbeh": 1271,
      "ability": 1272,
      "Ġchange": 1273,
      "ify": 1274,
      "How": 1275,
      "ering": 1276,
      "ĠBut": 1277,
      "Ġchang": 1278,
      "ired": 1279,
      "Ġcontrol": 1280,
      "und": 1281,
      "Ġnat": 1282,
      "Ġdise": 1283,
      "ĠSc": 1284,
      "Ġsaf": 1285,
      "Ġthree": 1286,
      "ĠTo": 1287,
      "ince": 1288,
      "de": 1289,
      "ĠThere": 1290,
      "Ġhapp": 1291,
      "Ġpos": 1292,
      "oid": 1293,
      "inal": 1294,
      "Ġsl": 1295,
      "Ġens": 1296,
      "Ġprof": 1297,
      "30": 1298,
      "ĠAd": 1299,
      "ert": 1300,
      "Ġimpro": 1301,
      "Ġide": 1302,
      "Ġthough": 1303,
      "Ġincluding": 1304,
      "self": 1305,
      "here": 1306,
      "ways": 1307,
      "Ġop": 1308,
      "Ġcreate": 1309,
      "Ġarea": 1310,
      "meric": 1311,
      "Ġrun": 1312,
      "Ġlow": 1313,
      "ead": 1314,
      "Ġprotect": 1315,
      "Ġcurrent": 1316,
      "Ġfew": 1317,
      "ared": 1318,
      "etic": 1319,
      "ters": 1320,
      "Ġbr": 1321,
      "rodu": 1322,
      "Ġknown": 1323,
      "Ġproject": 1324,
      "Ġplace": 1325,
      "Ġcaus": 1326,
      "Ġ=": 1327,
      "Ġcy": 1328,
      "Ġmaking": 1329,
      "omp": 1330,
      "Ġbenef": 1331,
      "Ġiss": 1332,
      "Ġheat": 1333,
      "Ġperform": 1334,
      "Ġagain": 1335,
      "Ġschool": 1336,
      "Ġtop": 1337,
      "ross": 1338,
      "ital": 1339,
      "Ġey": 1340,
      "Ġmeas": 1341,
      "If": 1342,
      "Ġess": 1343,
      "Ġconf": 1344,
      "Ġbi": 1345,
      "ording": 1346,
      "Ġcalled": 1347,
      "ner": 1348,
      "Ġident": 1349,
      "ention": 1350,
      "Ġele": 1351,
      "Ġsal": 1352,
      "It": 1353,
      "Ġopt": 1354,
      "Ġmust": 1355,
      "Ġflow": 1356,
      "Ġhard": 1357,
      "ral": 1358,
      ":ĊĊ": 1359,
      "Ġcount": 1360,
      "Ġconnect": 1361,
      "-f": 1362,
      "Ġdra": 1363,
      "11": 1364,
      "ĠĠ": 1365,
      "Ġbuild": 1366,
      "Ġthink": 1367,
      "ouse": 1368,
      "icle": 1369,
      "50": 1370,
      "line": 1371,
      "ax": 1372,
      "Ġmem": 1373,
      "Ġindivid": 1374,
      "aring": 1375,
      "Ġtype": 1376,
      "ern": 1377,
      "ĠHowever": 1378,
      "Ġconst": 1379,
      "co": 1380,
      "Ġpract": 1381,
      "ĠCon": 1382,
      "Ġbas": 1383,
      "__": 1384,
      "ior": 1385,
      "Ġser": 1386,
      "ĠAmeric": 1387,
      "Ġcause": 1388,
      "Ġdel": 1389,
      "Ġpotential": 1390,
      "Ġfollowing": 1391,
      "Ġdam": 1392,
      "Ġanother": 1393,
      "Ġwithin": 1394,
      "land": 1395,
      "Ġprevent": 1396,
      "22": 1397,
      "Ġbel": 1398,
      "Ġfeel": 1399,
      "Ġphys": 1400,
      "Ġthings": 1401,
      "Ġcal": 1402,
      "iven": 1403,
      "Ġappro": 1404,
      "gen": 1405,
      "ĠWhen": 1406,
      "ooking": 1407,
      "Ġcost": 1408,
      "Ġcolor": 1409,
      "Ġclean": 1410,
      "ental": 1411,
      "iness": 1412,
      "Ġsw": 1413,
      "Ġdev": 1414,
      "oes": 1415,
      "Ġcells": 1416,
      "pr": 1417,
      "'ll": 1418,
      "Ġinvol": 1419,
      "Ġsignific": 1420,
      "Ġmult": 1421,
      "uss": 1422,
      "iversity": 1423,
      "Ġchildren": 1424,
      "to": 1425,
      "ration": 1426,
      "Ġcontin": 1427,
      "ex": 1428,
      "ique": 1429,
      "ense": 1430,
      "erest": 1431,
      "ug": 1432,
      "Ġsour": 1433,
      "Ġpar": 1434,
      "Ġrest": 1435,
      "ware": 1436,
      "atch": 1437,
      "oms": 1438,
      "Ġwee": 1439,
      "Ġtre": 1440,
      "Ġhere": 1441,
      "Ġsure": 1442,
      "Ġappe": 1443,
      "Ġret": 1444,
      "osed": 1445,
      "Ġnatural": 1446,
      "Ġreally": 1447,
      "ime": 1448,
      "Ġlearn": 1449,
      "Ġsize": 1450,
      "Ġest": 1451,
      "Ġsurf": 1452,
      "Ġpub": 1453,
      "Ġindu": 1454,
      "ills": 1455,
      "Ġavail": 1456,
      "ĠAr": 1457,
      "Ġreal": 1458,
      "Ġwhy": 1459,
      "Ġspecific": 1460,
      "Ġlittle": 1461,
      "ished": 1462,
      "ĠIs": 1463,
      "Ġcap": 1464,
      "Ġstand": 1465,
      "ered": 1466,
      "13": 1467,
      "ination": 1468,
      "ĠSo": 1469,
      "ats": 1470,
      "ients": 1471,
      "Ġcour": 1472,
      "----": 1473,
      "Ġmark": 1474,
      "Ġimpact": 1475,
      "ently": 1476,
      "Ġsit": 1477,
      "ertain": 1478,
      "of": 1479,
      "aves": 1480,
      "iver": 1481,
      "Ġhead": 1482,
      "Ġinclude": 1483,
      "cul": 1484,
      "olution": 1485,
      "Ġbecome": 1486,
      "Ġmus": 1487,
      "iod": 1488,
      "ething": 1489,
      "Ġsoil": 1490,
      "Ġsever": 1491,
      "Ġlot": 1492,
      "Ġtry": 1493,
      "Ġsecond": 1494,
      "Ġdue": 1495,
      "ling": 1496,
      "thing": 1497,
      "bers": 1498,
      "Ġcond": 1499,
      "Ġstep": 1500,
      "Ġant": 1501,
      "arc": 1502,
      "16": 1503,
      "Ġfil": 1504,
      "Ġconsider": 1505,
      "port": 1506,
      "ization": 1507,
      "Ġoper": 1508,
      "Ġhig": 1509,
      "Ġlast": 1510,
      "NA": 1511,
      "Ġfield": 1512,
      "Ġdevelopment": 1513,
      "Ġable": 1514,
      "Ġaffect": 1515,
      "Ġprom": 1516,
      "Ġput": 1517,
      "br": 1518,
      "Ġaddition": 1519,
      "Ġdirect": 1520,
      "ilar": 1521,
      "Ġamount": 1522,
      "aper": 1523,
      "oot": 1524,
      "Ġvarious": 1525,
      "az": 1526,
      "Ġmeans": 1527,
      "Ġoccur": 1528,
      "over": 1529,
      "Ġdig": 1530,
      "Ġanal": 1531,
      "Ġcomb": 1532,
      "Ġcr": 1533,
      "ĠEx": 1534,
      "Ġlim": 1535,
      "ĠPl": 1536,
      "ends": 1537,
      "ah": 1538,
      "'ve": 1539,
      "Ġexperience": 1540,
      "Ġsay": 1541,
      "akes": 1542,
      "Ġunt": 1543,
      "Ġstate": 1544,
      "Ġprogram": 1545,
      "ane": 1546,
      "Ġseveral": 1547,
      "Ġpossible": 1548,
      "Ġprovid": 1549,
      "outh": 1550,
      "Ġpresent": 1551,
      "Ġfunction": 1552,
      "Ġsomething": 1553,
      "ton": 1554,
      "ocus": 1555,
      "ape": 1556,
      "Ġpress": 1557,
      "ank": 1558,
      "Ġgr": 1559,
      "Ġareas": 1560,
      "Ġavailable": 1561,
      "orn": 1562,
      "oun": 1563,
      "Ġvol": 1564,
      "Ġmove": 1565,
      ")Ċ": 1566,
      "ries": 1567,
      "inc": 1568,
      "Ġfree": 1569,
      "Ġdesc": 1570,
      "Ġel": 1571,
      "ication": 1572,
      "Ġdeterm": 1573,
      "Ġold": 1574,
      "Ġproblem": 1575,
      "gn": 1576,
      "ray": 1577,
      "ĠCl": 1578,
      "Ġphot": 1579,
      "14": 1580,
      "ified": 1581,
      "Ġgoing": 1582,
      "Ġbased": 1583,
      "Ġsignificant": 1584,
      "par": 1585,
      "Ġfeature": 1586,
      "Ġmean": 1587,
      "Ġscient": 1588,
      "Ġspace": 1589,
      "Ġstruct": 1590,
      "Ġtool": 1591,
      "ĠWhich": 1592,
      "arent": 1593,
      "Ġpass": 1594,
      "be": 1595,
      "ster": 1596,
      "Ġes": 1597,
      "Ġlet": 1598,
      ",Ċ": 1599,
      "ĠSe": 1600,
      "ended": 1601,
      "Ġcome": 1602,
      "ocial": 1603,
      "Ġcomput": 1604,
      "Ġapplic": 1605,
      "ples": 1606,
      "##": 1607,
      "St": 1608,
      "-d": 1609,
      "af": 1610,
      "ances": 1611,
      "Ġinterest": 1612,
      "Ġblood": 1613,
      "Ġdem": 1614,
      "Ġet": 1615,
      "ably": 1616,
      "oad": 1617,
      "Ġalways": 1618,
      "Ġtimes": 1619,
      "As": 1620,
      "Ġnear": 1621,
      "âĢĶ": 1622,
      "ccess": 1623,
      "mb": 1624,
      "ending": 1625,
      "Ġz": 1626,
      "Ġspecial": 1627,
      "Ġeffective": 1628,
      "Ġneeds": 1629,
      "aces": 1630,
      "Ġdisease": 1631,
      "Ġline": 1632,
      "ards": 1633,
      "Ġsystems": 1634,
      "atic": 1635,
      "com": 1636,
      "We": 1637,
      "Ġmakes": 1638,
      "bo": 1639,
      "ones": 1640,
      "ĠSh": 1641,
      "ems": 1642,
      "Ġgive": 1643,
      "Ġparticular": 1644,
      "yl": 1645,
      "Ġopen": 1646,
      "Ġbeg": 1647,
      "Ġmot": 1648,
      "Ġessential": 1649,
      "Ġlearning": 1650,
      "ĠRe": 1651,
      "Ġindust": 1652,
      "Ġfocus": 1653,
      "Ġcut": 1654,
      "Ġwind": 1655,
      "eds": 1656,
      "urther": 1657,
      "Ġbus": 1658,
      "Ġprote": 1659,
      "ateg": 1660,
      "Ġuntil": 1661,
      "Ġtypes": 1662,
      "Ġpost": 1663,
      "Ġconditions": 1664,
      "Ġcertain": 1665,
      "Ġbig": 1666,
      "Ġhist": 1667,
      "ĠWor": 1668,
      "Ġrange": 1669,
      "fort": 1670,
      "ĠInd": 1671,
      "Ġanimals": 1672,
      "arden": 1673,
      "ours": 1674,
      "Ġusually": 1675,
      "-p": 1676,
      "ision": 1677,
      "Ġchem": 1678,
      "amp": 1679,
      "Ġreport": 1680,
      "ounds": 1681,
      "ĠRes": 1682,
      "work": 1683,
      "Ġtur": 1684,
      "Ġ$": 1685,
      "pecial": 1686,
      "Ġenough": 1687,
      "ological": 1688,
      "Ġnut": 1689,
      "Ġeduc": 1690,
      "Ġrisk": 1691,
      "Ġcho": 1692,
      "Ġfre": 1693,
      "Ġmaterials": 1694,
      "ables": 1695,
      "ips": 1696,
      "ieve": 1697,
      "Ġ.": 1698,
      "Ġimm": 1699,
      "Ġmonth": 1700,
      "17": 1701,
      "put": 1702,
      "Ġorder": 1703,
      "ote": 1704,
      "Ġworks": 1705,
      "Ġquality": 1706,
      "Ġcir": 1707,
      "Ġlevels": 1708,
      "Ġteam": 1709,
      "Ġgroup": 1710,
      "Ġfish": 1711,
      "Ġopp": 1712,
      "ĠDe": 1713,
      "Ġrequire": 1714,
      "ĠCan": 1715,
      "\\n": 1716,
      "ories": 1717,
      "hing": 1718,
      "ĠWith": 1719,
      "ĠNew": 1720,
      "Ġmill": 1721,
      "Ġkey": 1722,
      "Ġ&": 1723,
      "alk": 1724,
      "Ġprofess": 1725,
      "ency": 1726,
      "ires": 1727,
      "Ġmach": 1728,
      "Ġensure": 1729,
      "Ġtechnology": 1730,
      "Ġfin": 1731,
      "Ġfamily": 1732,
      "ames": 1733,
      "Ġword": 1734,
      "ĠBe": 1735,
      "Ġperiod": 1736,
      "Ġcomplete": 1737,
      "Ġtoget": 1738,
      "Ġtogether": 1739,
      "Ġcharacter": 1740,
      "Ġoil": 1741,
      "Ġnon": 1742,
      "Ġlocal": 1743,
      "-c": 1744,
      "aut": 1745,
      "Ġincrease": 1746,
      "Ġlab": 1747,
      "uture": 1748,
      "lu": 1749,
      ")ĊĊ": 1750,
      "Ġlist": 1751,
      "Ġmeasure": 1752,
      "osp": 1753,
      "Ġname": 1754,
      "Ġsens": 1755,
      "Ġproblems": 1756,
      "Ġearly": 1757,
      "Ġchanges": 1758,
      "ustom": 1759,
      "Ġprim": 1760,
      "ately": 1761,
      "Ġter": 1762,
      "Ġmic": 1763,
      "asing": 1764,
      "utes": 1765,
      "'m": 1766,
      "Ġcult": 1767,
      "hor": 1768,
      "ains": 1769,
      "Ġsurface": 1770,
      "iting": 1771,
      "Ġeffic": 1772,
      "Ġweight": 1773,
      "ggest": 1774,
      "bon": 1775,
      "Ġrepl": 1776,
      "ury": 1777,
      "Ġside": 1778,
      "Ġaway": 1779,
      "Ġobs": 1780,
      "Ġmar": 1781,
      "ump": 1782,
      "Ġsince": 1783,
      "Ġbro": 1784,
      "Ġresults": 1785,
      "Ġsing": 1786,
      "Ġleast": 1787,
      "Ġconsum": 1788,
      "ĠUniversity": 1789,
      "Ġenc": 1790,
      "Ġsimilar": 1791,
      "Ġbehav": 1792,
      "ode": 1793,
      "ret": 1794,
      "âĢĻs": 1795,
      "Ġrad": 1796,
      "Ġ[": 1797,
      "You": 1798,
      "oose": 1799,
      "Ġlay": 1800,
      "ĠZ": 1801,
      "Ġshort": 1802,
      "Ġhigher": 1803,
      "When": 1804,
      "uro": 1805,
      "view": 1806,
      "por": 1807,
      "aster": 1808,
      "Ġsuccess": 1809,
      "chan": 1810,
      "ĠBy": 1811,
      "40": 1812,
      "Ġcomes": 1813,
      "Ġturn": 1814,
      "Ġegg": 1815,
      "Ġworking": 1816,
      "Ġrele": 1817,
      "astic": 1818,
      "Ġcourse": 1819,
      "Ġnext": 1820,
      "Ġmaintain": 1821,
      "fect": 1822,
      "Ġcase": 1823,
      "Ġmov": 1824,
      "ivity": 1825,
      "Ġhaving": 1826,
      "jor": 1827,
      "Ġgre": 1828,
      "Ġaccess": 1829,
      "fact": 1830,
      "Ġalong": 1831,
      "Ġsuggest": 1832,
      "ym": 1833,
      "Ġprob": 1834,
      "ither": 1835,
      "Ġimprove": 1836,
      "Ġloss": 1837,
      "Ġassoci": 1838,
      "Ġobject": 1839,
      "Ġhim": 1840,
      "ox": 1841,
      "imes": 1842,
      "Ġengine": 1843,
      "erc": 1844,
      "Ġmil": 1845,
      "Ġdiet": 1846,
      "ored": 1847,
      "Ġsocial": 1848,
      "Ġdry": 1849,
      "Ġkind": 1850,
      "ĠCol": 1851,
      "not": 1852,
      "25": 1853,
      "Ġnecess": 1854,
      "iple": 1855,
      "ĠThat": 1856,
      "-l": 1857,
      "omen": 1858,
      "-m": 1859,
      "Ġresour": 1860,
      "ĠSp": 1861,
      "Ġactually": 1862,
      "60": 1863,
      "icult": 1864,
      "Ġfac": 1865,
      "Ġfuture": 1866,
      "ĠAt": 1867,
      "rect": 1868,
      "omes": 1869,
      "ogn": 1870,
      "Ġrecomm": 1871,
      "Ġgrowth": 1872,
      "Ġresearc": 1873,
      "Ġfore": 1874,
      "Ġlower": 1875,
      "âĢ¦": 1876,
      "Ġcool": 1877,
      "Ġi": 1878,
      "pecially": 1879,
      "ember": 1880,
      "oring": 1881,
      "eter": 1882,
      "There": 1883,
      "atory": 1884,
      "Ġorig": 1885,
      "Ġlikely": 1886,
      "Ġpred": 1887,
      "Ġred": 1888,
      "ĠBl": 1889,
      "Ġground": 1890,
      "Ġflu": 1891,
      "Ġreact": 1892,
      "though": 1893,
      "An": 1894,
      "Ġstrong": 1895,
      "orth": 1896,
      "ised": 1897,
      "Ġbird": 1898,
      "Ġmole": 1899,
      "Ġmajor": 1900,
      "Ġeasy": 1901,
      "yn": 1902,
      "Ġothers": 1903,
      "ived": 1904,
      "let": 1905,
      "21": 1906,
      "vious": 1907,
      "Ġrece": 1908,
      "gs": 1909,
      "Ġreason": 1910,
      "inter": 1911,
      "Ġwrit": 1912,
      "ott": 1913,
      "verage": 1914,
      "ĠâĢĶ": 1915,
      "agn": 1916,
      "Ġquick": 1917,
      "Ġdays": 1918,
      "Ġchall": 1919,
      "Ġsimple": 1920,
      "Ġreduce": 1921,
      "oint": 1922,
      "Ġhelps": 1923,
      "fer": 1924,
      "igns": 1925,
      "lish": 1926,
      "Ġunique": 1927,
      "Ġhealthy": 1928,
      "man": 1929,
      "Ġfar": 1930,
      "Ġthing": 1931,
      "ffic": 1932,
      "Ġgarden": 1933,
      "apt": 1934,
      "lished": 1935,
      "most": 1936,
      "Ġage": 1937,
      "idence": 1938,
      "Ġabs": 1939,
      "Ġagainst": 1940,
      "Ġgame": 1941,
      "ipp": 1942,
      "Ġfull": 1943,
      "Ġcompon": 1944,
      "Ġheart": 1945,
      "ooks": 1946,
      "Ġabove": 1947,
      "Ġfour": 1948,
      "Ġskin": 1949,
      "Ġdamage": 1950,
      "Ġste": 1951,
      "Ġtru": 1952,
      "Ġwar": 1953,
      "Ġproduction": 1954,
      "80": 1955,
      "Ġstra": 1956,
      "Ġinvest": 1957,
      "Ġmodel": 1958,
      "Ġtreatment": 1959,
      "Ġpaper": 1960,
      "Ġbase": 1961,
      "Ġbit": 1962,
      "Ġinit": 1963,
      "Ġproducts": 1964,
      "Ġleft": 1965,
      "ream": 1966,
      "Ġcontrib": 1967,
      "aging": 1968,
      "Ġdoesn": 1969,
      "Ġfri": 1970,
      "imum": 1971,
      "Ġsingle": 1972,
      "Ġcustom": 1973,
      "Ġfeed": 1974,
      "Ġacross": 1975,
      "Ġnever": 1976,
      "==": 1977,
      "use": 1978,
      "Ġexpect": 1979,
      "Ġfactors": 1980,
      "Ġpressure": 1981,
      "ches": 1982,
      "ledge": 1983,
      "Ġsolar": 1984,
      "ression": 1985,
      "ee": 1986,
      "Ġrole": 1987,
      "ators": 1988,
      "-t": 1989,
      "elf": 1990,
      "Ġclear": 1991,
      "Ġvalue": 1992,
      "Ġterm": 1993,
      "Ġgreen": 1994,
      "Ġdiscuss": 1995,
      "Ġunderstanding": 1996,
      "oney": 1997,
      "Ġcirc": 1998,
      "Ġans": 1999,
      "ploy": 2000,
      "Ġfrequ": 2001,
      "Ġpast": 2002,
      "Ġdone": 2003,
      "Ġnet": 2004,
      "amm": 2005,
      "ails": 2006,
      "Ġsays": 2007,
      "lement": 2008,
      "usion": 2009,
      "Ġissues": 2010,
      "agement": 2011,
      "Ġespecially": 2012,
      "ising": 2013,
      "Ġhyd": 2014,
      "Ġbacter": 2015,
      "Ġaccording": 2016,
      "Ġavoid": 2017,
      "Ġmarket": 2018,
      "iation": 2019,
      "ales": 2020,
      "Ġrecord": 2021,
      "Ġmind": 2022,
      "Ġeffects": 2023,
      "Ġindic": 2024,
      "Ġways": 2025,
      "izing": 2026,
      "Ġinfect": 2027,
      "Ġmechan": 2028,
      "ĠEn": 2029,
      "ĠPh": 2030,
      "ler": 2031,
      "Ġwarm": 2032,
      "Ġnorm": 2033,
      "Ġinteract": 2034,
      "Ġchemical": 2035,
      "Ġlive": 2036,
      "Ġclimate": 2037,
      "ĠInst": 2038,
      "Ġweek": 2039,
      "ĠSome": 2040,
      "hem": 2041,
      "Ġsum": 2042,
      "Ġpan": 2043,
      "ibility": 2044,
      "Ġamong": 2045,
      "Ġvers": 2046,
      "Ġgiven": 2047,
      "Ġdifficult": 2048,
      "Ġcheck": 2049,
      "Ġdesigned": 2050,
      "Ġeye": 2051,
      "ruction": 2052,
      "lection": 2053,
      "Ġsun": 2054,
      "Ġbusiness": 2055,
      "light": 2056,
      "Ġbenefits": 2057,
      "ilities": 2058,
      "yle": 2059,
      "ĠYour": 2060,
      "Ġcomplex": 2061,
      "Ġphysical": 2062,
      "Ġpopular": 2063,
      "ĠTe": 2064,
      "Ġblack": 2065,
      "Ġbegin": 2066,
      "ĠEar": 2067,
      "Ġtoday": 2068,
      "Ġgetting": 2069,
      "Ġactivity": 2070,
      "conom": 2071,
      "ik": 2072,
      "ont": 2073,
      "une": 2074,
      "oor": 2075,
      "Ġpie": 2076,
      "Ġland": 2077,
      "Ġscience": 2078,
      "Ġrespons": 2079,
      "Ġbook": 2080,
      "ification": 2081,
      "Ġwide": 2082,
      "Ġparts": 2083,
      "Ġer": 2084,
      "Ġmass": 2085,
      "Ġallows": 2086,
      "Ġhappen": 2087,
      "Ġpurp": 2088,
      "ilt": 2089,
      "ĠOn": 2090,
      "Ġdescrib": 2091,
      "Ġpercent": 2092,
      "!ĊĊ": 2093,
      "24": 2094,
      "Ġexist": 2095,
      "uals": 2096,
      "Ġcomputer": 2097,
      "Ġresearchers": 2098,
      "ĠEng": 2099,
      "Ġcra": 2100,
      "joy": 2101,
      "ope": 2102,
      "Ġhold": 2103,
      "Ġthin": 2104,
      "Ġbrain": 2105,
      "nal": 2106,
      "ask": 2107,
      "vert": 2108,
      "Ġfurther": 2109,
      "Ġdogs": 2110,
      "ule": 2111,
      "Ġstress": 2112,
      "etimes": 2113,
      "Ġpublic": 2114,
      ".,": 2115,
      "pot": 2116,
      "Ġexce": 2117,
      "Ġmagn": 2118,
      "Ġlooking": 2119,
      "Ġsubst": 2120,
      "Ġveh": 2121,
      "Ġsafe": 2122,
      "Ġclose": 2123,
      "Ġdeg": 2124,
      "ush": 2125,
      "orts": 2126,
      "ina": 2127,
      "angu": 2128,
      "ditional": 2129,
      "Ġregular": 2130,
      "Ġelectric": 2131,
      "rel": 2132,
      "alf": 2133,
      "Ġenh": 2134,
      "Ġparent": 2135,
      "Ġhor": 2136,
      "Ġeither": 2137,
      "Ġrepres": 2138,
      "Ġhouse": 2139,
      "ortun": 2140,
      "Ġeat": 2141,
      "ows": 2142,
      "Ġevent": 2143,
      "aken": 2144,
      "Ġproduce": 2145,
      "Ġvariety": 2146,
      "ĠOr": 2147,
      "Ġprovides": 2148,
      "idd": 2149,
      "Ġvide": 2150,
      "ann": 2151,
      "ried": 2152,
      "side": 2153,
      "01": 2154,
      "ufact": 2155,
      "Ġstop": 2156,
      "ograp": 2157,
      "Ġwhether": 2158,
      "Ġquestion": 2159,
      "ready": 2160,
      "ores": 2161,
      "Ġmo": 2162,
      "duct": 2163,
      "Ġability": 2164,
      "ĠNo": 2165,
      "Ġveget": 2166,
      "ĠAmerican": 2167,
      "Ġsoft": 2168,
      "avor": 2169,
      "Ġindividual": 2170,
      "lex": 2171,
      "Ġwhite": 2172,
      "Ġimage": 2173,
      "ĠNe": 2174,
      "iques": 2175,
      "Ġappear": 2176,
      "Ġach": 2177,
      "ength": 2178,
      "ensive": 2179,
      "Ġbatter": 2180,
      "estions": 2181,
      "by": 2182,
      "Ġsym": 2183,
      "ission": 2184,
      "Ġcrit": 2185,
      "Ġwood": 2186,
      "ging": 2187,
      "Ġonce": 2188,
      "ured": 2189,
      "eral": 2190,
      "ges": 2191,
      "lying": 2192,
      "Ġdifference": 2193,
      "obal": 2194,
      "Ġtell": 2195,
      "anced": 2196,
      "ĠUS": 2197,
      "Ġbal": 2198,
      "Ġwr": 2199,
      "Ġcarbon": 2200,
      "Ġexperien": 2201,
      "Ġsepar": 2202,
      "ER": 2203,
      "Ġvir": 2204,
      "Ġsource": 2205,
      "Ġenjoy": 2206,
      "raph": 2207,
      "ĠAll": 2208,
      "Ġskills": 2209,
      "Ġsn": 2210,
      "Ġyoung": 2211,
      "!Ċ": 2212,
      "Ġcommunity": 2213,
      "inary": 2214,
      "Ġprint": 2215,
      "Ġhistory": 2216,
      "Ġobserv": 2217,
      "Ġalready": 2218,
      "Ġfu": 2219,
      "Ġsmo": 2220,
      "reng": 2221,
      "urope": 2222,
      "Ġnecessary": 2223,
      "Ġperfect": 2224,
      "Ġfeatures": 2225,
      "Ġview": 2226,
      "Ġoffer": 2227,
      "Ġbreak": 2228,
      "Ġdraw": 2229,
      "Ġcru": 2230,
      "istic": 2231,
      "Ġcoll": 2232,
      "Ġrelations": 2233,
      "Ġemb": 2234,
      "Ġindustry": 2235,
      "For": 2236,
      "roll": 2237,
      "utions": 2238,
      "Ġmatter": 2239,
      "Ġperformance": 2240,
      "Ġauthor": 2241,
      "ises": 2242,
      "Ġmix": 2243,
      "resh": 2244,
      "aching": 2245,
      "Ġsqu": 2246,
      "Ġsust": 2247,
      "Ġtraining": 2248,
      "wards": 2249,
      "Ġpositive": 2250,
      "Ġassociated": 2251,
      "Ġknowledge": 2252,
      "Ġox": 2253,
      "ung": 2254,
      "ĠX": 2255,
      "Ġeconom": 2256,
      "Ġanimal": 2257,
      "03": 2258,
      "Wh": 2259,
      "Ġsound": 2260,
      "Ġexerc": 2261,
      "rown": 2262,
      "Ġhab": 2263,
      "imal": 2264,
      "Ġinside": 2265,
      "Ġactivities": 2266,
      "Ġpersonal": 2267,
      "Ġlonger": 2268,
      "Ġdoing": 2269,
      "for": 2270,
      "gar": 2271,
      "23": 2272,
      "Ġhours": 2273,
      "Ġneeded": 2274,
      "ae": 2275,
      "nces": 2276,
      "Ġarticle": 2277,
      "Ġgas": 2278,
      "Ġsustain": 2279,
      "Ġbelow": 2280,
      "rate": 2281,
      "Ġsle": 2282,
      "itch": 2283,
      "Ġpet": 2284,
      "ĠCent": 2285,
      "Ġcompany": 2286,
      "oura": 2287,
      "Ġrequired": 2288,
      "cri": 2289,
      "Ġgrowing": 2290,
      "Ġspeed": 2291,
      "aps": 2292,
      "Ġcold": 2293,
      "Ġmethods": 2294,
      "Ġfat": 2295,
      "Ġwhole": 2296,
      "To": 2297,
      "Ġresources": 2298,
      "Ġport": 2299,
      "Ġtot": 2300,
      "Ġever": 2301,
      "aches": 2302,
      "Al": 2303,
      "het": 2304,
      "Ġlif": 2305,
      "ites": 2306,
      "ĠOne": 2307,
      "Ġslow": 2308,
      "itud": 2309,
      "Ġmanufact": 2310,
      "ĠComm": 2311,
      "Ġbuy": 2312,
      "selves": 2313,
      "Ġhumans": 2314,
      "Ġlater": 2315,
      "Ġprop": 2316,
      "Ġtree": 2317,
      "Ġwild": 2318,
      "....": 2319,
      "ery": 2320,
      "Ġneg": 2321,
      "Ġestab": 2322,
      "Ġselect": 2323,
      "ĠQu": 2324,
      "Ġfall": 2325,
      "Ġge": 2326,
      "Ġmicro": 2327,
      "ĠShe": 2328,
      "app": 2329,
      "verse": 2330,
      "Ġrate": 2331,
      "ĠEurope": 2332,
      "Ġintrodu": 2333,
      "fully": 2334,
      "Ġopportun": 2335,
      "Ġleaves": 2336,
      "ystem": 2337,
      "ze": 2338,
      "Ġfit": 2339,
      "Ġfru": 2340,
      "Ġstreng": 2341,
      "ply": 2342,
      "iment": 2343,
      "amin": 2344,
      "Ġvac": 2345,
      "Ġill": 2346,
      "Ġmat": 2347,
      "ura": 2348,
      "Ġlove": 2349,
      "Ġaud": 2350,
      "Ġcancer": 2351,
      "Ġcreated": 2352,
      "Ġdeep": 2353,
      "Ġcorrect": 2354,
      "ysis": 2355,
      "mp": 2356,
      "Ġgeneral": 2357,
      "ged": 2358,
      "Ġcondition": 2359,
      "Ġcases": 2360,
      "ĠGen": 2361,
      "Ġrelationship": 2362,
      "Ġtaking": 2363,
      "Ġtechniques": 2364,
      "Ġsat": 2365,
      "Ġidea": 2366,
      "Ch": 2367,
      "erve": 2368,
      "Ġstructure": 2369,
      "Ġ\\": 2370,
      "Ġnight": 2371,
      "Ġconcer": 2372,
      "Ġsuper": 2373,
      "Ġleg": 2374,
      "ming": 2375,
      "Ġself": 2376,
      "ĠComp": 2377,
      "Ġbab": 2378,
      "ibr": 2379,
      "Ġsam": 2380,
      "erence": 2381,
      "ronic": 2382,
      "anguage": 2383,
      "rig": 2384,
      "uff": 2385,
      "Ġask": 2386,
      "illed": 2387,
      "Ġdetect": 2388,
      "Ġmention": 2389,
      "Ġhot": 2390,
      "ument": 2391,
      "ctions": 2392,
      "Ġpath": 2393,
      "Ġcook": 2394,
      "ĠWhile": 2395,
      "Ġmachine": 2396,
      "Ġ--": 2397,
      "Ġmen": 2398,
      "ival": 2399,
      "Ġpatients": 2400,
      "Ġelectr": 2401,
      "ties": 2402,
      "ĠCar": 2403,
      "Ġtools": 2404,
      "Ġindividuals": 2405,
      "Ġpay": 2406,
      "arget": 2407,
      "ils": 2408,
      "osing": 2409,
      "Ġsubject": 2410,
      "Ġadvant": 2411,
      "oh": 2412,
      "Ġaverage": 2413,
      "Ġinstall": 2414,
      ".\"Ċ": 2415,
      "aving": 2416,
      "Ġapproach": 2417,
      "fric": 2418,
      "unt": 2419,
      "Ġisn": 2420,
      "ume": 2421,
      "Ġseen": 2422,
      "Ġhowever": 2423,
      ".\"ĊĊ": 2424,
      "uck": 2425,
      "Ġbar": 2426,
      "ĠNational": 2427,
      "Ġresist": 2428,
      "Ġgot": 2429,
      "Ġrather": 2430,
      "Ġlarger": 2431,
      "Ġlat": 2432,
      "rams": 2433,
      "Ġonline": 2434,
      "Ġenvironmental": 2435,
      "aced": 2436,
      "ney": 2437,
      "Ġtypically": 2438,
      "mit": 2439,
      "Ġsuns": 2440,
      "Ġaddress": 2441,
      "ĠUnited": 2442,
      "Ġprimary": 2443,
      "Ġquestions": 2444,
      "Ġremov": 2445,
      "Ġminutes": 2446,
      "ront": 2447,
      "Ġsafety": 2448,
      "Ġmonths": 2449,
      "lt": 2450,
      "Ġliving": 2451,
      "ptoms": 2452,
      "Ġpack": 2453,
      "Ġbring": 2454,
      "iency": 2455,
      "Ġmultiple": 2456,
      "reme": 2457,
      "Ġmax": 2458,
      "ĠDNA": 2459,
      "Ġjour": 2460,
      "Ġinflu": 2461,
      "Ġinteg": 2462,
      "Ġbacteria": 2463,
      "Ġnature": 2464,
      "Ġroom": 2465,
      "Ġthought": 2466,
      "Ġpopulation": 2467,
      "Ġentire": 2468,
      "Ġidentify": 2469,
      "sect": 2470,
      "rad": 2471,
      "ĠAI": 2472,
      "Ġexc": 2473,
      "Ġuser": 2474,
      "idered": 2475,
      "Ġincreased": 2476,
      "Ġprep": 2477,
      "Ġteac": 2478,
      "Ġrob": 2479,
      "Ġextra": 2480,
      "icles": 2481,
      "Ġharm": 2482,
      "Ġstrateg": 2483,
      "li": 2484,
      "urs": 2485,
      "Ġsitu": 2486,
      "upp": 2487,
      "Ġstory": 2488,
      "ĠMed": 2489,
      "mon": 2490,
      "Ġmodern": 2491,
      "Ġetc": 2492,
      "Ġlaw": 2493,
      "Ġprec": 2494,
      "Ġcomfort": 2495,
      "Ġfeet": 2496,
      "Ġtravel": 2497,
      "Ġstay": 2498,
      "eb": 2499,
      "Ġthroughout": 2500,
      "Ġbeaut": 2501,
      "Ġremain": 2502,
      "Ġanswer": 2503,
      "oration": 2504,
      "ctor": 2505,
      "Ġyourself": 2506,
      "Ġcycle": 2507,
      "aged": 2508,
      "Ġcontent": 2509,
      "Ġoptions": 2510,
      "Ġchalleng": 2511,
      "aling": 2512,
      "ief": 2513,
      "Ġoverall": 2514,
      "Ġsomeone": 2515,
      "Ġeasily": 2516,
      "ES": 2517,
      "Th": 2518,
      "Ġface": 2519,
      "Ġseason": 2520,
      "Ġrecogn": 2521,
      "AR": 2522,
      "Ġbad": 2523,
      "osis": 2524,
      "Ġshows": 2525,
      "Ġcontact": 2526,
      "Ġbuilding": 2527,
      "Ġprobably": 2528,
      "Ġut": 2529,
      "earch": 2530,
      "Ġcover": 2531,
      "Ġwall": 2532,
      "Ġuses": 2533,
      "Ġfram": 2534,
      "Ġalmost": 2535,
      "Ġplastic": 2536,
      "Ġemploy": 2537,
      "Ġdeveloped": 2538,
      "Ġcapt": 2539,
      "Ġlink": 2540,
      "Ġconsidered": 2541,
      "Ġprotein": 2542,
      "Ġeducation": 2543,
      "Ġcannot": 2544,
      "aily": 2545,
      "So": 2546,
      "ĠDr": 2547,
      "Ġgover": 2548,
      "Ġearth": 2549,
      "Ġeyes": 2550,
      "Ġsil": 2551,
      "Ġpoll": 2552,
      "70": 2553,
      "zy": 2554,
      "ĠAfric": 2555,
      "Ġstudies": 2556,
      "onse": 2557,
      "cean": 2558,
      "Ġtraditional": 2559,
      "Ġcreating": 2560,
      "Ġposition": 2561,
      "edi": 2562,
      "Ġann": 2563,
      "Ġheav": 2564,
      "sp": 2565,
      "Ġaltern": 2566,
      "Ġrelated": 2567,
      "Ġsolution": 2568,
      "Ġcauses": 2569,
      "Ġtrees": 2570,
      "Ġcrucial": 2571,
      "Ġwa": 2572,
      "ulations": 2573,
      "Ġscientists": 2574,
      "Ġchoice": 2575,
      "room": 2576,
      "Ġconcept": 2577,
      "oses": 2578,
      "-based": 2579,
      "Ġwords": 2580,
      "rated": 2581,
      "onst": 2582,
      "Ġfive": 2583,
      "lease": 2584,
      "Ġdispl": 2585,
      "Ġelements": 2586,
      "Ġinstead": 2587,
      ").Ċ": 2588,
      "Ġstation": 2589,
      "ĠPr": 2590,
      "just": 2591,
      "Ġcam": 2592,
      "Ġsurv": 2593,
      "ift": 2594,
      "Ġstarted": 2595,
      "Ġcountry": 2596,
      "Ġcompet": 2597,
      "Ġincreasing": 2598,
      "Ġinvolved": 2599,
      ").ĊĊ": 2600,
      "Ġshown": 2601,
      "Ġconsist": 2602,
      "rogen": 2603,
      "Ġprofessional": 2604,
      "Ġeggs": 2605,
      "Ġir": 2606,
      "Ġmoney": 2607,
      "-w": 2608,
      "ians": 2609,
      "Ġtend": 2610,
      "Ġdom": 2611,
      "acks": 2612,
      "ops": 2613,
      "ĠEarth": 2614,
      "Ġdest": 2615,
      "icy": 2616,
      "Ġjob": 2617,
      "Ġdru": 2618,
      "IN": 2619,
      "ography": 2620,
      "Ġfoot": 2621,
      "ĠStates": 2622,
      "Ġbehavior": 2623,
      "Ġnormal": 2624,
      "ipe": 2625,
      "Ġnumbers": 2626,
      "Ġissue": 2627,
      "--------": 2628,
      "Ġprovided": 2629,
      "Ġquickly": 2630,
      "otic": 2631,
      "Ġsleep": 2632,
      "Ġtarget": 2633,
      "Ġfund": 2634,
      "Ġyet": 2635,
      "Ġchoose": 2636,
      "Ġevolution": 2637,
      "Ġsimply": 2638,
      "cular": 2639,
      "eding": 2640,
      "Ġones": 2641,
      "âĢĿ": 2642,
      "Ġsmaller": 2643,
      "Ġparticip": 2644,
      "Ġglobal": 2645,
      "Ġpractice": 2646,
      "Ġdevice": 2647,
      "Ġoption": 2648,
      "Ġdark": 2649,
      "Ġkids": 2650,
      "Ġrelative": 2651,
      "Ġpri": 2652,
      "Ġcompan": 2653,
      "90": 2654,
      "Ex": 2655,
      "Ġfoods": 2656,
      "Ġdetermine": 2657,
      "Ġgovern": 2658,
      "Ġcompared": 2659,
      "-in": 2660,
      "Ġexact": 2661,
      "Ġquant": 2662,
      "Ġweather": 2663,
      "âĢĵ": 2664,
      "Ġstandard": 2665,
      "ison": 2666,
      "ĠAm": 2667,
      "Ġdigital": 2668,
      "Ġrepresent": 2669,
      "Ġsite": 2670,
      "Ġsense": 2671,
      "hern": 2672,
      "plic": 2673,
      "Ġadapt": 2674,
      ".S": 2675,
      "Ġtaken": 2676,
      "Ġhalf": 2677,
      "ĠCo": 2678,
      "Ġoutside": 2679,
      "Ġtakes": 2680,
      "istics": 2681,
      "Ġmeet": 2682,
      "Ġrot": 2683,
      "Ġarr": 2684,
      "____": 2685,
      "ched": 2686,
      "Ġprevious": 2687,
      "ĠÂ": 2688,
      "itable": 2689,
      "Ġsea": 2690,
      "Ġautom": 2691,
      "head": 2692,
      "Ġforce": 2693,
      "ipment": 2694,
      "Ġanything": 2695,
      "Ġacid": 2696,
      "Ġservice": 2697,
      "ĠUs": 2698,
      "Ġthemselves": 2699,
      "Ġappl": 2700,
      "Ġtotal": 2701,
      "Ġmillion": 2702,
      "isms": 2703,
      "Ġseem": 2704,
      "raft": 2705,
      "Ġcollect": 2706,
      "Ġapplications": 2707,
      "go": 2708,
      "Ġla": 2709,
      "ĠMy": 2710,
      "osition": 2711,
      "aim": 2712,
      "gest": 2713,
      "where": 2714,
      "Ġ,": 2715,
      "ĠWorks": 2716,
      "ĠTr": 2717,
      "ĠHere": 2718,
      "Ġremove": 2719,
      "Ġeverything": 2720,
      "Ġlength": 2721,
      "augh": 2722,
      "Ġsometimes": 2723,
      "Ġgroups": 2724,
      "Ġvideo": 2725,
      "Ġstrength": 2726,
      "Ġgenetic": 2727,
      "Ġdevices": 2728,
      "Ġsymptoms": 2729,
      "Ġgenerally": 2730,
      "Ġexplain": 2731,
      "Ġcommunication": 2732,
      "Ġinitial": 2733,
      "Ġextreme": 2734,
      "Ġresponse": 2735,
      "Ġpict": 2736,
      "Ġlanguage": 2737,
      "Ġwebs": 2738,
      "Ġshape": 2739,
      "umb": 2740,
      "Ġwaste": 2741,
      "cles": 2742,
      "water": 2743,
      "Ġgain": 2744,
      "Ġhabit": 2745,
      "rid": 2746,
      "Ġing": 2747,
      "erous": 2748,
      "Ġactive": 2749,
      "AS": 2750,
      "yp": 2751,
      "aries": 2752,
      "igure": 2753,
      "ests": 2754,
      "Ġincludes": 2755,
      "ropri": 2756,
      "**": 2757,
      "Pro": 2758,
      "Ġbur": 2759,
      "Ġfib": 2760,
      "Ġsearch": 2761,
      "izes": 2762,
      "Ġmedic": 2763,
      "Ad": 2764,
      "Ġwon": 2765,
      "ĠCO": 2766,
      "Ġintern": 2767,
      "ecause": 2768,
      "Ġservices": 2769,
      "Ġbasic": 2770,
      "Ġproviding": 2771,
      "cks": 2772,
      "lor": 2773,
      "imately": 2774,
      "ground": 2775,
      "ervation": 2776,
      "Ġaccount": 2777,
      "Ġfamil": 2778,
      "Ġmetal": 2779,
      "Ġbirds": 2780,
      "itude": 2781,
      "ĠDes": 2782,
      "ension": 2783,
      "Ġevidence": 2784,
      "Ġcolors": 2785,
      "Ġice": 2786,
      "Ġcop": 2787,
      "Ġadult": 2788,
      "ditionally": 2789,
      "Ġpurpose": 2790,
      "ese": 2791,
      "Ġec": 2792,
      "Ġspect": 2793,
      "Ġoffers": 2794,
      "Ġefficient": 2795,
      "ma": 2796,
      "Ġinsect": 2797,
      "urity": 2798,
      "Ġmedical": 2799,
      "Ġgreater": 2800,
      "Ġfast": 2801,
      "rier": 2802,
      "Ġmanagement": 2803,
      "Ġproduced": 2804,
      "Ġago": 2805,
      "Ġrequires": 2806,
      "enc": 2807,
      "Ġfem": 2808,
      "Ġtri": 2809,
      "Ġfire": 2810,
      "ĠLe": 2811,
      "\\u": 2812,
      "Ġfresh": 2813,
      "ĠNorth": 2814,
      "min": 2815,
      "elling": 2816,
      "Ġspread": 2817,
      "itor": 2818,
      "oll": 2819,
      "Ġanalysis": 2820,
      "Ġvit": 2821,
      "ene": 2822,
      "alu": 2823,
      "Ġitself": 2824,
      "ĠDo": 2825,
      "rict": 2826,
      "vant": 2827,
      "Ġball": 2828,
      "asons": 2829,
      "ograph": 2830,
      "Ġassist": 2831,
      "One": 2832,
      "Ġsugar": 2833,
      "Ġevents": 2834,
      "ynam": 2835,
      "Ġmentioned": 2836,
      "cre": 2837,
      "hib": 2838,
      "ricult": 2839,
      "Ġproperties": 2840,
      "ĠAfter": 2841,
      "Ġhearing": 2842,
      "ociety": 2843,
      "Ġcity": 2844,
      "Ġwomen": 2845,
      "Ġstat": 2846,
      "Ġexercise": 2847,
      "Ġapplication": 2848,
      "Ġconduct": 2849,
      "ED": 2850,
      "like": 2851,
      "ights": 2852,
      "ĠOf": 2853,
      "Ġprinc": 2854,
      "Ġbehind": 2855,
      "mber": 2856,
      "ement": 2857,
      "Ġcomponents": 2858,
      "orpor": 2859,
      "Ġrecent": 2860,
      "Ġmodels": 2861,
      "Ġleading": 2862,
      "onal": 2863,
      "Ġweeks": 2864,
      "Ġfarm": 2865,
      "Ġlog": 2866,
      "ĠSouth": 2867,
      "ĠMay": 2868,
      "ocks": 2869,
      "onds": 2870,
      "Ġpaint": 2871,
      "Ġswe": 2872,
      "ĠCons": 2873,
      "Ġconstant": 2874,
      "Ġtiss": 2875,
      "iny": 2876,
      "irth": 2877,
      "term": 2878,
      "Ġquite": 2879,
      "ules": 2880,
      "Ġroad": 2881,
      "Ġang": 2882,
      "ccording": 2883,
      "Ġdecre": 2884,
      "ĠHealth": 2885,
      "ned": 2886,
      "Ġbed": 2887,
      "ĠMan": 2888,
      "AT": 2889,
      "Ġbott": 2890,
      "ellow": 2891,
      "Ġcaused": 2892,
      "cules": 2893,
      "ĠPre": 2894,
      "Ġregion": 2895,
      "Ġfuel": 2896,
      "rast": 2897,
      "Ġ+": 2898,
      "Cl": 2899,
      "nov": 2900,
      "uk": 2901,
      "epend": 2902,
      "order": 2903,
      "ĠSchool": 2904,
      "Ġimplement": 2905,
      "Ġdistrib": 2906,
      "Ġwond": 2907,
      "Ġscreen": 2908,
      "aks": 2909,
      "oon": 2910,
      "Ġequipment": 2911,
      "Ġencoura": 2912,
      "icial": 2913,
      "ley": 2914,
      "Ġspeak": 2915,
      "Ġemerg": 2916,
      "OT": 2917,
      "ext": 2918,
      "Ġ/": 2919,
      "Ġcou": 2920,
      "arily": 2921,
      "Ġrout": 2922,
      "Ġdrive": 2923,
      "Ġterms": 2924,
      "Ġmoist": 2925,
      "Ġur": 2926,
      "Ġaspect": 2927,
      "Ġconcent": 2928,
      "ĠGu": 2929,
      "Ġbattery": 2930,
      "Ġtransform": 2931,
      "Ġnegative": 2932,
      "sh": 2933,
      "Ġsix": 2934,
      "Ġregard": 2935,
      "Ġachieve": 2936,
      "rum": 2937,
      "Ġtable": 2938,
      "inct": 2939,
      "oph": 2940,
      "ĠNot": 2941,
      "Ġther": 2942,
      "Ġdaily": 2943,
      "Ġfail": 2944,
      "Ġglass": 2945,
      "Ġ{": 2946,
      "Ġmess": 2947,
      "iring": 2948,
      "Ġassess": 2949,
      "zz": 2950,
      "Ġtast": 2951,
      "Ġreach": 2952,
      "ĠMe": 2953,
      "Ġgene": 2954,
      "Ġful": 2955,
      "ĠCont": 2956,
      "Ġadditional": 2957,
      "Ġdirectly": 2958,
      "reg": 2959,
      "ensity": 2960,
      "Ġbuilt": 2961,
      "Ġattention": 2962,
      "Ġvehicle": 2963,
      "-st": 2964,
      "sy": 2965,
      "Ġstudent": 2966,
      "Ġcontains": 2967,
      "Ġparticularly": 2968,
      "\",": 2969,
      "ON": 2970,
      "Ġwinter": 2971,
      "itute": 2972,
      "Ġliqu": 2973,
      "Ġdefin": 2974,
      "Ġnetwork": 2975,
      "Ġguid": 2976,
      "Ġnutri": 2977,
      "02": 2978,
      "craft": 2979,
      "ners": 2980,
      "Ġunit": 2981,
      "Ġdiagn": 2982,
      "ĠĠĠĠ": 2983,
      "isc": 2984,
      "Ġshare": 2985,
      "tenance": 2986,
      "'d": 2987,
      "ino": 2988,
      "sequ": 2989,
      "aff": 2990,
      "Ġcode": 2991,
      "ucle": 2992,
      "Ġtrying": 2993,
      "Ġdri": 2994,
      "omet": 2995,
      "Ġadded": 2996,
      "Ġcontinue": 2997,
      "Ġparents": 2998,
      "Ġmom": 2999,
      "iles": 3000,
      "new": 3001,
      "iddle": 3002,
      "Ġpoints": 3003,
      "Ġcontinu": 3004,
      "Ġfront": 3005,
      "Ġbox": 3006,
      "ID": 3007,
      "Sh": 3008,
      "pid": 3009,
      "overed": 3010,
      "Ġabsor": 3011,
      "28": 3012,
      "wh": 3013,
      "Ġblock": 3014,
      "Ġdetail": 3015,
      "Ġaction": 3016,
      "imin": 3017,
      "Ġbelieve": 3018,
      "Ġreturn": 3019,
      "Why": 3020,
      "Ġsources": 3021,
      "alking": 3022,
      "Ġappropri": 3023,
      "Ġsteps": 3024,
      "ĠAre": 3025,
      "35": 3026,
      "AN": 3027,
      "atoes": 3028,
      "osure": 3029,
      "ĠReg": 3030,
      "ĠStud": 3031,
      "Ġcard": 3032,
      "itation": 3033,
      "ulate": 3034,
      "Ġitems": 3035,
      "ĠScience": 3036,
      "Ġcapac": 3037,
      "Ġelse": 3038,
      "08": 3039,
      "come": 3040,
      "Ġbul": 3041,
      "Ġlines": 3042,
      "Ġprior": 3043,
      "ipl": 3044,
      "vest": 3045,
      "Ġgames": 3046,
      "unch": 3047,
      "ĠGe": 3048,
      "Ġlocation": 3049,
      "Ġhorse": 3050,
      "32": 3051,
      "ening": 3052,
      "Ġlives": 3053,
      "Ġpoly": 3054,
      "Ġreading": 3055,
      "Ġanaly": 3056,
      "IS": 3057,
      "ĠTra": 3058,
      "oles": 3059,
      "ĠAb": 3060,
      "####": 3061,
      "Ġtrue": 3062,
      "rist": 3063,
      "Ġmental": 3064,
      "ĠApp": 3065,
      "ĠInt": 3066,
      "terns": 3067,
      "-e": 3068,
      "-h": 3069,
      "Ġthreat": 3070,
      "Ġexplore": 3071,
      "ding": 3072,
      "pro": 3073,
      "Ġcoun": 3074,
      "Ġdoc": 3075,
      "ĠYes": 3076,
      "Ġtransport": 3077,
      "Ġaim": 3078,
      "ĠChe": 3079,
      "Ġadjust": 3080,
      "Ġspring": 3081,
      "ĠâĢľ": 3082,
      "Ġcountries": 3083,
      "Ġalg": 3084,
      "Ġarm": 3085,
      "Ġblue": 3086,
      "Ġorganic": 3087,
      "Ġtheory": 3088,
      "Ġlo": 3089,
      "ively": 3090,
      "Ġpret": 3091,
      "Ġrefer": 3092,
      "Ġcompletely": 3093,
      "rs": 3094,
      "Ġaware": 3095,
      "ĠCal": 3096,
      "era": 3097,
      "Ġmor": 3098,
      "Ġhar": 3099,
      "Ġreview": 3100,
      "Ġx": 3101,
      "Ġinj": 3102,
      "Ġstri": 3103,
      "elt": 3104,
      "ĠWater": 3105,
      "Ġprotection": 3106,
      "ĠMost": 3107,
      "Ġrespect": 3108,
      "hyd": 3109,
      "Ġprocesses": 3110,
      "Ġproteins": 3111,
      "illing": 3112,
      "But": 3113,
      "ellig": 3114,
      "Ġmeat": 3115,
      "Ġrunning": 3116,
      "Ġprojects": 3117,
      "Ġtowards": 3118,
      "Ġguide": 3119,
      "ĠAmerica": 3120,
      "uit": 3121,
      "Ġuseful": 3122,
      "Ġpatterns": 3123,
      "Ġbalance": 3124,
      "-to": 3125,
      "ober": 3126,
      "Ġsignal": 3127,
      "cast": 3128,
      "uted": 3129,
      "Ġsupply": 3130,
      "Ġbrand": 3131,
      "Ġbaby": 3132,
      "Ġdeath": 3133,
      "Ġinstruct": 3134,
      "Ġcalcul": 3135,
      "Ġscientific": 3136,
      "Ġreplace": 3137,
      "Ġmolecules": 3138,
      "odies": 3139,
      "ĠHigh": 3140,
      "Ġimportance": 3141,
      "Ġseries": 3142,
      "Be": 3143,
      "Ġfix": 3144,
      "Ġgoal": 3145,
      "Ġsunspot": 3146,
      "Ġemot": 3147,
      "Ġdeveloping": 3148,
      "Ġelectrical": 3149,
      "-g": 3150,
      "vere": 3151,
      "ĠIm": 3152,
      "Ġsigns": 3153,
      "Ġinput": 3154,
      "emic": 3155,
      "ĠMar": 3156,
      "Ġkn": 3157,
      "rapy": 3158,
      "Ġrecommended": 3159,
      "tage": 3160,
      "Ġbag": 3161,
      "Ġeating": 3162,
      "Ġult": 3163,
      "irm": 3164,
      "Ġsummer": 3165,
      "Ġhair": 3166,
      "Ġhighly": 3167,
      "clusion": 3168,
      "Ġroot": 3169,
      "Ġvalues": 3170,
      "Ġingred": 3171,
      "26": 3172,
      "Can": 3173,
      "Is": 3174,
      "Ġdou": 3175,
      "abet": 3176,
      "Ġsequ": 3177,
      "pping": 3178,
      "Ġeasier": 3179,
      "Ġcame": 3180,
      "Ġoutput": 3181,
      "ĠResearch": 3182,
      "irt": 3183,
      "Ġmoving": 3184,
      "Ġenhance": 3185,
      "cient": 3186,
      "ror": 3187,
      "arr": 3188,
      "irl": 3189,
      "Ġdiseases": 3190,
      "Ġcompanies": 3191,
      "Ġtou": 3192,
      "artment": 3193,
      "Ġupon": 3194,
      "ĠAss": 3195,
      "Ġdistance": 3196,
      "ault": 3197,
      "ĠSm": 3198,
      "overy": 3199,
      "Ġseems": 3200,
      "Ġgenes": 3201,
      "Ġmembers": 3202,
      "roup": 3203,
      "rition": 3204,
      "iful": 3205,
      "Ġmedia": 3206,
      "Ġpublished": 3207,
      "eep": 3208,
      "val": 3209,
      "Ġload": 3210,
      "Ġproced": 3211,
      "Ġclaim": 3212,
      "Ġdiam": 3213,
      "Ġcats": 3214,
      "27": 3215,
      "ached": 3216,
      "Ġdeal": 3217,
      "Ġsand": 3218,
      "duc": 3219,
      "Ġimages": 3220,
      "Ġeveryone": 3221,
      "Ġreflect": 3222,
      "Ġpage": 3223,
      "oud": 3224,
      "ightly": 3225,
      "Ġbecomes": 3226,
      "vey": 3227,
      "Ġtemperatures": 3228,
      "more": 3229,
      "ĠâĢ¦": 3230,
      "ĠWorld": 3231,
      "Ġtips": 3232,
      "Ġtalk": 3233,
      "Ġbroad": 3234,
      "Ġwriting": 3235,
      "iable": 3236,
      "Ġmount": 3237,
      "Ġcentury": 3238,
      "Ġmeaning": 3239,
      "ylase": 3240,
      "Ġbirth": 3241,
      "apter": 3242,
      "mosp": 3243,
      "ĠAir": 3244,
      "Ġstore": 3245,
      "empt": 3246,
      "Ġcritical": 3247,
      "Ġgovernment": 3248,
      "ences": 3249,
      "Ġce": 3250,
      "icate": 3251,
      "Ġsurround": 3252,
      "Ġproperly": 3253,
      "Ġfavor": 3254,
      "Ġkit": 3255,
      "Ġefficiency": 3256,
      "Ġmaximum": 3257,
      "Â°": 3258,
      "Ġmuscle": 3259,
      "fficient": 3260,
      "Ġbreat": 3261,
      "Ġideas": 3262,
      "Ġoriginal": 3263,
      "Ġfriend": 3264,
      "hens": 3265,
      "ancy": 3266,
      "ĠAust": 3267,
      "Ġforest": 3268,
      "Ġpick": 3269,
      "oming": 3270,
      "Ġseeds": 3271,
      "Ġcenter": 3272,
      "load": 3273,
      "Ġfert": 3274,
      "Ġthick": 3275,
      "ĠPe": 3276,
      "Ġprefer": 3277,
      "\".": 3278,
      "sc": 3279,
      "Ġpair": 3280,
      "abor": 3281,
      "Ġdepending": 3282,
      "Ġrecommend": 3283,
      "fl": 3284,
      "otes": 3285,
      "irection": 3286,
      "Ġlimited": 3287,
      "ades": 3288,
      "ĠMore": 3289,
      "Ġpurch": 3290,
      "Ġcosts": 3291,
      "Ġmusic": 3292,
      "Ġinches": 3293,
      "ĠJoh": 3294,
      "issions": 3295,
      "cription": 3296,
      "By": 3297,
      "Ġcry": 3298,
      "ĠMany": 3299,
      "Ġfactor": 3300,
      "Ġready": 3301,
      "Ġlimit": 3302,
      "Ġorigin": 3303,
      ".com": 3304,
      "Ġcarry": 3305,
      "Ġseed": 3306,
      "...ĊĊ": 3307,
      "wise": 3308,
      "ĠFrom": 3309,
      "Ġtook": 3310,
      "Ġcamp": 3311,
      "ister": 3312,
      "Ġreasons": 3313,
      "Ġvisit": 3314,
      "Ġflowers": 3315,
      "ok": 3316,
      "anks": 3317,
      "lege": 3318,
      "ĠBlack": 3319,
      "AC": 3320,
      "dd": 3321,
      "lands": 3322,
      "vity": 3323,
      "Ġgives": 3324,
      "Ġforms": 3325,
      "ĠGra": 3326,
      "Ġmaintenance": 3327,
      "board": 3328,
      "Ġwebsite": 3329,
      "Ġmother": 3330,
      "Ġstyle": 3331,
      "Ġprice": 3332,
      "Ġsalt": 3333,
      "bor": 3334,
      "asks": 3335,
      "Ġserious": 3336,
      "Ġimmedi": 3337,
      "====": 3338,
      "OR": 3339,
      "ha": 3340,
      "oe": 3341,
      "key": 3342,
      "Ġcloth": 3343,
      "ologies": 3344,
      "Ġcharge": 3345,
      "Ġobtain": 3346,
      "Ġpretty": 3347,
      "Ġpow": 3348,
      "Ġinnov": 3349,
      "Ġdang": 3350,
      "Ġaren": 3351,
      "Ġincorpor": 3352,
      "Ġbenefit": 3353,
      "Ġappropriate": 3354,
      "wor": 3355,
      "orage": 3356,
      "Ġfine": 3357,
      "Ġlands": 3358,
      "Ġallowing": 3359,
      "Ġpiece": 3360,
      "Ġthinking": 3361,
      "Ġsoftware": 3362,
      "hood": 3363,
      "Ġlack": 3364,
      "ĠWhy": 3365,
      "acy": 3366,
      "Ġgets": 3367,
      "Ġhands": 3368,
      "ĠWorkshe": 3369,
      "Con": 3370,
      "uge": 3371,
      "uses": 3372,
      "ĠDep": 3373,
      "Ġteeth": 3374,
      "rick": 3375,
      "Ġbecame": 3376,
      "Ġoccurs": 3377,
      "Ġfriends": 3378,
      "Ġvacc": 3379,
      "hol": 3380,
      "Ġfurn": 3381,
      "Ġfinal": 3382,
      "Ġlate": 3383,
      "ĠPer": 3384,
      "ĠBrit": 3385,
      "ĠGo": 3386,
      "Ġinvolves": 3387,
      "Ġdemonst": 3388,
      "-term": 3389,
      "05": 3390,
      "Ġaff": 3391,
      "ero": 3392,
      "ula": 3393,
      "Ġrepair": 3394,
      "atives": 3395,
      "Ġpatient": 3396,
      "Ġcontroll": 3397,
      "Ġtherm": 3398,
      "rew": 3399,
      "Ġgold": 3400,
      "umin": 3401,
      "Ġparticles": 3402,
      "Ġideal": 3403,
      "45": 3404,
      "rec": 3405,
      "rees": 3406,
      "att": 3407,
      "Ġaccept": 3408,
      "Ġbehavi": 3409,
      "Ġexpected": 3410,
      "rops": 3411,
      "Ġhost": 3412,
      "Ġvisual": 3413,
      "Ġfab": 3414,
      "ĠMon": 3415,
      "Ġdisplay": 3416,
      "ÂŃ": 3417,
      "asc": 3418,
      "Ġexcess": 3419,
      "pper": 3420,
      "ĠUse": 3421,
      "Ġutil": 3422,
      "With": 3423,
      "enn": 3424,
      "rag": 3425,
      "acing": 3426,
      "sych": 3427,
      "ixt": 3428,
      "rial": 3429,
      "Ġpoor": 3430,
      "Ġinvestig": 3431,
      "abetes": 3432,
      "back": 3433,
      "Ġleave": 3434,
      "Ġcurrently": 3435,
      "Ġsustainable": 3436,
      "Ġchallenges": 3437,
      "Ġliquid": 3438,
      "ĠThen": 3439,
      "Ġrich": 3440,
      "Ġvoltage": 3441,
      "Ġtask": 3442,
      "Ġhope": 3443,
      "Ġwear": 3444,
      "43": 3445,
      "Ġpull": 3446,
      "Ġstates": 3447,
      "Ġshap": 3448,
      "Ġaccur": 3449,
      "Ġgradu": 3450,
      "Ġresponsible": 3451,
      "ai": 3452,
      "Ġtub": 3453,
      "Ġaqu": 3454,
      "alt": 3455,
      "iding": 3456,
      "Ġsection": 3457,
      "ocol": 3458,
      "Ġusers": 3459,
      "Ġcommonly": 3460,
      "Ġcausing": 3461,
      "Ġexcell": 3462,
      "pite": 3463,
      "Ġflex": 3464,
      "ĠAc": 3465,
      "ifically": 3466,
      "Ġsuff": 3467,
      "Ġvary": 3468,
      "ibly": 3469,
      "Ġsoon": 3470,
      "Ġ*": 3471,
      "Ġnothing": 3472,
      "Ġculture": 3473,
      "Ġheavy": 3474,
      "aur": 3475,
      "Ġbill": 3476,
      "Ġund": 3477,
      "Ġvision": 3478,
      "Ġdidn": 3479,
      "On": 3480,
      "onic": 3481,
      "Ġcross": 3482,
      "amed": 3483,
      "Ġspot": 3484,
      "Ġconstruction": 3485,
      "cop": 3486,
      "Ġexpand": 3487,
      "Ġboard": 3488,
      "atching": 3489,
      "Ġcapacity": 3490,
      "09": 3491,
      "EN": 3492,
      "inking": 3493,
      "Ġled": 3494,
      "Ġdisp": 3495,
      "Ġagricult": 3496,
      "ching": 3497,
      "char": 3498,
      "ogen": 3499,
      "ada": 3500,
      "ĠFr": 3501,
      "ĠIntern": 3502,
      "Ġattract": 3503,
      "Ġincreases": 3504,
      "He": 3505,
      "ygen": 3506,
      "Ġder": 3507,
      "Ġsuitable": 3508,
      "Ġpattern": 3509,
      "Ġlens": 3510,
      "Ġcommer": 3511,
      "Ġrare": 3512,
      "Ġhappens": 3513,
      "Ġdirection": 3514,
      "ĠBecause": 3515,
      "Ġexperiment": 3516,
      "Ġprograms": 3517,
      "Ġbeautiful": 3518,
      "Ġbottom": 3519,
      "At": 3520,
      "eration": 3521,
      "Ġsent": 3522,
      "istry": 3523,
      "Ġrice": 3524,
      "Ġjo": 3525,
      "Ġnoise": 3526,
      "Ġreceive": 3527,
      "Ġmagnetic": 3528,
      "><": 3529,
      "iet": 3530,
      "yond": 3531,
      "Ġcooking": 3532,
      "Ġgar": 3533,
      "Ġadding": 3534,
      "Ġconnection": 3535,
      "Ġmemory": 3536,
      "ĠArt": 3537,
      "Ġclin": 3538,
      "ĠUE": 3539,
      "Ġlocated": 3540,
      "Ġpractices": 3541,
      "print": 3542,
      "Ġestim": 3543,
      "Ġdescribed": 3544,
      "Pl": 3545,
      "eed": 3546,
      "urt": 3547,
      "Ġsex": 3548,
      "ĠGod": 3549,
      "Ġevalu": 3550,
      "Ġsave": 3551,
      "Ġelement": 3552,
      "Ġreaction": 3553,
      "55": 3554,
      "Ġatmosp": 3555,
      "Ġplaces": 3556,
      "Ġprocessing": 3557,
      "Ġtissue": 3558,
      "Ġver": 3559,
      "inn": 3560,
      "Ġocean": 3561,
      "Ġrev": 3562,
      "ulated": 3563,
      "ĠOur": 3564,
      "Ġexpress": 3565,
      "Ġsignificantly": 3566,
      "cking": 3567,
      "met": 3568,
      "aly": 3569,
      "Ġthous": 3570,
      "ulf": 3571,
      "amb": 3572,
      "ĠGl": 3573,
      "Ġdemand": 3574,
      "07": 3575,
      "31": 3576,
      "ĠWho": 3577,
      "Ġmovement": 3578,
      "29": 3579,
      "iate": 3580,
      "rates": 3581,
      "Ġvia": 3582,
      "Ġplat": 3583,
      "rought": 3584,
      "Ġnews": 3585,
      "Ġdiscovered": 3586,
      "Ġreducing": 3587,
      "Some": 3588,
      "Ġapply": 3589,
      "Ġremember": 3590,
      "cling": 3591,
      "Ġresistance": 3592,
      "Ġdynam": 3593,
      "Ġmag": 3594,
      "Ġcleaning": 3595,
      "mbol": 3596,
      "Ġfabric": 3597,
      "life": 3598,
      "Ġvalu": 3599,
      "ĠAdditionally": 3600,
      "Ġcomponent": 3601,
      "Ġapplied": 3602,
      "Ġcommercial": 3603,
      "na": 3604,
      "hester": 3605,
      "Ġchick": 3606,
      "Ġrise": 3607,
      "erences": 3608,
      "Ġgoes": 3609,
      "Ġstarting": 3610,
      "Ġopportunity": 3611,
      "Ġfight": 3612,
      "imens": 3613,
      "Ġcoast": 3614,
      "Ġbreast": 3615,
      "ĠAlso": 3616,
      "Ġexactly": 3617,
      "Ġfile": 3618,
      "These": 3619,
      "Ġexamples": 3620,
      "Ġadvantage": 3621,
      "Ġmouth": 3622,
      "Ġnotice": 3623,
      "Ġtherefore": 3624,
      "Ġrapid": 3625,
      "standing": 3626,
      "Ġreported": 3627,
      "ping": 3628,
      "Ġreve": 3629,
      "Ġintellig": 3630,
      "Ġattempt": 3631,
      "Ġaircraft": 3632,
      "clus": 3633,
      "Ġmotor": 3634,
      "Ġfully": 3635,
      "oman": 3636,
      "ĠCenter": 3637,
      "-up": 3638,
      "Ġfoss": 3639,
      "pped": 3640,
      "ieved": 3641,
      "Ġprogress": 3642,
      "Ġsuccessful": 3643,
      "Ġstraight": 3644,
      "Ġalternative": 3645,
      "AL": 3646,
      "Ġstage": 3647,
      "Ġdead": 3648,
      "arian": 3649,
      "hetic": 3650,
      "And": 3651,
      "can": 3652,
      "Ġoutd": 3653,
      "Ġarg": 3654,
      "Ġexpert": 3655,
      "Ġplanet": 3656,
      "Ġeffectively": 3657,
      "Ġlayer": 3658,
      "Ġmanufacture": 3659,
      "Ġestablish": 3660,
      "Ġ:": 3661,
      "isp": 3662,
      "ĠSim": 3663,
      "ament": 3664,
      "Ġround": 3665,
      "ĠNow": 3666,
      "Ġdoor": 3667,
      "Ġswitch": 3668,
      "Ġvegetables": 3669,
      "Ġmoisture": 3670,
      "ester": 3671,
      "ĠTheir": 3672,
      "They": 3673,
      "Ġinsp": 3674,
      "year": 3675,
      "Ġmiss": 3676,
      "Ġgiving": 3677,
      "Ġrock": 3678,
      "Ġflight": 3679,
      "Ġsett": 3680,
      "Ġversion": 3681,
      "04": 3682,
      "Ġbound": 3683,
      "Ġconvers": 3684,
      "Ġcoming": 3685,
      "plant": 3686,
      "Now": 3687,
      "ened": 3688,
      "Ġpump": 3689,
      "Ġmid": 3690,
      "Ġfunctions": 3691,
      "Ġreduced": 3692,
      "Ġeconomic": 3693,
      "iant": 3694,
      "set": 3695,
      "hest": 3696,
      "Ġnucle": 3697,
      "osph": 3698,
      "ĠGerm": 3699,
      "ĠLear": 3700,
      "Ġsetting": 3701,
      "Ġobjects": 3702,
      "inger": 3703,
      "Ġep": 3704,
      "uration": 3705,
      "resp": 3706,
      "Ġscale": 3707,
      "Ġanyone": 3708,
      "Ġindepend": 3709,
      "Ġsolutions": 3710,
      "Ġmedium": 3711,
      "75": 3712,
      "Ġtail": 3713,
      "Ġwin": 3714,
      "Ġsolid": 3715,
      "Ġobserved": 3716,
      "Ġpicture": 3717,
      "cape": 3718,
      "inks": 3719,
      "Ġplaced": 3720,
      "Ġinteresting": 3721,
      "hel": 3722,
      "Ġpil": 3723,
      "Ġthird": 3724,
      "ĠWar": 3725,
      "ĠWest": 3726,
      "ĠMod": 3727,
      "Ġpowerful": 3728,
      "Ġappearance": 3729,
      "Ġoxygen": 3730,
      "ĠOther": 3731,
      "ously": 3732,
      "Ġsynt": 3733,
      "Ġdepend": 3734,
      "Ġconnected": 3735,
      "iments": 3736,
      "imize": 3737,
      "ĠOver": 3738,
      "Ġbran": 3739,
      "Ġfrequency": 3740,
      "Ġsituation": 3741,
      "Ġwire": 3742,
      "Ġmob": 3743,
      "Ġthus": 3744,
      "Ġlooks": 3745,
      "Ġalthough": 3746,
      "inding": 3747,
      "Ġeffort": 3748,
      "Ġequal": 3749,
      "ĠEnglish": 3750,
      "know": 3751,
      "lier": 3752,
      "off": 3753,
      "Ġfaster": 3754,
      "osystem": 3755,
      "Ġboil": 3756,
      "iction": 3757,
      "ashion": 3758,
      "Ġcontribute": 3759,
      "Ġinfection": 3760,
      "Ġingredients": 3761,
      "Ġplatform": 3762,
      "ĠTH": 3763,
      "abol": 3764,
      "ĠEach": 3765,
      "Ġfilter": 3766,
      "While": 3767,
      "Ġteachers": 3768,
      "Ġ|": 3769,
      "isions": 3770,
      "Ġsevere": 3771,
      "onding": 3772,
      "Ġdifferences": 3773,
      "Ġrequirements": 3774,
      "Ġmiles": 3775,
      "Ġfruit": 3776,
      "Ġmale": 3777,
      "ivate": 3778,
      "ĠTechn": 3779,
      "Ġwrong": 3780,
      "Ġnutrients": 3781,
      "Ġexcellent": 3782,
      "gram": 3783,
      "Ġtasks": 3784,
      "ony": 3785,
      "Ġnav": 3786,
      "Ġstuff": 3787,
      "ams": 3788,
      "Ġimag": 3789,
      "cohol": 3790,
      "Ġapprox": 3791,
      "ĠAustral": 3792,
      "haps": 3793,
      "iar": 3794,
      "aters": 3795,
      "icking": 3796,
      "Ġeth": 3797,
      "raction": 3798,
      "ĠPar": 3799,
      "Ġrain": 3800,
      "Ġowners": 3801,
      "roduction": 3802,
      "Ġexisting": 3803,
      "ET": 3804,
      "enge": 3805,
      "omb": 3806,
      "Ġbegan": 3807,
      "ĠRem": 3808,
      "Ġcombination": 3809,
      "Ġdie": 3810,
      "ĠTw": 3811,
      "ĠWhe": 3812,
      "Ġworth": 3813,
      "ender": 3814,
      "Ġpref": 3815,
      "Ġtank": 3816,
      "rehens": 3817,
      "Ġmut": 3818,
      "ided": 3819,
      "Ġevol": 3820,
      "Ġdetails": 3821,
      "Ġstructures": 3822,
      "Ġcharacteristics": 3823,
      "Ġpieces": 3824,
      "II": 3825,
      "pec": 3826,
      "Ġteaching": 3827,
      "Ġparam": 3828,
      "Ġdocument": 3829,
      "ĠLet": 3830,
      "Ġarch": 3831,
      "Ġinterf": 3832,
      "Ġtrend": 3833,
      "PS": 3834,
      "ana": 3835,
      "ancial": 3836,
      "Ġdate": 3837,
      "semb": 3838,
      "Ġcrus": 3839,
      "IC": 3840,
      "rim": 3841,
      "tes": 3842,
      "Ġast": 3843,
      "Ġwaves": 3844,
      "ĠRed": 3845,
      "Ġroots": 3846,
      "Ġtransfer": 3847,
      "Ġaffected": 3848,
      "ĠIndia": 3849,
      "Ġrelatively": 3850,
      "bit": 3851,
      "hold": 3852,
      "ica": 3853,
      "ĠBi": 3854,
      "Ġdish": 3855,
      "Ġnutrition": 3856,
      "ĠInstitute": 3857,
      "Ġsmooth": 3858,
      "zyme": 3859,
      "ĠAfrica": 3860,
      "Re": 3861,
      "Ġbodies": 3862,
      "Ġmiddle": 3863,
      "Ġstick": 3864,
      "Ġschools": 3865,
      "Ġbud": 3866,
      "Ġfle": 3867,
      "Ġlost": 3868,
      "Ġchance": 3869,
      "ĠRec": 3870,
      "Ġdepends": 3871,
      "ĠOnce": 3872,
      "ipes": 3873,
      "Ġroll": 3874,
      "Ġremains": 3875,
      "Ġbackground": 3876,
      "Ġcamera": 3877,
      "Ġtaste": 3878,
      "Ġmoment": 3879,
      "right": 3880,
      "Ġsounds": 3881,
      "ĠMac": 3882,
      "âĢ¢": 3883,
      "Ġcontext": 3884,
      "Ġcommit": 3885,
      "Ġdiabetes": 3886,
      "Ġexposure": 3887,
      "Ġwent": 3888,
      "Ġdat": 3889,
      "Ġminimum": 3890,
      "Ġmotion": 3891,
      "Ġfamilies": 3892,
      ".g": 3893,
      "Ġsociety": 3894,
      "Ġwalk": 3895,
      "olar": 3896,
      "ĠAg": 3897,
      "ĠAccording": 3898,
      "uries": 3899,
      "ĠBra": 3900,
      "ishing": 3901,
      "Ġsignals": 3902,
      "enty": 3903,
      "ĠState": 3904,
      "Ġcars": 3905,
      "Ġpresence": 3906,
      "Ġboost": 3907,
      "Ġtesting": 3908,
      "-C": 3909,
      "59": 3910,
      "AM": 3911,
      "Ġwet": 3912,
      "Ġfair": 3913,
      "Ġrates": 3914,
      "ĠNOT": 3915,
      "Ġjoint": 3916,
      "ĠJust": 3917,
      "ĠChrist": 3918,
      "ball": 3919,
      "Ġbrown": 3920,
      "Ġstream": 3921,
      "Ġpregn": 3922,
      "Ġagg": 3923,
      "Ġlargest": 3924,
      "Ġsecurity": 3925,
      "Res": 3926,
      "Ġsod": 3927,
      "redit": 3928,
      "Ġtrack": 3929,
      "Ġinstance": 3930,
      "Ġtechnique": 3931,
      "Ġhandle": 3932,
      "Ġslightly": 3933,
      "otics": 3934,
      "Ġonto": 3935,
      "estic": 3936,
      "Ġheight": 3937,
      "used": 3938,
      "Ġrecently": 3939,
      "Ġtrig": 3940,
      "Ġincluded": 3941,
      "ĠAlthough": 3942,
      "-le": 3943,
      "Ġpotatoes": 3944,
      "Ġcommunities": 3945,
      "Ġanti": 3946,
      "Ġvolume": 3947,
      "IT": 3948,
      "Ġdiv": 3949,
      "Ġthr": 3950,
      "ĠMarch": 3951,
      "Ġspir": 3952,
      "Ġupd": 3953,
      "orders": 3954,
      "Ġinfl": 3955,
      "uary": 3956,
      "ĠServ": 3957,
      "ĠEduc": 3958,
      "Ġfinding": 3959,
      "Ġensuring": 3960,
      "Ġsuggests": 3961,
      "95": 3962,
      "AD": 3963,
      "Ġ...": 3964,
      "Ġbooks": 3965,
      "Ġsaliv": 3966,
      "Step": 3967,
      "Ġforward": 3968,
      "Ġadop": 3969,
      "Ġregions": 3970,
      "Ġrelease": 3971,
      "ken": 3972,
      "pen": 3973,
      "urance": 3974,
      "Ġsymbol": 3975,
      "Ġcalc": 3976,
      "Ġestablished": 3977,
      "Ġinfluence": 3978,
      "crib": 3979,
      "Ġrat": 3980,
      "Ġrecy": 3981,
      "Ġcove": 3982,
      "rench": 3983,
      "Ġextract": 3984,
      "Ġexpensive": 3985,
      "Ġelectronic": 3986,
      "Ġdistinct": 3987,
      "Ġpopulations": 3988,
      "ST": 3989,
      "anc": 3990,
      "Ġstorage": 3991,
      "Ġdecision": 3992,
      "Ġphone": 3993,
      "Ġexperiences": 3994,
      "Do": 3995,
      "Ġkeeping": 3996,
      "fess": 3997,
      "Ġphen": 3998,
      "Ġshar": 3999,
      "Ġcompar": 4000,
      "ificial": 4001,
      "Ġsites": 4002,
      "Ġmilk": 4003,
      "Ġframe": 4004,
      "Ġecosystem": 4005,
      "Un": 4006,
      "iples": 4007,
      "ancing": 4008,
      "ochester": 4009,
      "Ġcolour": 4010,
      "bre": 4011,
      "Ġhuge": 4012,
      "Ġweak": 4013,
      "Ġkil": 4014,
      "Ġdiscover": 4015,
      "Ġbasis": 4016,
      "Ġfeeling": 4017,
      "Ġwrite": 4018,
      "oly": 4019,
      "ying": 4020,
      "Ġrules": 4021,
      "ĠDis": 4022,
      "Ġbutter": 4023,
      "ĠYork": 4024,
      "ublic": 4025,
      "Ġnearly": 4026,
      "EM": 4027,
      "bing": 4028,
      "Ġhit": 4029,
      "ĠSw": 4030,
      "gery": 4031,
      "Ġrisks": 4032,
      "Ġopportunities": 4033,
      "ban": 4034,
      "ss": 4035,
      "Ġfro": 4036,
      "ilit": 4037,
      "Ġyellow": 4038,
      "Ġpsych": 4039,
      "eties": 4040,
      "Ġmarine": 4041,
      "ĠEuropean": 4042,
      "Ġpounds": 4043,
      "Ġanx": 4044,
      "ĠEven": 4045,
      "Ġpolit": 4046,
      "Ġcouple": 4047,
      "Ġtit": 4048,
      "Ġsold": 4049,
      "Ġcateg": 4050,
      "alle": 4051,
      "Ġbeyond": 4052,
      "Ġhear": 4053,
      "Ġselection": 4054,
      "Ġresulting": 4055,
      "Ġdegree": 4056,
      "Ġ#": 4057,
      "Ġtax": 4058,
      "Ġsort": 4059,
      "ĠSur": 4060,
      "anging": 4061,
      "Ġdistribution": 4062,
      "06": 4063,
      "oors": 4064,
      "Ġbow": 4065,
      "Ġforces": 4066,
      "ĠFirst": 4067,
      "Ġresid": 4068,
      "Ġcovered": 4069,
      "Ph": 4070,
      "abilities": 4071,
      "Ġweb": 4072,
      "unction": 4073,
      "ander": 4074,
      "Ġdepth": 4075,
      "Ġliter": 4076,
      "ashing": 4077,
      "Ġmeasures": 4078,
      "Ġmaintaining": 4079,
      "encies": 4080,
      "OL": 4081,
      "mission": 4082,
      "Ġpen": 4083,
      "Ġnote": 4084,
      "ĠObs": 4085,
      "Ġtechnologies": 4086,
      "Ġcentral": 4087,
      "ĠClass": 4088,
      "Ġcooling": 4089,
      "Ġstrategies": 4090,
      "Ġfertil": 4091,
      "ye": 4092,
      "},Ċ": 4093,
      "Ġtiny": 4094,
      "Ġheating": 4095,
      "Ġattack": 4096,
      "Ġchanging": 4097,
      "Ġpromot": 4098,
      "Ġconsumption": 4099,
      "Ġseparate": 4100,
      "house": 4101,
      "Ġenzyme": 4102,
      "ĠRep": 4103,
      "ares": 4104,
      "bed": 4105,
      "Ġchann": 4106,
      "Ġshoes": 4107,
      "ĠIts": 4108,
      "ought": 4109,
      "Ġsaw": 4110,
      "Ġfruits": 4111,
      "Ġcele": 4112,
      "rus": 4113,
      "odes": 4114,
      "apan": 4115,
      "Ġspecifically": 4116,
      "ĠJan": 4117,
      "Ġplanning": 4118,
      "Ġfemale": 4119,
      "ĠQ": 4120,
      "Ġstim": 4121,
      "elines": 4122,
      "umber": 4123,
      "Ġallerg": 4124,
      "Ġcollection": 4125,
      "Ġsmart": 4126,
      "hesis": 4127,
      "Ġgrown": 4128,
      "Ġhistor": 4129,
      "ype": 4130,
      "Ġsess": 4131,
      "ĠpH": 4132,
      "orith": 4133,
      "Ġdust": 4134,
      "ocal": 4135,
      "Ġlighting": 4136,
      "Ġactual": 4137,
      "Ġinterested": 4138,
      "Ġlabor": 4139,
      "Ġexperienced": 4140,
      "Ġjourney": 4141,
      "aught": 4142,
      "RE": 4143,
      "ĠAct": 4144,
      "urally": 4145,
      "Ġformed": 4146,
      "Ġbright": 4147,
      "Ġolder": 4148,
      "Ġfluid": 4149,
      "Ġdrug": 4150,
      "Ġinsects": 4151,
      "Ġwonder": 4152,
      "Ġ)": 4153,
      "omic": 4154,
      "Ġstret": 4155,
      "pril": 4156,
      "azing": 4157,
      "ses": 4158,
      "attle": 4159,
      "oster": 4160,
      "Ġgraph": 4161,
      "ipped": 4162,
      "Ġextremely": 4163,
      "zing": 4164,
      "Ġmis": 4165,
      "Ġded": 4166,
      "Ġstre": 4167,
      "Ġkill": 4168,
      "...Ċ": 4169,
      "Ġdescri": 4170,
      "Ġelimin": 4171,
      "Ġchemicals": 4172,
      "Ġvehicles": 4173,
      "ĠUsing": 4174,
      "Ġsweet": 4175,
      "?\"": 4176,
      "Ġalone": 4177,
      "ĠMet": 4178,
      "Ġneut": 4179,
      "ĠDon": 4180,
      "Ġsurpr": 4181,
      "undred": 4182,
      "Ġnative": 4183,
      "Ġconver": 4184,
      "Ġcomprehens": 4185,
      "ressive": 4186,
      "ords": 4187,
      "Ġmonit": 4188,
      "Ġdriving": 4189,
      "Ġsamples": 4190,
      "Ġplease": 4191,
      "ille": 4192,
      "oday": 4193,
      "ĠMake": 4194,
      "Ġscen": 4195,
      "Ġallowed": 4196,
      "Ġphotos": 4197,
      "Ġvirt": 4198,
      "Ġvaluable": 4199,
      "oice": 4200,
      "Ġexhib": 4201,
      "emy": 4202,
      "agram": 4203,
      "ĠUK": 4204,
      "Ġimmune": 4205,
      "65": 4206,
      "celer": 4207,
      "ĠSec": 4208,
      "ĠPart": 4209,
      "Ġdeb": 4210,
      "unk": 4211,
      "ĠFl": 4212,
      "ĠEm": 4213,
      "ĠElect": 4214,
      "Ġmanage": 4215,
      "Ġadvanced": 4216,
      "âĢĻt": 4217,
      "Ġproperty": 4218,
      "Ġchanged": 4219,
      "Ġserve": 4220,
      "Ġadvantages": 4221,
      "Ġinstructions": 4222,
      "ixture": 4223,
      "99": 4224,
      "iety": 4225,
      "inally": 4226,
      "Ġwave": 4227,
      "Ġclos": 4228,
      "Ġconservation": 4229,
      "iverse": 4230,
      "Ġantib": 4231,
      "Ġdegrees": 4232,
      "Ġeventually": 4233,
      "icks": 4234,
      "ĠCle": 4235,
      "ĠUnder": 4236,
      "Ġcorresp": 4237,
      "Ġcomfortable": 4238,
      "Ġimmediately": 4239,
      "Ġatmosphere": 4240,
      "itis": 4241,
      "ucose": 4242,
      "Ġdigest": 4243,
      "Ġteacher": 4244,
      "Ġtouch": 4245,
      "Ġfly": 4246,
      "Ġtox": 4247,
      "ivil": 4248,
      "orthern": 4249,
      "Ġblog": 4250,
      "useum": 4251,
      "ĠJohn": 4252,
      "wers": 4253,
      "Ġfashion": 4254,
      "Ġalcohol": 4255,
      "ials": 4256,
      "place": 4257,
      "Ġsquare": 4258,
      "Ġsatis": 4259,
      "Ġsample": 4260,
      "Ġaspects": 4261,
      "izations": 4262,
      "Ġampl": 4263,
      "Ġflavor": 4264,
      "ĠTrans": 4265,
      "mm": 4266,
      "||": 4267,
      "erate": 4268,
      "Ġsche": 4269,
      "Ġqual": 4270,
      "Ġworked": 4271,
      "Ġpolicy": 4272,
      "Ġclasses": 4273,
      "Ġfinancial": 4274,
      "Ġasked": 4275,
      "Ġhabitat": 4276,
      "Ġfavorite": 4277,
      "book": 4278,
      "Ġtherapy": 4279,
      "Ġnational": 4280,
      "ĠHer": 4281,
      "Ġemissions": 4282,
      "Ġleaders": 4283,
      "Ġ-->": 4284,
      "Ġpollution": 4285,
      "Ġpa": 4286,
      "ctors": 4287,
      "ifier": 4288,
      "ĠChar": 4289,
      "Ġexpression": 4290,
      "Ġdrugs": 4291,
      "ING": 4292,
      "Ġfill": 4293,
      "anation": 4294,
      "ĠAC": 4295,
      "ĠPres": 4296,
      "Ġshop": 4297,
      "outhern": 4298,
      "Ġcontrast": 4299,
      "Ġspend": 4300,
      "Ġhelping": 4301,
      "Ġmining": 4302,
      "vironments": 4303,
      "Ġplayers": 4304,
      "Ġhappy": 4305,
      "Ġgrass": 4306,
      "care": 4307,
      "pre": 4308,
      "Ġâ": 4309,
      "Ġion": 4310,
      "Ġmamm": 4311,
      "Ġstock": 4312,
      "Ġstaff": 4313,
      "osite": 4314,
      "Ġcutting": 4315,
      "ĠEnvironment": 4316,
      "!!": 4317,
      "36": 4318,
      "Ġsnow": 4319,
      "Ġmel": 4320,
      "iforn": 4321,
      "Ġpractical": 4322,
      "Ġhighest": 4323,
      "Ġchallenge": 4324,
      "Ġtrou": 4325,
      "omy": 4326,
      "eters": 4327,
      "Ġrub": 4328,
      "Ġdivers": 4329,
      "Ġgrade": 4330,
      "related": 4331,
      "Ġtom": 4332,
      "Ġsus": 4333,
      "ĠGroup": 4334,
      "Ġmostly": 4335,
      "Ġtests": 4336,
      "-like": 4337,
      "known": 4338,
      "33": 4339,
      "ndom": 4340,
      "Ġtooth": 4341,
      "Ġlic": 4342,
      "Ġsubs": 4343,
      "ĠHist": 4344,
      "inder": 4345,
      "ructure": 4346,
      "Ġenter": 4347,
      "Ġpredict": 4348,
      "Ġcustomer": 4349,
      "Ġelectricity": 4350,
      "Ġcounter": 4351,
      "cid": 4352,
      "mar": 4353,
      "och": 4354,
      "uzz": 4355,
      "Ġhundred": 4356,
      "ĠSu": 4357,
      "que": 4358,
      "Ġvital": 4359,
      "Ġdiverse": 4360,
      "Ġadvance": 4361,
      "Ġhydro": 4362,
      "-Ċ": 4363,
      "ato": 4364,
      "aled": 4365,
      "Ġdensity": 4366,
      "Ġhour": 4367,
      "riend": 4368,
      "Ġclim": 4369,
      "Ġpromote": 4370,
      "Ġwritten": 4371,
      "Ġcustomers": 4372,
      "Ġcircuit": 4373,
      "cript": 4374,
      "minist": 4375,
      "dom": 4376,
      "med": 4377,
      "otton": 4378,
      "Ġhaz": 4379,
      "antic": 4380,
      "oughly": 4381,
      "Ġgoals": 4382,
      "Ġtypical": 4383,
      "-sh": 4384,
      "Ġbeginning": 4385,
      "ds": 4386,
      "ĠSince": 4387,
      "Ġves": 4388,
      "rupt": 4389,
      "ees": 4390,
      "cember": 4391,
      "ĠAnt": 4392,
      "Ġefforts": 4393,
      "Ġemp": 4394,
      "cont": 4395,
      "Ġbiological": 4396,
      "rant": 4397,
      "wing": 4398,
      "Ġcup": 4399,
      "ĠSk": 4400,
      "Ġconsult": 4401,
      "Ġflat": 4402,
      "Ġcreative": 4403,
      "-S": 4404,
      "Ġabund": 4405,
      "ava": 4406,
      "Ġbecoming": 4407,
      "Ġearlier": 4408,
      "Ġorganization": 4409,
      "Ġmachines": 4410,
      "Ġalgorith": 4411,
      "ifornia": 4412,
      "-re": 4413,
      "Ab": 4414,
      "Our": 4415,
      "atically": 4416,
      "ctober": 4417,
      "Ġreality": 4418,
      "Ġnit": 4419,
      "ĠWill": 4420,
      "ĠJapan": 4421,
      "Ġcultural": 4422,
      "Ġreleased": 4423,
      "ĠEducation": 4424,
      "AP": 4425,
      "Des": 4426,
      "ran": 4427,
      "Ġburn": 4428,
      "Ġhosp": 4429,
      "Ġuns": 4430,
      "Ġcolon": 4431,
      "Ġarray": 4432,
      "ifying": 4433,
      "Ġpurposes": 4434,
      "Ġaccurate": 4435,
      "Ġcore": 4436,
      "iter": 4437,
      "Ġpric": 4438,
      "Ġhous": 4439,
      "ĠMin": 4440,
      "ĠEd": 4441,
      "ĠRochester": 4442,
      "Ġsyn": 4443,
      "oxide": 4444,
      "Ġnavig": 4445,
      "That": 4446,
      "cil": 4447,
      "aser": 4448,
      "ĠAut": 4449,
      "ĠSte": 4450,
      "ĠPark": 4451,
      "Ġtopic": 4452,
      "Ġdestro": 4453,
      "48": 4454,
      "hop": 4455,
      "Ġenvironments": 4456,
      "Ġrule": 4457,
      "Ġmaybe": 4458,
      "Ġdefined": 4459,
      "Ġoccas": 4460,
      "Ġfields": 4461,
      ".e": 4462,
      "No": 4463,
      "flow": 4464,
      "ios": 4465,
      "Ġcert": 4466,
      "Ġyield": 4467,
      "Ġvibr": 4468,
      "ĠEvery": 4469,
      "ĠRead": 4470,
      "ource": 4471,
      "ĠLab": 4472,
      "Ġelectron": 4473,
      "Ġidentified": 4474,
      "Ġfrequently": 4475,
      "Ġmedicine": 4476,
      "Ġencourage": 4477,
      "ĠDepartment": 4478,
      "-year": 4479,
      ".[": 4480,
      "ĠWell": 4481,
      "ighter": 4482,
      "Ġkg": 4483,
      "Ġtransition": 4484,
      "Ġshel": 4485,
      "Ġmetabol": 4486,
      "Ġapart": 4487,
      "Ġregularly": 4488,
      "Ġjournal": 4489,
      "Ġsettings": 4490,
      "/or": 4491,
      "equ": 4492,
      "Ġtour": 4493,
      "atural": 4494,
      "Ġgirl": 4495,
      "iders": 4496,
      "Ġcomplic": 4497,
      "ĠEl": 4498,
      "itely": 4499,
      "formation": 4500,
      "Ġfindings": 4501,
      "However": 4502,
      "Ġregarding": 4503,
      "All": 4504,
      "Bl": 4505,
      "OS": 4506,
      "my": 4507,
      "ups": 4508,
      "Ġbone": 4509,
      "Ġstar": 4510,
      "Ġstem": 4511,
      "rome": 4512,
      "ĠFood": 4513,
      "Ġdoctor": 4514,
      "Ġpool": 4515,
      "Ġgeneration": 4516,
      "iences": 4517,
      "Ġvitamin": 4518,
      "EC": 4519,
      "ux": 4520,
      "Ġmold": 4521,
      "Ġstru": 4522,
      "Ġancient": 4523,
      "Ġconsequ": 4524,
      "ĠCur": 4525,
      "ĠHum": 4526,
      "ĠDi": 4527,
      "active": 4528,
      "Ġrandom": 4529,
      "Ġveter": 4530,
      "ĠBritish": 4531,
      "Ġcelebr": 4532,
      "bl": 4533,
      "uild": 4534,
      "Ġsizes": 4535,
      "itect": 4536,
      "stract": 4537,
      "ĠSun": 4538,
      "Ġconc": 4539,
      "Ġju": 4540,
      "phas": 4541,
      "Ġlights": 4542,
      "Ġreference": 4543,
      "Ġshell": 4544,
      "Ġplaying": 4545,
      "Ġoperation": 4546,
      "Ġsteel": 4547,
      "Ġillust": 4548,
      "Ġadults": 4549,
      "ĠCalifornia": 4550,
      "Ġthousands": 4551,
      "tion": 4552,
      "Ġiron": 4553,
      "Ġtalking": 4554,
      "ĠDuring": 4555,
      "allow": 4556,
      "ĠIndian": 4557,
      "Another": 4558,
      "ĠAfrican": 4559,
      "ĠCom": 4560,
      "Ġglucose": 4561,
      "Ġcontainer": 4562,
      "Ġoperations": 4563,
      "Ġdomin": 4564,
      "IG": 4565,
      "My": 4566,
      "Ġcand": 4567,
      "Ġelectro": 4568,
      "Ġdetermined": 4569,
      "Ġeducational": 4570,
      "ĠPhot": 4571,
      "-r": 4572,
      "-qu": 4573,
      "time": 4574,
      "Ġ<": 4575,
      "Ġfear": 4576,
      "alse": 4577,
      "Ġdu": 4578,
      "idge": 4579,
      "ager": 4580,
      "Ġunits": 4581,
      "Ġdecisions": 4582,
      "Ġnumerous": 4583,
      "Ġpotentially": 4584,
      "Ġmeasured": 4585,
      "Ġinfections": 4586,
      "Ġintroduced": 4587,
      "44": 4588,
      "Ġmig": 4589,
      "olf": 4590,
      "Ġwhose": 4591,
      "ĠBo": 4592,
      "Ġclot": 4593,
      "Ġamylase": 4594,
      "Ġsets": 4595,
      "Ġorganisms": 4596,
      "Ġvisible": 4597,
      "ĠTherefore": 4598,
      "Ġstandards": 4599,
      "Ġprofession": 4600,
      "Ġrelationships": 4601,
      "ypes": 4602,
      "fish": 4603,
      "Ġten": 4604,
      "Ġsell": 4605,
      "Ġlose": 4606,
      "omach": 4607,
      "add": 4608,
      "ffee": 4609,
      "ologist": 4610,
      "Ġfung": 4611,
      "Ġbreed": 4612,
      "Ġsaying": 4613,
      "42": 4614,
      "Ġspl": 4615,
      "Ġfigure": 4616,
      "Ġdura": 4617,
      "ĠAv": 4618,
      "Ġstarch": 4619,
      "Ġprem": 4620,
      "Ġapprec": 4621,
      "Ġflav": 4622,
      "Ġrequest": 4623,
      "Ġdrain": 4624,
      "iveness": 4625,
      "Ġimpacts": 4626,
      "Ġprinciples": 4627,
      "which": 4628,
      "Ġign": 4629,
      "Ġcast": 4630,
      "Ġtold": 4631,
      "Ġtoward": 4632,
      "icious": 4633,
      "Ġthread": 4634,
      "Ġstring": 4635,
      "ulum": 4636,
      "amental": 4637,
      "ads": 4638,
      "atever": 4639,
      "Ġhighlight": 4640,
      "Ġmanufacturing": 4641,
      "Ġmorning": 4642,
      "Ġclothing": 4643,
      "Ġanxiety": 4644,
      "body": 4645,
      "erals": 4646,
      "Ġhorm": 4647,
      "Ġlov": 4648,
      "ception": 4649,
      "ĠSal": 4650,
      "ĠGet": 4651,
      "Ġdesigns": 4652,
      "roscop": 4653,
      "Ġswim": 4654,
      "Ġinvolve": 4655,
      "Ġwidely": 4656,
      "Ġcomprehensive": 4657,
      "DS": 4658,
      "wood": 4659,
      "Ġtun": 4660,
      "Ġholes": 4661,
      "Ġgall": 4662,
      "cell": 4663,
      "ĠApril": 4664,
      "Ġaudio": 4665,
      "Ġcryst": 4666,
      "Ġapproximately": 4667,
      "34": 4668,
      "Ã©": 4669,
      "idth": 4670,
      "olid": 4671,
      "umps": 4672,
      "Ġdecl": 4673,
      "Ġperformed": 4674,
      "Ġdrawing": 4675,
      "Ġwait": 4676,
      "After": 4677,
      "cule": 4678,
      "ny": 4679,
      "Ġwest": 4680,
      "Ġbrought": 4681,
      "Ġplate": 4682,
      "Ġmap": 4683,
      "Ġassum": 4684,
      "Ġassign": 4685,
      "Ġamounts": 4686,
      "Ġvessel": 4687,
      "Int": 4688,
      "za": 4689,
      "Ġdrop": 4690,
      "uting": 4691,
      "olute": 4692,
      "opl": 4693,
      "Ġneigh": 4694,
      "Ġwanted": 4695,
      "Ġlearned": 4696,
      "Ġremoved": 4697,
      "Ġchicken": 4698,
      "61": 4699,
      "ek": 4700,
      "Ġsem": 4701,
      "itary": 4702,
      "Ġnamed": 4703,
      "uth": 4704,
      "ĠDay": 4705,
      "Ġrelax": 4706,
      "ĠProgram": 4707,
      "Ġradio": 4708,
      "----------------": 4709,
      "ĠÎ": 4710,
      "Ġwatch": 4711,
      "Ġdro": 4712,
      "rote": 4713,
      "Ġstone": 4714,
      "ĠSystem": 4715,
      "Ġexec": 4716,
      "Ġblocks": 4717,
      "Ġgravity": 4718,
      "Ġartificial": 4719,
      "Ġturned": 4720,
      "Ġindicate": 4721,
      "Ġconcentration": 4722,
      "dent": 4723,
      "Ġmit": 4724,
      "Ġheld": 4725,
      "ĠBar": 4726,
      "ordin": 4727,
      "ovember": 4728,
      "Ġsurgery": 4729,
      "Ġreprodu": 4730,
      "Ġfollowed": 4731,
      ".)": 4732,
      "uly": 4733,
      "Ġaw": 4734,
      "Ġtraffic": 4735,
      "Ġinternet": 4736,
      "Ġinternational": 4737,
      "Ġharvest": 4738,
      "Ġdouble": 4739,
      "works": 4740,
      "chers": 4741,
      "oom": 4742,
      "Ġpal": 4743,
      "Ġthor": 4744,
      "Ġassemb": 4745,
      "Ġworry": 4746,
      "Ġcontract": 4747,
      "Ġofficial": 4748,
      "Ġphase": 4749,
      "Ġrefers": 4750,
      "Ġdrink": 4751,
      "Ġtreatments": 4752,
      "Ġreceived": 4753,
      "Ġax": 4754,
      "Ġsau": 4755,
      "iced": 4756,
      "ruary": 4757,
      "Ġacceler": 4758,
      "ĠChild": 4759,
      "Ġgenerate": 4760,
      "Ġcarefully": 4761,
      "Ġpresented": 4762,
      "Ġresource": 4763,
      "Ġspeaker": 4764,
      "Ġintelligence": 4765,
      "TI": 4766,
      "ued": 4767,
      "uum": 4768,
      "yd": 4769,
      "Ġmixture": 4770,
      "lev": 4771,
      "Ġrepe": 4772,
      "rain": 4773,
      "eline": 4774,
      "ĠCity": 4775,
      "Ġwheel": 4776,
      "Ġmeal": 4777,
      "Ġscr": 4778,
      "Ġkept": 4779,
      "Ġconfig": 4780,
      "Ġfeeding": 4781,
      "Ġlatest": 4782,
      "Ġlaws": 4783,
      "Ġwalls": 4784,
      "Ġpreviously": 4785,
      "Ġstatus": 4786,
      "Ġprocedure": 4787,
      "ĠPeople": 4788,
      "92": 4789,
      "Us": 4790,
      "pan": 4791,
      "ped": 4792,
      "ste": 4793,
      "acking": 4794,
      "ĠHel": 4795,
      "ĠEast": 4796,
      "Ġzero": 4797,
      "Ġconsistent": 4798,
      "ridge": 4799,
      "38": 4800,
      "51": 4801,
      "rating": 4802,
      "Ġcart": 4803,
      "Ġhunt": 4804,
      "Ġexclus": 4805,
      "Ġplays": 4806,
      "Ġkid": 4807,
      "Ġproducing": 4808,
      "Ġrespond": 4809,
      "Ġconstruct": 4810,
      "ĠDecember": 4811,
      "Ġprimarily": 4812,
      "Ġstories": 4813,
      "ection": 4814,
      "Ġshot": 4815,
      "Ġshad": 4816,
      "orses": 4817,
      "ĠKeep": 4818,
      "Ġimproved": 4819,
      "ĠExpl": 4820,
      "ebruary": 4821,
      "Ġinflamm": 4822,
      "anes": 4823,
      "Ġstomach": 4824,
      "ĠUV": 4825,
      "ologists": 4826,
      "Ġleads": 4827,
      "Ġnaturally": 4828,
      "Ġradi": 4829,
      "ĠOrgan": 4830,
      "Ġbeauty": 4831,
      "Ġroutine": 4832,
      "Ġfossil": 4833,
      "ĠWhether": 4834,
      "98": 4835,
      "lim": 4836,
      "with": 4837,
      "wide": 4838,
      "ĠAng": 4839,
      "ĠWind": 4840,
      "Ġshoot": 4841,
      "ptember": 4842,
      "ĠGreen": 4843,
      "Ġsports": 4844,
      "Ġoffice": 4845,
      "ĠChina": 4846,
      "-free": 4847,
      "Ġmember": 4848,
      "Ġsurfaces": 4849,
      "Ġfilm": 4850,
      "urthermore": 4851,
      "Ġphenomen": 4852,
      "72": 4853,
      "Here": 4854,
      "bi": 4855,
      "rust": 4856,
      "Ġsav": 4857,
      "ingu": 4858,
      "Ġeight": 4859,
      "ĠIns": 4860,
      "rief": 4861,
      "Ġtrade": 4862,
      "Ġfloor": 4863,
      "Ġexposed": 4864,
      "ternal": 4865,
      "Ġessay": 4866,
      "Ġcombined": 4867,
      "ĠAbout": 4868,
      "riendly": 4869,
      "Ġborn": 4870,
      "Ġfed": 4871,
      "icro": 4872,
      "ented": 4873,
      "Ġhelpful": 4874,
      "Ġtransl": 4875,
      "Ġcreatures": 4876,
      "Ġwindow": 4877,
      "Ġerror": 4878,
      "force": 4879,
      "Ġsituations": 4880,
      "Ġdetailed": 4881,
      "ĠAssoci": 4882,
      "isher": 4883,
      "Ġfol": 4884,
      "Ġfault": 4885,
      "icated": 4886,
      "Ġisol": 4887,
      "ĠST": 4888,
      "ogle": 4889,
      "ĠEv": 4890,
      "izer": 4891,
      "Ġclick": 4892,
      "apers": 4893,
      "Ġraw": 4894,
      "Ġsuppl": 4895,
      "pective": 4896,
      "ĠDevelop": 4897,
      "Ġengineering": 4898,
      "Ġhydrogen": 4899,
      "Ġwildlife": 4900,
      "Ġreferred": 4901,
      "ocolate": 4902,
      "En": 4903,
      "iers": 4904,
      "Ġmaster": 4905,
      "Ġden": 4906,
      "icip": 4907,
      "ette": 4908,
      "Ġuniverse": 4909,
      "ĠVal": 4910,
      "Ġmainly": 4911,
      "Ġadvice": 4912,
      "hemat": 4913,
      "Ġexception": 4914,
      "Ġprinting": 4915,
      "ibrary": 4916,
      "Ġspirit": 4917,
      "96": 4918,
      "ias": 4919,
      "rans": 4920,
      "win": 4921,
      "Ġshed": 4922,
      "Ġple": 4923,
      "Ġpets": 4924,
      "Ġband": 4925,
      "ĠAug": 4926,
      "change": 4927,
      "ĠBoth": 4928,
      "Ġshowed": 4929,
      "Ġkinds": 4930,
      "Ġcraft": 4931,
      "Ġmessage": 4932,
      ";Ċ": 4933,
      "AF": 4934,
      "OU": 4935,
      "cap": 4936,
      "iol": 4937,
      "Ġlots": 4938,
      "ache": 4939,
      "Ġchronic": 4940,
      "ĠGreat": 4941,
      "weight": 4942,
      "Ġtrust": 4943,
      "Ġformation": 4944,
      "vention": 4945,
      "Ġcapable": 4946,
      "Ġfiles": 4947,
      "Ġmechanism": 4948,
      "Ġbatteries": 4949,
      "64": 4950,
      "DA": 4951,
      "hab": 4952,
      "ira": 4953,
      "Ġpill": 4954,
      "Ġleaf": 4955,
      "iber": 4956,
      "Ġteach": 4957,
      "Ġjump": 4958,
      "Ġotherwise": 4959,
      "ĠUp": 4960,
      "Ġdesired": 4961,
      "Ġcreation": 4962,
      "Ġherb": 4963,
      "Ġbeneficial": 4964,
      "ĠĠĠ": 4965,
      "Ġrestaur": 4966,
      "Ġsensitive": 4967,
      "Ġlayers": 4968,
      "Ġfiber": 4969,
      "Ġagriculture": 4970,
      "46": 4971,
      "ani": 4972,
      "Ġmist": 4973,
      "Ġhole": 4974,
      "ulating": 4975,
      "Ġrelig": 4976,
      "Ġsecure": 4977,
      "Ġcontainers": 4978,
      "Ġelev": 4979,
      "Ġindustrial": 4980,
      "Ġradiation": 4981,
      "Ġhappened": 4982,
      "Ġprepared": 4983,
      "Ġharmful": 4984,
      "Ġdatab": 4985,
      "OM": 4986,
      "Ġvel": 4987,
      "Ġvert": 4988,
      "Ġaid": 4989,
      "ometimes": 4990,
      "Ġnan": 4991,
      "Ġnorth": 4992,
      "Ġgun": 4993,
      "Ġshared": 4994,
      "Ġplenty": 4995,
      "ressed": 4996,
      "Ġskill": 4997,
      "Ġcontinues": 4998,
      "Ġmobile": 4999,
      "Ġnames": 5000,
      "estyle": 5001,
      "ĠCoun": 5002,
      "umn": 5003,
      "ums": 5004,
      "Ġdiss": 5005,
      "Ġoptim": 5006,
      "Ġprecise": 5007,
      "Ġannual": 5008,
      "39": 5009,
      "chen": 5010,
      "ey": 5011,
      "eing": 5012,
      "Ġtried": 5013,
      "inations": 5014,
      "itting": 5015,
      "Ġnice": 5016,
      "Ġstorm": 5017,
      "Ġstored": 5018,
      "ĠWhere": 5019,
      "ĠRiver": 5020,
      "Ġemphas": 5021,
      "Ġacad": 5022,
      "Ġmechanical": 5023,
      "Ġsurvive": 5024,
      "Ġestimated": 5025,
      "Get": 5026,
      "Ġdental": 5027,
      "ida": 5028,
      "ĠCount": 5029,
      "Ġvoice": 5030,
      "ĠDoes": 5031,
      "asts": 5032,
      "Ġoffering": 5033,
      "Ġreduction": 5034,
      "ĠProfess": 5035,
      "ĠCanada": 5036,
      "Ġsequence": 5037,
      "LE": 5038,
      "ls": 5039,
      "Ġdin": 5040,
      "Ġhon": 5041,
      "iler": 5042,
      "ĠSupp": 5043,
      "Ġpartners": 5044,
      "anges": 5045,
      "Ġreduces": 5046,
      "Ġphoto": 5047,
      "Ġsurrounding": 5048,
      "ĠWorksheets": 5049,
      "nes": 5050,
      "Ġpure": 5051,
      "Ġbond": 5052,
      "Ġnest": 5053,
      "Ġconven": 5054,
      "ĠDec": 5055,
      "ardens": 5056,
      "ĠLED": 5057,
      "Ġamazing": 5058,
      "Ġreliable": 5059,
      "Ġsimpl": 5060,
      "Ġminerals": 5061,
      "Ġfishing": 5062,
      "Ġreactions": 5063,
      "Ġdangerous": 5064,
      "Ġoutdoor": 5065,
      "hus": 5066,
      "Ġfasc": 5067,
      "ĠDog": 5068,
      "Ġcatch": 5069,
      "Ġrelevant": 5070,
      "Ġillness": 5071,
      "-se": 5072,
      "che": 5073,
      "Ġtall": 5074,
      "ico": 5075,
      "idian": 5076,
      "raw": 5077,
      "Ġchain": 5078,
      "Ġroof": 5079,
      "Ġcovers": 5080,
      "Ġmode": 5081,
      "Ġbreeding": 5082,
      "ĠAdd": 5083,
      "Ġmolecular": 5084,
      "Ġtruly": 5085,
      "eper": 5086,
      "mary": 5087,
      "Ġtum": 5088,
      "Ġcm": 5089,
      "ĠPol": 5090,
      "Ġbegins": 5091,
      "Ġturns": 5092,
      "Ġlabel": 5093,
      "Ġbroken": 5094,
      "Ġiniti": 5095,
      "Ġwarming": 5096,
      "Ġinteraction": 5097,
      "-quality": 5098,
      "Comp": 5099,
      "Ġcul": 5100,
      "Ġfilled": 5101,
      "Ġupper": 5102,
      "ĠBet": 5103,
      "ĠHis": 5104,
      "Ġincred": 5105,
      "Ġphosph": 5106,
      "Ġclassroom": 5107,
      "Ġdeliver": 5108,
      "Ġoxid": 5109,
      "mitted": 5110,
      "Ġangle": 5111,
      "Ġbillion": 5112,
      "Ġdream": 5113,
      "aming": 5114,
      "ĠCare": 5115,
      "Ġneur": 5116,
      "Ġchair": 5117,
      "Ġleaving": 5118,
      "Ġplans": 5119,
      "ĠInc": 5120,
      "Ġexperts": 5121,
      "Ġseeing": 5122,
      "Ġgrad": 5123,
      "Ġshowing": 5124,
      "Ġtexture": 5125,
      "Ġcycles": 5126,
      "Ġoptimal": 5127,
      "Ġbusinesses": 5128,
      "........": 5129,
      "Ġdefinitely": 5130,
      "ras": 5131,
      "Ġcrops": 5132,
      "Ġmac": 5133,
      "erent": 5134,
      "Ġcoat": 5135,
      "ĠJune": 5136,
      "Ġplanting": 5137,
      "ewel": 5138,
      "Ġedge": 5139,
      "ipping": 5140,
      "Ġdescribe": 5141,
      "Expl": 5142,
      "Ġguidelines": 5143,
      "########": 5144,
      "bles": 5145,
      "Ġpests": 5146,
      "idity": 5147,
      "ama": 5148,
      "Ġenable": 5149,
      "ournal": 5150,
      "Ġclust": 5151,
      "Ġspin": 5152,
      "apor": 5153,
      "Ġvarieties": 5154,
      "Ġplayer": 5155,
      "Ġoperating": 5156,
      "Ġchoosing": 5157,
      "Ġmolecule": 5158,
      "Ġpanel": 5159,
      "Ġclosely": 5160,
      "crete": 5161,
      "Ġafford": 5162,
      "\"The": 5163,
      "zym": 5164,
      "Ġcit": 5165,
      "orous": 5166,
      "ceed": 5167,
      "Ġexcept": 5168,
      "ocity": 5169,
      "tered": 5170,
      "Ġlocations": 5171,
      "Ġcreates": 5172,
      "Ġappears": 5173,
      "Ġperiods": 5174,
      "Ġsurvival": 5175,
      "Ġclinical": 5176,
      "Im": 5177,
      "Se": 5178,
      "eries": 5179,
      "iture": 5180,
      "ĠOctober": 5181,
      "ĠInter": 5182,
      "Ġactions": 5183,
      "Ġaccum": 5184,
      "Ġtreated": 5185,
      "Ġconcern": 5186,
      "Ġindependent": 5187,
      "-level": 5188,
      "Ġcalcium": 5189,
      "-M": 5190,
      "56": 5191,
      "Most": 5192,
      "].": 5193,
      "ech": 5194,
      "ky": 5195,
      "Ġcotton": 5196,
      "Ġwoman": 5197,
      "ĠSch": 5198,
      "acific": 5199,
      "ĠMc": 5200,
      "Ġship": 5201,
      "Ġcomposition": 5202,
      "Ġinternal": 5203,
      "Ġacids": 5204,
      "Ġcheese": 5205,
      "cycle": 5206,
      "Ġopin": 5207,
      "Ġmulti": 5208,
      "Ġmajority": 5209,
      "Ġshapes": 5210,
      "Ġdiversity": 5211,
      "/s": 5212,
      "Answer": 5213,
      "Dr": 5214,
      "een": 5215,
      "west": 5216,
      "osen": 5217,
      "ĠOut": 5218,
      "Ġrecovery": 5219,
      "Ġcoffee": 5220,
      "Ġprompt": 5221,
      "Ġversat": 5222,
      "Ġstrugg": 5223,
      "Ar": 5224,
      "New": 5225,
      "ris": 5226,
      "Ġsouth": 5227,
      "Ġbot": 5228,
      "Ġmatch": 5229,
      "Ġhom": 5230,
      "etics": 5231,
      "Ġgear": 5232,
      "ĠImp": 5233,
      "ĠSaf": 5234,
      "Ġadvent": 5235,
      "Ġspots": 5236,
      "Ġcommand": 5237,
      "ĠAsia": 5238,
      "Ġobvious": 5239,
      "exp": 5240,
      "Ġmuscles": 5241,
      "idden": 5242,
      "Ġcooked": 5243,
      "Ġclothes": 5244,
      "-the": 5245,
      "part": 5246,
      "Ġfold": 5247,
      "stone": 5248,
      "ĠHar": 5249,
      "Ġperhaps": 5250,
      "rows": 5251,
      "Ġinsurance": 5252,
      "Ġcareer": 5253,
      "Ġchoices": 5254,
      "Ġarrange": 5255,
      "Ġurban": 5256,
      "Ġratio": 5257,
      "Ġdestroy": 5258,
      "47": 5259,
      "Are": 5260,
      "Over": 5261,
      "cious": 5262,
      "Ġrenew": 5263,
      "iform": 5264,
      "Ġconclusion": 5265,
      "ĠPort": 5266,
      "akist": 5267,
      "riculum": 5268,
      "uracy": 5269,
      "Ġlinked": 5270,
      "Ġpolitical": 5271,
      "xid": 5272,
      "inating": 5273,
      "ishes": 5274,
      "iling": 5275,
      "Ġgro": 5276,
      "ĠMult": 5277,
      "dule": 5278,
      "acters": 5279,
      "oyal": 5280,
      "Ġpassed": 5281,
      "Ġrepresents": 5282,
      "Ġsatell": 5283,
      "ĠInternational": 5284,
      "allel": 5285,
      "zen": 5286,
      "Ġweld": 5287,
      "Ġsufficient": 5288,
      "Ġneck": 5289,
      "Ġwasn": 5290,
      "aked": 5291,
      "rowing": 5292,
      "Ġhelped": 5293,
      "Ġaffects": 5294,
      "Ġirrig": 5295,
      "Ġfamiliar": 5296,
      "Ġmonitoring": 5297,
      "Many": 5298,
      "PA": 5299,
      "Ġfelt": 5300,
      "Ġhomes": 5301,
      "Ġnerve": 5302,
      "ells": 5303,
      "Ġreserv": 5304,
      "Ġspent": 5305,
      "asses": 5306,
      "Ġmineral": 5307,
      "Ġattrib": 5308,
      "Ġlegal": 5309,
      "Ġparticipants": 5310,
      "Ġfailure": 5311,
      "Ġawareness": 5312,
      "Ġemotional": 5313,
      "Ġblow": 5314,
      "Ġheard": 5315,
      "ritis": 5316,
      "Ġhealthcare": 5317,
      "Ġoccup": 5318,
      "ĠAny": 5319,
      "fortun": 5320,
      "Ġpanels": 5321,
      "Ġmixed": 5322,
      "Ġchallenging": 5323,
      "mark": 5324,
      "Ġtick": 5325,
      "orter": 5326,
      "Ġfo": 5327,
      "ĠSub": 5328,
      "Ġmeant": 5329,
      "Ġspaces": 5330,
      "Ġimproving": 5331,
      "paration": 5332,
      "Ġvirus": 5333,
      "Ġslowly": 5334,
      "Ġcontrolled": 5335,
      "ĠAustralia": 5336,
      "ĠJanuary": 5337,
      "Ġvirtual": 5338,
      "85": 5339,
      "kin": 5340,
      "vis": 5341,
      "Ġahead": 5342,
      "asure": 5343,
      "oma": 5344,
      "Ġbear": 5345,
      "Ġstable": 5346,
      "Ġvast": 5347,
      "ĠNovember": 5348,
      "ormal": 5349,
      "ube": 5350,
      "Ġfocused": 5351,
      "ĠEngine": 5352,
      "Ġconcerns": 5353,
      "Once": 5354,
      "SA": 5355,
      "ev": 5356,
      "no": 5357,
      "nel": 5358,
      "oids": 5359,
      "Ġwaters": 5360,
      "Ġtow": 5361,
      "ĠIP": 5362,
      "Ġalign": 5363,
      "Ġwhatever": 5364,
      "anted": 5365,
      "ĠRuss": 5366,
      "Ġcompounds": 5367,
      "Ġsport": 5368,
      "Ġcollege": 5369,
      "Ġproduces": 5370,
      "Ġraise": 5371,
      "Ġacqu": 5372,
      "Ġorganizations": 5373,
      "Ġpolar": 5374,
      "Ġsalmon": 5375,
      "ĠSeptember": 5376,
      "ĠColor": 5377,
      "ognitive": 5378,
      "Ġabsolute": 5379,
      "Ġprepare": 5380,
      "zymes": 5381,
      "71": 5382,
      "Ġhop": 5383,
      "Ġcompl": 5384,
      "ptions": 5385,
      "Ġdownload": 5386,
      "Ġinteractions": 5387,
      "Ġpercentage": 5388,
      "Ġportion": 5389,
      "Ġdecrease": 5390,
      "Ġsharp": 5391,
      "63": 5392,
      "born": 5393,
      "gin": 5394,
      "oke": 5395,
      "Ġsend": 5396,
      "Ġsides": 5397,
      "Ġstations": 5398,
      "Ġcompost": 5399,
      "ossible": 5400,
      "Ġstarts": 5401,
      "Ġconsidering": 5402,
      "Ġvideos": 5403,
      "Ġinjury": 5404,
      "Ġobtained": 5405,
      "iam": 5406,
      "rest": 5407,
      "Ġbath": 5408,
      "ĠDiff": 5409,
      "Ġclosed": 5410,
      "Ġspray": 5411,
      "ario": 5412,
      "Ġformula": 5413,
      "ventional": 5414,
      "Ġowner": 5415,
      "Ġenthus": 5416,
      "Ġreports": 5417,
      "porary": 5418,
      "Ġsalivary": 5419,
      "-B": 5420,
      "Yes": 5421,
      "ta": 5422,
      "Ġfrag": 5423,
      "rab": 5424,
      "oper": 5425,
      "ĠOcean": 5426,
      "arium": 5427,
      "Ġprivate": 5428,
      "ĠInstead": 5429,
      "Ġcollabor": 5430,
      "Although": 5431,
      "Ġbabies": 5432,
      "ĠDesign": 5433,
      "53": 5434,
      "Ġfig": 5435,
      "ĠTer": 5436,
      "ocation": 5437,
      "Ġadvert": 5438,
      "Ġresolution": 5439,
      "Ġaccuracy": 5440,
      "ropical": 5441,
      "bohyd": 5442,
      "Ġclearly": 5443,
      "________": 5444,
      "52": 5445,
      "Ġaer": 5446,
      "roke": 5447,
      "ctic": 5448,
      "that": 5449,
      "ĠFebruary": 5450,
      "earchers": 5451,
      "Ġraised": 5452,
      "Ġsolve": 5453,
      "Ġmonitor": 5454,
      "Ġplane": 5455,
      "Ġfunctional": 5456,
      "Ġfacilit": 5457,
      "hemical": 5458,
      "Ġhoriz": 5459,
      "Ġfundamental": 5460,
      "Ġbreath": 5461,
      "what": 5462,
      "yles": 5463,
      "Ġdirt": 5464,
      "icine": 5465,
      "ĠMex": 5466,
      "ĠBen": 5467,
      "Ġclans": 5468,
      "Ġdecided": 5469,
      "Ġseek": 5470,
      "Ġdepos": 5471,
      "Ġbiology": 5472,
      "-friendly": 5473,
      "Ġterrit": 5474,
      "Pre": 5475,
      "Ġcredit": 5476,
      "Ġstability": 5477,
      "ially": 5478,
      "ĠDet": 5479,
      "Ġperman": 5480,
      "Ġmyster": 5481,
      "Ġengage": 5482,
      "Ġensures": 5483,
      "Ġthoughts": 5484,
      "Ġbelong": 5485,
      "Ġbelieved": 5486,
      "Ġmilitary": 5487,
      "ĠCommun": 5488,
      "Ġarchitect": 5489,
      "Ġrecept": 5490,
      "thritis": 5491,
      "Ġvs": 5492,
      "Ġvul": 5493,
      "Ġcharacters": 5494,
      "Ġflower": 5495,
      "Ġapproaches": 5496,
      "Ġdiscussion": 5497,
      "ĠEnergy": 5498,
      "Ġlifestyle": 5499,
      "Ġconcepts": 5500,
      "Ġincreasingly": 5501,
      "ographic": 5502,
      "54": 5503,
      "TS": 5504,
      "Ġtight": 5505,
      "Ġbones": 5506,
      "Ġinner": 5507,
      "Ġlbs": 5508,
      "elcome": 5509,
      "Ġvent": 5510,
      "ĠPhys": 5511,
      "ĠPacific": 5512,
      "Ġpeak": 5513,
      "Ġtrain": 5514,
      "Ġconsists": 5515,
      "Ġcarried": 5516,
      "Ġsurvey": 5517,
      "Ġsensor": 5518,
      "Ġsuggested": 5519,
      "ĠCollege": 5520,
      "Ġeconomy": 5521,
      "Ġselected": 5522,
      "Ġvacuum": 5523,
      "ĠConsider": 5524,
      "Ġdriver": 5525,
      "ĠCheck": 5526,
      "76": 5527,
      "MS": 5528,
      "ND": 5529,
      "iance": 5530,
      "Ġpipe": 5531,
      "Ġinch": 5532,
      "Ġdivid": 5533,
      "Ġlaser": 5534,
      "Ġseven": 5535,
      "Ġchocolate": 5536,
      "ĠLike": 5537,
      "ĠJuly": 5538,
      "Ġdecades": 5539,
      "Ġconflic": 5540,
      "Ġconfirm": 5541,
      "ĠPlan": 5542,
      "Ġfemales": 5543,
      "ĠGuide": 5544,
      "ĠAugust": 5545,
      "First": 5546,
      "More": 5547,
      "lin": 5548,
      "road": 5549,
      "Ġrein": 5550,
      "ĠSl": 5551,
      "erson": 5552,
      "acc": 5553,
      "ĠPC": 5554,
      "Ġshift": 5555,
      "Ġincl": 5556,
      "Ġemail": 5557,
      "Ġmoved": 5558,
      "Ġdiscussed": 5559,
      "Ġaudience": 5560,
      "going": 5561,
      "ukary": 5562,
      "Ġbehaviour": 5563,
      "CH": 5564,
      "Just": 5565,
      "Not": 5566,
      "rations": 5567,
      "Ġliver": 5568,
      "urg": 5569,
      "iration": 5570,
      "Ġintended": 5571,
      "Ġcloud": 5572,
      "Ġinstit": 5573,
      "Ġhardware": 5574,
      "Ġmechanisms": 5575,
      "Ġsunlight": 5576,
      "rastructure": 5577,
      "Ġvaccine": 5578,
      "Ġvelocity": 5579,
      "37": 5580,
      "ded": 5581,
      "lings": 5582,
      "lock": 5583,
      "Ġdress": 5584,
      "utor": 5585,
      "Ġitem": 5586,
      "ĠSan": 5587,
      "ado": 5588,
      "ĠPat": 5589,
      "Ġnotes": 5590,
      "Ġwash": 5591,
      "Ġdiscovery": 5592,
      "ĠThus": 5593,
      "ĠAmericans": 5594,
      "Ġputting": 5595,
      "Ġcertainly": 5596,
      "-time": 5597,
      "ĠÂ·": 5598,
      "Ġfarmers": 5599,
      "Ġemergency": 5600,
      "Ġpurchase": 5601,
      "',": 5602,
      "Under": 5603,
      "Your": 5604,
      "men": 5605,
      "Ġban": 5606,
      "Ġexternal": 5607,
      "osa": 5608,
      "Ġriver": 5609,
      "Ġatoms": 5610,
      "ivation": 5611,
      "Ġmanner": 5612,
      "Ġpainting": 5613,
      "Ġruns": 5614,
      "Ġbigger": 5615,
      "Ġpreferences": 5616,
      "App": 5617,
      "Ġtro": 5618,
      "Ġwrote": 5619,
      "Ġpul": 5620,
      "Ġmath": 5621,
      "Ġhorses": 5622,
      "urb": 5623,
      "ĠCor": 5624,
      "using": 5625,
      "Ġquar": 5626,
      "Ġinsights": 5627,
      "Ġcompleted": 5628,
      "ĠAnother": 5629,
      "Ġprobability": 5630,
      "Ġhousehold": 5631,
      "Ġrecognize": 5632,
      "Ġcab": 5633,
      "Ġbike": 5634,
      "Ġye": 5635,
      "ĠSociety": 5636,
      "Ġlegs": 5637,
      "rie": 5638,
      "Ġcompr": 5639,
      "Ġcompare": 5640,
      "phone": 5641,
      "obe": 5642,
      "Ġpreserv": 5643,
      "Ġwants": 5644,
      "Ġstudying": 5645,
      "Ġlooked": 5646,
      "comes": 5647,
      "ĠEngland": 5648,
      "Ġcorrectly": 5649,
      "Ġemployees": 5650,
      "Ġcopy": 5651,
      "Ġconducted": 5652,
      "Ġprinciple": 5653,
      "Ġpilot": 5654,
      "41": 5655,
      "Gen": 5656,
      "Sc": 5657,
      "organ": 5658,
      "ĠToday": 5659,
      "ĠCH": 5660,
      "ĠFound": 5661,
      "ĠLa": 5662,
      "Ġclan": 5663,
      "Ġstudied": 5664,
      "Ġnovel": 5665,
      "Ġworkers": 5666,
      "ĠKing": 5667,
      "ĠKnow": 5668,
      "Ġdecor": 5669,
      "Ġextensive": 5670,
      "Ġfoundation": 5671,
      "irds": 5672,
      "Ġphysic": 5673,
      "Ġindicates": 5674,
      "Ġstrategy": 5675,
      "Ġspectrum": 5676,
      "Ġassessment": 5677,
      "but": 5678,
      "cers": 5679,
      "sec": 5680,
      "see": 5681,
      "ĠII": 5682,
      "Ġseg": 5683,
      "ĠLight": 5684,
      "Ġbutton": 5685,
      "pected": 5686,
      "Ġfacts": 5687,
      "bris": 5688,
      "Ġstatement": 5689,
      "Ġrobots": 5690,
      "========": 5691,
      "Ġpowder": 5692,
      "Ġprofessionals": 5693,
      "(x": 5694,
      "-related": 5695,
      "Cont": 5696,
      "Sp": 5697,
      "fe": 5698,
      "hors": 5699,
      "inction": 5700,
      "org": 5701,
      "Ġfirm": 5702,
      "Ġstages": 5703,
      "Ġenab": 5704,
      "ĠHome": 5705,
      "Ġdisorder": 5706,
      "Ġrecorded": 5707,
      "Ġinstalled": 5708,
      "Ġkitchen": 5709,
      "imensional": 5710,
      "ĠTwo": 5711,
      "ĠService": 5712,
      "According": 5713,
      "Ġpages": 5714,
      "Ġdram": 5715,
      "rade": 5716,
      "ĠFrench": 5717,
      "play": 5718,
      "ĠLife": 5719,
      "ansion": 5720,
      "ibilities": 5721,
      "Ġjud": 5722,
      "Ġsupplement": 5723,
      "Ġmini": 5724,
      "ĠProt": 5725,
      "Ġbiod": 5726,
      "Ġentirely": 5727,
      "Ġcapture": 5728,
      "vantages": 5729,
      "Ġpregnancy": 5730,
      "Ġinflammation": 5731,
      "97": 5732,
      "rical": 5733,
      "rite": 5734,
      "eria": 5735,
      "Ġcities": 5736,
      "Ġsudd": 5737,
      "ĠFe": 5738,
      "ĠGree": 5739,
      "Ġdisk": 5740,
      "Ġdisorders": 5741,
      "Ġoffered": 5742,
      "Ġwouldn": 5743,
      "Ġchest": 5744,
      "Ġcream": 5745,
      "Ġconfidence": 5746,
      "Ġbelief": 5747,
      "ĠSea": 5748,
      "Ġdoub": 5749,
      "Ġlandscape": 5750,
      "ĠLearning": 5751,
      "Ġsudden": 5752,
      ".D": 5753,
      "AI": 5754,
      "ivery": 5755,
      "pret": 5756,
      "Ġfather": 5757,
      "ara": 5758,
      "lements": 5759,
      "ample": 5760,
      "Ġdebris": 5761,
      "ĠHave": 5762,
      "ĠEas": 5763,
      "Ġcarbohyd": 5764,
      "Ġagre": 5765,
      "Ġminute": 5766,
      "Ġears": 5767,
      "Ġextended": 5768,
      "ffective": 5769,
      "Ġconnections": 5770,
      "Ġturb": 5771,
      "Ġmeasurements": 5772,
      "ĠAtl": 5773,
      "Ġrecords": 5774,
      "Ġquantum": 5775,
      "Ġfurnace": 5776,
      "ĠGoogle": 5777,
      "Ġthermal": 5778,
      "Ġrapidly": 5779,
      "Ġsodium": 5780,
      "Ġnitrogen": 5781,
      "ĠCouncil": 5782,
      "-of": 5783,
      "ker": 5784,
      "Ġpupp": 5785,
      "ctive": 5786,
      "Ġweigh": 5787,
      "ushing": 5788,
      "Ġenzymes": 5789,
      "Ġwashing": 5790,
      "Ġflood": 5791,
      "Ġequival": 5792,
      "Ġpossibly": 5793,
      "hips": 5794,
      "Ġdamaged": 5795,
      "Ġopening": 5796,
      "Ġopposite": 5797,
      "Ġstronger": 5798,
      "Ġinstallation": 5799,
      "Ġevolved": 5800,
      "ĠObsidian": 5801,
      "fortunately": 5802,
      "EL": 5803,
      "SI": 5804,
      "Use": 5805,
      "Ġ>": 5806,
      "Ġions": 5807,
      "Ġsou": 5808,
      "Ġpig": 5809,
      "rot": 5810,
      "amic": 5811,
      "ĠPower": 5812,
      "ĠDav": 5813,
      "Ġintest": 5814,
      "Ġjack": 5815,
      "ĠStep": 5816,
      "agnetic": 5817,
      "Ġmarketing": 5818,
      "Ġpictures": 5819,
      "Ġbudget": 5820,
      "Ġcloser": 5821,
      "Ġcorresponding": 5822,
      "Ġtoxic": 5823,
      "Ġprices": 5824,
      "):": 5825,
      "Or": 5826,
      "Ġcrop": 5827,
      "othe": 5828,
      "pert": 5829,
      "ĠNav": 5830,
      "Ġscrew": 5831,
      "Ġcheap": 5832,
      "Ġsecret": 5833,
      "ioxid": 5834,
      "Ġtested": 5835,
      "Ġdelicious": 5836,
      "ounter": 5837,
      "ĠWorksheet": 5838,
      "ĠGerman": 5839,
      "Ġvulner": 5840,
      "49": 5841,
      "88": 5842,
      "field": 5843,
      "Ġmild": 5844,
      "Ġchart": 5845,
      "Ġresil": 5846,
      "ĠWhite": 5847,
      "Ġguess": 5848,
      "Ġcomputers": 5849,
      "Ġreplaced": 5850,
      "Ġbuying": 5851,
      "Ġcompetition": 5852,
      "Ġprocedures": 5853,
      "Â°C": 5854,
      "Ġdynamic": 5855,
      "-th": 5856,
      "Let": 5857,
      "how": 5858,
      "iest": 5859,
      "Ġsed": 5860,
      "itory": 5861,
      "Ġflying": 5862,
      "asters": 5863,
      "Ġgave": 5864,
      "Ġconcrete": 5865,
      "ĠMus": 5866,
      "ĠMark": 5867,
      "ogram": 5868,
      "acts": 5869,
      "ĠRet": 5870,
      "ĠRNA": 5871,
      "Ġrelation": 5872,
      "Ġformat": 5873,
      "Ġrefrig": 5874,
      "Ġsheet": 5875,
      "Ġserves": 5876,
      "Ġconsume": 5877,
      "ĠPhil": 5878,
      "Ġelectrons": 5879,
      "Ġremoving": 5880,
      "Ġultimately": 5881,
      "Ġtrigger": 5882,
      "ĠHistory": 5883,
      "Ġsauce": 5884,
      "sm": 5885,
      "son": 5886,
      "requ": 5887,
      "Ġcards": 5888,
      "Ġble": 5889,
      "Ġluck": 5890,
      "Ġnorthern": 5891,
      "ustain": 5892,
      "Ġjewel": 5893,
      "Ġtrim": 5894,
      "Ġagree": 5895,
      "Ġattached": 5896,
      "Ġworldwide": 5897,
      "Ġexplos": 5898,
      "Ġplayed": 5899,
      "Ġcreativity": 5900,
      "Ġsecondary": 5901,
      "Ġnormally": 5902,
      "ĠCommon": 5903,
      "Ġinnovative": 5904,
      "Conclusion": 5905,
      "dy": 5906,
      "Ġmal": 5907,
      "edia": 5908,
      "Ġmanual": 5909,
      "aped": 5910,
      "Ġdespite": 5911,
      "Ġvariables": 5912,
      "Ġeveryday": 5913,
      "Ġanswers": 5914,
      "Ġinfluen": 5915,
      "Ġexciting": 5916,
      "Ġhabitats": 5917,
      "Ġmedications": 5918,
      "Ġtrip": 5919,
      "Ġdiameter": 5920,
      "Ġecosystems": 5921,
      ")(": 5922,
      "CO": 5923,
      "From": 5924,
      "iated": 5925,
      "Ã¼": 5926,
      "lets": 5927,
      "Ġnar": 5928,
      "Ġgather": 5929,
      "Ġstores": 5930,
      "aint": 5931,
      "Ġchapter": 5932,
      "Ġadminist": 5933,
      "eren": 5934,
      "ĠVir": 5935,
      "Ġinfrastructure": 5936,
      "Ġdrinking": 5937,
      "Ġsales": 5938,
      "Ġmillions": 5939,
      "Ġprofessor": 5940,
      "Ġsustainability": 5941,
      "ĠStudents": 5942,
      "Ġdedicated": 5943,
      "Ġneurons": 5944,
      "sor": 5945,
      "Ġretain": 5946,
      "Ġformer": 5947,
      "Ġsusp": 5948,
      "Ġchlor": 5949,
      "Ġnoted": 5950,
      "ags": 5951,
      "Ġfewer": 5952,
      "Ġoverl": 5953,
      "Ġsupported": 5954,
      "Ġseparation": 5955,
      "Ġemotions": 5956,
      "charge": 5957,
      "Ġcomparison": 5958,
      "lines": 5959,
      "word": 5960,
      "zed": 5961,
      "ĪĴ": 5962,
      "Ġpin": 5963,
      "Ġpix": 5964,
      "Ġfinger": 5965,
      "cel": 5966,
      "amins": 5967,
      "oding": 5968,
      "aboration": 5969,
      "uments": 5970,
      "ĠPlease": 5971,
      "Ġchief": 5972,
      "appe": 5973,
      "aker": 5974,
      "Ġrights": 5975,
      "Ġtopics": 5976,
      "Ġparallel": 5977,
      "Ġstanding": 5978,
      "Ġseconds": 5979,
      "overn": 5980,
      "Ġletter": 5981,
      "Ġcampa": 5982,
      "Ġacademic": 5983,
      "Ġirrigation": 5984,
      "-n": 5985,
      "DF": 5986,
      "den": 5987,
      "mers": 5988,
      "Ġalt": 5989,
      "abil": 5990,
      "ĠBas": 5991,
      "Ġchrom": 5992,
      "ĠDel": 5993,
      "ĠLake": 5994,
      "Ġpreparation": 5995,
      "Ġrow": 5996,
      "Ġunw": 5997,
      "Ġunless": 5998,
      "ifications": 5999,
      "Ġcarrier": 6000,
      "Ġvariation": 6001,
      "Ġvariable": 6002,
      "Ġcareful": 6003,
      "ĠThrough": 6004,
      "Ġturning": 6005,
      "Ġsuccessfully": 6006,
      "Ġbalanced": 6007,
      "cest": 6008,
      "gl": 6009,
      "sis": 6010,
      "orrect": 6011,
      "ĠAP": 6012,
      "ĠCam": 6013,
      "ĠFree": 6014,
      "outs": 6015,
      "Ġtrained": 6016,
      "Ġunderlying": 6017,
      "Ġmembr": 6018,
      "Ġretur": 6019,
      "Ġrobot": 6020,
      "Ġmeeting": 6021,
      "-A": 6022,
      "82": 6023,
      "Pr": 6024,
      "Ġaest": 6025,
      "inity": 6026,
      "athy": 6027,
      "Ġcognitive": 6028,
      "Ġwish": 6029,
      "itors": 6030,
      "Ġmales": 6031,
      "stood": 6032,
      "Ġproport": 6033,
      "Ġhem": 6034,
      "ĠMain": 6035,
      "Ġintake": 6036,
      "Ġadequ": 6037,
      "Ġouter": 6038,
      "Ġtwice": 6039,
      "Ġcontaining": 6040,
      "Ġsignificance": 6041,
      "Ġsteam": 6042,
      "Ġintroduction": 6043,
      "Ġassistant": 6044,
      "Ġhistorical": 6045,
      "Ġdescription": 6046,
      "Me": 6047,
      "OC": 6048,
      "gans": 6049,
      "ynt": 6050,
      "asp": 6051,
      "igen": 6052,
      "Ġpros": 6053,
      "ifies": 6054,
      "heric": 6055,
      "Ġdeeper": 6056,
      "ĠFurthermore": 6057,
      "ĠNet": 6058,
      "Ġexperiments": 6059,
      "Ġbasically": 6060,
      "brid": 6061,
      "Ġgreenhouse": 6062,
      "Ġmoon": 6063,
      "Ġvegetable": 6064,
      "Ġcopper": 6065,
      "Ġreplacement": 6066,
      "ĠTHE": 6067,
      "ĠTechnology": 6068,
      "Ġschedule": 6069,
      "``": 6070,
      "Ġtor": 6071,
      "Ġpark": 6072,
      "Ġpush": 6073,
      "Ġmission": 6074,
      "arge": 6075,
      "Ġtoys": 6076,
      "Ġnerv": 6077,
      "ceans": 6078,
      "urch": 6079,
      "osomes": 6080,
      "ppers": 6081,
      "ocking": 6082,
      "orto": 6083,
      "Ġdishes": 6084,
      "Ġunc": 6085,
      "Ġunivers": 6086,
      "akers": 6087,
      "Ġcolle": 6088,
      "ĠâĢ¢": 6089,
      "Ġtransmission": 6090,
      "Ġpossess": 6091,
      "Ġsupporting": 6092,
      "Ġhyp": 6093,
      "Ġprotected": 6094,
      "Ġpreventing": 6095,
      "Ġantioxid": 6096,
      "Ġbiggest": 6097,
      "Ġfinally": 6098,
      "Ġhappening": 6099,
      "Ġholds": 6100,
      "Which": 6101,
      "Ġmathemat": 6102,
      "Ġdiagnosis": 6103,
      "Ġexcessive": 6104,
      "Ġhospital": 6105,
      "IV": 6106,
      "SS": 6107,
      "ini": 6108,
      "Ġsong": 6109,
      "itches": 6110,
      "anish": 6111,
      "Ġinject": 6112,
      "Ġnose": 6113,
      "Ġstain": 6114,
      "Ġchol": 6115,
      "Ġworse": 6116,
      "Ġimpossible": 6117,
      "Ġages": 6118,
      "Ġcharging": 6119,
      "ework": 6120,
      "Ġinformed": 6121,
      "-being": 6122,
      "Ġlesson": 6123,
      "Ġdelivery": 6124,
      "Ġdetermining": 6125,
      "Ġmassive": 6126,
      "Ġdefinition": 6127,
      "Ġinjuries": 6128,
      "uminum": 6129,
      "ĠDevelopment": 6130,
      "Every": 6131,
      "rors": 6132,
      "Ġfur": 6133,
      "alg": 6134,
      "Ġmir": 6135,
      "Ġord": 6136,
      "Ġoral": 6137,
      "ĠMat": 6138,
      "ĠPakist": 6139,
      "Ġplug": 6140,
      "duction": 6141,
      "ĠNC": 6142,
      "ĠOpen": 6143,
      "Ġclock": 6144,
      "Ġunlike": 6145,
      "Ġgenerated": 6146,
      "Ġcommunicate": 6147,
      "Ġworkshe": 6148,
      "Ġembod": 6149,
      "Ġpropag": 6150,
      "Ġfurniture": 6151,
      "Ġeliminate": 6152,
      "ĠWindows": 6153,
      "-E": 6154,
      "58": 6155,
      "]ĊĊ": 6156,
      "|Ċ": 6157,
      "esity": 6158,
      "orge": 6159,
      "Ġmer": 6160,
      "arant": 6161,
      "Ġloose": 6162,
      "ĠMich": 6163,
      "ocr": 6164,
      "alled": 6165,
      "ĠRober": 6166,
      "ella": 6167,
      "rue": 6168,
      "Ġmeals": 6169,
      "Ġdiagram": 6170,
      "Ġregulation": 6171,
      "Ġparticle": 6172,
      "Ġfamous": 6173,
      "Ġdigestion": 6174,
      "Ġconstantly": 6175,
      "Ġflexibility": 6176,
      "Ġparameters": 6177,
      "Ġdatabase": 6178,
      "Cons": 6179,
      "EE": 6180,
      "Pe": 6181,
      "bility": 6182,
      "mic": 6183,
      "uits": 6184,
      "reate": 6185,
      "Ġson": 6186,
      "Ġcos": 6187,
      "Ġpuzz": 6188,
      "ĠTake": 6189,
      "ĠWashing": 6190,
      "ĠMuseum": 6191,
      "Ġwearing": 6192,
      "anged": 6193,
      "Ġadds": 6194,
      "Ġdistingu": 6195,
      "Ġbreaks": 6196,
      "arsh": 6197,
      "Ġsubstance": 6198,
      "AB": 6199,
      "DC": 6200,
      "ugg": 6201,
      "vin": 6202,
      "ora": 6203,
      "Ġfav": 6204,
      "Ġtown": 6205,
      "Ġrely": 6206,
      "ĠTV": 6207,
      "irty": 6208,
      "ĠCy": 6209,
      "Ġviol": 6210,
      "ĠDar": 6211,
      "perm": 6212,
      "ĠGold": 6213,
      "Ġoutcomes": 6214,
      "ĠStart": 6215,
      "Ġcarp": 6216,
      "Ġparas": 6217,
      "Ġprogramming": 6218,
      "âĢ¦ĊĊ": 6219,
      "Ġsubstant": 6220,
      "Ġsubjects": 6221,
      "Ġearthqu": 6222,
      "ĠControl": 6223,
      "Before": 6224,
      "ĠClean": 6225,
      "73": 6226,
      "74": 6227,
      "aj": 6228,
      "top": 6229,
      "tical": 6230,
      "ĠÃ": 6231,
      "Ġsouthern": 6232,
      "Ġcivil": 6233,
      "Ġwalking": 6234,
      "rays": 6235,
      "ĠPost": 6236,
      "ĠBre": 6237,
      "Ġseam": 6238,
      "Ġcontamin": 6239,
      "ieving": 6240,
      "Ġcoal": 6241,
      "Ġtransp": 6242,
      "Ġmedication": 6243,
      "Ġproductivity": 6244,
      "Ġhypot": 6245,
      "Ġpurs": 6246,
      "Ġoperate": 6247,
      "ĠExp": 6248,
      "Ġfinish": 6249,
      "Ġfixed": 6250,
      "ĠFrance": 6251,
      "Ġenthusi": 6252,
      "62": 6253,
      "De": 6254,
      "ius": 6255,
      "Ġsight": 6256,
      "atur": 6257,
      "Ġcrow": 6258,
      "Ġfer": 6259,
      "alks": 6260,
      "Ġtoler": 6261,
      "Ġstands": 6262,
      "Ġride": 6263,
      "Ġunknown": 6264,
      "Ġseeking": 6265,
      "inese": 6266,
      "Ġphysics": 6267,
      "Ġgardening": 6268,
      "ĠMedicine": 6269,
      "Ġdrivers": 6270,
      "Ġfriendly": 6271,
      "ĠRemember": 6272,
      ".âĢĿ": 6273,
      "ait": 6274,
      "cher": 6275,
      "from": 6276,
      "gy": 6277,
      "atin": 6278,
      "atus": 6279,
      "icted": 6280,
      "sten": 6281,
      "Ġnurs": 6282,
      "Ġproof": 6283,
      "estone": 6284,
      "Ġrid": 6285,
      "Ġclar": 6286,
      "Ġunus": 6287,
      "Ġrecipe": 6288,
      "Ġinvention": 6289,
      "Ġcharged": 6290,
      "Ġinvestment": 6291,
      "Ġbags": 6292,
      "PU": 6293,
      "uel": 6294,
      "you": 6295,
      "ndrome": 6296,
      "isation": 6297,
      "Ġbrief": 6298,
      "ota": 6299,
      "ĠSol": 6300,
      "Ġrig": 6301,
      "ĠDirect": 6302,
      "Ġthanks": 6303,
      "ĠYear": 6304,
      "Ġarms": 6305,
      "ĠJournal": 6306,
      "Ġcorn": 6307,
      "Ġends": 6308,
      "ĠProject": 6309,
      "Ġengines": 6310,
      "Ġembra": 6311,
      "Ġexplained": 6312,
      "Ġcontinuous": 6313,
      "Ġaims": 6314,
      "Ġalgae": 6315,
      "Ġlenses": 6316,
      "Ġtitle": 6317,
      "ĠAssociation": 6318,
      "Ġfascinating": 6319,
      "Ġbaking": 6320,
      "idents": 6321,
      "ĠWork": 6322,
      "Ġhaven": 6323,
      "ĠRef": 6324,
      "aste": 6325,
      "Ġscene": 6326,
      "Ġrod": 6327,
      "Ġaccident": 6328,
      "rence": 6329,
      "Ġattend": 6330,
      "Ġattacks": 6331,
      "Ġtechnical": 6332,
      "Ġgoods": 6333,
      "ĠScient": 6334,
      "Ġconsumer": 6335,
      "Ġstrand": 6336,
      "Ġperfectly": 6337,
      "Ġremaining": 6338,
      "Ġlaboratory": 6339,
      "roscopy": 6340,
      "-O": 6341,
      ".C": 6342,
      "67": 6343,
      "ii": 6344,
      "arn": 6345,
      "Ġbeans": 6346,
      "ola": 6347,
      "ĠSn": 6348,
      "ĠSometimes": 6349,
      "ĠPR": 6350,
      "Ġenables": 6351,
      "Ġshorter": 6352,
      "ĠHol": 6353,
      "ĠDist": 6354,
      "ĠRel": 6355,
      "ĠGarden": 6356,
      "Ġspr": 6357,
      "Ġflo": 6358,
      "Ġperspective": 6359,
      "airy": 6360,
      "Ġmeters": 6361,
      "ĠBefore": 6362,
      "Ġlisten": 6363,
      "Ġsafely": 6364,
      "Ġobservations": 6365,
      "Ġproposed": 6366,
      "Ġvitamins": 6367,
      "Ġforests": 6368,
      "Ġsatisf": 6369,
      "Ġequivalent": 6370,
      "Ġcable": 6371,
      "Ġpest": 6372,
      "ĠTime": 6373,
      "imental": 6374,
      "Ġforget": 6375,
      "ĠPack": 6376,
      "Ġneu": 6377,
      "Ġchosen": 6378,
      "ĠNa": 6379,
      "Ġanywhere": 6380,
      "Ġdecide": 6381,
      "Ġinstrum": 6382,
      "Ġeffectiveness": 6383,
      "Ġbrings": 6384,
      "Ġfeelings": 6385,
      "Ġcapabilities": 6386,
      "Ġfacilities": 6387,
      "ontal": 6388,
      "Ġsubstances": 6389,
      "Ġmanufacturer": 6390,
      "Ġmissing": 6391,
      "VID": 6392,
      "ikes": 6393,
      "Ġtropical": 6394,
      "Ġpip": 6395,
      "ĠTur": 6396,
      "iratory": 6397,
      "antly": 6398,
      "ĠPa": 6399,
      "unning": 6400,
      "ĠFlor": 6401,
      "ĠRob": 6402,
      "Ġdecline": 6403,
      "ĠArch": 6404,
      "-pro": 6405,
      "Ġbacterial": 6406,
      "Ġlatt": 6407,
      "Ġneutral": 6408,
      "Ġrenewable": 6409,
      "-R": 6410,
      "Ġlock": 6411,
      "Ġgut": 6412,
      "ulin": 6413,
      "Ġancest": 6414,
      "Ġconventional": 6415,
      "ĠPage": 6416,
      "ĠBay": 6417,
      "Ġran": 6418,
      "Ġplot": 6419,
      "Ġusage": 6420,
      "Ġabuse": 6421,
      "Ġclients": 6422,
      "Ġuniform": 6423,
      "Ġcoordin": 6424,
      "phones": 6425,
      "Ġexploring": 6426,
      "Ġentry": 6427,
      "aws": 6428,
      "Ġpolic": 6429,
      "Ġindustries": 6430,
      "Ġmeasurement": 6431,
      "Ġmoves": 6432,
      "ĠMedical": 6433,
      "Ġloop": 6434,
      "Ġcalculate": 6435,
      "Ġbehaviors": 6436,
      "Ġexpertise": 6437,
      "Ġhazard": 6438,
      "-day": 6439,
      "vol": 6440,
      "Ġtables": 6441,
      "Ġpapers": 6442,
      "ican": 6443,
      "Ġlies": 6444,
      "Ġnation": 6445,
      "urse": 6446,
      "ĠMount": 6447,
      "Ġknowing": 6448,
      "Ġexplains": 6449,
      "Ġoccurred": 6450,
      "Ġlisted": 6451,
      "Ġimagine": 6452,
      "ĠHuman": 6453,
      "ford": 6454,
      "Ġ...ĊĊ": 6455,
      "Ġbonds": 6456,
      "Ġfa": 6457,
      "edge": 6458,
      "ionally": 6459,
      "enth": 6460,
      "ett": 6461,
      "ĠMr": 6462,
      "ources": 6463,
      "Ġkne": 6464,
      "Ġcolours": 6465,
      "Ġknows": 6466,
      "oves": 6467,
      "Ġcommunic": 6468,
      "Ġsitting": 6469,
      "Ġpassion": 6470,
      "Ġnetworks": 6471,
      "Ġcollected": 6472,
      "Ġpromoting": 6473,
      "68": 6474,
      "fol": 6475,
      "iability": 6476,
      "uis": 6477,
      "Ġton": 6478,
      "inent": 6479,
      "Ġtheore": 6480,
      "Ġtherap": 6481,
      "Ġske": 6482,
      "Ġlik": 6483,
      "Ġprol": 6484,
      "Ġseat": 6485,
      "Ġchances": 6486,
      "riers": 6487,
      "Ġtrad": 6488,
      "Ġexplanation": 6489,
      "Ġvalid": 6490,
      "Ġauthors": 6491,
      "Ġharder": 6492,
      "cope": 6493,
      "Ġsession": 6494,
      "Ġsupplies": 6495,
      "-on": 6496,
      "89": 6497,
      "94": 6498,
      "ael": 6499,
      "enior": 6500,
      "Ġpor": 6501,
      "Ġbattle": 6502,
      "alian": 6503,
      "Ġmes": 6504,
      "roid": 6505,
      "Ġloud": 6506,
      "Ġreward": 6507,
      "ĠIN": 6508,
      "ĠMot": 6509,
      "Ġweap": 6510,
      "ĠEss": 6511,
      "Ġsmell": 6512,
      "Ġaccom": 6513,
      "Ġwhereas": 6514,
      "Ġminim": 6515,
      "Ġminimize": 6516,
      "Ġprofile": 6517,
      "Ġoils": 6518,
      "Ġexistence": 6519,
      "Ġexercises": 6520,
      "Ġhabits": 6521,
      "Ġintegrated": 6522,
      "Ġidentifying": 6523,
      "Ġlaun": 6524,
      "ĠAcad": 6525,
      "Ġtrends": 6526,
      "Ġexhibit": 6527,
      "Ġhundreds": 6528,
      "-P": 6529,
      "66": 6530,
      "Rec": 6531,
      "comp": 6532,
      "down": 6533,
      "iotic": 6534,
      "Ġwidth": 6535,
      "itage": 6536,
      "Ġpup": 6537,
      "Ġlived": 6538,
      "uter": 6539,
      "Ġsharing": 6540,
      "ĠNatural": 6541,
      "Ġprev": 6542,
      "Ġscan": 6543,
      "Ġneedle": 6544,
      "Ġregist": 6545,
      "Ġbuildings": 6546,
      "Ġconsumers": 6547,
      "Ġdifficulty": 6548,
      "Ġagricultural": 6549,
      "Ġnuclear": 6550,
      "Ġconsequences": 6551,
      "ĠProfessor": 6552,
      "ĠFoundation": 6553,
      "Ġlattice": 6554,
      "86": 6555,
      "Ġ;": 6556,
      "hent": 6557,
      "rey": 6558,
      "ingly": 6559,
      "Ġreached": 6560,
      "Ġgardens": 6561,
      "Ġconvert": 6562,
      "emperature": 6563,
      "ĠHaw": 6564,
      "ĠGal": 6565,
      "Ġspeaking": 6566,
      "Ġrace": 6567,
      "Ġminor": 6568,
      "Ġphil": 6569,
      "ĠConst": 6570,
      "Ġspecialized": 6571,
      "Ġteams": 6572,
      "Ġcircum": 6573,
      "Ġresponses": 6574,
      "Ġselecting": 6575,
      "ĠCompany": 6576,
      "Ġremoval": 6577,
      "Ġpreferred": 6578,
      "Ġflexible": 6579,
      "Ġstretch": 6580,
      "\"ĊĊ": 6581,
      "91": 6582,
      "ham": 6583,
      "Ġsan": 6584,
      "Ġhur": 6585,
      "ĠAT": 6586,
      "earing": 6587,
      "hyl": 6588,
      "Ġunderstood": 6589,
      "Ġequation": 6590,
      "Ġdefic": 6591,
      "Ġserved": 6592,
      "Ġbrush": 6593,
      "Ġvolunt": 6594,
      "Ġfocuses": 6595,
      "Ġinteractive": 6596,
      "ometry": 6597,
      "Ġderived": 6598,
      "Ġbranches": 6599,
      "Ġchannel": 6600,
      "Ġhousing": 6601,
      "Ġcandid": 6602,
      "ĠChildren": 6603,
      "\"We": 6604,
      ");": 6605,
      "-ch": 6606,
      "Che": 6607,
      "Reg": 6608,
      "wo": 6609,
      "Ġbio": 6610,
      "Ġlake": 6611,
      "Ġbears": 6612,
      "irus": 6613,
      "ĠSocial": 6614,
      "adian": 6615,
      "ĠWild": 6616,
      "Ġvill": 6617,
      "ideo": 6618,
      "asting": 6619,
      "luding": 6620,
      "Ġvariations": 6621,
      "Ġfollows": 6622,
      "Ġobst": 6623,
      "Ġengaging": 6624,
      "Ġsupports": 6625,
      "azon": 6626,
      "Ġpredators": 6627,
      "Ġresponsibility": 6628,
      "ĠInternet": 6629,
      "Ġrevolution": 6630,
      "Ġrefriger": 6631,
      "77": 6632,
      "Le": 6633,
      "RI": 6634,
      "RP": 6635,
      "Rem": 6636,
      "SE": 6637,
      "eras": 6638,
      "Ġlinks": 6639,
      "otal": 6640,
      "Ġyouth": 6641,
      "Ġstir": 6642,
      "eles": 6643,
      "ifts": 6644,
      "ĠExt": 6645,
      "ĠGr": 6646,
      "Ġperce": 6647,
      "berg": 6648,
      "atively": 6649,
      "forest": 6650,
      "Ġcomplement": 6651,
      "Ġkeeps": 6652,
      "ĠScot": 6653,
      "box": 6654,
      "Ġwindows": 6655,
      "Ġglasses": 6656,
      "Ġabsorb": 6657,
      "Ġtransportation": 6658,
      "Ġmammals": 6659,
      "uilding": 6660,
      "ĠCounty": 6661,
      "Ġopinion": 6662,
      "Ġaccompl": 6663,
      "87": 6664,
      "fly": 6665,
      "oir": 6666,
      "Ġcere": 6667,
      "Ġcock": 6668,
      "Ġmature": 6669,
      "Ġdoll": 6670,
      "Ġnarr": 6671,
      "eless": 6672,
      "osal": 6673,
      "Ġsector": 6674,
      "Ġnoticed": 6675,
      "Ġintensity": 6676,
      "Ġcontem": 6677,
      "ĠOh": 6678,
      "ĠInf": 6679,
      "Ġinterpret": 6680,
      "Ġinstruction": 6681,
      "Ġminimal": 6682,
      "Ġexpansion": 6683,
      "Ġsubsequ": 6684,
      "Ġcattle": 6685,
      "Ġgreatly": 6686,
      "Ġcapital": 6687,
      "Ġcultures": 6688,
      "Ġimprovement": 6689,
      "Ġcollaboration": 6690,
      "Ġtube": 6691,
      "Ġmagic": 6692,
      "Ġinterface": 6693,
      "-shaped": 6694,
      "-D": 6695,
      "iner": 6696,
      "itivity": 6697,
      "Ġease": 6698,
      "Ġorange": 6699,
      "Ġorbit": 6700,
      "Ġsuit": 6701,
      "ĠBel": 6702,
      "Ġextent": 6703,
      "Ġcalls": 6704,
      "Ġcorner": 6705,
      "ommon": 6706,
      "Ġrestrict": 6707,
      "ounced": 6708,
      "Ġsensors": 6709,
      "Ġcrack": 6710,
      "ĠLearn": 6711,
      "ĠEnvironmental": 6712,
      "Ġcomplicated": 6713,
      "81": 6714,
      "AA": 6715,
      "Where": 6716,
      "Ġholid": 6717,
      "Ġeukary": 6718,
      "Ġlym": 6719,
      "Ġlibrary": 6720,
      "omin": 6721,
      "Ġbee": 6722,
      "ĠAM": 6723,
      "Ġring": 6724,
      "Ġplates": 6725,
      "Ġfeels": 6726,
      "Ġgrains": 6727,
      "Ġgenerations": 6728,
      "ĠGeneral": 6729,
      "Ġefficiently": 6730,
      "Ġnutrient": 6731,
      "Ġcontinued": 6732,
      "scill": 6733,
      "haust": 6734,
      "Ġchannels": 6735,
      "Am": 6736,
      "CC": 6737,
      "OH": 6738,
      "well": 6739,
      "Ġbees": 6740,
      "Ġstroke": 6741,
      "ĠPublic": 6742,
      "Ġimplic": 6743,
      "âĢĭ": 6744,
      "ĠOF": 6745,
      "Ġrocks": 6746,
      "Ġparty": 6747,
      "Ġrecipes": 6748,
      "Ġinterior": 6749,
      "Ġinfant": 6750,
      "ĠProv": 6751,
      "ĠConf": 6752,
      "Ġvolcan": 6753,
      "Ġlinear": 6754,
      "Ġsmoking": 6755,
      "aughter": 6756,
      "Ġguidance": 6757,
      "Ġknife": 6758,
      "ĠGermany": 6759,
      "Ġtrouble": 6760,
      "Ġvertical": 6761,
      "Ġwelding": 6762,
      "Ġpermanent": 6763,
      "69": 6764,
      "fall": 6765,
      "mia": 6766,
      "oop": 6767,
      "Ġcaught": 6768,
      "esides": 6769,
      "Ġinhib": 6770,
      "icing": 6771,
      "Ġexchange": 6772,
      "Ġcompact": 6773,
      "Ġcompound": 6774,
      "Ġpeace": 6775,
      "Ġappoint": 6776,
      "ĠStr": 6777,
      "Ġindoor": 6778,
      "Ġhumidity": 6779,
      "Ġartist": 6780,
      "ĠCentral": 6781,
      "Ġsilver": 6782,
      "Ġparticipate": 6783,
      "Ġburning": 6784,
      "Ġcoastal": 6785,
      "Ġloved": 6786,
      "ĠFlorida": 6787,
      ",âĢĿ": 6788,
      "]Ċ": 6789,
      "tles": 6790,
      "zer": 6791,
      "Ġtap": 6792,
      "Ġsick": 6793,
      "ascular": 6794,
      "ĠCost": 6795,
      "Ġhealing": 6796,
      "ĠMax": 6797,
      "ĠFind": 6798,
      "ĠNote": 6799,
      "enses": 6800,
      "ondon": 6801,
      "Ġdioxide": 6802,
      "ĠKore": 6803,
      "Ġcouldn": 6804,
      "ĠWeb": 6805,
      "Ġdefine": 6806,
      "ĠPlant": 6807,
      "Ġsearching": 6808,
      "Ġalgorithms": 6809,
      "Ġtip": 6810,
      "onge": 6811,
      "itter": 6812,
      "Ġdies": 6813,
      "Ġhoney": 6814,
      "stream": 6815,
      "eli": 6816,
      "ĠPet": 6817,
      "Ġshut": 6818,
      "ĠHouse": 6819,
      "ĠFore": 6820,
      "ĠForm": 6821,
      "Ġscore": 6822,
      "Ġpartner": 6823,
      "Ġblo": 6824,
      "ĠVe": 6825,
      "Ġregulations": 6826,
      "Ġindex": 6827,
      "Ġattach": 6828,
      "Ġsky": 6829,
      "Ġgrand": 6830,
      "Ġlessons": 6831,
      "ĠExper": 6832,
      "Ġmovements": 6833,
      "Ġessentially": 6834,
      "Ġchemistry": 6835,
      "Ġfeedback": 6836,
      "Ġholding": 6837,
      "Ġsmoke": 6838,
      "Ġevolutionary": 6839,
      "Ġautomatically": 6840,
      "Ġexpanded": 6841,
      "Ġbowl": 6842,
      "Ġdigestive": 6843,
      "Ġculinary": 6844,
      ".m": 6845,
      "Te": 6846,
      "hav": 6847,
      "iotics": 6848,
      "Ġoceans": 6849,
      "Ġyog": 6850,
      "Ġbeet": 6851,
      "rape": 6852,
      "Ġstyles": 6853,
      "Ġrib": 6854,
      "ĠDem": 6855,
      "ĠData": 6856,
      "Ġmapping": 6857,
      "Ġimpl": 6858,
      "ĠOff": 6859,
      "Ġmanip": 6860,
      "Ġtranscription": 6861,
      "Ġbreaking": 6862,
      "Ġcontrols": 6863,
      "Ġprotective": 6864,
      "Ġeleg": 6865,
      "cover": 6866,
      "Ġappeal": 6867,
      "ĠIsland": 6868,
      "ungsten": 6869,
      "Ġcompetitive": 6870,
      "Ġdomestic": 6871,
      "Ġtissues": 6872,
      "Ġbreathing": 6873,
      "Ġrecycl": 6874,
      "Ġstreet": 6875,
      "Ġvibrant": 6876,
      "Ġjewelry": 6877,
      ".'": 6878,
      "ka": 6879,
      "normal": 6880,
      "oral": 6881,
      "Ġbought": 6882,
      "edom": 6883,
      "Ġhang": 6884,
      "Ġhidden": 6885,
      "ĠNor": 6886,
      "Ġintense": 6887,
      "ourse": 6888,
      "astics": 6889,
      "ĠGulf": 6890,
      "Ġmanaging": 6891,
      "Ġprey": 6892,
      "Ġguarant": 6893,
      "Ġcenturies": 6894,
      "Ġidentity": 6895,
      "apping": 6896,
      "Ġgradually": 6897,
      "Ġmanufacturers": 6898,
      "ĠSimilar": 6899,
      "Ġcrusher": 6900,
      "cribed": 6901,
      "Ġsessions": 6902,
      "Ġpaid": 6903,
      "Ġsuscept": 6904,
      "Ġphenomenon": 6905,
      "-F": 6906,
      "-T": 6907,
      "Lear": 6908,
      "Since": 6909,
      "tt": 6910,
      "Ġcoc": 6911,
      "orks": 6912,
      "alysis": 6913,
      "Ġink": 6914,
      "entle": 6915,
      "Ġrender": 6916,
      "ĠTest": 6917,
      "Ġvict": 6918,
      "Ġenerg": 6919,
      "Ġatom": 6920,
      "ivated": 6921,
      "Ġplus": 6922,
      "ĠEqu": 6923,
      "reating": 6924,
      "Ġapparent": 6925,
      "Ġapplying": 6926,
      "Ġacts": 6927,
      "Ġnewborn": 6928,
      "Ġclassic": 6929,
      "Ġnuts": 6930,
      "ĠNews": 6931,
      "ĠSpanish": 6932,
      "Ġdetection": 6933,
      "ĠPrint": 6934,
      "Ġincorporating": 6935,
      "Ġvessels": 6936,
      "Ġdivided": 6937,
      "ĠWashington": 6938,
      "Of": 6939,
      "eal": 6940,
      "lig": 6941,
      "was": 6942,
      "Ġpy": 6943,
      "Ġment": 6944,
      "Ġdive": 6945,
      "Ġgone": 6946,
      "Ġprove": 6947,
      "ĠSpec": 6948,
      "Ġexhaust": 6949,
      "anta": 6950,
      "ĠFalse": 6951,
      "ĠGood": 6952,
      "Ġupg": 6953,
      "angered": 6954,
      "Ġmyself": 6955,
      "ĠChinese": 6956,
      "ĠUnion": 6957,
      "Ġdefect": 6958,
      "-sc": 6959,
      "Ġimmun": 6960,
      "Ġfitness": 6961,
      "Ġrecognition": 6962,
      "Ġthreats": 6963,
      "Ġboundaries": 6964,
      "Ġrecycling": 6965,
      "Ġconclud": 6966,
      "Ġyeast": 6967,
      "-a": 6968,
      "EP": 6969,
      "RNA": 6970,
      "gers": 6971,
      "hi": 6972,
      "Ġtires": 6973,
      "Ġsch": 6974,
      "omfort": 6975,
      "ston": 6976,
      "Ġgly": 6977,
      "Ġgently": 6978,
      "chron": 6979,
      "ĠSil": 6980,
      "Ġconvey": 6981,
      "Ġalter": 6982,
      "ĠMo": 6983,
      "istant": 6984,
      "Ġships": 6985,
      "ĠNature": 6986,
      "Ġkilled": 6987,
      "agers": 6988,
      "ĠOb": 6989,
      "Ġclay": 6990,
      "Ġsoap": 6991,
      "Ġdisad": 6992,
      "ieves": 6993,
      "Ġamb": 6994,
      "Ġplanted": 6995,
      "Ġremark": 6996,
      "Ġinvas": 6997,
      "Ġsupposed": 6998,
      "Ġartists": 6999,
      "Ġhandling": 7000,
      "lessly": 7001,
      "ĠScott": 7002,
      "ĠSciences": 7003,
      "Ġcycling": 7004,
      "Ġcalories": 7005,
      "Ġcrust": 7006,
      "ĠPlay": 7007,
      "ĠPlace": 7008,
      "Ġwooden": 7009,
      "Ġexperiencing": 7010,
      "Also": 7011,
      "Ġassistance": 7012,
      "Ġaquarium": 7013,
      "Ġleadership": 7014,
      "Ġwestern": 7015,
      ")\\": 7016,
      "/m": 7017,
      "EO": 7018,
      "Keep": 7019,
      "SC": 7020,
      "pie": 7021,
      "point": 7022,
      "Ġtaught": 7023,
      "Ġsulf": 7024,
      "Ġpun": 7025,
      "Ġdys": 7026,
      "Ġreef": 7027,
      "ĠSuch": 7028,
      "ĠCB": 7029,
      "Ġseal": 7030,
      "ĠDise": 7031,
      "ĠFigure": 7032,
      "rix": 7033,
      "rium": 7034,
      "Ġtraits": 7035,
      "ĠJew": 7036,
      "Ġhealthier": 7037,
      "Ġsignature": 7038,
      "Ġexamine": 7039,
      "Ġcurriculum": 7040,
      "Ġdepression": 7041,
      "rolog": 7042,
      "Ġorganoid": 7043,
      "Ġtreating": 7044,
      "Ġdrag": 7045,
      "Ġdelay": 7046,
      "Ġcalm": 7047,
      "ĠClimate": 7048,
      "Ġnearby": 7049,
      "Ġauditory": 7050,
      "Ġjobs": 7051,
      "Ġballs": 7052,
      "ĠSmall": 7053,
      "Ġdiamond": 7054,
      "Ġbroadcast": 7055,
      "Ġmountain": 7056,
      "Ġinnovation": 7057,
      "Ġbranch": 7058,
      "Ġfairly": 7059,
      "Ġthrive": 7060,
      "Ġabundance": 7061,
      "Ġhunting": 7062,
      "Ġpolicies": 7063,
      "-res": 7064,
      "PR": 7065,
      "mble": 7066,
      "pots": 7067,
      "Ġ`": 7068,
      "Ġwra": 7069,
      "Ġped": 7070,
      "ala": 7071,
      "Ġdil": 7072,
      "Ġgem": 7073,
      "imer": 7074,
      "Ġsting": 7075,
      "Ġstated": 7076,
      "âĢľ": 7077,
      "Ġmanaged": 7078,
      "Ġunf": 7079,
      "cknow": 7080,
      "Ġregul": 7081,
      "Ġcheaper": 7082,
      "Ġvalve": 7083,
      "ĠForce": 7084,
      "Ġserving": 7085,
      "Ġheads": 7086,
      "Ġcombine": 7087,
      "Ġfunctionality": 7088,
      "Ġphotograph": 7089,
      "Ġdegrad": 7090,
      "Ġviews": 7091,
      "Ġwaiting": 7092,
      "Ġinitially": 7093,
      "esterol": 7094,
      "Phot": 7095,
      "Ġveterin": 7096,
      "()": 7097,
      "57": 7098,
      "under": 7099,
      "Ġbare": 7100,
      "Ġbeef": 7101,
      "uled": 7102,
      "amily": 7103,
      "Ġasking": 7104,
      "Ġvib": 7105,
      "ĠMag": 7106,
      "Ġshock": 7107,
      "Ġknew": 7108,
      "Ġoverw": 7109,
      "Ġflash": 7110,
      "Ġaccomp": 7111,
      "oving": 7112,
      "ocket": 7113,
      "Ġvet": 7114,
      "Ġedges": 7115,
      "Ġpossibility": 7116,
      "Ġrising": 7117,
      "Ġmeasuring": 7118,
      "Ġprevention": 7119,
      "Ġturtles": 7120,
      "Ġaccessible": 7121,
      "Ġmenu": 7122,
      "Ġirrit": 7123,
      "ĠManagement": 7124,
      "ogenic": 7125,
      "ĠMexico": 7126,
      "Ġadequate": 7127,
      "col": 7128,
      "iled": 7129,
      "ether": 7130,
      "ĠTry": 7131,
      "ĠIll": 7132,
      "ĠSqu": 7133,
      "Ġorgans": 7134,
      "Ġdeploy": 7135,
      "Ġdehyd": 7136,
      "ĠDig": 7137,
      "ĠFace": 7138,
      "Ġabilities": 7139,
      "ĠLong": 7140,
      "Ġdesk": 7141,
      "Ġreput": 7142,
      "Ġobesity": 7143,
      "-by": 7144,
      "ĠExam": 7145,
      "Ġswimming": 7146,
      "Don": 7147,
      "Ind": 7148,
      "NC": 7149,
      "espan": 7150,
      "Ġpestic": 7151,
      "Ġfaces": 7152,
      "rooms": 7153,
      "Ġrear": 7154,
      "olved": 7155,
      "ĠSum": 7156,
      "Ġrose": 7157,
      "berry": 7158,
      "pha": 7159,
      "Ġremed": 7160,
      "Ġgrain": 7161,
      "Ġcorrel": 7162,
      "Ġmetals": 7163,
      "ĠThose": 7164,
      "Ġcourses": 7165,
      "Ġcombat": 7166,
      "Ġforecast": 7167,
      "ĠBlue": 7168,
      "Ġflux": 7169,
      "Ġdescribes": 7170,
      "ĠGrade": 7171,
      "Ġsexual": 7172,
      "Ġcategories": 7173,
      "Ġflavors": 7174,
      "Ġassembly": 7175,
      "Using": 7176,
      "\"Ċ": 7177,
      "TH": 7178,
      "TR": 7179,
      "la": 7180,
      "rich": 7181,
      "rane": 7182,
      "Ġtorto": 7183,
      "heat": 7184,
      "ittle": 7185,
      "Ġmouse": 7186,
      "arbon": 7187,
      "icide": 7188,
      "urrent": 7189,
      "Ġaluminum": 7190,
      "ĠMicro": 7191,
      "usiness": 7192,
      "ĠDef": 7193,
      "Ġking": 7194,
      "berries": 7195,
      "ricate": 7196,
      "ints": 7197,
      "ĠVol": 7198,
      "Ġgrows": 7199,
      "certain": 7200,
      "Ġguy": 7201,
      "Ġbiom": 7202,
      "Ġidentification": 7203,
      "Ġfocusing": 7204,
      "Ġimplemented": 7205,
      "Share": 7206,
      "Ġbulb": 7207,
      "Ġrecommendations": 7208,
      "working": 7209,
      "Ġjoin": 7210,
      "Ġconversion": 7211,
      "ĠSecond": 7212,
      "ĠAtlantic": 7213,
      "Ġunusual": 7214,
      "Ġphilos": 7215,
      "(S": 7216,
      "LA": 7217,
      "bal": 7218,
      "Ġ%": 7219,
      "Ġpod": 7220,
      "Ġlun": 7221,
      "ĠIS": 7222,
      "ĠIce": 7223,
      "uls": 7224,
      "Ġhence": 7225,
      "ivest": 7226,
      "Ġshade": 7227,
      "ocy": 7228,
      "Ġcompress": 7229,
      "ague": 7230,
      "velength": 7231,
      "Ġspeech": 7232,
      "Ġblend": 7233,
      "Ġblank": 7234,
      "cket": 7235,
      "Ġbrake": 7236,
      "Ġengagement": 7237,
      "Ġdelicate": 7238,
      "Ġhimself": 7239,
      "Ġfluids": 7240,
      "Ġstrain": 7241,
      "Ġfrequent": 7242,
      "spring": 7243,
      "ĠAmazon": 7244,
      "Ġcardi": 7245,
      "Ġrespectively": 7246,
      "Ġaggressive": 7247,
      "Ġrestaurant": 7248,
      "Ġaffordable": 7249,
      "Ġcitiz": 7250,
      "Ġversatile": 7251,
      "Ġlaunched": 7252,
      "78": 7253,
      "Ġsoci": 7254,
      "Ġoscill": 7255,
      "Ġongoing": 7256,
      "ĠSet": 7257,
      "ading": 7258,
      "Ġsearc": 7259,
      "ĠLondon": 7260,
      "ultane": 7261,
      "tee": 7262,
      "angle": 7263,
      "Ġempt": 7264,
      "Ġrelief": 7265,
      "Ġregister": 7266,
      "Ġsolving": 7267,
      "Ġphysi": 7268,
      "ĠShould": 7269,
      "Ġfacing": 7270,
      "Ġconcerned": 7271,
      "Ġrecognized": 7272,
      "Ġfunding": 7273,
      "ĠMoreover": 7274,
      "Ġsuffer": 7275,
      "></": 7276,
      "ĠJapanese": 7277,
      "Ġjuice": 7278,
      "Ġdurability": 7279,
      "ĠAcademy": 7280,
      "-old": 7281,
      "-cl": 7282,
      "</": 7283,
      "Does": 7284,
      "Rel": 7285,
      "Water": 7286,
      "oons": 7287,
      "Ġic": 7288,
      "Ġtile": 7289,
      "Ġsperm": 7290,
      "Ġwing": 7291,
      "Ġpink": 7292,
      "Ġfrust": 7293,
      "roph": 7294,
      "Ġbeam": 7295,
      "uts": 7296,
      "ĠSy": 7297,
      "amps": 7298,
      "Ġexists": 7299,
      "Ġcomment": 7300,
      "Ġcomments": 7301,
      "ĠPan": 7302,
      "ĠBu": 7303,
      "ivating": 7304,
      "Ġusual": 7305,
      "ĠLaw": 7306,
      "Ġsyndrome": 7307,
      "ĠJames": 7308,
      "Ġbugs": 7309,
      "Ġremote": 7310,
      "Inst": 7311,
      "Ġexploration": 7312,
      "Ġequipped": 7313,
      "Ġrealize": 7314,
      "Ġencounter": 7315,
      "Ġdrying": 7316,
      "Ġregardless": 7317,
      "Ġincorporate": 7318,
      "ĠWestern": 7319,
      "Ġcommitment": 7320,
      "Understanding": 7321,
      "ĠRobert": 7322,
      "Other": 7323,
      "fast": 7324,
      "iking": 7325,
      "atric": 7326,
      "Ġcav": 7327,
      "Ġmine": 7328,
      "Ġdent": 7329,
      "Ġgri": 7330,
      "ĠCamp": 7331,
      "Ġcann": 7332,
      "illa": 7333,
      "ĠPit": 7334,
      "Ġkm": 7335,
      "ĠLook": 7336,
      "Ġdisrupt": 7337,
      "Ġtea": 7338,
      "oys": 7339,
      "ĠThanks": 7340,
      "Ġzone": 7341,
      "Ġachieved": 7342,
      "Ġcameras": 7343,
      "ĠDespite": 7344,
      "Ġimplementation": 7345,
      "Ġclaims": 7346,
      "ĠModel": 7347,
      "Ġsynthetic": 7348,
      "ĠUnderstanding": 7349,
      "-cent": 7350,
      "During": 7351,
      "onom": 7352,
      "Ġcater": 7353,
      "Ġmice": 7354,
      "Ġduration": 7355,
      "ĠSam": 7356,
      "umbers": 7357,
      "ĠPract": 7358,
      "ĠBest": 7359,
      "Ġsections": 7360,
      "Ġchips": 7361,
      "Ġdoctors": 7362,
      "Ġcomprom": 7363,
      "ĠLow": 7364,
      "Ġdisappe": 7365,
      "Ġsched": 7366,
      "Ġshoulder": 7367,
      "Ġwherein": 7368,
      "Ġphr": 7369,
      "Ġdiscomfort": 7370,
      "Ġpresents": 7371,
      "Ġfilters": 7372,
      "coming": 7373,
      "Ġnecessarily": 7374,
      "ĠSpace": 7375,
      "Ġsilk": 7376,
      "Ġdecreased": 7377,
      "Ġpairs": 7378,
      "Ġexpressed": 7379,
      "Ġmetabolism": 7380,
      "Ġdrainage": 7381,
      "Ġmitig": 7382,
      "Ġhorizontal": 7383,
      "Ġmembrane": 7384,
      "BC": 7385,
      "gien": 7386,
      "uing": 7387,
      "uous": 7388,
      "hered": 7389,
      "Ġore": 7390,
      "ingers": 7391,
      "Ġpit": 7392,
      "Ġgest": 7393,
      "ĠCat": 7394,
      "ĠMart": 7395,
      "ĠPal": 7396,
      "ĠPot": 7397,
      "Ġdealing": 7398,
      "Ġwilling": 7399,
      "agine": 7400,
      "Ġreson": 7401,
      "Ġtiming": 7402,
      "ricks": 7403,
      "Ġdied": 7404,
      "ĠVis": 7405,
      "Ġpoison": 7406,
      "arming": 7407,
      "Ġbreeds": 7408,
      "Ġprotecting": 7409,
      "ugs": 7410,
      "Ġdirector": 7411,
      "Ġsteak": 7412,
      "Ġcomplexity": 7413,
      "Ġresistant": 7414,
      "ĠCOVID": 7415,
      "Ġneighb": 7416,
      "PC": 7417,
      "band": 7418,
      "cue": 7419,
      "Ġtrick": 7420,
      "Ġaward": 7421,
      "Ġow": 7422,
      "Ġdairy": 7423,
      "Ġthrow": 7424,
      "Ġreaches": 7425,
      "Ġgiant": 7426,
      "racle": 7427,
      "ĠSustain": 7428,
      "amylase": 7429,
      "ĠMal": 7430,
      "ĠBig": 7431,
      "Ġroughly": 7432,
      "Ġcomposed": 7433,
      "izz": 7434,
      "Ġclient": 7435,
      "reatment": 7436,
      "Ġuniversity": 7437,
      "Ġblade": 7438,
      "ĠStar": 7439,
      "plete": 7440,
      "Ġdecay": 7441,
      "Ġforming": 7442,
      "Ġshowc": 7443,
      "ommod": 7444,
      "Ġlargely": 7445,
      "ĠAdv": 7446,
      "Ġcycl": 7447,
      "Ġreplacing": 7448,
      "Ġobserve": 7449,
      "Ġmarks": 7450,
      "Ġenhancing": 7451,
      "Ġtells": 7452,
      "Ġviruses": 7453,
      "Ġprecision": 7454,
      "Ġpollen": 7455,
      "Ġadapted": 7456,
      "Ġlaid": 7457,
      "Ġgained": 7458,
      "Ġabsorption": 7459,
      "Ġparameter": 7460,
      "Ġduct": 7461,
      "Ġbottle": 7462,
      "Ġfoam": 7463,
      "Ġbiodiversity": 7464,
      "/d": 7465,
      "OW": 7466,
      "nam": 7467,
      "niv": 7468,
      "pm": 7469,
      "Ġath": 7470,
      "Ġok": 7471,
      "Ġodd": 7472,
      "omer": 7473,
      "rav": 7474,
      "ĠIC": 7475,
      "ĠDynam": 7476,
      "arded": 7477,
      "auc": 7478,
      "Ġcoverage": 7479,
      "ĠJes": 7480,
      "Ġtruth": 7481,
      "Ġgenetics": 7482,
      "efits": 7483,
      "airs": 7484,
      "Ġentertain": 7485,
      "Ġpossibilities": 7486,
      "Ġconfident": 7487,
      "Ġcris": 7488,
      "Ġletters": 7489,
      "Any": 7490,
      "ĠOnly": 7491,
      "Ġvulnerable": 7492,
      "overnment": 7493,
      "ivestock": 7494,
      "LL": 7495,
      "cal": 7496,
      "lar": 7497,
      "Ã¢": 7498,
      "umes": 7499,
      "ĠMass": 7500,
      "ĠDou": 7501,
      "ograms": 7502,
      "izers": 7503,
      "Ġsomewhere": 7504,
      "Ġtrial": 7505,
      "Ġregional": 7506,
      "ĠChange": 7507,
      "Ġtechnological": 7508,
      "Ġdesigning": 7509,
      "Ġgreatest": 7510,
      "Ġphotography": 7511,
      "Ġcharacteristic": 7512,
      "ĠAtt": 7513,
      "Ġinfected": 7514,
      "Ġemployed": 7515,
      "Ġbrands": 7516,
      "Because": 7517,
      "Sim": 7518,
      "lers": 7519,
      "Ġom": 7520,
      "Ġwatching": 7521,
      "Ġpenc": 7522,
      "Ġbinding": 7523,
      "Ġdried": 7524,
      "Ġgases": 7525,
      "Ġgentle": 7526,
      "ĠTop": 7527,
      "ĠTable": 7528,
      "terior": 7529,
      "peed": 7530,
      "lder": 7531,
      "ĠNut": 7532,
      "Ġprinter": 7533,
      "Ġinvent": 7534,
      "iances": 7535,
      "Ġexamined": 7536,
      "Ġgray": 7537,
      "Ġauthent": 7538,
      "Ġidentifier": 7539,
      "-dimensional": 7540,
      "afe": 7541,
      "Ġlawn": 7542,
      "onald": 7543,
      "Ġplatforms": 7544,
      "Ġpregnant": 7545,
      "Ġwonderful": 7546,
      "Ġdoubt": 7547,
      "Ġpuppy": 7548,
      "Ġcholesterol": 7549,
      "Ġinstruments": 7550,
      "-off": 7551,
      "awn": 7552,
      "face": 7553,
      "ki": 7554,
      "pes": 7555,
      "pread": 7556,
      "esium": 7557,
      "Ġham": 7558,
      "ctu": 7559,
      "Ġyes": 7560,
      "ĠPress": 7561,
      "anda": 7562,
      "inds": 7563,
      "Ġoutcome": 7564,
      "Ġovercome": 7565,
      "Ġtracking": 7566,
      "Ġoffspring": 7567,
      "obby": 7568,
      "Ġassume": 7569,
      "Ġextend": 7570,
      "Ġinsulin": 7571,
      "Ġrespiratory": 7572,
      "Ġconsideration": 7573,
      "Ġaffecting": 7574,
      "Ġlimits": 7575,
      "Ġcharacterized": 7576,
      "Ġtruck": 7577,
      "Ġprinted": 7578,
      "Ġfootprint": 7579,
      "Ġreturned": 7580,
      "Ġdemonstrate": 7581,
      "Ġpilots": 7582,
      "Ġethical": 7583,
      "cribe": 7584,
      "osterone": 7585,
      "Ġthoroughly": 7586,
      "Ġabsolutely": 7587,
      "Ġadvertising": 7588,
      "rapeut": 7589,
      "-L": 7590,
      "93": 7591,
      "Mod": 7592,
      "OD": 7593,
      "rument": 7594,
      "Ġsac": 7595,
      "Ġcer": 7596,
      "Ġbits": 7597,
      "Ġfilling": 7598,
      "Ġrect": 7599,
      "Ġyard": 7600,
      "imm": 7601,
      "tery": 7602,
      "ĠMor": 7603,
      "ĠPers": 7604,
      "ĠBC": 7605,
      "ĠDI": 7606,
      "ĠFollow": 7607,
      "Ġfeat": 7608,
      "Ġexperimental": 7609,
      "Ġcrew": 7610,
      "Ġpots": 7611,
      "Ġcoral": 7612,
      "Ġendangered": 7613,
      "Ġphotograp": 7614,
      "Ġobjective": 7615,
      "Ġwarmer": 7616,
      "Ġpopularity": 7617,
      "Ġyounger": 7618,
      "Ġquantity": 7619,
      "Ġrotation": 7620,
      "ĠHighland": 7621,
      "ĠSmith": 7622,
      "Ġaccurately": 7623,
      "imensions": 7624,
      "Ġfossils": 7625,
      "Ġsatisfact": 7626,
      "gu": 7627,
      "reated": 7628,
      "Ġcash": 7629,
      "icul": 7630,
      "ilation": 7631,
      "owns": 7632,
      "ĠAS": 7633,
      "ĠCS": 7634,
      "ector": 7635,
      "ĠFinally": 7636,
      "Ġimaging": 7637,
      "ĠNAS": 7638,
      "Ġclub": 7639,
      "rylic": 7640,
      "Ġsole": 7641,
      "Ġrecover": 7642,
      "Ġoffic": 7643,
      "ĠVer": 7644,
      "riting": 7645,
      "ĠChapter": 7646,
      "Ġarticles": 7647,
      "Ġboat": 7648,
      "Ġauto": 7649,
      "Ġinvolving": 7650,
      "Ġfunctioning": 7651,
      "Ġescape": 7652,
      "Ġinterests": 7653,
      "boards": 7654,
      "Ġturkey": 7655,
      "ĠTeac": 7656,
      "ĠRegular": 7657,
      "ĠGeography": 7658,
      "Ġconversation": 7659,
      "ĠAgricult": 7660,
      "About": 7661,
      "Ġspiritual": 7662,
      "ĠVirgin": 7663,
      "People": 7664,
      "-H": 7665,
      "-and": 7666,
      "83": 7667,
      "Dis": 7668,
      "RC": 7669,
      "fra": 7670,
      "py": 7671,
      "Ġtire": 7672,
      "Ġtough": 7673,
      "Ġmere": 7674,
      "Ġlapt": 7675,
      "eto": 7676,
      "etime": 7677,
      "Ġgift": 7678,
      "Ġforced": 7679,
      "Ġven": 7680,
      "Ġvan": 7681,
      "mented": 7682,
      "ago": 7683,
      "Ġarthritis": 7684,
      "Ġconscious": 7685,
      "althy": 7686,
      "Ġaccommod": 7687,
      "Ġinterview": 7688,
      "Ġformal": 7689,
      "Ġera": 7690,
      "Ġmessages": 7691,
      "Ġimmediate": 7692,
      "Ġdemonstrated": 7693,
      "Ġargument": 7694,
      "Ġdependent": 7695,
      "Ġappreciate": 7696,
      "Ġfederal": 7697,
      "Ġadventure": 7698,
      "Ġnarrow": 7699,
      "\"I": 7700,
      "US": 7701,
      "fit": 7702,
      "han": 7703,
      "then": 7704,
      "ya": 7705,
      "yard": 7706,
      "Ġbeds": 7707,
      "Ġfant": 7708,
      "icians": 7709,
      "Ġreb": 7710,
      "Ġgal": 7711,
      "ĠTex": 7712,
      "imeter": 7713,
      "ĠAlex": 7714,
      "Ġstars": 7715,
      "Ġstabil": 7716,
      "ĠMach": 7717,
      "ĠPen": 7718,
      "ĠBr": 7719,
      "ogether": 7720,
      "ĠInformation": 7721,
      "Ġunable": 7722,
      "Ġcolumn": 7723,
      "Ġspecified": 7724,
      "Ġsettle": 7725,
      "Ġvector": 7726,
      "Ġbread": 7727,
      "dered": 7728,
      "Ġestimate": 7729,
      "Ġpassing": 7730,
      "Ġwarning": 7731,
      "ourage": 7732,
      "itudes": 7733,
      "Ġpreparing": 7734,
      "Ġfarming": 7735,
      "ĠĠĠĠĠĠĠ": 7736,
      "Ġpolymer": 7737,
      "Ġanalyze": 7738,
      "Ġcalculated": 7739,
      "Ġfighting": 7740,
      "ĠChristian": 7741,
      "Ġabundant": 7742,
      "Ġalgorithm": 7743,
      "Ġsatellite": 7744,
      "ĠDarwin": 7745,
      "Ġimplications": 7746,
      "Ġcrisis": 7747,
      "HA": 7748,
      "UM": 7749,
      "net": 7750,
      "night": 7751,
      "such": 7752,
      "Ġtone": 7753,
      "Ġwires": 7754,
      "itution": 7755,
      "ounce": 7756,
      "Ġmm": 7757,
      "Ġlad": 7758,
      "Ġreverse": 7759,
      "etal": 7760,
      "ims": 7761,
      "ĠIdent": 7762,
      "ĠWood": 7763,
      "pection": 7764,
      "ĠMiddle": 7765,
      "agues": 7766,
      "Ġjoy": 7767,
      "Ġspending": 7768,
      "ĠJava": 7769,
      "Ġgenome": 7770,
      "Ġnewly": 7771,
      "Ġproven": 7772,
      "othing": 7773,
      "Ġmodified": 7774,
      "Ġprocessed": 7775,
      "Ġdiscipl": 7776,
      "Ġtestosterone": 7777,
      "Ġposts": 7778,
      "Ġfinished": 7779,
      "Ġcontributing": 7780,
      "Ġpackaging": 7781,
      "Ġintegr": 7782,
      "Ġlogic": 7783,
      "ĠStudies": 7784,
      "Ġsuffering": 7785,
      "Ġliterature": 7786,
      "Ġallergies": 7787,
      "Ġshopping": 7788,
      "Ġdurable": 7789,
      "Ġcrystal": 7790,
      "Ġneighbor": 7791,
      "Ġsheds": 7792,
      "ĠSafety": 7793,
      "Ġterritory": 7794,
      "Ġvolunte": 7795,
      ";ĊĊ": 7796,
      "Even": 7797,
      "gal": 7798,
      "ij": 7799,
      "ua": 7800,
      "Ġcred": 7801,
      "isk": 7802,
      "Ġborder": 7803,
      "Ġfif": 7804,
      "Ġdense": 7805,
      "asm": 7806,
      "Ġgaming": 7807,
      "Ġstems": 7808,
      "this": 7809,
      "Ġru": 7810,
      "Ġlect": 7811,
      "Ġcompat": 7812,
      "ĠLim": 7813,
      "Ġtheme": 7814,
      "Ġwatering": 7815,
      "Ġexamination": 7816,
      "Ġinspect": 7817,
      "idespread": 7818,
      "Ġleader": 7819,
      "Ġdriven": 7820,
      "Ġhyper": 7821,
      "Ġanalys": 7822,
      "Stud": 7823,
      "ĠColl": 7824,
      "Ġframework": 7825,
      "Ġwavelength": 7826,
      "ĠAustralian": 7827,
      "Ġcategory": 7828,
      "Ġtomatoes": 7829,
      "ĠDavid": 7830,
      "Ġlymph": 7831,
      "Fe": 7832,
      "May": 7833,
      "do": 7834,
      "Ġtack": 7835,
      "Ġtension": 7836,
      "esis": 7837,
      "Ġpand": 7838,
      "Ġdrops": 7839,
      "ilib": 7840,
      "state": 7841,
      "Ġisland": 7842,
      "Ġgast": 7843,
      "utch": 7844,
      "thal": 7845,
      "ĠMill": 7846,
      "ĠFin": 7847,
      "ĠRad": 7848,
      "Ġwheels": 7849,
      "ĠLabor": 7850,
      "eping": 7851,
      "Ġdesire": 7852,
      "Ġprocessor": 7853,
      "Ġpotato": 7854,
      "Ġengaged": 7855,
      "Ġdrawn": 7856,
      "Ġphysically": 7857,
      "ĠSee": 7858,
      "-step": 7859,
      "Ġmothers": 7860,
      "Ġvarying": 7861,
      "Ġevaluate": 7862,
      "Black": 7863,
      "Ġaxis": 7864,
      "//": 7865,
      "Have": 7866,
      "bur": 7867,
      "ww": 7868,
      "âĪĴ": 7869,
      "rem": 7870,
      "Ġsenior": 7871,
      "atial": 7872,
      "ena": 7873,
      "itle": 7874,
      "Ġfisher": 7875,
      "stances": 7876,
      "Ġnurse": 7877,
      "ĠTO": 7878,
      "Ġstyl": 7879,
      "amil": 7880,
      "osome": 7881,
      "ĠBack": 7882,
      "Ġshall": 7883,
      "ĠFil": 7884,
      "Ġdoors": 7885,
      "ulture": 7886,
      "Ġincome": 7887,
      "Ġthereby": 7888,
      "ĠStand": 7889,
      "Ġinfest": 7890,
      "Ġcorpor": 7891,
      "Ġdirections": 7892,
      "-dr": 7893,
      "Ġlistening": 7894,
      "Ġseparated": 7895,
      "Ġfatty": 7896,
      "Ġlifespan": 7897,
      "Ġdetected": 7898,
      "Ġexcited": 7899,
      "Ġstrike": 7900,
      "ĠBiology": 7901,
      "Ġnutritional": 7902,
      "Ġjoints": 7903,
      "Ġsaliva": 7904,
      "Ġamplitude": 7905,
      "Ġionic": 7906,
      "Ġenabling": 7907,
      ".The": 7908,
      "84": 7909,
      "??": 7910,
      "Sm": 7911,
      "pers": 7912,
      "Ġwidespread": 7913,
      "Ġpose": 7914,
      "ednes": 7915,
      "Ġinher": 7916,
      "Ġdim": 7917,
      "Ġgel": 7918,
      "ĠType": 7919,
      "ĠSolar": 7920,
      "ivered": 7921,
      "ĠMem": 7922,
      "ĠMaterial": 7923,
      "Ġneuro": 7924,
      "Ġranging": 7925,
      "Ġranges": 7926,
      "ript": 7927,
      "ĠRich": 7928,
      "Ġintricate": 7929,
      "Ġunp": 7930,
      "ooked": 7931,
      "Ġprone": 7932,
      "Ġdecade": 7933,
      "Ġextinction": 7934,
      "Ġpersist": 7935,
      "Ġcyl": 7936,
      "ĠIsra": 7937,
      "hemistry": 7938,
      "Ġchecked": 7939,
      "Ġvegetation": 7940,
      "Ġdiagnosed": 7941,
      "Ġreviews": 7942,
      "Ġoriginally": 7943,
      "Ġjoined": 7944,
      "Ġevaluation": 7945,
      "Ġoutdoors": 7946,
      "Ġreligious": 7947,
      "Ġempty": 7948,
      "(\"": 7949,
      "(s": 7950,
      ".A": 7951,
      "IF": 7952,
      "IP": 7953,
      "ION": 7954,
      "Sub": 7955,
      "UR": 7956,
      "bage": 7957,
      "Ġacknow": 7958,
      "onomic": 7959,
      "atches": 7960,
      "Ġcord": 7961,
      "Ġcub": 7962,
      "isters": 7963,
      "Ġbol": 7964,
      "Ġmul": 7965,
      "Ġmask": 7966,
      "Ġdimensions": 7967,
      "etah": 7968,
      "istical": 7969,
      "uning": 7970,
      "ĠRoyal": 7971,
      "Ġintra": 7972,
      "Ġworn": 7973,
      "ults": 7974,
      "Ġsoy": 7975,
      "Ġroles": 7976,
      "lectric": 7977,
      "Ġflies": 7978,
      "Ġflour": 7979,
      "Ġregulate": 7980,
      "Ġgrab": 7981,
      "Ġinsight": 7982,
      "Ġsheets": 7983,
      "Ġorganized": 7984,
      "Ġcontained": 7985,
      "Ġpositions": 7986,
      "Ġmultipl": 7987,
      "Ġstructural": 7988,
      "Ġmotors": 7989,
      "Ġdietary": 7990,
      "Ġmixing": 7991,
      "Ġpackage": 7992,
      "ometric": 7993,
      "Ġpriorit": 7994,
      "Ġwireless": 7995,
      "Ġupdate": 7996,
      "Ġdebate": 7997,
      "ĠDifferent": 7998,
      "Ġprevents": 7999,
      "ĠNASA": 8000,
      "yr": 8001,
      "Ã¤": 8002,
      "Ġtrib": 8003,
      "Ġtungsten": 8004,
      "inated": 8005,
      "Ġbub": 8006,
      "Ġfingers": 8007,
      "Ġreaching": 8008,
      "ometer": 8009,
      "eterm": 8010,
      "Ġgerm": 8011,
      "Ġstunning": 8012,
      "uma": 8013,
      "Ġvaries": 8014,
      "ĠBook": 8015,
      "ĠDC": 8016,
      "ĠEr": 8017,
      "Ġcolored": 8018,
      "text": 8019,
      "Ġourselves": 8020,
      "Ġsimultane": 8021,
      "Ġtreats": 8022,
      "âĢĻre": 8023,
      "Ġmemor": 8024,
      "ĠReview": 8025,
      "Ġfreedom": 8026,
      "Ġgrew": 8027,
      "Ġfacility": 8028,
      "Ġexpectations": 8029,
      "Ġcriteria": 8030,
      "Ġalternatives": 8031,
      "Ġroads": 8032,
      "Ġroute": 8033,
      "Ġabsorbed": 8034,
      "Ġthousand": 8035,
      "Ġconfiguration": 8036,
      "Ġincredible": 8037,
      "Ġcabin": 8038,
      "ilibrium": 8039,
      "AG": 8040,
      "IK": 8041,
      "Ne": 8042,
      "ville": 8043,
      "Ġtons": 8044,
      "isl": 8045,
      "Ġpumps": 8046,
      "Ġdating": 8047,
      "rog": 8048,
      "omas": 8049,
      "etch": 8050,
      "Ġbeach": 8051,
      "ĠTree": 8052,
      "Ġfort": 8053,
      "ĠSpecial": 8054,
      "Ġalb": 8055,
      "ĠMethod": 8056,
      "ĠPain": 8057,
      "ĠBab": 8058,
      "ĠHor": 8059,
      "ria": 8060,
      "pling": 8061,
      "plate": 8062,
      "Ġtech": 8063,
      "Ġacting": 8064,
      "Ġagencies": 8065,
      "Ġshouldn": 8066,
      "Ġemit": 8067,
      "Ġtransmit": 8068,
      "ĠProcess": 8069,
      "ĠAnimal": 8070,
      "Ġanticip": 8071,
      "Ġreceiving": 8072,
      "Ġcontributes": 8073,
      "Ġcircular": 8074,
      "Ġversions": 8075,
      "Ġtotally": 8076,
      "Ġbarrel": 8077,
      "Ġcovering": 8078,
      "Ġtargets": 8079,
      "riday": 8080,
      "ĠMaybe": 8081,
      "ĠConservation": 8082,
      "Ġdynamics": 8083,
      "ĠPresident": 8084,
      "Explanation": 8085,
      "ĠTexas": 8086,
      "BS": 8087,
      "IM": 8088,
      "LP": 8089,
      "hma": 8090,
      "Â¢": 8091,
      "rene": 8092,
      "onics": 8093,
      "Ġov": 8094,
      "ener": 8095,
      "itus": 8096,
      "Ġmood": 8097,
      "Ġmile": 8098,
      "edding": 8099,
      "Ġdol": 8100,
      "Ġlosing": 8101,
      "otive": 8102,
      "utive": 8103,
      "igue": 8104,
      "Ġenemy": 8105,
      "ĠDiv": 8106,
      "oston": 8107,
      "ĠNov": 8108,
      "Ġworst": 8109,
      "Ġsomewhat": 8110,
      "Ġpriv": 8111,
      "Ġcurve": 8112,
      "Ġmultip": 8113,
      "Ġrestore": 8114,
      "Ġanalog": 8115,
      "Ġscientist": 8116,
      "Ġturtle": 8117,
      "aska": 8118,
      "Ġpaying": 8119,
      "Ġframes": 8120,
      "ĠÂ£": 8121,
      "Ġlaunch": 8122,
      "Ġscreening": 8123,
      "flies": 8124,
      "ĠMonster": 8125,
      "Ġsynthesis": 8126,
      "Ġsoda": 8127,
      "ĠServices": 8128,
      "Ġconflict": 8129,
      "Ġresilience": 8130,
      "Ġcampaign": 8131,
      "Ġsusceptible": 8132,
      "ĠVirginia": 8133,
      "\":": 8134,
      "Rep": 8135,
      "TM": 8136,
      "UC": 8137,
      "rd": 8138,
      "Ġtends": 8139,
      "Ġsoph": 8140,
      "Ġcro": 8141,
      "itan": 8142,
      "Ġber": 8143,
      "Ġbands": 8144,
      "Ġdial": 8145,
      "leep": 8146,
      "Ġeco": 8147,
      "Ġnor": 8148,
      "Ġgender": 8149,
      "sell": 8150,
      "Ġstrict": 8151,
      "Ġconj": 8152,
      "opy": 8153,
      "ĠBro": 8154,
      "Ġshoe": 8155,
      "ĠHyd": 8156,
      "pled": 8157,
      "ĠNon": 8158,
      "ĠLeg": 8159,
      "Ġunex": 8160,
      "Ġtrials": 8161,
      "ĠStri": 8162,
      "Ġagent": 8163,
      "Ġwellness": 8164,
      "Ġadvis": 8165,
      "Ġreaders": 8166,
      "Ġdelivered": 8167,
      "author": 8168,
      "Ġenhanced": 8169,
      "Ġcaptured": 8170,
      "Ġanalyzed": 8171,
      "proof": 8172,
      "Ġvisitors": 8173,
      "ĠBritain": 8174,
      "Ġmutations": 8175,
      "pecific": 8176,
      "Ġastron": 8177,
      "Ġfertilizer": 8178,
      "ĠFacebook": 8179,
      "Ear": 8180,
      "Figure": 8181,
      "PD": 8182,
      "ked": 8183,
      "Ġtab": 8184,
      "Ġtutor": 8185,
      "eness": 8186,
      "itness": 8187,
      "Ġpond": 8188,
      "aria": 8189,
      "Ġhurt": 8190,
      "ĠAp": 8191
    },
    "merges": [
      [
        "Ġ",
        "t"
      ],
      [
        "Ġ",
        "a"
      ],
      [
        "i",
        "n"
      ],
      [
        "h",
        "e"
      ],
      [
        "r",
        "e"
      ],
      [
        "o",
        "n"
      ],
      [
        "Ġt",
        "he"
      ],
      [
        "e",
        "r"
      ],
      [
        "Ġ",
        "s"
      ],
      [
        "a",
        "t"
      ],
      [
        "Ġ",
        "c"
      ],
      [
        "Ġ",
        "o"
      ],
      [
        "e",
        "s"
      ],
      [
        "e",
        "n"
      ],
      [
        "Ġ",
        "w"
      ],
      [
        "n",
        "d"
      ],
      [
        "i",
        "t"
      ],
      [
        "i",
        "s"
      ],
      [
        "in",
        "g"
      ],
      [
        "Ġ",
        "p"
      ],
      [
        "o",
        "r"
      ],
      [
        "Ġ",
        "b"
      ],
      [
        "Ġ",
        "f"
      ],
      [
        "o",
        "u"
      ],
      [
        "a",
        "l"
      ],
      [
        "a",
        "n"
      ],
      [
        "Ġ",
        "m"
      ],
      [
        "e",
        "d"
      ],
      [
        "Ġo",
        "f"
      ],
      [
        "a",
        "r"
      ],
      [
        "Ġt",
        "o"
      ],
      [
        "Ġ",
        "in"
      ],
      [
        "Ġa",
        "nd"
      ],
      [
        "Ġ",
        "d"
      ],
      [
        "i",
        "c"
      ],
      [
        "i",
        "on"
      ],
      [
        "l",
        "e"
      ],
      [
        "r",
        "o"
      ],
      [
        "a",
        "s"
      ],
      [
        "Ġ",
        "h"
      ],
      [
        "Ġt",
        "h"
      ],
      [
        "c",
        "t"
      ],
      [
        "Ġ",
        "e"
      ],
      [
        "en",
        "t"
      ],
      [
        "Ġ",
        "l"
      ],
      [
        "v",
        "e"
      ],
      [
        "i",
        "l"
      ],
      [
        "Ġ",
        "re"
      ],
      [
        "o",
        "m"
      ],
      [
        "s",
        "t"
      ],
      [
        "Ġ",
        "is"
      ],
      [
        "Ġ",
        "n"
      ],
      [
        ".",
        "Ċ"
      ],
      [
        "e",
        "t"
      ],
      [
        "l",
        "y"
      ],
      [
        "Ġ",
        "g"
      ],
      [
        "Ġ",
        "y"
      ],
      [
        "o",
        "t"
      ],
      [
        "s",
        "e"
      ],
      [
        "Ġb",
        "e"
      ],
      [
        "o",
        "w"
      ],
      [
        "Ġ",
        "T"
      ],
      [
        "i",
        "d"
      ],
      [
        "Ġy",
        "ou"
      ],
      [
        "i",
        "m"
      ],
      [
        "u",
        "t"
      ],
      [
        "o",
        "l"
      ],
      [
        "i",
        "g"
      ],
      [
        "c",
        "e"
      ],
      [
        "r",
        "a"
      ],
      [
        "Ġf",
        "or"
      ],
      [
        "Ġ",
        "u"
      ],
      [
        "Ġ",
        "A"
      ],
      [
        "at",
        "ion"
      ],
      [
        "c",
        "h"
      ],
      [
        "u",
        "r"
      ],
      [
        "Ġs",
        "t"
      ],
      [
        "Ġ",
        "on"
      ],
      [
        "Ġ",
        "I"
      ],
      [
        "Ġth",
        "at"
      ],
      [
        "i",
        "r"
      ],
      [
        "v",
        "er"
      ],
      [
        "u",
        "l"
      ],
      [
        "Ġ",
        "it"
      ],
      [
        "it",
        "h"
      ],
      [
        "Ġa",
        "re"
      ],
      [
        "a",
        "y"
      ],
      [
        "e",
        "l"
      ],
      [
        "Ġp",
        "ro"
      ],
      [
        "Ġ",
        "S"
      ],
      [
        "a",
        "m"
      ],
      [
        "i",
        "f"
      ],
      [
        "Ġa",
        "n"
      ],
      [
        "Ġw",
        "ith"
      ],
      [
        "es",
        "t"
      ],
      [
        "Ġa",
        "s"
      ],
      [
        "Ġc",
        "on"
      ],
      [
        "Ġo",
        "r"
      ],
      [
        "he",
        "r"
      ],
      [
        ".Ċ",
        "Ċ"
      ],
      [
        "Ġ",
        "C"
      ],
      [
        "Ġa",
        "l"
      ],
      [
        "o",
        "d"
      ],
      [
        "a",
        "d"
      ],
      [
        "t",
        "er"
      ],
      [
        "Ċ",
        "Ċ"
      ],
      [
        "k",
        "e"
      ],
      [
        "Ġw",
        "h"
      ],
      [
        "g",
        "e"
      ],
      [
        "ĠT",
        "he"
      ],
      [
        "Ġc",
        "an"
      ],
      [
        "a",
        "b"
      ],
      [
        "u",
        "re"
      ],
      [
        "at",
        "e"
      ],
      [
        "Ġ",
        "W"
      ],
      [
        "Ġe",
        "x"
      ],
      [
        "u",
        "m"
      ],
      [
        "il",
        "l"
      ],
      [
        "Ġh",
        "a"
      ],
      [
        "Ġc",
        "om"
      ],
      [
        "es",
        "s"
      ],
      [
        "an",
        "t"
      ],
      [
        "Ġ",
        "he"
      ],
      [
        "p",
        "e"
      ],
      [
        "ig",
        "h"
      ],
      [
        "er",
        "s"
      ],
      [
        "o",
        "re"
      ],
      [
        "t",
        "h"
      ],
      [
        "q",
        "u"
      ],
      [
        "i",
        "ve"
      ],
      [
        "'",
        "s"
      ],
      [
        "i",
        "es"
      ],
      [
        "e",
        "m"
      ],
      [
        "Ġs",
        "u"
      ],
      [
        "a",
        "c"
      ],
      [
        "o",
        "p"
      ],
      [
        "it",
        "y"
      ],
      [
        "Ġ",
        "v"
      ],
      [
        "Ġ",
        "M"
      ],
      [
        "o",
        "s"
      ],
      [
        "Ġ",
        "P"
      ],
      [
        "a",
        "in"
      ],
      [
        "Ġw",
        "e"
      ],
      [
        "m",
        "ent"
      ],
      [
        "Ġ",
        "("
      ],
      [
        "Ġd",
        "e"
      ],
      [
        "is",
        "t"
      ],
      [
        "ro",
        "m"
      ],
      [
        "u",
        "s"
      ],
      [
        "Ġyou",
        "r"
      ],
      [
        "Ġ",
        "B"
      ],
      [
        "l",
        "d"
      ],
      [
        "Ġs",
        "e"
      ],
      [
        "Ġn",
        "e"
      ],
      [
        "Ġ",
        "en"
      ],
      [
        "Ġc",
        "h"
      ],
      [
        "p",
        "p"
      ],
      [
        "n",
        "t"
      ],
      [
        "Ġ",
        "r"
      ],
      [
        "Ġa",
        "t"
      ],
      [
        "e",
        "ct"
      ],
      [
        "i",
        "v"
      ],
      [
        "Ġs",
        "h"
      ],
      [
        "Ġf",
        "rom"
      ],
      [
        "i",
        "al"
      ],
      [
        "o",
        "c"
      ],
      [
        "or",
        "t"
      ],
      [
        "igh",
        "t"
      ],
      [
        "Ġha",
        "ve"
      ],
      [
        "Ġb",
        "y"
      ],
      [
        "Ġ",
        "H"
      ],
      [
        "Ġ",
        "D"
      ],
      [
        "Ġ",
        "le"
      ],
      [
        "u",
        "n"
      ],
      [
        "a",
        "nd"
      ],
      [
        "o",
        "g"
      ],
      [
        "re",
        "s"
      ],
      [
        "Ġp",
        "l"
      ],
      [
        "ar",
        "t"
      ],
      [
        "u",
        "d"
      ],
      [
        "Ġn",
        "ot"
      ],
      [
        "al",
        "l"
      ],
      [
        "p",
        "er"
      ],
      [
        "Ġ",
        "F"
      ],
      [
        "Ġu",
        "s"
      ],
      [
        "ic",
        "al"
      ],
      [
        "r",
        "i"
      ],
      [
        "Ġth",
        "is"
      ],
      [
        "n",
        "s"
      ],
      [
        "om",
        "e"
      ],
      [
        "d",
        "u"
      ],
      [
        "Ġ",
        "E"
      ],
      [
        "a",
        "ct"
      ],
      [
        "r",
        "ou"
      ],
      [
        "Ġa",
        "b"
      ],
      [
        "id",
        "e"
      ],
      [
        "p",
        "t"
      ],
      [
        "Ġ",
        "R"
      ],
      [
        "ou",
        "ld"
      ],
      [
        "in",
        "e"
      ],
      [
        "Ġm",
        "a"
      ],
      [
        "o",
        "st"
      ],
      [
        "ou",
        "t"
      ],
      [
        "ic",
        "h"
      ],
      [
        "Ġw",
        "as"
      ],
      [
        "p",
        "l"
      ],
      [
        "ar",
        "d"
      ],
      [
        "ion",
        "s"
      ],
      [
        "re",
        "d"
      ],
      [
        "Ġ",
        "im"
      ],
      [
        "u",
        "st"
      ],
      [
        "Ġ",
        "N"
      ],
      [
        "el",
        "l"
      ],
      [
        "Ġin",
        "t"
      ],
      [
        "g",
        "h"
      ],
      [
        "Ġw",
        "he"
      ],
      [
        "Ġd",
        "o"
      ],
      [
        "â",
        "Ģ"
      ],
      [
        "Ġw",
        "or"
      ],
      [
        "ou",
        "r"
      ],
      [
        "Ġ",
        "k"
      ],
      [
        "f",
        "f"
      ],
      [
        "as",
        "t"
      ],
      [
        "at",
        "er"
      ],
      [
        "Ġw",
        "ill"
      ],
      [
        "Ġthe",
        "y"
      ],
      [
        "Ġthe",
        "ir"
      ],
      [
        "t",
        "her"
      ],
      [
        "T",
        "he"
      ],
      [
        "Ġcom",
        "p"
      ],
      [
        "a",
        "ge"
      ],
      [
        "i",
        "z"
      ],
      [
        "Ġ",
        "G"
      ],
      [
        "k",
        "ing"
      ],
      [
        "o",
        "od"
      ],
      [
        "Ġ",
        "L"
      ],
      [
        "Ġa",
        "d"
      ],
      [
        "Ġal",
        "l"
      ],
      [
        "a",
        "g"
      ],
      [
        "at",
        "ed"
      ],
      [
        "ab",
        "le"
      ],
      [
        "k",
        "s"
      ],
      [
        "Ġm",
        "ore"
      ],
      [
        "an",
        "s"
      ],
      [
        "Ġcon",
        "t"
      ],
      [
        "e",
        "re"
      ],
      [
        "en",
        "d"
      ],
      [
        "Ġ",
        "O"
      ],
      [
        "h",
        "at"
      ],
      [
        "ul",
        "t"
      ],
      [
        "i",
        "b"
      ],
      [
        "Ġc",
        "l"
      ],
      [
        "al",
        "ly"
      ],
      [
        "Ġin",
        "c"
      ],
      [
        "in",
        "d"
      ],
      [
        "i",
        "p"
      ],
      [
        "w",
        "er"
      ],
      [
        "ou",
        "s"
      ],
      [
        "o",
        "o"
      ],
      [
        "est",
        "ion"
      ],
      [
        "r",
        "y"
      ],
      [
        "r",
        "u"
      ],
      [
        "Ġb",
        "ut"
      ],
      [
        "Ġs",
        "o"
      ],
      [
        "s",
        "o"
      ],
      [
        "Ġre",
        "s"
      ],
      [
        "Q",
        "u"
      ],
      [
        "e",
        "p"
      ],
      [
        "Ġm",
        "e"
      ],
      [
        "Ġd",
        "is"
      ],
      [
        "Ġ",
        "\""
      ],
      [
        "Ġt",
        "e"
      ],
      [
        "an",
        "ce"
      ],
      [
        "on",
        "g"
      ],
      [
        "Ġwh",
        "ich"
      ],
      [
        "a",
        "re"
      ],
      [
        "Ġ",
        "j"
      ],
      [
        "ve",
        "l"
      ],
      [
        "Ġh",
        "as"
      ],
      [
        "c",
        "c"
      ],
      [
        "i",
        "ke"
      ],
      [
        "or",
        "m"
      ],
      [
        "Ġs",
        "p"
      ],
      [
        "ation",
        "s"
      ],
      [
        "Ġo",
        "ut"
      ],
      [
        "as",
        "e"
      ],
      [
        "2",
        "0"
      ],
      [
        "e",
        "ar"
      ],
      [
        "ct",
        "ion"
      ],
      [
        "Ġim",
        "p"
      ],
      [
        "h",
        "is"
      ],
      [
        "ns",
        "wer"
      ],
      [
        "a",
        "v"
      ],
      [
        "Ġo",
        "ther"
      ],
      [
        "Qu",
        "estion"
      ],
      [
        "Ġs",
        "pe"
      ],
      [
        "Ġon",
        "e"
      ],
      [
        "i",
        "e"
      ],
      [
        "Ġ",
        "U"
      ],
      [
        "Ġal",
        "so"
      ],
      [
        "ver",
        "y"
      ],
      [
        "ĠA",
        "nswer"
      ],
      [
        "ent",
        "s"
      ],
      [
        "ic",
        "e"
      ],
      [
        "on",
        "e"
      ],
      [
        "en",
        "ce"
      ],
      [
        "ig",
        "n"
      ],
      [
        "re",
        "at"
      ],
      [
        "a",
        "ce"
      ],
      [
        "ar",
        "y"
      ],
      [
        "ĠI",
        "n"
      ],
      [
        "ac",
        "k"
      ],
      [
        "Ġp",
        "er"
      ],
      [
        "Ġt",
        "im"
      ],
      [
        "Ġm",
        "an"
      ],
      [
        "a",
        "p"
      ],
      [
        "a",
        "ch"
      ],
      [
        "a",
        "u"
      ],
      [
        "'",
        "t"
      ],
      [
        "as",
        "s"
      ],
      [
        "en",
        "s"
      ],
      [
        "Ġthe",
        "m"
      ],
      [
        "Ġf",
        "e"
      ],
      [
        "it",
        "ion"
      ],
      [
        "Ġu",
        "p"
      ],
      [
        "ĠI",
        "t"
      ],
      [
        "Ġe",
        "v"
      ],
      [
        "l",
        "ow"
      ],
      [
        "Ġp",
        "re"
      ],
      [
        "Ġab",
        "out"
      ],
      [
        "Ġs",
        "c"
      ],
      [
        "or",
        "s"
      ],
      [
        "Ġ",
        "ro"
      ],
      [
        "if",
        "f"
      ],
      [
        "Ġl",
        "ike"
      ],
      [
        "Ġs",
        "ome"
      ],
      [
        "ou",
        "nd"
      ],
      [
        "i",
        "a"
      ],
      [
        "res",
        "s"
      ],
      [
        "Ġu",
        "n"
      ],
      [
        "o",
        "se"
      ],
      [
        ".",
        "."
      ],
      [
        "Ġ",
        "qu"
      ],
      [
        "i",
        "le"
      ],
      [
        "Ġwhe",
        "n"
      ],
      [
        "c",
        "es"
      ],
      [
        "a",
        "k"
      ],
      [
        "n",
        "ow"
      ],
      [
        "Ġp",
        "art"
      ],
      [
        "am",
        "e"
      ],
      [
        "i",
        "re"
      ],
      [
        "u",
        "e"
      ],
      [
        "Ġc",
        "ol"
      ],
      [
        "Ġs",
        "y"
      ],
      [
        "Ġint",
        "o"
      ],
      [
        "it",
        "e"
      ],
      [
        "b",
        "er"
      ],
      [
        "Ġ",
        "if"
      ],
      [
        "il",
        "d"
      ],
      [
        "Ġd",
        "iff"
      ],
      [
        "ĠT",
        "his"
      ],
      [
        "Ġh",
        "ow"
      ],
      [
        "r",
        "ic"
      ],
      [
        "a",
        "il"
      ],
      [
        "Ġth",
        "an"
      ],
      [
        "Ġne",
        "ed"
      ],
      [
        "Ġ",
        "Y"
      ],
      [
        "Ġu",
        "se"
      ],
      [
        "t",
        "e"
      ],
      [
        "Ġtim",
        "e"
      ],
      [
        "f",
        "orm"
      ],
      [
        "l",
        "l"
      ],
      [
        "Ġbe",
        "c"
      ],
      [
        "Ġa",
        "r"
      ],
      [
        "Ġp",
        "e"
      ],
      [
        "ĠW",
        "hat"
      ],
      [
        "ro",
        "w"
      ],
      [
        "Ġa",
        "pp"
      ],
      [
        "or",
        "d"
      ],
      [
        "Ġhe",
        "l"
      ],
      [
        "Ġm",
        "ay"
      ],
      [
        "ing",
        "s"
      ],
      [
        "Ġo",
        "ver"
      ],
      [
        "re",
        "e"
      ],
      [
        "nd",
        "er"
      ],
      [
        "Ġan",
        "y"
      ],
      [
        "ay",
        "s"
      ],
      [
        "Ġthe",
        "re"
      ],
      [
        "Ġre",
        "c"
      ],
      [
        "Ġb",
        "et"
      ],
      [
        "au",
        "se"
      ],
      [
        "if",
        "ic"
      ],
      [
        "Ġt",
        "ra"
      ],
      [
        "l",
        "es"
      ],
      [
        "Ġb",
        "l"
      ],
      [
        "le",
        "ct"
      ],
      [
        "al",
        "s"
      ],
      [
        "Ġcom",
        "m"
      ],
      [
        "Ġspe",
        "c"
      ],
      [
        "Ġthe",
        "se"
      ],
      [
        "ou",
        "gh"
      ],
      [
        "Ġhel",
        "p"
      ],
      [
        "Ġit",
        "s"
      ],
      [
        "Ġc",
        "o"
      ],
      [
        "in",
        "t"
      ],
      [
        "or",
        "y"
      ],
      [
        "on",
        "d"
      ],
      [
        "Ġd",
        "es"
      ],
      [
        "w",
        "e"
      ],
      [
        "Ġst",
        "ud"
      ],
      [
        "at",
        "ing"
      ],
      [
        "c",
        "ess"
      ],
      [
        "Ġw",
        "ater"
      ],
      [
        "an",
        "g"
      ],
      [
        "h",
        "y"
      ],
      [
        "Ġ",
        "J"
      ],
      [
        "Ġg",
        "et"
      ],
      [
        "Ġt",
        "r"
      ],
      [
        "Ġcon",
        "s"
      ],
      [
        "ol",
        "og"
      ],
      [
        "is",
        "h"
      ],
      [
        "Ġk",
        "now"
      ],
      [
        "on",
        "s"
      ],
      [
        "ar",
        "i"
      ],
      [
        "u",
        "b"
      ],
      [
        "Ġ",
        "âĢ"
      ],
      [
        "Ġg",
        "en"
      ],
      [
        "rou",
        "gh"
      ],
      [
        "a",
        "ke"
      ],
      [
        "at",
        "ure"
      ],
      [
        "Ġa",
        "m"
      ],
      [
        "Ġus",
        "ed"
      ],
      [
        "Ġe",
        "ff"
      ],
      [
        "Ġpro",
        "du"
      ],
      [
        "Ġg",
        "o"
      ],
      [
        "o",
        "ve"
      ],
      [
        "ul",
        "ar"
      ],
      [
        "st",
        "em"
      ],
      [
        "ou",
        "nt"
      ],
      [
        "Ġwe",
        "re"
      ],
      [
        "Ġa",
        "ct"
      ],
      [
        "ver",
        "s"
      ],
      [
        "Ġdiff",
        "ere"
      ],
      [
        "op",
        "le"
      ],
      [
        "Ġu",
        "nder"
      ],
      [
        "Ġf",
        "l"
      ],
      [
        "Ġy",
        "ear"
      ],
      [
        "Ġ",
        "ra"
      ],
      [
        "Ġof",
        "f"
      ],
      [
        "Ġm",
        "ost"
      ],
      [
        "Ġo",
        "ur"
      ],
      [
        "n",
        "ing"
      ],
      [
        "Ġwh",
        "o"
      ],
      [
        "Ġne",
        "w"
      ],
      [
        "oo",
        "k"
      ],
      [
        "Ġwh",
        "at"
      ],
      [
        "rou",
        "nd"
      ],
      [
        "m",
        "s"
      ],
      [
        "Ġsu",
        "ch"
      ],
      [
        "er",
        "v"
      ],
      [
        "Ġs",
        "a"
      ],
      [
        "n",
        "e"
      ],
      [
        "ic",
        "k"
      ],
      [
        "at",
        "es"
      ],
      [
        "ĠS",
        "t"
      ],
      [
        "Ġc",
        "ar"
      ],
      [
        "p",
        "le"
      ],
      [
        "Ġpro",
        "v"
      ],
      [
        "l",
        "ud"
      ],
      [
        "Ġs",
        "m"
      ],
      [
        "er",
        "g"
      ],
      [
        "c",
        "k"
      ],
      [
        "al",
        "th"
      ],
      [
        "t",
        "ing"
      ],
      [
        "ot",
        "h"
      ],
      [
        "Ġt",
        "w"
      ],
      [
        "Ġa",
        "g"
      ],
      [
        "Ġma",
        "ke"
      ],
      [
        "1",
        "0"
      ],
      [
        "x",
        "t"
      ],
      [
        "il",
        "ity"
      ],
      [
        "Ġa",
        "cc"
      ],
      [
        "i",
        "ent"
      ],
      [
        "Ġpe",
        "ople"
      ],
      [
        "1",
        "9"
      ],
      [
        "Ġad",
        "d"
      ],
      [
        "ir",
        "st"
      ],
      [
        "Ġbe",
        "en"
      ],
      [
        "is",
        "e"
      ],
      [
        "Ġw",
        "ould"
      ],
      [
        "Ġsh",
        "ould"
      ],
      [
        "os",
        "s"
      ],
      [
        "ur",
        "ing"
      ],
      [
        "f",
        "ul"
      ],
      [
        "an",
        "ge"
      ],
      [
        "et",
        "h"
      ],
      [
        "j",
        "ect"
      ],
      [
        "Ġd",
        "i"
      ],
      [
        "Ġe",
        "m"
      ],
      [
[...]
