{
  "version": "1.0",
  "truncation": null,
  "padding": null,
  "added_tokens": [
    {
      "id": 0,
      "content": "<|bos|>",
      "single_word": false,
      "lstrip": false,
      "rstrip": false,
      "normalized": false,
      "special": true
    },
    {
      "id": 1,
      "content": "<|user_start|>",
      "single_word": false,
      "lstrip": false,
      "rstrip": false,
      "normalized": false,
      "special": true
    },
    {
      "id": 2,
      "content": "<|user_end|>",
      "single_word": false,
      "lstrip": false,
      "rstrip": false,
      "normalized": false,
      "special": true
    },
    {
      "id": 3,
      "content": "<|assistant_start|>",
      "single_word": false,
      "lstrip": false,
      "rstrip": false,
      "normalized": false,
      "special": true
    },
    {
      "id": 4,
      "content": "<|assistant_end|>",
      "single_word": false,
      "lstrip": false,
      "rstrip": false,
      "normalized": false,
      "special": true
    },
    {
      "id": 5,
      "content": "<|python_start|>",
      "single_word": false,
      "lstrip": false,
      "rstrip": false,
      "normalized": false,
      "special": true
    },
    {
      "id": 6,
      "content": "<|python_end|>",
      "single_word": false,
      "lstrip": false,
      "rstrip": false,
      "normalized": false,
      "special": true
    },
    {
      "id": 7,
      "content": "<|output_start|>",
      "single_word": false,
      "lstrip": false,
      "rstrip": false,
      "normalized": false,
      "special": true
    },
    {
      "id": 8,
      "content": "<|output_end|>",
      "single_word": false,
      "lstrip": false,
      "rstrip": false,
      "normalized": false,
      "special": true
    },
    {
      "id": 9,
      "content": "<|unk|>",
      "single_word": false,
      "lstrip": false,
      "rstrip": false,
      "normalized": false,
      "special": true
    }
  ],
  "normalizer": null,
  "pre_tokenizer": {
    "type": "Sequence",
    "pretokenizers": [
      {
        "type": "Split",
        "pattern": {
          "Regex": "'(?i:[sdmt]|ll|ve|re)|[^\\r\\n\\p{L}\\p{N}]?+\\p{L}+|\\p{N}{1,2}| ?[^\\s\\p{L}\\p{N}]++[\\r\\n]*|\\s*[\\r\\n]|\\s+(?!\\S)|\\s+"
        },
        "behavior": "Isolated",
        "invert": false
      },
      {
        "type": "ByteLevel",
        "add_prefix_space": false,
        "trim_offsets": true,
        "use_regex": false
      }
    ]
  },
  "post_processor": {
    "type": "TemplateProcessing",
    "single": [
      {
        "Sequence": {
          "id": "A",
          "type_id": 0
        }
      }
    ],
    "pair": [
      {
        "Sequence": {
          "id": "A",
          "type_id": 0
        }
      },
      {
        "Sequence": {
          "id": "B",
          "type_id": 1
        }
      }
    ],
    "special_tokens": {}
  },
  "decoder": {
    "type": "ByteLevel",
    "add_prefix_space": true,
    "trim_offsets": true,
    "use_regex": true
  },
  "model": {
    "type": "Unigram",
    "unk_id": 9,
    "vocab": [
      [
        "<|bos|>",
        -1.0
      ],
      [
        "<|user_start|>",
        -1.0
      ],
      [
        "<|user_end|>",
        -1.0
      ],
      [
        "<|assistant_start|>",
        -1.0
      ],
      [
        "<|assistant_end|>",
        -1.0
      ],
      [
        "<|python_start|>",
        -1.0
      ],
      [
        "<|python_end|>",
        -1.0
      ],
      [
        "<|output_start|>",
        -1.0
      ],
      [
        "<|output_end|>",
        -1.0
      ],
      [
        "<|unk|>",
        -1.0
      ],
      [
        "!!",
        -1.0
      ],
      [
        "!!!",
        -1.0
      ],
      [
        "!!!!",
        -1.0
      ],
      [
        "!!!!Ċ",
        -1.0
      ],
      [
        "!!!!ĊĊ",
        -1.0
      ],
      [
        "!!!),",
        -1.0
      ],
      [
        "!!!Ċ",
        -1.0
      ],
      [
        "!!!ĊĊ",
        -1.0
      ],
      [
        "!!\"",
        -1.0
      ],
      [
        "!!\"ĊĊ",
        -1.0
      ],
      [
        "!!)",
        -1.0
      ],
      [
        "!!,",
        -1.0
      ],
      [
        "!!Ċ",
        -1.0
      ],
      [
        "!!ĊĊ",
        -1.0
      ],
      [
        "!\"",
        -1.0
      ],
      [
        "!\"),",
        -1.0
      ],
      [
        "!\").",
        -1.0
      ],
      [
        "!\")ĊĊ",
        -1.0
      ],
      [
        "!\",",
        -1.0
      ],
      [
        "!\".",
        -1.0
      ],
      [
        "!\"...\"",
        -1.0
      ],
      [
        "!\".ĊĊ",
        -1.0
      ],
      [
        "!\";",
        -1.0
      ],
      [
        "!\"?",
        -1.0
      ],
      [
        "!\"âĢĶ",
        -1.0
      ],
      [
        "!\"Ċ",
        -1.0
      ],
      [
        "!\"ĊĊ",
        -1.0
      ],
      [
        "!$\\",
        -1.0
      ],
      [
        "!&",
        -1.0
      ],
      [
        "!'",
        -1.0
      ],
      [
        "!'\"",
        -1.0
      ],
      [
        "!''",
        -1.0
      ],
      [
        "!',",
        -1.0
      ],
      [
        "!'.",
        -1.0
      ],
      [
        "!'Ċ",
        -1.0
      ],
      [
        "!'ĊĊ",
        -1.0
      ],
      [
        "!(",
        -1.0
      ],
      [
        "!)",
        -1.0
      ],
      [
        "!)**ĊĊ",
        -1.0
      ],
      [
        "!),",
        -1.0
      ],
      [
        "!).",
        -1.0
      ],
      [
        "!).Ċ",
        -1.0
      ],
      [
        "!).ĊĊ",
        -1.0
      ],
      [
        "!):Ċ",
        -1.0
      ],
      [
        "!);",
        -1.0
      ],
      [
        "!)?",
        -1.0
      ],
      [
        "!)Ċ",
        -1.0
      ],
      [
        "!)ĊĊ",
        -1.0
      ],
      [
        "!**ĊĊ",
        -1.0
      ],
      [
        "!*ĊĊ",
        -1.0
      ],
      [
        "!+",
        -1.0
      ],
      [
        "!,",
        -1.0
      ],
      [
        "!,\"",
        -1.0
      ],
      [
        "!-}",
        -1.0
      ],
      [
        "!.",
        -1.0
      ],
      [
        "!.!.!.",
        -1.0
      ],
      [
        "!...",
        -1.0
      ],
      [
        "!...ĊĊ",
        -1.0
      ],
      [
        "!.Ċ",
        -1.0
      ],
      [
        "!.ĊĊ",
        -1.0
      ],
      [
        "!:",
        -1.0
      ],
      [
        "!::",
        -1.0
      ],
      [
        "!:Ċ",
        -1.0
      ],
      [
        "!;",
        -1.0
      ],
      [
        "!<",
        -1.0
      ],
      [
        "!</",
        -1.0
      ],
      [
        "!?",
        -1.0
      ],
      [
        "!?ĊĊ",
        -1.0
      ],
      [
        "!And",
        -1.0
      ],
      [
        "!But",
        -1.0
      ],
      [
        "!Click",
        -1.0
      ],
      [
        "!Contact",
        -1.0
      ],
      [
        "!Did",
        -1.0
      ],
      [
        "!Do",
        -1.0
      ],
      [
        "!For",
        -1.0
      ],
      [
        "!Get",
        -1.0
      ],
      [
        "!How",
        -1.0
      ],
      [
        "!I",
        -1.0
      ],
      [
        "!If",
        -1.0
      ],
      [
        "!It",
        -1.0
      ],
      [
        "!My",
        -1.0
      ],
      [
        "!One",
        -1.0
      ],
      [
        "!Read",
        -1.0
      ],
      [
        "!Reload",
        -1.0
      ],
      [
        "!So",
        -1.0
      ],
      [
        "!Thanks",
        -1.0
      ],
      [
        "!That",
        -1.0
      ],
      [
        "!The",
        -1.0
      ],
      [
        "!This",
        -1.0
      ],
      [
        "!We",
        -1.0
      ],
      [
        "!What",
        -1.0
      ],
      [
        "!When",
        -1.0
      ],
      [
        "!Why",
        -1.0
      ],
      [
        "!With",
        -1.0
      ],
      [
        "!Wrong",
        -1.0
      ],
      [
        "!You",
        -1.0
      ],
      [
        "![",
        -1.0
      ],
      [
        "![/",
        -1.0
      ],
      [
        "![](./",
        -1.0
      ],
      [
        "!\\",
        -1.0
      ],
      [
        "!].",
        -1.0
      ],
      [
        "!]Ċ",
        -1.0
      ],
      [
        "!^",
        -1.0
      ],
      [
        "!and",
        -1.0
      ],
      [
        "!important",
        -1.0
      ],
      [
        "!pip",
        -1.0
      ],
      [
        "!t",
        -1.0
      ],
      [
        "!|",
        -1.0
      ],
      [
        "!|Ċ",
        -1.0
      ],
      [
        "!}ĊĊ",
        -1.0
      ],
      [
        "!ÊŁÊŁoÊŁ",
        -1.0
      ],
      [
        "!âĢ¦",
        -1.0
      ],
      [
        "!âĢĵ",
        -1.0
      ],
      [
        "!âĢĶ",
        -1.0
      ],
      [
        "!âĢĻ",
        -1.0
      ],
      [
        "!âĢĿ",
        -1.0
      ],
      [
        "!âĢĿĊ",
        -1.0
      ],
      [
        "!ðŁĺ",
        -1.0
      ],
      [
        "!Ċ",
        -1.0
      ],
      [
        "!ĊĊ",
        -1.0
      ],
      [
        "!ĊĊĊĊ",
        -1.0
      ],
      [
        "\"!",
        -1.0
      ],
      [
        "\"!Ċ",
        -1.0
      ],
      [
        "\"!ĊĊ",
        -1.0
      ],
      [
        "\"\"",
        -1.0
      ],
      [
        "\"\"\"Ċ",
        -1.0
      ],
      [
        "\"\"\"ĊĊ",
        -1.0
      ],
      [
        "\"\":\"\"",
        -1.0
      ],
      [
        "\"\"><",
        -1.0
      ],
      [
        "\"\"},{\"\"",
        -1.0
      ],
      [
        "\"'",
        -1.0
      ],
      [
        "\"'<",
        -1.0
      ],
      [
        "\"(",
        -1.0
      ],
      [
        "\")",
        -1.0
      ],
      [
        "\"),",
        -1.0
      ],
      [
        "\"),Ċ",
        -1.0
      ],
      [
        "\").",
        -1.0
      ],
      [
        "\").[",
        -1.0
      ],
      [
        "\").Ċ",
        -1.0
      ],
      [
        "\").ĊĊ",
        -1.0
      ],
      [
        "\"):",
        -1.0
      ],
      [
        "\");",
        -1.0
      ],
      [
        "\");Ċ",
        -1.0
      ],
      [
        "\")?",
        -1.0
      ],
      [
        "\")[",
        -1.0
      ],
      [
        "\")Ċ",
        -1.0
      ],
      [
        "\")ĊĊ",
        -1.0
      ],
      [
        "\")čĊ",
        -1.0
      ],
      [
        "\",",
        -1.0
      ],
      [
        "\",\"",
        -1.0
      ],
      [
        "\",\"\\/\\/",
        -1.0
      ],
      [
        "\",'",
        -1.0
      ],
      [
        "\",[",
        -1.0
      ],
      [
        "\",Ċ",
        -1.0
      ],
      [
        "\",ĊĊ",
        -1.0
      ],
      [
        "\"-",
        -1.0
      ],
      [
        "\"--",
        -1.0
      ],
      [
        "\".",
        -1.0
      ],
      [
        "\".\"ĊĊ",
        -1.0
      ],
      [
        "\".)Ċ",
        -1.0
      ],
      [
        "\"...",
        -1.0
      ],
      [
        "\"....",
        -1.0
      ],
      [
        "\"...ĊĊ",
        -1.0
      ],
      [
        "\"..Ċ",
        -1.0
      ],
      [
        "\".[",
        -1.0
      ],
      [
        "\".Ċ",
        -1.0
      ],
      [
        "\".ĊĊ",
        -1.0
      ],
      [
        "\"/",
        -1.0
      ],
      [
        "\"/>ĊĊ",
        -1.0
      ],
      [
        "\":",
        -1.0
      ],
      [
        "\":\"",
        -1.0
      ],
      [
        "\":\"\",\"",
        -1.0
      ],
      [
        "\":\"#",
        -1.0
      ],
      [
        "\":\"(",
        -1.0
      ],
      [
        "\":\"------------------------------------------------------------------------------------------------\",\"",
        -1.0
      ],
      [
        "\":\".",
        -1.0
      ],
      [
        "\":\"/",
        -1.0
      ],
      [
        "\":\"\\/\\/",
        -1.0
      ],
      [
        "\":-",
        -1.0
      ],
      [
        "\":[\"",
        -1.0
      ],
      [
        "\":[],\"",
        -1.0
      ],
      [
        "\":[]},{\"",
        -1.0
      ],
      [
        "\":[]}],\"",
        -1.0
      ],
      [
        "\":[{\"",
        -1.0
      ],
      [
        "\":[{//",
        -1.0
      ],
      [
        "\":{\"",
        -1.0
      ],
      [
        "\":{\"__",
        -1.0
      ],
      [
        "\":{},\"",
        -1.0
      ],
      [
        "\":Ċ",
        -1.0
      ],
      [
        "\":ĊĊ",
        -1.0
      ],
      [
        "\":čĊ",
        -1.0
      ],
      [
        "\";",
        -1.0
      ],
      [
        "\";Ċ",
        -1.0
      ],
      [
        "\";ĊĊ",
        -1.0
      ],
      [
        "\"<|",
        -1.0
      ],
      [
        "\"=>",
        -1.0
      ],
      [
        "\">",
        -1.0
      ],
      [
        "\">$",
        -1.0
      ],
      [
        "\"><",
        -1.0
      ],
      [
        "\"></",
        -1.0
      ],
      [
        "\">>",
        -1.0
      ],
      [
        "\">Ċ",
        -1.0
      ],
      [
        "\">ĊĊ",
        -1.0
      ],
      [
        "\"?",
        -1.0
      ],
      [
        "\"?)",
        -1.0
      ],
      [
        "\"?Ċ",
        -1.0
      ],
      [
        "\"?ĊĊ",
        -1.0
      ],
      [
        "\"@",
        -1.0
      ],
      [
        "\"A",
        -1.0
      ],
      [
        "\"AI",
        -1.0
      ],
      [
        "\"About",
        -1.0
      ],
      [
        "\"Absolutely",
        -1.0
      ],
      [
        "\"Access",
        -1.0
      ],
      [
        "\"According",
        -1.0
      ],
      [
        "\"Across",
        -1.0
      ],
      [
        "\"Active",
        -1.0
      ],
      [
        "\"Actually",
        -1.0
      ],
      [
        "\"Adding",
        -1.0
      ],
      [
        "\"Additionally",
        -1.0
      ],
      [
        "\"Adult",
        -1.0
      ],
      [
        "\"Advanced",
        -1.0
      ],
      [
        "\"African",
        -1.0
      ],
      [
        "\"After",
        -1.0
      ],
      [
        "\"Again",
        -1.0
      ],
      [
        "\"Agriculture",
        -1.0
      ],
      [
        "\"Ah",
        -1.0
      ],
      [
        "\"Air",
        -1.0
      ],
      [
        "\"Alcohol",
        -1.0
      ],
      [
        "\"Alexa",
        -1.0
      ],
      [
        "\"All",
        -1.0
      ],
      [
        "\"Almost",
        -1.0
      ],
      [
        "\"Already",
        -1.0
      ],
      [
        "\"Alright",
        -1.0
      ],
      [
        "\"Also",
        -1.0
      ],
      [
        "\"Although",
        -1.0
      ],
      [
        "\"Always",
        -1.0
      ],
      [
        "\"Amazing",
        -1.0
      ],
      [
        "\"American",
        -1.0
      ],
      [
        "\"Among",
        -1.0
      ],
      [
        "\"An",
        -1.0
      ],
      [
        "\"And",
        -1.0
      ],
      [
        "\"Animals",
        -1.0
      ],
      [
        "\"Another",
        -1.0
      ],
      [
        "\"Any",
        -1.0
      ],
      [
        "\"Anyone",
        -1.0
      ],
      [
        "\"Anything",
        -1.0
      ],
      [
        "\"Apart",
        -1.0
      ],
      [
        "\"Apparently",
        -1.0
      ],
      [
        "\"Are",
        -1.0
      ],
      [
        "\"Around",
        -1.0
      ],
      [
        "\"As",
        -1.0
      ],
      [
        "\"Ask",
        -1.0
      ],
      [
        "\"Astounding",
        -1.0
      ],
      [
        "\"At",
        -1.0
      ],
      [
        "\"Audiomovers",
        -1.0
      ],
      [
        "\"Australia",
        -1.0
      ],
      [
        "\"Avoid",
        -1.0
      ],
      [
        "\"Baby",
        -1.0
      ],
      [
        "\"Back",
        -1.0
      ],
      [
        "\"Bacteria",
        -1.0
      ],
      [
        "\"Bar",
        -1.0
      ],
      [
        "\"Based",
        -1.0
      ],
      [
        "\"Basically",
        -1.0
      ],
      [
        "\"Bats",
        -1.0
      ],
      [
        "\"Because",
        -1.0
      ],
      [
        "\"Bees",
        -1.0
      ],
      [
        "\"Beethoven",
        -1.0
      ],
      [
        "\"Before",
        -1.0
      ],
      [
        "\"Behold",
        -1.0
      ],
      [
        "\"Being",
        -1.0
      ],
      [
        "\"Believe",
        -1.0
      ],
      [
        "\"Besides",
        -1.0
      ],
      [
        "\"Best",
        -1.0
      ],
      [
        "\"Betrayal",
        -1.0
      ],
      [
        "\"Better",
        -1.0
      ],
      [
        "\"Between",
        -1.0
      ],
      [
        "\"Beyond",
        -1.0
      ],
      [
        "\"Big",
        -1.0
      ],
      [
        "\"Bill",
        -1.0
      ],
      [
        "\"Birds",
        -1.0
      ],
      [
        "\"Black",
        -1.0
      ],
      [
        "\"BlogProject",
        -1.0
      ],
      [
        "\"Blood",
        -1.0
      ],
      [
        "\"Blue",
        -1.0
      ],
      [
        "\"Bob",
        -1.0
      ],
      [
        "\"Body",
        -1.0
      ],
      [
        "\"Bone",
        -1.0
      ],
      [
        "\"Both",
        -1.0
      ],
      [
        "\"Brain",
        -1.0
      ],
      [
        "\"Breast",
        -1.0
      ],
      [
        "\"Bringing",
        -1.0
      ],
      [
        "\"Brown",
        -1.0
      ],
      [
        "\"Building",
        -1.0
      ],
      [
        "\"But",
        -1.0
      ],
      [
        "\"Buy",
        -1.0
      ],
      [
        "\"By",
        -1.0
      ],
      [
        "\"C",
        -1.0
      ],
      [
        "\"COVID",
        -1.0
      ],
      [
        "\"California",
        -1.0
      ],
      [
        "\"Camp",
        -1.0
      ],
      [
        "\"Can",
        -1.0
      ],
      [
        "\"Captain",
        -1.0
      ],
      [
        "\"Carbon",
        -1.0
      ],
      [
        "\"Cats",
        -1.0
      ],
      [
        "\"Cells",
        -1.0
      ],
      [
        "\"Certainly",
        -1.0
      ],
      [
        "\"Change",
        -1.0
      ],
      [
        "\"Changing",
        -1.0
      ],
      [
        "\"Check",
        -1.0
      ],
      [
        "\"Children",
        -1.0
      ],
      [
        "\"China",
        -1.0
      ],
      [
        "\"Chinese",
        -1.0
      ],
      [
        "\"Choosing",
        -1.0
      ],
      [
        "\"Christian",
        -1.0
      ],
      [
        "\"Chronic",
        -1.0
      ],
      [
        "\"Cities",
        -1.0
      ],
      [
        "\"Clearly",
        -1.0
      ],
      [
        "\"Climate",
        -1.0
      ],
      [
        "\"Close",
        -1.0
      ],
      [
        "\"Cold",
        -1.0
      ],
      [
        "\"Collaboration",
        -1.0
      ],
      [
        "\"Collectively",
        -1.0
      ],
      [
        "\"Color",
        -1.0
      ],
      [
        "\"Combining",
        -1.0
      ],
      [
        "\"Come",
        -1.0
      ],
      [
        "\"Coming",
        -1.0
      ],
      [
        "\"Commercial",
        -1.0
      ],
      [
        "\"Common",
        -1.0
      ],
      [
        "\"Communication",
        -1.0
      ],
      [
        "\"Community",
        -1.0
      ],
      [
        "\"Companies",
        -1.0
      ],
      [
        "\"Compared",
        -1.0
      ],
      [
        "\"Computer",
        -1.0
      ],
      [
        "\"Congratulations",
        -1.0
      ],
      [
        "\"Conservation",
        -1.0
      ],
      [
        "\"Considering",
        -1.0
      ],
      [
        "\"Consumers",
        -1.0
      ],
      [
        "\"Contrary",
        -1.0
      ],
      [
        "\"Conventional",
        -1.0
      ],
      [
        "\"Cool",
        -1.0
      ],
      [
        "\"Coral",
        -1.0
      ],
      [
        "\"Corn",
        -1.0
      ],
      [
        "\"Could",
        -1.0
      ],
      [
        "\"Creating",
        -1.0
      ],
      [
        "\"Cross",
        -1.0
      ],
      [
        "\"Currently",
        -1.0
      ],
      [
        "\"Cutting",
        -1.0
      ],
      [
        "\"DNA",
        -1.0
      ],
      [
        "\"Dad",
        -1.0
      ],
      [
        "\"Dark",
        -1.0
      ],
      [
        "\"Darren",
        -1.0
      ],
      [
        "\"Darwin",
        -1.0
      ],
      [
        "\"Data",
        -1.0
      ],
      [
        "\"Dear",
        -1.0
      ],
      [
        "\"Deep",
        -1.0
      ],
      [
        "\"Depending",
        -1.0
      ],
      [
        "\"Depression",
        -1.0
      ],
      [
        "\"Designing",
        -1.0
      ],
      [
        "\"Despite",
        -1.0
      ],
      [
        "\"Developing",
        -1.0
      ],
      [
        "\"Development",
        -1.0
      ],
      [
        "\"Did",
        -1.0
      ],
      [
        "\"Different",
        -1.0
      ],
      [
        "\"Digital",
        -1.0
      ],
      [
        "\"Direct",
        -1.0
      ],
      [
        "\"Do",
        -1.0
      ],
      [
        "\"Does",
        -1.0
      ],
      [
        "\"Dogs",
        -1.0
      ],
      [
        "\"Doing",
        -1.0
      ],
      [
        "\"Don",
        -1.0
      ],
      [
        "\"Down",
        -1.0
      ],
      [
        "\"Dr",
        -1.0
      ],
      [
        "\"Due",
        -1.0
      ],
      [
        "\"During",
        -1.0
      ],
      [
        "\"EPA",
        -1.0
      ],
      [
        "\"Each",
        -1.0
      ],
      [
        "\"Earlier",
        -1.0
      ],
      [
        "\"Early",
        -1.0
      ],
      [
        "\"Earth",
        -1.0
      ],
      [
        "\"Easy",
        -1.0
      ],
      [
        "\"Eating",
        -1.0
      ],
      [
        "\"Education",
        -1.0
      ],
      [
        "\"Effective",
        -1.0
      ],
      [
        "\"Eighty",
        -1.0
      ],
      [
        "\"Either",
        -1.0
      ],
      [
        "\"Energy",
        -1.0
      ],
      [
        "\"Ensuring",
        -1.0
      ],
      [
        "\"Environmental",
        -1.0
      ],
      [
        "\"Especially",
        -1.0
      ],
      [
        "\"Essentially",
        -1.0
      ],
      [
        "\"Even",
        -1.0
      ],
      [
        "\"Eventually",
        -1.0
      ],
      [
        "\"Every",
        -1.0
      ],
      [
        "\"Everybody",
        -1.0
      ],
      [
        "\"Everyone",
        -1.0
      ],
      [
        "\"Everything",
        -1.0
      ],
      [
        "\"Evidence",
        -1.0
      ],
      [
        "\"Evolution",
        -1.0
      ],
      [
        "\"Exactly",
        -1.0
      ],
      [
        "\"Excellent",
        -1.0
      ],
      [
        "\"Exercise",
        -1.0
      ],
      [
        "\"Exposure",
        -1.0
      ],
      [
        "\"Eye",
        -1.0
      ],
      [
        "\"Failure",
        -1.0
      ],
      [
        "\"Fair",
        -1.0
      ],
      [
        "\"Family",
        -1.0
      ],
      [
        "\"Farmers",
        -1.0
      ],
      [
        "\"Fashion",
        -1.0
      ],
      [
        "\"Fast",
        -1.0
      ],
      [
        "\"Fat",
        -1.0
      ],
      [
        "\"Fear",
        -1.0
      ],
      [
        "\"Feed",
        -1.0
      ],
      [
        "\"Few",
        -1.0
      ],
      [
        "\"Field",
        -1.0
      ],
      [
        "\"Finally",
        -1.0
      ],
      [
        "\"Finding",
        -1.0
      ],
      [
        "\"Fine",
        -1.0
      ],
      [
        "\"Fire",
        -1.0
      ],
      [
        "\"First",
        -1.0
      ],
      [
        "\"Fish",
        -1.0
      ],
      [
        "\"Five",
        -1.0
      ],
      [
        "\"Flight",
        -1.0
      ],
      [
        "\"Flu",
        -1.0
      ],
      [
        "\"Following",
        -1.0
      ],
      [
        "\"Food",
        -1.0
      ],
      [
        "\"For",
        -1.0
      ],
      [
        "\"Fortunately",
        -1.0
      ],
      [
        "\"Four",
        -1.0
      ],
      [
        "\"Free",
        -1.0
      ],
      [
        "\"From",
        -1.0
      ],
      [
        "\"Fruit",
        -1.0
      ],
      [
        "\"Further",
        -1.0
      ],
      [
        "\"Future",
        -1.0
      ],
      [
        "\"Game",
        -1.0
      ],
      [
        "\"Generally",
        -1.0
      ],
      [
        "\"Genetic",
        -1.0
      ],
      [
        "\"Get",
        -1.0
      ],
      [
        "\"Girls",
        -1.0
      ],
      [
        "\"Given",
        -1.0
      ],
      [
        "\"Giving",
        -1.0
      ],
      [
        "\"Global",
        -1.0
      ],
      [
        "\"God",
        -1.0
      ],
      [
        "\"Going",
        -1.0
      ],
      [
        "\"Gold",
        -1.0
      ],
      [
        "\"Good",
        -1.0
      ],
      [
        "\"Google",
        -1.0
      ],
      [
        "\"Got",
        -1.0
      ],
      [
        "\"Government",
        -1.0
      ],
      [
        "\"Grand",
        -1.0
      ],
      [
        "\"Grass",
        -1.0
      ],
      [
        "\"Great",
        -1.0
      ],
      [
        "\"Green",
        -1.0
      ],
      [
        "\"Grill",
        -1.0
      ],
      [
        "\"Growers",
        -1.0
      ],
      [
        "\"Growing",
        -1.0
      ],
      [
        "\"Had",
        -1.0
      ],
      [
        "\"Half",
        -1.0
      ],
      [
        "\"Happiness",
        -1.0
      ],
      [
        "\"Happy",
        -1.0
      ],
      [
        "\"Hard",
        -1.0
      ],
      [
        "\"Has",
        -1.0
      ],
      [
        "\"Have",
        -1.0
      ],
      [
        "\"Having",
        -1.0
      ],
      [
        "\"He",
        -1.0
      ],
      [
        "\"Health",
        -1.0
      ],
      [
        "\"Hearing",
        -1.0
      ],
      [
        "\"Heart",
        -1.0
      ],
      [
        "\"Heat",
        -1.0
      ],
      [
        "\"Hello",
        -1.0
      ],
      [
        "\"Helping",
        -1.0
      ],
      [
        "\"Henry",
        -1.0
      ],
      [
        "\"Here",
        -1.0
      ],
      [
        "\"Hey",
        -1.0
      ],
      [
        "\"High",
        -1.0
      ],
      [
        "\"Historically",
        -1.0
      ],
      [
        "\"Hmm",
        -1.0
      ],
      [
        "\"Hold",
        -1.0
      ],
      [
        "\"Holy",
        -1.0
      ],
      [
        "\"Home",
        -1.0
      ],
      [
        "\"Honestly",
        -1.0
      ],
      [
        "\"Honey",
        -1.0
      ],
      [
        "\"Hopefully",
        -1.0
      ],
      [
        "\"Horses",
        -1.0
      ],
      [
        "\"Hot",
        -1.0
      ],
      [
        "\"How",
        -1.0
      ],
      [
        "\"However",
        -1.0
      ],
      [
        "\"Human",
        -1.0
      ],
      [
        "\"Hunting",
        -1.0
      ],
      [
        "\"Hydrogen",
        -1.0
      ],
      [
        "\"I",
        -1.0
      ],
      [
        "\"IF",
        -1.0
      ],
      [
        "\"Ice",
        -1.0
      ],
      [
        "\"Ideally",
        -1.0
      ],
      [
        "\"Identifying",
        -1.0
      ],
      [
        "\"If",
        -1.0
      ],
      [
        "\"Imagine",
        -1.0
      ],
      [
        "\"Importantly",
        -1.0
      ],
      [
        "\"Impossible",
        -1.0
      ],
      [
        "\"Improving",
        -1.0
      ],
      [
        "\"In",
        -1.0
      ],
      [
        "\"Increasing",
        -1.0
      ],
      [
        "\"Indeed",
        -1.0
      ],
      [
        "\"India",
        -1.0
      ],
      [
        "\"Individuals",
        -1.0
      ],
      [
        "\"Information",
        -1.0
      ],
      [
        "\"Initially",
        -1.0
      ],
      [
        "\"Insects",
        -1.0
      ],
      [
        "\"Inside",
        -1.0
      ],
      [
        "\"Instead",
        -1.0
      ],
      [
        "\"Interestingly",
        -1.0
      ],
      [
        "\"International",
        -1.0
      ],
      [
        "\"Investing",
        -1.0
      ],
      [
        "\"Is",
        -1.0
      ],
      [
        "\"It",
        -1.0
      ],
      [
        "\"Its",
        -1.0
      ],
      [
        "\"Jack",
        -1.0
      ],
      [
        "\"Jesus",
        -1.0
      ],
      [
        "\"John",
        -1.0
      ],
      [
        "\"Join",
        -1.0
      ],
      [
        "\"July",
        -1.0
      ],
      [
        "\"Just",
        -1.0
      ],
      [
        "\"Keep",
        -1.0
      ],
      [
        "\"Kids",
        -1.0
      ],
      [
        "\"Knowing",
        -1.0
      ],
      [
        "\"Knowledge",
        -1.0
      ],
      [
        "\"LGBT",
        -1.0
      ],
      [
        "\"Land",
        -1.0
      ],
      [
        "\"Language",
        -1.0
      ],
      [
        "\"Large",
        -1.0
      ],
      [
        "\"Last",
        -1.0
      ],
      [
        "\"Later",
        -1.0
      ],
      [
        "\"Leadership",
        -1.0
      ],
      [
        "\"Learning",
        -1.0
      ],
      [
        "\"Leave",
        -1.0
      ],
      [
        "\"Less",
        -1.0
      ],
      [
        "\"Let",
        -1.0
      ],
      [
        "\"Life",
        -1.0
      ],
      [
        "\"Light",
        -1.0
      ],
      [
        "\"Like",
        -1.0
      ],
      [
        "\"Listen",
        -1.0
      ],
      [
        "\"Little",
        -1.0
      ],
      [
        "\"Live",
        -1.0
      ],
      [
        "\"Living",
        -1.0
      ],
      [
        "\"Local",
        -1.0
      ],
      [
        "\"Long",
        -1.0
      ],
      [
        "\"Look",
        -1.0
      ],
      [
        "\"Looking",
        -1.0
      ],
      [
        "\"Losing",
        -1.0
      ],
      [
        "\"Lots",
        -1.0
      ],
      [
        "\"Love",
        -1.0
      ],
      [
        "\"Low",
        -1.0
      ],
      [
        "\"Luckily",
        -1.0
      ],
      [
        "\"Major",
        -1.0
      ],
      [
        "\"Make",
        -1.0
      ],
      [
        "\"Making",
        -1.0
      ],
      [
        "\"Many",
        -1.0
      ],
      [
        "\"Master",
        -1.0
      ],
      [
        "\"Maybe",
        -1.0
      ],
      [
        "\"Meat",
        -1.0
      ],
      [
        "\"Medical",
        -1.0
      ],
      [
        "\"Men",
        -1.0
      ],
      [
        "\"Milk",
        -1.0
      ],
      [
        "\"Millions",
        -1.0
      ],
      [
        "\"Mindfulness",
        -1.0
      ],
      [
        "\"Modern",
        -1.0
      ],
      [
        "\"Mom",
        -1.0
      ],
      [
        "\"More",
        -1.0
      ],
      [
        "\"Most",
        -1.0
      ],
      [
        "\"Mother",
        -1.0
      ],
      [
        "\"Moving",
        -1.0
      ],
      [
        "\"Mr",
        -1.0
      ],
      [
        "\"Ms",
        -1.0
      ],
      [
        "\"Much",
        -1.0
      ],
      [
        "\"Multiple",
        -1.0
      ],
      [
        "\"Music",
        -1.0
      ],
      [
        "\"My",
        -1.0
      ],
      [
        "\"NASA",
        -1.0
      ],
      [
        "\"Nanotechnology",
        -1.0
      ],
      [
        "\"National",
        -1.0
      ],
      [
        "\"Native",
        -1.0
      ],
      [
        "\"Natural",
        -1.0
      ],
      [
        "\"Nature",
        -1.0
      ],
      [
        "\"Nearly",
        -1.0
      ],
      [
        "\"Neither",
        -1.0
      ],
      [
        "\"Neuro",
        -1.0
      ],
      [
        "\"Never",
        -1.0
      ],
      [
        "\"New",
        -1.0
      ],
      [
        "\"Next",
        -1.0
      ],
      [
        "\"Nice",
        -1.0
      ],
      [
        "\"Nine",
        -1.0
      ],
      [
        "\"No",
        -1.0
      ],
      [
        "\"Nobody",
        -1.0
      ],
      [
        "\"None",
        -1.0
      ],
      [
        "\"Nope",
        -1.0
      ],
      [
        "\"Normally",
        -1.0
      ],
      [
        "\"North",
        -1.0
      ],
      [
        "\"Not",
        -1.0
      ],
      [
        "\"Nothing",
        -1.0
      ],
      [
        "\"Now",
        -1.0
      ],
      [
        "\"Nowadays",
        -1.0
      ],
      [
        "\"Nurses",
        -1.0
      ],
      [
        "\"OC",
        -1.0
      ],
      [
        "\"OK",
        -1.0
      ],
      [
        "\"Obesity",
        -1.0
      ],
      [
        "\"Observing",
        -1.0
      ],
      [
        "\"Obviously",
        -1.0
      ],
      [
        "\"Ocean",
        -1.0
      ],
      [
        "\"Of",
        -1.0
      ],
      [
        "\"Often",
        -1.0
      ],
      [
        "\"Oh",
        -1.0
      ],
      [
        "\"Oil",
        -1.0
      ],
      [
        "\"Okay",
        -1.0
      ],
      [
        "\"Old",
        -1.0
      ],
      [
        "\"On",
        -1.0
      ],
      [
        "\"Once",
        -1.0
      ],
      [
        "\"One",
        -1.0
      ],
      [
        "\"Only",
        -1.0
      ],
      [
        "\"Open",
        -1.0
      ],
      [
        "\"Organic",
        -1.0
      ],
      [
        "\"Originally",
        -1.0
      ],
      [
        "\"Other",
        -1.0
      ],
      [
        "\"Otolaryngology",
        -1.0
      ],
      [
        "\"Ouch",
        -1.0
      ],
      [
        "\"Our",
        -1.0
      ],
      [
        "\"Out",
        -1.0
      ],
      [
        "\"Over",
        -1.0
      ],
      [
        "\"Overall",
        -1.0
      ],
      [
        "\"Parents",
        -1.0
      ],
      [
        "\"Part",
        -1.0
      ],
      [
        "\"Past",
        -1.0
      ],
      [
        "\"Path",
        -1.0
      ],
      [
        "\"Patients",
        -1.0
      ],
      [
        "\"People",
        -1.0
      ],
      [
        "\"Perfect",
        -1.0
      ],
      [
        "\"Perhaps",
        -1.0
      ],
      [
        "\"Personally",
        -1.0
      ],
      [
        "\"Pet",
        -1.0
      ],
      [
        "\"Photography",
        -1.0
      ],
      [
        "\"Physical",
        -1.0
      ],
      [
        "\"Plants",
        -1.0
      ],
      [
        "\"Plastic",
        -1.0
      ],
      [
        "\"Play",
        -1.0
      ],
      [
        "\"Please",
        -1.0
      ],
      [
        "\"Poor",
        -1.0
      ],
      [
        "\"Positive",
        -1.0
      ],
      [
        "\"Power",
        -1.0
      ],
      [
        "\"Practice",
        -1.0
      ],
      [
        "\"Pretty",
        -1.0
      ],
      [
        "\"Preventing",
        -1.0
      ],
      [
        "\"Previous",
        -1.0
      ],
      [
        "\"Prior",
        -1.0
      ],
      [
        "\"Probably",
        -1.0
      ],
      [
        "\"Professor",
        -1.0
      ],
      [
        "\"Proper",
        -1.0
      ],
      [
        "\"Protecting",
        -1.0
      ],
      [
        "\"Providing",
        -1.0
      ],
      [
        "\"Public",
        -1.0
      ],
      [
        "\"Put",
        -1.0
      ],
      [
        "\"Quantum",
        -1.0
      ],
      [
        "\"Quite",
        -1.0
      ],
      [
        "\"Rain",
        -1.0
      ],
      [
        "\"Rates",
        -1.0
      ],
      [
        "\"Rather",
        -1.0
      ],
      [
        "\"Reading",
        -1.0
      ],
      [
        "\"Really",
        -1.0
      ],
      [
        "\"Recent",
        -1.0
      ],
      [
        "\"Reducing",
        -1.0
      ],
      [
        "\"Regardless",
        -1.0
      ],
      [
        "\"Regular",
        -1.0
      ],
      [
        "\"Remarkably",
        -1.0
      ],
      [
        "\"Remember",
        -1.0
      ],
      [
        "\"Renewable",
        -1.0
      ],
      [
        "\"Requirement",
        -1.0
      ],
      [
        "\"Research",
        -1.0
      ],
      [
        "\"Results",
        -1.0
      ],
      [
        "\"Right",
        -1.0
      ],
      [
        "\"Roads",
        -1.0
      ],
      [
        "\"Robots",
        -1.0
      ],
      [
        "\"Running",
        -1.0
      ],
      [
        "\"S",
        -1.0
      ],
      [
        "\"Sadly",
        -1.0
      ],
      [
        "\"Safety",
        -1.0
      ],
      [
        "\"Salt",
        -1.0
      ],
      [
        "\"Saving",
        -1.0
      ],
      [
        "\"Say",
        -1.0
      ],
      [
        "\"School",
        -1.0
      ],
      [
        "\"Science",
        -1.0
      ],
      [
        "\"Scientific",
        -1.0
      ],
      [
        "\"Scientists",
        -1.0
      ],
      [
        "\"Sea",
        -1.0
      ],
      [
        "\"Second",
        -1.0
      ],
      [
        "\"Seeing",
        -1.0
      ],
      [
        "\"Self",
        -1.0
      ],
      [
        "\"Set",
        -1.0
      ],
      [
        "\"Seventy",
        -1.0
      ],
      [
        "\"Several",
        -1.0
      ],
      [
        "\"Severe",
        -1.0
      ],
      [
        "\"Sex",
        -1.0
      ],
      [
        "\"She",
        -1.0
      ],
      [
        "\"Short",
        -1.0
      ],
      [
        "\"Should",
        -1.0
      ],
      [
        "\"Show",
        -1.0
      ],
      [
        "\"Similar",
        -1.0
      ],
      [
        "\"Simple",
        -1.0
      ],
      [
        "\"Simply",
        -1.0
      ],
      [
        "\"Since",
        -1.0
      ],
      [
        "\"Sinopsis",
        -1.0
      ],
      [
        "\"Sky",
        -1.0
      ],
      [
        "\"Sleep",
        -1.0
      ],
      [
        "\"Slow",
        -1.0
      ],
      [
        "\"Small",
        -1.0
      ],
      [
        "\"Smart",
        -1.0
      ],
      [
        "\"Smoking",
        -1.0
      ],
      [
        "\"Snow",
        -1.0
      ],
      [
        "\"So",
        -1.0
      ],
      [
        "\"Social",
        -1.0
      ],
      [
        "\"Soft",
        -1.0
      ],
      [
        "\"Soil",
        -1.0
      ],
      [
        "\"Solar",
        -1.0
      ],
      [
        "\"Some",
        -1.0
      ],
      [
        "\"Someone",
        -1.0
      ],
      [
        "\"Something",
        -1.0
      ],
      [
        "\"Sometimes",
        -1.0
      ],
      [
        "\"Sorry",
        -1.0
      ],
      [
        "\"Sounds",
        -1.0
      ],
      [
        "\"South",
        -1.0
      ],
      [
        "\"Space",
        -1.0
      ],
      [
        "\"Species",
        -1.0
      ],
      [
        "\"Specifically",
        -1.0
      ],
      [
        "\"Spring",
        -1.0
      ],
      [
        "\"Start",
        -1.0
      ],
      [
        "\"State",
        -1.0
      ],
      [
        "\"Stay",
        -1.0
      ],
      [
        "\"Steak",
        -1.0
      ],
      [
        "\"Stem",
        -1.0
      ],
      [
        "\"Still",
        -1.0
      ],
      [
        "\"Stop",
        -1.0
      ],
      [
        "\"Stress",
        -1.0
      ],
      [
        "\"Strong",
        -1.0
      ],
      [
        "\"Students",
        -1.0
      ],
      [
        "\"Studies",
        -1.0
      ],
      [
        "\"Studying",
        -1.0
      ],
      [
        "\"Success",
        -1.0
      ],
      [
        "\"Such",
        -1.0
      ],
      [
        "\"Sugar",
        -1.0
      ],
      [
        "\"Summer",
        -1.0
      ],
      [
        "\"Sure",
        -1.0
      ],
      [
        "\"Surprisingly",
        -1.0
      ],
      [
        "\"Sustainability",
        -1.0
      ],
      [
        "\"Sustainable",
        -1.0
      ],
      [
        "\"THE",
        -1.0
      ],
      [
        "\"Take",
        -1.0
      ],
      [
        "\"Taking",
        -1.0
      ],
      [
        "\"Teachers",
        -1.0
      ],
      [
        "\"Teaching",
        -1.0
      ],
      [
        "\"Technology",
        -1.0
      ],
      [
        "\"Tell",
        -1.0
      ],
      [
        "\"Thank",
        -1.0
      ],
      [
        "\"Thanks",
        -1.0
      ],
      [
        "\"That",
        -1.0
      ],
      [
        "\"The",
        -1.0
      ],
      [
        "\"Their",
        -1.0
      ],
      [
        "\"Then",
        -1.0
      ],
      [
        "\"There",
        -1.0
      ],
      [
        "\"Therefore",
        -1.0
      ],
      [
        "\"These",
        -1.0
      ],
      [
        "\"They",
        -1.0
      ],
      [
        "\"Things",
        -1.0
      ],
      [
        "\"Think",
        -1.0
      ],
      [
        "\"This",
        -1.0
      ],
      [
        "\"Those",
        -1.0
      ],
      [
        "\"Though",
        -1.0
      ],
      [
        "\"Thousands",
        -1.0
      ],
      [
        "\"Three",
        -1.0
      ],
      [
        "\"Through",
        -1.0
      ],
      [
        "\"Thus",
        -1.0
      ],
      [
        "\"Time",
        -1.0
      ],
      [
        "\"To",
        -1.0
      ],
      [
        "\"Today",
        -1.0
      ],
      [
        "\"Together",
        -1.0
      ],
      [
        "\"Too",
        -1.0
      ],
      [
        "\"Traditionally",
        -1.0
      ],
      [
        "\"Training",
        -1.0
      ],
      [
        "\"Treatment",
        -1.0
      ],
      [
        "\"Trees",
        -1.0
      ],
      [
        "\"True",
        -1.0
      ],
      [
        "\"Trust",
        -1.0
      ],
      [
        "\"Try",
        -1.0
      ],
      [
        "\"Turn",
        -1.0
      ],
      [
        "\"Twenty",
        -1.0
      ],
      [
        "\"Twi",
        -1.0
      ],
      [
        "\"Two",
        -1.0
      ],
      [
        "\"Typically",
        -1.0
      ],
      [
        "\"Uh",
        -1.0
      ],
      [
        "\"Ultimately",
        -1.0
      ],
      [
        "\"Um",
        -1.0
      ],
      [
        "\"Understanding",
        -1.0
      ],
      [
        "\"Unfortunately",
        -1.0
      ],
      [
        "\"Unity",
        -1.0
      ],
      [
        "\"Unless",
        -1.0
      ],
      [
        "\"Unlike",
        -1.0
      ],
      [
        "\"Until",
        -1.0
      ],
      [
        "\"Up",
        -1.0
      ],
      [
        "\"Urban",
        -1.0
      ],
      [
        "\"Usain",
        -1.0
      ],
      [
        "\"Use",
        -1.0
      ],
      [
        "\"Using",
        -1.0
      ],
      [
        "\"Usually",
        -1.0
      ],
      [
        "\"Very",
        -1.0
      ],
      [
        "\"Virtual",
        -1.0
      ],
      [
        "\"Vitamin",
        -1.0
      ],
      [
        "\"WHAT",
        -1.0
      ],
      [
        "\"Wait",
        -1.0
      ],
      [
        "\"Walking",
        -1.0
      ],
      [
        "\"War",
        -1.0
      ],
      [
        "\"Waste",
        -1.0
      ],
      [
        "\"Water",
        -1.0
      ],
      [
        "\"We",
        -1.0
      ],
      [
        "\"Weather",
        -1.0
      ],
      [
        "\"Welcome",
        -1.0
      ],
      [
        "\"Well",
        -1.0
      ],
      [
        "\"Were",
        -1.0
      ],
      [
        "\"What",
        -1.0
      ],
      [
        "\"Whatever",
        -1.0
      ],
      [
        "\"When",
        -1.0
      ],
      [
        "\"Whenever",
        -1.0
      ],
      [
        "\"Where",
        -1.0
      ],
      [
        "\"Whether",
        -1.0
      ],
      [
        "\"Which",
        -1.0
      ],
      [
        "\"While",
        -1.0
      ],
      [
        "\"Whilst",
        -1.0
      ],
      [
        "\"White",
        -1.0
      ],
      [
        "\"Who",
        -1.0
      ],
      [
        "\"Why",
        -1.0
      ],
      [
        "\"Wild",
        -1.0
      ],
      [
        "\"Will",
        -1.0
      ],
      [
        "\"Winter",
        -1.0
      ],
      [
        "\"With",
        -1.0
      ],
      [
        "\"Within",
        -1.0
      ],
      [
        "\"Without",
        -1.0
      ],
      [
        "\"Women",
        -1.0
      ],
      [
        "\"Working",
        -1.0
      ],
      [
        "\"World",
        -1.0
      ],
      [
        "\"Would",
        -1.0
      ],
      [
        "\"Wow",
        -1.0
      ],
      [
        "\"X",
        -1.0
      ],
      [
        "\"YOU",
        -1.0
      ],
      [
        "\"Yeah",
        -1.0
      ],
      [
        "\"Yes",
        -1.0
      ],
      [
        "\"Yet",
        -1.0
      ],
      [
        "\"You",
        -1.0
      ],
      [
        "\"Young",
        -1.0
      ],
      [
        "\"Your",
        -1.0
      ],
      [
        "\"Youth",
        -1.0
      ],
      [
        "\"[",
        -1.0
      ],
      [
        "\"]",
        -1.0
      ],
      [
        "\"],\"",
        -1.0
      ],
      [
        "\"].",
        -1.0
      ],
      [
        "\"]=>Ċ",
        -1.0
      ],
      [
        "\"][",
        -1.0
      ],
      [
        "\"][\"",
        -1.0
      ],
      [
        "\"]Ċ",
        -1.0
      ],
      [
        "\"]ĊĊ",
        -1.0
      ],
      [
        "\"^@",
        -1.0
      ],
      [
        "\"`",
        -1.0
      ],
      [
        "\"and",
        -1.0
      ],
      [
        "\"but",
        -1.0
      ],
      [
        "\"by",
        -1.0
      ],
      [
        "\"can",
        -1.0
      ],
      [
        "\"description",
        -1.0
      ],
      [
        "\"field",
        -1.0
      ],
      [
        "\"for",
        -1.0
      ],
      [
        "\"good",
        -1.0
      ],
      [
        "\"how",
        -1.0
      ],
      [
        "\"href",
        -1.0
      ],
      [
        "\"if",
        -1.0
      ],
      [
        "\"in",
        -1.0
      ],
      [
        "\"is",
        -1.0
      ],
      [
        "\"it",
        -1.0
      ],
      [
        "\"just",
        -1.0
      ],
      [
        "\"life",
        -1.0
      ],
      [
        "\"ll",
        -1.0
      ],
      [
        "\"mainEntity",
        -1.0
      ],
      [
        "\"name",
        -1.0
      ],
      [
        "\"of",
        -1.0
      ],
      [
        "\"on",
        -1.0
      ],
      [
        "\"or",
        -1.0
      ],
      [
        "\"page",
        -1.0
      ],
      [
        "\"photography",
        -1.0
      ],
      [
        "\"pretty",
        -1.0
      ],
      [
        "\"processors",
        -1.0
      ],
      [
        "\"re",
        -1.0
      ],
      [
        "\"s",
        -1.0
      ],
      [
        "\"set",
        -1.0
      ],
      [
        "\"synopsis",
        -1.0
      ],
      [
        "\"t",
        -1.0
      ],
      [
        "\"text",
        -1.0
      ],
      [
        "\"that",
        -1.0
      ],
      [
        "\"the",
        -1.0
      ],
      [
        "\"this",
        -1.0
      ],
      [
        "\"to",
        -1.0
      ],
      [
        "\"un",
        -1.0
      ],
      [
        "\"value",
        -1.0
      ],
      [
        "\"ve",
        -1.0
      ],
      [
        "\"we",
        -1.0
      ],
      [
        "\"what",
        -1.0
      ],
      [
        "\"where",
        -1.0
      ],
      [
        "\"which",
        -1.0
      ],
      [
        "\"why",
        -1.0
      ],
      [
        "\"with",
        -1.0
      ],
      [
        "\"x",
        -1.0
      ],
      [
        "\"you",
        -1.0
      ],
      [
        "\"||",
        -1.0
      ],
      [
        "\"|Ċ",
        -1.0
      ],
      [
        "\"},\"",
        -1.0
      ],
      [
        "\"},{\"",
        -1.0
      ],
      [
        "\"}],\"",
        -1.0
      ],
      [
        "\"}]}",
        -1.0
      ],
      [
        "\"}ĊĊ",
        -1.0
      ],
      [
        "\"ÂĿ",
        -1.0
      ],
      [
        "\"âĢ¦",
        -1.0
      ],
      [
        "\"âĢ¦ĊĊ",
        -1.0
      ],
      [
        "\"âĢĵ",
        -1.0
      ],
      [
        "\"âĢĶ",
        -1.0
      ],
      [
        "\"âĨĴĊ",
        -1.0
      ],
      [
        "\"Ċ",
        -1.0
      ],
      [
        "\"ĊĊ",
        -1.0
      ],
      [
        "#!/",
        -1.0
      ],
      [
        "##",
        -1.0
      ],
      [
        "###",
        -1.0
      ],
      [
        "####",
        -1.0
      ],
      [
        "####^~^~^~^~^~^####",
        -1.0
      ],
      [
        "###ĊĊ",
        -1.0
      ],
      [
        "##ĊĊ",
        -1.0
      ],
      [
        "#*",
        -1.0
      ],
      [
        "#+ĊĊ",
        -1.0
      ],
      [
        "#,",
        -1.0
      ],
      [
        "#---------------------------------------------------------------------------Ċ",
        -1.0
      ],
      [
        "#.",
        -1.0
      ],
      [
        "#/",
        -1.0
      ],
      [
        "#?",
        -1.0
      ],
      [
        "#BadhtechaloBadhtechalo",
        -1.0
      ],
      [
        "#FieldWorkFail",
        -1.0
      ],
      [
        "#NoSpam",
        -1.0
      ],
      [
        "#SayNOtoPESTICIDES",
        -1.0
      ],
      [
        "#The",
        -1.0
      ],
      [
        "#WorldPangolinDay",
        -1.0
      ],
      [
        "#[",
        -1.0
      ],
      [
        "#ad",
        -1.0
      ],
      [
        "#backtracking",
        -1.0
      ],
      [
        "#bcb",
        -1.0
      ],
      [
        "#britishsuper",
        -1.0
      ],
      [
        "#cats",
        -1.0
      ],
      [
        "#cattreats",
        -1.0
      ],
      [
        "#comment",
        -1.0
      ],
      [
        "#define",
        -1.0
      ],
      [
        "#delightibles",
        -1.0
      ],
      [
        "#food",
        -1.0
      ],
      [
        "#get",
        -1.0
      ],
      [
        "#hiit",
        -1.0
      ],
      [
        "#hiking",
        -1.0
      ],
      [
        "#import",
        -1.0
      ],
      [
        "#include",
        -1.0
      ],
      [
        "#insta",
        -1.0
      ],
      [
        "#ixzz",
        -1.0
      ],
      [
        "#jointheconversation",
        -1.0
      ],
      [
        "#lint",
        -1.0
      ],
      [
        "#lookdeeperschoolkit",
        -1.0
      ],
      [
        "#love",
        -1.0
      ],
      [
        "#msg",
        -1.0
      ],
      [
        "#nature",
        -1.0
      ],
      [
        "#pragma",
        -1.0
      ],
      [
        "#print",
        -1.0
      ],
      [
        "#supplementary",
        -1.0
      ],
      [
        "#tumbledleather",
        -1.0
      ],
      [
        "#wildlife",
        -1.0
      ],
      [
        "#~~#~~#~~#~~~#~~~#",
        -1.0
      ],
      [
        "#âĢİ",
        -1.0
      ],
      [
        "#Ċ",
        -1.0
      ],
      [
        "$\"",
        -1.0
      ],
      [
        "$$",
        -1.0
      ],
      [
        "$$\\",
        -1.0
      ],
      [
        "$$Ċ",
        -1.0
      ],
      [
        "$$ĊĊ",
        -1.0
      ],
      [
        "$(",
        -1.0
      ],
      [
        "$)",
        -1.0
      ],
      [
        "$),",
        -1.0
      ],
      [
        "$,",
        -1.0
      ],
      [
        "$,Ċ",
        -1.0
      ],
      [
        "$-",
        -1.0
      ],
      [
        "$.",
        -1.0
      ],
      [
        "$.$\\",
        -1.0
      ],
      [
        "$.Ċ",
        -1.0
      ],
      [
        "$.ĊĊ",
        -1.0
      ],
      [
        "$:ĊĊ",
        -1.0
      ],
      [
        "$;",
        -1.0
      ],
      [
        "$?",
        -1.0
      ],
      [
        "$@",
        -1.0
      ],
      [
        "$AP",
        -1.0
      ],
      [
        "$And",
        -1.0
      ],
      [
        "$As",
        -1.0
      ],
      [
        "$But",
        -1.0
      ],
      [
        "$Hi",
        -1.0
      ],
      [
        "$I",
        -1.0
      ],
      [
        "$If",
        -1.0
      ],
      [
        "$It",
        -1.0
      ],
      [
        "$Thanks",
        -1.0
      ],
      [
        "$That",
        -1.0
      ],
      [
        "$The",
        -1.0
      ],
      [
        "$This",
        -1.0
      ],
      [
        "$Well",
        -1.0
      ],
      [
        "$What",
        -1.0
      ],
      [
        "$X",
        -1.0
      ],
      [
        "$Yes",
        -1.0
      ],
      [
        "$You",
        -1.0
      ],
      [
        "$\\",
        -1.0
      ],
      [
        "$^{-",
        -1.0
      ],
      [
        "$cfg",
        -1.0
      ],
      [
        "$define",
        -1.0
      ],
      [
        "$ect",
        -1.0
      ],
      [
        "$git",
        -1.0
      ],
      [
        "$ha",
        -1.0
      ],
      [
        "$i",
        -1.0
      ],
      [
        "$latex",
        -1.0
      ],
      [
        "$n",
        -1.0
      ],
      [
        "$standard",
        -1.0
      ],
      [
        "$stmt",
        -1.0
      ],
      [
        "$this",
        -1.0
      ],
      [
        "$type",
        -1.0
      ],
      [
        "$v",
        -1.0
      ],
      [
        "$x",
        -1.0
      ],
      [
        "$y",
        -1.0
      ],
      [
        "$Ċ",
        -1.0
      ],
      [
        "$ĊĊ",
        -1.0
      ],
      [
        "%!",
        -1.0
      ],
      [
        "%\"",
        -1.0
      ],
      [
        "%(",
        -1.0
      ],
      [
        "%)",
        -1.0
      ],
      [
        "%)+",
        -1.0
      ],
      [
        "%),",
        -1.0
      ],
      [
        "%).",
        -1.0
      ],
      [
        "%).Ċ",
        -1.0
      ],
      [
        "%).ĊĊ",
        -1.0
      ],
      [
        "%):",
        -1.0
      ],
      [
        "%);",
        -1.0
      ],
      [
        "%)||",
        -1.0
      ],
      [
        "%)|Ċ",
        -1.0
      ],
      [
        "%)Ċ",
        -1.0
      ],
      [
        "%)ĊĊ",
        -1.0
      ],
      [
        "%+",
        -1.0
      ],
      [
        "%,",
        -1.0
      ],
      [
        "%,\"",
        -1.0
      ],
      [
        "%,Ċ",
        -1.0
      ],
      [
        "%-",
        -1.0
      ],
      [
        "%.",
        -1.0
      ],
      [
        "%.\"ĊĊ",
        -1.0
      ],
      [
        "%...",
        -1.0
      ],
      [
        "%.[",
        -1.0
      ],
      [
        "%.Ċ",
        -1.0
      ],
      [
        "%.ĊĊ",
        -1.0
      ],
      [
        "%/",
        -1.0
      ],
      [
        "%:",
        -1.0
      ],
      [
        "%;",
        -1.0
      ],
      [
        "%;Ċ",
        -1.0
      ],
      [
        "%<",
        -1.0
      ],
      [
        "%=",
        -1.0
      ],
      [
        "%?",
        -1.0
      ],
      [
        "%?ĊĊ",
        -1.0
      ],
      [
        "%A",
        -1.0
      ],
      [
        "%B",
        -1.0
      ],
      [
        "%CE",
        -1.0
      ],
      [
        "%CI",
        -1.0
      ],
      [
        "%D",
        -1.0
      ],
      [
        "%E",
        -1.0
      ],
      [
        "%K",
        -1.0
      ],
      [
        "%Max",
        -1.0
      ],
      [
        "%RH",
        -1.0
      ],
      [
        "%U",
        -1.0
      ],
      [
        "%What",
        -1.0
      ],
      [
        "%X",
        -1.0
      ],
      [
        "%[",
        -1.0
      ],
      [
        "%\\",
        -1.0
      ],
      [
        "%]",
        -1.0
      ],
      [
        "%d",
        -1.0
      ],
      [
        "%max",
        -1.0
      ],
      [
        "%min",
        -1.0
      ],
      [
        "%of",
        -1.0
      ],
      [
        "%u",
        -1.0
      ],
      [
        "%||",
        -1.0
      ],
      [
        "%|Ċ",
        -1.0
      ],
      [
        "%~",
        -1.0
      ],
      [
        "%Â±",
        -1.0
      ],
      [
        "%âĢ¦",
        -1.0
      ],
      [
        "%âĢĵ",
        -1.0
      ],
      [
        "%âĢĶ",
        -1.0
      ],
      [
        "%ãĢģ",
        -1.0
      ],
      [
        "%Ċ",
        -1.0
      ],
      [
        "%ĊĊ",
        -1.0
      ],
      [
        "&#",
        -1.0
      ],
      [
        "&&",
        -1.0
      ],
      [
        "&A",
        -1.0
      ],
      [
        "&As",
        -1.0
      ],
      [
        "&B",
        -1.0
      ],
      [
        "&Bs",
        -1.0
      ],
      [
        "&C",
        -1.0
      ],
      [
        "&Cs",
        -1.0
      ],
      [
        "&D",
        -1.0
      ],
      [
        "&E",
        -1.0
      ],
      [
        "&EN",
        -1.0
      ],
      [
        "&F",
        -1.0
      ],
      [
        "&G",
        -1.0
      ],
      [
        "&H",
        -1.0
      ],
      [
        "&I",
        -1.0
      ],
      [
        "&ID",
        -1.0
      ],
      [
        "&J",
        -1.0
      ],
      [
        "&K",
        -1.0
      ],
      [
        "&L",
        -1.0
      ],
      [
        "&M",
        -1.0
      ],
      [
        "&Me",
        -1.0
      ],
      [
        "&Ms",
        -1.0
      ],
      [
        "&N",
        -1.0
      ],
      [
        "&O",
        -1.0
      ],
      [
        "&P",
        -1.0
      ],
      [
        "&Q",
        -1.0
      ],
      [
        "&R",
        -1.0
      ],
      [
        "&RTN",
        -1.0
      ],
      [
        "&S",
        -1.0
      ],
      [
        "&T",
        -1.0
      ],
      [
        "&TC",
        -1.0
      ],
      [
        "&V",
        -1.0
      ],
      [
        "&W",
        -1.0
      ],
      [
        "&Write",
        -1.0
      ],
      [
        "&X",
        -1.0
      ],
      [
        "&Y",
        -1.0
      ],
      [
        "&_",
        -1.0
      ],
      [
        "&acutes",
        -1.0
      ],
      [
        "&amp",
        -1.0
      ],
      [
        "&apos",
        -1.0
      ],
      [
        "&auml",
        -1.0
      ],
      [
        "&b",
        -1.0
      ],
      [
        "&eacute",
        -1.0
      ],
      [
        "&emsp",
        -1.0
      ],
      [
        "&ensp",
        -1.0
      ],
      [
        "&gt",
        -1.0
      ],
      [
        "&hellip",
        -1.0
      ],
      [
        "&id",
        -1.0
      ],
      [
        "&j",
        -1.0
      ],
      [
        "&lsqb",
        -1.0
      ],
      [
        "&lt",
        -1.0
      ],
      [
        "&mdash",
        -1.0
      ],
      [
        "&middot",
        -1.0
      ],
      [
        "&mm",
        -1.0
      ],
      [
        "&nbsp",
        -1.0
      ],
      [
        "&oldid",
        -1.0
      ],
      [
        "&pagesize",
        -1.0
      ],
      [
        "&quot",
        -1.0
      ],
      [
        "&rdquo",
        -1.0
      ],
      [
        "&reg",
        -1.0
      ],
      [
        "&rsqb",
        -1.0
      ],
      [
        "&rsquo",
        -1.0
      ],
      [
        "&rsquos",
        -1.0
      ],
      [
        "&shy",
        -1.0
      ],
      [
        "&utm",
        -1.0
      ],
      [
        "&y",
        -1.0
      ],
      [
        "'!",
        -1.0
      ],
      [
        "'!ĊĊ",
        -1.0
      ],
      [
        "'\"",
        -1.0
      ],
      [
        "'\"'\"'",
        -1.0
      ],
      [
        "'\",",
        -1.0
      ],
      [
        "'\".",
        -1.0
      ],
      [
        "'$",
        -1.0
      ],
      [
        "''",
        -1.0
      ],
      [
        "'''",
        -1.0
      ],
      [
        "''':",
        -1.0
      ],
      [
        "'''</",
        -1.0
      ],
      [
        "'''ĊĊ",
        -1.0
      ],
      [
        "''(",
        -1.0
      ],
      [
        "'')",
        -1.0
      ],
      [
        "'',",
        -1.0
      ],
      [
        "''.",
        -1.0
      ],
      [
        "''.ĊĊ",
        -1.0
      ],
      [
        "''?",
        -1.0
      ],
      [
        "'(",
        -1.0
      ],
      [
        "')",
        -1.0
      ],
      [
        "')#",
        -1.0
      ],
      [
        "'))Ċ",
        -1.0
      ],
      [
        "'),",
        -1.0
      ],
      [
        "').",
        -1.0
      ],
      [
        "').Ċ",
        -1.0
      ],
      [
        "').ĊĊ",
        -1.0
      ],
      [
        "'):Ċ",
        -1.0
      ],
      [
        "');",
        -1.0
      ],
      [
        "');ĊĊ",
        -1.0
      ],
      [
        "')Ċ",
        -1.0
      ],
      [
        "')ĊĊ",
        -1.0
      ],
      [
        "')čĊ",
        -1.0
      ],
      [
        "'+",
        -1.0
      ],
      [
        "',",
        -1.0
      ],
      [
        "',\"",
        -1.0
      ],
      [
        "','",
        -1.0
      ],
      [
        "',Ċ",
        -1.0
      ],
      [
        "'-",
        -1.0
      ],
      [
        "'--",
        -1.0
      ],
      [
        "'----------------------------------------------------------------------'Ċ",
        -1.0
      ],
      [
        "'.",
        -1.0
      ],
      [
        "'.\"",
        -1.0
      ],
      [
        "'.\"ĊĊ",
        -1.0
      ],
      [
        "'.)Ċ",
        -1.0
      ],
      [
        "'...",
        -1.0
      ],
      [
        "'...ĊĊ",
        -1.0
      ],
      [
        "'.[",
        -1.0
      ],
      [
        "'.Ċ",
        -1.0
      ],
      [
        "'.ĊĊ",
        -1.0
      ],
      [
        "'/",
        -1.0
      ],
      [
        "':",
        -1.0
      ],
      [
        "':Ċ",
        -1.0
      ],
      [
        "':čĊ",
        -1.0
      ],
      [
        "';",
        -1.0
      ],
      [
        "';Ċ",
        -1.0
      ],
      [
        "'=",
        -1.0
      ],
      [
        "'?",
        -1.0
      ],
      [
        "'?\"ĊĊ",
        -1.0
      ],
      [
        "'?Ċ",
        -1.0
      ],
      [
        "'?ĊĊ",
        -1.0
      ],
      [
        "'A",
        -1.0
      ],
      [
        "'AcadÃ©mie",
        -1.0
      ],
      [
        "'Accademia",
        -1.0
      ],
      [
        "'Adamo",
        -1.0
      ],
      [
        "'Afrique",
        -1.0
      ],
      [
        "'After",
        -1.0
      ],
      [
        "'Agostino",
        -1.0
      ],
      [
        "'Air",
        -1.0
      ],
      [
        "'Aldeen",
        -1.0
      ],
      [
        "'Alembert",
        -1.0
      ],
      [
        "'Alene",
        -1.0
      ],
      [
        "'Alessandro",
        -1.0
      ],
      [
        "'Alger",
        -1.0
      ],
      [
        "'All",
        -1.0
      ],
      [
        "'Amato",
        -1.0
      ],
      [
        "'Ambrosio",
        -1.0
      ],
      [
        "'Amelio",
        -1.0
      ],
      [
        "'Amico",
        -1.0
      ],
      [
        "'Amore",
        -1.0
      ],
      [
        "'Amour",
        -1.0
      ],
      [
        "'Andrade",
        -1.0
      ],
      [
        "'Andrea",
        -1.0
      ],
      [
        "'Angelica",
        -1.0
      ],
      [
        "'Angelo",
        -1.0
      ],
      [
        "'Angers",
        -1.0
      ],
      [
        "'Anse",
        -1.0
      ],
      [
        "'Antoni",
        -1.0
      ],
      [
        "'Aosta",
        -1.0
      ],
      [
        "'Aquila",
        -1.0
      ],
      [
        "'Arc",
        -1.0
      ],
      [
        "'Arlandes",
        -1.0
      ],
      [
        "'Arm",
        -1.0
      ],
      [
        "'Arsonval",
        -1.0
      ],
      [
        "'As",
        -1.0
      ],
      [
        "'Auvergne",
        -1.0
      ],
      [
        "'Aventure",
        -1.0
      ],
      [
        "'Azur",
        -1.0
      ],
      [
        "'AÃ©ronautique",
        -1.0
      ],
      [
        "'BRIEN",
        -1.0
      ],
      [
        "'Black",
        -1.0
      ],
      [
        "'Bleness",
        -1.0
      ],
      [
        "'Blue",
        -1.0
      ],
      [
        "'Bo",
        -1.0
      ],
      [
        "'Brady",
        -1.0
      ],
      [
        "'Brian",
        -1.0
      ],
      [
        "'Brien",
        -1.0
      ],
      [
        "'Bryan",
        -1.0
      ],
      [
        "'But",
        -1.0
      ],
      [
        "'By",
        -1.0
      ],
      [
        "'Callaghan",
        -1.0
      ],
      [
        "'Cause",
        -1.0
      ],
      [
        "'Clock",
        -1.0
      ],
      [
        "'Clure",
        -1.0
      ],
      [
        "'Connell",
        -1.0
      ],
      [
        "'Conner",
        -1.0
      ],
      [
        "'Connor",
        -1.0
      ],
      [
        "'Costa",
        -1.0
      ],
      [
        "'D",
        -1.0
      ],
      [
        "'E",
        -1.0
      ],
      [
        "'Ecole",
        -1.0
      ],
      [
        "'Elegance",
        -1.0
      ],
      [
        "'Elia",
        -1.0
      ],
      [
        "'Enclume",
        -1.0
      ],
      [
        "'Enfant",
        -1.0
      ],
      [
        "'Engle",
        -1.0
      ],
      [
        "'Entremont",
        -1.0
      ],
      [
        "'Entreprenant",
        -1.0
      ],
      [
        "'Errico",
        -1.0
      ],
      [
        "'Etudes",
        -1.0
      ],
      [
        "'Even",
        -1.0
      ],
      [
        "'EvÃªque",
        -1.0
      ],
      [
        "'Fallon",
        -1.0
      ],
      [
        "'Farrell",
        -1.0
      ],
      [
        "'Fis",
        -1.0
      ],
      [
        "'Flaherty",
        -1.0
      ],
      [
        "'Flynn",
        -1.0
      ],
      [
        "'For",
        -1.0
      ],
      [
        "'Good",
        -1.0
      ],
      [
        "'Gorman",
        -1.0
      ],
      [
        "'Gosh",
        -1.0
      ],
      [
        "'Grady",
        -1.0
      ],
      [
        "'Green",
        -1.0
      ],
      [
        "'Groats",
        -1.0
      ],
      [
        "'Hagan",
        -1.0
      ],
      [
        "'Halloran",
        -1.0
      ],
      [
        "'Hanlon",
        -1.0
      ],
      [
        "'Hara",
        -1.0
      ],
      [
        "'Hare",
        -1.0
      ],
      [
        "'Hearn",
        -1.0
      ],
      [
        "'Her",
        -1.0
      ],
      [
        "'Heureux",
        -1.0
      ],
      [
        "'Higgins",
        -1.0
      ],
      [
        "'Histoire",
        -1.0
      ],
      [
        "'Hoest",
        -1.0
      ],
      [
        "'Homme",
        -1.0
      ],
      [
        "'Hopital",
        -1.0
      ],
      [
        "'Hor",
        -1.0
      ],
      [
        "'How",
        -1.0
      ],
      [
        "'Huez",
        -1.0
      ],
      [
        "'Huillier",
        -1.0
      ],
      [
        "'I",
        -1.0
      ],
      [
        "'If",
        -1.0
      ],
      [
        "'In",
        -1.0
      ],
      [
        "'Is",
        -1.0
      ],
      [
        "'It",
        -1.0
      ],
      [
        "'Italia",
        -1.0
      ],
      [
        "'Ivoire",
        -1.0
      ],
      [
        "'Just",
        -1.0
      ],
      [
        "'Kane",
        -1.0
      ],
      [
        "'Keefe",
        -1.0
      ],
      [
        "'Keeffe",
        -1.0
      ],
      [
        "'Klallam",
        -1.0
      ],
      [
        "'LL",
        -1.0
      ],
      [
        "'Lakes",
        -1.0
      ],
      [
        "'Lanna",
        -1.0
      ],
      [
        "'Lantern",
        -1.0
      ],
      [
        "'Lars",
        -1.0
      ],
      [
        "'Leary",
        -1.0
      ],
      [
        "'Let",
        -1.0
      ],
      [
        "'Ll",
        -1.0
      ],
      [
        "'Longhi",
        -1.0
      ],
      [
        "'Loughlin",
        -1.0
      ],
      [
        "'M",
        -1.0
      ],
      [
        "'NEX",
        -1.0
      ],
      [
        "'Neal",
        -1.0
      ],
      [
        "'Neill",
        -1.0
      ],
      [
        "'New",
        -1.0
      ],
      [
        "'Nex",
        -1.0
      ],
      [
        "'Ocean",
        -1.0
      ],
      [
        "'Oeuvre",
        -1.0
      ],
      [
        "'Oh",
        -1.0
      ],
      [
        "'Oiseau",
        -1.0
      ],
      [
        "'Oku",
        -1.0
      ],
      [
        "'Ol",
        -1.0
      ],
      [
        "'Omalius",
        -1.0
      ],
      [
        "'Omer",
        -1.0
      ],
      [
        "'Once",
        -1.0
      ],
      [
        "'One",
        -1.0
      ],
      [
        "'OpÃ©ra",
        -1.0
      ],
      [
        "'Or",
        -1.0
      ],
      [
        "'Oreal",
        -1.0
      ],
      [
        "'OrlÃ©ans",
        -1.0
      ],
      [
        "'Oro",
        -1.0
      ],
      [
        "'OrÃ©al",
        -1.0
      ],
      [
        "'Ouest",
        -1.0
      ],
      [
        "'Our",
        -1.0
      ],
      [
        "'Oyly",
        -1.0
      ],
      [
        "'People",
        -1.0
      ],
      [
        "'Py",
        -1.0
      ],
      [
        "'RE",
        -1.0
      ],
      [
        "'Re",
        -1.0
      ],
      [
        "'Riordan",
        -1.0
      ],
      [
        "'Rourke",
        -1.0
      ],
      [
        "'S",
        -1.0
      ],
      [
        "'T",
        -1.0
      ],
      [
        "'URL",
        -1.0
      ],
      [
        "'UTR",
        -1.0
      ],
      [
        "'Uccle",
        -1.0
      ],
      [
        "'Unites",
        -1.0
      ],
      [
        "'UnitÃ©s",
        -1.0
      ],
      [
        "'UniversitÃ©",
        -1.0
      ],
      [
        "'Urbervilles",
        -1.0
      ],
      [
        "'Urville",
        -1.0
      ],
      [
        "'Utassy",
        -1.0
      ],
      [
        "'VE",
        -1.0
      ],
      [
        "'Ve",
        -1.0
      ],
      [
        "'Vinci",
        -1.0
      ],
      [
        "'Vista",
        -1.0
      ],
      [
        "'We",
        -1.0
      ],
      [
        "'What",
        -1.0
      ],
      [
        "'When",
        -1.0
      ],
      [
        "'While",
        -1.0
      ],
      [
        "'Why",
        -1.0
      ],
      [
        "'With",
        -1.0
      ],
      [
        "'Yes",
        -1.0
      ],
      [
        "'You",
        -1.0
      ],
      [
        "'Zorah",
        -1.0
      ],
      [
        "']",
        -1.0
      ],
      [
        "']));",
        -1.0
      ],
      [
        "'])};__",
        -1.0
      ],
      [
        "'])Ċ",
        -1.0
      ],
      [
        "'],",
        -1.0
      ],
      [
        "'].",
        -1.0
      ],
      [
        "']=",
        -1.0
      ],
      [
        "']['",
        -1.0
      ],
      [
        "']Ċ",
        -1.0
      ],
      [
        "'^",
        -1.0
      ],
      [
        "'a",
        -1.0
      ],
      [
        "'adore",
        -1.0
      ],
      [
        "'adoube",
        -1.0
      ],
      [
        "'affaires",
        -1.0
      ],
      [
        "'ahu",
        -1.0
      ],
      [
        "'ai",
        -1.0
      ],
      [
        "'all",
        -1.0
      ],
      [
        "'am",
        -1.0
      ],
      [
        "'an",
        -1.0
      ],
      [
        "'analyse",
        -1.0
      ],
      [
        "'and",
        -1.0
      ],
      [
        "'ang",
        -1.0
      ],
      [
        "'anic",
        -1.0
      ],
      [
        "'anis",
        -1.0
      ],
      [
        "'anthropologie",
        -1.0
      ],
      [
        "'apai",
        -1.0
      ],
      [
        "'appel",
        -1.0
      ],
      [
        "'apprentissage",
        -1.0
      ],
      [
        "'aska",
        -1.0
      ],
      [
        "'assurer",
        -1.0
      ],
      [
        "'autre",
        -1.0
      ],
      [
        "'auvergne",
        -1.0
      ],
      [
        "'av",
        -1.0
      ],
      [
        "'awiya",
        -1.0
      ],
      [
        "'b",
        -1.0
      ],
      [
        "'cause",
        -1.0
      ],
      [
        "'clock",
        -1.0
      ],
      [
        "'d",
        -1.0
      ],
      [
        "'e",
        -1.0
      ],
      [
        "'easter",
        -1.0
      ],
      [
        "'eau",
        -1.0
      ],
      [
        "'ed",
        -1.0
      ],
      [
        "'ei",
        -1.0
      ],
      [
        "'ellipsoÃ¯de",
        -1.0
      ],
      [
        "'em",
        -1.0
      ],
      [
        "'en",
        -1.0
      ],
      [
        "'er",
        -1.0
      ],
      [
        "'ers",
        -1.0
      ],
      [
        "'est",
        -1.0
      ],
      [
        "'etre",
        -1.0
      ],
      [
        "'exemple",
        -1.0
      ],
      [
        "'extrÃ©mitÃ©",
        -1.0
      ],
      [
        "'ez",
        -1.0
      ],
      [
        "'flash",
        -1.0
      ],
      [
        "'flour",
        -1.0
      ],
      [
        "'h",
        -1.0
      ],
      [
        "'habitude",
        -1.0
      ],
      [
        "'hailSat",
        -1.0
      ],
      [
        "'histoire",
        -1.0
      ],
      [
        "'homme",
        -1.0
      ],
      [
        "'i",
        -1.0
      ],
      [
        "'ialakai",
        -1.0
      ],
      [
        "'ian",
        -1.0
      ],
      [
        "'iche",
        -1.0
      ],
      [
        "'ida",
        -1.0
      ],
      [
        "'ik",
        -1.0
      ],
      [
        "'il",
        -1.0
      ],
      [
        "'image",
        -1.0
      ],
      [
        "'in",
        -1.0
      ],
      [
        "'indÅį",
        -1.0
      ],
      [
        "'ing",
        -1.0
      ],
      [
        "'invention",
        -1.0
      ],
      [
        "'is",
        -1.0
      ],
      [
        "'it",
        -1.0
      ],
      [
        "'iwi",
        -1.0
      ],
      [
        "'ka",
        -1.0
      ],
      [
        "'kmaq",
        -1.0
      ],
      [
        "'kmaw",
        -1.0
      ],
      [
        "'know",
        -1.0
      ],
      [
        "'ko",
        -1.0
      ],
      [
        "'krieuvan",
        -1.0
      ],
      [
        "'l",
        -1.0
      ],
      [
        "'ld",
        -1.0
      ],
      [
        "'ll",
        -1.0
      ],
      [
        "'m",
        -1.0
      ],
      [
        "'n",
        -1.0
      ],
      [
        "'neill",
        -1.0
      ],
      [
        "'nesis",
        -1.0
      ],
      [
        "'nt",
        -1.0
      ],
      [
        "'o",
        -1.0
      ],
      [
        "'obstacle",
        -1.0
      ],
      [
        "'occasion",
        -1.0
      ],
      [
        "'ocÃ©an",
        -1.0
      ],
      [
        "'odham",
        -1.0
      ],
      [
        "'oeil",
        -1.0
      ],
      [
        "'oeuf",
        -1.0
      ],
      [
        "'oh",
        -1.0
      ],
      [
        "'oignon",
        -1.0
      ],
      [
        "'on",
        -1.0
      ],
      [
        "'opÃ©ra",
        -1.0
      ],
      [
        "'or",
        -1.0
      ],
      [
        "'penny",
        -1.0
      ],
      [
        "'phrogma",
        -1.0
      ],
      [
        "'re",
        -1.0
      ],
      [
        "'rs",
        -1.0
      ],
      [
        "'s",
        -1.0
      ],
      [
        "'t",
        -1.0
      ],
      [
        "'u",
        -1.0
      ],
      [
        "'uma",
        -1.0
      ],
      [
        "'un",
        -1.0
      ],
      [
        "'une",
        -1.0
      ],
      [
        "'utilisation",
        -1.0
      ],
      [
        "'utujil",
        -1.0
      ],
      [
        "'ve",
        -1.0
      ],
      [
        "'vi",
        -1.0
      ],
      [
        "'wakw",
        -1.0
      ],
      [
        "'wan",
        -1.0
      ],
      [
        "'was",
        -1.0
      ],
      [
        "'we",
        -1.0
      ],
      [
        "'x",
        -1.0
      ],
      [
        "'y",
        -1.0
      ],
      [
        "'z",
        -1.0
      ],
      [
        "'}",
        -1.0
      ],
      [
        "'ÂĿ",
        -1.0
      ],
      [
        "'Ã©c",
        -1.0
      ],
      [
        "'Ã©ducation",
        -1.0
      ],
      [
        "'Ã©lectrode",
        -1.0
      ],
      [
        "'Ã©nergie",
        -1.0
      ],
      [
        "'Ã©quipe",
        -1.0
      ],
      [
        "'Ãªn",
        -1.0
      ],
      [
        "'Ãªtre",
        -1.0
      ],
      [
        "'ÃĦÃ£",
        -1.0
      ],
      [
        "'ÃĦÃ´s",
        -1.0
      ],
      [
        "'ÃĦÃ´t",
        -1.0
      ],
      [
        "'Ãī",
        -1.0
      ],
      [
        "'ÃŃ",
        -1.0
      ],
      [
        "'Ê¹",
        -1.0
      ],
      [
        "'Ù¾",
        -1.0
      ],
      [
        "'Úĳ",
        -1.0
      ],
      [
        "'âĢ¦",
        -1.0
      ],
      [
        "'âĢĭ",
        -1.0
      ],
      [
        "'âĢĵ",
        -1.0
      ],
      [
        "'âĢĶ",
        -1.0
      ],
      [
        "'âĤ¬",
        -1.0
      ],
      [
        "'ãĢģ",
        -1.0
      ],
      [
        "'Ċ",
        -1.0
      ],
      [
        "'ĊĊ",
        -1.0
      ],
      [
        "(\"",
        -1.0
      ],
      [
        "(\"\",",
        -1.0
      ],
      [
        "(\"%",
        -1.0
      ],
      [
        "(\"/",
        -1.0
      ],
      [
        "(\"\\",
        -1.0
      ],
      [
        "(\"{",
        -1.0
      ],
      [
        "(###)",
        -1.0
      ],
      [
        "($",
        -1.0
      ],
      [
        "($_",
        -1.0
      ],
      [
        "(&",
        -1.0
      ],
      [
        "('",
        -1.0
      ],
      [
        "('%",
        -1.0
      ],
      [
        "('''",
        -1.0
      ],
      [
        "('/",
        -1.0
      ],
      [
        "('\\",
        -1.0
      ],
      [
        "('{",
        -1.0
      ],
      [
        "((",
        -1.0
      ],
      [
        "()",
        -1.0
      ],
      [
        "()\"",
        -1.0
      ],
      [
        "()#",
        -1.0
      ],
      [
        "()&&\"",
        -1.0
      ],
      [
        "()'",
        -1.0
      ],
      [
        "())",
        -1.0
      ],
      [
        "()),",
        -1.0
      ],
      [
        "()).",
        -1.0
      ],
      [
        "())[...,",
        -1.0
      ],
      [
        "())Ċ",
        -1.0
      ],
      [
        "()+",
        -1.0
      ],
      [
        "(),",
        -1.0
      ],
      [
        "(),Ċ",
        -1.0
      ],
      [
        "().",
        -1.0
      ],
      [
        "().Ċ",
        -1.0
      ],
      [
        "().ĊĊ",
        -1.0
      ],
      [
        "()/",
        -1.0
      ],
      [
        "():",
        -1.0
      ],
      [
        "():Ċ",
        -1.0
      ],
      [
        "():čĊ",
        -1.0
      ],
      [
        "();",
        -1.0
      ],
      [
        "();$",
        -1.0
      ],
      [
        "();Ċ",
        -1.0
      ],
      [
        "();ĊĊ",
        -1.0
      ],
      [
        "()==",
        -1.0
      ],
      [
        "()?",
        -1.0
      ],
      [
        "()[",
        -1.0
      ],
      [
        "()`",
        -1.0
      ],
      [
        "()``",
        -1.0
      ],
      [
        "(){",
        -1.0
      ],
      [
        "(){ĊĊ",
        -1.0
      ],
      [
        "()Ċ",
        -1.0
      ],
      [
        "()ĊĊ",
        -1.0
      ],
      [
        "()čĊ",
        -1.0
      ],
      [
        "(*",
        -1.0
      ],
      [
        "(+)",
        -1.0
      ],
      [
        "(-",
        -1.0
      ],
      [
        "(-$",
        -1.0
      ],
      [
        "(-)",
        -1.0
      ],
      [
        "(.,'",
        -1.0
      ],
      [
        "(...);Ċ",
        -1.0
      ],
      [
        "(:,",
        -1.0
      ],
      [
        "(==)(",
        -1.0
      ],
      [
        "(@\"",
        -1.0
      ],
      [
        "(A",
        -1.0
      ],
      [
        "(ADP",
        -1.0
      ],
      [
        "(AI",
        -1.0
      ],
      [
        "(AP",
        -1.0
      ],
      [
        "(AS",
        -1.0
      ],
      [
        "(ATInt",
        -1.0
      ],
      [
        "(ATM",
        -1.0
      ],
      [
        "(Above",
        -1.0
      ],
      [
        "(Actually",
        -1.0
      ],
      [
        "(Adjective",
        -1.0
      ],
      [
        "(After",
        -1.0
      ],
      [
        "(Ages",
        -1.0
      ],
      [
        "(Air",
        -1.0
      ],
      [
        "(All",
        -1.0
      ],
      [
        "(Also",
        -1.0
      ],
      [
        "(Amusement",
        -1.0
      ],
      [
        "(And",
        -1.0
      ],
      [
        "(Animation",
        -1.0
      ],
      [
        "(AnnNamenNothingNothing",
        -1.0
      ],
      [
        "(Answer",
        -1.0
      ],
      [
        "(Appfa",
        -1.0
      ],
      [
        "(Application",
        -1.0
      ],
      [
        "(April",
        -1.0
      ],
      [
        "(Article",
        -1.0
      ],
      [
        "(Assertion",
        -1.0
      ],
      [
        "(B",
        -1.0
      ],
      [
        "(BB",
        -1.0
      ],
      [
        "(BPT",
        -1.0
      ],
      [
        "(BTW",
        -1.0
      ],
      [
        "(Back",
        -1.0
      ],
      [
        "(Bassariscus",
        -1.0
      ],
      [
        "(Beginner",
        -1.0
      ],
      [
        "(Beyond",
        -1.0
      ],
      [
        "(Bindn",
        -1.0
      ],
      [
        "(Bindxbsc",
        -1.0
      ],
      [
        "(But",
        -1.0
      ],
      [
        "(ByVal",
        -1.0
      ],
      [
        "(C",
        -1.0
      ],
      [
        "(CBS",
        -1.0
      ],
      [
        "(CDC",
        -1.0
      ],
      [
        "(CF",
        -1.0
      ],
      [
        "(CH",
        -1.0
      ],
      [
        "(CN",
        -1.0
      ],
      [
        "(CO",
        -1.0
      ],
      [
        "(COMPO",
        -1.0
      ],
      [
        "(Capsicum",
        -1.0
      ],
      [
        "(CheckConnectivity",
        -1.0
      ],
      [
        "(Chinese",
        -1.0
      ],
      [
        "(ClO",
        -1.0
      ],
      [
        "(Click",
        -1.0
      ],
      [
        "(Closed",
        -1.0
      ],
      [
        "(Computation",
        -1.0
      ],
      [
        "(Continued",
        -1.0
      ],
      [
        "(Copyright",
        -1.0
      ],
      [
        "(Correct",
        -1.0
      ],
      [
        "(CountImm",
        -1.0
      ],
      [
        "(Courtesy",
        -1.0
      ],
      [
        "(CreatePrivateAddrs",
        -1.0
      ],
      [
        "(Credit",
        -1.0
      ],
      [
        "(D",
        -1.0
      ],
      [
        "(DATA",
        -1.0
      ],
      [
        "(DTR",
        -1.0
      ],
      [
        "(Data",
        -1.0
      ],
      [
        "(December",
        -1.0
      ],
      [
        "(Default",
        -1.0
      ],
      [
        "(Dense",
        -1.0
      ],
      [
        "(Dexterity",
        -1.0
      ],
      [
        "(Disclaimer",
        -1.0
      ],
      [
        "(Don",
        -1.0
      ],
      [
        "(E",
        -1.0
      ],
      [
        "(EN",
        -1.0
      ],
      [
        "(Editor",
        -1.0
      ],
      [
        "(Edmonton",
        -1.0
      ],
      [
        "(Elevated",
        -1.0
      ],
      [
        "(English",
        -1.0
      ],
      [
        "(Entry",
        -1.0
      ],
      [
        "(Episode",
        -1.0
      ],
      [
        "(EvaluatorFunction",
        -1.0
      ],
      [
        "(Example",
        -1.0
      ],
      [
        "(Exercise",
        -1.0
      ],
      [
        "(F",
        -1.0
      ],
      [
        "(FAQ",
        -1.0
      ],
      [
        "(False",
        -1.0
      ],
      [
        "(Fe",
        -1.0
      ],
      [
        "(Figure",
        -1.0
      ],
      [
        "(First",
        -1.0
      ],
      [
        "(Fluid",
        -1.0
      ],
      [
        "(For",
        -1.0
      ],
      [
        "(From",
        -1.0
      ],
      [
        "(G",
        -1.0
      ],
      [
        "(GL",
        -1.0
      ],
      [
        "(GPIO",
        -1.0
      ],
      [
        "(GT",
        -1.0
      ],
      [
        "(Grade",
        -1.0
      ],
      [
        "(Guesstv",
        -1.0
      ],
      [
        "(H",
        -1.0
      ],
      [
        "(HCO",
        -1.0
      ],
      [
        "(HealthDay",
        -1.0
      ],
      [
        "(Here",
        -1.0
      ],
      [
        "(High",
        -1.0
      ],
      [
        "(Hint",
        -1.0
      ],
      [
        "(How",
        -1.0
      ],
      [
        "(I",
        -1.0
      ],
      [
        "(II",
        -1.0
      ],
      [
        "(III",
        -1.0
      ],
      [
        "(IN",
        -1.0
      ],
      [
        "(IT",
        -1.0
      ],
      [
        "(IV",
        -1.0
      ],
      [
        "(If",
        -1.0
      ],
      [
        "(Image",
        -1.0
      ],
      [
        "(In",
        -1.0
      ],
      [
        "(Input",
        -1.0
      ],
      [
        "(Intelligence",
        -1.0
      ],
      [
        "(Intercept",
        -1.0
      ],
      [
        "(InterruptedExceptione",
        -1.0
      ],
      [
        "(It",
        -1.0
      ],
      [
        "(J",
        -1.0
      ],
      [
        "(July",
        -1.0
      ],
      [
        "(June",
        -1.0
      ],
      [
        "(Just",
        -1.0
      ],
      [
        "(K",
        -1.0
      ],
      [
        "(L",
        -1.0
      ],
      [
        "(LED",
        -1.0
      ],
      [
        "(Last",
        -1.0
      ],
      [
        "(Left",
        -1.0
      ],
      [
        "(Let",
        -1.0
      ],
      [
        "(Lighthill",
        -1.0
      ],
      [
        "(Locked",
        -1.0
      ],
      [
        "(M",
        -1.0
      ],
      [
        "(MAIN",
        -1.0
      ],
      [
        "(MENAFN",
        -1.0
      ],
      [
        "(MMPT",
        -1.0
      ],
      [
        "(MN",
        -1.0
      ],
      [
        "(MVL",
        -1.0
      ],
      [
        "(MachineLoop",
        -1.0
      ],
      [
        "(MakeTechEasier",
        -1.0
      ],
      [
        "(Manipulation",
        -1.0
      ],
      [
        "(Many",
        -1.0
      ],
      [
        "(May",
        -1.0
      ],
      [
        "(Medical",
        -1.0
      ],
      [
        "(Mg",
        -1.0
      ],
      [
        "(More",
        -1.0
      ],
      [
        "(Mrs",
        -1.0
      ],
      [
        "(Music",
        -1.0
      ],
      [
        "(N",
        -1.0
      ],
      [
        "(NAME",
        -1.0
      ],
      [
        "(NAPSI",
        -1.0
      ],
      [
        "(NASA",
        -1.0
      ],
      [
        "(NEW",
        -1.0
      ],
      [
        "(NH",
        -1.0
      ],
      [
        "(NO",
        -1.0
      ],
      [
        "(NOTE",
        -1.0
      ],
      [
        "(NULL",
        -1.0
      ],
      [
        "(Name",
        -1.0
      ],
      [
        "(Nanowerk",
        -1.0
      ],
      [
        "(National",
        -1.0
      ],
      [
        "(NaturalHealth",
        -1.0
      ],
      [
        "(NaturalNews",
        -1.0
      ],
      [
        "(New",
        -1.0
      ],
      [
        "(Non",
        -1.0
      ],
      [
        "(North",
        -1.0
      ],
      [
        "(Note",
        -1.0
      ],
      [
        "(Notice",
        -1.0
      ],
      [
        "(Now",
        -1.0
      ],
      [
        "(O",
        -1.0
      ],
      [
        "(OH",
        -1.0
      ],
      [
        "(OR",
        -1.0
      ],
      [
        "(Object",
        -1.0
      ],
      [
        "(October",
        -1.0
      ],
      [
        "(Oh",
        -1.0
      ],
      [
        "(One",
        -1.0
      ],
      [
        "(Opens",
        -1.0
      ],
      [
        "(Optional",
        -1.0
      ],
      [
        "(Original",
        -1.0
      ],
      [
        "(Ot",
        -1.0
      ],
      [
        "(P",
        -1.0
      ],
      [
        "(PA",
        -1.0
      ],
      [
        "(PC",
        -1.0
      ],
      [
        "(PDF",
        -1.0
      ],
      [
        "(PHOTOS",
        -1.0
      ],
      [
        "(PICK",
        -1.0
      ],
      [
        "(PO",
        -1.0
      ],
      [
        "(PRDX",
        -1.0
      ],
      [
        "(PS",
        -1.0
      ],
      [
        "(PULLOUT",
        -1.0
      ],
      [
        "(PW",
        -1.0
      ],
      [
        "(Page",
        -1.0
      ],
      [
        "(Part",
        -1.0
      ],
      [
        "(Photo",
        -1.0
      ],
      [
        "(Phys",
        -1.0
      ],
      [
        "(PhysOrg",
        -1.0
      ],
      [
        "(Picture",
        -1.0
      ],
      [
        "(Please",
        -1.0
      ],
      [
        "(Posted",
        -1.0
      ],
      [
        "(ProviderErrormsg",
        -1.0
      ],
      [
        "(Pt",
        -1.0
      ],
      [
        "(Punjabi",
        -1.0
      ],
      [
        "(Q",
        -1.0
      ],
      [
        "(R",
        -1.0
      ],
      [
        "(RED",
        -1.0
      ],
      [
        "(RNAi",
        -1.0
      ],
      [
        "(ROOT",
        -1.0
      ],
      [
        "(Rank",
        -1.0
      ],
      [
        "(Read",
        -1.0
      ],
      [
        "(Reference",
        -1.0
      ],
      [
        "(Remember",
        -1.0
      ],
      [
        "(Required",
        -1.0
      ],
      [
        "(Reuters",
        -1.0
      ],
      [
        "(RxWiki",
        -1.0
      ],
      [
        "(S",
        -1.0
      ],
      [
        "(SII",
        -1.0
      ],
      [
        "(SO",
        -1.0
      ],
      [
        "(SPEECH",
        -1.0
      ],
      [
        "(SPhMe",
        -1.0
      ],
      [
        "(SampleDateTime",
        -1.0
      ],
      [
        "(ScratchFloatReg",
        -1.0
      ],
      [
        "(See",
        -1.0
      ],
      [
        "(September",
        -1.0
      ],
      [
        "(Show",
        -1.0
      ],
      [
        "(SiO",
        -1.0
      ],
      [
        "(Site",
        -1.0
      ],
      [
        "(Solanum",
        -1.0
      ],
      [
        "(Some",
        -1.0
      ],
      [
        "(Sorry",
        -1.0
      ],
      [
        "(Soundbite",
        -1.0
      ],
      [
        "(Source",
        -1.0
      ],
      [
        "(South",
        -1.0
      ],
      [
        "(Statista",
        -1.0
      ],
      [
        "(String",
        -1.0
      ],
      [
        "(Suppl",
        -1.0
      ],
      [
        "(T",
        -1.0
      ],
      [
        "(TM",
        -1.0
      ],
      [
        "(Table",
        -1.0
      ],
      [
        "(Talk",
        -1.0
      ],
      [
        "(TextureBarriers",
        -1.0
      ],
      [
        "(Thanks",
        -1.0
      ],
      [
        "(That",
        -1.0
      ],
      [
        "(The",
        -1.0
      ],
      [
        "(There",
        -1.0
      ],
      [
        "(These",
        -1.0
      ],
      [
        "(They",
        -1.0
      ],
      [
        "(Think",
        -1.0
      ],
      [
        "(This",
        -1.0
      ],
      [
        "(To",
        -1.0
      ],
      [
        "(True",
        -1.0
      ],
      [
        "(U",
        -1.0
      ],
      [
        "(UK",
        -1.0
      ],
      [
        "(US",
        -1.0
      ],
      [
        "(University",
        -1.0
      ],
      [
        "(Updated",
        -1.0
      ],
      [
        "(V",
        -1.0
      ],
      [
        "(VI",
        -1.0
      ],
      [
        "(Vector",
        -1.0
      ],
      [
        "(Video",
        -1.0
      ],
      [
        "(Visited",
        -1.0
      ],
      [
        "(W",
        -1.0
      ],
      [
        "(WebCore",
        -1.0
      ],
      [
        "(WebKit",
        -1.0
      ],
      [
        "(What",
        -1.0
      ],
      [
        "(When",
        -1.0
      ],
      [
        "(Which",
        -1.0
      ],
      [
        "(Why",
        -1.0
      ],
      [
        "(World",
        -1.0
      ],
      [
        "(X",
        -1.0
      ],
      [
        "(Y",
        -1.0
      ],
      [
        "(Yes",
        -1.0
      ],
      [
        "(You",
        -1.0
      ],
      [
        "(Z",
        -1.0
      ],
      [
        "([",
        -1.0
      ],
      [
        "(['",
        -1.0
      ],
      [
        "([[",
        -1.0
      ],
      [
        "([Ċ",
        -1.0
      ],
      [
        "(\\",
        -1.0
      ],
      [
        "(a",
        -1.0
      ],
      [
        "(about",
        -1.0
      ],
      [
        "(above",
        -1.0
      ],
      [
        "(absolute",
        -1.0
      ],
      [
        "(accel",
        -1.0
      ],
      [
        "(acrylic",
        -1.0
      ],
      [
        "(acryloamidino",
        -1.0
      ],
      [
        "(action",
        -1.0
      ],
      [
        "(actually",
        -1.0
      ],
      [
        "(add",
        -1.0
      ],
      [
        "(adj",
        -1.0
      ],
      [
        "(after",
        -1.0
      ],
      [
        "(again",
        -1.0
      ],
      [
        "(age",
        -1.0
      ],
      [
        "(air",
        -1.0
      ],
      [
        "(aka",
        -1.0
      ],
      [
        "(alien",
        -1.0
      ],
      [
        "(alkyl",
        -1.0
      ],
      [
        "(all",
        -1.0
      ],
      [
        "(alpha",
        -1.0
      ],
      [
        "(also",
        -1.0
      ],
      [
        "(although",
        -1.0
      ],
      [
        "(and",
        -1.0
      ],
      [
        "(angle",
        -1.0
      ],
      [
        "(another",
        -1.0
      ],
      [
        "(answer",
        -1.0
      ],
      [
        "(any",
        -1.0
      ],
      [
        "(approx",
        -1.0
      ],
      [
        "(aq",
        -1.0
      ],
      [
        "(are",
        -1.0
      ],
      [
        "(args",
        -1.0
      ],
      [
        "(around",
        -1.0
      ],
      [
        "(arr",
        -1.0
      ],
      [
        "(as",
        -1.0
      ],
      [
        "(assuming",
        -1.0
      ],
      [
        "(at",
        -1.0
      ],
      [
        "(available",
        -1.0
      ],
      [
        "(average",
        -1.0
      ],
      [
        "(ax",
        -1.0
      ],
      [
        "(b",
        -1.0
      ],
      [
        "(bannerString",
        -1.0
      ],
      [
        "(bar",
        -1.0
      ],
      [
        "(base",
        -1.0
      ],
      [
        "(because",
        -1.0
      ],
      [
        "(before",
        -1.0
      ],
      [
        "(between",
        -1.0
      ],
      [
        "(black",
        -1.0
      ],
      [
        "(block",
        -1.0
      ],
      [
        "(blue",
        -1.0
      ],
      [
        "(board",
        -1.0
      ],
      [
        "(bool",
        -1.0
      ],
      [
        "(both",
        -1.0
      ],
      [
        "(bottom",
        -1.0
      ],
      [
        "(buffer",
        -1.0
      ],
      [
        "(but",
        -1.0
      ],
      [
        "(by",
        -1.0
      ],
      [
        "(c",
        -1.0
      ],
      [
        "(called",
        -1.0
      ],
      [
        "(calltime",
        -1.0
      ],
      [
        "(can",
        -1.0
      ],
      [
        "(cell",
        -1.0
      ],
      [
        "(chapter",
        -1.0
      ],
      [
        "(char",
        -1.0
      ],
      [
        "(check",
        -1.0
      ],
      [
        "(child",
        -1.0
      ],
      [
        "(city",
        -1.0
      ],
      [
        "(class",
        -1.0
      ],
      [
        "(click",
        -1.0
      ],
      [
        "(cls",
        -1.0
      ],
      [
        "(cm",
        -1.0
      ],
      [
        "(code",
        -1.0
      ],
      [
        "(cog",
        -1.0
      ],
      [
        "(collapselist",
        -1.0
      ],
      [
        "(color",
        -1.0
      ],
      [
        "(columns",
        -1.0
      ],
      [
        "(common",
        -1.0
      ],
      [
        "(config",
        -1.0
      ],
      [
        "(consideredCodePoint",
        -1.0
      ],
      [
        "(const",
        -1.0
      ],
      [
        "(containerOneCenterX",
        -1.0
      ],
      [
        "(content",
        -1.0
      ],
      [
        "(context",
        -1.0
      ],
      [
        "(continued",
        -1.0
      ],
      [
        "(cos",
        -1.0
      ],
      [
        "(count",
        -1.0
      ],
      [
        "(credit",
        -1.0
      ],
      [
        "(cross",
        -1.0
      ],
      [
        "(ct",
        -1.0
      ],
      [
        "(current",
        -1.0
      ],
      [
        "(curve",
        -1.0
      ],
      [
        "(d",
        -1.0
      ],
      [
        "(data",
        -1.0
      ],
      [
        "(date",
        -1.0
      ],
      [
        "(dbgs",
        -1.0
      ],
      [
        "(default",
        -1.0
      ],
      [
        "(define",
        -1.0
      ],
      [
        "(degenerate",
        -1.0
      ],
      [
        "(delta",
        -1.0
      ],
      [
        "(depending",
        -1.0
      ],
      [
        "(dev",
        -1.0
      ],
      [
        "(df",
        -1.0
      ],
      [
        "(diagram",
        -1.0
      ],
      [
        "(dict",
        -1.0
      ],
      [
        "(digit",
        -1.0
      ],
      [
        "(dimethylsiloxane",
        -1.0
      ],
      [
        "(dimethylsiloxy",
        -1.0
      ],
      [
        "(distance",
        -1.0
      ],
      [
        "(don",
        -1.0
      ],
      [
        "(doom",
        -1.0
      ],
      [
        "(dot",
        -1.0
      ],
      [
        "(double",
        -1.0
      ],
      [
        "(dx",
        -1.0
      ],
      [
        "(e",
        -1.0
      ],
      [
        "(ect",
        -1.0
      ],
      [
        "(ed",
        -1.0
      ],
      [
        "(eg",
        -1.0
      ],
      [
        "(either",
        -1.0
      ],
      [
        "(element",
        -1.0
      ],
      [
        "(encoding",
        -1.0
      ],
      [
        "(end",
        -1.0
      ],
      [
        "(energy",
        -1.0
      ],
      [
        "(ent",
        -1.0
      ],
      [
        "(env",
        -1.0
      ],
      [
        "(equipment",
        -1.0
      ],
      [
        "(er",
        -1.0
      ],
      [
        "(es",
        -1.0
      ],
      [
        "(especially",
        -1.0
      ],
      [
        "(ethylene",
        -1.0
      ],
      [
        "(even",
        -1.0
      ],
      [
        "(except",
        -1.0
      ],
      [
        "(excerpt",
        -1.0
      ],
      [
        "(ez",
        -1.0
      ],
      [
        "(f",
        -1.0
      ],
      [
        "(fahrenheit",
        -1.0
      ],
      [
        "(false",
        -1.0
      ],
      [
        "(fig",
        -1.0
      ],
      [
        "(filename",
        -1.0
      ],
      [
        "(final",
        -1.0
      ],
      [
        "(first",
        -1.0
      ],
      [
        "(fit",
        -1.0
      ],
      [
        "(float",
        -1.0
      ],
      [
        "(fn",
        -1.0
      ],
      [
        "(foo",
        -1.0
      ],
      [
        "(for",
        -1.0
      ],
      [
        "(frame",
        -1.0
      ],
      [
        "(free",
        -1.0
      ],
      [
        "(freq",
        -1.0
      ],
      [
        "(from",
        -1.0
      ],
      [
        "(ft",
        -1.0
      ],
      [
        "(full",
        -1.0
      ],
      [
        "(function",
        -1.0
      ],
      [
        "(g",
        -1.0
      ],
      [
        "(gdb",
        -1.0
      ],
      [
        "(geno",
        -1.0
      ],
      [
        "(get",
        -1.0
      ],
      [
        "(good",
        -1.0
      ],
      [
        "(gray",
        -1.0
      ],
      [
        "(green",
        -1.0
      ],
      [
        "(greeting",
        -1.0
      ],
      [
        "(grid",
        -1.0
      ],
      [
        "(gsampler",
        -1.0
      ],
      [
        "(gui",
        -1.0
      ],
      [
        "(h",
        -1.0
      ],
      [
        "(half",
        -1.0
      ],
      [
        "(haystack",
        -1.0
      ],
      [
        "(heading",
        -1.0
      ],
      [
        "(heatmap",
        -1.0
      ],
      [
        "(height",
        -1.0
      ],
      [
        "(high",
        -1.0
      ],
      [
        "(host",
        -1.0
      ],
      [
        "(how",
        -1.0
      ],
      [
        "(html",
        -1.0
      ],
      [
        "(hydroxy",
        -1.0
      ],
      [
        "(i",
        -1.0
      ],
      [
        "(ibid",
        -1.0
      ],
      [
        "(id",
        -1.0
      ],
      [
        "(ie",
        -1.0
      ],
      [
        "(if",
        -1.0
      ],
      [
        "(ii",
        -1.0
      ],
      [
        "(iii",
        -1.0
      ],
      [
        "(image",
        -1.0
      ],
      [
        "(img",
        -1.0
      ],
      [
        "(in",
        -1.0
      ],
      [
        "(including",
        -1.0
      ],
      [
        "(index",
        -1.0
      ],
      [
        "(indicator",
        -1.0
      ],
      [
        "(info",
        -1.0
      ],
      [
        "(initial",
        -1.0
      ],
      [
        "(input",
        -1.0
      ],
      [
        "(insert",
        -1.0
      ],
      [
        "(int",
        -1.0
      ],
      [
        "(inti",
        -1.0
      ],
      [
        "(introduction",
        -1.0
      ],
      [
        "(irq",
        -1.0
      ],
      [
        "(isPPC",
        -1.0
      ],
      [
        "(ish",
        -1.0
      ],
      [
        "(iso",
        -1.0
      ],
      [
        "(it",
        -1.0
      ],
      [
        "(iv",
        -1.0
      ],
      [
        "(ix",
        -1.0
      ],
      [
        "(j",
        -1.0
      ],
      [
        "(just",
        -1.0
      ],
      [
        "(k",
        -1.0
      ],
      [
        "(kelly",
        -1.0
      ],
      [
        "(kernel",
        -1.0
      ],
      [
        "(key",
        -1.0
      ],
      [
        "(kg",
        -1.0
      ],
      [
        "(known",
        -1.0
      ],
      [
        "(kx",
        -1.0
      ],
      [
        "(l",
        -1.0
      ],
      [
        "(lactic",
        -1.0
      ],
      [
        "(lambda",
        -1.0
      ],
      [
        "(last",
        -1.0
      ],
      [
        "(lat",
        -1.0
      ],
      [
        "(laughter",
        -1.0
      ],
      [
        "(led",
        -1.0
      ],
      [
        "(left",
        -1.0
      ],
      [
        "(len",
        -1.0
      ],
      [
        "(length",
        -1.0
      ],
      [
        "(less",
        -1.0
      ],
      [
        "(light",
        -1.0
      ],
      [
        "(like",
        -1.0
      ],
      [
        "(line",
        -1.0
      ],
      [
        "(link",
        -1.0
      ],
      [
        "(list",
        -1.0
      ],
      [
        "(ll",
        -1.0
      ],
      [
        "(lngKeyHandle",
        -1.0
      ],
      [
        "(localPlayer",
        -1.0
      ],
      [
        "(location",
        -1.0
      ],
      [
        "(log",
        -1.0
      ],
      [
        "(long",
        -1.0
      ],
      [
        "(low",
        -1.0
      ],
      [
        "(m",
        -1.0
      ],
      [
        "(made",
        -1.0
      ],
      [
        "(main",
        -1.0
      ],
      [
        "(make",
        -1.0
      ],
      [
        "(map",
        -1.0
      ],
      [
        "(math",
        -1.0
      ],
      [
        "(matrix",
        -1.0
      ],
      [
        "(max",
        -1.0
      ],
      [
        "(maybe",
        -1.0
      ],
      [
        "(meaning",
        -1.0
      ],
      [
        "(message",
        -1.0
      ],
      [
        "(methyl",
        -1.0
      ],
      [
        "(mg",
        -1.0
      ],
      [
        "(min",
        -1.0
      ],
      [
        "(miso",
        -1.0
      ],
      [
        "(mm",
        -1.0
      ],
      [
        "(model",
        -1.0
      ],
      [
        "(month",
        -1.0
      ],
      [
        "(more",
        -1.0
      ],
      [
        "(most",
        -1.0
      ],
      [
        "(my",
        -1.0
      ],
      [
        "(n",
        -1.0
      ],
      [
        "(nTs",
        -1.0
      ],
      [
        "(name",
        -1.0
      ],
      [
        "(negative",
        -1.0
      ],
      [
        "(net",
        -1.0
      ],
      [
        "(new",
        -1.0
      ],
      [
        "(next",
        -1.0
      ],
      [
        "(node",
        -1.0
      ],
      [
        "(non",
        -1.0
      ],
      [
        "(normal",
        -1.0
      ],
      [
        "(not",
        -1.0
      ],
      [
        "(noun",
        -1.0
      ],
      [
        "(now",
        -1.0
      ],
      [
        "(np",
        -1.0
      ],
      [
        "(nsrootn",
        -1.0
      ],
      [
        "(nt",
        -1.0
      ],
      [
        "(null",
        -1.0
      ],
      [
        "(num",
        -1.0
      ],
      [
        "(number",
        -1.0
      ],
      [
        "(nums",
        -1.0
      ],
      [
        "(object",
        -1.0
      ],
      [
        "(of",
        -1.0
      ],
      [
        "(oh",
        -1.0
      ],
      [
        "(on",
        -1.0
      ],
      [
        "(opens",
        -1.0
      ],
      [
        "(optimizer",
        -1.0
      ],
      [
        "(optional",
        -1.0
      ],
      [
        "(or",
        -1.0
      ],
      [
        "(os",
        -1.0
      ],
      [
        "(other",
        -1.0
      ],
      [
        "(out",
        -1.0
      ],
      [
        "(oxalato",
        -1.0
      ],
      [
        "(oxyethylene",
        -1.0
      ],
      [
        "(p",
        -1.0
      ],
      [
        "(paediatrician",
        -1.0
      ],
      [
        "(page",
        -1.0
      ],
      [
        "(para",
        -1.0
      ],
      [
        "(parent",
        -1.0
      ],
      [
        "(parties",
        -1.0
      ],
      [
        "(path",
        -1.0
      ],
      [
        "(pattern",
        -1.0
      ],
      [
        "(peak",
        -1.0
      ],
      [
        "(perhaps",
        -1.0
      ],
      [
        "(person",
        -1.0
      ],
      [
        "(pg",
        -1.0
      ],
      [
        "(phi",
        -1.0
      ],
      [
        "(photo",
        -1.0
      ],
      [
        "(phtmeimb",
        -1.0
      ],
      [
        "(piece",
        -1.0
      ],
      [
        "(pin",
        -1.0
      ],
      [
        "(plate",
        -1.0
      ],
      [
        "(player",
        -1.0
      ],
      [
        "(please",
        -1.0
      ],
      [
        "(ply",
        -1.0
      ],
      [
        "(pn",
        -1.0
      ],
      [
        "(pointInTriangle",
        -1.0
      ],
      [
        "(points",
        -1.0
      ],
      [
        "(poly",
        -1.0
      ],
      [
        "(position",
        -1.0
      ],
      [
        "(positive",
        -1.0
      ],
      [
        "(pp",
        -1.0
      ],
      [
        "(preds",
        -1.0
      ],
      [
        "(preferably",
        -1.0
      ],
      [
        "(prenominal",
        -1.0
      ],
      [
        "(price",
        -1.0
      ],
      [
        "(private",
        -1.0
      ],
      [
        "(probably",
        -1.0
      ],
      [
        "(pronounced",
        -1.0
      ],
      [
        "(public",
        -1.0
      ],
      [
        "(puzzle",
        -1.0
      ],
      [
        "(q",
        -1.0
      ],
      [
        "(query",
        -1.0
      ],
      [
        "(queue",
        -1.0
      ],
      [
        "(r",
        -1.0
      ],
      [
        "(radians",
        -1.0
      ],
      [
        "(random",
        -1.0
      ],
      [
        "(range",
        -1.0
      ],
      [
        "(raw",
        -1.0
      ],
      [
        "(read",
        -1.0
      ],
      [
        "(rec",
        -1.0
      ],
      [
        "(redirected",
        -1.0
      ],
      [
        "(remember",
        -1.0
      ],
      [
        "(ren",
        -1.0
      ],
      [
        "(required",
        -1.0
      ],
      [
        "(response",
        -1.0
      ],
      [
        "(result",
        -1.0
      ],
      [
        "(retrieved",
        -1.0
      ],
      [
        "(reversed",
        -1.0
      ],
      [
        "(right",
        -1.0
      ],
      [
        "(root",
        -1.0
      ],
      [
        "(rotation",
        -1.0
      ],
      [
        "(row",
        -1.0
      ],
      [
        "(rt",
        -1.0
      ],
      [
        "(run",
        -1.0
      ],
      [
        "(s",
        -1.0
      ],
      [
        "(same",
        -1.0
      ],
      [
        "(sample",
        -1.0
      ],
      [
        "(save",
        -1.0
      ],
      [
        "(score",
        -1.0
      ],
      [
        "(screen",
        -1.0
      ],
      [
        "(scroll",
        -1.0
      ],
      [
        "(second",
        -1.0
      ],
      [
        "(see",
        -1.0
      ],
      [
        "(segment",
        -1.0
      ],
      [
        "(self",
        -1.0
      ],
      [
        "(sensor",
        -1.0
      ],
      [
        "(sentence",
        -1.0
      ],
      [
        "(sequence",
        -1.0
      ],
      [
        "(set",
        -1.0
      ],
      [
        "(shape",
        -1.0
      ],
      [
        "(sharpened",
        -1.0
      ],
      [
        "(short",
        -1.0
      ],
      [
        "(sibling",
        -1.0
      ],
      [
        "(side",
        -1.0
      ],
      [
        "(signal",
        -1.0
      ],
      [
        "(similar",
        -1.0
      ],
      [
        "(size",
        -1.0
      ],
      [
        "(slow",
        -1.0
      ],
      [
        "(small",
        -1.0
      ],
      [
        "(some",
        -1.0
      ],
      [
        "(sorry",
        -1.0
      ],
      [
        "(soup",
        -1.0
      ],
      [
        "(source",
        -1.0
      ],
      [
        "(spectrogram",
        -1.0
      ],
      [
        "(start",
        -1.0
      ],
      [
        "(state",
        -1.0
      ],
      [
        "(std",
        -1.0
      ],
      [
        "(steel",
        -1.0
      ],
      [
        "(step",
        -1.0
      ],
      [
        "(string",
        -1.0
      ],
      [
        "(structinode",
        -1.0
      ],
      [
        "(structnet",
        -1.0
      ],
      [
        "(structtyphoon",
        -1.0
      ],
      [
        "(sub",
        -1.0
      ],
      [
        "(such",
        -1.0
      ],
      [
        "(sulfosuccinimidyl",
        -1.0
      ],
      [
        "(sulphur",
        -1.0
      ],
      [
        "(sum",
        -1.0
      ],
      [
        "(super",
        -1.0
      ],
      [
        "(sys",
        -1.0
      ],
      [
        "(t",
        -1.0
      ],
      [
        "(table",
        -1.0
      ],
      [
        "(talk",
        -1.0
      ],
      [
        "(tan",
        -1.0
      ],
      [
        "(target",
        -1.0
      ],
      [
        "(task",
        -1.0
      ],
      [
        "(temp",
        -1.0
      ],
      [
        "(test",
        -1.0
      ],
      [
        "(text",
        -1.0
      ],
      [
        "(tf",
        -1.0
      ],
      [
        "(that",
        -1.0
      ],
      [
        "(the",
        -1.0
      ],
      [
        "(there",
        -1.0
      ],
      [
        "(these",
        -1.0
      ],
      [
        "(theta",
        -1.0
      ],
      [
        "(they",
        -1.0
      ],
      [
        "(this",
        -1.0
      ],
      [
        "(though",
        -1.0
      ],
      [
        "(ti",
        -1.0
      ],
      [
        "(tk",
        -1.0
      ],
      [
        "(tm",
        -1.0
      ],
      [
        "(to",
        -1.0
      ],
      [
        "(train",
        -1.0
      ],
      [
        "(true",
        -1.0
      ],
      [
        "(two",
        -1.0
      ],
      [
        "(type",
        -1.0
      ],
      [
        "(typically",
        -1.0
      ],
      [
        "(u",
        -1.0
      ],
      [
        "(uint",
        -1.0
      ],
      [
        "(up",
        -1.0
      ],
      [
        "(url",
        -1.0
      ],
      [
        "(used",
        -1.0
      ],
      [
        "(user",
        -1.0
      ],
      [
        "(using",
        -1.0
      ],
      [
        "(usually",
        -1.0
      ],
      [
        "(v",
        -1.0
      ],
      [
        "(valor",
        -1.0
      ],
      [
        "(value",
        -1.0
      ],
      [
        "(var",
        -1.0
      ],
      [
        "(vector",
        -1.0
      ],
      [
        "(vehicle",
        -1.0
      ],
      [
        "(vertexPositions",
        -1.0
      ],
      [
        "(video",
        -1.0
      ],
      [
        "(vii",
        -1.0
      ],
      [
        "(vinyl",
        -1.0
      ],
      [
        "(visaObj",
        -1.0
      ],
      [
        "(void",
        -1.0
      ],
      [
        "(vtk",
        -1.0
      ],
      [
        "(w",
        -1.0
      ],
      [
        "(warehouse",
        -1.0
      ],
      [
        "(water",
        -1.0
      ],
      [
        "(what",
        -1.0
      ],
      [
        "(when",
        -1.0
      ],
      [
        "(where",
        -1.0
      ],
      [
        "(which",
        -1.0
      ],
      [
        "(white",
        -1.0
      ],
      [
        "(who",
        -1.0
      ],
      [
        "(width",
        -1.0
      ],
      [
        "(with",
        -1.0
      ],
      [
        "(word",
        -1.0
      ],
      [
        "(x",
        -1.0
      ],
      [
        "(xi",
        -1.0
      ],
      [
        "(xn",
        -1.0
      ],
      [
        "(xx",
        -1.0
      ],
      [
        "(xy",
        -1.0
      ],
      [
        "(y",
        -1.0
      ],
      [
        "(yes",
        -1.0
      ],
      [
        "(you",
        -1.0
      ],
      [
        "(yz",
        -1.0
      ],
      [
        "(z",
        -1.0
      ],
      [
        "({",
        -1.0
      ],
      [
        "({'",
        -1.0
      ],
      [
        "({});",
        -1.0
      ],
      [
        "({Ċ",
        -1.0
      ],
      [
        "(Â´",
        -1.0
      ],
      [
        "(Â·)",
        -1.0
      ],
      [
        "(ËĨx",
        -1.0
      ],
      [
        "(Î©",
        -1.0
      ],
      [
        "(Î±",
        -1.0
      ],
      [
        "(Î²",
        -1.0
      ],
      [
        "(Î³",
        -1.0
      ],
      [
        "(Î´",
        -1.0
      ],
      [
        "(Îµ",
        -1.0
      ],
      [
        "(Î·",
        -1.0
      ],
      [
        "(Î¸",
        -1.0
      ],
      [
        "(Î»",
        -1.0
      ],
      [
        "(Î¼",
        -1.0
      ],
      [
        "(Îĵ",
        -1.0
      ],
      [
        "(ÎĶ",
        -1.0
      ],
      [
        "(Îĺ",
        -1.0
      ],
      [
        "(ÎĽ",
        -1.0
      ],
      [
        "(ÏĢ",
        -1.0
      ],
      [
        "(Ïģ",
        -1.0
      ],
      [
        "(Ïĥ",
        -1.0
      ],
      [
        "(ÏĦ",
        -1.0
      ],
      [
        "(ÏĨ",
        -1.0
      ],
      [
        "(Ïī",
        -1.0
      ],
      [
        "(Ø®",
        -1.0
      ],
      [
        "(âĦĿ",
        -1.0
      ],
      [
        "(âĪĴ",
        -1.0
      ],
      [
        "(âĪŀ)",
        -1.0
      ],
      [
        "(âĭħ)",
        -1.0
      ],
      [
        "(âķĲ",
        -1.0
      ],
      [
        "(âĹ¯",
        -1.0
      ],
      [
        "(ä¾ĭãģĪãģ°",
        -1.0
      ],
      [
        "(æłª",
        -1.0
      ],
      [
        "(ëĮĢíķľìĨĮìķĦì¹ĺê³¼íķĻíļĮì§Ģ",
        -1.0
      ],
      [
        "(ëĺĲëĬĶ",
        -1.0
      ],
      [
        "(ìĭ¤ìĭľ",
        -1.0
      ],
      [
        "(ìĿ´íķĺ",
        -1.0
      ],
      [
        "(Ċ",
        -1.0
      ],
      [
        "(ĊĊ",
        -1.0
      ],
      [
        ")!",
        -1.0
      ],
      [
        ")!Ċ",
        -1.0
      ],
      [
        ")!ĊĊ",
        -1.0
      ],
      [
        ")\"",
        -1.0
      ],
      [
        ")\",",
        -1.0
      ],
      [
        ")\",\"",
        -1.0
      ],
      [
        ")\",ĊĊ",
        -1.0
      ],
      [
        ")\".",
        -1.0
      ],
      [
        ")\".ĊĊ",
        -1.0
      ],
      [
        ")\"},{\"",
        -1.0
      ],
      [
        ")\"ĊĊ",
        -1.0
      ],
      [
        ")#",
        -1.0
      ],
      [
        ")$",
        -1.0
      ],
      [
        ")$,",
        -1.0
      ],
      [
        ")$.",
        -1.0
      ],
      [
        ")$ĊĊ",
        -1.0
      ],
      [
        ")%>%",
        -1.0
      ],
      [
        ")&\"/\"&",
        -1.0
      ],
      [
        ")'",
        -1.0
      ],
      [
        ")',",
        -1.0
      ],
      [
        ")'.",
        -1.0
      ],
      [
        ")(",
        -1.0
      ],
      [
        ")((",
        -1.0
      ],
      [
        ")(+",
        -1.0
      ],
      [
        ")(-",
        -1.0
      ],
      [
        "))",
        -1.0
      ],
      [
        "))#",
        -1.0
      ],
      [
        "))(",
        -1.0
      ],
      [
        ")))",
        -1.0
      ],
      [
        ")))Ċ",
        -1.0
      ],
      [
        ")),",
        -1.0
      ],
      [
        ")).",
        -1.0
      ],
      [
        ")).Ċ",
        -1.0
      ],
      [
        ")).ĊĊ",
        -1.0
      ],
      [
        "))/",
        -1.0
      ],
      [
        ")):Ċ",
        -1.0
      ],
      [
        "));Ċ",
        -1.0
      ],
      [
        "));ĊĊ",
        -1.0
      ],
      [
        "))Ċ",
        -1.0
      ],
      [
        "))ĊĊ",
        -1.0
      ],
      [
        "))čĊ",
        -1.0
      ],
      [
        ")*",
        -1.0
      ],
      [
        ")*(",
        -1.0
      ],
      [
        ")**:",
        -1.0
      ],
      [
        ")**ĊĊ",
        -1.0
      ],
      [
        ")*ĊĊ",
        -1.0
      ],
      [
        ")+",
        -1.0
      ],
      [
        ")+(",
        -1.0
      ],
      [
        ")+\\",
        -1.0
      ],
      [
        "),",
        -1.0
      ],
      [
        "),\"",
        -1.0
      ],
      [
        "),'",
        -1.0
      ],
      [
        "),(",
        -1.0
      ],
      [
        "),[",
        -1.0
      ],
      [
        "),âĢĿ",
        -1.0
      ],
      [
        "),Ċ",
        -1.0
      ],
      [
        "),ĊĊ",
        -1.0
      ],
      [
        "),čĊ",
        -1.0
      ],
      [
        ")-",
        -1.0
      ],
      [
        ")-(",
        -1.0
      ],
      [
        ")-,",
        -1.0
      ],
      [
        ")--",
        -1.0
      ],
      [
        ")-.",
        -1.0
      ],
      [
        ")->",
        -1.0
      ],
      [
        ")-Ċ",
        -1.0
      ],
      [
        ").",
        -1.0
      ],
      [
        ").\"",
        -1.0
      ],
      [
        ").\"Ċ",
        -1.0
      ],
      [
        ").\"ĊĊ",
        -1.0
      ],
      [
        ").$\\",
        -1.0
      ],
      [
        ").&",
        -1.0
      ],
      [
        ").'Ċ",
        -1.0
      ],
      [
        ").(",
        -1.0
      ],
      [
        ").)ĊĊ",
        -1.0
      ],
      [
        ").,",
        -1.0
      ],
      [
        ").-",
        -1.0
      ],
      [
        ")..",
        -1.0
      ],
      [
        ")...",
        -1.0
      ],
      [
        ")....",
        -1.0
      ],
      [
        ")....ĊĊ",
        -1.0
      ],
      [
        ")...ĊĊ",
        -1.0
      ],
      [
        ")..Ċ",
        -1.0
      ],
      [
        ").</",
        -1.0
      ],
      [
        ").[",
        -1.0
      ],
      [
        ").]ĊĊ",
        -1.0
      ],
      [
        ").|Ċ",
        -1.0
      ],
      [
        ").âĢ¢",
        -1.0
      ],
      [
        ").âĢĶ",
        -1.0
      ],
      [
        ").âĢĿĊ",
        -1.0
      ],
      [
        ").Ċ",
        -1.0
      ],
      [
        ").ĊĊ",
        -1.0
      ],
      [
        ")/",
        -1.0
      ],
      [
        ")/(",
        -1.0
      ],
      [
        ")//",
        -1.0
      ],
      [
        ")/\\",
        -1.0
      ],
      [
        "):",
        -1.0
      ],
      [
        "):\"\"\"",
        -1.0
      ],
      [
        "):**",
        -1.0
      ],
      [
        "):-",
        -1.0
      ],
      [
        ")::",
        -1.0
      ],
      [
        "):<",
        -1.0
      ],
      [
        "):=",
        -1.0
      ],
      [
        "):||",
        -1.0
      ],
      [
        "):Ċ",
        -1.0
      ],
      [
        "):ĊĊ",
        -1.0
      ],
      [
        "):čĊ",
        -1.0
      ],
      [
        ");",
        -1.0
      ],
      [
        ");//",
        -1.0
      ],
      [
        ");?>",
        -1.0
      ],
      [
        ");}",
        -1.0
      ],
      [
        ");Ċ",
        -1.0
      ],
      [
        ");ĊĊ",
        -1.0
      ],
      [
        ")<",
        -1.0
      ],
      [
        ")</",
        -1.0
      ],
      [
        ")=",
        -1.0
      ],
      [
        ")=(",
        -1.0
      ],
      [
        ")=>",
        -1.0
      ],
      [
        ")=\\",
        -1.0
      ],
      [
        ")={",
        -1.0
      ],
      [
        ")=|",
        -1.0
      ],
      [
        ")>",
        -1.0
      ],
      [
        ")?",
        -1.0
      ],
      [
        ")?\"",
        -1.0
      ],
      [
        ")?Ċ",
        -1.0
      ],
      [
        ")?ĊĊ",
        -1.0
      ],
      [
        ")@",
        -1.0
      ],
      [
        ")A",
        -1.0
      ],
      [
        ")AGEHEIGHTWEIGHT",
        -1.0
      ],
      [
        ")AGEWEIGHT",
        -1.0
      ],
      [
        ")All",
        -1.0
      ],
      [
        ")And",
        -1.0
      ],
      [
        ")Buddhism",
        -1.0
      ],
      [
        ")By",
        -1.0
      ],
      [
        ")CHR",
        -1.0
      ],
      [
        ")Calculate",
        -1.0
      ],
      [
        ")Current",
        -1.0
      ],
      [
        ")D",
        -1.0
      ],
      [
        ")DEFAULTNULL",
        -1.0
      ],
      [
        ")Describe",
        -1.0
      ],
      [
        ")Explain",
        -1.0
      ],
      [
        ")Figure",
        -1.0
      ],
      [
        ")Find",
        -1.0
      ],
      [
        ")For",
        -1.0
      ],
      [
        ")Full",
        -1.0
      ],
      [
        ")Give",
        -1.0
      ],
      [
        ")Good",
        -1.0
      ],
      [
        ")Google",
        -1.0
      ],
      [
        ")H",
        -1.0
      ],
      [
        ")HTML",
        -1.0
      ],
      [
        ")How",
        -1.0
      ],
      [
        ")I",
        -1.0
      ],
      [
        ")If",
        -1.0
      ],
      [
        ")It",
        -1.0
      ],
      [
        ")Macedonia",
        -1.0
      ],
      [
        ")More",
        -1.0
      ],
      [
        ")N",
        -1.0
      ],
      [
        ")None",
        -1.0
      ],
      [
        ")O",
        -1.0
      ],
      [
        ")P",
        -1.0
      ],
      [
        ")Pt",
        -1.0
      ],
      [
        ")PySimpleGUIãģ§GUIãĤ¢ãĥĹãĥªãĤĴä½ľãģ£ãģ¦ãģ¿ãģŁ",
        -1.0
      ],
      [
        ")Rate",
        -1.0
      ],
      [
        ")SafetyLitnewsMon",
        -1.0
      ],
      [
        ")Select",
        -1.0
      ],
      [
        ")Some",
        -1.0
      ],
      [
        ")Target",
        -1.0
      ],
      [
        ")Thank",
        -1.0
      ],
      [
        ")That",
        -1.0
      ],
      [
        ")The",
        -1.0
      ],
      [
        ")There",
        -1.0
      ],
      [
        ")They",
        -1.0
      ],
      [
        ")This",
        -1.0
      ],
      [
        ")To",
        -1.0
      ],
      [
        ")Unhelpful",
        -1.0
      ],
      [
        ")Use",
        -1.0
      ],
      [
        ")Variant",
        -1.0
      ],
      [
        ")Water",
        -1.0
      ],
      [
        ")We",
        -1.0
      ],
      [
        ")What",
        -1.0
      ],
      [
        ")When",
        -1.0
      ],
      [
        ")Which",
        -1.0
      ],
      [
        ")Why",
        -1.0
      ],
      [
        ")Write",
        -1.0
      ],
      [
        ")X",
        -1.0
      ],
      [
        ")Yes",
        -1.0
      ],
      [
        ")You",
        -1.0
      ],
      [
        ")[",
        -1.0
      ],
      [
        ")[/",
        -1.0
      ],
      [
        ")\\",
        -1.0
      ],
      [
        ")\\)",
        -1.0
      ],
      [
        ")\\),",
        -1.0
      ],
      [
        ")\\).",
        -1.0
      ],
      [
        ")\\,",
        -1.0
      ],
      [
        ")\\\\Ċ",
        -1.0
      ],
      [
        ")]",
        -1.0
      ],
      [
        ")](",
        -1.0
      ],
      [
        ")],",
        -1.0
      ],
      [
        ")].",
        -1.0
      ],
      [
        ")].ĊĊ",
        -1.0
      ],
      [
        ")][",
        -1.0
      ],
      [
        ")]Ċ",
        -1.0
      ],
      [
        ")]ĊĊ",
        -1.0
      ],
      [
        ")^",
        -1.0
      ],
      [
        ")^-",
        -1.0
      ],
      [
        ")^{",
        -1.0
      ],
      [
        ")_/Â¯",
        -1.0
      ],
      [
        ")_{",
        -1.0
      ],
      [
        ")`",
        -1.0
      ],
      [
        ")`,",
        -1.0
      ],
      [
        ")`ĊĊ",
        -1.0
      ],
      [
        ")a",
        -1.0
      ],
      [
        ")acrylate",
        -1.0
      ],
      [
        ")amino",
        -1.0
      ],
      [
        ")and",
        -1.0
      ],
      [
        ")are",
        -1.0
      ],
      [
        ")aristolactam",
        -1.0
      ],
      [
        ")as",
        -1.0
      ],
      [
        ")at",
        -1.0
      ],
      [
        ")b",
        -1.0
      ],
      [
        ")can",
        -1.0
      ],
      [
        ")chemical",
        -1.0
      ],
      [
        ")cm",
        -1.0
      ],
      [
        ")const",
        -1.0
      ],
      [
        ")cos",
        -1.0
      ],
      [
        ")cshl",
        -1.0
      ],
      [
        ")ctxt",
        -1.0
      ],
      [
        ")dihydroxyacetone",
        -1.0
      ],
      [
        ")dt",
        -1.0
      ],
      [
        ")dx",
        -1.0
      ],
      [
        ")ethane",
        -1.0
      ],
      [
        ")fmapMBf",
        -1.0
      ],
      [
        ")for",
        -1.0
      ],
      [
        ")from",
        -1.0
      ],
      [
        ")habilitation",
        -1.0
      ],
      [
        ")has",
        -1.0
      ],
      [
        ")have",
        -1.0
      ],
      [
        ")he",
        -1.0
      ],
      [
        ")http",
        -1.0
      ],
      [
        ")if",
        -1.0
      ],
      [
        ")imide",
        -1.0
      ],
      [
        ")in",
        -1.0
      ],
      [
        ")is",
        -1.0
      ],
      [
        ")it",
        -1.0
      ],
      [
        ")j",
        -1.0
      ],
      [
        ")k",
        -1.0
      ],
      [
        ")local",
        -1.0
      ],
      [
        ")log",
        -1.0
      ],
      [
        ")lpr",
        -1.0
      ],
      [
        ")m",
        -1.0
      ],
      [
        ")n",
        -1.0
      ],
      [
        ")of",
        -1.0
      ],
      [
        ")on",
        -1.0
      ],
      [
        ")or",
        -1.0
      ],
      [
        ")oxide",
        -1.0
      ],
      [
        ")phenyl",
        -1.0
      ],
      [
        ")points",
        -1.0
      ],
      [
        ")print",
        -1.0
      ],
      [
        ")propan",
        -1.0
      ],
      [
        ")pyrrolidin",
        -1.0
      ],
      [
        ")return",
        -1.0
      ],
      [
        ")reverberated",
        -1.0
      ],
      [
        ")ribulose",
        -1.0
      ],
      [
        ")s",
        -1.0
      ],
      [
        ")self",
        -1.0
      ],
      [
        ")sin",
        -1.0
      ],
      [
        ")sulfate",
        -1.0
      ],
      [
        ")thankYou",
        -1.0
      ],
      [
        ")that",
        -1.0
      ],
      [
        ")the",
        -1.0
      ],
      [
        ")to",
        -1.0
      ],
      [
        ")type",
        -1.0
      ],
      [
        ")use",
        -1.0
      ],
      [
        ")v",
        -1.0
      ],
      [
        ")was",
        -1.0
      ],
      [
        ")water",
        -1.0
      ],
      [
        ")what",
        -1.0
      ],
      [
        ")when",
        -1.0
      ],
      [
        ")where",
        -1.0
      ],
      [
        ")which",
        -1.0
      ],
      [
        ")with",
        -1.0
      ],
      [
        ")x",
        -1.0
      ],
      [
        ")y",
        -1.0
      ],
      [
        ")z",
        -1.0
      ],
      [
        "){",
        -1.0
      ],
      [
        "){-!Ċ",
        -1.0
      ],
      [
        "){/*",
        -1.0
      ],
      [
        "){//",
        -1.0
      ],
      [
        "){\\",
        -1.0
      ],
      [
        "){}//",
        -1.0
      ],
      [
        ")|",
        -1.0
      ],
      [
        ")||",
        -1.0
      ],
      [
        ")||âĪĴ",
        -1.0
      ],
      [
        ")|Ċ",
        -1.0
      ],
      [
        ")}",
        -1.0
      ],
      [
        ")},Ċ",
        -1.0
      ],
      [
        ")}.",
        -1.0
      ],
      [
        ")}\\)",
        -1.0
      ],
      [
        ")}{",
        -1.0
      ],
      [
        ")}Ċ",
        -1.0
      ],
      [
        ")~",
        -1.0
      ],
      [
        ")Â¥,",
        -1.0
      ],
      [
        ")Â°,",
        -1.0
      ],
      [
        ")Â°.",
        -1.0
      ],
      [
        ")ÃĹ",
        -1.0
      ],
      [
        ")Î±",
        -1.0
      ],
      [
        ")Î´",
        -1.0
      ],
      [
        ")Îĵ",
        -1.0
      ],
      [
        ")ÎĶ",
        -1.0
      ],
      [
        ")Ø¢",
        -1.0
      ],
      [
        ")âĢ¢",
        -1.0
      ],
      [
        ")âĢ¦",
        -1.0
      ],
      [
        ")âĢ¦.",
        -1.0
      ],
      [
        ")âĢ¦ĊĊ",
        -1.0
      ],
      [
        ")âĢİ",
        -1.0
      ],
      [
        ")âĢĵ",
        -1.0
      ],
      [
        ")âĢĵ(",
        -1.0
      ],
      [
        ")âĢĶ",
        -1.0
      ],
      [
        ")âĢĻ",
        -1.0
      ],
      [
        ")âĢĿ",
        -1.0
      ],
      [
        ")âĦĥĊ",
        -1.0
      ],
      [
        ")âĨĴ",
        -1.0
      ],
      [
        ")âĪ§",
        -1.0
      ],
      [
        ")âĪ¨",
        -1.0
      ],
      [
        ")âĪ¼",
        -1.0
      ],
      [
        ")âĪĤ",
        -1.0
      ],
      [
        ")âĪĪ",
        -1.0
      ],
      [
        ")âĪĴ",
        -1.0
      ],
      [
        ")âī¤",
        -1.0
      ],
      [
        ")âī¥",
        -1.0
      ],
      [
        ")âīĪ",
        -1.0
      ],
      [
        ")âĬ¨",
        -1.0
      ],
      [
        ")âĬķ(",
        -1.0
      ],
      [
        ")âĭħ",
        -1.0
      ],
      [
        ")âĹľâľ§ËĸÂ°",
        -1.0
      ],
      [
        ")ãĢģ",
        -1.0
      ],
      [
        ")ãĢĤ",
        -1.0
      ],
      [
        ")ãĢľ(",
        -1.0
      ],
      [
        ")ëĬĶ",
        -1.0
      ],
      [
        ")ëĿ¼ê³ł",
        -1.0
      ],
      [
        ")ìĤ¬ìĿ´ìĹĲëĬĶ",
        -1.0
      ],
      [
        ")ìĹĲ",
        -1.0
      ],
      [
        ")ìĿ´",
        -1.0
      ],
      [
        ")ìĿĢ",
        -1.0
      ],
      [
        ")ìĿĦ",
        -1.0
      ],
      [
        ")ìĿĺ",
        -1.0
      ],
      [
        ")ïĥĢïĢł",
        -1.0
      ],
      [
        ")Ċ",
        -1.0
      ],
      [
        ")ĊĊ",
        -1.0
      ],
      [
        ")ĊĊĊ",
        -1.0
      ],
      [
        ")čĊ",
        -1.0
      ],
      [
        ")čĊčĊ",
        -1.0
      ],
      [
        "*\"",
        -1.0
      ],
      [
        "*''",
        -1.0
      ],
      [
        "*(",
        -1.0
      ],
      [
        "*)",
        -1.0
      ],
      [
        "*),",
        -1.0
      ],
      [
        "**",
        -1.0
      ],
      [
        "**(-",
        -1.0
      ],
      [
        "***",
        -1.0
      ],
      [
        "***Ċ",
        -1.0
      ],
      [
        "***ĊĊ",
        -1.0
      ],
      [
        "**,",
        -1.0
      ],
      [
        "**.",
        -1.0
      ],
      [
        "**:",
        -1.0
      ],
      [
        "**:Ċ",
        -1.0
      ],
      [
        "**](",
        -1.0
      ],
      [
        "**Ċ",
        -1.0
      ],
      [
        "**ĊĊ",
        -1.0
      ],
      [
        "*,",
        -1.0
      ],
      [
        "*-",
        -1.0
      ],
      [
        "*.",
        -1.0
      ],
      [
        "*.Ċ",
        -1.0
      ],
      [
        "*.ĊĊ",
        -1.0
      ],
      [
        "*/Ċ",
        -1.0
      ],
      [
        "*:",
        -1.0
      ],
      [
        "*:-.,_,.-:*'``'*:-.,_,.-:*'``'*:-.,_,.-:*",
        -1.0
      ],
      [
        "*:ãĥ»ãĤļâľ§",
        -1.0
      ],
      [
        "*=",
        -1.0
      ],
      [
        "*A",
        -1.0
      ],
      [
        "*Activity",
        -1.0
      ],
      [
        "*Address",
        -1.0
      ],
      [
        "*All",
        -1.0
      ],
      [
        "*Although",
        -1.0
      ],
      [
        "*B",
        -1.0
      ],
      [
        "*C",
        -1.0
      ],
      [
        "*Disclaimer",
        -1.0
      ],
      [
        "*Don",
        -1.0
      ],
      [
        "*Enter",
        -1.0
      ],
      [
        "*Example",
        -1.0
      ],
      [
        "*Figure",
        -1.0
      ],
      [
        "*For",
        -1.0
      ],
      [
        "*Gun",
        -1.0
      ],
      [
        "*Have",
        -1.0
      ],
      [
        "*How",
        -1.0
      ],
      [
        "*I",
        -1.0
      ],
      [
        "*If",
        -1.0
      ],
      [
        "*It",
        -1.0
      ],
      [
        "*Just",
        -1.0
      ],
      [
        "*Ll",
        -1.0
      ],
      [
        "*MI",
        -1.0
      ],
      [
        "*NOTE",
        -1.0
      ],
      [
        "*Note",
        -1.0
      ],
      [
        "*OSOSS",
        -1.0
      ],
      [
        "*One",
        -1.0
      ],
      [
        "*Originally",
        -1.0
      ],
      [
        "*Please",
        -1.0
      ],
      [
        "*Plus",
        -1.0
      ],
      [
        "*Q",
        -1.0
      ],
      [
        "*R",
        -1.0
      ],
      [
        "*Remember",
        -1.0
      ],
      [
        "*STAR",
        -1.0
      ],
      [
        "*Some",
        -1.0
      ],
      [
        "*Step",
        -1.0
      ],
      [
        "*Syst",
        -1.0
      ],
      [
        "*The",
        -1.0
      ],
      [
        "*There",
        -1.0
      ],
      [
        "*These",
        -1.0
      ],
      [
        "*This",
        -1.0
      ],
      [
        "*Use",
        -1.0
      ],
      [
        "*V",
        -1.0
      ],
      [
        "*We",
        -1.0
      ],
      [
        "*What",
        -1.0
      ],
      [
        "*When",
        -1.0
      ],
      [
        "*Winner",
        -1.0
      ],
      [
        "*X",
        -1.0
      ],
      [
        "*You",
        -1.0
      ],
      [
        "*[[",
        -1.0
      ],
      [
        "*a",
        -1.0
      ],
      [
        "*b",
        -1.0
      ],
      [
        "*ck",
        -1.0
      ],
      [
        "*constu",
        -1.0
      ],
      [
        "*cos",
        -1.0
      ],
      [
        "*d",
        -1.0
      ],
      [
        "*e",
        -1.0
      ],
      [
        "*g",
        -1.0
      ],
      [
        "*h",
        -1.0
      ],
      [
        "*ing",
        -1.0
      ],
      [
        "*iter",
        -1.0
      ],
      [
        "*j",
        -1.0
      ],
      [
        "*k",
        -1.0
      ],
      [
        "*ll",
        -1.0
      ],
      [
        "*ln",
        -1.0
      ],
      [
        "*log",
        -1.0
      ],
      [
        "*m",
        -1.0
      ],
      [
        "*n",
        -1.0
      ],
      [
        "*net",
        -1.0
      ],
      [
        "*not",
        -1.0
      ],
      [
        "*pi",
        -1.0
      ],
      [
        "*ptr",
        -1.0
      ],
      [
        "*r",
        -1.0
      ],
      [
        "*s",
        -1.0
      ],
      [
        "*shrug",
        -1.0
      ],
      [
        "*sin",
        -1.0
      ],
      [
        "*t",
        -1.0
      ],
      [
        "*tch",
        -1.0
      ],
      [
        "*u",
        -1.0
      ],
      [
        "*v",
        -1.0
      ],
      [
        "*w",
        -1.0
      ],
      [
        "*x",
        -1.0
      ],
      [
        "*y",
        -1.0
      ],
      [
        "*z",
        -1.0
      ],
      [
        "*}Ċ",
        -1.0
      ],
      [
        "*~",
        -1.0
      ],
      [
        "*ãĥ»ãĤļ:",
        -1.0
      ],
      [
        "*Ċ",
        -1.0
      ],
      [
        "*ĊĊ",
        -1.0
      ],
      [
        "+#",
        -1.0
      ],
      [
        "+%",
        -1.0
      ],
      [
        "+(",
        -1.0
      ],
      [
        "+)",
        -1.0
      ],
      [
        "+),",
        -1.0
      ],
      [
        "+).",
        -1.0
      ],
      [
        "+)ĊĊ",
        -1.0
      ],
      [
        "++",
        -1.0
      ],
      [
        "++\"",
        -1.0
      ],
      [
        "++)",
        -1.0
      ],
      [
        "+++",
        -1.0
      ],
      [
        "++,",
        -1.0
      ],
      [
        "++.",
        -1.0
      ],
      [
        "++/",
        -1.0
      ],
      [
        "++;",
        -1.0
      ],
      [
        "++?",
        -1.0
      ],
      [
        "+,",
        -1.0
      ],
      [
        "+-",
        -1.0
      ],
      [
        "+.",
        -1.0
      ],
      [
        "+...+",
        -1.0
      ],
      [
        "+.Ċ",
        -1.0
      ],
      [
        "+.ĊĊ",
        -1.0
      ],
      [
        "+/",
        -1.0
      ],
      [
        "+//",
        -1.0
      ],
      [
        "+:",
        -1.0
      ],
      [
        "+=",
        -1.0
      ],
      [
        "+A",
        -1.0
      ],
      [
        "+ABTS",
        -1.0
      ],
      [
        "+Alt",
        -1.0
      ],
      [
        "+B",
        -1.0
      ],
      [
        "+Backspace",
        -1.0
      ],
      [
        "+Business",
        -1.0
      ],
      [
        "+C",
        -1.0
      ],
      [
        "+CD",
        -1.0
      ],
      [
        "+CTRL",
        -1.0
      ],
      [
        "+CWLAP",
        -1.0
      ],
      [
        "+Cl",
        -1.0
      ],
      [
        "+Command",
        -1.0
      ],
      [
        "+Ctrl",
        -1.0
      ],
      [
        "+D",
        -1.0
      ],
      [
        "+DECKER",
        -1.0
      ],
      [
        "+E",
        -1.0
      ],
      [
        "+Enter",
        -1.0
      ],
      [
        "+F",
        -1.0
      ],
      [
        "+G",
        -1.0
      ],
      [
        "+H",
        -1.0
      ],
      [
        "+I",
        -1.0
      ],
      [
        "+IAPV",
        -1.0
      ],
      [
        "+J",
        -1.0
      ],
      [
        "+K",
        -1.0
      ],
      [
        "+L",
        -1.0
      ],
      [
        "+M",
        -1.0
      ],
      [
        "+N",
        -1.0
      ],
      [
        "+O",
        -1.0
      ],
      [
        "+Option",
        -1.0
      ],
      [
        "+P",
        -1.0
      ],
      [
        "+R",
        -1.0
      ],
      [
        "+S",
        -1.0
      ],
      [
        "+SHIFT",
        -1.0
      ],
      [
        "+SI",
        -1.0
      ],
      [
        "+Shift",
        -1.0
      ],
      [
        "+Stepper",
        -1.0
      ],
      [
        "+T",
        -1.0
      ],
      [
        "+U",
        -1.0
      ],
      [
        "+V",
        -1.0
      ],
      [
        "+W",
        -1.0
      ],
      [
        "+X",
        -1.0
      ],
      [
        "+Y",
        -1.0
      ],
      [
        "+Z",
        -1.0
      ],
      [
        "+\\",
        -1.0
      ],
      [
        "+]",
        -1.0
      ],
      [
        "+a",
        -1.0
      ],
      [
        "+b",
        -1.0
      ],
      [
        "+c",
        -1.0
      ],
      [
        "+click",
        -1.0
      ],
      [
        "+d",
        -1.0
      ],
      [
        "+f",
        -1.0
      ],
      [
        "+h",
        -1.0
      ],
      [
        "+i",
        -1.0
      ],
      [
        "+j",
        -1.0
      ],
      [
        "+k",
        -1.0
      ],
      [
        "+l",
        -1.0
      ],
      [
        "+m",
        -1.0
      ],
      [
        "+n",
        -1.0
      ],
      [
        "+p",
        -1.0
      ],
      [
        "+q",
        -1.0
      ],
      [
        "+r",
        -1.0
      ],
      [
        "+shift",
        -1.0
      ],
      [
        "+sin",
        -1.0
      ],
      [
        "+size",
        -1.0
      ],
      [
        "+spacebar",
        -1.0
      ],
      [
        "+subscribe",
        -1.0
      ],
      [
        "+t",
        -1.0
      ],
      [
        "+v",
        -1.0
      ],
      [
        "+w",
        -1.0
      ],
      [
        "+x",
        -1.0
      ],
      [
        "+y",
        -1.0
      ],
      [
        "+z",
        -1.0
      ],
      [
        "+Î±",
        -1.0
      ],
      [
        "+Î²",
        -1.0
      ],
      [
        "+Î´",
        -1.0
      ],
      [
        "+Î»",
        -1.0
      ],
      [
        "+Î¼sinÎ¸",
        -1.0
      ],
      [
        "+Îĵ",
        -1.0
      ],
      [
        "+ÎĶ",
        -1.0
      ],
      [
        "+Ïĥ",
        -1.0
      ],
      [
        "+Ïī",
        -1.0
      ],
      [
        "+âĢ¦+",
        -1.0
      ],
      [
        "+âĢĵ",
        -1.0
      ],
      [
        "+âĪŀĊĊ",
        -1.0
      ],
      [
        "+Ċ",
        -1.0
      ],
      [
        "+ĊĊ",
        -1.0
      ],
      [
        ",!",
        -1.0
      ],
      [
        ",!,",
        -1.0
      ],
      [
        ",\"",
        -1.0
      ],
      [
        ",\"\"",
        -1.0
      ],
      [
        ",\")",
        -1.0
      ],
      [
        ",\".ĊĊ",
        -1.0
      ],
      [
        ",\"[",
        -1.0
      ],
      [
        ",\"âĢĭ",
        -1.0
      ],
      [
        ",\"Ċ",
        -1.0
      ],
      [
        ",\"ĊĊ",
        -1.0
      ],
      [
        ",#",
        -1.0
      ],
      [
        ",$",
        -1.0
      ],
      [
        ",%",
        -1.0
      ],
      [
        ",&",
        -1.0
      ],
      [
        ",'",
        -1.0
      ],
      [
        ",'\"",
        -1.0
      ],
      [
        ",''",
        -1.0
      ],
      [
        ",''Ċ",
        -1.0
      ],
      [
        ",'Ċ",
        -1.0
      ],
      [
        ",(",
        -1.0
      ],
      [
        ",)",
        -1.0
      ],
      [
        ",),",
        -1.0
      ],
      [
        ",*",
        -1.0
      ],
      [
        ",+",
        -1.0
      ],
      [
        ",,",
        -1.0
      ],
      [
        ",,!",
        -1.0
      ],
      [
        ",,.",
        -1.0
      ],
      [
        ",,...",
        -1.0
      ],
      [
        ",-",
        -1.0
      ],
      [
        ",--",
        -1.0
      ],
      [
        ",.",
        -1.0
      ],
      [
        ",.!",
        -1.0
      ],
      [
        ",.,",
        -1.0
      ],
      [
        ",..,",
        -1.0
      ],
      [
        ",...",
        -1.0
      ],
      [
        ",...,",
        -1.0
      ],
      [
        ",....",
        -1.0
      ],
      [
        ",...Ċ",
        -1.0
      ],
      [
        ",...ĊĊ",
        -1.0
      ],
      [
        ",.Ċ",
        -1.0
      ],
      [
        ",.ĊĊ",
        -1.0
      ],
      [
        ",//",
        -1.0
      ],
      [
        ",:",
        -1.0
      ],
      [
        ",;",
        -1.0
      ],
      [
        ",</",
        -1.0
      ],
      [
        ",=",
        -1.0
      ],
      [
        ",?",
        -1.0
      ],
      [
        ",@",
        -1.0
      ],
      [
        ",A",
        -1.0
      ],
      [
        ",AvailableInOtherSizes",
        -1.0
      ],
      [
        ",B",
        -1.0
      ],
      [
        ",Ball",
        -1.0
      ],
      [
        ",But",
        -1.0
      ],
      [
        ",C",
        -1.0
      ],
      [
        ",Cement",
        -1.0
      ],
      [
        ",China",
        -1.0
      ],
      [
        ",Coal",
        -1.0
      ],
      [
        ",D",
        -1.0
      ],
      [
        ",E",
        -1.0
      ],
      [
        ",F",
        -1.0
      ],
      [
        ",G",
        -1.0
      ],
      [
        ",GPIO",
        -1.0
      ],
      [
        ",H",
        -1.0
      ],
      [
        ",How",
        -1.0
      ],
      [
        ",I",
        -1.0
      ],
      [
        ",III",
        -1.0
      ],
      [
        ",IV",
        -1.0
      ],
      [
        ",If",
        -1.0
      ],
      [
        ",Importer",
        -1.0
      ],
      [
        ",Inc",
        -1.0
      ],
      [
        ",India",
        -1.0
      ],
      [
        ",InsertPos",
        -1.0
      ],
      [
        ",Iron",
        -1.0
      ],
      [
        ",It",
        -1.0
      ],
      [
        ",J",
        -1.0
      ],
      [
        ",John",
        -1.0
      ],
      [
        ",K",
        -1.0
      ],
      [
        ",L",
        -1.0
      ],
      [
        ",LOOPTOPEXECUTE",
        -1.0
      ],
      [
        ",M",
        -1.0
      ],
      [
        ",N",
        -1.0
      ],
      [
        ",NULL",
        -1.0
      ],
      [
        ",OUTPUT",
        -1.0
      ],
      [
        ",P",
        -1.0
      ],
      [
        ",Pac",
        -1.0
      ],
      [
        ",Q",
        -1.0
      ],
      [
        ",R",
        -1.0
      ],
      [
        ",Raymond",
        -1.0
      ],
      [
        ",Reason",
        -1.0
      ],
      [
        ",Riffin",
        -1.0
      ],
      [
        ",Russel",
        -1.0
      ],
      [
        ",RÎ¼Î½RÎ¼Î½",
        -1.0
      ],
      [
        ",S",
        -1.0
      ],
      [
        ",Serializevalue",
        -1.0
      ],
      [
        ",SmallVector",
        -1.0
      ],
      [
        ",Steel",
        -1.0
      ],
      [
        ",Stone",
        -1.0
      ],
      [
        ",T",
        -1.0
      ],
      [
        ",TL",
        -1.0
      ],
      [
        ",The",
        -1.0
      ],
      [
        ",This",
        -1.0
      ],
      [
        ",Types",
        -1.0
      ],
      [
        ",U",
        -1.0
      ],
      [
        ",V",
        -1.0
      ],
      [
        ",What",
        -1.0
      ],
      [
        ",When",
        -1.0
      ],
      [
        ",Why",
        -1.0
      ],
      [
        ",World",
        -1.0
      ],
      [
        ",X",
        -1.0
      ],
      [
        ",Y",
        -1.0
      ],
      [
        ",Z",
        -1.0
      ],
      [
        ",[",
        -1.0
      ],
      [
        ",\\",
        -1.0
      ],
      [
        ",\\\"",
        -1.0
      ],
      [
        ",\\\\",
        -1.0
      ],
      [
        ",]",
        -1.0
      ],
      [
        ",^",
        -1.0
      ],
      [
        ",``",
        -1.0
      ],
      [
        ",a",
        -1.0
      ],
      [
        ",about",
        -1.0
      ],
      [
        ",according",
        -1.0
      ],
      [
        ",action",
        -1.0
      ],
      [
        ",after",
        -1.0
      ],
      [
        ",air",
        -1.0
      ],
      [
        ",aj",
        -1.0
      ],
      [
        ",all",
        -1.0
      ],
      [
        ",also",
        -1.0
      ],
      [
        ",although",
        -1.0
      ],
      [
        ",anatomy",
        -1.0
      ],
      [
        ",and",
        -1.0
      ],
      [
        ",another",
        -1.0
      ],
      [
        ",anti",
        -1.0
      ],
      [
        ",any",
        -1.0
      ],
      [
        ",application",
        -1.0
      ],
      [
        ",are",
        -1.0
      ],
      [
        ",as",
        -1.0
      ],
      [
        ",available",
        -1.0
      ],
      [
        ",b",
        -1.0
      ],
      [
        ",back",
        -1.0
      ],
      [
        ",ball",
        -1.0
      ],
      [
        ",basketball",
        -1.0
      ],
      [
        ",because",
        -1.0
      ],
      [
        ",being",
        -1.0
      ],
      [
        ",best",
        -1.0
      ],
      [
        ",big",
        -1.0
      ],
      [
        ",birthday",
        -1.0
      ],
      [
        ",black",
        -1.0
      ],
      [
        ",blue",
        -1.0
      ],
      [
        ",boiling",
        -1.0
      ],
      [
        ",both",
        -1.0
      ],
      [
        ",bottom",
        -1.0
      ],
      [
        ",boundary",
        -1.0
      ],
      [
        ",brain",
        -1.0
      ],
      [
        ",building",
        -1.0
      ],
      [
        ",but",
        -1.0
      ],
      [
        ",by",
        -1.0
      ],
      [
        ",c",
        -1.0
      ],
      [
        ",cake",
        -1.0
      ],
      [
        ",can",
        -1.0
      ],
      [
        ",cat",
        -1.0
      ],
      [
        ",cement",
        -1.0
      ],
      [
        ",center",
        -1.0
      ],
      [
        ",char",
        -1.0
      ],
      [
        ",cheap",
        -1.0
      ],
      [
        ",check",
        -1.0
      ],
      [
        ",chemical",
        -1.0
      ],
      [
        ",children",
        -1.0
      ],
      [
        ",clean",
        -1.0
      ],
      [
        ",click",
        -1.0
      ],
      [
        ",coal",
        -1.0
      ],
      [
        ",color",
        -1.0
      ],
      [
        ",column",
        -1.0
      ],
      [
        ",comment",
        -1.0
      ],
      [
        ",company",
        -1.0
      ],
      [
        ",computer",
        -1.0
      ],
      [
        ",cone",
        -1.0
      ],
      [
        ",const",
        -1.0
      ],
      [
        ",consumables",
        -1.0
      ],
      [
        ",contact",
        -1.0
      ],
      [
        ",copper",
        -1.0
      ],
      [
        ",cost",
        -1.0
      ],
      [
        ",country",
        -1.0
      ],
      [
        ",craigslist",
        -1.0
      ],
      [
        ",creating",
        -1.0
      ],
      [
        ",crusher",
        -1.0
      ],
      [
        ",current",
        -1.0
      ],
      [
        ",d",
        -1.0
      ],
      [
        ",data",
        -1.0
      ],
      [
        ",decoding",
        -1.0
      ],
      [
        ",defense",
        -1.0
      ],
      [
        ",dehumidifier",
        -1.0
      ],
      [
        ",depending",
        -1.0
      ],
      [
        ",df",
        -1.0
      ],
      [
        ",difference",
        -1.0
      ],
      [
        ",discussion",
        -1.0
      ],
      [
        ",distancein",
        -1.0
      ],
      [
        ",does",
        -1.0
      ],
      [
        ",due",
        -1.0
      ],
      [
        ",dusty",
        -1.0
      ],
      [
        ",e",
        -1.0
      ],
      [
        ",each",
        -1.0
      ],
      [
        ",easy",
        -1.0
      ],
      [
        ",ect",
        -1.0
      ],
      [
        ",education",
        -1.0
      ],
      [
        ",electric",
        -1.0
      ],
      [
        ",electronics",
        -1.0
      ],
      [
        ",end",
        -1.0
      ],
      [
        ",engine",
        -1.0
      ],
      [
        ",especially",
        -1.0
      ],
      [
        ",etc",
        -1.0
      ],
      [
        ",even",
        -1.0
      ],
      [
        ",every",
        -1.0
      ],
      [
        ",exti",
        -1.0
      ],
      [
        ",extra",
        -1.0
      ],
      [
        ",f",
        -1.0
      ],
      [
        ",false",
        -1.0
      ],
      [
        ",first",
        -1.0
      ],
      [
        ",florida",
        -1.0
      ],
      [
        ",fn",
        -1.0
      ],
      [
        ",folding",
        -1.0
      ],
      [
        ",food",
        -1.0
      ],
      [
        ",for",
        -1.0
      ],
      [
        ",free",
        -1.0
      ],
      [
        ",from",
        -1.0
      ],
      [
        ",g",
        -1.0
      ],
      [
        ",gas",
        -1.0
      ],
      [
        ",general",
        -1.0
      ],
      [
        ",get",
        -1.0
      ],
      [
        ",good",
        -1.0
      ],
      [
        ",green",
        -1.0
      ],
      [
        ",happy",
        -1.0
      ],
      [
        ",has",
        -1.0
      ],
      [
        ",have",
        -1.0
      ],
      [
        ",hcb",
        -1.0
      ],
      [
        ",hcf",
        -1.0
      ],
      [
        ",head",
        -1.0
      ],
      [
        ",health",
        -1.0
      ],
      [
        ",heat",
        -1.0
      ],
      [
        ",height",
        -1.0
      ],
      [
        ",help",
        -1.0
      ],
      [
        ",helvetica",
        -1.0
      ],
      [
        ",here",
        -1.0
      ],
      [
        ",high",
        -1.0
      ],
      [
        ",house",
        -1.0
      ],
      [
        ",how",
        -1.0
      ],
      [
        ",however",
        -1.0
      ],
      [
        ",i",
        -1.0
      ],
      [
        ",iVBORw",
        -1.0
      ],
      [
        ",ice",
        -1.0
      ],
      [
        ",idxs",
        -1.0
      ],
      [
        ",if",
        -1.0
      ],
      [
        ",image",
        -1.0
      ],
      [
        ",impact",
        -1.0
      ],
      [
        ",in",
        -1.0
      ],
      [
        ",including",
        -1.0
      ],
      [
        ",input",
        -1.0
      ],
      [
        ",iron",
        -1.0
      ],
      [
        ",is",
        -1.0
      ],
      [
        ",it",
        -1.0
      ],
      [
        ",its",
        -1.0
      ],
      [
        ",j",
        -1.0
      ],
      [
        ",js",
        -1.0
      ],
      [
        ",just",
        -1.0
      ],
      [
        ",k",
        -1.0
      ],
      [
        ",key",
        -1.0
      ],
      [
        ",ky",
        -1.0
      ],
      [
        ",kz",
        -1.0
      ],
      [
        ",l",
        -1.0
      ],
      [
        ",large",
        -1.0
      ],
      [
        ",laundry",
        -1.0
      ],
      [
        ",learn",
        -1.0
      ],
      [
        ",len",
        -1.0
      ],
      [
        ",let",
        -1.0
      ],
      [
        ",light",
        -1.0
      ],
      [
        ",like",
        -1.0
      ],
      [
        ",limestone",
        -1.0
      ],
      [
        ",long",
        -1.0
      ],
      [
        ",low",
        -1.0
      ],
      [
        ",luxello",
        -1.0
      ],
      [
        ",m",
        -1.0
      ],
      [
        ",make",
        -1.0
      ],
      [
        ",making",
        -1.0
      ],
      [
        ",many",
        -1.0
      ],
      [
        ",max",
        -1.0
      ],
      [
        ",maybe",
        -1.0
      ],
      [
        ",medical",
        -1.0
      ],
      [
        ",metal",
        -1.0
      ],
      [
        ",micro",
        -1.0
      ],
      [
        ",mid",
        -1.0
      ],
      [
        ",milestone",
        -1.0
      ],
      [
        ",mirror",
        -1.0
      ],
      [
        ",mobile",
        -1.0
      ],
      [
        ",model",
        -1.0
      ],
      [
        ",modern",
        -1.0
      ],
      [
        ",more",
        -1.0
      ],
      [
        ",most",
        -1.0
      ],
      [
        ",my",
        -1.0
      ],
      [
        ",n",
        -1.0
      ],
      [
        ",name",
        -1.0
      ],
      [
        ",net",
        -1.0
      ],
      [
        ",new",
        -1.0
      ],
      [
        ",norm",
        -1.0
      ],
      [
        ",not",
        -1.0
      ],
      [
        ",now",
        -1.0
      ],
      [
        ",num",
        -1.0
      ],
      [
        ",o",
        -1.0
      ],
      [
        ",one",
        -1.0
      ],
      [
        ",only",
        -1.0
      ],
      [
        ",or",
        -1.0
      ],
      [
        ",other",
        -1.0
      ],
      [
        ",our",
        -1.0
      ],
      [
        ",out",
        -1.0
      ],
      [
        ",over",
        -1.0
      ],
      [
        ",p",
        -1.0
      ],
      [
        ",people",
        -1.0
      ],
      [
        ",plant",
        -1.0
      ],
      [
        ",plastic",
        -1.0
      ],
      [
        ",please",
        -1.0
      ],
      [
        ",portable",
        -1.0
      ],
      [
        ",power",
        -1.0
      ],
      [
        ",priority",
        -1.0
      ],
      [
        ",put",
        -1.0
      ],
      [
        ",q",
        -1.0
      ],
      [
        ",qcf",
        -1.0
      ],
      [
        ",r",
        -1.0
      ],
      [
        ",raymond",
        -1.0
      ],
      [
        ",realm",
        -1.0
      ],
      [
        ",refrigerator",
        -1.0
      ],
      [
        ",reporter",
        -1.0
      ],
      [
        ",resulting",
        -1.0
      ],
      [
        ",right",
        -1.0
      ],
      [
        ",row",
        -1.0
      ],
      [
        ",rt",
        -1.0
      ],
      [
        ",s",
        -1.0
      ],
      [
        ",said",
        -1.0
      ],
      [
        ",salt",
        -1.0
      ],
      [
        ",sand",
        -1.0
      ],
      [
        ",sat",
        -1.0
      ],
      [
        ",science",
        -1.0
      ],
      [
        ",see",
        -1.0
      ],
      [
        ",select",
        -1.0
      ],
      [
        ",self",
        -1.0
      ],
      [
        ",set",
        -1.0
      ],
      [
        ",she",
        -1.0
      ],
      [
        ",short",
        -1.0
      ],
      [
        ",shower",
        -1.0
      ],
      [
        ",since",
        -1.0
      ],
      [
        ",size",
        -1.0
      ],
      [
        ",skin",
        -1.0
      ],
      [
        ",small",
        -1.0
      ],
      [
        ",so",
        -1.0
      ],
      [
        ",some",
        -1.0
      ],
      [
        ",stainless",
        -1.0
      ],
      [
        ",start",
        -1.0
      ],
      [
        ",state",
        -1.0
      ],
      [
        ",steel",
        -1.0
      ],
      [
        ",step",
        -1.0
      ],
      [
        ",sticky",
        -1.0
      ],
      [
        ",stone",
        -1.0
      ],
      [
        ",structnet",
        -1.0
      ],
      [
        ",such",
        -1.0
      ],
      [
        ",t",
        -1.0
      ],
      [
        ",table",
        -1.0
      ],
      [
        ",take",
        -1.0
      ],
      [
        ",targetControl",
        -1.0
      ],
      [
        ",tennis",
        -1.0
      ],
      [
        ",text",
        -1.0
      ],
      [
        ",that",
        -1.0
      ],
      [
        ",the",
        -1.0
      ],
      [
        ",their",
        -1.0
      ],
      [
        ",then",
        -1.0
      ],
      [
        ",there",
        -1.0
      ],
      [
        ",these",
        -1.0
      ],
      [
        ",they",
        -1.0
      ],
      [
        ",this",
        -1.0
      ],
      [
        ",those",
        -1.0
      ],
      [
        ",though",
        -1.0
      ],
      [
        ",through",
        -1.0
      ],
      [
        ",thus",
        -1.0
      ],
      [
        ",timestamp",
        -1.0
      ],
      [
        ",tn",
        -1.0
      ],
      [
        ",to",
        -1.0
      ],
      [
        ",trailing",
        -1.0
      ],
      [
        ",true",
        -1.0
      ],
      [
        ",try",
        -1.0
      ],
      [
        ",u",
        -1.0
      ],
      [
        ",uncategorized",
        -1.0
      ],
      [
        ",unclog",
        -1.0
      ],
      [
        ",united",
        -1.0
      ],
      [
        ",unlike",
        -1.0
      ],
      [
        ",using",
        -1.0
      ],
      [
        ",usually",
        -1.0
      ],
      [
        ",v",
        -1.0
      ],
      [
        ",value",
        -1.0
      ],
      [
        ",very",
        -1.0
      ],
      [
        ",volleyball",
        -1.0
      ],
      [
        ",wall",
        -1.0
      ],
      [
        ",was",
        -1.0
      ],
      [
        ",water",
        -1.0
      ],
      [
        ",we",
        -1.0
      ],
      [
        ",weblink",
        -1.0
      ],
      [
        ",what",
        -1.0
      ],
      [
        ",when",
        -1.0
      ],
      [
        ",where",
        -1.0
      ],
      [
        ",whether",
        -1.0
      ],
      [
        ",which",
        -1.0
      ],
      [
        ",while",
        -1.0
      ],
      [
        ",white",
        -1.0
      ],
      [
        ",who",
        -1.0
      ],
      [
        ",why",
        -1.0
      ],
      [
        ",width",
        -1.0
      ],
      [
        ",wienerlicious",
        -1.0
      ],
      [
        ",will",
        -1.0
      ],
      [
        ",with",
        -1.0
      ],
      [
        ",wood",
        -1.0
      ],
      [
        ",would",
        -1.0
      ],
      [
        ",write",
        -1.0
      ],
      [
        ",wÎµq",
        -1.0
      ],
      [
        ",x",
        -1.0
      ],
      [
        ",y",
        -1.0
      ],
      [
        ",yi",
        -1.0
      ],
      [
        ",you",
        -1.0
      ],
      [
        ",your",
        -1.0
      ],
      [
        ",z",
        -1.0
      ],
      [
        ",zeroseventy",
        -1.0
      ],
      [
        ",{\\",
        -1.0
      ],
      [
        ",|Ċ",
        -1.0
      ],
      [
        ",~",
        -1.0
      ],
      [
        ",Â¯Â¯Â¯Â¯Â¯Â¯",
        -1.0
      ],
      [
        ",Â±",
        -1.0
      ],
      [
        ",Â»",
        -1.0
      ],
      [
        ",Ã¢",
        -1.0
      ],
      [
        ",ÃĤ",
        -1.0
      ],
      [
        ",ÃĽ",
        -1.0
      ],
      [
        ",Î±",
        -1.0
      ],
      [
        ",Î²",
        -1.0
      ],
      [
        ",Î´",
        -1.0
      ],
      [
        ",Î¸",
        -1.0
      ],
      [
        ",Î»",
        -1.0
      ],
      [
        ",ÎĶ",
        -1.0
      ],
      [
        ",Îĺ",
        -1.0
      ],
      [
        ",ÏĢconjugation",
        -1.0
      ],
      [
        ",ÏĢi",
        -1.0
      ],
      [
        ",Ïĥ",
        -1.0
      ],
      [
        ",ÏĦ",
        -1.0
      ],
      [
        ",ÏĨ",
        -1.0
      ],
      [
        ",âĢ¢",
        -1.0
      ],
      [
        ",âĢ¦",
        -1.0
      ],
      [
        ",âĢ¦,",
        -1.0
      ],
      [
        ",âĢ¦.",
        -1.0
      ],
      [
        ",âĢ¦ĊĊ",
        -1.0
      ],
      [
        ",âĢ³",
        -1.0
      ],
      [
        ",âĢĭ",
        -1.0
      ],
      [
        ",âĢĮ",
        -1.0
      ],
      [
        ",âĢį",
        -1.0
      ],
      [
        ",âĢĵ",
        -1.0
      ],
      [
        ",âĢĶ",
        -1.0
      ],
      [
        ",âĢĻ",
        -1.0
      ],
      [
        ",âĢĻâĢĿ",
        -1.0
      ],
      [
        ",âĢľ",
        -1.0
      ],
      [
        ",âĢĿ",
        -1.0
      ],
      [
        ",âĢĿĊ",
        -1.0
      ],
      [
        ",âĢł",
        -1.0
      ],
      [
        ",âģ¢",
        -1.0
      ],
      [
        ",âģ£",
        -1.0
      ],
      [
        ",âģ¤",
        -1.0
      ],
      [
        ",âĨĴ",
        -1.0
      ],
      [
        ",âĪĢ",
        -1.0
      ],
      [
        ",âĪĴ",
        -1.0
      ],
      [
        ",âĭ¯,",
        -1.0
      ],
      [
        ",ä½Ĩ",
        -1.0
      ],
      [
        ",ä½ľä¸º",
        -1.0
      ],
      [
        ",ä¾ĭå¦Ĥ",
        -1.0
      ],
      [
        ",åħ¶ä¸Ń",
        -1.0
      ],
      [
        ",åħľå°ĦçļĦæĹĭè½¬åĴĮä¸ĭåĿł",
        -1.0
      ],
      [
        ",åľ¨",
        -1.0
      ],
      [
        ",æīĢä»¥",
        -1.0
      ],
      [
        ",ç¤ºåĩºäºĨ",
        -1.0
      ],
      [
        ",î¢ŀ",
        -1.0
      ],
      [
        ",ï¿½",
        -1.0
      ],
      [
        ",Ċ",
        -1.0
      ],
      [
        ",ĊĊ",
        -1.0
      ],
      [
        "-\"",
        -1.0
      ],
      [
        "-\"ĊĊ",
        -1.0
      ],
      [
        "-#",
        -1.0
      ],
      [
        "-$",
        -1.0
      ],
      [
        "-%",
        -1.0
      ],
      [
        "-&",
        -1.0
      ],
      [
        "-'",
        -1.0
      ],
      [
        "-(",
        -1.0
      ],
      [
        "-(+)-",
        -1.0
      ],
      [
        "-)",
        -1.0
      ],
      [
        "-),",
        -1.0
      ],
      [
        "-*",
        -1.0
      ],
      [
        "-***-***-****ĊĊ",
        -1.0
      ],
      [
        "-,",
        -1.0
      ],
      [
        "--",
        -1.0
      ],
      [
        "--(",
        -1.0
      ],
      [
        "--,",
        -1.0
      ],
      [
        "---",
        -1.0
      ],
      [
        "----",
        -1.0
      ],
      [
        "-----------------------------------------------------------------------------Ċ",
        -1.0
      ],
      [
        "----------------------------------ĊĊ",
        -1.0
      ],
      [
        "-------------------------------ĊĊ",
        -1.0
      ],
      [
        "---------------------|*$*$|Ċ",
        -1.0
      ],
      [
        "----------ĊĊ",
        -1.0
      ],
      [
        "---Ċ",
        -1.0
      ],
      [
        "---ĊĊ",
        -1.0
      ],
      [
        "--//",
        -1.0
      ],
      [
        "--;",
        -1.0
      ],
      [
        "-->",
        -1.0
      ],
      [
        "--Ċ",
        -1.0
      ],
      [
        "--ĊĊ",
        -1.0
      ],
      [
        "-.",
        -1.0
      ],
      [
        "-...ĊĊ",
        -1.0
      ],
      [
        "-.ĊĊ",
        -1.0
      ],
      [
        "-/",
        -1.0
      ],
      [
        "-/-",
        -1.0
      ],
      [
        "->",
        -1.0
      ],
      [
        "-A",
        -1.0
      ],
      [
        "-AA",
        -1.0
      ],
      [
        "-AB",
        -1.0
      ],
      [
        "-AC",
        -1.0
      ],
      [
        "-AD",
        -1.0
      ],
      [
        "-AE",
        -1.0
      ],
      [
        "-AF",
        -1.0
      ],
      [
        "-AG",
        -1.0
      ],
      [
        "-AH",
        -1.0
      ],
      [
        "-AI",
        -1.0
      ],
      [
        "-AIDS",
        -1.0
      ],
      [
        "-ALD",
        -1.0
      ],
      [
        "-ALL",
        -1.0
      ],
      [
        "-ALT",
        -1.0
      ],
      [
        "-AMG",
        -1.0
      ],
      [
        "-AMINOBUTYRIC",
        -1.0
      ],
      [
        "-AMKL",
        -1.0
      ],
      [
        "-AML",
        -1.0
      ],
      [
        "-AMP",
        -1.0
      ],
      [
        "-AMS",
        -1.0
      ],
      [
        "-ANCA",
        -1.0
      ],
      [
        "-AND",
        -1.0
      ],
      [
        "-ANY",
        -1.0
      ],
      [
        "-AP",
        -1.0
      ],
      [
        "-APHIS",
        -1.0
      ],
      [
        "-AQ",
        -1.0
      ],
      [
        "-ARAKKONAM",
        -1.0
      ],
      [
        "-ARC",
        -1.0
      ],
      [
        "-ARS",
        -1.0
      ],
      [
        "-AS",
        -1.0
      ],
      [
        "-ASCII",
        -1.0
      ],
      [
        "-AT",
        -1.0
      ],
      [
        "-ATPase",
        -1.0
      ],
      [
        "-ATRRNAi",
        -1.0
      ],
      [
        "-AU",
        -1.0
      ],
      [
        "-AWD",
        -1.0
      ],
      [
        "-AXIS",
        -1.0
      ],
      [
        "-Abdulrazzak",
        -1.0
      ],
      [
        "-Abelian",
        -1.0
      ],
      [
        "-Aboriginal",
        -1.0
      ],
      [
        "-AbsP",
        -1.0
      ],
      [
        "-Acceptance",
        -1.0
      ],
      [
        "-Access",
        -1.0
      ],
      [
        "-Accounts",
        -1.0
      ],
      [
        "-Accumulate",
        -1.0
      ],
      [
        "-Acevedo",
        -1.0
      ],
      [
        "-Acid",
        -1.0
      ],
      [
        "-Acting",
        -1.0
      ],
      [
        "-Action",
        -1.0
      ],
      [
        "-Activated",
        -1.0
      ],
      [
        "-Active",
        -1.0
      ],
      [
        "-Activity",
        -1.0
      ],
      [
        "-Acto",
        -1.0
      ],
      [
        "-Actualization",
        -1.0
      ],
      [
        "-Adair",
        -1.0
      ],
      [
        "-Adam",
        -1.0
      ],
      [
        "-Adapt",
        -1.0
      ],
      [
        "-Added",
        -1.0
      ],
      [
        "-Addo",
        -1.0
      ],
      [
        "-Addr",
        -1.0
      ],
      [
        "-Adha",
        -1.0
      ],
      [
        "-Adhesive",
        -1.0
      ],
      [
        "-Adjusted",
        -1.0
      ],
      [
        "-Admiral",
        -1.0
      ],
      [
        "-Adult",
        -1.0
      ],
      [
        "-Advanced",
        -1.0
      ],
      [
        "-Adventures",
        -1.0
      ],
      [
        "-Advertisement",
        -1.0
      ],
      [
        "-Advocacy",
        -1.0
      ],
      [
        "-African",
        -1.0
      ],
      [
        "-Africans",
        -1.0
      ],
      [
        "-After",
        -1.0
      ],
      [
        "-Age",
        -1.0
      ],
      [
        "-Aggravated",
        -1.0
      ],
      [
        "-Aging",
        -1.0
      ],
      [
        "-Agnostic",
        -1.0
      ],
      [
        "-Agricultural",
        -1.0
      ],
      [
        "-Agriculture",
        -1.0
      ],
      [
        "-Aguilar",
        -1.0
      ],
      [
        "-Aguirre",
        -1.0
      ],
      [
        "-Ah",
        -1.0
      ],
      [
        "-Aid",
        -1.0
      ],
      [
        "-Aided",
        -1.0
      ],
      [
        "-Aids",
        -1.0
      ],
      [
        "-Air",
        -1.0
      ],
      [
        "-Aitken",
        -1.0
      ],
      [
        "-Al",
        -1.0
      ],
      [
        "-Alanine",
        -1.0
      ],
      [
        "-Alaska",
        -1.0
      ],
      [
        "-Albemarle",
        -1.0
      ],
      [
        "-Albert",
        -1.0
      ],
      [
        "-Albrecht",
        -1.0
      ],
      [
        "-Alcoholic",
        -1.0
      ],
      [
        "-Alder",
        -1.0
      ],
      [
        "-Aldrich",
        -1.0
      ],
      [
        "-Aleixandre",
        -1.0
      ],
      [
        "-Alert",
        -1.0
      ],
      [
        "-Aleut",
        -1.0
      ],
      [
        "-Alexander",
        -1.0
      ],
      [
        "-Algebra",
        -1.0
      ],
      [
        "-Aliasing",
        -1.0
      ],
      [
        "-Aligned",
        -1.0
      ],
      [
        "-Alike",
        -1.0
      ],
      [
        "-Alin",
        -1.0
      ],
      [
        "-Alkalyn",
        -1.0
      ],
      [
        "-All",
        -1.0
      ],
      [
        "-Alone",
        -1.0
      ],
      [
        "-Along",
        -1.0
      ],
      [
        "-Aloud",
        -1.0
      ],
      [
        "-Alpes",
        -1.0
      ],
      [
        "-Alpha",
        -1.0
      ],
      [
        "-Alt",
        -1.0
      ],
      [
        "-Alvarez",
        -1.0
      ],
      [
        "-Aly",
        -1.0
      ],
      [
        "-Amazon",
        -1.0
      ],
      [
        "-Ambene",
        -1.0
      ],
      [
        "-Ambrose",
        -1.0
      ],
      [
        "-American",
        -1.0
      ],
      [
        "-Americans",
        -1.0
      ],
      [
        "-Amerika",
        -1.0
      ],
      [
        "-Amherst",
        -1.0
      ],
      [
        "-Aminobutyric",
        -1.0
      ],
      [
        "-Ammon",
        -1.0
      ],
      [
        "-Amp",
        -1.0
      ],
      [
        "-Amram",
        -1.0
      ],
      [
        "-Amur",
        -1.0
      ],
      [
        "-Analog",
        -1.0
      ],
      [
        "-Analyses",
        -1.0
      ],
      [
        "-Analysis",
        -1.0
      ],
      [
        "-Andalus",
        -1.0
      ],
      [
        "-Angle",
        -1.0
      ],
      [
        "-Anhalt",
        -1.0
      ],
      [
        "-Animal",
        -1.0
      ],
      [
        "-Ann",
        -1.0
      ],
      [
        "-AnollÃ©s",
        -1.0
      ],
      [
        "-Answer",
        -1.0
      ],
      [
        "-Antarctic",
        -1.0
      ],
      [
        "-Anti",
        -1.0
      ],
      [
        "-Antoine",
        -1.0
      ],
      [
        "-Apache",
        -1.0
      ],
      [
        "-Apart",
        -1.0
      ],
      [
        "-Apis",
        -1.0
      ],
      [
        "-Apocalyptic",
        -1.0
      ],
      [
        "-Apostolic",
        -1.0
      ],
      [
        "-Appalachian",
        -1.0
      ],
      [
        "-Apple",
        -1.0
      ],
      [
        "-Apply",
        -1.0
      ],
      [
        "-Appropriate",
        -1.0
      ],
      [
        "-Approval",
        -1.0
      ],
      [
        "-Approved",
        -1.0
      ],
      [
        "-April",
        -1.0
      ],
      [
        "-Apso",
        -1.0
      ],
      [
        "-Arab",
        -1.0
      ],
      [
        "-Arancibia",
        -1.0
      ],
      [
        "-Aransas",
        -1.0
      ],
      [
        "-Archer",
        -1.0
      ],
      [
        "-Arctic",
        -1.0
      ],
      [
        "-Area",
        -1.0
      ],
      [
        "-Arendal",
        -1.0
      ],
      [
        "-Arginine",
        -1.0
      ],
      [
        "-Argon",
        -1.0
      ],
      [
        "-Arid",
        -1.0
      ],
      [
        "-Aristotelian",
        -1.0
      ],
      [
        "-Around",
        -1.0
      ],
      [
        "-Arquette",
        -1.0
      ],
      [
        "-Arrestin",
        -1.0
      ],
      [
        "-Arriola",
        -1.0
      ],
      [
        "-Art",
        -1.0
      ],
      [
        "-Arts",
        -1.0
      ],
      [
        "-Aryan",
        -1.0
      ],
      [
        "-Asare",
        -1.0
      ],
      [
        "-Ash",
        -1.0
      ],
      [
        "-Asian",
        -1.0
      ],
      [
        "-Asiatic",
        -1.0
      ],
      [
        "-Assad",
        -1.0
      ],
      [
        "-Assembly",
        -1.0
      ],
      [
        "-Assessment",
        -1.0
      ],
      [
        "-Assisted",
        -1.0
      ],
      [
        "-Associated",
        -1.0
      ],
      [
        "-Assyrian",
        -1.0
      ],
      [
        "-AstraZeneca",
        -1.0
      ],
      [
        "-Atencia",
        -1.0
      ],
      [
        "-Atherton",
        -1.0
      ],
      [
        "-Athlete",
        -1.0
      ],
      [
        "-Atkins",
        -1.0
      ],
      [
        "-Atlanta",
        -1.0
      ],
      [
        "-Atlantic",
        -1.0
      ],
      [
        "-Atlas",
        -1.0
      ],
      [
        "-Atmosphere",
        -1.0
      ],
      [
        "-Atome",
        -1.0
      ],
      [
        "-Atta",
        -1.0
      ],
      [
        "-Attisha",
        -1.0
      ],
      [
        "-Auction",
        -1.0
      ],
      [
        "-Audio",
        -1.0
      ],
      [
        "-Augmented",
        -1.0
      ],
      [
        "-August",
        -1.0
      ],
      [
        "-Auguste",
        -1.0
      ],
      [
        "-Austin",
        -1.0
      ],
      [
        "-Australasian",
        -1.0
      ],
      [
        "-Australian",
        -1.0
      ],
      [
        "-Austrian",
        -1.0
      ],
      [
        "-Austronesian",
        -1.0
      ],
      [
        "-Auswahl",
        -1.0
      ],
      [
        "-Author",
        -1.0
      ],
      [
        "-AutoDecant",
        -1.0
      ],
      [
        "-Automatic",
        -1.0
      ],
      [
        "-Autumn",
        -1.0
      ],
      [
        "-Aventis",
        -1.0
      ],
      [
        "-Average",
        -1.0
      ],
      [
        "-Avicennietum",
        -1.0
      ],
      [
        "-Avila",
        -1.0
      ],
      [
        "-Aviv",
        -1.0
      ],
      [
        "-Avoid",
        -1.0
      ],
      [
        "-Avon",
        -1.0
      ],
      [
        "-Award",
        -1.0
      ],
      [
        "-Awareness",
        -1.0
      ],
      [
        "-Away",
        -1.0
      ],
      [
        "-Awwam",
        -1.0
      ],
      [
        "-Axial",
        -1.0
      ],
      [
        "-Axis",
        -1.0
      ],
      [
        "-Axle",
        -1.0
      ],
      [
        "-Ay",
        -1.0
      ],
      [
        "-Az",
        -1.0
      ],
      [
        "-B",
        -1.0
      ],
      [
        "-BAR",
        -1.0
      ],
      [
        "-BASED",
        -1.0
      ],
      [
        "-BASIC",
        -1.0
      ],
      [
        "-BBEE",
        -1.0
      ],
      [
        "-BBR",
        -1.0
      ],
      [
        "-BC",
        -1.0
      ],
      [
        "-BE",
        -1.0
      ],
      [
        "-BIKE",
        -1.0
      ],
      [
        "-BIL",
        -1.0
      ],
      [
        "-BIM",
        -1.0
      ],
      [
        "-BK",
        -1.0
      ],
      [
        "-BM",
        -1.0
      ],
      [
        "-BN",
        -1.0
      ],
      [
        "-BO",
        -1.0
      ],
      [
        "-BP",
        -1.0
      ],
      [
        "-BSA",
        -1.0
      ],
      [
        "-BTU",
        -1.0
      ],
      [
        "-BY",
        -1.0
      ],
      [
        "-Back",
        -1.0
      ],
      [
        "-Baden",
        -1.0
      ],
      [
        "-Badge",
        -1.0
      ],
      [
        "-Bag",
        -1.0
      ],
      [
        "-Baked",
        -1.0
      ],
      [
        "-Baker",
        -1.0
      ],
      [
        "-Bakir",
        -1.0
      ],
      [
        "-Balagha",
        -1.0
      ],
      [
        "-Balanced",
        -1.0
      ],
      [
        "-Balart",
        -1.0
      ],
      [
        "-Ball",
        -1.0
      ],
      [
        "-Balonne",
        -1.0
      ],
      [
        "-Balsamic",
        -1.0
      ],
      [
        "-Baltic",
        -1.0
      ],
      [
        "-Baltistan",
        -1.0
      ],
      [
        "-Ban",
        -1.0
      ],
      [
        "-Band",
        -1.0
      ],
      [
        "-Baptiste",
        -1.0
      ],
      [
        "-Baqir",
        -1.0
      ],
      [
        "-Barr",
        -1.0
      ],
      [
        "-Barre",
        -1.0
      ],
      [
        "-BarrÃ©",
        -1.0
      ],
      [
        "-Based",
        -1.0
      ],
      [
        "-Basic",
        -1.0
      ],
      [
        "-Bass",
        -1.0
      ],
      [
        "-Battelle",
        -1.0
      ],
      [
        "-Batteries",
        -1.0
      ],
      [
        "-Bay",
        -1.0
      ],
      [
        "-Beam",
        -1.0
      ],
      [
        "-Bearers",
        -1.0
      ],
      [
        "-Bearing",
        -1.0
      ],
      [
        "-BeauprÃ©",
        -1.0
      ],
      [
        "-Bed",
        -1.0
      ],
      [
        "-Bee",
        -1.0
      ],
      [
        "-Before",
        -1.0
      ],
      [
        "-Behaved",
        -1.0
      ],
      [
        "-Behavioral",
        -1.0
      ],
      [
        "-Behnken",
        -1.0
      ],
      [
        "-Being",
        -1.0
      ],
      [
        "-Bellanca",
        -1.0
      ],
      [
        "-Bellevue",
        -1.0
      ],
      [
        "-Bellied",
        -1.0
      ],
      [
        "-Bello",
        -1.0
      ],
      [
        "-Belsen",
        -1.0
      ],
      [
        "-Belt",
        -1.0
      ],
      [
        "-Bend",
        -1.0
      ],
      [
        "-Benefit",
        -1.0
      ],
      [
        "-Bennett",
        -1.0
      ],
      [
        "-Benz",
        -1.0
      ],
      [
        "-Benzoimidazole",
        -1.0
      ],
      [
        "-Berg",
        -1.0
      ],
      [
        "-Berkeley",
        -1.0
      ],
      [
        "-Bernard",
        -1.0
      ],
      [
        "-Berry",
        -1.0
      ],
      [
        "-Best",
        -1.0
      ],
      [
        "-Beta",
        -1.0
      ],
      [
        "-Bethlehem",
        -1.0
      ],
      [
        "-Betweening",
        -1.0
      ],
      [
        "-Beverly",
        -1.0
      ],
      [
        "-Bhasha",
        -1.0
      ],
      [
        "-Bhodamine",
        -1.0
      ],
      [
        "-BiLSTM",
        -1.0
      ],
      [
        "-Bianchet",
        -1.0
      ],
      [
        "-Biblical",
        -1.0
      ],
      [
        "-Bicocca",
        -1.0
      ],
      [
        "-Biedl",
        -1.0
      ],
      [
        "-Biega",
        -1.0
      ],
      [
        "-Big",
        -1.0
      ],
      [
        "-Bike",
        -1.0
      ],
      [
        "-Billed",
        -1.0
      ],
      [
        "-Billings",
        -1.0
      ],
      [
        "-Bills",
        -1.0
      ],
      [
        "-Bilt",
        -1.0
      ],
      [
        "-BioCROP",
        -1.0
      ],
      [
        "-BioImaging",
        -1.0
      ],
      [
        "-BioNTech",
        -1.0
      ],
      [
        "-Biology",
        -1.0
      ],
      [
        "-Bionomy",
        -1.0
      ],
      [
        "-Bioplotter",
        -1.0
      ],
      [
        "-Biot",
        -1.0
      ],
      [
        "-Birch",
        -1.0
      ],
      [
        "-Bird",
        -1.0
      ],
      [
        "-Birgi",
        -1.0
      ],
      [
        "-Birkenau",
        -1.0
      ],
      [
        "-Birth",
        -1.0
      ],
      [
        "-Bishop",
        -1.0
      ],
      [
        "-Bismol",
        -1.0
      ],
      [
        "-Bissau",
        -1.0
      ],
      [
        "-Bissingen",
        -1.0
      ],
      [
        "-Bit",
        -1.0
      ],
      [
        "-BjÃ¶rkman",
        -1.0
      ],
      [
        "-Black",
        -1.0
      ],
      [
        "-Blackwell",
        -1.0
      ],
      [
        "-Blade",
        -1.0
      ],
      [
        "-Blair",
        -1.0
      ],
      [
        "-Blame",
        -1.0
      ],
      [
        "-Blanc",
        -1.0
      ],
      [
        "-Blast",
        -1.0
      ],
      [
        "-Blend",
        -1.0
      ],
      [
        "-Bliesner",
        -1.0
      ],
      [
        "-Bliley",
        -1.0
      ],
      [
        "-Blind",
        -1.0
      ],
      [
        "-Block",
        -1.0
      ],
      [
        "-Blodgett",
        -1.0
      ],
      [
        "-Bloembergen",
        -1.0
      ],
      [
        "-Blood",
        -1.0
      ],
      [
        "-Blooming",
        -1.0
      ],
      [
        "-Bloser",
        -1.0
      ],
      [
        "-Blowing",
        -1.0
      ],
      [
        "-Blue",
        -1.0
      ],
      [
        "-Blume",
        -1.0
      ],
      [
        "-Boakari",
        -1.0
      ],
      [
        "-Board",
        -1.0
      ],
      [
        "-Boat",
        -1.0
      ],
      [
        "-Bob",
        -1.0
      ],
      [
        "-Body",
        -1.0
      ],
      [
        "-Bogoliubov",
        -1.0
      ],
      [
        "-Bohm",
        -1.0
      ],
      [
        "-Boiled",
        -1.0
      ],
      [
        "-Bolshevi",
        -1.0
      ],
      [
        "-Boltzmann",
        -1.0
      ],
      [
        "-Bomb",
        -1.0
      ],
      [
        "-Bone",
        -1.0
      ],
      [
        "-Bonnet",
        -1.0
      ],
      [
        "-Book",
        -1.0
      ],
      [
        "-Boom",
        -1.0
      ],
      [
        "-Boosting",
        -1.0
      ],
      [
        "-Boot",
        -1.0
      ],
      [
        "-Bopp",
        -1.0
      ],
      [
        "-Bora",
        -1.0
      ],
      [
        "-Borne",
        -1.0
      ],
      [
        "-Borrego",
        -1.0
      ],
      [
        "-Bosch",
        -1.0
      ],
      [
        "-Boson",
        -1.0
      ],
      [
        "-Bot",
        -1.0
      ],
      [
        "-Bought",
        -1.0
      ],
      [
        "-Boulder",
        -1.0
      ],
      [
        "-Bound",
        -1.0
      ],
      [
        "-Bower",
        -1.0
      ],
      [
        "-Bowl",
        -1.0
      ],
      [
        "-Box",
        -1.0
      ],
      [
        "-Boy",
        -1.0
      ],
      [
        "-Brac",
        -1.0
      ],
      [
        "-Brahmaputra",
        -1.0
      ],
      [
        "-Braids",
        -1.0
      ],
      [
        "-Brain",
        -1.0
      ],
      [
        "-Branca",
        -1.0
      ],
      [
        "-Brand",
        -1.0
      ],
      [
        "-Brasil",
        -1.0
      ],
      [
        "-Braun",
        -1.0
      ],
      [
        "-Bravo",
        -1.0
      ],
      [
        "-Brazilian",
        -1.0
      ],
      [
        "-Breaking",
        -1.0
      ],
      [
        "-Breasted",
        -1.0
      ],
      [
        "-Bred",
        -1.0
      ],
      [
        "-Breed",
        -1.0
      ],
      [
        "-Bresson",
        -1.0
      ],
      [
        "-Bretonneux",
        -1.0
      ],
      [
        "-Breuer",
        -1.0
      ],
      [
        "-Brexit",
        -1.0
      ],
      [
        "-BriceÃ±o",
        -1.0
      ],
      [
        "-Bridge",
        -1.0
      ],
      [
        "-Briggs",
        -1.0
      ],
      [
        "-Bright",
        -1.0
      ],
      [
        "-Brite",
        -1.0
      ],
      [
        "-British",
        -1.0
      ],
      [
        "-Broadcast",
        -1.0
      ],
      [
        "-Broadway",
        -1.0
      ],
      [
        "-Brock",
        -1.0
      ],
      [
        "-Broglie",
        -1.0
      ],
      [
        "-Broil",
        -1.0
      ],
      [
        "-Bromo",
        -1.0
      ],
      [
        "-Broo",
        -1.0
      ],
      [
        "-Browed",
        -1.0
      ],
      [
        "-Brown",
        -1.0
      ],
      [
        "-Browser",
        -1.0
      ],
      [
        "-Bru",
        -1.0
      ],
      [
        "-BuLi",
        -1.0
      ],
      [
        "-Buc",
        -1.0
      ],
      [
        "-Buddhist",
        -1.0
      ],
      [
        "-Building",
        -1.0
      ],
      [
        "-Built",
        -1.0
      ],
      [
        "-Bukhari",
        -1.0
      ],
      [
        "-Bulletin",
        -1.0
      ],
      [
        "-Bullying",
        -1.0
      ],
      [
        "-Bun",
        -1.0
      ],
      [
        "-Burch",
        -1.0
      ],
      [
        "-Burk",
        -1.0
      ],
      [
        "-Burma",
        -1.0
      ],
      [
        "-Burner",
        -1.0
      ],
      [
        "-Burnham",
        -1.0
      ],
      [
        "-Burning",
        -1.0
      ],
      [
        "-Burst",
        -1.0
      ],
      [
        "-Burton",
        -1.0
      ],
      [
        "-Busch",
        -1.0
      ],
      [
        "-Business",
        -1.0
      ],
      [
        "-Bust",
        -1.0
      ],
      [
        "-Butadiene",
        -1.0
      ],
      [
        "-Button",
        -1.0
      ],
      [
        "-Butyl",
        -1.0
      ],
      [
        "-Butyn",
        -1.0
      ],
      [
        "-Butyrolactone",
        -1.0
      ],
      [
        "-Buy",
        -1.0
      ],
      [
        "-By",
        -1.0
      ],
      [
        "-Byzantine",
        -1.0
      ],
      [
        "-BÃ©lisle",
        -1.0
      ],
      [
        "-C",
        -1.0
      ],
      [
        "-CA",
        -1.0
      ],
      [
        "-CAD",
        -1.0
      ],
      [
        "-CAM",
        -1.0
      ],
      [
        "-CAN",
        -1.0
      ],
      [
        "-CBT",
        -1.0
      ],
      [
        "-CCM",
        -1.0
      ],
      [
        "-CCP",
        -1.0
      ],
      [
        "-CD",
        -1.0
      ],
      [
        "-CELL",
        -1.0
      ],
      [
        "-CEO",
        -1.0
      ],
      [
        "-CF",
        -1.0
      ],
      [
        "-CH",
        -1.0
      ],
      [
        "-CHFV",
        -1.0
      ],
      [
        "-CHY",
        -1.0
      ],
      [
        "-CI",
        -1.0
      ],
      [
        "-CL",
        -1.0
      ],
      [
        "-CM",
        -1.0
      ],
      [
        "-CNG",
        -1.0
      ],
      [
        "-CNN",
        -1.0
      ],
      [
        "-CNTs",
        -1.0
      ],
      [
        "-CO",
        -1.0
      ],
      [
        "-COOH",
        -1.0
      ],
      [
        "-COP",
        -1.0
      ],
      [
        "-COST",
        -1.0
      ],
      [
        "-COVID",
        -1.0
      ],
      [
        "-CPU",
        -1.0
      ],
      [
        "-CRF",
        -1.0
      ],
      [
        "-CRISPR",
        -1.0
      ],
      [
        "-CRP",
        -1.0
      ],
      [
        "-CSA",
        -1.0
      ],
      [
        "-CSF",
        -1.0
      ],
      [
        "-CSIC",
        -1.0
      ],
      [
        "-CSSF",
        -1.0
      ],
      [
        "-CT",
        -1.0
      ],
      [
        "-CURS",
        -1.0
      ],
      [
        "-CV",
        -1.0
      ],
      [
        "-CY",
        -1.0
      ],
      [
        "-Cabrera",
        -1.0
      ],
      [
        "-Calculator",
        -1.0
      ],
      [
        "-Calculus",
        -1.0
      ],
      [
        "-Calf",
        -1.0
      ],
      [
        "-California",
        -1.0
      ],
      [
        "-Calorie",
        -1.0
      ],
      [
        "-Caltech",
        -1.0
      ],
      [
        "-Cambodia",
        -1.0
      ],
      [
        "-Cambrian",
        -1.0
      ],
      [
        "-Camden",
        -1.0
      ],
      [
        "-Camera",
        -1.0
      ],
      [
        "-Cameroon",
        -1.0
      ],
      [
        "-Campbell",
        -1.0
      ],
      [
        "-Campus",
        -1.0
      ],
      [
        "-Campylobacter",
        -1.0
      ],
      [
        "-Canada",
        -1.0
      ],
      [
        "-Canadian",
        -1.0
      ],
      [
        "-Canal",
        -1.0
      ],
      [
        "-Canceling",
        -1.0
      ],
      [
        "-Cancer",
        -1.0
      ],
      [
        "-Candidate",
        -1.0
      ],
      [
        "-Candles",
        -1.0
      ],
      [
        "-Cantabrian",
        -1.0
      ],
      [
        "-Canterbury",
        -1.0
      ],
      [
        "-Capital",
        -1.0
      ],
      [
        "-Capped",
        -1.0
      ],
      [
        "-Captiva",
        -1.0
      ],
      [
        "-Capture",
        -1.0
      ],
      [
        "-Card",
        -1.0
      ],
      [
        "-Care",
        -1.0
      ],
      [
        "-Career",
        -1.0
      ],
      [
        "-Caribbean",
        -1.0
      ],
      [
        "-Carleton",
        -1.0
      ],
      [
        "-Carlo",
        -1.0
      ],
      [
        "-Carlton",
        -1.0
      ],
      [
        "-Carnitine",
        -1.0
      ],
      [
        "-Carotene",
        -1.0
      ],
      [
        "-Cars",
        -1.0
      ],
      [
        "-Cart",
        -1.0
      ],
      [
        "-Carvalho",
        -1.0
      ],
      [
        "-Carve",
        -1.0
      ],
      [
        "-Cas",
        -1.0
      ],
      [
        "-Case",
        -1.0
      ],
      [
        "-Cashiers",
        -1.0
      ],
      [
        "-Caspian",
        -1.0
      ],
      [
        "-Cassegrain",
        -1.0
      ],
      [
        "-CastaÃ±eda",
        -1.0
      ],
      [
        "-Castell",
        -1.0
      ],
      [
        "-Castro",
        -1.0
      ],
      [
        "-Catalinas",
        -1.0
      ],
      [
        "-Catching",
        -1.0
      ],
      [
        "-Catenin",
        -1.0
      ],
      [
        "-Catholic",
        -1.0
      ],
      [
        "-Caucas",
        -1.0
      ],
      [
        "-Causing",
        -1.0
      ],
      [
        "-Cd",
        -1.0
      ],
      [
        "-Cell",
        -1.0
      ],
      [
        "-Cells",
        -1.0
      ],
      [
        "-Celtic",
        -1.0
      ],
      [
        "-Cement",
        -1.0
      ],
      [
        "-Centered",
        -1.0
      ],
      [
        "-Centers",
        -1.0
      ],
      [
        "-Central",
        -1.0
      ],
      [
        "-Centre",
        -1.0
      ],
      [
        "-Centric",
        -1.0
      ],
      [
        "-Century",
        -1.0
      ],
      [
        "-Certified",
        -1.0
      ],
      [
        "-Chain",
        -1.0
      ],
      [
        "-Chair",
        -1.0
      ],
      [
        "-Challenge",
        -1.0
      ],
      [
        "-Chalmers",
        -1.0
      ],
      [
        "-Chamber",
        -1.0
      ],
      [
        "-Champaign",
        -1.0
      ],
      [
        "-Chancellor",
        -1.0
      ],
      [
        "-Changer",
        -1.0
      ],
      [
        "-Changing",
        -1.0
      ],
      [
        "-Channel",
        -1.0
      ],
      [
        "-Chapel",
        -1.0
      ],
      [
        "-Chapter",
        -1.0
      ],
      [
        "-Character",
        -1.0
      ],
      [
        "-Charentes",
        -1.0
      ],
      [
        "-Charge",
        -1.0
      ],
      [
        "-Charles",
        -1.0
      ],
      [
        "-Charley",
        -1.0
      ],
      [
        "-Charng",
        -1.0
      ],
      [
        "-Charon",
        -1.0
      ],
      [
        "-Chart",
        -1.0
      ],
      [
        "-Chat",
        -1.0
      ],
      [
        "-Check",
        -1.0
      ],
      [
        "-Chen",
        -1.0
      ],
      [
        "-Cheonwang",
        -1.0
      ],
      [
        "-Chew",
        -1.0
      ],
      [
        "-Chiari",
        -1.0
      ],
      [
        "-Chicago",
        -1.0
      ],
      [
        "-Chief",
        -1.0
      ],
      [
        "-Chieh",
        -1.0
      ],
      [
        "-Chien",
        -1.0
      ],
      [
        "-Child",
        -1.0
      ],
      [
        "-Chile",
        -1.0
      ],
      [
        "-Chimalapa",
        -1.0
      ],
      [
        "-China",
        -1.0
      ],
      [
        "-Chinese",
        -1.0
      ],
      [
        "-Ching",
        -1.0
      ],
      [
        "-Chip",
        -1.0
      ],
      [
        "-Chk",
        -1.0
      ],
      [
        "-Chocolate",
        -1.0
      ],
      [
        "-Choice",
        -1.0
      ],
      [
        "-Choose",
        -1.0
      ],
      [
        "-Christensen",
        -1.0
      ],
      [
        "-Christian",
        -1.0
      ],
      [
        "-Christians",
        -1.0
      ],
      [
        "-Christmas",
        -1.0
      ],
      [
        "-Christophe",
        -1.0
      ],
      [
        "-Chromosome",
        -1.0
      ],
      [
        "-Cigarettes",
        -1.0
      ],
      [
        "-Cigs",
        -1.0
      ],
      [
        "-Circuit",
        -1.0
      ],
      [
        "-Cities",
        -1.0
      ],
      [
        "-Citizen",
        -1.0
      ],
      [
        "-City",
        -1.0
      ],
      [
        "-Civil",
        -1.0
      ],
      [
        "-Clad",
        -1.0
      ],
      [
        "-Claire",
        -1.0
      ],
      [
        "-Clamp",
        -1.0
      ],
      [
        "-Clapeyron",
        -1.0
      ],
      [
        "-Clarke",
        -1.0
      ],
      [
        "-Class",
        -1.0
      ],
      [
        "-Claude",
        -1.0
      ],
      [
        "-Clay",
        -1.0
      ],
      [
        "-Clean",
        -1.0
      ],
      [
        "-Clear",
        -1.0
      ],
      [
        "-Click",
        -1.0
      ],
      [
        "-Climate",
        -1.0
      ],
      [
        "-Clinical",
        -1.0
      ],
      [
        "-Clinton",
        -1.0
      ],
      [
        "-Clipart",
        -1.0
      ],
      [
[...]
