{
  "version": "1.0",
  "truncation": null,
  "padding": null,
  "added_tokens": [
    {
      "id": 0,
      "content": "<|bos|>",
      "single_word": false,
      "lstrip": false,
      "rstrip": false,
      "normalized": false,
      "special": true
    },
    {
      "id": 1,
      "content": "<|user_start|>",
      "single_word": false,
      "lstrip": false,
      "rstrip": false,
      "normalized": false,
      "special": true
    },
    {
      "id": 2,
      "content": "<|user_end|>",
      "single_word": false,
      "lstrip": false,
      "rstrip": false,
      "normalized": false,
      "special": true
    },
    {
      "id": 3,
      "content": "<|assistant_start|>",
      "single_word": false,
      "lstrip": false,
      "rstrip": false,
      "normalized": false,
      "special": true
    },
    {
      "id": 4,
      "content": "<|assistant_end|>",
      "single_word": false,
      "lstrip": false,
      "rstrip": false,
      "normalized": false,
      "special": true
    },
    {
      "id": 5,
      "content": "<|python_start|>",
      "single_word": false,
      "lstrip": false,
      "rstrip": false,
      "normalized": false,
      "special": true
    },
    {
      "id": 6,
      "content": "<|python_end|>",
      "single_word": false,
      "lstrip": false,
      "rstrip": false,
      "normalized": false,
      "special": true
    },
    {
      "id": 7,
      "content": "<|output_start|>",
      "single_word": false,
      "lstrip": false,
      "rstrip": false,
      "normalized": false,
      "special": true
    },
    {
      "id": 8,
      "content": "<|output_end|>",
      "single_word": false,
      "lstrip": false,
      "rstrip": false,
      "normalized": false,
      "special": true
    },
    {
      "id": 9,
      "content": "<|unk|>",
      "single_word": false,
      "lstrip": false,
      "rstrip": false,
      "normalized": false,
      "special": true
    }
  ],
  "normalizer": null,
  "pre_tokenizer": {
    "type": "Sequence",
    "pretokenizers": [
      {
        "type": "Split",
        "pattern": {
          "Regex": "'(?i:[sdmt]|ll|ve|re)|[^\\r\\n\\p{L}\\p{N}]?+\\p{L}+|\\p{N}{1,2}| ?[^\\s\\p{L}\\p{N}]++[\\r\\n]*|\\s*[\\r\\n]|\\s+(?!\\S)|\\s+"
        },
        "behavior": "Isolated",
        "invert": false
      },
      {
        "type": "ByteLevel",
        "add_prefix_space": false,
        "trim_offsets": true,
        "use_regex": false
      }
    ]
  },
  "post_processor": {
    "type": "TemplateProcessing",
    "single": [
      {
        "Sequence": {
          "id": "A",
          "type_id": 0
        }
      }
    ],
    "pair": [
      {
        "Sequence": {
          "id": "A",
          "type_id": 0
        }
      },
      {
        "Sequence": {
          "id": "B",
          "type_id": 1
        }
      }
    ],
    "special_tokens": {}
  },
  "decoder": null,
  "model": {
    "type": "Unigram",
    "unk_id": 9,
    "vocab": [
      [
        "<|bos|>",
        0.0
      ],
      [
        "<|user_start|>",
        0.0
      ],
      [
        "<|user_end|>",
        0.0
      ],
      [
        "<|assistant_start|>",
        0.0
      ],
      [
        "<|assistant_end|>",
        0.0
      ],
      [
        "<|python_start|>",
        0.0
      ],
      [
        "<|python_end|>",
        0.0
      ],
      [
        "<|output_start|>",
        0.0
      ],
      [
        "<|output_end|>",
        0.0
      ],
      [
        "<|unk|>",
        0.0
      ],
      [
        "s",
        -2.994155267693598
      ],
      [
        "Ġthe",
        -3.3914347249896366
      ],
      [
        ",",
        -3.463104717894419
      ],
      [
        "Ġ",
        -3.676475036493608
      ],
      [
        ".",
        -3.724733444831619
      ],
      [
        "Ġand",
        -3.950749949621306
      ],
      [
        "Ġof",
        -3.9729190416795266
      ],
      [
        "Ġto",
        -4.008973105011185
      ],
      [
        "Ġa",
        -4.134142816823221
      ],
      [
        "ing",
        -4.287072241136832
      ],
      [
        "Ġin",
        -4.489203076445362
      ],
      [
        "Ġis",
        -4.627946385678838
      ],
      [
        "ed",
        -4.658232879775552
      ],
      [
        "y",
        -4.854514048173598
      ],
      [
        "d",
        -4.867564511180376
      ],
      [
        "0",
        -4.938686797890394
      ],
      [
        "'",
        -4.951868795261747
      ],
      [
        "Ġthat",
        -5.051580571323694
      ],
      [
        "Ġfor",
        -5.053655416480707
      ],
      [
        "ly",
        -5.08506633608839
      ],
      [
        "1",
        -5.087806516938583
      ],
      [
        "e",
        -5.152945762333221
      ],
      [
        ":",
        -5.200688820445405
      ],
      [
        "Ċ",
        -5.216334827331526
      ],
      [
        "2",
        -5.278088112800836
      ],
      [
        "Ġare",
        -5.290941585664816
      ],
      [
        "Ġwith",
        -5.318557938763073
      ],
      [
        "Ġit",
        -5.328438654195853
      ],
      [
        "Ġbe",
        -5.3324991956940515
      ],
      [
        ".Ċ",
        -5.334512928373984
      ],
      [
        "Ġyou",
        -5.374115031902553
      ],
      [
        ".ĊĊ",
        -5.381375652830705
      ],
      [
        "t",
        -5.432281515347343
      ],
      [
        "Ġon",
        -5.480454551820618
      ],
      [
        "Ġcan",
        -5.53092173658956
      ],
      [
        "Ġor",
        -5.549556390316946
      ],
      [
        "-",
        -5.550313207174025
      ],
      [
        "ĊĊ",
        -5.653545822364896
      ],
      [
        "Ġ(",
        -5.748962452713194
      ],
      [
        "Ġas",
        -5.757618499727233
      ],
      [
        "Ġyour",
        -5.790356258821594
      ],
      [
        "\"",
        -5.831245770153496
      ],
      [
        "ĠThe",
        -5.832588892599073
      ],
      [
        "Ġfrom",
        -5.89038110667615
      ],
      [
        "Ġhave",
        -5.907748622858998
      ],
      [
        "Ġby",
        -5.937206900401895
      ],
      [
        "3",
        -5.942590919294288
      ],
      [
        "?",
        -5.965195456995243
      ],
      [
        "ĠI",
        -5.98270194152717
      ],
      [
        ")",
        -5.985211741848273
      ],
      [
        "5",
        -5.994430877612361
      ],
      [
        "Ġan",
        -6.011023430549011
      ],
      [
        "Ġthis",
        -6.0613918293231315
      ],
      [
        "Ġat",
        -6.148352727786682
      ],
      [
        "Ġnot",
        -6.159826760353493
      ],
      [
        "a",
        -6.201458191762153
      ],
      [
        "4",
        -6.20320222079947
      ],
      [
        "Ġwill",
        -6.246778514693162
      ],
      [
        "Ġtheir",
        -6.2481886601271235
      ],
      [
        "9",
        -6.264251995249143
      ],
      [
        "Ġwas",
        -6.307725420364708
      ],
      [
        "er",
        -6.326111714002726
      ],
      [
        "n",
        -6.326832560817669
      ],
      [
        "Ġmore",
        -6.367639022154309
      ],
      [
        "Ġthey",
        -6.3935702480790955
      ],
      [
        "6",
        -6.407898712950271
      ],
      [
        "8",
        -6.4157047475850035
      ],
      [
        "The",
        -6.425610808205764
      ],
      [
        "ies",
        -6.476787664067897
      ],
      [
        "Ġwhich",
        -6.483735520281108
      ],
      [
        "Ġhas",
        -6.500831480220507
      ],
      [
        "Ġbut",
        -6.529265726711072
      ],
      [
        "Ġone",
        -6.531080471565762
      ],
      [
        "Ġwe",
        -6.557380448861968
      ],
      [
        "7",
        -6.574349777608111
      ],
      [
        "Question",
        -6.582793253086328
      ],
      [
        "ĠAnswer",
        -6.599864725809793
      ],
      [
        "Ġalso",
        -6.605239781394095
      ],
      [
        "on",
        -6.6411412989917125
      ],
      [
        "r",
        -6.6501913008475455
      ],
      [
        "Ġother",
        -6.663430288641919
      ],
      [
        "Ġall",
        -6.697996234684711
      ],
      [
        "Ġabout",
        -6.710943313785428
      ],
      [
        "Ġthem",
        -6.7171603305054095
      ],
      [
        "i",
        -6.717723305798231
      ],
      [
        "ĠIt",
        -6.7398301346519816
      ],
      [
        "ĠA",
        -6.75720983023513
      ],
      [
        "Ġwhen",
        -6.799393122018017
      ],
      [
        "Ġinto",
        -6.814286575945342
      ],
      [
        "Ġtime",
        -6.8160692090900525
      ],
      [
        "Ġup",
        -6.825207640493403
      ],
      [
        "Ġdo",
        -6.840029587161146
      ],
      [
        "Ġif",
        -6.847517417020017
      ],
      [
        "Ġso",
        -6.848133471018118
      ],
      [
        "Ġsome",
        -6.855136345693358
      ],
      [
        "o",
        -6.859622406127626
      ],
      [
        "ĠThis",
        -6.861309915082636
      ],
      [
        "Ġhow",
        -6.861534217333135
      ],
      [
        "Ġlike",
        -6.864548470576931
      ],
      [
        "ĠWhat",
        -6.899254744586662
      ],
      [
        "Ġuse",
        -6.915993321444596
      ],
      [
        "Ġneed",
        -6.918579018071371
      ],
      [
        "Ġthan",
        -6.919336152034347
      ],
      [
        "Ġout",
        -6.921288871977877
      ],
      [
        "m",
        -6.948513545939413
      ],
      [
        "Ġmay",
        -6.961140147848102
      ],
      [
        "Ġthese",
        -6.96265345513115
      ],
      [
        "Ġwater",
        -6.980855913143291
      ],
      [
        "A",
        -7.015999045981875
      ],
      [
        "Ġthere",
        -7.026528625371453
      ],
      [
        "l",
        -7.040900127205386
      ],
      [
        "Ġhelp",
        -7.049264157029679
      ],
      [
        "Ġhigh",
        -7.05880943927961
      ],
      [
        "Ġwhat",
        -7.060085569352934
      ],
      [
        "Ġused",
        -7.06016270280997
      ],
      [
        "ĠIn",
        -7.076638868546773
      ],
      [
        "Ġwere",
        -7.077481261641049
      ],
      [
        "al",
        -7.078189224287408
      ],
      [
        "Ġmost",
        -7.097503236972884
      ],
      [
        "Ġour",
        -7.097979349050911
      ],
      [
        "/",
        -7.103885085180666
      ],
      [
        "Ġmake",
        -7.108043049086094
      ],
      [
        "Ġsuch",
        -7.114556930597191
      ],
      [
        "re",
        -7.134894158034058
      ],
      [
        "Ġpeople",
        -7.165127810341451
      ],
      [
        "Ġnew",
        -7.1848136803039395
      ],
      [
        "Ġget",
        -7.187648875687049
      ],
      [
        "Ġbeen",
        -7.191482807600963
      ],
      [
        "Ġany",
        -7.2028205376710925
      ],
      [
        "able",
        -7.237786329945298
      ],
      [
        "Ġwould",
        -7.240173230137978
      ],
      [
        "Ġits",
        -7.255169438765591
      ],
      [
        "Ġwho",
        -7.266096159236961
      ],
      [
        "cause",
        -7.27350297041362
      ],
      [
        "Ġshould",
        -7.273982423685016
      ],
      [
        ";",
        -7.284728352596925
      ],
      [
        "Ġover",
        -7.289955832086871
      ],
      [
        "ity",
        -7.295655472025542
      ],
      [
        "Ġonly",
        -7.300807244396344
      ],
      [
        "I",
        -7.303978571874538
      ],
      [
        "Ġmany",
        -7.307910584126606
      ],
      [
        "Ġjust",
        -7.308806021938031
      ],
      [
        "Ġtwo",
        -7.31561761995504
      ],
      [
        "Ġwork",
        -7.3287843888766915
      ],
      [
        "?Ċ",
        -7.32887592292384
      ],
      [
        "c",
        -7.3530371964211
      ],
      [
        "Ġus",
        -7.363717477376253
      ],
      [
        "Ġfirst",
        -7.373131100958688
      ],
      [
        "Ġwell",
        -7.380374486770759
      ],
      [
        "Ġbetween",
        -7.394949834295893
      ],
      [
        "Ġthrough",
        -7.397739867707999
      ],
      [
        "Ġdifferent",
        -7.40658085761569
      ],
      [
        "Ġlong",
        -7.40837607156541
      ],
      [
        "ĠC",
        -7.4219267410941026
      ],
      [
        "Ġway",
        -7.426120400239702
      ],
      [
        "Ġno",
        -7.447101529255562
      ],
      [
        "Ġmy",
        -7.4488195460564
      ],
      [
        "Ġcould",
        -7.450044436371982
      ],
      [
        "Ġhealth",
        -7.454118217471287
      ],
      [
        "Ġwhere",
        -7.46746077345796
      ],
      [
        "Ġvery",
        -7.4844862594188495
      ],
      [
        "ever",
        -7.486098131335481
      ],
      [
        "Ġpart",
        -7.494084925419189
      ],
      [
        "Ġtake",
        -7.49883770305879
      ],
      [
        "Ġeven",
        -7.50199374098851
      ],
      [
        "Ġchange",
        -7.504204848448529
      ],
      [
        "Ġhis",
        -7.507994859847162
      ],
      [
        "ĠIf",
        -7.516923173180958
      ],
      [
        "Ġhe",
        -7.538477904620406
      ],
      [
        "ĠHow",
        -7.560403536350213
      ],
      [
        "ic",
        -7.56379888956023
      ],
      [
        "Ġhad",
        -7.567111130852069
      ],
      [
        "Ġsystem",
        -7.568275110080267
      ],
      [
        "Ġsmall",
        -7.579236958711881
      ],
      [
        "ĠThey",
        -7.588452286038119
      ],
      [
        "Ġeach",
        -7.601586778485048
      ],
      [
        "Ġgood",
        -7.6021541787886
      ],
      [
        "!",
        -7.612912067932245
      ],
      [
        "Ġnumber",
        -7.616472470249153
      ],
      [
        "Ġmuch",
        -7.617607629778224
      ],
      [
        ").",
        -7.6324140582588
      ],
      [
        "Ġyears",
        -7.6503985400065
      ],
      [
        "Ġthen",
        -7.653168767904526
      ],
      [
        "in",
        -7.655491983593009
      ],
      [
        "Ġresult",
        -7.657635127600285
      ],
      [
        "In",
        -7.659890789827935
      ],
      [
        "Ġimportant",
        -7.660663091943836
      ],
      [
        "ĠâĢĵ",
        -7.661565799277952
      ],
      [
        "Ġdoes",
        -7.664573132076912
      ],
      [
        "Ġsee",
        -7.681876848540447
      ],
      [
        "ĠYou",
        -7.685193269256905
      ],
      [
        "Ġlarge",
        -7.685362978323244
      ],
      [
        "Ġknow",
        -7.691838216122909
      ],
      [
        "Ġevery",
        -7.693047915068697
      ],
      [
        "Ġhuman",
        -7.695939056613163
      ],
      [
        "Ġafter",
        -7.696477787823119
      ],
      [
        "Ġwhile",
        -7.6979698069216145
      ],
      [
        "Ġfood",
        -7.704215888395809
      ],
      [
        "Ġcause",
        -7.715383542315404
      ],
      [
        "Ġdon",
        -7.715775143320485
      ],
      [
        "ve",
        -7.717675026561685
      ],
      [
        "Ġenerg",
        -7.7241375292693215
      ],
      [
        "ĠB",
        -7.724256100918456
      ],
      [
        "Ġsame",
        -7.72780114619922
      ],
      [
        "Ġcall",
        -7.728405582827849
      ],
      [
        "out",
        -7.72973944508526
      ],
      [
        "Ġwant",
        -7.732001446513638
      ],
      [
        "those",
        -7.732271566572811
      ],
      [
        "Ġdesign",
        -7.7354640857114685
      ],
      [
        "Ġlevel",
        -7.743903023429008
      ],
      [
        "Ġlight",
        -7.745255944931936
      ],
      [
        "h",
        -7.750817893755149
      ],
      [
        "Ġbefore",
        -7.754138859061704
      ],
      [
        "is",
        -7.754743680661757
      ],
      [
        "Ġcreate",
        -7.76327866541269
      ],
      [
        "Ġworld",
        -7.763826236407192
      ],
      [
        "Ġaround",
        -7.76766919434173
      ],
      [
        "Ġprovide",
        -7.768754883223482
      ],
      [
        "Ġgreat",
        -7.772719200361638
      ],
      [
        "Ġreal",
        -7.782465126280986
      ],
      [
        "Ġfound",
        -7.784292694441593
      ],
      [
        "b",
        -7.789311401200107
      ],
      [
        "p",
        -7.790053640468032
      ],
      [
        "Ġdata",
        -7.794763927446058
      ],
      [
        "Ġcome",
        -7.796597424496468
      ],
      [
        "Ġboth",
        -7.8037674971573505
      ],
      [
        "during",
        -7.810390895972176
      ],
      [
        "Ġlife",
        -7.8139704200301345
      ],
      [
        "Ġplace",
        -7.821421467416502
      ],
      [
        "),",
        -7.822923239988754
      ],
      [
        "Ġform",
        -7.830028800333731
      ],
      [
        "u",
        -7.830509202831668
      ],
      [
        "Ġprocess",
        -7.837607415890971
      ],
      [
        "Ġfind",
        -7.850071934984975
      ],
      [
        "Ġbeing",
        -7.8522833414006366
      ],
      [
        "Ġbest",
        -7.852307996306108
      ],
      [
        "Ġexample",
        -7.856155502824196
      ],
      [
        "Ġincrease",
        -7.856435017005381
      ],
      [
        "ness",
        -7.856709893028411
      ],
      [
        "Ġback",
        -7.856829553598847
      ],
      [
        "Ġmade",
        -7.858257430592638
      ],
      [
        "Ġday",
        -7.868600440398258
      ],
      [
        "Ġright",
        -7.869598208318949
      ],
      [
        "Ġdown",
        -7.871926945948542
      ],
      [
        "g",
        -7.875470297964087
      ],
      [
        "ion",
        -7.87763692009567
      ],
      [
        "C",
        -7.881340873660537
      ],
      [
        "Ġoften",
        -7.881685621747243
      ],
      [
        "Ġinclude",
        -7.882466787918195
      ],
      [
        "us",
        -7.888333738991459
      ],
      [
        "D",
        -7.891091674151512
      ],
      [
        "Ġunder",
        -7.90255693803257
      ],
      [
        "Ġshow",
        -7.905414261422315
      ],
      [
        "Ġoff",
        -7.906177896942128
      ],
      [
        "(",
        -7.907015894858112
      ],
      [
        "um",
        -7.921216980023312
      ],
      [
        "Ġdevelop",
        -7.924973302522357
      ],
      [
        "Ġthink",
        -7.928359021789216
      ],
      [
        "Ġinformation",
        -7.932637667308876
      ],
      [
        "f",
        -7.934078066264312
      ],
      [
        "ĠFor",
        -7.935614562509232
      ],
      [
        "Ġyear",
        -7.939214526604394
      ],
      [
        "What",
        -7.949307059384258
      ],
      [
        "Ġadd",
        -7.951173769835313
      ],
      [
        "Ġlook",
        -7.955396122687835
      ],
      [
        "Ġspecies",
        -7.957851771701129
      ],
      [
        "ll",
        -7.960564922438749
      ],
      [
        "ĠWe",
        -7.96087662143923
      ],
      [
        "Ġheat",
        -7.96166710715509
      ],
      [
        "Ġsai",
        -7.962245794651858
      ],
      [
        "Ġstudy",
        -7.965887640020325
      ],
      [
        ":Ċ",
        -7.9695248901697395
      ],
      [
        "Ġexperience",
        -7.973275125835384
      ],
      [
        "ation",
        -7.974215734510811
      ],
      [
        "ĠThese",
        -7.978699288052262
      ],
      [
        "S",
        -7.979014657587375
      ],
      [
        "Ġher",
        -7.979502100462601
      ],
      [
        "Ġbody",
        -7.984298592561386
      ],
      [
        "Ġtest",
        -7.985583959711908
      ],
      [
        "%",
        -7.986076226834211
      ],
      [
        "Ġpoint",
        -7.992679369945528
      ],
      [
        "Ġhome",
        -7.997053715805128
      ],
      [
        "Ġplant",
        -7.998802240888138
      ],
      [
        "Ġstart",
        -8.003478907771939
      ],
      [
        "Ġair",
        -8.007717461494916
      ],
      [
        "Ġbetter",
        -8.013810603189507
      ],
      [
        "Ġgrow",
        -8.014732922152675
      ],
      [
        "Ġinclud",
        -8.018911580859026
      ],
      [
        "Ġmight",
        -8.019360229760444
      ],
      [
        "Ġpower",
        -8.020800156832813
      ],
      [
        "Ġown",
        -8.027203722185796
      ],
      [
        "Ġbecome",
        -8.02739359227146
      ],
      [
        "th",
        -8.028309923167743
      ],
      [
        "This",
        -8.028387965524153
      ],
      [
        "Ġfew",
        -8.033506037893252
      ],
      [
        "Ġkeep",
        -8.03460410756314
      ],
      [
        "Ġresearch",
        -8.036719541551927
      ],
      [
        "Ġsupport",
        -8.03945909845639
      ],
      [
        "Ġgo",
        -8.04157437264853
      ],
      [
        "Ġnow",
        -8.042923675170286
      ],
      [
        "...",
        -8.048301598266999
      ],
      [
        "Ġstudents",
        -8.061895153275495
      ],
      [
        "How",
        -8.064047457120344
      ],
      [
        "Ġdog",
        -8.064446997953272
      ],
      [
        "ĠTo",
        -8.067161990344694
      ],
      [
        "Ġtemperature",
        -8.068224296219153
      ],
      [
        "Ġcase",
        -8.075202922463333
      ],
      [
        "Ġstill",
        -8.076695654038637
      ],
      [
        "Ġset",
        -8.085746247449308
      ],
      [
        "Ġgroup",
        -8.08762864349372
      ],
      [
        "Ġconsider",
        -8.089737872680399
      ],
      [
        "Ġcontrol",
        -8.090236096681007
      ],
      [
        "ĠD",
        -8.090613321231759
      ],
      [
        "Ġthree",
        -8.099048751412852
      ],
      [
        "using",
        -8.101064686261331
      ],
      [
        "Ġal",
        -8.108946300108048
      ],
      [
        "est",
        -8.110314722692848
      ],
      [
        "Ġarea",
        -8.111046036500207
      ],
      [
        "Ġproduct",
        -8.113541581030795
      ],
      [
        "ce",
        -8.115455708251494
      ],
      [
        "Ġplants",
        -8.117081254430738
      ],
      [
        "Ġme",
        -8.13086934443005
      ],
      [
        "or",
        -8.135489667458558
      ],
      [
        "Ġtoo",
        -8.137248548163534
      ],
      [
        "ĠBut",
        -8.138343310340979
      ],
      [
        "If",
        -8.140315387646313
      ],
      [
        "Ġcurrent",
        -8.140512815792299
      ],
      [
        "Ġtype",
        -8.14360125790924
      ],
      [
        "Ġspecific",
        -8.145460244528282
      ],
      [
        "and",
        -8.153550739262563
      ],
      [
        "Ġknown",
        -8.155151172324071
      ],
      [
        "Ġmaking",
        -8.156497263302743
      ],
      [
        "Ġcolor",
        -8.157986349217333
      ],
      [
        "Ġless",
        -8.160083321550495
      ],
      [
        "Ġproduce",
        -8.16047894571937
      ],
      [
        "an",
        -8.16161793905762
      ],
      [
        "Ġschool",
        -8.162265777225219
      ],
      [
        "Ġissue",
        -8.165422156872214
      ],
      [
        "Ġun",
        -8.16735708263028
      ],
      [
        "ary",
        -8.167367708922942
      ],
      [
        "ĠAnd",
        -8.169762713438779
      ],
      [
        "ĠS",
        -8.174589514082797
      ],
      [
        "Ġenvironment",
        -8.175291665767093
      ],
      [
        "Ġend",
        -8.177219870122126
      ],
      [
        "en",
        -8.181482542852752
      ],
      [
        "Ġreduce",
        -8.183739247656858
      ],
      [
        "Ġ=",
        -8.185124742752656
      ],
      [
        "ĠM",
        -8.185707001819319
      ],
      [
        "x",
        -8.18834646046827
      ],
      [
        "Ġlow",
        -8.18921163548648
      ],
      [
        "ability",
        -8.189247431262826
      ],
      [
        "Ġsize",
        -8.189303328629787
      ],
      [
        "Ġallow",
        -8.19316456622716
      ],
      [
        "ally",
        -8.194133628015756
      ],
      [
        "Ġlot",
        -8.202336080444987
      ],
      [
        "Ġmust",
        -8.204846935640168
      ],
      [
        "Ġindividual",
        -8.205865863836648
      ],
      [
        "Ġcommon",
        -8.208908945260085
      ],
      [
        "k",
        -8.20979686821497
      ],
      [
        "Ġpotential",
        -8.210153195484695
      ],
      [
        "Ġanother",
        -8.213295774665905
      ],
      [
        "Ġfollowing",
        -8.219014325987896
      ],
      [
        "It",
        -8.219824621538471
      ],
      [
        "Ġmain",
        -8.221928615915992
      ],
      [
        "Ġoffer",
        -8.222679982294709
      ],
      [
        "Ġwithin",
        -8.224331461419032
      ],
      [
        "Ġline",
        -8.228681397098132
      ],
      [
        "Ġpossibl",
        -8.229023385487835
      ],
      [
        "ĠWhen",
        -8.235998210927084
      ],
      [
        "Ġcar",
        -8.245032277276241
      ],
      [
        "Ġquestion",
        -8.2484700760522
      ],
      [
        "le",
        -8.253356792375538
      ],
      [
        "Ġprevent",
        -8.255231916936934
      ],
      [
        ",\"",
        -8.258905967279802
      ],
      [
        "Ġthings",
        -8.259247504719726
      ],
      [
        "Ġchildren",
        -8.260422759534208
      ],
      [
        ":ĊĊ",
        -8.262992167419185
      ],
      [
        "the",
        -8.26677284083173
      ],
      [
        "Ġlearn",
        -8.274742003903826
      ],
      [
        "Ġsure",
        -8.27743647177952
      ],
      [
        "Ġvalue",
        -8.279638110479372
      ],
      [
        "Ġnatural",
        -8.28100912705644
      ],
      [
        "Ġname",
        -8.2822640394128
      ],
      [
        "ĠP",
        -8.284123128382008
      ],
      [
        "Ġper",
        -8.285302210242058
      ],
      [
        "Ġdid",
        -8.28827586305664
      ],
      [
        "Ġlittle",
        -8.288453702212642
      ],
      [
        "Ġcells",
        -8.288562962749728
      ],
      [
        "Ġwhy",
        -8.291751309551994
      ],
      [
        "Ġgame",
        -8.29669850123178
      ],
      [
        "Ġlead",
        -8.296965668681125
      ],
      [
        "ĠThere",
        -8.299683545862141
      ],
      [
        "Ġdue",
        -8.301403138636156
      ],
      [
        "Ġimpact",
        -8.303343045547074
      ],
      [
        "Ġeffective",
        -8.311247931483898
      ],
      [
        "Ġhere",
        -8.319482188810971
      ],
      [
        "Ġsoil",
        -8.319855608790544
      ],
      [
        "Ġdevelopment",
        -8.327695862523155
      ],
      [
        "Ġplay",
        -8.332859891511353
      ],
      [
        "Ġgive",
        -8.333002315169999
      ],
      [
        "Ġlast",
        -8.335561234009589
      ],
      [
        "Ġsource",
        -8.336795773028996
      ],
      [
        "Ġproblem",
        -8.337710379722068
      ],
      [
        "Ġtry",
        -8.342441107881896
      ],
      [
        "Ġshe",
        -8.34336149358337
      ],
      [
        "B",
        -8.344261903921186
      ],
      [
        "Ġsurface",
        -8.344408690236689
      ],
      [
        "Ġspace",
        -8.346393697241837
      ],
      [
        "Ġbenefit",
        -8.347880127249919
      ],
      [
        "Ġamount",
        -8.350317153809966
      ],
      [
        "Ġvarious",
        -8.350608710770523
      ],
      [
        "Ġrange",
        -8.353788298524343
      ],
      [
        "Ġensure",
        -8.356914552054803
      ],
      [
        "\\",
        -8.35954554507234
      ],
      [
        "ther",
        -8.360471679054543
      ],
      [
        "ĠSo",
        -8.361434217887032
      ],
      [
        "Ġcomplete",
        -8.361589920897192
      ],
      [
        "Ġseveral",
        -8.36378221760014
      ],
      [
        "Ġnear",
        -8.36547409525904
      ],
      [
        "Ġtext",
        -8.368558924580618
      ],
      [
        "Ġsomething",
        -8.371404299091406
      ],
      [
        "Ġdisease",
        -8.37368295248708
      ],
      [
        "Ġpresent",
        -8.382170321690133
      ],
      [
        "Ġmeans",
        -8.384746451571608
      ],
      [
        "Ġcare",
        -8.385340572685143
      ],
      [
        "Ġreason",
        -8.385346938894962
      ],
      [
        "available",
        -8.387289811221498
      ],
      [
        "Ġgeneral",
        -8.389129333660986
      ],
      [
        "less",
        -8.389889475004441
      ],
      [
        "Ġorder",
        -8.390375830992934
      ],
      [
        "Ġturn",
        -8.391879706443662
      ],
      [
        "Ġsignificant",
        -8.393837174095964
      ],
      [
        "Ġbased",
        -8.400888184529734
      ],
      [
        "Ġprogram",
        -8.402436808784964
      ],
      [
        "Ġcontain",
        -8.404241298597452
      ],
      [
        "Ġhard",
        -8.404262827372456
      ],
      [
        "ĠF",
        -8.40476318023672
      ],
      [
        "ĠWhich",
        -8.407696135404649
      ],
      [
        "Ġstate",
        -8.412598663748069
      ],
      [
        "Ġgoing",
        -8.415066982323646
      ],
      [
        "Ġrequire",
        -8.41746520506783
      ],
      [
        "ĠAs",
        -8.423080433062932
      ],
      [
        "Ġrisk",
        -8.426415847536761
      ],
      [
        "Ġalway",
        -8.430655445451073
      ],
      [
        "Ġcat",
        -8.43500052749052
      ],
      [
        "Ġsecond",
        -8.435262312857295
      ],
      [
        "Ġareas",
        -8.44682159205807
      ],
      [
        "Ġdevice",
        -8.450447284373265
      ],
      [
        "nough",
        -8.451025387071024
      ],
      [
        "age",
        -8.456510262161991
      ],
      [
        "Ġessential",
        -8.46003016326203
      ],
      [
        "Ġtreatment",
        -8.461732761137347
      ],
      [
        "Ġblood",
        -8.464092455394319
      ],
      [
        "Ġcourse",
        -8.465589323324787
      ],
      [
        "Ġlocal",
        -8.469192875857754
      ],
      [
        "Ġage",
        -8.46984430289951
      ],
      [
        "Ġfeel",
        -8.47086735018958
      ],
      [
        "Ġlearning",
        -8.475013991566147
      ],
      [
        "Ġfull",
        -8.475931275411387
      ],
      [
        "Ġunti",
        -8.477444915015003
      ],
      [
        "Ġusually",
        -8.478450767113719
      ],
      [
        "Ġdifference",
        -8.48274507672072
      ],
      [
        "ĠT",
        -8.48381100323648
      ],
      [
        "ĠE",
        -8.484167485117919
      ],
      [
        "Ġleave",
        -8.491433000052389
      ],
      [
        "Ġeat",
        -8.49598009766495
      ],
      [
        "Ġcertain",
        -8.497448197419477
      ],
      [
        "Ġfish",
        -8.500700015471837
      ],
      [
        "Ġconditions",
        -8.501215304565866
      ],
      [
        "Ġunderstand",
        -8.502315193029196
      ],
      [
        "Ġquality",
        -8.505386253156946
      ],
      [
        "Ġinvolve",
        -8.508471070256135
      ],
      [
        "Ġanimals",
        -8.509308629233654
      ],
      [
        "Ġside",
        -8.510858172936953
      ],
      [
        "Ġclose",
        -8.511317413953051
      ],
      [
        "]",
        -8.517421499960808
      ],
      [
        "ĠWith",
        -8.519008203683525
      ],
      [
        "Ġpatient",
        -8.51935869386438
      ],
      [
        "Ġmaterial",
        -8.519445044869531
      ],
      [
        "Ġ&",
        -8.520732048735713
      ],
      [
        "Ġperson",
        -8.52275921527022
      ],
      [
        "Ġfield",
        -8.523985102928858
      ],
      [
        "Ġput",
        -8.524493446491428
      ],
      [
        "Ġ$",
        -8.526025667431881
      ],
      [
        "Ġsay",
        -8.526492115211578
      ],
      [
        "Ġfamily",
        -8.527905673965138
      ],
      [
        "Ġtechnology",
        -8.528526814010238
      ],
      [
        "ĠHe",
        -8.529554965620267
      ],
      [
        "Ġword",
        -8.53005318172108
      ],
      [
        "Ġteam",
        -8.532812020088848
      ],
      [
        "Ġtogether",
        -8.533961790042673
      ],
      [
        "T",
        -8.534864069943005
      ],
      [
        "Ġhand",
        -8.534903588578215
      ],
      [
        "Ġmaterials",
        -8.538393222133127
      ],
      [
        "Ġtypes",
        -8.540421957100602
      ],
      [
        "Ġshort",
        -8.543423368114738
      ],
      [
        "Ġimprove",
        -8.546169774736505
      ],
      [
        "Ġwide",
        -8.546267335575001
      ],
      [
        "When",
        -8.548520140158203
      ],
      [
        "Ġhappen",
        -8.548707941333749
      ],
      [
        "Ġprotect",
        -8.549621944066924
      ],
      [
        ".\"Ċ",
        -8.550221944589794
      ],
      [
        "Ġdiet",
        -8.55122885032194
      ],
      [
        "Ġearly",
        -8.551854043438937
      ],
      [
        "Ġtop",
        -8.552976209753204
      ],
      [
        "Ġmachine",
        -8.555917432136495
      ],
      [
        "ive",
        -8.5570961443274
      ],
      [
        "Ġmethod",
        -8.558434906809243
      ],
      [
        "Ġweight",
        -8.56407871354574
      ],
      [
        "ĠH",
        -8.568643652981745
      ],
      [
        "Ġleast",
        -8.568934459921703
      ],
      [
        "Ġuser",
        -8.570014380892978
      ],
      [
        "ĠUniversity",
        -8.570039045847295
      ],
      [
        "it",
        -8.572754142925316
      ],
      [
        "having",
        -8.57335531338278
      ],
      [
        "Ġsystems",
        -8.574073560259626
      ],
      [
        "While",
        -8.575319497977837
      ],
      [
        "Ġsince",
        -8.576506790522028
      ],
      [
        "Ġtechnique",
        -8.578850571884512
      ],
      [
        "next",
        -8.579535730290015
      ],
      [
        "Ġproject",
        -8.58088047981687
      ],
      [
        "Ġfact",
        -8.581281936767851
      ],
      [
        "Ġcost",
        -8.584565595728554
      ],
      [
        "Ġfree",
        -8.585687098878402
      ],
      [
        "_",
        -8.58617056947735
      ],
      [
        "Ġnon",
        -8.590460162953915
      ],
      [
        "Ġhour",
        -8.590970140642435
      ],
      [
        "Ġmaintain",
        -8.593776782203925
      ],
      [
        "Ġcomputer",
        -8.596993862631718
      ],
      [
        "Ġforce",
        -8.602358968453704
      ],
      [
        "Ġhim",
        -8.602375031805586
      ],
      [
        "Ġrole",
        -8.602824024285106
      ],
      [
        "Ġalong",
        -8.60443169625746
      ],
      [
        "*",
        -8.604688340263543
      ],
      [
        "ment",
        -8.60525705736626
      ],
      [
        "Ġold",
        -8.608565935453914
      ],
      [
        "though",
        -8.610226891355339
      ],
      [
        "Ġproblems",
        -8.610373855987303
      ],
      [
        "w",
        -8.61043127245071
      ],
      [
        "âĢĻs",
        -8.61244047541244
      ],
      [
        "You",
        -8.612465091229634
      ],
      [
        "Ġlower",
        -8.616571698453807
      ],
      [
        "Ġloss",
        -8.6183635216788
      ],
      [
        ")ĊĊ",
        -8.618509018318278
      ],
      [
        "ĠR",
        -8.61923692709302
      ],
      [
        "Ġrun",
        -8.619749823558221
      ],
      [
        "Ġfocus",
        -8.619774866747306
      ],
      [
        "ĠAmerican",
        -8.622621126537535
      ],
      [
        "Ġsimple",
        -8.62270636428905
      ],
      [
        "Ġsolution",
        -8.623533205815537
      ],
      [
        "Ġkey",
        -8.624143439012101
      ],
      [
        "Ġpopulation",
        -8.62459087509643
      ],
      [
        "ĠBy",
        -8.62610948977268
      ],
      [
        "self",
        -8.627196184675721
      ],
      [
        "Ġfuture",
        -8.62817048120511
      ],
      [
        "Ġoil",
        -8.628478838985295
      ],
      [
        "Ġmeasure",
        -8.628964972966912
      ],
      [
        "Ġbase",
        -8.63195382915329
      ],
      [
        "Ġdamage",
        -8.633835339660244
      ],
      [
        "Ġseem",
        -8.636164636889802
      ],
      [
        "Ġsimilar",
        -8.637278691504147
      ],
      [
        "Ġgarden",
        -8.639941924963864
      ],
      [
        "Ġactually",
        -8.640807663482374
      ],
      [
        "ĠThat",
        -8.641079256481746
      ],
      [
        "Ġworking",
        -8.641582362115157
      ],
      [
        ")Ċ",
        -8.641977674771244
      ],
      [
        "Ġcell",
        -8.642862735441877
      ],
      [
        "Ġmodel",
        -8.644141280393576
      ],
      [
        "Ġgrowth",
        -8.645116399716347
      ],
      [
        "Ġskin",
        -8.645216252257992
      ],
      [
        "Ġfunction",
        -8.646112276364878
      ],
      [
        "Ġsocial",
        -8.646647245606687
      ],
      [
        "Ġdirect",
        -8.64673414972867
      ],
      [
        "Ġphysical",
        -8.647259219148204
      ],
      [
        "ous",
        -8.648295312940675
      ],
      [
        "Ġmajor",
        -8.650528927776353
      ],
      [
        "We",
        -8.653874084329878
      ],
      [
        "Ġlet",
        -8.653900401656424
      ],
      [
        "Ġcheck",
        -8.65437721875935
      ],
      [
        "Ġpaper",
        -8.655529698423038
      ],
      [
        "Ġthing",
        -8.65933472232787
      ],
      [
        "Ġdepend",
        -8.660262167855493
      ],
      [
        "Ġsafe",
        -8.661009275969349
      ],
      [
        "Ġtypical",
        -8.662328064287674
      ],
      [
        "Ġeasy",
        -8.664110931426837
      ],
      [
        "Ġclear",
        -8.665303897480875
      ],
      [
        "Ġlive",
        -8.666327028408858
      ],
      [
        "Ġoccur",
        -8.666568335722244
      ],
      [
        "Ġmakes",
        -8.668341310315899
      ],
      [
        "Ġsuggest",
        -8.672085821511722
      ],
      [
        "Ġkind",
        -8.672424004489647
      ],
      [
        "v",
        -8.673009414980346
      ],
      [
        "Ġunique",
        -8.673900469458687
      ],
      [
        "Ġperiod",
        -8.67396841233516
      ],
      [
        "Ġpressure",
        -8.675056177808976
      ],
      [
        "Ġ[",
        -8.676776173001652
      ],
      [
        "Ġquick",
        -8.6781189681438
      ],
      [
        "Ġchild",
        -8.679288220998743
      ],
      [
        "\\n",
        -8.679325875269239
      ],
      [
        "Ġclimate",
        -8.680650392718949
      ],
      [
        "ĠL",
        -8.681615473409009
      ],
      [
        "Ġproper",
        -8.68990617803101
      ],
      [
        "Ġlikely",
        -8.689924225940988
      ],
      [
        "Ġindustr",
        -8.69121546388814
      ],
      [
        "either",
        -8.69208914218019
      ],
      [
        "Ġresearcher",
        -8.694558630038808
      ],
      [
        "Ġproduction",
        -8.69460552289946
      ],
      [
        "Ġfollow",
        -8.694819829141025
      ],
      [
        "ĠâĢĶ",
        -8.695899129704056
      ],
      [
        "Ġsingle",
        -8.697515228207262
      ],
      [
        "Ġcomponent",
        -8.697640418631503
      ],
      [
        "ĠNew",
        -8.69794417123634
      ],
      [
        "Ġabove",
        -8.698090067172647
      ],
      [
        "Ġdoesn",
        -8.698093246474699
      ],
      [
        "Ġlove",
        -8.698587234965416
      ],
      [
        "Ġaffect",
        -8.70026894210366
      ],
      [
        "not",
        -8.704196227316395
      ],
      [
        "Ġtreat",
        -8.706699251446672
      ],
      [
        "Ġstrong",
        -8.711853879232626
      ],
      [
        "Ġopen",
        -8.712072751889536
      ],
      [
        "Ġscience",
        -8.71385365324782
      ],
      [
        "Ġdetermine",
        -8.715412852582137
      ],
      [
        "Ġacross",
        -8.7181127763719
      ],
      [
        "Ġnever",
        -8.719023358797163
      ],
      [
        "Ġsolar",
        -8.720207285599805
      ],
      [
        "N",
        -8.72045386016912
      ],
      [
        "Ġnecessar",
        -8.72127194026083
      ],
      [
        "Ġeye",
        -8.724372610426094
      ],
      [
        "Ġheart",
        -8.724717520245441
      ],
      [
        "Ġunderstanding",
        -8.729087139677208
      ],
      [
        "Ġagains",
        -8.729564011202841
      ],
      [
        "Ġmove",
        -8.73233754372221
      ],
      [
        "There",
        -8.732841446075076
      ],
      [
        "Ġavoid",
        -8.733312665243083
      ],
      [
        "Ġbrain",
        -8.734069304564372
      ],
      [
        "Ġchemical",
        -8.735549690290881
      ],
      [
        "Ġtimes",
        -8.73582841168907
      ],
      [
        "Ġwarm",
        -8.73696252947246
      ],
      [
        "Ġdone",
        -8.739239656901052
      ],
      [
        "Ġdry",
        -8.743053264893497
      ],
      [
        "Ġespecial",
        -8.744476390562326
      ],
      [
        "F",
        -8.745475300957857
      ],
      [
        "Ġcool",
        -8.746198437788914
      ],
      [
        "Ġcycle",
        -8.746734858482004
      ],
      [
        "Ġcreat",
        -8.746998939555013
      ],
      [
        "ers",
        -8.747375365857362
      ],
      [
        "Ġaccording",
        -8.747455873399442
      ],
      [
        "Ġpattern",
        -8.747929347993253
      ],
      [
        "Ġstep",
        -8.748218350913568
      ],
      [
        "ĠSome",
        -8.748295128563097
      ],
      [
        "Ġrecent",
        -8.748746072213454
      ],
      [
        "ance",
        -8.75032433503844
      ],
      [
        "z",
        -8.751893883818727
      ],
      [
        "Ġimage",
        -8.753130693674581
      ],
      [
        "Ġfactors",
        -8.753394575294472
      ],
      [
        "Ġblack",
        -8.754607505598099
      ],
      [
        "Ġleft",
        -8.75532257274945
      ],
      [
        "Ġsignal",
        -8.756190983737826
      ],
      [
        "Ġcontinue",
        -8.757127535384507
      ],
      [
        "Ġarticle",
        -8.761470678574238
      ],
      [
        "Ġexist",
        -8.761596353242101
      ],
      [
        "Ġassociate",
        -8.764522815293244
      ],
      [
        "ĠBe",
        -8.764842558691189
      ],
      [
        "Ġregion",
        -8.765015197672714
      ],
      [
        "Ġminute",
        -8.766115980924145
      ],
      [
        "Ġamong",
        -8.767219841713107
      ],
      [
        "Ġask",
        -8.76947329044994
      ],
      [
        "ry",
        -8.77240401416499
      ],
      [
        "Ġbusiness",
        -8.772926446045059
      ],
      [
        "Ġfast",
        -8.773368486131208
      ],
      [
        "Ġclean",
        -8.780030655652777
      ],
      [
        "Ġpopular",
        -8.7803220324902
      ],
      [
        "Ġground",
        -8.786504405394886
      ],
      [
        "Ġactivity",
        -8.78662858800594
      ],
      [
        "Ġgetting",
        -8.787085865412624
      ],
      [
        "Ġtoday",
        -8.787430214675794
      ],
      [
        "Ġpropert",
        -8.788922934208799
      ],
      [
        "Ġwhite",
        -8.789179903550641
      ],
      [
        "Ġbook",
        -8.793741013979023
      ],
      [
        "Ġsign",
        -8.795506369994307
      ],
      [
        "Ġmean",
        -8.797151053785397
      ],
      [
        "ĠYour",
        -8.798257683894056
      ],
      [
        "Ġpost",
        -8.798859706871552
      ],
      [
        "Ġeffect",
        -8.799162696501178
      ],
      [
        "Ġeffects",
        -8.800733498722984
      ],
      [
        "Ġbring",
        -8.800895285532004
      ],
      [
        "Ġstation",
        -8.801284208615364
      ],
      [
        "Ġdays",
        -8.801492344776353
      ],
      [
        "Ġunit",
        -8.804650045358656
      ],
      [
        "Ġwhe",
        -8.805209630458297
      ],
      [
        "Ġspeed",
        -8.805483782616616
      ],
      [
        "Ġbasic",
        -8.805800864121437
      ],
      [
        "Ġsays",
        -8.806296446253251
      ],
      [
        "Ġfurther",
        -8.806432760245265
      ],
      [
        "Ġdeep",
        -8.806448362278646
      ],
      [
        "away",
        -8.810700918981613
      ],
      [
        "Ġfar",
        -8.81103377432328
      ],
      [
        "P",
        -8.81112602480848
      ],
      [
        ".\"",
        -8.812027407974847
      ],
      [
        "Ġthought",
        -8.812260056678966
      ],
      [
        "Ġpurpose",
        -8.81281582693974
      ],
      [
        "Ġrecord",
        -8.813498290944164
      ],
      [
        "Ġred",
        -8.814355948796928
      ],
      [
        "M",
        -8.814483806772463
      ],
      [
        "ready",
        -8.814995638098583
      ],
      [
        "Ġfour",
        -8.815299214472919
      ],
      [
        "Ġbacteria",
        -8.816485375207222
      ],
      [
        "Ġvehicle",
        -8.81785031706642
      ],
      [
        "Ġfee",
        -8.818111957668755
      ],
      [
        "Ġregular",
        -8.818112493252862
      ],
      [
        "ory",
        -8.818247473525311
      ],
      [
        "ĠN",
        -8.824237275584421
      ],
      [
        "Ġremove",
        -8.82477835168597
      ],
      [
        "Ġparent",
        -8.824850925426084
      ],
      [
        "Ġvariety",
        -8.829295953138251
      ],
      [
        "E",
        -8.830713278622731
      ],
      [
        "âĢĶ",
        -8.830728223140607
      ],
      [
        "Ġbelieve",
        -8.832286431642942
      ],
      [
        "Ġpain",
        -8.834334158415995
      ],
      [
        "ĠNo",
        -8.83470753892101
      ],
      [
        "Ġflow",
        -8.83491707085561
      ],
      [
        "âĢĻ",
        -8.835626210072494
      ],
      [
        "Ġacid",
        -8.835822666551264
      ],
      [
        "!ĊĊ",
        -8.83988457280692
      ],
      [
        "Ġvideo",
        -8.84052582505289
      ],
      [
        "Ġlooking",
        -8.846005254924322
      ],
      [
        "Ġweek",
        -8.848305608378025
      ],
      [
        "Ġlist",
        -8.848512846571598
      ],
      [
        "For",
        -8.84936645259239
      ],
      [
        "Ġcold",
        -8.849808797792766
      ],
      [
        "Ġanimal",
        -8.85008771711079
      ],
      [
        "to",
        -8.850092493537186
      ],
      [
        "given",
        -8.851650061989355
      ],
      [
        "Ġperformance",
        -8.851939349673762
      ],
      [
        "Ġbuild",
        -8.85339046987811
      ],
      [
        "Ġrate",
        -8.854420127733936
      ],
      [
        "Ġplan",
        -8.855812874170082
      ],
      [
        "Ġelectric",
        -8.855948896230487
      ],
      [
        "Ġaddition",
        -8.857748819151661
      ],
      [
        "ĠOn",
        -8.85966013659904
      ],
      [
        "Ġface",
        -8.862262450113835
      ],
      [
        "Ġstructure",
        -8.866785475808008
      ],
      [
        "Ġreport",
        -8.867099864328127
      ],
      [
        "ĠU",
        -8.86715726087218
      ],
      [
        "Ġhead",
        -8.867547550287764
      ],
      [
        "Ġbit",
        -8.867980539901938
      ],
      [
        "Ġbig",
        -8.86840152279899
      ],
      [
        "Ġenjoy",
        -8.868693071841594
      ],
      [
        "Ġpiece",
        -8.869888310206711
      ],
      [
        "Ġnormal",
        -8.872055397490698
      ],
      [
        "Ġhistory",
        -8.874239956795765
      ],
      [
        "Ġcancer",
        -8.875349114721516
      ],
      [
        "Ġcommunity",
        -8.875648572933912
      ],
      [
        "Ġaccess",
        -8.877280184926072
      ],
      [
        "Ġde",
        -8.87749663572426
      ],
      [
        "To",
        -8.877638636677442
      ],
      [
        "thing",
        -8.878738139411004
      ],
      [
        "Ġobject",
        -8.88015910914537
      ],
      [
        "Ġtree",
        -8.880672965975517
      ],
      [
        "Ġtalk",
        -8.882658585585345
      ],
      [
        "Ġbreak",
        -8.883024637408944
      ],
      [
        "Ġclass",
        -8.884008686862515
      ],
      [
        "Ġgas",
        -8.884016091163883
      ],
      [
        "Ġpositive",
        -8.88448454588222
      ],
      [
        "Ġdifficult",
        -8.88562630975298
      ],
      [
        "Ġmatter",
        -8.886430176253256
      ],
      [
        "Ġallows",
        -8.886941669900029
      ],
      [
        "Ġtraining",
        -8.890890481150157
      ],
      [
        "Ġliv",
        -8.892373865227926
      ],
      [
        "Ġenvironmental",
        -8.894089603330954
      ],
      [
        "Ġinside",
        -8.894434365012643
      ],
      [
        "Ġshare",
        -8.894438045470565
      ],
      [
        "Ġgenetic",
        -8.895934137588947
      ],
      [
        "Ġsound",
        -8.897240448913196
      ],
      [
        "Ġknowledge",
        -8.897386848888111
      ],
      [
        "Ġinterest",
        -8.898434759408676
      ],
      [
        "Ġroom",
        -8.898820111660758
      ],
      [
        "Ġskills",
        -8.899496772266525
      ],
      [
        "Ġwhole",
        -8.899761600034886
      ],
      [
        "Ġseed",
        -8.900373384631784
      ],
      [
        "Ġread",
        -8.902036988057201
      ],
      [
        "Ġthough",
        -8.903771532220702
      ],
      [
        "Ġperform",
        -8.906505578368797
      ],
      [
        "Ġposition",
        -8.906858851364436
      ],
      [
        "Ġactivities",
        -8.909767021421072
      ],
      [
        "Ġapproach",
        -8.910114111542068
      ],
      [
        "Ġblock",
        -8.910447547738372
      ],
      [
        "Ġstress",
        -8.910857432865917
      ],
      [
        "Ġfeatures",
        -8.91448926606008
      ],
      [
        "taking",
        -8.916398725957531
      ],
      [
        "Ġdogs",
        -8.917341489649013
      ],
      [
        "Ġcontent",
        -8.917636482653894
      ],
      [
        "!Ċ",
        -8.919194313659107
      ],
      [
        "Ġbelow",
        -8.920007792430603
      ],
      [
        "Ġexplain",
        -8.920101806486365
      ],
      [
        "Ġidea",
        -8.920292645228717
      ],
      [
        "Ġcompany",
        -8.92146455987739
      ],
      [
        "H",
        -8.921615497881929
      ],
      [
        "Ġanswer",
        -8.922701407608681
      ],
      [
        "Ġprovid",
        -8.923612981606833
      ],
      [
        "Ġperfect",
        -8.924918195279172
      ],
      [
        "Ġstay",
        -8.926513513855667
      ],
      [
        "Ġresponse",
        -8.927787441011109
      ],
      [
        "Ġpre",
        -8.928384422444282
      ],
      [
        "Ġengine",
        -8.928743648613331
      ],
      [
        "Ġprint",
        -8.929236726054135
      ],
      [
        "ĠAl",
        -8.930013938583073
      ],
      [
        "Ġaverage",
        -8.932424362898006
      ],
      [
        "Ġyoung",
        -8.932505278471718
      ],
      [
        "selve",
        -8.935354482044588
      ],
      [
        "Ġrequired",
        -8.939901521893361
      ],
      [
        "Ġexercise",
        -8.943769154642577
      ],
      [
        "As",
        -8.944424080466963
      ],
      [
        "ĠG",
        -8.944607531064904
      ],
      [
        "Ġcomplex",
        -8.945254196246676
      ],
      [
        "Ġslow",
        -8.945404082684629
      ],
      [
        "Ġaction",
        -8.945630357394734
      ],
      [
        "ten",
        -8.946825929355452
      ],
      [
        "Ġresources",
        -8.950320182006664
      ],
      [
        "Ġeasi",
        -8.950800773705211
      ],
      [
        "Ġnetwork",
        -8.951017322630989
      ],
      [
        "Ġlocation",
        -8.951822480258244
      ],
      [
        "Ġtotal",
        -8.95218569673683
      ],
      [
        "ĠOne",
        -8.95340676269749
      ],
      [
        "ful",
        -8.953657514290255
      ],
      [
        "Ġear",
        -8.954041204881495
      ],
      [
        "ĠK",
        -8.955647296250884
      ],
      [
        "Ġcarbon",
        -8.956693404325499
      ],
      [
        "Ġplastic",
        -8.957409618807661
      ],
      [
        "Ġpublic",
        -8.95852793999207
      ],
      [
        "O",
        -8.959590505178351
      ],
      [
        "Ġbehavior",
        -8.960405782765427
      ],
      [
        "Ġlimit",
        -8.963922057413892
      ],
      [
        "Ġmetal",
        -8.966676169153514
      ],
      [
        "Ġshape",
        -8.966746378728725
      ],
      [
        "Ġopportunit",
        -8.96693843646154
      ],
      [
        "Ġfall",
        -8.967433430258666
      ],
      [
        "Ġmarket",
        -8.96942717533007
      ],
      [
        "Ġcook",
        -8.970140710608035
      ],
      [
        "Ġtell",
        -8.972573179019346
      ],
      [
        "Ġways",
        -8.974599445598193
      ],
      [
        "Ġtraditional",
        -8.975532606647091
      ],
      [
        "Ġterm",
        -8.975591784883648
      ],
      [
        "Ġsea",
        -8.977590734402373
      ],
      [
        "Ġgreen",
        -8.979960764025169
      ],
      [
        "Ġlate",
        -8.980937222837536
      ],
      [
        "Ġcorrect",
        -8.983186358195713
      ],
      [
        "ĠNational",
        -8.98484411983895
      ],
      [
        "Ġitem",
        -8.984871597787475
      ],
      [
        "Ġprovides",
        -8.985655938288495
      ],
      [
        "Ġspecial",
        -8.986333689047633
      ],
      [
        "Ġcondition",
        -8.993135398062467
      ],
      [
        "Ġfruit",
        -8.994532239443817
      ],
      [
        "Ġbegin",
        -8.99571474895886
      ],
      [
        "Ġgot",
        -8.995776559802191
      ],
      [
        "Ġagain",
        -8.99996297050883
      ],
      [
        "Ġprimar",
        -9.002837377831888
      ],
      [
        "Ġsense",
        -9.00356887589175
      ],
      [
        "Ġmethods",
        -9.005214495281942
      ],
      [
        "Ġlater",
        -9.005918763406665
      ],
      [
        "Ġmind",
        -9.006019146370292
      ],
      [
        "Ġreturn",
        -9.007341627704928
      ],
      [
        "Ġdescribe",
        -9.008581523517666
      ],
      [
        "Ġpractice",
        -9.012472224948583
      ],
      [
        "Ġseen",
        -9.013353417019465
      ],
      [
        "Ġmix",
        -9.013394635480338
      ],
      [
        "Ġre",
        -9.013684119177732
      ],
      [
        "Ġfit",
        -9.014004960105698
      ],
      [
        "Ġprotein",
        -9.014353703797775
      ],
      [
        "Ġsearch",
        -9.014896245968329
      ],
      [
        "Ġparticular",
        -9.01581708943801
      ],
      [
        ">",
        -9.016275434716125
      ],
      [
        "Ġprofessional",
        -9.017866292872444
      ],
      [
        "Ġcommunication",
        -9.01924199019006
      ],
      [
        "ĠAn",
        -9.020389810325902
      ],
      [
        "Ġmultiple",
        -9.021841089001777
      ],
      [
        "Ġlanguage",
        -9.023058679258902
      ],
      [
        "Ġbuilding",
        -9.023812598064254
      ],
      [
        "Ġmuscle",
        -9.026332767285208
      ],
      [
        "Ġrelative",
        -9.027024261414308
      ],
      [
        "Ġdoing",
        -9.027227637075224
      ],
      [
        "Ġnature",
        -9.02782199798513
      ],
      [
        "R",
        -9.028014873075984
      ],
      [
        "Ġentire",
        -9.029092025882916
      ],
      [
        "Ġidentify",
        -9.029314786611293
      ],
      [
        "Ġpersonal",
        -9.031970267763771
      ],
      [
        "Ġhouse",
        -9.032762334675322
      ],
      [
        "Ġcut",
        -9.032859996838631
      ],
      [
        "Ġauthor",
        -9.033145223144276
      ],
      [
        "afety",
        -9.033635937331692
      ],
      [
        "Ġview",
        -9.03384972428994
      ],
      [
        "Ġreceive",
        -9.034027585668245
      ],
      [
        "Ġam",
        -9.034466484355075
      ],
      [
        "Ġdrive",
        -9.035157075938551
      ],
      [
        "Ġchoice",
        -9.03519030834015
      ],
      [
        "Ġsugar",
        -9.036080861030884
      ],
      [
        "Ġreach",
        -9.037414253607178
      ],
      [
        "ĠDNA",
        -9.0374795314542
      ],
      [
        "Ġtools",
        -9.038152355764922
      ],
      [
        "Ġlayer",
        -9.039443264095372
      ],
      [
        "âĢ¦",
        -9.04174835644728
      ],
      [
        "Ġglobal",
        -9.042893884993603
      ],
      [
        "Ġconcern",
        -9.043602808484575
      ],
      [
        "Ġmodern",
        -9.045172583169077
      ],
      [
        "Ġstop",
        -9.04595250097156
      ],
      [
        "man",
        -9.04663128502337
      ],
      [
        "Ġsubject",
        -9.047870729330576
      ],
      [
        "Ġthroughout",
        -9.048445271139435
      ],
      [
        "Ġbalance",
        -9.04874719342628
      ],
      [
        "Ġact",
        -9.049411927991246
      ],
      [
        "Ġoverall",
        -9.05229668727273
      ],
      [
        "Ġprobabl",
        -9.05230612045501
      ],
      [
        "Ġsomeone",
        -9.053085987539088
      ],
      [
        "Ġestablish",
        -9.05367558401504
      ],
      [
        "Ġmonths",
        -9.054694171130906
      ],
      [
        "Ġetc",
        -9.055710003609882
      ],
      [
        "Ġcontact",
        -9.058368692514708
      ],
      [
        "Ġpast",
        -9.059246280191084
      ],
      [
        "Ġrelease",
        -9.059873900480312
      ],
      [
        "Ġwaste",
        -9.060374303730626
      ],
      [
        "Ġflower",
        -9.060418182284952
      ],
      [
        "Ġadvantage",
        -9.060899299806408
      ],
      [
        "Ġpage",
        -9.061044139401035
      ],
      [
        "ĠAll",
        -9.061659276508957
      ],
      [
        "Ġcharge",
        -9.064225576705446
      ],
      [
        "Ġalmost",
        -9.064551214703112
      ],
      [
        "Ġsymptom",
        -9.065053780997395
      ],
      [
        "Ġself",
        -9.065411409040056
      ],
      [
        "Ġeducation",
        -9.066059605712477
      ],
      [
        "Ġbuy",
        -9.066475968727104
      ],
      [
        "Ġfuel",
        -9.067781108355057
      ],
      [
        "Ġselect",
        -9.068281058122864
      ],
      [
        "by",
        -9.06958633001856
      ],
      [
        "ĠScience",
        -9.071369121896314
      ],
      [
        "online",
        -9.073855017959534
      ],
      [
        "ather",
        -9.073974553442106
      ],
      [
        "Ġstudies",
        -9.074180873421216
      ],
      [
        "Ġland",
        -9.075460802391325
      ],
      [
        "Ġart",
        -9.076485633901031
      ],
      [
        "Ġever",
        -9.07653192408789
      ],
      [
        "Ġmone",
        -9.07922632403364
      ],
      [
        "Ġcompare",
        -9.080338660128827
      ],
      [
        "Ġservice",
        -9.08087822785058
      ],
      [
        "Ġwave",
        -9.08168610203365
      ],
      [
        "ember",
        -9.08226863786636
      ],
      [
        "bility",
        -9.082416985424596
      ],
      [
        "Ġcrucial",
        -9.08311883406539
      ],
      [
        "ĠO",
        -9.083290132495751
      ],
      [
        "ĠAI",
        -9.083516238624956
      ],
      [
        "Ġfive",
        -9.08429332954333
      ],
      [
        "Ġchoose",
        -9.086694344164144
      ],
      [
        "Ġbad",
        -9.086724876344851
      ],
      [
        "Ġsite",
        -9.087614127633309
      ],
      [
        "Ġcharacter",
        -9.08800363296098
      ],
      [
        "Ġinfection",
        -9.08849885843518
      ],
      [
        "-based",
        -9.088825322455536
      ],
      [
        "one",
        -9.090474231518014
      ],
      [
        "Ġinstead",
        -9.090866198246474
      ],
      [
        "Ġstand",
        -9.092077505592004
      ],
      [
        "Q",
        -9.092385334666346
      ],
      [
        "Ġreaction",
        -9.09244975203493
      ],
      [
        "Ġrelated",
        -9.094882177971485
      ],
      [
        "Ġscientists",
        -9.095837557165694
      ],
      [
        "Ġoptions",
        -9.097000556897653
      ],
      [
        "So",
        -9.097487747213922
      ],
      [
        "Ġmillion",
        -9.099384069498717
      ],
      [
        "Ġdegree",
        -9.099848095036284
      ],
      [
        "Ġincreasing",
        -9.100221818451866
      ],
      [
        "Ġgain",
        -9.101701930447671
      ],
      [
        "Ġtip",
        -9.104746795892314
      ],
      [
        "Ġsleep",
        -9.105142178016756
      ],
      [
        "Ġcountry",
        -9.106011263276296
      ],
      [
        "ĠEarth",
        -9.10724899299676
      ],
      [
        "Ġjob",
        -9.10774637539198
      ],
      [
        "L",
        -9.109171431869832
      ],
      [
        "Ġdigital",
        -9.10969794661467
      ],
      [
        "Ġwall",
        -9.11025724791176
      ],
      [
        "G",
        -9.112766596238512
      ],
      [
        "Ġserve",
        -9.113288329368322
      ],
      [
        "Ġwood",
        -9.11465710381327
      ],
      [
        "Ġsituation",
        -9.11545547561362
      ],
      [
        "Ġrepresent",
        -9.115933395955691
      ],
      [
        "Ġyet",
        -9.118382545145447
      ],
      [
        "Ġsimply",
        -9.118440190183623
      ],
      [
        "ĠCan",
        -9.118513064776398
      ],
      [
        "Ġtarget",
        -9.118970148738017
      ],
      [
        "Ġseason",
        -9.12076459512285
      ],
      [
        "Ġnight",
        -9.12158293247862
      ],
      [
        "Ġelements",
        -9.121735000379308
      ],
      [
        "ĠShe",
        -9.122095121021305
      ],
      [
        "Ġpet",
        -9.123002901827714
      ],
      [
        "V",
        -9.125098502921809
      ],
      [
        "Ġoutside",
        -9.125427943830388
      ],
      [
        "Ġhot",
        -9.12556861920162
      ],
      [
        "Ġstarted",
        -9.126491162653055
      ],
      [
        "Ġothers",
        -9.127149283499667
      ],
      [
        "âĢĵ",
        -9.127523057394368
      ],
      [
        "Ġexpert",
        -9.128001589703771
      ],
      [
        "Ġextreme",
        -9.128106798764538
      ],
      [
        "Ġlink",
        -9.128876228051023
      ],
      [
        "Ġisn",
        -9.13038608176619
      ],
      [
        "Ġexact",
        -9.131021509604514
      ],
      [
        "Ġsometime",
        -9.132954452751314
      ],
      [
        "Ġfinal",
        -9.132998757876678
      ],
      [
        "Ġpaint",
        -9.133463851661826
      ],
      [
        "Ġkids",
        -9.13451878862332
      ],
      [
        "ĠV",
        -9.135863040896586
      ],
      [
        "Ġweather",
        -9.136144000240552
      ],
      [
        "Ġdecision",
        -9.13740622968687
      ],
      [
        "Ġfactor",
        -9.139800437826562
      ],
      [
        "Ġdark",
        -9.140620176804966
      ],
      [
        "Ġprevious",
        -9.14075500391692
      ],
      [
        "way",
        -9.142019769645916
      ],
      [
        "ism",
        -9.142491188799466
      ],
      [
        "Ġpercent",
        -9.14280164147779
      ],
      [
        "ĠStates",
        -9.142918478054558
      ],
      [
        "Ġstory",
        -9.14356956017545
      ],
      [
        "Ġappear",
        -9.144978129579268
      ],
      [
        "Ġanything",
        -9.146452635187732
      ],
      [
        "Ġtrees",
        -9.14694369444711
      ],
      [
        "Ġtaken",
        -9.146957241214595
      ],
      [
        "Ġoption",
        -9.148434578681734
      ],
      [
        "Ġguide",
        -9.15020909375059
      ],
      [
        "Ġaddress",
        -9.150960486995764
      ],
      [
        "+",
        -9.15164775099304
      ],
      [
        "Ġstandard",
        -9.152137717109
      ],
      [
        "Ġeggs",
        -9.153060757607625
      ],
      [
        "Ġstyle",
        -9.15408524410384
      ],
      [
        "Ġadult",
        -9.154855627982624
      ],
      [
        "Ġstore",
        -9.15634566604438
      ],
      [
        "ĠDo",
        -9.156420579320752
      ],
      [
        "Ġculture",
        -9.15912823982995
      ],
      [
        "Ġconnection",
        -9.159211229580333
      ],
      [
        "Ġlength",
        -9.162169051719246
      ],
      [
        "Ġstage",
        -9.163265315978435
      ],
      [
        "Ġfresh",
        -9.163624946868234
      ],
      [
        "Ġstrength",
        -9.165265938008194
      ],
      [
        "Ġeffort",
        -9.166278446875154
      ],
      [
        "Ġfinding",
        -9.168346423200344
      ],
      [
        "[",
        -9.169998086747803
      ],
      [
        "Ġwind",
        -9.170236406750892
      ],
      [
        "Ġtravel",
        -9.17044365803281
      ],
      [
        "|",
        -9.17049563631756
      ],
      [
        "ĠHere",
        -9.171169003471883
      ],
      [
        "Ġbreed",
        -9.171915771089534
      ],
      [
        "Ġevidence",
        -9.176241959641748
      ],
      [
        "Ġapplication",
        -9.176581824429352
      ],
      [
        "Ġmov",
        -9.177749443052663
      ],
      [
        "Ġfun",
        -9.17820564619748
      ],
      [
        "Ġactive",
        -9.178432450831869
      ],
      [
        "Ġcustomer",
        -9.178987084530656
      ],
      [
        "Ġcover",
        -9.183619856318176
      ],
      [
        "Ġwon",
        -9.183846935958016
      ],
      [
        "Ġoriginal",
        -9.185855434051286
      ],
      [
        "Ġhalf",
        -9.186083503555812
      ],
      [
        "Ġmedical",
        -9.18645918712786
      ],
      [
        "land",
        -9.186678368996407
      ],
      [
        "Ġpass",
        -9.188184314988728
      ],
      [
        "Ġinitial",
        -9.190633316850803
      ],
      [
        "Ġaccount",
        -9.1913503554131
      ],
      [
        "Ġregard",
        -9.191526056765984
      ],
      [
        "ne",
        -9.192274703829147
      ],
      [
        "Ġago",
        -9.194133671245396
      ],
      [
        "Ġcenter",
        -9.19423397687364
      ],
      [
        "Ġcode",
        -9.197901719533952
      ],
      [
        "Ġexplore",
        -9.198491753489154
      ],
      [
        "One",
        -9.198637726040658
      ],
      [
        "ĠAt",
        -9.199972445383256
      ],
      [
        "Ġefficient",
        -9.200365402835931
      ],
      [
        "Ġeyes",
        -9.201331163884666
      ],
      [
        "Ġmanagement",
        -9.20196983952986
      ],
      [
        "Ġhear",
        -9.202090130685342
      ],
      [
        ").Ċ",
        -9.202655576412036
      ],
      [
        "Ġapplications",
        -9.203437837046083
      ],
      [
        "Ġstor",
        -9.205185558926011
      ],
      [
        "Ġsuccessful",
        -9.206674506900994
      ],
      [
        "Ġconstant",
        -9.208440614033368
      ],
      [
        "Ġanalysis",
        -9.210471849474631
      ],
      [
        "Ġequal",
        -9.213616261589356
      ],
      [
        "Ġtool",
        -9.21399221495304
      ],
      [
        "Ġice",
        -9.215601895846714
      ],
      [
        "Ġvegetable",
        -9.216736661570078
      ],
      [
        "Ġdistance",
        -9.217869300792138
      ],
      [
        "once",
        -9.218442415224438
      ],
      [
        "aid",
        -9.218711231110426
      ],
      [
        "Ġfat",
        -9.219048636333614
      ],
      [
        "Ġadditional",
        -9.220435856930472
      ],
      [
        "K",
        -9.221188810019369
      ],
      [
        "Ġdeliver",
        -9.221200216981057
      ],
      [
        "Ġbirds",
        -9.221516721959276
      ],
      [
        "Ġwalk",
        -9.222592009015417
      ],
      [
        "Â°",
        -9.223441682457466
      ],
      [
        "ĠDr",
        -9.223601854840574
      ],
      [
        "Ġwomen",
        -9.22400273314511
      ],
      [
        "Ġmentioned",
        -9.224284024319662
      ],
      [
        "Ġpay",
        -9.225340929586366
      ],
      [
        "Ġworks",
        -9.225900384832665
      ],
      [
        "Ġshows",
        -9.22672327444277
      ],
      [
        "Ġdai",
        -9.226797000478044
      ],
      [
        "Ġcity",
        -9.227064067771348
      ],
      [
        "yourself",
        -9.22813973786242
      ],
      [
        "Ġtend",
        -9.22884045401791
      ],
      [
        "Ġcontribute",
        -9.22901403376415
      ],
      [
        "Ġbehind",
        -9.230392606668048
      ],
      [
        "ĠX",
        -9.23219580576092
      ],
      [
        "Ġwebsite",
        -9.232300013323911
      ],
      [
        "Ġspring",
        -9.233579597188056
      ],
      [
        "ber",
        -9.23418964421817
      ],
      [
        "Ġhearing",
        -9.234420578525388
      ],
      [
        "Ġmental",
        -9.237618238820414
      ],
      [
        "Ġstudent",
        -9.23916586063256
      ],
      [
        "quite",
        -9.23928187281824
      ],
      [
        "Ġtissue",
        -9.240911131576793
      ],
      [
        "Ġsection",
        -9.241205311072989
      ],
      [
        "Ġequipment",
        -9.241209128739328
      ],
      [
        "Ġservices",
        -9.241582480728567
      ],
      [
        "Ġindicate",
        -9.242938690032624
      ],
      [
        "Ġgene",
        -9.2430388196721
      ],
      [
        "Ġoperation",
        -9.243815956262535
      ],
      [
        "Ġmale",
        -9.2438527179498
      ],
      [
        "Ġachieve",
        -9.24409239259823
      ],
      [
        "Ġmovement",
        -9.244744206411482
      ],
      [
        "Ġnegative",
        -9.245699457828971
      ],
      [
        "ĠHealth",
        -9.248302960010736
      ],
      [
        "Ġorganization",
        -9.248460578505432
      ],
      [
        "Ġwinter",
        -9.25115383447666
      ],
      [
        "Ġseparate",
        -9.252105103316062
      ],
      [
        "ĠJ",
        -9.25316422138838
      ],
      [
        "at",
        -9.253325197489772
      ],
      [
        "Ġsave",
        -9.255172779669495
      ],
      [
        "Ġmeat",
        -9.25618901498229
      ],
      [
        "Ġspread",
        -9.256380224652528
      ],
      [
        "Ġhorse",
        -9.256885065703573
      ],
      [
        "ĠSchool",
        -9.25703786180848
      ],
      [
        "ĠAfter",
        -9.257047091949694
      ],
      [
        "Ġapply",
        -9.257059449924824
      ],
      [
        "Ġdrink",
        -9.258682841691012
      ],
      [
        "Ġfilter",
        -9.2594067762304
      ],
      [
        "Ġgovernment",
        -9.259820154534683
      ],
      [
        "Ġb",
        -9.260903524254632
      ],
      [
        "Ġdetail",
        -9.261325461736114
      ],
      [
        "Ġbattery",
        -9.262812374909236
      ],
      [
        "Ġevents",
        -9.269514157202511
      ],
      [
        "Ġlack",
        -9.269541204052802
      ],
      [
        "Ġmass",
        -9.26994759890161
      ],
      [
        "Ġleading",
        -9.270093342040152
      ],
      [
        "Ġadvance",
        -9.271148203471714
      ],
      [
        "Ġfire",
        -9.273271169564357
      ],
      [
        "Ġocean",
        -9.275655622205324
      ],
      [
        "Ġstrateg",
        -9.275678808542953
      ],
      [
        "Ġattention",
        -9.275789980783554
      ],
      [
        "Ġvisit",
        -9.275824104758
      ],
      [
        "wise",
        -9.276229117857827
      ],
      [
        "Ġbuil",
        -9.276480396420643
      ],
      [
        "Ġreading",
        -9.276706464133389
      ],
      [
        "Ġcaus",
        -9.277216415584611
      ],
      [
        "Ġglass",
        -9.279931058148389
      ],
      [
        "Ġdisplay",
        -9.279973387016756
      ],
      [
        "Ġconnect",
        -9.279988166454997
      ],
      [
        "Ġevent",
        -9.281028757299872
      ],
      [
        "Ġdi",
        -9.28199202539271
      ],
      [
        "Ġfemale",
        -9.284571898752532
      ],
      [
        "Ġremain",
        -9.284748517737478
      ],
      [
        "Ġplayer",
        -9.28868200193968
      ],
      [
        "Why",
        -9.290463042316432
      ],
      [
        "ĠSouth",
        -9.291380991618375
      ],
      [
        "Ġmonitor",
        -9.291768674502343
      ],
      [
        "ian",
        -9.292591441553832
      ],
      [
        "Ġsun",
        -9.293112193990062
      ],
      [
        "Ġsupply",
        -9.29595748051274
      ],
      [
        "ĠAmerica",
        -9.297755934834385
      ],
      [
        "Ġparticularly",
        -9.298492883926489
      ],
      [
        "Ġinfluence",
        -9.298757243043926
      ],
      [
        "Ġchance",
        -9.300816167101864
      ],
      [
        "Ġcritical",
        -9.304052769018028
      ],
      [
        "Ġrest",
        -9.304182591413856
      ],
      [
        "Ġspot",
        -9.304454451396447
      ],
      [
        "Ġenzyme",
        -9.30502838926556
      ],
      [
        "Ġsalt",
        -9.305581975266152
      ],
      [
        "ĠNorth",
        -9.30616799192895
      ],
      [
        "\\u",
        -9.307055579963784
      ],
      [
        "Ġorganic",
        -9.3086848857927
      ],
      [
        "Ġcontainer",
        -9.30869087456956
      ],
      [
        "Ġweeks",
        -9.312267847477372
      ],
      [
        "Ġhole",
        -9.31462668296674
      ],
      [
        "Ġdiscuss",
        -9.31502752840289
      ],
      [
        "Ġdate",
        -9.31643248140914
      ],
      [
        "Ġscientific",
        -9.316711346088455
      ],
      [
        "Ġman",
        -9.317280860428454
      ],
      [
        "Ġnotice",
        -9.317525373234108
      ],
      [
        "Ġprotection",
        -9.321612420815478
      ],
      [
        "Ġinsect",
        -9.32205933646441
      ],
      [
        "ĠMy",
        -9.323238163457065
      ],
      [
        "Ġdirection",
        -9.323442156697734
      ],
      [
        "Ġextra",
        -9.323687299524208
      ],
      [
        "li",
        -9.323838829118914
      ],
      [
        "Ġelse",
        -9.324805077382797
      ],
      [
        "Ġalternative",
        -9.3256788449783
      ],
      [
        "Ġgoal",
        -9.326202506518106
      ],
      [
        "Ġtransport",
        -9.327884761570258
      ],
      [
        "Ġmodels",
        -9.328557873092093
      ],
      [
        "Ġtrue",
        -9.32998892655584
      ],
      [
        "Ġdemand",
        -9.33250930280066
      ],
      [
        "Ġterms",
        -9.333375449880627
      ],
      [
        "Ġfeature",
        -9.335895733421644
      ],
      [
        "Ġmonth",
        -9.336427524958278
      ],
      [
        "Ġattack",
        -9.336605844668265
      ],
      [
        "Ġroot",
        -9.336791629288786
      ],
      [
        "Ġfront",
        -9.337371900613338
      ],
      [
        "Ġliquid",
        -9.337439899849782
      ],
      [
        "ĠYes",
        -9.337782532957371
      ],
      [
        "Ġbond",
        -9.337816469918865
      ],
      [
        "Ġsummer",
        -9.33814936377384
      ],
      [
        "Ġearth",
        -9.340447234649286
      ],
      [
        "Ġversion",
        -9.340593800122862
      ],
      [
        "But",
        -9.341026115079137
      ],
      [
        "Ġsunspot",
        -9.34110990223928
      ],
      [
        "Ġcountr",
        -9.341516157691805
      ],
      [
        "Ġelectrical",
        -9.341629678831946
      ],
      [
        ".S",
        -9.343565843622809
      ],
      [
        "ĠâĢľ",
        -9.344972178238766
      ],
      [
        "Ġaim",
        -9.34533974009666
      ],
      [
        "Ġcharacteristic",
        -9.345355597794995
      ],
      [
        "Ġfill",
        -9.34574058326034
      ],
      [
        "Ġhold",
        -9.348276882312945
      ],
      [
        "Ġcolors",
        -9.34839353011126
      ],
      [
        "where",
        -9.350056321890674
      ],
      [
        "Ġvisual",
        -9.350782723463867
      ],
      [
        "Ġhabitat",
        -9.35123532430002
      ],
      [
        "Ġdraw",
        -9.352047980020146
      ],
      [
        "Ġ+",
        -9.352086205505731
      ],
      [
        "ĠUse",
        -9.352505342138288
      ],
      [
        "Ġbone",
        -9.352916150888952
      ],
      [
        "of",
        -9.353061490327343
      ],
      [
        "Ġcamera",
        -9.353140111688411
      ],
      [
        "Ġprocesses",
        -9.353969915117965
      ],
      [
        "ar",
        -9.3549833689763
      ],
      [
        "Ġsix",
        -9.354984431061238
      ],
      [
        "Ġappropriate",
        -9.35584569395871
      ],
      [
        "Ġbaby",
        -9.357455200376396
      ],
      [
        "ĠWater",
        -9.357610882568649
      ],
      [
        "Ġrunning",
        -9.358101255701987
      ],
      [
        "Ġenhance",
        -9.358626621927638
      ],
      [
        "Ġuseful",
        -9.359871786087604
      ],
      [
        "Ġfoods",
        -9.360486172830855
      ],
      [
        "Ġblue",
        -9.362265445122592
      ],
      [
        "Ġfeeling",
        -9.362291637453822
      ],
      [
        "ĠMost",
        -9.364940356723023
      ],
      [
        "Ġtrack",
        -9.365842690780436
      ],
      [
        "Ġbrand",
        -9.368202855463128
      ],
      [
        "Ġdeath",
        -9.36861308150032
      ],
      [
        "Ġfine",
        -9.36938943834556
      ],
      [
        "Ġimportance",
        -9.372593762852487
      ],
      [
        "Ġseries",
        -9.373494376599904
      ],
      [
        "=",
        -9.377589112904037
      ],
      [
        "Ġprice",
        -9.37799560873201
      ],
      [
        "Ġmedia",
        -9.378044464667642
      ],
      [
        "Another",
        -9.380905058540964
      ],
      [
        "Ġinput",
        -9.384014957409534
      ],
      [
        "Ġstick",
        -9.384657069907265
      ],
      [
        "up",
        -9.38605732146042
      ],
      [
        "Ġingredient",
        -9.386906662227709
      ],
      [
        "Ġapplie",
        -9.387000534451053
      ],
      [
        "Ġrecommended",
        -9.38732482712473
      ],
      [
        "Ġrise",
        -9.387789181011597
      ],
      [
        "Ġtowards",
        -9.38794427196412
      ],
      [
        "companie",
        -9.388763208274344
      ],
      [
        "Ġnoise",
        -9.38878344834231
      ],
      [
        "ĠOf",
        -9.38894959332416
      ],
      [
        "more",
        -9.388975548825792
      ],
      [
        "ization",
        -9.389409429883363
      ],
      [
        "Ġrepair",
        -9.390816686368677
      ],
      [
        "ĠResearch",
        -9.390922632558487
      ],
      [
        "Ġrequirement",
        -9.391291684954917
      ],
      [
        "Ġrelationship",
        -9.392700680226076
      ],
      [
        "Ġeasier",
        -9.393592363633092
      ],
      [
        "Ġharm",
        -9.39417717780299
      ],
      [
        "Ġoutput",
        -9.394503705139035
      ],
      [
        "Ġmeet",
        -9.396009170400143
      ],
      [
        "Ġwriting",
        -9.396469580395609
      ],
      [
        "Ġmen",
        -9.396654739821678
      ],
      [
        "Ġmolecules",
        -9.396845352374426
      ],
      [
        "Ġboard",
        -9.397118038413858
      ],
      [
        "Ġefficienc",
        -9.397553389460658
      ],
      [
        "Ġtopic",
        -9.397847006916432
      ],
      [
        "ul",
        -9.398960017434495
      ],
      [
        "Ġideal",
        -9.398982507984652
      ],
      [
        "gan",
        -9.39949025757846
      ],
      [
        "Ġpotato",
        -9.401094327517011
      ],
      [
        "Ġevolution",
        -9.401838747046316
      ],
      [
        "ĠUS",
        -9.40351606410843
      ],
      [
        "Ġinjur",
        -9.404684481771689
      ],
      [
        "Ġgenerate",
        -9.406994221334466
      ],
      [
        "Ġinstruction",
        -9.407940663799184
      ],
      [
        "Ġeveryone",
        -9.407991250039675
      ],
      [
        "Ġfly",
        -9.408937678035253
      ],
      [
        "Ġclaim",
        -9.409913199972802
      ],
      [
        "Ġsteps",
        -9.410426980228335
      ],
      [
        "am",
        -9.41065439595888
      ],
      [
        "ware",
        -9.412626195504004
      ],
      [
        "Ġcame",
        -9.414348527659282
      ],
      [
        "Ġcombination",
        -9.416117188100442
      ],
      [
        "Ġextend",
        -9.416504044026532
      ],
      [
        "ĠWorld",
        -9.421772449647218
      ],
      [
        "Ġproteins",
        -9.425488145663095
      ],
      [
        "-to",
        -9.425885583793864
      ],
      [
        "Ġcentury",
        -9.426237763707444
      ],
      [
        "Ġco",
        -9.430066543808572
      ],
      [
        "ĠW",
        -9.430734248438124
      ],
      [
        "Ġenable",
        -9.431707719063532
      ],
      [
        "Ġflight",
        -9.431717445237664
      ],
      [
        "Ġfluid",
        -9.431843368161658
      ],
      [
        "came",
        -9.43200700285384
      ],
      [
        "Ġlives",
        -9.43298792185421
      ],
      [
        "Ġmaximu",
        -9.43325637423323
      ],
      [
        "Ġspend",
        -9.4343637419426
      ],
      [
        "Ġsensor",
        -9.435690172915349
      ],
      [
        "Ġanti",
        -9.435763396635354
      ],
      [
        "âĢĿ",
        -9.436661152511958
      ],
      [
        "Can",
        -9.437191798773505
      ],
      [
        "Ġresponsibl",
        -9.43743998195308
      ],
      [
        "ish",
        -9.43866316652915
      ],
      [
        "Ġmechanism",
        -9.439453605734183
      ],
      [
        "Ġtable",
        -9.44077135660391
      ],
      [
        "Ġburn",
        -9.441242765637751
      ],
      [
        "Ġcount",
        -9.443609856406365
      ],
      [
        "Ġdeal",
        -9.443653506019505
      ],
      [
        "Ġdefine",
        -9.443953981699192
      ],
      [
        "Ġhope",
        -9.44459135828274
      ],
      [
        "Ġmoment",
        -9.448085365877825
      ],
      [
        "Ġbag",
        -9.448396831962969
      ],
      [
        "Ġpanel",
        -9.4496007368609
      ],
      [
        "Ġkill",
        -9.450044174090705
      ],
      [
        "-up",
        -9.45053151893104
      ],
      [
        "Ġfile",
        -9.450633262600505
      ],
      [
        "Ġdecrease",
        -9.451695961745813
      ],
      [
        "Ġhandle",
        -9.455158612602348
      ],
      [
        "By",
        -9.45561182537724
      ],
      [
        "Ġpump",
        -9.457011134587194
      ],
      [
        "water",
        -9.45729001764732
      ],
      [
        "Ġsuccess",
        -9.457735396333176
      ],
      [
        "Ġball",
        -9.457737228299498
      ],
      [
        "ĠBlack",
        -9.458997910814428
      ],
      [
        "Ġcarry",
        -9.459111412694671
      ],
      [
        "Ġexpand",
        -9.45917884529203
      ],
      [
        "spite",
        -9.459370857655356
      ],
      [
        "Ġ{",
        -9.459389602332935
      ],
      [
        "Ġcloth",
        -9.459472522200237
      ],
      [
        "Ġdetect",
        -9.460175796818971
      ],
      [
        "Ġelectronic",
        -9.460378172093098
      ],
      [
        "over",
        -9.460427908438346
      ],
      [
        "Ġpromote",
        -9.461614990634216
      ],
      [
        "inches",
        -9.462270763756266
      ],
      [
        "Ġscreen",
        -9.462548656319846
      ],
      [
        "ĠMore",
        -9.463501147986776
      ],
      [
        "ier",
        -9.464504482532842
      ],
      [
        "Ġtask",
        -9.464559177331818
      ],
      [
        "Ġteeth",
        -9.465186466912218
      ],
      [
        "Ġprett",
        -9.465384922274566
      ],
      [
        "Ġvoltage",
        -9.466018579262265
      ],
      [
        "Ġpoor",
        -9.466027518515302
      ],
      [
        ".com",
        -9.466119339047523
      ],
      [
        "Ġgenes",
        -9.466384481401564
      ],
      [
        "Ġmaintenance",
        -9.468719040209386
      ],
      [
        "Ġtaste",
        -9.469899071217734
      ],
      [
        "Ġwear",
        -9.471313439308474
      ],
      [
        "Ġprojects",
        -9.471749005501248
      ],
      [
        "ĠFrom",
        -9.472197744715931
      ],
      [
        "ĠMany",
        -9.473151342791446
      ],
      [
        "Ġsort",
        -9.474152278371651
      ],
      [
        "Ġserious",
        -9.47450292774402
      ],
      [
        "Ġwait",
        -9.47561800852052
      ],
      [
        "Ġpound",
        -9.476710612786336
      ],
      [
        "Ġrefer",
        -9.476798540723204
      ],
      [
        "Ġobtain",
        -9.47697754076128
      ],
      [
        "Ġencourage",
        -9.478280431000831
      ],
      [
        "Ġimmediate",
        -9.478557615318412
      ],
      [
        "Ġsoftware",
        -9.478867545949178
      ],
      [
        "Ġslight",
        -9.478926321785885
      ],
      [
        "With",
        -9.479973925501294
      ],
      [
        "Ġwatch",
        -9.480942905999957
      ],
      [
        "ĠAdditional",
        -9.481015418356812
      ],
      [
        "Ġcrop",
        -9.485119327967038
      ],
      [
        "Ġremember",
        -9.485929479839251
      ],
      [
        "Ġcouple",
        -9.489854108871576
      ],
      [
        "Ġbottom",
        -9.490149039609577
      ],
      [
        "Ġphone",
        -9.492015788598504
      ],
      [
        "Ġfeed",
        -9.49350520927721
      ],
      [
        "Ġvia",
        -9.494098307716431
      ],
      [
        "Ġseek",
        -9.49571017766682
      ],
      [
        "Ġinstance",
        -9.499415672302348
      ],
      [
        "Ġtank",
        -9.499441219914209
      ],
      [
        "Ġfrequent",
        -9.49947790620508
      ],
      [
        "Ġdiscover",
        -9.50101176601038
      ],
      [
        "Some",
        -9.503165631025796
      ],
      [
        "Ġrich",
        -9.504351820477074
      ],
      [
        "-term",
        -9.504519148069749
      ],
      [
        "Ġvision",
        -9.505285971779491
      ],
      [
        "Ġdidn",
        -9.505302465069349
      ],
      [
        "ate",
        -9.506597817437068
      ],
      [
        "Ġexpected",
        -9.507053540784025
      ],
      [
        "mm",
        -9.507942257120892
      ],
      [
        "Ġmembers",
        -9.509914072851466
      ],
      [
        "Ġlocate",
        -9.509957814464691
      ],
      [
        "Ġfigure",
        -9.512146459432977
      ],
      [
        "Ġeconomic",
        -9.512410459506595
      ],
      [
        "Ġready",
        -9.513253632891216
      ],
      [
        "Ġpull",
        -9.513434552106553
      ],
      [
        "ĠWhy",
        -9.51425045975945
      ],
      [
        "ĠAre",
        -9.515723137424482
      ],
      [
        "Ġconstruction",
        -9.516059727607544
      ],
      [
        "Ġdoctor",
        -9.517428098554472
      ],
      [
        "Ġenter",
        -9.517549782556909
      ],
      [
        "Ġfight",
        -9.519329974148508
      ],
      [
        "Ġparticles",
        -9.519625874235228
      ],
      [
        "On",
        -9.519990814252903
      ],
      [
        "Ġaccept",
        -9.520219351312251
      ],
      [
        "Ġimages",
        -9.521502757963033
      ],
      [
        "Ġhair",
        -9.521644584387502
      ],
      [
        "Ġaccurate",
        -9.522246503670388
      ],
      [
        "ĠCenter",
        -9.524794533856216
      ],
      [
        "Ġscale",
        -9.526186753164168
      ],
      [
        "Ġmanage",
        -9.52650708442713
      ],
      [
        "Ġpick",
        -9.526614533660467
      ],
      [
        "Ġideas",
        -9.52693054514501
      ],
      [
        "Ġreplace",
        -9.52724567536787
      ],
      [
        "Ġsoft",
        -9.527662665426064
      ],
      [
        "Ġnothing",
        -9.530792486289547
      ],
      [
        "Ġheavy",
        -9.53097996500465
      ],
      [
        "Ġadapt",
        -9.532949281678937
      ],
      [
        "Ġswitch",
        -9.534243989853504
      ],
      [
        "Ġsustainabl",
        -9.534685187437116
      ],
      [
        "Ġmagnetic",
        -9.535119979606456
      ],
      [
        "Ġelement",
        -9.535679922108317
      ],
      [
        "Ġbox",
        -9.536290861096
      ],
      [
        "Ġcapacity",
        -9.537375430062376
      ],
      [
        "ĠNot",
        -9.538132097073753
      ],
      [
        "ĠAir",
        -9.538904377773354
      ],
      [
        "Ġrecover",
        -9.54114344852221
      ],
      [
        "An",
        -9.5434220924489
      ],
      [
        "Ġresistance",
        -9.543916632895083
      ],
      [
        "Y",
        -9.544345013416642
      ],
      [
        "Ġdiseases",
        -9.544546725862528
      ],
      [
        "Ġroad",
        -9.545377792613523
      ],
      [
        "ĠInstitute",
        -9.545916305097167
      ],
      [
        "Ġdie",
        -9.546432444139436
      ],
      [
        "Ġsoon",
        -9.54737675237423
      ],
      [
        "Ġcommonly",
        -9.547577811300512
      ],
      [
        "Ġrare",
        -9.547886188792395
      ],
      [
        "Ġpicture",
        -9.548689665116356
      ],
      [
        "cy",
        -9.548890282516748
      ],
      [
        "Ġplanet",
        -9.549200090139951
      ],
      [
        "Ġload",
        -9.549516272687642
      ],
      [
        "Ġtouch",
        -9.550192209801072
      ],
      [
        "Ġdisorder",
        -9.55026030084121
      ],
      [
        "Ġbeautiful",
        -9.550604224056464
      ],
      [
        "Ġchallenges",
        -9.552407202786704
      ],
      [
        "Ġimplement",
        -9.552419874042606
      ],
      [
        "Ġpest",
        -9.552763307185234
      ],
      [
        "Ġcircuit",
        -9.55307267973264
      ],
      [
        "Ġrice",
        -9.553257750585228
      ],
      [
        "Ġgrade",
        -9.553610556137198
      ],
      [
        "tion",
        -9.554261364062704
      ],
      [
        "Ġconsist",
        -9.554637904817024
      ],
      [
        "Ġwonder",
        -9.557003631125207
      ],
      [
        "Ġmemory",
        -9.55873663406365
      ],
      [
        "ĠUE",
        -9.558950545465589
      ],
      [
        "Ġsmooth",
        -9.561510387481126
      ],
      [
        "Ġconcept",
        -9.561526895723356
      ],
      [
        "ial",
        -9.562003671684874
      ],
      [
        "ĠUnite",
        -9.562716748053273
      ],
      [
        "ĠWho",
        -9.564404438910932
      ],
      [
        "Ġpot",
        -9.56449261070243
      ],
      [
        "Ġ--",
        -9.564775379718093
      ],
      [
        "Ġwild",
        -9.565331142273443
      ],
      [
        "Ġround",
        -9.565719766610435
      ],
      [
        "Ġreflect",
        -9.566665031415134
      ],
      [
        "Ġhost",
        -9.566907815664688
      ],
      [
        "ĠâĢ¦",
        -9.5679308531401
      ],
      [
        "Ġthousand",
        -9.569653326781625
      ],
      [
        "Ġrapid",
        -9.570133107760087
      ],
      [
        "These",
        -9.570669769133325
      ],
      [
        "Ġsetting",
        -9.572628775241387
      ],
      [
        "Ġreducing",
        -9.57309672390625
      ],
      [
        "Ġplann",
        -9.57321971913407
      ],
      [
        "Ġraise",
        -9.57346643700672
      ],
      [
        "Ġwire",
        -9.57478166531146
      ],
      [
        "Ġappearance",
        -9.57531041429388
      ],
      [
        "Ġmap",
        -9.575918014993022
      ],
      [
        "head",
        -9.577471852363324
      ],
      [
        "Ġstem",
        -9.57760352968971
      ],
      [
        "Ġcosts",
        -9.579002918137393
      ],
      [
        "Ġcleaning",
        -9.58033674672427
      ],
      [
        "Ġdiscovered",
        -9.581987354568463
      ],
      [
        "ĠDe",
        -9.583147908239688
      ],
      [
        "ĠOur",
        -9.58317486306584
      ],
      [
        "Ġbird",
        -9.58491855537988
      ],
      [
        "Ġwrite",
        -9.585117913343266
      ],
      [
        "><",
        -9.586958803728445
      ],
      [
        "Ġfriends",
        -9.587293664708357
      ],
      [
        "ant",
        -9.58858720763048
      ],
      [
        "Ġmeaning",
        -9.58927805095204
      ],
      [
        "ence",
        -9.589296523237657
      ],
      [
        "Ġlaw",
        -9.589847623643957
      ],
      [
        "Ġled",
        -9.59052652623487
      ],
      [
        "Ġdesire",
        -9.59123312974043
      ],
      [
        "Ġdrop",
        -9.591854715669909
      ],
      [
        "Ġattempt",
        -9.591931886932162
      ],
      [
        "Ġcommercial",
        -9.59229791759218
      ],
      [
        "X",
        -9.593046268611108
      ],
      [
        "Ġtherefor",
        -9.593264907318073
      ],
      [
        "Ġaircraft",
        -9.59338375052324
      ],
      [
        "Now",
        -9.594170244322829
      ],
      [
        "Ġreview",
        -9.594950886252375
      ],
      [
        "$",
        -9.595534906760564
      ],
      [
        "W",
        -9.59744729460648
      ],
      [
        "Ġbirth",
        -9.59782241813361
      ],
      [
        "Ġmoistur",
        -9.59788318732614
      ],
      [
        "Ġcombine",
        -9.59992509263244
      ],
      [
        "Ġcolour",
        -9.60058175572194
      ],
      [
        "Ġedge",
        -9.601105161361708
      ],
      [
        "ĠGod",
        -9.602164379386371
      ],
      [
        "Ġrobot",
        -9.602301450061772
      ],
      [
        "Ġdocument",
        -9.602776344263656
      ],
      [
        "Ġmusic",
        -9.603092066129642
      ],
      [
        "Ġdoor",
        -9.605757419501362
      ],
      [
        "Ġgoe",
        -9.606480842347448
      ],
      [
        "Ġdriver",
        -9.60687295343664
      ],
      [
        "Ġexperiment",
        -9.608116738425156
      ],
      [
        "Ġcollect",
        -9.608583542319504
      ],
      [
        "Ġreported",
        -9.60880319703916
      ],
      [
        "Ġsquare",
        -9.611041751440734
      ],
      [
        "ĠEuropean",
        -9.611113791151414
      ],
      [
        "Ġbear",
        -9.613768920812516
      ],
      [
        "Ġmulti",
        -9.615154698510697
      ],
      [
        "Ġgiving",
        -9.615729729090251
      ],
      [
        "Ġmouth",
        -9.615839163916837
      ],
      [
        "Ġtransition",
        -9.617585854029812
      ],
      [
        "Ġpowerful",
        -9.61832986015726
      ],
      [
        "ĠYork",
        -9.618457896821443
      ],
      [
        "line",
        -9.618823540624703
      ],
      [
        "Ġuses",
        -9.619646308360018
      ],
      [
        "Ġcollection",
        -9.622949752786155
      ],
      [
        "Ġmessage",
        -9.623189129938895
      ],
      [
        "Ġanyone",
        -9.623826391878438
      ],
      [
        "Ġmedium",
        -9.62440961426644
      ],
      [
        "care",
        -9.625879860562229
      ],
      [
        "Ġteaching",
        -9.626602922247836
      ],
      [
        "day",
        -9.626650987051573
      ],
      [
        "Ġcoming",
        -9.627232180244151
      ],
      [
        "Ġframe",
        -9.628327163625606
      ],
      [
        "Ġobserved",
        -9.630096865546005
      ],
      [
        "Ġthird",
        -9.630781155638616
      ],
      [
        "Ġmotion",
        -9.631114892593516
      ],
      [
        "Ġsuitabl",
        -9.631536333382218
      ],
      [
        "Ġcompound",
        -9.632805781712252
      ],
      [
        "Ġexposure",
        -9.633726037902711
      ],
      [
        "Ġadjust",
        -9.635278727402907
      ],
      [
        "Ġconcentration",
        -9.635838131463895
      ],
      [
        "Ġthus",
        -9.636242139870014
      ],
      [
        "ĠNow",
        -9.636886789696852
      ],
      [
        "Ġfrequency",
        -9.63729316068176
      ],
      [
        "j",
        -9.637594219609287
      ],
      [
        "Ġsevere",
        -9.638011167806404
      ],
      [
        "ship",
        -9.638561405188376
      ],
      [
        "Ġgives",
        -9.638779107495331
      ],
      [
        "co",
        -9.639974660078888
      ],
      [
        "ĠEnglish",
        -9.640140108656157
      ],
      [
        "ĠUnit",
        -9.640272610430996
      ],
      [
        "ĠEven",
        -9.640948756902992
      ],
      [
        "Ġplatform",
        -9.641240964882734
      ],
      [
        "ĠLearn",
        -9.64213942069787
      ],
      [
        "Ġheight",
        -9.64227225464403
      ],
      [
        "Ġprocessing",
        -9.642472411967924
      ],
      [
        "Ġhands",
        -9.642710928401776
      ],
      [
        "ĠOther",
        -9.642885530443346
      ],
      [
        "Ġvolume",
        -9.643204974663997
      ],
      [
        "And",
        -9.643265552205255
      ],
      [
        "Ġelectron",
        -9.643265979677624
      ],
      [
        "Ġstock",
        -9.64337932500429
      ],
      [
        "Ġconnected",
        -9.646160595487949
      ],
      [
        "Ġbright",
        -9.64617891052377
      ],
      [
        "Ġexcellent",
        -9.646413023091997
      ],
      [
        "Ġfoot",
        -9.647209785237504
      ],
      [
        "Ġpractices",
        -9.647978687025224
      ],
      [
        "middle",
        -9.648674992278153
      ],
      [
        "ĠEach",
        -9.649696806795449
      ],
      [
        "Ġleg",
        -9.649744406301206
      ],
      [
        "Ġegg",
        -9.650223769289196
      ],
      [
        "Ġpath",
        -9.652237056515377
      ],
      [
        "Ġstuff",
        -9.65229655372448
      ],
      [
        "tic",
        -9.652427866804446
      ],
      [
        "Ġtrain",
        -9.653311583428955
      ],
      [
        "Ġreveal",
        -9.65388919898014
      ],
      [
        "Ġmedication",
        -9.653921723388546
      ],
      [
        "Ġshift",
        -9.6553871291438
      ],
      [
        "Ġinteresting",
        -9.655642906919464
      ],
      [
        "ĠGerman",
        -9.65605969221044
      ],
      [
        "Ġmeasurement",
        -9.657452996627493
      ],
      [
        "Ġoxygen",
        -9.658370815679906
      ],
      [
        "Ġchang",
        -9.661147876872716
      ],
      [
        "Ġtherap",
        -9.66156586833645
      ],
      [
        "Ġworth",
        -9.662146653206864
      ],
      [
        "efore",
        -9.662296108332209
      ],
      [
        "Ġmiles",
        -9.66302902406249
      ],
      [
        "Ġphoto",
        -9.663076648622814
      ],
      [
        "Ġmatch",
        -9.663954603019985
      ],
      [
        "Ġbrown",
        -9.66488875279859
      ],
      [
        "Do",
        -9.665657993593076
      ],
      [
        "U",
        -9.666403850215476
      ],
      [
        "ĠThei",
        -9.66882888256955
      ],
      [
        "Ġbodie",
        -9.669119920656414
      ],
      [
        "Ġabsorb",
        -9.669390892269051
      ],
      [
        "Ġfabric",
        -9.67046293978995
      ],
      [
        "ĠState",
        -9.67056470983886
      ],
      [
        "Ġsolid",
        -9.671193530648525
      ],
      [
        "Ġconvert",
        -9.671224978545368
      ],
      [
        "ĠAfrica",
        -9.671294692493696
      ],
      [
        "Ġnutrients",
        -9.671498568647731
      ],
      [
        "q",
        -9.672042248117032
      ],
      [
        "ĠIndia",
        -9.672314970944887
      ],
      [
        "Ġwrong",
        -9.672725508473
      ],
      [
        "Ġpair",
        -9.673876309788454
      ],
      [
        "âĢ¢",
        -9.67822588535029
      ],
      [
        "Ġexpression",
        -9.67828823514308
      ],
      [
        "Ġsustain",
        -9.678380975579165
      ],
      [
        "Ġreference",
        -9.680248001829044
      ],
      [
        "Ġfamili",
        -9.68045945649525
      ],
      [
        "Ġpark",
        -9.680872021660496
      ],
      [
        "ĠEurope",
        -9.68133932091656
      ],
      [
        "Ġbackground",
        -9.683769625491545
      ],
      [
        "Ġdistribution",
        -9.684855015008695
      ],
      [
        "Ġspeaker",
        -9.685709794166064
      ],
      [
        "Ġthreat",
        -9.686255906221476
      ],
      [
        "Ġdiabet",
        -9.68672924240287
      ],
      [
        "Ġteachers",
        -9.688075161441244
      ],
      [
        "ĠMay",
        -9.688568138001331
      ],
      [
        "Ġfossil",
        -9.688827473609088
      ],
      [
        "Ġemission",
        -9.689120702967614
      ],
      [
        "Ġminimum",
        -9.68951875499956
      ],
      [
        "Ġlab",
        -9.689528549486472
      ],
      [
        "Ġplease",
        -9.690165097126798
      ],
      [
        "Ġwheel",
        -9.69045081076547
      ],
      [
        "ĠAls",
        -9.690999406173605
      ],
      [
        "Ġwent",
        -9.691774149886555
      ],
      [
        "Ġpresence",
        -9.69189045083386
      ],
      [
        "Al",
        -9.692514013195932
      ],
      [
        "ur",
        -9.692816534474009
      ],
      [
        "Ġstone",
        -9.6938897822961
      ],
      [
        "Ġsociety",
        -9.69463363021424
      ],
      [
        "Ġensur",
        -9.69537884655901
      ],
      [
        "Ġhit",
        -9.696108944053222
      ],
      [
        "Ġforward",
        -9.697728751736957
      ],
      [
        "ĠMarch",
        -9.698205023073452
      ],
      [
        "Ġaren",
        -9.698677145068194
      ],
      [
        "Ġaffected",
        -9.699041698692572
      ],
      [
        "Ġjoint",
        -9.699427100762534
      ],
      [
        "Ġfiber",
        -9.699544510784442
      ],
      [
        "Step",
        -9.699824708393836
      ],
      [
        "Ġonto",
        -9.7005789498255
      ],
      [
        "Ġvariation",
        -9.700890071866514
      ],
      [
        "Ġwar",
        -9.701888941248225
      ],
      [
        "Ġcommunit",
        -9.701957776360937
      ],
      [
        "Ġlargest",
        -9.702546943015124
      ],
      [
        "Ġjourney",
        -9.703009789958656
      ],
      [
        "ĠAccording",
        -9.706965782990528
      ],
      [
        "ĠRe",
        -9.708296497689917
      ],
      [
        "Ġsecurit",
        -9.708859582015355
      ],
      [
        "Ġstates",
        -9.709179480158742
      ],
      [
        "Ġconsistent",
        -9.712257763643638
      ],
      [
        "Ġjoin",
        -9.71279618765334
      ],
      [
        "Ġsample",
        -9.713044433498316
      ],
      [
        "Ġtasks",
        -9.713556445559476
      ],
      [
        "Ġrecommend",
        -9.713633292830387
      ],
      [
        "Ġmarine",
        -9.71492567408098
      ],
      [
        "Ġsequence",
        -9.716925392388106
      ],
      [
        "Ġfarm",
        -9.717046579036468
      ],
      [
        "Ġerror",
        -9.717502326784253
      ],
      [
        "Ġselection",
        -9.717905200463614
      ],
      [
        "lost",
        -9.71838067307412
      ],
      [
        "yond",
        -9.719923293442893
      ],
      [
        "Ġdrug",
        -9.720091147228494
      ],
      [
        "Ġphase",
        -9.720098827744025
      ],
      [
        "if",
        -9.72027092224591
      ],
      [
        "Ġsub",
        -9.72046407155017
      ],
      [
        "Ġcutting",
        -9.720670343283162
      ],
      [
        "Ġmiss",
        -9.721096217352184
      ],
      [
        "time",
        -9.721916956932354
      ],
      [
        "Ġemploy",
        -9.722481968450031
      ],
      [
        "Ġdrawing",
        -9.723350502904426
      ],
      [
        "Ġexpensive",
        -9.7235759326614
      ],
      [
        "Ġexpect",
        -9.724555511988369
      ],
      [
        "Ġfund",
        -9.72508505355857
      ],
      [
        "Ġbasi",
        -9.725384160866792
      ],
      [
        "ĠNOT",
        -9.725459549265748
      ],
      [
        "Ġcomfort",
        -9.726747632674234
      ],
      [
        "Ġmilk",
        -9.726782976505069
      ],
      [
        "Ġrule",
        -9.7270335993837
      ],
      [
        "Ġcup",
        -9.72745353025798
      ],
      [
        "be",
        -9.728186721571348
      ],
      [
        "Ġsend",
        -9.729802681086207
      ],
      [
        "Ġyellow",
        -9.730044861099952
      ],
      [
        "Ġflavor",
        -9.730755768030328
      ],
      [
        "Ġextract",
        -9.731844051566476
      ],
      [
        "Ġcontext",
        -9.734254506856791
      ],
      [
        "Ġecosystem",
        -9.73428790597147
      ],
      [
        "Ġdivers",
        -9.736993976846446
      ],
      [
        "Ġdecade",
        -9.737248641333585
      ],
      [
        "Ġhuge",
        -9.73757618234382
      ],
      [
        "Ġdetails",
        -9.739649685808995
      ],
      [
        "Ġconsumer",
        -9.742866839756877
      ],
      [
        "Ġmanufactur",
        -9.74296899613461
      ],
      [
        "Ġpractical",
        -9.744752795013389
      ],
      [
        "Ġroots",
        -9.745501057477693
      ],
      [
        "ĠMake",
        -9.745804077068906
      ],
      [
        "Ġvital",
        -9.745928705383182
      ],
      [
        "Ġpilot",
        -9.74728494963419
      ],
      [
        "Ġmedicine",
        -9.747738329862798
      ],
      [
        "aught",
        -9.750322728835512
      ],
      [
        "Be",
        -9.750680063604571
      ],
      [
        "Ġmother",
        -9.750746095644004
      ],
      [
        "no",
        -9.75136672702326
      ],
      [
        "Ġfavorite",
        -9.751733915039956
      ],
      [
        "Ġrequest",
        -9.752079142210944
      ],
      [
        "ĠOr",
        -9.752183089167
      ],
      [
        "ĠLet",
        -9.752219506909494
      ],
      [
        "Ġlesson",
        -9.752523562941429
      ],
      [
        "Ġregulation",
        -9.754169850380933
      ],
      [
        "Ġpush",
        -9.75438229663727
      ],
      [
        "Ġangle",
        -9.7543972614837
      ],
      [
        "ĠSea",
        -9.755067424724228
      ],
      [
        "Ġrecognize",
        -9.75643832263236
      ],
      [
        "Ġrecipe",
        -9.757621043200787
      ],
      [
        "Ġdead",
        -9.75797524791516
      ],
      [
        "Ġfunctions",
        -9.759187997975772
      ],
      [
        "Therefore",
        -9.760769948431632
      ],
      [
        "Ġremains",
        -9.76117248925755
      ],
      [
        "Ġgold",
        -9.762747366586948
      ],
      [
        "like",
        -9.764777493808054
      ],
      [
        "Ġsurrounding",
        -9.76597612602921
      ],
      [
        "Ġchallenge",
        -9.768191269951712
      ],
      [
        "Ġnative",
        -9.769521274267492
      ],
      [
        "Ġtexture",
        -9.770107115543633
      ],
      [
        "Ġlabel",
        -9.770568055941796
      ],
      [
        "Ġtechnologies",
        -9.773245785946518
      ],
      [
        "Ġapp",
        -9.773295774418866
      ],
      [
        "Ġcontroll",
        -9.773314033862082
      ],
      [
        "Ġconsumpti",
        -9.773471998923991
      ],
      [
        "Ġinsight",
        -9.773979979992625
      ],
      [
        "Ġmid",
        -9.77459324577443
      ],
      [
        "Ġsaw",
        -9.774838800275203
      ],
      [
        "Ġdepth",
        -9.775099046704618
      ],
      [
        "Ġtiny",
        -9.775512512055602
      ],
      [
        "Ġhapp",
        -9.77557446176639
      ],
      [
        "Ġsuit",
        -9.77646529505169
      ],
      [
        "Ġstructures",
        -9.779633003175636
      ],
      [
        "Ġnational",
        -9.779678241505056
      ],
      [
        "side",
        -9.779940111800164
      ],
      [
        "Ġdynamic",
        -9.78008120672471
      ],
      [
        "ĠOver",
        -9.781159805812994
      ],
      [
        "Ġactual",
        -9.781992748571756
      ],
      [
        "Ġteacher",
        -9.782334966797812
      ],
      [
        "Ġphotograph",
        -9.782341960408637
      ],
      [
        "for",
        -9.782938765576665
      ],
      [
        "ĠFirst",
        -9.783180982625884
      ],
      [
        "Ġcovered",
        -9.784446603008895
      ],
      [
        "Ġletter",
        -9.784724141489566
      ],
      [
        "Ġmanufacturer",
        -9.788281817565805
      ],
      [
        "Ġchannel",
        -9.78844599964562
      ],
      [
        "Ġcommand",
        -9.788591015675696
      ],
      [
        "Ġcard",
        -9.790628919786585
      ],
      [
        "Ġtrigger",
        -9.79133523278472
      ],
      [
        "ĠpH",
        -9.791631692370302
      ],
      [
        "Ġdensit",
        -9.79186490326531
      ],
      [
        "Ġapproximate",
        -9.792330811161763
      ],
      [
        "Ġdust",
        -9.793229403297657
      ],
      [
        "ĠService",
        -9.794717057433951
      ],
      [
        "ĠJust",
        -9.794754308196998
      ],
      [
        "Ġarray",
        -9.795329236410405
      ],
      [
        "Ġlose",
        -9.798265323512355
      ],
      [
        "Ġcore",
        -9.79950639421997
      ],
      [
        "Ġcompar",
        -9.799582264794992
      ],
      [
        "Ġrules",
        -9.799797175902754
      ],
      [
        "Ġsession",
        -9.799870128518346
      ],
      [
        "April",
        -9.80006049235604
      ],
      [
        "Ġstring",
        -9.800104596516032
      ],
      [
        "Ġgrown",
        -9.800324073244834
      ],
      [
        "cid",
        -9.800888644292796
      ],
      [
        "ized",
        -9.80105600236664
      ],
      [
        "Ġshoes",
        -9.802149026819231
      ],
      [
        "Ġeventual",
        -9.80301493159379
      ],
      [
        "ĠEducation",
        -9.803209744554358
      ],
      [
        "Ġbiological",
        -9.803994781315229
      ],
      [
        "Ġartist",
        -9.805000167166606
      ],
      [
        "Ġatmosphere",
        -9.805049558023352
      ],
      [
        "Ġintroduce",
        -9.805899104317689
      ],
      [
        "Ġfinish",
        -9.806265836491766
      ],
      [
        "Ġreferr",
        -9.806742773215824
      ],
      [
        "},",
        -9.80734452826578
      ],
      [
        "ĠWar",
        -9.807462157057678
      ],
      [
        "Ġparameter",
        -9.807553636229722
      ],
      [
        "Ġcentral",
        -9.80769734033172
      ],
      [
        "ĠOnc",
        -9.808032811096009
      ],
      [
        "ĠDur",
        -9.808793735678448
      ],
      [
        "Ġsheet",
        -9.81076225353454
      ],
      [
        "Ġ#",
        -9.811096428617564
      ],
      [
        "Ġkeeping",
        -9.81118599412963
      ],
      [
        "Ġcapture",
        -9.812272344546871
      ],
      [
        "Ġgrain",
        -9.81237427629056
      ],
      [
        "ĠGroup",
        -9.812443546753164
      ],
      [
        "Ġsounds",
        -9.812541533604616
      ],
      [
        "Ġalone",
        -9.81295289263227
      ],
      [
        "Ġdriving",
        -9.813117975461743
      ],
      [
        "Ġfilm",
        -9.813600232104305
      ],
      [
        "work",
        -9.816004438076462
      ],
      [
        "Ġvaluable",
        -9.816463386006166
      ],
      [
        "Ġmotor",
        -9.818331332090729
      ],
      [
        "Ġimmune",
        -9.818903894407477
      ],
      [
        "ĠUsing",
        -9.81974751466981
      ],
      [
        "Ġclick",
        -9.820293002346556
      ],
      [
        "Ġskill",
        -9.82053608600696
      ],
      [
        "Ġfashion",
        -9.821667247755464
      ],
      [
        "ĠUK",
        -9.821761502265364
      ],
      [
        "Ġsupplement",
        -9.82197765257324
      ],
      [
        "Ġrates",
        -9.822117715384376
      ],
      [
        "ch",
        -9.82305379929685
      ],
      [
        "held",
        -9.823284943838782
      ],
      [
        "Ġplane",
        -9.82469666782443
      ],
      [
        "They",
        -9.826708933520155
      ],
      [
        "-->",
        -9.831143036824
      ],
      [
        "ĠDec",
        -9.831170961546736
      ],
      [
        "No",
        -9.831574652570136
      ],
      [
        "Ġsites",
        -9.832262869451606
      ],
      [
        "Ġthick",
        -9.834512176774105
      ],
      [
        "Ġbeginning",
        -9.83477816420046
      ],
      [
        "Ġcultural",
        -9.835391001849183
      ],
      [
        "Ġweb",
        -9.835513095164458
      ],
      [
        "Ġpress",
        -9.835727288102005
      ],
      [
        "||",
        -9.837814373635332
      ],
      [
        "ritish",
        -9.8388743758693
      ],
      [
        "Ġclient",
        -9.841291072306277
      ],
      [
        "Ġindependent",
        -9.841877134183536
      ],
      [
        "Ġcreative",
        -9.842129027321525
      ],
      [
        "Ġwrit",
        -9.843455641058943
      ],
      [
        "Ġpollution",
        -9.843992499923472
      ],
      [
        "Ġfinancial",
        -9.84434782610124
      ],
      [
        "wide",
        -9.844389732409134
      ],
      [
        "Ġcross",
        -9.846588973068243
      ],
      [
        "Ġpolicy",
        -9.847068661648567
      ],
      [
        "Ġsweet",
        -9.847783754361789
      ],
      [
        "Ġsurvive",
        -9.85083518595042
      ],
      [
        "ok",
        -9.851359461270416
      ],
      [
        "Ġnest",
        -9.851429883315957
      ],
      [
        "Ġclasse",
        -9.851949155441766
      ],
      [
        "Ġdur",
        -9.852182509794345
      ],
      [
        "Ġbooks",
        -9.852418385021858
      ],
      [
        "Ġpurchase",
        -9.852471749557004
      ],
      [
        "Ġjournal",
        -9.852946733345451
      ],
      [
        "Ġconservation",
        -9.85353867405571
      ],
      [
        "Ġcontrast",
        -9.85389376887923
      ],
      [
        "-like",
        -9.854671240515744
      ],
      [
        "Ġtrip",
        -9.85572656001944
      ],
      [
        "#",
        -9.856643157333432
      ],
      [
        "Ġmining",
        -9.856729082785051
      ],
      [
        "Ġstaff",
        -9.857821662973976
      ],
      [
        "Ġpeak",
        -9.85866984464534
      ],
      [
        "Ġgeneration",
        -9.859083822315554
      ],
      [
        "Ġroutine",
        -9.86019560767543
      ],
      [
        "Ġpipe",
        -9.860271001126414
      ],
      [
        "ĠGreat",
        -9.864581338813537
      ],
      [
        "Ġstraight",
        -9.866467911629098
      ],
      [
        "Ġrespond",
        -9.866478519633858
      ],
      [
        "Ġsamples",
        -9.869509626506062
      ],
      [
        "Ġidentifie",
        -9.869684061061866
      ],
      [
        "un",
        -9.87019380707093
      ],
      [
        "Our",
        -9.871277360053094
      ],
      [
        "Ġfriend",
        -9.871340522592952
      ],
      [
        "ng",
        -9.873518364665715
      ],
      [
        "Ġvitamin",
        -9.873680562087172
      ],
      [
        "Ġhundred",
        -9.87392914358541
      ],
      [
        "Ġfacilit",
        -9.874168589740156
      ],
      [
        "Ġvary",
        -9.874335666808737
      ],
      [
        "dium",
        -9.874756061487757
      ],
      [
        "Ġdemonstrate",
        -9.875452175419278
      ],
      [
        "Ġdouble",
        -9.875509905101216
      ],
      [
        "Ġaspects",
        -9.876118049700422
      ],
      [
        "Ġpack",
        -9.876224777042882
      ],
      [
        "ĠAfrican",
        -9.87744412912044
      ],
      [
        "Ġwash",
        -9.88112723452263
      ],
      [
        "That",
        -9.88146445697154
      ],
      [
        "maybe",
        -9.88181357862794
      ],
      [
        "Ġschedule",
        -9.884869349243534
      ],
      [
        "Ġemergenc",
        -9.8855513054933
      ],
      [
        "Ġexpress",
        -9.886576840543777
      ],
      [
        "Ġremov",
        -9.886759834244312
      ],
      [
        "ĠArt",
        -9.886934737594778
      ],
      [
        "Ġportion",
        -9.887868957307608
      ],
      [
        "Ġtransform",
        -9.888927061191318
      ],
      [
        "ĠNov",
        -9.889998980605352
      ],
      [
        "ĠSince",
        -9.89020266229764
      ],
      [
        "Ġvaccine",
        -9.89023201707543
      ],
      [
        "ĠSt",
        -9.890692140273238
      ],
      [
        "Ġvirtual",
        -9.890846765080358
      ],
      [
        "Ġagree",
        -9.891372041841516
      ],
      [
        "Ġlisten",
        -9.892003670844304
      ],
      [
        "Ġsurger",
        -9.892637481927622
      ],
      [
        "Ġsit",
        -9.89269580364308
      ],
      [
        "comfortable",
        -9.894166845731483
      ],
      [
        "Ġearlier",
        -9.894204618084531
      ],
      [
        "Ġalgorithm",
        -9.894492869613526
      ],
      [
        "Ġdiscussion",
        -9.894588312359808
      ],
      [
        "ĠRochester",
        -9.894907458298912
      ],
      [
        "ĠY",
        -9.89492029217153
      ],
      [
        "ĠJapan",
        -9.895559923727523
      ],
      [
        "Ġvoice",
        -9.896865997026014
      ],
      [
        "-in",
        -9.897566906227604
      ],
      [
        "Ġstarch",
        -9.898019601697152
      ],
      [
        "Ġkg",
        -9.89816141653982
      ],
      [
        "Ġorgan",
        -9.898591272146373
      ],
      [
        "ions",
        -9.899446611469656
      ],
      [
        "Ġlighting",
        -9.899528974880363
      ],
      [
        "Ġlay",
        -9.899876547135785
      ],
      [
        "Ġmixture",
        -9.901035808757062
      ],
      [
        "ha",
        -9.901551035643354
      ],
      [
        "which",
        -9.902193822128195
      ],
      [
        "Ġroll",
        -9.90236348070234
      ],
      [
        "Ġstain",
        -9.903893604769848
      ],
      [
        "ĠDepartment",
        -9.904706797745046
      ],
      [
        "Ġcreation",
        -9.905038060137556
      ],
      [
        "Ġimprov",
        -9.905172954434745
      ],
      [
        "Ġforest",
        -9.905543322068112
      ],
      [
        "all",
        -9.90710092171302
      ],
      [
        "Ġlandscape",
        -9.907168106706138
      ],
      [
        "Ġmorning",
        -9.907510735622129
      ],
      [
        "older",
        -9.908586744287078
      ],
      [
        "Ġdrugs",
        -9.909109945676434
      ],
      [
        "took",
        -9.909930352098504
      ],
      [
        "Ġengage",
        -9.91027739121092
      ],
      [
        "iness",
        -9.911009391530715
      ],
      [
        "ĠHigh",
        -9.911329727524944
      ],
      [
        "ĠCalifornia",
        -9.911485102502528
      ],
      [
        "Ġglucos",
        -9.913488751246806
      ],
      [
        "Ġyield",
        -9.913989951244416
      ],
      [
        "Ġnerve",
        -9.913995618595951
      ],
      [
        "Ġrock",
        -9.914847465155944
      ],
      [
        "Ġprogress",
        -9.916521949866182
      ],
      [
        ".[",
        -9.916849803776127
      ],
      [
        "ĠCo",
        -9.91814815471148
      ],
      [
        "Ġcalculate",
        -9.918377731909862
      ],
      [
        "-year",
        -9.918892967787926
      ],
      [
        "Ġtoward",
        -9.919101108569103
      ],
      [
        "ĠDay",
        -9.919350633128625
      ],
      [
        "Ġinternational",
        -9.920953887686878
      ],
      [
        "Ġancient",
        -9.921085385591446
      ],
      [
        "Ġultimate",
        -9.921150428364044
      ],
      [
        "Ġchicken",
        -9.921636987414471
      ],
      [
        "Ġalcohol",
        -9.924460759745273
      ],
      [
        "Ġsecure",
        -9.925059084634432
      ],
      [
        "Ġnote",
        -9.92515881831432
      ],
      [
        "Ġregister",
        -9.925184588674124
      ],
      [
        "Ġobservation",
        -9.925689829287345
      ],
      [
        "Ġamylase",
        -9.926548946740844
      ],
      [
        "Ġhazard",
        -9.927903510664937
      ],
      [
        "Ġclassroom",
        -9.92795221075957
      ],
      [
        "numerous",
        -9.927956651727111
      ],
      [
        "Ġconsume",
        -9.929206207442473
      ],
      [
        "Ġcoat",
        -9.930907478110306
      ],
      [
        "ĠEvery",
        -9.93090867772882
      ],
      [
        "Ġconclusion",
        -9.931642436387683
      ],
      [
        "/or",
        -9.932164438407868
      ],
      [
        "Ġshell",
        -9.932644448612509
      ],
      [
        "Ġvisibl",
        -9.932785449111336
      ],
      [
        "Ġtransfer",
        -9.933457220038296
      ],
      [
        "Ġbreast",
        -9.934152852643592
      ],
      [
        "Ġcars",
        -9.934270835145028
      ],
      [
        "Ġprefer",
        -9.935366009342534
      ],
      [
        "ĠJohn",
        -9.935910936804415
      ],
      [
        "Ġpreference",
        -9.938546551246535
      ],
      [
        "Ġratio",
        -9.93855413346683
      ],
      [
        "Ġdish",
        -9.93919653284196
      ],
      [
        "Ġbillion",
        -9.939693684277952
      ],
      [
        "Ġeducational",
        -9.94082583565321
      ],
      [
        "Ġthin",
        -9.941815873347402
      ],
      [
        "Ġsurvey",
        -9.94201251073792
      ],
      [
        "Ġaudio",
        -9.942157184588268
      ],
      [
        "fish",
        -9.942542982878056
      ],
      [
        "Ġcomment",
        -9.942856657671795
      ],
      [
        "Ġanxiet",
        -9.94349535306952
      ],
      [
        "Ġoperat",
        -9.94402319178635
      ],
      [
        "Ġtrade",
        -9.94633068533831
      ],
      [
        "Ġbutton",
        -9.946542297649104
      ],
      [
        "Ġowners",
        -9.947777612794416
      ],
      [
        "Ġinteract",
        -9.948387410669662
      ],
      [
        "Ġpublishe",
        -9.948640873379489
      ],
      [
        "After",
        -9.948775378046848
      ],
      [
        "Ġgravit",
        -9.948937815810542
      ],
      [
        "Ġcomprehensive",
        -9.949209368560576
      ],
      [
        "Ġlaunch",
        -9.949673515511584
      ],
      [
        "Ġsteel",
        -9.94967703185536
      ],
      [
        "ily",
        -9.949687375044483
      ],
      [
        "Ġflat",
        -9.95096125209766
      ],
      [
        "Ġlooks",
        -9.951303886393037
      ],
      [
        "Ġharvest",
        -9.952729265411854
      ],
      [
        "Ġprocedure",
        -9.95309275436136
      ],
      [
        "Ġhighlight",
        -9.95322517782041
      ],
      [
        "Ġrisks",
        -9.953433216679295
      ],
      [
        "Ġthrow",
        -9.953792425442025
      ],
      [
        "Ġoccurr",
        -9.95470199073004
      ],
      [
        "Ġwhose",
        -9.954887833425271
      ],
      [
        "Ġfloor",
        -9.95588291350085
      ],
      [
        "Ġcolon",
        -9.956186348382086
      ],
      [
        "Ġcable",
        -9.956598576306954
      ],
      [
        "ĠPark",
        -9.957523037871804
      ],
      [
        "Ġiron",
        -9.959036372766754
      ],
      [
        "ĠWell",
        -9.959290702258794
      ],
      [
        "Ġ<",
        -9.95959256810582
      ],
      [
        "Ġdefinite",
        -9.959958193829433
      ],
      [
        "Ġcredit",
        -9.960468116928649
      ],
      [
        "board",
        -9.960586798999046
      ],
      [
        "Ġthread",
        -9.961016258585351
      ],
      [
        "Ġstream",
        -9.961490635296904
      ],
      [
        "ma",
        -9.961539061046128
      ],
      [
        "Ġpredict",
        -9.961555632707505
      ],
      [
        "Ġzero",
        -9.961965039039868
      ],
      [
        "kept",
        -9.96363695725153
      ],
      [
        "Ġapart",
        -9.964019794769287
      ],
      [
        "Ġmeal",
        -9.964706314695793
      ],
      [
        "Ġrandom",
        -9.966172146807352
      ],
      [
        "Ġoffice",
        -9.967452398052956
      ],
      [
        "Ġorganisms",
        -9.967727646587765
      ],
      [
        "Ġrain",
        -9.96821203452398
      ],
      [
        "ese",
        -9.968263248614011
      ],
      [
        "}",
        -9.9690359743387
      ],
      [
        "Ġoffering",
        -9.96958938973391
      ],
      [
        "Ġfundamental",
        -9.971273516419338
      ],
      [
        "Ġaware",
        -9.971471802602505
      ],
      [
        "Ġgoals",
        -9.971531838583877
      ],
      [
        "Ġstretch",
        -9.9719683139777
      ],
      [
        "Ġmember",
        -9.972030504169568
      ],
      [
        "J",
        -9.973628759867196
      ],
      [
        "den",
        -9.97386668571225
      ],
      [
        "Ġexhibit",
        -9.973901138678352
      ],
      [
        "Ġvessel",
        -9.974507162349203
      ],
      [
        "Ġmelt",
        -9.974534314669082
      ],
      [
        "All",
        -9.975920367989572
      ],
      [
        "Ġpowder",
        -9.977526904170354
      ],
      [
        "Ġintelligence",
        -9.978191004299816
      ],
      [
        "ĠZ",
        -9.978237208497577
      ],
      [
        "Ġgirl",
        -9.97873057177058
      ],
      [
        "ĠWhe",
        -9.979647132166296
      ],
      [
        "Ġblend",
        -9.979884465876376
      ],
      [
        "Ġessay",
        -9.979957376698216
      ],
      [
        "Ġwindow",
        -9.98014213435101
      ],
      [
        "Ġseat",
        -9.981213973611396
      ],
      [
        "ĠPlant",
        -9.981277697780753
      ],
      [
        "Ġrelax",
        -9.981872837829536
      ],
      [
        "Ġuniverse",
        -9.981890205937614
      ],
      [
        "Ġguideline",
        -9.982320471157948
      ],
      [
        "Ġsymbol",
        -9.982613890976058
      ],
      [
        "Ġjump",
        -9.983622115472938
      ],
      [
        "Ġbroad",
        -9.983975738451322
      ],
      [
        "Ġannual",
        -9.984447345505972
      ],
      [
        "Ġfeeding",
        -9.98496563615326
      ],
      [
        "ĠRiver",
        -9.985587775465886
      ],
      [
        "Ġreduction",
        -9.98670716811862
      ],
      [
        "Ġoperate",
        -9.986803045131122
      ],
      [
        "Ġdetermin",
        -9.98711769297843
      ],
      [
        "Ġsettings",
        -9.98720792049148
      ],
      [
        "Ġlegal",
        -9.987730648741628
      ],
      [
        "Ġparticipant",
        -9.989293985855472
      ],
      [
        "Ġmanual",
        -9.989322765311442
      ],
      [
        "Ġinternet",
        -9.98933248293587
      ],
      [
        "Ġartificial",
        -9.989913653393913
      ],
      [
        "Ġformation",
        -9.990635845321172
      ],
      [
        "Ġrespect",
        -9.991716258714334
      ],
      [
        "Ġupper",
        -9.991975075512936
      ],
      [
        "Ġsaying",
        -9.99276927761748
      ],
      [
        "Ġbeaut",
        -9.992940680341231
      ],
      [
        "Ġcareer",
        -9.992987979366642
      ],
      [
        "Ġfailure",
        -9.993483046053536
      ],
      [
        "Here",
        -9.993508213679103
      ],
      [
        "Ġtube",
        -9.99429248325783
      ],
      [
        "ĠDon",
        -9.99447338568142
      ],
      [
        "Ġfac",
        -9.994736064974925
      ],
      [
        "Ġresource",
        -9.99530407658936
      ],
      [
        "Ġprinciples",
        -9.996572061025532
      ],
      [
        "Ġofficial",
        -9.997212742758965
      ],
      [
        "Ġmechanical",
        -9.997637045766576
      ],
      [
        "ebru",
        -9.997956297037431
      ],
      [
        "Ġplaying",
        -9.997967620662855
      ],
      [
        "Ġstatement",
        -9.998973588034447
      ],
      [
        "Ġstatus",
        -9.99975783634711
      ],
      [
        "Ġassessment",
        -10.000711173203634
      ],
      [
        "Ġdiamond",
        -10.000875187582723
      ],
      [
        "Ġautomatic",
        -10.00119932077608
      ],
      [
        "Ġindoor",
        -10.001238737474182
      ],
      [
        "Ġformula",
        -10.0013484786897
      ],
      [
        "Answer",
        -10.001539910931498
      ],
      [
        "nstead",
        -10.001930053817404
      ],
      [
        "ĠEast",
        -10.003419509368474
      ],
      [
        "Ġbehaviour",
        -10.004454133596663
      ],
      [
        "nternational",
        -10.004662609478842
      ],
      [
        "Ġpublish",
        -10.004678052004342
      ],
      [
        "quality",
        -10.00501440292201
      ],
      [
        "Ġcarefully",
        -10.005232164322816
      ],
      [
        "ĠPeople",
        -10.006034193496507
      ],
      [
        "ĠCO",
        -10.006630286527937
      ],
      [
        "producing",
        -10.006698094683545
      ],
      [
        "ĠChina",
        -10.006768960400091
      ],
      [
        "are",
        -10.007869002204483
      ],
      [
        "Ġmeter",
        -10.008093769164008
      ],
      [
        "Ġdescription",
        -10.008875383617603
      ],
      [
        "Ġscene",
        -10.008934822685962
      ],
      [
        "Ġcheese",
        -10.009079585756776
      ],
      [
        "Ġboil",
        -10.010355190621086
      ],
      [
        "Ġintend",
        -10.010696048099245
      ],
      [
        "Ġpainting",
        -10.010867379220208
      ],
      [
        "Ġpool",
        -10.011155159922822
      ],
      [
        "Ġassess",
        -10.012160427781858
      ],
      [
        "Ġinstall",
        -10.012167026787608
      ],
      [
        "Ġattach",
        -10.012498274641631
      ],
      [
        "Ġinternal",
        -10.013248446001816
      ],
      [
        "Ġarm",
        -10.013622557549768
      ],
      [
        "ley",
        -10.014395015084556
      ],
      [
        "Ġborn",
        -10.01443531485278
      ],
      [
        "ĠCity",
        -10.015299635639254
      ],
      [
        "brough",
        -10.01823209011812
      ],
      [
        "Ġstories",
        -10.019132981469795
      ],
      [
        "Ġstomach",
        -10.019608048696554
      ],
      [
        "Ġpredator",
        -10.020096787124409
      ],
      [
        "Ġcontinuous",
        -10.02019555293057
      ],
      [
        "Ġplate",
        -10.020899405518897
      ],
      [
        "Ġprepare",
        -10.021194062482271
      ],
      [
        "Ġtitle",
        -10.021984635908655
      ],
      [
        "Ġclinical",
        -10.02234285509143
      ],
      [
        "Ġtight",
        -10.022426026947546
      ],
      [
        "Ġemotional",
        -10.02306663428548
      ],
      [
        "ĠKeep",
        -10.023107319079772
      ],
      [
        "ities",
        -10.023119734302917
      ],
      [
        "Ġchronic",
        -10.023641460261082
      ],
      [
        "Ġdecline",
        -10.023696823723032
      ],
      [
        "Ġcollege",
        -10.023741183841576
      ],
      [
        "Ġguy",
        -10.02386396450494
      ],
      [
        "Ġexamine",
        -10.024114030599833
      ],
      [
        "Ġmode",
        -10.024779717950585
      ],
      [
        "ĠUV",
        -10.025077629584002
      ],
      [
        "Ġchain",
        -10.025284940465143
      ],
      [
        "Ġexam",
        -10.026780840745523
      ],
      [
        "Ġoutdoor",
        -10.027387206704388
      ],
      [
        "Ġcomposition",
        -10.027444779163126
      ],
      [
        "Ġradiation",
        -10.028181798008792
      ],
      [
        "Ġoptimal",
        -10.028492026648738
      ],
      [
        "Ġprimaril",
        -10.028687035348248
      ],
      [
        "Ġtraffic",
        -10.02891459895981
      ],
      [
        "Ġshot",
        -10.029619277756694
      ],
      [
        "ĠGo",
        -10.029723144262586
      ],
      [
        "Ġsmart",
        -10.030380123874128
      ],
      [
        "Ġequation",
        -10.031135371682328
      ],
      [
        "Ġinvolv",
        -10.031220030276677
      ],
      [
        "Ġchose",
        -10.032028508668413
      ],
      [
        "Ġtrial",
        -10.032571011539256
      ],
      [
        "Ġnice",
        -10.032642594949351
      ],
      [
        "Ġhydrogen",
        -10.032728844830652
      ],
      [
        "limited",
        -10.03278489681135
      ],
      [
        "Ġweak",
        -10.032857142061829
      ],
      [
        "Ġhelpful",
        -10.03368006560862
      ],
      [
        "Ġcapabilit",
        -10.03392654288646
      ],
      [
        "Ġraw",
        -10.034209494984111
      ],
      [
        "Ġhabit",
        -10.03460889194141
      ],
      [
        "Ġcatch",
        -10.0349140517516
      ],
      [
        "Ġfault",
        -10.035016986561097
      ],
      [
        "Ġwildlife",
        -10.035289218894588
      ],
      [
        "ĠBoth",
        -10.036068181842856
      ],
      [
        "Ġadvice",
        -10.036741432581678
      ],
      [
        "healthy",
        -10.036983070205167
      ],
      [
        "Ġrough",
        -10.0369905168466
      ],
      [
        "Ġattract",
        -10.038195686412372
      ],
      [
        "Ġadopt",
        -10.038469023489576
      ],
      [
        "Ġfoundation",
        -10.038940746102568
      ],
      [
        "told",
        -10.039216962235407
      ],
      [
        "Ġcalci",
        -10.0394827808916
      ],
      [
        "Ġrelationships",
        -10.04073008637333
      ],
      [
        "ĠAbout",
        -10.040842353951016
      ],
      [
        "Ġhospital",
        -10.041090012846748
      ],
      [
        "Ġreliabl",
        -10.041873942764257
      ],
      [
        "Ġdestroy",
        -10.043941939146332
      ],
      [
        "ĠColor",
        -10.044138638575047
      ],
      [
        "Ġinteraction",
        -10.04424586160552
      ],
      [
        "ĠFurther",
        -10.044280111696828
      ],
      [
        "Ġradio",
        -10.04582852840181
      ],
      [
        "Ġfail",
        -10.046366157990883
      ],
      [
        "Ġbatteries",
        -10.046962150981322
      ],
      [
        "Ġagriculture",
        -10.047245339017676
      ],
      [
        "Ġband",
        -10.047293272835091
      ],
      [
        "Ġengineering",
        -10.047519017360298
      ],
      [
        "ought",
        -10.04777889281701
      ],
      [
        "Ġprior",
        -10.048413131585097
      ],
      [
        "Ġeliminate",
        -10.048664947605635
      ],
      [
        "ĠSystem",
        -10.048979992751516
      ],
      [
        "Ġtru",
        -10.050123529979626
      ],
      [
        "Ġbeneficial",
        -10.050847802804496
      ],
      [
        "Ġsnow",
        -10.050911022202971
      ],
      [
        "Ġbar",
        -10.052503139837922
      ],
      [
        "Ġcreatures",
        -10.052564025877114
      ],
      [
        "Ġaspect",
        -10.052835588978358
      ],
      [
        "Ġsensitive",
        -10.053278126225273
      ],
      [
        "Ġworker",
        -10.054129168839731
      ],
      [
        "Ġdistinct",
        -10.054174432532903
      ],
      [
        "Ġboost",
        -10.05469322763354
      ],
      [
        "Ġdatabase",
        -10.05479228746721
      ],
      [
        "Ġorigin",
        -10.05506112862323
      ],
      [
        "Ġnaturally",
        -10.055526135158123
      ],
      [
        "Ġmobile",
        -10.055692225327194
      ],
      [
        "Ġtail",
        -10.056839048110456
      ],
      [
        "Ġemail",
        -10.05693539975226
      ],
      [
        "Ġmolecule",
        -10.057447441628312
      ],
      [
        "My",
        -10.057577877014593
      ],
      [
        "Ġspin",
        -10.058044419920911
      ],
      [
        "ĠIndian",
        -10.05809349752294
      ],
      [
        "Ġgrass",
        -10.058376317907456
      ],
      [
        "Ġfix",
        -10.058474424491273
      ],
      [
        "Ġplent",
        -10.058692071404549
      ],
      [
        "Ġdiagram",
        -10.059051978832052
      ],
      [
        "Ġblog",
        -10.06071589518282
      ],
      [
        "Ġperspective",
        -10.062845463434275
      ],
      [
        "Ġresolution",
        -10.063024562013176
      ],
      [
        "Ġmaster",
        -10.063308121232218
      ],
      [
        "ĠCanada",
        -10.063780052047326
      ],
      [
        "Ġlie",
        -10.06438847850826
      ],
      [
        "Ġsuper",
        -10.064793115217883
      ],
      [
        "-free",
        -10.06507751968006
      ],
      [
        "Ġprecise",
        -10.066134658441618
      ],
      [
        "ĠHi",
        -10.066295793502974
      ],
      [
        "Ġsupplie",
        -10.066372638402138
      ],
      [
        "Ġattend",
        -10.066448231827458
      ],
      [
        "Ġrestaurant",
        -10.06670195754793
      ],
      [
        "Ġinfant",
        -10.06682129402995
      ],
      [
        "Ġdental",
        -10.066915285681276
      ],
      [
        "related",
        -10.067747536654984
      ],
      [
        "ĠGreen",
        -10.068520800573117
      ],
      [
        "ĠFood",
        -10.068612907462748
      ],
      [
        "Ġstorm",
        -10.070041137043756
      ],
      [
        "Ġprepared",
        -10.070149836322216
      ],
      [
        "Ġstandards",
        -10.07088244268274
      ],
      [
        "Ġtile",
        -10.071468940825843
      ],
      [
        "Ġconduct",
        -10.071844144660677
      ],
      [
        "Ġowner",
        -10.074765366656358
      ],
      [
        "Ġappeal",
        -10.074889561244746
      ],
      [
        "Ġestimated",
        -10.075173728266464
      ],
      [
        "Ġinstrument",
        -10.07544932855177
      ],
      [
        "ĠHis",
        -10.075524547369412
      ],
      [
        "Ġbrush",
        -10.0769525257017
      ],
      [
        "Ġshar",
        -10.077708381401788
      ],
      [
        "Ġbio",
        -10.078611296094872
      ],
      [
        "Ġfirm",
        -10.078784151715652
      ],
      [
        "Ġamazing",
        -10.078847903127318
      ],
      [
        "Ġdangerous",
        -10.078993599515051
      ],
      [
        "Ġscore",
        -10.079127804690916
      ],
      [
        "Ġconsequence",
        -10.079221550530004
      ],
      [
        "Ġlaser",
        -10.079275723790442
      ],
      [
        "Ġpercentage",
        -10.079390489924576
      ],
      [
        "Ġcm",
        -10.080556244530998
      ],
      [
        "Ġchoos",
        -10.08139352862082
      ],
      [
        "Ġprove",
        -10.08150060875342
      ],
      [
        "@",
        -10.081991885050428
      ],
      [
        "Ġten",
        -10.082510507354602
      ],
      [
        "Ġillness",
        -10.082938418145782
      ],
      [
        "Ġsell",
        -10.08311223759285
      ],
      [
        "ĠWhere",
        -10.084792738994034
      ],
      [
        "Ġrelevant",
        -10.086618619279886
      ],
      [
        "ĠDoes",
        -10.086719273395614
      ],
      [
        "Ġinsurance",
        -10.087091861474276
      ],
      [
        "Ġbottle",
        -10.08729645833434
      ],
      [
        "Ġpepper",
        -10.087404248570447
      ],
      [
        "ĠLED",
        -10.087599556838304
      ],
      [
        "Ġroof",
        -10.088252820343715
      ],
      [
        "Ġshed",
        -10.08879993392212
      ],
      [
        "Ġprogramm",
        -10.088916689104307
      ],
      [
        "wood",
        -10.089780372252466
      ],
      [
        "Ġpure",
        -10.089862322972516
      ],
      [
        "ĠWest",
        -10.0901485563182
      ],
      [
        "ĠDog",
        -10.090265124466931
      ],
      [
        "Ġfair",
        -10.091069045181658
      ],
      [
        "Ġaudience",
        -10.091143059099982
      ],
      [
        "Ġmolecular",
        -10.091822814898176
      ],
      [
        "Ġprofile",
        -10.092515870916488
      ],
      [
        "Ġsports",
        -10.092704702239338
      ],
      [
        "Ġestimate",
        -10.092832303941735
      ],
      [
        "Ġimprovement",
        -10.093141000552508
      ],
      [
        "Ġbroken",
        -10.093315961031347
      ],
      [
        "Ġquant",
        -10.094339967591004
      ],
      [
        "Most",
        -10.094736202016318
      ],
      [
        "Ġvariet",
        -10.095109097553491
      ],
      [
        "Ġfear",
        -10.098211364729224
      ],
      [
        "Ġlens",
        -10.098647016272755
      ],
      [
        "Ġchalleng",
        -10.098735525726378
      ],
      [
        "what",
        -10.099065069391052
      ],
      [
        "ĠAsia",
        -10.099155938605104
      ],
      [
        "Ġleaving",
        -10.09942521776822
      ],
      [
        "Ġdisk",
        -10.099585132949112
      ],
      [
        "Ġinstallation",
        -10.099787809711676
      ],
      [
        "ĠOcto",
        -10.100771253622463
      ],
      [
        "ĠJune",
        -10.10097206662626
      ],
      [
        "Ġpolitical",
        -10.101365205587385
      ],
      [
        "Are",
        -10.10172326627517
      ],
      [
        "Ġspray",
        -10.10188233516311
      ],
      [
        "Ġconsideration",
        -10.102512156814754
      ],
      [
        "ĠPh",
        -10.102668887881556
      ],
      [
        "Ġteach",
        -10.103028117026712
      ],
      [
        "Ġheal",
        -10.103193063118358
      ],
      [
        "Ġcoffee",
        -10.103591338797129
      ],
      [
        "Ġassist",
        -10.104228715429045
      ],
      [
        "diversity",
        -10.104297281132736
      ],
      [
        "Ġsolve",
        -10.105265846286898
      ],
      [
        "with",
        -10.1054192610693
      ],
      [
        "Ġtall",
        -10.10586541178143
      ],
      [
        "Ġhelping",
        -10.106210473689568
      ],
      [
        "Ġsauce",
        -10.106977196232933
      ],
      [
        "Ġcharg",
        -10.107474354621372
      ],
      [
        "Ġsurvival",
        -10.107794972624166
      ],
      [
        "Ġmammal",
        -10.108068277508488
      ],
      [
        "Ġbrake",
        -10.108131828028238
      ],
      [
        "Ġneuron",
        -10.108468738465056
      ],
      [
        "Ġorganoid",
        -10.108756264558588
      ],
      [
        "Ġnation",
        -10.109129722336146
      ],
      [
        "Ġlifestyle",
        -10.112089583252828
      ],
      [
        "Ġwoman",
        -10.1125930464361
      ],
      [
        "Ġmold",
        -10.112754362428417
      ],
      [
        "reality",
        -10.11372008578076
      ],
      [
        "Ġmineral",
        -10.116081941431377
      ],
      [
        "Ġthorough",
        -10.11619652802189
      ],
      [
        "Ġcotton",
        -10.116199539238432
      ],
      [
        "Ġsector",
        -10.116336565419472
      ],
      [
        "Ġcapabl",
        -10.116412546951231
      ],
      [
        "Ġstrain",
        -10.116420755367727
      ],
      [
        "-level",
        -10.116686456028994
      ],
      [
        "Ġquantit",
        -10.117672030822336
      ],
      [
        "ĠWorksheets",
        -10.11820578154382
      ],
      [
        "formed",
        -10.118593181917444
      ],
      [
        "Ġmeeting",
        -10.11906668843581
      ],
      [
        "Ġrealize",
        -10.12005168206478
      ],
      [
        "acific",
        -10.120644050001529
      ],
      [
        "Ġsport",
        -10.120726643440287
      ],
      [
        "Ġopinion",
        -10.12082309726816
      ],
      [
        "Ġchapter",
        -10.120933954926794
      ],
      [
        "Ġindustrial",
        -10.121167791429606
      ],
      [
        "Ġobjective",
        -10.12226394953326
      ],
      [
        "Ġleaf",
        -10.122579388909294
      ],
      [
        "Use",
        -10.123254188905223
      ],
      [
        "Ġprompt",
        -10.124689212473562
      ],
      [
        "Ġencounter",
        -10.12469030304796
      ],
      [
        "Ġtechnical",
        -10.124713430527922
      ],
      [
        "Ġversatil",
        -10.125043191301865
      ],
      [
        "Ġintroduc",
        -10.125479081267295
      ],
      [
        "Ġuniversit",
        -10.125959807727952
      ],
      [
        "Many",
        -10.126190277654365
      ],
      [
        "ĠRed",
        -10.128033279299846
      ],
      [
        "Ġminerals",
        -10.128513958230426
      ],
      [
        "Ġeight",
        -10.128670621188448
      ],
      [
        "Ġsex",
        -10.129071591433052
      ],
      [
        "Ġobvious",
        -10.129466727300166
      ],
      [
        "Ġclothes",
        -10.130006419082632
      ],
      [
        "Ġperhap",
        -10.130354752660384
      ],
      [
        "Yes",
        -10.131704465429449
      ],
      [
        "**",
        -10.132182195324653
      ],
      [
        "gar",
        -10.13237619738102
      ],
      [
        "Ġassembl",
        -10.132914052700112
      ],
      [
        "Conclusion",
        -10.133254482047006
      ],
      [
        "Ġsmell",
        -10.133268550544637
      ],
      [
        "Ġconfirm",
        -10.133399323873752
      ],
      [
        "itis",
        -10.133446802257408
      ],
      [
        "Ġlibrar",
        -10.133557085375935
      ],
      [
        "idian",
        -10.133703228061815
      ],
      [
        "ĠGuide",
        -10.13383732646447
      ],
      [
        "Ġurban",
        -10.13410683344354
      ],
      [
        "Ġfelt",
        -10.134442678017932
      ],
      [
        "Ġfields",
        -10.134771286591928
      ],
      [
        "Ġprivate",
        -10.134990108189932
      ],
      [
        "Ġemotion",
        -10.13559090441746
      ],
      [
        "Ġreact",
        -10.136181570808215
      ],
      [
        "Ġworry",
        -10.136730542867882
      ],
      [
        "Ġreward",
        -10.13765802627672
      ],
      [
        "weight",
        -10.13850515222503
      ],
      [
        "He",
        -10.13873111035043
      ],
      [
        "Ġprobabilit",
        -10.140188032186073
      ],
      [
        "Ġsatellite",
        -10.14189383111502
      ],
      [
        "Ġexplanation",
        -10.142078843135584
      ],
      [
        "fully",
        -10.143554077601014
      ],
      [
        "Ġpropose",
        -10.14371868331584
      ],
      [
        "that",
        -10.144012229717635
      ],
      [
        "ter",
        -10.144561567014232
      ],
      [
        "Ġinter",
        -10.144903469462836
      ],
      [
        "Ġboundar",
        -10.145068556039575
      ],
      [
        "Ġsuffer",
        -10.145474906736563
      ],
      [
        "Ġshade",
        -10.146202937451088
      ],
      [
        "Ġcompetition",
        -10.146244121393927
      ],
      [
        "Ġsnail",
        -10.146321725218163
      ],
      [
        "Ġweld",
        -10.146520665845047
      ],
      [
        "ĠJanu",
        -10.146762441358462
      ],
      [
        "Ġsufficient",
        -10.148507370224817
      ],
      [
        "il",
        -10.14863621782838
      ],
      [
        "ĠHome",
        -10.149195380414325
      ],
      [
        "Ġspen",
        -10.150156423623269
      ],
      [
        "Ġkitchen",
        -10.151469048530616
      ],
      [
        "Ġrid",
        -10.152807831436512
      ],
      [
        "ĠLife",
        -10.15325873325527
      ],
      [
        "Ġplanting",
        -10.155133707983603
      ],
      [
        "Ġrace",
        -10.155283028226698
      ],
      [
        "Ġawareness",
        -10.15626863828073
      ],
      [
        "Ġspeak",
        -10.1563613565845
      ],
      [
        "can",
        -10.15681273718794
      ],
      [
        "ington",
        -10.157315463624046
      ],
      [
        "Ġcream",
        -10.157356432103471
      ],
      [
        "Ġfunctional",
        -10.15826308590631
      ],
      [
        "Ġseven",
        -10.159159386526296
      ],
      [
        "Ġexcess",
        -10.15920780855788
      ],
      [
        "ĠGeneral",
        -10.15928411698594
      ],
      [
        "ĠAustralia",
        -10.159385131966944
      ],
      [
        "Ġmanner",
        -10.159530838713977
      ],
      [
        "Ġbus",
        -10.160213587675884
      ],
      [
        "Ġchair",
        -10.160472297002192
      ],
      [
        "Ġcooked",
        -10.162377623044025
      ],
      [
        "Ġevolve",
        -10.162551784776046
      ],
      [
        "Ġlinked",
        -10.163521535585186
      ],
      [
        "Ġcomparison",
        -10.163825304320596
      ],
      [
        "Ġabsolute",
        -10.16411573963639
      ],
      [
        "ble",
        -10.164189325210977
      ],
      [
        "Ġbloom",
        -10.164232736370716
      ],
      [
        "Ġvast",
        -10.164433481625572
      ],
      [
        "ent",
        -10.164554517193416
      ],
      [
        "Ġmilitar",
        -10.164809364702604
      ],
      [
        "Ġsaving",
        -10.165210481221234
      ],
      [
        "Ġengag",
        -10.165371485254056
      ],
      [
        "Ġvirus",
        -10.165892109149755
      ],
      [
        "Ġtrust",
        -10.16665771943826
      ],
      [
        "ĠLight",
        -10.16804776136011
      ],
      [
        "Ġtrait",
        -10.16828609859174
      ],
      [
        "Ġstable",
        -10.168371974169297
      ],
      [
        "Ġprofessor",
        -10.168446325603956
      ],
      [
        "Ġinnovation",
        -10.168561722079184
      ],
      [
        "ĠIsland",
        -10.168869098967251
      ],
      [
        "ĠCount",
        -10.17145338782667
      ],
      [
        "Ġbike",
        -10.171498405438838
      ],
      [
        "Ġchocolate",
        -10.17273643191876
      ],
      [
        "Ġdownload",
        -10.172831387001224
      ],
      [
        "Ġbecom",
        -10.17297778340874
      ],
      [
        "\"The",
        -10.173310008946224
      ],
      [
        "ification",
        -10.173485050683578
      ],
      [
        "ĠCollege",
        -10.174077540763156
      ],
      [
        "Ġprinter",
        -10.174189944626775
      ],
      [
        "ling",
        -10.175879792381444
      ],
      [
        "Ġsecret",
        -10.176821744462382
      ],
      [
        "Ġcompost",
        -10.177219737303624
      ],
      [
        "-friendl",
        -10.177447571788443
      ],
      [
        "Ġdirector",
        -10.177803023123552
      ],
      [
        "oxide",
        -10.17860103615569
      ],
      [
        "Ġloop",
        -10.179859987808982
      ],
      [
        "Ġanalyze",
        -10.18118552885415
      ],
      [
        "Ġpets",
        -10.181236421698436
      ],
      [
        "Ġrat",
        -10.181713874550692
      ],
      [
        "Ġaccurac",
        -10.181722047715294
      ],
      [
        "Ġvelocit",
        -10.182411901297549
      ],
      [
        "Ġsalivary",
        -10.18270416572977
      ],
      [
        "Ġacademic",
        -10.182832795109396
      ],
      [
        "Ġpregnanc",
        -10.182982205520847
      ],
      [
        "ĠCommon",
        -10.183363215508964
      ],
      [
        "Ġassume",
        -10.184926393188816
      ],
      [
        "Ġwet",
        -10.185026519688346
      ],
      [
        "Ġbug",
        -10.185818188702228
      ],
      [
        "Ġclan",
        -10.186184938889092
      ],
      [
        "Ġfurnace",
        -10.186246931159106
      ],
      [
        "Ġbabies",
        -10.186258152752853
      ],
      [
        "Ġweigh",
        -10.186472705983384
      ],
      [
        "Ġreplacement",
        -10.186608712289347
      ],
      [
        "Ġdeposit",
        -10.186681217252875
      ],
      [
        "Ġexternal",
        -10.18678218565946
      ],
      [
        "Ġrelation",
        -10.186847563956936
      ],
      [
        "most",
        -10.18729654350886
      ],
      [
        "ill",
        -10.187735957003474
      ],
      [
        "Ġ...Ċ",
        -10.189053663270984
      ],
      [
        "Ġincorporate",
        -10.189783153440668
      ],
      [
        "ĠSun",
        -10.190288510412955
      ],
      [
        "Ġinvestment",
        -10.191335183922156
      ],
      [
        "Ġlaws",
        -10.19134322447858
      ],
      [
        "Ġdirt",
        -10.192127657349577
      ],
      [
        "Ġupdate",
        -10.192315318236384
      ],
      [
        "Ġmicro",
        -10.193638915400694
      ],
      [
        "Ġhistorical",
        -10.193720997652145
      ],
      [
        "Ġaccident",
        -10.194210665890662
      ],
      [
        "Ġprovider",
        -10.195282592587114
      ],
      [
        "Ġfoster",
        -10.195369284866624
      ],
      [
        "Ġprinciple",
        -10.196020628120625
      ],
      [
        "Ġdefinition",
        -10.196376482290956
      ],
      [
        "Ġliver",
        -10.19646358721539
      ],
      [
        "Ġguid",
        -10.196534016452285
      ],
      [
        "ĠOcean",
        -10.196621776410607
      ],
      [
        "ĠHuman",
        -10.197210248644254
      ],
      [
        "First",
        -10.197470814680178
      ],
      [
        "More",
        -10.197624793921634
      ],
      [
        "Ġagent",
        -10.197868509263015
      ],
      [
        "Ġbiolog",
        -10.197976095503288
      ],
      [
        "Ġclock",
        -10.198305249742363
      ],
      [
        "how",
        -10.198399147059853
      ],
      [
        "Ġsouth",
        -10.198584558172488
      ],
      [
        "Ġapproache",
        -10.198903321485506
      ],
      [
        "Ġgift",
        -10.199953934308976
      ],
      [
        "Ġconversation",
        -10.200128852308072
      ],
      [
        "Ġresponsibilit",
        -10.20014616353032
      ],
      [
        "Ġlb",
        -10.200205832472289
      ],
      [
        "Ġrely",
        -10.200556051568508
      ],
      [
        "Ġmill",
        -10.201209291396992
      ],
      [
        "Ġmeasur",
        -10.202588324829833
      ],
      [
        "Ġriver",
        -10.202693966619185
      ],
      [
        "Ġcrack",
        -10.203583448142387
      ],
      [
        "Ġwish",
        -10.2045548468482
      ],
      [
        "Ġputt",
        -10.20615781848739
      ],
      [
        "-time",
        -10.206258735920724
      ],
      [
        "Ġeconom",
        -10.206531281340556
      ],
      [
        "Ġtooth",
        -10.2065572603416
      ],
      [
        "Ġstability",
        -10.207840953625356
      ],
      [
        "made",
        -10.207971520162438
      ],
      [
        "|Ċ",
        -10.208864780273233
      ],
      [
        "Ġsent",
        -10.209166260586706
      ],
      [
        "Ġinner",
        -10.209179544748457
      ],
      [
        "ular",
        -10.210279973670197
      ],
      [
        "Ġdecided",
        -10.211650093413567
      ],
      [
        "Ġmoon",
        -10.211760427720622
      ],
      [
        "upon",
        -10.213621067121544
      ],
      [
        "Ġsurprise",
        -10.214020505540413
      ],
      [
        "Ġvacuum",
        -10.214141060767592
      ],
      [
        "ĠEnergy",
        -10.214249394482518
      ],
      [
        "Ġwasn",
        -10.21460329154058
      ],
      [
        "ĠDesign",
        -10.215231348365904
      ],
      [
        "ership",
        -10.21546250498412
      ],
      [
        "ĠGet",
        -10.216089568824133
      ],
      [
        "Ġsharp",
        -10.216168821190344
      ],
      [
        "Ġcrystal",
        -10.217267538151845
      ],
      [
        "ÂŃ",
        -10.217326676294366
      ],
      [
        "ca",
        -10.217508507122474
      ],
      [
        "...Ċ",
        -10.217653084028791
      ],
      [
        "Ġcarried",
        -10.217862800959788
      ],
      [
        "hu",
        -10.218367676533848
      ],
      [
        "Ġseal",
        -10.218495707544283
      ],
      [
        "Ġconflict",
        -10.218507731079589
      ],
      [
        "Ġscenario",
        -10.21869427737394
      ],
      [
        "Ġconstruct",
        -10.218904081075028
      ],
      [
        "Ġcovers",
        -10.219113144636768
      ],
      [
        "Ġopening",
        -10.219579863718458
      ],
      [
        "Ġvs",
        -10.21961062311338
      ],
      [
        "Ġinch",
        -10.221013104551846
      ],
      [
        "ĠPower",
        -10.221103482926402
      ],
      [
        "men",
        -10.22174670872235
      ],
      [
        "Ġrespective",
        -10.221872594032652
      ],
      [
        "Ġformat",
        -10.222701908420651
      ],
      [
        "ĠObs",
        -10.223255602273468
      ],
      [
        "Ġisland",
        -10.223317861616035
      ],
      [
        "Ġfiles",
        -10.223795878515578
      ],
      [
        "Ġinteractions",
        -10.22678805718932
      ],
      [
        "Ġship",
        -10.227027293885415
      ],
      [
        "min",
        -10.227419027323286
      ],
      [
        "Your",
        -10.227470123091353
      ],
      [
        "Ġdiameter",
        -10.227928571274374
      ],
      [
        "Ġsunlight",
        -10.228056933797983
      ],
      [
        "Ġpreparation",
        -10.228462625786785
      ],
      [
        "Ġbean",
        -10.228667343273
      ],
      [
        "Ġlung",
        -10.22920175018836
      ],
      [
        "Ġintegrat",
        -10.230863069877532
      ],
      [
        "Ġshowing",
        -10.23086358795753
      ],
      [
        "Ġsold",
        -10.23122529960204
      ],
      [
        "Ġcrush",
        -10.23237589763657
      ],
      [
        "Ġtomato",
        -10.232667671408898
      ],
      [
        "Ġworkshop",
        -10.232682777630073
      ],
      [
        "ĠLike",
        -10.232892247566124
      ],
      [
        "ĠCheck",
        -10.233248875635478
      ],
      [
        "ĠClass",
        -10.23354807174913
      ],
      [
        "Ġmanag",
        -10.23414450554633
      ],
      [
        "].",
        -10.23430107965216
      ],
      [
        "Ġpermanent",
        -10.234340752859476
      ],
      [
        "Ġobes",
        -10.234499116544452
      ],
      [
        "Ġlift",
        -10.234961822505682
      ],
      [
        "Ġvariable",
        -10.236006396727406
      ],
      [
        "Ġmo",
        -10.236185846246848
      ],
      [
        "Ġdecide",
        -10.23639768112854
      ],
      [
        "Ġreplac",
        -10.236807791408069
      ],
      [
        "Ġbigger",
        -10.237461881813337
      ],
      [
        "-the",
        -10.237534620743864
      ],
      [
        "Ġcommunicate",
        -10.238806062212316
      ],
      [
        "Ġcraft",
        -10.238874354758302
      ],
      [
        "ĠWorksheet",
        -10.239933937407676
      ],
      [
        "Ġengineer",
        -10.240164595841376
      ],
      [
        "Just",
        -10.240731476430811
      ],
      [
        "According",
        -10.240734075874853
      ],
      [
        "Ġroute",
        -10.240923871892363
      ],
      [
        "Ġbowl",
        -10.241262572941746
      ],
      [
        "Ġtrend",
        -10.241617508946195
      ],
      [
        "Ġscratch",
        -10.24163035612126
      ],
      [
        "Ġmath",
        -10.24170956853105
      ],
      [
        "Ġassistant",
        -10.242321028406888
      ],
      [
        "Ġexcessive",
        -10.24242945181795
      ],
      [
        "Ġincorporat",
        -10.242593821385078
      ],
      [
        "Ġhousehold",
        -10.243067224877052
      ],
      [
        "Ġexplor",
        -10.243195132248104
      ],
      [
        "?\"",
        -10.243531389655484
      ],
      [
        "Onc",
        -10.243970007946537
      ],
      [
        "Ġspecialize",
        -10.24482065602705
      ],
      [
        "ĠÂ·",
        -10.245706523125236
      ],
      [
        "ĠAugust",
        -10.245939041147109
      ],
      [
        "Ġgear",
        -10.246912835821458
      ],
      [
        "ĠEngland",
        -10.247587182814131
      ],
      [
        "ĠSociety",
        -10.247765723640434
      ],
      [
        "Ġfarmers",
        -10.248732449189482
      ],
      [
        "ĠHave",
        -10.249301548910672
      ],
      [
        "ĠSan",
        -10.249313738984847
      ],
      [
        "Ġthermal",
        -10.25064585289674
      ],
      [
        "Ġutilize",
        -10.250793112587136
      ],
      [
        "Ġcoast",
        -10.250892192996105
      ],
      [
        "im",
        -10.250954080902956
      ],
      [
        "but",
        -10.250962312328868
      ],
      [
        "Ġnutrition",
        -10.25136352987422
      ],
      [
        "Ġextensive",
        -10.251847710784968
      ],
      [
        "Ġborder",
        -10.251859261748258
      ],
      [
        "cities",
        -10.252068038433436
      ],
      [
        "Ġleak",
        -10.252702699507449
      ],
      [
        "Ġstudied",
        -10.252921250174662
      ],
      [
        "Ġappears",
        -10.253367265848723
      ],
      [
        "Ġspectrum",
        -10.25469820325962
      ],
      [
        "Ġwro",
        -10.254943152562577
      ],
      [
        "ĠThus",
        -10.255376735842336
      ],
      [
        "Over",
        -10.255581040225136
      ],
      [
        "Ġparallel",
        -10.25646920878358
      ],
      [
        "Ġcalm",
        -10.256820092154246
      ],
      [
        "Ġclans",
        -10.256898588173
      ],
      [
        "Ġinvention",
        -10.256931241567829
      ],
      [
        "Ġconducted",
        -10.258179432910374
      ],
      [
        "ĠUp",
        -10.25836943559674
      ],
      [
        "Ġexpose",
        -10.258759733452855
      ],
      [
        "Ġshop",
        -10.259665506283298
      ],
      [
        "Ġdebri",
        -10.261589585516733
      ],
      [
        "ĠProgram",
        -10.262914602110484
      ],
      [
        "Ġlaborator",
        -10.26312760255582
      ],
      [
        "Ġemployees",
        -10.263302118053954
      ],
      [
        "Ġregulate",
        -10.264012583579174
      ],
      [
        "(x",
        -10.26453337036514
      ],
      [
        "ĠToday",
        -10.26509829277884
      ],
      [
        "Ġdimension",
        -10.265167237349056
      ],
      [
        "Ġdiagnose",
        -10.265368335899623
      ],
      [
        "ĠTwo",
        -10.265588961612096
      ],
      [
        "ĠLake",
        -10.266381116397142
      ],
      [
        "Ġinflammation",
        -10.266481569208857
      ],
      [
        "Ġtransmission",
        -10.266496849941507
      ],
      [
        "Ġgreenhouse",
        -10.266535294534416
      ],
      [
        "Ġherb",
        -10.267462104329418
      ],
      [
        "coming",
        -10.267496912234574
      ],
      [
        "Ġsizes",
        -10.267720383935416
      ],
      [
        "ĠCouncil",
        -10.268652737335522
      ],
      [
        "ĠGoogle",
        -10.268864175512396
      ],
      [
        "Let",
        -10.268954682548287
      ],
      [
        "Ġcircle",
        -10.269301597181606
      ],
      [
        "Ġsudden",
        -10.271409116523582
      ],
      [
        "Ġchest",
        -10.271477164462343
      ],
      [
        "Ġdrain",
        -10.271674541799127
      ],
      [
        "Ġgradual",
        -10.27173294018533
      ],
      [
        "Ġopposite",
        -10.271858486215868
      ],
      [
        "Ġbelief",
        -10.272155673771683
      ],
      [
        "Ġgrant",
        -10.272596523563111
      ],
      [
        "Ġmutation",
        -10.27272529875167
      ],
      [
        "Ġconfidence",
        -10.273273676361756
      ],
      [
        "Ġcalorie",
        -10.273691661237148
      ],
      [
        "ĠMan",
        -10.274033271147214
      ],
      [
        "ĠHistor",
        -10.274357455386012
      ],
      [
        "Ġatoms",
        -10.275939814043731
      ],
      [
        "Ġcarbohydrate",
        -10.27693944205842
      ],
      [
        "Ġfather",
        -10.276997267205774
      ],
      [
        "Ġabuse",
        -10.27712234949707
      ],
      [
        "Ġnitrogen",
        -10.277351377036895
      ],
      [
        "Re",
        -10.277422891299391
      ],
      [
        "ĠTime",
        -10.278362525706552
      ],
      [
        "Ġcloser",
        -10.27976443961108
      ],
      [
        "Ġfamiliar",
        -10.2802267921768
      ],
      [
        "ĠPleas",
        -10.280885542454206
      ],
      [
        "ver",
        -10.281177720008769
      ],
      [
        "Ġflood",
        -10.281789892748458
      ],
      [
        "Ġrot",
        -10.282326930696517
      ],
      [
        "Ġtoxic",
        -10.282661743595938
      ],
      [
        "Ġagenc",
        -10.282908304559312
      ],
      [
        "Ġbill",
        -10.283165975492464
      ],
      [
        "Ġcarrier",
        -10.28354065726788
      ],
      [
        "Ġcheap",
        -10.284517053532896
      ],
      [
        "Ġchoices",
        -10.286052967169455
      ],
      [
        "Ġshoulder",
        -10.286330719044551
      ],
      [
        "Ġinfrastructure",
        -10.286378019640004
      ],
      [
        "Ġbudget",
        -10.286416377091
      ],
      [
        "Ġintake",
        -10.286792181382442
      ],
      [
        "Ġpartner",
        -10.287304611607247
      ],
      [
        "Ġvalve",
        -10.287349349814509
      ],
      [
        "Ġintroduction",
        -10.28771377186525
      ],
      [
        "Ġcurve",
        -10.28815074649748
      ],
      [
        "ĠTHE",
        -10.289653299894194
      ],
      [
        "Ġloose",
        -10.289710792656322
      ],
      [
        "-of",
        -10.290917304863958
      ],
      [
        "From",
        -10.291204940341052
      ],
      [
        "Ġtradition",
        -10.291261245744014
      ],
      [
        "Ġdelicious",
        -10.291355344637818
      ],
      [
        "Ġdelay",
        -10.291416196744729
      ],
      [
        "Ġresident",
        -10.29159418205948
      ],
      [
        "ball",
        -10.291631857154025
      ],
      [
        "Ġflea",
        -10.291929307055891
      ],
      [
        "Ġcorresponding",
        -10.292428345438946
      ],
      [
        "Ġcloud",
        -10.293497531316431
      ],
      [
        "ĠMr",
        -10.293914028365265
      ],
      [
        "Ġhid",
        -10.294011752663826
      ],
      [
        "Ġwin",
        -10.295275104222355
      ],
      [
        "itting",
        -10.2954592792586
      ],
      [
        "Ġconsult",
        -10.295899252404656
      ],
      [
        "Ġguess",
        -10.29640686983826
      ],
      [
        "Ġseparation",
        -10.29650168022525
      ],
      [
        "Ġconcret",
        -10.296607523141256
      ],
      [
        "ĠFrench",
        -10.296872453908822
      ],
      [
        "Ġminimize",
        -10.298878786455123
      ],
      [
        "Ġshapes",
        -10.29920108261873
      ],
      [
        "Ġtrace",
        -10.30126313269027
      ],
      [
        "Ġinnovative",
        -10.301484512538655
      ],
      [
        "Ġnorthern",
        -10.3014959246719
      ],
      [
        "Ġrais",
        -10.301664321632485
      ],
      [
        "ĠII",
        -10.30223863124182
      ],
      [
        "ĠAny",
        -10.30236305853734
      ],
      [
        "ĠWhite",
        -10.302550222492975
      ],
      [
        "ĠWash",
        -10.303071497881422
      ],
      [
        "Ġnorth",
        -10.303082463495002
      ],
      [
        "Ġintensit",
        -10.303977001377191
      ],
      [
        "Ġwouldn",
        -10.304275067623893
      ],
      [
        "Ġheavi",
        -10.305391091480706
      ],
      [
        "Ġluck",
        -10.306839084462304
      ],
      [
        "Ġcoral",
        -10.306873720192538
      ],
      [
        "Ġgav",
        -10.306973832048673
      ],
      [
        "Ġpop",
        -10.307242291564435
      ],
      [
        "Ġbreath",
        -10.30725864174947
      ],
      [
        "Ġblade",
        -10.307326085017806
      ],
      [
        "Ġstroke",
        -10.308128709448829
      ],
      [
        "Ġimagine",
        -10.308222460751333
      ],
      [
        "Ġwashing",
        -10.308571837090716
      ],
      [
        "Ġsteam",
        -10.309308504047102
      ],
      [
        "Ġmassive",
        -10.30932879791175
      ],
      [
        "New",
        -10.309737327348843
      ],
      [
        "Ġconcepts",
        -10.310035973457628
      ],
      [
        "ĠMe",
        -10.31086566575416
      ],
      [
        "Ġexciting",
        -10.311722122002742
      ],
      [
        "Ġarrangement",
        -10.31180328853698
      ],
      [
        "Ġhormone",
        -10.314136072206251
      ],
      [
        "ium",
        -10.315122107225369
      ],
      [
        "back",
        -10.315256562835923
      ],
      [
        "Ġincredibl",
        -10.315740739605385
      ],
      [
        "ĠAnimal",
        -10.318185733880036
      ],
      [
        "Ġparticle",
        -10.318556610942904
      ],
      [
        "Ġbutter",
        -10.318775044853528
      ],
      [
        "Ġlock",
        -10.318975512161254
      ],
      [
        "Ġtown",
        -10.319218689526032
      ],
      [
        "tood",
        -10.319749472910406
      ],
      [
        "ize",
        -10.319864622867051
      ],
      [
        "Ġcoal",
        -10.32177117617212
      ],
      [
        "Ġmeant",
        -10.321950325789247
      ],
      [
        "Ġnose",
        -10.322752053203764
      ],
      [
        "Ġnotes",
        -10.32285705346806
      ],
      [
        "ĠRNA",
        -10.32344000114704
      ],
      [
        "ES",
        -10.323466549305577
      ],
      [
        "Ġdamaged",
        -10.323492403769444
      ],
      [
        "Ġirrigation",
        -10.323887939614822
      ],
      [
        "Ġouter",
        -10.324333286447771
      ],
      [
        "Ġsubstance",
        -10.324675198320149
      ],
      [
        "ĠWindow",
        -10.325111404577337
      ],
      [
        "Ġphotos",
        -10.325386721388504
      ],
      [
        "ĠAC",
        -10.326732566585434
      ],
      [
        "Ġcareful",
        -10.327183114607848
      ],
      [
        "âĪĴ",
        -10.327256838373875
      ],
      [
        "Ġcampaign",
        -10.32746458634522
      ],
      [
        "Which",
        -10.32799610857968
      ],
      [
        "lin",
        -10.32867310978412
      ],
      [
        "Ġchief",
        -10.328780814878163
      ],
      [
        "Ġneck",
        -10.329135568620584
      ],
      [
        "Ġfocuse",
        -10.32934146653582
      ],
      [
        "nternet",
        -10.329454159981296
      ],
      [
        "Ġfamous",
        -10.329927213700389
      ],
      [
        "Ġcow",
        -10.33022759548446
      ],
      [
        "Ġexcept",
        -10.330476724165829
      ],
      [
        "Ġrow",
        -10.332549590884014
      ],
      [
        "Ġsignificance",
        -10.332662836268238
      ],
      [
        "Ġsmok",
        -10.33276879599464
      ],
      [
        "Ġargument",
        -10.332856590701004
      ],
      [
        "Ġtumor",
        -10.333246586269697
      ],
      [
        "Ġnewborn",
        -10.333340643507086
      ],
      [
        "Ġplays",
        -10.333342437326252
      ],
      [
        "Ġvertical",
        -10.333552838667964
      ],
      [
        "Ġpan",
        -10.33381183204799
      ],
      [
        "Ġinterface",
        -10.33388501621008
      ],
      [
        "Ġmention",
        -10.333959745790503
      ],
      [
        "Dr",
        -10.333966559535384
      ],
      [
        "ĠHighland",
        -10.334123430840872
      ],
      [
        "ĠStudents",
        -10.334826330577004
      ],
      [
        "ĠBlue",
        -10.335017921662669
      ],
      [
        "Ġnet",
        -10.33589707597649
      ],
      [
        "Ġexchange",
        -10.336673005489056
      ],
      [
        "ĠNote",
        -10.33766562424291
      ],
      [
        "Ġimpossibl",
        -10.337786079855189
      ],
      [
        "ĠAdd",
        -10.337870352180731
      ],
      [
        "Ġcopper",
        -10.3381074644859
      ],
      [
        "Ġloud",
        -10.33833485218016
      ],
      [
        "Ġnurse",
        -10.338589210752076
      ],
      [
        "Ġmarketing",
        -10.339004146053696
      ],
      [
        "her",
        -10.339466727703549
      ],
      [
        "Ġmembrane",
        -10.339479034999568
      ],
      [
        "Ġnovel",
        -10.339896715469092
      ],
      [
        "Ġparticipate",
        -10.339949480299822
      ],
      [
        "Ġgap",
        -10.34101842863754
      ],
      [
        "Ġport",
        -10.341136905350425
      ],
      [
        "Ġderive",
        -10.34136184554848
      ],
      [
        "Not",
        -10.341674456307643
      ],
      [
        "Ġtwic",
        -10.342463916572656
      ],
      [
        "Ġcognitive",
        -10.343102854723591
      ],
      [
        "ford",
        -10.343336297788149
      ],
      [
        "Ġfertilizer",
        -10.344059352870506
      ],
      [
        "ĠThrough",
        -10.34428273147251
      ],
      [
        "Ġwhale",
        -10.34460610090723
      ],
      [
        "me",
        -10.34490116627687
      ],
      [
        "Ġequivalent",
        -10.345057974318276
      ],
      [
        "Ġgraph",
        -10.345327764545411
      ],
      [
        "tried",
        -10.345331453466317
      ],
      [
        "ĠNatural",
        -10.345714347715807
      ],
      [
        "Ġride",
        -10.34607735293563
      ],
      [
        "Ġdishe",
        -10.346740001498905
      ],
      [
        "Ġorange",
        -10.349290378925035
      ],
      [
        "Ġformer",
        -10.349437251301085
      ],
      [
        "Ġsales",
        -10.35005899576036
      ],
      [
        "ĠTechnology",
        -10.350387493675358
      ],
      [
        "he",
        -10.350465887946571
      ],
      [
        "Ġtruck",
        -10.350760484626509
      ],
      [
        "Ġphysic",
        -10.3532274297176
      ],
      [
        "Ġchart",
        -10.353474752677776
      ],
      [
        "Ġbiggest",
        -10.353713571962054
      ],
      [
        "Ġdiagnosi",
        -10.354335151478423
      ],
      [
        "ĠMedicine",
        -10.354484777724236
      ],
      [
        "Ġmovie",
        -10.354740247822502
      ],
      [
        "Ġscrew",
        -10.355179146795685
      ],
      [
        "from",
        -10.355367214521635
      ],
      [
        "Ġreceiv",
        -10.356205108636676
      ],
      [
        "ĠLab",
        -10.356281113994807
      ],
      [
        "Ġcrusher",
        -10.35632755774893
      ],
      [
        "ĠCare",
        -10.356873315868883
      ],
      [
        "ĠTake",
        -10.35732273181532
      ],
      [
        "Ġworse",
        -10.357531596753889
      ],
      [
        "-being",
        -10.357995118529216
      ],
      [
        "Ġjuice",
        -10.358457438320873
      ],
      [
        "Ġfurniture",
        -10.359090149859586
      ],
      [
        "Ġalter",
        -10.359109027219285
      ],
      [
        "Ġcollaboration",
        -10.359160048513465
      ],
      [
        "Ġreceptor",
        -10.36056921659804
      ],
      [
        "Ġaesthetic",
        -10.36101510801688
      ],
      [
        "Ġpackage",
        -10.3623445560725
      ],
      [
        "ĠFrance",
        -10.363716793156762
      ],
      [
        "Ġadequate",
        -10.364222983381886
      ],
      [
        "Ġdanger",
        -10.364367687902206
      ],
      [
        "Ġantioxidant",
        -10.364494790234035
      ],
      [
        "Ġworksheet",
        -10.365200951025882
      ],
      [
        "eath",
        -10.365281598814835
      ],
      [
        "Ġunlike",
        -10.365934506945733
      ],
      [
        "Ġpoly",
        -10.366141979438758
      ],
      [
        "Ġvariables",
        -10.36739140390318
      ],
      [
        "Ġappreciate",
        -10.368503731906916
      ],
      [
        "Ġprocedures",
        -10.36973219437795
      ],
      [
        "Ġexperienc",
        -10.370252791643823
      ],
      [
        "cellular",
        -10.370459532312204
      ],
      [
        "Ġrecommendation",
        -10.370591692117369
      ],
      [
        "Ġcontribution",
        -10.37109471047294
      ],
      [
        "Ġrenewable",
        -10.371271071705838
      ],
      [
        "Ġmask",
        -10.37144175253832
      ],
      [
        "ĠBorder",
        -10.371977931497394
      ],
      [
        "Ġcorn",
        -10.372443768298224
      ],
      [
        "Ġtrail",
        -10.37338425593092
      ],
      [
        "Ġflexi",
        -10.373812658344104
      ],
      [
        "£",
        -10.375394053693649
      ],
      [
        "Ġedit",
        -10.37605586377812
      ],
      [
        "ĠMuseum",
        -10.376182540447832
      ],
      [
        "Ġtrouble",
        -10.377761404301598
      ],
      [
        "ING",
        -10.37794869991453
      ],
      [
        "Ġbranch",
        -10.377955043187647
      ],
      [
        "ĠStart",
        -10.378676891340143
      ],
      [
        "ado",
        -10.379160066736532
      ],
      [
        "Ġattribute",
        -10.38028846094092
      ],
      [
        "Ġprogramme",
        -10.38064979129506
      ],
      [
        "Ġalumin",
        -10.380928330241924
      ],
      [
        "Ġunknown",
        -10.38107204845519
      ],
      [
        "Ġearthquake",
        -10.38110808875275
      ],
      [
        "ĠControl",
        -10.38128424835582
      ],
      [
        "Ġpro",
        -10.381632510002529
      ],
      [
        "Ġdigest",
        -10.381932851863922
      ],
      [
        "Ġvector",
        -10.382112471724376
      ],
      [
        ")(",
        -10.382304868902448
      ],
      [
        "Ġpixel",
        -10.382546764607586
      ],
      [
        "ĠJournal",
        -10.38312321440646
      ],
      [
        "Ġtone",
        -10.38348693158622
      ],
      [
        "go",
        -10.383499347357176
      ],
      [
        "ated",
        -10.384088879904148
      ],
      [
        "Ġconventional",
        -10.38490135575739
      ],
      [
        "Ġsouthern",
        -10.386429977749906
      ],
      [
        "Ġproductivity",
        -10.3866382372836
      ],
      [
        "Ġmirror",
        -10.386777488845617
      ],
      [
        "we",
        -10.386869949405098
      ],
      [
        "ĠConsider",
        -10.387502641396964
      ],
      [
        "Ġalign",
        -10.388043477308234
      ],
      [
        "`",
        -10.388262505007145
      ],
      [
        "Ġcluster",
        -10.389256113489104
      ],
      [
        "Ġsalmon",
        -10.391146467669708
      ],
      [
        "ĠNa",
        -10.391442233943078
      ],
      [
        "Ġidentit",
        -10.39197019289961
      ],
      [
        "Every",
        -10.391971656807051
      ],
      [
        "ĠPage",
        -10.392109470058914
      ],
      [
        "Ġhorses",
        -10.392137543370591
      ],
      [
        "ĠTV",
        -10.392232154822528
      ],
      [
        "ĠAssociation",
        -10.392336107758418
      ],
      [
        "Ġrotation",
        -10.392553145075492
      ],
      [
        "Ġvarie",
        -10.392704607403244
      ],
      [
        "going",
        -10.394076598239815
      ],
      [
        "ĠLook",
        -10.395645503924587
      ],
      [
        "ility",
        -10.396124165121511
      ],
      [
        "Ġbound",
        -10.396771540215124
      ],
      [
        "Ġpictures",
        -10.397153384545774
      ],
      [
        "Ġcards",
        -10.3974516504657
      ],
      [
        "Ġpuzzle",
        -10.397555630482634
      ],
      [
        "Ġgland",
        -10.397672977617038
      ],
      [
        "ĠRead",
        -10.397800824236615
      ],
      [
        "see",
        -10.39836424986531
      ],
      [
        "ĠFree",
        -10.399706029997605
      ],
      [
        "Ġlense",
        -10.399795001717052
      ],
      [
        "ĠSometime",
        -10.400567679220076
      ],
      [
        "ĠEngineer",
        -10.400997408272492
      ],
      [
        "-day",
        -10.4014014887691
      ],
      [
        "Ġrod",
        -10.401715497768084
      ],
      [
        "Ġproof",
        -10.40198769151881
      ],
      [
        "Ġfixed",
        -10.402000867162696
      ],
      [
        "Ġfriendly",
        -10.402487546187746
      ],
      [
        "Ġfascinating",
        -10.403178001594734
      ],
      [
        "Ġplot",
        -10.40362228148816
      ],
      [
        "OH",
        -10.4043174802027
      ],
      [
        "Ġbrief",
        -10.404414050842158
      ],
      [
        "ĠâĢ¢",
        -10.404942129365551
      ],
      [
        "Ġcombin",
        -10.40527495344162
      ],
      [
        "Ġalgae",
        -10.405531824488506
      ],
      [
        "Ġturns",
        -10.405578675743556
      ],
      [
        "Ġlicense",
        -10.405773860803729
      ],
      [
        "ĠRemember",
        -10.405971453930364
      ],
      [
        "ĠYear",
        -10.407244913587832
      ],
      [
        "PS",
        -10.407498305145351
      ],
      [
        "aging",
        -10.40838578814029
      ],
      [
        "ĠProject",
        -10.40871140275739
      ],
      [
        "Ġnarrow",
        -10.408840306589294
      ],
      [
        "Ġbaking",
        -10.40885058717842
      ],
      [
        "Ġstrand",
        -10.408864965348492
      ],
      [
        "Ġrear",
        -10.409456056813047
      ],
      [
        "Ġprofit",
        -10.409645821305244
      ],
      [
        "Ġwearing",
        -10.410437678425083
      ],
      [
        "ĠPart",
        -10.410539137694348
      ],
      [
        "ĠUn",
        -10.410830726273336
      ],
      [
        "ĠJul",
        -10.411187365422428
      ],
      [
        "Ġneedle",
        -10.412249291387548
      ],
      [
        "Ġshock",
        -10.412461506759056
      ],
      [
        "Ġusage",
        -10.413154764954552
      ],
      [
        "Ġlake",
        -10.413317904481303
      ],
      [
        "ĠMa",
        -10.413723576967566
      ],
      [
        "Ġcoating",
        -10.414099462039452
      ],
      [
        "Ġspider",
        -10.414507000195254
      ],
      [
        "Ġterritor",
        -10.41495569955148
      ],
      [
        "Ġbattle",
        -10.4161452711679
      ],
      [
        "Ġgather",
        -10.417941916670824
      ],
      [
        "Ġprices",
        -10.419583587393626
      ],
      [
        "pm",
        -10.42022292466687
      ],
      [
        "Ġmission",
        -10.420635471079285
      ],
      [
        "Ġoutcomes",
        -10.42081542958464
      ],
      [
        "Ġgenerator",
        -10.421017481704393
      ],
      [
        "ring",
        -10.422490375396272
      ],
      [
        "ĠChange",
        -10.422811064154464
      ],
      [
        "Ġaward",
        -10.422989956307964
      ],
      [
        "Ġhappening",
        -10.423574581826998
      ],
      [
        "&",
        -10.424469475281356
      ],
      [
        "Ġevaluate",
        -10.425084798809042
      ],
      [
        "ĠCar",
        -10.425320065889428
      ],
      [
        "Ġcent",
        -10.425561601022755
      ],
      [
        "Ġdiffer",
        -10.42602620645211
      ],
      [
        "Ġtropical",
        -10.42679879187191
      ],
      [
        ";Ċ",
        -10.426800455917231
      ],
      [
        "Ġspecialist",
        -10.426956627964962
      ],
      [
        "ĠDevelopment",
        -10.427500024329166
      ],
      [
        "Ġfold",
        -10.428013962347649
      ],
      [
        "Ġflexibl",
        -10.428212306665358
      ],
      [
        "some",
        -10.428537388148865
      ],
      [
        "Ġsexual",
        -10.428962989860889
      ],
      [
        "ĠMedical",
        -10.429133057599037
      ],
      [
        "Ġthanks",
        -10.429882129426788
      ],
      [
        "Ġmenu",
        -10.431274476394371
      ],
      [
        "ĠHer",
        -10.431546059812051
      ],
      [
        "Ġmild",
        -10.4317701390352
      ],
      [
        "ĠFoundation",
        -10.431813484250608
      ],
      [
        "Ġuniform",
        -10.43334259380847
      ],
      [
        "Ġpose",
        -10.433989232949596
      ],
      [
        "Ġrobotic",
        -10.434173130549604
      ],
      [
        "Ġremaining",
        -10.434437858250025
      ],
      [
        "Ġemerg",
        -10.434610987417637
      ],
      [
        "print",
        -10.435417747218777
      ],
      [
        "Ġpreferr",
        -10.435506416239845
      ],
      [
        "ĠProfessor",
        -10.437288917169754
      ],
      [
        "Ġlattice",
        -10.43756079838726
      ],
      [
        "Ġtroop",
        -10.438248264866036
      ],
      [
        "Ġhorizontal",
        -10.43856326502526
      ],
      [
        "Ġsmoke",
        -10.439395253447383
      ],
      [
        "Ġunusual",
        -10.439402258344614
      ],
      [
        "Ġthrive",
        -10.439498589807604
      ],
      [
        "Ġdomain",
        -10.43978844329886
      ],
      [
        "gone",
        -10.440195012745043
      ],
      [
        "ĠAct",
        -10.440573012351289
      ],
      [
        "Ġnames",
        -10.443261517397866
      ],
      [
        "De",
        -10.443304144190352
      ],
      [
        "Ġwipe",
        -10.443976513680092
      ],
      [
        "ĠWork",
        -10.444098327169463
      ],
      [
        "Ġpromoting",
        -10.444407669332106
      ],
      [
        "Ġsilver",
        -10.4448769529178
      ],
      [
        "Ġpresentation",
        -10.446110593945004
      ],
      [
        "Ġprofessionals",
        -10.446815581429984
      ],
      [
        "Ġarrive",
        -10.447314754463012
      ],
      [
        "Ġutiliz",
        -10.447896504141935
      ],
      [
        "-on",
        -10.447937954605433
      ],
      [
        "Ġdescrib",
        -10.448351641607362
      ],
      [
        "Ġmeals",
        -10.448703190479796
      ],
      [
        "Ġmemor",
        -10.449097973779716
      ],
      [
        "Ġconversion",
        -10.450298260659004
      ],
      [
        "Ġexpansion",
        -10.450538975573751
      ],
      [
        "Ġremoval",
        -10.450733720000288
      ],
      [
        "Ġfeedback",
        -10.451924854542783
      ],
      [
        "ĠRobert",
        -10.45222986650306
      ],
      [
        "Ġnutrient",
        -10.4524601004253
      ],
      [
        "Understand",
        -10.453862481597604
      ],
      [
        "Ġmanager",
        -10.454802770457484
      ],
      [
        "Ġinterior",
        -10.455245416262144
      ],
      [
        "Ġserving",
        -10.455270423334571
      ],
      [
        "Ġhousing",
        -10.455327020822448
      ],
      [
        "Ġwor",
        -10.455594429823012
      ],
      [
        "Ġweapon",
        -10.45560038826246
      ],
      [
        "Ġcelebrate",
        -10.45590745011021
      ],
      [
        "Ġabilit",
        -10.456969263766243
      ],
      [
        "Ġsubstantial",
        -10.457047970218554
      ],
      [
        "Ġdistinguish",
        -10.457707949640511
      ],
      [
        "ĠPro",
        -10.458375639761211
      ],
      [
        "Ġdream",
        -10.458458395263015
      ],
      [
        "Ġexperiments",
        -10.459108501847492
      ],
      [
        "ĠMar",
        -10.459387588311408
      ],
      [
        "Ġcustom",
        -10.459510565823912
      ],
      [
        "Ġbranche",
        -10.461019444866976
      ],
      [
        "ĠModel",
        -10.462007764848032
      ],
      [
        "Ġgraduate",
        -10.46222215853152
      ],
      [
        "Ġagricultural",
        -10.462487872843614
      ],
      [
        "Ġoral",
        -10.462489557591644
      ],
      [
        "Ġcourt",
        -10.462812803192172
      ],
      [
        "Ġharder",
        -10.463236819362535
      ],
      [
        "Ġreli",
        -10.464093623060016
      ],
      [
        "Ġvet",
        -10.465166115910256
      ],
      [
        "ĠPlace",
        -10.465501160202772
      ],
      [
        "{",
        -10.466336610534816
      ],
      [
        "Ġspice",
        -10.46640737176645
      ],
      [
        "Ġrecording",
        -10.466934529654852
      ],
      [
        "Ġdeck",
        -10.467344844897184
      ],
      [
        "Ġstar",
        -10.467502876147355
      ],
      [
        "Ġinteractive",
        -10.467508521745623
      ],
      [
        "Ġmine",
        -10.467684662601403
      ],
      [
        "Ġcompose",
        -10.467933562777343
      ],
      [
        "Ġcreativ",
        -10.4683238019153
      ],
      [
        "Ġease",
        -10.469170362863755
      ],
      [
        "ĠEnvironmental",
        -10.469780860011925
      ],
      [
        "Ġmarker",
        -10.470088862007437
      ],
      [
        "ĠCompany",
        -10.47053087379988
      ],
      [
        "ĠGarden",
        -10.471400597658768
      ],
      [
        "Ġwidth",
        -10.472731814002742
      ],
      [
        "ĠChildren",
        -10.472734770720178
      ],
      [
        "long",
        -10.473020214005995
      ],
      [
        "osis",
        -10.473160153616046
      ],
      [
        "Ġaquarium",
        -10.4731729225374
      ],
      [
        "Ġknife",
        -10.473174377020444
      ],
      [
        "rich",
        -10.47376021054088
      ],
      [
        "Ġsegment",
        -10.474042393035562
      ],
      [
        "Ġstrike",
        -10.474373712828474
      ],
      [
        "Ġsong",
        -10.475466316036696
      ],
      [
        "oster",
        -10.475693178106818
      ],
      [
        "^",
        -10.4764666393245
      ],
      [
        "Ġmount",
        -10.47676431622588
      ],
      [
        "Ġsubstances",
        -10.477040136045982
      ],
      [
        "Ġdigesti",
        -10.477502670753944
      ],
      [
        "Â",
        -10.478059968017057
      ],
      [
        "Ġgun",
        -10.478704107320844
      ],
      [
        "Ġnuclea",
        -10.478721027546282
      ],
      [
        "ĠLi",
        -10.478992619316056
      ],
      [
        "Where",
        -10.479216936611216
      ],
      [
        "Ġsnake",
        -10.47923394416289
      ],
      [
        "Ġturkey",
        -10.479235782725487
      ],
      [
        "ĠTree",
        -10.479254700193394
      ],
      [
        "Ġcommitment",
        -10.479262818914144
      ],
      [
        "Ġframework",
        -10.479428235141476
      ],
      [
        "Ġextent",
        -10.479466481174928
      ],
      [
        "Ġlinear",
        -10.479498444153917
      ],
      [
        "Ġtide",
        -10.47999037370963
      ],
      [
        "Ġpathway",
        -10.480117592746542
      ],
      [
        "king",
        -10.480140375295914
      ],
      [
        "Ġarms",
        -10.480378535908788
      ],
      [
        "ists",
        -10.481715413176092
      ],
      [
        "MS",
        -10.482185882107812
      ],
      [
        "Ġrecogni",
        -10.482885302448349
      ],
      [
        "Ġfoam",
        -10.482963246262193
      ],
      [
        "ĠMac",
        -10.482965259647225
      ],
      [
        "Ġreache",
        -10.484641884972756
      ],
      [
        "Ġgrind",
        -10.485077029169323
      ],
      [
        "Ġantibiotic",
        -10.485355477296634
      ],
      [
        "Ġtie",
        -10.485568094993685
      ],
      [
        "Ġembodiment",
        -10.48573297602014
      ],
      [
        "Ġflame",
        -10.485903992984133
      ],
      [
        "Ġspeaking",
        -10.486083405437316
      ],
      [
        "Ġwherea",
        -10.486123807280697
      ],
      [
        "Ġgiant",
        -10.486238801939942
      ],
      [
        "Ġmeta",
        -10.488108520020312
      ],
      [
        "Ġpreserve",
        -10.49052939753
      ],
      [
        "ĠPe",
        -10.49055769589589
      ],
      [
        "Ġdesigner",
        -10.490749835421877
      ],
      [
        "ĠData",
        -10.491035458867469
      ],
      [
        "Ġsubsequent",
        -10.491465898057598
      ],
      [
        "Ġspirit",
        -10.491504889646643
      ],
      [
        "Ġcombat",
        -10.491518923748227
      ],
      [
        "Ġinitiative",
        -10.491624343011466
      ],
      [
        "Ġcattle",
        -10.492364599677678
      ],
      [
        "Ġindicator",
        -10.492466198627657
      ],
      [
        "Ġdive",
        -10.492668102824307
      ],
      [
        "Ġbend",
        -10.493407789032908
      ],
      [
        "Ġretain",
        -10.49390349440252
      ],
      [
        "ho",
        -10.4939152572273
      ],
      [
        "]ĊĊ",
        -10.494036181404637
      ],
      [
        "ĠUnderstand",
        -10.494503071893089
      ],
      [
        "ĠForce",
        -10.494567778905616
      ],
      [
        "ical",
        -10.496121238918375
      ],
      [
        "Ġstores",
        -10.496338303156886
      ],
      [
        "pp",
        -10.497007089457282
      ],
      [
        "light",
        -10.49732548961186
      ],
      [
        "Ġcord",
        -10.497346751587274
      ],
      [
        "Ġmapping",
        -10.497725061868657
      ],
      [
        "Ġtrends",
        -10.498403114492971
      ],
      [
        "-ray",
        -10.49850687117936
      ],
      [
        "Ġspike",
        -10.498745785072108
      ],
      [
        "Ġcopy",
        -10.49878225797572
      ],
[...]
