{
  "version": "1.0",
  "truncation": null,
  "padding": null,
  "added_tokens": [
    {
      "id": 0,
      "content": "<|bos|>",
      "single_word": false,
      "lstrip": false,
      "rstrip": false,
      "normalized": false,
      "special": true
    },
    {
      "id": 1,
      "content": "<|user_start|>",
      "single_word": false,
      "lstrip": false,
      "rstrip": false,
      "normalized": false,
      "special": true
    },
    {
      "id": 2,
      "content": "<|user_end|>",
      "single_word": false,
      "lstrip": false,
      "rstrip": false,
      "normalized": false,
      "special": true
    },
    {
      "id": 3,
      "content": "<|assistant_start|>",
      "single_word": false,
      "lstrip": false,
      "rstrip": false,
      "normalized": false,
      "special": true
    },
    {
      "id": 4,
      "content": "<|assistant_end|>",
      "single_word": false,
      "lstrip": false,
      "rstrip": false,
      "normalized": false,
      "special": true
    },
    {
      "id": 5,
      "content": "<|python_start|>",
      "single_word": false,
      "lstrip": false,
      "rstrip": false,
      "normalized": false,
      "special": true
    },
    {
      "id": 6,
      "content": "<|python_end|>",
      "single_word": false,
      "lstrip": false,
      "rstrip": false,
      "normalized": false,
      "special": true
    },
    {
      "id": 7,
      "content": "<|output_start|>",
      "single_word": false,
      "lstrip": false,
      "rstrip": false,
      "normalized": false,
      "special": true
    },
    {
      "id": 8,
      "content": "<|output_end|>",
      "single_word": false,
      "lstrip": false,
      "rstrip": false,
      "normalized": false,
      "special": true
    },
    {
      "id": 9,
      "content": "<|unk|>",
      "single_word": false,
      "lstrip": false,
      "rstrip": false,
      "normalized": false,
      "special": true
    }
  ],
  "normalizer": null,
  "pre_tokenizer": {
    "type": "Sequence",
    "pretokenizers": [
      {
        "type": "Split",
        "pattern": {
          "Regex": "'(?i:[sdmt]|ll|ve|re)|[^\\r\\n\\p{L}\\p{N}]?+\\p{L}+|\\p{N}{1,2}| ?[^\\s\\p{L}\\p{N}]++[\\r\\n]*|\\s*[\\r\\n]|\\s+(?!\\S)|\\s+"
        },
        "behavior": "Isolated",
        "invert": false
      },
      {
        "type": "ByteLevel",
        "add_prefix_space": false,
        "trim_offsets": true,
        "use_regex": false
      }
    ]
  },
  "post_processor": {
    "type": "TemplateProcessing",
    "single": [
      {
        "Sequence": {
          "id": "A",
          "type_id": 0
        }
      }
    ],
    "pair": [
      {
        "Sequence": {
          "id": "A",
          "type_id": 0
        }
      },
      {
        "Sequence": {
          "id": "B",
          "type_id": 1
        }
      }
    ],
    "special_tokens": {}
  },
  "decoder": null,
  "model": {
    "type": "Unigram",
    "unk_id": 9,
    "vocab": [
      [
        "<|bos|>",
        0.0
      ],
      [
        "<|user_start|>",
        0.0
      ],
      [
        "<|user_end|>",
        0.0
      ],
      [
        "<|assistant_start|>",
        0.0
      ],
      [
        "<|assistant_end|>",
        0.0
      ],
      [
        "<|python_start|>",
        0.0
      ],
      [
        "<|python_end|>",
        0.0
      ],
      [
        "<|output_start|>",
        0.0
      ],
      [
        "<|output_end|>",
        0.0
      ],
      [
        "<|unk|>",
        0.0
      ],
      [
        "Ġ",
        -2.091058957650459
      ],
      [
        "s",
        -3.169763473734214
      ],
      [
        ",",
        -3.5591514937709565
      ],
      [
        "Ġthe",
        -3.5938372468179
      ],
      [
        ".",
        -3.814161233249946
      ],
      [
        "a",
        -4.018348690953831
      ],
      [
        "Ġof",
        -4.300175341600678
      ],
      [
        "t",
        -4.374807139915328
      ],
      [
        "Ġand",
        -4.421635073433816
      ],
      [
        "Ġto",
        -4.521645266255229
      ],
      [
        "e",
        -4.527140300684723
      ],
      [
        "d",
        -4.542584106071121
      ],
      [
        "o",
        -4.567077962099862
      ],
      [
        "ing",
        -4.736364321050772
      ],
      [
        "Ġin",
        -4.871178815105509
      ],
      [
        "i",
        -4.94725678002812
      ],
      [
        "Ċ",
        -4.973860662252026
      ],
      [
        "y",
        -4.986157536146765
      ],
      [
        "'",
        -5.020016566564449
      ],
      [
        "0",
        -5.113316582183593
      ],
      [
        "and",
        -5.168597343025413
      ],
      [
        "Ġthat",
        -5.184402973158646
      ],
      [
        "n",
        -5.226846771302629
      ],
      [
        "Ġfor",
        -5.240676333758033
      ],
      [
        "1",
        -5.276483557021864
      ],
      [
        ":",
        -5.2861400968525025
      ],
      [
        ".ĊĊ",
        -5.425201978614773
      ],
      [
        "2",
        -5.457641045522541
      ],
      [
        "Ġyou",
        -5.462408415826394
      ],
      [
        "Ġwith",
        -5.523416981551774
      ],
      [
        "is",
        -5.545696059993745
      ],
      [
        ".Ċ",
        -5.640894570124262
      ],
      [
        "ly",
        -5.649390119486361
      ],
      [
        "r",
        -5.6998303931417365
      ],
      [
        "Ġare",
        -5.73380542098225
      ],
      [
        "Ġcan",
        -5.737931876954365
      ],
      [
        "f",
        -5.741383683474833
      ],
      [
        "Ġbe",
        -5.7496432010539245
      ],
      [
        "-",
        -5.849206904990794
      ],
      [
        "Ġis",
        -5.8573475873388166
      ],
      [
        "the",
        -5.857530195764381
      ],
      [
        "Ġyour",
        -5.898106653979365
      ],
      [
        "to",
        -5.942245372243198
      ],
      [
        "(",
        -5.9493598929642815
      ],
      [
        "ĊĊ",
        -5.999044754908947
      ],
      [
        "I",
        -6.0042710616276995
      ],
      [
        "on",
        -6.018207302847218
      ],
      [
        "Ġhave",
        -6.0514272952807815
      ],
      [
        "Ġfrom",
        -6.068004160399553
      ],
      [
        "\"",
        -6.0695578273754
      ],
      [
        "in",
        -6.0877616142105
      ],
      [
        ")",
        -6.119905698066695
      ],
      [
        "3",
        -6.125632358645216
      ],
      [
        "ĠThe",
        -6.172171911491304
      ],
      [
        "5",
        -6.173086504288905
      ],
      [
        "ed",
        -6.183469146266109
      ],
      [
        "?",
        -6.206212851652614
      ],
      [
        "Ġthis",
        -6.2367121166611135
      ],
      [
        "Ġby",
        -6.277591940132533
      ],
      [
        "4",
        -6.308083596272224
      ],
      [
        "of",
        -6.312941749115268
      ],
      [
        "The",
        -6.315240918545838
      ],
      [
        "Ġnot",
        -6.349399296794632
      ],
      [
        "Ġwill",
        -6.354707080906186
      ],
      [
        "Ġtheir",
        -6.3713629593831715
      ],
      [
        "it",
        -6.440841229744711
      ],
      [
        "l",
        -6.4559497740026295
      ],
      [
        "ĠI",
        -6.457642029897642
      ],
      [
        "Ġa",
        -6.4605999936272624
      ],
      [
        "9",
        -6.462481819381372
      ],
      [
        "are",
        -6.5299046485646866
      ],
      [
        "Ġwas",
        -6.546178651292051
      ],
      [
        "or",
        -6.550734442787478
      ],
      [
        "Ġor",
        -6.553343344031006
      ],
      [
        "Ġthey",
        -6.564699155539783
      ],
      [
        "Ġmore",
        -6.568961263238021
      ],
      [
        "Ġan",
        -6.580649522009859
      ],
      [
        "6",
        -6.5824059578090885
      ],
      [
        "m",
        -6.6380700562594335
      ],
      [
        "8",
        -6.6427502727144425
      ],
      [
        "A",
        -6.648651487791895
      ],
      [
        "g",
        -6.680408832407268
      ],
      [
        "Ġwhich",
        -6.686821941638682
      ],
      [
        "Ġbut",
        -6.699824541868546
      ],
      [
        "Question",
        -6.70189716625163
      ],
      [
        "Ġas",
        -6.714806973344611
      ],
      [
        "7",
        -6.73998859117418
      ],
      [
        "Ġalso",
        -6.7524309573517645
      ],
      [
        "ĠAnswer",
        -6.782628807842656
      ],
      [
        "Ġhas",
        -6.790427410044165
      ],
      [
        "Ġwe",
        -6.831396997772693
      ],
      [
        "Ġabout",
        -6.903017811195896
      ],
      [
        "Ġwhen",
        -6.903593250738025
      ],
      [
        "c",
        -6.911983542006169
      ],
      [
        "h",
        -6.920914242665658
      ],
      [
        "Ġtime",
        -7.015561581437673
      ],
      [
        "Ġthem",
        -7.018715940212285
      ],
      [
        "Ġlike",
        -7.023714361963517
      ],
      [
        "Ġother",
        -7.04658821259642
      ],
      [
        "Ġinto",
        -7.050686711270252
      ],
      [
        "Ġmay",
        -7.052597056268054
      ],
      [
        "Ġall",
        -7.104760244683948
      ],
      [
        "an",
        -7.1148011862423814
      ],
      [
        "Ġout",
        -7.123242457577161
      ],
      [
        "Ġhow",
        -7.140197150293009
      ],
      [
        "Ġsome",
        -7.145126170316695
      ],
      [
        "Ġthere",
        -7.178489895707893
      ],
      [
        "Ġwater",
        -7.178666981488277
      ],
      [
        "ĠThis",
        -7.1911314563918705
      ],
      [
        "Ġwhat",
        -7.195755429555552
      ],
      [
        "Ġneed",
        -7.196889615865194
      ],
      [
        "Ġthese",
        -7.203221256382813
      ],
      [
        "Ġthan",
        -7.20756475429252
      ],
      [
        "Ġup",
        -7.212865645048522
      ],
      [
        "one",
        -7.253822260793933
      ],
      [
        "Ġuse",
        -7.270420591236212
      ],
      [
        "u",
        -7.2911746291323745
      ],
      [
        "Ġit",
        -7.300848514168933
      ],
      [
        "Ġwere",
        -7.3212276137705565
      ],
      [
        "Ġpeople",
        -7.3303736465318305
      ],
      [
        "ĠIt",
        -7.334289227588078
      ],
      [
        "b",
        -7.335814986116706
      ],
      [
        "Ġused",
        -7.341983852937961
      ],
      [
        "Ġbeen",
        -7.343435964439905
      ],
      [
        "ĠA",
        -7.350317121132186
      ],
      [
        "Ġwould",
        -7.352355856678363
      ],
      [
        "Ġshould",
        -7.355732522073477
      ],
      [
        "Ġhelp",
        -7.355953210959482
      ],
      [
        "Ġmake",
        -7.360223722001452
      ],
      [
        "Ġsuch",
        -7.360688215510839
      ],
      [
        "What",
        -7.381843298068182
      ],
      [
        "Ġon",
        -7.383424537301364
      ],
      [
        "ĠIn",
        -7.3847808384065985
      ],
      [
        "ĠWhat",
        -7.39093861512592
      ],
      [
        "as",
        -7.39102564420452
      ],
      [
        "Ġmost",
        -7.3929947404394145
      ],
      [
        "Ġwho",
        -7.404230080225364
      ],
      [
        "Ġnew",
        -7.410717043120183
      ],
      [
        "Ġonly",
        -7.416724237016828
      ],
      [
        "Ġdo",
        -7.417703983196775
      ],
      [
        "at",
        -7.430034358636092
      ],
      [
        "ies",
        -7.451857513514245
      ],
      [
        "Ġany",
        -7.4557577070866365
      ],
      [
        "Ġmany",
        -7.456564510404888
      ],
      [
        "Ġjust",
        -7.462255572813552
      ],
      [
        ";",
        -7.463019035728177
      ],
      [
        "w",
        -7.4933090126892115
      ],
      [
        "/",
        -7.502600159131674
      ],
      [
        "Ġget",
        -7.509802583428568
      ],
      [
        "Ġover",
        -7.515583823979295
      ],
      [
        "p",
        -7.5185787118201315
      ],
      [
        "Ġ(",
        -7.524209256621148
      ],
      [
        "Ġdifferent",
        -7.526022841369549
      ],
      [
        "Ġbetween",
        -7.529828786996946
      ],
      [
        "Ġfirst",
        -7.542189460312546
      ],
      [
        "Ġwork",
        -7.561049565620886
      ],
      [
        "Ġhigh",
        -7.570399649049023
      ],
      [
        "Ġthrough",
        -7.571515182727458
      ],
      [
        "?Ċ",
        -7.5769608657655105
      ],
      [
        "Ġtwo",
        -7.594029052546645
      ],
      [
        "Ġwell",
        -7.613110977550312
      ],
      [
        "Ġmy",
        -7.62118635722412
      ],
      [
        "Ġcould",
        -7.623904300567128
      ],
      [
        "Ġwhere",
        -7.631119850322127
      ],
      [
        "Ġbecaus",
        -7.653917543432256
      ],
      [
        "re",
        -7.65486076183708
      ],
      [
        "This",
        -7.656122418604712
      ],
      [
        "able",
        -7.657610362339005
      ],
      [
        "!",
        -7.65944783388065
      ],
      [
        "for",
        -7.668224029985304
      ],
      [
        "our",
        -7.6833010975783935
      ],
      [
        "S",
        -7.706859689024977
      ],
      [
        "?ĊĊ",
        -7.715882215894334
      ],
      [
        "ever",
        -7.73084528606088
      ],
      [
        "Ġsystem",
        -7.735897712565375
      ],
      [
        "Ġprovide",
        -7.7411165099079025
      ],
      [
        "Ġlook",
        -7.74173911972229
      ],
      [
        "Ġmuch",
        -7.745761985097825
      ],
      [
        "Ġimportant",
        -7.766650476085237
      ],
      [
        "Ġeven",
        -7.770195310532417
      ],
      [
        "Ġlong",
        -7.770552113652606
      ],
      [
        "Ġknow",
        -7.770833738877537
      ],
      [
        "Ġdoes",
        -7.771389133920762
      ],
      [
        "Ġone",
        -7.780649337773957
      ],
      [
        "Ġfood",
        -7.791994579311847
      ],
      [
        "Ġgood",
        -7.804728326169284
      ],
      [
        "Ġway",
        -7.807531910270924
      ],
      [
        "us",
        -7.816466714151902
      ],
      [
        "Ġhealth",
        -7.817477416574198
      ],
      [
        "How",
        -7.822030015068616
      ],
      [
        "Ġyears",
        -7.839420721824515
      ],
      [
        "ĠThey",
        -7.839683330804567
      ],
      [
        "Ġbefore",
        -7.8440598595720274
      ],
      [
        "ĠYou",
        -7.845640873408708
      ],
      [
        "Ġbeing",
        -7.847752035002651
      ],
      [
        "Ġtake",
        -7.851468284195624
      ],
      [
        "Ġi",
        -7.858356274643173
      ],
      [
        "Ġafter",
        -7.876820955115432
      ],
      [
        "Ġcause",
        -7.880564019159024
      ],
      [
        "Ġusing",
        -7.893961752846927
      ],
      [
        "all",
        -7.897421604037467
      ],
      [
        "Ġwant",
        -7.898562051748222
      ],
      [
        "D",
        -7.904976157122571
      ],
      [
        "Ġworld",
        -7.912862042068726
      ],
      [
        ").",
        -7.920897900327741
      ],
      [
        "C",
        -7.922036859122324
      ],
      [
        "Ġsame",
        -7.922240871344112
      ],
      [
        "Ġits",
        -7.924750696825569
      ],
      [
        "Ġenergy",
        -7.931738656954778
      ],
      [
        "Ġinclude",
        -7.934707812580323
      ],
      [
        "T",
        -7.935335638805682
      ],
      [
        "In",
        -7.93561899235651
      ],
      [
        "Ġlife",
        -7.943821474684865
      ],
      [
        "Ġevery",
        -7.945992666148726
      ],
      [
        "Ġboth",
        -7.947089024041407
      ],
      [
        "Ġthose",
        -7.950968033249083
      ],
      [
        "Ġwhile",
        -7.95483042574546
      ],
      [
        "Ġaround",
        -7.960840074836494
      ],
      [
        "Ġdata",
        -7.978241332506107
      ],
      [
        "Ġduring",
        -7.987902295723742
      ],
      [
        "Ġback",
        -7.987963410957029
      ],
      [
        "be",
        -7.994176219634872
      ],
      [
        "Ġhad",
        -7.998519886764448
      ],
      [
        "Ġpart",
        -8.002707575340754
      ],
      [
        "ve",
        -8.006038475913877
      ],
      [
        "Ġsmall",
        -8.01023957828784
      ],
      [
        "Ġoften",
        -8.018070552913763
      ],
      [
        "Ġcome",
        -8.018613961673584
      ],
      [
        "Ġdown",
        -8.019027320818651
      ],
      [
        "Ġbest",
        -8.023121112619064
      ],
      [
        "Ġprocess",
        -8.025441380660759
      ],
      [
        "%",
        -8.025979633342079
      ],
      [
        "Ġour",
        -8.035243152508738
      ],
      [
        "by",
        -8.040599614511533
      ],
      [
        "Ġarea",
        -8.041703458338226
      ],
      [
        "Ġdon",
        -8.044391502401915
      ],
      [
        "Ġbody",
        -8.044470317879187
      ],
      [
        "Ġfind",
        -8.047588713754475
      ],
      [
        "that",
        -8.050283012488197
      ],
      [
        "x",
        -8.056346748391453
      ],
      [
        "Ġfound",
        -8.065379930206516
      ],
      [
        "Ġrequire",
        -8.06754650521224
      ],
      [
        "Ġsee",
        -8.067701746494281
      ],
      [
        "its",
        -8.075585821309419
      ],
      [
        "he",
        -8.078925089229271
      ],
      [
        "Ġyear",
        -8.083121437399395
      ],
      [
        "other",
        -8.084078970684313
      ],
      [
        "ĠWe",
        -8.092345334374748
      ],
      [
        "Ġincrease",
        -8.097773123587066
      ],
      [
        "Ġright",
        -8.099543390678226
      ],
      [
        "Ġhome",
        -8.099620698021202
      ],
      [
        "ĠHow",
        -8.108166862170014
      ],
      [
        "Ġday",
        -8.111520572567807
      ],
      [
        "),",
        -8.116436101626016
      ],
      [
        "Ġinformation",
        -8.116839213462589
      ],
      [
        "Ġmade",
        -8.11917058897321
      ],
      [
        "Ġsaid",
        -8.120556961566558
      ],
      [
        "Ġhis",
        -8.124102920726019
      ],
      [
        "Ġlight",
        -8.129856878841403
      ],
      [
        "Ġlarge",
        -8.13162634067629
      ],
      [
        "Ġnumber",
        -8.133614293970986
      ],
      [
        "Ġstudents",
        -8.134192274407848
      ],
      [
        "Ġtemperature",
        -8.14419839072008
      ],
      [
        "Ġno",
        -8.148820810567715
      ],
      [
        "ĠâĢĵ",
        -8.151986112247132
      ],
      [
        "can",
        -8.15497871929084
      ],
      [
        "less",
        -8.155323053106313
      ],
      [
        "Ġkeep",
        -8.163878779147868
      ],
      [
        "Ġmight",
        -8.169355286463695
      ],
      [
        "es",
        -8.172290523471576
      ],
      [
        "Ġcondition",
        -8.173153158177522
      ],
      [
        "ĠFor",
        -8.173393279933968
      ],
      [
        "Ġbetter",
        -8.174217315637582
      ],
      [
        "ness",
        -8.176102476211733
      ],
      [
        "Ġresearch",
        -8.177663447775597
      ],
      [
        "Ġstudy",
        -8.178255370826353
      ],
      [
        "Ġvery",
        -8.179343230212961
      ],
      [
        "If",
        -8.192027533061454
      ],
      [
        "Ġspecies",
        -8.193954143518116
      ],
      [
        "al",
        -8.197759236596703
      ],
      [
        "âĢĵ",
        -8.201630081005021
      ],
      [
        "Ġwithout",
        -8.201664632874717
      ],
      [
        "Ġpower",
        -8.20214597346833
      ],
      [
        "Ġhuman",
        -8.202559479260128
      ],
      [
        "Ġbecome",
        -8.207637938217882
      ],
      [
        "ability",
        -8.21019177704573
      ],
      [
        "Ġexample",
        -8.21151934587309
      ],
      [
        "Ġchange",
        -8.217442859529728
      ],
      [
        "Ġdog",
        -8.221680701869257
      ],
      [
        "When",
        -8.222546572081463
      ],
      [
        "âĢĻ",
        -8.22826497262114
      ],
      [
        "Ġthink",
        -8.232910819611234
      ],
      [
        "Ġplant",
        -8.232966819932749
      ],
      [
        "Ġstart",
        -8.237044707175688
      ],
      [
        "Ġgreat",
        -8.238414657329816
      ],
      [
        "Ġcontrol",
        -8.24385576061981
      ],
      [
        "Ġplants",
        -8.24447999701314
      ],
      [
        "B",
        -8.24700686937828
      ],
      [
        "Ġstill",
        -8.247952147080074
      ],
      [
        "Ġcommon",
        -8.250031028113682
      ],
      [
        ":ĊĊ",
        -8.253739378758302
      ],
      [
        "Ġpotential",
        -8.257840913825923
      ],
      [
        "ĠThese",
        -8.261685504187158
      ],
      [
        "Ġunder",
        -8.268328028219623
      ],
      [
        "ĠC",
        -8.268720368798613
      ],
      [
        "Ġoff",
        -8.270407563741667
      ],
      [
        "Ġcreate",
        -8.27404014469542
      ],
      [
        "Ġfew",
        -8.280145273386633
      ],
      [
        "ity",
        -8.280862319712758
      ],
      [
        "Ġcar",
        -8.290302924157109
      ],
      [
        "Ġthree",
        -8.29889566849373
      ],
      [
        "Ġgive",
        -8.30315592424017
      ],
      [
        "use",
        -8.305287373106781
      ],
      [
        "if",
        -8.306887509135121
      ],
      [
        "Ġeach",
        -8.312703463189314
      ],
      [
        "Ġnatural",
        -8.321741021515692
      ],
      [
        "Ġdisease",
        -8.321921723143442
      ],
      [
        "Ġmust",
        -8.323297040370415
      ],
      [
        "Ġair",
        -8.32408459652908
      ],
      [
        "Ġwithin",
        -8.324487230302223
      ],
      [
        "Ġchildren",
        -8.327090377664977
      ],
      [
        "Ġschool",
        -8.336433056373808
      ],
      [
        "Ġgroup",
        -8.338055841617193
      ],
      [
        "Ġthings",
        -8.338060774331089
      ],
      [
        "Ġgrow",
        -8.346210975109145
      ],
      [
        "Ġplace",
        -8.35184563684261
      ],
      [
        "ĠTo",
        -8.351846192251328
      ],
      [
        "Ġtype",
        -8.356797332932015
      ],
      [
        "ĠBut",
        -8.357942094768868
      ],
      [
        "based",
        -8.362313212859055
      ],
      [
        "ll",
        -8.363809217184242
      ],
      [
        "ĠAnd",
        -8.363873821562864
      ],
      [
        "more",
        -8.36432209548251
      ],
      [
        "Ġrisk",
        -8.365681727279714
      ],
      [
        "Ġenvironment",
        -8.369854903027507
      ],
      [
        "not",
        -8.372552905795763
      ],
      [
        "...",
        -8.373704954158935
      ],
      [
        "Ġsupport",
        -8.374315726919429
      ],
      [
        "Ġreduce",
        -8.379288126530456
      ],
      [
        "Ġdesign",
        -8.386034656864668
      ],
      [
        "you",
        -8.390889521415026
      ],
      [
        "each",
        -8.396931778836471
      ],
      [
        "Ġreally",
        -8.397230773070515
      ],
      [
        "Ġexperience",
        -8.397987363701468
      ],
      [
        "ĠB",
        -8.405151158075643
      ],
      [
        "âĢĶ",
        -8.405890405000754
      ],
      [
        "very",
        -8.407145701353894
      ],
      [
        "Ġblood",
        -8.4102247525392
      ],
      [
        "Ġat",
        -8.413371920978697
      ],
      [
        "Ġcalled",
        -8.415487679159902
      ],
      [
        "Ġproject",
        -8.415567596889447
      ],
      [
        "You",
        -8.421681638492826
      ],
      [
        "Ġprevent",
        -8.42250968385811
      ],
      [
        "k",
        -8.42951706935786
      ],
      [
        "Ġlevel",
        -8.429887745476469
      ],
      [
        "Ġgo",
        -8.430556578535345
      ],
      [
        "Ġanother",
        -8.441160127915067
      ],
      [
        "Ġform",
        -8.442639192639021
      ],
      [
        "Ġbenefit",
        -8.44594898913844
      ],
      [
        "Ġensure",
        -8.452932695196251
      ],
      [
        "Ġvalue",
        -8.453404250963679
      ],
      [
        "Ġfollowing",
        -8.459985908520542
      ],
      [
        "ally",
        -8.463876297033618
      ],
      [
        "Ġproblem",
        -8.464751526064568
      ],
      [
        "Ġknown",
        -8.46489445758008
      ],
      [
        "Ġvarious",
        -8.466990325532649
      ],
      [
        "with",
        -8.467101324968237
      ],
      [
        "Ġsomething",
        -8.46840090407228
      ],
      [
        "Ġwhy",
        -8.478923391412906
      ],
      [
        "v",
        -8.480023254458892
      ],
      [
        "Ġdue",
        -8.484870506722343
      ],
      [
        "Ġalways",
        -8.48565297600105
      ],
      [
        "Ġamount",
        -8.485700486297658
      ],
      [
        "Ġplay",
        -8.486997994083783
      ],
      [
        "Ġshow",
        -8.48902120447947
      ],
      [
        "!Ċ",
        -8.492817994657951
      ],
      [
        "Ġpossible",
        -8.497570491550405
      ],
      [
        "using",
        -8.501240215796326
      ],
      [
        "Ġpoint",
        -8.506574718712617
      ],
      [
        "Ġspecific",
        -8.510071228487647
      ],
      [
        "There",
        -8.514667784862485
      ],
      [
        "Ġb",
        -8.522171362319138
      ],
      [
        "Ġlittle",
        -8.525226509122326
      ],
      [
        "Ġlead",
        -8.525393683020788
      ],
      [
        "Ġso",
        -8.528508502148803
      ],
      [
        "Ġt",
        -8.532156563683111
      ],
      [
        "Ġresult",
        -8.532605163773646
      ],
      [
        "Ġmain",
        -8.544219218044823
      ],
      [
        "Ġsoil",
        -8.549181266615989
      ],
      [
        "Ġnow",
        -8.550858834749278
      ],
      [
        "Ġcurrent",
        -8.552038789440822
      ],
      [
        "Ġcolor",
        -8.552890381202175
      ],
      [
        "Ġher",
        -8.553175032526665
      ],
      [
        "Ġgoing",
        -8.554251400527114
      ],
      [
        "Ġlearn",
        -8.561340536669327
      ],
      [
        "up",
        -8.564583486867948
      ],
      [
        "Ġrange",
        -8.56707924576727
      ],
      [
        "Ġheat",
        -8.568060575264003
      ],
      [
        ":Ċ",
        -8.568595752414042
      ],
      [
        "$",
        -8.569193182180737
      ],
      [
        "E",
        -8.571714482284815
      ],
      [
        "Ġdevelopment",
        -8.57355186500127
      ],
      [
        "W",
        -8.574617316378468
      ],
      [
        "Ġmaking",
        -8.57585905120232
      ],
      [
        "ĠSo",
        -8.576075681757851
      ],
      [
        "Ġfactor",
        -8.577792081962954
      ],
      [
        "Ġcare",
        -8.579378535444677
      ],
      [
        "Ġdid",
        -8.581011820437418
      ],
      [
        "=",
        -8.584022629730933
      ],
      [
        "way",
        -8.590660545295556
      ],
      [
        "Ġspace",
        -8.595928257124102
      ],
      [
        "Ġanimals",
        -8.601617013840837
      ],
      [
        "Ġmodel",
        -8.60314464314651
      ],
      [
        "Ġtext",
        -8.605457544776847
      ],
      [
        "Ġlearning",
        -8.605773851896283
      ],
      [
        "um",
        -8.609630035057439
      ],
      [
        "Ġquality",
        -8.610444938178816
      ],
      [
        "Ġenough",
        -8.612677082058333
      ],
      [
        "Ġseveral",
        -8.61272798762055
      ],
      [
        "Ġincludin",
        -8.61279661330337
      ],
      [
        "O",
        -8.618062307815737
      ],
      [
        "Ġth",
        -8.61812908776336
      ],
      [
        "ation",
        -8.618196541001675
      ],
      [
        "Ġtree",
        -8.622037622513085
      ],
      [
        "Ġfish",
        -8.626828244811032
      ],
      [
        "Ġessential",
        -8.627043404948394
      ],
      [
        "Ġdevelop",
        -8.629588054474718
      ],
      [
        "M",
        -8.632319175490458
      ],
      [
        "Ġtogether",
        -8.632935520127937
      ],
      [
        "Ġdamage",
        -8.63760949472683
      ],
      [
        "Ġavailable",
        -8.638519093088927
      ],
      [
        "Ġfeel",
        -8.640719621120258
      ],
      [
        "Ġteam",
        -8.641386771339526
      ],
      [
        "Ġindividual",
        -8.64389091465338
      ],
      [
        "th",
        -8.647307588374662
      ],
      [
        "Ġhappen",
        -8.64843993830296
      ],
      [
        "Ġsize",
        -8.649060806777861
      ],
      [
        "Ġcertain",
        -8.649233694490079
      ],
      [
        "Ġweek",
        -8.653735670457664
      ],
      [
        "used",
        -8.655064802493776
      ],
      [
        "have",
        -8.659856223946313
      ],
      [
        "Ġleave",
        -8.661685066261748
      ],
      [
        "how",
        -8.661797409999622
      ],
      [
        "Ġme",
        -8.662182444650528
      ],
      [
        "Ġmean",
        -8.662238981921568
      ],
      [
        "Ġper",
        -8.664508617095247
      ],
      [
        "Ġfunction",
        -8.664540915330207
      ],
      [
        "Ġpressure",
        -8.664551397307175
      ],
      [
        "Ġsurface",
        -8.666544748770164
      ],
      [
        "ĠAs",
        -8.667703109300657
      ],
      [
        "Ġgeneral",
        -8.668651703847317
      ],
      [
        "Ġmethod",
        -8.668888981519249
      ],
      [
        "Ġlocal",
        -8.66998987897714
      ],
      [
        "ĠS",
        -8.67024707784907
      ],
      [
        "Ġlive",
        -8.67071679596356
      ],
      [
        "ĠThere",
        -8.675949956820613
      ],
      [
        "Ġproblems",
        -8.6765753325665
      ],
      [
        "Ġimpact",
        -8.677056451407186
      ],
      [
        "ĠM",
        -8.67891809035185
      ],
      [
        "Ġend",
        -8.681398338476143
      ],
      [
        "age",
        -8.682289055044558
      ],
      [
        "+",
        -8.684398727868668
      ],
      [
        "Ġmaterial",
        -8.688292950555006
      ],
      [
        "Ġstate",
        -8.69035126301473
      ],
      [
        "Ġtreatment",
        -8.691042417399
      ],
      [
        "Ġsince",
        -8.6965971529871
      ],
      [
        "Ġperson",
        -8.697434207095652
      ],
      [
        "Ġproduce",
        -8.698138086824457
      ],
      [
        "Ġunderstand",
        -8.699109003484129
      ],
      [
        "Ġresults",
        -8.700097574108224
      ],
      [
        "Ġsolution",
        -8.700259747157851
      ],
      [
        "Ġgarden",
        -8.701129151661453
      ],
      [
        "Ġadd",
        -8.70340098660907
      ],
      [
        "own",
        -8.704092137000035
      ],
      [
        "[",
        -8.706460907277151
      ],
      [
        "Ġhere",
        -8.707619880703199
      ],
      [
        "Ġweight",
        -8.707887881987173
      ],
      [
        "Ġdirect",
        -8.70832052385547
      ],
      [
        "Ġtest",
        -8.709700208249783
      ],
      [
        "P",
        -8.712178975996606
      ],
      [
        "Ġopen",
        -8.71497917020225
      ],
      [
        "Ġcells",
        -8.715943028229667
      ],
      [
        "Ġsure",
        -8.721353056975012
      ],
      [
        "Ġprogram",
        -8.722986443062204
      ],
      [
        "Ġfree",
        -8.726096046114952
      ],
      [
        "Ġuntil",
        -8.726837817386288
      ],
      [
        "Ġdifference",
        -8.727760240317146
      ],
      [
        "Ġorder",
        -8.72842375098464
      ],
      [
        "Ġmakes",
        -8.729316779348512
      ],
      [
        "Ġconsider",
        -8.729359990358752
      ],
      [
        "Ġacid",
        -8.729764609129894
      ],
      [
        "thing",
        -8.730313052010585
      ],
      [
        "Ġobject",
        -8.732556463691218
      ],
      [
        "means",
        -8.73340217196397
      ],
      [
        "Ġneeds",
        -8.735067168719258
      ],
      [
        "ar",
        -8.735691996958485
      ],
      [
        "Ġtypes",
        -8.736038699022586
      ],
      [
        "Ġname",
        -8.738171775378175
      ],
      [
        "Ġdiet",
        -8.740916960919563
      ],
      [
        "Ġlevels",
        -8.742870513978566
      ],
      [
        "Ġalong",
        -8.74478543696952
      ],
      [
        "Ġprotein",
        -8.748602772502766
      ],
      [
        "Ġpractice",
        -8.750263909010888
      ],
      [
        "this",
        -8.754627472505003
      ],
      [
        "Ġcase",
        -8.761159974558664
      ],
      [
        "Ġturn",
        -8.762158788360797
      ],
      [
        "Ġterm",
        -8.762175416326542
      ],
      [
        "Ġcost",
        -8.7623612391201
      ],
      [
        "Ġtechnology",
        -8.764979741699088
      ],
      [
        "For",
        -8.765532835346697
      ],
      [
        "Ġpresent",
        -8.765866726304136
      ],
      [
        "Ġproducts",
        -8.76682668500326
      ],
      [
        "Ġfamily",
        -8.76740564723713
      ],
      [
        "Ġsecond",
        -8.768224118668755
      ],
      [
        "Ġmaintain",
        -8.770871209926993
      ],
      [
        "ĠWhich",
        -8.771636872030125
      ],
      [
        "Ġnon",
        -8.773486232569898
      ],
      [
        "Ġnext",
        -8.77387154668656
      ],
      [
        "Ġkind",
        -8.77609456964673
      ],
      [
        "Ġallow",
        -8.77678707017376
      ],
      [
        "Ġsystems",
        -8.777384036786788
      ],
      [
        "from",
        -8.7779618910113
      ],
      [
        "most",
        -8.77891327790356
      ],
      [
        "ĠWhen",
        -8.780666350425538
      ],
      [
        "&",
        -8.784656590279067
      ],
      [
        "Ġhaving",
        -8.78870798856224
      ],
      [
        "Ġplan",
        -8.791995487140856
      ],
      [
        "Ġhigher",
        -8.797585406298012
      ],
      [
        "Ġbusiness",
        -8.799108302716105
      ],
      [
        "Ġdogs",
        -8.801694035762385
      ],
      [
        "Ġlikely",
        -8.803862564642152
      ],
      [
        "Ġmaterials",
        -8.805957649405899
      ],
      [
        "Ġvariet",
        -8.80673179959592
      ],
      [
        "ĠE",
        -8.8088568244359
      ],
      [
        "Ġhard",
        -8.809721321186593
      ],
      [
        "Ġthen",
        -8.81038067271404
      ],
      [
        "F",
        -8.810552339758692
      ],
      [
        "Ġwide",
        -8.810800522493277
      ],
      [
        "Ġsimilar",
        -8.814190027505823
      ],
      [
        "Ġsimple",
        -8.81572305771303
      ],
      [
        "ĠBy",
        -8.815973684366604
      ],
      [
        "Ġchanges",
        -8.816143725999105
      ],
      [
        "Ġput",
        -8.821074718369388
      ],
      [
        "Ġrole",
        -8.822285257725454
      ],
      [
        "Ġphysical",
        -8.823158284640925
      ],
      [
        "about",
        -8.823282377986933
      ],
      [
        "Ġhand",
        -8.825819317941349
      ],
      [
        "ĠThat",
        -8.82829821984588
      ],
      [
        "Ġgiven",
        -8.828481199481473
      ],
      [
        "Ġcourse",
        -8.831597282849488
      ],
      [
        "Ġdoesn",
        -8.833398435341786
      ],
      [
        "Ġunique",
        -8.835095406651027
      ],
      [
        "Ġtimes",
        -8.836308574021231
      ],
      [
        "Ġdepend",
        -8.836437336053386
      ],
      [
        "ĠUniversity",
        -8.836780763135614
      ],
      [
        "H",
        -8.837489277301843
      ],
      [
        "Ġtop",
        -8.838023365358094
      ],
      [
        ")ĊĊ",
        -8.838072015273497
      ],
      [
        "Ġeasy",
        -8.840075363625346
      ],
      [
        "Ġgrowth",
        -8.841136191726262
      ],
      [
        "Ġavoid",
        -8.841236270288654
      ],
      [
        "Ġactually",
        -8.842548756269
      ],
      [
        "where",
        -8.843654315549076
      ],
      [
        "has",
        -8.84436716611469
      ],
      [
        "Ġlot",
        -8.844922720368034
      ],
      [
        "Ġfield",
        -8.846327805522222
      ],
      [
        "Ġfuture",
        -8.846839071768823
      ],
      [
        "Ġacross",
        -8.849566964881092
      ],
      [
        "Ġaway",
        -8.851234523890877
      ],
      [
        "least",
        -8.851421960499541
      ],
      [
        "Ġskin",
        -8.851627081061965
      ],
      [
        "Ġpopulation",
        -8.85350580501595
      ],
      [
        "Ġlove",
        -8.853934388159834
      ],
      [
        "Ġeffective",
        -8.854740080365996
      ],
      [
        "Ġproper",
        -8.858158077760944
      ],
      [
        "Ġworking",
        -8.860888546687086
      ],
      [
        "Ġkey",
        -8.861184735106555
      ],
      [
        "Ġprofessional",
        -8.86205886311377
      ],
      [
        "Ġcheck",
        -8.86488608853524
      ],
      [
        "Ġside",
        -8.866000976211064
      ],
      [
        "Ġsingle",
        -8.866999466574025
      ],
      [
        "ĠHe",
        -8.867981258406669
      ],
      [
        "Ġlow",
        -8.873186693423683
      ],
      [
        "Ġfocus",
        -8.873907329592488
      ],
      [
        "Ġstep",
        -8.875174912900349
      ],
      [
        "Ġshort",
        -8.876136468368625
      ],
      [
        "Ġset",
        -8.878849364258725
      ],
      [
        "ĠD",
        -8.879755213635516
      ],
      [
        "Ġespecially",
        -8.880116854337633
      ],
      [
        "Ġanimal",
        -8.882788782287744
      ],
      [
        "Ġmillion",
        -8.883219974356907
      ],
      [
        "Ġsuggest",
        -8.884453999959074
      ],
      [
        "Ġoccur",
        -8.885090158480791
      ],
      [
        "Ġissues",
        -8.886096810452743
      ],
      [
        "against",
        -8.886487096644512
      ],
      [
        "which",
        -8.887209079555534
      ],
      [
        "Ġnever",
        -8.887642238496603
      ],
      [
        "Ġvideo",
        -8.888531252759677
      ],
      [
        "Ġpaper",
        -8.890805087094357
      ],
      [
        "Ġsocial",
        -8.899064739151997
      ],
      [
        "ĠAmerican",
        -8.899262543563673
      ],
      [
        "time",
        -8.89956749724126
      ],
      [
        "Ġspeed",
        -8.90080016689917
      ],
      [
        "Ġdifficult",
        -8.901438770324578
      ],
      [
        "We",
        -8.903839943937182
      ],
      [
        "Ġaccording",
        -8.90416885092084
      ],
      [
        "Ġchild",
        -8.904755558082842
      ],
      [
        "Ġreal",
        -8.905411941349378
      ],
      [
        "Ġimage",
        -8.905507342602366
      ],
      [
        "Ġclose",
        -8.906919623390879
      ],
      [
        "Ġoffer",
        -8.909196119635697
      ],
      [
        "Ġfull",
        -8.910122416729813
      ],
      [
        "Ġregular",
        -8.911494331131957
      ],
      [
        "er",
        -8.912031199343367
      ],
      [
        "Ġminute",
        -8.915497813418668
      ],
      [
        "ĠWith",
        -8.916198889715993
      ],
      [
        "Ġtoday",
        -8.916787986480184
      ],
      [
        "but",
        -8.9183650903232
      ],
      [
        "Ġimprove",
        -8.918630074245879
      ],
      [
        "*",
        -8.920084719263224
      ],
      [
        "Ġcell",
        -8.920314793527085
      ],
      [
        "make",
        -8.920530167048117
      ],
      [
        "Ġsay",
        -8.920627581914975
      ],
      [
        "Ġwhite",
        -8.921201197520944
      ],
      [
        "your",
        -8.922882149590123
      ],
      [
        "Ġheart",
        -8.923579639222984
      ],
      [
        "Ġrecommend",
        -8.923664587156113
      ],
      [
        "Ġstore",
        -8.92651895554421
      ],
      [
        "Ġcomputer",
        -8.928490660115887
      ],
      [
        "Ġquestion",
        -8.929695734933574
      ],
      [
        "N",
        -8.932675592355071
      ],
      [
        "Ġsignificant",
        -8.933960783390825
      ],
      [
        "Ġabove",
        -8.934547098062525
      ],
      [
        "activity",
        -8.936480235399324
      ],
      [
        "Ġshe",
        -8.936532697409412
      ],
      [
        "Ġhealthy",
        -8.937585084640798
      ],
      [
        "ĠSome",
        -8.940968950164907
      ],
      [
        "Ġproduction",
        -8.9423975103625
      ],
      [
        "Ġleft",
        -8.945054861949389
      ],
      [
        "Ġbuilding",
        -8.950818599439238
      ],
      [
        "Ġdays",
        -8.951738342837917
      ],
      [
        "we",
        -8.954954837262946
      ],
      [
        "Ġfour",
        -8.955511460079595
      ],
      [
        "]",
        -8.955975910901987
      ],
      [
        "ver",
        -8.961341481429702
      ],
      [
        ",\"",
        -8.961351093864792
      ],
      [
        "Ġsafe",
        -8.961853237787828
      ],
      [
        "like",
        -8.963981750641821
      ],
      [
        "necessary",
        -8.964153034285296
      ],
      [
        "Ġcontent",
        -8.964377598605651
      ],
      [
        "Ġfact",
        -8.964892709461472
      ],
      [
        "Ġapproach",
        -8.965132469042704
      ],
      [
        "Ġnear",
        -8.965275041204437
      ],
      [
        "Ġearly",
        -8.967913861733393
      ],
      [
        "Ġeffect",
        -8.971070517502397
      ],
      [
        "Ġvehicle",
        -8.971535104444678
      ],
      [
        "Ġproduct",
        -8.972336319508047
      ],
      [
        "Ġclear",
        -8.974205913762848
      ],
      [
        "Ġbring",
        -8.975310099126078
      ],
      [
        "Ġclean",
        -8.97696573455362
      ],
      [
        "Ġground",
        -8.978844873626393
      ],
      [
        "Ġprotect",
        -8.978997520572543
      ],
      [
        "hether",
        -8.979198797873451
      ],
      [
        "Ġrecent",
        -8.9811776392877
      ],
      [
        "Ġless",
        -8.981186351883
      ],
      [
        "Ġdry",
        -8.98196412664159
      ],
      [
        "Ġsource",
        -8.982146313838122
      ],
      [
        "Ġtoo",
        -8.983922401323188
      ],
      [
        "Ġbelieve",
        -8.984126726392269
      ],
      [
        "Ġfar",
        -8.986188442212434
      ],
      [
        "Ġusual",
        -8.988239312355304
      ],
      [
        "Ġfurther",
        -8.988839800921689
      ],
      [
        "some",
        -8.989086960974102
      ],
      [
        "Ġamong",
        -8.98954034078395
      ],
      [
        "Ġunderstanding",
        -8.989998651102546
      ],
      [
        "than",
        -8.99042113565832
      ],
      [
        "Ġmatter",
        -8.991457423373665
      ],
      [
        "Ġenjoy",
        -8.992483419274997
      ],
      [
        "Ġeffects",
        -8.992947996567214
      ],
      [
        "Ġperformance",
        -8.995063379583348
      ],
      [
        "Ġenvironmental",
        -8.995465730455898
      ],
      [
        "Ġalready",
        -8.99787096484075
      ],
      [
        "ĠNew",
        -8.99791710071593
      ],
      [
        "Ġaccess",
        -8.999882281587123
      ],
      [
        "Ġbook",
        -8.999981346834375
      ],
      [
        "Ġmove",
        -9.000393200435873
      ],
      [
        "Ġoil",
        -9.001958868697152
      ],
      [
        "Ġaddition",
        -9.002044370163102
      ],
      [
        "Ġeye",
        -9.003024382042028
      ],
      [
        ")Ċ",
        -9.00371004905672
      ],
      [
        "Ġbasic",
        -9.010918434012751
      ],
      [
        "Ġfeatures",
        -9.0113603141802
      ],
      [
        "Ġskills",
        -9.013681726199588
      ],
      [
        "Ġstrong",
        -9.01406501634797
      ],
      [
        "Ġengine",
        -9.014513506502638
      ],
      [
        "Ġfuel",
        -9.015530458755393
      ],
      [
        "Ġtraining",
        -9.015666081981443
      ],
      [
        "Ġsound",
        -9.01747398441696
      ],
      [
        "Ġhours",
        -9.01802803361806
      ],
      [
        "Ġbehavior",
        -9.01850492765104
      ],
      [
        "ic",
        -9.018696048893265
      ],
      [
        "Ġgas",
        -9.01879862959849
      ],
      [
        "Ġbig",
        -9.019042327502753
      ],
      [
        "Ġeither",
        -9.019861538394125
      ],
      [
        "R",
        -9.02055941418665
      ],
      [
        "Ġinside",
        -9.02112139509173
      ],
      [
        "Ġsays",
        -9.021502486957644
      ],
      [
        "Ġclimate",
        -9.028653978211306
      ],
      [
        "Ġreason",
        -9.03424348503264
      ],
      [
        "Ġown",
        -9.036093221898517
      ],
      [
        "z",
        -9.036596005632456
      ],
      [
        "Ġindustry",
        -9.036984503618466
      ],
      [
        "ĠYour",
        -9.03812768022974
      ],
      [
        ").Ċ",
        -9.038274761170143
      ],
      [
        "Ġbelow",
        -9.040089364173111
      ],
      [
        "Ġun",
        -9.04168075661369
      ],
      [
        "Ġpet",
        -9.041727147704464
      ],
      [
        "Ġremain",
        -9.042045388181492
      ],
      [
        "Ġwaste",
        -9.045889732429757
      ],
      [
        "Ġcarbon",
        -9.046911276550608
      ],
      [
        "Ġcommunity",
        -9.046923947282352
      ],
      [
        "Ġrun",
        -9.051579719195654
      ],
      [
        "Ġpost",
        -9.053708757089858
      ],
      [
        "Ġagain",
        -9.05499944588858
      ],
      [
        "Ġexist",
        -9.0558577700556
      ],
      [
        "ĠNo",
        -9.05679110589258
      ],
      [
        "Ġmajor",
        -9.059222638207256
      ],
      [
        "Ġline",
        -9.059853557041276
      ],
      [
        "Ġpain",
        -9.060084557877529
      ],
      [
        "Ġthough",
        -9.06189640795956
      ],
      [
        "Ġface",
        -9.062195489749213
      ],
      [
        "ĠP",
        -9.063184814628418
      ],
      [
        "Ġparent",
        -9.06455545679842
      ],
      [
        "well",
        -9.06580073883136
      ],
      [
        "Ġthought",
        -9.065919019251488
      ],
      [
        "Ġpopular",
        -9.06604334052809
      ],
      [
        "Ġperiod",
        -9.068444450353551
      ],
      [
        "Ġif",
        -9.06975618817283
      ],
      [
        "Ġmarket",
        -9.070829808565708
      ],
      [
        "Ġidea",
        -9.071998084546046
      ],
      [
        "Ġscience",
        -9.074872359956563
      ],
      [
        "Ġblack",
        -9.0749154991733
      ],
      [
        "Ġtoward",
        -9.078764781692172
      ],
      [
        "Ġmention",
        -9.078852571955426
      ],
      [
        "Ġhistory",
        -9.080697428497617
      ],
      [
        "Ġpublic",
        -9.080850215924732
      ],
      [
        "Ġsense",
        -9.081008477310982
      ],
      [
        "Why",
        -9.081733419322196
      ],
      [
        "out",
        -9.085061761007143
      ],
      [
        "Ġcomplex",
        -9.086071011629237
      ],
      [
        "Ġliving",
        -9.086392936061907
      ],
      [
        "Ġread",
        -9.087242883938409
      ],
      [
        "Ġshape",
        -9.088073915171751
      ],
      [
        "Ġissue",
        -9.089415399023652
      ],
      [
        "Ġstay",
        -9.089938533341874
      ],
      [
        "Ġanswer",
        -9.0918223383216
      ],
      [
        "Ġsafety",
        -9.092295745063216
      ],
      [
        "his",
        -9.093770108210414
      ],
      [
        "Ġdoing",
        -9.094163598478437
      ],
      [
        "Ġdone",
        -9.095401854381516
      ],
      [
        "Ġlast",
        -9.097394177853293
      ],
      [
        "Ġfollow",
        -9.101014075844098
      ],
      [
        "Ġmanagement",
        -9.103193989103168
      ],
      [
        "âĢ¦",
        -9.103369705168076
      ],
      [
        "Ġactivities",
        -9.109153115659131
      ],
      [
        "Ġwhole",
        -9.11015220298891
      ],
      [
        "any",
        -9.112508302752175
      ],
      [
        "Ġdeep",
        -9.112598988662633
      ],
      [
        "Ġstructure",
        -9.116507256998595
      ],
      [
        "Ġgame",
        -9.118209063641132
      ],
      [
        "Ġresearchers",
        -9.11911841894791
      ],
      [
        "get",
        -9.12064146105877
      ],
      [
        "Whil",
        -9.122750268335771
      ],
      [
        "Ġhelps",
        -9.122874382647035
      ],
      [
        "Ġpositive",
        -9.123244019593942
      ],
      [
        "rather",
        -9.123384571895455
      ],
      [
        "Ġcover",
        -9.126456191949313
      ],
      [
        "Ġca",
        -9.127193386530775
      ],
      [
        "Ġcompany",
        -9.128486899942324
      ],
      [
        "Ġmonths",
        -9.128696437549568
      ],
      [
        "Ġbrain",
        -9.131416266049335
      ],
      [
        "considered",
        -9.131665323934344
      ],
      [
        "Ġcamera",
        -9.134803734354213
      ],
      [
        "Ġwarm",
        -9.137335162605329
      ],
      [
        "Ġaverage",
        -9.139389057542504
      ],
      [
        "Ġsymptoms",
        -9.140298118440947
      ],
      [
        "Ġadult",
        -9.1405542693155
      ],
      [
        "Ġsomeone",
        -9.141173886048346
      ],
      [
        "Ġtry",
        -9.141356062124942
      ],
      [
        "Ġresponse",
        -9.141644882745982
      ],
      [
        "Ġus",
        -9.143406801874292
      ],
      [
        "Ġhead",
        -9.14358277600216
      ],
      [
        "Ġaffect",
        -9.143963092716293
      ],
      [
        "Ġlower",
        -9.14419391979462
      ],
      [
        "They",
        -9.145891300659123
      ],
      [
        "Ġuser",
        -9.147606791184964
      ],
      [
        "Ġmedical",
        -9.151987724467515
      ],
      [
        "allows",
        -9.15237724741304
      ],
      [
        "L",
        -9.152432840974676
      ],
      [
        ".\"ĊĊ",
        -9.152867887844227
      ],
      [
        "taking",
        -9.153643856881718
      ],
      [
        "Ġcold",
        -9.153940416664986
      ],
      [
        "now",
        -9.156329901913493
      ],
      [
        "Ġchoose",
        -9.15660786317002
      ],
      [
        "Ġmind",
        -9.15765402623444
      ],
      [
        "Ġarticle",
        -9.158295791287202
      ],
      [
        "Ġmethods",
        -9.158471944997936
      ],
      [
        "Ġstress",
        -9.158725032295116
      ],
      [
        "Answer",
        -9.158800327277229
      ],
      [
        "Ġtools",
        -9.159173813124022
      ],
      [
        "Ġcancer",
        -9.159216414508116
      ],
      [
        "such",
        -9.160122539076056
      ],
      [
        "Ġpercent",
        -9.160797143455966
      ],
      [
        "Ġcontinue",
        -9.161915980089884
      ],
      [
        "Ġcool",
        -9.16207770468376
      ],
      [
        "Ġnature",
        -9.16242229141005
      ],
      [
        "These",
        -9.162576805768971
      ],
      [
        "Ġexercise",
        -9.163223795590897
      ],
      [
        "Ġcorrect",
        -9.164443307243058
      ],
      [
        "instead",
        -9.16457224385442
      ],
      [
        "Ġmovement",
        -9.1652969503891
      ],
      [
        "Ġaddress",
        -9.165337880444888
      ],
      [
        ".\"Ċ",
        -9.167745107556469
      ],
      [
        "Ġapplications",
        -9.16775600217396
      ],
      [
        "Ġdesigne",
        -9.169401095968878
      ],
      [
        "Ġcrucial",
        -9.171202209954869
      ],
      [
        "Ġhumans",
        -9.171230477336223
      ],
      [
        "Ġpast",
        -9.171302815618482
      ],
      [
        "Ġhouse",
        -9.173717238166065
      ],
      [
        "Ġparts",
        -9.173747438478433
      ],
      [
        "Ġbuild",
        -9.175554726314868
      ],
      [
        "Ġtraditional",
        -9.175664509392242
      ],
      [
        "developed",
        -9.175812083516549
      ],
      [
        "Ġmachine",
        -9.176141536169386
      ],
      [
        "Ġtypically",
        -9.176273151505464
      ],
      [
        "Ġgreen",
        -9.177822034754689
      ],
      [
        "Ġassociated",
        -9.178467103553704
      ],
      [
        "Ġshare",
        -9.178474768363806
      ],
      [
        "But",
        -9.179758486267913
      ],
      [
        "Ġcontact",
        -9.18063045300302
      ],
      [
        "Ġquickly",
        -9.182761676655945
      ],
      [
        "Ġseason",
        -9.183377612635931
      ],
      [
        "ĠOne",
        -9.18372568361515
      ],
      [
        "G",
        -9.184372335505396
      ],
      [
        "Ġelectric",
        -9.184472655614613
      ],
      [
        "One",
        -9.184751477049234
      ],
      [
        "Ġfall",
        -9.187679725047923
      ],
      [
        "Ġdetermine",
        -9.187932974436745
      ],
      [
        "Ġyoung",
        -9.18846802600383
      ],
      [
        "Ġwomen",
        -9.188604614120772
      ],
      [
        "Ġknowledge",
        -9.188993839173596
      ],
      [
        "Ġentire",
        -9.189430604148642
      ],
      [
        "Ġperfect",
        -9.19242063435532
      ],
      [
        "Ġloss",
        -9.193550021398917
      ],
      [
        "throughout",
        -9.193900181736485
      ],
      [
        "Ġmuscle",
        -9.1946437970666
      ],
      [
        "Ġpersonal",
        -9.1948310438186
      ],
      [
        "Ġclass",
        -9.195128547981051
      ],
      [
        "probably",
        -9.19611187110861
      ],
      [
        "Ġquestions",
        -9.197407517886552
      ],
      [
        "Ġtotal",
        -9.19958827011266
      ],
      [
        "Ġappear",
        -9.199947591909028
      ],
      [
        "Ġsugar",
        -9.20111449431482
      ],
      [
        "Ġidentify",
        -9.202521517157944
      ],
      [
        "Ġservice",
        -9.202692007015315
      ],
      [
        "Ġoutside",
        -9.204307910143513
      ],
      [
        "ually",
        -9.20456287814157
      ],
      [
        "Ġwinter",
        -9.208306865218251
      ],
      [
        "Ġoverall",
        -9.208771945123996
      ],
      [
        "Ġmeasure",
        -9.20943367111591
      ],
      [
        "Ġtechniques",
        -9.211733905507048
      ],
      [
        "Ġmodern",
        -9.212512915092514
      ],
      [
        "Ġprimar",
        -9.215688240129726
      ],
      [
        "Ġremove",
        -9.217096669998996
      ],
      [
        "Ġdevice",
        -9.217359216189244
      ],
      [
        "ion",
        -9.218539763134398
      ],
      [
        "Ġmoney",
        -9.219103534064852
      ],
      [
        "Ġproperties",
        -9.219647719387474
      ],
      [
        "Ġguide",
        -9.223022990448458
      ],
      [
        "Ġonline",
        -9.224265837329
      ],
      [
        "last",
        -9.2267301544671
      ],
      [
        "Ġgenetic",
        -9.226986340607764
      ],
      [
        "yourself",
        -9.228460420370125
      ],
      [
        "Ġexplain",
        -9.22895371579123
      ],
      [
        "Ġfive",
        -9.230034728665116
      ],
      [
        "Ġposition",
        -9.23255596422861
      ],
      [
        "Ġslow",
        -9.232868552852556
      ],
      [
        "Ġglobal",
        -9.236154537948224
      ],
      [
        "Ġresources",
        -9.238110075370882
      ],
      [
        "Ġexplore",
        -9.240031647683104
      ],
      [
        "ng",
        -9.240127044559255
      ],
      [
        "Ġcut",
        -9.242109550244852
      ],
      [
        "Ġtool",
        -9.242197630492807
      ],
      [
        "Ġspecial",
        -9.243457822977536
      ],
      [
        "Ġhear",
        -9.243737248604535
      ],
      [
        "two",
        -9.243963885406147
      ],
      [
        "Ġeffort",
        -9.244611056763915
      ],
      [
        "Ġanalysis",
        -9.246195906137896
      ],
      [
        "Ġrelationship",
        -9.249984715621018
      ],
      [
        "Ġcomponents",
        -9.251417447068404
      ],
      [
        "ĠNational",
        -9.252824366920692
      ],
      [
        "Ġbalance",
        -9.253922847806033
      ],
      [
        "Ġmilk",
        -9.253929808377828
      ],
      [
        "studies",
        -9.254371062793464
      ],
      [
        "Ġcases",
        -9.255495871348543
      ],
      [
        "Ġseen",
        -9.255637642026294
      ],
      [
        "Ġo",
        -9.256168140151876
      ],
      [
        "Ġcompared",
        -9.25776257680836
      ],
      [
        "Ġelements",
        -9.25832141455462
      ],
      [
        "Ġmultiple",
        -9.25851413293182
      ],
      [
        "Ġweather",
        -9.259265812653505
      ],
      [
        "Ġsoftware",
        -9.259771805665997
      ],
      [
        "work",
        -9.260382394635004
      ],
      [
        "Ġauthor",
        -9.260549418713666
      ],
      [
        "ĠT",
        -9.261022505898437
      ],
      [
        "Ġsignal",
        -9.262658622876474
      ],
      [
        "Ġconcern",
        -9.262744683070242
      ],
      [
        "ting",
        -9.263586585517745
      ],
      [
        "Ġthing",
        -9.26485482454954
      ],
      [
        "Ġparticular",
        -9.265069711123138
      ],
      [
        "Ġforce",
        -9.266573666940577
      ],
      [
        "_",
        -9.26761825819286
      ],
      [
        "It",
        -9.27305957401292
      ],
      [
        "Ġcode",
        -9.275157309032576
      ],
      [
        "low",
        -9.275750834472484
      ],
      [
        "Ġenhance",
        -9.276463601346904
      ],
      [
        "Ġbuy",
        -9.276882047651524
      ],
      [
        "will",
        -9.277478410208856
      ],
      [
        "Ġsleep",
        -9.278518262481844
      ],
      [
        "Ġmetal",
        -9.280153082341233
      ],
      [
        "early",
        -9.280205476343998
      ],
      [
        "created",
        -9.281093862904848
      ],
      [
        "Ġfast",
        -9.283272176325148
      ],
      [
        "Ġlength",
        -9.286035920347311
      ],
      [
        "Ġrelative",
        -9.288764477401362
      ],
      [
        "Ġsometime",
        -9.289114182509431
      ],
      [
        "Ġdetail",
        -9.28996631168812
      ],
      [
        "Ġrepresent",
        -9.290065696416884
      ],
      [
        "Ġbit",
        -9.290779431155205
      ],
      [
        "ĠUnited",
        -9.291416865686056
      ],
      [
        "Ġcomplete",
        -9.291483956661745
      ],
      [
        "Ġinvolve",
        -9.292375108451068
      ],
      [
        "Ġprovid",
        -9.293110410652211
      ],
      [
        "Ġrelease",
        -9.294295508361277
      ],
      [
        "Ġplastic",
        -9.294920309428145
      ],
      [
        "Ġdigital",
        -9.296102858971851
      ],
      [
        "Ġoptions",
        -9.301147486137364
      ],
      [
        "Ġeducation",
        -9.30221597166523
      ],
      [
        "Ġachieve",
        -9.302367698131208
      ],
      [
        "Ġpatients",
        -9.302421660201333
      ],
      [
        "they",
        -9.302762051928958
      ],
      [
        "Ġwood",
        -9.305561843867151
      ],
      [
        "Ġmonitor",
        -9.306917110243091
      ],
      [
        "Ġsummer",
        -9.307400586869464
      ],
      [
        "Ġcountry",
        -9.307436388498427
      ],
      [
        "Ġequipment",
        -9.308030432132094
      ],
      [
        "ous",
        -9.309348273826355
      ],
      [
        "rying",
        -9.309676659759138
      ],
      [
        "Ġadvance",
        -9.310007360345375
      ],
      [
        "Ġbattery",
        -9.310385797419055
      ],
      [
        "Ġreport",
        -9.310825024283412
      ],
      [
        "ĠDNA",
        -9.311001338426877
      ],
      [
        "Ġdescribe",
        -9.314015063294692
      ],
      [
        "old",
        -9.314616416962323
      ],
      [
        "almos",
        -9.31505508857492
      ],
      [
        "Ġhold",
        -9.315703609794296
      ],
      [
        "Ġprice",
        -9.315796945409051
      ],
      [
        "Ġvisit",
        -9.316315023821277
      ],
      [
        "Ġchoice",
        -9.317257455748145
      ],
      [
        "leading",
        -9.319629288004188
      ],
      [
        "was",
        -9.32206623066858
      ],
      [
        "Ġsubject",
        -9.322229617416411
      ],
      [
        "Ġtreat",
        -9.322463754028156
      ],
      [
        "Ġnetwork",
        -9.322722395165377
      ],
      [
        "Ġextreme",
        -9.322738760424432
      ],
      [
        "Ġar",
        -9.323178003721363
      ],
      [
        "Ġchemical",
        -9.32345483946536
      ],
      [
        "Ġreaction",
        -9.324627904052942
      ],
      [
        "Ġinfection",
        -9.32500926220764
      ],
      [
        "Ġfeet",
        -9.325113196902354
      ],
      [
        "Ġhalf",
        -9.325265647196249
      ],
      [
        "Ġwebsite",
        -9.326258261001076
      ],
      [
        "Ġregion",
        -9.32666536213883
      ],
      [
        "Ġincreasing",
        -9.327136129514678
      ],
      [
        "Ġexperiment",
        -9.328519792890802
      ],
      [
        "ĠAI",
        -9.330285780118055
      ],
      [
        "And",
        -9.331563294163557
      ],
      [
        "Ġhim",
        -9.333962514366014
      ],
      [
        "Ġlet",
        -9.33450063135527
      ],
      [
        "Ġbad",
        -9.335573366469117
      ],
      [
        "Ġlonge",
        -9.33767211492962
      ],
      [
        "Ġcat",
        -9.337692574605065
      ],
      [
        "Ġsimpl",
        -9.339048218041452
      ],
      [
        "while",
        -9.341195576300642
      ],
      [
        "had",
        -9.341328036127894
      ],
      [
        "To",
        -9.342569613206848
      ],
      [
        "Ġhe",
        -9.342569833143518
      ],
      [
        "Ġlocation",
        -9.34367394336126
      ],
      [
        "Ġeggs",
        -9.345410549861352
      ],
      [
        "Ġstarted",
        -9.346627455454732
      ],
      [
        "ĠAll",
        -9.346709513079109
      ],
      [
        "Ġself",
        -9.350665305931738
      ],
      [
        "Ġpurpose",
        -9.351113587945571
      ],
      [
        "Ġsuccessful",
        -9.352464717387631
      ],
      [
        "Ġbirds",
        -9.353141520849498
      ],
      [
        "Ġattention",
        -9.354133652780462
      ],
      [
        "Ġflow",
        -9.35430208996204
      ],
      [
        "ĠAn",
        -9.35519770093816
      ],
      [
        "ĠR",
        -9.355976286936096
      ],
      [
        "Ġroom",
        -9.356226529694077
      ],
      [
        "Ġreach",
        -9.356441516127909
      ],
      [
        "Ġmeat",
        -9.356612522512428
      ],
      [
        "Ġtrue",
        -9.357634083695771
      ],
      [
        "Ġchicken",
        -9.357658859741049
      ],
      [
        "Ġfoods",
        -9.358257521067916
      ],
      [
        "Ġscientist",
        -9.360668765548578
      ],
      [
        "Ġstudent",
        -9.360673694983005
      ],
      [
        "Ġnormal",
        -9.36200001697956
      ],
      [
        "Ġwear",
        -9.36466037479472
      ],
      [
        "Q",
        -9.366133268659516
      ],
      [
        "Ġitself",
        -9.366217120353896
      ],
      [
        "Ġrelated",
        -9.366229810709612
      ],
      [
        "ach",
        -9.366598321520136
      ],
      [
        "Ġbase",
        -9.367282974880318
      ],
      [
        "water",
        -9.367942270712952
      ],
      [
        "ĠSchool",
        -9.368420215443004
      ],
      [
        "Ġcanno",
        -9.369160978247436
      ],
      [
        "Ġ\"",
        -9.37076392022624
      ],
      [
        "Ġinvolved",
        -9.37392934463077
      ],
      [
        "Can",
        -9.37459034524136
      ],
      [
        "Ġstop",
        -9.374745811703011
      ],
      [
        "Ġnight",
        -9.37676214295312
      ],
      [
        "Ġingredient",
        -9.376808777630146
      ],
      [
        "fish",
        -9.377471856921831
      ],
      [
        "Ġconcept",
        -9.379719688397396
      ],
      [
        "Ġeyes",
        -9.379987146135855
      ],
      [
        "So",
        -9.385366644452995
      ],
      [
        "quite",
        -9.38575443809141
      ],
      [
        "Ġthemselves",
        -9.38813543955084
      ],
      [
        "making",
        -9.388408244335986
      ],
      [
        "running",
        -9.389454108054176
      ],
      [
        "Ġshown",
        -9.391497569371644
      ],
      [
        "Ġaspect",
        -9.393086235784718
      ],
      [
        "Ġlanguage",
        -9.39560550820946
      ],
      [
        "Ġlayer",
        -9.396656873681778
      ],
      [
        "âĢ¢",
        -9.396817620402562
      ],
      [
        "Ġwon",
        -9.396931839143022
      ],
      [
        "Ġinfluence",
        -9.397112018180032
      ],
      [
        "what",
        -9.397349132095242
      ],
      [
        "Ġoffers",
        -9.39891572696861
      ],
      [
        "Ġoption",
        -9.398937696282298
      ],
      [
        "Ġcontribute",
        -9.400283732422045
      ],
      [
        "ĠDo",
        -9.404043837297245
      ],
      [
        "Ġshows",
        -9.404404486685827
      ],
      [
        "Ġbehind",
        -9.404659644560269
      ],
      [
        "Ġdrink",
        -9.404778379076149
      ],
      [
        "Ġdistance",
        -9.404809484803645
      ],
      [
        "Ġadded",
        -9.405067732115846
      ],
      [
        "ĠHealth",
        -9.40627303011549
      ],
      [
        "her",
        -9.407242114127424
      ],
      [
        "Ġsolar",
        -9.40889571173576
      ],
      [
        "Ġapplication",
        -9.409973512928
      ],
      [
        "Ġcook",
        -9.41172477740901
      ],
      [
        "Ġdevices",
        -9.416788611376967
      ],
      [
        "Ġplayer",
        -9.418776697414728
      ],
      [
        "#",
        -9.419122227522143
      ],
      [
        "Ġservices",
        -9.41983672918137
      ],
      [
        "rate",
        -9.419886266248817
      ],
      [
        "Ġjob",
        -9.420838737109868
      ],
      [
        "|",
        -9.4212793605494
      ],
      [
        "Ġfun",
        -9.422620012317257
      ],
      [
        "Ġinsect",
        -9.42371295135342
      ],
      [
        "Ġsite",
        -9.423889548548033
      ],
      [
        "Ġcontain",
        -9.42399210393186
      ],
      [
        "Ġstandard",
        -9.42510922653637
      ],
      [
        "Ġgoal",
        -9.426238637773931
      ],
      [
        "Ġevidence",
        -9.42796349845179
      ],
      [
        "Ġsmaller",
        -9.429278296866306
      ],
      [
        "Ġcompound",
        -9.429623324251349
      ],
      [
        "U",
        -9.430738029556329
      ],
      [
        "Ġblock",
        -9.431093292571315
      ],
      [
        "Ġnegative",
        -9.431305447665729
      ],
      [
        "Ġunit",
        -9.431783762193788
      ],
      [
        "Ġstory",
        -9.433238632738584
      ],
      [
        "Ġoriginal",
        -9.434427097635531
      ],
      [
        "Ġworks",
        -9.435023959189758
      ],
      [
        "ĠStates",
        -9.43596522931127
      ],
      [
        "Ġadditional",
        -9.438556590716535
      ],
      [
        "Ġtarget",
        -9.440040685436356
      ],
      [
        "Ġdrive",
        -9.442263217244664
      ],
      [
        "Ġfinal",
        -9.44276228239099
      ],
      [
        "Ġextra",
        -9.443429387533817
      ],
      [
        "Ġfront",
        -9.443688126364822
      ],
      [
        "Ġgenerate",
        -9.444175536893049
      ],
      [
        "Ġfemale",
        -9.445450180243943
      ],
      [
        "Ġprocesses",
        -9.446363333117574
      ],
      [
        "Ġparticularly",
        -9.447499782634946
      ],
      [
        "Ġlimit",
        -9.449095998463743
      ],
      [
        "With",
        -9.449783942582492
      ],
      [
        "Ġseparate",
        -9.450390698114932
      ],
      [
        "Some",
        -9.451904967429702
      ],
      [
        "Ġfile",
        -9.45387410968342
      ],
      [
        "Ġpre",
        -9.4548574167436
      ],
      [
        "V",
        -9.455313631496336
      ],
      [
        "etting",
        -9.455907504596372
      ],
      [
        "Ġold",
        -9.45748604939651
      ],
      [
        "Ġapply",
        -9.457545548145958
      ],
      [
        "Ġdirection",
        -9.459156937865565
      ],
      [
        "Ġsample",
        -9.459560492234878
      ],
      [
        "Ġinput",
        -9.46131646339943
      ],
      [
        "ĠU",
        -9.462971311865276
      ],
      [
        "Ġsign",
        -9.464272034066974
      ],
      [
        "Ġgreate",
        -9.465936990602454
      ],
      [
        ".\"",
        -9.466413681859809
      ],
      [
        "even",
        -9.467054499791477
      ],
      [
        "Â°",
        -9.46815923607741
      ],
      [
        "ĠWhil",
        -9.468963185964798
      ],
      [
        "Using",
        -9.4706010525036
      ],
      [
        "Ġmonth",
        -9.471373654929316
      ],
      [
        "others",
        -9.472329714821337
      ],
      [
        "Ġaccount",
        -9.47435202395611
      ],
      [
        "ĠO",
        -9.474820993406844
      ],
      [
        "Ġtrack",
        -9.475246468039307
      ],
      [
        "Because",
        -9.475669746265382
      ],
      [
        "Ġfresh",
        -9.475935891672655
      ],
      [
        "-base",
        -9.475972211072172
      ],
      [
        "Ġbreak",
        -9.476210730776462
      ],
      [
        "\\",
        -9.476981190736613
      ],
      [
        "Ġetc",
        -9.477117813783696
      ],
      [
        "Ġspring",
        -9.477206438721494
      ],
      [
        "Ġdidn",
        -9.47779338408533
      ],
      [
        "Ġpoints",
        -9.480489036926397
      ],
      [
        "Ġpatient",
        -9.480616499900858
      ],
      [
        "--",
        -9.481212704480022
      ],
      [
        "Ġmanage",
        -9.482412770597024
      ],
      [
        "Ġstrength",
        -9.482563901139557
      ],
      [
        "Ġlater",
        -9.48391932765161
      ],
      [
        "Ġuseful",
        -9.483954025414468
      ],
      [
        "Y",
        -9.48421715100022
      ],
      [
        "Ġoutput",
        -9.484713539858632
      ],
      [
        "Ġcircuit",
        -9.48633062174185
      ],
      [
        "over",
        -9.486392523022612
      ],
      [
        "Ġmeet",
        -9.48686997222367
      ],
      [
        "Ġspot",
        -9.486949851937108
      ],
      [
        "into",
        -9.48820374647353
      ],
      [
        "Ġefficient",
        -9.488868433054863
      ],
      [
        "Ġago",
        -9.488994247438612
      ],
      [
        "Ġappropriate",
        -9.48993749598664
      ],
      [
        "le",
        -9.49193365694176
      ],
      [
        "Ġpattern",
        -9.493431328341774
      ],
      [
        "ĠEarth",
        -9.493679676445687
      ],
      [
        "their",
        -9.493819928867962
      ],
      [
        "Ġconstant",
        -9.493923261104396
      ],
      [
        "Ġtravel",
        -9.494239823591428
      ],
      [
        "Ġmass",
        -9.494614065195345
      ],
      [
        "Ġspread",
        -9.495596499100692
      ],
      [
        "ĠCan",
        -9.495617876370286
      ],
      [
        "ive",
        -9.496245235662602
      ],
      [
        "Ġha",
        -9.496746252352846
      ],
      [
        "Ġcycle",
        -9.497375891550842
      ],
      [
        "Ġsalt",
        -9.5007975733926
      ],
      [
        "body",
        -9.50119916671812
      ],
      [
        "care",
        -9.501505420764254
      ],
      [
        "Ġsection",
        -9.502315737169122
      ],
      [
        "Ġsupply",
        -9.502375558631584
      ],
      [
        "Ġeasier",
        -9.502636648852258
      ],
      [
        "Ġseem",
        -9.502667534646145
      ],
      [
        "Ġlist",
        -9.50336988624401
      ],
      [
        "Ġglass",
        -9.503554535835857
      ],
      [
        "Ġcreat",
        -9.503562049415304
      ],
      [
        "Ġfeed",
        -9.5064229841619
      ],
      [
        "Ġview",
        -9.507534930834328
      ],
      [
        "Ġsave",
        -9.510053830413476
      ],
      [
        "Ġbacteria",
        -9.511966181513277
      ],
      [
        "Ġcritical",
        -9.51231779356457
      ],
      [
        "larger",
        -9.51268410861564
      ],
      [
        "ĠHere",
        -9.513805929139956
      ],
      [
        "Ġsix",
        -9.51382899411793
      ],
      [
        "ĠOn",
        -9.515099834959823
      ],
      [
        "Ġseries",
        -9.515349798985527
      ],
      [
        "Ġcompletely",
        -9.51667314472996
      ],
      [
        "Ġfeature",
        -9.517647190148704
      ],
      [
        "That",
        -9.518077253530684
      ],
      [
        "Ġnutrient",
        -9.519265646390451
      ],
      [
        "Ġelectrical",
        -9.519285842948396
      ],
      [
        "ĠNorth",
        -9.519721563222657
      ],
      [
        "sure",
        -9.520168560710786
      ],
      [
        "Ġattack",
        -9.521313549973025
      ],
      [
        "Ġtaken",
        -9.52254315275312
      ],
      [
        "Ġman",
        -9.52276843922893
      ],
      [
        "Ġexpert",
        -9.52305090156175
      ],
      [
        "Ġconnection",
        -9.523201485756507
      ],
      [
        "âĢĿ",
        -9.523314751265223
      ],
      [
        "ĠDr",
        -9.523963222525538
      ],
      [
        "Ġgovernment",
        -9.52420304930444
      ],
      [
        "line",
        -9.52435964279908
      ],
      [
        "Ġcall",
        -9.52631761394682
      ],
      [
        "ĠAmerica",
        -9.52657664297822
      ],
      [
        "me",
        -9.530341751053118
      ],
      [
        "don",
        -9.533457114109568
      ],
      [
        "Ġeveryone",
        -9.533721676384278
      ],
      [
        "Ġperform",
        -9.535486978690374
      ],
      [
        "Ġcenter",
        -9.535727225815496
      ],
      [
        "Ġlives",
        -9.535960213659006
      ],
      [
        "Ġmodels",
        -9.536240605607665
      ],
      [
        "Ġprovided",
        -9.53751712486186
      ],
      [
        "Another",
        -9.537856248324386
      ],
      [
        "Ġblue",
        -9.538669784644767
      ],
      [
        "side",
        -9.540624864840346
      ],
      [
        "Ġreceive",
        -9.541559851723417
      ],
      [
        "Ġtheory",
        -9.542227080889468
      ],
      [
        "these",
        -9.543110193251088
      ],
      [
        "Ġdiscover",
        -9.543864300745296
      ],
      [
        "were",
        -9.544895944374597
      ],
      [
        "Ġitems",
        -9.545615582057389
      ],
      [
        "Ġmale",
        -9.545673901076828
      ],
      [
        "Ġfeeling",
        -9.545721264830998
      ],
      [
        "Ġorganic",
        -9.546034294865876
      ],
      [
        "Ġsteps",
        -9.546322742377994
      ],
      [
        "Ġmix",
        -9.54700059368042
      ],
      [
        "Ġchallenges",
        -9.54751684886085
      ],
      [
        "Ġserious",
        -9.548332441027032
      ],
      [
        "ĠH",
        -9.549202328099708
      ],
      [
        "once",
        -9.54943172042868
      ],
      [
        "Ġsuccess",
        -9.54981088044407
      ],
      [
        "Ġbegin",
        -9.54997879377698
      ],
      [
        "ĠYes",
        -9.55172306849431
      ],
      [
        "ities",
        -9.551921068912051
      ],
      [
        "Ġcountries",
        -9.55241492248556
      ],
      [
        "Ġfruit",
        -9.55252635247018
      ],
      [
        "Ġenable",
        -9.552948447724738
      ],
      [
        "Ġtips",
        -9.554230957181414
      ],
      [
        "ĠN",
        -9.554268744119351
      ],
      [
        "right",
        -9.554409152270589
      ],
      [
        "may",
        -9.554849257819573
      ],
      [
        "Ġstyle",
        -9.555506724316306
      ],
      [
        "Ġhandle",
        -9.556361137501115
      ],
      [
        "Ġproduced",
        -9.55833964916005
      ],
      [
        "upon",
        -9.558714465163431
      ],
      [
        "Ġland",
        -9.559079845100266
      ],
      [
        "Ġimportance",
        -9.559550233803336
      ],
      [
        "Ġcombine",
        -9.560093955964362
      ],
      [
        "Ġdetect",
        -9.560422444397012
      ],
      [
        "Ġkids",
        -9.561770547082446
      ],
      [
        "Ġremember",
        -9.562364171182097
      ],
      [
        "-->",
        -9.563709399555618
      ],
      [
        "Ġefficiency",
        -9.56442281814804
      ],
      [
        "Ġseeds",
        -9.56511676404626
      ],
      [
        "Ġconduct",
        -9.565307734674938
      ],
      [
        "Ġdocument",
        -9.565391083438437
      ],
      [
        "Step",
        -9.56656457408282
      ],
      [
        "Ġmedia",
        -9.566965900122447
      ],
      [
        "Ġcontains",
        -9.568782065161908
      ],
      [
        "ways",
        -9.569046345735371
      ],
      [
        "Ġreplace",
        -9.569289680879272
      ],
      [
        "Ġtend",
        -9.570319207216125
      ],
      [
        "Ġdefine",
        -9.570649298871876
      ],
      [
        "Ġsearch",
        -9.573393366527874
      ],
      [
        "X",
        -9.573689292603229
      ],
      [
        "K",
        -9.574309607176993
      ],
      [
        "Ġfrequent",
        -9.57455863285199
      ],
      [
        "ĠMore",
        -9.574852352972016
      ],
      [
        "Ġreturn",
        -9.575068982435962
      ],
      [
        "ĠUse",
        -9.57520418724943
      ],
      [
        "Ġbaby",
        -9.575561528125526
      ],
      [
        "Ġpump",
        -9.57630369113326
      ],
      [
        "Ġword",
        -9.578853354522517
      ],
      [
        "Ġtell",
        -9.579435691932304
      ],
      [
        "-up",
        -9.581777069728648
      ],
      [
        "Ġask",
        -9.583225634932466
      ],
      [
        "Ġcarry",
        -9.583508025408976
      ],
      [
        "Ġred",
        -9.583727104979555
      ],
      [
        "Ġdisplay",
        -9.58477092945736
      ],
      [
        "As",
        -9.58498903070775
      ],
      [
        "Ġinclud",
        -9.585773177124327
      ],
      [
        "Ġcolors",
        -9.586075030784585
      ],
      [
        "ĠScience",
        -9.586597364111354
      ],
      [
        "Ġcommunication",
        -9.587002902673005
      ],
      [
        "Ġoxygen",
        -9.588467545300292
      ],
      [
        "Ġvolume",
        -9.58848703172216
      ],
      [
        "Ġpromote",
        -9.589760293912803
      ],
      [
        "Ġimages",
        -9.590368188748563
      ],
      [
        "Ġobserve",
        -9.590507306365163
      ],
      [
        "Ġideal",
        -9.590962215845494
      ],
      [
        "ĠShe",
        -9.591914545047649
      ],
      [
        "Ġfat",
        -9.593385236238312
      ],
      [
        "Ġinterest",
        -9.595269284469708
      ],
      [
        "Ġnotice",
        -9.59605876494185
      ],
      [
        "Ġcollect",
        -9.596398526522254
      ],
      [
        "Ġgeneration",
        -9.59659358626109
      ],
      [
        "ment",
        -9.596736568957551
      ],
      [
        "Ġgot",
        -9.597631306346944
      ],
      [
        "Ġcentur",
        -9.597775875881368
      ],
      [
        "Ġwatch",
        -9.599032791024298
      ],
      [
        "Ġinitial",
        -9.600723749143388
      ],
      [
        "companie",
        -9.600908867662142
      ],
      [
        "Ġtaste",
        -9.601128626860111
      ],
      [
        "Ġways",
        -9.601168410162
      ],
      [
        "ĠâĢľ",
        -9.601344093151267
      ],
      [
        "Ġfluid",
        -9.60181800082016
      ],
      [
        "ĠW",
        -9.60224924889701
      ],
      [
        "Ġscientific",
        -9.60265104136268
      ],
      [
        "Ġbag",
        -9.602669650527432
      ],
      [
        "Ġbottom",
        -9.602777754280083
      ],
      [
        "Now",
        -9.603229536968476
      ],
      [
        "Ġtissue",
        -9.603671748782858
      ],
      [
        "Ġencourage",
        -9.60445233112861
      ],
      [
        "Ġbird",
        -9.604843178763518
      ],
      [
        "Ġmemory",
        -9.60584673216196
      ],
      [
        "Ġmeal",
        -9.608376144642277
      ],
      [
        "Ġelse",
        -9.60909533152992
      ],
      [
        "Ġgene",
        -9.609616639888706
      ],
      [
        "there",
        -9.610105133957903
      ],
      [
        "allowing",
        -9.61024546411101
      ],
      [
        "Ġdark",
        -9.610685479282566
      ],
      [
        "Ġliquid",
        -9.610850208630662
      ],
      [
        "ĠResearch",
        -9.61418863366534
      ],
      [
        "ĠWorld",
        -9.614276648528072
      ],
      [
        "ĠAfter",
        -9.615353024275889
      ],
      [
        "Ġprett",
        -9.616065272090069
      ],
      [
        "Ġpay",
        -9.61624544584771
      ],
      [
        "man",
        -9.61624767529999
      ],
      [
        "Ġcosts",
        -9.61646744663425
      ],
      [
        "Ġcommonly",
        -9.617637217465198
      ],
      [
        "Ġtalk",
        -9.61805731333381
      ],
      [
        "just",
        -9.618236740505342
      ],
      [
        "Ġprocedure",
        -9.61875044881203
      ],
      [
        "Ġpoor",
        -9.619038289474492
      ],
      [
        "Ġmaintenanc",
        -9.619201916983451
      ],
      [
        "Ġhope",
        -9.620143857800128
      ],
      [
        "Ġprotection",
        -9.620581866154572
      ],
      [
        "Ġaccurate",
        -9.621201046733011
      ],
      [
        "Ġbrand",
        -9.621235443523798
      ],
      [
        "applied",
        -9.6219506130747
      ],
      [
        "Ġjoint",
        -9.622357084382266
      ],
      [
        "individuals",
        -9.622628980480568
      ],
      [
        "Ġeating",
        -9.62306789592687
      ],
      [
        "Ġreasons",
        -9.623877049258294
      ],
      [
        "Ġpiece",
        -9.623952416720993
      ],
      [
        "Ġfilter",
        -9.624819720534218
      ],
      [
        "only",
        -9.626768661351424
      ],
      [
        "nd",
        -9.627012457992407
      ],
      [
        "Ġcats",
        -9.6284642693538
      ],
      [
        "Ġlimited",
        -9.62947351948857
      ],
      [
        "Ġvisual",
        -9.62987346580044
      ],
      [
        "Ġcleaning",
        -9.630852357733897
      ],
      [
        "...Ċ",
        -9.630895389553777
      ],
      [
        "Ġreduc",
        -9.632147912747955
      ],
      [
        "adding",
        -9.632231047323767
      ],
      [
        "Ġteeth",
        -9.633451229785656
      ],
      [
        "Ġwall",
        -9.634706757799812
      ],
      [
        "Ġprograms",
        -9.636259811002478
      ],
      [
        "Ġtank",
        -9.6364319070627
      ],
      [
        "Ġalgorithm",
        -9.636619193307292
      ],
      [
        "Ġforest",
        -9.637045892489327
      ],
      [
        "sources",
        -9.637059807111026
      ],
      [
        "By",
        -9.63751836787377
      ],
      [
        "here",
        -9.638353524101303
      ],
      [
        "Ġdeal",
        -9.640458504188665
      ],
      [
        "Ġtouch",
        -9.64115803407402
      ],
      [
        "ĠG",
        -9.642101131893488
      ],
      [
        "Ġinstance",
        -9.642290956241071
      ],
      [
        "wise",
        -9.6435404047443
      ],
      [
        "Ġevents",
        -9.643648965283315
      ],
      [
        "Ġenter",
        -9.645242669214593
      ],
      [
        "Ġlandscape",
        -9.645715297168744
      ],
      [
        "Ġyellow",
        -9.646975147263529
      ],
      [
        "Ġseems",
        -9.647901344551403
      ],
      [
        "Ġcharge",
        -9.64798821545563
      ],
      [
        "Ġrest",
        -9.649053782557573
      ],
      [
        "Ġhearing",
        -9.649527589568237
      ],
      [
        "Ġanythin",
        -9.650619069870384
      ],
      [
        "Ġcame",
        -9.65117425738886
      ],
      [
        "Ġtakes",
        -9.651362346600717
      ],
      [
        "**",
        -9.651840464293162
      ],
      [
        "Ġexactly",
        -9.652616652816803
      ],
      [
        "ĠUS",
        -9.652934587322532
      ],
      [
        "Ġmolecule",
        -9.653552780628145
      ],
      [
        "Ġbrown",
        -9.65364211295922
      ],
      [
        "Ġwalk",
        -9.654483206134971
      ],
      [
        "Ġsuitabl",
        -9.655923616565174
      ],
      [
        "Ġframe",
        -9.656336140308348
      ],
      [
        "Ġbuil",
        -9.656617582334388
      ],
      [
        "Ġactive",
        -9.656670888761322
      ],
      [
        "Ġseek",
        -9.657291811276655
      ],
      [
        "Ġserve",
        -9.65802639408547
      ],
      [
        "Ġtask",
        -9.658959930917725
      ],
      [
        "Ġgain",
        -9.66196111511668
      ],
      [
        "Ġsituation",
        -9.662352611183309
      ],
      [
        "Ġintroduce",
        -9.662699670774824
      ],
      [
        "Ġsun",
        -9.663517572896
      ],
      [
        "Ġrequirements",
        -9.66538924266979
      ],
      [
        "-to",
        -9.66647018668918
      ],
      [
        "Here",
        -9.666611035694782
      ],
      [
        "Ġpage",
        -9.66693624117378
      ],
      [
        "do",
        -9.667666274673124
      ],
      [
        "Ġpath",
        -9.670131570738048
      ],
      [
        "Ġapp",
        -9.670543351795732
      ],
      [
        "Ġreading",
        -9.67176409077172
      ],
      [
        "giving",
        -9.6728393171238
      ],
      [
        "them",
        -9.673673580748927
      ],
      [
        "Ġsoft",
        -9.674255784632097
      ],
      [
        "Ġvary",
        -9.675589599426964
      ],
      [
        "Ġmembers",
        -9.676537995089706
      ],
      [
        "Ġleg",
        -9.67840371948678
      ],
      [
        "Ġmoment",
        -9.680759301220856
      ],
      [
        "Ġsignificantly",
        -9.681008151706344
      ],
      [
        "Ġonce",
        -9.681803620053854
      ],
      [
        "Ġwind",
        -9.68193185716484
      ],
      [
        "Ġpass",
        -9.681999575183802
      ],
      [
        "Ġdecrease",
        -9.682863519287409
      ],
      [
        ">",
        -9.682970072268471
      ],
      [
        "Ġdecision",
        -9.683339071046753
      ],
      [
        "ĠL",
        -9.68377683944384
      ],
      [
        "Ġsubstance",
        -9.68390815553674
      ],
      [
        "Ġpublished",
        -9.684978649395465
      ],
      [
        "Ġdemand",
        -9.685187043094777
      ],
      [
        "Ġcloth",
        -9.685258541915498
      ],
      [
        "Ġtechnique",
        -9.685849339485753
      ],
      [
        "Ġalternative",
        -9.68645315430177
      ],
      [
        "Ġcombination",
        -9.686593914107796
      ],
      [
        "Ġversion",
        -9.687396852858097
      ],
      [
        "Ġmoisture",
        -9.688163576853732
      ],
      [
        "Ġleaf",
        -9.688277040762388
      ],
      [
        "Ġnothing",
        -9.688437630321175
      ],
      [
        "also",
        -9.689477588747938
      ],
      [
        "when",
        -9.68980929766887
      ],
      [
        "Ġegg",
        -9.68981223613563
      ],
      [
        "-term",
        -9.689852633892553
      ],
      [
        "Ġresponsible",
        -9.689926243677444
      ],
      [
        "Ġmeaning",
        -9.6909720511911
      ],
      [
        "Ġmoving",
        -9.691665492432444
      ],
      [
        "Ġstorage",
        -9.692347867351817
      ],
      [
        "ĠSouth",
        -9.692630254202935
      ],
      [
        "Ġchance",
        -9.692855961610078
      ],
      [
        "Ġwriting",
        -9.696122226462345
      ],
      [
        "Ġspend",
        -9.700172539109918
      ],
      [
        "Ġculture",
        -9.700660170304133
      ],
      [
        "Ġdesire",
        -9.70200104656304
      ],
      [
        "Ġmusic",
        -9.702276164082434
      ],
      [
        "ance",
        -9.702936412460474
      ],
      [
        "Ġfrequency",
        -9.703056416505683
      ],
      [
        "Ġslight",
        -9.705995153323771
      ],
      [
        "Ġwords",
        -9.70649105962973
      ],
      [
        "Ġready",
        -9.706657875994503
      ],
      [
        "Ġfire",
        -9.707545821529791
      ],
      [
        "Ġcommuniti",
        -9.708395560315935
      ],
      [
        "Ġplatform",
        -9.70925731750546
      ],
      [
        "Ġevent",
        -9.709740726607848
      ],
      [
        "ĠMost",
        -9.710304342528554
      ],
      [
        "ĠHowe",
        -9.711326786229344
      ],
      [
        "Ġhands",
        -9.711851103445644
      ],
      [
        "Ġideas",
        -9.711864536450628
      ],
      [
        "lower",
        -9.712274675600453
      ],
      [
        "Ġfaste",
        -9.716362235563022
      ],
      [
        "Ġstates",
        -9.716762521722789
      ],
      [
        "Ġeffectively",
        -9.717752800266926
      ],
      [
        "Ġpresence",
        -9.719186031049343
      ],
      [
        "Ġhorse",
        -9.71920161188731
      ],
      [
        "Ġever",
        -9.719263106749551
      ],
      [
        "Ġfine",
        -9.720137741614048
      ],
      [
        "related",
        -9.720838145430193
      ],
      [
        "Ġpurchase",
        -9.721908020786806
      ],
      [
        "Ġconnect",
        -9.722125455708769
      ],
      [
        "Ġphone",
        -9.722411648875026
      ],
      [
        "Ġjourney",
        -9.722552385855913
      ],
      [
        "Ġcutting",
        -9.723881677654614
      ],
      [
        "Ġusers",
        -9.724170880700154
      ],
      [
        "Ġreflect",
        -9.724636647597798
      ],
      [
        "Ġtesting",
        -9.725699872229107
      ],
      [
        "Ġhair",
        -9.725982613176814
      ],
      [
        "Ġflavor",
        -9.725997309612756
      ],
      [
        "ary",
        -9.727813015568849
      ],
      [
        "Ġlaw",
        -9.728096329766265
      ],
      [
        "Ġwild",
        -9.728203823321495
      ],
      [
        "Ġthird",
        -9.72930375093392
      ],
      [
        "Ġpowerful",
        -9.732080760968888
      ],
      [
        "made",
        -9.732373618597334
      ],
      [
        "Ġdegrees",
        -9.733618938249972
      ],
      [
        "Ġscale",
        -9.734669152775052
      ],
      [
        "Ġindicate",
        -9.735811528071288
      ],
      [
        "Ġball",
        -9.735836286790178
      ],
      [
        "Ġheavy",
        -9.736162195609063
      ],
      [
        "Ġaction",
        -9.73709475226729
      ],
      [
        "Ġfabric",
        -9.737361286724486
      ],
      [
        "Ġcommercial",
        -9.73753529501356
      ],
      [
        "Ġfigure",
        -9.738649448824155
      ],
      [
        "Ġpanel",
        -9.739286858480115
      ],
      [
        "Ġrefer",
        -9.739889145102918
      ],
      [
        "lthough",
        -9.740465487129756
      ],
      [
        "Ġwonder",
        -9.740559188104
      ],
      [
        "Ġcollection",
        -9.74082937705534
      ],
      [
        "Ġfiber",
        -9.741438957859865
      ],
      [
        "Ġwait",
        -9.742449589920485
      ],
      [
        "Ġcontext",
        -9.742582325164374
      ],
      [
        "ĠF",
        -9.744083871897203
      ],
      [
        "Ġco",
        -9.74422749981128
      ],
      [
        "Ġocean",
        -9.74429350031075
      ],
      [
        "Ġtook",
        -9.745885258676298
      ],
      [
        "Ġ=",
        -9.74717876710039
      ],
      [
        "Ġexposure",
        -9.747820870535364
      ],
      [
        "Ġmechanism",
        -9.747987869777187
      ],
      [
        "Ġbeautiful",
        -9.749124868042657
      ],
      [
        "ĠCenter",
        -9.750006176381111
      ],
      [
        "Ġsevere",
        -9.75006272735817
      ],
      [
        "Ġtherefor",
        -9.750310935681014
      ],
      [
        "Ġtasks",
        -9.75122530348471
      ],
      [
        "Ġproperty",
        -9.751262970582324
      ],
      [
        "Ġfloor",
        -9.751895725725744
      ],
      [
        "Ġmessage",
        -9.752500501888404
      ],
      [
        "Ġvision",
        -9.75491351058156
      ],
      [
        "flowers",
        -9.756325902933789
      ],
      [
        "Ġdiscuss",
        -9.7565278799201
      ],
      [
        "ther",
        -9.757499346194503
      ],
      [
        "Ġsolid",
        -9.757900557850476
      ],
      [
        "Ġfriends",
        -9.757949977958855
      ],
      [
        "beyond",
        -9.75878754750006
      ],
      [
        "should",
        -9.760066952459196
      ],
      [
        "Ġdeath",
        -9.7617354430975
      ],
      [
        "Ġ[",
        -9.763397813253398
      ],
      [
        "Ġstrategies",
        -9.763952284724482
      ],
      [
        "Ġensur",
        -9.76403923779942
      ],
      [
        "Ġwrong",
        -9.765276919592935
      ],
      [
        "Ġdoctor",
        -9.766726510171736
      ],
      [
        "written",
        -9.767343022493414
      ],
      [
        "Ġrecognize",
        -9.767563658735847
      ],
      [
        "Ġsetting",
        -9.767593649758997
      ],
      [
        "ĠTheir",
        -9.768873454225638
      ],
      [
        "Ġmeasurement",
        -9.7699994503205
      ],
      [
        "ooking",
        -9.770086024164698
      ],
      [
        "Ġeasi",
        -9.770814616239978
      ],
      [
        "Ġopportunity",
        -9.771148508526617
      ],
      [
        "Ġlesson",
        -9.772291758909557
      ],
      [
        "Ġtransport",
        -9.77276497485327
      ],
      [
        "Ġfunctions",
        -9.77318579161164
      ],
      [
        "Ġresistance",
        -9.773607213189608
      ],
      [
        "Ġsustainabl",
        -9.773874694875968
      ],
      [
        "Ġbone",
        -9.774494494350892
      ],
      [
        "Ġdeliver",
        -9.775785594157629
      ],
      [
        "Ġsensor",
        -9.775835321081471
      ],
      [
        "light",
        -9.779035362482547
      ],
      [
        "Ġearth",
        -9.77911605370766
      ],
      [
        "Ġdiabetes",
        -9.779388746303312
      ],
      [
        "Ġlocate",
        -9.779459750828453
      ],
      [
        "Ġmedication",
        -9.77970354681151
      ],
      [
        "Ġselect",
        -9.780280497210388
      ],
      [
        "Ġmedium",
        -9.78099012248616
      ],
      [
        "ĠMany",
        -9.781418811255593
      ],
      [
        "going",
        -9.781420507733788
      ],
      [
        "take",
        -9.784908380726655
      ],
      [
        "Ġexpensive",
        -9.785040578226482
      ],
      [
        "Ġinteresting",
        -9.785218084503017
      ],
      [
        "day",
        -9.785859584696157
      ],
      [
        "ĠFrom",
        -9.787648257378954
      ],
      [
        "Ġiron",
        -9.788437617365304
      ],
      [
        "Ġthinking",
        -9.788509157348152
      ],
      [
        "ĠMy",
        -9.790796559136291
      ],
      [
        "Ġstage",
        -9.7910848629069
      ],
      [
        "Ġapproximate",
        -9.791399183517154
      ],
      [
        "Ġnumbers",
        -9.793607350326589
      ],
      [
        "Ġdraw",
        -9.793671728785563
      ],
      [
        "Ġfarm",
        -9.793747792800628
      ],
      [
        "After",
        -9.795326990621136
      ],
      [
        "head",
        -9.798110935033762
      ],
      [
        "Ġdriver",
        -9.799338271048402
      ],
      [
        "Ġflight",
        -9.799430571601633
      ],
      [
        "Ġ$",
        -9.79950551180812
      ],
      [
        "est",
        -9.799902854241465
      ],
      [
        "Most",
        -9.800011998716911
      ],
      [
        "Ġsecurity",
        -9.801678551845685
      ],
      [
        "Ġpest",
        -9.80332738664949
      ],
      [
        "Ġpicture",
        -9.803884260799148
      ],
      [
        "Ġconsumption",
        -9.804634000297217
      ],
      [
        "Ġcouple",
        -9.805084442874705
      ],
      [
        "Ġmiddle",
        -9.805947439635077
      ],
      [
        "Ġcontainer",
        -9.806745243759147
      ],
      [
        "end",
        -9.8091741950059
      ],
      [
        "Many",
        -9.809322875053995
      ],
      [
        "Ġforward",
        -9.81058206452142
      ],
      [
        "Ġcomfortabl",
        -9.813963797200136
      ],
      [
        "Ġsoon",
        -9.815616317006144
      ],
      [
        "ĠOur",
        -9.815845336240798
      ],
      [
        "Ġemissions",
        -9.817162733058542
      ],
      [
        "Ġrepair",
        -9.817293204811143
      ],
      [
        "Ġconstruction",
        -9.817726810011116
      ],
      [
        "Ġdivers",
        -9.818088653097435
      ],
      [
        "ĠEnglish",
        -9.819396729521683
      ],
      [
        "lot",
        -9.819410102392164
      ],
      [
        "Ġroad",
        -9.81946283341699
      ],
      [
        "Ġhost",
        -9.821657865199072
      ],
      [
        "Ġchallenge",
        -9.821821674009978
      ],
      [
        "Ġrecord",
        -9.822259048893208
      ],
      [
        "Ġnative",
        -9.822453092977902
      ],
      [
        "ring",
        -9.822468917953463
      ],
      [
        "Ġsmooth",
        -9.8251057479369
      ],
      [
        "Ġswitch",
        -9.825349125126513
      ],
      [
        "wildlife",
        -9.82735330457625
      ],
      [
        "bility",
        -9.827832870807654
      ],
      [
        "Ġcapacity",
        -9.828605403103186
      ],
      [
        "Ġclaim",
        -9.828738303167531
      ],
      [
        "Ġelement",
        -9.831058739604948
      ],
      [
        "ĠNot",
        -9.83142542893875
      ],
      [
        "Ġthousand",
        -9.831439384655557
      ],
      [
        "Ġcapture",
        -9.83144723618231
      ],
      [
        "Ġfair",
        -9.831780337826505
      ],
      [
        "ĠAlso",
        -9.832286766608496
      ],
      [
        "Ġprevious",
        -9.833178495486152
      ],
      [
        "Our",
        -9.834735288038658
      ],
      [
        "Ġdrawing",
        -9.83561340100722
      ],
      [
        "Ġconsistent",
        -9.835620279547896
      ],
      [
        "Ġtherap",
        -9.836459970260265
      ],
      [
        "Ġexcellent",
        -9.837471192913108
      ],
      [
        "Ġhuge",
        -9.83892631863494
      ],
      [
        "Ġnote",
        -9.839336019974072
      ],
      [
        "Ġvegetables",
        -9.839455515388682
      ],
      [
        "Ġsecure",
        -9.8397855125804
      ],
      [
        "ĠOf",
        -9.841408415520496
      ],
      [
        "Ġparticles",
        -9.841454303315167
      ],
      [
        "Ġdemonstrate",
        -9.842528491815514
      ],
      [
        "Ġre",
        -9.842941973712318
      ],
      [
        "Ġresulting",
        -9.84305293244687
      ],
      [
        "Which",
        -9.84335682487048
      ],
      [
        "Ġgames",
        -9.844089728032504
      ],
      [
        "alone",
        -9.844434559843396
      ],
      [
        "Ġroot",
        -9.844956313688789
      ],
      [
        "Ġadjust",
        -9.845530555568011
      ],
      [
        "Ġmode",
        -9.845787275620625
      ],
      [
        "ĠWho",
        -9.847483261087913
      ],
      [
        "ĠJ",
        -9.848245241519423
      ],
      [
        "ĠState",
        -9.848260504820017
      ],
      [
        "ice",
        -9.851220245927545
      ],
      [
        "Ġinternal",
        -9.853648212275072
      ],
      [
        "Ġextend",
        -9.854832078388494
      ],
      [
        "About",
        -9.855197074462218
      ],
      [
        "Ġplanning",
        -9.85643264888277
      ],
      [
        "Ġgets",
        -9.85710629909071
      ],
      [
        "Ġbox",
        -9.858924896764002
      ],
      [
        "Ġvital",
        -9.859550917601064
      ],
      [
        "Ġsurrounding",
        -9.85970133908562
      ],
      [
        ".S",
        -9.861009287287365
      ],
      [
        "coming",
        -9.862232766466258
      ],
      [
        "Ġfoot",
        -9.862582884308704
      ],
      [
        "Ġidentifie",
        -9.863403057601374
      ],
      [
        "ĠWater",
        -9.86434717194832
      ],
      [
        "red",
        -9.865469876998368
      ],
      [
        "Ġinches",
        -9.865511129703568
      ],
      [
        "ĠAre",
        -9.86795565610517
      ],
      [
        "ĠDay",
        -9.869008403029468
      ],
      [
        "Ġcount",
        -9.86930050934822
      ],
      [
        "Ġdepth",
        -9.870067214232549
      ],
      [
        "Ġphase",
        -9.870648885757324
      ],
      [
        "Ġinternational",
        -9.87200954815444
      ],
      [
        "Ġc",
        -9.873018278868203
      ],
      [
        "Ġint",
        -9.873332688028352
      ],
      [
        "let",
        -9.874143371130806
      ],
      [
        "uses",
        -9.874802408400422
      ],
      [
        "Ġvitamin",
        -9.87551712112592
      ],
      [
        ".com",
        -9.878422486322268
      ],
      [
        "Ġinjur",
        -9.878653375107136
      ],
      [
        "Ġconsume",
        -9.88013811791632
      ],
      [
        "Ġprocessing",
        -9.880285716585409
      ],
      [
        "Ġnoise",
        -9.880625059304156
      ],
      [
        "Ġreview",
        -9.880915719481996
      ],
      [
        "All",
        -9.881285381689022
      ],
      [
        "Ġstand",
        -9.883400326397997
      ],
      [
        "cause",
        -9.883492678272034
      ],
      [
        "Ġmiles",
        -9.884305864734849
      ],
      [
        "ĠâĢĶ",
        -9.884487307651604
      ],
      [
        "Ġhighl",
        -9.884920613456494
      ],
      [
        "Ġphotograph",
        -9.885502986542152
      ],
      [
        "Ġstick",
        -9.886088198713004
      ],
      [
        "Ġconvert",
        -9.887928308830444
      ],
      [
        "Ġtexture",
        -9.88829669333903
      ],
      [
        "Ġmatch",
        -9.89051979056238
      ],
      [
        "Ġcomponent",
        -9.89173035123588
      ],
      [
        "Ġmanufacturer",
        -9.891788076770824
      ],
      [
        "Ġconservation",
        -9.892123081617193
      ],
      [
        "ĠOnc",
        -9.89263434828062
      ],
      [
        "during",
        -9.893079438050556
      ],
      [
        "ĠBe",
        -9.893372751140983
      ],
      [
        "Ġlack",
        -9.893681426798342
      ],
      [
        "Ġalcohol",
        -9.895638099418877
      ],
      [
        "Ġconnected",
        -9.89609460701491
      ],
      [
        "Ġwrite",
        -9.896987642873714
      ],
      [
        "Ġsupplement",
        -9.89753818505989
      ],
      [
        "patterns",
        -9.897782726717718
      ],
      [
        "Ġhabitat",
        -9.89853468436515
      ],
      [
        "Ġequal",
        -9.898616536018867
      ],
      [
        "Ġrules",
        -9.899307354859994
      ],
      [
        "Ġregions",
        -9.89971581110786
      ],
      [
        "ĠMake",
        -9.899841020658254
      ],
      [
        "ily",
        -9.899901101773256
      ],
      [
        "Ġtechnologies",
        -9.900060052931256
      ],
      [
        "Ġheight",
        -9.900098993288974
      ],
      [
        "ĠK",
        -9.900969575549745
      ],
      [
        "-like",
        -9.901328292426507
      ],
      [
        "Ġkill",
        -9.90259239690002
      ],
      [
        "Ġmaximum",
        -9.90304300221903
      ],
      [
        "Ġsurvey",
        -9.903327114141575
      ],
      [
        "Ġrare",
        -9.906751614293936
      ],
      [
        "ship",
        -9.90828006851564
      ],
      [
        "Ġfamili",
        -9.90905855512302
      ],
      [
        "Ġsquare",
        -9.90911603040728
      ],
      [
        "Ġpaint",
        -9.90944817565166
      ],
      [
        "Ġpush",
        -9.911417246529314
      ],
      [
        "led",
        -9.911569815156293
      ],
      [
        "Your",
        -9.912068159615927
      ],
      [
        "Ġbackground",
        -9.912319334480564
      ],
      [
        "Ġgrass",
        -9.914934292802124
      ],
      [
        "Ġvoltage",
        -9.914980713282675
      ],
      [
        "Ġseed",
        -9.916213374623144
      ],
      [
        "Ġinstall",
        -9.916387929914949
      ],
      [
        "land",
        -9.916420074760232
      ],
      [
        "self",
        -9.917109209812423
      ],
      [
        "Ġaffected",
        -9.917273825986928
      ],
      [
        "Ġfinancial",
        -9.917529996800308
      ],
      [
        "Ġworth",
        -9.917690756815109
      ],
      [
        "Ġsea",
        -9.91825780653792
      ],
      [
        "Ġexpect",
        -9.919336782604658
      ],
      [
        "Ġw",
        -9.919470921875195
      ],
      [
        "characteristics",
        -9.919582067746848
      ],
      [
        "Ġlegal",
        -9.919870263753271
      ],
      [
        "Ġscreen",
        -9.91992747346748
      ],
      [
        "Ġvariable",
        -9.92134475862267
      ],
      [
        "ce",
        -9.92168979913151
      ],
      [
        "Ġage",
        -9.92174355016773
      ],
      [
        "dditionally",
        -9.922807480590729
      ],
      [
        "Ġdrug",
        -9.923240580633788
      ],
      [
        "Ġvaluable",
        -9.923338149536876
      ],
      [
        "Ġpieces",
        -9.923472767255657
      ],
      [
        "Ġnode",
        -9.925190036763432
      ],
      [
        "Ġdail",
        -9.925534079311223
      ],
      [
        "Ġexpression",
        -9.927298681217838
      ],
      [
        "ĠWhy",
        -9.92792581369338
      ],
      [
        "Ġexamples",
        -9.92800444929562
      ],
      [
        "Ġcarrie",
        -9.929355177065853
      ],
      [
        "oil",
        -9.92986872484076
      ],
      [
        "Ġtests",
        -9.929987962973636
      ],
      [
        "ĠMay",
        -9.930217130838365
      ],
      [
        "Ġlabel",
        -9.930696943573192
      ],
      [
        "ry",
        -9.931362966059122
      ],
      [
        "ĠGod",
        -9.932651409714428
      ],
      [
        "Ġstructures",
        -9.93289837745622
      ],
      [
        "Ġquick",
        -9.935124038222376
      ],
      [
        "Ġweb",
        -9.935191939106012
      ],
      [
        "Ġdouble",
        -9.935795439616015
      ],
      [
        "ĠNOT",
        -9.935874373643138
      ],
      [
        "ĠUK",
        -9.936450192475762
      ],
      [
        "Ġstuff",
        -9.936913714239292
      ],
      [
        "wide",
        -9.937567658288671
      ],
      [
        "group",
        -9.937875635996658
      ],
      [
        "Ġtransfer",
        -9.938058804345284
      ],
      [
        "Ġsurvive",
        -9.938887382562664
      ],
      [
        "Ġnational",
        -9.939287054869036
      ],
      [
        "Ġrich",
        -9.939552703614751
      ],
      [
        "Ġlink",
        -9.93977484651408
      ],
      [
        "Ġboard",
        -9.94002588227125
      ],
      [
        "ĠEuropean",
        -9.94042701240135
      ],
      [
        "Ġactual",
        -9.940843035326964
      ],
      [
        "Ġbeginning",
        -9.942852683221572
      ],
      [
        "Ġmulti",
        -9.945336850093772
      ],
      [
        "Ġpark",
        -9.945851631713344
      ],
      [
        "Ġphoto",
        -9.94631752573735
      ],
      [
        "Ġmouth",
        -9.946496666561208
      ],
      [
        "Ġroots",
        -9.94687759232082
      ],
      [
        "Ġfavorite",
        -9.948112926265935
      ],
      [
        "fully",
        -9.948461059810008
      ],
      [
        "Ġinsight",
        -9.948544280084604
      ],
      [
        "Ġsequence",
        -9.950098215651003
      ],
      [
        "immediately",
        -9.950438065160077
      ],
      [
        "anyon",
        -9.950505457022562
      ],
      [
        "came",
        -9.950983162423734
      ],
      [
        "Ġpractical",
        -9.95130565397903
      ],
      [
        "ĠLet",
        -9.952146193318056
      ],
      [
        "Ġmixture",
        -9.95228013657542
      ],
      [
        "ĠOr",
        -9.952313660344648
      ],
      [
        "ĠInstitute",
        -9.952989834103413
      ],
      [
        "Ġbright",
        -9.952994374766671
      ],
      [
        "Ġexpose",
        -9.954163011845935
      ],
      [
        "Ġ&",
        -9.95451491146423
      ],
      [
        "Ġreported",
        -9.955213968890074
      ],
      [
        "Ġbreed",
        -9.955519780413
      ],
      [
        "Ġplanet",
        -9.955971573204874
      ],
      [
        "Ġprogress",
        -9.956083771859356
      ],
      [
        "Ġcolour",
        -9.956698193399037
      ],
      [
        "Ġorganization",
        -9.957133188443912
      ],
      [
        "Ġwindow",
        -9.957356189355004
      ],
      [
        "Ġdegree",
        -9.957498499655872
      ],
      [
        "On",
        -9.960334370177662
      ],
      [
        "Ġcoast",
        -9.960797098971913
      ],
      [
        "Ġadvice",
        -9.961072975257691
      ],
      [
        "Ġmeasures",
        -9.961511525506236
      ],
      [
        "Ġanti",
        -9.962998788095373
      ],
      [
        "Ġexpected",
        -9.963686066135589
      ],
      [
        "Ġplease",
        -9.964249365770169
      ],
      [
        "Ġmotor",
        -9.965614421991976
      ],
      [
        "Ġsteel",
        -9.965722938901862
      ],
      [
        "no",
        -9.96657484874407
      ],
      [
        "Ġsettings",
        -9.96719702136783
      ],
      [
        "Ġm",
        -9.967207243412648
      ],
      [
        "Ġhabit",
        -9.96766243305403
      ],
      [
        "went",
        -9.96801457879261
      ],
      [
        "pecifically",
        -9.9680840830306
      ],
      [
        "Ġstaff",
        -9.969048882236777
      ],
      [
        "Ġhot",
        -9.96954539810567
      ],
      [
        "Ġteachers",
        -9.97093806033024
      ],
      [
        "Ġadvantage",
        -9.97160252775775
      ],
      [
        "signs",
        -9.972456355552236
      ],
      [
        "Ġevolution",
        -9.973082836303211
      ],
      [
        "known",
        -9.973756666710234
      ],
      [
        "Ġdistribution",
        -9.974825287077064
      ],
      [
        "Ġoperation",
        -9.976283322495718
      ],
      [
        "Ġcustomer",
        -9.977365222487617
      ],
      [
        "Ġcaus",
        -9.979080147579728
      ],
      [
        "Ġselection",
        -9.97964474807818
      ],
      [
        "Ġequation",
        -9.979986968128582
      ],
      [
        "Ġfarmer",
        -9.980475607795036
      ],
      [
        "Ġsports",
        -9.980961672205297
      ],
      [
        "Ġappearance",
        -9.98130131573786
      ],
      [
        "Ġcentral",
        -9.981372590932668
      ],
      [
        "ĠDepartment",
        -9.982885547679269
      ],
      [
        "ĠNow",
        -9.98420337540033
      ],
      [
        "Ġrise",
        -9.986128274734751
      ],
      [
        "Yes",
        -9.986322333074686
      ],
      [
        "Ġclick",
        -9.986902736158015
      ],
      [
        "Ġfashion",
        -9.987265868020518
      ],
      [
        "Ġreference",
        -9.987745708508903
      ],
      [
        "ĠCalifornia",
        -9.987854425570337
      ],
      [
        "âĪĴ",
        -9.98799751786133
      ],
      [
        "Ġconsumer",
        -9.988359099096757
      ],
      [
        "Ġblog",
        -9.988412226010702
      ],
      [
        "Ġpick",
        -9.989833140762272
      ],
      [
        "Ġlens",
        -9.99012360016144
      ],
      [
        "Ġemergenc",
        -9.990661556599717
      ],
      [
        "ĠOther",
        -9.99108370233423
      ],
      [
        "ĠEven",
        -9.99127474144926
      ],
      [
        "Ġelectronic",
        -9.991527279396315
      ],
      [
        "long",
        -9.993118001439552
      ],
      [
        "Ġattract",
        -9.993559872232346
      ],
      [
        "Ġoutcome",
        -9.994090425571637
      ],
      [
        "Ġdecade",
        -9.99420841806044
      ],
      [
        "Ġvia",
        -9.994464700301606
      ],
      [
        "Ġflower",
        -9.99540098206534
      ],
      [
        "Ġsweet",
        -9.995633716075382
      ],
      [
        "Ġadapt",
        -9.996179186265609
      ],
      [
        "placed",
        -9.998077093032098
      ],
      [
        "Ġbillion",
        -9.998222671520272
      ],
      [
        "Ġcatch",
        -9.998495319780185
      ],
      [
        "Use",
        -9.999043505421326
      ],
      [
        "Ġeconomic",
        -10.00028662013742
      ],
      [
        "Ġannual",
        -10.001069570952346
      ],
      [
        "Ġdangerous",
        -10.001472393201702
      ],
      [
        "Ġcalculate",
        -10.001758336883375
      ],
      [
        "Do",
        -10.001957974767034
      ],
      [
        "Ġfinding",
        -10.003727731231244
      ],
      [
        "Ġregarding",
        -10.004375878094022
      ],
      [
        "Ġspeak",
        -10.00708909335248
      ],
      [
        "According",
        -10.008019661746152
      ],
      [
        "From",
        -10.008298016482604
      ],
      [
        "Ġconcentration",
        -10.00972601024546
      ],
      [
        "ization",
        -10.010487716843553
      ],
      [
        "Ġdoor",
        -10.01065730940364
      ],
      [
        "Ġdrop",
        -10.010702400773642
      ],
      [
        "Ġrule",
        -10.011819845716817
      ],
      [
        "Ġdrain",
        -10.012525293862648
      ],
      [
        "-free",
        -10.013592101335387
      ],
      [
        "ĠHigh",
        -10.013704515154233
      ],
      [
        "Ġresource",
        -10.015647999362567
      ],
      [
        "Ġexternal",
        -10.01618759441953
      ],
      [
        "weight",
        -10.016575997041826
      ],
      [
        "Ġp",
        -10.01681261054158
      ],
      [
        "Ġimmune",
        -10.016994321499029
      ],
      [
        "Ġflat",
        -10.017572374921942
      ],
      [
        "Ġlearned",
        -10.018005675421255
      ],
      [
        "Ġcustomers",
        -10.018183501422126
      ],
      [
        "Ġbar",
        -10.018549459411297
      ],
      [
        "Ġpredict",
        -10.018933635181078
      ],
      [
        "Ġpollution",
        -10.019228603829994
      ],
      [
        "Ġchocolate",
        -10.01959676181067
      ],
      [
        "Ġexperiences",
        -10.02037530145543
      ],
      [
        "ĠIndia",
        -10.021312700976493
      ],
      [
        "No",
        -10.021610245768166
      ],
      [
        "Ġmarine",
        -10.022289986375874
      ],
      [
        "Ġartist",
        -10.022336053137328
      ],
      [
        "ĠAfrica",
        -10.023637531945
      ],
      [
        "Ġroutine",
        -10.024156629890804
      ],
      [
        "Ġrock",
        -10.024717495043124
      ],
      [
        "field",
        -10.024899449859898
      ],
      [
        "keep",
        -10.024904611040943
      ],
      [
        "Ġhappy",
        -10.026505447019764
      ],
      [
        "Ġvirus",
        -10.02697310758365
      ],
      [
        "Ġteaching",
        -10.028280011146832
      ],
      [
        "Ġprefer",
        -10.0291081485004
      ],
      [
        "Ġvoice",
        -10.029412532411897
      ],
      [
        "Ġinstructions",
        -10.031108827643108
      ],
      [
        "Ġtable",
        -10.031113894665792
      ],
      [
        "Although",
        -10.031296058819606
      ],
      [
        "ĠFirst",
        -10.031405459894096
      ],
      [
        "Ġcreative",
        -10.031570608754825
      ],
      [
        "Ġmental",
        -10.032023864998216
      ],
      [
        "visible",
        -10.032231709926249
      ],
      [
        "Ġperspective",
        -10.033050130873267
      ],
      [
        "board",
        -10.033051399691765
      ],
      [
        "Ġopportunit",
        -10.033360104367611
      ],
      [
        "Ġcomprehensive",
        -10.033550851258436
      ],
      [
        "Ġhelping",
        -10.033770079544563
      ],
      [
        "Ġbodies",
        -10.033917766793708
      ],
      [
        "ĠIs",
        -10.036716449507724
      ],
      [
        "Ġcapabilit",
        -10.0371172888871
      ],
      [
        "many",
        -10.037344742512117
      ],
      [
        "ĠRiver",
        -10.037863420575942
      ],
      [
        "Ġengage",
        -10.037913864298574
      ],
      [
        "Ġgrade",
        -10.038439399600808
      ],
      [
        "Ġshade",
        -10.039000132339332
      ],
      [
        "order",
        -10.039223880628526
      ],
      [
        "Ġsites",
        -10.039621828989382
      ],
      [
        "Ġsaw",
        -10.04025803150057
      ],
      [
        "Ġhundred",
        -10.040470071031514
      ],
      [
        "Ġmember",
        -10.04077529873248
      ],
      [
        "Ġgap",
        -10.041633192605335
      ],
      [
        "Ġdiscovere",
        -10.042673672407329
      ],
      [
        "Onc",
        -10.04346295907225
      ],
      [
        "Ġbasis",
        -10.043647401137626
      ],
      [
        "Ġimplement",
        -10.04484093547399
      ],
      [
        "eating",
        -10.045350087120324
      ],
      [
        "Ġinterested",
        -10.04553421417418
      ],
      [
        "Ġoperat",
        -10.045908739876683
      ],
      [
        "ĠEnergy",
        -10.046498814301804
      ],
      [
        "ĠV",
        -10.04735831417906
      ],
      [
        "Ġoffice",
        -10.047454159003763
      ],
      [
        "Ġemotional",
        -10.047607356599125
      ],
      [
        "Ġhighlight",
        -10.051066120690166
      ],
      [
        "Ġvirtual",
        -10.051634971598508
      ],
      [
        "Ġfeeding",
        -10.052182620534843
      ],
      [
        "Ġtrigger",
        -10.052741942025037
      ],
      [
        "lost",
        -10.054363020027
      ],
      [
        "Ġmotion",
        -10.054743842723187
      ],
      [
        "ĠX",
        -10.056089204702268
      ],
      [
        "Ġoptimal",
        -10.056684725271491
      ],
      [
        "him",
        -10.05676034706931
      ],
      [
        "Ġgoals",
        -10.057853541792312
      ],
      [
        "Ġhour",
        -10.058001636432518
      ],
      [
        "Ġwanted",
        -10.058418223464995
      ],
      [
        "Ġsort",
        -10.059155536905106
      ],
      [
        "ĠPark",
        -10.059468757700952
      ],
      [
        "Ġschedule",
        -10.059525587099046
      ],
      [
        "Ġattempt",
        -10.060516598285243
      ],
      [
        "Ġse",
        -10.06165729962305
      ],
      [
        "Ġart",
        -10.062462770252951
      ],
      [
        "Ġlines",
        -10.064087083467824
      ],
      [
        "my",
        -10.064587514621884
      ],
      [
        "Ġfocuse",
        -10.065319543592366
      ],
      [
        "Ġsnow",
        -10.065485389858598
      ],
      [
        "Ġatmosphere",
        -10.066049866849529
      ],
      [
        "Ġassist",
        -10.06696287398112
      ],
      [
        "Ġdead",
        -10.067641260061809
      ],
      [
        "Ġexpand",
        -10.067832186255998
      ],
      [
        "Ġchemicals",
        -10.067857943882297
      ],
      [
        "Ġreliabl",
        -10.068366769723454
      ],
      [
        "Ġsounds",
        -10.069168717409363
      ],
      [
        "Ġvariation",
        -10.069879050265127
      ],
      [
        "Ġmother",
        -10.070537279070146
      ],
      [
        "Ġreceived",
        -10.070726022506571
      ],
      [
        "know",
        -10.072567848247054
      ],
      [
        "Ġvalve",
        -10.072770150367848
      ],
      [
        "wood",
        -10.07280921593
      ],
      [
        "Ġcross",
        -10.073037834693878
      ],
      [
        "Ġsustain",
        -10.073447373430376
      ],
      [
        "Ġstraight",
        -10.07439909061926
      ],
      [
        "Ġbooks",
        -10.07577713763974
      ],
      [
        "rought",
        -10.07588798117909
      ],
      [
        "Ġmorning",
        -10.076555802442698
      ],
      [
        "ĠAt",
        -10.07668525942027
      ],
      [
        "ĠEurope",
        -10.077011021282155
      ],
      [
        "Ġbirth",
        -10.077540271870507
      ],
      [
        "Ġdate",
        -10.078114752699353
      ],
      [
        "Ġchain",
        -10.078162801044977
      ],
      [
        "Ġfriend",
        -10.078466264593914
      ],
      [
        "Ġmedicine",
        -10.0802196659941
      ],
      [
        "ility",
        -10.08044074693769
      ],
      [
        "ating",
        -10.080622739242187
      ],
      [
        "through",
        -10.080741192071896
      ],
      [
        "Ġoffering",
        -10.081063170805637
      ],
      [
        "Ġsurger",
        -10.081882647633602
      ],
      [
        "-being",
        -10.08194976039262
      ],
      [
        "Ġhelpful",
        -10.082527956992596
      ],
      [
        "Ġstock",
        -10.082661586457824
      ],
      [
        "Ġprint",
        -10.082906487549025
      ],
      [
        "Ġclassroom",
        -10.08298078416879
      ],
      [
        "Ġconcrete",
        -10.083242937354768
      ],
      [
        "try",
        -10.083300815765202
      ],
      [
        "Ġdetailed",
        -10.084147758884823
      ],
      [
        "Ġarray",
        -10.084980585890111
      ],
      [
        "city",
        -10.085134278860997
      ],
      [
        "Ġconclusion",
        -10.08599341165851
      ],
      [
        "Ġphotos",
        -10.086102740334924
      ],
      [
        "Ġbutton",
        -10.08698806423979
      ],
      [
        "Ġrate",
        -10.0879146368202
      ],
      [
        "Ġgettin",
        -10.088659338462474
      ],
      [
        "Ġtopic",
        -10.089232109893182
      ],
      [
        "people",
        -10.089394879763695
      ],
      [
        "new",
        -10.089424520603185
      ],
      [
        "Ġreveal",
        -10.089675770901623
      ],
      [
        "Ġblade",
        -10.090583075356676
      ],
      [
        "Ġroof",
        -10.090590399062112
      ],
      [
        "form",
        -10.09062583004149
      ],
      [
        "range",
        -10.090810021298612
      ],
      [
        "Ġbatteries",
        -10.090866311497658
      ],
      [
        "ful",
        -10.09152498170985
      ],
      [
        "Ġshift",
        -10.092685790632943
      ],
      [
        "Ġbiological",
        -10.093434872567425
      ],
      [
        "Ġpair",
        -10.093570708451246
      ],
      [
        "Ġwhe",
        -10.093691507771716
      ],
      [
        "Ġcarefully",
        -10.09444900006866
      ],
      [
        "Ġcareer",
        -10.094923284285631
      ],
      [
        "Ġhydrogen",
        -10.09537685232956
      ],
      [
        "Ġsociet",
        -10.095391600818232
      ],
      [
        "eat",
        -10.095518727700034
      ],
      [
        "Ġwa",
        -10.095572299063212
      ],
      [
        "Ġtransition",
        -10.09619834742846
      ],
      [
        "Ġorigin",
        -10.097924580445651
      ],
      [
        "Ġfit",
        -10.09830628248828
      ],
      [
        "Ġangle",
        -10.09881494714589
      ],
      [
        "Ġpull",
        -10.098972006627928
      ],
      [
        "Ġshot",
        -10.09901237614216
      ],
      [
        "Ġfilm",
        -10.099605860066328
      ],
      [
        "Ġrespect",
        -10.09963542167806
      ],
      [
        "ĠAccording",
        -10.100547414900458
      ],
      [
        "Ġcity",
        -10.100759934843277
      ],
      [
        "air",
        -10.1008845330703
      ],
      [
        "ĠAustralia",
        -10.101040679375505
      ],
      [
        "Ġcomfort",
        -10.101203761629298
      ],
      [
        "tiny",
        -10.101959465378442
      ],
      [
        "Ġshell",
        -10.101975888081768
      ],
      [
        "Ġupper",
        -10.1026120745673
      ],
      [
        "First",
        -10.102718830441567
      ],
      [
        "Ġclient",
        -10.103483329890471
      ],
      [
        "Ġsub",
        -10.103731282272465
      ],
      [
        "Ġestablishe",
        -10.103767940495125
      ],
      [
        "Ġofficial",
        -10.103796214744026
      ],
      [
        "Ġplanting",
        -10.104042500892607
      ],
      [
        "Ġinform",
        -10.10463827332123
      ],
      [
        "Ġregard",
        -10.105296166067648
      ],
      [
        "Ġcheese",
        -10.105493449562983
      ],
      [
        "Ġnumero",
        -10.106489137847678
      ],
      [
        "Ġowners",
        -10.106784696655607
      ],
      [
        "/or",
        -10.1070926943875
      ],
      [
        "Are",
        -10.107172956247776
      ],
      [
        "Ġforms",
        -10.107929468489916
      ],
      [
        "Ġstandards",
        -10.10868545694315
      ],
      [
        "Ġreduction",
        -10.10870501343638
      ],
      [
        "Ġnews",
        -10.109314464900864
      ],
      [
        "becaus",
        -10.109478448629458
      ],
      [
        "ĠTherefor",
        -10.11030399962154
      ],
      [
        "ĠJust",
        -10.110363227266957
      ],
      [
        "Ġcontrast",
        -10.110526973641662
      ],
      [
        "ĠAlthough",
        -10.110671409440338
      ],
      [
        "ones",
        -10.111697308208171
      ],
      [
        "Ġplaces",
        -10.112186751702415
      ],
      [
        "-year",
        -10.112974135195133
      ],
      [
        "Ġcloud",
        -10.113123636802085
      ],
      [
        "Ġshowed",
        -10.113394466981186
      ],
      [
        "Ġchannel",
        -10.115985999781564
      ],
      [
        "Ġbottle",
        -10.116534559866452
      ],
      [
        "efore",
        -10.118549843699256
      ],
      [
        "Ġchalleng",
        -10.11885122338044
      ],
      [
        "Ġartificial",
        -10.119361824911572
      ],
      [
        "Ġteacher",
        -10.119598531942728
      ],
      [
        "Ġresident",
        -10.119974934761476
      ],
      [
        "Ġpot",
        -10.121300967131669
      ],
      [
        "uring",
        -10.122768437154043
      ],
      [
        "ĠCO",
        -10.122977535120658
      ],
      [
        "am",
        -10.123401959383513
      ],
      [
        "Ġoperations",
        -10.12377209196672
      ],
      [
        "Ġimprovement",
        -10.124296227039514
      ],
      [
        "Let",
        -10.124743979562508
      ],
      [
        "en",
        -10.12474720233693
      ],
      [
        "Ġpolicy",
        -10.1248038190636
      ],
      [
        "Ġfindings",
        -10.125647002245678
      ],
      [
        "Ġcreature",
        -10.125647841338278
      ],
      [
        "Ġestablish",
        -10.12595962631038
      ],
      [
        "Ġvector",
        -10.126118667674856
      ],
      [
        "Ġtypical",
        -10.126675440181325
      ],
      [
        "Ġestimate",
        -10.127174973572693
      ],
      [
        "ĠEducation",
        -10.12867567620566
      ],
      [
        "first",
        -10.12912897666003
      ],
      [
        "Ġkitchen",
        -10.129210937784023
      ],
      [
        "put",
        -10.129913179443044
      ],
      [
        "Ġstrategy",
        -10.130941087151871
      ],
      [
        "around",
        -10.13125638904674
      ],
      [
        "Ġfossil",
        -10.132023230341554
      ],
      [
        "Ġoutdoor",
        -10.13350348402858
      ],
      [
        "Ġdiscussion",
        -10.133869803251578
      ],
      [
        "Ġimproved",
        -10.134101735017598
      ],
      [
        "been",
        -10.134141950425509
      ],
      [
        "Ġolder",
        -10.134717302413272
      ],
      [
        "Ġinterface",
        -10.13483590502802
      ],
      [
        "Ġfill",
        -10.134923175122612
      ],
      [
        "held",
        -10.135293798618497
      ],
      [
        "Ġnice",
        -10.13611694673904
      ],
      [
        "Ġemployee",
        -10.136202981045344
      ],
      [
        "ĠLake",
        -10.136437053494737
      ],
      [
        "-quality",
        -10.136996047412756
      ],
      [
        "rhaps",
        -10.137287767960473
      ],
      [
        "Ġlaser",
        -10.137414441865625
      ],
      [
        "Ġinteract",
        -10.137444231825874
      ],
      [
        "Ġemail",
        -10.138277323618784
      ],
      [
        "Ġproduc",
        -10.13994899220585
      ],
      [
        "Ġinteractions",
        -10.141380022451523
      ],
      [
        "Ġgenes",
        -10.141604793892784
      ],
      [
        "days",
        -10.141686525199448
      ],
      [
        "Ġclasses",
        -10.141867202890172
      ],
      [
        "Ġcard",
        -10.144506070557211
      ],
      [
        "ĠFood",
        -10.14456016007802
      ],
      [
        "Ġexamine",
        -10.14528057877843
      ],
      [
        "Ġwalls",
        -10.145619221387104
      ],
      [
        "Ġfund",
        -10.145923646681126
      ],
      [
        "Ġtechnical",
        -10.146138928260152
      ],
      [
        "Ġowner",
        -10.14779793798048
      ],
      [
        "Ġthus",
        -10.14824674233608
      ],
      [
        "Ġrealize",
        -10.148404259504542
      ],
      [
        "Ġstomach",
        -10.148523663995611
      ],
      [
        "Ġutilize",
        -10.149101045020736
      ],
      [
        "capable",
        -10.149623652036052
      ],
      [
        "Ġancient",
        -10.14962760254353
      ],
      [
        "Ġraise",
        -10.14998717655892
      ],
      [
        "Ġisland",
        -10.150690431707426
      ],
      [
        "Ġeducational",
        -10.151847429399098
      ],
      [
        "Ġwheel",
        -10.152303558948812
      ],
      [
        "Ġwave",
        -10.152591994448455
      ],
      [
        "Ġyield",
        -10.153578289515602
      ],
      [
        "ĠTh",
        -10.154000637346869
      ],
      [
        "Â±",
        -10.154516236136704
      ],
      [
        "Ġcontract",
        -10.15600016245988
      ],
      [
        "referred",
        -10.156043992059486
      ],
      [
        "Ġal",
        -10.157067669847375
      ],
      [
        "Ġbeneficial",
        -10.157586021450069
      ],
      [
        "Ġfail",
        -10.158345526305308
      ],
      [
        "kept",
        -10.15955453125131
      ],
      [
        "Ġcredit",
        -10.16072623862616
      ],
      [
        "Ġemotion",
        -10.161506058810604
      ],
      [
        "Ġchang",
        -10.161678519654249
      ],
      [
        "Ġremoved",
        -10.162085292200407
      ],
      [
        "Ġcontinuous",
        -10.162216670160229
      ],
      [
        "Ġindustrial",
        -10.163110152654472
      ],
      [
        "Ġjoin",
        -10.1631143961765
      ],
      [
        "Ġtha",
        -10.163803434365253
      ],
      [
        "Ġaim",
        -10.163852330539347
      ],
      [
        "ctober",
        -10.164043253590089
      ],
      [
        "Ġmid",
        -10.16409550487908
      ],
      [
        "Ġinvestment",
        -10.164365219378428
      ],
      [
        "Ġassess",
        -10.164697402379224
      ],
      [
        "Ġparticipant",
        -10.165433649233686
      ],
      [
        "Ġagree",
        -10.16573651242779
      ],
      [
        "Ġbu",
        -10.165829075445725
      ],
      [
        "Ġload",
        -10.16644457906106
      ],
      [
        "Ġquant",
        -10.166939848239462
      ],
      [
        "Ġengineering",
        -10.168152399180736
      ],
      [
        "Ġthorough",
        -10.16872058113253
      ],
      [
        "ĠSince",
        -10.168802145861031
      ],
      [
        "Ġmelt",
        -10.169400582444965
      ],
      [
        "Ġcream",
        -10.16943702402894
      ],
      [
        "Ġharmful",
        -10.170326338182772
      ],
      [
        "More",
        -10.170940989487194
      ],
      [
        "Ġsend",
        -10.171148408142267
      ],
      [
        "Ġmeeting",
        -10.171220742377823
      ],
      [
        "stock",
        -10.17189912610569
      ],
      [
        "often",
        -10.17276200042474
      ],
      [
        "Ġmold",
        -10.173794588682776
      ],
      [
        "Ġfight",
        -10.173831137129726
      ],
      [
        "tion",
        -10.174756107607465
      ],
      [
        "need",
        -10.175169602635508
      ],
      [
        "Ġsport",
        -10.17527583710884
      ],
      [
        "protected",
        -10.175495931269616
      ],
      [
        "king",
        -10.176319559615251
      ],
      [
        "ĠYork",
        -10.17750963328821
      ],
      [
        "ĠpH",
        -10.177574786588576
      ],
      [
        "Ġobvious",
        -10.178554635369188
      ],
      [
        "Ġmanual",
        -10.178693614551817
      ],
      [
        "Ġgenerator",
        -10.179053096429689
      ],
      [
        "Since",
        -10.179568403959152
      ],
      [
        "âĢ¦Ċ",
        -10.180182401818048
      ],
      [
        "Ġconsequence",
        -10.180290303959026
      ],
      [
        "Ġdioxide",
        -10.180695203069654
      ],
      [
        "Ġact",
        -10.181385217441292
      ],
      [
        "Ġthrow",
        -10.181730512118758
      ],
      [
        "Ġleak",
        -10.182851686411396
      ],
      [
        "Ġcake",
        -10.183237320662869
      ],
      [
        "Does",
        -10.183282240983225
      ],
      [
        "Ġhistorical",
        -10.183376543303446
      ],
      [
        "Ġcharacter",
        -10.183435886962029
      ],
      [
        "-time",
        -10.18347364110286
      ],
      [
        "Ġbike",
        -10.183474888026549
      ],
      [
        "Ġdivide",
        -10.184241347502391
      ],
      [
        "Ġsector",
        -10.184471854714918
      ],
      [
        "Ġuniverse",
        -10.18501521841591
      ],
      [
        "Ġbutter",
        -10.185116231591826
      ],
      [
        "J",
        -10.185314372190575
      ],
      [
        "Ġlighting",
        -10.18543949348016
      ],
      [
        "Ġopinion",
        -10.185640466847804
      ],
      [
        "Ġchoosing",
        -10.18626608710494
      ],
      [
        "crops",
        -10.186266651682743
      ],
      [
        "Ġsunlight",
        -10.18706700394368
      ],
      [
        "Ġprior",
        -10.187213517850951
      ],
      [
        "Ġformula",
        -10.187445788389438
      ],
      [
        "ĠPeople",
        -10.187552308105094
      ],
      [
        "Ġessay",
        -10.187873068590651
      ],
      [
        "Ġshared",
        -10.188822031710878
      ],
      [
        "Ġfiles",
        -10.188834173760306
      ],
      [
        "Ġlayers",
        -10.190540217845951
      ],
      [
        "ried",
        -10.190656567000197
      ],
      [
        "Ġorganisms",
        -10.190825349043472
      ],
      [
        "Ġdatabase",
        -10.191678225091856
      ],
      [
        "Ġsymbol",
        -10.191882999379498
      ],
      [
        "Ġsolve",
        -10.192181460845465
      ],
      [
        "late",
        -10.193935392237542
      ],
      [
        "Ġultimate",
        -10.19469062240189
      ],
      [
        "Ġoperate",
        -10.195263146158789
      ],
      [
        "Ġlung",
        -10.195517031857085
      ],
      [
        "action",
        -10.19559369886399
      ],
      [
        "Ġonto",
        -10.19580842640308
      ],
      [
        "Ġobtain",
        -10.195810855495454
      ],
      [
        "Ġcreation",
        -10.196043379509064
      ],
      [
        "Ġinnovation",
        -10.196261032065088
      ],
      [
        "Ġeventual",
        -10.196466762587622
      ],
      [
        "Ġtransmission",
        -10.196676643583276
      ],
      [
        "Ġdecisions",
        -10.196763549741512
      ],
      [
        "Ġs",
        -10.196848170512046
      ],
      [
        "Ġpropose",
        -10.19705452016109
      ],
      [
        "latest",
        -10.197131063088722
      ],
      [
        "Ġma",
        -10.198344321821248
      ],
      [
        "Ġearlie",
        -10.19885071646008
      ],
      [
        "Ġaware",
        -10.199292094425886
      ],
      [
        "Ġprompt",
        -10.19938247688184
      ],
      [
        "Ġchanged",
        -10.199747199336633
      ],
      [
        "Ġbaking",
        -10.20059019149618
      ],
      [
        "point",
        -10.201521413364391
      ],
      [
        "Ġorganizations",
        -10.201939666192256
      ],
      [
        "ers",
        -10.203240323853423
      ],
      [
        "Ġprepare",
        -10.203795190228876
      ],
      [
        "Ġrain",
        -10.203831876666325
      ],
      [
        "live",
        -10.203969190804695
      ],
      [
        "Ġfailure",
        -10.204417521035744
      ],
      [
        "Ġprepared",
        -10.204771812931453
      ],
      [
        "Ġgirl",
        -10.204942364165989
      ],
      [
        "Ġfirm",
        -10.205328920703783
      ],
      [
        "Ġsession",
        -10.205567125237389
      ],
      [
        "Ġamazing",
        -10.205686251541543
      ],
      [
        "Ġintegrate",
        -10.206768008370013
      ],
      [
        "Figure",
        -10.207132326737764
      ],
      [
        "ĠAfrican",
        -10.207290171045209
      ],
      [
        "Ġplent",
        -10.20789485322344
      ],
      [
        "ĠMarch",
        -10.208258118591054
      ],
      [
        "ĠBritish",
        -10.20859646547484
      ],
      [
        "called",
        -10.208790858249268
      ],
      [
        "Ġsaying",
        -10.210058879909989
      ],
      [
        "Ġindoor",
        -10.210227551837596
      ],
      [
        "Ġplate",
        -10.21104683495922
      ],
      [
        "Ġmajority",
        -10.211279827559052
      ],
      [
        "Ġprimari",
        -10.211439740875726
      ],
      [
        "Ġconsideration",
        -10.2117785632421
      ],
      [
        "Ġbroke",
        -10.212397858917043
      ],
      [
        "Ġinvest",
        -10.212497452687
      ],
      [
        "Ġhomes",
        -10.213096697699305
      ],
      [
        "type",
        -10.213299823784125
      ],
      [
        "Ġcoming",
        -10.214422435510167
      ],
      [
        "Ġdimension",
        -10.214571587374666
      ],
      [
        "Ġstar",
        -10.215586508113638
      ],
      [
        "Ġreward",
        -10.216059523701182
      ],
      [
        "Ġsaving",
        -10.218465732715336
      ],
      [
        "Ġlarges",
        -10.218800910179915
      ],
      [
        "round",
        -10.219808109112083
      ],
      [
        "Ġfields",
        -10.22001004101421
      ],
      [
        "position",
        -10.221063773703916
      ],
      [
        "ĠOver",
        -10.221344037554076
      ],
      [
        "sharing",
        -10.223116138091845
      ],
      [
        "Ġguidelines",
        -10.223494352234765
      ],
      [
        "Ġunits",
        -10.2236041323321
      ],
      [
        "Ġpreviously",
        -10.224643456306527
      ],
      [
        "Ġradiation",
        -10.225692040815243
      ],
      [
        "Ġtalking",
        -10.225756906649067
      ],
      [
        "Ġassume",
        -10.22579385831888
      ],
      [
        "Ġextensive",
        -10.225825248240286
      ],
      [
        "Ġteach",
        -10.22719950560407
      ],
      [
        "create",
        -10.227479141765798
      ],
      [
        "Ġestimated",
        -10.227732285810642
      ],
      [
        "Ġcomposition",
        -10.2281630671368
      ],
      [
        "loss",
        -10.229104996766722
      ],
      [
        "Ġaircraft",
        -10.229410330316195
      ],
      [
        "Ġcommand",
        -10.230321630673975
      ],
      [
        "Ġdecide",
        -10.230417559783078
      ],
      [
        "]Ċ",
        -10.230441586357994
      ],
      [
        "Ġdrugs",
        -10.23159172374227
      ],
      [
        "Ġblend",
        -10.232001794138323
      ],
      [
        "se",
        -10.23209899734984
      ],
      [
        "Ġversatil",
        -10.232170408143634
      ],
      [
        "Ġlab",
        -10.23217372254635
      ],
      [
        "back",
        -10.23253066128747
      ],
      [
        "Ġletter",
        -10.232610309905535
      ],
      [
        "world",
        -10.232795026395618
      ],
      [
        "iversity",
        -10.233238003659434
      ],
      [
        "Ġmagnetic",
        -10.233703163748263
      ],
      [
        "Ġwaves",
        -10.23414983810565
      ],
      [
        "Ġbill",
        -10.235089882276696
      ],
      [
        "Ġapproximation",
        -10.235493076516128
      ],
      [
        "place",
        -10.235711868526977
      ],
      [
        ".[",
        -10.236020942926856
      ],
      [
        "ne",
        -10.236183077244
      ],
      [
        "City",
        -10.236720453264468
      ],
      [
        "Ġmammal",
        -10.237287183839666
      ],
      [
        "An",
        -10.23755414515295
      ],
      [
        "Ġantibiotic",
        -10.237806105536263
      ],
      [
        "Ġrespond",
        -10.237844481361662
      ],
      [
        "Ġawareness",
        -10.23926681380506
      ],
      [
        "ĠCanada",
        -10.23941228674006
      ],
      [
        "Ġpregnanc",
        -10.239436965373349
      ],
      [
        "Ġmaster",
        -10.239821607928572
      ],
      [
        "ĠGreat",
        -10.240173003603836
      ],
      [
        "Ġaffects",
        -10.241005115752866
      ],
      [
        "Ġcoffee",
        -10.241054393477242
      ],
      [
        "Ġbeauty",
        -10.241275707266754
      ],
      [
        "Ġhousehold",
        -10.241700532542112
      ],
      [
        "Ġforces",
        -10.242936256965052
      ],
      [
        "Ġextract",
        -10.24312662634853
      ],
      [
        "away",
        -10.243173647229863
      ],
      [
        "Ġcurve",
        -10.244303310137964
      ],
      [
        "Ġcore",
        -10.244799476022706
      ],
      [
        "Ġvessel",
        -10.244811233902404
      ],
      [
        "Ġopening",
        -10.245097587556526
      ],
      [
        "`",
        -10.24537224385723
      ],
      [
        "My",
        -10.245779256920304
      ],
      [
        "Ġbreast",
        -10.245985003762655
      ],
      [
        "Ġminimum",
        -10.246475448414818
      ],
      [
        "Ġapart",
        -10.246481640618155
      ],
      [
        "Ġscore",
        -10.247029793175326
      ],
      [
        "Ġvarie",
        -10.247124678464672
      ],
      [
        "plants",
        -10.247226267635323
      ],
      [
        "Ġstudie",
        -10.247582784004926
      ],
      [
        "Ġimprov",
        -10.248086092401746
      ],
      [
        "ĠJohn",
        -10.24905619980164
      ],
      [
        "Ġmiss",
        -10.24906268380282
      ],
      [
        "Ġinstallation",
        -10.250268434333798
      ],
      [
        "Ġintelligence",
        -10.251069914116387
      ],
      [
        "Ġaudio",
        -10.252164183216127
      ],
      [
        "Ġaske",
        -10.252291047627024
      ],
      [
        "Ġleaving",
        -10.25309859347577
      ],
      [
        "Ġabsorb",
        -10.25372095738406
      ],
      [
        "Ġupdate",
        -10.254415709690376
      ],
      [
        "lots",
        -10.255013546160813
      ],
      [
        "Ġgear",
        -10.255870170589354
      ],
      [
        "Ġabsolute",
        -10.256476174116216
      ],
      [
        "Ġenzyme",
        -10.256525393190614
      ],
      [
        "table",
        -10.256761323530506
      ],
      [
        "Ġexcessive",
        -10.25734803297463
      ],
      [
        "Ġprofile",
        -10.257985029532795
      ],
      [
        "Conclusion",
        -10.258066458273564
      ],
      [
        "ĠInternational",
        -10.25822927858378
      ],
      [
        "mixed",
        -10.258432070156688
      ],
      [
        "system",
        -10.259109745165023
      ],
      [
        "stability",
        -10.25998368717739
      ],
      [
        "normally",
        -10.26008235875209
      ],
      [
        "Ġstarts",
        -10.260257796185222
      ],
      [
        "Ġbreath",
        -10.260694318286935
      ],
      [
        "ĠDon",
        -10.260968105174324
      ],
      [
        "ending",
        -10.26108435419722
      ],
      [
        "Ġerror",
        -10.261382206235286
      ],
      [
        "j",
        -10.26263583808851
      ],
      [
        "Ġexhibit",
        -10.26296819101912
      ],
      [
        "Ġdisorders",
        -10.263029025441824
      ],
      [
        "Ġbecom",
        -10.263840526107824
      ],
      [
        "Ġflood",
        -10.265715294435974
      ],
      [
        "Ġincorporate",
        -10.266624685103492
      ],
      [
        "Ġnamed",
        -10.267538173304896
      ],
      [
        "Ġtrip",
        -10.26827079508093
      ],
      [
        "ĠIts",
        -10.268452465994825
      ],
      [
        "Ġthread",
        -10.269163923613936
      ],
      [
        "Ġportion",
        -10.269292812362515
      ],
      [
        "Ġeliminate",
        -10.269598854070049
      ],
      [
        "Ġinternet",
        -10.26971092930967
      ],
      [
        "Ġrecycl",
        -10.27017841392375
      ],
      [
        "Ġlose",
        -10.27042469882937
      ],
      [
        "Ġillness",
        -10.27054763746652
      ],
      [
        "Ġanxiet",
        -10.271186163402664
      ],
      [
        "Ġcomparison",
        -10.271728139096073
      ],
      [
        "Ġprecise",
        -10.27190497096483
      ],
      [
        "Ġconsists",
        -10.271968593576188
      ],
      [
        "Ġrelevant",
        -10.2725548083073
      ],
      [
        "Ġhunting",
        -10.272624753261614
      ],
      [
        "Ġwire",
        -10.27280464032884
      ],
      [
        "Ġparticle",
        -10.27285766511011
      ],
      [
        "Ġcable",
        -10.272917776984084
      ],
      [
        "Ġharvest",
        -10.273262584177184
      ],
      [
        "Ġweigh",
        -10.273692849730956
      ],
      [
        "Ġexcess",
        -10.273938444975729
      ],
      [
        "Ġrealit",
        -10.27404579162257
      ],
      [
        "definitely",
        -10.27406308383092
      ],
      [
        "ĠEvery",
        -10.274649946365075
      ],
      [
        "Ġcalci",
        -10.275056463088074
      ],
      [
        "Ġburn",
        -10.27513224715033
      ],
      [
        "Ġinteraction",
        -10.27522365680102
      ],
      [
        "Ġgrain",
        -10.275330806289707
      ],
      [
        "Ġgift",
        -10.275816503019644
      ],
      [
        "Ġsituations",
        -10.276146571355302
      ],
      [
        "Ġcircle",
        -10.276989770344183
      ],
      [
        "Ġdelay",
        -10.277187665733646
      ],
      [
        "Ġcrop",
        -10.278882645785966
      ],
      [
        "-friendly",
        -10.279455453355844
      ],
      [
        "Ġnutrition",
        -10.279971387595944
      ],
      [
        "actions",
        -10.279998953305691
      ],
      [
        "ĠBlack",
        -10.280199210276294
      ],
      [
        "men",
        -10.280312829110208
      ],
      [
        "Ġstone",
        -10.28065471635519
      ],
      [
        "Ġcomment",
        -10.281800992454295
      ],
      [
        "Ġvaccine",
        -10.282595100021611
      ],
      [
        "ĠAir",
        -10.2841616701556
      ],
      [
        "rich",
        -10.284557576360612
      ],
      [
        "Ġsmell",
        -10.285854165563563
      ],
      [
        "lies",
        -10.286575430488272
      ],
      [
        "Ġclinical",
        -10.287101331899809
      ],
      [
        "help",
        -10.288409146659449
      ],
      [
        "Ġchronic",
        -10.28913990826863
      ],
      [
        "Ġpercentage",
        -10.28955596299756
      ],
      [
        "Ġassessment",
        -10.289744501063598
      ],
      [
        "Ġdepression",
        -10.291001134048678
      ],
      [
        "Ġengineer",
        -10.29158196985122
      ],
      [
        "Ġfix",
        -10.29224327069977
      ],
      [
        "ĠKeep",
        -10.293328156975775
      ],
      [
        "Ġmatrix",
        -10.29365265226684
      ],
      [
        "Ġencounter",
        -10.293685625158815
      ],
      [
        "important",
        -10.293753808823094
      ],
      [
        "Ġfly",
        -10.29407273532439
      ],
      [
        "Ġprivate",
        -10.29478127532842
      ],
      [
        "Ġlate",
        -10.295956959911775
      ],
      [
        "ĠChina",
        -10.296143075216602
      ],
      [
        "Where",
        -10.2963325256652
      ],
      [
        "Ġfundamental",
        -10.296512148568128
      ],
      [
        "Ġminimize",
        -10.29656300010541
      ],
      [
        "Ġconflict",
        -10.29696791699218
      ],
      [
        "energy",
        -10.29746710944453
      ],
      [
        "Ġskill",
        -10.298168572441249
      ],
      [
        "Ġconfirm",
        -10.298747590602954
      ],
      [
        "Ġperforme",
        -10.299000518455408
      ],
      [
        "includin",
        -10.299603794318458
      ],
      [
        "look",
        -10.300017669267822
      ],
      [
        "Ġagriculture",
        -10.300058288965309
      ],
      [
        "Ġcompost",
        -10.300881167880837
      ],
      [
        "Ġchose",
        -10.301133113433387
      ],
      [
        "Ġdownload",
        -10.3014923946555
      ],
      [
        "ĠProgram",
        -10.302130468135562
      ],
      [
        "Ġcommunicate",
        -10.302476563394984
      ],
      [
        "Ġexact",
        -10.302618534874451
      ],
      [
        "Ġpowder",
        -10.303658495235304
      ],
      [
        "ĠPower",
        -10.30382431768444
      ],
      [
        "Ġappreciate",
        -10.304461041851614
      ],
      [
        "size",
        -10.304993538237698
      ],
      [
        "Ġanalyze",
        -10.305065019116466
      ],
      [
        "Ġdish",
        -10.305440456208965
      ],
      [
        "Ġprinciples",
        -10.305822789289351
      ],
      [
        "Ġspeaker",
        -10.307055308346683
      ],
      [
        "Ġtrade",
        -10.307207042357652
      ],
      [
        "Ġzero",
        -10.308660281162751
      ],
      [
        "Ġam",
        -10.308852814751834
      ],
      [
        "Ġturning",
        -10.310256870213454
      ],
      [
        "Ġcompare",
        -10.310298446414158
      ],
      [
        "Ġtopics",
        -10.310651256839702
      ],
      [
        "nce",
        -10.310682993083436
      ],
      [
        "Ġchoices",
        -10.310931422934974
      ],
      [
        "November",
        -10.311131474543078
      ],
      [
        "Ġlifestyle",
        -10.3120841941002
      ],
      [
        "Ġfoundation",
        -10.312952172472237
      ],
      [
        "Ġbear",
        -10.31336410875636
      ],
      [
        "Ġweed",
        -10.313373907444776
      ],
      [
        "Ġsurfaces",
        -10.31343182767182
      ],
      [
        "Ġconstruct",
        -10.31515983648798
      ],
      [
        "uary",
        -10.31540782995262
      ],
      [
        "between",
        -10.315515543172651
      ],
      [
        "ground",
        -10.317136301380692
      ],
      [
        "Ġaudience",
        -10.317242498964898
      ],
      [
        "Other",
        -10.317812649639034
      ],
      [
        "Ġdie",
        -10.318272655383335
      ],
      [
        "ĠWell",
        -10.319228427700548
      ],
      [
        "Ġfruits",
        -10.319728056061573
      ],
      [
        "Also",
        -10.320211566597926
      ],
      [
        "nstead",
        -10.32157278395688
      ],
      [
        "ĠFrench",
        -10.322482520252716
      ],
      [
        "either",
        -10.323033018955798
      ],
      [
        "Ġthick",
        -10.32368014996702
      ],
      [
        "Ġedge",
        -10.323775850325744
      ],
      [
        "Ġrecovery",
        -10.323966962558616
      ],
      [
        "Ġdomain",
        -10.324483417301863
      ],
      [
        "Not",
        -10.32463459936084
      ],
      [
        "Ġmanufacturing",
        -10.325306421264576
      ],
      [
        "experienced",
        -10.325595503360129
      ],
      [
        "ĠCounty",
        -10.3258032396221
      ],
      [
        "Ġmachines",
        -10.32588570925141
      ],
      [
        "ĠLike",
        -10.326700455379973
      ],
      [
        "Ġstatus",
        -10.327515907158991
      ],
      [
        "Ġdecided",
        -10.32763800720722
      ],
      [
        "Ġinspire",
        -10.327862197627606
      ],
      [
        "Ġdiagnose",
        -10.329250015146606
      ],
      [
        "Ġpreparation",
        -10.329823797038276
      ],
      [
        "Ġcom",
        -10.33071201603596
      ],
      [
        "Ġtraffic",
        -10.330982190174458
      ],
      [
        "Ġderive",
        -10.33138150530144
      ],
      [
        "âĢľ",
        -10.332852019606538
      ],
      [
        "part",
        -10.333049285952796
      ],
      [
        "Ġharm",
        -10.33341172396342
      ],
      [
        "Ġfoster",
        -10.335393341236651
      ],
      [
        "New",
        -10.335398071627068
      ],
      [
        "Ġcorn",
        -10.33619188150469
      ],
      [
        "ha",
        -10.336580612423012
      ],
      [
        "Ġmask",
        -10.337166866022944
      ],
      [
        "Ġspecialize",
        -10.337346511588162
      ],
      [
        "Ġdetermined",
        -10.337419899916796
      ],
      [
        "working",
        -10.339309592056669
      ],
      [
        "Ġmap",
        -10.33939560225091
      ],
      [
        "Ġorgan",
        -10.339527269210826
      ],
      [
        "âĢĻt",
        -10.339672812806343
      ],
      [
        "Ġrecover",
        -10.339984322310425
      ],
      [
        "ĠLife",
        -10.34055212189852
      ],
      [
        "Ġimpacts",
        -10.340911254425482
      ],
      [
        "Ġrapid",
        -10.341020371522973
      ],
      [
        "Ġlaws",
        -10.341110187561153
      ],
      [
        "come",
        -10.34210132360556
      ],
      [
        "Ġaccuracy",
        -10.342460796939012
      ],
      [
        "Ġpredator",
        -10.342540017204929
      ],
      [
        "Ġregulations",
        -10.342569941466031
      ],
      [
        "Ġcompetition",
        -10.344062596748334
      ],
      [
        "ou",
        -10.344662548843363
      ],
      [
        "current",
        -10.344925879667706
      ],
      [
        "gave",
        -10.345075929178568
      ],
      [
        "Ġappeal",
        -10.345094402859988
      ],
      [
        "Ġcontinues",
        -10.34530516502105
      ],
      [
        "Ġfinish",
        -10.346032630979206
      ],
      [
        "Ġwar",
        -10.34608522985954
      ],
      [
        "Ġadvantages",
        -10.34624644861035
      ],
      [
        "Ġdescription",
        -10.346566565215443
      ],
      [
        "ĠâĢ¦",
        -10.346856588046885
      ],
      [
        "building",
        -10.347128883684883
      ],
      [
        "Ġbee",
        -10.34744407157662
      ],
      [
        "Ġdi",
        -10.347751278331629
      ],
      [
        "Ġlibrar",
        -10.348131948653982
      ],
      [
        "Ġtrust",
        -10.348602422201807
      ],
      [
        "Ġbulb",
        -10.348693405280542
      ],
      [
        "Ġheating",
        -10.349109366659697
      ],
      [
        "Ġminerals",
        -10.34926771928059
      ],
      [
        "Ġrobot",
        -10.349875229377654
      ],
      [
        "Ġpassed",
        -10.350045513997314
      ],
      [
        "Ġclothes",
        -10.35099269808425
      ],
      [
        "Ġindustries",
        -10.351036872109256
      ],
      [
        "Ġresponsibilit",
        -10.351053684257518
      ],
      [
        "Ġurban",
        -10.351534298397832
      ],
      [
        "ĠSea",
        -10.351829748634842
      ],
      [
        "Ġhormone",
        -10.352011087627282
      ],
      [
        "Ġfunctional",
        -10.352203885173008
      ],
      [
        "Ġshapes",
        -10.352936737865877
      ],
      [
        "Ġcloser",
        -10.353114584825658
      ],
      [
        "Ġradio",
        -10.353347754728308
      ],
      [
        "Ġtight",
        -10.353707451023658
      ],
      [
        "-in",
        -10.35390135122668
      ],
      [
        "Ġpurposes",
        -10.355204097881508
      ],
      [
        "st",
        -10.35622039588904
      ],
      [
        "Ġinner",
        -10.356298068829696
      ],
      [
        "Ġreache",
        -10.356557478405332
      ],
      [
        "Ġdistinct",
        -10.356799756416624
      ],
      [
        "Ġcoat",
        -10.35734999336534
      ],
      [
        "ch",
        -10.357788442520008
      ],
      [
        "Ġexplor",
        -10.35850450661582
      ],
      [
        "Ġnovel",
        -10.3587196499637
      ],
      [
        "allow",
        -10.359325785483572
      ],
      [
        "Ġthrive",
        -10.359450749397457
      ],
      [
        "Ġsensitive",
        -10.35960632441161
      ],
      [
        "twic",
        -10.360548330821226
      ],
      [
        "Ġautomatic",
        -10.360785734201093
      ],
      [
        "Ġtrain",
        -10.36097168384176
      ],
      [
        "Ġrestaurant",
        -10.36224126353208
      ],
      [
        "Ġdecline",
        -10.364052148764133
      ],
      [
        "lines",
        -10.364419109576456
      ],
      [
        "high",
        -10.364438708405128
      ],
      [
        "Ġexpress",
        -10.364587863337205
      ],
      [
        "ĠJune",
        -10.364608163729333
      ],
      [
        "Ġinitiative",
        -10.364745338161333
      ],
      [
        "Ġfollowe",
        -10.367584950299696
      ],
      [
        "Ġscenario",
        -10.367677392065405
      ],
      [
        "Ġapproaches",
        -10.36771245209038
      ],
      [
        "Ġlift",
        -10.368339769745903
      ],
      [
        "Ġbread",
        -10.368994290791877
      ],
      [
        "Ġsuit",
        -10.369490262931944
      ],
      [
        "aily",
        -10.369516985995515
      ],
      [
        "Ġbroad",
        -10.369738180648657
      ],
      [
        "Ġattache",
        -10.371997402826938
      ],
      [
        "Ġknee",
        -10.373301503079064
      ],
      [
        "Ġperiods",
        -10.37384525179405
      ],
      [
        "Ġmembrane",
        -10.374390492849985
      ],
      [
        "Ġinvestigate",
        -10.37464571773151
      ],
      [
        "Ġcup",
        -10.374684443858456
      ],
      [
        "would",
        -10.374720184190531
      ],
      [
        "Ġcreatin",
        -10.37479838160639
      ],
      [
        "ĠHis",
        -10.3750177507907
      ],
      [
        "ĠRed",
        -10.375031602773332
      ],
      [
        "Ġcareful",
        -10.375417099789017
      ],
      [
        "Ġtube",
        -10.375650624613606
      ],
      [
        "Ġinnovative",
        -10.37622612033642
      ],
      [
        "Ġselected",
        -10.376447755482433
      ],
      [
        "power",
        -10.376610921800784
      ],
      [
        "Ġbrake",
        -10.377037677734164
      ],
      [
        "ĠBoth",
        -10.377240788834364
      ],
      [
        "Ġcultural",
        -10.37772734232172
      ],
      [
        "Ġsudden",
        -10.3777297628454
      ],
      [
        "Ġcooked",
        -10.378027729726874
      ],
      [
        "ĠDur",
        -10.378157153285912
      ],
      [
        "Ġstring",
        -10.37827093710867
      ],
      [
        "Ġpictures",
        -10.378327725092854
      ],
      [
        "Ġsupplie",
        -10.378736409912737
      ],
      [
        "Ġbigge",
        -10.380006917626655
      ],
      [
        "Ġbloom",
        -10.380140139233294
      ],
      [
        "Ġhospital",
        -10.38025403248687
      ],
      [
        "Ġriver",
        -10.380551144385832
      ],
      [
        "Ġagent",
        -10.381070094654564
      ],
      [
        "Ġdefinition",
        -10.381260045674974
      ],
      [
        "Ġdynamic",
        -10.381323288719894
      ],
      [
        "Ġremote",
        -10.38170908616523
      ],
      [
        "Ġagenc",
        -10.382184761641774
      ],
      [
        "mental",
        -10.38267166587689
      ],
      [
        "Ġbehaviour",
        -10.3827113150486
      ],
      [
        "Ġecosystem",
        -10.383055481110294
      ],
      [
        "Ġdisorder",
        -10.383418628653214
      ],
      [
        "Ġtooth",
        -10.38390292455787
      ],
      [
        "Ġconsult",
        -10.384213107202456
      ],
      [
        "Ġsmart",
        -10.38430235292767
      ],
      [
        "ĠGreen",
        -10.384324499988733
      ],
      [
        "Ġsurvival",
        -10.385180549357589
      ],
      [
        "ĠFurther",
        -10.385263617519508
      ],
      [
        "Ġconventional",
        -10.385574797002498
      ],
      [
        "ĠWar",
        -10.385850774451098
      ],
      [
        "Ġrecipe",
        -10.386321502958232
      ],
      [
        "Ġcolumn",
        -10.387439245422236
      ],
      [
        "ĠRe",
        -10.387861580103872
      ],
      [
        "Ġquantit",
        -10.38798011281337
      ],
      [
        "Ġcontaining",
        -10.388022533609494
      ],
      [
        "protein",
        -10.388220571550637
      ],
      [
        "source",
        -10.388500042510785
      ],
      [
        "Ġtru",
        -10.38863708007588
      ],
      [
        "aking",
        -10.388679685801852
      ],
      [
        "Ġmanner",
        -10.38891352885097
      ],
      [
        "Ġmutation",
        -10.389508007195788
      ],
      [
        "Ġrenewable",
        -10.390271400249784
      ],
      [
        "then",
        -10.390353119447171
      ],
      [
        "Ġregulator",
        -10.39079911100475
      ],
      [
        "Ġremaining",
        -10.391325226579877
      ],
      [
        "Ġwalking",
        -10.391747692451055
      ],
      [
        "Ġcollege",
        -10.392129282533537
      ],
      [
        "Ġbond",
        -10.39264977871475
      ],
      [
        "Ġdream",
        -10.39285378155305
      ],
      [
        "Ġinjuri",
        -10.39291048575664
      ],
      [
        "Ġacademic",
        -10.392991036595198
      ],
      [
        "Ġequivalent",
        -10.393610649927986
      ],
      [
        "Every",
        -10.394683484759444
      ],
      [
        "Ġdiscusse",
        -10.39512557677894
      ],
      [
        "Ġpounds",
        -10.395716428964608
      ],
      [
        "ĠJuly",
        -10.395895764480878
      ],
      [
        "Ġdetection",
        -10.397247142376216
      ],
      [
        "Ġjournal",
        -10.39729939882656
      ],
      [
        "ĠTake",
        -10.397570989788054
      ],
      [
        "Ġfille",
        -10.397581542273455
      ],
      [
        "ĠControl",
        -10.397752291049144
      ],
      [
        "Ġrecorded",
        -10.397753874750066
      ],
      [
        "Ġseven",
        -10.3982203162309
      ],
      [
        "Ġchapter",
        -10.39828152257082
      ],
      [
        "Ġsell",
        -10.399014420704075
      ],
      [
        "Ġremov",
        -10.399384170409474
      ],
      [
        "Ġsignals",
        -10.399653118857746
      ],
      [
        "Ġspray",
        -10.40048290540416
      ],
      [
        "Ġvolunteer",
        -10.401773272538788
      ],
      [
        "Ġpathway",
        -10.402575998981437
      ],
      [
        "chemistry",
        -10.402602669595291
      ],
      [
        "cells",
        -10.402611069203267
      ],
      [
        "Ġevolve",
        -10.402732554071838
      ],
      [
        "Ġvast",
        -10.402960863235368
      ],
      [
        "much",
        -10.403363337310328
      ],
      [
        "Ġforget",
        -10.403647123017258
      ],
      [
        "ĠAct",
        -10.403904274153716
      ],
      [
        "eadership",
        -10.405269463022291
      ],
      [
        "Ġpreserve",
        -10.405453962058411
      ],
      [
        "Ġstable",
        -10.406093607525625
      ],
      [
        "@",
        -10.406335518180391
      ],
      [
        "Ġrapidly",
        -10.407727824521018
      ],
      [
        "room",
        -10.40790577622815
      ],
      [
        "Ġarrive",
        -10.408022236682008
      ],
      [
        "Ġloop",
        -10.408194907880189
      ],
      [
        "Ġagricultural",
        -10.408555394091954
      ],
      [
        "Ġbite",
        -10.40881493110168
      ],
      [
        "Ġpepper",
        -10.40911323539634
      ],
      [
        "supported",
        -10.40983685620717
      ],
      [
        "name",
        -10.410163534982065
      ],
      [
        "Ġsuper",
        -10.410309848959962
      ],
      [
        "Ġplays",
        -10.410968525544888
      ],
      [
        "Ġmen",
        -10.412198837552266
      ],
      [
        "Ġindependent",
        -10.412316138755951
      ],
      [
        "Ġfear",
        -10.41247741812388
      ],
      [
        "Ġadequate",
        -10.412636179012
      ],
      [
        "Ġpan",
        -10.413240851424144
      ],
      [
        "Ġwish",
        -10.413976570579448
      ],
      [
        "Ġgenome",
        -10.414050316010346
      ],
      [
        "Ġgoe",
        -10.41411798095907
      ],
      [
        "Ġobtained",
        -10.414161537052689
      ],
      [
        "Ġcollaboration",
        -10.414214360754093
      ],
      [
        "q",
        -10.414293611869494
      ],
      [
        "Ġstem",
        -10.41429489521128
      ],
      [
        "friendly",
        -10.414482922269713
      ],
      [
        "Ġboat",
        -10.415033121073874
      ],
      [
        "Ġintake",
        -10.415515936538114
      ],
      [
        "per",
        -10.415656605059452
      ],
      [
        "Ġscene",
        -10.41622008954901
      ],
      [
        "Ġwarming",
        -10.416641527151826
      ],
      [
        "Ġpilot",
        -10.416681979083297
      ],
      [
        "Ġpool",
        -10.416805656303309
      ],
      [
        "Ġrandom",
        -10.417166687005404
      ],
      [
        "Ġdrivin",
        -10.417275596769322
      ],
      [
        "Ġstation",
        -10.41765384182449
      ],
      [
        "Ġspider",
        -10.418715365718146
      ],
      [
        "{",
        -10.41900657399512
      ],
      [
        "Ġevaluate",
        -10.419232451899749
      ],
      [
        "Ġsharp",
        -10.420110180001064
      ],
      [
        "ĠIsland",
        -10.420272910420312
      ],
      [
        "Ġsheet",
        -10.420444698512114
      ],
      [
        "Ġthi",
        -10.420712853288162
      ],
      [
        "Ġpuppy",
        -10.420765760448624
      ],
      [
        "go",
        -10.420965545775102
      ],
      [
        "Ġmechanical",
        -10.42114428068695
      ],
      [
        "Ġbarrier",
        -10.421350129085788
      ],
      [
        "Ġjump",
        -10.42136899119085
      ],
      [
        "ĠWest",
        -10.421890274169694
      ],
      [
        "Ġdust",
        -10.423384672990984
      ],
      [
        "Ġcrack",
        -10.423879133748336
      ],
      [
        "active",
        -10.42391635652148
      ],
      [
        "genes",
        -10.42410329725352
      ],
      [
        "Ġinstitution",
        -10.42591716601104
      ],
      [
        "Ġsauce",
        -10.426723241424266
      ],
      [
        "Ġopposite",
        -10.426784528975578
      ],
      [
        "Ġtomato",
        -10.427177237777306
      ],
      [
        "Ġdelicious",
        -10.427940666692797
      ],
      [
        "ĠGoogle",
        -10.428301112254818
      ],
      [
        "Ġseconds",
        -10.428577681856352
      ],
      [
        "Ġbowl",
        -10.428685213743456
      ],
      [
        "top",
        -10.42918809083342
      ],
      [
        "Ġinsurance",
        -10.429725027723553
      ],
      [
        "Ġsufficient",
        -10.430166687671342
      ],
      [
        "Ġstorm",
        -10.43030050658598
      ],
      [
        "Ġfinishe",
        -10.43030278937845
      ],
      [
        "ĠSystem",
        -10.430950626494408
      ],
      [
        "Ġborn",
        -10.431757388534743
      ],
      [
        "Ġdepartment",
        -10.431923658495071
      ],
      [
        "Ġfacilit",
        -10.432116293400837
      ],
      [
        "Ġsteam",
        -10.432478926023908
      ],
      [
        "Ġconsist",
        -10.432887799428109
      ],
      [
        "Ġloose",
        -10.433281457948585
      ],
      [
        "ber",
        -10.43355969921538
      ],
      [
        "Ġboost",
        -10.435448653925214
      ],
      [
        "term",
        -10.43608067481248
      ],
      [
        "].",
        -10.436657102835696
      ],
      [
        "Ġfamiliar",
        -10.436832482603826
      ],
      [
        "include",
        -10.437614102653528
      ],
      [
        "ĠFoundation",
        -10.439110933308267
      ],
      [
        "Keep",
        -10.4396610791899
      ],
      [
        "Ġphysics",
        -10.439822257679218
      ],
      [
        "Ġhardware",
        -10.440033962520278
      ],
      [
        "Ġtradition",
        -10.440574692884256
      ],
      [
        "Ġtoxic",
        -10.440639021187796
      ],
      [
        "Ġcalculation",
        -10.440955700926672
      ],
      [
        "Ġbreeding",
        -10.441363667485366
      ],
      [
        "Ġsuffer",
        -10.441844207348636
      ],
      [
        "Ġdiagnosis",
        -10.442286855334968
      ],
      [
        "Understand",
        -10.44277913692022
      ],
      [
        "Ġdedicate",
        -10.443137532112022
      ],
      [
        "ge",
        -10.443279842880958
      ],
      [
        "Ġuniversit",
        -10.443868693774718
      ],
      [
        "Ġshoot",
        -10.44413204903094
      ],
      [
        "Ġframework",
        -10.44440858101864
      ],
      [
        "He",
        -10.444773322190928
      ],
      [
        "accessible",
        -10.445295443376114
      ],
      [
        "Ġdiagram",
        -10.445644909610124
      ],
      [
        "Ġdensit",
        -10.445955920836898
      ],
      [
        "ĠAdd",
        -10.446113084678869
      ],
      [
        "aid",
        -10.446510837040377
      ],
      [
        "ĠIndian",
        -10.446714212367626
      ],
      [
        "ything",
        -10.44792216644804
      ],
      [
        "ĠEngland",
        -10.448532900614303
      ],
      [
        "Ġbudget",
        -10.449123539485688
      ],
      [
        "Ġbrick",
        -10.449271295403909
      ],
      [
        "Ġtransform",
        -10.449652486394475
      ],
      [
        "Ġrecognition",
        -10.450560939771822
      ],
      [
        "read",
        -10.45082780406895
      ],
      [
        "Ġkidney",
        -10.451839788233624
      ],
      [
        "Ġassembl",
        -10.451971271192344
      ],
      [
        "Ġtrait",
        -10.452052431517568
      ],
      [
        "ought",
        -10.452153290784429
      ],
      [
        "Ġnorth",
        -10.45235272480739
      ],
      [
        "Ġlense",
        -10.45262447887442
      ],
      [
        "aging",
        -10.452819524958016
      ],
      [
        "ically",
        -10.452892909939742
      ],
      [
        "Ġstatement",
        -10.453410168163764
      ],
      [
        "Ġedit",
        -10.453488415240397
      ],
      [
        "Ġfelt",
        -10.454102970619978
      ],
      [
        "Ġinflammation",
        -10.454170946268857
      ],
      [
        "Ġsizes",
        -10.454318877370444
      ],
      [
        "Ġworkshop",
        -10.454626751467352
      ],
      [
        "Ġcontrolle",
        -10.455042489742803
      ],
      [
        "Ġpe",
        -10.456159611520096
      ],
      [
        "Ġjuice",
        -10.45639160743652
      ],
      [
        "older",
        -10.457126609677026
      ],
      [
        "Ġprinting",
        -10.457401640556231
      ],
      [
        "ĠAdditional",
        -10.457648299219064
      ],
      [
        "Ġsurprise",
        -10.457653864087758
      ],
      [
        "so",
        -10.45814865566453
      ],
      [
        "Have",
        -10.458382771921688
      ],
      [
        "parameters",
        -10.459143234799816
      ],
      [
        "down",
        -10.459914886211326
      ],
      [
        "Ġroute",
        -10.4608523030868
      ],
      [
        "bilities",
        -10.461166423713523
      ],
      [
        "Ġdrought",
        -10.46200118719345
      ],
      [
        "un",
        -10.462841883954065
      ],
      [
        "Ġgrown",
        -10.463651573551562
      ],
      [
        "Ġusage",
        -10.463687456040914
      ],
      [
        "Ġmolecular",
        -10.463980724102251
      ],
      [
        "Ġguid",
        -10.463999384484694
      ],
      [
        "Ġpossibl",
        -10.465353219521573
      ],
      [
        "Ġguess",
        -10.465494840744288
      ],
      [
        "Ġalter",
        -10.465624191724698
      ],
      [
        "ĠFish",
        -10.466265054773276
      ],
      [
        "Ġcompleted",
        -10.466851037656369
      ],
      [
        "Ġsides",
        -10.466892590422344
      ],
      [
        "Ġtrouble",
        -10.467170877120736
      ],
      [
        "Ġnest",
        -10.467311181980154
      ],
      [
        "vity",
        -10.468569679264004
      ],
      [
        "species",
        -10.46864846741255
      ],
      [
        "Ġrace",
        -10.469152251203546
      ],
      [
        "Ġdiffer",
        -10.469378063271025
      ],
      [
        "ĠHuman",
        -10.469416509301766
      ],
      [
        "Ġrotation",
        -10.470057986660525
      ],
      [
        "Ġhorses",
        -10.470443429598776
      ],
      [
        "Ġmistake",
        -10.470484470105166
      ],
      [
        "Ġrobots",
        -10.471257454379309
      ],
      [
        "ĠNature",
        -10.471540991623591
      ],
      [
        ".)Ċ",
        -10.471835222515637
      ],
      [
        "Ġfeedback",
        -10.47200345726154
      ],
      [
        "ĠJanuary",
        -10.472151080736026
      ],
      [
        "Ġdesigns",
        -10.472174343220146
      ],
      [
        "love",
        -10.473560454020191
      ],
      [
        "ĠRNA",
        -10.475334821977516
      ],
      [
        "Ġrates",
        -10.476066499988718
      ],
      [
        "Ġsignificance",
        -10.47659608951628
      ],
      [
        "ling",
        -10.477452686282906
      ],
      [
        "Ġpromoting",
        -10.478022203834078
      ],
      [
        "Ġdirector",
        -10.479507545236828
      ],
      [
        "good",
        -10.479817645685303
      ],
      [
        "technology",
        -10.48127958928897
      ],
      [
        "Ġaesthetic",
        -10.482888994694418
      ],
      [
        "could",
        -10.483188427166814
      ],
      [
        "Ġworry",
        -10.48365833677262
      ],
      [
        "Ġparticipate",
        -10.484389918688157
      ],
      [
        "ĠHave",
        -10.484938589933492
      ],
      [
        "sily",
        -10.4855758988153
      ],
      [
        "Ġratio",
        -10.485818939376994
      ],
      [
        "Ġrequest",
        -10.485825450783365
      ],
      [
        "Ġpreferred",
        -10.485923145749805
      ],
      [
        "ĠAsia",
        -10.486383503869591
      ],
      [
        "Ġcommitment",
        -10.486458239497145
      ],
      [
        "why",
        -10.486534267512909
      ],
      [
        "ur",
        -10.48658859484893
      ],
      [
        "Ġstructural",
        -10.487508156598274
      ],
      [
        "ĠPlant",
        -10.487608913250408
      ],
      [
        "data",
        -10.48768312668924
      ],
      [
        "tree",
        -10.48872609757832
      ],
      [
        "Ġdespi",
        -10.488733606849006
      ],
      [
        "ĠService",
        -10.48889999519162
      ],
      [
        "Ġserver",
        -10.489620699205243
      ],
      [
        "types",
        -10.489769101868452
      ],
      [
        "Ġcalorie",
        -10.490434639150536
      ],
      [
        "ĠWhere",
        -10.49088005447469
      ],
      [
        "Ġwoman",
        -10.49103802305248
      ],
      [
        "ĠThus",
        -10.49112141994456
      ],
      [
        "<",
        -10.491383955878856
      ],
      [
        "Ġice",
        -10.4918832073324
      ],
      [
        "Ġmobile",
        -10.49215806693362
      ],
      [
        "Ġgold",
        -10.492244179875968
      ],
      [
        "Ġatoms",
        -10.492521057090729
      ],
      [
        "Ġbelief",
        -10.492742239254616
      ],
      [
        "Ġtrial",
        -10.492939877403533
      ],
      [
        "Ġstronger",
        -10.49359480655006
      ],
      [
        "ĠLook",
        -10.493904977362718
      ],
      [
        "ĠTechnology",
        -10.494069049678686
      ],
      [
        "Ġscratch",
        -10.494394338086645
      ],
      [
        "temperature",
        -10.494457337892012
      ],
      [
        "Ġuses",
        -10.49525727691289
      ],
      [
        "ĠCar",
        -10.496235055611816
      ],
      [
        "Ġaccept",
        -10.496628125225095
      ],
      [
        "Ġmath",
        -10.496757874228658
      ],
      [
        "Ġprovider",
        -10.497779085506451
      ],
      [
        "ble",
        -10.497804609500191
      ],
      [
        "Ġlaborator",
        -10.49783596719557
      ],
      [
        "Ġdental",
        -10.498184102866112
      ],
      [
        "Ġpainting",
        -10.498964717784204
      ],
      [
        "Ġpro",
        -10.500006875614108
      ],
      [
        "\"The",
        -10.500558401918148
      ],
      [
        "Ġdirt",
        -10.500991111204868
      ],
      [
        "Ġorganize",
        -10.501168373670708
      ],
      [
        "Ġtutorial",
        -10.502189457131824
      ],
      [
        "Ġshelter",
        -10.50225378213657
      ],
      [
        "ĠFlorida",
        -10.50232109902288
      ],
      [
        "Ġwor",
        -10.502921322863497
      ],
      [
        "Ġbegins",
        -10.503803681398118
      ],
      [
        "Ġlinked",
        -10.503982192373464
      ],
      [
        "Ġraw",
        -10.50413261285132
      ],
      [
        "Ġspeech",
        -10.504671019039876
      ],
      [
        "ial",
        -10.505458963265651
      ],
      [
        "Ġmirror",
        -10.505729990484992
      ],
      [
        "ĠAny",
        -10.506241579425057
      ],
      [
        "Ġvertical",
        -10.506309124665112
      ],
      [
        "Ġplug",
        -10.50693419539595
      ],
      [
        "Ġnames",
        -10.507583313142582
      ],
      [
        "Ġmovie",
        -10.508256130113445
      ],
      [
        "Ġadjustment",
        -10.50887090557275
      ],
      [
        "being",
        -10.508985836749638
      ],
      [
        "Ġworse",
        -10.509183412691982
      ],
      [
        "Ġbigger",
        -10.509749742263374
      ],
      [
        "ĠWork",
        -10.509843012939008
      ],
      [
        "children",
        -10.509887010704649
      ],
      [
        "Ġturtle",
        -10.510195918453208
      ],
      [
        "hanging",
        -10.511623799177904
      ],
      [
        "tell",
        -10.511722933187215
      ],
      [
        "Ġelectrons",
        -10.51263295208334
      ],
      [
        "Ġcharacteristic",
        -10.512717003733872
      ],
      [
        "Ġwindows",
        -10.513331898234735
      ],
      [
        "list",
        -10.51382194986516
      ],
      [
        "Ġsouth",
        -10.513907045485364
      ],
      [
        "Ġd",
        -10.514234679882538
      ],
      [
        "ca",
        -10.514745332623594
      ],
      [
        "Ġreports",
        -10.514918285625589
      ],
      [
        "Ġstorie",
        -10.515575995409872
      ],
      [
        "Ġmineral",
        -10.515595846065995
      ],
      [
        "ture",
        -10.51574842254061
      ],
      [
        "Ġfixe",
        -10.516325586382884
      ],
      [
        "Ġprofessor",
        -10.516455892654616
      ],
      [
        "food",
        -10.516513153597565
      ],
      [
        "Even",
        -10.516944903484005
      ],
      [
        "ĠNatural",
        -10.517175699571156
      ],
      [
        "Ġpress",
        -10.51756877018099
      ],
      [
        "Ġanswers",
        -10.51773637481358
      ],
      [
        "Ġsold",
        -10.517970273497426
      ],
      [
        "Ġwhale",
        -10.51804671893191
      ],
      [
        "neath",
        -10.518138392517628
      ],
      [
        "Ġfroze",
        -10.518170790165254
      ],
      [
        "ĠAugust",
        -10.518872512820847
      ],
      [
        "Ġmountain",
        -10.519081039013564
      ],
      [
        "Ġpermanent",
        -10.519871033060504
      ],
      [
        "Ġwh",
        -10.520426528601543
      ],
      [
        "Ġbugs",
        -10.52050540398849
      ],
      [
        "ĠSociety",
        -10.520585482026108
      ],
      [
        "Ġbreeds",
        -10.52062733254914
      ],
      [
        "Ġreact",
        -10.520963094340145
      ],
      [
        "difference",
        -10.522286085049592
      ],
      [
        "Ġstyles",
        -10.522546350551952
      ],
      [
        "ĠSan",
        -10.523050733344174
      ],
      [
        "Ġneck",
        -10.523538375729796
      ],
      [
        "Ġbrush",
        -10.524085393768852
      ],
      [
        "Ġprogramm",
        -10.524400481485582
      ],
      [
        "population",
        -10.524525523347894
      ],
      [
        "Ġones",
        -10.524687198726047
      ],
      [
        "Ġstruggle",
        -10.524986351805438
      ],
      [
        "ions",
        -10.525845940223572
      ],
      [
        "Ġthin",
        -10.526027532695052
      ],
      [
        "Ġworkers",
        -10.52605775340981
      ],
      [
        "both",
        -10.52615056885309
      ],
      [
        "itis",
        -10.52748798459374
      ],
      [
        "Ġtitle",
        -10.527488368574344
      ],
      [
        "Ġthreat",
        -10.527696048168474
      ],
      [
        "solution",
        -10.528003472412545
      ],
      [
        "Ġsensors",
        -10.52808565789122
      ],
      [
        "wimming",
        -10.528332664767712
      ],
      [
        "ĠAssociation",
        -10.528604776238968
      ],
      [
        "call",
        -10.528846058616155
      ],
      [
        "Ġflying",
        -10.52997979166125
      ],
      [
        "Ġstream",
        -10.530256842026422
      ],
      [
        "ĠWestern",
        -10.531016649918666
      ],
      [
        "off",
        -10.531741784710658
      ],
      [
        "Ġwrote",
        -10.531881458198043
      ],
      [
        "Ġtail",
        -10.532010852510886
      ],
      [
        "Ġcategor",
        -10.532600445974271
      ],
      [
        "Ġfully",
        -10.532881181657215
      ],
      [
        "]ĊĊ",
        -10.533131197268828
      ],
      [
        "ĠGroup",
        -10.533419801193386
      ],
      [
        "Make",
        -10.534063119807117
      ],
      [
        "Ġthreaten",
        -10.534860392700825
      ],
      [
        "Ġneural",
        -10.53498094839858
      ],
      [
        "Ġbiolog",
        -10.53525666889622
      ],
      [
        "ĠGood",
        -10.535688686329662
      ],
      [
        "Ġformat",
        -10.53594914648606
      ],
      [
        "Ġregulate",
        -10.536682505395513
      ],
      [
        "Ġimagine",
        -10.536711095782174
      ],
      [
        "Ġstroke",
        -10.53722201306318
      ],
      [
        "Ġprinciple",
        -10.538089811362584
      ],
      [
        "Ġerrors",
        -10.538678901263816
      ],
      [
        "Ġlawn",
        -10.539730989939912
      ],
      [
        "ĠCommon",
        -10.539754806661012
      ],
      [
        "Ġtax",
        -10.540105863285666
      ],
      [
        "Ġknowing",
        -10.540207284238628
      ],
      [
        "ĠEast",
        -10.540559541424043
      ],
      [
        "ĠDoes",
        -10.541173801411103
      ],
      [
        "Ġcoral",
        -10.541394590891008
      ],
      [
        "growth",
        -10.541510584056102
      ],
      [
        "Ġcotton",
        -10.54167361628548
      ],
      [
        "Ġcampaign",
        -10.541939292500206
      ],
      [
        "Ġcalls",
        -10.543774744198448
      ],
      [
        "ĠHome",
        -10.544293828184054
      ],
      [
        "Ġpages",
        -10.544936295623536
      ],
      [
        "Ġseat",
        -10.545326511939134
      ],
      [
        "policies",
        -10.545340800449416
      ],
      [
        "ĠDesign",
        -10.545357248845386
      ],
      [
        "Chapter",
        -10.545507546505345
      ],
      [
        "Ġwonderful",
        -10.545531452407872
      ],
      [
        "art",
        -10.545564624960562
      ],
      [
        "Ġtransformation",
        -10.545791899309425
      ],
      [
        "ĠHistory",
        -10.545894082680146
      ],
      [
        "Ġrepeat",
        -10.54772069094027
      ],
      [
        "find",
        -10.547794598914646
      ],
      [
        "Just",
        -10.549084001617029
      ],
      [
        "Ġpartner",
        -10.54965317952822
      ],
      [
        "Ġwouldn",
        -10.549841166549026
      ],
      [
        "Ġblow",
        -10.549871732767109
      ],
      [
        "Ġmild",
        -10.549995644134846
      ],
      [
        "Ġcalm",
        -10.551123902891565
      ],
      [
        "Share",
        -10.552159457631973
      ],
      [
        "Ġdanger",
        -10.552625919299327
      ],
      [
        "Ġhandling",
        -10.552810918145294
      ],
      [
        "Ġfamous",
        -10.552892238521446
      ],
      [
        "Ġsmoke",
        -10.553312085483704
      ],
      [
        "quality",
        -10.553554575734108
      ],
      [
        "Ġstands",
        -10.554363447960938
      ],
      [
        "Ġbeg",
        -10.554572383950646
      ],
      [
        "Ġpure",
        -10.55561717637226
      ],
      [
        "available",
        -10.555835166548365
      ],
      [
        "OVID",
        -10.555861133560686
      ],
      [
        "plant",
        -10.557338921079698
      ],
      [
        "Ġconfidence",
        -10.557649133909182
      ],
      [
        "Ġvibrant",
        -10.557857856576923
      ],
      [
        "ĠPacific",
        -10.558126769229656
      ],
      [
        "Ġvisitor",
        -10.558139038362857
      ],
      [
        "condition",
        -10.558958567629505
      ],
      [
        "Ġprinter",
        -10.559275135492609
      ],
      [
        "does",
        -10.559317649608047
      ],
      [
        "Ġpolitical",
        -10.56002151435186
      ],
      [
        "ĠLong",
        -10.560974136509584
      ],
      [
        "Ġelectron",
        -10.561151704720324
      ],
      [
        "Ġpathogen",
        -10.56162105210029
      ],
      [
        "found",
        -10.562297056742278
      ],
      [
        "Ġallergi",
        -10.562885284402157
      ],
      [
        "reading",
        -10.562950696031884
      ],
      [
        "life",
        -10.56316372120829
      ],
      [
        "Ġunderly",
        -10.563242734709837
      ],
      [
        "Ġdistribute",
        -10.56337929272986
      ],
      [
        "ĠProject",
        -10.563459141222449
      ],
      [
        "health",
        -10.563975832966314
      ],
      [
        "Ġouter",
        -10.564666630791317
      ],
      [
        "Ġraised",
        -10.565088404897018
      ],
      [
        "Ġbreathing",
        -10.565866306037208
      ],
      [
        "Ġship",
        -10.565909141448238
      ],
      [
        "Ġexpense",
        -10.566043000666312
      ],
      [
        "Ġspaces",
        -10.56685004542734
      ],
      [
        "Ġprey",
        -10.566879877778929
      ],
      [
        "Ġsupporting",
        -10.566949601653429
      ],
      [
        "Ġtension",
        -10.56709528457125
      ],
      [
        "Ġfertilizer",
        -10.567336035183544
      ],
      [
        "Ġmanaging",
        -10.56747335759764
      ],
      [
        "who",
        -10.56841216144833
      ],
      [
        "Ġcelebrate",
        -10.568803990449116
      ],
      [
        "Ġpackag",
        -10.569877401148911
      ],
      [
        "Ġbrief",
        -10.570964197707625
      ],
      [
        "Ġmassive",
        -10.571260626549872
      ],
      [
        "Ġtraine",
        -10.571289245122816
      ],
      [
        "article",
        -10.571681408629154
      ],
      [
        "Ġstages",
        -10.572145573937943
      ],
      [
        "Ġleaders",
        -10.572601105722637
      ],
      [
        "see",
        -10.572875501323832
      ],
      [
        "spread",
        -10.57290918956815
      ],
      [
        "Ġbi",
        -10.573251649317854
      ],
      [
        "Ġfascinating",
        -10.573350034570796
      ],
      [
        "Ġinstalle",
        -10.573744018126735
      ],
      [
        "Ġinterior",
        -10.573943313231268
      ],
      [
        "ĠMichigan",
        -10.57445399474754
      ],
      [
        "Ġintricate",
        -10.574783090212817
      ],
      [
        "physical",
        -10.57597585574984
      ],
      [
        "Ġhabitats",
        -10.576035712644648
      ],
      [
        "Ġdesigner",
        -10.576556944410386
      ],
      [
        "Ġeconom",
        -10.57692183311766
      ],
      [
        "Unfortunate",
        -10.578705284841902
      ],
      [
        "Ġappliance",
        -10.578988187715796
      ],
      [
        "number",
        -10.579231677755567
      ],
      [
        "ĠLight",
        -10.57926302010882
      ],
      [
        "Ġdetermining",
        -10.579609743265152
      ],
      [
        "Ġmosquito",
        -10.580300597960989
      ],
      [
        "Ġtaught",
        -10.58068909525556
      ],
      [
        "ĠApril",
        -10.581049092634546
      ],
      [
        "Like",
        -10.581104672243724
      ],
      [
        "iding",
        -10.581290433774283
      ],
      [
        "information",
        -10.581473523094214
      ],
      [
        "Ġgreenhouse",
        -10.582014607413257
      ],
      [
        "idden",
        -10.582111920335684
      ],
      [
        "sium",
        -10.583011306607148
      ],
      [
        "Ġpresente",
        -10.583946167940372
      ],
      [
        "space",
        -10.584289564145118
      ],
      [
        "ĠMa",
        -10.584672452798335
      ],
      [
        "Ġillustrate",
        -10.585526609763424
      ],
      [
        "Ġdebri",
        -10.58581610354117
      ],
      [
        "ĠThrough",
        -10.585933239305536
      ],
      [
        "Ġshoes",
        -10.585940905389316
      ],
      [
        "Ġnitrogen",
        -10.585979536626926
      ],
      [
        "Ġbeans",
        -10.586144298257487
      ],
      [
        "Ġglucose",
        -10.587175996968876
      ],
      [
        "heat",
        -10.587369254600652
      ],
      [
        "Ġoven",
        -10.58760843798297
      ],
      [
        "Ġsales",
        -10.58793452527733
      ],
      [
        "links",
        -10.588309456191183
      ],
      [
        "Ġzone",
        -10.590485572669024
      ],
      [
        "hat",
        -10.590961279159094
      ],
      [
        "Ġchamber",
        -10.59183981157838
      ],
      [
        "ĠWhite",
        -10.592399996159848
      ],
      [
        "Ġdelve",
        -10.592564978035757
      ],
      [
        "Ġcorner",
        -10.592652581858076
      ],
      [
        "Ġarchitecture",
        -10.592694732154335
      ],
      [
        "ties",
        -10.592700928062357
      ],
      [
        "Ġrecords",
        -10.59313753456486
      ],
      [
        "Ġstrain",
        -10.593177687159674
      ],
      [
        "site",
        -10.59457733348107
      ],
      [
        "):",
        -10.595284556930338
      ],
      [
        "anagement",
        -10.595381847442953
      ],
      [
        "ted",
        -10.595411018743048
      ],
      [
        "Ġintervention",
        -10.596205829849898
      ],
      [
        "Ġtruck",
        -10.596335144131007
      ],
      [
        "ĠStudents",
        -10.5967086964408
      ],
      [
        "Â·",
        -10.596753432846713
      ],
      [
        "Ġmilitar",
        -10.597221542477552
      ],
      [
        "ĠSafe",
        -10.597308496098703
      ],
      [
        "Ġagreement",
        -10.5978925543516
      ],
      [
        "Ġcopy",
[...]
