{
  "version": "1.0",
  "truncation": null,
  "padding": null,
  "added_tokens": [
    {
      "id": 0,
      "content": "<|bos|>",
      "single_word": false,
      "lstrip": false,
      "rstrip": false,
      "normalized": false,
      "special": true
    },
    {
      "id": 1,
      "content": "<|user_start|>",
      "single_word": false,
      "lstrip": false,
      "rstrip": false,
      "normalized": false,
      "special": true
    },
    {
      "id": 2,
      "content": "<|user_end|>",
      "single_word": false,
      "lstrip": false,
      "rstrip": false,
      "normalized": false,
      "special": true
    },
    {
      "id": 3,
      "content": "<|assistant_start|>",
      "single_word": false,
      "lstrip": false,
      "rstrip": false,
      "normalized": false,
      "special": true
    },
    {
      "id": 4,
      "content": "<|assistant_end|>",
      "single_word": false,
      "lstrip": false,
      "rstrip": false,
      "normalized": false,
      "special": true
    },
    {
      "id": 5,
      "content": "<|python_start|>",
      "single_word": false,
      "lstrip": false,
      "rstrip": false,
      "normalized": false,
      "special": true
    },
    {
      "id": 6,
      "content": "<|python_end|>",
      "single_word": false,
      "lstrip": false,
      "rstrip": false,
      "normalized": false,
      "special": true
    },
    {
      "id": 7,
      "content": "<|output_start|>",
      "single_word": false,
      "lstrip": false,
      "rstrip": false,
      "normalized": false,
      "special": true
    },
    {
      "id": 8,
      "content": "<|output_end|>",
      "single_word": false,
      "lstrip": false,
      "rstrip": false,
      "normalized": false,
      "special": true
    },
    {
      "id": 9,
      "content": "<|unk|>",
      "single_word": false,
      "lstrip": false,
      "rstrip": false,
      "normalized": false,
      "special": true
    }
  ],
  "normalizer": null,
  "pre_tokenizer": {
    "type": "Sequence",
    "pretokenizers": [
      {
        "type": "Split",
        "pattern": {
          "Regex": "'(?i:[sdmt]|ll|ve|re)|[^\\r\\n\\p{L}\\p{N}]?+\\p{L}+|\\p{N}{1,2}| ?[^\\s\\p{L}\\p{N}]++[\\r\\n]*|\\s*[\\r\\n]|\\s+(?!\\S)|\\s+"
        },
        "behavior": "Isolated",
        "invert": false
      },
      {
        "type": "ByteLevel",
        "add_prefix_space": false,
        "trim_offsets": true,
        "use_regex": false
      }
    ]
  },
  "post_processor": {
    "type": "TemplateProcessing",
    "single": [
      {
        "Sequence": {
          "id": "A",
          "type_id": 0
        }
      }
    ],
    "pair": [
      {
        "Sequence": {
          "id": "A",
          "type_id": 0
        }
      },
      {
        "Sequence": {
          "id": "B",
          "type_id": 1
        }
      }
    ],
    "special_tokens": {}
  },
  "decoder": {
    "type": "ByteLevel",
    "add_prefix_space": true,
    "trim_offsets": true,
    "use_regex": true
  },
  "model": {
    "type": "Unigram",
    "unk_id": 9,
    "vocab": [
      [
        "<|bos|>",
        0.0
      ],
      [
        "<|user_start|>",
        0.0
      ],
      [
        "<|user_end|>",
        0.0
      ],
      [
        "<|assistant_start|>",
        0.0
      ],
      [
        "<|assistant_end|>",
        0.0
      ],
      [
        "<|python_start|>",
        0.0
      ],
      [
        "<|python_end|>",
        0.0
      ],
      [
        "<|output_start|>",
        0.0
      ],
      [
        "<|output_end|>",
        0.0
      ],
      [
        "<|unk|>",
        0.0
      ],
      [
        "Ġ",
        -2.6595074014765316
      ],
      [
        ",",
        -4.194115862226781
      ],
      [
        ".",
        -4.503523413157236
      ],
      [
        "à°¿",
        -4.640572760104181
      ],
      [
        "Ċ",
        -4.9060002200254615
      ],
      [
        "à±ģ",
        -4.910580804557389
      ],
      [
        "Ø©",
        -5.031202708500146
      ],
      [
        "à°Ĥ",
        -5.185566476336531
      ],
      [
        ".Ċ",
        -5.281296337910584
      ],
      [
        "1",
        -5.289898535211334
      ],
      [
        "0",
        -5.290317628404573
      ],
      [
        "à¥ĩ",
        -5.292690682463851
      ],
      [
        "s",
        -5.344722885505323
      ],
      [
        "Ġà¤ķ",
        -5.395870655281808
      ],
      [
        "-",
        -5.409722420946268
      ],
      [
        "à¤¾",
        -5.475461755223439
      ],
      [
        "à±į",
        -5.50820145651039
      ],
      [
        "2",
        -5.525588051594564
      ],
      [
        "ĠØ§ÙĦ",
        -5.560230324031563
      ],
      [
        "à°¾",
        -5.595853809695704
      ],
      [
        "à¥Ģ",
        -5.6404033716537985
      ],
      [
        "Ġà°ª",
        -5.781980670205883
      ],
      [
        "à±ĭ",
        -5.825483411950822
      ],
      [
        "à°¾à°°",
        -5.839704562408363
      ],
      [
        "Ġà°µ",
        -5.922253668482748
      ],
      [
        "à¹Ī",
        -5.957182589956581
      ],
      [
        "ØĮ",
        -5.960906570802193
      ],
      [
        "ĠÙĪ",
        -5.9684609129059005
      ],
      [
        "ĠÙģÙĬ",
        -5.991849341346477
      ],
      [
        "Ġ(",
        -5.999788607723545
      ],
      [
        "a",
        -6.004879357993943
      ],
      [
        "e",
        -6.008276458237205
      ],
      [
        "Ġà°ķ",
        -6.014638238962391
      ],
      [
        "Ġde",
        -6.044826322815759
      ],
      [
        "ĠÙħÙĨ",
        -6.059837705218708
      ],
      [
        "Ġà¤¹",
        -6.068489547936364
      ],
      [
        "Ġthe",
        -6.0734808216887295
      ],
      [
        "Ġya",
        -6.091276500000118
      ],
      [
        "à±įà°¨",
        -6.114060578258483
      ],
      [
        "Ġna",
        -6.1522176681125895
      ],
      [
        "à°¦",
        -6.15949408573003
      ],
      [
        "3",
        -6.163129844455943
      ],
      [
        "Ġà°¸",
        -6.177599081179984
      ],
      [
        "à¸µà¹Ī",
        -6.1989594820417935
      ],
      [
        "à±ĩ",
        -6.211878320228347
      ],
      [
        "Ġà°®",
        -6.237225541241598
      ],
      [
        "5",
        -6.241726035124168
      ],
      [
        "Ġà¤¸",
        -6.245553080375158
      ],
      [
        "Ġà°ļ",
        -6.265097954712557
      ],
      [
        ":",
        -6.265234758720817
      ],
      [
        "à±įà°°",
        -6.26578002463128
      ],
      [
        ")",
        -6.279364470875757
      ],
      [
        "à°¾à°¨",
        -6.315247386044419
      ],
      [
        "à±įà°¤",
        -6.332049073511019
      ],
      [
        "Ġà¤®",
        -6.33521749467968
      ],
      [
        "à°¾à°²",
        -6.353777616519952
      ],
      [
        "à°ļ",
        -6.356260438024256
      ],
      [
        "9",
        -6.360841278558423
      ],
      [
        "Ġa",
        -6.37015575652852
      ],
      [
        "Ġà°¨",
        -6.37727405333097
      ],
      [
        "ÙĬØ©",
        -6.393110116809863
      ],
      [
        "à±įà°²",
        -6.402724118031836
      ],
      [
        "à°¿à°¨",
        -6.403466871004708
      ],
      [
        "à°¿à°ķ",
        -6.406916189787978
      ],
      [
        "Ġwa",
        -6.410488876543571
      ],
      [
        "4",
        -6.428930261337321
      ],
      [
        "à±įà°¯",
        -6.479553002891734
      ],
      [
        "'",
        -6.491833306720618
      ],
      [
        "à¥ĭ",
        -6.529106798753672
      ],
      [
        "ĠÐ²",
        -6.546896294680996
      ],
      [
        "ĠÐ¸",
        -6.552435292753458
      ],
      [
        "Ø§",
        -6.560902422997097
      ],
      [
        "o",
        -6.581169056536783
      ],
      [
        "8",
        -6.585852482052946
      ],
      [
        "à±ģà°²",
        -6.5908366962590765
      ],
      [
        "à±įà°Ł",
        -6.617246275605156
      ],
      [
        "6",
        -6.624620303856405
      ],
      [
        "à±Ģ",
        -6.630907160526293
      ],
      [
        "à°²",
        -6.636838339956878
      ],
      [
        "à°Ł",
        -6.654543081224274
      ],
      [
        "à¹ī",
        -6.666000439530871
      ],
      [
        "à¥ĩà¤Ĥ",
        -6.666338842102059
      ],
      [
        "à±ģà°ķ",
        -6.69056306991426
      ],
      [
        "à±ģà°¨",
        -6.699185572100692
      ],
      [
        "Ġla",
        -6.700323257853874
      ],
      [
        "à±ģà°Ĥ",
        -6.703487003908519
      ],
      [
        "ĠØ¹ÙĦÙī",
        -6.71197964656656
      ],
      [
        "t",
        -6.718346426025628
      ],
      [
        "7",
        -6.722217959448971
      ],
      [
        "Ġto",
        -6.7266853746521384
      ],
      [
        "Ġve",
        -6.733838959630543
      ],
      [
        "à¸·",
        -6.7563047306880595
      ],
      [
        "Ġand",
        -6.763515226812444
      ],
      [
        "Ġm",
        -6.763624729151941
      ],
      [
        "¸",
        -6.765788808440398
      ],
      [
        "ĠØ¨",
        -6.7713527889036715
      ],
      [
        "Ġkwa",
        -6.775965673858451
      ],
      [
        "à±ģ.",
        -6.778852289281559
      ],
      [
        "Ġof",
        -6.779441359933756
      ],
      [
        "à¤¾à¤°",
        -6.806176952594424
      ],
      [
        "à°¡",
        -6.808908727092396
      ],
      [
        "à°¨",
        -6.811866304461535
      ],
      [
        "Ġà°°",
        -6.825516068271881
      ],
      [
        "Ùĭ",
        -6.830058386604895
      ],
      [
        "à°¿.",
        -6.851672394949528
      ],
      [
        "ÙĩØ§",
        -6.8597703333295375
      ],
      [
        "i",
        -6.863092481954357
      ],
      [
        "Ġà¤ª",
        -6.882359772856667
      ],
      [
        "ĠØĮ",
        -6.8870306786666
      ],
      [
        "ï¼Į",
        -6.891995175081368
      ],
      [
        "Ġà°¤",
        -6.931758499416002
      ],
      [
        "¹",
        -6.939925834172685
      ],
      [
        "°",
        -6.960663807464529
      ],
      [
        "/",
        -6.966820411532334
      ],
      [
        "à¤¿",
        -6.987234839383243
      ],
      [
        "Ġku",
        -7.0029856025359205
      ],
      [
        "Ġin",
        -7.018589486023853
      ],
      [
        "à±įà°ª",
        -7.022347733845388
      ],
      [
        "à¥įà¤°",
        -7.037804343256809
      ],
      [
        "à°¤",
        -7.038549890771803
      ],
      [
        "Ġd",
        -7.039405101255584
      ],
      [
        "Ġà¤ľ",
        -7.041686265991636
      ],
      [
        "Ġà¤¦",
        -7.055436475160237
      ],
      [
        "âĢĻ",
        -7.055780187386043
      ],
      [
        "ĠØ£ÙĨ",
        -7.057175602804705
      ],
      [
        "à¥ĭà¤Ĥ",
        -7.058016163784799
      ],
      [
        "ed",
        -7.061678846717319
      ],
      [
        "\"",
        -7.068502930572334
      ],
      [
        "y",
        -7.069812781580861
      ],
      [
        "Ġet",
        -7.070314436658752
      ],
      [
        "ÙĬÙĨ",
        -7.070315537257587
      ],
      [
        "à°ķ",
        -7.079184338844035
      ],
      [
        "n",
        -7.085829595488605
      ],
      [
        "Ùĩ",
        -7.086688428495721
      ],
      [
        "ĠÑģ",
        -7.096244084648127
      ],
      [
        "Ġl",
        -7.098230268989957
      ],
      [
        "Ġbir",
        -7.102613321214294
      ],
      [
        "à±įà°ļ",
        -7.11460101339164
      ],
      [
        "à¸´",
        -7.12360717212254
      ],
      [
        "à°Ĥà°Ĺ",
        -7.140977025165165
      ],
      [
        "Ġà°²",
        -7.144915234524575
      ],
      [
        "Ġ\"",
        -7.146881454679548
      ],
      [
        "Ñĭ",
        -7.153483462958311
      ],
      [
        "ĠÐ½Ð°",
        -7.156854610042677
      ],
      [
        "à¸Ļ",
        -7.168622032545825
      ],
      [
        "µ",
        -7.168922785019118
      ],
      [
        "¨",
        -7.180435367712885
      ],
      [
        "à°¿à°¤",
        -7.180700834382305
      ],
      [
        "©",
        -7.182392267996006
      ],
      [
        "Ġà°¦",
        -7.191373994400907
      ],
      [
        "ing",
        -7.191634904248756
      ],
      [
        "à¤¾à¤¨",
        -7.194334378733517
      ],
      [
        "à±įà°ķ",
        -7.19812440714532
      ],
      [
        "à±ĩà°¸",
        -7.201968000038022
      ],
      [
        "à¸±à¹ī",
        -7.202147953974402
      ],
      [
        "à°ª",
        -7.213333038963391
      ],
      [
        "Ġà¤²",
        -7.214907955597356
      ],
      [
        "Ġle",
        -7.217784963122472
      ],
      [
        "Ãł",
        -7.221908692981295
      ],
      [
        "u",
        -7.22502380500462
      ],
      [
        "à°¾à°¯",
        -7.230106118564452
      ],
      [
        "Ġà°¬",
        -7.232123914216929
      ],
      [
        "Ġà¤¨",
        -7.235348869285236
      ],
      [
        "Ĥ",
        -7.237600885241877
      ],
      [
        "Ġà¤¬",
        -7.240344923399714
      ],
      [
        "Ġà°Ĺ",
        -7.248927020340615
      ],
      [
        "à±įà°µ",
        -7.250684969862283
      ],
      [
        "à±įà°¸",
        -7.261395380967667
      ],
      [
        "ĠÐ½Ðµ",
        -7.263478961470547
      ],
      [
        "à¥Ī",
        -7.263712962533544
      ],
      [
        "à°¿à°²",
        -7.26803210421453
      ],
      [
        "à°¿à°¸",
        -7.272559611659323
      ],
      [
        "Ġà°ħà°¨",
        -7.2746404000312275
      ],
      [
        "à¹Į",
        -7.286498422990094
      ],
      [
        "Ðµ",
        -7.291265079098585
      ],
      [
        "er",
        -7.295554975590303
      ],
      [
        "à°¿à°¯",
        -7.300782803619631
      ],
      [
        "à¤ķ",
        -7.309516793837101
      ],
      [
        "à¸µ",
        -7.315054257176747
      ],
      [
        "Ġà¤µ",
        -7.316811057576084
      ],
      [
        "à°Ĥà°¦",
        -7.321556790374826
      ],
      [
        "es",
        -7.325871923707972
      ],
      [
        "à°Ĥà°Ł",
        -7.326722481875736
      ],
      [
        "à°Ĺ",
        -7.329394814329477
      ],
      [
        "à¤¿à¤¯",
        -7.332184915493151
      ],
      [
        "à°¾à°¡",
        -7.332398074543924
      ],
      [
        "à°®",
        -7.342581646529283
      ],
      [
        "à±ģà°¤",
        -7.343411738034813
      ],
      [
        "ī",
        -7.345656203898406
      ],
      [
        "r",
        -7.349875672015234
      ],
      [
        "à¤¨",
        -7.358788764163776
      ],
      [
        "à¥įà¤¯",
        -7.361662049063236
      ],
      [
        "Ġni",
        -7.362852781588028
      ],
      [
        "ĠM",
        -7.380418960747456
      ],
      [
        "Ø§Øª",
        -7.38768909112126
      ],
      [
        "à±Ĥ",
        -7.3932016954649935
      ],
      [
        "ĠÙĪØ§ÙĦ",
        -7.395144854677412
      ],
      [
        "à¹Ħà¸Ķ",
        -7.398560039070487
      ],
      [
        "Ġà°ħ",
        -7.414947357999958
      ],
      [
        "Ø¥ÙĦÙī",
        -7.417220718249974
      ],
      [
        "Ġen",
        -7.419419302688455
      ],
      [
        "ãĢĤ",
        -7.426800137899653
      ],
      [
        "Ġles",
        -7.428691559875764
      ],
      [
        ":Ċ",
        -7.429222226963651
      ],
      [
        "à°¾à°Ĥ",
        -7.445382834515698
      ],
      [
        "Ġà¤Ķà¤°",
        -7.447270050947516
      ],
      [
        "d",
        -7.451345129269661
      ],
      [
        "à°¿à°Ĺ",
        -7.4540539839646
      ],
      [
        "à¤¤",
        -7.4549543831664415
      ],
      [
        "k",
        -7.461350727941342
      ],
      [
        "à°Ĥà°¤",
        -7.4810110204662195
      ],
      [
        "ãĢĤĊ",
        -7.483028253691897
      ],
      [
        "Ġdes",
        -7.485416375985617
      ],
      [
        "Ð°",
        -7.492826262091309
      ],
      [
        "à±ģà°¡",
        -7.494423282499232
      ],
      [
        "Ñĥ",
        -7.501221393353562
      ],
      [
        "Ùİ",
        -7.513255156312921
      ],
      [
        "ĠØ¹ÙĨ",
        -7.517722780680746
      ],
      [
        "à¸Ĺ",
        -7.525504682621653
      ],
      [
        "à°°",
        -7.5342443078942125
      ],
      [
        "ĠS",
        -7.539882455309634
      ],
      [
        "Ġma",
        -7.541475406565743
      ],
      [
        "à±ģà°Ĺ",
        -7.546429346372497
      ],
      [
        "¤",
        -7.54953674022007
      ],
      [
        "ĠÙĦ",
        -7.552505152559343
      ],
      [
        "à°¾à°¤",
        -7.559743262255214
      ],
      [
        "à±Ī",
        -7.559873609313174
      ],
      [
        "Ġis",
        -7.561844211668207
      ],
      [
        "à°¿à°ª",
        -7.561870938183178
      ],
      [
        "à±Ĩà°²",
        -7.565418930989088
      ],
      [
        "ķ",
        -7.566334703389112
      ],
      [
        "Ġà°ī",
        -7.56953471222883
      ],
      [
        "Ġza",
        -7.575878369087292
      ],
      [
        "da",
        -7.577795545221436
      ],
      [
        "Ð¸",
        -7.585246139096043
      ],
      [
        "ª",
        -7.58812928764984
      ],
      [
        "m",
        -7.596134798856941
      ],
      [
        "à±Ĩà°Ĥ",
        -7.600785784616788
      ],
      [
        "ĠØ§ÙĦØªÙĬ",
        -7.605572020370703
      ],
      [
        "à±Īà°¨",
        -7.606208418906491
      ],
      [
        "ĠÙĦÙĦ",
        -7.60901823153414
      ],
      [
        "à¸µà¹ī",
        -7.611249051466215
      ],
      [
        "à¸¶",
        -7.615576230772897
      ],
      [
        "à¸¹à¹ī",
        -7.617967140186174
      ],
      [
        "Ĭ",
        -7.621076167204707
      ],
      [
        "ĠI",
        -7.627738838191123
      ],
      [
        "katika",
        -7.632740369952147
      ],
      [
        "à±Ĭà°",
        -7.634251954144549
      ],
      [
        "ÑģÑı",
        -7.635319325066799
      ],
      [
        "Ġbe",
        -7.636293890555523
      ],
      [
        "ĠÙĦØ§",
        -7.638243705703323
      ],
      [
        "à°¿à°°",
        -7.641043687065645
      ],
      [
        "ĠA",
        -7.643918833423095
      ],
      [
        "Ġ:",
        -7.646565170170156
      ],
      [
        "ĠÐ¿Ð¾",
        -7.653582019279032
      ],
      [
        "à°¸",
        -7.660516841759723
      ],
      [
        "à¹Ħà¸¡",
        -7.660659962987779
      ],
      [
        "à°µ",
        -7.663606493148883
      ],
      [
        "ÑĭÑħ",
        -7.664917960570925
      ],
      [
        "Ġà°ĩ",
        -7.667307852242798
      ],
      [
        "Ġà°Ī",
        -7.668695959445831
      ],
      [
        "(",
        -7.66955656729384
      ],
      [
        "Ġs",
        -7.671643150112109
      ],
      [
        "ĠâĢľ",
        -7.684120180905175
      ],
      [
        "Ġà¤ªà¤°",
        -7.68753089914248
      ],
      [
        "Ġfor",
        -7.689734785510959
      ],
      [
        "ÙĩÙħ",
        -7.691173716457982
      ],
      [
        ";",
        -7.691747371238431
      ],
      [
        "à¹Īà¸²",
        -7.694360180439448
      ],
      [
        "Ġk",
        -7.69495911954375
      ],
      [
        "Ġà¤Ń",
        -7.695545452182506
      ],
      [
        "à°¾à°ķ",
        -7.699579527844987
      ],
      [
        "ÙĨØ§",
        -7.700885769798662
      ],
      [
        "à¹Ģà¸Ľ",
        -7.703661738384747
      ],
      [
        "ĠØ£",
        -7.708378467444154
      ],
      [
        "ĠØ£ÙĪ",
        -7.715416388815292
      ],
      [
        "ĠÙħØ§",
        -7.719753102429843
      ],
      [
        "ĠÙĬ",
        -7.720083265258383
      ],
      [
        "à±įà°®",
        -7.723337957383087
      ],
      [
        "ĠÑĩÑĤÐ¾",
        -7.730204797327014
      ],
      [
        "à±ģà°°",
        -7.733800081201116
      ],
      [
        "à°¾à°Ł",
        -7.747131638102624
      ],
      [
        "Ġà¤¤",
        -7.749004602067682
      ],
      [
        "à¤¿à¤ķ",
        -7.749932769989139
      ],
      [
        "ĠØ§ÙĦÙĦÙĩ",
        -7.751234865301546
      ],
      [
        "à±ģà°µ",
        -7.758384564062979
      ],
      [
        "de",
        -7.758870734223665
      ],
      [
        "ÙĲ",
        -7.768239360450792
      ],
      [
        "Ġun",
        -7.769200323795008
      ],
      [
        "Ð¾Ð¹",
        -7.770027557787106
      ],
      [
        "Ġà¤°",
        -7.772430773312225
      ],
      [
        "à¸§",
        -7.775927069093759
      ],
      [
        "§",
        -7.7776243216247
      ],
      [
        "Ġà°®à°°",
        -7.778527958737719
      ],
      [
        "Ġon",
        -7.778660389232142
      ],
      [
        "ÑĤÑĮ",
        -7.779570960870728
      ],
      [
        "Â«",
        -7.780891772064937
      ],
      [
        "Ġdu",
        -7.78557051877084
      ],
      [
        "à¸¡",
        -7.789338246305981
      ],
      [
        "âĢĿ",
        -7.790535484971697
      ],
      [
        "ĠØª",
        -7.79150249398913
      ],
      [
        "à¥įà¤¤",
        -7.807322019790222
      ],
      [
        "à¸±à¸ļ",
        -7.808760427914297
      ],
      [
        "?",
        -7.815028687834765
      ],
      [
        "Øª",
        -7.816357176281423
      ],
      [
        "à°Ĥà°¡",
        -7.820265478522719
      ],
      [
        "ya",
        -7.822431543285694
      ],
      [
        "Ġw",
        -7.832447726152639
      ],
      [
        "à¤¾à¤²",
        -7.836808183713931
      ],
      [
        "à°¾à°Ĺ",
        -7.838074627189844
      ],
      [
        "Ġà°Ń",
        -7.839876800742841
      ],
      [
        "ĠC",
        -7.845522586118092
      ],
      [
        "en",
        -7.845721556315269
      ],
      [
        "Ġau",
        -7.847731901031311
      ],
      [
        "à±Ĥà°¡",
        -7.849466822833106
      ],
      [
        "à¸¸",
        -7.850222420012727
      ],
      [
        "à¸ª",
        -7.851899554032928
      ],
      [
        ")Ċ",
        -7.852841608742121
      ],
      [
        "à¤¾à¤¤",
        -7.858841154173094
      ],
      [
        "ÙĩØ°Ùĩ",
        -7.858955584313373
      ],
      [
        "ĠÙģ",
        -7.859031924393045
      ],
      [
        "à¹ĥà¸«",
        -7.866181677393502
      ],
      [
        "à±Ĩà°",
        -7.870363509845198
      ],
      [
        "à¸Ķ",
        -7.879324945045813
      ],
      [
        "à±ĩà°¦",
        -7.882044421897799
      ],
      [
        "ĠÙĩØ°Ø§",
        -7.886167614117717
      ],
      [
        "Ġà°ľ",
        -7.892815977988221
      ],
      [
        "¯",
        -7.902759202598528
      ],
      [
        "ÙĴ",
        -7.904945090717621
      ],
      [
        "ÙĪØ§",
        -7.905903704362775
      ],
      [
        "Ġà°¯",
        -7.90917947511285
      ],
      [
        "ãĢģ",
        -7.915068700741859
      ],
      [
        "Ùı",
        -7.915336900618296
      ],
      [
        "çļĦ",
        -7.917753770118383
      ],
      [
        "¡",
        -7.917862206519132
      ],
      [
        "à¥Īà¥¤",
        -7.920146525726549
      ],
      [
        "Ġà¤ķà¤°",
        -7.923829342781271
      ],
      [
        "Ġtha",
        -7.929721338642516
      ],
      [
        "ÙĪÙĨ",
        -7.929936902379493
      ],
      [
        "²",
        -7.929992346758763
      ],
      [
        "ly",
        -7.930999695038123
      ],
      [
        "à°¾à°¦",
        -7.940390245181566
      ],
      [
        "à±ĩà°¶",
        -7.942742308477444
      ],
      [
        "Ùĳ",
        -7.942821624833364
      ],
      [
        "à±ĭà°¨",
        -7.942959742758129
      ],
      [
        "à¤¿à¤¤",
        -7.944236388141956
      ],
      [
        "Ġkuwa",
        -7.944319218758768
      ],
      [
        "·",
        -7.948964284752636
      ],
      [
        "Ñı",
        -7.949673821501902
      ],
      [
        "à¤¸",
        -7.951770473415323
      ],
      [
        "à¸¹à¹Ī",
        -7.953561859560471
      ],
      [
        "à°¾à°¸",
        -7.959366290505416
      ],
      [
        "à°¬",
        -7.962162589595112
      ],
      [
        "âĢĵ",
        -7.964380512799314
      ],
      [
        "Ð¾Ð¼",
        -7.968281286864997
      ],
      [
        "à°¾à°®",
        -7.970790976026185
      ],
      [
        "à¥ģà¤",
        -7.9788919957281
      ],
      [
        "[",
        -7.984426967249556
      ],
      [
        "ÙĬ",
        -7.9857555605203725
      ],
      [
        "Ġu",
        -7.985943687399763
      ],
      [
        "Ġki",
        -7.989941493874408
      ],
      [
        "Ġpour",
        -7.990532786302964
      ],
      [
        "à¸Ńà¸¢",
        -7.990641251042858
      ],
      [
        "à¥Īà¤Ĥ",
        -7.992692736981999
      ],
      [
        "in",
        -7.995062604861515
      ],
      [
        "Ġn",
        -7.996897164003913
      ],
      [
        "à¸±",
        -8.000803341268018
      ],
      [
        "wa",
        -8.001418943071393
      ],
      [
        "Ð¾Ð²",
        -8.004757050247184
      ],
      [
        "à°¿à°®",
        -8.005415582270548
      ],
      [
        "Ð¾Ð³Ð¾",
        -8.007269650630485
      ],
      [
        "à¤Ĺ",
        -8.010842572545366
      ],
      [
        "à±Ĩà°Ł",
        -8.0127051791491
      ],
      [
        "Ġà°Ĩ",
        -8.01313517858858
      ],
      [
        "?Ċ",
        -8.01894942690343
      ],
      [
        "ĠÐº",
        -8.022373349330923
      ],
      [
        "à¤¿à¤ı",
        -8.024047426389318
      ],
      [
        "Ġà°Ĵà°ķ",
        -8.0244006281749
      ],
      [
        "à¸±à¸Ļ",
        -8.026228762278294
      ],
      [
        "Ġà¤ļ",
        -8.030236153585973
      ],
      [
        "à°¾à°µ",
        -8.031593631458213
      ],
      [
        "à¤¿à¤²",
        -8.03274163657205
      ],
      [
        "Ã©",
        -8.045235864786825
      ],
      [
        "Ġwith",
        -8.047169953225863
      ],
      [
        "Ġbu",
        -8.049303754645829
      ],
      [
        "|",
        -8.055151387330332
      ],
      [
        "à¥įà¤Ł",
        -8.055199405024972
      ],
      [
        "à±Ĩ",
        -8.05627746091897
      ],
      [
        "ĠØ§ÙĦØ°ÙĬ",
        -8.058595307876475
      ],
      [
        "ĠÙħØ¹",
        -8.063384411057058
      ],
      [
        "Ùħ",
        -8.063662914330163
      ],
      [
        "à¤®",
        -8.064209574086119
      ],
      [
        "à±įà°¥",
        -8.068274883773798
      ],
      [
        "à¸·à¸Ń",
        -8.068640536214843
      ],
      [
        "A",
        -8.069070172978654
      ],
      [
        "à±įà°¡",
        -8.07012500557319
      ],
      [
        "à°¿à°µ",
        -8.071474504538552
      ],
      [
        "à±įà°¦",
        -8.07204507754347
      ],
      [
        "Ġà°¹",
        -8.076720509294361
      ],
      [
        "à¹ĩà¸Ļ",
        -8.078216460529191
      ],
      [
        "Ġà¤¥",
        -8.079434975376728
      ],
      [
        "le",
        -8.080732524198973
      ],
      [
        "à±Ĥà°°",
        -8.08602975007172
      ],
      [
        "âĢľ",
        -8.088731570137018
      ],
      [
        "Ùī",
        -8.091141245073022
      ],
      [
        "ĠiÃ§in",
        -8.092343939584364
      ],
      [
        "re",
        -8.09272219542159
      ],
      [
        "Ġc",
        -8.099342570685781
      ],
      [
        "à¸ķ",
        -8.10358499844286
      ],
      [
        "Ġà°¶",
        -8.103750834948329
      ],
      [
        "Ùĥ",
        -8.106604106736997
      ],
      [
        "!",
        -8.106849540896176
      ],
      [
        "à±Ģà°°",
        -8.107329305962201
      ],
      [
        "Ġcha",
        -8.110708661659244
      ],
      [
        "ĠÙĥØ§ÙĨ",
        -8.112961703288839
      ],
      [
        "£",
        -8.113503981479727
      ],
      [
        "à±įà°·",
        -8.114242879329398
      ],
      [
        "ĠÙħ",
        -8.120522737081512
      ],
      [
        "ĠÙĥÙĦ",
        -8.122811911344977
      ],
      [
        "Ġà¤ĩà¤¸",
        -8.125334559983855
      ],
      [
        "à±ĩà°°",
        -8.131320591934244
      ],
      [
        "à°¾à°²à°¨",
        -8.133417258734497
      ],
      [
        "ĠB",
        -8.14023279831507
      ],
      [
        "Ø°ÙĦÙĥ",
        -8.14066657604224
      ],
      [
        "Ġà¤Ĺ",
        -8.142333134093617
      ],
      [
        "Ġque",
        -8.146302115674098
      ],
      [
        "ni",
        -8.147367751988066
      ],
      [
        "na",
        -8.147528319144943
      ],
      [
        "Ġqui",
        -8.152171840608897
      ],
      [
        "à¤¼",
        -8.158938210899644
      ],
      [
        "ı",
        -8.1590377951985
      ],
      [
        "à¤¦",
        -8.160380313134722
      ],
      [
        "à¥Ģà¤Ĥ",
        -8.161139585267463
      ],
      [
        "ÙİÙĳ",
        -8.164854132992977
      ],
      [
        "à¤¾à¤Ĥ",
        -8.166132778149386
      ],
      [
        "à¤¿à¤¸",
        -8.177573067594935
      ],
      [
        "à¸£",
        -8.180440585511427
      ],
      [
        "Ġà¤¶",
        -8.184801810645078
      ],
      [
        "Ġit",
        -8.187525547582117
      ],
      [
        "Ñħ",
        -8.188574603617472
      ],
      [
        "³",
        -8.189519041615325
      ],
      [
        "à¤¾à¤®",
        -8.190884871584686
      ],
      [
        "Ġt",
        -8.194768464424804
      ],
      [
        "ĠØ¨Ø§ÙĦ",
        -8.200432395123388
      ],
      [
        "ĠT",
        -8.203318571719047
      ],
      [
        "ke",
        -8.207058165373454
      ],
      [
        "ir",
        -8.209254541501915
      ],
      [
        "à¤¾à¤¯",
        -8.213223817052803
      ],
      [
        "à¤Ĥ",
        -8.214213640485857
      ],
      [
        "Ġamba",
        -8.223653603207902
      ],
      [
        "Ġune",
        -8.22856552116227
      ],
      [
        "à¹īà¸²",
        -8.228986894810488
      ],
      [
        "Ġile",
        -8.23151817356954
      ],
      [
        "à¸ģ",
        -8.231694511302564
      ],
      [
        "ĠÐ¾",
        -8.235469484812688
      ],
      [
        "Ð¸Ñħ",
        -8.2355338182843
      ],
      [
        "Ġà¤°à¤¹",
        -8.239561554845993
      ],
      [
        "à¸",
        -8.243540233408966
      ],
      [
        "Ġà¤ıà¤ķ",
        -8.245755020326465
      ],
      [
        "à±Ĭà°¨",
        -8.248942584914886
      ],
      [
        "Ġà°ªà°°",
        -8.252016805036053
      ],
      [
        "Ġkama",
        -8.254239171245494
      ],
      [
        "Ġà°«",
        -8.257091471253455
      ],
      [
        "Ġb",
        -8.258265129202535
      ],
      [
        "à¤¿à¤¨",
        -8.261451735734683
      ],
      [
        "à¸Ń",
        -8.264297757345513
      ],
      [
        "à°īà°¨",
        -8.266352539807041
      ],
      [
        "Ġsur",
        -8.270202277640934
      ],
      [
        "Ġse",
        -8.272965578990368
      ],
      [
        "Ġpar",
        -8.280138568794232
      ],
      [
        "Ġà°İ",
        -8.280738091204977
      ],
      [
        "Â»",
        -8.28341640395718
      ],
      [
        "Ð°Ñı",
        -8.285428412507994
      ],
      [
        "à±ĩà°ķ",
        -8.288575259773893
      ],
      [
        "à°¯",
        -8.290464818612907
      ],
      [
        "à±Ģà°¸",
        -8.29710582299643
      ],
      [
        "ĠÑįÑĤÐ¾",
        -8.29723733799053
      ],
      [
        "ĠØ§ÙĨ",
        -8.301244368980626
      ],
      [
        "à¤¨à¤¹",
        -8.303378900009628
      ],
      [
        "Ñİ",
        -8.304532794176698
      ],
      [
        "Ġdans",
        -8.308003856654263
      ],
      [
        "Ġest",
        -8.313053002079974
      ],
      [
        "à¥įà¤µ",
        -8.314698391506811
      ],
      [
        "moja",
        -8.317063166641239
      ],
      [
        "Ð´Ð»Ñı",
        -8.317200095373783
      ],
      [
        "an",
        -8.318798779919312
      ],
      [
        "à¤¿à¤",
        -8.32447684291815
      ],
      [
        "ĠÑĤÐ°Ðº",
        -8.328181433207629
      ],
      [
        "à°¾à°ľ",
        -8.328282203568616
      ],
      [
        "Ġat",
        -8.331095630995671
      ],
      [
        "ÙĪ",
        -8.331878132397033
      ],
      [
        "al",
        -8.332033952553282
      ],
      [
        "ĠU",
        -8.332631046806272
      ],
      [
        "ĠD",
        -8.335493813791889
      ],
      [
        "ye",
        -8.338283374093702
      ],
      [
        "ĠØ¹ÙĦÙĬÙĩ",
        -8.338424910304715
      ],
      [
        "à±Ĩà°¨",
        -8.338576531770716
      ],
      [
        "à¤¾à¤¦",
        -8.34026318433937
      ],
      [
        "à¥įà¤®",
        -8.340996557042066
      ],
      [
        "),",
        -8.344858390320928
      ],
      [
        "à±ĩà°¨",
        -8.349452255946037
      ],
      [
        "Ġne",
        -8.350203206095575
      ],
      [
        "]Ċ",
        -8.350234674675677
      ],
      [
        "Ġson",
        -8.350365082142364
      ],
      [
        "à¤ļ",
        -8.351661523421377
      ],
      [
        "ĠÐºÐ°Ðº",
        -8.35201385080854
      ],
      [
        "âĢĶ",
        -8.35328338274872
      ],
      [
        "...",
        -8.355009999049656
      ],
      [
        "à¸¢",
        -8.355405987357512
      ],
      [
        "à±įà°Ĺ",
        -8.355770965498586
      ],
      [
        "]",
        -8.356273283676362
      ],
      [
        "%",
        -8.357292668228805
      ],
      [
        "Ġas",
        -8.359449629814543
      ],
      [
        "ĠThe",
        -8.360125780201944
      ],
      [
        "åĴĮ",
        -8.360890330409696
      ],
      [
        "ĠÙĩÙĪ",
        -8.36428865108622
      ],
      [
        "den",
        -8.368559022953933
      ],
      [
        "à±įà°³",
        -8.371271017317017
      ],
      [
        "Ġmi",
        -8.373782505289011
      ],
      [
        "ĠÐ¾ÑĤ",
        -8.377060196351152
      ],
      [
        "Ġyou",
        -8.37961725995364
      ],
      [
        "Ġare",
        -8.380927088429758
      ],
      [
        "Ġà¤¯",
        -8.381932939134476
      ],
      [
        "ĠK",
        -8.385269767805973
      ],
      [
        "Ġà¤«",
        -8.385884823637397
      ],
      [
        "à°¾à°ª",
        -8.386930351111705
      ],
      [
        "p",
        -8.387359721120738
      ],
      [
        "à¤¯à¤¹",
        -8.388417344195288
      ],
      [
        "Ġà¸Ĺ",
        -8.395101968452844
      ],
      [
        "à°¿à°¦",
        -8.396110392945374
      ],
      [
        "Ġda",
        -8.403551883917492
      ],
      [
        "ĠØ¨ÙĬÙĨ",
        -8.406134937514043
      ],
      [
        "à±Ĩà°°",
        -8.408316916376528
      ],
      [
        "ĠÐ¸Ð·",
        -8.411168683263163
      ],
      [
        "Ġp",
        -8.419918089186806
      ],
      [
        "à°µà°ļ",
        -8.419963273681171
      ],
      [
        "||",
        -8.422492955115533
      ],
      [
        "à¥įà¤²",
        -8.435264794619066
      ],
      [
        "ĠH",
        -8.44005946093459
      ],
      [
        "|Ċ",
        -8.440692796656014
      ],
      [
        "Ľ",
        -8.4446190928621
      ],
      [
        "ï¼ļ",
        -8.449449521321682
      ],
      [
        "à±įà°§",
        -8.450041674107299
      ],
      [
        "!Ċ",
        -8.450081934832493
      ],
      [
        "ĠP",
        -8.450985923160564
      ],
      [
        "S",
        -8.451350351872236
      ],
      [
        "yo",
        -8.458233617408197
      ],
      [
        "à¹īà¸§",
        -8.465489877476358
      ],
      [
        "à¸±à¸ĩ",
        -8.468199268691208
      ],
      [
        "Ġwas",
        -8.473044633150243
      ],
      [
        "Ī",
        -8.477030041377514
      ],
      [
        "ĠÐ·Ð°",
        -8.481876037145446
      ],
      [
        "Ġor",
        -8.48262324564581
      ],
      [
        "à¤¾à¤¸",
        -8.48531844732912
      ],
      [
        "Ġpas",
        -8.487494916727753
      ],
      [
        "à¸ĩ",
        -8.488845682842424
      ],
      [
        "mba",
        -8.491446010291789
      ],
      [
        "à¤¿à¤°",
        -8.493097709910792
      ],
      [
        "à±Ģà°¨",
        -8.493629837658482
      ],
      [
        "à±ģà°¸",
        -8.498538560965393
      ],
      [
        "ĠÙĦÙħ",
        -8.504127781167266
      ],
      [
        "à±įà°°à°®",
        -8.504269395210338
      ],
      [
        "à¥ĭà¤Ĺ",
        -8.50431513140504
      ],
      [
        "à¸´à¸Ķ",
        -8.504511778752953
      ],
      [
        "Ġà¤ĸ",
        -8.505716858812475
      ],
      [
        "Ġby",
        -8.506942369142994
      ],
      [
        "M",
        -8.50806179763513
      ],
      [
        "à±ĩà°µ",
        -8.509257294831023
      ],
      [
        "à±ĭà°Ĺ",
        -8.510225367262613
      ],
      [
        "à¥Ĥ",
        -8.513411725987503
      ],
      [
        "it",
        -8.517631408547421
      ],
      [
        "ÐµÐ¹",
        -8.519095561472954
      ],
      [
        "Ġà°ķà°²",
        -8.519812708112118
      ],
      [
        "si",
        -8.520350855828761
      ],
      [
        "à¸«à¸Ļ",
        -8.520947231419266
      ],
      [
        "à°Ĥà°ª",
        -8.522094337996506
      ],
      [
        "à±ĭà°²",
        -8.524331836391585
      ],
      [
        "ÙħØ§",
        -8.525263726810763
      ],
      [
        "ÐµÐ³Ð¾",
        -8.529363146925832
      ],
      [
        "Ø§ÙĦÙī",
        -8.529553267206921
      ],
      [
        "Ð¸Ð»Ð¸",
        -8.530866569606022
      ],
      [
        "ÙĨ",
        -8.531473910238079
      ],
      [
        "à¥įà¤·",
        -8.535994738762327
      ],
      [
        "ĠF",
        -8.537909152941728
      ],
      [
        "à°¦à°°",
        -8.538098713017394
      ],
      [
        "à¤¯",
        -8.538161060263798
      ],
      [
        ").",
        -8.541465099528438
      ],
      [
        "z",
        -8.545436262358361
      ],
      [
        "à±ĭà°°",
        -8.54654637697841
      ],
      [
        "à°¾à°§",
        -8.550072480667426
      ],
      [
        "à¥įà¤¥",
        -8.55170719677111
      ],
      [
        "ÑĭÐµ",
        -8.551900465332306
      ],
      [
        "Ġh",
        -8.552038053243201
      ],
      [
        "à°¾à°£",
        -8.56074355703036
      ],
      [
        "ÐµÑĤÑģÑı",
        -8.561963866495221
      ],
      [
        "ĠE",
        -8.562602841530376
      ],
      [
        "à±Ģà°²",
        -8.562839640278533
      ],
      [
        "à±ĩà°¯",
        -8.563608189758023
      ],
      [
        "à¤¾à¥¤",
        -8.56363735955928
      ],
      [
        "nin",
        -8.564822328300597
      ],
      [
        "Ġnot",
        -8.570825339434993
      ],
      [
        "à±įà°°à°¤",
        -8.573138876482316
      ],
      [
        "à±ĭà°¯",
        -8.574206308824902
      ],
      [
        "à¹Ģà¸£",
        -8.575847318217164
      ],
      [
        "ĠÐĴ",
        -8.576243482871984
      ],
      [
        "à¤¾à¤¹",
        -8.58013199566377
      ],
      [
        "f",
        -8.58160407579287
      ],
      [
        "äºĨ",
        -8.5856446430772
      ],
      [
        "à°¿à°Ł",
        -8.587150999497256
      ],
      [
        "à¸ĸ",
        -8.589161972470475
      ],
      [
        "ÑĥÑİ",
        -8.589859356181133
      ],
      [
        "Ġqu",
        -8.590846353011951
      ],
      [
        ".com",
        -8.591235674124846
      ],
      [
        "Ġà¤ħà¤ªà¤",
        -8.59401379994845
      ],
      [
        "Ġce",
        -8.596101394976117
      ],
      [
        "dan",
        -8.599178114558189
      ],
      [
        "on",
        -8.604355607664786
      ],
      [
        "à°Ĥà°ļ",
        -8.606909376087152
      ],
      [
        "ĠØ¨ÙĨ",
        -8.61077418497252
      ],
      [
        "à°¾à°¬",
        -8.613176603393384
      ],
      [
        "ce",
        -8.62039287563923
      ],
      [
        "ĠÐ¿ÑĢÐ¸",
        -8.62040026507978
      ],
      [
        "à¤ķà¤°",
        -8.621287923392288
      ],
      [
        "à¥Ĥà¤°",
        -8.622068612264606
      ],
      [
        "¬",
        -8.623415131916481
      ],
      [
        "à¹īà¸Ńà¸ĩ",
        -8.624118881667773
      ],
      [
        "ment",
        -8.624474326090454
      ],
      [
        "ĠØ§ÙĪ",
        -8.625375242109651
      ],
      [
        "à¤īà¤¨",
        -8.627053312773894
      ],
      [
        "ĠBu",
        -8.628866830990571
      ],
      [
        "olarak",
        -8.630210513439367
      ],
      [
        "à°²à°¨",
        -8.632166106639705
      ],
      [
        "à±ĭà°¸",
        -8.633086089213961
      ],
      [
        "Ġà°¡",
        -8.633612744872494
      ],
      [
        "ant",
        -8.63628937506194
      ],
      [
        "Ġan",
        -8.636513324022152
      ],
      [
        "c",
        -8.64154381364336
      ],
      [
        "this",
        -8.642247543613102
      ],
      [
        "ĠL",
        -8.642322757846744
      ],
      [
        "à±Ĩà°ķ",
        -8.643189303803045
      ],
      [
        "plus",
        -8.644650480430576
      ],
      [
        "Ġà°ħà°¯",
        -8.646458458651901
      ],
      [
        "from",
        -8.648244588940818
      ],
      [
        "à¤¬",
        -8.649859310139272
      ],
      [
        "Ġvi",
        -8.650037217153812
      ],
      [
        "à¥ĩà¤¶",
        -8.652251176267502
      ],
      [
        "®",
        -8.655563924063625
      ],
      [
        "Ä±",
        -8.656692588081203
      ],
      [
        "åľ¨",
        -8.657476550986646
      ],
      [
        "ÑĭÐ¹",
        -8.661605546315606
      ],
      [
        "ÑĮ",
        -8.662391602848597
      ],
      [
        "à±Ĭà°ķ",
        -8.664082112271696
      ],
      [
        "wenye",
        -8.664599125244985
      ],
      [
        "à¤µ",
        -8.665096714764092
      ],
      [
        "à°¿à°·",
        -8.666395101528721
      ],
      [
        "Ł",
        -8.667470448638948
      ],
      [
        "Ġà°¤à°¨",
        -8.670870911296937
      ],
      [
        "ĠØ¨Ø¹Ø¯",
        -8.674031524026397
      ],
      [
        "Ð¼",
        -8.675786990236343
      ],
      [
        "à¤²",
        -8.678801710036856
      ],
      [
        "à¹Īà¸²à¸Ļ",
        -8.682802808969692
      ],
      [
        "à¤¾à¤",
        -8.682818137008741
      ],
      [
        "à¹Ģà¸Ķ",
        -8.683187284628833
      ],
      [
        "Ġà°Ł",
        -8.684863942139692
      ],
      [
        "Ð¹",
        -8.687479181463527
      ],
      [
        "Ġre",
        -8.691371783947533
      ],
      [
        "ĠÐ°",
        -8.69404891451904
      ],
      [
        "Ġà¤Ĺà¤",
        -8.694187615919631
      ],
      [
        "aux",
        -8.696615220577883
      ],
      [
        "à¸´à¸Ļ",
        -8.697653529909386
      ],
      [
        "à¤°",
        -8.69767647686884
      ],
      [
        "à¹Īà¸²à¸ĩ",
        -8.698227087590947
      ],
      [
        "li",
        -8.70445647733784
      ],
      [
        "Ġsa",
        -8.705481179726318
      ],
      [
        "ĠÙĨ",
        -8.705684938992999
      ],
      [
        "ĠÃ§ok",
        -8.709695445984789
      ],
      [
        "B",
        -8.711443397277439
      ],
      [
        "ĠÑĥ",
        -8.712219237312802
      ],
      [
        "have",
        -8.715060929741751
      ],
      [
        "à±ģà°ª",
        -8.715986275128023
      ],
      [
        "ļ",
        -8.716500432382528
      ],
      [
        "à°¿à°¶",
        -8.71698166297732
      ],
      [
        "à±ĭà°Ł",
        -8.717045088936496
      ],
      [
        "à¥įà¤¸",
        -8.71908255676638
      ],
      [
        "Ġher",
        -8.720296111027395
      ],
      [
        "à¥ģà¤°",
        -8.727423883951419
      ],
      [
        "à±ĭà°µ",
        -8.727935673349748
      ],
      [
        "ĠÙĦÙĩ",
        -8.737904672848922
      ],
      [
        "à°¿à°ļ",
        -8.74027581102292
      ],
      [
        "à°ľ",
        -8.74380785891351
      ],
      [
        "Ġj",
        -8.744904473672118
      ],
      [
        "à°¾à°³",
        -8.748050999803956
      ],
      [
        "à¤¾à¤ľ",
        -8.74951732018981
      ],
      [
        "¾",
        -8.753147402369361
      ],
      [
        "à¹ĩ",
        -8.754467705479986
      ],
      [
        "à¹īà¸§à¸¢",
        -8.755529618629005
      ],
      [
        "à±ĥà°",
        -8.756845542489788
      ],
      [
        "D",
        -8.757554300077242
      ],
      [
        "¥",
        -8.757824547034016
      ],
      [
        "l",
        -8.758295126329388
      ],
      [
        "Ġà¸¡",
        -8.758561705593436
      ],
      [
        "Ġà¸ª",
        -8.762607461571154
      ],
      [
        "à¸«à¸£",
        -8.763150487091774
      ],
      [
        "à±Ģà°µ",
        -8.764363047471232
      ],
      [
        "ation",
        -8.765001567252547
      ],
      [
        "ĠÙĪÙĦØ§",
        -8.767481486319188
      ],
      [
        "te",
        -8.76773729726361
      ],
      [
        "Ġà¤īà¤¸",
        -8.769253793396402
      ],
      [
        "à°¶",
        -8.770402004213874
      ],
      [
        "ĠÐ²ÑģÐµ",
        -8.772823071209462
      ],
      [
        "ĠR",
        -8.773271943709572
      ],
      [
        "Ġhu",
        -8.776003844299389
      ],
      [
        "¦",
        -8.776180936496296
      ],
      [
        "à±ĭà°ķ",
        -8.776882123759863
      ],
      [
        "Ġà¸ģ",
        -8.776985266013806
      ],
      [
        "à±Ģà°ķ",
        -8.777787503343044
      ],
      [
        "à¤Ī",
        -8.778838335303156
      ],
      [
        "ĠO",
        -8.781473690318359
      ],
      [
        "la",
        -8.784828135394674
      ],
      [
        "ĠÙĤØ¯",
        -8.785437279303217
      ],
      [
        "Ġdo",
        -8.787833907251514
      ],
      [
        "à±ģà°¦",
        -8.792272946235258
      ],
      [
        "Ġà¤ķà¤¹",
        -8.795032539429025
      ],
      [
        "ĠG",
        -8.795070359933149
      ],
      [
        "The",
        -8.796293810582625
      ],
      [
        "Ġà°¸à°®",
        -8.79691898427833
      ],
      [
        "à¥Īà¤Ĥà¥¤",
        -8.798498276423262
      ],
      [
        "ĠÐ²Ñĭ",
        -8.799967515476126
      ],
      [
        "à¹Īà¸Ļ",
        -8.800396112860373
      ],
      [
        "à±Ĩà°¡",
        -8.800566115153089
      ],
      [
        "ĠâĢĺ",
        -8.800635352410612
      ],
      [
        "nÄ±n",
        -8.80083931707018
      ],
      [
        "à¸Ħ",
        -8.807693741375711
      ],
      [
        "Ġwe",
        -8.808090725590779
      ],
      [
        "ĠN",
        -8.811309880280579
      ],
      [
        "ĠØ§ÙĦÙħ",
        -8.813811056567154
      ],
      [
        "C",
        -8.814219157076051
      ],
      [
        "à±ĩà°Ĥ",
        -8.814463171862663
      ],
      [
        "à¸¹",
        -8.814723742444823
      ],
      [
        "à°¿à°§",
        -8.818451743595286
      ],
      [
        "ne",
        -8.819914243014836
      ],
      [
        "à¥ĭà¤¨",
        -8.824314802554255
      ],
      [
        "à±Ĥà°ª",
        -8.824802618112978
      ],
      [
        "à¹Ģà¸Ĭ",
        -8.825460235582604
      ],
      [
        ").Ċ",
        -8.827206944584084
      ],
      [
        "ĠÙĥÙħØ§",
        -8.828718480238017
      ],
      [
        "Ġà°¤à°°",
        -8.830412422472573
      ],
      [
        "à±ĭà°¤",
        -8.844135862097637
      ],
      [
        "ma",
        -8.847485263973887
      ],
      [
        "ki",
        -8.847590477032941
      ],
      [
        "à¸ŀ",
        -8.848606206305327
      ],
      [
        "à¸ĭ",
        -8.850415551723817
      ],
      [
        "Ġju",
        -8.851498637863422
      ],
      [
        "ont",
        -8.852299766239632
      ],
      [
        "Ð°Ð¼Ð¸",
        -8.85414453937345
      ],
      [
        "...Ċ",
        -8.856629222053641
      ],
      [
        "à±ģà°Ł",
        -8.85669454543508
      ],
      [
        "ent",
        -8.859830900560834
      ],
      [
        "ÙĴØ",
        -8.861397011123465
      ],
      [
        "à¤µà¤¹",
        -8.862139099021611
      ],
      [
        "à¥ĩà¤ķ",
        -8.86227127773025
      ],
      [
        "Ø§ÙĨ",
        -8.864249780123423
      ],
      [
        "Ġwake",
        -8.864879904097839
      ],
      [
        "à±Ĩà°¸",
        -8.868184441980198
      ],
      [
        "x",
        -8.868374949327126
      ],
      [
        "à±įà°¯à°ķ",
        -8.86891499550136
      ],
      [
        "à¤«",
        -8.870946833346057
      ],
      [
        "à±Ĥà°¸",
        -8.873317718735631
      ],
      [
        "à¹Ģà¸ģ",
        -8.877151368562702
      ],
      [
        "Ġà°ħà°¦",
        -8.87986655710146
      ],
      [
        "à±Ģà°¯",
        -8.880526351682418
      ],
      [
        "à±ĩà°²",
        -8.880780391126098
      ],
      [
        "à¥įà¤¹",
        -8.88101125011066
      ],
      [
        "Ġà°ħà°®",
        -8.881898514183224
      ],
      [
        "à±ģà°®",
        -8.883005196945838
      ],
      [
        "ĠØ¹ÙĨØ¯",
        -8.884234617353012
      ],
      [
        "à¸¶à¸ĩ",
        -8.886630512881055
      ],
      [
        "vous",
        -8.88704024593369
      ],
      [
        "à¥įà¤ķ",
        -8.88730433186263
      ],
      [
        "à¸±à¸Ķ",
        -8.889611443323417
      ],
      [
        "dir",
        -8.890369571436544
      ],
      [
        "Ġtu",
        -8.892047895756601
      ],
      [
        "E",
        -8.892415999369526
      ],
      [
        "I",
        -8.892568909385282
      ],
      [
        "Ġà°ľà°°",
        -8.897458987462947
      ],
      [
        "vec",
        -8.897858297375066
      ],
      [
        "à¤ª",
        -8.898435318052924
      ],
      [
        "ĠØºÙĬØ±",
        -8.898617098333084
      ],
      [
        "ØŃÙĬØ«",
        -8.899929583190298
      ],
      [
        "Ä±n",
        -8.900904051632459
      ],
      [
        "Ġolan",
        -8.902177508514933
      ],
      [
        "à¤¿à¤¶",
        -8.908872833735582
      ],
      [
        "Ġcan",
        -8.909048081901261
      ],
      [
        "à¸±à¸§",
        -8.909379361485579
      ],
      [
        "à¹īà¸²à¸Ļ",
        -8.911936312247175
      ],
      [
        "Ġgibi",
        -8.91235886526324
      ],
      [
        "âĢĻs",
        -8.915313159769969
      ],
      [
        "ers",
        -8.915770085077773
      ],
      [
        "Ġà¹ģà¸¥à¸°",
        -8.917134102102448
      ],
      [
        "Ġou",
        -8.919023319858766
      ],
      [
        "à¤¾à¤µ",
        -8.920307058865092
      ],
      [
        "à±Įà°",
        -8.920407971015262
      ],
      [
        "ji",
        -8.921527657481818
      ],
      [
        "ement",
        -8.922229026222738
      ],
      [
        "à¸Ī",
        -8.922847880444783
      ],
      [
        "à¥ĩà¤¤",
        -8.924698128853134
      ],
      [
        "will",
        -8.925897348165147
      ],
      [
        "ÐµÐ¼",
        -8.926224491117654
      ],
      [
        "ĠÙĩÙĬ",
        -8.926839916333963
      ],
      [
        "Ġà¤ħà¤¨",
        -8.927595944797577
      ],
      [
        "Ġil",
        -8.927868352815526
      ],
      [
        "Ġili",
        -8.927877637191063
      ],
      [
        "âĢ¦",
        -8.929219285438926
      ],
      [
        "se",
        -8.929865166644085
      ],
      [
        "à°Ĥà°ķ",
        -8.931309482197893
      ],
      [
        "à¸±à¸ģ",
        -8.931450607488545
      ],
      [
        "à±ĩà°¤",
        -8.932613935653341
      ],
      [
        "Ġà¸Ħ",
        -8.933755906891836
      ],
      [
        "à¤¾à¤¥",
        -8.934066496268285
      ],
      [
        "Ġà°İà°ķ",
        -8.93621050950641
      ],
      [
        "à°²à°ķ",
        -8.944531820219002
      ],
      [
        "Ġhas",
        -8.945941638065474
      ],
      [
        "«",
        -8.947869041950355
      ],
      [
        "à¥ģà¤²",
        -8.948228767569152
      ],
      [
        "à±ĩà°®",
        -8.953027843817743
      ],
      [
        "ĠØ¨Ø¹Ø¶",
        -8.954429231109334
      ],
      [
        "à¸´à¸ķ",
        -8.9550472093677
      ],
      [
        "ĠØ£ÙĬ",
        -8.958296434353521
      ],
      [
        "Ń",
        -8.958893375561974
      ],
      [
        "ĠÐ´Ð¾",
        -8.959265424472942
      ],
      [
        "ĠWa",
        -8.959985720008733
      ],
      [
        "ãĢĤâĢĿ",
        -8.961200937315112
      ],
      [
        "Ġwatu",
        -8.964794288122462
      ],
      [
        "à°¿à°¡",
        -8.96545500814215
      ],
      [
        "h",
        -8.965654914993044
      ],
      [
        "à±įà°¬",
        -8.966043202364602
      ],
      [
        "à°¾à°¶",
        -8.969072110188636
      ],
      [
        "Ġà¸ĭ",
        -8.972498154743418
      ],
      [
        "à±Ĭ",
        -8.973438546983019
      ],
      [
        "Ø§Ø¡",
        -8.974737204414424
      ],
      [
        "Ġje",
        -8.975706101354332
      ],
      [
        "Ġà°ķà°¨",
        -8.976605271359206
      ],
      [
        "à±ĭà°ľ",
        -8.977120508447385
      ],
      [
        "à±ĩà°Ł",
        -8.978304414154902
      ],
      [
        "daha",
        -8.978574630435542
      ],
      [
        "à¸ľ",
        -8.979674440907552
      ],
      [
        "ÙİØ§",
        -8.981041552282466
      ],
      [
        "à°ĩà°¦",
        -8.985162247627
      ],
      [
        "ÙĥØ§ÙĨØª",
        -8.986843132003902
      ],
      [
        "Ġà°ħà°²",
        -8.988146612588197
      ],
      [
        "Ġvya",
        -8.989724286701295
      ],
      [
        "à¸Ĭ",
        -8.995655849486557
      ],
      [
        "à°ªà°Ł",
        -8.996613487092919
      ],
      [
        "à¥ĩà¤°",
        -8.998616997278248
      ],
      [
        "ÙĦ",
        -8.99880131020732
      ],
      [
        "ĠØ¨Ùĩ",
        -9.000277894107167
      ],
      [
        "ler",
        -9.000736587811176
      ],
      [
        "à±įà°ķà°¡",
        -9.002869998148988
      ],
      [
        "Ġà¹ģà¸ķ",
        -9.004089460622435
      ],
      [
        "hiyo",
        -9.004888389487803
      ],
      [
        "Ã©s",
        -9.005862874166153
      ],
      [
        "à¤°à¤¨",
        -9.007400942362452
      ],
      [
        "Ġ[",
        -9.007719224767968
      ],
      [
        "est",
        -9.008592025309484
      ],
      [
        "Ġà¤Ł",
        -9.01106225548394
      ],
      [
        "à¥¤",
        -9.011759719810478
      ],
      [
        "ĠW",
        -9.01176954852892
      ],
      [
        "ĠØ«Ùħ",
        -9.015059744541746
      ],
      [
        "Ġà°¸à°°",
        -9.01653509516412
      ],
      [
        "Ġso",
        -9.01664265573632
      ],
      [
        "à¤Ń",
        -9.018833938724152
      ],
      [
        "à¥įà¤¦",
        -9.01912971990285
      ],
      [
        "à¸±à¸ķ",
        -9.019914912436558
      ],
      [
        "Mungu",
        -9.0201948118398
      ],
      [
        "à¥Ģà¤¨",
        -9.020497761182174
      ],
      [
        "à¤ı",
        -9.020844859187084
      ],
      [
        "ĠØ¥ÙĨ",
        -9.025746835021971
      ],
      [
        "à¥Įà¤",
        -9.02592213667477
      ],
      [
        "à°¾à°¹",
        -9.026483379570957
      ],
      [
        "Ġsi",
        -9.02697659128738
      ],
      [
        "L",
        -9.028330705839773
      ],
      [
        "Ġà°Ĩà°°",
        -9.029338816074976
      ],
      [
        "que",
        -9.030313547662374
      ],
      [
        "à¥Īà¤",
        -9.031130662981862
      ],
      [
        "æĺ¯",
        -9.032443507223393
      ],
      [
        "ĠÙĥ",
        -9.03284309083299
      ],
      [
        "à¥īà¤",
        -9.034094586649626
      ],
      [
        "me",
        -9.035444449696556
      ],
      [
        "ĠØ¨ÙĩØ§",
        -9.03894956855236
      ],
      [
        "hii",
        -9.040844931327875
      ],
      [
        "Ġà¤¹à¤®",
        -9.04198707395299
      ],
      [
        "ĵ",
        -9.043302376097632
      ],
      [
        "K",
        -9.04353323245179
      ],
      [
        "à¤ľ",
        -9.043624838286004
      ],
      [
        "your",
        -9.043809174582709
      ],
      [
        "ĠÙĬÙĥÙĪÙĨ",
        -9.04444595330985
      ],
      [
        "ĠÑĤÐ¾",
        -9.04457429747974
      ],
      [
        "th",
        -9.044848235295747
      ],
      [
        "à¹Ģà¸ŀ",
        -9.045074926633776
      ],
      [
        "ÙĬØ§",
        -9.046873151671525
      ],
      [
        "lÄ±",
        -9.047307038982863
      ],
      [
        "Ð³Ð¾",
        -9.047431266103548
      ],
      [
        "sema",
        -9.052993723169498
      ],
      [
        "*",
        -9.053770363151534
      ],
      [
        "à¸¥",
        -9.056607804195188
      ],
      [
        "ÙİØ",
        -9.058633935816548
      ],
      [
        "ĠÙĪÙĩÙĪ",
        -9.05864029145222
      ],
      [
        "ĠØŃØªÙ",
        -9.059336876840815
      ],
      [
        "lar",
        -9.063923047862833
      ],
      [
        "Ġbut",
        -9.063950323814922
      ],
      [
        "ve",
        -9.064089632311376
      ],
      [
        "à¤¾à¤Ī",
        -9.065135626818568
      ],
      [
        "à¤¹",
        -9.066473004924124
      ],
      [
        "T",
        -9.070944708729016
      ],
      [
        "à¹īà¸Ļ",
        -9.072687703787649
      ],
      [
        "à¥ĩà¤¨",
        -9.073009858349204
      ],
      [
        "à¥ģ",
        -9.073271993990875
      ],
      [
        "ĠØ§ÙĦØ£",
        -9.073655225805194
      ],
      [
        "Ã©e",
        -9.0750874533103
      ],
      [
        "à¥ģà¤¨",
        -9.075775211224013
      ],
      [
        "ĠÐ±Ñĭ",
        -9.078537112072356
      ],
      [
        "Ġà°ħà°µ",
        -9.080173408637014
      ],
      [
        "ĠÑģÐ¾",
        -9.081484717942557
      ],
      [
        "ĠÙĤØ¨ÙĦ",
        -9.082266385733806
      ],
      [
        "ĠÙĪÙħÙĨ",
        -9.082358793146309
      ],
      [
        "à°Ĥà°§",
        -9.083184260770594
      ],
      [
        "Ġsonra",
        -9.085456430123088
      ],
      [
        "ĠÑĤ",
        -9.087487966022753
      ],
      [
        "à¤¡",
        -9.087989876848738
      ],
      [
        "&",
        -9.089792578188897
      ],
      [
        "Ġkazi",
        -9.090986296099231
      ],
      [
        "à±Ĥà°²",
        -9.0941374808255
      ],
      [
        "à¹Īà¸¡",
        -9.096908908640394
      ],
      [
        "ani",
        -9.09777587252411
      ],
      [
        "Ġpa",
        -9.099644021401414
      ],
      [
        "P",
        -9.10177308033004
      ],
      [
        "Ø§ÙĦ",
        -9.102003528251393
      ],
      [
        "¶",
        -9.102193889605951
      ],
      [
        "rÃ¨s",
        -9.10502525542163
      ],
      [
        "ĠÐ½Ð¾",
        -9.105759381240397
      ],
      [
        "Ġà°®à°¨",
        -9.105884879858404
      ],
      [
        "Ġall",
        -9.106403468906048
      ],
      [
        "à¹Ģà¸¡",
        -9.10692135390094
      ],
      [
        "ĠJ",
        -9.108648226784297
      ],
      [
        "à¸ļ",
        -9.109263173251453
      ],
      [
        "ģ",
        -9.109801318425456
      ],
      [
        "Ġà°ĩà°",
        -9.111264993138256
      ],
      [
        "idi",
        -9.111849595196327
      ],
      [
        "à°«",
        -9.115440013935638
      ],
      [
        "ĠØ®ÙĦØ§ÙĦ",
        -9.11611866001591
      ],
      [
        "Ð°Ñħ",
        -9.116532475512358
      ],
      [
        "mbali",
        -9.116593866549447
      ],
      [
        "ĊĊ",
        -9.117025822945475
      ],
      [
        "ĠÙģÙĬÙĩ",
        -9.11848908921136
      ],
      [
        "à¤Ł",
        -9.12111663711614
      ],
      [
        "à±Ģà°¦",
        -9.12145331230623
      ],
      [
        "Ġwana",
        -9.121898620589082
      ],
      [
        "tout",
        -9.122621650979678
      ],
      [
        "à¤¿à¤µ",
        -9.123541596497974
      ],
      [
        "à¤Ĥà¤¤",
        -9.123553121064088
      ],
      [
        "Ġà¤¡",
        -9.125041393486724
      ],
      [
        "à¸į",
        -9.126718100136872
      ],
      [
        "à¸¸à¸Ķ",
        -9.12693914681634
      ],
      [
        "ion",
        -9.12852460676295
      ],
      [
        "us",
        -9.12947412240965
      ],
      [
        "à¸Ħà¸£",
        -9.129758414358696
      ],
      [
        "à¸µà¸ģ",
        -9.130963264272374
      ],
      [
        "à°¦à°¨",
        -9.131020204827696
      ],
      [
        "ĠÐ¡",
        -9.131877651834689
      ],
      [
        "more",
        -9.132100027582652
      ],
      [
        "ĠLa",
        -9.132281226914523
      ],
      [
        "able",
        -9.132986025669243
      ],
      [
        "à¥Ģà¥¤",
        -9.133139959656372
      ],
      [
        "ÐĴ",
        -9.13322468143441
      ],
      [
        "ĠÙģÙĬÙĩØ§",
        -9.133325867030168
      ],
      [
        "ï¼Ī",
        -9.133443562099306
      ],
      [
        "Ð±Ñĭ",
        -9.134658777475144
      ],
      [
        "à¤¼à¤¾",
        -9.136357170718227
      ],
      [
        "N",
        -9.136813795454476
      ],
      [
        "ĠÑı",
        -9.13695262254907
      ],
      [
        "à¥ģà¤ķ",
        -9.140874010484003
      ],
      [
        "à¸±à¸¢",
        -9.14091421914309
      ],
      [
        "à±įà°£",
        -9.142391315111468
      ],
      [
        "Ġà¸Ī",
        -9.144060045215552
      ],
      [
        "ãĢĮ",
        -9.14446129475846
      ],
      [
        "ĠØ¹Ø§Ùħ",
        -9.14528120741073
      ],
      [
        "Ġà¤¬à¤¨",
        -9.14571249072199
      ],
      [
        "Ġf",
        -9.146250472395764
      ],
      [
        "nt",
        -9.14643218474774
      ],
      [
        "Ġà¤Ĩà¤",
        -9.146553203805777
      ],
      [
        "Ġà¸«à¸£",
        -9.146585245135483
      ],
      [
        "ĸ",
        -9.14763412295811
      ],
      [
        "ĠØ§ÙĦØ§",
        -9.147658095134108
      ],
      [
        "eux",
        -9.147780614888028
      ],
      [
        "Ĺ",
        -9.148360400666382
      ],
      [
        "à¹īà¸²à¸ĩ",
        -9.149431209597484
      ],
      [
        "à°Łà°°",
        -9.1516315202324
      ],
      [
        "Ġà¤²à¤Ĺ",
        -9.152262038323684
      ],
      [
        "ĠÐĺ",
        -9.154369009844576
      ],
      [
        "Ð»Ð¸",
        -9.154558644978271
      ],
      [
        "à±Ĩà°¦",
        -9.15547697783074
      ],
      [
        "à¹Ģà¸¥",
        -9.156575867019576
      ],
      [
        "ĠLe",
        -9.157415409353032
      ],
      [
        "Ġà°ªà°¦",
        -9.159506176420592
      ],
      [
        "Ġyak",
        -9.165521555174829
      ],
      [
        "Ġà¤¸à¤®",
        -9.168600259500693
      ],
      [
        "à°ļà°¡",
        -9.169389550637304
      ],
      [
        "à¸Ĺà¸³à¹ĥà¸«",
        -9.169447946148516
      ],
      [
        "à¹Ģà¸Ħà¸£",
        -9.169576200325478
      ],
      [
        "à°Ĥà°¦à°°",
        -9.169760059118952
      ],
      [
        "Ġà°ı",
        -9.170255444040167
      ],
      [
        "ĠÙĤØ§ÙĦ",
        -9.17128578156824
      ],
      [
        "à¥ĭà¤°",
        -9.173350198520286
      ],
      [
        "à¸Ńà¸£",
        -9.17427329219779
      ],
      [
        "mais",
        -9.177342469524236
      ],
      [
        "Ġhe",
        -9.178365814506584
      ],
      [
        "ĠÐºÐ¾ÑĤÐ¾ÑĢ",
        -9.179355650619035
      ],
      [
        "à¤ķà¤°à¤¤",
        -9.17998668986791
      ],
      [
        "à±ģà°²à°ķ",
        -9.18009829739443
      ],
      [
        "à°§",
        -9.180711742624773
      ],
      [
        "ĠØ¥ÙĦØ§",
        -9.182374156037074
      ],
      [
        "à±ģà°ĸ",
        -9.18248750504607
      ],
      [
        "Ġà°Ĩà°¯à°¨",
        -9.183074902580287
      ],
      [
        "à¤¶",
        -9.18352804609297
      ],
      [
        "Ġme",
        -9.185296308531443
      ],
      [
        "à°¿à°ľ",
        -9.185390730766542
      ],
      [
        "Ġup",
        -9.18732600571632
      ],
      [
        "à°¾à°·",
        -9.188694732747331
      ],
      [
        "Ġà¹Ģà¸Ľ",
        -9.192439217496126
      ],
      [
        "dÄ±r",
        -9.192897073019534
      ],
      [
        "ĠÙĪÙĤØ¯",
        -9.194203065235046
      ],
      [
        "âĢĻun",
        -9.194722251828484
      ],
      [
        "Ø±Ø©",
        -9.195458061764032
      ],
      [
        "Ġà¸ķ",
        -9.197668004787277
      ],
      [
        "Ð¶Ðµ",
        -9.202417143716271
      ],
      [
        "//",
        -9.202481871293138
      ],
      [
        "à¸Ħà¸§à¸²à¸¡",
        -9.203706697790924
      ],
      [
        "à°¿à°·à°¯",
        -9.204848396480951
      ],
      [
        "Ġsana",
        -9.205491465308649
      ],
      [
        "à¤°à¤£",
        -9.206025578837805
      ],
      [
        "ngu",
        -9.206394871756068
      ],
      [
        "à°Ĥà°¸",
        -9.207286431028551
      ],
      [
        "à¸Ľ",
        -9.209324282405383
      ],
      [
        "à±įà°ľ",
        -9.210741795594648
      ],
      [
        "ÐµÐ½Ð¸Ñı",
        -9.211270885876845
      ],
      [
        "à±įà°°à°¯",
        -9.211958876072714
      ],
      [
        "à±ĥà°¤",
        -9.212466327683371
      ],
      [
        "Ġà°ħà°°",
        -9.213217855884432
      ],
      [
        "à°ħà°§",
        -9.21471856445529
      ],
      [
        "ĠMa",
        -9.216569536888576
      ],
      [
        "ĠÐ¾Ð½",
        -9.22094590005143
      ],
      [
        "nous",
        -9.221283579277785
      ],
      [
        "http",
        -9.223162823144476
      ],
      [
        "à¹īà¸Ńà¸¡",
        -9.22430856798812
      ],
      [
        "à°¹",
        -9.22509428500286
      ],
      [
        "å¹´",
        -9.226291647470177
      ],
      [
        "hich",
        -9.22682797535262
      ],
      [
        ".âĢĿ",
        -9.22793183400373
      ],
      [
        "à¹Īà¸Ń",
        -9.228709729685413
      ],
      [
        "à¸µà¸¢",
        -9.229022194228488
      ],
      [
        "ªà¸²à¸¡à¸²à¸£à¸ĸ",
        -9.231586118737331
      ],
      [
        "à±įà°¯à°®",
        -9.23167119868721
      ],
      [
        "ĠØ§",
        -9.231947205283973
      ],
      [
        "..",
        -9.232045343481635
      ],
      [
        "ĠÙħØ«ÙĦ",
        -9.235713296914431
      ],
      [
        "Ùģ",
        -9.235856194652165
      ],
      [
        "à¥ĩà¤Ł",
        -9.237923438731231
      ],
      [
        "ivyo",
        -9.237978164909311
      ],
      [
        "ĠKi",
        -9.24047754593209
      ],
      [
        "à¥įà¤ļ",
        -9.242361275646829
      ],
      [
        "Ġout",
        -9.242437171827152
      ],
      [
        "G",
        -9.243214441860214
      ],
      [
        "ä¸Ń",
        -9.243419827987609
      ],
      [
        "ľ",
        -9.244369126256595
      ],
      [
        "ÐµÐµ",
        -9.245440468995293
      ],
      [
        "à¤µà¤°",
        -9.246195509636587
      ],
      [
        "à±įà°°à°Ń",
        -9.247063679273626
      ],
      [
        "Ð¼Ð¸",
        -9.249718053436329
      ],
      [
        "à¸µà¸§",
        -9.25137324581317
      ],
      [
        "ĠØ£ÙĨÙĩ",
        -9.251820408242056
      ],
      [
        "à¥įà¤¨",
        -9.253767268607838
      ],
      [
        "à¸Ĥ",
        -9.25767224565313
      ],
      [
        "ĠÙĬÙħÙĥÙĨ",
        -9.258387875550682
      ],
      [
        "\"Ċ",
        -9.25843089799896
      ],
      [
        "Ð½Ð¾Ð¹",
        -9.259941656321956
      ],
      [
        "Ġà¤ħ",
        -9.260326415283709
      ],
      [
        "Ġà¤Ĩà¤ª",
        -9.260703161620128
      ],
      [
        "à±ĭà°ª",
        -9.261345941529829
      ],
      [
        "à±Ģà°®",
        -9.262044285037833
      ],
      [
        "ingine",
        -9.262609576327517
      ],
      [
        "ĠÐºÐ¾ÑĤÐ¾ÑĢÑĭÐ",
        -9.26604966687685
      ],
      [
        "sa",
        -9.26613316512218
      ],
      [
        "di",
        -9.267726296172018
      ],
      [
        "Ġà°ħà°ª",
        -9.269186912546388
      ],
      [
        "po",
        -9.26980548854749
      ],
      [
        "à¤ĸ",
        -9.271973752789808
      ],
      [
        "H",
        -9.27202202473323
      ],
      [
        "ĠØ¨ÙĦ",
        -9.272438255429948
      ],
      [
        "Ġali",
        -9.274623799919796
      ],
      [
        "kutoka",
        -9.27502415437228
      ],
      [
        "à±ĩà°·",
        -9.275242014251848
      ],
      [
        "Ø³ÙĨØ©",
        -9.275571995461345
      ],
      [
        "Ġhis",
        -9.27583125840709
      ],
      [
        "à°¾à°²à°ķ",
        -9.2776897955541
      ],
      [
        "our",
        -9.280748746805262
      ],
      [
        "ÑĤÑģÑı",
        -9.282391745681483
      ],
      [
        "ĠØ¥Ø°Ø§",
        -9.282420024224049
      ],
      [
        "ĠØ§ÙĦØ¯ÙĪÙĦ",
        -9.282765650039178
      ],
      [
        "ĠØ¥",
        -9.283001061624478
      ],
      [
        "ÑĤÐ¾",
        -9.284756882806024
      ],
      [
        "zi",
        -9.285291871133609
      ],
      [
        "is",
        -9.287269230135706
      ],
      [
        "à¹īà¸£",
        -9.288297690666164
      ],
      [
        "à°µà°°",
        -9.290110824499449
      ],
      [
        "Ġà¸Ń",
        -9.290502032910208
      ],
      [
        "Ð¾Ð³Ð´Ð°",
        -9.291894261112638
      ],
      [
        "leri",
        -9.292570178183968
      ],
      [
        "Ġmtu",
        -9.29452280048707
      ],
      [
        "Ġpeu",
        -9.295647577928928
      ],
      [
        "ÙĩÙĨØ§Ùĥ",
        -9.29577015718428
      ],
      [
        "ä¸Ĭ",
        -9.29649247045245
      ],
      [
        "à¹īà¸Ńà¸¢",
        -9.301003967572743
      ],
      [
        "ait",
        -9.3011348124017
      ],
      [
        "Ġv",
        -9.30226174441616
      ],
      [
        "ĠØ§ÙĦØ¯ÙĬÙĨ",
        -9.30269474894886
      ],
      [
        "um",
        -9.302879336051577
      ],
      [
        "à¥ĩà¥¤",
        -9.304819044410296
      ],
      [
        "ÙİÙĦ",
        -9.30506427550479
      ],
      [
        "wakati",
        -9.305321028976827
      ],
      [
        "ĠØ§Ø¨ÙĨ",
        -9.3059945201314
      ],
      [
        "ĠØ¹ÙĦÙĬ",
        -9.307035314763954
      ],
      [
        "www",
        -9.308767279679394
      ],
      [
        "à¥ģà¤¤",
        -9.310400405665366
      ],
      [
        "Ġà°ĵ",
        -9.310797931472983
      ],
      [
        "à¹Įà¸Ĺ",
        -9.31121319145001
      ],
      [
        "à±Ģà°¡",
        -9.312385379805082
      ],
      [
        "à°ªà°¨",
        -9.313273322913384
      ],
      [
        "ĠØ§ÙĦØ¥Ø³ÙĦØ§Ùħ",
        -9.313871607397711
      ],
      [
        "à¥įà¤",
        -9.314458730516211
      ],
      [
        "Ġana",
        -9.315916594843085
      ],
      [
        "à¸ģà¸§",
        -9.316545826363107
      ],
      [
        "à±Ĭà°¦",
        -9.317400273697462
      ],
      [
        "à¥įà¤ª",
        -9.31937979471384
      ],
      [
        "Ġà¤Ĩ",
        -9.321750659549512
      ],
      [
        "Ġmy",
        -9.324662432286337
      ],
      [
        "F",
        -9.328764470245522
      ],
      [
        "à¹ģà¸ķ",
        -9.328784392729885
      ],
      [
        "à°¿à°µà°°",
        -9.329084163718107
      ],
      [
        "ĠÙĪÙĬ",
        -9.32917377621902
      ],
      [
        "Ùį",
        -9.332054861226933
      ],
      [
        "Ġame",
        -9.333000970057723
      ],
      [
        "ÙĲÙĬ",
        -9.33441378581055
      ],
      [
        "à°Ĩà°®",
        -9.334764987811916
      ],
      [
        "à¥ĩà¤ĸ",
        -9.336025612426203
      ],
      [
        "il",
        -9.336761327002856
      ],
      [
        "Ġà¤ĩ",
        -9.338040288899478
      ],
      [
        "à¤¾à¤ķ",
        -9.338795013751705
      ],
      [
        "Ø°ÙĬÙĨ",
        -9.340182532279307
      ],
      [
        "à¸±à¸Ļà¸Ĺ",
        -9.342011476517005
      ],
      [
        "à¥ĭà¤",
        -9.343046180891816
      ],
      [
        "à¹Īà¸ĩ",
        -9.343247304956693
      ],
      [
        "b",
        -9.343381794056793
      ],
      [
        "ĠÙĪÙģÙĬ",
        -9.34352833704082
      ],
      [
        "other",
        -9.343804553504617
      ],
      [
        "Ġkadar",
        -9.34439897803437
      ],
      [
        "Ġone",
        -9.345737667098446
      ],
      [
        "à¥ĩà¤²",
        -9.350188515127712
      ],
      [
        "à¸µà¸¢à¸ĩ",
        -9.351561287232212
      ],
      [
        "ÙĦØ©",
        -9.354500441528508
      ],
      [
        "Ð¾",
        -9.354500654187614
      ],
      [
        "ÑĭÐ¼Ð¸",
        -9.354597434725193
      ],
      [
        "ould",
        -9.3562938966075
      ],
      [
        "à¹ģà¸¥",
        -9.356571091813368
      ],
      [
        "or",
        -9.357304679650834
      ],
      [
        "Ð¸Ðµ",
        -9.357966363917406
      ],
      [
        "à¸µà¸¢à¸Ļ",
        -9.358979788332675
      ],
      [
        "Ġà°µà°°",
        -9.359980985752356
      ],
      [
        "à±įà°°à°¸",
        -9.360184255186752
      ],
      [
        "à±ĭà°¡",
        -9.361433420269508
      ],
      [
        "à¹Īà¸²à¸¢",
        -9.36177037907027
      ],
      [
        "ĠÐ¿ÑĢÐµÐ´",
        -9.36327785296371
      ],
      [
        "ĠÐ¿ÑĢÐ¾",
        -9.363678807082117
      ],
      [
        "ÙĢ",
        -9.364570127102098
      ],
      [
        "à¤Ĥà¤Ĺ",
        -9.366053531616153
      ],
      [
        "ĠØ§ÙĦØ¹Ø§Ùħ",
        -9.367647990346992
      ],
      [
        "à°¾à°°à°£",
        -9.367774152025898
      ],
      [
        "Ø¹ÙĦÙī",
        -9.368157522347644
      ],
      [
        "à¥įà¤§",
        -9.371631825776069
      ],
      [
        "ÑĤ",
        -9.372247876878928
      ],
      [
        "Ġhali",
        -9.372736698892908
      ],
      [
        "Ø¨",
        -9.374136942140446
      ],
      [
        "ux",
        -9.37561792754432
      ],
      [
        "zo",
        -9.377762512235858
      ],
      [
        "Ð¾Ðµ",
        -9.378925814458192
      ],
      [
        "à¸Ĥà¸Ńà¸ĩ",
        -9.37894274222118
      ],
      [
        "ons",
        -9.379188827281636
      ],
      [
        "à¤¾à¤ª",
        -9.379760288914802
      ],
      [
        "à¸³à¸«à¸£",
        -9.380689199844078
      ],
      [
        "Ġà°īà°¦",
        -9.380853071568936
      ],
      [
        "Ø¯",
        -9.38105811654072
      ],
      [
        "Ġà¸Ķ",
        -9.38167416054415
      ],
      [
        "à¹Ģà¸Ĥ",
        -9.381687374851596
      ],
      [
        "à¹Ģà¸Ļ",
        -9.381772780950374
      ],
      [
        "ÐµÑĤ",
        -9.38269226263604
      ],
      [
        "Ġà¸§",
        -9.38275826285289
      ],
      [
        "ĠÙħØŃÙħØ¯",
        -9.384103138809357
      ],
      [
        "à±Īà°²",
        -9.3842338059274
      ],
      [
        "'un",
        -9.38638648432894
      ],
      [
        "à¥Ģà¤¯",
        -9.388262852043788
      ],
      [
        "Ġba",
        -9.395727665779187
      ],
      [
        "à¸´à¸¡",
        -9.396183620636071
      ],
      [
        "à°®à°§",
        -9.398798359176809
      ],
      [
        "ko",
        -9.399808920484926
      ],
      [
        "Ġà°µà°¸",
        -9.40252984153518
      ],
      [
        "Ġà¸£",
        -9.404397593140851
      ],
      [
        "Ġà°ħà°¤",
        -9.404827841099948
      ],
      [
        "à¹īà¸¡",
        -9.406680539117223
      ],
      [
        "à±Ģà°¤",
        -9.407555973121458
      ],
      [
        "ØªÙĩØ§",
        -9.40800203095023
      ],
      [
        "ubwa",
        -9.409306207351095
      ],
      [
        "à¸µà¸Ĺ",
        -9.409676167959583
      ],
      [
        "ØŁ",
        -9.411642157686956
      ],
      [
        "Ø±",
        -9.412008346756032
      ],
      [
        "à°Ĥà°¬",
        -9.412293521708955
      ],
      [
        "ĠÐļ",
        -9.414037776538976
      ],
      [
        "Ġà¸ŀ",
        -9.415982850276515
      ],
      [
        "à¹ĥà¸«à¸¡",
        -9.416449612082737
      ],
      [
        "à°ħà°Ń",
        -9.417378167681228
      ],
      [
        "Ġà¹Ĩ",
        -9.41739535779596
      ],
      [
        "ies",
        -9.418180031314282
      ],
      [
        "Ġà¹Ģà¸ŀ",
        -9.418709278333642
      ],
      [
        "Ġà¸Ļ",
        -9.41875849950728
      ],
      [
        "Ġny",
        -9.419007355702885
      ],
      [
        "ĠNa",
        -9.419456274566723
      ],
      [
        "ØªÙĩ",
        -9.419737600809825
      ],
      [
        "à¥ĩà¤¸",
        -9.420578275818762
      ],
      [
        "Ð°Ð¼",
        -9.422058170713688
      ],
      [
        "yla",
        -9.422889557894482
      ],
      [
        "w",
        -9.423883086576168
      ],
      [
        "Ð½ÑĭÐ¹",
        -9.423921005047523
      ],
      [
        "à±Ģà°Ł",
        -9.424166238524212
      ],
      [
        "Ãªtre",
        -9.424927771323144
      ],
      [
        "âĢĻest",
        -9.425746011236068
      ],
      [
        "à¸¹à¸ģ",
        -9.426863447690623
      ],
      [
        "Ġfait",
        -9.429426525840556
      ],
      [
        "à¸´à¸Ī",
        -9.430560149056369
      ],
      [
        "à¤ħà¤§",
        -9.431586517876738
      ],
      [
        "cette",
        -9.431811585785988
      ],
      [
        "à¸¸à¸ĵ",
        -9.431890023458916
      ],
      [
        "Ġà¤¤à¤ķ",
        -9.431902391036244
      ],
      [
        "ĠÐĲ",
        -9.433737245822568
      ],
      [
        "ĠÙĦÙĩØ§",
        -9.433774727826828
      ],
      [
        "ez",
        -9.433778815242125
      ],
      [
        "ĠV",
        -9.434423166676908
      ],
      [
        "kila",
        -9.435465028306307
      ],
      [
        "ØŁĊ",
        -9.43643979701229
      ],
      [
        "ãĢį",
        -9.437506318526657
      ],
      [
        "ĠÐ¿Ð¾Ð´",
        -9.437683601790482
      ],
      [
        "æľī",
        -9.439851580815874
      ],
      [
        "à¸´à¸ĺ",
        -9.439896777613248
      ],
      [
        "year",
        -9.440347928499309
      ],
      [
        "V",
        -9.44052737962031
      ],
      [
        "ł",
        -9.440714469218214
      ],
      [
        "à°İà°²",
        -9.44419689020491
      ],
      [
        "à°³",
        -9.444895071950194
      ],
      [
        "ĠÙĥØªØ§Ø¨",
        -9.444971936319774
      ],
      [
        "yote",
        -9.445206516555356
      ],
      [
        "we",
        -9.445759432154738
      ],
      [
        "à±ĩà°ľ",
        -9.447070083726532
      ],
      [
        "âĢ¢",
        -9.448706536218085
      ],
      [
        "ÙİÙĨ",
        -9.449172390781431
      ],
      [
        "åĪ°",
        -9.449474809518508
      ],
      [
        "larÄ±",
        -9.451304718650793
      ],
      [
        "Ð¾Ð¼Ñĥ",
        -9.4523814195811
      ],
      [
        "W",
        -9.453818798668804
      ],
      [
        "ĠÐ¸ÑģÐ¿Ð¾Ð»ÑĮÐ·",
        -9.454180153680811
      ],
      [
        "à¹Īà¸Ńà¸Ļ",
        -9.454597581381156
      ],
      [
        "Ð½Ð¾Ð³Ð¾",
        -9.45510004287979
      ],
      [
        "Ø¯Ø©",
        -9.460382615039672
      ],
      [
        "ĠÙģØ¥ÙĨ",
        -9.462557782114532
      ],
      [
        "ĠÙĦÙĥÙĨ",
        -9.463939648016645
      ],
      [
        "ĠØ¯ÙĪÙĨ",
        -9.464681864603254
      ],
      [
        "à°¬à°¡",
        -9.46515274538693
      ],
      [
        "Ġà°¤à°®",
        -9.465370584856718
      ],
      [
        "Ġà¤ħà¤²",
        -9.465375142709863
      ],
      [
        "Ġiyi",
        -9.466043793691457
      ],
      [
        "ka",
        -9.466188950246329
      ],
      [
        "à±Ĩà°¯",
        -9.46673186307752
      ],
      [
        "ĭ",
        -9.468125035624857
      ],
      [
        "ient",
        -9.470560869936218
      ],
      [
        "chini",
        -9.470666755779348
      ],
      [
        "à¸´à¸§",
        -9.471419611626478
      ],
      [
        ".w",
        -9.471859586079349
      ],
      [
        "leur",
        -9.47701699253622
      ],
      [
        "Ġabout",
        -9.477902847578417
      ],
      [
        "ĠØ¹ÙħÙĦ",
        -9.478901647868554
      ],
      [
        "à¸ģà¸²à¸£",
        -9.479578111256965
      ],
      [
        "æĪĸ",
        -9.479580946712916
      ],
      [
        "à¤Ĥà¤¦",
        -9.479717740050706
      ],
      [
        "Ø§ÙĦØ¹Ø±Ø¨ÙĬØ©",
        -9.480041022526128
      ],
      [
        "Ġal",
        -9.481295337298665
      ],
      [
        "Ġmu",
        -9.481854476364983
      ],
      [
        "Ð¸Ð¼",
        -9.484076836084164
      ],
      [
        "à¹īà¸Ń",
        -9.48589218922982
      ],
      [
        "O",
        -9.48602917281633
      ],
      [
        "=",
        -9.488121884069995
      ],
      [
        "Ġà°ħà°ķ",
        -9.489121243915424
      ],
      [
        "à°µà°°à°ķ",
        -9.49151537975721
      ],
      [
        "à¥ģà¤¦",
        -9.492076013916924
      ],
      [
        "Ø¹Ø¯Ùħ",
        -9.492335816646738
      ],
      [
        "ĠØ¹",
        -9.494803125301296
      ],
      [
        "ĠÐ¼Ñĭ",
        -9.495074041842248
      ],
      [
        "à¥Ģà¤°",
        -9.4953871817205
      ],
      [
        "ÑĭÐ¼",
        -9.496619557436976
      ],
      [
        "à¥ģà¤®",
        -9.49870643151247
      ],
      [
        "ĠØ¹Ø¨Ø¯",
        -9.499319413959537
      ],
      [
        "Ġà¤īà¤¸à¤",
        -9.500513489223822
      ],
      [
        "Ġà°ªà°¡",
        -9.500542881733262
      ],
      [
        "ï¼Ł",
        -9.50242199644655
      ],
      [
        "Ġà¤Ľ",
        -9.50253955029748
      ],
      [
        "+",
        -9.502539703557428
      ],
      [
        "ĠØ§ÙĦØ¥ÙĨØ³Ø§ÙĨ",
        -9.50270969778964
      ],
      [
        "Ð½ÑĭÐµ",
        -9.50305944225014
      ],
      [
        "à¸¨",
        -9.50306559167594
      ],
      [
        "à¥Ĥà¤",
        -9.50381046912755
      ],
      [
        "ÙĲÙĨ",
        -9.504022274229062
      ],
      [
        "Ð±ÑĭÐ»Ð¾",
        -9.504820161981222
      ],
      [
        "Ġà¤Ĳà¤",
        -9.504921306748557
      ],
      [
        "ia",
        -9.505272680009446
      ],
      [
        "Ġwho",
        -9.506271868872574
      ],
      [
        "à±įà°°à°ª",
        -9.507161083552436
      ],
      [
        "ĠÙĪØª",
        -9.509364080690752
      ],
      [
        "day",
        -9.510580812101528
      ],
      [
        "à°®à°¨",
        -9.511041049561891
      ],
      [
        "à±ģà°ļ",
        -9.51116052049621
      ],
      [
        "Ø£",
        -9.513178616374825
      ],
      [
        "ĠÐ¶Ðµ",
        -9.513855875110046
      ],
      [
        "ÙĨÙĬ",
        -9.514067158440568
      ],
      [
        "ÐºÐ¸",
        -9.514144621626023
      ],
      [
        "ŀ",
        -9.515501469617403
      ],
      [
        "à¹ĥà¸",
        -9.516347046030646
      ],
      [
        "ĠKwa",
        -9.517214027566643
      ],
      [
        "ĠÑģÐ²Ð¾",
        -9.519820952472788
      ],
      [
        "ine",
        -9.520363451275562
      ],
      [
        "ĠAl",
        -9.5211477813863
      ],
      [
        "ise",
        -9.522126216332762
      ],
      [
        "Ġsu",
        -9.523027254094416
      ],
      [
        "ĠØ§ÙĦØ¹Ø±Ø§ÙĤ",
        -9.52410363609997
      ],
      [
        "ĠJe",
        -9.52487102461378
      ],
      [
        "ĠÑĢÐ°Ð·",
        -9.52678257090176
      ],
      [
        "el",
        -9.526894119427713
      ],
      [
        "äºº",
        -9.52741714794442
      ],
      [
        "Ġyer",
        -9.529018313213
      ],
      [
        "ÙĥÙħ",
        -9.529201737551558
      ],
      [
        "yi",
        -9.5294352674096
      ],
      [
        "ÙıÙħ",
        -9.53233851536706
      ],
      [
        "Ð²ÑĢÐµÐ¼Ñı",
        -9.532422986106116
      ],
      [
        "à¸ĩà¸Ĺ",
        -9.532714822613244
      ],
      [
        "à¥įà¤¯à¤ķ",
        -9.533296636574727
      ],
      [
        "ote",
        -9.534595755412262
      ],
      [
        "ĠØ§ÙĦØ¹ÙħÙĦ",
        -9.535228818410571
      ],
      [
        "ti",
        -9.53534792412924
      ],
      [
        "Ġg",
        -9.536170622500428
      ],
      [
        "Ġà°·",
        -9.536173803654645
      ],
      [
        "à±įà°µà°°",
        -9.537307329225836
      ],
      [
        "¼",
        -9.538043378272056
      ],
      [
        "à¸´à¸ĩ",
        -9.538147891042248
      ],
      [
        "Ġà¤§",
        -9.538559516369803
      ],
      [
        "Ã©es",
        -9.539599919824228
      ],
      [
        "ï¼ģ",
        -9.53972858559655
      ],
      [
        "ĠÑģÐ°Ð¼",
        -9.540134772042537
      ],
      [
        "ÑģÐ»Ð¸",
        -9.540208528787645
      ],
      [
        "Ġà°ħà°¡",
        -9.541128315230113
      ],
      [
        "lakini",
        -9.54170660586536
      ],
      [
        "Ġtime",
        -9.54278492369902
      ],
      [
        "said",
        -9.545361562136616
      ],
      [
        "Ġdon",
        -9.547637913360573
      ],
      [
        "ĠÙĪÙĦÙĥÙĨ",
        -9.548429174848092
      ],
      [
        "à¤ĵ",
        -9.548773917616131
      ],
      [
        "kuwa",
        -9.548862138500985
      ],
      [
        "±",
        -9.54980460481148
      ],
      [
        "Ġvar",
        -9.550211291166814
      ],
      [
        "Ġà¤¬à¤¹",
        -9.551077574745864
      ],
      [
        "ĠÙĪÙĩÙĬ",
        -9.551873919120563
      ],
      [
        "Ð¼Ð¾Ð¶ÐµÑĤ",
        -9.552204689267484
      ],
      [
        "Ġà¤ĩà¤¨",
        -9.55226805129948
      ],
      [
        "à¸ģà¸¥",
        -9.55270009615032
      ],
      [
        "à¥Ģà¤ķ",
        -9.55290658910783
      ],
      [
        "ĠÙĪØ§ØŃØ¯",
        -9.555611563173777
      ],
      [
        "à±Ĥà°¨",
        -9.55648034979486
      ],
      [
        "ĠØ³",
        -9.558577638484548
      ],
      [
        "à¥ģà¤µ",
        -9.559288746797575
      ],
      [
        "Ġmwak",
        -9.560306921786989
      ],
      [
        "nda",
        -9.560683291270946
      ],
      [
        "ĠY",
        -9.561336661580896
      ],
      [
        "Ġhad",
        -9.562903893029564
      ],
      [
        "à¤¾à¤ģ",
        -9.564175953030636
      ],
      [
        "Ġà¸Ľ",
        -9.564828766303942
      ],
      [
        "ĳ",
        -9.564867541834436
      ],
      [
        "ĠKu",
        -9.56582743349396
      ],
      [
        "à¥ģà¤¸",
        -9.567141813272835
      ],
      [
        "yle",
        -9.567920634221109
      ],
      [
        "à¤ªà¤¹à¤²",
        -9.56810809349573
      ],
      [
        "_",
        -9.568218434903097
      ],
      [
        "ÙĩØ°Ø§",
        -9.568487856978152
      ],
      [
        "Ġus",
        -9.570198730375791
      ],
      [
        "Ø®Ø§ØµØ©",
        -9.57324762263866
      ],
      [
        "This",
        -9.573286610922846
      ],
      [
        "à±įà°°à°ķ",
        -9.576008165889762
      ],
      [
        "ĠÙĪØ¨",
        -9.577191549275144
      ],
      [
        "à°¾à°ļ",
        -9.577260540464318
      ],
      [
        "à±Īà°Ł",
        -9.577381933896556
      ],
      [
        "Ġhata",
        -9.57738395596289
      ],
      [
        "à¹ĥà¸Ļ",
        -9.577833268579596
      ],
      [
        "à±Ģà°ª",
        -9.578260253401416
      ],
      [
        "Ãªme",
        -9.5789643969928
      ],
      [
        "ĠØªÙĥÙĪÙĨ",
        -9.579268380534366
      ],
      [
        "Ġses",
        -9.580190653412366
      ],
      [
        "Ġmo",
        -9.582220507414792
      ],
      [
        "Ġzaman",
        -9.584672826179446
      ],
      [
        "ÙģÙī",
        -9.584971299563652
      ],
      [
        "à¤¹à¤¤",
        -9.585067117425812
      ],
      [
        "Ġbin",
        -9.586817091596842
      ],
      [
        "Le",
        -9.587300288763355
      ],
      [
        "Ã©tÃ©",
        -9.58734042648994
      ],
      [
        "ĠÐ±ÑĭÐ»",
        -9.590172903452125
      ],
      [
        "U",
        -9.591227159573371
      ],
      [
        "ababu",
        -9.593337556735465
      ],
      [
        "ĠØ§ÙĦØ¹Ø§ÙĦÙħ",
        -9.594605255382277
      ],
      [
        "Ð¼Ð¾Ð¶Ð½Ð¾",
        -9.595879555325263
      ],
      [
        "ally",
        -9.598128080253224
      ],
      [
        "à¥įà¤ľ",
        -9.599611877371702
      ],
      [
        "à¥Ĥà¤ª",
        -9.60054305741128
      ],
      [
        "à¤¾à¤¬",
        -9.60222342644039
      ],
      [
        "à¸Ĺà¸ĺ",
        -9.60232404330111
      ],
      [
        ">",
        -9.60237736308976
      ],
      [
        "à¸Ńà¸ĩ",
        -9.602656481356334
      ],
      [
        "Ġcomme",
        -9.602740903923898
      ],
      [
        "ta",
        -9.602741905499968
      ],
      [
        "à¸´à¸ļ",
        -9.602810200566276
      ],
      [
        "åıĬ",
        -9.603830874490292
      ],
      [
        "Ð»Ð¸ÑģÑĮ",
        -9.604479551070796
      ],
      [
        "Ġà°ıà°°",
        -9.60451424571514
      ],
      [
        "ry",
        -9.605481517708595
      ],
      [
        "à¸Īà¸£",
        -9.607157188700736
      ],
      [
        "ĠIn",
        -9.608212824422647
      ],
      [
        "tume",
        -9.608313526200762
      ],
      [
        "mi",
        -9.608924785773034
      ],
      [
        "Ø®Ø±Ùī",
        -9.609004999459376
      ],
      [
        "Ġany",
        -9.609216098929014
      ],
      [
        "Ġhuo",
        -9.6092445135188
      ],
      [
        "à¹ģà¸¥à¸°",
        -9.61019489644502
      ],
      [
        "à¹Īà¸§à¸¢",
        -9.610561163766096
      ],
      [
        "Ġlike",
        -9.611478471719188
      ],
      [
        "ĠIl",
        -9.612686681283966
      ],
      [
        "ÙĪÙĩØ°Ø§",
        -9.613400855332504
      ],
      [
        "à¤¼à¥Ģ",
        -9.6151609036173
      ],
      [
        "ï¼ī",
        -9.618654567362968
      ],
      [
        "Ġama",
        -9.618668859894848
      ],
      [
        "Ġbasi",
        -9.619025167870864
      ],
      [
        "Ð¾ÑģÑĤÐ¸",
        -9.620117255890827
      ],
      [
        "R",
        -9.62043042961622
      ],
      [
        "vile",
        -9.62043683464291
      ],
      [
        "Ġà°İà°¨",
        -9.621390538328498
      ],
      [
        "ca",
        -9.622458989572
      ],
      [
        "ĠØ§ÙĦÙĬÙĪÙħ",
        -9.625384158724886
      ],
      [
        "ÑĤÐµÐ»ÑĮÐ½Ð¾",
        -9.62603053280182
      ],
      [
        "Ġhuu",
        -9.62688332911397
      ],
      [
        "pia",
        -9.628677052921049
      ],
      [
        "ÙİÙĬ",
        -9.629168892812348
      ],
      [
        "J",
        -9.629705395419233
      ],
      [
        "les",
        -9.630833790219937
      ],
      [
        "à°Ī",
        -9.63115346020637
      ],
      [
        "ĠÙĬÙĪÙħ",
        -9.63201747480813
      ],
      [
        "Ġà°®à°¹",
        -9.632717623273956
      ],
      [
        "à¹ģà¸«",
        -9.632738355797365
      ],
      [
        "à¸Ļà¸Ĺ",
        -9.633356144617526
      ],
      [
        "were",
        -9.634043578015898
      ],
      [
        "à°Ĥ.",
        -9.634090282157388
      ],
      [
        "Ġbien",
        -9.634790457181332
      ],
      [
        "à¤¾à¤ĩà¤",
        -9.635566387067936
      ],
      [
        "Ġà°ļà°°",
        -9.635851062110715
      ],
      [
        "à¹īà¸²à¸Ĺ",
        -9.636813329103036
      ],
      [
        "ĠÐ²Ð¾",
        -9.637803717775284
      ],
      [
        "ini",
        -9.638026840600158
      ],
      [
        "ĠØ¨Ø£ÙĨ",
        -9.639035423730448
      ],
      [
        "Ġà°ĩà°ķ",
        -9.639638488731457
      ],
      [
        "à±įà°°à°¦",
        -9.640721349928643
      ],
      [
        "à¸µà¸Ħà¸§à¸²à¸¡",
        -9.64188904580486
      ],
      [
        "à¸Ńà¸ĩà¸Ħ",
        -9.64210666191783
      ],
      [
        "à°Ń",
        -9.642935489698784
      ],
      [
        "ts",
        -9.643419530784406
      ],
      [
        "à¹Īà¸§à¸Ļ",
        -9.643586147136322
      ],
      [
        "Ġà°¤à°ª",
        -9.644153495330333
      ],
      [
        "Ð¸Ð¹",
        -9.644704674074024
      ],
      [
        "Ġà¸ľ",
        -9.644757477867188
      ],
      [
        "à±ĩà°¡",
        -9.64501160425737
      ],
      [
        "kweli",
        -9.64629077683681
      ],
      [
        "à¥¤Ċ",
        -9.646384265784585
      ],
      [
        "tir",
        -9.64678015084348
      ],
      [
        "à¥ĭà¤¡",
        -9.646945279488378
      ],
      [
        "Ġyeni",
        -9.64851302915583
      ],
      [
        "Ø¥Ø°Ø§",
        -9.649121025548204
      ],
      [
        "Ġà¸",
        -9.6494939558414
      ],
      [
        "ten",
        -9.650932179052996
      ],
      [
        "kuu",
        -9.651068533252118
      ],
      [
        "à¹Īà¸²à¸§",
        -9.6514452946286
      ],
      [
        "uch",
        -9.65158808812669
      ],
      [
        "Ġà¤®à¤¹",
        -9.651967423679537
      ],
      [
        "à¤ªà¤¤",
        -9.652067657546429
      ],
      [
        "à¥įà¤¡",
        -9.652189188944035
      ],
      [
        "ĠÐķ",
        -9.652512352165036
      ],
      [
        "à°·",
        -9.65304254027524
      ],
      [
        "$",
        -9.653219703106272
      ],
      [
        "ÙİÙħ",
        -9.65338629439158
      ],
      [
        "¢",
        -9.65371476403094
      ],
      [
        "Ð¾Ð»ÑĮÐºÐ¾",
        -9.654618761198469
      ],
      [
        "ĠRe",
        -9.654993960117675
      ],
      [
        "à°īà°¤",
        -9.65550473987473
      ],
      [
        "age",
        -9.65699673411946
      ],
      [
        "Ġsome",
        -9.657538328942843
      ],
      [
        "à¸«à¸¥",
        -9.65844180464994
      ],
      [
        "Ð¾ÑģÑĤÑĮ",
        -9.658617591586848
      ],
      [
        "first",
        -9.658882684626205
      ],
      [
        "à¹Ģà¸ª",
        -9.658917076585656
      ],
      [
        "à±Ĭà°²",
        -9.66106557134932
      ],
      [
        "âĢĻa",
        -9.661741315738585
      ],
      [
        "Ġà¸ĸ",
        -9.662004240609836
      ],
      [
        "Ġ..",
        -9.662975354421848
      ],
      [
        "à¸´à¸ģ",
        -9.663184490204014
      ],
      [
        "ĺ",
        -9.663325662250422
      ],
      [
        "ĠØ§ÙĦØ£ÙĪÙĦ",
        -9.663348745886031
      ],
      [
        "à¥ĭà¤²",
        -9.663634389479364
      ],
      [
        "ndani",
        -9.663679417242214
      ],
      [
        "à¥Ģà¤¤",
        -9.666237089230007
      ],
      [
        "maisha",
        -9.666900209508942
      ],
      [
        "æľĪ",
        -9.666972062153668
      ],
      [
        "à¸¸à¸ģ",
        -9.667502468845443
      ],
      [
        "à¸µà¸Ļ",
        -9.667609429103154
      ],
      [
        "Ġno",
        -9.66842567204542
      ],
      [
        "Ġhiv",
        -9.66992739896024
      ],
      [
        "ÙģÙĬ",
        -9.67008754599772
      ],
      [
        "ĠÙĦÙĬØ³",
        -9.672238520840848
      ],
      [
        "Je",
        -9.67262833826164
      ],
      [
        "à¤¿à¤®",
        -9.674713109326976
      ],
      [
        "ÑĩÐµÐ½ÑĮ",
        -9.677544863238872
      ],
      [
        "ĠgÃ¶re",
        -9.678526516893346
      ],
      [
        "asi",
        -9.680667128672448
      ],
      [
        "Ġiki",
        -9.681135392906024
      ],
      [
        "ÙĨØ©",
        -9.681774708364468
      ],
      [
        "à¹Ħà¸§",
        -9.681981117761396
      ],
      [
        "ĠÙĪÙħØ§",
        -9.683723520634263
      ],
      [
        "what",
        -9.68425070073793
      ],
      [
        "ĠolduÄŁu",
        -9.684393888910751
      ],
      [
        "ĠØ£ÙĥØ«Ø±",
        -9.684882936925511
      ],
      [
        "engine",
        -9.685296650282751
      ],
      [
        "ume",
        -9.685677581904615
      ],
      [
        "ĠØ§ÙĦÙĨØ§Ø³",
        -9.685838432214297
      ],
      [
        "Ġà¤ľà¤¬",
        -9.686047656917738
      ],
      [
        "ÙĤØ©",
        -9.68681629781856
      ],
      [
        "à¸«",
        -9.688863746750672
      ],
      [
        "ĠØ´Ø¹Ø¨",
        -9.690332859482144
      ],
      [
        "fu",
        -9.690428399871854
      ],
      [
        "à±įà°·à°£",
        -9.691379587111935
      ],
      [
        "ĠØ¬ÙħÙĬØ¹",
        -9.693231874857297
      ],
      [
        "à¥ĩà¤µ",
        -9.694591018658912
      ],
      [
        "Windows",
        -9.695248672496394
      ],
      [
        "nchi",
        -9.69560405325368
      ],
      [
        "à¤§",
        -9.698394995743774
      ],
      [
        "ÐŃÑĤÐ¾",
        -9.700293367225512
      ],
      [
        "à¹īà¸³",
        -9.700447020743136
      ],
      [
        "Ġmwa",
        -9.702041600614248
      ],
      [
        "ĠØ§ÙĦØ¹ÙĦÙħ",
        -9.702754294229276
      ],
      [
        "Ġhiz",
        -9.70307943976825
      ],
      [
        "Ð¸ÑĤÑĮ",
        -9.70415699809672
      ],
      [
        "sÄ±",
        -9.704498230106122
      ],
      [
        "à¹Ģà¸Ľà¸¥",
        -9.704981724457248
      ],
      [
        "Ð±ÑĥÐ´ÐµÑĤ",
        -9.70605025432521
      ],
      [
        "à¥ģà¤ĸ",
        -9.706237916811672
      ],
      [
        "ĠØ§ÙĦÙħØ³ÙĦÙħ",
        -9.709406941186728
      ],
      [
        "Ġaka",
        -9.709798096966512
      ],
      [
        "bila",
        -9.71011974350924
      ],
      [
        "à¤¿à¤¦",
        -9.710715216117926
      ],
      [
        "Ġover",
        -9.711859900794876
      ],
      [
        "ÑģÑĮ",
        -9.713136781777198
      ],
      [
        "à±Ĭà°°",
        -9.714374204966983
      ],
      [
        "ada",
        -9.714862636773262
      ],
      [
        "lÄ±k",
        -9.715105393135625
      ],
      [
        "ĠHotel",
        -9.71553668164077
      ],
      [
        "siniz",
        -9.71572599513298
      ],
      [
        "ØªØ¹Ø§ÙĦÙī",
        -9.715824103928856
      ],
      [
        "ĠØŃØ§ÙĦ",
        -9.715879208664152
      ],
      [
        "Ø¹Ø©",
        -9.716136173284816
      ],
      [
        "arak",
        -9.717621676348603
      ],
      [
        "ĠbÃ¼yÃ¼k",
        -9.71799852594591
      ],
      [
        "à¸Ŀ",
        -9.718084180457373
      ],
      [
        "å¤§",
        -9.71877481344465
      ],
      [
        "ä¸İ",
        -9.71959520081079
      ],
      [
        "à¸µà¸ª",
        -9.720168616981304
      ],
      [
        "à¸£à¸°à¸Ķ",
        -9.720416005027303
      ],
      [
        "Â",
        -9.721123726427292
      ],
      [
        "à¤¾à¤°à¤¤",
        -9.721125946566843
      ],
      [
        "à¥Ģà¤ľ",
        -9.721169721890355
      ],
      [
        "bu",
        -9.721497112641195
      ],
      [
        "à°ĩà°µ",
        -9.721883307794828
      ],
      [
        "à¹īà¸Ĺ",
        -9.723667014503494
      ],
      [
        "à¤ģ",
        -9.723925563957222
      ],
      [
        "à¸·à¸Ńà¸Ļ",
        -9.724115568694506
      ],
      [
        "à¥įà¤°à¤®",
        -9.724532518761716
      ],
      [
        "ÙĬØ¶Ø§",
        -9.728006623277452
      ],
      [
        "Ġà¤ķà¤®",
        -9.729324911402156
      ],
      [
        "ans",
        -9.730441919964406
      ],
      [
        "Ġwao",
        -9.73071683580467
      ],
      [
        "à°¿à°ķà°²",
        -9.731095275535148
      ],
      [
        "ÑĤÐ¾Ð³Ð¾",
        -9.731421099207802
      ],
      [
        "its",
        -9.73145296689474
      ],
      [
        "ÙħØ¯ÙĬÙĨØ©",
        -9.73181316251571
      ],
      [
        "ÙĩÙħØ§",
        -9.73219503417478
      ],
      [
        "à¸ĺà¸£à¸£à¸¡",
        -9.732778227493649
      ],
      [
        "ÙĦÙĩÙħ",
        -9.733921908718068
      ],
      [
        "ĠÙĥØ¨ÙĬØ±",
        -9.734002343922835
      ],
      [
        "uz",
        -9.734188497486254
      ],
      [
        "Y",
        -9.73540353237342
      ],
      [
        "à°ħà°¤à°¨",
        -9.735648012920688
      ],
      [
        "ĠMu",
        -9.735671570810482
      ],
      [
        "ÙħÙĨÙĩØ§",
        -9.7356744649014
      ],
      [
        "à¹ĩà¸Ļà¸ķ",
        -9.735675536054336
      ],
      [
        "à°¾à°²à°²",
        -9.73782671241246
      ],
      [
        "Ø§ÙĦÙħØ±Ø£",
        -9.73854003466679
      ],
      [
        "ĠÑĢÐ°Ð±Ð¾ÑĤ",
        -9.739900589573988
      ],
      [
        "ra",
        -9.742452375378482
      ],
      [
        "ÐµÐ½Ð¸Ðµ",
        -9.742688892108111
      ],
      [
        "à¸±à¸Ļà¸ĺ",
        -9.743536022114755
      ],
      [
        "ĠÙĤ",
        -9.743770611731357
      ],
      [
        "à¹ĩà¸¡",
        -9.744122128625484
      ],
      [
        "à°¬à°°",
        -9.74434016708338
      ],
      [
        "Ġif",
        -9.744400948756622
      ],
      [
        "à¸µà¸¢à¸§",
        -9.744618530636467
      ],
      [
        "Ġthere",
        -9.745049704178047
      ],
      [
        "ÙĬØ§Øª",
        -9.745173059492998
      ],
      [
        "à±įà°°à°¹",
        -9.745477166368474
      ],
      [
        "à±įà°¯à°¤",
        -9.746000188349957
      ],
      [
        "Bu",
        -9.746025926598453
      ],
      [
        "islam",
        -9.746063963767073
      ],
      [
        "à°Ĥà°Ń",
        -9.746239651416662
      ],
      [
        "La",
        -9.746268064021788
      ],
      [
        "à¹Ģà¸Ĺ",
        -9.746341828402368
      ],
      [
        "ĠØ¹ÙĦÙħ",
        -9.7467064326712
      ],
      [
        "à¸ļà¸£",
        -9.74713603882804
      ],
      [
        "Ð¸Ð¸",
        -9.748131713986194
      ],
      [
        "à¥ĩà¤Ĺ",
        -9.74838319944882
      ],
      [
        "Ġco",
        -9.749261135734685
      ],
      [
        "à¥įà¤°à¤",
        -9.749392168338792
      ],
      [
        "ĠÙĦØ£ÙĨ",
        -9.749453816364394
      ],
      [
        "Ġjust",
        -9.749521930919546
      ],
      [
        "ÙħÙĨ",
        -9.751654499427636
      ],
      [
        "Ø¨Ø©",
        -9.75222992268868
      ],
      [
        "ĠÐ±Ð¾Ð»ÐµÐµ",
        -9.752275332964786
      ],
      [
        "Ġmw",
        -9.7532778964698
      ],
      [
        "Z",
        -9.75422495862761
      ],
      [
        "eurs",
        -9.754440750117102
      ],
      [
        "à¹Ģà¸«à¸¥",
        -9.754469157215295
      ],
      [
        "Ð¾Ð½Ð¸",
        -9.75472303614599
      ],
      [
        "ÐµÑģÑĤÑĮ",
        -9.75489386214937
      ],
      [
        "åľ°",
        -9.755862581479075
      ],
      [
        "ÙĨÙģØ³Ùĩ",
        -9.7560783831232
      ],
      [
        "Ġà°Ĩà°²",
        -9.756667729436307
      ],
      [
        "à¤¼à¥ĩ",
        -9.757000265651724
      ],
      [
        "ĠØ¹Ø¯Ø¯",
        -9.757014649764963
      ],
      [
        "Ø§ÙĦØ«Ø§ÙĨÙĬ",
        -9.757081198437522
      ],
      [
        "ØªÙĦÙĥ",
        -9.758332719160071
      ],
      [
        "à¤ķà¤¤",
        -9.760406967745627
      ],
      [
        "Ø¨Ø´ÙĥÙĦ",
        -9.761381906897483
      ],
      [
        "et",
        -9.76288205573162
      ],
      [
        "à±Īà°¤",
        -9.763154557635158
      ],
      [
        "Ð¾Ð²Ð°ÑĤÑĮ",
        -9.763805449611716
      ],
      [
        "Ġnew",
        -9.763962348912491
      ],
      [
        "ÑĥÐ¶Ðµ",
        -9.764184880056892
      ],
      [
        "Ġina",
        -9.764632688002298
      ],
      [
        "à±įà°¸à°°",
        -9.76521896186454
      ],
      [
        "Ġthem",
        -9.766990592980594
      ],
      [
        "likuwa",
        -9.76722036627677
      ],
      [
        "tes",
        -9.76728087239204
      ],
      [
        "à±įà°°à°µ",
        -9.767512280011132
      ],
      [
        "ÑĮÑİ",
        -9.76815896970639
      ],
      [
        "Mwenyezi",
        -9.768231287672442
      ],
      [
        "way",
        -9.76842518912432
      ],
      [
        "toto",
        -9.76851918747661
      ],
      [
        "Ð»Ñı",
        -9.768563697018326
      ],
      [
        "ĠÑįÑĤ",
        -9.769594182903816
      ],
      [
        "ajili",
        -9.76959950474328
      ],
      [
        "à¤¥",
        -9.770785996292418
      ],
      [
        "à±Īà°",
        -9.771320161089731
      ],
      [
        "Ġha",
        -9.77150057872514
      ],
      [
        "ØĽ",
        -9.773583585295956
      ],
      [
        "hilo",
        -9.773933200179837
      ],
      [
        "à¸Ĭà¸²à¸ķ",
        -9.775008919002786
      ],
      [
        "Ġplace",
        -9.775402983372608
      ],
      [
        "\".Ċ",
        -9.7754541163311
      ],
      [
        "Ġget",
        -9.776344616801902
      ],
      [
        "Ľà¸£à¸°à¹Ģà¸Ĺà¸¨",
        -9.778493255949456
      ],
      [
        "ĠØ·Ø±ÙĬÙĤ",
        -9.778834489287345
      ],
      [
        "lui",
        -9.781064437288933
      ],
      [
        "à¥ģà¤Ĩ",
        -9.784415779175518
      ],
      [
        "ÙİØ±",
        -9.78454902052814
      ],
      [
        "thing",
        -9.784747349174683
      ],
      [
        "wili",
        -9.784752870422569
      ],
      [
        "ations",
        -9.786295743422825
      ],
      [
        "à¥ĭà¤Ł",
        -9.786524103414829
      ],
      [
        "è¢«",
        -9.786590060566976
      ],
      [
        "Ġà¹Ĥà¸Ķà¸¢",
        -9.786760073961355
      ],
      [
        "à¤¾à¤Ĺ",
        -9.787149721727786
      ],
      [
        "ĠyÄ±l",
        -9.788524626371808
      ],
      [
        "faire",
        -9.788604505481208
      ],
      [
        "à¸¶à¸ģà¸©à¸²",
        -9.788618773622709
      ],
      [
        "tarafÄ±ndan",
        -9.790308792425394
      ],
      [
        "à¹ĥà¸Ļà¸ģà¸²à¸£",
        -9.790674863709851
      ],
      [
        "Ġvot",
        -9.791174164724344
      ],
      [
        "Ġsiku",
        -9.791358782494395
      ],
      [
        "ques",
        -9.7914607161363
      ],
      [
        "Ð»Ð¾ÑģÑĮ",
        -9.791543999705336
      ],
      [
        "Ø³",
        -9.792159284555208
      ],
      [
        "Ġà¹Ģà¸ŀà¸£à¸²à¸°",
        -9.792477173826889
      ],
      [
        "à¹īà¸ģ",
        -9.793555506795132
      ],
      [
        "and",
        -9.794061125764628
      ],
      [
        "æĹ¶",
        -9.794349161554932
      ],
      [
        "à¥ĩà¤¡",
        -9.794949461991928
      ],
      [
        "à¹Īà¸°",
        -9.795622542404336
      ],
      [
        "à±ĩà°ª",
        -9.7957023585648
      ],
      [
        "nzo",
        -9.796046006969569
      ],
      [
        "ÙĲØ",
        -9.796573397327696
      ],
      [
        ".)",
        -9.797499893322396
      ],
      [
        "à±įà°¨à°¦",
        -9.797753279226592
      ],
      [
        "jamii",
        -9.798083119246192
      ],
      [
        "à±Ĭà°¡",
        -9.798133809962607
      ],
      [
        "lik",
        -9.798953415455166
      ],
      [
        "à±ģà°£",
        -9.799076176445231
      ],
      [
        "Ġservice",
        -9.799099523802004
      ],
      [
        "à¸Ħà¸§à¸²à¸¡à¸£",
        -9.800161108114915
      ],
      [
        "Ø¯Ùī",
        -9.80024557033368
      ],
      [
        "ä¹Ł",
        -9.80027623578984
      ],
      [
        "engi",
        -9.80107949471199
      ],
      [
        "ĠAllah",
        -9.801580017949751
      ],
      [
        "Ø±Ùī",
        -9.80217832371646
      ],
      [
        "ĠÂ»",
        -9.802723221263824
      ],
      [
        "ĠIt",
        -9.802767212340516
      ],
      [
        "Ġsite",
        -9.803282381237018
      ],
      [
        "ÙĮ",
        -9.803912993397663
      ],
      [
        "ĠÙħÙĨÙĩ",
        -9.803918724438274
      ],
      [
        "lors",
        -9.80458745019747
      ],
      [
        "nini",
        -9.805261947586567
      ],
      [
        "Ġà°°à°ķ",
        -9.808078217367372
      ],
      [
        "alikuwa",
        -9.809379285482246
      ],
      [
        "Ġà¸Ĭ",
        -9.81155739614355
      ],
      [
        "ous",
        -9.814172884605874
      ],
      [
        "à¥įà¤°à¤ķ",
        -9.814636528236624
      ],
      [
        "ĠÙģÙĤØ¯",
        -9.81469784169391
      ],
      [
        "weza",
        -9.814773721927718
      ],
      [
        "Ġpart",
        -9.815148514652895
      ],
      [
        "ï¼Ľ",
        -9.815875930283427
      ],
      [
        "ĠØ¹ÙĨÙĩ",
        -9.816044685655342
      ],
      [
        "æĪĳ",
        -9.817082321135896
      ],
      [
        "Ġà¹Ģà¸Ĭ",
        -9.81815948453131
      ],
      [
        "@",
        -9.818279955315573
      ],
      [
        "à¥ĩà¤ľ",
        -9.818452189944008
      ],
      [
        "æĹ¥",
        -9.818938972952408
      ],
      [
        "Ġmara",
        -9.81943708054435
      ],
      [
        "Ã¨re",
        -9.821279656156602
      ],
      [
        "Ġà°µà°¦",
        -9.821299431787365
      ],
      [
        "ÙĦØ§Ø¡",
        -9.8233814570244
      ],
      [
        "Ġà°ıà°®",
        -9.823556065918783
      ],
      [
        "Ġà¤ªà¤¹",
        -9.824045646080126
      ],
      [
        "Ġà°Ĩà°¸",
        -9.824506673546496
      ],
      [
        "ur",
        -9.824678330351102
      ],
      [
        "Ð³Ð¾Ð´Ð°",
        -9.824712413842192
      ],
      [
        "à¹Īà¸Ńà¸¢",
        -9.825853124318384
      ],
      [
        "Ġthan",
        -9.82666412501451
      ],
      [
        "à°Ĥ,",
        -9.826665540096236
      ],
      [
        "hili",
        -9.82839718222651
      ],
      [
        "Ġbi",
        -9.829082905317248
      ],
      [
        "one",
        -9.82949747849882
      ],
      [
        "-Ċ",
        -9.831144707508816
      ],
      [
        "ĠØ§ÙĦØ´Ø¹Ø¨",
        -9.831159491032768
      ],
      [
        "njia",
        -9.83128257442201
      ],
      [
        "habari",
        -9.83213165968903
      ],
      [
        "ĠØŃÙĪÙĦ",
        -9.83379267364576
      ],
      [
        "à°®à°°",
        -9.833837267860613
      ],
      [
        "ĠÐ¢",
        -9.83571175047652
      ],
      [
        "Ġgo",
        -9.835841612204316
      ],
      [
        "à¥Ģà¤®",
        -9.836374247156517
      ],
      [
        "à°¾à°°à°¤",
        -9.837060510012307
      ],
      [
        "sasa",
        -9.837080728264027
      ],
      [
        "Ġinto",
        -9.837868986079446
      ],
      [
        "Ġà¤Ĩà¤°",
        -9.839474348656866
      ],
      [
        "Ĳ",
        -9.840152625167784
      ],
      [
        "ussi",
        -9.84096454539364
      ],
      [
        "elle",
        -9.84140210057749
      ],
      [
        "à¤¤à¤°à¤¹",
        -9.841543755512197
      ],
      [
        "g",
        -9.842949765091802
      ],
      [
        "tÄ±r",
        -9.843578513923568
      ],
      [
        "Ġfilm",
        -9.84400143462974
      ],
      [
        "ĩ",
        -9.845060026524518
      ],
      [
        "mektedir",
        -9.846164427081522
      ],
      [
        "Ø§ÙĦÙĦØºØ©",
        -9.846282346004408
      ],
      [
        "à±Ĥà°Ł",
        -9.846908622604689
      ],
      [
        "eur",
        -9.848133295845454
      ],
      [
        "à¸³à¸Ħ",
        -9.848849504389207
      ],
      [
        "ÑįÑĤÐ¾Ð¼",
        -9.850836811357643
      ],
      [
        "hariri",
        -9.851294902049588
      ],
      [
        "Ġals",
        -9.85200842691606
      ],
      [
        "Ġy",
        -9.8528931083876
      ],
      [
        "Ð¾Ð½Ð°",
        -9.853794090488176
      ],
      [
        "ĠØµÙĦÙ",
        -9.85394647968827
      ],
      [
        "ĠØ£ØŃØ¯",
        -9.853979207594524
      ],
      [
        "Ġà¤ĺ",
        -9.854257017889156
      ],
      [
        "Ð»Ð°",
        -9.85442276784124
      ],
      [
        "à°Ĥà°¤à°°",
        -9.85468827777594
      ],
      [
        "Ġà¤¸à¤ķà¤",
        -9.854701761881838
      ],
      [
        "à¹Īà¸²à¸ĩà¹Ĩ",
        -9.855657561088108
      ],
      [
        "à±ģà°·",
        -9.855895992834846
      ],
      [
        "Ġuse",
        -9.856121333486668
      ],
      [
        "à¸´à¸£",
        -9.856614260093547
      ],
      [
        "ĠØ¬",
        -9.85672878572188
      ],
      [
        "ĠØ§ÙĦØ¹ÙĦÙħÙĬ",
        -9.85725255749854
      ],
      [
        "ĠÙĥØ«ÙĬØ±",
        -9.857496195842185
      ],
      [
        "ĠÐ¾Ð±",
        -9.85819553187504
      ],
      [
        "à¤ľà¤¨",
        -9.858898897161318
      ],
      [
        "à¹ĩà¸ģ",
        -9.860068809574589
      ],
      [
        "Ġmon",
        -9.862106659178544
      ],
      [
        "Ð¾Ð²Ð°Ð½Ð¸Ñı",
        -9.862120544956586
      ],
      [
        "à¸Ļà¸ķà¸£",
        -9.864657376985091
      ],
      [
        "Ġà¤ķà¤°à¤",
        -9.865366530974368
      ],
      [
        "Ð½Ð°Ñı",
        -9.86644121150189
      ],
      [
        "çŃī",
        -9.86678168992308
      ],
      [
        "à¥Įà¤°",
        -9.866997462743356
      ],
      [
        "Ġà¹Ħà¸¡",
        -9.86710998261008
      ],
      [
        "à¤ľà¤°",
        -9.867249131495448
      ],
      [
        "nde",
        -9.867453386530938
      ],
      [
        "à¹īà¸Ķ",
        -9.86750134714049
      ],
      [
        "most",
        -9.867987342788634
      ],
      [
        "Na",
        -9.86801596427582
      ],
      [
        "à¤¿à¤Ł",
        -9.868200118969709
      ],
      [
        "ĠÐ¼ÐµÐ½Ñı",
        -9.868455034344128
      ],
      [
        "ÙĪØ°ÙĦÙĥ",
        -9.868482211132717
      ],
      [
        "kufanya",
        -9.868937227575405
      ],
      [
        "à¤¿à¤ĸ",
        -9.868944582616976
      ],
      [
        "à¤¶à¤¨",
        -9.86896824946342
      ],
      [
        "Ġwhe",
        -9.869766957441556
      ],
      [
        "erek",
        -9.870625987835076
      ],
      [
        "ĠÃ¶nce",
        -9.870648147819844
      ],
      [
        "no",
        -9.871263636702205
      ],
      [
        "Ħ",
        -9.872329636002108
      ],
      [
        "Ġkitu",
        -9.872338258800696
      ],
      [
        "endelea",
        -9.87364960143103
      ],
      [
        "Ġà°¤à°Ĺ",
        -9.873997348315712
      ],
      [
        "Ġà¹ģà¸¥",
        -9.87487750400079
      ],
      [
        "zuri",
        -9.875099853258678
      ],
      [
        "à±įà°¯à°²",
        -9.875415148945
      ],
      [
        "à¤ļà¤²",
        -9.876250648942246
      ],
      [
        "à¥Ĥà¤²",
        -9.878479326270906
      ],
      [
        "ĠÙĪÙĥØ§ÙĨ",
        -9.87917647213333
      ],
      [
        "à°¦à°Ĺ",
        -9.8801288619056
      ],
      [
        "à±įà°Ń",
        -9.880253321542416
      ],
      [
        "name",
        -9.880581379969016
      ],
      [
        "ĠÙĪÙĦÙħ",
        -9.881477400585306
      ],
      [
        "è¯´",
        -9.881797393438166
      ],
      [
        "à¹ģà¸ģ",
        -9.883187754949514
      ],
      [
        "à±ģà°¬",
        -9.887505372658286
      ],
      [
        "taifa",
        -9.887631317347015
      ],
      [
        "Ġà°ĸ",
        -9.888286387863715
      ],
      [
        "à°¨à°®",
        -9.88838085286135
      ],
      [
        "à¸±à¸Ļà¸Ļ",
        -9.88921752913676
      ],
      [
        "ĠiÃ§inde",
        -9.889488385962013
      ],
      [
        "à±",
        -9.889737663250829
      ],
      [
        "à±įà°°à°ľà°²",
        -9.889787776266823
      ],
      [
        "à¤¸à¤Ń",
        -9.890105753909626
      ],
      [
        "ĠØ¹Ø´Ø±",
        -9.890742693647626
      ],
      [
        "'a",
        -9.89153096263379
      ],
      [
        "information",
        -9.892444073150545
      ],
      [
        "fanya",
        -9.892830182824277
      ],
      [
        "ĠiÅŁ",
        -9.892952201962151
      ],
      [
        "åİ»",
        -9.893115434916858
      ],
      [
        "autre",
        -9.894987699266938
      ],
      [
        "ÙģÙĤØ·",
        -9.895564292509611
      ],
      [
        "ĠØ¢Ø®Ø±",
        -9.895733400977324
      ],
      [
        "Ġkati",
        -9.895808234451504
      ],
      [
        "ĠØ¨ÙħØ§",
        -9.897189594034652
      ],
      [
        "ãĢĬ",
        -9.897825511217688
      ],
      [
        "à¹ģà¸¡",
        -9.897970944819718
      ],
      [
        "à°¿à°¨à°ª",
        -9.898131694377833
      ],
      [
        "à±Īà°ķ",
        -9.899334022933704
      ],
      [
        "Ġà°ħà°¸",
        -9.899613146271118
      ],
      [
        "sel",
        -9.89964555653841
      ],
      [
        "ĠØªÙħ",
        -9.900211791544518
      ],
      [
        "à¤¾à¤§",
        -9.900875764709884
      ],
      [
        "Ġà°īà°ªà°",
        -9.900885798016468
      ],
      [
        "Ġà¤īà¤¤",
        -9.90285192354234
      ],
      [
        "ĠÑĢÐ°Ñģ",
        -9.90314448882181
      ],
      [
        "à¸Ħà¸§à¸²à¸¡à¸ª",
        -9.904932581636263
      ],
      [
        "{",
        -9.906101939062696
      ],
      [
        "ĠÐĿÐ¾",
        -9.906489614792903
      ],
      [
        "ity",
        -9.90694741777004
      ],
      [
        "ĠLes",
        -9.90741868216529
      ],
      [
        "Ġà¹Ģà¸¡",
        -9.90822074204629
      ],
      [
        "people",
        -9.908345317132593
      ],
      [
        "ĠBir",
        -9.909047731959255
      ],
      [
        "ÙħØ±Ø©",
        -9.909229034652492
      ],
      [
        "ĠEn",
        -9.911560871572028
      ],
      [
        "Ġben",
        -9.913031981458005
      ],
      [
        "Ġinclu",
        -9.9139398120914
      ],
      [
        "ĠUn",
        -9.915134190978591
      ],
      [
        "à±ĭà°·",
        -9.915790427882
      ],
      [
        "à¸Ħà¸¥",
        -9.9158157511963
      ],
      [
        "à¤Ĥà¤¸",
        -9.91618679494593
      ],
      [
        "¾Ðº",
        -9.917267519523756
      ],
      [
        "Ġshe",
        -9.918475639156789
      ],
      [
        "Ù",
        -9.918675465597644
      ],
      [
        "ĠÙĦÙĬ",
        -9.919132579941166
      ],
      [
        "µÐ½Ð¸Ñı",
        -9.919601480163523
      ],
      [
        "à¸¶à¸ģ",
        -9.919796910562916
      ],
      [
        "à¤¿à¤ľ",
        -9.919797149564175
      ],
      [
        "à¸ģà¸³à¸¥",
        -9.921274086894664
      ],
      [
        "à¸±à¸ļà¸ģà¸²à¸£",
        -9.921297038892709
      ],
      [
        "å°±",
        -9.921582108665255
      ],
      [
        "Ġhem",
        -9.922013942313264
      ],
      [
        "ĠarasÄ±nda",
        -9.92246279468752
      ],
      [
        "fasihi",
        -9.922494843022193
      ],
      [
        "zake",
        -9.922835501774465
      ],
      [
        "à¸¸à¸¡",
        -9.922919300228198
      ],
      [
        "ĠÃ¶nemli",
        -9.923545336406246
      ],
      [
        "à°¿à°¬",
        -9.924415722108842
      ],
      [
        "Ġkum",
        -9.924438476263918
      ],
      [
        "ĠØ§ÙĦØ¹Ø±Ø§ÙĤÙĬ",
        -9.925502485529252
      ],
      [
        "Ġmake",
        -9.925613520923116
      ],
      [
        "à¸¸à¸Ĺà¸ĺ",
        -9.925783329322371
      ],
      [
        "ÙħØ©",
        -9.9265845780944
      ],
      [
        "ÑİÑĤ",
        -9.92717953422264
      ],
      [
        "à¥ĥà¤",
        -9.92742083137864
      ],
      [
        "Ķ",
        -9.927494491310224
      ],
      [
        "im",
        -9.927906292904993
      ],
      [
        "Â».",
        -9.927960194249728
      ],
      [
        "à°¤à°¨",
        -9.928083370242565
      ],
      [
        "vyo",
        -9.929902427065969
      ],
      [
        "à°Ĩà°°",
        -9.930384822035045
      ],
      [
        "à¸´à¸©",
        -9.930646521165205
      ],
      [
        "}",
        -9.93134254388552
      ],
      [
        "Ð°ÑģÑĮ",
        -9.931948210537524
      ],
      [
        "à±Ĭà°¦à°²",
        -9.932630545709092
      ],
      [
        "à¤¬à¤¸",
        -9.93368914011404
      ],
      [
        "ä¸º",
        -9.933823342335454
      ],
      [
        "Ġmaji",
        -9.93420025585032
      ],
      [
        "ÙħÙĨØ°",
        -9.935991508181369
      ],
      [
        "maana",
        -9.937715420042236
      ],
      [
        "Ġolur",
        -9.937815638710184
      ],
      [
        "à±Ĥà°®",
        -9.938160236302211
      ],
      [
        "à¤Ĥà¤¡",
        -9.93865780139082
      ],
      [
        "hayo",
        -9.940211165813256
      ],
      [
        "à¤¿à¤ª",
        -9.940222900786951
      ],
      [
        "Ġpoint",
        -9.940325590668191
      ],
      [
        "ÙĤØ§ÙĦ",
        -9.94071773111963
      ],
      [
        "ä¸į",
        -9.9410946324641
      ],
      [
        "Ġdata",
        -9.94147670289231
      ],
      [
        "ä½ł",
        -9.942056781827317
      ],
      [
        "cho",
        -9.942254860614804
      ],
      [
        "Ġà¸¥",
        -9.943070172885058
      ],
      [
        "ĠÙħÙħØ§",
        -9.943105537643014
      ],
      [
        "à±Ĥà°¤",
        -9.943275668349884
      ],
      [
        "ĠÙĬØ¬Ø¨",
        -9.943344194847471
      ],
      [
        "\".",
        -9.94374580614723
      ],
      [
        "Microsoft",
        -9.943820733273704
      ],
      [
        "èĪĩ",
        -9.944731818900223
      ],
      [
        "ĠÙĪØ³ÙĦÙħ",
        -9.944772142908691
      ],
      [
        "à±įà°²à°²",
        -9.94629341118631
      ],
      [
        "at",
        -9.946423212904598
      ],
      [
        "ÙĥØ°ÙĦÙĥ",
        -9.946636852119088
      ],
      [
        "Ø¥ÙĨ",
        -9.947461677389658
      ],
      [
        "à±Ĥà°ķ",
        -9.94873695658029
      ],
      [
        "Ġmay",
        -9.94880072227122
      ],
      [
        "à°ļà°¬à°¡",
        -9.949544961936985
      ],
      [
        "à¸´à¹Į",
        -9.949837670801683
      ],
      [
        "Ġilk",
        -9.950418672073674
      ],
      [
        "å¯¹",
        -9.95097111215669
      ],
      [
        "Â·",
        -9.95110431606541
      ],
      [
        "ance",
        -9.952175278163104
      ],
      [
        "Ġsee",
        -9.95229233207951
      ],
      [
        "ĠØ§ÙĦÙĥØ«ÙĬØ±",
        -9.95397902969134
      ],
      [
        "ĠÐ¼Ð½Ðµ",
        -9.954593007141316
      ],
      [
        "ĠÐ»Ð¸",
        -9.955571641689367
      ],
      [
        "Ġces",
        -9.959314183985866
      ],
      [
        "Ð¡",
        -9.960124718222117
      ],
      [
        "oni",
        -9.960593005220291
      ],
      [
        "à¤¤à¤°",
        -9.961395391090864
      ],
      [
        "Ð±ÑĭÐ»Ð¸",
        -9.96163307003308
      ],
      [
        "ÐµÑģÐ»Ð",
        -9.961663489210055
      ],
      [
        "Ġime",
        -9.962475994332522
      ],
      [
        "à¸´à¸ª",
        -9.963856488400667
      ],
      [
        "à¹Ģà¸ķà¸Ńà¸£",
        -9.964129075339445
      ],
      [
        "hemu",
        -9.96457577007339
      ],
      [
        "two",
        -9.966926503815962
      ],
      [
        "aires",
        -9.967948380857369
      ],
      [
        "à¤¸à¤°à¤ķ",
        -9.969087725680954
      ],
      [
        "à¹Ģà¸Ī",
        -9.969333877421183
      ],
      [
        "each",
        -9.970269364155223
      ],
      [
        "ĠÙĪØ¬ÙĪØ¯",
        -9.97053544554436
      ],
      [
        "à¸±à¸Īà¸Ī",
        -9.97056098016455
      ],
      [
        "aka",
        -9.971347991398837
      ],
      [
        "à¥Ģà¤µ",
        -9.973308979407811
      ],
      [
        "Kwa",
        -9.973722388901722
      ],
      [
        "Ġà°ľà°¨",
        -9.97378639944489
      ],
      [
        "âĢĻt",
        -9.974002702551216
      ],
      [
        "Ġkui",
        -9.974093573211553
      ],
      [
        "PM",
        -9.97487973594215
      ],
      [
        "aji",
        -9.97489196336185
      ],
      [
        "à°¤à°ķ",
        -9.974959660938922
      ],
      [
        "Ġà¤¸à¤¹",
        -9.975165403614856
      ],
      [
        "âĢĻil",
        -9.975524984188173
      ],
      [
        "Ġhawa",
        -9.977357126782284
      ],
      [
        "ndan",
        -9.977535870842992
      ],
      [
        "ĠÐ¿Ð¾ÑģÐ»Ðµ",
        -9.977901697657536
      ],
      [
        "hat",
        -9.978704373648004
      ],
      [
        "ĠWe",
        -9.97916846928966
      ],
      [
        "Ġà°İà°µà°°",
        -9.979185684296002
      ],
      [
        "à¹ĩà¸Ļà¸ª",
        -9.980870624460067
      ],
      [
        "ĠØ§ÙĦØª",
        -9.981667038141154
      ],
      [
        "à°·à°¨",
        -9.98190787287528
      ],
      [
        "za",
        -9.98204998026863
      ],
      [
        "ĠÑĤÐ¾Ð¼",
        -9.982269560834364
      ],
      [
        "ĠDe",
        -9.982372839789967
      ],
      [
        "enzi",
        -9.983326952800727
      ],
      [
        "Ġiliyo",
        -9.98405262868424
      ],
      [
        "à¸¹à¸Ķ",
        -9.985066782493345
      ],
      [
        "ĠÙĬØ§",
        -9.985331839446104
      ],
      [
        "à¤ħà¤¤",
        -9.985544438764409
      ],
      [
        "à±Īà°°",
        -9.985551029251274
      ],
      [
        "à±įà°ķà°°",
        -9.986152594624173
      ],
      [
        "Ġà¤®à¤¨",
        -9.986797170697866
      ],
      [
        "ĠÐĴÑĭ",
        -9.987873219293832
      ],
      [
        "dogo",
        -9.988441936532556
      ],
      [
        "ä¸ĭ",
        -9.98872671528308
      ],
      [
        "ĠÐĶ",
        -9.989023358008165
      ],
      [
        "well",
        -9.989979132076318
      ],
      [
        "ĠÐĿÐ°",
        -9.99027210203449
      ],
      [
        "ĠØ§ÙĦØ³ÙĬØ§Ø³ÙĬ",
        -9.990359197064006
      ],
      [
        "Ġà¸¢",
        -9.991379867464746
      ],
      [
        "à¥Ī.",
        -9.991534533938015
      ],
      [
        "ä»¥",
        -9.992563173018386
      ],
      [
        "ĠdeÄŁil",
        -9.993836901666818
      ],
      [
        "Ġà°¸à°®à°¯",
        -9.994967691727282
      ],
      [
        "ÐµÐ±Ñı",
        -9.995202099684624
      ],
      [
        "Ġà°µà°²",
        -9.995791396486691
      ],
      [
        "à±įà°°à°§",
        -9.996782059209544
      ],
      [
        "Ġà°ķà°°",
        -9.99697570916268
      ],
      [
        "Ġà°ĩà°¤à°°",
        -9.99800325720949
      ],
      [
        "mambo",
        -9.99998482312143
      ],
      [
        "ĠÐ½Ð¸",
        -10.00020308778061
      ],
      [
        "Pour",
        -10.000338108995043
      ],
      [
        "Ġcar",
        -10.00057875760039
      ],
      [
        "Ġbad",
        -10.000673680894703
      ],
      [
        "Ġ...",
        -10.000816663512342
      ],
      [
        "à¸¸à¸Ļ",
        -10.000991998041004
      ],
      [
        "Ġà¤ħà¤¬",
        -10.001987009714192
      ],
      [
        "ÙħØ¹ÙĦÙĪÙħØ§Øª",
        -10.002638849181382
      ],
      [
        "ĠÃ©ta",
        -10.003611862422652
      ],
      [
        "à¹īà¸²à¸¢",
        -10.003664445549832
      ],
      [
        "ØŃØ±ÙĥØ©",
        -10.003789143259349
      ],
      [
        "à±įà°¶",
        -10.004231645511313
      ],
      [
        "ty",
        -10.00424906398788
      ],
      [
        "ÙģÙĬÙħØ§",
        -10.005220279211342
      ],
      [
        "ana",
        -10.006138875832889
      ],
      [
        "ĠZ",
        -10.006189865996502
      ],
      [
        "jibu",
        -10.006264323014737
      ],
      [
        "à°ĩ",
        -10.00641196482168
      ],
      [
        "Ø±ØºÙħ",
        -10.00663972588118
      ],
      [
        "ĠÐ»ÐµÑĤ",
        -10.006997659907434
      ],
      [
        "à±įà°¥à°²",
        -10.007232784859733
      ],
      [
        "à¸·à¸Ńà¸ĩ",
        -10.00761405746512
      ],
      [
        "à°ĸ",
        -10.007995707500667
      ],
      [
        "ĠÙĨÙģØ³",
        -10.00858421337304
      ],
      [
        "à¹īà¸",
        -10.010115074174989
      ],
      [
        "ÙĤ",
        -10.010226980193677
      ],
      [
        "ĠÐ¿ÐµÑĢÐµ",
        -10.011162141083709
      ],
      [
        "ÐµÑīÐµ",
        -10.012022398943484
      ],
      [
        "°ÑĨÐ¸Ð¸",
        -10.01217004062615
      ],
      [
        "Ġorta",
        -10.013171112751929
      ],
      [
        "example",
        -10.01416592812502
      ],
      [
        "ä¸Ģ",
        -10.015498572896965
      ],
      [
        "zote",
        -10.015532586984726
      ],
      [
        "à¸ĩà¸Ļ",
        -10.015894070466
      ],
      [
        "à¤¢",
        -10.01632397162022
      ],
      [
        ")ØĮ",
        -10.016454477491193
      ],
      [
        "Ð¸Ñİ",
        -10.01652827721612
      ],
      [
        "à¥ģà¤Ŀ",
        -10.016663422833666
      ],
      [
        "tokana",
        -10.016967131921684
      ],
      [
        "ar",
        -10.017374761246154
      ],
      [
        "à¸¹à¸¥",
        -10.017488261565443
      ],
      [
        "ä»ĸ",
        -10.018272698638969
      ],
      [
        "Ø§ÙĦØ³ÙĦØ§Ùħ",
        -10.01887775477914
      ],
      [
        "à±ĭà°¦",
        -10.019598452586504
      ],
      [
        "à¸¹à¸ĩ",
        -10.019941019669773
      ],
      [
        "Google",
        -10.020036563420136
      ],
      [
        "ĠÃ¼zerin",
        -10.020135782381228
      ],
      [
        "à°¹à°°",
        -10.020154517901114
      ],
      [
        "Ð±ÑĭÐ»Ð°",
        -10.021329241253415
      ],
      [
        "avoir",
        -10.021794417295071
      ],
      [
        "Ġwork",
        -10.022185736826517
      ],
      [
        "st",
        -10.022260769426357
      ],
      [
        "ĠAli",
        -10.023725703947878
      ],
      [
        "à°µà°¤",
        -10.023930682156951
      ],
      [
        "ge",
        -10.02419681506892
      ],
      [
        "ĠÙĪØ£",
        -10.024572323476733
      ],
      [
        "Ø§ÙĦØ¬Ø¯ÙĬØ¯",
        -10.025565386730666
      ],
      [
        "Ġquel",
        -10.025668920307918
      ],
      [
        "ĠØ¥ÙĦÙĬÙĩ",
        -10.02568465738485
      ],
      [
        "Ġyok",
        -10.025898668089086
      ],
      [
        "ĠNew",
        -10.026120186266816
      ],
      [
        "à°¾à°¯à°ķ",
        -10.0262053076459
      ],
      [
        "Ġlong",
        -10.027044213437016
      ],
      [
        "à¹ĩà¸Ķ",
        -10.027097860704888
      ],
      [
        "ĠÐ±ÐµÐ·",
        -10.029580283166656
      ],
      [
        "à¸Ļà¸Ķ",
        -10.02965760340593
      ],
      [
        "à±ĩà°³",
        -10.030348493159831
      ],
      [
        "Ġhapa",
        -10.030484170086403
      ],
      [
        "Ġ!",
        -10.03081843815037
      ],
      [
        "à±įà°«",
        -10.031801640899268
      ],
      [
        "ongozi",
        -10.032245692109102
      ],
      [
        "Ġneed",
        -10.032594670288397
      ],
      [
        "ÙĦØ§",
        -10.03357826736332
      ],
      [
        "Ġplan",
        -10.034260279292836
      ],
      [
        "à°Ĩà°«",
        -10.034363333990395
      ],
      [
        "à¸Īà¸°à¹Ģà¸Ľ",
        -10.03524075268909
      ],
      [
        "ĠÙĬØªÙħ",
        -10.03594879180224
      ],
      [
        "èĢĮ",
        -10.036797147407205
      ],
      [
        "à¤¸à¤®à¤¯",
        -10.036805162407584
      ],
      [
        "à¤¦à¤°",
        -10.037009459490983
      ],
      [
        "âĢĺ",
        -10.037448600124687
      ],
      [
        "Ġà¤Ĩà¤ªà¤",
        -10.037616672736249
      ],
      [
        "ions",
        -10.038305519022678
      ],
      [
        "ĠØ±Ø¦ÙĬØ³",
        -10.038593342288005
      ],
      [
        "éĥ½",
        -10.039395924702523
      ],
      [
        "X",
        -10.040637850132036
      ],
      [
        "ĠÃ¼zerinde",
        -10.04141708328044
      ],
      [
        "ĠÐŀ",
        -10.042903619763202
      ],
      [
        "ãĢĭ",
        -10.044388492321035
      ],
      [
        "à¤Łà¤°",
        -10.044764807883734
      ],
      [
        "tan",
        -10.04522477049652
      ],
      [
        "à¥Ģà¤²",
        -10.04578613781546
      ],
      [
        "Ġwalio",
        -10.045966589641775
      ],
      [
        "ĠÐ¿",
        -10.047020305216002
      ],
      [
        "how",
        -10.047326262345836
      ],
      [
        "à¸´à¸Ķà¸ķ",
        -10.048036195233225
      ],
      [
        "Ġbaa",
        -10.048392092593668
      ],
      [
        "ĠNo",
        -10.048827916335537
      ],
      [
        "deki",
        -10.049113226558696
      ],
      [
        "ĠÅŁekilde",
        -10.049190999431984
      ],
      [
        "à¸Ńà¸²à¸«à¸²à¸£",
        -10.049598069255378
      ],
      [
        "ujour",
        -10.049992558810274
      ],
      [
        "Ġà¤Ĩà¤¯",
        -10.050032771929551
      ],
      [
        "à°Ĥà°ľ",
        -10.050797986876862
      ],
      [
        "ĠSi",
        -10.050861205608516
      ],
      [
        "ÙĦØ°ÙĦÙĥ",
        -10.05087817226595
      ],
      [
        "ule",
        -10.050953559307732
      ],
      [
        "Ġsans",
        -10.051982787029017
      ],
      [
        "Ŀ",
        -10.05201055375548
      ],
      [
        "voir",
        -10.052343343064774
      ],
      [
        "à±įà°Ĺà°°",
        -10.05305073743153
      ],
      [
        "ĠØ§ÙĦÙĥØªØ§Ø¨",
        -10.053613546292189
      ],
      [
        "à¥įà¤µà¤",
        -10.054705827102453
      ],
      [
        "Ġuna",
        -10.054893768692788
      ],
      [
        "Ġà°ķà°³",
        -10.055653606245604
      ],
      [
        "à¤¬à¤¢",
        -10.055717769117171
      ],
      [
        "à¤¼à¤",
        -10.056929385330104
      ],
      [
        "ĠÐ¯",
        -10.057125370260811
      ],
      [
        "à¸Ńà¸Ļ",
        -10.057893762755592
      ],
      [
        "à±ĥà°¦",
        -10.058245973490637
      ],
      [
        "à¥įà¤°à¤µ",
        -10.058469573273864
      ],
      [
        "ĠÃĩ",
        -10.058674772348802
      ],
      [
        "åĲİ",
        -10.059489901030496
      ],
      [
        "à°¥",
        -10.061394075323204
      ],
      [
        "un",
        -10.062164191875423
      ],
      [
        "Ġà°İà°¦",
        -10.062166390978366
      ],
      [
        "ØªÙĩÙħ",
        -10.062197140537524
      ],
      [
        "yÄ±",
        -10.062831972243512
      ],
      [
        "Ġdedi",
        -10.06284823126362
      ],
      [
        "à¸Ł",
        -10.063160661789407
      ],
      [
        "ĠØ§ÙĦÙĨØ¸Ø§Ùħ",
        -10.063185796150137
      ],
      [
        "à¹Įà¸ķ",
        -10.063555026747505
      ],
      [
        "à¸±à¸ĩà¸Ļ",
        -10.06363072915848
      ],
      [
        "à¸¢à¸§à¸ģ",
        -10.063778136987438
      ],
      [
        "à¸´à¸ģà¸²à¸£",
        -10.064544871354082
      ],
      [
        "à¤¿à¤·",
        -10.064888002844643
      ],
      [
        "à¤Ĩà¤ľ",
        -10.06553621711988
      ],
      [
        "Ġà¹Ħà¸Ķ",
        -10.066016216000016
      ],
      [
        "Ġà¸ļ",
        -10.066691766152108
      ],
      [
        "Ġwali",
        -10.067788969201937
      ],
      [
        "à±įà°®à°ķ",
        -10.067837186781052
      ],
      [
        "Ø§ÙĦÙĪÙĤØª",
        -10.070551770141396
      ],
      [
        "ci",
        -10.071252377489504
      ],
      [
        "ĠÐºÐ¾",
        -10.071817162240716
      ],
      [
        "Ġsay",
        -10.071894381502318
      ],
      [
        "ĠÐŁÐ¾",
        -10.07254008374566
      ],
      [
        "ĠÐ¼Ð½Ð¾Ð³Ð¾",
        -10.072705274547705
      ],
      [
        "tu",
        -10.073632514888924
      ],
      [
        "ĠØ´ÙĬØ",
        -10.073778704686283
      ],
      [
        "ĠÙģÙĦØ§",
        -10.074490479758186
      ],
      [
        "ĠNi",
        -10.07471438714158
      ],
      [
        "''",
        -10.074992280026592
      ],
      [
        "ĠÑĩÐµÐ¼",
        -10.075103213578116
      ],
      [
        "ÙħØ¬ÙħÙĪØ¹Ø©",
        -10.07537440689638
      ],
      [
        "Ġà°¤à°²",
        -10.075782572183362
      ],
      [
        "ever",
        -10.075965712145171
      ],
      [
        "ĠMi",
        -10.076656637990729
      ],
      [
        "à¸ĩà¹Ģà¸Ľ",
        -10.077430991031768
      ],
      [
        "..Ċ",
        -10.078362660505253
      ],
      [
        "à¤Ĥà¤§",
        -10.078389092607845
      ],
      [
        "Ġhaya",
        -10.07876280820906
      ],
      [
        "ØªÙĬÙĨ",
        -10.078928509787438
      ],
      [
        "\\",
        -10.07911124275936
      ],
      [
        "Ġkuna",
        -10.079286022956804
      ],
      [
        "Ðļ",
        -10.079332538210808
      ],
      [
        "ä½¿çĶ¨",
        -10.081252206659869
      ],
      [
        "Ġaki",
        -10.081438004351757
      ],
      [
        "siz",
        -10.082876049178887
      ],
      [
        "paka",
        -10.0830539109784
      ],
      [
        "Ġà°¸à°¹",
        -10.084403717806229
      ],
      [
        "Ġà¤¹à¤°",
        -10.084756675707052
      ],
      [
        "ĠØ§ÙĦØ£ÙħØ±",
        -10.08580053935385
      ],
      [
        "Les",
        -10.086076437008677
      ],
      [
        "ĠgÃ¼n",
        -10.086160682262095
      ],
      [
        "³Ð¾",
        -10.08633268582695
      ],
      [
        "Į",
        -10.08644992265422
      ],
      [
        "pedia",
        -10.08689182165387
      ],
      [
        "à±Į",
        -10.087028463692285
      ],
      [
        "à¸±à¸Ļà¸ķ",
        -10.087106460334384
      ],
      [
        "à¸Ĺà¸³à¸ĩà¸²à¸Ļ",
        -10.088117604163244
      ],
      [
        "à¤¬à¤¤",
        -10.088259825818817
      ],
      [
        "ĠHe",
        -10.088383732122413
      ],
      [
        "ĠÐ£",
        -10.08858758962742
      ],
      [
        "izi",
        -10.090647481744774
      ],
      [
        "Ġà°Ĩà°",
        -10.09079865373371
      ],
      [
        "à¹īà¹Ģà¸ģ",
        -10.091520973746745
      ],
      [
        "Ġbiz",
        -10.09240085147066
      ],
      [
        "ÙĲÙĦ",
        -10.09279822161248
      ],
      [
        "ÙİØ¹",
        -10.093012633790837
      ],
      [
        "è¦ģ",
        -10.093062037305293
      ],
      [
        "à¤ªà¤¡",
        -10.09354314815306
      ],
      [
        "à°ªà°ķ",
        -10.093669212704144
      ],
      [
        "ary",
        -10.09501715481184
      ],
      [
        "ĠgÃ¼zel",
        -10.095143726279677
      ],
      [
        "ĠØ§ÙĦØŃØ¯ÙĬØ«",
        -10.095186472092944
      ],
      [
        "à¥įà¤£",
        -10.095718574200674
      ],
      [
        "Ø§ÙĦÙĤÙĬØ§Ùħ",
        -10.096057071356205
      ],
      [
        "Katika",
        -10.096434435065513
      ],
      [
        "à¸±à¸į",
        -10.096604051286176
      ],
      [
        "à¸£à¸°à¸«à¸§",
        -10.10004138178644
      ],
      [
        "daki",
        -10.10027419181966
      ],
      [
        "à¸·à¸Ńà¸ģ",
        -10.101661658527096
      ],
      [
        "à¤¾à¤¶",
        -10.102213604663769
      ],
      [
        "âĢ¦âĢ¦",
        -10.102307599575193
      ],
      [
        "ants",
        -10.10370760572324
      ],
      [
        "ï¼Įåľ¨",
        -10.103751560046788
      ],
      [
        "çĤº",
        -10.10497293819837
      ],
      [
        "Ġà°ªà°²",
        -10.107012922698653
      ],
      [
        "ĠØ³ÙĬ",
        -10.107138711363852
      ],
      [
        "Ļ",
        -10.107900042767527
      ],
      [
        "\",",
        -10.108789460382477
      ],
      [
        "à¹Ģà¸«à¸¡",
        -10.108940693194448
      ],
      [
        "zima",
        -10.109099760057555
      ],
      [
        "aire",
        -10.109115643148655
      ],
      [
        "ĠØ¬Ø¯ÙĬØ¯",
        -10.10921576190374
      ],
      [
        "En",
        -10.10938659216733
      ],
      [
        "ĠØ°Ø§Øª",
        -10.10958670557532
      ],
      [
        "ĠÐ²Ð°ÑĪ",
        -10.110780757266186
      ],
      [
        "Ġmk",
        -10.111180370938088
      ],
      [
        "à¸¹à¸Ļ",
        -10.111714356061787
      ],
      [
        "maktadÄ±r",
        -10.111971092793524
      ],
      [
        "zao",
        -10.112730415698271
      ],
      [
        "à¸¸à¸ļ",
        -10.112871591211718
      ],
      [
        "Ġevery",
        -10.112904465483007
      ],
      [
        "Ġà°ķà°µ",
        -10.113215341381803
      ],
      [
        "Ġhuy",
        -10.113735316959556
      ],
      [
        "eneo",
        -10.11380074895055
      ],
      [
        "à°Ľ",
        -10.114140917158204
      ],
      [
        "kazi",
        -10.11447832034026
      ],
      [
        "ÙĨØŃÙĨ",
        -10.114689198141663
      ],
      [
        "Ġplay",
        -10.115684086419332
      ],
      [
        "à¸³à¹Ģà¸Ļ",
        -10.116071559647729
      ],
      [
        "ÙģÙĩÙĪ",
        -10.117715525169697
      ],
      [
        "husu",
        -10.118755447069994
      ],
      [
        "à¤ļà¤¨",
        -10.118762773576693
      ],
      [
        "à¸Īà¸²à¸ģ",
        -10.119284573024984
      ],
      [
        "à°¾à°Ń",
        -10.120207509329308
      ],
      [
        "Ġhadi",
        -10.120725620926333
      ],
      [
        "æĿ¥",
        -10.12085289972421
      ],
      [
        "à¥į",
        -10.120937219862048
      ],
      [
        "ĠVi",
        -10.12241906295447
      ],
      [
        "à¸±à¸ª",
        -10.122831675427538
      ],
      [
        "ÙİÙ",
        -10.123462663171548
      ],
      [
        "ils",
        -10.124022587422663
      ],
      [
        "nu",
        -10.124485814276944
      ],
      [
        "à¤¬à¤¡",
        -10.125613845739656
      ],
      [
        "à¹ĩà¸ķ",
        -10.127398234077106
      ],
      [
        "serikali",
        -10.127854511619752
      ],
      [
        "à°ł",
        -10.127914358438098
      ],
      [
        "Ġà°Ĩà°ķ",
        -10.128569729617356
      ],
      [
        "team",
        -10.130106906774742
      ],
      [
        "Ġad",
        -10.131394105888385
      ],
      [
        "know",
        -10.131969937532638
      ],
      [
        "Ġback",
        -10.132325865599997
      ],
      [
        "å°ı",
        -10.132382009910865
      ],
      [
        "à¹ĩà¸ļ",
        -10.132644170738434
      ],
      [
        "up",
        -10.13441303264123
      ],
      [
        "ĠØ§ÙĦØ³Ø§Ø¨ÙĤ",
        -10.135548733770534
      ],
      [
        "ÐµÐ¼Ñĥ",
        -10.13559821025284
      ],
      [
        "à¹ĩà¸Ļà¸Ĺ",
        -10.136296532293231
      ],
      [
        "à¥ĥà¤¤",
        -10.136510281402764
      ],
      [
        "Ġà¤īà¤ªà¤",
        -10.136614944124895
      ],
      [
        "Ð½Ð¾",
        -10.138903787480022
      ],
      [
        "ĠsÃ¼re",
        -10.13998739239104
      ],
      [
        "ĠtÃ¼m",
        -10.140140851464007
      ],
      [
        "à¹Ģà¸ĩ",
        -10.141352207461903
      ],
      [
        "ĠØ£ÙĪÙĦ",
        -10.141423834274018
      ],
      [
        "hidi",
        -10.141561450095136
      ],
      [
        "taka",
        -10.141926013643673
      ],
      [
        "ch",
        -10.141937931336336
      ],
      [
        "ï¼Įä½Ĩ",
        -10.142457841444651
      ],
      [
        "fois",
        -10.142523491508632
      ],
      [
        "ĠÙĩÙĦ",
        -10.145393701594964
      ],
      [
        "à¥įà¤ªà¤",
        -10.14626181113952
      ],
      [
        "km",
        -10.146483975137038
      ],
      [
        "ĠØ§ÙĦØªØ¹ÙĦÙĬÙħ",
        -10.1480332378848
      ],
      [
        "ÐµÑģÑĮ",
        -10.148607408367464
      ],
      [
        "Ġfazla",
        -10.149053725551912
      ],
      [
        "ĠØ£Ø¨ÙĬ",
        -10.149986554102746
      ],
      [
        "à°¶à°ķ",
        -10.152350426954731
      ],
      [
        "Â»Ċ",
        -10.152799836435443
      ],
      [
        "Ġwame",
        -10.153077018561358
      ],
      [
        "à¤¬à¤°",
        -10.153339536977937
      ],
      [
        "j",
        -10.153833106708593
      ],
      [
        "ĠØ£Ùħ",
        -10.154122690721977
      ],
      [
        "çĶ¨",
        -10.154443286948045
      ],
      [
        "à¸±à¸Ĵà¸Ļà¸²",
        -10.155216836307313
      ],
      [
        "åĩº",
        -10.155554224298092
      ],
      [
        "ĠØ§ÙĦØŃÙĥÙĪÙħ",
        -10.155812993629269
      ],
      [
        "Ð½Ð°",
        -10.156088660076268
      ],
      [
        "à¹īà¹Ģà¸Ľ",
        -10.15611540664228
      ],
      [
        "à¸ĩà¹ģà¸ķ",
        -10.156189651263617
      ],
      [
        "Ġhaku",
        -10.156690945001126
      ],
      [
        "ix",
        -10.157964448432615
      ],
      [
        "à°µà°¡",
        -10.158019280498332
      ],
      [
        "ÙĪÙī",
        -10.158251728180597
      ],
      [
        "à±į.",
        -10.158285528331042
      ],
      [
        "anza",
        -10.158507801086312
      ],
      [
        "Ġper",
        -10.158563334686228
      ],
      [
        "Ġafter",
        -10.1593799109266
      ],
      [
        "à±įà°ŀ",
        -10.159522632741382
      ],
      [
        "ĠÐ¿ÑĢÐ¾ÑģÑĤÐ¾",
        -10.15960998124304
      ],
      [
        "à¸¹à¸¡",
        -10.159869746702988
      ],
      [
        "muda",
        -10.16014046786259
      ],
      [
        "ie",
        -10.16037401494464
      ],
      [
        "ĠØ§ÙĦÙĤØ§ÙĨÙĪÙĨ",
        -10.16103136832034
      ],
      [
        "Ġentre",
        -10.161082999009912
      ],
      [
        "Ð²Ð°Ð¼",
        -10.162198152630069
      ],
      [
        "Ð½Ð¸Ñı",
        -10.162435758294375
      ],
      [
        "Ġsera",
        -10.16249216671448
      ],
      [
        "à¥Ĥà¤¸à¤",
        -10.162797235727655
      ],
      [
        "ĠØ§ÙĦØŃÙĤ",
        -10.164108392917177
      ],
      [
        "ĠØ¬Ø¯Ø§",
        -10.164112761000956
      ],
      [
        "ĠØ¯ÙĪÙĦ",
        -10.164489408988064
      ],
      [
        "Ġkuji",
        -10.164730474675434
      ],
      [
        "ĠvardÄ±",
        -10.165993498520468
      ],
      [
        "leurs",
        -10.166910442425284
      ],
      [
        "åı¯ä»¥",
        -10.166993269907405
      ],
      [
        "Ġshow",
        -10.167270741240982
      ],
      [
        "In",
        -10.16741318695567
      ],
      [
        "à°¾à°¯à°¨",
        -10.16804563068198
      ],
      [
        "à¹ĩà¸Ī",
        -10.169233498792686
      ],
      [
        "sha",
        -10.169916374829167
      ],
      [
        "Ġà°ħà°µà°ķ",
        -10.170570403497264
      ],
      [
        "à¹Ĥà¸Ķà¸¢",
        -10.170659331923346
      ],
      [
        "Ð³Ð´Ðµ",
        -10.171185037330815
      ],
      [
        "à±įà°ªà°¡",
        -10.173254122437532
      ],
      [
        "èĳĹ",
        -10.17330297848957
      ],
      [
        "à¤¤à¤¨",
        -10.173468409214182
      ],
      [
        "dece",
        -10.173540543431226
      ],
      [
        "Ð»",
        -10.17419102319791
      ],
      [
        "İ",
        -10.174654849627458
      ],
      [
        "à°¾à°®à°¨",
        -10.174803421135548
      ],
      [
        "à¸¡à¸²à¸ģ",
        -10.17502283309339
      ],
      [
        "ĠX",
        -10.175046600077875
      ],
      [
        "à±įà°¶à°ķ",
        -10.176148233795304
      ],
      [
        "à¸Ńà¹ĥà¸«",
        -10.176898196233076
      ],
      [
        "ĠÐŀÐ½",
        -10.17741298518429
      ],
      [
        "ilgili",
        -10.17765248381068
      ],
      [
        "à±ģà°¦à°²",
        -10.17783740500336
      ],
      [
        "ette",
        -10.178738824249113
      ],
      [
        "ä¹ĭ",
        -10.179092286836353
      ],
      [
        "à¹Įà¸Ķ",
        -10.179867901470056
      ],
      [
        "cause",
        -10.18033908414947
      ],
      [
        "à¹Ĭ",
        -10.180466780544434
      ],
      [
        "Ġelle",
        -10.181507458156684
      ],
      [
        "alisema",
        -10.18154757028605
      ],
      [
        "à¤¸à¤²",
        -10.182393037168168
      ],
      [
        "à¸µà¸Ķ",
        -10.182668042182796
      ],
      [
        "à¸µà¸ķ",
        -10.182717937904044
      ],
      [
        "son",
        -10.183185578102892
      ],
      [
        "ĠÐ³",
        -10.1834993849651
      ],
      [
        "Ġà¹ĥà¸Ļ",
        -10.184158565464784
      ],
      [
        "ĠkarÅŁÄ±",
        -10.184464458761894
      ],
      [
        "Ġà°Ĩà°¨",
        -10.18480757615596
      ],
      [
        "nun",
        -10.18484678807011
      ],
      [
        "à¥įà¤¤à¤°",
        -10.184971545158293
      ],
      [
        "à±ĩ.",
        -10.185415602339203
      ],
      [
        "à±ĩà°µà°²",
        -10.185491397868883
      ],
      [
        "à¥Īà¤¨",
        -10.18552047789468
      ],
      [
        "system",
        -10.18567574604759
      ],
      [
        "ĠÙĩÙĨØ§",
        -10.185826640181592
      ],
      [
        "Ð½Ð¾Ðµ",
        -10.185930589098549
      ],
      [
        "à°¤à°¯",
        -10.186363304454456
      ],
      [
        "man",
        -10.18640339348826
      ],
      [
        "Q",
        -10.186618349157497
      ],
      [
        "Ġbar",
        -10.187198948934396
      ],
      [
        "à¸ªà¸£",
        -10.187619666546627
      ],
      [
        "Ø¬",
        -10.187664548094371
      ],
      [
        "à¹Īà¸ķ",
        -10.188894813664865
      ],
      [
        "Ġgood",
        -10.189262852492549
      ],
      [
        "Ġnon",
        -10.189968573809612
      ],
      [
        "ngo",
        -10.19067183514474
      ],
      [
        "à¹īà¸Ńà¸ĩà¸ģ",
        -10.19117374858639
      ],
      [
        "à±įà°¯à°µà°¸",
        -10.191252990994112
      ],
      [
        "ĠÐľ",
        -10.191451432961092
      ],
      [
        "à¤¯à¤¦",
        -10.191613870310988
      ],
      [
        "etu",
        -10.192254611516743
      ],
      [
        "sini",
        -10.192325637459398
      ],
      [
        "Ġà¸«",
        -10.192530903507
      ],
      [
        "à¹Īà¸§",
        -10.19271751136741
      ],
      [
        "nje",
        -10.192984018037624
      ],
      [
        "ken",
        -10.193087661490551
      ],
      [
        "mo",
        -10.193250902377615
      ],
      [
        "Ø§ÙĦØ¢ÙĨ",
        -10.194087508466868
      ],
      [
        "Ġva",
        -10.194211900619187
      ],
      [
        "à±Ĩà°¤",
        -10.195195857680387
      ],
      [
        "à¸Īà¸°",
        -10.195288778359966
      ],
      [
        "à°Łà°¨",
        -10.195349495466033
      ],
      [
        "ĠÐ´ÑĢÑĥÐ³",
        -10.19678979899902
      ],
      [
        "Ð³Ð¾Ð´Ñĥ",
        -10.197187340652274
      ],
      [
        "å°Ĩ",
        -10.19739713337059
      ],
      [
        "ĠØ§ÙĦÙħØ¬ØªÙħØ¹",
        -10.197753883593524
      ],
      [
        "mbo",
        -10.198040389854834
      ],
      [
        "'ai",
        -10.198415739895909
      ],
      [
        "ÙİØ¨",
        -10.19884571137328
      ],
      [
        "ÐºÑĤÐ¾",
        -10.198929533475088
      ],
      [
        "Ø¨Ø³Ø¨Ø¨",
        -10.199300614690522
      ],
      [
        "ĠØ§ÙĦØ³ÙĬØ¯",
        -10.19946843923614
      ],
      [
        "à°¾?",
        -10.1997103849204
      ],
      [
        "ĠAnd",
        -10.200476733635105
      ],
      [
        "à±įà°²à°ķ",
        -10.201070002308423
      ],
      [
        "ÑģÐºÐ¾Ð»ÑĮÐºÐ¾",
        -10.201530337100667
      ],
      [
        "Ġkendi",
        -10.201556992044864
      ],
      [
        "ĠCe",
        -10.201557659850115
      ],
      [
        "à¹Ģà¸ŀà¸£à¸²à¸°",
        -10.201758938659342
      ],
      [
        "ĠØ§ÙĦØ¯ÙĪÙĦÙĬ",
        -10.20182507973754
      ],
      [
        "Ã¼",
        -10.20200668391162
      ],
      [
        "Ġkabi",
        -10.202631828388618
      ],
      [
        "Ð´Ð°Ð¶Ðµ",
        -10.2030477414447
      ],
      [
        "ĠÙĪØ£ÙĨ",
        -10.203754892407446
      ],
      [
        "ÙĤØ¶Ø§Ø¡",
        -10.203832751896964
      ],
      [
        "Ġmap",
        -10.20398145231
      ],
      [
        "very",
        -10.205232069437203
      ],
      [
        "Ġdis",
        -10.2056861640042
      ],
      [
        "ĠÑıÐ²Ð»Ñı",
        -10.20569001732754
      ],
      [
        "Ġjour",
        -10.206383971435748
      ],
      [
        "ĠBen",
        -10.206435613533898
      ],
      [
        "à±įà°¤à°ķ",
        -10.206575119484668
      ],
      [
        "miÅŁ",
        -10.207697926939009
      ],
      [
        "tous",
        -10.208308987367817
      ],
      [
        "à±įà°°à°¶",
        -10.208377764694545
      ],
      [
        "Ġquestion",
        -10.208718133939616
      ],
      [
        "Ġà¸Ĥ",
        -10.209131061656812
      ],
      [
        "dim",
        -10.209660838461424
      ],
      [
        "Ĩ",
        -10.210680862856652
      ],
      [
        "Ġstart",
        -10.211664781490107
      ],
      [
        "ºÐ°",
        -10.211838117570338
      ],
      [
        "himu",
        -10.212055245029044
      ],
      [
        "Ġtemp",
        -10.212099155084008
      ],
      [
        "Ġlook",
        -10.21228606776743
      ],
      [
        "Ġplu",
        -10.213241623286208
      ],
      [
        "à¸Ĺà¸²à¸ĩ",
        -10.21343035262374
      ],
      [
        "ĠÙ±ÙĦ",
        -10.21507074861047
      ],
      [
        "Ð¸Ð¼Ð¸",
        -10.215108978175516
      ],
      [
        "à¹īà¸ª",
        -10.215980910040113
      ],
      [
        "Ġà°Ĩà°¦",
        -10.21606102149739
      ],
      [
        "à¤ł",
        -10.21630032527238
      ],
      [
        "Ġà¤ĩà¤¸à¤",
        -10.216757109845508
      ],
      [
        "à±Ģà°ľ",
        -10.216944664949615
      ],
      [
        "Ġpetit",
        -10.21706971497584
      ],
      [
        "ĠOn",
        -10.217484947788352
      ],
      [
        "Ġà°Ĵ",
        -10.218740662920744
      ],
      [
        "ĠÐ½Ð¾Ð²",
        -10.218960127118685
      ],
      [
        "Ġmade",
        -10.219085380314924
      ],
      [
        "Ġcas",
        -10.219634200644794
      ],
      [
        "ĠØ£Ø¨ÙĪ",
        -10.219816210466009
      ],
      [
        "ire",
        -10.220445738116464
      ],
      [
        "ĠØ£ÙħØ§",
        -10.22045791676832
      ],
      [
        "oÃ",
        -10.22054528424346
      ],
      [
        "~",
        -10.22083585690292
      ],
      [
        "ĠFrance",
        -10.221265578984866
      ],
      [
        "æĻĤ",
        -10.221391068594071
      ],
      [
        "à¤ľà¤¹",
        -10.2214458066934
      ],
      [
        "ĠSa",
        -10.222116314024891
      ],
      [
        "ĠÑĩÐµÐ»Ð¾Ð²ÐµÐº",
        -10.222427074703992
      ],
      [
        "ida",
        -10.22251425891217
      ],
      [
        "à°ĸà°°",
        -10.22407932357562
      ],
      [
        "à¸ıà¸Ĳ",
        -10.225553321643012
      ],
      [
        "ĠÙĪØ§ÙĦØªÙĬ",
        -10.225826574048078
      ],
      [
        "ĠYe",
        -10.226056647020147
      ],
      [
        "lu",
        -10.226350920193305
      ],
      [
        "ĠØ£ÙĩÙħ",
        -10.226412965198811
      ],
      [
        "!!!",
        -10.2267400086032
      ],
      [
        "ĠÐ½Ð°Ñģ",
        -10.226804685701987
      ],
      [
        "Ø§ÙĦÙĤØ±Ø¢ÙĨ",
        -10.226829003987936
      ],
      [
        "Ġdiye",
        -10.227656860727546
      ],
      [
        "à°ıà°¦",
        -10.227969396741443
      ],
      [
        "ĠrÃ©",
        -10.22796990047372
      ],
      [
        "`",
        -10.228202973207726
      ],
      [
        "Ð¸Ñı",
        -10.228208562440017
      ],
      [
        "å¥½",
        -10.22838544301839
      ],
      [
        "Ġaliye",
        -10.228723189714918
      ],
      [
        "Ġcertain",
        -10.23025770106997
      ],
      [
        "ÑıÐ¼Ð¸",
        -10.230413599544937
      ],
      [
        "Ġà°¨à°¡",
        -10.230742641129432
      ],
      [
        "Ġhigh",
        -10.231371738516136
      ],
      [
        "org",
        -10.23172861997492
      ],
      [
        "yeye",
        -10.232031861467586
      ],
      [
        "à¸´à¸Ķà¸Ĥ",
        -10.23232634464301
      ],
      [
        "à¤Ĥà¤¬",
        -10.232768279006883
      ],
      [
        "insi",
        -10.232957189730794
      ],
      [
        "Ã¨me",
        -10.233606788915706
      ],
      [
        "ugha",
        -10.234014446183952
      ],
      [
        "à¤Ĥà¤ķ",
        -10.234345157607573
      ],
      [
        "à±Ģà°",
        -10.234647739945988
      ],
      [
        "v",
        -10.23483749317376
      ],
      [
        "ĠÙĦÙħØ§",
        -10.234941172811688
      ],
      [
        "à¸ģà¸²à¸£à¹ĥà¸",
        -10.23532996569894
      ],
      [
        "ĠØ§ÙĦÙĨØ¨ÙĬ",
        -10.236110425685771
      ],
      [
        "à±ĩà°Ĺ",
        -10.236327183563024
      ],
      [
        "Ġmwenye",
        -10.236917411642496
      ],
      [
        "Ġà¤°à¤ĸ",
        -10.23817089118883
      ],
      [
        "ÙĬÙĩ",
        -10.239399317423567
      ],
      [
        "à°¿à°ľà°¯",
        -10.239468787121597
      ],
      [
        "à±įà°¤à°°",
        -10.23952226468425
      ],
      [
        "ware",
        -10.24097115115853
      ],
      [
        "ĠÐ¿ÑĢÐ",
        -10.241004626948406
      ],
      [
        "Ð¿ÑĢÐ¾Ð³ÑĢÐ°Ð¼Ð¼",
        -10.241288784873632
      ],
      [
        "ĠÙĬÙĥÙĨ",
        -10.2415628692982
      ],
      [
        "à°¾à°ĸ",
        -10.242158816323713
      ],
      [
        "puis",
        -10.242391704323754
      ],
      [
        "à°µà°¨",
        -10.242995842920768
      ],
      [
        "lioni",
        -10.243297532180168
      ],
      [
        "tendo",
        -10.243581782705814
      ],
      [
        "out",
        -10.243773601874324
      ],
      [
        "guvu",
        -10.244441251091423
      ],
      [
        "ĠÑĢÐ",
        -10.244880969687507
      ],
      [
        "ĠØŃÙĬÙĨ",
        -10.245279816433795
      ],
      [
        "à¹Ģà¸§à¸¥à¸²",
        -10.246032031754218
      ],
      [
        "Ġoldu",
        -10.24607284264138
      ],
      [
        "Ġgerek",
        -10.2462683526183
      ],
      [
        "ive",
        -10.246604126556267
      ],
      [
        "Un",
        -10.246997122593292
      ],
      [
        "Ð³",
        -10.247626880812856
      ],
      [
        "à¤ĺà¤°",
        -10.248336094847929
      ],
      [
        "wenyewe",
        -10.248726296402362
      ],
      [
        "ĠKa",
        -10.249716152774637
      ],
      [
        "Ð²Ð°Ñģ",
        -10.249734029540008
      ],
      [
        "ÙĨØ³Ø§Ø¡",
        -10.251227119894278
      ],
      [
        "ĠØ¶Ø¯",
        -10.251703507303905
      ],
      [
        "ĠÙĦÙĪ",
        -10.251992009213456
      ],
      [
        "à±ĭà°®",
        -10.252438862559
      ],
      [
        "Ø¦Ø©",
        -10.25361952638284
      ],
      [
        "à¤²à¤¤",
        -10.253789538544863
      ],
      [
        "Ġà°İà°",
        -10.254642573070594
      ],
      [
        "Ġhatu",
        -10.254813326926923
      ],
      [
        "ĠFor",
        -10.255563009005638
      ],
      [
        "ĠÙĬÙĤÙĪÙĦ",
        -10.257222460834626
      ],
      [
        "Ð½Ð¸Ñħ",
        -10.257558538366895
      ],
      [
        "à¥įà¤°à¤¸",
        -10.257700615992476
      ],
      [
        "now",
        -10.25779363109925
      ],
      [
        "ĠÙĦÙĨØ§",
        -10.257941866817642
      ],
      [
        "ĠÐĿÐµ",
        -10.25809370493795
      ],
      [
        "ĠÙĪØ¶Ø¹",
        -10.258196463502458
      ],
      [
        "à¥Ĥà¤Ĥ",
        -10.258307986917831
      ],
      [
        "ĠØ§ÙĦØ¢Ø®Ø±",
        -10.25846014291136
      ],
      [
        "Ðĺ",
        -10.261180303591726
      ],
      [
        "rken",
        -10.26160832963281
      ],
      [
        "à¸ģà¸²à¸£à¸ĵ",
        -10.261724002683415
      ],
      [
        "aynÄ±",
        -10.261922979748595
      ],
      [
        "ÐĶ",
        -10.262033079489637
      ],
      [
        "encore",
        -10.262382159874058
      ],
      [
        "º",
        -10.2627575724527
      ],
      [
        "ĠdoÄŁru",
        -10.263042096274784
      ],
      [
        "à¹īà¸Ńà¸Ļ",
        -10.263602473454034
      ],
      [
        "à¸±à¸ļà¸",
        -10.264076882289611
      ],
      [
        "à±Ĩà°®",
        -10.264797463848543
      ],
      [
        "ĠØ§ÙĦØ¬Ø§ÙħØ¹",
        -10.265025390494324
      ],
      [
        "Ġà¤ħà¤°",
        -10.265883674667938
      ],
      [
        "à¸±à¸įà¸«à¸²",
        -10.266479330023234
      ],
      [
        "Ø¨Ø§ÙĦÙĨØ³Ø¨",
        -10.267803469530536
      ],
      [
        "itÃ©",
        -10.26850386956508
      ],
      [
        "à¤ħà¤ļ",
        -10.268566417036608
      ],
      [
        "toa",
        -10.268571912624695
      ],
      [
        "annÃ©e",
        -10.269094284482936
      ],
      [
        "Ġwhere",
        -10.269170842359776
      ],
      [
        "through",
        -10.269393523669857
      ],
      [
        "à¥ĭà¤ķ",
        -10.269571612846226
      ],
      [
        "ĠØ§ÙĦØ¥",
        -10.269690389076644
      ],
      [
        "Ð²",
        -10.269868385502653
      ],
      [
        "aina",
        -10.269991354281164
      ],
      [
        "ĠØ¯Ø§Ø®ÙĦ",
        -10.270537178435005
      ],
      [
        "gani",
        -10.271046259906496
      ],
      [
        "ÙĪÙģÙĬ",
        -10.27120019649929
      ],
      [
        "ĠÑĤÐµÐ¼",
        -10.271342996613736
      ],
      [
        "Ġhaki",
        -10.27282042512196
      ],
      [
        "pata",
        -10.273176417907727
      ],
      [
        "à¹īà¸²à¸¡",
        -10.273927332241824
      ],
      [
        "ÙħØ§Ø¡",
        -10.27407099489142
      ],
      [
        "ĠØµ",
        -10.274326721741517
      ],
      [
        "à¤¹à¤°",
        -10.27515085658366
      ],
      [
        "à¥Ģà¤¡",
        -10.276113487778291
      ],
      [
        "ÙĩÙĢ",
        -10.276429635096502
      ],
      [
        "à±įà°Łà°®",
        -10.276508508229767
      ],
      [
        "Ġalan",
        -10.276676296244055
      ],
      [
        "ĠØ§ÙĦØŃÙĥÙħ",
        -10.276951154823202
      ],
      [
        "ĠÐ¾Ð±ÑĢÐ°Ð·",
        -10.277287228642551
      ],
      [
        "Ľà¸£à¸°à¸¡à¸²à¸ĵ",
        -10.277742026403924
      ],
      [
        "à°¸à°®à°¸",
        -10.277871942787172
      ],
      [
        "Ðº",
        -10.278075343984126
      ],
      [
        "à¥ĩà¤®",
        -10.278581660269332
      ],
      [
        "ÙĬÙĬÙĨ",
        -10.279290567048587
      ],
      [
        "à¤Ĩà¤¨",
        -10.279366069313468
      ],
      [
        "Ġdi",
        -10.280065623561988
      ],
      [
        "Ġà¤¸à¤ķ",
        -10.280240687191574
      ],
      [
        "ding",
        -10.280505656402138
      ],
      [
        "Ø³ÙĨÙĪØ§Øª",
        -10.280704965380483
      ],
      [
        "Ġndi",
        -10.28152767183182
      ],
      [
        "Ø§Ø¯Ø©",
        -10.281706014446762
      ],
      [
        "ÙĥÙĨØª",
        -10.28181234033445
      ],
      [
        "à°Ĥà°¶",
        -10.281941105739152
      ],
      [
        "ä¾Ĩ",
        -10.281996858117562
      ],
      [
        "à°¨à°¨",
        -10.282391805392574
      ],
      [
        "à±Ĥà°ļ",
        -10.282449186672377
      ],
      [
        "think",
        -10.28315259657133
      ],
      [
        "Tanzania",
        -10.283318843918073
      ],
      [
        "tumia",
        -10.284724668970322
      ],
      [
        "à¸µà¸¢à¸§à¸ģ",
        -10.28482552022397
      ],
      [
        "Ð½Ð¾ÑģÑĤÑĮ",
        -10.285692962946314
      ],
      [
        "ndio",
        -10.2865388246439
      ],
      [
        "Ġà°§",
        -10.2866818309482
      ],
      [
        "Ġà°¨à°Ĺà°°",
        -10.287198138912936
      ],
      [
        "larÄ±nÄ±",
        -10.288413093768424
      ],
      [
        "erikali",
        -10.288458231455108
      ],
      [
        "à¥ĩà¤·",
        -10.289381988282765
      ],
      [
        "Ġinayo",
        -10.29031673851808
      ],
      [
        "ĠØ§Ø³ØªØ®Ø¯Ø§Ùħ",
        -10.290439350661185
      ],
      [
        "à±įà°¨à°ª",
        -10.290760055762007
      ],
      [
        "çĶ±",
        -10.291000355288052
      ],
      [
        "#",
        -10.291037675986324
      ],
      [
        "Ġà°¨à°Ł",
        -10.29132942740316
      ],
      [
        "Ġman",
        -10.29148148263942
      ],
      [
        "ÙİØ§Ø",
        -10.29194851442272
      ],
      [
        "Â».Ċ",
        -10.292201030730263
      ],
      [
        "ĠNe",
        -10.29236853380349
      ],
      [
        "Ġprocess",
        -10.29242610032876
      ],
      [
        "æĢ§",
        -10.29266651439977
      ],
      [
        "Ġful",
        -10.293232695706044
      ],
      [
        "ĥ",
        -10.293701788786755
      ],
      [
        "du",
        -10.294130181261206
      ],
      [
        "à¥ĩà¤¦",
        -10.294133712716578
      ],
      [
        "Ġà°§à°°",
        -10.294553130606374
      ],
      [
        "åĲĳ",
        -10.29456262446302
      ],
      [
        "à°ħ",
        -10.295196981279704
      ],
      [
        "ÐºÐ°",
        -10.295253657775632
      ],
      [
        "æīĢ",
        -10.29591008884814
      ],
      [
        "ĠÐ²Ð¾Ð·Ð¼Ð¾Ð¶Ð½",
        -10.296646509093744
      ],
      [
        "Ð½Ð¾ÑģÑĤÐ¸",
        -10.29740117497483
      ],
      [
        "à¤§à¤°",
        -10.29807164818645
      ],
      [
        "Ġap",
        -10.299182219903155
      ],
      [
        "à¥Ĥà¤¨",
        -10.299646283053232
      ],
      [
        "Ø§Ø°Ø§",
        -10.299981330371024
      ],
      [
        "ilikuwa",
        -10.30047377782644
      ],
      [
        "ĠTo",
        -10.300589849321833
      ],
      [
        "à¸´à¸Ĺ",
        -10.300694937346446
      ],
      [
        "Ġbirlikte",
        -10.300785910881611
      ],
      [
        "nÄ±",
        -10.300890606606412
      ],
      [
        "à¹īà¸ĩ",
        -10.301549319927195
      ],
      [
        "ĠØ¥Ø°",
        -10.302735129675137
      ],
      [
        "à¤ªà¤°",
        -10.30347018512174
      ],
      [
        "ĠÙħØ¬ÙĦØ³",
        -10.303823139535147
      ],
      [
        "ĠÙĦÙĥÙĦ",
        -10.304950949600588
      ],
      [
        "ambo",
        -10.305630574835664
      ],
      [
        "ĠÑįÑĤÐ¸",
        -10.305943185329577
      ],
      [
        "à°ķà°ª",
        -10.306216387760866
      ],
      [
        "wenda",
        -10.30636398801062
      ],
      [
        "great",
        -10.30650393922144
      ],
      [
        "į",
        -10.306957821856058
      ],
      [
        "ĠØ§ÙĦØŃØ§ÙĦ",
        -10.307154926049131
      ],
      [
        "ÙģØ©",
        -10.307578642255969
      ],
      [
        "ÙİÙĪ",
        -10.307866582083967
      ],
      [
        "à¹Ĵ",
        -10.308829312371625
      ],
      [
        "ĠÙħØ®ØªÙĦÙģ",
        -10.309406701635996
      ],
      [
        "à¸±à¸ĩà¸ª",
        -10.309845209996563
      ],
      [
        "umbe",
        -10.31064556702573
      ],
      [
        "ĠØŃØ³Ø¨",
        -10.311328890835927
      ],
      [
        "Ġà°Ĩà°¡",
        -10.311330833580753
      ],
      [
        "Ø¹Ø¯Ø©",
        -10.31141888778445
      ],
      [
        "à¤ĩà¤¸",
        -10.311419929824869
      ],
      [
        "ĠÙĪÙĤØª",
        -10.311556789834151
      ],
      [
        "Ġà¤ĵà¤",
        -10.312429952936489
      ],
      [
        "à¸´à¹",
        -10.312897142358285
      ],
      [
        "à¥ĭà¤ª",
        -10.313216007062238
      ],
      [
        "Ð´ÐµÐ»Ð°ÑĤÑĮ",
        -10.313251071086937
      ],
      [
        "Ġhelp",
        -10.313695546369669
      ],
      [
        "à¥Į",
        -10.31455728508305
      ],
      [
        "à¤īà¤¨à¤",
        -10.315077598567186
      ],
      [
        "à°¤à°®",
        -10.31568020818941
      ],
      [
        "ĠØ´ÙĩØ±",
        -10.315705356271142
      ],
      [
        "à°ķà°°",
        -10.315772621684417
      ],
      [
        "à¸´à¸Ļà¸Ħ",
        -10.315862313728015
      ],
      [
        "à¹Īà¸²à¸ĩà¸ģ",
        -10.316405013194696
      ],
      [
        "Ġà¤¦à¤°",
        -10.316753985187905
      ],
      [
        "ique",
        -10.316882581827272
      ],
      [
        "Ġeven",
        -10.317230210317453
      ],
      [
        "Ġfe",
        -10.317382234895977
      ],
      [
        "ona",
        -10.31747880010836
      ],
      [
        "Ġprogram",
        -10.317853500430168
      ],
      [
        "inde",
        -10.31800702646175
      ],
      [
        "dvisor",
        -10.31808791053848
      ],
      [
        "å¾Ĺ",
        -10.31836588539796
      ],
      [
        "åĲį",
        -10.31870941352199
      ],
      [
        "ÙıÙĪ",
        -10.319015339703776
      ],
      [
        "larÄ±n",
        -10.319668219550474
      ],
      [
        "ĠÐ´ÑĢÑĥÐ³Ð¸",
        -10.31990019021637
      ],
      [
        "æĬĬ",
        -10.321025327643536
      ],
      [
        "article",
        -10.32110811618751
      ],
      [
        "à¥įà¤Ĺ",
        -10.321109292530808
      ],
      [
        "à¥ĩà¤¹",
        -10.321405135920584
      ],
      [
        "Ġuj",
        -10.32217403924342
      ],
      [
        "Ġoff",
        -10.322235612764302
      ],
      [
        "à¹Ģà¸ķ",
        -10.322240253715533
      ],
      [
        "ĠØ¹Ø¨Ø±",
        -10.322656261085154
      ],
      [
        "à¸µà¸¢à¸ļ",
        -10.323616331726594
      ],
      [
        "à¸ĵà¸ĳ",
        -10.323662243599276
      ],
      [
        "à¹Īà¸ģ",
        -10.324423929864356
      ],
      [
        "à¸µà¸ģà¸²à¸£",
        -10.324469251568232
      ],
      [
        "ĠØ§ÙĦØŃÙĬØ§",
        -10.325008826364469
      ],
      [
        "Ġkutoa",
        -10.325344103753745
      ],
      [
        "à¹Įà¸¡",
        -10.32570512146544
      ],
      [
        "à¹Īà¸²à¸ĩà¹Ħà¸£",
        -10.326274200348433
      ],
      [
        "ic",
        -10.326318064957032
      ],
      [
        "ĠØŃ",
        -10.327219730590471
      ],
      [
        "ĠÃ¶zel",
        -10.327563826649504
      ],
      [
        "ĠØªØŃØª",
        -10.327591965957964
      ],
      [
        "Ġcho",
        -10.328051966705068
      ],
      [
        "je",
        -10.328221013965669
      ],
      [
        "Ø§ÙĦØ¨ØŃØ«",
        -10.32839899693098
      ],
      [
        "à¸¸à¸£",
        -10.328667111092098
      ],
      [
        "ĠyapÄ±lan",
        -10.329186649682343
      ],
      [
        "åīį",
        -10.329414394879308
      ],
      [
        "à¹Īà¸Ńà¹Ħà¸Ľ",
        -10.329416953286117
      ],
      [
        "Ġwale",
        -10.329510914493296
      ],
      [
        "å¾Į",
        -10.32951835080084
      ],
      [
        "à±įà°µà°¹",
        -10.329687262401198
      ],
      [
        "à¸±à¸ĩà¸«à¸§",
        -10.330951066220614
      ],
      [
        "Ø£ÙĨÙĩØ§",
        -10.33263683998288
      ],
      [
        "à±Ģà°Ĺ",
        -10.332897585869045
      ],
      [
        "ĠÑĤÐµ",
        -10.33371268782183
      ],
      [
        "´",
        -10.33410661012973
      ],
      [
        "à¸Ļà¹Ĩ",
        -10.33426690605674
      ],
      [
        "ĠÐ¢Ð°Ðº",
        -10.334795447979817
      ],
      [
        "à¹Įà¸ª",
        -10.334808936906349
      ],
      [
        "ĠØ§ÙĦÙĨØ¸Ø±",
        -10.334822512576352
      ],
      [
        "to",
        -10.334960005003902
      ],
      [
        "sawa",
        -10.335207195095723
      ],
      [
        "à°µà°²à°¨",
        -10.33527101531668
      ],
      [
        "à¹ĩà¸Ħ",
        -10.33613140608062
      ],
      [
        "à¸ģà¸²à¸£à¸¨",
        -10.336252003926774
      ],
      [
        "à¸´à¸¥",
        -10.337232066228182
      ],
      [
        "à°Ĺà°¤",
        -10.33763519176024
      ],
      [
        "Ð¿ÑĢÐ°Ð²Ð¸ÑĤÑĮ",
        -10.337851329752636
      ],
      [
        "à¤¬à¤ļ",
        -10.338368222870477
      ],
      [
        "iyle",
        -10.3391645359765
      ],
      [
        "vent",
        -10.34055550131367
      ],
      [
        "à¸ľà¸¥",
        -10.340610961674436
      ],
      [
        "source",
        -10.341601128997985
      ],
      [
        "Ġday",
        -10.34181004707807
      ],
      [
        "à¹Ĵà¹",
        -10.34273343331496
      ],
      [
        "à¸ģà¸²à¸£à¸ŀ",
        -10.343047379835188
      ],
      [
        "Ð¼Ð¾Ð¶ÐµÑĤÐµ",
        -10.343311024935163
      ],
      [
        "ĠÙħÙĪÙĤØ¹",
        -10.343714508704426
      ],
      [
        "ĠolduÄŁunu",
        -10.343741666530187
      ],
      [
        "larda",
        -10.343882357231823
      ],
      [
        "à°ªà°°",
        -10.344627329992196
      ],
      [
        "åŃĲ",
        -10.34512525463709
      ],
      [
        "à¸´à¸Ľ",
        -10.345270482178403
      ],
      [
        "ÙĬØ§Ø¡",
        -10.345655289165542
      ],
      [
        "Ġkey",
        -10.347293697585972
      ],
      [
        "ĠÙģÙĤØ§ÙĦ",
        -10.347553000471184
      ],
      [
        "à¸µà¸Ħ",
        -10.347637434091643
      ],
      [
        "Ø¯Ø±Ø¬Ø©",
        -10.34776257300424
      ],
      [
        "ĠØ¯",
        -10.348100165836508
      ],
      [
        "Ġweek",
        -10.348157981875511
      ],
      [
        "ĠdiÄŁer",
        -10.348549117569632
      ],
      [
        "Ġz",
        -10.348968936417975
      ],
      [
        "enda",
        -10.349425822744887
      ],
      [
        "¹Ī",
        -10.350788165260408
      ],
      [
        "wana",
        -10.351208892925747
      ],
      [
        "Ø¨Ø¹Ø¶",
        -10.351229373614506
      ],
      [
        "âĢĻai",
        -10.351858672669788
      ],
      [
        "Ġdevam",
        -10.351943788828152
      ],
      [
        "Ġmwana",
        -10.35230552755724
      ],
      [
        "Ġsecond",
        -10.352402558018373
      ],
      [
        "Ġà¸ģà¸¥",
        -10.352456164747636
      ],
      [
        "yetu",
        -10.353422026168955
      ],
      [
        "à¸µà¸£",
        -10.35350971820915
      ],
      [
        "ĠÐŁ",
        -10.353732489904298
      ],
      [
        "ĠÐ»ÑİÐ±",
        -10.354091447539773
      ],
      [
        "ĠÑĩÐµÑĢÐµÐ",
        -10.3544225615451
      ],
      [
        "ĠÙĨØ³Ø¨",
        -10.354424943100309
      ],
      [
        "Ġà°ķà°¥",
        -10.35443882238295
      ],
      [
        "Ø§ÙĦØ§Ø¬ØªÙħØ§Ø¹",
        -10.354672025715058
      ],
      [
        "heria",
        -10.35535573284922
      ],
      [
        "ØªÙĬ",
        -10.355384385388575
      ],
      [
        "ĠTrip",
        -10.355728803340664
      ],
      [
        "à¸¨à¸²à¸ªà¸ķà¸£",
        -10.356321478576552
      ],
      [
        "Ø§ÙĦØ·ÙģÙĦ",
        -10.356469725386177
      ],
      [
        "ins",
        -10.356800851590991
      ],
      [
        "à¹Īà¸§à¸ĩ",
        -10.356814093652456
      ],
      [
        "ÙĨØªÙĬØ¬Ø©",
        -10.3574193335457
      ],
      [
        "à¹Īà¸²à¸ª",
        -10.357739139737763
      ],
      [
        "à¥įà¤¶",
        -10.357849076565431
      ],
      [
        "Ġja",
        -10.357936308759085
      ],
      [
        "ll",
        -10.3580623009117
      ],
      [
        "Ġà¤¶à¤¹à¤",
        -10.358754892691712
      ],
      [
        "ici",
        -10.359242057740236
      ],
      [
        "à°ļà°¨",
        -10.35947503684752
      ],
      [
        "ĠÙĪØ§",
        -10.360577129513429
      ],
      [
        "å°į",
        -10.360901547062818
      ],
      [
        "be",
        -10.360935189131515
      ],
      [
        "ĠØµÙĪØ±",
        -10.361027744963124
      ],
      [
        "ĠHer",
        -10.361375062907282
      ],
      [
        ":||",
        -10.361715729123905
      ],
      [
        "ØªÙī",
        -10.36223665229242
      ],
      [
        "à°¾à°Łà°²",
        -10.36311783908648
      ],
      [
        "husika",
        -10.36381130023767
      ],
      [
        ",âĢĿ",
        -10.364504721711867
      ],
      [
        "à±Ģà°ķà°°",
        -10.3647954276716
      ],
      [
        "Ġà¤īà¤¦",
        -10.365141622717523
      ],
      [
        "ĠÙĪÙĦÙĬØ³",
        -10.366660593835013
      ],
      [
        "take",
        -10.366884415114445
      ],
      [
        "ĠÙĨØŃÙĪ",
        -10.36718608033824
      ],
      [
        "hapo",
        -10.367195499079706
      ],
      [
        "à¹Īà¸Ĺ",
        -10.367894422602296
      ],
      [
        "tokea",
        -10.367911542941226
      ],
      [
        "Ġwala",
        -10.368874077255516
      ],
      [
        "Ġà°ħà°µà°¸à°°",
        -10.369363021519243
      ],
      [
        "Ġkuhus",
        -10.369579066818414
      ],
      [
        "æľĥ",
        -10.369843140768063
      ],
      [
        "Ġbas",
        -10.370407969347902
      ],
      [
        "Ø§Ø¨ÙĨØ§Ø¡",
        -10.370508947564488
      ],
      [
        "as",
        -10.37070821029916
      ],
      [
        "Ġta",
        -10.37075288949128
      ],
      [
        "à°¿à°¹",
        -10.37103765325786
      ],
      [
        "ĠÐ»ÑİÐ´",
        -10.371526289530053
      ],
      [
        "tatizo",
        -10.371627383933774
      ],
      [
        "à¸Ńà¸Ķ",
        -10.372243841498731
      ],
      [
        "ĠÙĦÙĨ",
        -10.372244858155575
      ],
      [
        "Ġhim",
        -10.372519315344068
      ],
      [
        "Ġà¤ħà¤",
        -10.372631859141002
      ],
      [
        "æĸ°",
        -10.372632810328843
      ],
      [
        "à¹Ģà¸īà¸ŀà¸²à¸°",
        -10.373695245723605
      ],
      [
        "Ġpersonne",
        -10.374441354884167
      ],
      [
        "à¸Ńà¸§",
        -10.37468873748039
      ],
      [
        "tant",
        -10.375132501744574
      ],
      [
        "à°ķà°Ł",
        -10.375709720637342
      ],
      [
        "Ø¹Ø¯ÙĦ",
        -10.375720484389412
      ],
      [
        "ĠØŃÙĤ",
        -10.37584662768608
      ],
      [
        "à¸Ļà¸ģ",
        -10.375850738062445
      ],
      [
        "vu",
        -10.376050684800472
      ],
      [
        "ĠØ£ÙĩÙĦ",
        -10.376088818888906
      ],
      [
        "à±Ĩà°Ĺ",
        -10.377057418462837
      ],
      [
        "az",
        -10.377212721373432
      ],
      [
        "à¤®à¤¤",
        -10.377222136031182
      ],
      [
        "à¸¸à¸Ĥ",
        -10.37779282897682
      ],
      [
        "ħ",
        -10.377877471880856
      ],
      [
        "tatu",
        -10.377998231317536
      ],
      [
        "Ð½ÑĥÑİ",
        -10.37857544223451
      ],
      [
        "page",
        -10.379731834709826
      ],
      [
        "ĠÙħØ¹ÙĬÙĨ",
        -10.38025098433925
      ],
      [
        "ÙħÙĨØ·ÙĤØ©",
        -10.380349676858714
      ],
      [
        "åıĪ",
        -10.380843211184557
      ],
      [
        "à¸±à¸¡à¸ŀ",
        -10.381017956204802
      ],
      [
        "computer",
        -10.381159066965845
      ],
      [
        "Ġstate",
        -10.381182142962311
      ],
      [
        "à¹ĩà¸Ļà¸ľ",
        -10.38127163782163
      ],
      [
        "lerin",
        -10.382123636608709
      ],
      [
        "Ġmany",
        -10.382693384325751
      ],
      [
        "ÙİØ¯",
        -10.383417252908558
      ],
      [
        "à±įà°£à°¯",
        -10.38404030828831
      ],
      [
        "ĠÙĩØ",
        -10.384221226929313
      ],
      [
        "à¹ĩà¸Ļà¸ģà¸²à¸£",
        -10.384899417046784
      ],
      [
        "ĠÐºÐ°Ð¶Ð´",
        -10.386003156031762
      ],
      [
        "ĠØ§ÙĦØŃÙĤÙĬÙĤ",
        -10.386381836577192
      ],
      [
        "Ġchange",
        -10.387000517760669
      ],
      [
        "½",
        -10.38762676601548
      ],
      [
        "å¤ļ",
        -10.389142531807584
      ],
      [
        "Ð½Ð¸Ñİ",
        -10.389724431276246
      ],
      [
        "à°¸à°°",
        -10.391369935649166
      ],
      [
        "Ġmfan",
        -10.391548194147408
      ],
      [
        "à¸ªà¸¡",
        -10.391997292979624
      ],
      [
        "Ø°Ø§",
        -10.392263323958396
      ],
      [
        "sine",
        -10.393788517189464
      ],
      [
        "pande",
        -10.394573624060532
      ],
      [
        "Ġhere",
        -10.394616873276725
      ],
      [
        "kupata",
        -10.39470320540524
      ],
      [
        "à¸±à¸ļà¸Ĺ",
        -10.395993722947324
      ],
      [
        "Ġà¤¸à¤¬",
        -10.3966037188079
      ],
      [
        "à¹ģà¸ªà¸Ķà¸ĩ",
        -10.39722185559869
      ],
      [
        "ĠØ¯ÙĪØ±",
        -10.39723930309719
      ],
      [
        "ĠØ±Ø³ÙĪÙĦ",
        -10.397341380033884
      ],
      [
        "ĠÐ²ÑĢÐµÐ¼ÐµÐ½Ð",
        -10.39755165894828
      ],
      [
        "naweza",
        -10.397848269820184
      ],
      [
        "yingi",
        -10.398212241959229
      ],
      [
        "Ġnyu",
        -10.398538133178098
      ],
      [
        "Ġpublic",
        -10.398896153216455
      ],
      [
        "jana",
        -10.399212211307098
      ],
      [
        "à¤Ĺà¤¤",
        -10.399226639684295
      ],
      [
        "Ġwaki",
        -10.400468321183808
      ],
      [
        "su",
        -10.400682918771494
      ],
      [
        "Ġà°Ĩà°¶",
        -10.401185826827106
      ],
      [
        "Ġlast",
        -10.401439288229556
      ],
      [
        "Ø±ÙĤÙħ",
        -10.401878039380671
      ],
      [
        "ÙĪÙĤØ¯",
        -10.401894600117252
      ],
      [
        "ØŃØ©",
        -10.402120325626743
      ],
      [
        "ĠÐ´Ð°",
        -10.403023839338772
      ],
      [
        "Ġshould",
        -10.403679014230658
      ],
      [
        "Ø£ÙĥØ¨Ø±",
        -10.404098349474255
      ],
      [
        "à¹Īà¸²à¸Ĺ",
        -10.40424503456551
      ],
      [
        "à¸«à¸¡à¸²à¸¢",
        -10.405722443118904
      ],
      [
        "bali",
        -10.407209650851929
      ],
      [
        "à¤Ĥà¤ª",
        -10.407574739369586
      ],
      [
        "ĠSe",
        -10.407750348294574
      ],
      [
        "à°Ĩ",
        -10.408124731862614
      ],
      [
        "Ġà¤Ĩà¤¦",
        -10.410278388879014
      ],
      [
        "aendele",
        -10.412305913846147
      ],
      [
        "ĠÐ±Ð¾Ð»ÑĮÑĪ",
        -10.41255416385483
      ],
      [
        "à¥ĭà¤§",
        -10.412585453922157
      ],
      [
        "à¸±à¸ĩà¸Ħà¸¡",
        -10.412723377248623
      ],
      [
        "ĠHa",
        -10.413074298786778
      ],
      [
        "):",
        -10.413203295705031
      ],
      [
        "ĠÐ½ÐµÑĤ",
        -10.413330726544086
      ],
      [
        "à¸µà¸¡",
        -10.413886512424847
      ],
      [
        "Ø¬ÙħÙĬØ¹",
        -10.414040942136223
      ],
      [
        "Ä±nÄ±",
        -10.41443274656987
      ],
      [
        "à¸Īà¸°à¸¡",
        -10.414772698542087
      ],
      [
        "Ø·Ø±ÙĬÙĤØ©",
        -10.416219636127703
      ],
      [
        "ward",
        -10.416323626567548
      ],
      [
        "à°ļà°°",
        -10.4165451202511
      ],
      [
        "if",
        -10.417054336302742
      ],
      [
        "à¸±à¸ģà¸©à¸ĵà¸°",
        -10.417143638825465
      ],
      [
        "Ø«ÙĦØ§Ø«Ø©",
        -10.41721399554819
      ],
      [
        "Ð¾Ðº",
        -10.417581127524162
      ],
      [
        "ĠØŁ",
        -10.4177846222306
      ],
      [
        "ĠÐ²Ð¾Ð¿ÑĢÐ¾Ñģ",
        -10.417935159647026
      ],
      [
        "ÙĪØ²Ø§Ø±Ø©",
        -10.418473833300457
      ],
      [
        "ĠÑģÑĤÐ°ÑĤÑĮ",
        -10.418927628738178
      ],
      [
        "!!Ċ",
        -10.419452089892244
      ],
      [
        "Ġhuku",
        -10.419468045513288
      ],
      [
        "line",
        -10.41951961558472
      ],
      [
        "lerde",
        -10.419821168029683
      ],
      [
        "?âĢĿ",
        -10.420129781370772
      ],
      [
        "ĠAfrika",
        -10.420439931074776
      ],
      [
        "à°¿à°³",
        -10.420550496090636
      ],
      [
        "à¤¸à¤°",
        -10.421598545971118
      ],
      [
        "à¥Īà¤²",
        -10.421621907873238
      ],
      [
        "à°¡à°¬",
        -10.421954577985248
      ],
      [
        "We",
        -10.422063674094478
      ],
      [
        "Wa",
        -10.422083876105855
      ],
      [
        "ina",
        -10.422171872628889
      ],
      [
        "Ġam",
        -10.42241102500561
      ],
      [
        "ĠØ§ÙĦØ®Ø§Øµ",
        -10.422824103083611
      ],
      [
        "à°¾à°°à°®",
        -10.422972967711225
      ],
      [
        "ĠØ§ÙĦØ´ÙĬØ®",
        -10.423135422500842
      ],
      [
        "iz",
        -10.42361623576585
      ],
      [
        "net",
        -10.424349353150422
      ],
      [
        "halisi",
        -10.42554794570182
      ],
      [
        "ĠØ§ÙĦØ¹Ø¯ÙĬØ¯",
        -10.425629268296191
      ],
      [
        "à¤Ĥà¤ľ",
        -10.425679157641056
      ],
      [
        "ÙĪÙħÙĨ",
        -10.426278170183927
      ],
      [
        "Ġgrand",
        -10.42629141628818
      ],
      [
        "½Ð¾ÑģÑĤÐ¸",
        -10.426441750810833
      ],
      [
        "ĠØ¨ÙĥÙĦ",
        -10.42667544762934
      ],
      [
        "nombre",
        -10.42701153370562
      ],
      [
        "ure",
        -10.427188011537922
      ],
      [
        "ÙĩÙĦ",
        -10.427281541874745
      ],
      [
        "ĠÐ¼ÐµÐ¶Ð´Ñĥ",
        -10.427327284698409
      ],
      [
        "Ð½ÑĭÐ¼",
        -10.427457049329204
      ],
      [
        "à¤Ĥà¤Ł",
        -10.427494714855484
      ],
      [
        "ÐºÑĥ",
        -10.427769603439016
      ],
      [
        "ces",
        -10.428091040219345
      ],
      [
        "jeshi",
        -10.42835530340264
      ],
      [
        "ĠYou",
        -10.428499294291242
      ],
      [
        "éģĵ",
        -10.42893858861391
      ],
      [
        "Ġvie",
        -10.429024048927136
      ],
      [
        "Ġvideo",
        -10.429472675547103
      ],
      [
        "email",
        -10.429778676479147
      ],
      [
        "Ġcompte",
        -10.430188043630976
      ],
      [
        "à¹ĩà¸Ļà¸§",
        -10.431099817728608
      ],
      [
        "à¹Ħà¸Ĺà¸¢",
        -10.431615884071526
      ],
      [
        "HP",
        -10.431720166279415
      ],
      [
        "tur",
        -10.432057643811746
      ],
      [
        "tÃ©",
        -10.43307598700492
      ],
      [
        "à±įà°¤à°µ",
        -10.434459482949876
      ],
      [
        "elles",
        -10.434839797194863
      ],
      [
        "ĠØ§ÙĦÙĤØ±ÙĨ",
        -10.435234680416674
      ],
      [
        "ĠSo",
        -10.435239375064317
      ],
      [
        "Ġsahip",
        -10.436092102694625
      ],
      [
        "ĠÙĦÙĥ",
        -10.436439411893096
      ],
      [
        "ries",
        -10.43670803193941
      ],
      [
        "ºÐ¸",
        -10.436861363086289
      ],
      [
        "à¸ĩà¸Ħ",
        -10.43734718326536
      ],
      [
        "Ø£ØŃÙħØ¯",
        -10.437590482913157
      ],
      [
        "à¸µà¸¥",
        -10.437960951409348
      ],
      [
        "ÑĩÐµÐ³Ð¾",
        -10.4382299408506
      ],
      [
        "à¸·à¸Ńà¸§",
        -10.438933410541416
      ],
      [
        "ĠØ§ÙĦÙĪØ§ÙĤØ¹",
        -10.43894252885883
      ],
      [
        "ĠÙĦØ§ÙĨ",
        -10.439153243173816
      ],
      [
        "à±įà°°à°²",
        -10.439701931667988
      ],
      [
        "à¸±à¸ļà¸ľ",
        -10.439978962833202
      ],
      [
        "ÐµÐ²",
        -10.441090187227038
      ],
      [
        "µÐ½Ð¸Ðµ",
        -10.44137619658006
      ],
      [
        "Ġgame",
        -10.441531243746038
      ],
      [
        "Ð¯",
        -10.442186357069746
      ],
      [
        "akati",
        -10.442298340072346
      ],
      [
        "ĠAM",
        -10.442318127289258
      ],
      [
        "id",
        -10.442440371424896
      ],
      [
        "ĠØ´",
        -10.442732809176093
      ],
      [
        "ï¼ŁâĢĿ",
        -10.443514025776242
      ],
      [
        "eno",
        -10.443561405166534
      ],
      [
        "à±ĩà°¦à°¨",
        -10.443658889827026
      ],
      [
        "ØµØ¨Ø±",
        -10.444348521210417
      ],
      [
        "ĠØ§ÙĦÙĪØ·ÙĨÙĬ",
        -10.444843251160911
      ],
      [
        "¢à¸Ĭà¸Ļ",
        -10.444885379165704
      ],
      [
        "ÙħØ¹ÙĨÙī",
        -10.445352078721305
      ],
      [
        "Ð¾Ð²Ð°Ð½Ð¸Ðµ",
        -10.44536323306296
      ],
      [
        "à¸µà¸ŀ",
        -10.445578924306284
      ],
      [
        "ĠÐŁÑĢÐ¸",
        -10.44625657223942
      ],
      [
        "æĪĳä»¬",
        -10.44631611880455
      ],
      [
        "à°ľà°°",
        -10.44640405097983
      ],
      [
        "nouvelle",
        -10.446422709152497
      ],
      [
        "å®¶",
        -10.446564898719483
      ],
      [
        "Ġà¤īà¤",
        -10.44671790504576
      ],
      [
        "tofauti",
        -10.44674461698331
      ],
      [
        "à¸¹à¸ģà¸Ħ",
        -10.447184357386613
      ],
      [
        "ÑĩÐ°Ñģ",
        -10.447203674252904
      ],
      [
        ".\"",
        -10.44803884121984
      ],
      [
        "jua",
        -10.44813687853614
      ],
      [
        "karibu",
        -10.448183240711945
      ],
      [
        "à¤®à¤°",
        -10.44863792389082
      ],
      [
        "ÙĦÙĤØ¯",
        -10.449065971458452
      ],
      [
        "à¥ĭà¤ľ",
        -10.4491015258279
      ],
      [
        "à¹ĵ",
        -10.44945001469178
      ],
      [
        "à°ļà°Ł",
        -10.450032342059869
      ],
      [
        "ors",
        -10.450559068333916
      ],
      [
        "èĩªå·±",
        -10.450825373282427
      ],
      [
        "à¹Įà¸ģ",
        -10.451666026847446
      ],
      [
        "Ġà°Ĵà°",
        -10.452368048044647
      ],
      [
        "bora",
        -10.4525597064156
      ],
      [
        "yan",
        -10.452651816061806
      ],
      [
        "ä»İ",
        -10.452766808200575
      ],
      [
        "à¹īà¸²à¸§",
        -10.453343733876633
      ],
      [
        "ĠØ§ÙĦØ·Ø¨",
        -10.45395715001106
      ],
      [
        "ĠÑģÑĤÐ¾ÑĢÐ¾Ð½",
        -10.454807969590645
      ],
      [
        "Ġzina",
        -10.454825490913787
      ],
      [
        "inin",
        -10.454872388087026
      ],
      [
        "à¸¡à¸Ļ",
        -10.454975679304976
      ],
      [
        "à¸³à¸«à¸Ļ",
        -10.455134812871282
      ],
      [
        "à¥Īà¤ķ",
        -10.455621495190671
      ],
      [
        "Ġà¹Ģà¸£",
        -10.456418892619237
      ],
      [
        "Ð§ÑĤÐ¾",
        -10.457380488992955
      ],
      [
        "ĠÑģÐ¿Ð¾ÑģÐ¾Ð±",
        -10.45742813532545
      ],
      [
        "å¾ŀ",
        -10.457877070245344
      ],
      [
        "ĠØ£ÙģØ¶ÙĦ",
        -10.458170190435784
      ],
      [
        "Ġmis",
        -10.45829556006596
      ],
      [
        "Ġhome",
        -10.45841592638524
      ],
      [
        "Ġmal",
        -10.458597291177982
      ],
      [
        "à¸µà¸",
        -10.458981252432649
      ],
      [
        "Ġpost",
        -10.459067953613696
      ],
      [
        "ful",
        -10.46119808240078
      ],
      [
        "ÐľÑĭ",
        -10.461215573412527
      ],
      [
        "à¹īà¹ģà¸ģ",
        -10.461275227788272
      ],
      [
        "ÙİØ§ÙĦ",
        -10.461986370698265
      ],
      [
        "ĠÐ³Ð¾Ð´",
        -10.462234574685104
      ],
      [
        "à°ļà°ķ",
        -10.462330421400369
      ],
      [
        "Ĵ",
        -10.462646652079428
      ],
      [
        "ĠÄ°",
        -10.46276029614746
      ],
      [
        "à¸ĩà¸ª",
        -10.463435295496058
      ],
      [
        "ĠØ¬Ø§ÙħØ¹",
        -10.463906900566135
      ],
      [
        "ĠÅŁey",
        -10.464884641973434
      ],
      [
        "à¸¸à¸£à¸ģ",
        -10.464898414176728
      ],
      [
        "à°¿à°£",
        -10.46509964401446
      ],
      [
        "while",
        -10.465586561777004
      ],
      [
        "à°¯à°¨",
        -10.46630601133896
      ],
      [
        "Ġgelen",
        -10.466425103795704
      ],
      [
        "à¸±à¸ļà¸ª",
        -10.466508298341198
      ],
      [
        "arekani",
        -10.466562850167302
      ],
      [
        "ĠSu",
        -10.466647384791283
      ],
      [
        "Ġfin",
        -10.466775723606602
      ],
      [
        "Ø³ÙĪÙģ",
        -10.46755960468986
      ],
      [
        "ĠØ§ÙĦÙħÙĦÙĥ",
        -10.467713217992603
      ],
      [
        "ĠÐ±Ð¾Ð»ÑĮÑĪÐµ",
        -10.46773163401792
      ],
      [
        "Ø§ÙĦØ¥Ø³ÙĦØ§ÙħÙĬ",
        -10.46781032483403
      ],
      [
        "à°£",
        -10.467893738231254
      ],
      [
        "ĠAd",
        -10.467937958539055
      ],
      [
        "going",
        -10.4680021042575
      ],
      [
        "à¥įà¤·à¤",
        -10.46818675564337
      ],
      [
        "ĠÑģÐ»ÑĥÑĩÐ°Ðµ",
        -10.46933843764629
      ],
      [
        "à¸±à¸įà¸įà¸²",
        -10.469603175582543
      ],
      [
        "à¹Įà¸Ļ",
        -10.469631617717068
      ],
      [
        "ĠWi",
        -10.46991696664951
      ],
      [
        "che",
        -10.470050657154635
      ],
      [
        "ĠÙĪØ¬Ùĩ",
        -10.470075948330376
      ],
      [
        "äºİ",
        -10.470595097633732
      ],
      [
        "Ġtop",
        -10.470663940835877
      ],
      [
        "hammad",
        -10.470693688462688
      ],
      [
        "Ġà°ļà°¦",
        -10.47145746908012
      ],
      [
        "ri",
        -10.471568666582236
      ],
      [
        "lement",
        -10.471622815180266
      ],
      [
        "à¸±à¸Ĺ",
        -10.472266167277798
      ],
      [
        "<",
        -10.47258120257484
      ],
      [
        "Ġbulunan",
        -10.47293475505587
      ],
      [
        "hose",
        -10.473270535319024
      ],
      [
        "ĠØ§ÙĦØªØ§ÙĦÙĬ",
        -10.473437447708694
      ],
      [
        "Ġbilgi",
        -10.473998949482766
      ],
      [
        "ÑıÑħ",
        -10.474043802873457
      ],
      [
        "åı¯",
        -10.474052465565896
      ],
      [
        "à¸ģà¸£à¸ĵ",
        -10.475148393868572
      ],
      [
        "ĠÙħØ³ØªÙĪÙ",
        -10.475154027869056
      ],
      [
        "à¸±à¸Ĵà¸Ļ",
        -10.475553385394104
      ],
      [
        "å¥¹",
        -10.475886841018294
      ],
      [
        "Ø£Ø·ÙģØ§ÙĦ",
        -10.475997331736298
      ],
      [
        "res",
        -10.476101016515493
      ],
      [
        "ĠÙħØµØ±",
        -10.476608140376316
      ],
      [
        "jeune",
        -10.476766673024148
      ],
      [
        "andishi",
        -10.476824900081592
      ],
      [
        "ÐĲ",
        -10.47775698627221
      ],
      [
        ".S",
        -10.478296511261318
      ],
      [
        "Ġà°ķà°¦",
        -10.479183519563591
      ],
      [
        "à°¸à°Ń",
        -10.480465186255229
      ],
      [
        "éĩĮ",
        -10.480652040612688
      ],
      [
        "tter",
        -10.48077078555335
      ],
      [
        "the",
        -10.481124909381744
      ],
      [
        "Ġwanao",
        -10.48123696241586
      ],
      [
        "Ã§ok",
        -10.481314204507456
      ],
      [
        "own",
        -10.481403761266655
      ],
      [
        "ĠØ§ÙĦÙħÙĪØ¶ÙĪØ¹",
        -10.481464085596286
      ],
      [
        "ĠÐ¿Ð¾Ð»",
        -10.481850912683388
      ],
      [
        "èĢħ",
        -10.482088486484596
      ],
      [
        "ĠShe",
        -10.482154493403137
      ],
      [
        "Ġright",
        -10.48245148573719
      ],
      [
        "é«ĺ",
        -10.483222758613106
      ],
      [
        "Ø§ÙĦØ¹ÙĦÙħØ§Ø¡",
        -10.48329592595198
      ],
      [
        "à¹ĳ",
        -10.484456106371308
      ],
      [
        "Ġeder",
        -10.484500485026029
      ],
      [
        "à¥įà¤ł",
        -10.485748679143056
      ],
      [
        "ĠØ§ÙĦÙĥÙĪÙĨ",
        -10.485885037902584
      ],
      [
        "à¸¸à¹",
        -10.486153893416429
      ],
      [
        "è¿ĩ",
        -10.48627528906879
      ],
      [
        "ĠÙĥÙĬÙģ",
        -10.487038543096034
      ],
      [
        "ĠØ³ÙĪØ§Ø",
        -10.487082058300796
      ],
      [
        "ĠÑģÑĤÑĢÐ°Ð½",
        -10.487413343196495
      ],
      [
        "---",
        -10.487515584157444
      ],
      [
        "Ð½Ð¸Ðµ",
        -10.487555878946516
      ],
      [
        "Ġprovide",
        -10.487639063542456
      ],
      [
        "world",
        -10.4882815850894
      ],
      [
        "æ¯Ķ",
        -10.488670780799248
      ],
      [
        "à¸Ļà¸ķ",
        -10.488984158292496
      ],
      [
        "ĠØ¨Ø¯",
        -10.489990656454603
      ],
      [
        "à¹ĩà¸§",
        -10.490265239115732
      ],
      [
        "Ġfinal",
        -10.490457095709266
      ],
      [
        "Ġbon",
        -10.490576490394844
      ],
      [
        "ĠkiÅŁi",
        -10.4909247384846
      ],
      [
        "à°®à°¯",
        -10.490946122781851
      ],
      [
        "ĠÑħÐ¾ÑĤ",
        -10.491242817465746
      ],
      [
        "à°¿à°¨à°µ",
        -10.49159489836281
      ],
      [
        "à¥įà¤Łà¤°",
        -10.49207347822058
      ],
      [
        "ais",
        -10.49231548854032
      ],
      [
        "à°ľà°®",
        -10.492818543045365
      ],
      [
        "Ġnos",
        -10.49316723367278
      ],
      [
        "ĠØ§ÙĦØ£Ø±Ø¶",
        -10.493484540785042
      ],
      [
        "ÙĤÙĪÙĦÙĩ",
        -10.493914008950174
      ],
      [
        "ĠØ§ÙĦØ¬ÙĨ",
        -10.493962019412294
      ],
      [
        "mes",
        -10.494422928398174
      ],
      [
        "droit",
[...]
