{
  "version": "1.0",
  "truncation": null,
  "padding": null,
  "added_tokens": [
    {
      "id": 0,
      "content": "<|bos|>",
      "single_word": false,
      "lstrip": false,
      "rstrip": false,
      "normalized": false,
      "special": true
    },
    {
      "id": 1,
      "content": "<|user_start|>",
      "single_word": false,
      "lstrip": false,
      "rstrip": false,
      "normalized": false,
      "special": true
    },
    {
      "id": 2,
      "content": "<|user_end|>",
      "single_word": false,
      "lstrip": false,
      "rstrip": false,
      "normalized": false,
      "special": true
    },
    {
      "id": 3,
      "content": "<|assistant_start|>",
      "single_word": false,
      "lstrip": false,
      "rstrip": false,
      "normalized": false,
      "special": true
    },
    {
      "id": 4,
      "content": "<|assistant_end|>",
      "single_word": false,
      "lstrip": false,
      "rstrip": false,
      "normalized": false,
      "special": true
    },
    {
      "id": 5,
      "content": "<|python_start|>",
      "single_word": false,
      "lstrip": false,
      "rstrip": false,
      "normalized": false,
      "special": true
    },
    {
      "id": 6,
      "content": "<|python_end|>",
      "single_word": false,
      "lstrip": false,
      "rstrip": false,
      "normalized": false,
      "special": true
    },
    {
      "id": 7,
      "content": "<|output_start|>",
      "single_word": false,
      "lstrip": false,
      "rstrip": false,
      "normalized": false,
      "special": true
    },
    {
      "id": 8,
      "content": "<|output_end|>",
      "single_word": false,
      "lstrip": false,
      "rstrip": false,
      "normalized": false,
      "special": true
    },
    {
      "id": 9,
      "content": "<|unk|>",
      "single_word": false,
      "lstrip": false,
      "rstrip": false,
      "normalized": false,
      "special": true
    }
  ],
  "normalizer": null,
  "pre_tokenizer": {
    "type": "Sequence",
    "pretokenizers": [
      {
        "type": "Split",
        "pattern": {
          "Regex": "'(?i:[sdmt]|ll|ve|re)|[^\\r\\n\\p{L}\\p{N}]?+\\p{L}+|\\p{N}{1,2}| ?[^\\s\\p{L}\\p{N}]++[\\r\\n]*|\\s*[\\r\\n]|\\s+(?!\\S)|\\s+"
        },
        "behavior": "Isolated",
        "invert": false
      },
      {
        "type": "ByteLevel",
        "add_prefix_space": false,
        "trim_offsets": true,
        "use_regex": false
      }
    ]
  },
  "post_processor": {
    "type": "TemplateProcessing",
    "single": [
      {
        "Sequence": {
          "id": "A",
          "type_id": 0
        }
      }
    ],
    "pair": [
      {
        "Sequence": {
          "id": "A",
          "type_id": 0
        }
      },
      {
        "Sequence": {
          "id": "B",
          "type_id": 1
        }
      }
    ],
    "special_tokens": {}
  },
  "decoder": null,
  "model": {
    "type": "Unigram",
    "unk_id": 9,
    "vocab": [
      [
        "<|bos|>",
        0.0
      ],
      [
        "<|user_start|>",
        0.0
      ],
      [
        "<|user_end|>",
        0.0
      ],
      [
        "<|assistant_start|>",
        0.0
      ],
      [
        "<|assistant_end|>",
        0.0
      ],
      [
        "<|python_start|>",
        0.0
      ],
      [
        "<|python_end|>",
        0.0
      ],
      [
        "<|output_start|>",
        0.0
      ],
      [
        "<|output_end|>",
        0.0
      ],
      [
        "<|unk|>",
        0.0
      ],
      [
        "s",
        -3.031077024114129
      ],
      [
        "Ġthe",
        -3.3813624918924337
      ],
      [
        ",",
        -3.4538913908636655
      ],
      [
        "Ġ",
        -3.521236909867204
      ],
      [
        ".",
        -3.716971063973439
      ],
      [
        "Ġand",
        -3.945341593952344
      ],
      [
        "Ġof",
        -3.9640493418250498
      ],
      [
        "Ġto",
        -4.001539430287613
      ],
      [
        "Ġa",
        -4.206021129759799
      ],
      [
        "ing",
        -4.3278361540066665
      ],
      [
        "Ġin",
        -4.484624470691861
      ],
      [
        "Ġis",
        -4.627119515107186
      ],
      [
        "d",
        -4.662829861181077
      ],
      [
        "y",
        -4.8559839554784805
      ],
      [
        "0",
        -4.929151185756892
      ],
      [
        "ed",
        -4.936860228923242
      ],
      [
        "'",
        -4.9440779183276575
      ],
      [
        "Ġthat",
        -5.042806890637278
      ],
      [
        "Ġfor",
        -5.045402685626829
      ],
      [
        "1",
        -5.078430177449787
      ],
      [
        "ly",
        -5.111741968895528
      ],
      [
        ":",
        -5.1925636781303055
      ],
      [
        "Ċ",
        -5.203804503510161
      ],
      [
        "e",
        -5.208867295890087
      ],
      [
        "2",
        -5.268552500667333
      ],
      [
        "Ġare",
        -5.2761290713998825
      ],
      [
        ".Ċ",
        -5.328810391511796
      ],
      [
        "Ġbe",
        -5.339173055279341
      ],
      [
        "Ġit",
        -5.347425745497992
      ],
      [
        "Ġwith",
        -5.354138551360034
      ],
      [
        "Ġyou",
        -5.364139596014464
      ],
      [
        ".ĊĊ",
        -5.369386112808785
      ],
      [
        "t",
        -5.433346299849706
      ],
      [
        "Ġon",
        -5.527520771807996
      ],
      [
        "Ġcan",
        -5.537200309475661
      ],
      [
        "Ġor",
        -5.547683465396856
      ],
      [
        "-",
        -5.628608043449404
      ],
      [
        "Ġas",
        -5.639962565218999
      ],
      [
        "ĊĊ",
        -5.660258602825653
      ],
      [
        "Ġ(",
        -5.7673877853605635
      ],
      [
        "Ġyour",
        -5.786183601405609
      ],
      [
        "ĠThe",
        -5.841700078236647
      ],
      [
        "\"",
        -5.842841672089204
      ],
      [
        "Ġfrom",
        -5.881576884283552
      ],
      [
        "Ġhave",
        -5.897360701654401
      ],
      [
        "a",
        -5.914321272590591
      ],
      [
        "Ġby",
        -5.929948166319832
      ],
      [
        "3",
        -5.933055307160785
      ],
      [
        "?",
        -5.971567488235161
      ],
      [
        "5",
        -5.984895265478858
      ],
      [
        ")",
        -5.9887323934005146
      ],
      [
        "ĠI",
        -6.000741288053174
      ],
      [
        "Ġan",
        -6.009085151637667
      ],
      [
        "Ġthis",
        -6.052472173546031
      ],
      [
        "Ġat",
        -6.149263547027399
      ],
      [
        "Ġnot",
        -6.151796050201408
      ],
      [
        "4",
        -6.193666608665968
      ],
      [
        "Ġtheir",
        -6.238982848807529
      ],
      [
        "Ġwill",
        -6.242574714284926
      ],
      [
        "9",
        -6.254716383115641
      ],
      [
        "n",
        -6.288397018193049
      ],
      [
        "Ġwas",
        -6.2966054311263235
      ],
      [
        "Ġmore",
        -6.36016445121715
      ],
      [
        "r",
        -6.36701565361926
      ],
      [
        "Ġthey",
        -6.383016051572019
      ],
      [
        "The",
        -6.385523402473442
      ],
      [
        "6",
        -6.398363100816768
      ],
      [
        "8",
        -6.406169135451501
      ],
      [
        "on",
        -6.459317449736615
      ],
      [
        "Ġwhich",
        -6.475843050337799
      ],
      [
        "Ġhas",
        -6.492765800357304
      ],
      [
        "ies",
        -6.498223597693867
      ],
      [
        "Ġbut",
        -6.521128881749277
      ],
      [
        "Ġwe",
        -6.554074665999952
      ],
      [
        "7",
        -6.564814165474608
      ],
      [
        "Ġone",
        -6.566703689191884
      ],
      [
        "Question",
        -6.571273547627163
      ],
      [
        "ĠAnswer",
        -6.591579052922119
      ],
      [
        "Ġalso",
        -6.5965273466687595
      ],
      [
        "Ġother",
        -6.663906780587496
      ],
      [
        "Ġall",
        -6.691924923540004
      ],
      [
        "Ġabout",
        -6.702341167958169
      ],
      [
        "Ġthem",
        -6.7066924321546
      ],
      [
        "ĠIt",
        -6.732509091410352
      ],
      [
        "Ġwhen",
        -6.790500331110433
      ],
      [
        "Ġinto",
        -6.8094944155677855
      ],
      [
        "Ġtime",
        -6.815534668307212
      ],
      [
        "Ġup",
        -6.834278850348964
      ],
      [
        "Ġdo",
        -6.835772120968091
      ],
      [
        "Ġsome",
        -6.846674186549869
      ],
      [
        "Ġif",
        -6.851426955702532
      ],
      [
        "ĠA",
        -6.852721069002527
      ],
      [
        "Ġhow",
        -6.854918899360378
      ],
      [
        "Ġlike",
        -6.857806581255755
      ],
      [
        "ĠThis",
        -6.863045744209609
      ],
      [
        "Ġso",
        -6.876194299992109
      ],
      [
        "ĠWhat",
        -6.904077250487354
      ],
      [
        "Ġneed",
        -6.909326456037732
      ],
      [
        "Ġuse",
        -6.909419519813813
      ],
      [
        "Ġthan",
        -6.910811936901604
      ],
      [
        "Ġout",
        -6.915396562453257
      ],
      [
        "i",
        -6.935437184712313
      ],
      [
        "Ġmay",
        -6.952523881125316
      ],
      [
        "Ġthese",
        -6.953877779632041
      ],
      [
        "Ġwater",
        -6.988789449100953
      ],
      [
        "o",
        -7.001246958193299
      ],
      [
        "Ġthere",
        -7.012298254789567
      ],
      [
        "er",
        -7.031711875920715
      ],
      [
        "m",
        -7.035313398863716
      ],
      [
        "A",
        -7.03823074107239
      ],
      [
        "Ġhelp",
        -7.043548875497628
      ],
      [
        "Ġwhat",
        -7.052343294833724
      ],
      [
        "Ġused",
        -7.053237103589872
      ],
      [
        "Ġwere",
        -7.067308977043622
      ],
      [
        "Ġmost",
        -7.090241323501303
      ],
      [
        "ĠIn",
        -7.098305312204046
      ],
      [
        "Ġmake",
        -7.102815027247637
      ],
      [
        "Ġour",
        -7.105188131664345
      ],
      [
        "Ġsuch",
        -7.106216143795129
      ],
      [
        "l",
        -7.125748813585075
      ],
      [
        "Ġpeople",
        -7.156195028348803
      ],
      [
        "Ġits",
        -7.159800092398157
      ],
      [
        "Ġget",
        -7.179774437179658
      ],
      [
        "/",
        -7.180781969800897
      ],
      [
        "Ġbeen",
        -7.181223990228933
      ],
      [
        "Ġany",
        -7.183989865518649
      ],
      [
        "Ġnew",
        -7.223362712648877
      ],
      [
        "Ġwould",
        -7.230298527467838
      ],
      [
        "cause",
        -7.24355845915135
      ],
      [
        "Ġhigh",
        -7.254175480049925
      ],
      [
        "Ġwho",
        -7.257451164029328
      ],
      [
        "al",
        -7.26429325554467
      ],
      [
        "Ġshould",
        -7.26560342271749
      ],
      [
        "re",
        -7.267229723439041
      ],
      [
        "Ġonly",
        -7.278085633909315
      ],
      [
        ";",
        -7.281912452502679
      ],
      [
        "?Ċ",
        -7.292037523058465
      ],
      [
        "able",
        -7.298405759766107
      ],
      [
        "Ġmany",
        -7.298889940159096
      ],
      [
        "Ġjust",
        -7.300777944431138
      ],
      [
        "Ġover",
        -7.307028229999744
      ],
      [
        "Ġtwo",
        -7.30751070053148
      ],
      [
        "I",
        -7.312109396581111
      ],
      [
        "Ġwork",
        -7.332881357014706
      ],
      [
        "ity",
        -7.335831023347502
      ],
      [
        "Ġfirst",
        -7.364343091957114
      ],
      [
        "Ġwell",
        -7.372680108013338
      ],
      [
        "Ġbetween",
        -7.385876666503167
      ],
      [
        "Ġthrough",
        -7.389659989906434
      ],
      [
        "Ġdifferent",
        -7.39766831699056
      ],
      [
        "Ġway",
        -7.420867387864259
      ],
      [
        "Ġmy",
        -7.441363771893483
      ],
      [
        "Ġno",
        -7.442585906946872
      ],
      [
        "Ġcould",
        -7.451354506856216
      ],
      [
        "Ġwhere",
        -7.454499642315936
      ],
      [
        "ever",
        -7.458409978079674
      ],
      [
        "Ġvery",
        -7.479846117926652
      ],
      [
        "Ġpart",
        -7.487752065790291
      ],
      [
        "Ġchange",
        -7.489394296412863
      ],
      [
        "Ġtake",
        -7.49373819546582
      ],
      [
        "Ġeven",
        -7.495730537953445
      ],
      [
        "c",
        -7.498581867312195
      ],
      [
        "Ġhis",
        -7.504861106380313
      ],
      [
        "Ġlong",
        -7.521313605985261
      ],
      [
        "ĠIf",
        -7.52451270678937
      ],
      [
        "using",
        -7.545737944370867
      ],
      [
        "ĠC",
        -7.5474099300424
      ],
      [
        "Ġhe",
        -7.552153445932939
      ],
      [
        "Ġhad",
        -7.560206146797734
      ],
      [
        "is",
        -7.5620232876986115
      ],
      [
        "Ġsystem",
        -7.562353843263075
      ],
      [
        "ĠThey",
        -7.582333896393197
      ],
      [
        "ĠHow",
        -7.584453858442925
      ],
      [
        "Ġgood",
        -7.593684118342044
      ],
      [
        "Ġeach",
        -7.59656496944243
      ],
      [
        "Ġnumber",
        -7.607778131044418
      ],
      [
        "Ġmuch",
        -7.608554019002232
      ],
      [
        "!",
        -7.623334718786156
      ],
      [
        ").",
        -7.624310770378489
      ],
      [
        "Ġhealth",
        -7.63589962193187
      ],
      [
        "Ġyears",
        -7.639066981577571
      ],
      [
        "Ġresult",
        -7.648863966554883
      ],
      [
        "Ġimportant",
        -7.651618397631749
      ],
      [
        "Ġdoes",
        -7.654414143774605
      ],
      [
        "ĠâĢĵ",
        -7.661902255280416
      ],
      [
        "In",
        -7.663308479007779
      ],
      [
        "Ġsee",
        -7.672033295322888
      ],
      [
        "Ġlarge",
        -7.676239177251095
      ],
      [
        "Ġsmall",
        -7.682252319347938
      ],
      [
        "Ġevery",
        -7.684339622294487
      ],
      [
        "Ġknow",
        -7.685283581572563
      ],
      [
        "Ġhuman",
        -7.68827754050597
      ],
      [
        "ĠYou",
        -7.688461157853351
      ],
      [
        "Ġafter",
        -7.688961282613926
      ],
      [
        "Ġwhile",
        -7.690333549103794
      ],
      [
        "Ġfood",
        -7.700068466982242
      ],
      [
        "Ġcreate",
        -7.706033962889913
      ],
      [
        "Ġdon",
        -7.713495049803922
      ],
      [
        "Ġsame",
        -7.718875531286021
      ],
      [
        "Ġenerg",
        -7.721064065268849
      ],
      [
        "Ġcause",
        -7.721285151378545
      ],
      [
        "Ġprovide",
        -7.72259085242069
      ],
      [
        "those",
        -7.72283561694006
      ],
      [
        "(",
        -7.7232578769551
      ],
      [
        "Ġlevel",
        -7.735024571911245
      ],
      [
        "Ġlight",
        -7.7423189789683615
      ],
      [
        "Ġbefore",
        -7.745257239439741
      ],
      [
        "during",
        -7.751025777072303
      ],
      [
        "Ġworld",
        -7.755563449343804
      ],
      [
        "Ġaround",
        -7.758890494331407
      ],
      [
        "ic",
        -7.770528849298007
      ],
      [
        "Ġwant",
        -7.772989556864509
      ],
      [
        "Ġthen",
        -7.776640387073939
      ],
      [
        "Ġfound",
        -7.777221836508423
      ],
      [
        "Ġdata",
        -7.785729362493519
      ],
      [
        "in",
        -7.788889950192434
      ],
      [
        "ve",
        -7.792046996487798
      ],
      [
        "Ġboth",
        -7.796111204789707
      ],
      [
        "Ġplace",
        -7.807928223939971
      ],
      [
        "Ġlife",
        -7.809797322596666
      ],
      [
        "Ġbeing",
        -7.817475508391197
      ],
      [
        "),",
        -7.818382807845902
      ],
      [
        "Ġprocess",
        -7.829649645359101
      ],
      [
        "ĠB",
        -7.8332771948055715
      ],
      [
        "Ġinclude",
        -7.841334521829867
      ],
      [
        "Ġfind",
        -7.843294258471335
      ],
      [
        "Ġbest",
        -7.844261393646183
      ],
      [
        "Ġexample",
        -7.847683725681806
      ],
      [
        "Ġincrease",
        -7.847772699246386
      ],
      [
        "Ġmade",
        -7.852468563803264
      ],
      [
        "Ġdesign",
        -7.852505526509364
      ],
      [
        "and",
        -7.856394495981791
      ],
      [
        "Ġback",
        -7.8631958697913955
      ],
      [
        "Ġright",
        -7.866274004816223
      ],
      [
        "Ġus",
        -7.866990406979675
      ],
      [
        "ness",
        -7.867240159501909
      ],
      [
        "Ġday",
        -7.8698958257171805
      ],
      [
        "Ġoften",
        -7.871262774510371
      ],
      [
        "Ġdown",
        -7.873146773216304
      ],
      [
        "h",
        -7.877577837228157
      ],
      [
        "us",
        -7.894191051928597
      ],
      [
        "What",
        -7.899912718964294
      ],
      [
        "Ġform",
        -7.900433461937205
      ],
      [
        "Ġshow",
        -7.905832866183603
      ],
      [
        "Ġgreat",
        -7.922219149798687
      ],
      [
        "Ġoff",
        -7.922512687750355
      ],
      [
        "Ġinformation",
        -7.923931333596503
      ],
      [
        "D",
        -7.931857972951939
      ],
      [
        "Ġcome",
        -7.933286682584225
      ],
      [
        "Ġyear",
        -7.936241440077381
      ],
      [
        "ĠFor",
        -7.946371620942983
      ],
      [
        "Ġspecies",
        -7.949321944119808
      ],
      [
        "Ġlook",
        -7.952760601074199
      ],
      [
        "Ġexperience",
        -7.955778195221231
      ],
      [
        "Ġstudy",
        -7.956706093168984
      ],
      [
        "Ġheat",
        -7.9567129251448
      ],
      [
        ":Ċ",
        -7.966075766259414
      ],
      [
        "Ġher",
        -7.967652677181286
      ],
      [
        "ĠThese",
        -7.976566047402003
      ],
      [
        "Ġbody",
        -7.977579040646074
      ],
      [
        "ĠWe",
        -7.982654902890497
      ],
      [
        "This",
        -7.9837060745773
      ],
      [
        "f",
        -7.985271885855829
      ],
      [
        "Ġunder",
        -7.986300801246977
      ],
      [
        "Ġtest",
        -7.988039438802251
      ],
      [
        "S",
        -7.988889446016836
      ],
      [
        "Ġpoint",
        -7.98902643353929
      ],
      [
        "C",
        -7.993180071962001
      ],
      [
        "Ġhome",
        -7.993791621565393
      ],
      [
        "Ġplant",
        -7.999098177506131
      ],
      [
        "Ġstart",
        -7.999508529869849
      ],
      [
        "Ġbetter",
        -8.008595499130262
      ],
      [
        "%",
        -8.00989271606748
      ],
      [
        "Ġmight",
        -8.010277920631907
      ],
      [
        "Ġgrow",
        -8.011286986833007
      ],
      [
        "Ġthink",
        -8.013849579699766
      ],
      [
        "How",
        -8.013890209342147
      ],
      [
        "Ġair",
        -8.014150357321002
      ],
      [
        "Ġpower",
        -8.016282162463444
      ],
      [
        "Ġdevelop",
        -8.020056022850518
      ],
      [
        "Ġfew",
        -8.02429487113761
      ],
      [
        "Ġbecome",
        -8.026673701913154
      ],
      [
        "Ġnow",
        -8.02993552289776
      ],
      [
        "Ġresearch",
        -8.030150786206555
      ],
      [
        "Ġown",
        -8.035815463485594
      ],
      [
        "Ġgo",
        -8.04321204256517
      ],
      [
        "ll",
        -8.048954655257713
      ],
      [
        "Ġinclud",
        -8.049719842355167
      ],
      [
        "p",
        -8.049884517304701
      ],
      [
        "Ġstudents",
        -8.051580627185215
      ],
      [
        "um",
        -8.056590245623507
      ],
      [
        "Ġtemperature",
        -8.059731906952099
      ],
      [
        "Ġdog",
        -8.064076655610638
      ],
      [
        "Ġcase",
        -8.066965640446176
      ],
      [
        "...",
        -8.0679336623405
      ],
      [
        "Ġstill",
        -8.068383715891612
      ],
      [
        "Ġsupport",
        -8.07771404739351
      ],
      [
        "Ġsai",
        -8.077757544916533
      ],
      [
        "Ġcontrol",
        -8.078631981227925
      ],
      [
        "Ġkeep",
        -8.078665371483504
      ],
      [
        "Ġgroup",
        -8.080054680473989
      ],
      [
        "Ġreal",
        -8.08416828447755
      ],
      [
        "ability",
        -8.084908076006702
      ],
      [
        "Ġconsider",
        -8.087723042211778
      ],
      [
        "ĠTo",
        -8.088279914208897
      ],
      [
        "u",
        -8.089821969228916
      ],
      [
        "Ġthree",
        -8.090124485154762
      ],
      [
        "Ġset",
        -8.091067010902226
      ],
      [
        "b",
        -8.096161562764223
      ],
      [
        "If",
        -8.101378774908452
      ],
      [
        "Ġplants",
        -8.105054259032315
      ],
      [
        "Ġproduct",
        -8.105334224735849
      ],
      [
        "Ġadd",
        -8.127548527284581
      ],
      [
        "ation",
        -8.128028449624779
      ],
      [
        "Ġcurrent",
        -8.132545670117139
      ],
      [
        "th",
        -8.137319791970002
      ],
      [
        "Ġtype",
        -8.139919925934855
      ],
      [
        "ĠBut",
        -8.14228973123802
      ],
      [
        "Ġme",
        -8.14374759744845
      ],
      [
        "Ġknown",
        -8.149055969166787
      ],
      [
        "Ġproduce",
        -8.150109238274133
      ],
      [
        "Ġmaking",
        -8.151141079850738
      ],
      [
        "the",
        -8.151384975885
      ],
      [
        "Ġschool",
        -8.154478595639603
      ],
      [
        "Ġissue",
        -8.15690655955942
      ],
      [
        "Ġcolor",
        -8.160755859211402
      ],
      [
        "Ġenvironment",
        -8.165677210715428
      ],
      [
        "Ġreduce",
        -8.173443435046476
      ],
      [
        "ĠAnd",
        -8.177889554547795
      ],
      [
        "Ġless",
        -8.184841110316185
      ],
      [
        "Ġend",
        -8.18634322677313
      ],
      [
        "Ġsize",
        -8.186365226660271
      ],
      [
        "Ġlow",
        -8.186745156172552
      ],
      [
        "Ġal",
        -8.19423278985062
      ],
      [
        "Ġlot",
        -8.195801692652125
      ],
      [
        "Ġmust",
        -8.200158212543627
      ],
      [
        "Ġindividual",
        -8.20043379938598
      ],
      [
        "Ġpotential",
        -8.201322996946011
      ],
      [
        "Ġcommon",
        -8.202022663532023
      ],
      [
        "It",
        -8.203170798053428
      ],
      [
        "Ġanother",
        -8.204877325045537
      ],
      [
        "Ġtoo",
        -8.205410537675613
      ],
      [
        "Ġfollowing",
        -8.208086429649999
      ],
      [
        "Ġ=",
        -8.209701228247267
      ],
      [
        "Ġoffer",
        -8.211973171511346
      ],
      [
        "ary",
        -8.219310627242923
      ],
      [
        "Ġwithin",
        -8.219344444159056
      ],
      [
        "Ġpossibl",
        -8.2204891167741
      ],
      [
        "Ġmain",
        -8.227905312855007
      ],
      [
        "Ġarea",
        -8.230758730117962
      ],
      [
        "g",
        -8.231327485872058
      ],
      [
        ",\"",
        -8.235888441686184
      ],
      [
        "Ġcar",
        -8.240236274237429
      ],
      [
        "Ġthings",
        -8.244367167261974
      ],
      [
        "Ġquestion",
        -8.245804231649224
      ],
      [
        "Ġprevent",
        -8.246275716828602
      ],
      [
        ":ĊĊ",
        -8.247857675881695
      ],
      [
        "Ġchildren",
        -8.251765362059615
      ],
      [
        "x",
        -8.252441427665241
      ],
      [
        "Ġun",
        -8.252943159911842
      ],
      [
        "ĠWhen",
        -8.258898549150958
      ],
      [
        "an",
        -8.26241539443008
      ],
      [
        "Ġspecific",
        -8.26661161385435
      ],
      [
        "Ġlearn",
        -8.268918145045523
      ],
      [
        "Ġvalue",
        -8.27065201909535
      ],
      [
        "Ġsure",
        -8.271144121816246
      ],
      [
        "Ġnatural",
        -8.273608602917648
      ],
      [
        "Ġcells",
        -8.277125521075543
      ],
      [
        "Ġdid",
        -8.278747800504508
      ],
      [
        "Ġlittle",
        -8.27959022579058
      ],
      [
        "Ġname",
        -8.28228853193313
      ],
      [
        "Ġwhy",
        -8.283585968217723
      ],
      [
        "ĠM",
        -8.285778204786727
      ],
      [
        "it",
        -8.286173817685562
      ],
      [
        "or",
        -8.29126942802607
      ],
      [
        "ĠD",
        -8.293708341419364
      ],
      [
        "Ġline",
        -8.294821102588877
      ],
      [
        "Ġdue",
        -8.295827731224511
      ],
      [
        "Ġimpact",
        -8.2963797033414
      ],
      [
        "Ġeffective",
        -8.302811885622702
      ],
      [
        "Ġper",
        -8.303685537826338
      ],
      [
        "Ġsoil",
        -8.310970504349573
      ],
      [
        "ally",
        -8.312298673413645
      ],
      [
        "ĠThere",
        -8.312705346825489
      ],
      [
        "Ġlead",
        -8.313748396036807
      ],
      [
        "Ġhere",
        -8.31397768313516
      ],
      [
        "Ġcall",
        -8.316825155435211
      ],
      [
        "Ġdevelopment",
        -8.318722298434082
      ],
      [
        "Ġlast",
        -8.329843470735806
      ],
      [
        "Ġproblem",
        -8.331715667070052
      ],
      [
        "Ġsurface",
        -8.335810241131398
      ],
      [
        "available",
        -8.338224479507243
      ],
      [
        "Ġbenefit",
        -8.338869940851422
      ],
      [
        "Ġtry",
        -8.34092927762837
      ],
      [
        "Ġplay",
        -8.341003057233792
      ],
      [
        "Ġvarious",
        -8.341398027618538
      ],
      [
        "Ġamount",
        -8.342366030425023
      ],
      [
        "Ġrange",
        -8.346178427660796
      ],
      [
        "Ġensure",
        -8.346640717236715
      ],
      [
        "Ġcomplete",
        -8.347337818958799
      ],
      [
        "Ġspace",
        -8.347597579113812
      ],
      [
        "Ġshe",
        -8.351445168882094
      ],
      [
        "Ġgame",
        -8.354001284220617
      ],
      [
        "Ġseveral",
        -8.354668159985053
      ],
      [
        "Ġgive",
        -8.354765897688093
      ],
      [
        "Ġallow",
        -8.355017509910244
      ],
      [
        "Ġnear",
        -8.357675130732378
      ],
      [
        "Ġtext",
        -8.362587242531877
      ],
      [
        "Ġsomething",
        -8.3626457627852
      ],
      [
        "Ġdisease",
        -8.368083080651637
      ],
      [
        "less",
        -8.374421516629045
      ],
      [
        "Ġmeans",
        -8.374563405530166
      ],
      [
        "Ġreason",
        -8.376329755618958
      ],
      [
        "Ġpresent",
        -8.377096284140514
      ],
      [
        "ion",
        -8.37742117054645
      ],
      [
        "Ġcare",
        -8.379788208624202
      ],
      [
        "Ġorder",
        -8.384930428117706
      ],
      [
        "Ġgeneral",
        -8.385223638862195
      ],
      [
        "Ġsignificant",
        -8.385281687242657
      ],
      [
        "Ġturn",
        -8.391315246178884
      ],
      [
        "ĠAs",
        -8.394047499205135
      ],
      [
        "Ġprogram",
        -8.394749458780552
      ],
      [
        "Ġbased",
        -8.394882807070328
      ],
      [
        "Ġcontain",
        -8.397058661456644
      ],
      [
        "est",
        -8.397967568274638
      ],
      [
        "Ġstate",
        -8.400886339054638
      ],
      [
        "\\",
        -8.401624490445428
      ],
      [
        "ĠWhich",
        -8.40400672886184
      ],
      [
        "Ġrequire",
        -8.405877186024451
      ],
      [
        "Ġgoing",
        -8.409858696062027
      ],
      [
        "ĠSo",
        -8.410294768165514
      ],
      [
        "ther",
        -8.416965628423426
      ],
      [
        "Ġsource",
        -8.418018834265016
      ],
      [
        "Ġrisk",
        -8.421598874921784
      ],
      [
        "Ġalway",
        -8.421728416226856
      ],
      [
        "Ġareas",
        -8.42985191826294
      ],
      [
        "Ġinvolve",
        -8.430808457958612
      ],
      [
        "Ġsecond",
        -8.433133987868182
      ],
      [
        "nough",
        -8.439814245551702
      ],
      [
        "Ġdevice",
        -8.441836799413519
      ],
      [
        "Ġcat",
        -8.443681722075745
      ],
      [
        "Ġwithou",
        -8.44522700623507
      ],
      [
        "Ġessential",
        -8.451205796075012
      ],
      [
        "Ġtreatment",
        -8.453168669188882
      ],
      [
        "Ġblood",
        -8.454769607331531
      ],
      [
        "Ġcourse",
        -8.456652453438757
      ],
      [
        "ĠS",
        -8.459558760361825
      ],
      [
        "Ġunti",
        -8.459738508633894
      ],
      [
        "Ġlocal",
        -8.464163227329582
      ],
      [
        "ĠP",
        -8.465061568724572
      ],
      [
        "Ġlearning",
        -8.465412603415928
      ],
      [
        "Ġfeel",
        -8.466155926661077
      ],
      [
        "Ġusually",
        -8.470494039835682
      ],
      [
        "k",
        -8.47313079975787
      ],
      [
        "Ġdifference",
        -8.473824751267019
      ],
      [
        "ce",
        -8.481781198170832
      ],
      [
        "Ġleave",
        -8.482678033070588
      ],
      [
        "Ġcertain",
        -8.484324874464122
      ],
      [
        "Ġconditions",
        -8.490408421072377
      ],
      [
        ".\"Ċ",
        -8.495974379368823
      ],
      [
        "Ġunderstand",
        -8.49600898885701
      ],
      [
        "When",
        -8.496460033558318
      ],
      [
        "Ġanimals",
        -8.497992288061283
      ],
      [
        "Ġfish",
        -8.499850953747103
      ],
      [
        "Ġquality",
        -8.504897471639435
      ],
      [
        "Ġimprove",
        -8.509475023223398
      ],
      [
        "Ġhard",
        -8.509687842426537
      ],
      [
        "Ġpatient",
        -8.510744547844947
      ],
      [
        "Ġperson",
        -8.513331078042231
      ],
      [
        "Ġput",
        -8.515603992267842
      ],
      [
        "Ġmaterial",
        -8.517759930865449
      ],
      [
        "Ġfamily",
        -8.519595034956916
      ],
      [
        "Ġtechnology",
        -8.522568776939487
      ],
      [
        "ĠWith",
        -8.523001267153058
      ],
      [
        "Ġfield",
        -8.52455659684755
      ],
      [
        "Ġsay",
        -8.52467426603464
      ],
      [
        "Ġside",
        -8.526120897031795
      ],
      [
        "Ġtogether",
        -8.526472830719907
      ],
      [
        "Ġmaterials",
        -8.526720393019922
      ],
      [
        "Ġteam",
        -8.52677890042206
      ],
      [
        "Ġtypes",
        -8.52765981867966
      ],
      [
        "age",
        -8.528664253569895
      ],
      [
        "Ġcalle",
        -8.529963122494195
      ],
      [
        "Ġ&",
        -8.538701523409305
      ],
      [
        "Ġhappen",
        -8.540855644936762
      ],
      [
        "Ġdiet",
        -8.54173195130467
      ],
      [
        "Ġwide",
        -8.544545475338127
      ],
      [
        "Ġtop",
        -8.54465495109832
      ],
      [
        "out",
        -8.54502277815357
      ],
      [
        "Ġhand",
        -8.545477677549595
      ],
      [
        "Ġage",
        -8.546206066787601
      ],
      [
        "Ġmachine",
        -8.547102580089295
      ],
      [
        "Ġearly",
        -8.549059515524217
      ],
      [
        "Ġ$",
        -8.54913463402507
      ],
      [
        "Ġmethod",
        -8.556712486230923
      ],
      [
        "Ġuser",
        -8.558042134056759
      ],
      [
        "Ġsystems",
        -8.558660262534815
      ],
      [
        "Ġleast",
        -8.559811505432771
      ],
      [
        "B",
        -8.56147053019141
      ],
      [
        "ĠUniversity",
        -8.562263672914103
      ],
      [
        "While",
        -8.563796785902476
      ],
      [
        "having",
        -8.565697497428356
      ],
      [
        "Ġweight",
        -8.566035124324435
      ],
      [
        "]",
        -8.566055800938095
      ],
      [
        "though",
        -8.566355539651502
      ],
      [
        "Ġsince",
        -8.567106836989083
      ],
      [
        "You",
        -8.5681045687278
      ],
      [
        "ĠHe",
        -8.568269708547735
      ],
      [
        "Ġtechnique",
        -8.569905233832745
      ],
      [
        "next",
        -8.570304509656735
      ],
      [
        "away",
        -8.571167069447853
      ],
      [
        "Ġfact",
        -8.573468039385602
      ],
      [
        "Ġproject",
        -8.574772797493948
      ],
      [
        "Ġcost",
        -8.58155137486478
      ],
      [
        "Ġhour",
        -8.582206678115305
      ],
      [
        "Ġmaintain",
        -8.584985001744757
      ],
      [
        "Ġfree",
        -8.588751341929669
      ],
      [
        "Ġnon",
        -8.590475982822845
      ],
      [
        "Ġmeasure",
        -8.590490786012912
      ],
      [
        "Ġrole",
        -8.594493963532837
      ],
      [
        "Ġforce",
        -8.594667784167894
      ],
      [
        "Ġalong",
        -8.59467134415922
      ],
      [
        "Ġcomputer",
        -8.595564491119973
      ],
      [
        "Ġhim",
        -8.597508500447397
      ],
      [
        "Ġproblems",
        -8.597534986784588
      ],
      [
        "Ġshort",
        -8.597790211939767
      ],
      [
        "Ġfull",
        -8.600466085592554
      ],
      [
        "âĢĻs",
        -8.600572590861514
      ],
      [
        "Ġclose",
        -8.605376837719508
      ],
      [
        "ĠF",
        -8.61167479718657
      ],
      [
        "Ġsimple",
        -8.61228642013765
      ],
      [
        "Ġlower",
        -8.614176967125546
      ],
      [
        ")ĊĊ",
        -8.614401751535176
      ],
      [
        "Ġsolution",
        -8.615360720898202
      ],
      [
        "ĠAmerican",
        -8.615525583957275
      ],
      [
        "Ġpopulation",
        -8.616083826511012
      ],
      [
        "Ġsimilar",
        -8.616844653482307
      ],
      [
        "*",
        -8.618647096337778
      ],
      [
        "Ġfuture",
        -8.619022702266001
      ],
      [
        "Ġdamage",
        -8.622112659277406
      ],
      [
        "Ġrun",
        -8.622375853689663
      ],
      [
        "Ġloss",
        -8.623770454172195
      ],
      [
        "le",
        -8.62509815478224
      ],
      [
        "Ġlive",
        -8.627944812658187
      ],
      [
        "Ġbase",
        -8.628378633166971
      ],
      [
        "Ġworking",
        -8.62880389228804
      ],
      [
        "Ġprotect",
        -8.629358823544626
      ],
      [
        "Ġseem",
        -8.629405445232024
      ],
      [
        "Ġoil",
        -8.629938456857671
      ],
      [
        "Ġactually",
        -8.631845765601675
      ],
      [
        "Ġkey",
        -8.63412692857519
      ],
      [
        "ĠE",
        -8.636772555723017
      ],
      [
        "We",
        -8.636851965552268
      ],
      [
        "Ġgrowth",
        -8.637614644081678
      ],
      [
        "Ġmakes",
        -8.637693600453073
      ],
      [
        "Ġskin",
        -8.63841723788898
      ],
      [
        "Ġfunction",
        -8.639608652134335
      ],
      [
        "Ġphysical",
        -8.639846075796044
      ],
      [
        "Ġdirect",
        -8.640341743938825
      ],
      [
        "Ġmodel",
        -8.641123672816938
      ],
      [
        "Ġmajor",
        -8.641548606150081
      ],
      [
        "ĠBy",
        -8.642879519107
      ],
      [
        "ĠThat",
        -8.643503772021363
      ],
      [
        "Ġsocial",
        -8.64415630663068
      ],
      [
        "Ġcell",
        -8.645930886443121
      ],
      [
        "Ġpaper",
        -8.652043178727787
      ],
      [
        "Ġtypical",
        -8.653858899394596
      ],
      [
        "Ġdepend",
        -8.655124448971911
      ],
      [
        "Ġoccur",
        -8.655213770834804
      ],
      [
        "Ġeasy",
        -8.655269999332994
      ],
      [
        "Ġproper",
        -8.657571013030523
      ],
      [
        "Ġlet",
        -8.65845834917861
      ],
      [
        "Ġcheck",
        -8.661446067564516
      ],
      [
        "Ġclear",
        -8.661644906500229
      ],
      [
        "Ġperiod",
        -8.662614289551524
      ],
      [
        "Ġsuggest",
        -8.663231272034102
      ],
      [
        "self",
        -8.663498540005213
      ],
      [
        "Ġunique",
        -8.664578131290696
      ],
      [
        "Ġsafe",
        -8.66498719171279
      ],
      [
        "Ġold",
        -8.665478084784107
      ],
      [
        ")Ċ",
        -8.66654687452762
      ],
      [
        "Ġpressure",
        -8.666700034373383
      ],
      [
        "Ġdetermine",
        -8.667697552967073
      ],
      [
        "Ġkind",
        -8.667877606113832
      ],
      [
        "Ġchild",
        -8.671498669412875
      ],
      [
        "Ġquick",
        -8.671655071042782
      ],
      [
        "Ġclimate",
        -8.67227150298335
      ],
      [
        "Ġmove",
        -8.676514063685648
      ],
      [
        "Ġlikely",
        -8.676988994849854
      ],
      [
        "Ġresearcher",
        -8.681191831032589
      ],
      [
        "either",
        -8.683078555568205
      ],
      [
        "Ġindustr",
        -8.684007319579852
      ],
      [
        "There",
        -8.686054746048118
      ],
      [
        "Ġproduction",
        -8.686397909841912
      ],
      [
        "Ġabove",
        -8.68893241401549
      ],
      [
        "Ġcomponent",
        -8.688987319823095
      ],
      [
        "Ġlove",
        -8.691225698002237
      ],
      [
        "Ġthing",
        -8.691631278489826
      ],
      [
        "Ġsingle",
        -8.691633905790098
      ],
      [
        "Ġdoesn",
        -8.691919087500452
      ],
      [
        "Ġaffect",
        -8.694258581754312
      ],
      [
        "ĠNew",
        -8.698758374710664
      ],
      [
        "Ġgarden",
        -8.699421632653511
      ],
      [
        "Ġtimes",
        -8.699873238616508
      ],
      [
        "to",
        -8.703464910082559
      ],
      [
        "w",
        -8.704669753055846
      ],
      [
        "Ġ[",
        -8.706229173434307
      ],
      [
        "Ġscience",
        -8.707027143654837
      ],
      [
        "ĠH",
        -8.708745115435281
      ],
      [
        "Ġacross",
        -8.708877791620836
      ],
      [
        "T",
        -8.70976626878764
      ],
      [
        "Ġopen",
        -8.710219869740552
      ],
      [
        "Ġnever",
        -8.710833582061056
      ],
      [
        "Ġtreat",
        -8.712330873256757
      ],
      [
        "Ġnecessar",
        -8.712437570921022
      ],
      [
        "Ġsolar",
        -8.714092345992487
      ],
      [
        "_",
        -8.714381210725328
      ],
      [
        "ĠT",
        -8.716563215771071
      ],
      [
        "Ġagains",
        -8.718317964233844
      ],
      [
        "Ġunderstanding",
        -8.718623223187858
      ],
      [
        "Ġeye",
        -8.72169518961076
      ],
      [
        "Ġheart",
        -8.721969677572659
      ],
      [
        "âĢĶ",
        -8.722713056250056
      ],
      [
        "Ġavoid",
        -8.724722339334795
      ],
      [
        "Ġchemical",
        -8.72862698455781
      ],
      [
        "Ġwarm",
        -8.729866131136053
      ],
      [
        "Ġdone",
        -8.734169458178567
      ],
      [
        "Ġcontinue",
        -8.735417716010373
      ],
      [
        "Ġespecial",
        -8.736918251992586
      ],
      [
        "\\n",
        -8.737368040794236
      ],
      [
        "Ġaccording",
        -8.738402445954291
      ],
      [
        "Ġcool",
        -8.738640733179626
      ],
      [
        "Ġpattern",
        -8.738860780920966
      ],
      [
        "Ġrecent",
        -8.739527294057545
      ],
      [
        "Ġfactors",
        -8.741910479871184
      ],
      [
        "Ġfocus",
        -8.74217323527736
      ],
      [
        "Ġstep",
        -8.744038904489706
      ],
      [
        "Ġdry",
        -8.745272778208928
      ],
      [
        "Ġsignal",
        -8.747194423441577
      ],
      [
        "ĠâĢĶ",
        -8.751504704418448
      ],
      [
        "ous",
        -8.752309388640851
      ],
      [
        "Ġleft",
        -8.753008910278005
      ],
      [
        "ĠSome",
        -8.753111782998019
      ],
      [
        "Ġfollow",
        -8.755457704576894
      ],
      [
        "Ġregion",
        -8.756425088903416
      ],
      [
        "Ġminute",
        -8.756983038422423
      ],
      [
        "en",
        -8.757839511205283
      ],
      [
        "Ġamong",
        -8.758091789161046
      ],
      [
        "Ġassociate",
        -8.759057652291856
      ],
      [
        "Ġexist",
        -8.760468292234187
      ],
      [
        "Ġarticle",
        -8.760935111909967
      ],
      [
        "Ġblack",
        -8.763108300754979
      ],
      [
        "Ġremove",
        -8.763433158305038
      ],
      [
        "Ġbusiness",
        -8.764016036622882
      ],
      [
        "Ġimage",
        -8.76778057947855
      ],
      [
        "ive",
        -8.770294798824189
      ],
      [
        "Ġbrain",
        -8.77433798627353
      ],
      [
        "Ġcycle",
        -8.774512784113771
      ],
      [
        "Ġeat",
        -8.776026078522047
      ],
      [
        "Ġactivity",
        -8.778991433141696
      ],
      [
        "Ġgetting",
        -8.779094416244533
      ],
      [
        "Ġtoday",
        -8.77920128701724
      ],
      [
        "Ġpopular",
        -8.779222984840036
      ],
      [
        "ready",
        -8.781395394109577
      ],
      [
        "Ġclean",
        -8.783940089429535
      ],
      [
        "Ġdays",
        -8.784453706014308
      ],
      [
        "Ġwhite",
        -8.786316728248298
      ],
      [
        "Ġeffects",
        -8.789120932662513
      ],
      [
        "ment",
        -8.790243635631825
      ],
      [
        "Ġstrong",
        -8.790395483160378
      ],
      [
        "Ġbring",
        -8.791823661190712
      ],
      [
        "Ġsays",
        -8.792026670843011
      ],
      [
        "Ġmean",
        -8.79429092888326
      ],
      [
        "Ġeffect",
        -8.794900771352587
      ],
      [
        "Ġground",
        -8.797107693988425
      ],
      [
        "Ġfurther",
        -8.797266804382076
      ],
      [
        "Ġsign",
        -8.797307021021082
      ],
      [
        "Ġbasic",
        -8.797578106658527
      ],
      [
        "Ġspeed",
        -8.799560942433821
      ],
      [
        "given",
        -8.801776641565976
      ],
      [
        "Ġpurpose",
        -8.802470690346425
      ],
      [
        "Ġstation",
        -8.80313140555397
      ],
      [
        "Ġbook",
        -8.803306012110731
      ],
      [
        "ĠYour",
        -8.803351124115931
      ],
      [
        "Ġthought",
        -8.805282222325427
      ],
      [
        "Ġbacteria",
        -8.805381838798912
      ],
      [
        "Ġfour",
        -8.806155756725245
      ],
      [
        "Ġfee",
        -8.806347972581232
      ],
      [
        "Ġpropert",
        -8.806645802529374
      ],
      [
        "Ġregular",
        -8.80875151759864
      ],
      [
        "Ġvehicle",
        -8.808771312663666
      ],
      [
        "Ġunit",
        -8.81074906081502
      ],
      [
        "Ġfar",
        -8.813506605072403
      ],
      [
        "Ġwhe",
        -8.815042656926611
      ],
      [
        "Ġword",
        -8.815519561026441
      ],
      [
        "Ġparent",
        -8.815650965668922
      ],
      [
        "Ġpost",
        -8.815893210843507
      ],
      [
        "Ġbelieve",
        -8.816283661261782
      ],
      [
        "Ġvariety",
        -8.81991402106898
      ],
      [
        "Ġpain",
        -8.823572024608996
      ],
      [
        "Ġacid",
        -8.823793999109203
      ],
      [
        "âĢĻ",
        -8.82938375241988
      ],
      [
        "!ĊĊ",
        -8.829980933143718
      ],
      [
        "For",
        -8.830814644965908
      ],
      [
        "Ġflow",
        -8.830983183047387
      ],
      [
        "Ġlooking",
        -8.834956808786322
      ],
      [
        "ance",
        -8.84018312113484
      ],
      [
        "Ġshare",
        -8.840327019536353
      ],
      [
        "Ġred",
        -8.840783033769721
      ],
      [
        "Ġcold",
        -8.843580167970748
      ],
      [
        "Ġperformance",
        -8.844259012214415
      ],
      [
        "Ġanimal",
        -8.84429315241201
      ],
      [
        "Ġweek",
        -8.844885068293433
      ],
      [
        "Ġelectric",
        -8.847481231292232
      ],
      [
        "Ġrecord",
        -8.848184926285851
      ],
      [
        "Ġface",
        -8.8483080936485
      ],
      [
        "Ġaddition",
        -8.84835437478743
      ],
      [
        "Ġbuild",
        -8.848599593462506
      ],
      [
        "Ġallows",
        -8.850072729365044
      ],
      [
        "Ġplan",
        -8.850346567517725
      ],
      [
        "ĠR",
        -8.851133298179178
      ],
      [
        "Ġvideo",
        -8.85178487667632
      ],
      [
        "thing",
        -8.8546450580927
      ],
      [
        "Ġrate",
        -8.855672606953537
      ],
      [
        "Ġpiece",
        -8.861338231135347
      ],
      [
        "Ġstructure",
        -8.862925199527089
      ],
      [
        "Ġbig",
        -8.863179306954109
      ],
      [
        "ĠBe",
        -8.86469360915019
      ],
      [
        "Ġcompare",
        -8.864776343111199
      ],
      [
        "Ġreport",
        -8.865314802144892
      ],
      [
        "Ġhistory",
        -8.865917733216989
      ],
      [
        "Ġcommunity",
        -8.86636781624144
      ],
      [
        "Ġcancer",
        -8.86684482634146
      ],
      [
        "Ġobject",
        -8.87179969941145
      ],
      [
        "ĠNo",
        -8.875353605504184
      ],
      [
        "Ġaccess",
        -8.87545555921644
      ],
      [
        "Ġtree",
        -8.875762339650613
      ],
      [
        "Ġpositive",
        -8.876552633732203
      ],
      [
        "Ġdifficult",
        -8.876720241445337
      ],
      [
        "Ġmatter",
        -8.878005095160528
      ],
      [
        "Ġbreak",
        -8.88040031439856
      ],
      [
        "Ġtraining",
        -8.880752700943507
      ],
      [
        "Ġclass",
        -8.88090613208463
      ],
      [
        "Ġbit",
        -8.881394840145232
      ],
      [
        "P",
        -8.882317152777436
      ],
      [
        "Ġlist",
        -8.884218529765018
      ],
      [
        "Ġskills",
        -8.887493382112485
      ],
      [
        "Ġgenetic",
        -8.887954246168366
      ],
      [
        "Ġcreat",
        -8.888795447616156
      ],
      [
        "Ġnormal",
        -8.889632908265778
      ],
      [
        "Ġknowledge",
        -8.889842246632771
      ],
      [
        "Ġwhole",
        -8.890050403894062
      ],
      [
        "ory",
        -8.890188152078494
      ],
      [
        "To",
        -8.891904887272261
      ],
      [
        "Ġgas",
        -8.892394641203516
      ],
      [
        "Ġinside",
        -8.892545785095255
      ],
      [
        "Ġenvironmental",
        -8.892769881636298
      ],
      [
        "Ġask",
        -8.892792805211323
      ],
      [
        "Ġroom",
        -8.896125420117418
      ],
      [
        "once",
        -8.897119571073729
      ],
      [
        ".\"",
        -8.897157363300146
      ],
      [
        "Ġdeep",
        -8.899900911594973
      ],
      [
        "Ġactivities",
        -8.90022128991603
      ],
      [
        "Ġsound",
        -8.900489802490991
      ],
      [
        "Ġposition",
        -8.901121242869
      ],
      [
        "Ġdogs",
        -8.901367954332375
      ],
      [
        "F",
        -8.901452198721143
      ],
      [
        "Ġseed",
        -8.901686086562997
      ],
      [
        "Ġhead",
        -8.903569739184924
      ],
      [
        "Ġfeatures",
        -8.90366621637769
      ],
      [
        "ĠOn",
        -8.90690013574837
      ],
      [
        "Ġapproach",
        -8.907021798808962
      ],
      [
        "Ġcontent",
        -8.90888951151192
      ],
      [
        "taking",
        -8.90973654799414
      ],
      [
        "Ġread",
        -8.909804700420846
      ],
      [
        "Ġstress",
        -8.910198239993118
      ],
      [
        "Ġbelow",
        -8.911863189216508
      ],
      [
        "Ġcompany",
        -8.913001437524308
      ],
      [
        "Ġblock",
        -8.914034633538716
      ],
      [
        "!Ċ",
        -8.914959678206198
      ],
      [
        "Ġidea",
        -8.915371400604478
      ],
      [
        "Ġenjoy",
        -8.915879511592408
      ],
      [
        "Ġperfect",
        -8.916246175089173
      ],
      [
        "Ġanswer",
        -8.917380926313783
      ],
      [
        "Ġstay",
        -8.917787044866673
      ],
      [
        "Ġresponse",
        -8.918794615787299
      ],
      [
        "Ġengine",
        -8.92179878361991
      ],
      [
        "Ġaverage",
        -8.923341338834643
      ],
      [
        "Ġdescribe",
        -8.923665958817427
      ],
      [
        "selve",
        -8.925152020885598
      ],
      [
        "Ġprint",
        -8.92848217700465
      ],
      [
        "aid",
        -8.930125814921155
      ],
      [
        "Ġliv",
        -8.930740035798966
      ],
      [
        "M",
        -8.93251376276036
      ],
      [
        "Ġexercise",
        -8.934907416759483
      ],
      [
        "Ġrequired",
        -8.935233547380955
      ],
      [
        "Ġcomplex",
        -8.936135990673414
      ],
      [
        "one",
        -8.939361284227399
      ],
      [
        "ather",
        -8.939630090530404
      ],
      [
        "Ġresources",
        -8.940457536060567
      ],
      [
        "Ġnetwork",
        -8.942012485889336
      ],
      [
        "Ġthough",
        -8.942772219945354
      ],
      [
        "Ġeasi",
        -8.943745387376008
      ],
      [
        "Ġlocation",
        -8.943843669242064
      ],
      [
        "N",
        -8.94760583956005
      ],
      [
        "ĠL",
        -8.947756772591461
      ],
      [
        "Ġexplain",
        -8.948461791482867
      ],
      [
        "Ġcarbon",
        -8.948583341859742
      ],
      [
        "Ġshape",
        -8.95088483557598
      ],
      [
        "Ġtotal",
        -8.951349925245108
      ],
      [
        "Ġbehavior",
        -8.951409003356291
      ],
      [
        "ĠU",
        -8.951803376867908
      ],
      [
        "Ġplastic",
        -8.952664910721186
      ],
      [
        "Ġpublic",
        -8.952892601638034
      ],
      [
        "Ġopportunit",
        -8.958216961680481
      ],
      [
        "Ġfall",
        -8.959574304200048
      ],
      [
        "Ġtraditional",
        -8.967315966815908
      ],
      [
        "ry",
        -8.969231427262809
      ],
      [
        "ĠN",
        -8.970345580007677
      ],
      [
        "Ġmarket",
        -8.970529905793086
      ],
      [
        "Ġtell",
        -8.97177636122775
      ],
      [
        "Ġreceive",
        -8.972507577706839
      ],
      [
        "Ġprovides",
        -8.972607115171659
      ],
      [
        "ĠOne",
        -8.9728290285716
      ],
      [
        "Ġcook",
        -8.973358761491024
      ],
      [
        "Ġcorrect",
        -8.974716950352173
      ],
      [
        "Ġways",
        -8.974800045567227
      ],
      [
        "Ġitem",
        -8.976069364081468
      ],
      [
        "Ġyoung",
        -8.97627790141319
      ],
      [
        "Ġmetal",
        -8.976454831237628
      ],
      [
        "ĠNational",
        -8.97741322081916
      ],
      [
        "Ġgreen",
        -8.979027381365984
      ],
      [
        "Ġpre",
        -8.979309661337439
      ],
      [
        "Ġspecial",
        -8.984621532946019
      ],
      [
        "Ġbegin",
        -8.98815320809803
      ],
      [
        "Ġcondition",
        -8.988678462886458
      ],
      [
        "Ġmethods",
        -8.991130569272649
      ],
      [
        "Ġterm",
        -8.991158144092982
      ],
      [
        "Ġslow",
        -8.991469670673176
      ],
      [
        "Ġagain",
        -8.993868583525348
      ],
      [
        "Ġlater",
        -8.994760405877178
      ],
      [
        "Ġsense",
        -8.995093342144179
      ],
      [
        "Ġprimar",
        -8.995883666365518
      ],
      [
        "Ġfruit",
        -8.996632327660038
      ],
      [
        "Ġreturn",
        -8.999191999689696
      ],
      [
        "Ġaction",
        -9.0005418448588
      ],
      [
        "Ġdoing",
        -9.000818732127634
      ],
      [
        "Ġpractice",
        -9.002960367097836
      ],
      [
        "Ġmind",
        -9.003447086357236
      ],
      [
        "online",
        -9.004001695253208
      ],
      [
        "Ġseen",
        -9.006960681854649
      ],
      [
        "Ġparticular",
        -9.007260564832052
      ],
      [
        "afety",
        -9.008378993827998
      ],
      [
        "at",
        -9.00882366739598
      ],
      [
        "Ġprotein",
        -9.009005886921198
      ],
      [
        "Ġcommunication",
        -9.010301951786264
      ],
      [
        "healthy",
        -9.011375675946852
      ],
      [
        "Ġmultiple",
        -9.012635600086094
      ],
      [
        "Ġprofessional",
        -9.01320631273811
      ],
      [
        "Ġrelease",
        -9.0134336599216
      ],
      [
        "Ġcharge",
        -9.014168200733575
      ],
      [
        "Ġear",
        -9.014478236763647
      ],
      [
        "Ġperform",
        -9.015174274810631
      ],
      [
        "Ġgot",
        -9.015323004761097
      ],
      [
        "Ġlanguage",
        -9.015627373540465
      ],
      [
        "Ġam",
        -9.016340021832228
      ],
      [
        "Ġfit",
        -9.01730488496946
      ],
      [
        "Ġmuscle",
        -9.017371239510902
      ],
      [
        "Ġrelative",
        -9.018370362502584
      ],
      [
        "Ġnature",
        -9.019631240380924
      ],
      [
        "Ġentire",
        -9.019956905606143
      ],
      [
        "Ġidentify",
        -9.02052137406976
      ],
      [
        "Ġbuilding",
        -9.020584233759632
      ],
      [
        "Ġsea",
        -9.021370535377375
      ],
      [
        "Ġbalance",
        -9.025340060149563
      ],
      [
        "Ġsugar",
        -9.027002780888798
      ],
      [
        "Ġtools",
        -9.028866781666196
      ],
      [
        "Ġhouse",
        -9.029493317754184
      ],
      [
        "Ġchoice",
        -9.029938153093212
      ],
      [
        "Ġlayer",
        -9.030711844757414
      ],
      [
        "Ġdrive",
        -9.03087895757496
      ],
      [
        "Ġcut",
        -9.031890966066609
      ],
      [
        "ĠDNA",
        -9.03204754280272
      ],
      [
        "Ġothers",
        -9.032129690570262
      ],
      [
        "by",
        -9.032774098691595
      ],
      [
        "Ġsearch",
        -9.033409151269474
      ],
      [
        "As",
        -9.034032953975617
      ],
      [
        "Ġauthor",
        -9.03460183764886
      ],
      [
        "Ġconcern",
        -9.03470992953898
      ],
      [
        "Ġglobal",
        -9.034811150610832
      ],
      [
        "Ġpersonal",
        -9.036045315497203
      ],
      [
        "Ġstore",
        -9.03762312070231
      ],
      [
        "Ġthroughout",
        -9.037892455521073
      ],
      [
        "Ġsubject",
        -9.038987520578845
      ],
      [
        "Ġhighe",
        -9.039443836151523
      ],
      [
        "Ġprobabl",
        -9.040477387819568
      ],
      [
        "ful",
        -9.040865214202247
      ],
      [
        "Ġmodern",
        -9.042100838724568
      ],
      [
        "Ġmonths",
        -9.042935483482088
      ],
      [
        "Ġoverall",
        -9.04364688999908
      ],
      [
        "Ġprovid",
        -9.044937775619688
      ],
      [
        "v",
        -9.045666409688804
      ],
      [
        "Ġsomeone",
        -9.046021717505711
      ],
      [
        "Ġetc",
        -9.04837268159853
      ],
      [
        "Ġview",
        -9.051854030302351
      ],
      [
        "Ġadvantage",
        -9.05219047802182
      ],
      [
        "Ġcontact",
        -9.053157441458485
      ],
      [
        "Ġpage",
        -9.055457345899022
      ],
      [
        "Ġalmost",
        -9.05614791388971
      ],
      [
        "Ġpast",
        -9.056936261433412
      ],
      [
        "Ġeducation",
        -9.057156617771868
      ],
      [
        "Ġsymptom",
        -9.058046657013364
      ],
      [
        "Ġfuel",
        -9.059062706878269
      ],
      [
        "z",
        -9.062079346884907
      ],
      [
        "Ġstop",
        -9.062523188585644
      ],
      [
        "Ġstudies",
        -9.064635403651168
      ],
      [
        "Ġlate",
        -9.064703550550028
      ],
      [
        "ĠScience",
        -9.066222973348427
      ],
      [
        "ĠAl",
        -9.068439319574413
      ],
      [
        "âĢ¦",
        -9.069057421066438
      ],
      [
        "Ġwaste",
        -9.070344052166645
      ],
      [
        "Ġmone",
        -9.071341599948685
      ],
      [
        "Ġcrucial",
        -9.07386335171899
      ],
      [
        "Ġfive",
        -9.075112424535952
      ],
      [
        "Ġwave",
        -9.075323217711894
      ],
      [
        "Ġchoose",
        -9.076753767148972
      ],
      [
        "Ġservice",
        -9.07729511317672
      ],
      [
        "-based",
        -9.079704933368392
      ],
      [
        "Ġinfection",
        -9.079791846067431
      ],
      [
        "Ġbad",
        -9.079828968990862
      ],
      [
        "Ġcharacter",
        -9.081754889619791
      ],
      [
        "Ġinstead",
        -9.082055580754073
      ],
      [
        "Ġart",
        -9.082539702038364
      ],
      [
        "Ġreaction",
        -9.08324682097871
      ],
      [
        "Ġsite",
        -9.083804451166436
      ],
      [
        "Ġoptions",
        -9.084717932646107
      ],
      [
        "Ġscientists",
        -9.086605850094395
      ],
      [
        "Ġact",
        -9.08950368684778
      ],
      [
        "ĠAn",
        -9.090319445761374
      ],
      [
        "ĠAll",
        -9.090723473395649
      ],
      [
        "Ġincreasing",
        -9.091562974417794
      ],
      [
        "ĠUnite",
        -9.091578944653955
      ],
      [
        "Ġdegree",
        -9.092567515995489
      ],
      [
        "Ġland",
        -9.093585433582115
      ],
      [
        "Ġmillion",
        -9.094521605857825
      ],
      [
        "Ġreach",
        -9.09517564451945
      ],
      [
        "Ġcountry",
        -9.097679151467284
      ],
      [
        "Ġrelated",
        -9.098664734258218
      ],
      [
        "Ġjob",
        -9.098799946101147
      ],
      [
        "ĠEarth",
        -9.099407168609948
      ],
      [
        "Ġdigital",
        -9.102026020865104
      ],
      [
        "Ġself",
        -9.102673940165122
      ],
      [
        "Ġwall",
        -9.10395038639848
      ],
      [
        "So",
        -9.104107023392984
      ],
      [
        "Ġsituation",
        -9.10647127011211
      ],
      [
        "Ġstarted",
        -9.10655679774808
      ],
      [
        "Ġrepresent",
        -9.1071642168349
      ],
      [
        "Ġsimply",
        -9.109238616863005
      ],
      [
        "âĢĵ",
        -9.109967440711989
      ],
      [
        "Ġyet",
        -9.110079168437046
      ],
      [
        "Ġelements",
        -9.110500140428318
      ],
      [
        "Ġtarget",
        -9.110598932407395
      ],
      [
        "Ġmix",
        -9.110643021571716
      ],
      [
        "Ġseason",
        -9.113235168613157
      ],
      [
        "Ġtip",
        -9.115900944573948
      ],
      [
        "ĠAI",
        -9.11715512213485
      ],
      [
        "ĠShe",
        -9.117479917238256
      ],
      [
        "yourself",
        -9.117796722810697
      ],
      [
        "Ġexpert",
        -9.119038497908209
      ],
      [
        "Ġextreme",
        -9.119238526318645
      ],
      [
        "Ġsleep",
        -9.120003786283524
      ],
      [
        ">",
        -9.121858156558282
      ],
      [
        "Ġoutside",
        -9.122578897197709
      ],
      [
        "Ġinterest",
        -9.123239136437215
      ],
      [
        "Ġkids",
        -9.124879596371212
      ],
      [
        "Ġguide",
        -9.12547222523326
      ],
      [
        "Ġsometime",
        -9.125679463497868
      ],
      [
        "Ġweather",
        -9.127393812262234
      ],
      [
        "Ġdecision",
        -9.12830520365722
      ],
      [
        "Ġexact",
        -9.12880999769173
      ],
      [
        "Ġpaint",
        -9.12956561920793
      ],
      [
        "Ġfinal",
        -9.130146401446565
      ],
      [
        "Ġpet",
        -9.13109004780841
      ],
      [
        "Ġprevious",
        -9.131863441845113
      ],
      [
        "ĠStates",
        -9.13200803308277
      ],
      [
        "Ġlink",
        -9.132353535816032
      ],
      [
        "Ġtrees",
        -9.13417228315724
      ],
      [
        "Ġpercent",
        -9.13463384020113
      ],
      [
        "Ġnight",
        -9.13752332074311
      ],
      [
        "Ġanything",
        -9.137695032784777
      ],
      [
        "H",
        -9.138127507912436
      ],
      [
        "Ġappear",
        -9.139901488173086
      ],
      [
        "Ġstory",
        -9.140735410217133
      ],
      [
        "ten",
        -9.140739183410371
      ],
      [
        "Ġtaken",
        -9.141342345233586
      ],
      [
        "Ġeggs",
        -9.141888540222723
      ],
      [
        "Ġoption",
        -9.142157141069411
      ],
      [
        "E",
        -9.142534780427155
      ],
      [
        "Ġadult",
        -9.145692157296086
      ],
      [
        "Ġstyle",
        -9.146066133235667
      ],
      [
        "Ġhot",
        -9.148130211294347
      ],
      [
        "Ġfactor",
        -9.149222730679066
      ],
      [
        "Ġconnection",
        -9.150698354561465
      ],
      [
        "Ġstandard",
        -9.151126921028762
      ],
      [
        "Ġculture",
        -9.152249634159183
      ],
      [
        "Ġfinding",
        -9.153466661315663
      ],
      [
        "Ġlength",
        -9.154381267098431
      ],
      [
        "Ġstage",
        -9.15441720429681
      ],
      [
        "[",
        -9.15455568135561
      ],
      [
        "One",
        -9.154668056683615
      ],
      [
        "Ġdark",
        -9.155544572439643
      ],
      [
        "Ġstrength",
        -9.157048220022563
      ],
      [
        "Ġselect",
        -9.158070132162178
      ],
      [
        "Ġeffort",
        -9.158846609088831
      ],
      [
        "Ġgain",
        -9.159898693903608
      ],
      [
        "O",
        -9.159949698858544
      ],
      [
        "Ġtravel",
        -9.161645744940913
      ],
      [
        "Ġbreed",
        -9.165697083856951
      ],
      [
        "not",
        -9.166561944385334
      ],
      [
        "Ġevidence",
        -9.167027264364926
      ],
      [
        "of",
        -9.169270364511815
      ],
      [
        "Ġcustomer",
        -9.1695463004274
      ],
      [
        "Ġfresh",
        -9.170413442455802
      ],
      [
        "Ġapplication",
        -9.17055656981679
      ],
      [
        "Ġexplore",
        -9.171374463215276
      ],
      [
        "Ġaddress",
        -9.171820960301831
      ],
      [
        "Ġwon",
        -9.172585207947478
      ],
      [
        "Ġactive",
        -9.175440710511964
      ],
      [
        "Ġhalf",
        -9.17658167489656
      ],
      [
        "Ġoriginal",
        -9.17784279950979
      ],
      [
        "Ġmedical",
        -9.178185237477347
      ],
      [
        "Ġfun",
        -9.179722866383155
      ],
      [
        "Ġwind",
        -9.180962666365488
      ],
      [
        "Ġregard",
        -9.182923585861024
      ],
      [
        "Ġinitial",
        -9.183726688745573
      ],
      [
        "Ġcover",
        -9.184673846850629
      ],
      [
        "ĠHere",
        -9.18476384743326
      ],
      [
        "Ġago",
        -9.185368231191084
      ],
      [
        "Ġcenter",
        -9.185583199967247
      ],
      [
        "Ġeyes",
        -9.18776633720368
      ],
      [
        "|",
        -9.187897877107716
      ],
      [
        ").Ċ",
        -9.188274104175584
      ],
      [
        "Ġworks",
        -9.18906283807224
      ],
      [
        "Ġaccount",
        -9.19065708063686
      ],
      [
        "Ġapplications",
        -9.191614059212398
      ],
      [
        "Ġhear",
        -9.191764702323578
      ],
      [
        "Ġefficient",
        -9.192968428535682
      ],
      [
        "Ġreall",
        -9.19340350378362
      ],
      [
        "Ġmanagement",
        -9.193603463531918
      ],
      [
        "Ġfast",
        -9.194735416726353
      ],
      [
        "Ġserve",
        -9.195221299088365
      ],
      [
        "ĠCan",
        -9.197426593035145
      ],
      [
        "Ġcode",
        -9.198446399548782
      ],
      [
        "Ġsuccessful",
        -9.199434957443897
      ],
      [
        "Ġconstant",
        -9.19976445409888
      ],
      [
        "Ġcontribute",
        -9.199970379800003
      ],
      [
        "+",
        -9.20074863248168
      ],
      [
        "Ġshows",
        -9.201161892669765
      ],
      [
        "Ġanalysis",
        -9.202171439199583
      ],
      [
        "Ġachieve",
        -9.20238861719526
      ],
      [
        "ĠDo",
        -9.205510168732024
      ],
      [
        "Ġstand",
        -9.205646594127495
      ],
      [
        "Ġisn",
        -9.206905579067492
      ],
      [
        "Ġvegetable",
        -9.207657294294002
      ],
      [
        "Ġtalk",
        -9.207737766549652
      ],
      [
        "Ġindicate",
        -9.20783044398211
      ],
      [
        "Ġtool",
        -9.208449082393876
      ],
      [
        "are",
        -9.210642723206831
      ],
      [
        "Ġbirds",
        -9.211455710438976
      ],
      [
        "Ġadditional",
        -9.211787880290196
      ],
      [
        "Ġdeliver",
        -9.212223734915252
      ],
      [
        "quite",
        -9.213700697618226
      ],
      [
        "Ġwomen",
        -9.215455497137846
      ],
      [
        "Ġmentioned",
        -9.21554103257769
      ],
      [
        "Ġdistance",
        -9.215700062138282
      ],
      [
        "Ġlimit",
        -9.216003515486518
      ],
      [
        "Ġde",
        -9.216387344606217
      ],
      [
        "Â°",
        -9.216412647348916
      ],
      [
        "Ġadvance",
        -9.21701678545084
      ],
      [
        "ber",
        -9.219114043094455
      ],
      [
        "Ġpay",
        -9.21949890533594
      ],
      [
        "Ġbehind",
        -9.221409895346
      ],
      [
        "Ġwebsite",
        -9.223166524919815
      ],
      [
        "Ġhearing",
        -9.224513173697058
      ],
      [
        "Ġice",
        -9.224685934341569
      ],
      [
        "Ġtend",
        -9.226045151155052
      ],
      [
        "Ġwalk",
        -9.227153895816905
      ],
      [
        "man",
        -9.228689584040149
      ],
      [
        "Ġcity",
        -9.229004028495186
      ],
      [
        "Q",
        -9.229349116281316
      ],
      [
        "Ġservices",
        -9.230036578376309
      ],
      [
        "Ġseparate",
        -9.230160493999708
      ],
      [
        "Ġmental",
        -9.231355683074076
      ],
      [
        "Ġfat",
        -9.232020859338412
      ],
      [
        "Ġequipment",
        -9.232249691296794
      ],
      [
        "Ġtissue",
        -9.232262212071973
      ],
      [
        "Ġstudent",
        -9.233932516580118
      ],
      [
        "Ġsection",
        -9.23422105372729
      ],
      [
        "Ġoperation",
        -9.234731455680045
      ],
      [
        "Ġmovement",
        -9.2354824622003
      ],
      [
        "Ġgene",
        -9.235860806992523
      ],
      [
        "Ġequal",
        -9.237242121390333
      ],
      [
        "Ġnegative",
        -9.237960418311127
      ],
      [
        "Why",
        -9.238969237108227
      ],
      [
        "Ġmale",
        -9.239428421039202
      ],
      [
        "Ġorganization",
        -9.239663519743434
      ],
      [
        "Ġwinter",
        -9.244423564261204
      ],
      [
        "ĠDr",
        -9.245749912601358
      ],
      [
        "Ġbuy",
        -9.246210135019304
      ],
      [
        "Ġapply",
        -9.247799415081204
      ],
      [
        "Ġwood",
        -9.24798032934492
      ],
      [
        "Ġmeat",
        -9.24871600214482
      ],
      [
        "Ġsave",
        -9.248900060696478
      ],
      [
        "Ġspring",
        -9.249446879281267
      ],
      [
        "Ġdrink",
        -9.249569591567226
      ],
      [
        "ĠSchool",
        -9.25014094899588
      ],
      [
        "Ġfilter",
        -9.251211291515144
      ],
      [
        "where",
        -9.251459253414565
      ],
      [
        "ĠAt",
        -9.251962543770818
      ],
      [
        "Ġgovernment",
        -9.25206509028726
      ],
      [
        "Ġmov",
        -9.252092520422089
      ],
      [
        "Ġbattery",
        -9.253671856267555
      ],
      [
        "Ġevents",
        -9.254859272710394
      ],
      [
        "Ġleading",
        -9.256570954577851
      ],
      [
        "Ġhorse",
        -9.25711876890522
      ],
      [
        "Ġspread",
        -9.257618457680524
      ],
      [
        "ĠG",
        -9.25916456300887
      ],
      [
        "ĠHealth",
        -9.26076363739802
      ],
      [
        "Ġlack",
        -9.262555541637097
      ],
      [
        "Ġmass",
        -9.263881185112217
      ],
      [
        "ĠAfter",
        -9.26491310454676
      ],
      [
        "Ġbuil",
        -9.2651560239875
      ],
      [
        "Ġattention",
        -9.266116028306126
      ],
      [
        "Ġvisit",
        -9.266177438427082
      ],
      [
        "Ġreading",
        -9.26675621145678
      ],
      [
        "Ġocean",
        -9.267190351155254
      ],
      [
        "ers",
        -9.27037840584326
      ],
      [
        "Ġglass",
        -9.273048268359393
      ],
      [
        "L",
        -9.273341160623378
      ],
      [
        "Ġconnect",
        -9.27467907923768
      ],
      [
        "Ġplayer",
        -9.275907598817216
      ],
      [
        "Ġfemale",
        -9.275954678895546
      ],
      [
        "Ġinfluence",
        -9.276321840276198
      ],
      [
        "Ġremain",
        -9.280413592989376
      ],
      [
        "Ġdisplay",
        -9.282412129171847
      ],
      [
        "Ġmonitor",
        -9.282763785611657
      ],
      [
        "ĠSouth",
        -9.283332149072113
      ],
      [
        "Ġevent",
        -9.28655557925773
      ],
      [
        "Ġever",
        -9.286662378008742
      ],
      [
        "Ġsupply",
        -9.287505774923243
      ],
      [
        "Ġfire",
        -9.287738448363832
      ],
      [
        "ĠAmerica",
        -9.288710001083524
      ],
      [
        "Ġparticularly",
        -9.289323187209655
      ],
      [
        "wise",
        -9.289587274247875
      ],
      [
        "Ġspot",
        -9.290586948659085
      ],
      [
        "bility",
        -9.291374389647707
      ],
      [
        "Ġchance",
        -9.291932438458916
      ],
      [
        "ember",
        -9.294614914979489
      ],
      [
        "Ġcontainer",
        -9.295335943657967
      ],
      [
        "Ġenzyme",
        -9.295807451552337
      ],
      [
        "Ġcritical",
        -9.296211952329656
      ],
      [
        "\\u",
        -9.297261367700443
      ],
      [
        "ĠNorth",
        -9.29792801822036
      ],
      [
        "Ġweeks",
        -9.297958742932224
      ],
      [
        "Ġsalt",
        -9.298861080166295
      ],
      [
        "Ġorganic",
        -9.30088829086315
      ],
      [
        "Ġsun",
        -9.300918520898495
      ],
      [
        "ĠK",
        -9.302539216985243
      ],
      [
        "But",
        -9.3083803457306
      ],
      [
        "Ġscientific",
        -9.308687668570354
      ],
      [
        "Ġdirection",
        -9.312933035274156
      ],
      [
        "Ġinsect",
        -9.313060409817885
      ],
      [
        "Ġprotection",
        -9.31321371789341
      ],
      [
        "Ġfeature",
        -9.313863639051585
      ],
      [
        "Ġmodels",
        -9.313879416660924
      ],
      [
        "Ġterms",
        -9.316059565551406
      ],
      [
        "Ġalternative",
        -9.316665091131892
      ],
      [
        "Ġelse",
        -9.317319650679908
      ],
      [
        "Ġextra",
        -9.318982967535629
      ],
      [
        "Ġstrateg",
        -9.31982259673367
      ],
      [
        "Ġgoal",
        -9.320265895556656
      ],
      [
        "Ġtrue",
        -9.320638757649744
      ],
      [
        "ĠO",
        -9.32281022491985
      ],
      [
        "Ġnotice",
        -9.324338094879968
      ],
      [
        "Ġcolors",
        -9.324524524279148
      ],
      [
        "Ġdemand",
        -9.324789899050312
      ],
      [
        "Ġtransport",
        -9.326856152438584
      ],
      [
        "Ġbond",
        -9.329107595005604
      ],
      [
        "Ġattack",
        -9.329663508478774
      ],
      [
        "Ġsummer",
        -9.330103295960186
      ],
      [
        "Ġroot",
        -9.331025032478784
      ],
      [
        "Ġliquid",
        -9.33121897570068
      ],
      [
        "Ġrest",
        -9.331347744531806
      ],
      [
        "Ġmonth",
        -9.331706362102071
      ],
      [
        "Ġsunspot",
        -9.331966493425828
      ],
      [
        "Ġfoods",
        -9.33198769388552
      ],
      [
        "Ġelectrical",
        -9.33317866110865
      ],
      [
        "Ġdate",
        -9.333459150479708
      ],
      [
        "Ġversion",
        -9.333829183036148
      ],
      [
        "more",
        -9.335568257812533
      ],
      [
        "Ġfront",
        -9.335800693207585
      ],
      [
        "Ġcharacteristic",
        -9.336765586875543
      ],
      [
        "Ġearth",
        -9.33777208813224
      ],
      [
        "Ġgenerate",
        -9.339164020841956
      ],
      [
        "Ġsix",
        -9.340768855991517
      ],
      [
        "ĠâĢľ",
        -9.341959079515576
      ],
      [
        "Ġpass",
        -9.34327354196754
      ],
      [
        "Ġcamera",
        -9.34442171363489
      ],
      [
        "ĠYes",
        -9.344784919596547
      ],
      [
        "Ġprocesses",
        -9.345248490906322
      ],
      [
        "Ġenhance",
        -9.345980264724176
      ],
      [
        "Ġlonge",
        -9.346748525078038
      ],
      [
        "Ġvisual",
        -9.346909113089128
      ],
      [
        "Ġbone",
        -9.347575285463517
      ],
      [
        "Ġhabitat",
        -9.347610734007986
      ],
      [
        "Ġappropriate",
        -9.347990219859422
      ],
      [
        "Ġdefine",
        -9.348181381217028
      ],
      [
        "Ġbaby",
        -9.349160283331129
      ],
      [
        "Ġrunning",
        -9.349603993344228
      ],
      [
        "Ġfeeling",
        -9.350354270148394
      ],
      [
        "Ġhold",
        -9.350389346428509
      ],
      [
        "Ġstor",
        -9.354413659855949
      ],
      [
        ".S",
        -9.357668130058888
      ],
      [
        "ĠUse",
        -9.359449163054473
      ],
      [
        "Ġfine",
        -9.36007787324124
      ],
      [
        "Ġdeath",
        -9.36011115718636
      ],
      [
        "Ġaim",
        -9.36166144800821
      ],
      [
        "Ġtrack",
        -9.363093649128109
      ],
      [
        "Ġbrand",
        -9.363385799251915
      ],
      [
        "Ġimportance",
        -9.36366442378078
      ],
      [
        "Ġcountr",
        -9.36515258033164
      ],
      [
        "Ġseries",
        -9.3659313080127
      ],
      [
        "ĠMy",
        -9.366986835576828
      ],
      [
        "Ġuseful",
        -9.367011454105532
      ],
      [
        "Ġb",
        -9.370138816287984
      ],
      [
        "Ġblue",
        -9.370959606716704
      ],
      [
        "Ġprice",
        -9.37130839700728
      ],
      [
        "Ġmedia",
        -9.371508062808203
      ],
      [
        "Another",
        -9.37177527584578
      ],
      [
        "ĠMost",
        -9.37240810214156
      ],
      [
        "ĠWater",
        -9.373100344804747
      ],
      [
        "ĠX",
        -9.374797091890995
      ],
      [
        "Ġman",
        -9.37571162769278
      ],
      [
        "Ġrecommended",
        -9.375865287075412
      ],
      [
        "Ġinput",
        -9.376566714928442
      ],
      [
        "Ġtowards",
        -9.377283873592386
      ],
      [
        "Ġingredient",
        -9.377693687024848
      ],
      [
        "ĠV",
        -9.377975581708103
      ],
      [
        "companie",
        -9.379205083170689
      ],
      [
        "Ġstick",
        -9.380382034222997
      ],
      [
        "Ġnoise",
        -9.380446239775342
      ],
      [
        "Ġrequirement",
        -9.38222605454716
      ],
      [
        "Ġeasier",
        -9.382492523265975
      ],
      [
        "Ġharm",
        -9.38496070072302
      ],
      [
        "inches",
        -9.385553792353718
      ],
      [
        "Ġestablish",
        -9.385992966972022
      ],
      [
        "Ġrelationship",
        -9.386403000795289
      ],
      [
        "ĠOf",
        -9.386421431266
      ],
      [
        "Ġoutput",
        -9.386936438405463
      ],
      [
        "Ġmolecules",
        -9.386960330078246
      ],
      [
        "Ġmeet",
        -9.388254810089377
      ],
      [
        "Ġapplie",
        -9.388376396939414
      ],
      [
        "Ġwriting",
        -9.38842302666331
      ],
      [
        "ĠResearch",
        -9.389555969308082
      ],
      [
        "Ġtopic",
        -9.390073310486052
      ],
      [
        "Ġefficienc",
        -9.390074756168968
      ],
      [
        "Ġrepair",
        -9.39046909375488
      ],
      [
        "Ġrise",
        -9.391593577473742
      ],
      [
        "Ġpotato",
        -9.391756540313285
      ],
      [
        "Ġlocate",
        -9.394086044957309
      ],
      [
        "Ġsteps",
        -9.39619692329778
      ],
      [
        "Ġideal",
        -9.396421659928484
      ],
      [
        "Ġevolution",
        -9.399155456380145
      ],
      [
        "Ġinstruction",
        -9.39918816116724
      ],
      [
        "Ġeveryone",
        -9.399899203019842
      ],
      [
        "Ġdraw",
        -9.40042805951186
      ],
      [
        "Ġclaim",
        -9.40095408152764
      ],
      [
        "Ġcount",
        -9.40238926157278
      ],
      [
        "Ġenable",
        -9.406313514357551
      ],
      [
        "came",
        -9.406372292294108
      ],
      [
        "Ġcombination",
        -9.40746476593553
      ],
      [
        "Ġfly",
        -9.408475764652833
      ],
      [
        "=",
        -9.409705269432514
      ],
      [
        "Ġproteins",
        -9.41207323768738
      ],
      [
        "Ġboard",
        -9.412966962932298
      ],
      [
        "ĠWorld",
        -9.414057032496022
      ],
      [
        "Ġdecrease",
        -9.414672813869212
      ],
      [
        "Ġcaus",
        -9.415327002916104
      ],
      [
        "Ġcentury",
        -9.419581079518466
      ],
      [
        "Ġmen",
        -9.42086525692576
      ],
      [
        "Ġlives",
        -9.423019406800746
      ],
      [
        "By",
        -9.42351142914221
      ],
      [
        "Ġflight",
        -9.423839296719311
      ],
      [
        "Ġfluid",
        -9.424248055034983
      ],
      [
        "Ġspend",
        -9.426387988737153
      ],
      [
        "Ġmaximu",
        -9.42726897304308
      ],
      [
        "Ġhope",
        -9.427298363672596
      ],
      [
        "Ġreplace",
        -9.427471051698902
      ],
      [
        "Ġinjur",
        -9.428374190187125
      ],
      [
        "Ġresponsibl",
        -9.428764871208651
      ],
      [
        "Ġcame",
        -9.429734295291652
      ],
      [
        "Ġ+",
        -9.43012548757001
      ],
      [
        "Ġmechanism",
        -9.430755379816944
      ],
      [
        "R",
        -9.431304073847455
      ],
      [
        "land",
        -9.434123170883067
      ],
      [
        "Ġdeal",
        -9.43737955213639
      ],
      [
        "Can",
        -9.437919409314292
      ],
      [
        "ism",
        -9.437961273480225
      ],
      [
        "Ġmoment",
        -9.43906261819986
      ],
      [
        "Ġpanel",
        -9.440583226125856
      ],
      [
        "-up",
        -9.440949885929117
      ],
      [
        "Ġbag",
        -9.444279552578292
      ],
      [
        "ĠUS",
        -9.444581599748789
      ],
      [
        "Ġburn",
        -9.444617455016743
      ],
      [
        "Ġfile",
        -9.445154540420964
      ],
      [
        "Ġsensor",
        -9.44525589191234
      ],
      [
        "Ġhandle",
        -9.44547788170856
      ],
      [
        "Ġsuccess",
        -9.446340247945525
      ],
      [
        "Ġanti",
        -9.44812150321287
      ],
      [
        "Ġpump",
        -9.448469052153635
      ],
      [
        "Ġmanage",
        -9.449434160423682
      ],
      [
        "Ġraise",
        -9.449795833405071
      ],
      [
        "Ġdetect",
        -9.450601625176596
      ],
      [
        "Ġcarry",
        -9.451052589479382
      ],
      [
        "Ġcloth",
        -9.451291133900874
      ],
      [
        "Ġpromote",
        -9.451416154274929
      ],
      [
        "Ġelectronic",
        -9.452327545876408
      ],
      [
        "Ġtable",
        -9.453139063905262
      ],
      [
        ".com",
        -9.45357292545447
      ],
      [
        "eating",
        -9.454311851054385
      ],
      [
        "Ġprojects",
        -9.454958149484453
      ],
      [
        "Ġteeth",
        -9.455634165130204
      ],
      [
        "Ġdiscuss",
        -9.456490517430233
      ],
      [
        "Ġpoor",
        -9.4572221811983
      ],
      [
        "Ġgenes",
        -9.457499907243822
      ],
      [
        "Ġball",
        -9.457781530185422
      ],
      [
        "Ġvoltage",
        -9.45782853179474
      ],
      [
        "Ġtask",
        -9.458590066478548
      ],
      [
        "Ġcombine",
        -9.459595928829726
      ],
      [
        "-to",
        -9.460967694745008
      ],
      [
        "Ġmaintenance",
        -9.461097895953724
      ],
      [
        "Ġprett",
        -9.461397653537013
      ],
      [
        "ĠJ",
        -9.46240990543627
      ],
      [
        "water",
        -9.464550326608354
      ],
      [
        "V",
        -9.465373082332736
      ],
      [
        "With",
        -9.465415342861885
      ],
      [
        "Ġserious",
        -9.46578134745304
      ],
      [
        "Ġrefer",
        -9.467627550786805
      ],
      [
        "Ġpound",
        -9.467665532080629
      ],
      [
        "Ġtaste",
        -9.467674844533107
      ],
      [
        "Ġobtain",
        -9.468522371659866
      ],
      [
        "Ġencourage",
        -9.468786579238865
      ],
      [
        "Ġimmediate",
        -9.469284518506502
      ],
      [
        "Ġ{",
        -9.469807698354831
      ],
      [
        "Ġwear",
        -9.469919321007744
      ],
      [
        "Ġsoftware",
        -9.469998502808458
      ],
      [
        "took",
        -9.4703864972798
      ],
      [
        "ĠMore",
        -9.47086432509296
      ],
      [
        "Ġslight",
        -9.47089002240077
      ],
      [
        "ĠBlack",
        -9.471633320435757
      ],
      [
        "Ġscreen",
        -9.471633494546104
      ],
      [
        "Ġpublishe",
        -9.47330851253612
      ],
      [
        "ization",
        -9.476064097742055
      ],
      [
        "Ġsort",
        -9.47672013579411
      ],
      [
        "Ġremember",
        -9.477541240501733
      ],
      [
        "ĠFrom",
        -9.478781578206284
      ],
      [
        "Ġwait",
        -9.480753459789518
      ],
      [
        "Ġbottom",
        -9.481397805656677
      ],
      [
        "ĠAdditional",
        -9.48148331450048
      ],
      [
        "ĠMany",
        -9.482061263991929
      ],
      [
        "Some",
        -9.484206638255316
      ],
      [
        "Ġphone",
        -9.485243033677534
      ],
      [
        "Ġseek",
        -9.48871377982618
      ],
      [
        "âĢĿ",
        -9.489935138914962
      ],
      [
        "Ġcrop",
        -9.490439414822193
      ],
      [
        "Ġinstance",
        -9.491075377235475
      ],
      [
        "Ġfrequent",
        -9.491131680799189
      ],
      [
        "Ġcouple",
        -9.494170909628664
      ],
      [
        "Ġexpected",
        -9.495378197039464
      ],
      [
        "-term",
        -9.495855582607476
      ],
      [
        "Ġdai",
        -9.497403085999183
      ],
      [
        "Ġsustainabl",
        -9.497493478731895
      ],
      [
        "Ġdidn",
        -9.498351805152172
      ],
      [
        "Ġwatch",
        -9.498919891180083
      ],
      [
        "Ġtank",
        -9.499073783000249
      ],
      [
        "Ġmembers",
        -9.499206840398395
      ],
      [
        "Ġfigure",
        -9.49946747453804
      ],
      [
        "Ġvision",
        -9.499657930889985
      ],
      [
        "Ġeconomic",
        -9.50127257652333
      ],
      [
        "Ġvia",
        -9.502022289821564
      ],
      [
        "Ġimages",
        -9.50577972008591
      ],
      [
        "formed",
        -9.506954785212264
      ],
      [
        "Ġconstruction",
        -9.507937286690613
      ],
      [
        "Ġdoctor",
        -9.508326602337911
      ],
      [
        "Ġfeed",
        -9.509937793712227
      ],
      [
        "Ġparticles",
        -9.510716366727554
      ],
      [
        "Ġideas",
        -9.511691800257148
      ],
      [
        "Ġenter",
        -9.512542473836104
      ],
      [
        "Ġaccurate",
        -9.51318684640628
      ],
      [
        "Ġfight",
        -9.514186385301684
      ],
      [
        "limited",
        -9.51447952301601
      ],
      [
        "ĠCenter",
        -9.515928910978989
      ],
      [
        "Ġscale",
        -9.518341043615813
      ],
      [
        "Ġrich",
        -9.520317616153031
      ],
      [
        "over",
        -9.521704748001106
      ],
      [
        "Ġnothing",
        -9.522354498763889
      ],
      [
        "Ġheavy",
        -9.52413989939799
      ],
      [
        "Ġdiseases",
        -9.52431454867073
      ],
      [
        "These",
        -9.525360757465126
      ],
      [
        "Ġmagnetic",
        -9.528278639270798
      ],
      [
        "Ġhair",
        -9.528929306645216
      ],
      [
        "Ġcapacity",
        -9.529445973209391
      ],
      [
        "Ġelement",
        -9.530071654240544
      ],
      [
        "Ġsoft",
        -9.531809613729614
      ],
      [
        "Ġrecover",
        -9.532048931070054
      ],
      [
        "Ġresistance",
        -9.535839503219472
      ],
      [
        "Ġre",
        -9.53594009597851
      ],
      [
        "Ġcommonly",
        -9.53679477197519
      ],
      [
        "ĠInstitute",
        -9.536990428224014
      ],
      [
        "ĠAir",
        -9.537455630051728
      ],
      [
        "Ġswitch",
        -9.538487761244872
      ],
      [
        "Ġrare",
        -9.539151696506607
      ],
      [
        "Ġflower",
        -9.539599242184783
      ],
      [
        "Ġpicture",
        -9.540330017713687
      ],
      [
        "ĠAre",
        -9.540459071266683
      ],
      [
        "Ġplanet",
        -9.54088872485562
      ],
      [
        "Ġdisorder",
        -9.540932749675036
      ],
      [
        "Ġchallenges",
        -9.54106121562203
      ],
      [
        "Ġbeautiful",
        -9.541669895154213
      ],
      [
        "Ġdetail",
        -9.541826653925929
      ],
      [
        "Ġbox",
        -9.542633780316596
      ],
      [
        "$",
        -9.54318610534178
      ],
      [
        "ĠNot",
        -9.543862989293562
      ],
      [
        "Ġcircuit",
        -9.544216023873048
      ],
      [
        "Ġconsist",
        -9.545624214988248
      ],
      [
        "Ġwonder",
        -9.547368637727269
      ],
      [
        "Ġmemory",
        -9.548423396687651
      ],
      [
        "Ġrice",
        -9.548863750584882
      ],
      [
        "Ġtouch",
        -9.549527429249585
      ],
      [
        "Ġroad",
        -9.550436526400397
      ],
      [
        "Ġpest",
        -9.55143526772543
      ],
      [
        "up",
        -9.551476668590638
      ],
      [
        "Ġuses",
        -9.552057992854788
      ],
      [
        "ĠUE",
        -9.552667544608834
      ],
      [
        "spite",
        -9.553478339939495
      ],
      [
        "Ġdesire",
        -9.554609861006115
      ],
      [
        "Ġconcept",
        -9.55555311817405
      ],
      [
        "Ġreflect",
        -9.55715896742859
      ],
      [
        "Ġpull",
        -9.557663632311382
      ],
      [
        "On",
        -9.558000672913147
      ],
      [
        "Ġpot",
        -9.55849980404681
      ],
      [
        "Ġcosts",
        -9.55960939646183
      ],
      [
        "Now",
        -9.560200619853903
      ],
      [
        "Ġthousand",
        -9.560342296745713
      ],
      [
        "Ġrapid",
        -9.561354938212862
      ],
      [
        "Ġkill",
        -9.56142202397853
      ],
      [
        "Ġhost",
        -9.561863098498966
      ],
      [
        "Ġwire",
        -9.56303261820167
      ],
      [
        "Ġgrade",
        -9.563345741657614
      ],
      [
        "Ġload",
        -9.56478950198909
      ],
      [
        "Ġreducing",
        -9.564825796615636
      ],
      [
        "Ġwild",
        -9.564967912604825
      ],
      [
        "Ġdie",
        -9.56497950453296
      ],
      [
        "ĠWhy",
        -9.565111383840982
      ],
      [
        "ĠWho",
        -9.565133281261428
      ],
      [
        "Ġappearance",
        -9.566916567033648
      ],
      [
        "Ġpick",
        -9.567621643529897
      ],
      [
        "Ġcleaning",
        -9.568488266028012
      ],
      [
        "Ġdiscovered",
        -9.568731627838035
      ],
      [
        "Ġsetting",
        -9.569162507776294
      ],
      [
        "Ġhole",
        -9.572669171270512
      ],
      [
        "Ġco",
        -9.573960974628406
      ],
      [
        "Ġfriends",
        -9.575204805739109
      ],
      [
        "Ġintroduce",
        -9.575390937318716
      ],
      [
        "Ġwrite",
        -9.57581696663255
      ],
      [
        "Ġmeaning",
        -9.577200715468376
      ],
      [
        "G",
        -9.581801892777277
      ],
      [
        "Ġready",
        -9.582088128280596
      ],
      [
        "Ġsuitabl",
        -9.582468947825298
      ],
      [
        "Ġattempt",
        -9.582600772333905
      ],
      [
        "Ġexpand",
        -9.58320100752515
      ],
      [
        "Ġaircraft",
        -9.584784163084551
      ],
      [
        "Ġlaw",
        -9.58487853081299
      ],
      [
        "Ġcommercial",
        -9.58518138340793
      ],
      [
        "><",
        -9.587428650920568
      ],
      [
        "Ġbirth",
        -9.589622444099458
      ],
      [
        "Ġmap",
        -9.590376856312847
      ],
      [
        "ĠW",
        -9.590761445692308
      ],
      [
        "Ġreview",
        -9.592535928517904
      ],
      [
        "Ġreported",
        -9.593068324069606
      ],
      [
        "Ġdocument",
        -9.593753192626396
      ],
      [
        "Ġedge",
        -9.593759230280876
      ],
      [
        "Ġmusic",
        -9.594135809054851
      ],
      [
        "Ġrobot",
        -9.594382864324162
      ],
      [
        "Ġtherefor",
        -9.595873060779873
      ],
      [
        "Ġsoon",
        -9.596068517831617
      ],
      [
        "Ġmoistur",
        -9.596539974207056
      ],
      [
        "Ġdrop",
        -9.597087909973492
      ],
      [
        "ship",
        -9.597605935998374
      ],
      [
        "Ġplann",
        -9.597970812626544
      ],
      [
        "ĠOur",
        -9.598328418796472
      ],
      [
        "ĠGod",
        -9.599271302986722
      ],
      [
        "Ġdriver",
        -9.599748531438934
      ],
      [
        "Ġgoe",
        -9.601944279301303
      ],
      [
        "Ġsquare",
        -9.602288790690746
      ],
      [
        "Ġsmooth",
        -9.603406314626609
      ],
      [
        "Ġdoor",
        -9.60351066641098
      ],
      [
        "ĠEuropean",
        -9.60353970986968
      ],
      [
        "An",
        -9.60374543439114
      ],
      [
        "Ġbird",
        -9.6065906060483
      ],
      [
        "Ġextend",
        -9.606775550071784
      ],
      [
        "Ġtransition",
        -9.608225795793686
      ],
      [
        "Ġpowerful",
        -9.609753927268368
      ],
      [
        "Ġgiving",
        -9.611232828086491
      ],
      [
        "Ġcollect",
        -9.61135435289809
      ],
      [
        "Ġgives",
        -9.613332712421768
      ],
      [
        "Ġcollection",
        -9.613678745907844
      ],
      [
        "Ġmessage",
        -9.614112908815024
      ],
      [
        "ish",
        -9.616087586990504
      ],
      [
        "Ġanyone",
        -9.617037115214044
      ],
      [
        "Ġmedium",
        -9.617282436001014
      ],
      [
        "Ġteaching",
        -9.6176267950764
      ],
      [
        "K",
        -9.619473953140156
      ],
      [
        "Ġmouth",
        -9.62081433987299
      ],
      [
        "Ġobserved",
        -9.621096520543068
      ],
      [
        "Ġthird",
        -9.622191213556109
      ],
      [
        "Ġmotion",
        -9.6224989922514
      ],
      [
        "Ġcompound",
        -9.623652624939886
      ],
      [
        "Ġhands",
        -9.623859280353
      ],
      [
        "Ġadapt",
        -9.625299299360268
      ],
      [
        "Ġexposure",
        -9.625572532280792
      ],
      [
        "Ġfill",
        -9.625658159549436
      ],
      [
        "Ġprocessing",
        -9.626678625414751
      ],
      [
        "head",
        -9.627005901914512
      ],
      [
        "Ġconcentration",
        -9.62701337718478
      ],
      [
        "Ġexperiment",
        -9.627335634370468
      ],
      [
        "Ġbear",
        -9.62803650636044
      ],
      [
        "Ġsevere",
        -9.628587459284248
      ],
      [
        "Ġthus",
        -9.628867604721911
      ],
      [
        "Ġfrequency",
        -9.630466612232146
      ],
      [
        "Ġstem",
        -9.630561780522624
      ],
      [
        "day",
        -9.63112098613301
      ],
      [
        "care",
        -9.6314141513192
      ],
      [
        "Ġled",
        -9.631555876506798
      ],
      [
        "Ġcolour",
        -9.631604101932949
      ],
      [
        "ĠYork",
        -9.632323192478545
      ],
      [
        "Ġadjust",
        -9.632550985828914
      ],
      [
        "Ġpractices",
        -9.633051046431929
      ],
      [
        "Ġconnected",
        -9.633132977788044
      ],
      [
        "ĠEnglish",
        -9.633365188310387
      ],
      [
        "Ġheight",
        -9.635186070803933
      ],
      [
        "Ġplatform",
        -9.636176936059313
      ],
      [
        "Ġframe",
        -9.636792497115628
      ],
      [
        "Ġexcellent",
        -9.637273689388358
      ],
      [
        "Ġinteresting",
        -9.637377506723842
      ],
      [
        "Ġelectron",
        -9.637718603204286
      ],
      [
        "if",
        -9.63808623201174
      ],
      [
        "And",
        -9.638891719904567
      ],
      [
        "middle",
        -9.639599591002897
      ],
      [
        "Ġcoming",
        -9.641243161071912
      ],
      [
        "Ġaccept",
        -9.64313119322399
      ],
      [
        "Ġstuff",
        -9.643575231851583
      ],
      [
        "Ġvolume",
        -9.643995479823635
      ],
      [
        "âĢ¢",
        -9.644162283054577
      ],
      [
        "ĠEven",
        -9.644171138438312
      ],
      [
        "Ġreveal",
        -9.644562924078112
      ],
      [
        "Ġmedication",
        -9.644820419555408
      ],
      [
        "Ġegg",
        -9.64592990191146
      ],
      [
        "ĠOther",
        -9.646444194304893
      ],
      [
        "Ġpath",
        -9.648545293740376
      ],
      [
        "Ġmeasurement",
        -9.64855810611158
      ],
      [
        "ĠEach",
        -9.648818739126092
      ],
      [
        "ĠGerman",
        -9.649401925912231
      ],
      [
        "Ġround",
        -9.650092229938672
      ],
      [
        "fully",
        -9.65085578509908
      ],
      [
        "Ġoxygen",
        -9.65085681796258
      ],
      [
        "Ġleg",
        -9.650900223512837
      ],
      [
        "cy",
        -9.651564527502265
      ],
      [
        "Ġ--",
        -9.65271158982361
      ],
      [
        "Ġmiles",
        -9.653687415496345
      ],
      [
        "ne",
        -9.65505810617102
      ],
      [
        "Step",
        -9.656342675600124
      ],
      [
        "Ġtherap",
        -9.656586991764025
      ],
      [
        "Ġworth",
        -9.657129802025349
      ],
      [
        "Ġshift",
        -9.65747934226582
      ],
      [
        "ĠâĢ¦",
        -9.658822139428276
      ],
      [
        "Ġfabric",
        -9.65903048593415
      ],
      [
        "Ġimplement",
        -9.66032259183255
      ],
      [
        "Ġbodie",
        -9.660323961057845
      ],
      [
        "Ġnutrients",
        -9.661332457439867
      ],
      [
        "ĠAfrica",
        -9.661721947410022
      ],
      [
        "Ġconvert",
        -9.664169462680588
      ],
      [
        "ĠIndia",
        -9.664377836536108
      ],
      [
        "ĠState",
        -9.665014310651912
      ],
      [
        "ĠNow",
        -9.66765973458016
      ],
      [
        "Ġbrown",
        -9.667664295183013
      ],
      [
        "Ġsolid",
        -9.668740922574434
      ],
      [
        "ĠLearn",
        -9.669504850774777
      ],
      [
        "W",
        -9.6705457728814
      ],
      [
        "Ġreference",
        -9.671809122975253
      ],
      [
        "Ġexpression",
        -9.671907062641624
      ],
      [
        "ĠEurope",
        -9.672856119743413
      ],
      [
        "Ġpair",
        -9.673239305330666
      ],
      [
        "Ġmulti",
        -9.674743453239348
      ],
      [
        "Ġpark",
        -9.674903504085378
      ],
      [
        "Ġbackground",
        -9.67501715999095
      ],
      [
        "Ġplease",
        -9.675212174121397
      ],
      [
        "Ġteachers",
        -9.67594188013943
      ],
      [
        "Ġspeaker",
        -9.676036908939745
      ],
      [
        "Ġdistribution",
        -9.676427130246152
      ],
      [
        "Ġthreat",
        -9.677068878405745
      ],
      [
        "Ġdiabet",
        -9.677969412213267
      ],
      [
        "way",
        -9.67799931287297
      ],
      [
        "Ġwrong",
        -9.678302171836052
      ],
      [
        "Ġbright",
        -9.678842173031398
      ],
      [
        "Ġdiscover",
        -9.679896012527042
      ],
      [
        "Ġemission",
        -9.680576906978896
      ],
      [
        "Ġminimum",
        -9.680679653971245
      ],
      [
        "Ġfossil",
        -9.680814684046789
      ],
      [
        "ĠMay",
        -9.681037485346732
      ],
      [
        "efore",
        -9.68158015046784
      ],
      [
        "Ġaffected",
        -9.682042723061794
      ],
      [
        "Ġwheel",
        -9.682276358661744
      ],
      [
        "Ġrecognize",
        -9.682411618475218
      ],
      [
        "Ġpresence",
        -9.682798884360531
      ],
      [
        "Ġmatch",
        -9.684379455542995
      ],
      [
        "Ġwent",
        -9.684900551012651
      ],
      [
        "Ġgreate",
        -9.685181359929963
      ],
      [
        "Ġsociety",
        -9.685694261366889
      ],
      [
        "Ġphoto",
        -9.686216290754526
      ],
      [
        "Ġforward",
        -9.688000452262862
      ],
      [
        "Ġstates",
        -9.689435915670543
      ],
      [
        "Ġjoint",
        -9.689881136052302
      ],
      [
        "lost",
        -9.689941789585951
      ],
      [
        "Ġensur",
        -9.69090126724257
      ],
      [
        "Ġvariation",
        -9.692267390129334
      ],
      [
        "Ġfiber",
        -9.692568536051816
      ],
      [
        "Ġjourney",
        -9.694025201038208
      ],
      [
        "Ġlargest",
        -9.694167812681226
      ],
      [
        "Ġcommunit",
        -9.694844748912232
      ],
      [
        "Ġhit",
        -9.695326653118242
      ],
      [
        "Ġlab",
        -9.696815962747042
      ],
      [
        "Ġdetails",
        -9.697489443301148
      ],
      [
        "ĠThei",
        -9.697961075573003
      ],
      [
        "Ġstock",
        -9.698314924750312
      ],
      [
        "ĠAls",
        -9.699039753045328
      ],
      [
        "Ġsecurit",
        -9.700144576479378
      ],
      [
        "Ġtasks",
        -9.700734548365688
      ],
      [
        "Ġsample",
        -9.702332527074118
      ],
      [
        "Ġsequence",
        -9.703114643810792
      ],
      [
        "ian",
        -9.703304796882012
      ],
      [
        "Ġconsistent",
        -9.70384016334987
      ],
      [
        "Ġsustain",
        -9.7040671765158
      ],
      [
        "Ġmarine",
        -9.706447998664032
      ],
      [
        "Ġrecommend",
        -9.707712002545776
      ],
      [
        "ĠMarch",
        -9.708073228472934
      ],
      [
        "Ġerror",
        -9.709204451944416
      ],
      [
        "Ġselection",
        -9.709210654878753
      ],
      [
        "time",
        -9.71030320773808
      ],
      [
        "Ġchang",
        -9.710395391879254
      ],
      [
        "comes",
        -9.711823484961728
      ],
      [
        "Ġcutting",
        -9.71225062237246
      ],
      [
        "Ġdrawing",
        -9.712695521651463
      ],
      [
        "Ġphase",
        -9.714683487117444
      ],
      [
        "Ġexpensive",
        -9.71527435480711
      ],
      [
        "Ġwar",
        -9.716876241721204
      ],
      [
        "Ġrule",
        -9.717102621887353
      ],
      [
        "Ġmilk",
        -9.718707015417705
      ],
      [
        "ĠAccording",
        -9.719373361127674
      ],
      [
        "mm",
        -9.71997783680681
      ],
      [
        "Ġonto",
        -9.72046226280553
      ],
      [
        "Ġfund",
        -9.720700887874305
      ],
      [
        "Ġcup",
        -9.721744006870706
      ],
      [
        "yond",
        -9.721823910451658
      ],
      [
        "tion",
        -9.721831359573464
      ],
      [
        "Ġbasi",
        -9.723101056154077
      ],
      [
        "Ġyellow",
        -9.723794091914556
      ],
      [
        "Ġfoot",
        -9.723796655027924
      ],
      [
        "Ġfarm",
        -9.72383132048946
      ],
      [
        "Ġcontext",
        -9.7251534609994
      ],
      [
        "Do",
        -9.725391877064894
      ],
      [
        "Ġecosystem",
        -9.72539284071438
      ],
      [
        "ĠNOT",
        -9.725944678675262
      ],
      [
        "Ġhuge",
        -9.728441338258722
      ],
      [
        "Ġdecade",
        -9.728735007913938
      ],
      [
        "Ġexpect",
        -9.730576065045843
      ],
      [
        "Ġroots",
        -9.73307236000809
      ],
      [
        "Ġextract",
        -9.734386858310591
      ],
      [
        "Ġconsumer",
        -9.734606663038488
      ],
      [
        "Ġpractical",
        -9.735921434628088
      ],
      [
        "Ġvital",
        -9.736694028081695
      ],
      [
        "like",
        -9.737686889460434
      ],
      [
        "Ġstone",
        -9.7390122903085
      ],
      [
        "Ġpilot",
        -9.73938856605453
      ],
      [
        "Ġsend",
        -9.73944845773634
      ],
      [
        "Ġmedicine",
        -9.741145375553804
      ],
      [
        "Ġfunctions",
        -9.741479367768186
      ],
      [
        "Ġdivers",
        -9.742057658591566
      ],
      [
        "Ġfavorite",
        -9.742208415540386
      ],
      [
        "Ġrequest",
        -9.743129423322442
      ],
      [
        "Ġcomfort",
        -9.744215638818051
      ],
      [
        "Ġmother",
        -9.745273815550012
      ],
      [
        "Ġremains",
        -9.746586234229577
      ],
      [
        "Ġangle",
        -9.747009732059691
      ],
      [
        "They",
        -9.747031999034265
      ],
      [
        "Ġregulation",
        -9.748148777915826
      ],
      [
        "Ġdead",
        -9.748208275957918
      ],
      [
        "Ġrecipe",
        -9.748321735690094
      ],
      [
        "Ġchallenge",
        -9.748414084880508
      ],
      [
        "Ġlesson",
        -9.748663983644658
      ],
      [
        "Ġflavor",
        -9.7494332775557
      ],
      [
        "Ġdrug",
        -9.750603772365976
      ],
      [
        "Therefore",
        -9.751491690813967
      ],
      [
        "for",
        -9.751558313808768
      ],
      [
        "Ġcapture",
        -9.75242571441955
      ],
      [
        "ĠMake",
        -9.753169353948152
      ],
      [
        "Ġhapp",
        -9.753260276396912
      ],
      [
        "Ġaren",
        -9.75582768879217
      ],
      [
        "Ġsurrounding",
        -9.756319876206884
      ],
      [
        "ĠOnc",
        -9.760843309620544
      ],
      [
        "Ġtexture",
        -9.761105168150792
      ],
      [
        "Ġstructures",
        -9.76170178299008
      ],
      [
        "Ġdynamic",
        -9.762143950334714
      ],
      [
        "Ġnative",
        -9.762299686271474
      ],
      [
        "Ġidentifie",
        -9.762787468547938
      ],
      [
        "Ġconsumpti",
        -9.764269416935928
      ],
      [
        "Ġinsight",
        -9.764561837469104
      ],
      [
        "Ġtechnologies",
        -9.764901301209544
      ],
      [
        "Ġsaw",
        -9.76564515937
      ],
      [
        "Ġtiny",
        -9.766688546926227
      ],
      [
        "aught",
        -9.767499860755292
      ],
      [
        "Ġgold",
        -9.769598536477142
      ],
      [
        "older",
        -9.770084939275709
      ],
      [
        "Ġcovered",
        -9.771465371628745
      ],
      [
        "Ġdepth",
        -9.77238170042498
      ],
      [
        "side",
        -9.7729158254946
      ],
      [
        "Ġphotograph",
        -9.77525722178503
      ],
      [
        "Ġletter",
        -9.7760405560032
      ],
      [
        "Al",
        -9.776303122892475
      ],
      [
        "Ġabsorb",
        -9.776369924713892
      ],
      [
        "Ġteacher",
        -9.776564372735464
      ],
      [
        "Ġmanufacturer",
        -9.77745136471011
      ],
      [
        "Ġchannel",
        -9.780249526334693
      ],
      [
        "Ġactual",
        -9.781278760265955
      ],
      [
        "ĠLet",
        -9.7820829523675
      ],
      [
        "Ġtrigger",
        -9.782899222604811
      ],
      [
        "ĠpH",
        -9.783535110346396
      ],
      [
        "Ġlabel",
        -9.7837202385237
      ],
      [
        "Ġapproximate",
        -9.78485222682121
      ],
      [
        "Ġdensit",
        -9.784979087210353
      ],
      [
        "Ġrules",
        -9.786525717924054
      ],
      [
        "ĠService",
        -9.786718338661338
      ],
      [
        "Ġcommand",
        -9.787270291399302
      ],
      [
        "ĠWar",
        -9.788625720882134
      ],
      [
        "Ġlose",
        -9.790457129662212
      ],
      [
        "April",
        -9.79053561340304
      ],
      [
        "Ġsession",
        -9.792050739308548
      ],
      [
        "Ġshoes",
        -9.792148808793462
      ],
      [
        "Ġarray",
        -9.79251804307947
      ],
      [
        "Ġmid",
        -9.792645779673972
      ],
      [
        "Ġkeeping",
        -9.793085896644044
      ],
      [
        "Ġapp",
        -9.793170971458476
      ],
      [
        "Ġeventual",
        -9.794501569933464
      ],
      [
        "Ġcore",
        -9.795245943678903
      ],
      [
        "Ġsounds",
        -9.795497137699185
      ],
      [
        "Ġartist",
        -9.79554492836806
      ],
      [
        "Ġpush",
        -9.79561272728328
      ],
      [
        "Ġbiological",
        -9.79595562044727
      ],
      [
        "Ġatmosphere",
        -9.796557111711005
      ],
      [
        "Ġmanufactur",
        -9.797418640809536
      ],
      [
        "ĠFirst",
        -9.79787981394534
      ],
      [
        "ĠEducation",
        -9.79820305113022
      ],
      [
        "Ġstring",
        -9.798255189778946
      ],
      [
        "X",
        -9.798854077093305
      ],
      [
        "Ġpurchase",
        -9.799327764255198
      ],
      [
        "Ġmiss",
        -9.799601224144055
      ],
      [
        "Ġparameter",
        -9.799720789210609
      ],
      [
        "Ġrates",
        -9.79979956377835
      ],
      [
        "Ġnational",
        -9.800076832199212
      ],
      [
        "Ġgrown",
        -9.801008035533474
      ],
      [
        "Ġengage",
        -9.801434899372746
      ],
      [
        "Ġcard",
        -9.802123319327883
      ],
      [
        "wide",
        -9.802583846914256
      ],
      [
        "Ġgrain",
        -9.80392678441932
      ],
      [
        "Y",
        -9.804020953565452
      ],
      [
        "Ġdust",
        -9.804281016966524
      ],
      [
        "Ġdriving",
        -9.804776030962673
      ],
      [
        "Ġfilm",
        -9.805719980531515
      ],
      [
        "Ġcentral",
        -9.805748015058104
      ],
      [
        "Ġalone",
        -9.806338512901426
      ],
      [
        "ĠGroup",
        -9.80756266775614
      ],
      [
        "Ġdemonstrate",
        -9.809452193636764
      ],
      [
        "ul",
        -9.810183044358675
      ],
      [
        "Ġimmune",
        -9.81043585219182
      ],
      [
        "Ġfashion",
        -9.812592253175865
      ],
      [
        "Ġsupplement",
        -9.812596157325912
      ],
      [
        "Ġvaluable",
        -9.812600306203706
      ],
      [
        "Ġsub",
        -9.812861403683248
      ],
      [
        "Ġclick",
        -9.813286163687998
      ],
      [
        "Ġfaste",
        -9.815080906886616
      ],
      [
        "ĠUK",
        -9.81601154543408
      ],
      [
        "Ġsmalle",
        -9.81641303577078
      ],
      [
        "Ġsites",
        -9.816478496759252
      ],
      [
        "Ġplane",
        -9.81735444602102
      ],
      [
        "ĠJust",
        -9.818162725299072
      ],
      [
        "am",
        -9.819892731094448
      ],
      [
        "Ġmotor",
        -9.820973756830073
      ],
      [
        "held",
        -9.821210401546011
      ],
      [
        "},",
        -9.822913539209434
      ],
      [
        "work",
        -9.82375759540093
      ],
      [
        "ĠDur",
        -9.8246108647034
      ],
      [
        "Ġjoin",
        -9.82545036167142
      ],
      [
        "Ġbeginning",
        -9.825933891579163
      ],
      [
        "Ġcanno",
        -9.826000795116922
      ],
      [
        "Our",
        -9.827109823413458
      ],
      [
        "ĠUsing",
        -9.82858677451626
      ],
      [
        "Ġcultural",
        -9.828889485499452
      ],
      [
        "ĠSea",
        -9.829527583532975
      ],
      [
        "-->",
        -9.830125651796523
      ],
      [
        "Ġcreative",
        -9.83254575284885
      ],
      [
        "Ġindependent",
        -9.833098084666725
      ],
      [
        "ar",
        -9.83344528161636
      ],
      [
        "Ġpress",
        -9.833485678142129
      ],
      [
        "Ġpolicy",
        -9.834118333439038
      ],
      [
        "Ġpollution",
        -9.834925547479386
      ],
      [
        "Ġfinancial",
        -9.835539965342104
      ],
      [
        "Ġwrit",
        -9.835934625583342
      ],
      [
        "ĠOr",
        -9.837000050911527
      ],
      [
        "Ġsurvive",
        -9.839799093703032
      ],
      [
        "That",
        -9.841594736813969
      ],
      [
        "Ġclient",
        -9.8417816345944
      ],
      [
        "Ġbooks",
        -9.842359386093758
      ],
      [
        "Ġclasse",
        -9.843058715719216
      ],
      [
        "which",
        -9.843762676085364
      ],
      [
        "Ġconservation",
        -9.844769571598622
      ],
      [
        "Ġcontrast",
        -9.844771646224748
      ],
      [
        "Ġnest",
        -9.844990157649471
      ],
      [
        "Be",
        -9.845405318058637
      ],
      [
        "comfortable",
        -9.845624949656044
      ],
      [
        "-like",
        -9.845786836924708
      ],
      [
        "ĠOver",
        -9.847328286306848
      ],
      [
        "Ġmining",
        -9.848213727863588
      ],
      [
        "ritish",
        -9.849040796707277
      ],
      [
        "Ġconsume",
        -9.849173548076608
      ],
      [
        "Ġstaff",
        -9.8494122017404
      ],
      [
        "ĠDec",
        -9.849559330502585
      ],
      [
        "Ġroutine",
        -9.85089342383619
      ],
      [
        "||",
        -9.851488607573687
      ],
      [
        "Ġsweet",
        -9.85194580398979
      ],
      [
        "Ġpeak",
        -9.852069610644936
      ],
      [
        "Ġpipe",
        -9.852780062872604
      ],
      [
        "Ġcalculate",
        -9.85522897624476
      ],
      [
        "Ġsamples",
        -9.85693802220908
      ],
      [
        "all",
        -9.859584272154493
      ],
      [
        "Ġschedule",
        -9.859612982190892
      ],
      [
        "words",
        -9.860310839804166
      ],
      [
        "dium",
        -9.861816375114582
      ],
      [
        "maybe",
        -9.86288033885074
      ],
      [
        "Ġdouble",
        -9.863906292754448
      ],
      [
        "Ġstraight",
        -9.864088824165322
      ],
      [
        "Ġaspects",
        -9.864458049752624
      ],
      [
        "Ġhundred",
        -9.864665121464682
      ],
      [
        "Ġcross",
        -9.865956278405696
      ],
      [
        "Ġfacilit",
        -9.867817078675582
      ],
      [
        "Ġvitamin",
        -9.867836620874495
      ],
      [
        "Ġvary",
        -9.868073335412376
      ],
      [
        "Ġgeneration",
        -9.869673779758234
      ],
      [
        "Ġskill",
        -9.870660571224889
      ],
      [
        "ĠAfrican",
        -9.871042874981208
      ],
      [
        "ware",
        -9.871387219886143
      ],
      [
        "No",
        -9.872082247014
      ],
      [
        "Ġjournal",
        -9.873819083002566
      ],
      [
        "be",
        -9.875532745758813
      ],
      [
        "Ġfriend",
        -9.875783854859192
      ],
      [
        "Ġemergenc",
        -9.875839865074663
      ],
      [
        "Ġlighting",
        -9.87924978962777
      ],
      [
        "Ġportion",
        -9.879549371332685
      ],
      [
        "Ġvaccine",
        -9.881024132175275
      ],
      [
        "Ġagree",
        -9.881672606163594
      ],
      [
        "Ġvirtual",
        -9.882467370699906
      ],
      [
        "q",
        -9.882668590746324
      ],
      [
        "Ġones",
        -9.883035742475244
      ],
      [
        "Ġdiscussion",
        -9.884515184445226
      ],
      [
        "Ġearlier",
        -9.885467994656336
      ],
      [
        "Ġlisten",
        -9.885552133676937
      ],
      [
        "Ġsurger",
        -9.886084782035148
      ],
      [
        "Ġforest",
        -9.88674658514281
      ],
      [
        "ence",
        -9.88772967157986
      ],
      [
        "Ġvoice",
        -9.887870092883272
      ],
      [
        "ĠJapan",
        -9.888291525089883
      ],
      [
        "Ġemploy",
        -9.889346429811702
      ],
      [
        "Ġfamili",
        -9.889824936837478
      ],
      [
        "Ġstarch",
        -9.890655157740571
      ],
      [
        "ĠRochester",
        -9.891780780691008
      ],
      [
        "Ġweb",
        -9.89262235469334
      ],
      [
        "Ġmixture",
        -9.892700399689002
      ],
      [
        "li",
        -9.892926177514603
      ],
      [
        "Ġdesigne",
        -9.894431241271793
      ],
      [
        "Ġsuit",
        -9.894909658445687
      ],
      [
        "Ġ#",
        -9.895037672317889
      ],
      [
        "Ġdrugs",
        -9.89547456965362
      ],
      [
        "Ġcreation",
        -9.895671706186768
      ],
      [
        "Ġstain",
        -9.896392343828136
      ],
      [
        "ĠDepartment",
        -9.896669785829772
      ],
      [
        "Ġlandscape",
        -9.89690811588805
      ],
      [
        "Ġsheet",
        -9.897945876357866
      ],
      [
        "Ġkg",
        -9.898489341962664
      ],
      [
        "Ġmorning",
        -9.898711718273468
      ],
      [
        "Ġroll",
        -9.899668111553932
      ],
      [
        "ĠSince",
        -9.90002757252206
      ],
      [
        "ĠArt",
        -9.900366101852368
      ],
      [
        "Ġnerve",
        -9.905185887185963
      ],
      [
        "Ġyield",
        -9.905350850402725
      ],
      [
        "Ġglucos",
        -9.90536464879705
      ],
      [
        "Ġsecure",
        -9.906709450288858
      ],
      [
        "upon",
        -9.907990184127971
      ],
      [
        "After",
        -9.908711624677
      ],
      [
        "Ġtoward",
        -9.909972390882984
      ],
      [
        "Ġlooks",
        -9.910426616479416
      ],
      [
        "Ġalgorithm",
        -9.911001736849922
      ],
      [
        "Ġancient",
        -9.91173355238474
      ],
      [
        "#",
        -9.91179311895116
      ],
      [
        "Ġultimate",
        -9.912154441497211
      ],
      [
        "Ġrespond",
        -9.912257886480466
      ],
      [
        "iness",
        -9.912408853712126
      ],
      [
        "ĠDay",
        -9.91367211010084
      ],
      [
        "Ġchicken",
        -9.91382094984806
      ],
      [
        "Ġalcohol",
        -9.914987738453046
      ],
      [
        "Ġprogress",
        -9.915344193835
      ],
      [
        "Ġowners",
        -9.91596342515298
      ],
      [
        "cid",
        -9.916266201057008
      ],
      [
        "Ġobservation",
        -9.916686993012636
      ],
      [
        "Ġrock",
        -9.91673324477139
      ],
      [
        "Ġregister",
        -9.916929983242124
      ],
      [
        "Ġinternational",
        -9.917383158926633
      ],
      [
        "ĠDe",
        -9.91801448941848
      ],
      [
        "Ġclassroom",
        -9.918445751757591
      ],
      [
        "numerous",
        -9.918462534844728
      ],
      [
        "Ġhazard",
        -9.919056848168369
      ],
      [
        "Ġexpose",
        -9.919738381044548
      ],
      [
        "Ġoperate",
        -9.919779463794274
      ],
      [
        "ĠCalifornia",
        -9.9208645866841
      ],
      [
        "Ġtransfer",
        -9.922479104647763
      ],
      [
        "Ġconclusion",
        -9.922601923728934
      ],
      [
        "Ġexamine",
        -9.922764127703765
      ],
      [
        "Ġprefer",
        -9.923167762803285
      ],
      [
        "ial",
        -9.923437827603058
      ],
      [
        "Ġtrip",
        -9.924860040531373
      ],
      [
        "reality",
        -9.924996505695384
      ],
      [
        "Ġshell",
        -9.926897296393436
      ],
      [
        ".[",
        -9.92837232789985
      ],
      [
        "Ġrisks",
        -9.92866732111666
      ],
      [
        "ĠGreat",
        -9.928687107122071
      ],
      [
        "Ġpreference",
        -9.928988767814992
      ],
      [
        "Ġtrade",
        -9.929871845507266
      ],
      [
        "-year",
        -9.93068289809914
      ],
      [
        "/or",
        -9.93083335169354
      ],
      [
        "Ġbreast",
        -9.931177319966816
      ],
      [
        "Ġeducational",
        -9.931204197357031
      ],
      [
        "Ġpack",
        -9.931244182080896
      ],
      [
        "Ġbega",
        -9.932275303111172
      ],
      [
        "Ġtrain",
        -9.933172739305585
      ],
      [
        "Ġaudio",
        -9.933274580466662
      ],
      [
        "Ġthin",
        -9.933323879385568
      ],
      [
        "Ġanxiet",
        -9.934058938612452
      ],
      [
        "quality",
        -9.934229594100708
      ],
      [
        "Ġvisibl",
        -9.934236115073617
      ],
      [
        "Ġratio",
        -9.934516395773556
      ],
      [
        "Ġamylase",
        -9.934561021162803
      ],
      [
        "Ġdish",
        -9.93594628857092
      ],
      [
        "ĠJohn",
        -9.937005930582044
      ],
      [
        "Ġbutton",
        -9.937860583459331
      ],
      [
        "Ġcoat",
        -9.9383572335014
      ],
      [
        "Ġevolve",
        -9.938962051999477
      ],
      [
        "line",
        -9.939859919750877
      ],
      [
        "Ġcomprehensive",
        -9.939937072890835
      ],
      [
        "Ġsteel",
        -9.941037483603136
      ],
      [
        "Ġinteract",
        -9.941153785786389
      ],
      [
        "Ġbillion",
        -9.941158340280774
      ],
      [
        "Ġflat",
        -9.942233590218716
      ],
      [
        "Ġsurvey",
        -9.94265473016921
      ],
      [
        "Ġaware",
        -9.943959225005326
      ],
      [
        "ĠEvery",
        -9.944625256357355
      ],
      [
        "Ġwhose",
        -9.945120587365228
      ],
      [
        "Ġthick",
        -9.945774541517569
      ],
      [
        "Ġprocedure",
        -9.94741919256784
      ],
      [
        "Here",
        -9.947947083059866
      ],
      [
        "interested",
        -9.948944305269778
      ],
      [
        "Ġcable",
        -9.949500221920122
      ],
      [
        "Ġnote",
        -9.949622072580691
      ],
      [
        "Ġcredit",
        -9.951401617168557
      ],
      [
        "Ġoffering",
        -9.951476725557418
      ],
      [
        "Ġdefinite",
        -9.951500722570756
      ],
      [
        "Ġfinish",
        -9.952031951000505
      ],
      [
        "Ġthread",
        -9.952413363298104
      ],
      [
        "Ġapart",
        -9.953613772721576
      ],
      [
        "Ġzero",
        -9.95517906400031
      ],
      [
        "Answer",
        -9.955197648063232
      ],
      [
        "Ġgoals",
        -9.955885444863014
      ],
      [
        "Ġiron",
        -9.957297090327904
      ],
      [
        "ĠPark",
        -9.95796934724617
      ],
      [
        "All",
        -9.958213582358905
      ],
      [
        "Ġorganisms",
        -9.95872130515399
      ],
      [
        "Ġthrow",
        -9.959048384558304
      ],
      [
        "Ġcars",
        -9.960907412570691
      ],
      [
        "ĠHigh",
        -9.961205994758515
      ],
      [
        "Ġoffice",
        -9.96181614393566
      ],
      [
        "Ġfundamental",
        -9.962430425130531
      ],
      [
        "Ġstream",
        -9.96295906707035
      ],
      [
        "Ġrandom",
        -9.964510239619488
      ],
      [
        "Ġexhibit",
        -9.964574954543076
      ],
      [
        "Ġvessel",
        -9.9659201470335
      ],
      [
        "Ġmember",
        -9.967268748717029
      ],
      [
        "Ġhighlight",
        -9.967287071934653
      ],
      [
        "Ġgravit",
        -9.967984896627932
      ],
      [
        "ĠWell",
        -9.968447490748966
      ],
      [
        "Ġintelligence",
        -9.96945973015221
      ],
      [
        "Ġgirl",
        -9.96998781393216
      ],
      [
        "Ġmelt",
        -9.97101599997832
      ],
      [
        "Ġmeal",
        -9.9711651108566
      ],
      [
        "Ġsettings",
        -9.971693023437188
      ],
      [
        "Ġblend",
        -9.971939378573616
      ],
      [
        "Ġpowder",
        -9.972079436986371
      ],
      [
        "Ġuniverse",
        -9.973062942981691
      ],
      [
        "Ġrain",
        -9.974032570224807
      ],
      [
        "Ġwindow",
        -9.974170641215927
      ],
      [
        "Ġessay",
        -9.97500611274876
      ],
      [
        "Ġfloor",
        -9.975335799115427
      ],
      [
        "Ġsaying",
        -9.975482336657665
      ],
      [
        "Ġguideline",
        -9.9756115350843
      ],
      [
        "Ġannual",
        -9.97629350941223
      ],
      [
        "Ġcomment",
        -9.976595355965332
      ],
      [
        "Ġfeeding",
        -9.976666940548238
      ],
      [
        "Ġcareer",
        -9.97791481610454
      ],
      [
        "Ġreduction",
        -9.978743998609431
      ],
      [
        "Ġartificial",
        -9.979716340750658
      ],
      [
        "Ġparticipant",
        -9.9797583877134
      ],
      [
        "Ġmanual",
        -9.980305805792984
      ],
      [
        "fish",
        -9.980747760279968
      ],
      [
        "Ġinternet",
        -9.980930317335408
      ],
      [
        "Ġrespect",
        -9.981518400712416
      ],
      [
        "Ġstretch",
        -9.982133991922607
      ],
      [
        "ĠRiver",
        -9.982722395520977
      ],
      [
        "Ġbeaut",
        -9.983430661483483
      ],
      [
        "Ġplaying",
        -9.98356215767625
      ],
      [
        "kept",
        -9.98381911994002
      ],
      [
        "Ġfailure",
        -9.984687710215852
      ],
      [
        "Ġtube",
        -9.98477862794229
      ],
      [
        "Ġdecline",
        -9.985026841096843
      ],
      [
        "Ġprinciples",
        -9.985218031675403
      ],
      [
        "Ġupper",
        -9.98589201287047
      ],
      [
        "Ġformation",
        -9.986757093086403
      ],
      [
        "Ġofficial",
        -9.98831936051596
      ],
      [
        "Ġresource",
        -9.989209209206797
      ],
      [
        "Ġlegal",
        -9.990917066085236
      ],
      [
        "ebru",
        -9.991311999864394
      ],
      [
        "Ġautomatic",
        -9.991379738221363
      ],
      [
        "producing",
        -9.991390355410982
      ],
      [
        "Ġindoor",
        -9.991406236759428
      ],
      [
        "Ġstatement",
        -9.991642865679845
      ],
      [
        "Ġdiamond",
        -9.991941178253471
      ],
      [
        "Ġassessment",
        -9.992035486067827
      ],
      [
        "Ġstatus",
        -9.992503638836476
      ],
      [
        "Ġmechanical",
        -9.99252177153736
      ],
      [
        "ĠPlant",
        -9.992572031292507
      ],
      [
        "ĠSt",
        -9.994236102274767
      ],
      [
        "Ġbehaviour",
        -9.995237242534998
      ],
      [
        "Ġcarefully",
        -9.995436950617728
      ],
      [
        "Ġharvest",
        -9.9968693670025
      ],
      [
        "brough",
        -9.996986367745894
      ],
      [
        "Ġoperat",
        -9.997158632105888
      ],
      [
        "Ġdi",
        -9.997434804710108
      ],
      [
        "Ġpainting",
        -9.99835628942846
      ],
      [
        "Ġcheese",
        -10.000465538810444
      ],
      [
        "Ġdescription",
        -10.000576142548178
      ],
      [
        "ĠEast",
        -10.000687816685035
      ],
      [
        "Ġwash",
        -10.00072501749197
      ],
      [
        "Ġscene",
        -10.000800974412815
      ],
      [
        "ĠChina",
        -10.00389372093306
      ],
      [
        "Ġreliabl",
        -10.004256325721782
      ],
      [
        "Ġformula",
        -10.004634986710464
      ],
      [
        "ĠCity",
        -10.005645715874104
      ],
      [
        "told",
        -10.006160102938315
      ],
      [
        "Ġowner",
        -10.007570902130496
      ],
      [
        "flowers",
        -10.007780177158402
      ],
      [
        "Ġprepare",
        -10.007826664333464
      ],
      [
        "ĠWhe",
        -10.008557781988186
      ],
      [
        "Ġstories",
        -10.010252142868048
      ],
      [
        "ities",
        -10.010756831018464
      ],
      [
        "Ġpredator",
        -10.011510937098755
      ],
      [
        "Ġcontinuous",
        -10.011641267593486
      ],
      [
        "Ġpool",
        -10.012890537079215
      ],
      [
        "Ġclinical",
        -10.014284210280351
      ],
      [
        "Ġimprov",
        -10.014454222466366
      ],
      [
        "Ġguy",
        -10.014528840663925
      ],
      [
        "Ġprimaril",
        -10.014544627078523
      ],
      [
        "Ġworker",
        -10.01475399905052
      ],
      [
        "Ġcollege",
        -10.014894320720868
      ],
      [
        "ĠPeople",
        -10.014947804527148
      ],
      [
        "-in",
        -10.01509365277184
      ],
      [
        "Ġborn",
        -10.015197284700536
      ],
      [
        "Ġemotional",
        -10.016520181937445
      ],
      [
        "Ġtight",
        -10.01662191556575
      ],
      [
        "Ġplate",
        -10.017354734946194
      ],
      [
        "Ġexam",
        -10.017464416623977
      ],
      [
        "Ġeliminate",
        -10.017484225647706
      ],
      [
        "Ġcolon",
        -10.017968819802933
      ],
      [
        "Ġstomach",
        -10.018251773996669
      ],
      [
        "Ġtraffic",
        -10.018931734053108
      ],
      [
        "Ġoptimal",
        -10.019861581470916
      ],
      [
        "ĠUV",
        -10.02028095883224
      ],
      [
        "Ġtitle",
        -10.020722384723271
      ],
      [
        "Ġradiation",
        -10.020748616839008
      ],
      [
        "nternational",
        -10.020751436548096
      ],
      [
        "Ġsymbol",
        -10.021308934107386
      ],
      [
        "Ġoutdoor",
        -10.021404698906474
      ],
      [
        "Ġequation",
        -10.021867921313405
      ],
      [
        "Ġtransform",
        -10.022524564807414
      ],
      [
        "Ġmode",
        -10.022924878415298
      ],
      [
        "Ġchose",
        -10.023011587975752
      ],
      [
        "ĠDon",
        -10.02302302811524
      ],
      [
        "Ġcapabilit",
        -10.023027752083184
      ],
      [
        "Ġcomposition",
        -10.02328794654634
      ],
      [
        "Ġhelpful",
        -10.024203861483825
      ],
      [
        "Ġinternal",
        -10.024388789190729
      ],
      [
        "Ġnice",
        -10.025124441506978
      ],
      [
        "Ġhydrogen",
        -10.025421085061756
      ],
      [
        "related",
        -10.025762505213596
      ],
      [
        "Ġfault",
        -10.02597600941068
      ],
      [
        "Ġwildlife",
        -10.026278844207354
      ],
      [
        "Ġtrial",
        -10.02690714566317
      ],
      [
        "Ġadvice",
        -10.02691927896145
      ],
      [
        "Ġchronic",
        -10.027501256753602
      ],
      [
        "Ġrelationships",
        -10.027792760092048
      ],
      [
        "Ġassess",
        -10.028329510748922
      ],
      [
        "Ġraw",
        -10.028335242511814
      ],
      [
        "nstead",
        -10.028447838056328
      ],
      [
        "Ġpredict",
        -10.02852146672735
      ],
      [
        "Ġhabit",
        -10.029925674572532
      ],
      [
        "Ġfoundation",
        -10.03063002262759
      ],
      [
        "Ġchain",
        -10.03071463717718
      ],
      [
        "Ġrough",
        -10.030877079289212
      ],
      [
        "Ġhospital",
        -10.032492015049822
      ],
      [
        "ĠKeep",
        -10.034380469959402
      ],
      [
        "Ġintend",
        -10.035216484246163
      ],
      [
        "Ġrealize",
        -10.036369629260642
      ],
      [
        "Ġjump",
        -10.036475923844874
      ],
      [
        "Ġinteraction",
        -10.037511146683803
      ],
      [
        "Ġbatteries",
        -10.03767811209674
      ],
      [
        "Ġshot",
        -10.03821299173904
      ],
      [
        "tic",
        -10.038318557344695
      ],
      [
        "Ġagriculture",
        -10.038538847970695
      ],
      [
        "Ġcatch",
        -10.03871246421268
      ],
      [
        "Ġengineering",
        -10.038913857107854
      ],
      [
        "Ġradio",
        -10.039250399899665
      ],
      [
        "Ġ<",
        -10.039846256239008
      ],
      [
        "Ġbeneficial",
        -10.041566727302897
      ],
      [
        "Ġcreatures",
        -10.041611909446686
      ],
      [
        "ĠSystem",
        -10.042021360584034
      ],
      [
        "Ġarm",
        -10.042080929862369
      ],
      [
        "ĠColor",
        -10.043547691054869
      ],
      [
        "Ġfail",
        -10.043581090174497
      ],
      [
        "Ġnaturally",
        -10.043609533638993
      ],
      [
        "Ġtru",
        -10.045011891989414
      ],
      [
        "Ġorigin",
        -10.04505368335198
      ],
      [
        "ĠIndian",
        -10.045314311797192
      ],
      [
        "Ġdistinct",
        -10.045352335291993
      ],
      [
        "Ġdatabase",
        -10.04581694803336
      ],
      [
        "Ġsensitive",
        -10.046133557421028
      ],
      [
        "Ġaspect",
        -10.046638067900048
      ],
      [
        "Ġboil",
        -10.047230503851912
      ],
      [
        "ĠFurther",
        -10.047406775560043
      ],
      [
        "Ġlay",
        -10.047892241872567
      ],
      [
        "Ġmobile",
        -10.04813587216631
      ],
      [
        "Ġboost",
        -10.048251290802586
      ],
      [
        "Ġprior",
        -10.048608496564448
      ],
      [
        "ĠBoth",
        -10.04928001070245
      ],
      [
        "Ġplent",
        -10.049437978821889
      ],
      [
        "Ġdiagram",
        -10.050174701275132
      ],
      [
        "Ġemail",
        -10.050300852004044
      ],
      [
        "ĠAbout",
        -10.05053994788132
      ],
      [
        "Ġsit",
        -10.05059201821043
      ],
      [
        "Most",
        -10.050742628346717
      ],
      [
        "Ġorgan",
        -10.051217101941605
      ],
      [
        "Ġstandards",
        -10.052293486248097
      ],
      [
        "Ġattract",
        -10.05244363785854
      ],
      [
        "Ġmolecule",
        -10.05273629081455
      ],
      [
        "Ġperspective",
        -10.053663301560796
      ],
      [
        "Ġhelping",
        -10.05393800103521
      ],
      [
        "Ġanalyze",
        -10.053946958395883
      ],
      [
        "he",
        -10.054900251268316
      ],
      [
        "that",
        -10.055557605354242
      ],
      [
        "Ġblog",
        -10.055798924352132
      ],
      [
        "ĠCanada",
        -10.056031741350708
      ],
      [
        "-free",
        -10.056442480953317
      ],
      [
        "Ġband",
        -10.057074532665528
      ],
      [
        "Ġgrass",
        -10.05713285370445
      ],
      [
        "Ġprecise",
        -10.057434378242151
      ],
      [
        "Ġrestaurant",
        -10.057446494688143
      ],
      [
        "Ġinfant",
        -10.057912724647156
      ],
      [
        "Ġrelax",
        -10.058433917051737
      ],
      [
        "Ġdental",
        -10.059103153262974
      ],
      [
        "Ġresolution",
        -10.05947067474839
      ],
      [
        "Ġsmart",
        -10.059613894582416
      ],
      [
        "Ġbar",
        -10.062018422696084
      ],
      [
        "ant",
        -10.06310257661568
      ],
      [
        "Ġprepared",
        -10.064042569483432
      ],
      [
        "Ġcalci",
        -10.065849684459636
      ],
      [
        "Ġappeal",
        -10.066141098192023
      ],
      [
        "Ġfirm",
        -10.06722295315285
      ],
      [
        "Ġestimated",
        -10.068832319935968
      ],
      [
        "ĠCO",
        -10.069017343934116
      ],
      [
        "Ġamazing",
        -10.069932322769295
      ],
      [
        "Ġpercentage",
        -10.06993510409836
      ],
      [
        "Ġconsequence",
        -10.070362064160935
      ],
      [
        "Ġdangerous",
        -10.07047690302664
      ],
      [
        "Ġlaser",
        -10.07061717315282
      ],
      [
        "ily",
        -10.07108892773157
      ],
      [
        "ĠFood",
        -10.071989630158784
      ],
      [
        "Ġcm",
        -10.073393524082814
      ],
      [
        "Ġillness",
        -10.073404750505308
      ],
      [
        "Ġchoos",
        -10.073736374784168
      ],
      [
        "ese",
        -10.074328652572213
      ],
      [
        "Ġprove",
        -10.074443528096545
      ],
      [
        "Ġbrush",
        -10.075199182661002
      ],
      [
        "Ġcapabl",
        -10.075649740462286
      ],
      [
        "ĠLED",
        -10.076525366306935
      ],
      [
        "what",
        -10.077111458839235
      ],
      [
        "Ġmaster",
        -10.077747611668824
      ],
      [
        "Ġbottle",
        -10.078320027808534
      ],
      [
        "Ġpepper",
        -10.07848313474091
      ],
      [
        "Ġinsurance",
        -10.078505519971028
      ],
      [
        "Ġsell",
        -10.07953151846468
      ],
      [
        "Ġroof",
        -10.080488132856493
      ],
      [
        "Ġincorporate",
        -10.080628949104357
      ],
      [
        "Ġestimate",
        -10.0810369444361
      ],
      [
        "Many",
        -10.081150342509686
      ],
      [
        "Ġsports",
        -10.08123692326104
      ],
      [
        "Ġscore",
        -10.08131180820166
      ],
      [
        "Ġaudience",
        -10.08160758167881
      ],
      [
        "Ġfix",
        -10.08166737652878
      ],
      [
        "board",
        -10.081742359194834
      ],
      [
        "highly",
        -10.081790867105257
      ],
      [
        "Ġrelevant",
        -10.08214188104022
      ],
      [
        "Ġremov",
        -10.08293482784356
      ],
      [
        "Ġprofile",
        -10.083868299728827
      ],
      [
        "diversity",
        -10.084422102690198
      ],
      [
        "Ġimprovement",
        -10.085123505731357
      ],
      [
        "Use",
        -10.085177725947435
      ],
      [
        "...Ċ",
        -10.08554875000896
      ],
      [
        "Yes",
        -10.085876296684512
      ],
      [
        "Ġattend",
        -10.08639330454773
      ],
      [
        "Ġbroken",
        -10.086422302823866
      ],
      [
        "Ġmolecular",
        -10.088873954222851
      ],
      [
        "Ġinstallation",
        -10.090642902532927
      ],
      [
        "Ġdisk",
        -10.090674410289846
      ],
      [
        "ĠAsia",
        -10.090718423597975
      ],
      [
        "Ġleaving",
        -10.090811148608047
      ],
      [
        "Ġlens",
        -10.09209662155649
      ],
      [
        "Ġfear",
        -10.092558292666274
      ],
      [
        "Ġtail",
        -10.092652195767949
      ],
      [
        "Ġconsideration",
        -10.09369408665662
      ],
      [
        "Ġpolitical",
        -10.09370113370984
      ],
      [
        "My",
        -10.094334818513566
      ],
      [
        "Ġspray",
        -10.09450378203496
      ],
      [
        "Ġcoffee",
        -10.094557067507504
      ],
      [
        "Ġassist",
        -10.094902754654804
      ],
      [
        "Ġpropose",
        -10.09506793953627
      ],
      [
        "weight",
        -10.095212683522938
      ],
      [
        "Ġteach",
        -10.095690168352688
      ],
      [
        "Ġquant",
        -10.095710713904992
      ],
      [
        "ĠDog",
        -10.09608981831366
      ],
      [
        "our",
        -10.096773164438474
      ],
      [
        "Ġsauce",
        -10.097300736750238
      ],
      [
        "ĠJune",
        -10.097719441171286
      ],
      [
        "Ġbrake",
        -10.09813134363644
      ],
      [
        "Ġmammal",
        -10.099126865811169
      ],
      [
        "Ġneuron",
        -10.099220436111509
      ],
      [
        "ĠWhere",
        -10.09973043112618
      ],
      [
        "Ġsurvival",
        -10.099833753322848
      ],
      [
        "Ġfields",
        -10.099975104139144
      ],
      [
        "Ġpure",
        -10.10003914031057
      ],
      [
        "Ġsuper",
        -10.100380540159076
      ],
      [
        "ĠDoes",
        -10.100679158393696
      ],
      [
        "ĠNov",
        -10.101514741643818
      ],
      [
        "Ġsolve",
        -10.102357717067644
      ],
      [
        "Ġlifestyle",
        -10.10312081257011
      ],
      [
        "Ġsnow",
        -10.10314465493733
      ],
      [
        "Ġwoman",
        -10.104090399408571
      ],
      [
        "Ġnation",
        -10.104866484255172
      ],
      [
        "ĠOcto",
        -10.105620777866022
      ],
      [
        "ĠWorksheets",
        -10.105892235403395
      ],
      [
        "Ġmeeting",
        -10.107199699158087
      ],
      [
        "how",
        -10.107236691758343
      ],
      [
        "-level",
        -10.107374661999204
      ],
      [
        "ĠHis",
        -10.107548657053798
      ],
      [
        "Ġsector",
        -10.107711042639613
      ],
      [
        "Ġthorough",
        -10.107777379979895
      ],
      [
        "Ġcotton",
        -10.107904336293563
      ],
      [
        "ĠWest",
        -10.108402962902296
      ],
      [
        "Ġchalleng",
        -10.108792241176296
      ],
      [
        "Ġexpress",
        -10.10889916092708
      ],
      [
        "tried",
        -10.109741735357302
      ],
      [
        "Ġstrain",
        -10.110344993925985
      ],
      [
        "Ġquantit",
        -10.11112292194356
      ],
      [
        "Ġopinion",
        -10.111971432207875
      ],
      [
        "Ġchapter",
        -10.11232531955768
      ],
      [
        "ng",
        -10.113974277807804
      ],
      [
        "Ġobjective",
        -10.114351893494844
      ],
      [
        "Ġshed",
        -10.114415543632669
      ],
      [
        "Ġencounter",
        -10.115154730199588
      ],
      [
        "Ġprompt",
        -10.115173710011703
      ],
      [
        "Ġminerals",
        -10.115216748242954
      ],
      [
        "Ġversatil",
        -10.11608930723325
      ],
      [
        "Are",
        -10.116204960504458
      ],
      [
        "Ġmold",
        -10.11641204056063
      ],
      [
        "Ġtechnical",
        -10.11653460348962
      ],
      [
        "Ġsport",
        -10.117478192718094
      ],
      [
        "Ġassume",
        -10.117624074457254
      ],
      [
        "Ġuniversit",
        -10.117966218498172
      ],
      [
        "Ġutilize",
        -10.117974282925625
      ],
      [
        "with",
        -10.11806436897269
      ],
      [
        "Ġvariet",
        -10.11963949920512
      ],
      [
        "Ġobvious",
        -10.120812807302569
      ],
      [
        "Ġeight",
        -10.12165962006565
      ],
      [
        "Ġleaf",
        -10.121706144174116
      ],
      [
        "Ġperhap",
        -10.122420923990436
      ],
      [
        "Ġheal",
        -10.122514879187465
      ],
      [
        "ĠGuide",
        -10.123232834908515
      ],
      [
        "Ġindustrial",
        -10.123442955008752
      ],
      [
        "Conclusion",
        -10.123725423285316
      ],
      [
        "Ġconfirm",
        -10.124386443415052
      ],
      [
        "Ġsex",
        -10.124586452536144
      ],
      [
        "Ġlibrar",
        -10.124664305049455
      ],
      [
        "Ġsmell",
        -10.124915052822304
      ],
      [
        "Ġspecialize",
        -10.125014771263375
      ],
      [
        "Ġseat",
        -10.126073475492715
      ],
      [
        "Ġfelt",
        -10.126301824063216
      ],
      [
        "Ġmineral",
        -10.126322144840376
      ],
      [
        "Ġemotion",
        -10.126774999439949
      ],
      [
        "Ġshade",
        -10.127005993046405
      ],
      [
        "acific",
        -10.127008426671877
      ],
      [
        "Ġworry",
        -10.128736424110931
      ],
      [
        "Ġreward",
        -10.129401629896131
      ],
      [
        "Ġprobabilit",
        -10.132675656399108
      ],
      [
        "Ġexplanation",
        -10.13288172149803
      ],
      [
        "Ġclothes",
        -10.133025247863308
      ],
      [
        "Ġsatellite",
        -10.13318921080986
      ],
      [
        "Ġreact",
        -10.133307605601686
      ],
      [
        "Ġboundar",
        -10.134325176192132
      ],
      [
        "Ġprivate",
        -10.134328621041112
      ],
      [
        "**",
        -10.134894477198795
      ],
      [
        "Ġsnail",
        -10.137091947536078
      ],
      [
        "Ġcompetition",
        -10.137265612869722
      ],
      [
        "Ġupdate",
        -10.138196907404636
      ],
      [
        "Ġweld",
        -10.138244744069205
      ],
      [
        "Ġsuffer",
        -10.140198670137735
      ],
      [
        "Ġplanting",
        -10.140690041656494
      ],
      [
        "Ġsufficient",
        -10.141788555214656
      ],
      [
        "thinking",
        -10.14221896979572
      ],
      [
        "Ġconduct",
        -10.14227764373152
      ],
      [
        "Ġstorm",
        -10.142999316496836
      ],
      [
        "coming",
        -10.143032255581224
      ],
      [
        "Ġkitchen",
        -10.14320712589439
      ],
      [
        "ĠJanu",
        -10.143554537898448
      ],
      [
        "Ġurban",
        -10.143945603560097
      ],
      [
        "ĠRed",
        -10.146084722195326
      ],
      [
        "Ġlinked",
        -10.14613132854619
      ],
      [
        "Ġrace",
        -10.14681560155109
      ],
      [
        "Ġseven",
        -10.14770235453974
      ],
      [
        "ĠY",
        -10.148045825022988
      ],
      [
        "Ġcooked",
        -10.148454268362084
      ],
      [
        "Ġawareness",
        -10.148963682638524
      ],
      [
        "Ġexcess",
        -10.150308946449083
      ],
      [
        "Ġspeak",
        -10.15033830119961
      ],
      [
        "Ġchair",
        -10.150744750280282
      ],
      [
        "Ġmanner",
        -10.150992163119174
      ],
      [
        "ĠHome",
        -10.151638316746173
      ],
      [
        "U",
        -10.15174835260672
      ],
      [
        "ĠAustralia",
        -10.151864103418845
      ],
      [
        "First",
        -10.1523495980424
      ],
      [
        "Ġprogramm",
        -10.152410165057056
      ],
      [
        "ions",
        -10.154450296743274
      ],
      [
        "Ġcomparison",
        -10.154584826152536
      ],
      [
        "Ġpasse",
        -10.155026888192468
      ],
      [
        "Ġabsolute",
        -10.155145567516325
      ],
      [
        "Ġbloom",
        -10.155497401603329
      ],
      [
        "Onc",
        -10.155581348886123
      ],
      [
        "Ġvast",
        -10.155645613479052
      ],
      [
        "Ġmill",
        -10.156247678643416
      ],
      [
        "most",
        -10.156817863693105
      ],
      [
        "Ġcream",
        -10.158189231650738
      ],
      [
        "Ġprofessor",
        -10.159301104753222
      ],
      [
        "made",
        -10.159353000230125
      ],
      [
        "Ġsaving",
        -10.15936291334218
      ],
      [
        "Ġinnovation",
        -10.159598593483988
      ],
      [
        "ĠIsland",
        -10.15968046704078
      ],
      [
        "Ġmilitar",
        -10.160045812484237
      ],
      [
        "Ġprinter",
        -10.160058207579702
      ],
      [
        "Ġintegrate",
        -10.161268460297782
      ],
      [
        "Ġincredibl",
        -10.161505803272677
      ],
      [
        "ĠGeneral",
        -10.161820098557646
      ],
      [
        "Ġdetermin",
        -10.161879658912303
      ],
      [
        "Ġdirector",
        -10.16226263878595
      ],
      [
        "Ġpets",
        -10.1631953454933
      ],
      [
        "Ġdownload",
        -10.163408108588987
      ],
      [
        "Ġchocolate",
        -10.163786306202056
      ],
      [
        "ĠLife",
        -10.165041283185731
      ],
      [
        "ĠCollege",
        -10.166567727665864
      ],
      [
        "Ġvirus",
        -10.167343265026789
      ],
      [
        "Ġcompost",
        -10.167965965716558
      ],
      [
        "Ġapproache",
        -10.168129467288733
      ],
      [
        "Ġfunctional",
        -10.169594600021473
      ],
      [
        "Ġstable",
        -10.169683474835931
      ],
      [
        "Ġtile",
        -10.169866524356436
      ],
      [
        "Ġtrust",
        -10.169905852529771
      ],
      [
        "Ġtrait",
        -10.171523540414007
      ],
      [
        "allowed",
        -10.171598975363214
      ],
      [
        "Ġaccurac",
        -10.172582386684311
      ],
      [
        "Ġpregnanc",
        -10.172607772103454
      ],
      [
        "ĠLight",
        -10.17275990298059
      ],
      [
        "Ġacademic",
        -10.173809946521096
      ],
      [
        "Ġvelocit",
        -10.173911002664369
      ],
      [
        "Ġsalivary",
        -10.174400577589813
      ],
      [
        "More",
        -10.174679303789738
      ],
      [
        "\"The",
        -10.175387652769183
      ],
      [
        "Ġweigh",
        -10.17686859166336
      ],
      [
        "Ġfurnace",
        -10.17698581450496
      ],
      [
        "Ġlaws",
        -10.177034083825472
      ],
      [
        "Ġbabies",
        -10.177350034476632
      ],
      [
        "Ġtall",
        -10.177575299238736
      ],
      [
        "Ġreplacement",
        -10.177640765307531
      ],
      [
        "Ġbug",
        -10.177875439574148
      ],
      [
        "Ġexternal",
        -10.178095202029422
      ],
      [
        "Ġorganoid",
        -10.178946248573904
      ],
      [
        "ĠCo",
        -10.180169117977478
      ],
      [
        "Ġrelation",
        -10.18074154096252
      ],
      [
        "Ġaccident",
        -10.181188269509857
      ],
      [
        "Ġsecret",
        -10.181242844560048
      ],
      [
        "Ġassembl",
        -10.181628494854747
      ],
      [
        "Ġrid",
        -10.182054613007754
      ],
      [
        "Ġinvestment",
        -10.182483636727229
      ],
      [
        "Ġloop",
        -10.1846210036257
      ],
      [
        "Ġhistorical",
        -10.185217298728508
      ],
      [
        "Ġfoster",
        -10.186639479042352
      ],
      [
        "ĠCommon",
        -10.188279902219964
      ],
      [
        "Ġliver",
        -10.188310760644391
      ],
      [
        "Ġdefinition",
        -10.188430022562928
      ],
      [
        "Ġweak",
        -10.188433829126703
      ],
      [
        "ĠOcean",
        -10.188835923540886
      ],
      [
        "Ġbiolog",
        -10.188922026492758
      ],
      [
        "Ġagent",
        -10.189055978705063
      ],
      [
        "Ġbike",
        -10.189471478050589
      ],
      [
        "Ġprinciple",
        -10.189567573002323
      ],
      [
        "ĠPh",
        -10.189821722378532
      ],
      [
        "Ġsouth",
        -10.189989787358058
      ],
      [
        "Ġconversation",
        -10.190972976553766
      ],
      [
        "Your",
        -10.190994269323197
      ],
      [
        "Ġresponsibilit",
        -10.191041764392786
      ],
      [
        "Ġgift",
        -10.191079522141724
      ],
      [
        "@",
        -10.191245578406583
      ],
      [
        "Ġprovider",
        -10.19156185643
      ],
      [
        "ate",
        -10.191925583827429
      ],
      [
        "Ġdeposit",
        -10.192038063668342
      ],
      [
        "Ġrely",
        -10.194485000686983
      ],
      [
        "According",
        -10.194668307938487
      ],
      [
        "Ġspin",
        -10.195086058311972
      ],
      [
        "Ġclan",
        -10.19555124060772
      ],
      [
        "ĠHuman",
        -10.195668849962498
      ],
      [
        "Ġriver",
        -10.196652239699976
      ],
      [
        "Ġcrack",
        -10.196940939708089
      ],
      [
        "ĠZ",
        -10.19755928448534
      ],
      [
        "Ġcovers",
        -10.197733842778572
      ],
      [
        "Ġinner",
        -10.197768600557144
      ],
      [
        "|Ċ",
        -10.19810796400918
      ],
      [
        "Ġeconom",
        -10.198361779151796
      ],
      [
        "ĠSun",
        -10.198468988825049
      ],
      [
        "Ġfac",
        -10.19856390992368
      ],
      [
        "lbs",
        -10.198843010797876
      ],
      [
        "ought",
        -10.199433805271545
      ],
      [
        "Ġten",
        -10.199742374705984
      ],
      [
        "ĠRe",
        -10.199972952559929
      ],
      [
        "Ġstability",
        -10.2003786362862
      ],
      [
        "Ġregulate",
        -10.201508037359805
      ],
      [
        "Ġspen",
        -10.201559213373583
      ],
      [
        "Ġisland",
        -10.202289690717857
      ],
      [
        "Ġshowing",
        -10.202684525399444
      ],
      [
        "Just",
        -10.203818536688434
      ],
      [
        "Ġreferre",
        -10.20390802234106
      ],
      [
        "Ġopening",
        -10.204103658872768
      ],
      [
        "-time",
        -10.204212589974071
      ],
      [
        "Ġdecided",
        -10.204244486877192
      ],
      [
        "Ġsurprise",
        -10.204881956324868
      ],
      [
        "Ġvacuum",
        -10.205124959660184
      ],
      [
        "Ġsharp",
        -10.2055630630867
      ],
      [
        "--",
        -10.20619853268524
      ],
      [
        "idian",
        -10.20638268175744
      ],
      [
        "Ġtooth",
        -10.206773758149318
      ],
      [
        "ĠCount",
        -10.20824340569888
      ],
      [
        "Ġconflict",
        -10.20932165767122
      ],
      [
        "can",
        -10.209482243896565
      ],
      [
        "Ġscenario",
        -10.209591602334529
      ],
      [
        "Ġconstruct",
        -10.209836122952758
      ],
      [
        "Ġcarried",
        -10.210002754989617
      ],
      [
        "Ġclock",
        -10.210202052949398
      ],
      [
        "ĠGreen",
        -10.211069774663502
      ],
      [
        "Ġputt",
        -10.21141827582958
      ],
      [
        "Ġwish",
        -10.211568961701747
      ],
      [
        "Ġdirt",
        -10.21159731341046
      ],
      [
        "ĠEnergy",
        -10.211637644446755
      ],
      [
        "Ġfiles",
        -10.21217861759979
      ],
      [
        "Ġinch",
        -10.21285428252687
      ],
      [
        "Ġsizes",
        -10.214241068706826
      ],
      [
        "Ġinteractions",
        -10.214317749215
      ],
      [
        "}",
        -10.214433280635925
      ],
      [
        "standing",
        -10.21510095989241
      ],
      [
        "Ġsent",
        -10.215785258149351
      ],
      [
        "Ġrespective",
        -10.216665044005332
      ],
      [
        "Ġbus",
        -10.217141382763703
      ],
      [
        "ĠDesign",
        -10.218592013804294
      ],
      [
        "Ġadopt",
        -10.219017443856009
      ],
      [
        "Ġdiameter",
        -10.219514456441347
      ],
      [
        "Ġpreparation",
        -10.219536148771043
      ],
      [
        "Ġsunlight",
        -10.219601318499334
      ],
      [
        "Ġvs",
        -10.21981314398345
      ],
      [
        "Ġbio",
        -10.2205407424658
      ],
      [
        "Ġformat",
        -10.2206643407496
      ],
      [
        "Ġtomato",
        -10.223133971475466
      ],
      [
        "Ġworkshop",
        -10.22316320506517
      ],
      [
        "Ġcharg",
        -10.224259731834469
      ],
      [
        "Ġdecide",
        -10.224632145936146
      ],
      [
        "Ġobes",
        -10.22498258689846
      ],
      [
        "Ġcommunicate",
        -10.225004673048872
      ],
      [
        "Ġsold",
        -10.22506007775215
      ],
      [
        "Ġengineer",
        -10.226722925036489
      ],
      [
        "Ġpermanent",
        -10.227188796132108
      ],
      [
        "ĠJul",
        -10.227454748207332
      ],
      [
        "Ġbigger",
        -10.22874984535772
      ],
      [
        "wood",
        -10.228946396025847
      ],
      [
        "ĠGet",
        -10.22993268663538
      ],
      [
        "Ġvariable",
        -10.230913352325947
      ],
      [
        "Ġdiagnose",
        -10.23135669254782
      ],
      [
        "Ġbroad",
        -10.231768604117049
      ],
      [
        "Ġroute",
        -10.23186688428996
      ],
      [
        "Ġappears",
        -10.232931314667391
      ],
      [
        "ĠWorksheet",
        -10.233553805609112
      ],
      [
        "Ġassistant",
        -10.2336596547863
      ],
      [
        "Ġexcessive",
        -10.234591840729042
      ],
      [
        "Ġbowl",
        -10.234662494734414
      ],
      [
        "Ġhousehold",
        -10.234768127818896
      ],
      [
        "Ġshar",
        -10.236158015381156
      ],
      [
        "ĠPower",
        -10.23769220122072
      ],
      [
        "Ġtrend",
        -10.238146550354251
      ],
      [
        "ĠSociety",
        -10.238789142842084
      ],
      [
        "].",
        -10.239400994946896
      ],
      [
        "Ġfarmers",
        -10.239434512152243
      ],
      [
        "adding",
        -10.23988082967108
      ],
      [
        "Ġmath",
        -10.2411693368315
      ],
      [
        "Ġscratch",
        -10.241559167577355
      ],
      [
        "ĠAugust",
        -10.242166283246558
      ],
      [
        "Ġlung",
        -10.242658093974432
      ],
      [
        "Ġextensive",
        -10.242942144002576
      ],
      [
        "Ġgear",
        -10.242972839265
      ],
      [
        "Ġcrystal",
        -10.243010612244456
      ],
      [
        "Ġclans",
        -10.243027874137388
      ],
      [
        "Ġborder",
        -10.243213104552666
      ],
      [
        "ĠLike",
        -10.244073721300635
      ],
      [
        "Ġfair",
        -10.244295974950418
      ],
      [
        "Ġconducted",
        -10.244672135834882
      ],
      [
        "Ġcraft",
        -10.244715993203934
      ],
      [
        "Ġstudied",
        -10.24505651509521
      ],
      [
        "Let",
        -10.24508409449757
      ],
      [
        "Ġlift",
        -10.24514838371234
      ],
      [
        "Ġnutrition",
        -10.245663793509893
      ],
      [
        "Ġshoulder",
        -10.24654957271526
      ],
      [
        "Ġthermal",
        -10.246616494952008
      ],
      [
        "From",
        -10.24665044711198
      ],
      [
        "Ġderive",
        -10.246652030311694
      ],
      [
        "Ġinvention",
        -10.247306136185632
      ],
      [
        "cities",
        -10.247564634954164
      ],
      [
        "?\"",
        -10.247666681292486
      ],
      [
        "Ġcalm",
        -10.248047359916184
      ],
      [
        "Ġspectrum",
        -10.24907134854791
      ],
      [
        "Ġdestroy",
        -10.250388293319268
      ],
      [
        "-friendl",
        -10.250397546380722
      ],
      [
        "no",
        -10.25102827056807
      ],
      [
        "Ġreache",
        -10.25127176474292
      ],
      [
        "Ġdebri",
        -10.25207121131912
      ],
      [
        "ĠThus",
        -10.252474335592051
      ],
      [
        "Ġleak",
        -10.2528299750469
      ],
      [
        "Ġparallel",
        -10.253113844407132
      ],
      [
        "Ġemployees",
        -10.253223084829862
      ],
      [
        "Ġbean",
        -10.253224601960982
      ],
      [
        "ĠClass",
        -10.25328893396675
      ],
      [
        "Ġshop",
        -10.253971970851907
      ],
      [
        "ĠGo",
        -10.254313802063926
      ],
      [
        "Ġlaborator",
        -10.254879918154412
      ],
      [
        "ĠÂ·",
        -10.254990076458638
      ],
      [
        "ĠProgram",
        -10.255939143789174
      ],
      [
        "Ġdimension",
        -10.25609635993312
      ],
      [
        "ĠEngland",
        -10.256271490057667
      ],
      [
        "Ġdevelope",
        -10.257257325192942
      ],
      [
        "Ġvarie",
        -10.257528764496175
      ],
      [
        "Ġinflammation",
        -10.257597349748425
      ],
      [
        "Ġgreenhouse",
        -10.257931067288366
      ],
      [
        "Ġtransmission",
        -10.258930828325877
      ],
      [
        "Ġherb",
        -10.259106424064925
      ],
      [
        "Ġcircle",
        -10.259823482643
      ],
      [
        "Ġdedicate",
        -10.259876505382117
      ],
      [
        "ĠCouncil",
        -10.261801620927002
      ],
      [
        "(x",
        -10.262239133031212
      ],
      [
        "Ġbecom",
        -10.262257249988645
      ],
      [
        "Ġsudden",
        -10.262475113360038
      ],
      [
        "Ġwasn",
        -10.262479252199894
      ],
      [
        "ĠGoogle",
        -10.262527799990936
      ],
      [
        "Ġgradual",
        -10.26276247787625
      ],
      [
        "Ġopposite",
        -10.263020029756245
      ],
      [
        "Over",
        -10.263326061081967
      ],
      [
        "Ġcoast",
        -10.263747017962626
      ],
      [
        "but",
        -10.26377484534476
      ],
      [
        "Ġbelief",
        -10.263894239153718
      ],
      [
        "Ġchest",
        -10.264196186749906
      ],
      [
        "Ġatoms",
        -10.264216810943829
      ],
      [
        "Ġchoices",
        -10.264395901838864
      ],
      [
        "Ġcalorie",
        -10.264589066578518
      ],
      [
        "Ġmutation",
        -10.264737971569456
      ],
      [
        "Ġgrant",
        -10.265056097934837
      ],
      [
        "ĠLake",
        -10.265184448775512
      ],
      [
        "Ġdrain",
        -10.266079233951302
      ],
      [
        "Ġconfidence",
        -10.266338498881527
      ],
      [
        "Ġcarbohydrate",
        -10.268403235058848
      ],
      [
        "Ġnitrogen",
        -10.269200426871564
      ],
      [
        "Ġguid",
        -10.269968234784486
      ],
      [
        "talking",
        -10.270907087567268
      ],
      [
        "Ġwet",
        -10.27260604353916
      ],
      [
        "ĠToday",
        -10.273165943386852
      ],
      [
        "ĠHistor",
        -10.273390568152546
      ],
      [
        "Ġcloser",
        -10.274404142660682
      ],
      [
        "Ġfather",
        -10.274513433579536
      ],
      [
        "ĠTwo",
        -10.275112578568471
      ],
      [
        "Ġtrace",
        -10.275665487322488
      ],
      [
        "ĠUp",
        -10.27632072884238
      ],
      [
        "Ġminimize",
        -10.27644251011754
      ],
      [
        "ification",
        -10.27679956733138
      ],
      [
        "Ġtoxic",
        -10.277121719223503
      ],
      [
        "Ġbudget",
        -10.277227479025113
      ],
      [
        "ĠCheck",
        -10.277320844267033
      ],
      [
        "Ġinfrastructure",
        -10.27779258659334
      ],
      [
        "j",
        -10.278315715447818
      ],
      [
        "Ġintake",
        -10.278426207079232
      ],
      [
        "Ġshapes",
        -10.278547697767197
      ],
      [
        "Ġvalve",
        -10.2791673236719
      ],
      [
        "Which",
        -10.279457893792424
      ],
      [
        "Ġouter",
        -10.2798687944755
      ],
      [
        "Ġintroduction",
        -10.280231779010675
      ],
      [
        "Ġloose",
        -10.280385230878435
      ],
      [
        "ĠObs",
        -10.280535215198595
      ],
      [
        "Ġcarrier",
        -10.280681538131487
      ],
      [
        "Ġpartner",
        -10.28125259389886
      ],
      [
        "Ġtradition",
        -10.28141875119355
      ],
      [
        "Ġdelicious",
        -10.282114183355633
      ],
      [
        "Ġagenc",
        -10.282171785221683
      ],
      [
        "Ġdelay",
        -10.282192539197307
      ],
      [
        "Ġnews",
        -10.282850141969888
      ],
      [
        "Ġcurve",
        -10.283253224378477
      ],
      [
        "Ġcorresponding",
        -10.284051207521884
      ],
      [
        "from",
        -10.28413077749516
      ],
      [
        "&",
        -10.28414670463444
      ],
      [
        "Ġflea",
        -10.284231067274284
      ],
      [
        "Ġdigesti",
        -10.285838384402211
      ],
      [
        "Ġexplor",
        -10.286202195461152
      ],
      [
        "Ġmicro",
        -10.286507643837009
      ],
      [
        "Ġparticipate",
        -10.286619667163018
      ],
      [
        "Ġseparation",
        -10.287227261047397
      ],
      [
        "Ġconcret",
        -10.287462623503565
      ],
      [
        "Ġmoon",
        -10.287743827960776
      ],
      [
        "ĠHave",
        -10.28781648458038
      ],
      [
        "Ġwin",
        -10.288700869851969
      ],
      [
        "ĠFrench",
        -10.28874725374908
      ],
      [
        "Ġestablishe",
        -10.289034500126302
      ],
      [
        "Ġprogramme",
        -10.289282292309457
      ],
      [
        "Ġwashing",
        -10.290106918817656
      ],
      [
        "Ġplays",
        -10.290209524169873
      ],
      [
        "Ġcloud",
        -10.290665081348047
      ],
      [
        "ĠMr",
        -10.290978789492652
      ],
      [
        "New",
        -10.291124514617454
      ],
      [
        "Ġimagine",
        -10.291138626245896
      ],
      [
        "Ġfamiliar",
        -10.291628498807132
      ],
      [
        "Ġinnovative",
        -10.29197092076948
      ],
      [
        "Ġnorthern",
        -10.292575468908574
      ],
      [
        "Ġgav",
        -10.294180961670945
      ],
      [
        "Ġconcepts",
        -10.296332215336548
      ],
      [
        "ĠTime",
        -10.297943718954777
      ],
      [
        "Ġintensit",
        -10.298269273064491
      ],
      [
        "Ġblade",
        -10.29899406039812
      ],
      [
        "ĠWhite",
        -10.299371444503546
      ],
      [
        "Ġconsult",
        -10.300368644422925
      ],
      [
        "-the",
        -10.300422311481956
      ],
      [
        "Ġstroke",
        -10.301146767539088
      ],
      [
        "Ġengag",
        -10.301307721302546
      ],
      [
        "ĠTHE",
        -10.301402128531432
      ],
      [
        "Ġsteam",
        -10.301597579662982
      ],
      [
        "ĠPleas",
        -10.301905683220935
      ],
      [
        "Ġnorth",
        -10.302452944016489
      ],
      [
        "Ġexciting",
        -10.302453385308036
      ],
      [
        "Ġmassive",
        -10.302812292831252
      ],
      [
        "Ġinstrument",
        -10.302895200370362
      ],
      [
        "Ġdiscusse",
        -10.302933553894713
      ],
      [
        "Ġarrangement",
        -10.303035028661183
      ],
      [
        "Ġcoral",
        -10.304705604921145
      ],
      [
        "itting",
        -10.306177738734393
      ],
      [
        "Ġhormone",
        -10.306501949789803
      ],
      [
        "Ġship",
        -10.307364003777865
      ],
      [
        "Ġluck",
        -10.307728549715218
      ],
      [
        "Ġabuse",
        -10.307895127360707
      ],
      [
        "Ġnotes",
        -10.308841131681728
      ],
      [
        "Ġbutter",
        -10.309094408908212
      ],
      [
        "Ġcheap",
        -10.309581792794605
      ],
      [
        "Ġattribute",
        -10.310398609483382
      ],
      [
        "Ġbreath",
        -10.310547423354514
      ],
      [
        "Ġwouldn",
        -10.310607123353702
      ],
      [
        "Ġparticle",
        -10.31286654702497
      ],
      [
        "Ġphotos",
        -10.313419748578935
      ],
      [
        "Ġflood",
        -10.31361196014873
      ],
      [
        "-of",
        -10.31377593103569
      ],
      [
        "Ġinstall",
        -10.314012764422682
      ],
      [
        "Ġmeant",
        -10.315191731509016
      ],
      [
        "Ġinter",
        -10.31576468466881
      ],
      [
        "ĠSan",
        -10.316797509267667
      ],
      [
        "Ġirrigation",
        -10.31683976455508
      ],
      [
        "ĠII",
        -10.317523426234526
      ],
      [
        "ĠAnimal",
        -10.31754535304599
      ],
      [
        "Ġcareful",
        -10.318728107822835
      ],
      [
        "Ġsubstance",
        -10.31893603248602
      ],
      [
        "ĠWindow",
        -10.319922747044082
      ],
      [
        "He",
        -10.320052992004412
      ],
      [
        "Ġchief",
        -10.320504607271612
      ],
      [
        "Ġneck",
        -10.320923874761744
      ],
      [
        "Ġargument",
        -10.323907322215211
      ],
      [
        "Ġexchange",
        -10.323993838568294
      ],
      [
        "Ġfamous",
        -10.32400385319653
      ],
      [
        "Ġpackage",
        -10.324296490812012
      ],
      [
        "Ġsignificance",
        -10.324447285953866
      ],
      [
        "Ġtumor",
        -10.324812552057177
      ],
      [
        "Ġvertical",
        -10.32482422774097
      ],
      [
        "Ġformer",
        -10.324983379881296
      ],
      [
        "Ġnewborn",
        -10.325225091698536
      ],
      [
        "ley",
        -10.325235155282964
      ],
      [
        "Ġinterface",
        -10.325245254197668
      ],
      [
        "Ġmarketing",
        -10.325251045820616
      ],
      [
        "Ġexcept",
        -10.325851206297203
      ],
      [
        "Ġnurse",
        -10.3270131300677
      ],
      [
        "installed",
        -10.327726474959608
      ],
      [
        "ĠHighland",
        -10.327771297085905
      ],
      [
        "Ġmention",
        -10.327878302443336
      ],
      [
        "Ġcopper",
        -10.329142049502526
      ],
      [
        "Ġdamaged",
        -10.329376719556995
      ],
      [
        "Ġimpossibl",
        -10.329599960081069
      ],
      [
        "Ġnose",
        -10.32961490188008
      ],
      [
        "Ġbill",
        -10.330521579113109
      ],
      [
        "Ġtwic",
        -10.33090984414507
      ],
      [
        "going",
        -10.331474216897186
      ],
      [
        "Not",
        -10.331999606535163
      ],
      [
        "ĠHi",
        -10.332090275793988
      ],
      [
        "Ġmembrane",
        -10.332368157344764
      ],
      [
        "ĠBlue",
        -10.33373019155202
      ],
      [
        "Ġnovel",
        -10.33430283775832
      ],
      [
        "Ġcognitive",
        -10.334806752864688
      ],
      [
        "Ġfertilizer",
        -10.33539825230269
      ],
      [
        "Ġdishe",
        -10.335956338055896
      ],
      [
        "Ġgap",
        -10.336030851383589
      ],
      [
        "Ġguess",
        -10.336426340827858
      ],
      [
        "Ġappreciate",
        -10.336761290613111
      ],
      [
        "ĠStudents",
        -10.33691182762302
      ],
      [
        "Ġcampaign",
        -10.337821225668932
      ],
      [
        "Ġinspire",
        -10.337822557693851
      ],
      [
        "Ġmovie",
        -10.337936232679295
      ],
      [
        "Ġsales",
        -10.338262939815138
      ],
      [
        "Ġpan",
        -10.338376347883388
      ],
      [
        "Ġequivalent",
        -10.338442710461296
      ],
      [
        "Ġcoal",
        -10.339677856447558
      ],
      [
        "Ġgraph",
        -10.339924458304363
      ],
      [
        "Ġorange",
        -10.34078277514576
      ],
      [
        "Ġride",
        -10.343222469024056
      ],
      [
        "ĠTechnology",
        -10.343575691787173
      ],
      [
        "Ġphysic",
        -10.3437961157827
      ],
      [
        "Ġsmok",
        -10.34459798998568
      ],
      [
        "Ġbiggest",
        -10.34485583692937
      ],
      [
        "Ġevaluate",
        -10.344934126866274
      ],
      [
        "Ġdiagnosi",
        -10.346105617476086
      ],
      [
        "ĠMedicine",
        -10.346121612516589
      ],
      [
        "itis",
        -10.346304409206326
      ],
      [
        "Ġchart",
        -10.34682253311574
      ],
      [
        "Ġjuice",
        -10.346843260512744
      ],
      [
        "Ġscrew",
        -10.3470795860436
      ],
      [
        "ĠNatural",
        -10.347156294040786
      ],
      [
        "Ġcrusher",
        -10.347359285336058
      ],
      [
        "Ġtown",
        -10.347359731650837
      ],
      [
        "Ġworse",
        -10.347426279041574
      ],
      [
        "Every",
        -10.34750258200943
      ],
      [
        "-being",
        -10.34774441902256
      ],
      [
        "ĠRNA",
        -10.34885496251204
      ],
      [
        "Ġalter",
        -10.348970221976716
      ],
      [
        "ĠAny",
        -10.349011997936586
      ],
      [
        "Ġfurniture",
        -10.349555940279178
      ],
      [
        "nternet",
        -10.349868292427242
      ],
      [
        "Ġcollaboration",
        -10.349899979388075
      ],
      [
        "Ġtruck",
        -10.351137046694674
      ],
      [
        "ĠLab",
        -10.351372937389923
      ],
      [
        "ĠAC",
        -10.352747753392803
      ],
      [
        "Ġreceptor",
        -10.35344224452016
      ],
      [
        "Ġarrive",
        -10.353655735134064
      ],
      [
        "ĠCare",
        -10.354120358968435
      ],
      [
        "Ġvariables",
        -10.354214167447488
      ],
      [
        "Ġantioxidant",
        -10.354959478653448
      ],
      [
        "Ġprocedures",
        -10.355014298652154
      ],
      [
        "âĪĴ",
        -10.355269276997069
      ],
      [
        "Ġwhale",
        -10.356397652093271
      ],
      [
        "Ġturns",
        -10.356842537810511
      ],
      [
        "Ġdanger",
        -10.356931311479013
      ],
      [
        "ĠFrance",
        -10.35844769716448
      ],
      [
        "Ġpop",
        -10.358763919419962
      ],
      [
        "Ġworksheet",
        -10.359606847736654
      ],
      [
        "Ġadequate",
        -10.360360337234944
      ],
      [
        "Ġrecommendation",
        -10.361284911271614
      ],
      [
        "Ġcontribution",
        -10.362201834897988
      ],
      [
        "Ġcow",
        -10.362907687174806
      ],
      [
        "Ġnet",
        -10.362946271721846
      ],
      [
        "Ġrenewable",
        -10.363461251684432
      ],
      [
        "Ġfocuse",
        -10.363473913344906
      ],
      [
        "Ġmask",
        -10.363915101288168
      ],
      [
        "Ġincorporat",
        -10.363976138325304
      ],
      [
        "Ġtrail",
        -10.364825463655336
      ],
      [
        "ĠBorder",
        -10.365603048401216
      ],
      [
        "£",
        -10.365858441560146
      ],
      [
        "Ġport",
        -10.366726120201358
      ],
      [
        "ility",
        -10.367504378689702
      ],
      [
        "ĠMuseum",
        -10.367832487398726
      ],
      [
        "ĠThrough",
        -10.369558819433555
      ],
      [
        "Ġlicense",
        -10.371024469299291
      ],
      [
        "ING",
        -10.3715902482845
      ],
      [
        "Ġtrouble",
        -10.372049926294869
      ],
      [
        "Ġearthquake",
        -10.372051259927291
      ],
      [
        "Ġmeasur",
        -10.372600443417909
      ],
      [
        "ĠControl",
        -10.372761904309042
      ],
      [
        "Ġalumin",
        -10.372770063835947
      ],
      [
        "Ġunknown",
        -10.372882226025872
      ],
      [
        "ĠAdd",
        -10.372903880615624
      ],
      [
        "Ġaesthetic",
        -10.372954835505872
      ],
      [
        "Ġvector",
        -10.373698301891045
      ],
      [
        "Ġhorses",
        -10.373957334429448
      ],
      [
        "Ġpixel",
        -10.374473924579464
      ],
      [
        "Ġmanag",
        -10.375781601670976
      ],
      [
        "ĠTake",
        -10.37599932520868
      ],
      [
        "Ġbranch",
        -10.376149415140397
      ],
      [
        "ĠJournal",
        -10.376655179354586
      ],
      [
        "Ġsouthern",
        -10.377190689690682
      ],
      [
        "cellular",
        -10.37723480881652
      ],
      [
        "Ġproductivity",
        -10.37738017859928
      ],
      [
        "Ġmirror",
        -10.377840116336408
      ],
      [
        "Ġconventional",
        -10.3803692684184
      ],
      [
        "Ġdur",
        -10.380424121473563
      ],
      [
        "Ġflexi",
        -10.381592277920252
      ],
      [
        "Ġnames",
        -10.38165155252272
      ],
      [
        "Ġcards",
        -10.38185071161705
      ],
      [
        "Ġcluster",
        -10.382248849582512
      ],
      [
        "Ġidentit",
        -10.383059435313072
      ],
      [
        "ĠAssociation",
        -10.383434291119356
      ],
      [
        "Ġleader",
        -10.383542037357747
      ],
      [
        "Ġrotation",
        -10.383678104320891
      ],
      [
        "Ġseal",
        -10.384560760338765
      ],
      [
        "ĠTV",
        -10.384779074604072
      ],
      [
        "Ġlaunch",
        -10.385655390245418
      ],
      [
        "Ġpictures",
        -10.387589034864206
      ],
      [
        "Ġhi",
        -10.387763574184856
      ],
      [
        "Ġpuzzle",
        -10.388489180122829
      ],
      [
        "Ġfixed",
        -10.390004077279723
      ],
      [
        "discovery",
        -10.391615637213947
      ],
      [
        "Ġlense",
        -10.391692001114995
      ],
      [
        "-day",
        -10.392541819249162
      ],
      [
        "Ġrod",
        -10.392895497857914
      ],
      [
        "Ġcelebrate",
        -10.393064447695885
      ],
      [
        "ball",
        -10.39320930068982
      ],
      [
        "Ġfascinating",
        -10.393642610230154
      ],
      [
        "Ġmo",
        -10.394246558243246
      ],
      [
        "ĠStart",
        -10.394314150981009
      ],
      [
        "Ġpreserve",
        -10.394520928988957
      ],
      [
        "ĠEngineer",
        -10.39454866036295
      ],
      [
        "Ġcorn",
        -10.395018105572934
      ],
      [
        "ĠConsider",
        -10.395182414950504
      ],
      [
        "ĠSeptem",
        -10.397162282391111
      ],
      [
        "ĠPage",
        -10.398400994720376
      ],
      [
        "Ġmission",
        -10.398979134336638
      ],
      [
        "Ġorganize",
        -10.39925114569936
      ],
      [
        "Ġalgae",
        -10.399367519280094
      ],
      [
        "ĠNote",
        -10.400019117413628
      ],
      [
        "Ġwearing",
        -10.400291255969954
      ],
      [
        "Ġprices",
        -10.4003177516821
      ],
      [
        "Ġbaking",
        -10.40036881535722
      ],
      [
        "Ġrear",
        -10.400578864133069
      ],
      [
        "Ġprofit",
        -10.401295878089096
      ],
      [
        "Ġfriendly",
        -10.40174941007534
      ],
      [
        "Ġcoating",
        -10.401773348720472
      ],
      [
        "Ġusage",
        -10.401811439738127
      ],
      [
        "ĠSometime",
        -10.402305885637508
      ],
      [
        "Ġneedle",
        -10.402766478934277
      ],
      [
        "ĠYear",
        -10.40329496803591
      ],
      [
        "Ġhappening",
        -10.40436867455796
      ],
      [
        "Ġsalmon",
        -10.404937963771491
      ],
      [
        "Ġspider",
        -10.405271347730745
      ],
      [
        "Ġshock",
        -10.405298282026198
      ],
      [
        "Ġterritor",
        -10.405635408182006
      ],
      [
        "ĠLook",
        -10.406296373331628
      ],
      [
        "Ġlake",
        -10.40717470889879
      ],
      [
        "Ġsmoke",
        -10.407750156014512
      ],
      [
        "Understand",
        -10.408245062505832
      ],
      [
        ";Ċ",
        -10.411092368914655
      ],
      [
        "Ġemerge",
        -10.412017180703558
      ],
      [
        "Ġgenerator",
        -10.412389862443462
      ],
      [
        "Ġoutcomes",
        -10.412725292841658
      ],
      [
        "co",
        -10.414839057657176
      ],
      [
        "Ġcomplicate",
        -10.415095586531034
      ],
      [
        "Ġbound",
        -10.415295845548233
      ],
      [
        "gone",
        -10.41544000357534
      ],
      [
        "ĠChange",
        -10.41570554119794
      ],
      [
        "Ġflexibl",
        -10.415896276684704
      ],
      [
        "ĠRemember",
        -10.415940309323917
      ],
      [
        "Ġinvolv",
        -10.416502129874328
      ],
      [
        "Ġspecialist",
        -10.417789976519892
      ],
      [
        "Ġlock",
        -10.417890033500647
      ],
      [
        "Ġtropical",
        -10.418744888245715
      ],
      [
        "Ġthanks",
        -10.419847855042493
      ],
      [
        "ĠDevelopment",
        -10.420247033030591
      ],
      [
        "Ġremaining",
        -10.420544737421729
      ],
      [
        "Ġgland",
        -10.420560764425158
      ],
      [
        "Ġwipe",
        -10.422291707101556
      ],
      [
        "Ġmild",
        -10.422725594267837
      ],
      [
        "Ġprofessionals",
        -10.422901441869111
      ],
      [
        "ĠFoundation",
        -10.422948400250732
      ],
      [
        "Ġmenu",
        -10.423212867171388
      ],
      [
        "ĠMedical",
        -10.423811854855924
      ],
      [
        "ĠPart",
        -10.424406950361014
      ],
      [
        "Ġrobotic",
        -10.42527757528574
      ],
      [
        "eath",
        -10.42587817261959
      ],
      [
        "Ġuniform",
        -10.425968168889035
      ],
      [
        "Ġproof",
        -10.42650895289157
      ],
      [
        "Ġthrive",
        -10.42699069704858
      ],
      [
        "Ġloud",
        -10.4275926584281
      ],
      [
        "Dr",
        -10.427653709070904
      ],
      [
        "Ġlattice",
        -10.428397505449253
      ],
      [
        "Ġdiffer",
        -10.428726026033758
      ],
      [
        "Ġcreativ",
        -10.42889691285981
      ],
      [
        "Ġhorizontal",
        -10.430462576893609
      ],
      [
        "Ġunusual",
        -10.430712470707146
      ],
      [
        "ized",
        -10.432304500384166
      ],
      [
        "Ġdomain",
        -10.432438422861445
      ],
      [
        "Ġsexual",
        -10.433175433244052
      ],
      [
        "Ġmeals",
        -10.433220832701778
      ],
      [
        "pm",
        -10.434051016660929
      ],
      [
        "Where",
        -10.434241157768149
      ],
      [
        "ĠProject",
        -10.434616625126605
      ],
      [
        "ĠProfessor",
        -10.435245970976332
      ],
      [
        "Ġbrief",
        -10.435297784557672
      ],
      [
        "ier",
        -10.435835353954664
      ],
      [
        "Ġpromoting",
        -10.436287713490051
      ],
      [
        "ford",
        -10.436489066761624
      ],
      [
        "Ġsilver",
        -10.43669338799851
      ],
      [
        "Ġpresentation",
        -10.437813326386928
      ],
      [
        "aging",
        -10.43981486539588
      ],
      [
        "Ġgraduate",
        -10.440290020136349
      ],
      [
        "Ġpreferr",
        -10.440479240515089
      ],
      [
        "Ġexperiments",
        -10.440971239929418
      ],
      [
        "Ġoral",
        -10.44147352050061
      ],
      [
        "Ġremoval",
        -10.441537074954962
      ],
      [
        "Ġconversion",
        -10.44222970238855
      ],
      [
        "Ġstar",
        -10.442239825064757
      ],
      [
        "Ġexpansion",
        -10.442794092998447
      ],
      [
        "Ġharder",
        -10.443366808156302
      ],
      [
        "Ġreplac",
        -10.443487576361228
      ],
      [
        "Ġmine",
        -10.44379867267974
      ],
      [
        "Ġrecording",
        -10.444341348060137
      ],
      [
        "Ġtroop",
        -10.444526545879077
      ],
      [
        "Ġnutrient",
        -10.445821109364376
      ],
      [
        "Ġstrand",
        -10.445889038946792
      ],
      [
        "Ġserving",
        -10.445969186359283
      ],
      [
        "Ġfeedback",
        -10.4460752908603
      ],
      [
        "Ġhousing",
        -10.44622722304636
      ],
      [
        "Ġbranche",
        -10.44667540924231
      ],
      [
        "Ġweapon",
        -10.446829567448
      ],
      [
        "Ġplot",
        -10.447443850143204
      ],
      [
        "Ġinterior",
        -10.447689628712544
      ],
      [
        "Ġbattle",
        -10.448940550222307
      ],
      [
        "Ġsubstantial",
        -10.449269854704252
      ],
      [
        "OH",
        -10.449438051418245
      ],
      [
        "gar",
        -10.449460303804551
      ],
      [
        "âĢ¦Ċ",
        -10.450527975579028
      ],
      [
        "Ġmanager",
        -10.451159038216836
      ],
      [
        "ium",
        -10.451174208839024
      ],
      [
        "ĠRead",
        -10.45350168730063
      ],
      [
        "ĠMan",
        -10.453536640102447
      ],
      [
        "Ġdream",
        -10.454240173786784
      ],
      [
        "Ġcustom",
        -10.45470687004982
      ],
      [
        "Ġagricultural",
        -10.454807798747249
      ],
      [
        "Ġdesigner",
        -10.456305954368313
      ],
      [
        "Ġspice",
        -10.456694812106276
      ],
      [
        "back",
        -10.458534636690503
      ],
      [
        "Ġinteractive",
        -10.458922086208943
      ],
      [
        "Ġdeck",
        -10.459160049883812
      ],
      [
        "ĠModel",
        -10.45963190838882
      ],
      [
        "Ġcontroll",
        -10.460039636371771
      ],
      [
        "`",
        -10.460042976223676
      ],
      [
        "see",
        -10.46039277644102
      ],
      [
        ")(",
        -10.460415434518636
      ],
      [
        "Ġmarker",
        -10.460845547202352
      ],
      [
        "Ġexperienc",
        -10.460860728274785
      ],
      [
        "Ġalign",
        -10.461455654100291
      ],
      [
        "Ġvet",
        -10.461882108048073
      ],
      [
        "Ġarms",
        -10.46213611215899
      ],
      [
        "Ġaquarium",
        -10.463643240535038
      ],
      [
        "Ġsubstances",
        -10.464370228784489
      ],
      [
        "Ġknife",
        -10.464720249901577
      ],
      [
        "Ġlights",
        -10.464990823889792
      ],
      [
        "ĠCompany",
        -10.465506150980271
      ],
      [
        "ha",
        -10.46591122705857
      ],
      [
        "Ġsegment",
        -10.465954531045536
      ],
      [
        "ĠFree",
        -10.466461720470663
      ],
      [
        "ĠGarden",
        -10.467574106508144
      ],
      [
        "Ġease",
        -10.467812972093714
      ],
      [
        "Ġtone",
        -10.46883785799604
      ],
      [
        "ĠEnvironmental",
        -10.469084592215957
      ],
      [
        "men",
        -10.4698067184169
      ],
      [
        "Ġextent",
        -10.470195867656422
      ],
      [
        "Ġsides",
        -10.470216036699773
      ],
      [
        "Ġframework",
        -10.470264316371704
      ],
      [
        "Ġturkey",
        -10.470403435411
      ],
      [
        "Ġsnake",
        -10.47042196448431
      ],
      [
        "Ġcommitment",
        -10.470470332042307
      ],
      [
        "ĠChildren",
        -10.470744557036038
      ],
      [
        "Ġfold",
        -10.471532852560504
      ],
      [
        "Ġpathway",
        -10.472370275009036
      ],
      [
        "Ġattach",
        -10.472539420777723
      ],
      [
        "Ġmount",
        -10.473567264084144
      ],
      [
        "ĠPlace",
        -10.47363523877442
      ],
      [
        "Ġfilling",
        -10.47373166924712
      ],
      [
        "Ġtide",
        -10.47492057974348
      ],
      [
        "ĠTree",
        -10.475057287847235
      ],
      [
        "Ġfoam",
        -10.47642210558643
      ],
      [
        "Since",
        -10.476443119406042
      ],
      [
        "Ġembodiment",
        -10.476906026666391
      ],
      [
        "Ġantibiotic",
        -10.476924185719051
      ],
      [
        "Ġinvestigate",
        -10.477080365666948
      ],
      [
        "Ġnuclea",
        -10.477329470408602
      ],
      [
        "Ġgiant",
        -10.477368345315448
      ],
      [
        "Ġflame",
        -10.47740580599013
      ],
      [
        "Ġwidth",
        -10.477996503114843
      ],
      [
        "Ġgrind",
        -10.478054741306556
      ],
      [
        "-shape",
        -10.478475619185076
      ],
      [
        "Ġmillions",
        -10.478542049644991
      ],
      [
        "Ġspeaking",
        -10.47897416610192
      ],
      [
        "Ġfacilitate",
        -10.479373766565915
      ],
      [
        "Ġholds",
        -10.480167842800856
      ],
      [
        "Ġwor",
        -10.480567414694065
      ],
      [
        "ĠWashing",
        -10.48096337538654
      ],
      [
        "Ġinitiative",
        -10.482069558684191
      ],
      [
        "Ġsubsequent",
        -10.4822787878839
      ],
      [
        "Ġdive",
        -10.48258858021049
      ],
      [
        "]ĊĊ",
        -10.48281661375932
      ],
      [
        "Ġresident",
        -10.48363717360302
      ],
      [
        "Ġcattle",
        -10.48407067417709
      ],
      [
        "Ġrecogni",
        -10.484240814178827
      ],
      [
        "Ġindicator",
        -10.484339315379447
      ],
      [
        "Ġsong",
        -10.48474945941689
      ],
      [
        "eastern",
        -10.48510878442349
      ],
      [
        "Ġescape",
        -10.485388815309443
      ],
      [
        "Ġstrike",
        -10.487620797424778
      ],
      [
        "Ġretain",
        -10.487712691174597
      ],
      [
        "Ġforests",
        -10.489474083696347
      ],
      [
        "Ġvitamins",
        -10.48962148195546
      ],
      [
        "ĠForce",
        -10.489701639631654
      ],
      [
        "Ġlinear",
        -10.489928820372755
      ],
      [
        "Ġmapping",
        -10.48999632226496
      ],
      [
        "Ġspike",
        -10.490142357204483
      ],
      [
        "Ġdose",
        -10.490401280147928
      ],
      [
        "Ġcompetitive",
        -10.491168870838443
      ],
      [
        "Ġcake",
        -10.491187993793613
      ],
      [
        "rich",
        -10.4916320613845
      ],
      [
        "Ġrot",
        -10.491895118350303
      ],
      [
        "\"We",
        -10.492091712540702
      ],
      [
        "Ġcontrolle",
        -10.492361341599358
      ],
      [
        ")\\",
        -10.49246331051738
      ],
      [
        "Ġcord",
        -10.49308432470856
      ],
      [
        "Ġcopy",
        -10.493822338467766
      ],
      [
        "Ġcast",
        -10.49402492893461
      ],
      [
        "Ġrestore",
        -10.49438084703991
      ],
      [
        "ĠCentral",
        -10.49455846247399
      ],
      [
        "Ġholiday",
        -10.49464282942003
      ],
      [
        "Ġaggressive",
        -10.494805454523275
      ],
      [
        "dden",
        -10.49553545997857
      ],
      [
        "Ġrow",
        -10.495689850472084
      ],
      [
        "<",
        -10.495694421855362
      ],
      [
        "Ġclassic",
        -10.495931150640471
      ],
      [
        "Ġcure",
        -10.496568686858264
      ],
      [
        "ĠWork",
        -10.497538817121509
      ],
      [
        "Ġundersto",
        -10.49789280048739
      ],
      [
        "Ġattache",
        -10.49895495681779
      ],
      [
        "Ġdebate",
        -10.49938199675776
      ],
      [
        "Dur",
        -10.499509381583277
      ],
      [
        "making",
        -10.500606585025878
      ],
      [
        "Ġsoap",
        -10.500671557469296
      ],
      [
        "Ġbend",
        -10.500744782012678
      ],
      [
        "Ġentry",
        -10.500793724662673
      ],
      [
        "Ġleaders",
        -10.500874050172978
      ],
      [
        "Ġcombat",
        -10.50138908343366
      ],
      [
        "Ġstores",
        -10.501444293946047
      ],
      [
        "Ġadaptation",
        -10.501549424834296
      ],
      [
        "Ġwro",
        -10.501804816340265
      ],
      [
        "Ġamplitude",
        -10.502009420691692
      ],
      [
        "Ġwarning",
        -10.502114278261873
      ],
      [
        "Ġtrends",
        -10.502420073932786
      ],
      [
        "Ġmeter",
        -10.502430417857235
      ],
      [
        "some",
        -10.502856378927198
      ],
      [
        "Share",
        -10.502928805546176
      ],
      [
        "ĠFlorid",
        -10.502975068896507
      ],
      [
        "-ray",
        -10.503486362195655
      ],
      [
        "ĠGrade",
        -10.503707252553236
      ],
      [
        "Ġreverse",
        -10.503846329470694
      ],
      [
        "Keep",
        -10.504138929628557
      ],
      [
        "coastal",
        -10.504358548686277
      ],
      [
        "Ġcorner",
        -10.505143311891835
      ],
      [
        "Ġyeast",
        -10.507251009074295
      ],
      [
        "night",
        -10.50731066862176
      ],
      [
        "Ġdepression",
        -10.507586303852474
      ],
      [
        "Ġdigestive",
        -10.50825669160618
      ],
      [
        "ĠGul",
        -10.508454822511286
      ],
      [
        "ĠAct",
        -10.508685221133494
      ],
      [
        "Ġcompact",
        -10.508820202425342
      ],
      [
        "low",
        -10.508829060943755
      ],
      [
        "Ġhumidity",
        -10.508926064123646
      ],
      [
        "Ġdisaster",
        -10.509107705057012
      ],
      [
        "Ġanswers",
        -10.509210538181277
      ],
      [
        "Ġnarrow",
        -10.509237130905593
      ],
      [
        "long",
        -10.511852545266414
      ],
      [
        "Ġoccurr",
        -10.512005548594283
      ],
      [
        "Ġmature",
        -10.512011696648598
      ],
      [
        "ĠâĢ¢",
        -10.512021974565364
      ],
      [
        "Ġcent",
[...]
