{
  "version": "1.0",
  "truncation": null,
  "padding": null,
  "added_tokens": [
    {
      "id": 0,
      "content": "<|bos|>",
      "single_word": false,
      "lstrip": false,
      "rstrip": false,
      "normalized": false,
      "special": true
    },
    {
      "id": 1,
      "content": "<|user_start|>",
      "single_word": false,
      "lstrip": false,
      "rstrip": false,
      "normalized": false,
      "special": true
    },
    {
      "id": 2,
      "content": "<|user_end|>",
      "single_word": false,
      "lstrip": false,
      "rstrip": false,
      "normalized": false,
      "special": true
    },
    {
      "id": 3,
      "content": "<|assistant_start|>",
      "single_word": false,
      "lstrip": false,
      "rstrip": false,
      "normalized": false,
      "special": true
    },
    {
      "id": 4,
      "content": "<|assistant_end|>",
      "single_word": false,
      "lstrip": false,
      "rstrip": false,
      "normalized": false,
      "special": true
    },
    {
      "id": 5,
      "content": "<|python_start|>",
      "single_word": false,
      "lstrip": false,
      "rstrip": false,
      "normalized": false,
      "special": true
    },
    {
      "id": 6,
      "content": "<|python_end|>",
      "single_word": false,
      "lstrip": false,
      "rstrip": false,
      "normalized": false,
      "special": true
    },
    {
      "id": 7,
      "content": "<|output_start|>",
      "single_word": false,
      "lstrip": false,
      "rstrip": false,
      "normalized": false,
      "special": true
    },
    {
      "id": 8,
      "content": "<|output_end|>",
      "single_word": false,
      "lstrip": false,
      "rstrip": false,
      "normalized": false,
      "special": true
    },
    {
      "id": 9,
      "content": "<|unk|>",
      "single_word": false,
      "lstrip": false,
      "rstrip": false,
      "normalized": false,
      "special": true
    }
  ],
  "normalizer": null,
  "pre_tokenizer": {
    "type": "Sequence",
    "pretokenizers": [
      {
        "type": "Split",
        "pattern": {
          "Regex": "'(?i:[sdmt]|ll|ve|re)|[^\\r\\n\\p{L}\\p{N}]?+\\p{L}+|\\p{N}{1,2}| ?[^\\s\\p{L}\\p{N}]++[\\r\\n]*|\\s*[\\r\\n]|\\s+(?!\\S)|\\s+"
        },
        "behavior": "Isolated",
        "invert": false
      },
      {
        "type": "ByteLevel",
        "add_prefix_space": false,
        "trim_offsets": true,
        "use_regex": false
      }
    ]
  },
  "post_processor": {
    "type": "TemplateProcessing",
    "single": [
      {
        "Sequence": {
          "id": "A",
          "type_id": 0
        }
      }
    ],
    "pair": [
      {
        "Sequence": {
          "id": "A",
          "type_id": 0
        }
      },
      {
        "Sequence": {
          "id": "B",
          "type_id": 1
        }
      }
    ],
    "special_tokens": {}
  },
  "decoder": null,
  "model": {
    "type": "Unigram",
    "unk_id": 9,
    "vocab": [
      [
        "<|bos|>",
        0.0
      ],
      [
        "<|user_start|>",
        0.0
      ],
      [
        "<|user_end|>",
        0.0
      ],
      [
        "<|assistant_start|>",
        0.0
      ],
      [
        "<|assistant_end|>",
        0.0
      ],
      [
        "<|python_start|>",
        0.0
      ],
      [
        "<|python_end|>",
        0.0
      ],
      [
        "<|output_start|>",
        0.0
      ],
      [
        "<|output_end|>",
        0.0
      ],
      [
        "<|unk|>",
        0.0
      ],
      [
        "s",
        -3.0097283556657093
      ],
      [
        "Ġ",
        -3.031753245509245
      ],
      [
        "Ġthe",
        -3.4998660731632523
      ],
      [
        ",",
        -3.561609011277426
      ],
      [
        "a",
        -3.851094701824932
      ],
      [
        ".",
        -3.854709961103095
      ],
      [
        "Ġand",
        -4.058645479162784
      ],
      [
        "Ġto",
        -4.081261183979681
      ],
      [
        "Ġof",
        -4.106611764443446
      ],
      [
        "ing",
        -4.37688758813726
      ],
      [
        "Ġin",
        -4.573539292942977
      ],
      [
        "e",
        -4.6782461663156045
      ],
      [
        "Ġis",
        -4.713179695325831
      ],
      [
        "t",
        -4.780360328669547
      ],
      [
        "d",
        -4.799158210662037
      ],
      [
        "ed",
        -4.84298135557451
      ],
      [
        "'",
        -5.008183755553807
      ],
      [
        "y",
        -5.0330971424355155
      ],
      [
        "Ġthat",
        -5.120452746489434
      ],
      [
        "Ġfor",
        -5.135379421505894
      ],
      [
        "ly",
        -5.171073588050451
      ],
      [
        "0",
        -5.182574998299145
      ],
      [
        "-",
        -5.305944730010214
      ],
      [
        "1",
        -5.317347774399101
      ],
      [
        "Ġare",
        -5.330636735508158
      ],
      [
        ":",
        -5.351247321038846
      ],
      [
        "Ġyou",
        -5.381622824734887
      ],
      [
        "Ġit",
        -5.401001421929843
      ],
      [
        ".Ċ",
        -5.413387296151939
      ],
      [
        "Ġwith",
        -5.418804005236652
      ],
      [
        ".ĊĊ",
        -5.432157623557641
      ],
      [
        "Ċ",
        -5.46276141886227
      ],
      [
        "Ġbe",
        -5.5059952155777925
      ],
      [
        "n",
        -5.510546376230865
      ],
      [
        "2",
        -5.538695009862012
      ],
      [
        "Ġon",
        -5.575360702310061
      ],
      [
        "Ġor",
        -5.590447178727954
      ],
      [
        "Ġcan",
        -5.595059667828046
      ],
      [
        "Ġas",
        -5.631968071908542
      ],
      [
        "o",
        -5.725430251079924
      ],
      [
        "i",
        -5.7550308694911525
      ],
      [
        "Ġyour",
        -5.758542862735714
      ],
      [
        "ĊĊ",
        -5.780620003138546
      ],
      [
        "Ġ(",
        -5.879314601397045
      ],
      [
        "er",
        -5.892350536234325
      ],
      [
        "r",
        -5.913298382517704
      ],
      [
        "\"",
        -5.939052536931188
      ],
      [
        "ĠI",
        -5.965165843875882
      ],
      [
        "Ġhave",
        -5.990343487070316
      ],
      [
        "Ġfrom",
        -6.009621794034302
      ],
      [
        "ĠThe",
        -6.0391559361286085
      ],
      [
        ")",
        -6.061578001121244
      ],
      [
        "Ġby",
        -6.0919396377221435
      ],
      [
        "Ġan",
        -6.0980609177049985
      ],
      [
        "Ġthis",
        -6.144499008638025
      ],
      [
        "m",
        -6.156849228615876
      ],
      [
        "3",
        -6.167864076323584
      ],
      [
        "Ġnot",
        -6.178989280146533
      ],
      [
        "al",
        -6.199109848518679
      ],
      [
        "Ġat",
        -6.20086942133463
      ],
      [
        "?",
        -6.202263980155456
      ],
      [
        "5",
        -6.254877076246341
      ],
      [
        "Ġwill",
        -6.2891259794728995
      ],
      [
        "l",
        -6.289469022408015
      ],
      [
        "c",
        -6.3316132641878085
      ],
      [
        "Ġtheir",
        -6.333256976751903
      ],
      [
        "4",
        -6.4189541000695876
      ],
      [
        "re",
        -6.430909153431584
      ],
      [
        "Ġmore",
        -6.439432062919083
      ],
      [
        "Ġthey",
        -6.4527310303113765
      ],
      [
        "or",
        -6.455005613744012
      ],
      [
        "Ġwas",
        -6.516126365982695
      ],
      [
        "p",
        -6.524677830583995
      ],
      [
        "9",
        -6.531025114521434
      ],
      [
        "The",
        -6.536424738793439
      ],
      [
        "g",
        -6.559528750443619
      ],
      [
        "ĠA",
        -6.561309020410825
      ],
      [
        "in",
        -6.561751078768873
      ],
      [
        "on",
        -6.578680317861181
      ],
      [
        "Ġbut",
        -6.584970761225545
      ],
      [
        "Ġhas",
        -6.592699694546411
      ],
      [
        "Ġwhich",
        -6.621958925520643
      ],
      [
        "b",
        -6.631378003063643
      ],
      [
        "Ġwe",
        -6.6378515493405015
      ],
      [
        "Ġother",
        -6.665143359964587
      ],
      [
        "Ġone",
        -6.666902444165087
      ],
      [
        "6",
        -6.682027705656678
      ],
      [
        "Ġalso",
        -6.689607451879487
      ],
      [
        "Question",
        -6.702658834747401
      ],
      [
        "ies",
        -6.708680003938083
      ],
      [
        "8",
        -6.718571168743152
      ],
      [
        "f",
        -6.730720876272141
      ],
      [
        "ĠAnswer",
        -6.7358645597382445
      ],
      [
        "Ġall",
        -6.747141798319962
      ],
      [
        "A",
        -6.751575865544705
      ],
      [
        "Ġlike",
        -6.7669117913450965
      ],
      [
        "Ġabout",
        -6.7865600447329015
      ],
      [
        "an",
        -6.814485561672392
      ],
      [
        "Ġwhen",
        -6.8314039328440295
      ],
      [
        "Ġdo",
        -6.832070092835476
      ],
      [
        "7",
        -6.850727796216335
      ],
      [
        "Ġif",
        -6.855769141787686
      ],
      [
        "Ġtime",
        -6.859294274870448
      ],
      [
        "ĠIt",
        -6.865132324636532
      ],
      [
        "Ġso",
        -6.884150450777975
      ],
      [
        "ĠS",
        -6.888121604185459
      ],
      [
        "Ġneed",
        -6.889374051580633
      ],
      [
        "ation",
        -6.904562974167755
      ],
      [
        "Ġuse",
        -6.906495812810427
      ],
      [
        "u",
        -6.910517850899565
      ],
      [
        "Ġthem",
        -6.912827475187168
      ],
      [
        "Ġinto",
        -6.9202339563134085
      ],
      [
        "Ġup",
        -6.9210721238397355
      ],
      [
        "Ġmay",
        -6.942361191220151
      ],
      [
        "Ġsome",
        -6.955189898933266
      ],
      [
        "ion",
        -6.95602076037655
      ],
      [
        "Ġout",
        -6.974854714683717
      ],
      [
        "is",
        -6.978069996832927
      ],
      [
        "le",
        -6.978154283930161
      ],
      [
        "ĠThis",
        -6.979567751611203
      ],
      [
        "ĠIn",
        -6.987899907176121
      ],
      [
        "able",
        -7.002843722070988
      ],
      [
        "I",
        -7.017356565823382
      ],
      [
        "Ġthan",
        -7.021825875485304
      ],
      [
        "ic",
        -7.0425763551100005
      ],
      [
        "S",
        -7.04588935534643
      ],
      [
        "/",
        -7.059406453857726
      ],
      [
        "ĠWhat",
        -7.060023578542079
      ],
      [
        "h",
        -7.062352077823787
      ],
      [
        "Ġhow",
        -7.0738758422286825
      ],
      [
        "Ġget",
        -7.085047916158185
      ],
      [
        "Ġwater",
        -7.091221201704476
      ],
      [
        "w",
        -7.092879435237613
      ],
      [
        "Ġthere",
        -7.094013246067856
      ],
      [
        "Ġthese",
        -7.095934176505324
      ],
      [
        "k",
        -7.113605129807105
      ],
      [
        "Ġmake",
        -7.117428221642768
      ],
      [
        "Ġmost",
        -7.148295517213031
      ],
      [
        "Ġused",
        -7.154228473064711
      ],
      [
        "th",
        -7.159899141438077
      ],
      [
        "Ġwhat",
        -7.162751102348535
      ],
      [
        "ĠC",
        -7.170272578042811
      ],
      [
        "Ġany",
        -7.193125521153053
      ],
      [
        "Ġour",
        -7.201977308227303
      ],
      [
        "ĠB",
        -7.224775583127249
      ],
      [
        "it",
        -7.226567434451345
      ],
      [
        "Ġsuch",
        -7.234596748774923
      ],
      [
        "Ġhelp",
        -7.246553178581095
      ],
      [
        "ers",
        -7.2530049471873
      ],
      [
        "Ġwere",
        -7.2635105617682925
      ],
      [
        "Ġpeople",
        -7.264806752052094
      ],
      [
        "Ġbeen",
        -7.281445686273781
      ],
      [
        "Ġshould",
        -7.285464466054345
      ],
      [
        "Ġnew",
        -7.287468113816308
      ],
      [
        "Ġover",
        -7.289212909507173
      ],
      [
        "Ġwho",
        -7.294105678767444
      ],
      [
        "Ġthrough",
        -7.31760663288747
      ],
      [
        "Ġwould",
        -7.325146757419166
      ],
      [
        "ment",
        -7.33281484131413
      ],
      [
        "Ġjust",
        -7.339481591263626
      ],
      [
        ";",
        -7.350991302908893
      ],
      [
        "Ġmy",
        -7.354298157491092
      ],
      [
        "um",
        -7.357114544351607
      ],
      [
        "Ġwork",
        -7.359315685116911
      ],
      [
        "ĠF",
        -7.361435531848343
      ],
      [
        "D",
        -7.362879374717929
      ],
      [
        "Ġonly",
        -7.387502150412683
      ],
      [
        "Ġmany",
        -7.398445275352449
      ],
      [
        "Ġhigh",
        -7.416060224639956
      ],
      [
        "Ġits",
        -7.421844890959363
      ],
      [
        "Ġwell",
        -7.425937529782633
      ],
      [
        "Ġre",
        -7.430753580818662
      ],
      [
        "ve",
        -7.435267529795372
      ],
      [
        "out",
        -7.439950127162769
      ],
      [
        "ity",
        -7.445355658444875
      ],
      [
        "Ġfirst",
        -7.45547723831022
      ],
      [
        "Ġtwo",
        -7.459182897990852
      ],
      [
        "Ġno",
        -7.459939958974411
      ],
      [
        "us",
        -7.466753762999026
      ],
      [
        "Ġdifferent",
        -7.477027375450881
      ],
      [
        "Ġway",
        -7.481686166384748
      ],
      [
        "ll",
        -7.484241260540649
      ],
      [
        "?Ċ",
        -7.494195938242218
      ],
      [
        "F",
        -7.506765717703404
      ],
      [
        "B",
        -7.50830540839576
      ],
      [
        "C",
        -7.508963429808762
      ],
      [
        "Ġwhere",
        -7.516724082768771
      ],
      [
        "Ġhe",
        -7.522483699209797
      ],
      [
        "T",
        -7.526951128225043
      ],
      [
        "ive",
        -7.527729935044583
      ],
      [
        "v",
        -7.534838756499255
      ],
      [
        "Ġtake",
        -7.535431351822822
      ],
      [
        "Ġeven",
        -7.545409033617677
      ],
      [
        "Ġusing",
        -7.547746352247231
      ],
      [
        "ĠIf",
        -7.548980048025515
      ],
      [
        "!",
        -7.557519338329037
      ],
      [
        "ul",
        -7.561562434516754
      ],
      [
        "Ġcould",
        -7.564577284621189
      ],
      [
        "Ġpart",
        -7.566861310574309
      ],
      [
        "In",
        -7.5677353755066274
      ],
      [
        "x",
        -7.567918474627312
      ],
      [
        "Ġbetween",
        -7.574486214053099
      ],
      [
        "ĠT",
        -7.574904804450128
      ],
      [
        "Ġbecause",
        -7.586888534636294
      ],
      [
        "Ġlook",
        -7.592108530982889
      ],
      [
        "Ġprovide",
        -7.592177219143428
      ],
      [
        "P",
        -7.594914076766704
      ],
      [
        "est",
        -7.608946647864572
      ],
      [
        "ur",
        -7.609118007071842
      ],
      [
        "Ġsystem",
        -7.611702531327028
      ],
      [
        "Ġvery",
        -7.620367922684684
      ],
      [
        "ar",
        -7.6268446036485535
      ],
      [
        "M",
        -7.643341587007214
      ],
      [
        "ĠP",
        -7.646402888646097
      ],
      [
        "Ġknow",
        -7.64804002595025
      ],
      [
        "Ġhealth",
        -7.663802754697668
      ],
      [
        "ĠYou",
        -7.66724755996224
      ],
      [
        "Ġeach",
        -7.6698963499931985
      ],
      [
        "ce",
        -7.678988893240595
      ],
      [
        "Ġgood",
        -7.68166266924389
      ],
      [
        "Ġmuch",
        -7.689385524766163
      ],
      [
        "Ġwant",
        -7.690064771737525
      ],
      [
        "Ġimportant",
        -7.697884782485136
      ],
      [
        "Ġhad",
        -7.708404216849573
      ],
      [
        "ĠThey",
        -7.716058914049732
      ],
      [
        "Ġdoes",
        -7.716953450023599
      ],
      [
        "age",
        -7.717219371501599
      ],
      [
        "Ġdon",
        -7.717643892911267
      ],
      [
        "Ġlong",
        -7.718399320151308
      ],
      [
        "(",
        -7.719344951885134
      ],
      [
        "ĠD",
        -7.725449255661211
      ],
      [
        "ĠâĢĵ",
        -7.733125983635265
      ],
      [
        "Ġfood",
        -7.738706835665608
      ],
      [
        "Ġcause",
        -7.739752922590533
      ],
      [
        "Ġhis",
        -7.739825417737309
      ],
      [
        "?ĊĊ",
        -7.742007919694254
      ],
      [
        "Ġun",
        -7.749686283172942
      ],
      [
        "Ġsee",
        -7.753211422811905
      ],
      [
        "Ġwhile",
        -7.758536291380215
      ],
      [
        "Ġevery",
        -7.762996938102727
      ],
      [
        "Ġsmall",
        -7.767709745147812
      ],
      [
        "ĠE",
        -7.77087457948136
      ],
      [
        "Ġafter",
        -7.773338090331437
      ],
      [
        "li",
        -7.785102382505016
      ],
      [
        "Ġyears",
        -7.795990338729615
      ],
      [
        "Ġnumber",
        -7.79983434484638
      ],
      [
        ").",
        -7.804489094179296
      ],
      [
        "ch",
        -7.81016238834445
      ],
      [
        "G",
        -7.814452980697537
      ],
      [
        "to",
        -7.8167729080219
      ],
      [
        "Ġfollow",
        -7.818670900803898
      ],
      [
        "ter",
        -7.822143335218064
      ],
      [
        "Ġde",
        -7.825577737352255
      ],
      [
        "around",
        -7.827346172499539
      ],
      [
        "Ġbefore",
        -7.8291582359487535
      ],
      [
        "Ġcome",
        -7.836392998421328
      ],
      [
        "Ġback",
        -7.836992601935101
      ],
      [
        "Ġworld",
        -7.848138784173139
      ],
      [
        "Ġduring",
        -7.854962630164536
      ],
      [
        "Ġprocess",
        -7.8568001471471565
      ],
      [
        "Ġgo",
        -7.861300910765534
      ],
      [
        "Ġsame",
        -7.863428408975553
      ],
      [
        "Ġbody",
        -7.8658854225323935
      ],
      [
        "ĠTo",
        -7.866383010291756
      ],
      [
        "Ġlevel",
        -7.8690452857172435
      ],
      [
        "ĠFor",
        -7.873017552643285
      ],
      [
        "Ġreal",
        -7.875968876651401
      ],
      [
        "and",
        -7.879388034210942
      ],
      [
        "ness",
        -7.880613623002153
      ],
      [
        "ĠH",
        -7.888232845767263
      ],
      [
        "those",
        -7.891626594288816
      ],
      [
        "Ġbeing",
        -7.893985019920011
      ],
      [
        "Ġkeep",
        -7.899668388121883
      ],
      [
        "Ġbest",
        -7.901505770067004
      ],
      [
        "Ġme",
        -7.901916555772207
      ],
      [
        "ĠW",
        -7.902734322131099
      ],
      [
        "ate",
        -7.902743403033455
      ],
      [
        "Ġoften",
        -7.908658975494999
      ],
      [
        "Ġdown",
        -7.9114627011183565
      ],
      [
        "Ġright",
        -7.921798993829897
      ],
      [
        "Ġfound",
        -7.922563000640782
      ],
      [
        "im",
        -7.924947414769994
      ],
      [
        "Ġlife",
        -7.925570049884302
      ],
      [
        "Ġher",
        -7.928497833124961
      ],
      [
        "Ġfind",
        -7.938751755229122
      ],
      [
        "What",
        -7.940278006062963
      ],
      [
        "E",
        -7.947671785315263
      ],
      [
        "Ġboth",
        -7.950838803574406
      ],
      [
        "W",
        -7.953272487830731
      ],
      [
        "Ġday",
        -7.955194365428669
      ],
      [
        "Ġcommon",
        -7.957573513867032
      ],
      [
        "Ġstart",
        -7.9584574645345345
      ],
      [
        "Ġyear",
        -7.960092038097539
      ],
      [
        "ĠM",
        -7.963430185327038
      ],
      [
        "Ġpower",
        -7.965536882990968
      ],
      [
        "Ġlight",
        -7.971053470460205
      ],
      [
        "Ġmade",
        -7.971784087777134
      ],
      [
        "Ġexperience",
        -7.974332095344275
      ],
      [
        "Ġdata",
        -7.977273620491864
      ],
      [
        "ĠWe",
        -7.982164603719355
      ],
      [
        "Ġenergy",
        -7.983736344274712
      ],
      [
        "L",
        -7.9926946712265075
      ],
      [
        "%",
        -7.995179243463241
      ],
      [
        "),",
        -7.996997503862769
      ],
      [
        "ĠRe",
        -7.997977778780376
      ],
      [
        "Ġplant",
        -7.99944340168234
      ],
      [
        "ent",
        -8.002514951120633
      ],
      [
        "Ġexample",
        -8.002682619199373
      ],
      [
        "H",
        -8.006749080201656
      ],
      [
        "Ġsaid",
        -8.00977148839715
      ],
      [
        "ĠG",
        -8.015766184834746
      ],
      [
        "Ġchange",
        -8.01581826804538
      ],
      [
        "ĠR",
        -8.016013192576539
      ],
      [
        "Ġincrease",
        -8.017028799062938
      ],
      [
        "Ġdog",
        -8.017921161080768
      ],
      [
        ":Ċ",
        -8.019713842542918
      ],
      [
        "Ġhome",
        -8.031380059846814
      ],
      [
        "Ġinformation",
        -8.03346057997222
      ],
      [
        "Ġper",
        -8.037598565941186
      ],
      [
        "ability",
        -8.041700315637273
      ],
      [
        "the",
        -8.046741611833275
      ],
      [
        "R",
        -8.04884222511562
      ],
      [
        "ance",
        -8.051239111136455
      ],
      [
        "ry",
        -8.051329070879925
      ],
      [
        "Ġplace",
        -8.051471948306729
      ],
      [
        "O",
        -8.056243658164322
      ],
      [
        "Ġair",
        -8.05774722153791
      ],
      [
        "Ġunder",
        -8.062014758330633
      ],
      [
        "âĢĶ",
        -8.065609458578646
      ],
      [
        "z",
        -8.069547651843461
      ],
      [
        "Ġend",
        -8.079355203279208
      ],
      [
        "Ġcar",
        -8.083928022697311
      ],
      [
        "...",
        -8.086808770285742
      ],
      [
        "Ġform",
        -8.086932046128645
      ],
      [
        "land",
        -8.088678572606124
      ],
      [
        "Ġoff",
        -8.091078917496617
      ],
      [
        "Ġcreate",
        -8.092848971446536
      ],
      [
        "Ġb",
        -8.09404189376298
      ],
      [
        "Ġthink",
        -8.094395140211981
      ],
      [
        "Ġmight",
        -8.098087777827438
      ],
      [
        "This",
        -8.098316292990031
      ],
      [
        "V",
        -8.10718563574192
      ],
      [
        "N",
        -8.107414822989679
      ],
      [
        "Ġdevelop",
        -8.10906888826858
      ],
      [
        "Ġfew",
        -8.109138011422361
      ],
      [
        "Ġresearch",
        -8.110966816408618
      ],
      [
        "un",
        -8.112781102888743
      ],
      [
        "Ġgreat",
        -8.116700114010827
      ],
      [
        "Ġus",
        -8.1171655073824
      ],
      [
        "Ġstudents",
        -8.118625565324729
      ],
      [
        "Ġspecies",
        -8.1187235114281
      ],
      [
        "If",
        -8.118813868373797
      ],
      [
        "Ġown",
        -8.119125031191595
      ],
      [
        "Ġsupport",
        -8.11993449938613
      ],
      [
        "Ġnow",
        -8.120891640336774
      ],
      [
        "less",
        -8.121689672114828
      ],
      [
        "ĠThese",
        -8.123737677490599
      ],
      [
        "Ġbetter",
        -8.129445796094592
      ],
      [
        "Ġlarge",
        -8.13324393329868
      ],
      [
        "ous",
        -8.133903379991066
      ],
      [
        "Ġcase",
        -8.151534998566023
      ],
      [
        "Ġstill",
        -8.157424054327475
      ],
      [
        "Ġstudy",
        -8.163626276855382
      ],
      [
        "Ġmaking",
        -8.169830219324002
      ],
      [
        "Ġlead",
        -8.173588550229448
      ],
      [
        "It",
        -8.175827722758877
      ],
      [
        "Ġless",
        -8.181991265862973
      ],
      [
        "Ġhuman",
        -8.186947667337929
      ],
      [
        "Ġtype",
        -8.18841051079286
      ],
      [
        "Ġset",
        -8.188599989788486
      ],
      [
        "Ġcontrol",
        -8.192345021115813
      ],
      [
        "Ġplants",
        -8.198314393812483
      ],
      [
        "Ġtest",
        -8.198628405893126
      ],
      [
        "âĢĻ",
        -8.203693318541577
      ],
      [
        "Ġdesign",
        -8.21121782567789
      ],
      [
        "Ġadd",
        -8.211533736800007
      ],
      [
        "How",
        -8.214360980155659
      ],
      [
        "Ġincluding",
        -8.215541082751631
      ],
      [
        "Ġgive",
        -8.218418713019188
      ],
      [
        ":ĊĊ",
        -8.22145415804271
      ],
      [
        "Ġvalue",
        -8.223744425327139
      ],
      [
        "Ġblood",
        -8.229312728614392
      ],
      [
        "ĠBut",
        -8.232791269650772
      ],
      [
        "Ġsure",
        -8.234339194613426
      ],
      [
        "Ġheat",
        -8.237511081900204
      ],
      [
        "Ġthree",
        -8.241167590784602
      ],
      [
        "ĠN",
        -8.24240346004476
      ],
      [
        "Ġprevent",
        -8.246052517019901
      ],
      [
        "Ġpressure",
        -8.247431706649882
      ],
      [
        "Ġnatural",
        -8.249650951154996
      ],
      [
        "Ġcurrent",
        -8.253464267287017
      ],
      [
        "ĠK",
        -8.255079851528423
      ],
      [
        "ary",
        -8.260703117659093
      ],
      [
        "Ġknown",
        -8.262322844591342
      ],
      [
        "ver",
        -8.263962735378305
      ],
      [
        "Ġdisease",
        -8.266756383526813
      ],
      [
        "Ġshe",
        -8.267972770690042
      ],
      [
        "co",
        -8.268365742657732
      ],
      [
        "Ġlot",
        -8.270369858958112
      ],
      [
        "Ġchildren",
        -8.270777604310604
      ],
      [
        "ĠAnd",
        -8.2720516576393
      ],
      [
        "tic",
        -8.272208710728524
      ],
      [
        "ĠSo",
        -8.273117798418964
      ],
      [
        "Ġname",
        -8.282963920441937
      ],
      [
        "Ġlearn",
        -8.283192208237551
      ],
      [
        "Ġpotential",
        -8.284385653398447
      ],
      [
        "ut",
        -8.28692558826883
      ],
      [
        "me",
        -8.287031844181097
      ],
      [
        "ĠHowever",
        -8.28915612370936
      ],
      [
        "Ġtoo",
        -8.289835259516652
      ],
      [
        "Ġensure",
        -8.293885854018837
      ],
      [
        "Ġmodel",
        -8.293906613237349
      ],
      [
        "Ġmust",
        -8.299075758913755
      ],
      [
        "Ġthings",
        -8.30048026233152
      ],
      [
        "ĠO",
        -8.301536798164278
      ],
      [
        "vi",
        -8.30426532175397
      ],
      [
        "Ġoffer",
        -8.309050732364486
      ],
      [
        "Ġinclude",
        -8.309468698376298
      ],
      [
        "Ġactual",
        -8.312034680098131
      ],
      [
        "Ġpoint",
        -8.313941767031169
      ],
      [
        "Ġrisk",
        -8.315088391906636
      ],
      [
        "Ġcat",
        -8.31833573622677
      ],
      [
        "]",
        -8.31844469364566
      ],
      [
        "Ġspace",
        -8.320710846132517
      ],
      [
        "why",
        -8.320928598455337
      ],
      [
        "Ġplay",
        -8.324171963869555
      ],
      [
        "Ġtry",
        -8.32693514695022
      ],
      [
        "if",
        -8.328308930511415
      ],
      [
        "ge",
        -8.328668612998657
      ],
      [
        "ther",
        -8.328864116108356
      ],
      [
        "ally",
        -8.329863294272334
      ],
      [
        "Ġcolor",
        -8.33306985332831
      ],
      [
        "Ġsomething",
        -8.334205161602695
      ],
      [
        "ĠL",
        -8.336392774136012
      ],
      [
        "Ġlow",
        -8.338436221342066
      ],
      [
        "Ġreduce",
        -8.343889044627122
      ],
      [
        "Ġenvironment",
        -8.34485502483424
      ],
      [
        "Ġindividual",
        -8.348876253534423
      ],
      [
        "Ġcalled",
        -8.352211171287676
      ],
      [
        "ĠWhen",
        -8.356568383265598
      ],
      [
        "ial",
        -8.358310349731422
      ],
      [
        "ĠSt",
        -8.361302230067212
      ],
      [
        "Ġwithin",
        -8.36318717950528
      ],
      [
        "Ġbecome",
        -8.367709437265809
      ],
      [
        "Ġcare",
        -8.36816712795173
      ],
      [
        "ĠHow",
        -8.368949437657855
      ],
      [
        "Ġeat",
        -8.377582897224032
      ],
      [
        "Ġside",
        -8.378525017347043
      ],
      [
        "Ġfish",
        -8.379438351654825
      ],
      [
        "am",
        -8.380400049445667
      ],
      [
        "Ġfunction",
        -8.381374867624793
      ],
      [
        "Ġanother",
        -8.387767225170078
      ],
      [
        "Ġdue",
        -8.390690352312607
      ],
      [
        "Ġhand",
        -8.390722225827108
      ],
      [
        "Ġpossible",
        -8.391278968366308
      ],
      [
        "Ġfactor",
        -8.394974201388312
      ],
      [
        "Ġhard",
        -8.39616542680169
      ],
      [
        "Ġco",
        -8.396769235975999
      ],
      [
        "Ġeffective",
        -8.396886759485653
      ],
      [
        "Ġamount",
        -8.397979936109886
      ],
      [
        "ĠHe",
        -8.400233231858607
      ],
      [
        "Ġsize",
        -8.405016681034972
      ],
      [
        "Ġtreatment",
        -8.407704975151788
      ],
      [
        "Ġlast",
        -8.40771347778153
      ],
      [
        "Ġrange",
        -8.408925298852207
      ],
      [
        "Ġreason",
        -8.409894707391716
      ],
      [
        "ĠV",
        -8.415973540908244
      ],
      [
        "Ġcon",
        -8.419353664595977
      ],
      [
        "Ġgoing",
        -8.419897965663585
      ],
      [
        "Ġalway",
        -8.420667152541938
      ],
      [
        "Ġclose",
        -8.420782295990467
      ],
      [
        "per",
        -8.424241863181571
      ],
      [
        "Ġlittle",
        -8.42619222096511
      ],
      [
        "Ġsecond",
        -8.426340194323636
      ],
      [
        "Ġhere",
        -8.428287664402081
      ],
      [
        "K",
        -8.42846733187106
      ],
      [
        "Ġperson",
        -8.430141827428745
      ],
      [
        "Ġorder",
        -8.43312392277754
      ],
      [
        "Ġsurface",
        -8.434420258633686
      ],
      [
        "Ġallow",
        -8.434459744326372
      ],
      [
        "ĠThere",
        -8.437152508029149
      ],
      [
        "Ġvarious",
        -8.438907547769375
      ],
      [
        "Ġimpact",
        -8.440401401545781
      ],
      [
        "Ġshow",
        -8.442255496069617
      ],
      [
        "be",
        -8.44867935375488
      ],
      [
        "Ġtemperature",
        -8.451209901228065
      ],
      [
        "ill",
        -8.453019332918153
      ],
      [
        "Ġproblem",
        -8.45532219912694
      ],
      [
        "Ġspecific",
        -8.4561605062982
      ],
      [
        "Ġrequire",
        -8.462017693289386
      ],
      [
        "ated",
        -8.463074937933087
      ],
      [
        "Ġstate",
        -8.463756822427037
      ],
      [
        "Ġsoil",
        -8.464368851018252
      ],
      [
        "ow",
        -8.469545393929332
      ],
      [
        "op",
        -8.4736210934599
      ],
      [
        "man",
        -8.47383796857358
      ],
      [
        "Ġlearning",
        -8.484385730248135
      ],
      [
        "up",
        -8.484835786515632
      ],
      [
        "Ġhead",
        -8.486448177920401
      ],
      [
        "Ġavailable",
        -8.489804509947202
      ],
      [
        "Ġmain",
        -8.493315495560307
      ],
      [
        "ĠU",
        -8.496013322830066
      ],
      [
        "*",
        -8.50202089050195
      ],
      [
        ",\"",
        -8.502985103458794
      ],
      [
        "Ġresult",
        -8.50497808676624
      ],
      [
        "Ġmeans",
        -8.508838460414887
      ],
      [
        "Ġcells",
        -8.51237666501993
      ],
      [
        "Ġimprove",
        -8.515201895944042
      ],
      [
        "Ġschool",
        -8.51566267294822
      ],
      [
        "ten",
        -8.522432927522175
      ],
      [
        "Ġusually",
        -8.52553641422981
      ],
      [
        "Ġuser",
        -8.52599069467679
      ],
      [
        "one",
        -8.526083852346158
      ],
      [
        "Ġquality",
        -8.526799065847658
      ],
      [
        "Ġdid",
        -8.528020500978762
      ],
      [
        "Ġcheck",
        -8.531438963136425
      ],
      [
        "Ġweight",
        -8.53204493577712
      ],
      [
        "Ġleave",
        -8.534951887588077
      ],
      [
        "Ġlive",
        -8.53578814036916
      ],
      [
        "ĠAs",
        -8.536113280245957
      ],
      [
        "ĠWhich",
        -8.537417266064878
      ],
      [
        "ating",
        -8.537466685527416
      ],
      [
        "ish",
        -8.537717562815121
      ],
      [
        "Ġenough",
        -8.538116759494208
      ],
      [
        "Ġterm",
        -8.538331103473794
      ],
      [
        "Ġfeel",
        -8.543058123686254
      ],
      [
        "Ġconsider",
        -8.54354656755433
      ],
      [
        "Ġcourse",
        -8.544684084322242
      ],
      [
        "Ġpre",
        -8.545893267403414
      ],
      [
        "Ġdevelopment",
        -8.546035139002273
      ],
      [
        "ical",
        -8.551145234494005
      ],
      [
        "Ġoption",
        -8.55166892348428
      ],
      [
        "Ġseveral",
        -8.55390739160428
      ],
      [
        "Ġsignificant",
        -8.555283720511557
      ],
      [
        "Ġpresent",
        -8.557228366269497
      ],
      [
        "Ġput",
        -8.558828049850792
      ],
      [
        "_",
        -8.559352870361925
      ],
      [
        "When",
        -8.564384313558392
      ],
      [
        "Ġoil",
        -8.567232566609986
      ],
      [
        "Ġessential",
        -8.574293378453246
      ],
      [
        "Ġshort",
        -8.57503946648325
      ],
      [
        "Ġteam",
        -8.578303862888447
      ],
      [
        "Ġmanage",
        -8.579014709108968
      ],
      [
        "Ġareas",
        -8.579152147591088
      ],
      [
        "Ġopen",
        -8.582096093479215
      ],
      [
        "Ġtypes",
        -8.583829508625058
      ],
      [
        "Ġunderstand",
        -8.58569094698144
      ],
      [
        "Ġdifference",
        -8.587476387913497
      ],
      [
        "Ġtext",
        -8.588261086650313
      ],
      [
        "Ġ&",
        -8.59116199639131
      ],
      [
        "pe",
        -8.59314204028605
      ],
      [
        "Ġeye",
        -8.593719260880599
      ],
      [
        "having",
        -8.59380293885687
      ],
      [
        "Ġgarden",
        -8.593896174505653
      ],
      [
        "Ġproject",
        -8.594438541355792
      ],
      [
        "based",
        -8.595938043119137
      ],
      [
        "Ġparticular",
        -8.59636601438659
      ],
      [
        "Ġdiet",
        -8.596789783033758
      ],
      [
        "Ġdamage",
        -8.599499038127796
      ],
      [
        "Ġchild",
        -8.601156013666587
      ],
      [
        "Ġaffect",
        -8.608188395095047
      ],
      [
        "Ġplan",
        -8.60852475174271
      ],
      [
        "Ġtechnology",
        -8.60854330472506
      ],
      [
        "Ġnon",
        -8.608702461487187
      ],
      [
        "Ġkey",
        -8.60893630958352
      ],
      [
        "Ġmethod",
        -8.60895551843221
      ],
      [
        "Ġmaterial",
        -8.609948179919837
      ],
      [
        "Ġgrow",
        -8.614817940854977
      ],
      [
        "Ġgas",
        -8.615700912258628
      ],
      [
        "We",
        -8.617649679003938
      ],
      [
        "Ġconditions",
        -8.620623146598264
      ],
      [
        "Ġfree",
        -8.620773726011617
      ],
      [
        "Ġam",
        -8.621450289084871
      ],
      [
        "Ġfamily",
        -8.621747708550217
      ],
      [
        "Ġnext",
        -8.622166444091356
      ],
      [
        "U",
        -8.631056338758782
      ],
      [
        "Ġfull",
        -8.634174768036228
      ],
      [
        "self",
        -8.634977536098923
      ],
      [
        "Ġanimals",
        -8.635122261488464
      ],
      [
        "Ġaway",
        -8.63742434661939
      ],
      [
        "Ġpost",
        -8.637699737587045
      ],
      [
        "Ġseem",
        -8.637771502141682
      ],
      [
        "Ġread",
        -8.638452051041247
      ],
      [
        "ful",
        -8.639052568916586
      ],
      [
        "Ġgame",
        -8.642934284068463
      ],
      [
        "Ġmove",
        -8.643616909038093
      ],
      [
        "Ġlove",
        -8.64403478524057
      ],
      [
        "Ġhour",
        -8.645952549432518
      ],
      [
        "Ġcost",
        -8.647631841279022
      ],
      [
        "ide",
        -8.648001692905552
      ],
      [
        "Ġlet",
        -8.650254557024741
      ],
      [
        "Ġlocal",
        -8.650910003850576
      ],
      [
        "Y",
        -8.651326761310898
      ],
      [
        "ex",
        -8.653213642063992
      ],
      [
        "Ġstructure",
        -8.653606500216451
      ],
      [
        "Ġsince",
        -8.653836306426353
      ],
      [
        "While",
        -8.655118555984725
      ],
      [
        "You",
        -8.658965767817563
      ],
      [
        "Ġtogether",
        -8.660769127054413
      ],
      [
        "Ġmaterials",
        -8.661207914698576
      ],
      [
        "Ġthing",
        -8.662474839593024
      ],
      [
        "Ġrun",
        -8.662534093273823
      ],
      [
        "Ġsay",
        -8.662559314065582
      ],
      [
        "mer",
        -8.662741840703758
      ],
      [
        "Ġgroup",
        -8.663348338611822
      ],
      [
        "Ġlower",
        -8.664718311748334
      ],
      [
        "Ġsafe",
        -8.666271126683258
      ],
      [
        "Ġmaintain",
        -8.668195418238593
      ],
      [
        "que",
        -8.670246152385864
      ],
      [
        "Ġstep",
        -8.67132304461139
      ],
      [
        "Ġfocus",
        -8.671971753170185
      ],
      [
        "ĠNew",
        -8.672613879845553
      ],
      [
        "Ġalong",
        -8.67271704575289
      ],
      [
        "ard",
        -8.673430194630818
      ],
      [
        "Ġ$",
        -8.676308460999424
      ],
      [
        "ling",
        -8.67636545304945
      ],
      [
        "Ġuntil",
        -8.676669874561888
      ],
      [
        "Ġcell",
        -8.676889574456755
      ],
      [
        "min",
        -8.677682379429204
      ],
      [
        "Ġsimple",
        -8.680338092698376
      ],
      [
        "Ġleast",
        -8.680338683647257
      ],
      [
        "Ġcontain",
        -8.68247525968761
      ],
      [
        "Ġapplication",
        -8.686191122726125
      ],
      [
        "Ġvideo",
        -8.686573783272495
      ],
      [
        "There",
        -8.68663280377503
      ],
      [
        "Ġfact",
        -8.686771975805772
      ],
      [
        "Ġwide",
        -8.687134504251098
      ],
      [
        "ĠJ",
        -8.687325568101947
      ],
      [
        "Ġ=",
        -8.689341701196081
      ],
      [
        "Ġearly",
        -8.694174136491245
      ],
      [
        "ph",
        -8.694701995226108
      ],
      [
        "Ġclean",
        -8.694828523403705
      ],
      [
        "Ġsocial",
        -8.695005679147306
      ],
      [
        "ence",
        -8.69769100595731
      ],
      [
        "ĠThat",
        -8.698288884500505
      ],
      [
        "Ġtop",
        -8.698290116550748
      ],
      [
        "Ġmeasure",
        -8.698800392362774
      ],
      [
        "Ġrole",
        -8.702246101973905
      ],
      [
        "Ġage",
        -8.70373593029633
      ],
      [
        "Ġarea",
        -8.703780528357951
      ],
      [
        "Ġline",
        -8.703870717803806
      ],
      [
        "Ġsystems",
        -8.70410982014273
      ],
      [
        "Ġtechnique",
        -8.707570153732345
      ],
      [
        "gan",
        -8.708985845836805
      ],
      [
        "con",
        -8.709179873132875
      ],
      [
        "To",
        -8.71032276332726
      ],
      [
        "ither",
        -8.710715346665527
      ],
      [
        "Ġeasy",
        -8.713034526835582
      ],
      [
        "Ġbook",
        -8.714910830137978
      ],
      [
        "Ġdepend",
        -8.71503124439836
      ],
      [
        "Ġdry",
        -8.71517844305773
      ],
      [
        "Ġpaper",
        -8.715521432297685
      ],
      [
        "Ġproper",
        -8.717545020227057
      ],
      [
        "Ġmarket",
        -8.718522615548178
      ],
      [
        "ĠNo",
        -8.71894465308916
      ],
      [
        "Ġstrong",
        -8.719432058102063
      ],
      [
        "Ġhigher",
        -8.719488679014562
      ],
      [
        "Ġdays",
        -8.72121631113908
      ],
      [
        "Ġrate",
        -8.722190134350445
      ],
      [
        "Ġvariet",
        -8.723660558838723
      ],
      [
        "Ġsimilar",
        -8.72418624444888
      ],
      [
        "line",
        -8.72468429654624
      ],
      [
        "Ġworking",
        -8.725140832034239
      ],
      [
        "Ġturn",
        -8.727036284875243
      ],
      [
        "Ġelement",
        -8.727686822286
      ],
      [
        "Ġproducts",
        -8.727954250381178
      ],
      [
        "Ġprotect",
        -8.730108056626243
      ],
      [
        "Ġloss",
        -8.731086270395988
      ],
      [
        "ĠBy",
        -8.731805899829912
      ],
      [
        "ĠWith",
        -8.735594347172652
      ],
      [
        "Ġprogram",
        -8.736262829045705
      ],
      [
        "Ġproblems",
        -8.736472029260097
      ],
      [
        "Ġbit",
        -8.736758294540602
      ],
      [
        "Ġavoid",
        -8.737583515524555
      ],
      [
        "Ġtypical",
        -8.739589822601058
      ],
      [
        "Ġfar",
        -8.741432779484533
      ],
      [
        "Ġhealthy",
        -8.741606456277829
      ],
      [
        "Ġfuture",
        -8.743523716865123
      ],
      [
        "Ġwhite",
        -8.745486172820428
      ],
      [
        "ug",
        -8.74737543596026
      ],
      [
        "Ġcomponent",
        -8.750100260208137
      ],
      [
        "Ġnever",
        -8.752255490644972
      ],
      [
        "Ġpropert",
        -8.753599443642692
      ],
      [
        "Ġpast",
        -8.753812817439446
      ],
      [
        "Ġanswer",
        -8.753889125922619
      ],
      [
        "ions",
        -8.75635647148232
      ],
      [
        "Ġpro",
        -8.757811272559891
      ],
      [
        "Ġtreat",
        -8.7584964856172
      ],
      [
        "he",
        -8.7593651921281
      ],
      [
        "Ġmachine",
        -8.759384239314574
      ],
      [
        "Ġdoesn",
        -8.760079329672276
      ],
      [
        "Ġlimit",
        -8.760901004930272
      ],
      [
        "ĠUniversity",
        -8.762926501139887
      ],
      [
        "Ġphysical",
        -8.763010673602771
      ],
      [
        "Ġresults",
        -8.763495272511431
      ],
      [
        "Ġdogs",
        -8.765184986530521
      ],
      [
        "Ġgiven",
        -8.76750765915585
      ],
      [
        "Ġarticle",
        -8.770135238301002
      ],
      [
        "ium",
        -8.770961904314124
      ],
      [
        "Ġissues",
        -8.771445083624677
      ],
      [
        "Ġold",
        -8.77147676797738
      ],
      [
        "Ġaccess",
        -8.77319290901628
      ],
      [
        "Ġsub",
        -8.773831290005807
      ],
      [
        "Ġbuilding",
        -8.77457119020341
      ],
      [
        "ring",
        -8.77533816588144
      ],
      [
        "ĠCon",
        -8.776585521593532
      ],
      [
        "Ġspeed",
        -8.778424551588973
      ],
      [
        "Ġunique",
        -8.778846312077006
      ],
      [
        "ves",
        -8.779913161566764
      ],
      [
        "Ġground",
        -8.781333671307614
      ],
      [
        "ĠAn",
        -8.785154666830808
      ],
      [
        "Ġtimes",
        -8.787684885241585
      ],
      [
        ")ĊĊ",
        -8.78879489600434
      ],
      [
        "ized",
        -8.789847811674324
      ],
      [
        "Ġtraining",
        -8.790274013294166
      ],
      [
        "stead",
        -8.791251980603116
      ],
      [
        "For",
        -8.79207268253008
      ],
      [
        "Ġespecial",
        -8.792601607859684
      ],
      [
        "Ġaccording",
        -8.792772871751103
      ],
      [
        "Ġabove",
        -8.79353290762456
      ],
      [
        "Ġcertain",
        -8.793747341088965
      ],
      [
        "Ġforce",
        -8.793945859301449
      ],
      [
        "ĠSome",
        -8.794421550794375
      ],
      [
        "act",
        -8.79845235601202
      ],
      [
        "Ġrecommend",
        -8.79846505606497
      ],
      [
        ")Ċ",
        -8.798658118874712
      ],
      [
        "Ġproduction",
        -8.801861896693195
      ],
      [
        "Ġ[",
        -8.802637509279428
      ],
      [
        "across",
        -8.802967093904176
      ],
      [
        "ĠBe",
        -8.805805168102388
      ],
      [
        "ok",
        -8.806447207890553
      ],
      [
        "Ġexist",
        -8.807459976953268
      ],
      [
        "ĠRo",
        -8.813222831507904
      ],
      [
        "Ġdone",
        -8.814094723178513
      ],
      [
        "Ġheart",
        -8.814537257807267
      ],
      [
        "!ĊĊ",
        -8.814673158582346
      ],
      [
        "Ġskin",
        -8.815072237739859
      ],
      [
        "Ġclimate",
        -8.815977850347814
      ],
      [
        "Ġcut",
        -8.817073128933108
      ],
      [
        "Ġchanges",
        -8.818369142782391
      ],
      [
        "Ġhim",
        -8.820213650427398
      ],
      [
        "Ġremove",
        -8.821496775362455
      ],
      [
        "Ġauthor",
        -8.821820617504994
      ],
      [
        "Ġdetail",
        -8.822702518477865
      ],
      [
        "ure",
        -8.824265218772336
      ],
      [
        "ize",
        -8.82636128131928
      ],
      [
        "Ġsingle",
        -8.826833496767057
      ],
      [
        "ĠYour",
        -8.828213300396554
      ],
      [
        "Ġgrowth",
        -8.82912330863693
      ],
      [
        "Ġred",
        -8.829155417009039
      ],
      [
        "Ġleft",
        -8.832472405298805
      ],
      [
        "pl",
        -8.832686847308652
      ],
      [
        "Ġscience",
        -8.833466561585862
      ],
      [
        "Ġregular",
        -8.833790441303162
      ],
      [
        "Ġflow",
        -8.833802106232568
      ],
      [
        "ĠDo",
        -8.835188304617326
      ],
      [
        "Ġdifficult",
        -8.83584592550769
      ],
      [
        "Ġpublic",
        -8.83834431187319
      ],
      [
        "Ġdeep",
        -8.840022287673724
      ],
      [
        "Ġmakes",
        -8.840086557968982
      ],
      [
        "Ġsun",
        -8.84070137354727
      ],
      [
        "Ġdis",
        -8.841359985215828
      ],
      [
        "Ġproduct",
        -8.843193948827835
      ],
      [
        "Ġbelieve",
        -8.844045395566727
      ],
      [
        "ĠMo",
        -8.845094793163438
      ],
      [
        "against",
        -8.847119922722204
      ],
      [
        "mm",
        -8.849503193807209
      ],
      [
        "Ġwhe",
        -8.851909592664455
      ],
      [
        "Ġfield",
        -8.852911216458448
      ],
      [
        "ĠScot",
        -8.853511410615848
      ],
      [
        "Ġweek",
        -8.854000554320589
      ],
      [
        "Ġbrain",
        -8.854212380124402
      ],
      [
        "Ġperiod",
        -8.85423110143416
      ],
      [
        "Ġcall",
        -8.855254337345865
      ],
      [
        "ĠDe",
        -8.85578784460403
      ],
      [
        "mp",
        -8.85649924904827
      ],
      [
        "over",
        -8.857316291953527
      ],
      [
        "Ġbasic",
        -8.857801779640141
      ],
      [
        "Ġoccur",
        -8.858806340326737
      ],
      [
        "ect",
        -8.859568013021345
      ],
      [
        "ship",
        -8.85969500399122
      ],
      [
        "Ġreach",
        -8.859856283655272
      ],
      [
        "Ġremain",
        -8.86197506817749
      ],
      [
        "Ġsource",
        -8.863551472783248
      ],
      [
        "Ġpain",
        -8.865796476868526
      ],
      [
        "ng",
        -8.86632591082239
      ],
      [
        "thing",
        -8.86663838320388
      ],
      [
        "Ġcontent",
        -8.867470149287357
      ],
      [
        "ism",
        -8.867800099603839
      ],
      [
        ">",
        -8.868895414268131
      ],
      [
        "Ġobject",
        -8.869316642310789
      ],
      [
        "Ġpopulation",
        -8.869330790990327
      ],
      [
        "Ġcr",
        -8.872415010127579
      ],
      [
        "ke",
        -8.873520416799101
      ],
      [
        "Ġanimal",
        -8.875220469874836
      ],
      [
        "our",
        -8.878920481412305
      ],
      [
        "Ġcontinue",
        -8.879886563593857
      ],
      [
        "form",
        -8.880919380038556
      ],
      [
        "Ġperformance",
        -8.881402588821679
      ],
      [
        "Ġaddition",
        -8.882645757599466
      ],
      [
        "Ġstandard",
        -8.884421193226537
      ],
      [
        "Ġproduce",
        -8.885679468336061
      ],
      [
        "Ġpopular",
        -8.887072381890308
      ],
      [
        "Ġchemical",
        -8.888104657037704
      ],
      [
        "Ġtoday",
        -8.888735491776737
      ],
      [
        "Ġenjoy",
        -8.88921305406648
      ],
      [
        "Ġpatient",
        -8.890190643722235
      ],
      [
        "ach",
        -8.890496036925231
      ],
      [
        "Ġsafety",
        -8.89191103999134
      ],
      [
        "Re",
        -8.892044874976019
      ],
      [
        "[",
        -8.89495593154287
      ],
      [
        "go",
        -8.896701017871234
      ],
      [
        "ĠAl",
        -8.89696759357839
      ],
      [
        "for",
        -8.897356703575703
      ],
      [
        "Ġmo",
        -8.899566651064198
      ],
      [
        "Ġmedical",
        -8.899604064890331
      ],
      [
        "Ġdi",
        -8.900545986920331
      ],
      [
        "Ġnecessary",
        -8.902324409960425
      ],
      [
        "Ġstore",
        -8.903049279174896
      ],
      [
        "Ġmatter",
        -8.904687126408806
      ],
      [
        "ĠLo",
        -8.907203919969508
      ],
      [
        "Ġeffects",
        -8.909315623671798
      ],
      [
        "Ġbring",
        -8.909971704360395
      ],
      [
        "Ġface",
        -8.910542520392248
      ],
      [
        "Ġkind",
        -8.911047304660762
      ],
      [
        "Ġfurther",
        -8.91252931350981
      ],
      [
        "Ġnear",
        -8.912594543997987
      ],
      [
        "Ġtravel",
        -8.913385619374335
      ],
      [
        "Ġdesigned",
        -8.915045246241505
      ],
      [
        "ĠDr",
        -8.916507809349088
      ],
      [
        "Ġinfection",
        -8.917847290126453
      ],
      [
        "Ġsound",
        -8.918403739192865
      ],
      [
        "Ġwood",
        -8.918539177754905
      ],
      [
        "Ġcondition",
        -8.918843357102118
      ],
      [
        "Ġfour",
        -8.921288059753497
      ],
      [
        "Ġassociate",
        -8.921771685603545
      ],
      [
        "Ġblack",
        -8.922321162103072
      ],
      [
        "Ġcomputer",
        -8.924053185531566
      ],
      [
        "all",
        -8.924198448882215
      ],
      [
        "Ġchoice",
        -8.924597746877424
      ],
      [
        "ative",
        -8.925125722083688
      ],
      [
        "Ġfall",
        -8.925856829304713
      ],
      [
        "ization",
        -8.927610807185273
      ],
      [
        "Ġskills",
        -8.927641521962977
      ],
      [
        "end",
        -8.930746956480121
      ],
      [
        "hi",
        -8.932104866265423
      ],
      [
        "side",
        -8.93295808842906
      ],
      [
        "ster",
        -8.934855105447678
      ],
      [
        "ck",
        -8.93653566622388
      ],
      [
        "Ġbusiness",
        -8.93713388040251
      ],
      [
        "Ġpet",
        -8.938679609723685
      ],
      [
        "Ġeffect",
        -8.939025584368544
      ],
      [
        "Ġbuy",
        -8.940583341348027
      ],
      [
        "Ġbenefits",
        -8.945006563368153
      ],
      [
        "cu",
        -8.946113683566987
      ],
      [
        ".\"Ċ",
        -8.947068304709028
      ],
      [
        "Ġagain",
        -8.94801147240613
      ],
      [
        "Ġwhole",
        -8.951970833594629
      ],
      [
        "Ġquestion",
        -8.953028037496846
      ],
      [
        "tion",
        -8.95382982543137
      ],
      [
        "Ġhouse",
        -8.95445249056695
      ],
      [
        "Ġfat",
        -8.954809325201698
      ],
      [
        "Ġapproach",
        -8.955963353134907
      ],
      [
        "ities",
        -8.957093183973118
      ],
      [
        "Ġsymptom",
        -8.957140390095569
      ],
      [
        "Ġbuild",
        -8.958313313170082
      ],
      [
        "ĠAmerican",
        -8.95879083402513
      ],
      [
        "Ġbehavior",
        -8.959015395963755
      ],
      [
        "Ġsea",
        -8.960443266701404
      ],
      [
        "Ġrecent",
        -8.961014182902371
      ],
      [
        "Ġstay",
        -8.96123637149143
      ],
      [
        "cy",
        -8.962170716011782
      ],
      [
        "Ġsays",
        -8.962378483045814
      ],
      [
        "Ġcomplete",
        -8.962481006637088
      ],
      [
        "Ġgreen",
        -8.962512245318702
      ],
      [
        "Ġitem",
        -8.962594366703858
      ],
      [
        "Ġmillion",
        -8.962933245686447
      ],
      [
        "Ġcorrect",
        -8.96399919818835
      ],
      [
        "ĠRa",
        -8.964222546755714
      ],
      [
        "iv",
        -8.964364657031297
      ],
      [
        "Ġimage",
        -8.965437201892355
      ],
      [
        "Ġview",
        -8.966502973393785
      ],
      [
        "Ġmean",
        -8.966757309843757
      ],
      [
        "Ġvehicle",
        -8.967064583557542
      ],
      [
        "Ġregion",
        -8.967380022823455
      ],
      [
        "gu",
        -8.96761668634161
      ],
      [
        "Ġtree",
        -8.970130689180964
      ],
      [
        "Ġspecial",
        -8.970982628014715
      ],
      [
        "Ġreport",
        -8.972483954544986
      ],
      [
        "already",
        -8.973544719682922
      ],
      [
        "Ġknowledge",
        -8.974129759542834
      ],
      [
        "ight",
        -8.974611964321799
      ],
      [
        "ĠMan",
        -8.975516477713997
      ],
      [
        "Ġtalk",
        -8.977702306683934
      ],
      [
        "Ġblock",
        -8.978409532970637
      ],
      [
        "So",
        -8.97850752363237
      ],
      [
        "den",
        -8.979972151669436
      ],
      [
        "Ġallows",
        -8.9803290990961
      ],
      [
        "Ġtell",
        -8.981717866741468
      ],
      [
        "ĠCo",
        -8.983156025186858
      ],
      [
        "Ġshare",
        -8.984811969075885
      ],
      [
        "Ġcomplex",
        -8.987068644070572
      ],
      [
        "below",
        -8.987361757219261
      ],
      [
        "Ġposition",
        -8.988690243750522
      ],
      [
        "Ġbreak",
        -8.990017644560595
      ],
      [
        "ĠAll",
        -8.990140819609142
      ],
      [
        "Ġclear",
        -8.990582722028972
      ],
      [
        "lin",
        -8.991256865665257
      ],
      [
        "Ġunderstanding",
        -8.992851909160851
      ],
      [
        "Ġprice",
        -8.992919210115954
      ],
      [
        "Ġpersonal",
        -8.993188866869627
      ],
      [
        "ĠOne",
        -8.993919984019879
      ],
      [
        "Ġsolution",
        -8.994806890206895
      ],
      [
        "Ġcold",
        -8.99551891065512
      ],
      [
        "Ġinside",
        -8.996523009579938
      ],
      [
        "Ġmajor",
        -8.998267923591406
      ],
      [
        "ĠLi",
        -8.998394858283534
      ],
      [
        "Ġthough",
        -8.999382487009637
      ],
      [
        "Ġperfect",
        -8.999864785543776
      ],
      [
        "Ġseen",
        -9.000138184470977
      ],
      [
        "ĠAt",
        -9.000224532512293
      ],
      [
        "ak",
        -9.000438351487805
      ],
      [
        "Ġbig",
        -9.001438221572478
      ],
      [
        "Ġrequired",
        -9.001650055192293
      ],
      [
        "Ġlonger",
        -9.0025687538366
      ],
      [
        "ĠX",
        -9.00276406677472
      ],
      [
        "Ġhistory",
        -9.003163419753252
      ],
      [
        "âĢĵ",
        -9.003508221761859
      ],
      [
        "ang",
        -9.003984293906345
      ],
      [
        "Ġmind",
        -9.00406622761853
      ],
      [
        "Ġissue",
        -9.005927874006403
      ],
      [
        "Ġcommunity",
        -9.005945075431267
      ],
      [
        "Ġcompany",
        -9.005945501546606
      ],
      [
        "Ġfruit",
        -9.006325786311432
      ],
      [
        "Ġstress",
        -9.006406290113457
      ],
      [
        "Ġamong",
        -9.0066432122174
      ],
      [
        "Ġland",
        -9.00677331523335
      ],
      [
        "As",
        -9.007874954114952
      ],
      [
        "Ġmention",
        -9.008140329715744
      ],
      [
        "ĠBo",
        -9.009436964408405
      ],
      [
        "ell",
        -9.009580676848826
      ],
      [
        "Ġactiviti",
        -9.010260194031504
      ],
      [
        "Ġconcern",
        -9.014520979540954
      ],
      [
        "ĠOn",
        -9.018308438670754
      ],
      [
        "Ġsignal",
        -9.01842086454438
      ],
      [
        "Ġenvironmental",
        -9.019067370941409
      ],
      [
        "Ġidea",
        -9.02079169808107
      ],
      [
        "Ġways",
        -9.021406426569497
      ],
      [
        "Ġpractice",
        -9.021584141323736
      ],
      [
        "Ġart",
        -9.02180794342405
      ],
      [
        "Ġlayer",
        -9.024734787160172
      ],
      [
        "mar",
        -9.026318106994022
      ],
      [
        "Ġmix",
        -9.026377091629708
      ],
      [
        "Ġtoward",
        -9.026818969412025
      ],
      [
        "Ġcook",
        -9.028638751474064
      ],
      [
        "ran",
        -9.029727307546754
      ],
      [
        "ile",
        -9.030304773787003
      ],
      [
        "Ġtask",
        -9.030648229290932
      ],
      [
        "Ġtaking",
        -9.03085882372023
      ],
      [
        "Ġbattery",
        -9.032724335524968
      ],
      [
        "Ġactivity",
        -9.033226905049066
      ],
      [
        "Ġpurpose",
        -9.033776481939231
      ],
      [
        "Ġonline",
        -9.034050248818849
      ],
      [
        "Ġeasily",
        -9.037546286801524
      ],
      [
        "Ġprovid",
        -9.0378021872844
      ],
      [
        "Ġindustry",
        -9.038806073477192
      ],
      [
        "Ġcancer",
        -9.039074520634223
      ],
      [
        "ner",
        -9.040064679553083
      ],
      [
        "Ġcontact",
        -9.04133294351016
      ],
      [
        "!Ċ",
        -9.04439154563648
      ],
      [
        "Q",
        -9.045112248729335
      ],
      [
        "ĠLa",
        -9.045138953773094
      ],
      [
        "Ġlist",
        -9.045715364888276
      ],
      [
        "Ġslow",
        -9.04711671728712
      ],
      [
        "Ġminutes",
        -9.048170462962869
      ],
      [
        "light",
        -9.048510911438928
      ],
      [
        "Ġmonths",
        -9.048765300982277
      ],
      [
        "Ġeducation",
        -9.05184093053306
      ],
      [
        "ail",
        -9.051857717771952
      ],
      [
        "Ġresearcher",
        -9.05521485161834
      ],
      [
        "Ġshape",
        -9.055640180980454
      ],
      [
        "Ġlink",
        -9.055774579249674
      ],
      [
        "Ġgeneral",
        -9.057981702687718
      ],
      [
        "Ġappear",
        -9.058307246758114
      ],
      [
        "Ġcharge",
        -9.060574303489066
      ],
      [
        "Ġpositive",
        -9.061115646781564
      ],
      [
        "ub",
        -9.06162496373195
      ],
      [
        "+",
        -9.062956691614882
      ],
      [
        "Ġopportunit",
        -9.06304967022194
      ],
      [
        "Ġdescribe",
        -9.064195470790104
      ],
      [
        "J",
        -9.064667238376186
      ],
      [
        "Ġjob",
        -9.065659123265162
      ],
      [
        "Ġpass",
        -9.065927162849732
      ],
      [
        "Ġhelps",
        -9.069107766904636
      ],
      [
        "cal",
        -9.070323977883431
      ],
      [
        "|",
        -9.07088219846952
      ],
      [
        "Ġaction",
        -9.071516174565843
      ],
      [
        "Ġbar",
        -9.072446733144472
      ],
      [
        "Ġever",
        -9.073185257342
      ],
      [
        "Ġsomeone",
        -9.073205094712412
      ],
      [
        "ha",
        -9.073426474747748
      ],
      [
        "tri",
        -9.07364720127802
      ],
      [
        "Ġman",
        -9.074459145595636
      ],
      [
        "Ġroom",
        -9.075685219140263
      ],
      [
        "Ġact",
        -9.077221655702315
      ],
      [
        "Ġprofessional",
        -9.077736236964618
      ],
      [
        "Ġclass",
        -9.078763770871124
      ],
      [
        "Ġcool",
        -9.080217249754783
      ],
      [
        "Ġthought",
        -9.081571168327246
      ],
      [
        "Ġrest",
        -9.082396002253793
      ],
      [
        "Ġlanguage",
        -9.082613386532785
      ],
      [
        "Ġprobabl",
        -9.082632099271622
      ],
      [
        "ĠPro",
        -9.083686549968652
      ],
      [
        "Ġhot",
        -9.084289642089551
      ],
      [
        "Ġdetermine",
        -9.08444807918828
      ],
      [
        "Ġtotal",
        -9.084812254933292
      ],
      [
        "Ġyoung",
        -9.086545040111284
      ],
      [
        "Ġmoney",
        -9.086620746574706
      ],
      [
        "Ġfuel",
        -9.09127181645578
      ],
      [
        "Ġengine",
        -9.0924492110419
      ],
      [
        "Ġseason",
        -9.092984291537416
      ],
      [
        "Ġwalk",
        -9.093210932868375
      ],
      [
        "Ġbr",
        -9.09525616131546
      ],
      [
        "Ġprotein",
        -9.09556567160455
      ],
      [
        "tra",
        -9.095771367070288
      ],
      [
        "Ġfeatures",
        -9.095998571001536
      ],
      [
        "Ġwall",
        -9.096099080036822
      ],
      [
        "ice",
        -9.096304116256258
      ],
      [
        "Ġquickly",
        -9.096350202862888
      ],
      [
        "Ġdevice",
        -9.097446006534865
      ],
      [
        "Ġetc",
        -9.098630941635331
      ],
      [
        "Ġwaste",
        -9.100982333707478
      ],
      [
        "Ġtool",
        -9.101893183785336
      ],
      [
        "once",
        -9.102821679686794
      ],
      [
        "Ġbalance",
        -9.103447911310631
      ],
      [
        "âĢ¦",
        -9.10487015595593
      ],
      [
        "-based",
        -9.105522567727323
      ],
      [
        "Ġkid",
        -9.105571335811147
      ],
      [
        "Ġnetwork",
        -9.105956571990191
      ],
      [
        "Ġwinter",
        -9.106871611883223
      ],
      [
        "of",
        -9.106966644353644
      ],
      [
        "Ġservice",
        -9.106970947550163
      ],
      [
        "Ġtable",
        -9.10701562172282
      ],
      [
        "we",
        -9.107599853786
      ],
      [
        "Ġhalf",
        -9.107995309393718
      ],
      [
        "rather",
        -9.108557222353255
      ],
      [
        "ier",
        -9.109907665652116
      ],
      [
        "Ġcrucial",
        -9.109984949278084
      ],
      [
        "j",
        -9.110068700131542
      ],
      [
        "Ġsetting",
        -9.11026194036632
      ],
      [
        "Ġmethods",
        -9.110590929086367
      ],
      [
        "ever",
        -9.112437719878368
      ],
      [
        "X",
        -9.112752122409402
      ],
      [
        "let",
        -9.113129344632004
      ],
      [
        "Ġgot",
        -9.113877032050851
      ],
      [
        "Ġenhance",
        -9.114186405880613
      ],
      [
        "Ġcarbon",
        -9.11426290495367
      ],
      [
        "Ġrelease",
        -9.114504636236228
      ],
      [
        "Ġplastic",
        -9.116030787785055
      ],
      [
        "Ġyourself",
        -9.116457362466749
      ],
      [
        "Ġhold",
        -9.116947137409902
      ],
      [
        "Ġdoing",
        -9.118261267039903
      ],
      [
        "Ġlocation",
        -9.120412970692048
      ],
      [
        "ĠEx",
        -9.121025418228898
      ],
      [
        "Ġself",
        -9.121743816593662
      ],
      [
        "Ġnature",
        -9.12224639113673
      ],
      [
        "Ġtools",
        -9.123453528185893
      ],
      [
        "Ġattention",
        -9.12432995844032
      ],
      [
        "Ġeffort",
        -9.124986909533808
      ],
      [
        "Ġliving",
        -9.124989480270983
      ],
      [
        "Ġguide",
        -9.12527263080003
      ],
      [
        "Ġoverall",
        -9.12588555976276
      ],
      [
        "by",
        -9.126081961505944
      ],
      [
        "Ġsleep",
        -9.127003284282829
      ],
      [
        "Ġsense",
        -9.127282721525727
      ],
      [
        "Ġreceive",
        -9.127397228461447
      ],
      [
        "Ġunit",
        -9.13370830382065
      ],
      [
        "gen",
        -9.135216157232492
      ],
      [
        "Ġconsidered",
        -9.135920860277228
      ],
      [
        "Ġhowever",
        -9.13624275171509
      ],
      [
        "Ġex",
        -9.13627285003039
      ],
      [
        "Ġsugar",
        -9.137438735836165
      ],
      [
        "Ġsuggest",
        -9.137934692383917
      ],
      [
        "Ġwarm",
        -9.138606788326356
      ],
      [
        "ack",
        -9.138763955621998
      ],
      [
        "ear",
        -9.13913100053484
      ],
      [
        "Ġresponse",
        -9.139520031423856
      ],
      [
        "Ġchoose",
        -9.143503417242542
      ],
      [
        "ĠShe",
        -9.144157149964284
      ],
      [
        "Ġvisit",
        -9.1457771524262
      ],
      [
        "Ġwomen",
        -9.145813945284118
      ],
      [
        "Ġfeet",
        -9.146089876923494
      ],
      [
        "lic",
        -9.146813493147816
      ],
      [
        "Ġmetal",
        -9.14841151162321
      ],
      [
        "Ġtraditional",
        -9.149978530442713
      ],
      [
        "Ġstor",
        -9.150170160126848
      ],
      [
        "ĠOr",
        -9.15020765011285
      ],
      [
        "qui",
        -9.150220043734668
      ],
      [
        "Ġquestions",
        -9.150803453927765
      ],
      [
        "Ġsituation",
        -9.151442069243888
      ],
      [
        "where",
        -9.152998598245093
      ],
      [
        "Ġgrowing",
        -9.153353176269416
      ],
      [
        "Ġma",
        -9.153476999380732
      ],
      [
        "Ġbase",
        -9.155338315860927
      ],
      [
        "ĠMi",
        -9.15577964735588
      ],
      [
        "ign",
        -9.156192062460049
      ],
      [
        "Ġaverage",
        -9.156393263532111
      ],
      [
        "way",
        -9.15834477530229
      ],
      [
        "Ġcreating",
        -9.160731631798072
      ],
      [
        "gg",
        -9.161574170008528
      ],
      [
        "ca",
        -9.162079129823049
      ],
      [
        "Ġmass",
        -9.16497130093043
      ],
      [
        "cor",
        -9.165116065616338
      ],
      [
        "Ġweather",
        -9.165717327539744
      ],
      [
        "Ġask",
        -9.166050480945042
      ],
      [
        "Ġsimply",
        -9.166367412686064
      ],
      [
        "An",
        -9.167713602282785
      ],
      [
        "Ġwon",
        -9.1683181449448
      ],
      [
        "Ġdecision",
        -9.16851786883214
      ],
      [
        "ble",
        -9.16854549206209
      ],
      [
        "Ġlarger",
        -9.168963790497424
      ],
      [
        "air",
        -9.169797287781872
      ],
      [
        "Ġkill",
        -9.170879674988807
      ],
      [
        "Ġbacteria",
        -9.171102569258736
      ],
      [
        "qua",
        -9.171455574121762
      ],
      [
        "Ġnormal",
        -9.17187931327834
      ],
      [
        "ger",
        -9.172199985295252
      ],
      [
        "=",
        -9.17395154990237
      ],
      [
        "use",
        -9.174204520424274
      ],
      [
        "Ġfast",
        -9.174493801702791
      ],
      [
        "ĠCan",
        -9.17480249212991
      ],
      [
        "Ġpatients",
        -9.175474042128858
      ],
      [
        "ĠCa",
        -9.177285787385982
      ],
      [
        "From",
        -9.177450599250696
      ],
      [
        "ĠAI",
        -9.178887698314192
      ],
      [
        "Ġtarget",
        -9.179347113821985
      ],
      [
        "ash",
        -9.180301504576176
      ],
      [
        "ible",
        -9.180633754389412
      ],
      [
        "Ġgain",
        -9.18081218958007
      ],
      [
        ".\"",
        -9.181638782124848
      ],
      [
        "Ġadditional",
        -9.182351519233162
      ],
      [
        "fer",
        -9.183235218628385
      ],
      [
        "Ġprimar",
        -9.18334931159236
      ],
      [
        "Ġpay",
        -9.184887206267586
      ],
      [
        "Ġadult",
        -9.188084119342877
      ],
      [
        "ĠDi",
        -9.188157255478991
      ],
      [
        "Ġreading",
        -9.188795844228135
      ],
      [
        "Ġaddress",
        -9.191303340668778
      ],
      [
        "Ġbegin",
        -9.193912862824938
      ],
      [
        "Ġbone",
        -9.194380606284083
      ],
      [
        "Ġinter",
        -9.195892133048698
      ],
      [
        "Ġsubject",
        -9.196904026791817
      ],
      [
        "Ġstyle",
        -9.1974876405049
      ],
      [
        ").Ċ",
        -9.19768083348938
      ],
      [
        "Ġdiscuss",
        -9.198050974705616
      ],
      [
        "ven",
        -9.198955697862605
      ],
      [
        "Ġstop",
        -9.199015594422953
      ],
      [
        "day",
        -9.199365763259737
      ],
      [
        "chi",
        -9.200698612266692
      ],
      [
        "Ġactive",
        -9.201721137169464
      ],
      [
        "Ġoutside",
        -9.201943189525096
      ],
      [
        "Ġexpert",
        -9.202087571345931
      ],
      [
        "Ġhappen",
        -9.204212461556835
      ],
      [
        "ĠLe",
        -9.204277317626095
      ],
      [
        "\"ĊĊ",
        -9.204350327308566
      ],
      [
        "Ġresources",
        -9.204500352908934
      ],
      [
        "Ġsite",
        -9.20481024122794
      ],
      [
        "ze",
        -9.20484873016379
      ],
      [
        "pos",
        -9.205589290290114
      ],
      [
        "Ġsummer",
        -9.205862100640903
      ],
      [
        "yet",
        -9.206018223797363
      ],
      [
        "ture",
        -9.208603033321737
      ],
      [
        "Ġfront",
        -9.208683893001616
      ],
      [
        "uc",
        -9.20934844707183
      ],
      [
        "Ġcreated",
        -9.209871948731765
      ],
      [
        "Ġeyes",
        -9.210916087390448
      ],
      [
        "Ġglobal",
        -9.211030668441063
      ],
      [
        "Ġfun",
        -9.213724448900178
      ],
      [
        "Ġquite",
        -9.216296589308543
      ],
      [
        "Ġrelationship",
        -9.216327591741557
      ],
      [
        "Ġhumans",
        -9.218045189184322
      ],
      [
        "Ġaccount",
        -9.21931386242618
      ],
      [
        "tur",
        -9.220470560817525
      ],
      [
        "Ġdrive",
        -9.22081190309824
      ],
      [
        "Ġexplore",
        -9.22367403525562
      ],
      [
        "Ġcode",
        -9.223829124610411
      ],
      [
        "Ġconcept",
        -9.224210021082222
      ],
      [
        "amp",
        -9.224365281559388
      ],
      [
        "Ġgl",
        -9.22454931322535
      ],
      [
        "Ġextreme",
        -9.22460038708553
      ],
      [
        "Ġidentify",
        -9.225359683936356
      ],
      [
        "Ġsometime",
        -9.226277639728568
      ],
      [
        "Ġlength",
        -9.227631629557465
      ],
      [
        "Ġbad",
        -9.228312141183793
      ],
      [
        "Ġfinal",
        -9.228327133091256
      ],
      [
        "Ġrelative",
        -9.230004624102632
      ],
      [
        "Ġmovement",
        -9.230344013233289
      ],
      [
        "Ġincreasing",
        -9.230691002639205
      ],
      [
        "ĠMe",
        -9.230983907073044
      ],
      [
        "Ġmicro",
        -9.2312130814057
      ],
      [
        "ĠUse",
        -9.23255489246629
      ],
      [
        "Why",
        -9.23320252811345
      ],
      [
        "Ġbird",
        -9.233794283959508
      ],
      [
        "Ġplayer",
        -9.234067042921932
      ],
      [
        "Ġlater",
        -9.23516123061838
      ],
      [
        "pro",
        -9.23531666523084
      ],
      [
        "ĠCar",
        -9.236174947073478
      ],
      [
        "Ġpercent",
        -9.2366238437202
      ],
      [
        "ious",
        -9.237737541003568
      ],
      [
        "Ġelectric",
        -9.237810772117856
      ],
      [
        "Ġsoftware",
        -9.23866501081285
      ],
      [
        "Ġcamera",
        -9.23917413818664
      ],
      [
        "Ġteeth",
        -9.240668443813714
      ],
      [
        "Ġexplain",
        -9.24084083584048
      ],
      [
        "Ġstudent",
        -9.241600137217109
      ],
      [
        "Ġconnect",
        -9.243812561987635
      ],
      [
        "Ġextra",
        -9.243847332563089
      ],
      [
        "Ġefficient",
        -9.244252634969689
      ],
      [
        "Ġrepresent",
        -9.244287085888764
      ],
      [
        "Ġevent",
        -9.245681860853722
      ],
      [
        "Ġstage",
        -9.246192079223158
      ],
      [
        "Ġexact",
        -9.246265204206468
      ],
      [
        "ler",
        -9.24751092142079
      ],
      [
        "cannot",
        -9.247885944931438
      ],
      [
        "Ġsection",
        -9.249443307657284
      ],
      [
        "Ġnight",
        -9.24944353630585
      ],
      [
        "Ġcountry",
        -9.249553528598952
      ],
      [
        "tain",
        -9.249956038531812
      ],
      [
        "Ġadvantage",
        -9.250745661225942
      ],
      [
        "Ġregard",
        -9.25075098571343
      ],
      [
        "One",
        -9.25144425781804
      ],
      [
        "Ġdark",
        -9.251814772345451
      ],
      [
        "Ġreturn",
        -9.252307870366602
      ],
      [
        "Ġprevious",
        -9.253086015763929
      ],
      [
        "ĠNational",
        -9.254655937567431
      ],
      [
        "ĠHere",
        -9.255737207272084
      ],
      [
        "Ġapply",
        -9.25772065714997
      ],
      [
        "Ġfriend",
        -9.258353850454128
      ],
      [
        "Ġrelated",
        -9.25961745343328
      ],
      [
        "Ġanything",
        -9.260581924571769
      ],
      [
        "Ġvi",
        -9.260911352501898
      ],
      [
        "ki",
        -9.261321594260966
      ],
      [
        "ER",
        -9.262035265483066
      ],
      [
        "Ġalmost",
        -9.263330160102324
      ],
      [
        "United",
        -9.263694517718072
      ],
      [
        "Ġgenerate",
        -9.264396620283293
      ],
      [
        "ping",
        -9.26535169277509
      ],
      [
        "ĠSa",
        -9.265930088599454
      ],
      [
        "Ġleg",
        -9.266230153741962
      ],
      [
        "art",
        -9.267699401487612
      ],
      [
        "Ġwebsite",
        -9.268850974277449
      ],
      [
        "Ġtrack",
        -9.268995742062
      ],
      [
        "hu",
        -9.269229455462062
      ],
      [
        "Ġtaken",
        -9.271877211824853
      ],
      [
        "Ġsensor",
        -9.272622694573734
      ],
      [
        "time",
        -9.272741634015292
      ],
      [
        "Ġdaily",
        -9.27280732891396
      ],
      [
        "Ġfire",
        -9.273012756295262
      ],
      [
        "Ġbehind",
        -9.273623451480349
      ],
      [
        "Ġvisual",
        -9.276038984253482
      ],
      [
        "Ġstudies",
        -9.277527131915871
      ],
      [
        "Ġinvolve",
        -9.28100120078168
      ],
      [
        "Ġrunn",
        -9.28189710745983
      ],
      [
        "Ġoriginal",
        -9.28211367615178
      ],
      [
        "und",
        -9.28211939120926
      ],
      [
        "Ġgenerally",
        -9.283916075737867
      ],
      [
        "Ġmultiple",
        -9.284903528811103
      ],
      [
        "Ġbirds",
        -9.285876461700315
      ],
      [
        "Ġcustomer",
        -9.286683086359773
      ],
      [
        "Ġincludes",
        -9.287152632558874
      ],
      [
        "Ġtissue",
        -9.287243167265034
      ],
      [
        "Ġwords",
        -9.287673553115608
      ],
      [
        "Ġfive",
        -9.288015356188156
      ],
      [
        "Ġspread",
        -9.29090412659678
      ],
      [
        "ene",
        -9.292765305593452
      ],
      [
        "Ġmeat",
        -9.292846862227677
      ],
      [
        "ĠPo",
        -9.293647140598104
      ],
      [
        "Ġmulti",
        -9.293653365079315
      ],
      [
        "rop",
        -9.294030910093396
      ],
      [
        "Ġmodern",
        -9.29536563889003
      ],
      [
        "Ġservices",
        -9.295559650651082
      ],
      [
        "Ġeasie",
        -9.296389752886649
      ],
      [
        "Ġvegetable",
        -9.296987467294016
      ],
      [
        "ction",
        -9.29749286596505
      ],
      [
        "Ġdevices",
        -9.2975129678609
      ],
      [
        "Ġsave",
        -9.297949809427756
      ],
      [
        "Ġlaw",
        -9.299825549681492
      ],
      [
        "Ġgenetic",
        -9.301509887441204
      ],
      [
        "Ġwind",
        -9.301591194828667
      ],
      [
        "Ġcommunication",
        -9.302028050366127
      ],
      [
        "Ġtrue",
        -9.304396308509848
      ],
      [
        "Ġscientists",
        -9.307482484110745
      ],
      [
        "Ġreview",
        -9.3096836294601
      ],
      [
        "Ġtrees",
        -9.310021363557135
      ],
      [
        "Ġshows",
        -9.311507683445496
      ],
      [
        "Ġfly",
        -9.314131977542758
      ],
      [
        "Ġsearch",
        -9.314345163450056
      ],
      [
        "Ġanalysis",
        -9.315947718602494
      ],
      [
        "ĠBr",
        -9.31653490219757
      ],
      [
        "ĠHealth",
        -9.31755867493264
      ],
      [
        "Ġdrink",
        -9.317687839571416
      ],
      [
        "Ġstarted",
        -9.317907503238544
      ],
      [
        "-to",
        -9.320066322848756
      ],
      [
        "Ġreaction",
        -9.320372505265745
      ],
      [
        "Ġbreed",
        -9.320447114454613
      ],
      [
        "Ġbio",
        -9.32065962962058
      ],
      [
        "Ġengineer",
        -9.320825584857412
      ],
      [
        "Ġsupply",
        -9.320935812547894
      ],
      [
        "Ġsample",
        -9.320956886936536
      ],
      [
        "ĠAfter",
        -9.322482607163186
      ],
      [
        "Ġequipment",
        -9.322608691355889
      ],
      [
        "Ġexperiment",
        -9.32418256077604
      ],
      [
        "Ġacid",
        -9.324503131581608
      ],
      [
        "Ġcenter",
        -9.324579766666702
      ],
      [
        "ists",
        -9.326496171560716
      ],
      [
        "Ġcom",
        -9.328088001821015
      ],
      [
        "**",
        -9.330680851602416
      ],
      [
        "ĠHo",
        -9.331020631131146
      ],
      [
        "Ġfl",
        -9.331773699630224
      ],
      [
        "Ġago",
        -9.332107735708714
      ],
      [
        "ade",
        -9.332876183623084
      ],
      [
        "Ġthemsel",
        -9.33304247422143
      ],
      [
        "ology",
        -9.334872655788397
      ],
      [
        "Ġhear",
        -9.33538848545516
      ],
      [
        "Ġsp",
        -9.336576329907892
      ],
      [
        "Ġdirection",
        -9.33681752048304
      ],
      [
        "Ġbenefit",
        -9.33695610376178
      ],
      [
        "Ġspring",
        -9.33713017138074
      ],
      [
        "Ġdigital",
        -9.338152429512752
      ],
      [
        "ake",
        -9.338429274651231
      ],
      [
        "Ġice",
        -9.338592608999274
      ],
      [
        "Ġentire",
        -9.33889236082024
      ],
      [
        "br",
        -9.339155471730084
      ],
      [
        "âĢ¢",
        -9.339494888308176
      ],
      [
        "ĠScience",
        -9.340345652427253
      ],
      [
        "Ġwear",
        -9.341702846852122
      ],
      [
        "Ġserve",
        -9.342594364253998
      ],
      [
        "Ġapp",
        -9.343493085608468
      ],
      [
        "Ġinjur",
        -9.344169253151453
      ],
      [
        "Ġappropriate",
        -9.344233066503662
      ],
      [
        "Ġshown",
        -9.344285689880286
      ],
      [
        "ick",
        -9.34521424215884
      ],
      [
        "ĠZ",
        -9.34553967355516
      ],
      [
        "Ġdetect",
        -9.346195718729804
      ],
      [
        "Ġdirectly",
        -9.346897268205597
      ],
      [
        "Ġstory",
        -9.348634729621551
      ],
      [
        "Ġscreen",
        -9.349153683444058
      ],
      [
        "Ġflavor",
        -9.349763569213671
      ],
      [
        "Ġnotice",
        -9.351450560505183
      ],
      [
        "Ġachieve",
        -9.351908785101418
      ],
      [
        "Ġcompare",
        -9.353207739116849
      ],
      [
        "$",
        -9.3534495568051
      ],
      [
        "Ġinterest",
        -9.353967484185375
      ],
      [
        "Ġtopic",
        -9.354471352004666
      ],
      [
        "Ġpot",
        -9.354559090992892
      ],
      [
        "Ġsolar",
        -9.354570627555583
      ],
      [
        "Ġdiscover",
        -9.354791517472638
      ],
      [
        "ĠPa",
        -9.355602017091185
      ],
      [
        "Ġanti",
        -9.356342464083236
      ],
      [
        "Ġtri",
        -9.357337102876368
      ],
      [
        "Ġfine",
        -9.35772233955648
      ],
      [
        "Ġmedia",
        -9.358019590463314
      ],
      [
        "Ġenter",
        -9.359150957907804
      ],
      [
        "wise",
        -9.360063363733728
      ],
      [
        "ose",
        -9.360494757022646
      ],
      [
        "ries",
        -9.361825221234298
      ],
      [
        "Ġnegative",
        -9.362739008801874
      ],
      [
        "Ġconstant",
        -9.362751902509885
      ],
      [
        "Ġevents",
        -9.363369905258931
      ],
      [
        "Ġelectrical",
        -9.365945253161984
      ],
      [
        "Ġhorse",
        -9.366244113586488
      ],
      [
        "Ġfemale",
        -9.367993272976609
      ],
      [
        "Ġcaus",
        -9.368965015831796
      ],
      [
        "care",
        -9.36922451468355
      ],
      [
        "Ġdraw",
        -9.369233229640262
      ],
      [
        "Ġmusic",
        -9.36997174834413
      ],
      [
        "Ġexercise",
        -9.370162002635595
      ],
      [
        "Ġdirect",
        -9.372477908149357
      ],
      [
        "Ġtend",
        -9.37256819103375
      ],
      [
        "Ġorganization",
        -9.372605377845938
      ],
      [
        "Ġingredient",
        -9.37326334104897
      ],
      [
        "Ġaspect",
        -9.37388711716184
      ],
      [
        "Ġbox",
        -9.374099071666652
      ],
      [
        "Ġcentur",
        -9.374369125567831
      ],
      [
        "Ġsteps",
        -9.37475541854606
      ],
      [
        "Ġfarm",
        -9.374945637340844
      ],
      [
        "Ġfresh",
        -9.37496324670838
      ],
      [
        "Ġwatch",
        -9.375987775768706
      ],
      [
        "king",
        -9.37646368669568
      ],
      [
        "Ġaware",
        -9.376530596584086
      ],
      [
        "Ġadded",
        -9.379574521176654
      ],
      [
        "Ġfinding",
        -9.381210852898604
      ],
      [
        "Do",
        -9.381518056563335
      ],
      [
        "Ġpick",
        -9.381522029270922
      ],
      [
        "Ġcap",
        -9.382093276364692
      ],
      [
        "work",
        -9.382947558060474
      ],
      [
        "Ġseeds",
        -9.3838571738611
      ],
      [
        "Ġcover",
        -9.383941764556308
      ],
      [
        "ĠY",
        -9.38520394664422
      ],
      [
        "ese",
        -9.385607879723135
      ],
      [
        "Ġdeal",
        -9.385775597676345
      ],
      [
        "ĠNorth",
        -9.386950831642835
      ],
      [
        "ĠMa",
        -9.38748360396368
      ],
      [
        "Ġchance",
        -9.389368428151794
      ],
      [
        "che",
        -9.390875080992078
      ],
      [
        "Ġblue",
        -9.39092323556994
      ],
      [
        "-in",
        -9.390972843470884
      ],
      [
        "hen",
        -9.391526527938264
      ],
      [
        "RE",
        -9.391611741557483
      ],
      [
        "Ġindicate",
        -9.391796939253826
      ],
      [
        "Ġphoto",
        -9.391847127090792
      ],
      [
        "Ġtouch",
        -9.392149937837129
      ],
      [
        "Ġuseful",
        -9.392412755391636
      ],
      [
        "But",
        -9.39307652223852
      ],
      [
        "Ġmonth",
        -9.394889076515623
      ],
      [
        "Ġload",
        -9.394910961048602
      ],
      [
        "ĠSu",
        -9.395788069586274
      ],
      [
        "}",
        -9.39625761138046
      ],
      [
        "Ġpa",
        -9.39674708281781
      ],
      [
        "Ġdisplay",
        -9.3973982019664
      ],
      [
        "moving",
        -9.397478566618451
      ],
      [
        "Ġpiece",
        -9.397576244174555
      ],
      [
        "ward",
        -9.398925630007827
      ],
      [
        "Ġimmediate",
        -9.399134493929552
      ],
      [
        "ĠEarth",
        -9.399154585385872
      ],
      [
        "Ġeveryone",
        -9.402011523057318
      ],
      [
        "Ġglass",
        -9.402099229008368
      ],
      [
        "lan",
        -9.402372273554477
      ],
      [
        "Ġattack",
        -9.40277819576074
      ],
      [
        "Ġgene",
        -9.402864094635891
      ],
      [
        "Can",
        -9.403715151455357
      ],
      [
        "kin",
        -9.405083734274909
      ],
      [
        "red",
        -9.405336680768748
      ],
      [
        "Ġfeed",
        -9.405647584403594
      ],
      [
        "Ġelse",
        -9.405702210495749
      ],
      [
        "men",
        -9.40650428060291
      ],
      [
        "AN",
        -9.407078591862769
      ],
      [
        "Ġmeal",
        -9.40713523329591
      ],
      [
        "Ġball",
        -9.407895544771588
      ],
      [
        "Ġeggs",
        -9.40889503112124
      ],
      [
        "Ġisn",
        -9.409509260404224
      ],
      [
        "Ġfilter",
        -9.410048539768038
      ],
      [
        "ĠStates",
        -9.411992396804074
      ],
      [
        "head",
        -9.41318876170276
      ],
      [
        "Ġconnection",
        -9.413429505092523
      ],
      [
        "Ġrequirement",
        -9.41356455878573
      ],
      [
        "Ġword",
        -9.414237752682237
      ],
      [
        "Ġfeeling",
        -9.416292945396648
      ],
      [
        "bility",
        -9.416504258877575
      ],
      [
        "nic",
        -9.41669254507296
      ],
      [
        "Ġsix",
        -9.416950870747277
      ],
      [
        "Ġparents",
        -9.41772155218508
      ],
      [
        "Ġreduc",
        -9.419337581379851
      ],
      [
        "Ġinfluence",
        -9.420256801800768
      ],
      [
        "ber",
        -9.420393612581185
      ],
      [
        "Ġtips",
        -9.421084549069176
      ],
      [
        "Ġbrand",
        -9.422516981305304
      ],
      [
        "ple",
        -9.423545800644348
      ],
      [
        "Ġcycle",
        -9.42457121368646
      ],
      [
        "ĠMy",
        -9.425044973420194
      ],
      [
        "Ġgames",
        -9.42628748320326
      ],
      [
        "Ġmeet",
        -9.427415690467218
      ],
      [
        "Ġcount",
        -9.428466053076075
      ],
      [
        "Ġgroups",
        -9.430652857138384
      ],
      [
        "cle",
        -9.431563589549906
      ],
      [
        "port",
        -9.436351460797813
      ],
      [
        "ular",
        -9.43649681786746
      ],
      [
        "Ġbag",
        -9.437239089578505
      ],
      [
        "Ġfoods",
        -9.438008697759749
      ],
      [
        "ĠAre",
        -9.439276702336024
      ],
      [
        "uff",
        -9.440553043064616
      ],
      [
        "Ġdoctor",
        -9.441607418140215
      ],
      [
        "Ġinitial",
        -9.44162337763388
      ],
      [
        "Ġproduced",
        -9.441780855973024
      ],
      [
        "Ġmental",
        -9.442080160057174
      ],
      [
        "Ġwave",
        -9.4424994678837
      ],
      [
        "Ġcapacit",
        -9.442874603369358
      ],
      [
        "Ġorganic",
        -9.44313734865878
      ],
      [
        "Ġcrop",
        -9.444226175321711
      ],
      [
        "Ġdidn",
        -9.44500450905565
      ],
      [
        "Ġcontribute",
        -9.445945725007103
      ],
      [
        "Ġocean",
        -9.4472707963291
      ],
      [
        "Ġgovernment",
        -9.449321924424874
      ],
      [
        "Ġinstruction",
        -9.449548893915397
      ],
      [
        "Ġdrop",
        -9.450499066732988
      ],
      [
        "Ġmotor",
        -9.451407250278224
      ],
      [
        "Ġtrain",
        -9.45164683327184
      ],
      [
        "Ġwar",
        -9.451660505378564
      ],
      [
        "ĠUn",
        -9.452366242963388
      ],
      [
        "Ġmoment",
        -9.45320923478218
      ],
      [
        "Ġparticle",
        -9.454892472785655
      ],
      [
        "Ġmilk",
        -9.45586223090466
      ],
      [
        "Ġfit",
        -9.458517876348578
      ],
      [
        "ĠHa",
        -9.459204279277577
      ],
      [
        "Another",
        -9.4604675719457
      ],
      [
        "ĠNot",
        -9.46150075319235
      ],
      [
        "row",
        -9.462653037188232
      ],
      [
        "Ġscale",
        -9.46292010651618
      ],
      [
        "Ġweeks",
        -9.464420509206349
      ],
      [
        "Ġinstall",
        -9.464456615123083
      ],
      [
        "val",
        -9.464482740709176
      ],
      [
        "Ġcritical",
        -9.464824653627796
      ],
      [
        "Ġready",
        -9.46500721621624
      ],
      [
        "Ġarm",
        -9.4650202636998
      ],
      [
        "\\",
        -9.466721884604766
      ],
      [
        "AR",
        -9.467113365693486
      ],
      [
        "Ġroad",
        -9.467692047783007
      ],
      [
        "Ġfrequent",
        -9.4683533229799
      ],
      [
        "Ġhair",
        -9.469389189237312
      ],
      [
        "tract",
        -9.470295616905997
      ],
      [
        "ification",
        -9.470514808917256
      ],
      [
        "Ġprotection",
        -9.470556614320373
      ],
      [
        "Ġsuitable",
        -9.47090400159004
      ],
      [
        "Ġserious",
        -9.471271443420822
      ],
      [
        "ix",
        -9.472823312499848
      ],
      [
        "ĠYes",
        -9.472936182471637
      ],
      [
        "Ġlocate",
        -9.473657894432248
      ],
      [
        "Ġphone",
        -9.4744217717981
      ],
      [
        "Ġseparate",
        -9.474699620044056
      ],
      [
        "Ġserie",
        -9.474835608170444
      ],
      [
        "Ġgoal",
        -9.474888708974827
      ],
      [
        "Ġsuccess",
        -9.474943734381636
      ],
      [
        "Ġculture",
        -9.475168243508133
      ],
      [
        "Ġfe",
        -9.475268461329208
      ],
      [
        "Ġne",
        -9.476162136394354
      ],
      [
        "Ġoutput",
        -9.476595705572052
      ],
      [
        "Ġlate",
        -9.477509843126882
      ],
      [
        "Ġtesting",
        -9.477538378042022
      ],
      [
        "Ġsalt",
        -9.478620910235907
      ],
      [
        "Ġpage",
        -9.479447656682106
      ],
      [
        "Ġworth",
        -9.480160865836346
      ],
      [
        "ĠUS",
        -9.480377864315953
      ],
      [
        "Ġspend",
        -9.482187024331155
      ],
      [
        "len",
        -9.482809782829085
      ],
      [
        "Ġremember",
        -9.482987848773284
      ],
      [
        "Ġflowers",
        -9.482995760320073
      ],
      [
        "Ġresistance",
        -9.483280191380352
      ],
      [
        "Ġear",
        -9.483670752814518
      ],
      [
        "Ġca",
        -9.483763382991445
      ],
      [
        "Ġclaim",
        -9.484133476751026
      ],
      [
        "ĠâĢľ",
        -9.48450613957996
      ],
      [
        "Ġevidence",
        -9.48495526752149
      ],
      [
        "Ġpi",
        -9.485574193677497
      ],
      [
        "Ġefficiency",
        -9.487085504435584
      ],
      [
        "Ġdate",
        -9.4876039257946
      ],
      [
        "Ġcross",
        -9.488987167332422
      ],
      [
        "Ġalternative",
        -9.48906263225753
      ],
      [
        "Step",
        -9.490446304559452
      ],
      [
        "ĠMore",
        -9.491226412768626
      ],
      [
        "rac",
        -9.491362050696807
      ],
      [
        "Ġstrength",
        -9.491827431483554
      ],
      [
        "Ġhearing",
        -9.4919003079064
      ],
      [
        "Ġselect",
        -9.491909159722477
      ],
      [
        "Ġseek",
        -9.492264096245648
      ],
      [
        "Ġperform",
        -9.492388557216994
      ],
      [
        "Ġwild",
        -9.49261470610816
      ],
      [
        "Ġhope",
        -9.49358310376687
      ],
      [
        "Ġedge",
        -9.494641196515945
      ],
      [
        "Ġdistance",
        -9.494856846303612
      ],
      [
        "Ġcompletely",
        -9.495639630770656
      ],
      [
        "Ġrare",
        -9.497068757176605
      ],
      [
        "bra",
        -9.497260383129802
      ],
      [
        "ivity",
        -9.497334825983422
      ],
      [
        "Ġboard",
        -9.497517144027393
      ],
      [
        "pretty",
        -9.497864248384875
      ],
      [
        "Ġinput",
        -9.49996403833944
      ],
      [
        "net",
        -9.500370126637982
      ],
      [
        "Ġfiber",
        -9.500911124893388
      ],
      [
        "ĠMost",
        -9.502730450970066
      ],
      [
        "Ġlack",
        -9.503098184515949
      ],
      [
        "ĠOf",
        -9.503842177240408
      ],
      [
        "Ġworks",
        -9.504211534496006
      ],
      [
        "Ġideal",
        -9.50527177886572
      ],
      [
        "Ġequal",
        -9.505687475366557
      ],
      [
        "Ġsign",
        -9.50594617102093
      ],
      [
        "Ġliquid",
        -9.50685782023221
      ],
      [
        "pp",
        -9.507061308767945
      ],
      [
        "Ġprint",
        -9.507864227776295
      ],
      [
        "tory",
        -9.510374499303726
      ],
      [
        "Ġvoltage",
        -9.51053516808906
      ],
      [
        "Ġcarry",
        -9.51127094775967
      ],
      [
        "IN",
        -9.511528510189295
      ],
      [
        "rap",
        -9.512069446542084
      ],
      [
        "Ġgreater",
        -9.514935066305412
      ],
      [
        "Ġmemory",
        -9.514942640096418
      ],
      [
        "Ġrepair",
        -9.5150021233294
      ],
      [
        "Ġscientific",
        -9.51595774587696
      ],
      [
        "ches",
        -9.516097734034831
      ],
      [
        "ES",
        -9.516391306184945
      ],
      [
        "He",
        -9.516455898306823
      ],
      [
        "Ġcircuit",
        -9.516518749733692
      ],
      [
        "Ġroot",
        -9.516813314339249
      ],
      [
        "Ġaim",
        -9.51684968198442
      ],
      [
        "Ġmale",
        -9.517443409037408
      ],
      [
        "cent",
        -9.517712163502736
      ],
      [
        "Ġho",
        -9.517881689248057
      ],
      [
        "Ġencourage",
        -9.51900962984512
      ],
      [
        "ĠNe",
        -9.519535933572108
      ],
      [
        "Ġreplace",
        -9.51977040806412
      ],
      [
        "ĠSchool",
        -9.520149611224095
      ],
      [
        "Ġdeath",
        -9.520403552415615
      ],
      [
        "izing",
        -9.5204200549232
      ],
      [
        "These",
        -9.522047180286007
      ],
      [
        "Ġdemand",
        -9.52208473758703
      ],
      [
        "Ġsuper",
        -9.523359119228502
      ],
      [
        "Ġdoor",
        -9.52352777389531
      ],
      [
        "uch",
        -9.52451152516286
      ],
      [
        "Ġgrass",
        -9.5251382035298
      ],
      [
        "companie",
        -9.525151210285486
      ],
      [
        "led",
        -9.527733099916633
      ],
      [
        "Ġdocument",
        -9.528222829554704
      ],
      [
        "ĠWi",
        -9.528603545757178
      ],
      [
        "set",
        -9.529487633113114
      ],
      [
        "ĠDNA",
        -9.529966436131073
      ],
      [
        "Ġframe",
        -9.530292598978178
      ],
      [
        "Ġpair",
        -9.530397090596196
      ],
      [
        "rie",
        -9.531347481377962
      ],
      [
        "Ġmuscle",
        -9.531847144345186
      ],
      [
        "ari",
        -9.532059323331158
      ],
      [
        "Ġbo",
        -9.532225772774249
      ],
      [
        "Ġtaste",
        -9.53225858726683
      ],
      [
        "Ġfloor",
        -9.53341432906174
      ],
      [
        "AT",
        -9.533701738550135
      ],
      [
        "Ġmatch",
        -9.53484969942353
      ],
      [
        "Ġflight",
        -9.53568949293458
      ],
      [
        "Ġobtain",
        -9.539597347350997
      ],
      [
        "Ġpull",
        -9.539656021343117
      ],
      [
        "Ġnote",
        -9.54032303300859
      ],
      [
        "not",
        -9.540365323996536
      ],
      [
        "Ġcareful",
        -9.540968949855095
      ],
      [
        "Ġfeature",
        -9.543268134574369
      ],
      [
        "Ġla",
        -9.54613459303052
      ],
      [
        "Ġconstruction",
        -9.54645498625273
      ],
      [
        "Ġhandle",
        -9.546577676231156
      ],
      [
        "Ġforest",
        -9.5470358917573
      ],
      [
        "Ġcame",
        -9.547227048377415
      ],
      [
        "Ġjourney",
        -9.547952221019028
      ],
      [
        "Ġhabitat",
        -9.548994949048724
      ],
      [
        "Ġcleaning",
        -9.549145044521223
      ],
      [
        "like",
        -9.549171385048094
      ],
      [
        "Ġpromote",
        -9.549263918783003
      ],
      [
        "Ġprocesses",
        -9.549380792002406
      ],
      [
        "Using",
        -9.549816872582763
      ],
      [
        "Ġbaby",
        -9.550064927135528
      ],
      [
        "hal",
        -9.550313043669314
      ],
      [
        "ĠSp",
        -9.550501896377789
      ],
      [
        "Ġpattern",
        -9.551318228983243
      ],
      [
        "Ġmode",
        -9.551942705475136
      ],
      [
        "On",
        -9.552118359289812
      ],
      [
        "Ġcompar",
        -9.55224603930492
      ],
      [
        "Ġgoe",
        -9.552771536096008
      ],
      [
        "ĠAmerica",
        -9.554451354471276
      ],
      [
        "maintenance",
        -9.554553030305284
      ],
      [
        "Ġfinish",
        -9.55537469233921
      ],
      [
        "With",
        -9.555466359761969
      ],
      [
        "Ġpe",
        -9.556774321665456
      ],
      [
        "Each",
        -9.557092675102073
      ],
      [
        "Ġmembers",
        -9.55778091885297
      ],
      [
        "âĢĿ",
        -9.55848054959145
      ],
      [
        "ĠAr",
        -9.559200327665955
      ],
      [
        "ĠSouth",
        -9.559362680064751
      ],
      [
        "{",
        -9.559938277456574
      ],
      [
        "ĠJu",
        -9.56195012570766
      ],
      [
        "Ġfile",
        -9.562999351136495
      ],
      [
        "ami",
        -9.564532756327454
      ],
      [
        "Ġcouple",
        -9.564877002523914
      ],
      [
        "een",
        -9.565190188277626
      ],
      [
        "Ġbreath",
        -9.566037533519273
      ],
      [
        "Ġslight",
        -9.568877406533211
      ],
      [
        "water",
        -9.570610628154084
      ],
      [
        "Ġbuilt",
        -9.571585205694694
      ],
      [
        "com",
        -9.5725115831345
      ],
      [
        "Z",
        -9.572629708014286
      ],
      [
        "Ġtank",
        -9.573451953794006
      ],
      [
        "Ġmap",
        -9.573475715826358
      ],
      [
        "Ġwire",
        -9.574454244691502
      ],
      [
        "log",
        -9.57477907436222
      ],
      [
        "ĠPi",
        -9.576328491429878
      ],
      [
        "Ġoxygen",
        -9.57667906028945
      ],
      [
        "Ġimportance",
        -9.576804852008197
      ],
      [
        "ric",
        -9.5791777256404
      ],
      [
        "ĠWorld",
        -9.579720749777096
      ],
      [
        "therapy",
        -9.58122042744786
      ],
      [
        "Ġcountr",
        -9.581832035636904
      ],
      [
        "Ġrecord",
        -9.582089516496133
      ],
      [
        "Ġfigure",
        -9.582093200237749
      ],
      [
        "Ġensur",
        -9.582201184159953
      ],
      [
        "Ġpoints",
        -9.582995257991936
      ],
      [
        "No",
        -9.583679330779727
      ],
      [
        "tem",
        -9.584043748672205
      ],
      [
        "Ġsevere",
        -9.58436368146894
      ],
      [
        "Ġcombination",
        -9.584504888579628
      ],
      [
        "Ġ+",
        -9.585506504709617
      ],
      [
        "Ġsoft",
        -9.587827876030534
      ],
      [
        "Ġlives",
        -9.588535866228025
      ],
      [
        "Ġcutting",
        -9.588856052005465
      ],
      [
        "Ġrich",
        -9.589075227898777
      ],
      [
        "pen",
        -9.589449240825788
      ],
      [
        "Ġtrip",
        -9.590460194746532
      ],
      [
        "Ġaccept",
        -9.590845677629773
      ],
      [
        "osis",
        -9.591513380855105
      ],
      [
        "ĠTh",
        -9.591633963041147
      ],
      [
        "low",
        -9.59204631076252
      ],
      [
        "Ġtransform",
        -9.592117251092446
      ],
      [
        "Ġhost",
        -9.593453565993103
      ],
      [
        "Ġadapt",
        -9.59474901368858
      ],
      [
        "OR",
        -9.595348193029928
      ],
      [
        "Ġpublished",
        -9.595918916110543
      ],
      [
        "ĠCh",
        -9.59640715833372
      ],
      [
        "Ġestimate",
        -9.598502413904992
      ],
      [
        "Ġinstance",
        -9.598524622811135
      ],
      [
        "Ġpatterns",
        -9.599379330533624
      ],
      [
        "bin",
        -9.60006429994051
      ],
      [
        "ĠFi",
        -9.600207748881832
      ],
      [
        "Ġburn",
        -9.601243200697088
      ],
      [
        "Ġprogress",
        -9.601381570599097
      ],
      [
        "ĠResearch",
        -9.60183036189794
      ],
      [
        "ĠWhy",
        -9.602667214365834
      ],
      [
        "Ġswitch",
        -9.602924585539943
      ],
      [
        "Ġbottom",
        -9.60514150146624
      ],
      [
        "Ġapplied",
        -9.605204810862263
      ],
      [
        "atch",
        -9.6052060213436
      ],
      [
        "Ġspot",
        -9.60536101115559
      ],
      [
        "my",
        -9.60538829065115
      ],
      [
        "Ġdefine",
        -9.605718300185533
      ],
      [
        "By",
        -9.605771935105585
      ],
      [
        "ĠThen",
        -9.6065864097584
      ],
      [
        "ĠTe",
        -9.606588886693896
      ],
      [
        "Ġvary",
        -9.6077168581795
      ],
      [
        ".S",
        -9.60779904209322
      ],
      [
        "Ġcosts",
        -9.608351599702534
      ],
      [
        "Ġhit",
        -9.608394674856026
      ],
      [
        "Ġrefer",
        -9.608863256469862
      ],
      [
        "ĠPer",
        -9.609412279692036
      ],
      [
        "ĠGr",
        -9.609421698991202
      ],
      [
        "istic",
        -9.609491537186834
      ],
      [
        "rate",
        -9.609494676922017
      ],
      [
        "Â",
        -9.6106666729179
      ],
      [
        "ĠWho",
        -9.611305298277305
      ],
      [
        "Ġalgorithm",
        -9.611826731785987
      ],
      [
        "Ġbond",
        -9.611924671552996
      ],
      [
        "ĠSi",
        -9.612302558480655
      ],
      [
        "Be",
        -9.613599821330563
      ],
      [
        "Ġsoon",
        -9.613940639439676
      ],
      [
        "Ġthird",
        -9.614067015742975
      ],
      [
        "nes",
        -9.61413268975577
      ],
      [
        "Ġmouth",
        -9.614501050885934
      ],
      [
        "Ġsources",
        -9.616178863742174
      ],
      [
        "fish",
        -9.616424139349649
      ],
      [
        "Ġimages",
        -9.616473762278412
      ],
      [
        "Ġfluid",
        -9.617449677697932
      ],
      [
        "Ġstem",
        -9.617643596376048
      ],
      [
        "Ġforward",
        -9.618082679456414
      ],
      [
        "-up",
        -9.618261127345328
      ],
      [
        "Ġmanufactur",
        -9.618413397294695
      ],
      [
        "Ġcolour",
        -9.618563602617895
      ],
      [
        "Ġearth",
        -9.61893825926311
      ],
      [
        "Ġcolors",
        -9.619615562321275
      ],
      [
        "Ġfo",
        -9.62081083463567
      ],
      [
        "giving",
        -9.620845224480265
      ],
      [
        "Ġ#",
        -9.620940218251611
      ],
      [
        "ĠPre",
        -9.621552863519902
      ],
      [
        "Ġresponsibl",
        -9.621939176989615
      ],
      [
        "vent",
        -9.623681180626829
      ],
      [
        "Ġsmooth",
        -9.623968829498155
      ],
      [
        "Ġgeneration",
        -9.625265190926168
      ],
      [
        "Ġbi",
        -9.626409967793611
      ],
      [
        "Ġnothing",
        -9.627004774494662
      ],
      [
        "Ġupon",
        -9.628361573375932
      ],
      [
        "ants",
        -9.628675586588772
      ],
      [
        "Ġsort",
        -9.629563869097773
      ],
      [
        "Ġadjust",
        -9.630360151676555
      ],
      [
        "><",
        -9.63177983209298
      ],
      [
        "Ġdecrease",
        -9.632033000484496
      ],
      [
        "Ġaccurate",
        -9.632154942106018
      ],
      [
        "Ġdeliver",
        -9.633625702008093
      ],
      [
        "Ġteaching",
        -9.63375692397717
      ],
      [
        "Ġvision",
        -9.633882038247432
      ],
      [
        "ĠGa",
        -9.633887049100252
      ],
      [
        "Ġtemperatures",
        -9.633968313223397
      ],
      [
        "Ġsigns",
        -9.634345872878876
      ],
      [
        "Ġyellow",
        -9.634439466190036
      ],
      [
        "Ġpowerful",
        -9.63452742250684
      ],
      [
        "Some",
        -9.634742220857834
      ],
      [
        "ĠState",
        -9.634821405276696
      ],
      [
        "ĠAdditional",
        -9.634853999362925
      ],
      [
        "Ġten",
        -9.635328931613692
      ],
      [
        "ST",
        -9.635922166041734
      ],
      [
        "Ġchallenges",
        -9.637300872069588
      ],
      [
        "board",
        -9.638265153590156
      ],
      [
        "Ġpath",
        -9.638918351797903
      ],
      [
        "Ġfoot",
        -9.63916810008913
      ],
      [
        "part",
        -9.639656849610684
      ],
      [
        "ĠMay",
        -9.640272828337348
      ],
      [
        "Ġmeaning",
        -9.640287409401116
      ],
      [
        "Ġsuccessful",
        -9.640426412594527
      ],
      [
        "Ġdu",
        -9.640486279168114
      ],
      [
        "Ġrise",
        -9.64086289292952
      ],
      [
        "Di",
        -9.641132961302656
      ],
      [
        "back",
        -9.641212704973958
      ],
      [
        "press",
        -9.64132026433266
      ],
      [
        "Ġlu",
        -9.641579112360866
      ],
      [
        "Ġstand",
        -9.643168371086402
      ],
      [
        "Ġconsist",
        -9.643319363547237
      ],
      [
        "Ġreflect",
        -9.644391639130822
      ],
      [
        "Ġleader",
        -9.645390546334834
      ],
      [
        "Ġmedication",
        -9.647098266319109
      ],
      [
        "Ġattach",
        -9.647181608410444
      ],
      [
        "Ġriver",
        -9.647410055362643
      ],
      [
        "Ġbasi",
        -9.647570320517444
      ],
      [
        "Ġlesson",
        -9.647700215555355
      ],
      [
        "har",
        -9.647875450863207
      ],
      [
        "Ġphotograph",
        -9.648412561812904
      ],
      [
        "rian",
        -9.648589041890478
      ],
      [
        "Ġinteraction",
        -9.64870594752108
      ],
      [
        "Ġlines",
        -9.648832825680184
      ],
      [
        "ĠMake",
        -9.648875419935257
      ],
      [
        "Ġoperation",
        -9.649652711600233
      ],
      [
        "Co",
        -9.650394062590896
      ],
      [
        "Ġrecover",
        -9.65058133376413
      ],
      [
        "Ġconvert",
        -9.651769293309435
      ],
      [
        "older",
        -9.652247214900406
      ],
      [
        "ĠEven",
        -9.653797634852598
      ],
      [
        "ĠCO",
        -9.65438790448554
      ],
      [
        "Ġbeautiful",
        -9.655237313134323
      ],
      [
        "Ġoutdoor",
        -9.656715794606026
      ],
      [
        "lost",
        -9.657033177468174
      ],
      [
        "mat",
        -9.657410329897886
      ],
      [
        "Ġpaint",
        -9.661280951516687
      ],
      [
        "ĠMar",
        -9.662607077909616
      ],
      [
        "Ġintroduce",
        -9.663379322258503
      ],
      [
        "Ġsell",
        -9.663550436765426
      ],
      [
        "pir",
        -9.664885792421764
      ],
      [
        "Ġinvolves",
        -9.665067186500936
      ],
      [
        "ĠWar",
        -9.66561738278166
      ],
      [
        "Ġpicture",
        -9.66613658194262
      ],
      [
        "Ġrapid",
        -9.666983856149235
      ],
      [
        "Ġfriends",
        -9.668304057238046
      ],
      [
        "gar",
        -9.668621478087497
      ],
      [
        "Ġenable",
        -9.669083296401542
      ],
      [
        "Ġsolid",
        -9.669244519623444
      ],
      [
        "Ġthread",
        -9.669378768089649
      ],
      [
        "Ġstick",
        -9.670132293233886
      ],
      [
        "Ġpush",
        -9.6705358836629
      ],
      [
        "ĠOur",
        -9.67104673219695
      ],
      [
        "Ġbrown",
        -9.674097942398
      ],
      [
        "Ġpurchase",
        -9.674952503626672
      ],
      [
        "Ġsend",
        -9.675597909266305
      ],
      [
        "aking",
        -9.675620105114769
      ],
      [
        "Ġplatform",
        -9.676477049139091
      ],
      [
        "Ġvolume",
        -9.676477730817412
      ],
      [
        "Ġprograms",
        -9.677144958125002
      ],
      [
        "Ġpoor",
        -9.67890681454948
      ],
      [
        ".com",
        -9.679505013232292
      ],
      [
        "ĠBu",
        -9.68052017098046
      ],
      [
        "IT",
        -9.682088794225034
      ],
      [
        "Ġimp",
        -9.68293708031425
      ],
      [
        "Ġgr",
        -9.683001789662642
      ],
      [
        "Ġthinking",
        -9.683042770973262
      ],
      [
        "Ġimmune",
        -9.683372414719145
      ],
      [
        "tter",
        -9.683734477548697
      ],
      [
        "-term",
        -9.683871477116728
      ],
      [
        "Ġwriting",
        -9.684055771647714
      ],
      [
        "came",
        -9.684799273188869
      ],
      [
        "ways",
        -9.684883768778896
      ],
      [
        "Ġfr",
        -9.68521102392952
      ],
      [
        "Ġbright",
        -9.685404183596988
      ],
      [
        "Ġversion",
        -9.685980443517703
      ],
      [
        "therefore",
        -9.686436785107317
      ],
      [
        "Ġnative",
        -9.686479673278065
      ],
      [
        "Ġplanet",
        -9.68710593591477
      ],
      [
        "Ġhands",
        -9.687404995605236
      ],
      [
        "uck",
        -9.687790767370837
      ],
      [
        "Ġwrong",
        -9.689682615471584
      ],
      [
        "Ġquick",
        -9.690099565858349
      ],
      [
        "ĠAir",
        -9.690390225875854
      ],
      [
        "Ġfilm",
        -9.6909513471353
      ],
      [
        "Ġangle",
        -9.692661414406052
      ],
      [
        "Ġfabric",
        -9.69452817095866
      ],
      [
        "Ġfi",
        -9.694923813417692
      ],
      [
        "Ġflower",
        -9.695216161774532
      ],
      [
        "Ġideas",
        -9.695311434850789
      ],
      [
        "Ġroll",
        -9.695383065019564
      ],
      [
        "Ġvia",
        -9.695639912422765
      ],
      [
        "Ġsh",
        -9.696486980536989
      ],
      [
        "Ġsecurity",
        -9.696563271524642
      ],
      [
        "Ġiron",
        -9.69704105897706
      ],
      [
        "Ġfund",
        -9.697082185135883
      ],
      [
        "ĠGu",
        -9.698108807587872
      ],
      [
        "Ġfaster",
        -9.698122486282374
      ],
      [
        "They",
        -9.698281370932676
      ],
      [
        "Ġmanufacturer",
        -9.69833322691714
      ],
      [
        "Ġseed",
        -9.698575860358442
      ],
      [
        "Ġsustainabl",
        -9.698595769316931
      ],
      [
        "Ġdead",
        -9.700535810206796
      ],
      [
        "Ġanyone",
        -9.70076780534409
      ],
      [
        "Ġcity",
        -9.70143750571054
      ],
      [
        "Ġskill",
        -9.70372084303283
      ],
      [
        "Ġadvanced",
        -9.70375680141608
      ],
      [
        "Ġinteresting",
        -9.703771858858127
      ],
      [
        "ĠCalifornia",
        -9.704347546413857
      ],
      [
        "Ġwrite",
        -9.705279941398146
      ],
      [
        "lid",
        -9.70735261378586
      ],
      [
        "oma",
        -9.70735771149204
      ],
      [
        "And",
        -9.707848632072311
      ],
      [
        "Ã",
        -9.707905152887228
      ],
      [
        "Ġwin",
        -9.708702607376306
      ],
      [
        "Ġfight",
        -9.709325955192146
      ],
      [
        "Ġcoast",
        -9.7094571282704
      ],
      [
        "Ġpin",
        -9.70975484768134
      ],
      [
        "ĠMon",
        -9.71011529927188
      ],
      [
        "Ġinform",
        -9.710253669367788
      ],
      [
        "lies",
        -9.710356087763492
      ],
      [
        "Ġexcellent",
        -9.710440503475589
      ],
      [
        "Ġdegrees",
        -9.710812917120077
      ],
      [
        "Ġpieces",
        -9.711913496869307
      ],
      [
        "Ġnutrients",
        -9.71275563388998
      ],
      [
        "Ġprefer",
        -9.712846239264696
      ],
      [
        "Ġdriv",
        -9.71418092707116
      ],
      [
        "ju",
        -9.715016988592634
      ],
      [
        "ark",
        -9.71547400691831
      ],
      [
        "Ġteacher",
        -9.717022248724687
      ],
      [
        "ĠLet",
        -9.717093882723766
      ],
      [
        "Ġrain",
        -9.717834145965664
      ],
      [
        "Ġexpensive",
        -9.71787065947613
      ],
      [
        "Ġheavy",
        -9.717871329412018
      ],
      [
        "Ġexpand",
        -9.717872561627868
      ],
      [
        "Ġround",
        -9.71799917256313
      ],
      [
        "Ġstatement",
        -9.718951965167651
      ],
      [
        "car",
        -9.71963417922219
      ],
      [
        "Ġrule",
        -9.72002339455227
      ],
      [
        "Ġcomment",
        -9.720080151779772
      ],
      [
        "oli",
        -9.720435306318503
      ],
      [
        "Ġmessage",
        -9.72051754557652
      ],
      [
        "Ġincluded",
        -9.721557764081188
      ],
      [
        "Ġchicken",
        -9.721614051142971
      ],
      [
        "Ġspeak",
        -9.721944532224189
      ],
      [
        "Ġteachers",
        -9.7232198908886
      ],
      [
        "Ġmis",
        -9.723671981162685
      ],
      [
        "Ġdrawing",
        -9.724477256488186
      ],
      [
        "Ġheight",
        -9.725297541972449
      ],
      [
        "Ġcl",
        -9.725371919271296
      ],
      [
        "â",
        -9.726572509933945
      ],
      [
        "app",
        -9.727732516613717
      ],
      [
        "Ġexposure",
        -9.72912080349873
      ],
      [
        "Ġrespond",
        -9.72912720591732
      ],
      [
        "Ġhappens",
        -9.729393110210708
      ],
      [
        "Ġprojects",
        -9.729941479755135
      ],
      [
        "Pa",
        -9.730251109986211
      ],
      [
        "book",
        -9.73041456159582
      ],
      [
        "iness",
        -9.731539822860594
      ],
      [
        "Ġnoise",
        -9.731735063146228
      ],
      [
        "pol",
        -9.732116448967757
      ],
      [
        "ĠCenter",
        -9.73292104810632
      ],
      [
        "LE",
        -9.732953021707155
      ],
      [
        "-b",
        -9.73455040073463
      ],
      [
        "ĠHigh",
        -9.73488453875073
      ],
      [
        "#",
        -9.735280477348624
      ],
      [
        "Ġcontainer",
        -9.735344827794393
      ],
      [
        "Ġvaccine",
        -9.735425974229242
      ],
      [
        "Ġclick",
        -9.735517418499262
      ],
      [
        "Ġdriver",
        -9.735956387693582
      ],
      [
        "ĠGo",
        -9.736021419703343
      ],
      [
        "Ġtrans",
        -9.736277808999308
      ],
      [
        "Ġpan",
        -9.737485976843864
      ],
      [
        "Creat",
        -9.73816515426486
      ],
      [
        "Ġmid",
        -9.738601022572157
      ],
      [
        "ĠCr",
        -9.74000505260331
      ],
      [
        "body",
        -9.740199398710288
      ],
      [
        "Ġsecure",
        -9.740503896026205
      ],
      [
        "Ġlo",
        -9.741979748404544
      ],
      [
        "Ġcomfortable",
        -9.742286942266574
      ],
      [
        "Ġrespect",
        -9.742343726571994
      ],
      [
        "zz",
        -9.742652809023646
      ],
      [
        "Ġpractices",
        -9.743658493512566
      ],
      [
        "Ġstar",
        -9.743865591255094
      ],
      [
        "Ġsolutions",
        -9.744211067713415
      ],
      [
        "Ġphase",
        -9.744325174022103
      ],
      [
        "Ġjoint",
        -9.744390499961089
      ],
      [
        "Ġcoming",
        -9.744904505116825
      ],
      [
        "ĠJo",
        -9.745043625293178
      ],
      [
        "Ġcompound",
        -9.745600843388196
      ],
      [
        "Ġpanel",
        -9.74610581455913
      ],
      [
        "ĠDis",
        -9.746454474251228
      ],
      [
        "ound",
        -9.746494989069356
      ],
      [
        "Ġmonitor",
        -9.74708980120381
      ],
      [
        "ĠWater",
        -9.747380461647095
      ],
      [
        "Ex",
        -9.748035676912618
      ],
      [
        "ham",
        -9.74898037022056
      ],
      [
        "haps",
        -9.749001418569302
      ],
      [
        "q",
        -9.75044365697442
      ],
      [
        "ĠSe",
        -9.750538331741126
      ],
      [
        "Ġonto",
        -9.75100782494269
      ],
      [
        "ĠTheir",
        -9.751082537531286
      ],
      [
        "Ġtheory",
        -9.75137323723452
      ],
      [
        "Ġweb",
        -9.751645001553278
      ],
      [
        "ĠNow",
        -9.751761204861925
      ],
      [
        "Ġsupplement",
        -9.753294975573075
      ],
      [
        "Ġmiddle",
        -9.753319249053874
      ],
      [
        "Ġpresence",
        -9.753322951065211
      ],
      [
        "bit",
        -9.754299188736002
      ],
      [
        "comp",
        -9.75431916425791
      ],
      [
        "Ġsubstance",
        -9.754584050318272
      ],
      [
        "ker",
        -9.75593264817244
      ],
      [
        "Now",
        -9.756295458018108
      ],
      [
        "are",
        -9.757791814679347
      ],
      [
        "Ġlabel",
        -9.75838194857543
      ],
      [
        "ock",
        -9.75934436433188
      ],
      [
        "Ġblog",
        -9.760332407300368
      ],
      [
        "Ġstone",
        -9.76069854877135
      ],
      [
        "Ġcontext",
        -9.761117802121946
      ],
      [
        "Ġraise",
        -9.76159279797292
      ],
      [
        "ĠOther",
        -9.761746829566496
      ],
      [
        "ĠUK",
        -9.763168623868491
      ],
      [
        "nce",
        -9.763345585159133
      ],
      [
        "Ġsequence",
        -9.763651057111971
      ],
      [
        "Ġfair",
        -9.763768672367693
      ],
      [
        "ient",
        -9.76475814736748
      ],
      [
        "Ġattempt",
        -9.764953169806082
      ],
      [
        "AM",
        -9.765746919649738
      ],
      [
        "Ġformula",
        -9.76600691635324
      ],
      [
        "Ġexpress",
        -9.766096454427563
      ],
      [
        "Ġmiss",
        -9.766134817811825
      ],
      [
        "Ġconsistent",
        -9.766628567182472
      ],
      [
        "ĠBecause",
        -9.768326925979109
      ],
      [
        "Ġsaw",
        -9.768405706672889
      ],
      [
        "CE",
        -9.76861598896202
      ],
      [
        "Ġeconomic",
        -9.76862421915251
      ],
      [
        "Ġimplement",
        -9.769175546307345
      ],
      [
        "went",
        -9.769471551973943
      ],
      [
        "ja",
        -9.770037709707388
      ],
      [
        "ĠEnglish",
        -9.770121438246488
      ],
      [
        "Ġbeginning",
        -9.770269237401116
      ],
      [
        "Ġtransport",
        -9.770566562985248
      ],
      [
        "Ġmotion",
        -9.770813696175749
      ],
      [
        "Ġemploy",
        -9.771403611569744
      ],
      [
        "Ġhuge",
        -9.771511055758452
      ],
      [
        "Ġfix",
        -9.772005059778651
      ],
      [
        "Ġdrain",
        -9.772718436951353
      ],
      [
        "Ġvaluable",
        -9.772772074711057
      ],
      [
        "lthough",
        -9.774374373322644
      ],
      [
        "Ġstates",
        -9.774413440991207
      ],
      [
        "Ġthus",
        -9.77455472066464
      ],
      [
        "Ġrock",
        -9.774968833021637
      ],
      [
        "cid",
        -9.776357402074217
      ],
      [
        "ung",
        -9.776625749611418
      ],
      [
        "ome",
        -9.777731644210494
      ],
      [
        "Ġchallenge",
        -9.778052176783138
      ],
      [
        "Ġpound",
        -9.779462269450937
      ],
      [
        "Ġchain",
        -9.78079227304724
      ],
      [
        "ĠNOT",
        -9.780882858114309
      ],
      [
        "Ġinches",
        -9.781822591952892
      ],
      [
        "Ġlose",
        -9.782557105208022
      ],
      [
        "ĠAls",
        -9.783331704589182
      ],
      [
        "eyond",
        -9.784703854941688
      ],
      [
        "stan",
        -9.785544151166905
      ],
      [
        "Ġtube",
        -9.787344769375752
      ],
      [
        "Ġmaximu",
        -9.787354299679333
      ],
      [
        "Ġdepth",
        -9.787360025802938
      ],
      [
        "Ġcur",
        -9.787993328881626
      ],
      [
        "Ġmechanism",
        -9.788685333302212
      ],
      [
        "Ġmother",
        -9.788780398110438
      ],
      [
        "Ġemission",
        -9.78889938080511
      ],
      [
        "Ġcha",
        -9.789558139189086
      ],
      [
        "Ġthousand",
        -9.790020487962323
      ],
      [
        "Ġplate",
        -9.791529019935703
      ],
      [
        "Ġ--",
        -9.792057128382623
      ],
      [
        "ĠDon",
        -9.79248580661448
      ],
      [
        "Ġpack",
        -9.79263249193662
      ],
      [
        "Ġevolution",
        -9.7926421840982
      ],
      [
        "Ġpump",
        -9.792702058178474
      ],
      [
        "Ġteach",
        -9.793854156868193
      ],
      [
        "ĠSystem",
        -9.795379185502451
      ],
      [
        "Ġcommuniti",
        -9.79537918650876
      ],
      [
        "Ġcentral",
        -9.7953836083813
      ],
      [
        "Ġmoisture",
        -9.795449347643627
      ],
      [
        "Ġsurrounding",
        -9.795653970059266
      ],
      [
        "cop",
        -9.795710916712158
      ],
      [
        "Ġinternal",
        -9.796763257199157
      ],
      [
        "Ġgrain",
        -9.79686547526246
      ],
      [
        "Ġpipe",
        -9.79716066284252
      ],
      [
        "Ġexpect",
        -9.798499182853154
      ],
      [
        "Ġnational",
        -9.800269814775056
      ],
      [
        "Ġfully",
        -9.800940786505786
      ],
      [
        "Ġcharacter",
        -9.801161062220729
      ],
      [
        "but",
        -9.801339096980538
      ],
      [
        "Ġfail",
        -9.802119107194269
      ],
      [
        "ĠRead",
        -9.802417908882644
      ],
      [
        "cept",
        -9.802519857654987
      ],
      [
        "Ġrecipe",
        -9.803470521757376
      ],
      [
        "Ġplease",
        -9.803480929374135
      ],
      [
        "wide",
        -9.803932899037337
      ],
      [
        "van",
        -9.804123777430142
      ],
      [
        "Ġexpected",
        -9.80473749518086
      ],
      [
        "meter",
        -9.805263806337212
      ],
      [
        "Ġshift",
        -9.808905162505376
      ],
      [
        "Ġsustain",
        -9.809799137357498
      ],
      [
        "wing",
        -9.809987821783698
      ],
      [
        "Ġbackground",
        -9.81047960245635
      ],
      [
        "ĠJust",
        -9.810782266419718
      ],
      [
        "tors",
        -9.811327606111409
      ],
      [
        "Ġreveal",
        -9.81164390805785
      ],
      [
        "Ġconcentration",
        -9.812018456188683
      ],
      [
        "Ġdivers",
        -9.812071162720049
      ],
      [
        "Ġsweet",
        -9.813003050683308
      ],
      [
        "Ġreference",
        -9.813199924251888
      ],
      [
        "OS",
        -9.814049062832648
      ],
      [
        "Ġstr",
        -9.814291569614085
      ],
      [
        "Ġcategor",
        -9.814363514734175
      ],
      [
        "Ġvital",
        -9.81441252331378
      ],
      [
        "tail",
        -9.814835669742068
      ],
      [
        "Ġship",
        -9.814922584953507
      ],
      [
        "Ġsquare",
        -9.815743070596032
      ],
      [
        "col",
        -9.817680404042974
      ],
      [
        "ĠBar",
        -9.817765525873304
      ],
      [
        "Ġthin",
        -9.818410511406524
      ],
      [
        "lam",
        -9.820193171233516
      ],
      [
        "til",
        -9.821214343736692
      ],
      [
        "Ġelectronic",
        -9.821670565469844
      ],
      [
        "ĠâĢ¦",
        -9.822178839132944
      ],
      [
        "All",
        -9.82234397837476
      ],
      [
        "Ġwritten",
        -9.82260984597286
      ],
      [
        "nel",
        -9.8232598120397
      ],
      [
        "AS",
        -9.823357715506592
      ],
      [
        "Ġcollect",
        -9.823533884405434
      ],
      [
        "Ġsymbol",
        -9.823995059205044
      ],
      [
        "ĠFirst",
        -9.824071228587457
      ],
      [
        "Ġmedium",
        -9.824196550064178
      ],
      [
        "Ġprocessing",
        -9.824257783001212
      ],
      [
        "Ġstrategies",
        -9.824996668748426
      ],
      [
        "Ġtransfer",
        -9.82537112393316
      ],
      [
        "ĠComp",
        -9.8264924522464
      ],
      [
        "IC",
        -9.828026723753856
      ],
      [
        "Ġabsorb",
        -9.828146195542004
      ],
      [
        "Ġchanging",
        -9.828149684730516
      ],
      [
        "Ġplanning",
        -9.828318984576786
      ],
      [
        "view",
        -9.828984314815573
      ],
      [
        "right",
        -9.82899945125506
      ],
      [
        "Ġaid",
        -9.829002007645968
      ],
      [
        "Ġdiabetes",
        -9.829649159362036
      ],
      [
        "ĠCl",
        -9.830161818550735
      ],
      [
        "read",
        -9.830398723076238
      ],
      [
        "ED",
        -9.830668289589877
      ],
      [
        "aging",
        -9.830824960051205
      ],
      [
        "ong",
        -9.83205012643285
      ],
      [
        "Ġerror",
        -9.832329126062625
      ],
      [
        "happy",
        -9.832335443839431
      ],
      [
        "Ġpredict",
        -9.83289974581828
      ],
      [
        "Ġfinancial",
        -9.833804505773298
      ],
      [
        "ought",
        -9.8338409748091
      ],
      [
        "Ġimprov",
        -9.835011706439028
      ],
      [
        "vol",
        -9.835495177741858
      ],
      [
        "Ġtechnologies",
        -9.83654730883325
      ],
      [
        "Con",
        -9.83661837880797
      ],
      [
        "Ġfan",
        -9.837779565425096
      ],
      [
        "rip",
        -9.840637009749756
      ],
      [
        "eel",
        -9.84119215583965
      ],
      [
        "Mo",
        -9.841445925858135
      ],
      [
        "ley",
        -9.841452105205065
      ],
      [
        "Ġha",
        -9.841578686109004
      ],
      [
        "Ġbecomes",
        -9.841863891288686
      ],
      [
        "ik",
        -9.842250366968528
      ],
      [
        "bu",
        -9.842422855599162
      ],
      [
        "rain",
        -9.842878203142476
      ],
      [
        "top",
        -9.84352535037395
      ],
      [
        "ĠInstitute",
        -9.84353580131681
      ],
      [
        "Ġdouble",
        -9.8435376247572
      ],
      [
        "held",
        -9.843583393689292
      ],
      [
        "Ġbrush",
        -9.843826431099954
      ],
      [
        "Ġfrequency",
        -9.844941544789023
      ],
      [
        "Ġstraight",
        -9.844944997023578
      ],
      [
        "Ġgrade",
        -9.845128700335518
      ],
      [
        "Ġcup",
        -9.845479783587582
      ],
      [
        "Ġlandscape",
        -9.845597386669542
      ],
      [
        "onic",
        -9.84622665532132
      ],
      [
        "eath",
        -9.846287673015985
      ],
      [
        "Ġcapture",
        -9.846292291475574
      ],
      [
        "Ġassess",
        -9.847188458906462
      ],
      [
        "Ġdiscovered",
        -9.848124901742365
      ],
      [
        "Ġconnected",
        -9.84830971832635
      ],
      [
        "Ġbak",
        -9.849583093080248
      ],
      [
        "ID",
        -9.849925746416982
      ],
      [
        "ĠCor",
        -9.850706931661012
      ],
      [
        "âĢĻt",
        -9.851316002298809
      ],
      [
        "Ġband",
        -9.85332654262077
      ],
      [
        "Ġconsumption",
        -9.853473863262115
      ],
      [
        "riv",
        -9.85352899748788
      ],
      [
        "mark",
        -9.85395378225476
      ],
      [
        "Here",
        -9.855009961884017
      ],
      [
        "Ġbutton",
        -9.855223487921403
      ],
      [
        "Ġtexture",
        -9.85549018571539
      ],
      [
        "Ġpark",
        -9.856690370266096
      ],
      [
        "late",
        -9.857415629774112
      ],
      [
        "Ġmember",
        -9.857634591592111
      ],
      [
        "cycl",
        -9.857928346100058
      ],
      [
        "Ġoutcome",
        -9.8581905126161
      ],
      [
        "Ġpractical",
        -9.858206989055631
      ],
      [
        "Ġflat",
        -9.85950903136204
      ],
      [
        "Ġpool",
        -9.859933759779782
      ],
      [
        "electricity",
        -9.860136605318957
      ],
      [
        "Man",
        -9.860380590691095
      ],
      [
        "Ġpest",
        -9.862440301303796
      ],
      [
        "IS",
        -9.862767377467234
      ],
      [
        "Ġprinciple",
        -9.863460589308856
      ],
      [
        "Ġmedicine",
        -9.864899542193736
      ],
      [
        "Ġresulting",
        -9.864929295977136
      ],
      [
        "Ġassessment",
        -9.865567308983286
      ],
      [
        "verse",
        -9.8663147990686
      ],
      [
        "Ġcollection",
        -9.866553019663195
      ],
      [
        "Ġmark",
        -9.866654066531783
      ],
      [
        "Ġthick",
        -9.867547206168926
      ],
      [
        "Ġstrain",
        -9.867716477866528
      ],
      [
        "Ġemail",
        -9.867785661192183
      ],
      [
        "Ġletter",
        -9.868072392991694
      ],
      [
        "Ġengage",
        -9.868572445029246
      ],
      [
        "place",
        -9.868846320220488
      ],
      [
        "ool",
        -9.86987211222234
      ],
      [
        "Ġjoin",
        -9.870653617068804
      ],
      [
        "Ġgoals",
        -9.870817079075104
      ],
      [
        "Ġattract",
        -9.871243759094126
      ],
      [
        "Ġled",
        -9.87317433108819
      ],
      [
        "ĠTi",
        -9.873330761700938
      ],
      [
        "...ĊĊ",
        -9.87347822465348
      ],
      [
        "ĠPlant",
        -9.87426692985111
      ],
      [
        "arch",
        -9.87494460630536
      ],
      [
        "ĠDoes",
        -9.876268578029457
      ],
      [
        "ĠNa",
        -9.87675176567124
      ],
      [
        "Spec",
        -9.876954626786905
      ],
      [
        "lip",
        -9.877621229263031
      ],
      [
        "Hi",
        -9.87763486147373
      ],
      [
        "coming",
        -9.87845464219517
      ],
      [
        "ĠOnc",
        -9.879138220334852
      ],
      [
        "AL",
        -9.879363199840896
      ],
      [
        "Ġreferr",
        -9.88013939100506
      ],
      [
        "cho",
        -9.880588257074496
      ],
      [
        "Ġmen",
        -9.88086589269033
      ],
      [
        "Ġstuff",
        -9.880895908930318
      ],
      [
        "ĠSea",
        -9.881183434170197
      ],
      [
        "eek",
        -9.882124357445267
      ],
      [
        "Ġshot",
        -9.882190795623949
      ],
      [
        "Ġvariable",
        -9.882329182523891
      ],
      [
        "ĠRiver",
        -9.882347625001916
      ],
      [
        "ON",
        -9.88378734291072
      ],
      [
        "Ġfavorite",
        -9.885267415648745
      ],
      [
        "Ġdecade",
        -9.885322113377446
      ],
      [
        "Ġsuit",
        -9.885838979573336
      ],
      [
        "Ġoffice",
        -9.886247694102464
      ],
      [
        "However",
        -9.8863077390368
      ],
      [
        "Ġroutine",
        -9.886734522358768
      ],
      [
        "ware",
        -9.88715689429118
      ],
      [
        "spect",
        -9.887295338832953
      ],
      [
        "ncy",
        -9.88959724772312
      ],
      [
        "ically",
        -9.890347350631703
      ],
      [
        "Ġowners",
        -9.890390570165287
      ],
      [
        "Ġorganism",
        -9.891160951945896
      ],
      [
        "Ġsheet",
        -9.891729084017095
      ],
      [
        "ĠGe",
        -9.891754464276584
      ],
      [
        "ĠAlthough",
        -9.89186115297808
      ],
      [
        "hop",
        -9.891875925242552
      ],
      [
        "Ġplaced",
        -9.892841748523749
      ],
      [
        "Ġgear",
        -9.892922596493488
      ],
      [
        "Ġbirth",
        -9.89389703732305
      ],
      [
        "oil",
        -9.893978095587258
      ],
      [
        "point",
        -9.89422920866138
      ],
      [
        "Ġfill",
        -9.89533747492627
      ],
      [
        "Ġbodie",
        -9.895892477410534
      ],
      [
        "mber",
        -9.89689189751708
      ],
      [
        "ÂŃ",
        -9.897097315595978
      ],
      [
        "Ġannual",
        -9.897325397962447
      ],
      [
        "vin",
        -9.897968009148538
      ],
      [
        "-like",
        -9.898037731632709
      ],
      [
        "Ġcovered",
        -9.898555177256842
      ],
      [
        "Ġecosystem",
        -9.89858618174308
      ],
      [
        "ĠDur",
        -9.900041857671113
      ],
      [
        "Ġcommercial",
        -9.900067891568252
      ],
      [
        "Ġinternational",
        -9.900067945969656
      ],
      [
        "Ġadopt",
        -9.90006932577734
      ],
      [
        "omic",
        -9.900688528343434
      ],
      [
        "inter",
        -9.900958342225785
      ],
      [
        "ĠAccording",
        -9.901631494591092
      ],
      [
        "Ġfailure",
        -9.901729496873052
      ],
      [
        "Ġpr",
        -9.901822868313282
      ],
      [
        "phy",
        -9.902241502895844
      ],
      [
        "Ġcore",
        -9.902675703548004
      ],
      [
        "Ġnest",
        -9.902774467334549
      ],
      [
        "Ġegg",
        -9.90287493205792
      ],
      [
        "Ġsecret",
        -9.903060188633283
      ],
      [
        "pril",
        -9.904487632708411
      ],
      [
        "lie",
        -9.905280010120556
      ],
      [
        "Ġreported",
        -9.905289821513076
      ],
      [
        "Ġcomfort",
        -9.90568669462592
      ],
      [
        "ĠArt",
        -9.905899915460724
      ],
      [
        "NE",
        -9.9061712151938
      ],
      [
        "del",
        -9.907668989868396
      ],
      [
        "Ġcalculate",
        -9.90830526518782
      ],
      [
        "Ġdynamic",
        -9.90932824519501
      ],
      [
        "Ġneck",
        -9.910780428187092
      ],
      [
        "ĠIndia",
        -9.91105932793294
      ],
      [
        "gle",
        -9.911669162108538
      ],
      [
        "Ġbatter",
        -9.911870139241918
      ],
      [
        "ĠDay",
        -9.911879154076749
      ],
      [
        "Ġauto",
        -9.912005826794704
      ],
      [
        "Ġupper",
        -9.912122001956856
      ],
      [
        "After",
        -9.912324669429792
      ],
      [
        "Ġmaster",
        -9.91245532021016
      ],
      [
        "vel",
        -9.913691375021472
      ],
      [
        "Ġbike",
        -9.913816028686428
      ],
      [
        "Ġfoundation",
        -9.914891536003855
      ],
      [
        "Ġsnow",
        -9.915135018761866
      ],
      [
        "Ġdangerous",
        -9.915275815785012
      ],
      [
        "old",
        -9.915498603947473
      ],
      [
        "That",
        -9.916196700513648
      ],
      [
        "ified",
        -9.91710959982373
      ],
      [
        "Ġaren",
        -9.917759803080193
      ],
      [
        "Ġobserve",
        -9.919009974219463
      ],
      [
        "Ġhospital",
        -9.919646826586156
      ],
      [
        "EN",
        -9.921370188349004
      ],
      [
        "Ġcard",
        -9.921477021358998
      ],
      [
        "Ġselection",
        -9.92170562003223
      ],
      [
        "ĠWork",
        -9.921896719790274
      ],
      [
        "Ġdegree",
        -9.922232933222537
      ],
      [
        "Ġbear",
        -9.922659066145345
      ],
      [
        "Ġreality",
        -9.922734733797242
      ],
      [
        "Ġplane",
        -9.92284688759592
      ],
      [
        "ĠVi",
        -9.922862908192062
      ],
      [
        "ĠAfrica",
        -9.923233727403575
      ],
      [
        "Ġfashion",
        -9.924220160996498
      ],
      [
        "Ġprogramm",
        -9.925122782397738
      ],
      [
        "Ġexpose",
        -9.925937296274356
      ],
      [
        "Ġalone",
        -9.926535173574669
      ],
      [
        "Ġdie",
        -9.927584396277258
      ],
      [
        "Ġexpression",
        -9.927623694927943
      ],
      [
        "Ġcontract",
        -9.927645298254408
      ],
      [
        "Ġstaff",
        -9.928814210783116
      ],
      [
        "Ġcable",
        -9.929038658124394
      ],
      [
        "Ġbusinesses",
        -9.930059147651804
      ],
      [
        "Ġpress",
        -9.93042858448337
      ],
      [
        "Ġsounds",
        -9.930624591626426
      ],
      [
        "pre",
        -9.931090616098569
      ],
      [
        "ole",
        -9.931389381260956
      ],
      [
        "Ġspecifically",
        -9.93194908075482
      ],
      [
        "-year",
        -9.931964996639923
      ],
      [
        "ĠTherefor",
        -9.932544364884617
      ],
      [
        "can",
        -9.9340231070733
      ],
      [
        "Ġinsight",
        -9.934763918153733
      ],
      [
        "mu",
        -9.934853537524642
      ],
      [
        "Ġgift",
        -9.934975683942591
      ],
      [
        "Ġappearance",
        -9.935746509909292
      ],
      [
        "mate",
        -9.936087363659738
      ],
      [
        "Ġgenes",
        -9.936277364962535
      ],
      [
        "Ġoperat",
        -9.93704887252434
      ],
      [
        "Ġshar",
        -9.937136990184552
      ],
      [
        "some",
        -9.939050640951834
      ],
      [
        "pri",
        -9.939365474233316
      ],
      [
        "Ġvirtual",
        -9.93961684136718
      ],
      [
        "Ġaudio",
        -9.939966990705797
      ],
      [
        "pic",
        -9.94084568059731
      ],
      [
        "Ġapart",
        -9.941007516463698
      ],
      [
        "pan",
        -9.941124294550068
      ],
      [
        "Ġtrust",
        -9.941685039593471
      ],
      [
        "ĠHis",
        -9.942421118686664
      ],
      [
        "Ġrat",
        -9.943003971644304
      ],
      [
        "PA",
        -9.943112549755366
      ],
      [
        "ĠSince",
        -9.943699665726992
      ],
      [
        "Ġfossil",
        -9.944282424105156
      ],
      [
        "Ġrelax",
        -9.944282680791032
      ],
      [
        "Ġboost",
        -9.944361245338094
      ],
      [
        "Ġhelpful",
        -9.944442692061765
      ],
      [
        "Ġpop",
        -9.944972028748818
      ],
      [
        "how",
        -9.945345271575723
      ],
      [
        "Ġadvice",
        -9.945842495825527
      ],
      [
        "Ġcareer",
        -9.946272681287624
      ],
      [
        "Ġmolecules",
        -9.947962347395464
      ],
      [
        "Ġartist",
        -9.948761950727476
      ],
      [
        "load",
        -9.950024629098507
      ],
      [
        "Ġstation",
        -9.950027090726516
      ],
      [
        "rus",
        -9.950096093228808
      ],
      [
        "Ġtrigger",
        -9.950538923963894
      ],
      [
        "Ġallowed",
        -9.951013321840977
      ],
      [
        "Ġtru",
        -9.952798386085645
      ],
      [
        "Ġport",
        -9.95294441144078
      ],
      [
        "Ġsnake",
        -9.95369851330746
      ],
      [
        "ĠCol",
        -9.9542168072688
      ],
      [
        "Ġroots",
        -9.954304632225137
      ],
      [
        "rid",
        -9.95441948973102
      ],
      [
        "Ġrules",
        -9.95473274968754
      ],
      [
        "ĠDepartment",
        -9.95525442749786
      ],
      [
        "Ġtire",
        -9.955745950696208
      ],
      [
        "Ġinvolv",
        -9.95585348237398
      ],
      [
        "MS",
        -9.95610786248047
      ],
      [
        "ĠTra",
        -9.956260380046498
      ],
      [
        "Ġsports",
        -9.95644131570142
      ],
      [
        "Ġconcrete",
        -9.956831584306927
      ],
      [
        "Ġdistribution",
        -9.957250493357575
      ],
      [
        "ĠAdd",
        -9.958855586193511
      ],
      [
        "Ġboil",
        -9.958922385184016
      ],
      [
        "Ġtail",
        -9.95954140054558
      ],
      [
        "Ġpollution",
        -9.96020600485066
      ],
      [
        "Ġproteins",
        -9.961650646636848
      ],
      [
        "Ġinsects",
        -9.96249024891532
      ],
      [
        "Ġbutter",
        -9.96258188760018
      ],
      [
        "ural",
        -9.96276013693997
      ],
      [
        "Ġthreat",
        -9.963071927196744
      ],
      [
        "ĠHer",
        -9.963292526041812
      ],
      [
        "ility",
        -9.963497196023724
      ],
      [
        "Ġwindow",
        -9.963554095449004
      ],
      [
        "than",
        -9.963954319099702
      ],
      [
        "Ġcatch",
        -9.964790088084872
      ],
      [
        "Ġpoly",
        -9.965016730873788
      ],
      [
        "Ġfear",
        -9.965771907851398
      ],
      [
        "Ġsociety",
        -9.96634792105418
      ],
      [
        "Ġcreation",
        -9.966377878832947
      ],
      [
        "Ġregulation",
        -9.966393818303366
      ],
      [
        "Ġconclusion",
        -9.96644446696532
      ],
      [
        "ĠCom",
        -9.966584260683128
      ],
      [
        "Ġasked",
        -9.9672764843099
      ],
      [
        "Ġhundred",
        -9.967942816139706
      ],
      [
        "Ġvoice",
        -9.96801729558652
      ],
      [
        "Ġillness",
        -9.96802437195323
      ],
      [
        "Ġindoor",
        -9.970916010436769
      ],
      [
        "Ġremov",
        -9.971028850443007
      ],
      [
        "Ġhighlight",
        -9.971062965360286
      ],
      [
        "Ġestablish",
        -9.971119637464726
      ],
      [
        "ĠAustralia",
        -9.9714969285159
      ],
      [
        "Ġnearly",
        -9.97158000195662
      ],
      [
        "ogen",
        -9.971763293317878
      ],
      [
        "Ġroof",
        -9.972743875379049
      ],
      [
        "Ġextend",
        -9.972773199049758
      ],
      [
        "Ġcheap",
        -9.972812228327085
      ],
      [
        "Ġcharacteristics",
        -9.973349345286216
      ],
      [
        "Ġski",
        -9.973519337816676
      ],
      [
        "ĠPar",
        -9.9738643021391
      ],
      [
        "lar",
        -9.974343175178536
      ],
      [
        "Ġmorning",
        -9.974348521685984
      ],
      [
        "Ġtrade",
        -9.974454254397685
      ],
      [
        "itis",
        -9.976329461604642
      ],
      [
        "Ġdistinct",
        -9.9770242357531
      ],
      [
        "/or",
        -9.977481848085436
      ],
      [
        "Ġherb",
        -9.977575648653008
      ],
      [
        "Me",
        -9.977610804631349
      ],
      [
        "Ġformed",
        -9.977866859092668
      ],
      [
        "Ġleaf",
        -9.979203551531471
      ],
      [
        "tended",
        -9.97936325409442
      ],
      [
        "Ġdemonstrate",
        -9.979393677615638
      ],
      [
        "Ġpen",
        -9.980669651829569
      ],
      [
        "ĠJapan",
        -9.980798517521697
      ],
      [
        "her",
        -9.982030589165484
      ],
      [
        "Ġdish",
        -9.982126895308872
      ],
      [
        "ĠService",
        -9.982178996754875
      ],
      [
        "RO",
        -9.982589536401724
      ],
      [
        "Ġconsume",
        -9.983269187043684
      ],
      [
        "pati",
        -9.983857481731407
      ],
      [
        "well",
        -9.983912859851884
      ],
      [
        "Ġboat",
        -9.984040757970757
      ],
      [
        "Ġharm",
        -9.985703423179336
      ],
      [
        "||",
        -9.98594411982025
      ],
      [
        "Ġcrack",
        -9.986048754162336
      ],
      [
        "ĠEurope",
        -9.986121806802304
      ],
      [
        "-free",
        -9.9870544642802
      ],
      [
        "Ġcreative",
        -9.987177767846818
      ],
      [
        "Ġanxiet",
        -9.98746867810762
      ],
      [
        "gon",
        -9.987972742753383
      ],
      [
        "CT",
        -9.98813578234162
      ],
      [
        "Ġfamilies",
        -9.988911346905653
      ],
      [
        "Ġsurgery",
        -9.989016493256898
      ],
      [
        "Ġagree",
        -9.989899650275548
      ],
      [
        "lock",
        -9.989937156814996
      ],
      [
        "ĠPC",
        -9.990322016587754
      ],
      [
        "Ġbroad",
        -9.990793893007428
      ],
      [
        "Ġoptimal",
        -9.991471798520111
      ],
      [
        "ably",
        -9.991871435393405
      ],
      [
        "por",
        -9.992650962932274
      ],
      [
        "cro",
        -9.992965881375522
      ],
      [
        "Ġdental",
        -9.994181366034931
      ],
      [
        "Sh",
        -9.996256805019955
      ],
      [
        "Ġcomput",
        -9.997002154001692
      ],
      [
        "Ġdirt",
        -9.997162844644128
      ],
      [
        "Ġbeneficial",
        -9.997220876121746
      ],
      [
        "ĠRed",
        -9.99771683086004
      ],
      [
        "Ġperformed",
        -9.99885195501258
      ],
      [
        "Ġfinger",
        -9.99891795190178
      ],
      [
        "Ġharmful",
        -9.998951195508106
      ],
      [
        "Ġapproximately",
        -9.99964171621464
      ],
      [
        "ĠGod",
        -9.999792196444057
      ],
      [
        "Ġbooks",
        -10.000382356258656
      ],
      [
        "Ġmaybe",
        -10.00045400072234
      ],
      [
        "Ġstain",
        -10.000458053483918
      ],
      [
        "pot",
        -10.000837140648237
      ],
      [
        "ĠApp",
        -10.00134894649649
      ],
      [
        "Ġemerg",
        -10.002121772470932
      ],
      [
        "Ġregister",
        -10.003689920640683
      ],
      [
        "Ġblend",
        -10.0037166382324
      ],
      [
        "Ġpreference",
        -10.003913117005943
      ],
      [
        "Ġwa",
        -10.00463898999825
      ],
      [
        "Ġsites",
        -10.00487483746322
      ],
      [
        "Ġsit",
        -10.00509646093461
      ],
      [
        "Ġwait",
        -10.005179707914753
      ],
      [
        "Ġindustrial",
        -10.00525236354496
      ],
      [
        "SE",
        -10.005805673358587
      ],
      [
        "ĠFood",
        -10.00591464058616
      ],
      [
        "Ġrobot",
        -10.006133400103629
      ],
      [
        "Ġtransmission",
        -10.00703948917345
      ],
      [
        "Ġchip",
        -10.00707321236724
      ],
      [
        "han",
        -10.007298460668451
      ],
      [
        "ket",
        -10.007320600406018
      ],
      [
        "tech",
        -10.008005445258767
      ],
      [
        "Lo",
        -10.008411976686286
      ],
      [
        "ĠKi",
        -10.008434592645177
      ],
      [
        "Ġprepared",
        -10.00858203426634
      ],
      [
        "Ġbank",
        -10.00868039815598
      ],
      [
        "...Ċ",
        -10.009351739529569
      ],
      [
        "Ġlegal",
        -10.009433742040455
      ],
      [
        "Ġstrip",
        -10.009509232780063
      ],
      [
        "Ġcalci",
        -10.009688233211048
      ],
      [
        "Ġac",
        -10.010041918087987
      ],
      [
        "ram",
        -10.010677272380295
      ],
      [
        "Ġcoffee",
        -10.011997586688942
      ],
      [
        "CH",
        -10.012704931299156
      ],
      [
        "Ġprovider",
        -10.013276111425764
      ],
      [
        "Ġlay",
        -10.013285451915412
      ],
      [
        "AD",
        -10.013476247471765
      ],
      [
        "ĠOver",
        -10.013568274091366
      ],
      [
        "Ġclassroom",
        -10.013739609167208
      ],
      [
        "ĠQu",
        -10.013911440803708
      ],
      [
        "Ġseal",
        -10.014926075656284
      ],
      [
        "Ġeventual",
        -10.015042693341648
      ],
      [
        "Ġchannel",
        -10.015339919650232
      ],
      [
        "Ġsteel",
        -10.01536119281416
      ],
      [
        "Pro",
        -10.0155044838224
      ],
      [
        "ttle",
        -10.0156085295372
      ],
      [
        "Ġschools",
        -10.016690693925336
      ],
      [
        "Ġlog",
        -10.01698954181982
      ],
      [
        "Ġhydrogen",
        -10.01708877098385
      ],
      [
        "Ġportion",
        -10.01726582261421
      ],
      [
        "Ġattend",
        -10.01727575960626
      ],
      [
        "Our",
        -10.017428367400854
      ],
      [
        "wildlife",
        -10.01775033932805
      ],
      [
        "Ġcarrie",
        -10.017788744908971
      ],
      [
        "Ġlatest",
        -10.017811237463643
      ],
      [
        "ĠAct",
        -10.017892422583706
      ],
      [
        "ĠQ",
        -10.017939792823087
      ],
      [
        "los",
        -10.017978414208354
      ],
      [
        "Ġharvest",
        -10.0186903795861
      ],
      [
        "Ġlaser",
        -10.019055232829164
      ],
      [
        "Ġinvest",
        -10.020056719765392
      ],
      [
        "Ġcomprehensive",
        -10.020370852787082
      ],
      [
        "Ġsurvey",
        -10.020370955270316
      ],
      [
        "Ġdefinition",
        -10.020371831920723
      ],
      [
        "ĠProgram",
        -10.020460755127694
      ],
      [
        "Ġearlie",
        -10.020976182923972
      ],
      [
        "Ġstrateg",
        -10.021266658009653
      ],
      [
        "Ġresource",
        -10.02193482494735
      ],
      [
        "Ġfeeding",
        -10.022036038781373
      ],
      [
        "bar",
        -10.023055346607268
      ],
      [
        "Ġemployee",
        -10.023850731310592
      ],
      [
        "Ġmill",
        -10.024255495390843
      ],
      [
        "Ġmeeting",
        -10.024657579121309
      ],
      [
        "ĠModel",
        -10.025065567373002
      ],
      [
        "Ġprocedure",
        -10.025182488496576
      ],
      [
        "Ġbowl",
        -10.025507757968906
      ],
      [
        "Ġwash",
        -10.02644879005317
      ],
      [
        "Ġestablished",
        -10.027156330605994
      ],
      [
        "ĠMin",
        -10.02719453111471
      ],
      [
        "Ġcoat",
        -10.02778186095284
      ],
      [
        "General",
        -10.02788353625003
      ],
      [
        "ĠPe",
        -10.028614112565611
      ],
      [
        "Ġassist",
        -10.028674730448014
      ],
      [
        "Ġemotional",
        -10.029169242625631
      ],
      [
        "Ġconservation",
        -10.029367932833534
      ],
      [
        "Ġschedule",
        -10.030289163351997
      ],
      [
        "Ġtiny",
        -10.030599148043862
      ],
      [
        "Figure",
        -10.030624879606462
      ],
      [
        "Ġmixture",
        -10.030797398013648
      ],
      [
        "Ġratio",
        -10.030836192018988
      ],
      [
        "par",
        -10.032338418195586
      ],
      [
        "Ġcolon",
        -10.033134901610667
      ],
      [
        "Ġtax",
        -10.03361581559497
      ],
      [
        "ĠKa",
        -10.033731606376248
      ],
      [
        "Ġkit",
        -10.03386102129577
      ],
      [
        "Ġpossibilit",
        -10.033919016910716
      ],
      [
        "Ġrandom",
        -10.033923786609709
      ],
      [
        "Ġdigest",
        -10.03502309377409
      ],
      [
        "Ġsuggests",
        -10.035050312664284
      ],
      [
        "Ġparent",
        -10.035267451787796
      ],
      [
        "Ġplug",
        -10.035654001703849
      ],
      [
        "Ġvirus",
        -10.035770167684046
      ],
      [
        "Ġpara",
        -10.036362076475946
      ],
      [
        "which",
        -10.037153333979695
      ],
      [
        "Ð",
        -10.037294232789227
      ],
      [
        "Ġisland",
        -10.03756273202649
      ],
      [
        "radi",
        -10.037875582923697
      ],
      [
        "ĠTrans",
        -10.03806650886045
      ],
      [
        "Use",
        -10.038177375228372
      ],
      [
        "ING",
        -10.038778967194212
      ],
      [
        "Yes",
        -10.039511734059124
      ],
      [
        "Ġstream",
        -10.040211270960787
      ],
      [
        "My",
        -10.0403198147803
      ],
      [
        "Ġpets",
        -10.040718168272251
      ],
      [
        "state",
        -10.041103720986367
      ],
      [
        "off",
        -10.042121310402154
      ],
      [
        "char",
        -10.042271457194031
      ],
      [
        "Ġmarine",
        -10.042564263354134
      ],
      [
        "ĠWhether",
        -10.04286372396232
      ],
      [
        "Ġflu",
        -10.042874252161502
      ],
      [
        "iz",
        -10.043345743671008
      ],
      [
        "atic",
        -10.043866398905584
      ],
      [
        "Ġtransition",
        -10.0442045823658
      ],
      [
        "Ġformation",
        -10.044281818654504
      ],
      [
        "ĠBi",
        -10.045593223623744
      ],
      [
        "ĠOut",
        -10.045876538770036
      ],
      [
        "Ġreduction",
        -10.04630819381537
      ],
      [
        "Â°",
        -10.046574828100104
      ],
      [
        "Ġconduct",
        -10.047272790100388
      ],
      [
        "Ġnumerous",
        -10.047653050224415
      ],
      [
        "Ġclasses",
        -10.048878794820432
      ],
      [
        "Ġinstrument",
        -10.049383133675173
      ],
      [
        "Ġdiagram",
        -10.049385423736856
      ],
      [
        "Ġprivate",
        -10.04940586743568
      ],
      [
        "Ġparameter",
        -10.049439390559582
      ],
      [
        "ĠMu",
        -10.05025433339606
      ],
      [
        "Ġgold",
        -10.05040474263034
      ],
      [
        "Ġscar",
        -10.051011090188709
      ],
      [
        "Ġoperate",
        -10.05144744320748
      ],
      [
        "Ro",
        -10.052318628763828
      ],
      [
        "bre",
        -10.05270196633667
      ],
      [
        "Ġtechnical",
        -10.052852665967816
      ],
      [
        "ĠEducation",
        -10.052878432193696
      ],
      [
        "Your",
        -10.053693823340687
      ],
      [
        "Ġdiscussion",
        -10.055408736386603
      ],
      [
        "ĠCat",
        -10.05584583532041
      ],
      [
        "bol",
        -10.056752613192357
      ],
      [
        "Ġnice",
        -10.057578890541926
      ],
      [
        "Ġartificial",
        -10.058364507746544
      ],
      [
        "more",
        -10.05848834523239
      ],
      [
        "ĠEn",
        -10.058761782541682
      ],
      [
        "Un",
        -10.0591776492606
      ],
      [
        "ĠGreen",
        -10.059228782195408
      ],
      [
        "Ġmonitoring",
        -10.059535452619969
      ],
      [
        "Ġprimari",
        -10.060706537116705
      ],
      [
        "identified",
        -10.060882832435862
      ],
      [
        "Are",
        -10.061263555287216
      ],
      [
        "@",
        -10.061578389487623
      ],
      [
        "Ġatmosphere",
        -10.061578397423771
      ],
      [
        "Ġshade",
        -10.061865406815793
      ],
      [
        "ĠKeep",
        -10.062368380538611
      ],
      [
        "Ġspeaker",
        -10.06292589807637
      ],
      [
        "Ġcorner",
        -10.063054064730274
      ],
      [
        "Ġjump",
        -10.063344042019592
      ],
      [
        "quality",
        -10.063945276820382
      ],
      [
        "ĠStep",
        -10.064309456815842
      ],
      [
        "ological",
        -10.065657607468486
      ],
      [
        "ĠEuropean",
        -10.066349218531313
      ],
      [
        "Ġaccident",
        -10.06685094689617
      ],
      [
        "Ġtitle",
        -10.066867815358108
      ],
      [
        "Ġinterested",
        -10.067323401752038
      ],
      [
        "Ġsurvive",
        -10.067383638719994
      ],
      [
        "Ġmold",
        -10.067519940802509
      ],
      [
        "other",
        -10.067567772366518
      ],
      [
        "wood",
        -10.068184006025536
      ],
      [
        "tric",
        -10.068438277448326
      ],
      [
        "Ġprepare",
        -10.070134114209116
      ],
      [
        "Ġdisc",
        -10.070223553280943
      ],
      [
        "Ġqu",
        -10.07105206663696
      ],
      [
        "rite",
        -10.071407622462136
      ],
      [
        "Ġrealize",
        -10.071787992820491
      ],
      [
        "Ġperspective",
        -10.072151392121064
      ],
      [
        "ĠPlan",
        -10.072606304658596
      ],
      [
        "Ġrelevant",
        -10.073924229211002
      ],
      [
        "Ġexhibit",
        -10.073924245209824
      ],
      [
        "Most",
        -10.074286175635413
      ],
      [
        "Ġdrug",
        -10.07437522499722
      ],
      [
        "Ġoperations",
        -10.075032130298837
      ],
      [
        "Ġlift",
        -10.075591911778464
      ],
      [
        "Ġzone",
        -10.075797201614195
      ],
      [
        "Ġcars",
        -10.076988213650417
      ],
      [
        "Ġalcohol",
        -10.077479791975712
      ],
      [
        "Ġhoney",
        -10.07754842143308
      ],
      [
        "Ġsmell",
        -10.077556242236252
      ],
      [
        "last",
        -10.0776690061688
      ],
      [
        "rush",
        -10.077748987719575
      ],
      [
        "Ġequation",
        -10.07926248064506
      ],
      [
        "ĠPark",
        -10.080289447817483
      ],
      [
        "Ġgrown",
        -10.080779451153774
      ],
      [
        "Ġantibiotic",
        -10.081076876023634
      ],
      [
        "Ġstretch",
        -10.081077035739256
      ],
      [
        "Ġlab",
        -10.081124895163562
      ],
      [
        "Ġsmart",
        -10.081278347254504
      ],
      [
        "ĠHar",
        -10.081936003239989
      ],
      [
        "mph",
        -10.081998629341186
      ],
      [
        "Ġwonder",
        -10.082166992724206
      ],
      [
        "ĠRu",
        -10.082830886307288
      ],
      [
        "Ġresident",
        -10.082837109047292
      ],
      [
        "Ġdefinite",
        -10.082841271723924
      ],
      [
        "Answer",
        -10.083116602529753
      ],
      [
        "Ġseat",
        -10.08345797373172
      ],
      [
        "ense",
        -10.083532531012905
      ],
      [
        "Ġshower",
        -10.083677661804998
      ],
      [
        "Ġcertainly",
        -10.083850208464824
      ],
      [
        "Ġrep",
        -10.084113974604556
      ],
      [
        "BC",
        -10.08427287573111
      ],
      [
        "Ġvs",
        -10.084498843117313
      ],
      [
        "Ġjournal",
        -10.084629050621473
      ],
      [
        "Ġsaying",
        -10.084854535025244
      ],
      [
        "Ġemotion",
        -10.086138118499743
      ],
      [
        "Ġprecise",
        -10.086424465638997
      ],
      [
        "Ġmuscles",
        -10.087291335164435
      ],
      [
        "Ġpartner",
        -10.088167229474635
      ],
      [
        "Ġofficial",
        -10.088224791450862
      ],
      [
        "ĠYork",
        -10.08822912671165
      ],
      [
        "Ġnerve",
        -10.088481649512174
      ],
      [
        "SI",
        -10.088504464305228
      ],
      [
        "ball",
        -10.088898067350058
      ],
      [
        "Ġroute",
        -10.089267386705476
      ],
      [
        "amb",
        -10.089334402998578
      ],
      [
        "Ġminimum",
        -10.090026118137134
      ],
      [
        "Ġrequest",
        -10.090026714048284
      ],
      [
        "Ã©",
        -10.090040062783746
      ],
      [
        "Ġmiles",
        -10.090089403675972
      ],
      [
        "desired",
        -10.090101624078262
      ],
      [
        "Ġexternal",
        -10.093638138938324
      ],
      [
        "with",
        -10.093644344404844
      ],
      [
        "Ġcheese",
        -10.093648662355324
      ],
      [
        "jo",
        -10.093745960801916
      ],
      [
        "Ġbiological",
        -10.09425906635435
      ],
      [
        "type",
        -10.09430054721292
      ],
      [
        "Ġtrouble",
        -10.0954722018946
      ],
      [
        "Ġlifestyle",
        -10.095669471692585
      ],
      [
        "-being",
        -10.0959666595788
      ],
      [
        "Ġexamine",
        -10.096208782599437
      ],
      [
        "raw",
        -10.096231815553615
      ],
      [
        "Ġimprovement",
        -10.096820605909643
      ],
      [
        "Ġgather",
        -10.09727330468358
      ],
      [
        "Ġplent",
        -10.097326660016414
      ],
      [
        "Photo",
        -10.097354813393816
      ],
      [
        "Ġmanual",
        -10.098762709241786
      ],
      [
        "Ġlarges",
        -10.10057385530937
      ],
      [
        "Ġfunctional",
        -10.100802544164
      ],
      [
        "Ġadvis",
        -10.100906897612724
      ],
      [
        "bel",
        -10.101211799360648
      ],
      [
        "Ġcraft",
        -10.101842414799172
      ],
      [
        "Ġcream",
        -10.102741499063896
      ],
      [
        "Ġcapabilit",
        -10.10281249734378
      ],
      [
        "Ġlake",
        -10.103172776805335
      ],
      [
        "arm",
        -10.103638657024003
      ],
      [
        "ffe",
        -10.103946648679823
      ],
      [
        "els",
        -10.104466927746916
      ],
      [
        "Ġeight",
        -10.105944373288445
      ],
      [
        "Ġphotos",
        -10.106584338011018
      ],
      [
        "Ġstock",
        -10.107174224299584
      ],
      [
        "RA",
        -10.107431885619508
      ],
      [
        "MA",
        -10.10750294330095
      ],
      [
        "long",
        -10.107519230235074
      ],
      [
        "ĠJohn",
        -10.107860463688157
      ],
      [
        "ĠWell",
        -10.107991003881468
      ],
      [
        "Ġconfirm",
        -10.108269807963511
      ],
      [
        "Ġexam",
        -10.108510982293575
      ],
      [
        "-p",
        -10.10866280727002
      ],
      [
        "Ġguideline",
        -10.108715215537412
      ],
      [
        "ĠTest",
        -10.109370958102572
      ],
      [
        "Ġoffering",
        -10.10998174810819
      ],
      [
        "rat",
        -10.110022878682797
      ],
      [
        "Ġautomatic",
        -10.110178873997054
      ],
      [
        "win",
        -10.11023169498991
      ],
      [
        "Ġinternet",
        -10.110282997604513
      ],
      [
        "Conclusion",
        -10.110369753218386
      ],
      [
        "Ġgraph",
        -10.11061866883698
      ],
      [
        "Ġquantit",
        -10.111771450869307
      ],
      [
        "Ġancient",
        -10.111909415640625
      ],
      [
        "Ġstatus",
        -10.11215270235822
      ],
      [
        "coding",
        -10.112223306451614
      ],
      [
        "acc",
        -10.112702509871784
      ],
      [
        "Ġincredibl",
        -10.11374876269718
      ],
      [
        "Ġorigin",
        -10.1149661418763
      ],
      [
        "Ġbillion",
        -10.115074743415324
      ],
      [
        "PE",
        -10.115154290840222
      ],
      [
        "Ġlawn",
        -10.115552951943624
      ],
      [
        "tting",
        -10.115761382561246
      ],
      [
        "Ġseven",
        -10.11578140620618
      ],
      [
        "Ġreplacement",
        -10.116785942789855
      ],
      [
        "Ġsport",
        -10.117006704934674
      ],
      [
        "Ġopinion",
        -10.117449782502732
      ],
      [
        "Ġguid",
        -10.1180660424234
      ],
      [
        "-friendl",
        -10.11824629559316
      ],
      [
        "Ġnorth",
        -10.11885466986653
      ],
      [
        "Ġkept",
        -10.11930609881394
      ],
      [
        "za",
        -10.119712019755084
      ],
      [
        "Ġstroke",
        -10.121185402897602
      ],
      [
        "Ġchoos",
        -10.12193452111025
      ],
      [
        "ĠGreat",
        -10.124201933058584
      ],
      [
        "nite",
        -10.124646223867146
      ],
      [
        "ĠMarch",
        -10.12511318482084
      ],
      [
        "Ġformat",
        -10.125514482460822
      ],
      [
        "ĠSha",
        -10.125728200183064
      ],
      [
        "Ġspa",
        -10.126148785528958
      ],
      [
        "ĠStudent",
        -10.126307185827544
      ],
      [
        "Ġobvious",
        -10.12675981113892
      ],
      [
        "Ġworry",
        -10.126760326815717
      ],
      [
        "Ġworse",
        -10.126760688930071
      ],
      [
        "Ġwish",
        -10.127117231169912
      ],
      [
        "Ġraw",
        -10.127178075531202
      ],
      [
        "gel",
        -10.128534096204373
      ],
      [
        "Ġhole",
        -10.128616466120844
      ],
      [
        "Ġstomach",
        -10.12863248984869
      ],
      [
        "Ġcreature",
        -10.128632547003589
      ],
      [
        "Ġbottle",
        -10.12871386007598
      ],
      [
        "Ġclient",
        -10.130598244806205
      ],
      [
        "Ġcalorie",
        -10.13060168464816
      ],
      [
        "Ġsolve",
        -10.131221129368493
      ],
      [
        "rig",
        -10.13164488115546
      ],
      [
        "aving",
        -10.131669465781544
      ],
      [
        "Ġalter",
        -10.13194168330356
      ],
      [
        "Ġspin",
        -10.132223638763064
      ],
      [
        "ĠGoogle",
        -10.132388601109051
      ],
      [
        "Ġcontinuous",
        -10.132585520821817
      ],
      [
        "oom",
        -10.132828355810588
      ],
      [
        "tability",
        -10.132856612886098
      ],
      [
        "Ġscore",
        -10.133282554197187
      ],
      [
        "Ġprocessor",
        -10.133690600817756
      ],
      [
        "Ġpolicy",
        -10.13472035340817
      ],
      [
        "Ġshoes",
        -10.134838272082042
      ],
      [
        "ulate",
        -10.134993181483278
      ],
      [
        "<",
        -10.135509374931306
      ],
      [
        "Ġpropose",
        -10.13658105219117
      ],
      [
        "Ġmainly",
        -10.13741094147976
      ],
      [
        "bacterial",
        -10.137504902521677
      ],
      [
        "Thank",
        -10.13759620791248
      ],
      [
        "Ġnation",
        -10.137993841422464
      ],
      [
        "Ġvariation",
        -10.138048891452488
      ],
      [
        "Ġkidney",
        -10.13815984881062
      ],
      [
        "Ġcamp",
        -10.138497890575342
      ],
      [
        "ĠAny",
        -10.138768874709289
      ],
      [
        "ĠLab",
        -10.13883414366019
      ],
      [
        "Ġreliable",
        -10.139868416361743
      ],
      [
        "Ġhormone",
        -10.139942674603551
      ],
      [
        "Ġcoordinat",
        -10.14184024241647
      ],
      [
        "Ġcloud",
        -10.141840948004084
      ],
      [
        "play",
        -10.142308044339304
      ],
      [
        "Ġblow",
        -10.142514161648522
      ],
      [
        "ĠTime",
        -10.14295821976155
      ],
      [
        "Ġradio",
        -10.143199200822114
      ],
      [
        "ĠHome",
        -10.143465764166704
      ],
      [
        "Ġargument",
        -10.143741400646508
      ],
      [
        "nut",
        -10.1440612902765
      ],
      [
        "Ġgraphic",
        -10.144254520375585
      ],
      [
        "lines",
        -10.14449360378769
      ],
      [
        "tel",
        -10.144803911461068
      ],
      [
        "&",
        -10.145212140328226
      ],
      [
        "Ġlens",
        -10.14539252526157
      ],
      [
        "Ġfracture",
        -10.14564616579184
      ],
      [
        "Ġamazing",
        -10.145646516454242
      ],
      [
        "Ġloose",
        -10.1457819888936
      ],
      [
        "ĠEl",
        -10.146319687942691
      ],
      [
        "ĠDesign",
        -10.14745720410343
      ],
      [
        "ĠTri",
        -10.14783410597754
      ],
      [
        "Ġbite",
        -10.147891125725303
      ],
      [
        "itch",
        -10.1490668798851
      ],
      [
        "PR",
        -10.149253189582732
      ],
      [
        "Ġparticipant",
        -10.14946655042792
      ],
      [
        "Ġinnovation",
        -10.149474038608986
      ],
      [
        "Ġlayers",
        -10.149974058163345
      ],
      [
        "pin",
        -10.150031637651065
      ],
      [
        "Ġreact",
        -10.15024116103796
      ],
      [
        "most",
        -10.150921902371325
      ],
      [
        "print",
        -10.151245874076595
      ],
      [
        "ĠChina",
        -10.151356962307222
      ],
      [
        "Ġthorough",
        -10.15138233532285
      ],
      [
        "Ġfirm",
        -10.152036152613736
      ],
      [
        "Ġindependent",
        -10.152223450335908
      ],
      [
        "PS",
        -10.15290537399485
      ],
      [
        "heat",
        -10.153603495563058
      ],
      [
        "Le",
        -10.15361588124462
      ],
      [
        "SO",
        -10.153635120590875
      ],
      [
        "ĠFree",
        -10.153767302302168
      ],
      [
        "ĠVer",
        -10.154246808631012
      ],
      [
        "Ġchalleng",
        -10.15428812640597
      ],
      [
        "Ġeducational",
        -10.15438265337466
      ],
      [
        "Ġconstruct",
        -10.154690629055867
      ],
      [
        "Ġstable",
        -10.155692332067376
      ],
      [
        "Ġwheel",
        -10.15606207759264
      ],
      [
        "Ġhelping",
        -10.15677254585533
      ],
      [
        "Ġintelligence",
        -10.157151504169756
      ],
      [
        "Ġremote",
        -10.157151599570486
      ],
      [
        "Ġcommand",
        -10.157157655058748
      ],
      [
        "ney",
        -10.157881618134684
      ],
      [
        "Ġsensitive",
        -10.158052150308151
      ],
      [
        "Ġinteract",
        -10.15830128329474
      ],
      [
        "Ġcoal",
        -10.15880349063548
      ],
      [
        "September",
        -10.159082011060164
      ],
      [
        "ĠJune",
        -10.15939748533748
      ],
      [
        "urthermore",
        -10.159682806662708
      ],
      [
        "hand",
        -10.1597497990653
      ],
      [
        "Ġagent",
        -10.15990679803198
      ],
      [
        "ĠNi",
        -10.160558440360184
      ],
      [
        "Ġdetermined",
        -10.160839491995471
      ],
      [
        "rum",
        -10.160912476199158
      ],
      [
        "ĠPeople",
        -10.160999805261472
      ],
      [
        "Ġpowder",
        -10.161016253725563
      ],
      [
        "Dr",
        -10.161019187811448
      ],
      [
        "ĠGarden",
        -10.161083977443829
      ],
      [
        "ĠBlack",
        -10.161566677395347
      ],
      [
        "Ġassume",
        -10.161935426629622
      ],
      [
        "Ġconsult",
        -10.161950281085378
      ],
      [
        "je",
        -10.162123833967655
      ],
      [
        "Ġmembrane",
        -10.16295422733699
      ],
      [
        "Ġtea",
        -10.163132402584951
      ],
      [
        "Ġmelt",
        -10.163442796733849
      ],
      [
        "ava",
        -10.163789376011302
      ],
      [
        "pass",
        -10.16381502429217
      ],
      [
        "made",
        -10.164551770488188
      ],
      [
        "ĠWal",
        -10.165903077227789
      ],
      [
        "ĠWest",
        -10.166016993962163
      ],
      [
        "Ġmovie",
        -10.166868299143363
      ],
      [
        "Ġedit",
        -10.167594409087789
      ],
      [
        "Ġsupplie",
        -10.168019112761971
      ],
      [
        "Ġvitamin",
        -10.168296879926247
      ],
      [
        "lap",
        -10.168298660663822
      ],
      [
        "Ġpriorit",
        -10.168343758534071
      ],
      [
        "Ġfurniture",
        -10.16879708481894
      ],
      [
        "Ġbudget",
        -10.168824191080184
      ],
      [
        "Al",
        -10.170013067317155
      ],
      [
        "tention",
        -10.170358671385896
      ],
      [
        "ray",
        -10.170399278319696
      ],
      [
        "ĠBritish",
        -10.17074442120682
      ],
      [
        "chan",
        -10.171414895804627
      ],
      [
        "emergency",
        -10.171541595946527
      ],
      [
        "Ġextract",
        -10.171876127842282
      ],
      [
        "Ġpromot",
        -10.172108255650162
      ],
      [
        "pal",
        -10.172708788430054
      ],
      [
        "Ġcounter",
        -10.173243666486345
      ],
      [
        "Ġvarie",
        -10.173285286797183
      ],
      [
        "Ġinvestment",
        -10.173464575262395
      ],
      [
        "Ġultimate",
        -10.17466167521764
      ],
      [
        "Ġcollege",
        -10.174661725896913
      ],
      [
        "key",
        -10.174677461831454
      ],
      [
        "stro",
        -10.175021360273542
      ],
      [
        "Ġowner",
        -10.175102846157714
      ],
      [
        "Ġdensit",
        -10.175582144705814
      ],
      [
        "Ġclinical",
        -10.176332735828664
      ],
      [
        "Ġdescription",
        -10.176631538891224
      ],
      [
        "ĠHu",
        -10.176894242382769
      ],
      [
        "ĠFrench",
        -10.176955680847769
      ],
      [
        "Ġsuffer",
        -10.17783505409956
      ],
      [
        "Ġchart",
        -10.177995971106125
      ],
      [
        "what",
        -10.178381754758568
      ],
      [
        "Ġscenario",
        -10.17859481414499
      ],
      [
        "Ġencounter",
        -10.178594820302196
      ],
      [
        "Ġproduc",
        -10.178723937682694
      ],
      [
        "cher",
        -10.178928132239394
      ],
      [
        "ories",
        -10.179249083392278
      ],
      [
        "Ġpercentage",
        -10.179746880383764
      ],
      [
        "uel",
        -10.18043202413384
      ],
      [
        "LA",
        -10.180566872554284
      ],
      [
        "ĠUp",
        -10.18171001108952
      ],
      [
        "proof",
        -10.181875299720344
      ],
      [
        "Ġbreeding",
        -10.182512177993218
      ],
      [
        "Ġvessel",
        -10.182556790746697
      ],
      [
        "Ġwi",
        -10.182581005387352
      ],
      [
        "Ġdirector",
        -10.183011712375691
      ],
      [
        "Ġutilize",
        -10.183153228014136
      ],
      [
        "Ġguy",
        -10.183595495066204
      ],
      [
        "NS",
        -10.18414827440986
      ],
      [
        "Ġessay",
        -10.18452765398831
      ],
      [
        "Â·",
        -10.18454184143916
      ],
      [
        "Ġmountain",
        -10.184543626925546
      ],
      [
        "mag",
        -10.185022370437876
      ],
      [
        "-time",
        -10.18506844806308
      ],
      [
        "Ġeliminate",
        -10.185238082183842
      ],
      [
        "Ġleak",
        -10.18557670619362
      ],
      [
        "lace",
        -10.185617122063256
      ],
      [
        "till",
        -10.185733935178003
      ],
      [
        "ken",
        -10.18602605913824
      ],
      [
        "Ġisolat",
        -10.186201592507327
      ],
      [
        "lot",
        -10.18649763832541
      ],
      [
        "Ġflood",
        -10.186509054726056
      ],
      [
        "ĠCanada",
        -10.186518586665269
      ],
      [
        "Ġaircraft",
        -10.186700744891333
      ],
      [
        "Ġtight",
        -10.187804106373104
      ],
      [
        "Ġsouth",
        -10.18872316633093
      ],
      [
        "ĠJe",
        -10.18937065159136
      ],
      [
        "matic",
        -10.190200658853808
      ],
      [
        "Ġhid",
        -10.190241996922966
      ],
      [
        "âĢ¦ĊĊ",
        -10.190326654735388
      ],
      [
        "Ġhyper",
        -10.190489931905978
      ],
      [
        "Ġvalve",
        -10.190620467197416
      ],
      [
        "Ġbill",
        -10.190716528021229
      ],
      [
        "ĠLu",
        -10.191240626538306
      ],
      [
        "Ġgun",
        -10.191256992222073
      ],
      [
        "stone",
        -10.191697292902074
      ],
      [
        "Ġfundamental",
        -10.192484082726777
      ],
      [
        "Ġcompost",
        -10.19248685978772
      ],
      [
        "Ġprove",
        -10.193986196063214
      ],
      [
        "dri",
        -10.19402262692972
      ],
      [
        "Ġscene",
        -10.194511421109976
      ],
      [
        "ĠGuide",
        -10.194777659908954
      ],
      [
        "Ġweak",
        -10.194814929505052
      ],
      [
        "Ġchose",
        -10.195053178272712
      ],
      [
        "ĠLook",
        -10.19522423998605
      ],
      [
        "Ġcm",
        -10.195283791245288
      ],
      [
        "Ġoccurr",
        -10.196085948756744
      ],
      [
        "hir",
        -10.196242884329592
      ],
      [
        "Ġpolic",
        -10.196407222666195
      ],
      [
        "Ĥ",
        -10.196479464151595
      ],
      [
        "AP",
        -10.196907854195738
      ],
      [
        "hose",
        -10.197141172746376
      ],
      [
        "Ġsharp",
        -10.198227208140285
      ],
      [
        "Ġkitchen",
        -10.198496532484558
      ],
      [
        "cus",
        -10.19850372217957
      ],
      [
        "duct",
        -10.201006705123328
      ],
      [
        "ĠDu",
        -10.201881773482544
      ],
      [
        "Ġbees",
        -10.201894161304793
      ],
      [
        "Ġyard",
        -10.201968569832
      ],
      [
        "Ġfacilit",
        -10.202067223059435
      ],
      [
        "ĠIndian",
        -10.20241482791311
      ],
      [
        "Ġplanting",
        -10.202418392345884
      ],
      [
        "Ġdimension",
        -10.202524234872008
      ],
      [
        "OVID",
        -10.20258610107948
      ],
      [
        "CD",
        -10.202589337841696
      ],
      [
        "Cl",
        -10.202922912962258
      ],
      [
        "Ġintake",
        -10.20322212221222
      ],
      [
        "Ġobserv",
        -10.204376869666753
      ],
      [
        "Ġmild",
        -10.204899015780937
      ],
      [
        "Ġselected",
        -10.205084636999247
      ],
      [
        "Com",
        -10.205417033336069
      ],
      [
        "Ġenzyme",
        -10.20656865687592
      ],
      [
        "Pre",
        -10.206729492647966
      ],
      [
        "Ġputt",
        -10.206772666856716
      ],
      [
        "Ġadvance",
        -10.207014239346464
      ],
      [
        "Ġshell",
        -10.207315177023045
      ],
      [
        "]Ċ",
        -10.20749234958738
      ],
      [
        "ific",
        -10.207827607809376
      ],
      [
        "Ġtooth",
        -10.20885072333832
      ],
      [
        "Ġgate",
        -10.208947701966151
      ],
      [
        "ĠChe",
        -10.209148230023544
      ],
      [
        "US",
        -10.209815578033488
      ],
      [
        "ĠFish",
        -10.210724390913526
      ],
      [
        "ĠSun",
        -10.210757383170856
      ],
      [
        "Ġgap",
        -10.21113421455619
      ],
      [
        "Ġmin",
        -10.211134706295542
      ],
      [
        "Ġwaiting",
        -10.211863808333735
      ],
      [
        "ĠAugust",
        -10.21221204654362
      ],
      [
        "Ġmask",
        -10.212905882735386
      ],
      [
        "More",
        -10.214057883845696
      ],
      [
        "ĠPart",
        -10.214281857690418
      ],
      [
        "Ġdecide",
        -10.214684901814636
      ],
      [
        "get",
        -10.214818819999136
      ],
      [
        "Ġcow",
        -10.214888364521698
      ],
      [
        "Ġexcessive",
        -10.215208548032544
      ],
      [
        "hydr",
        -10.21619505199051
      ],
      [
        "Ġdrugs",
        -10.2162368361675
      ],
      [
        "Ġmobile",
        -10.216932497808855
      ],
      [
        "Ġprior",
        -10.217045855751074
      ],
      [
        "rack",
        -10.218233759058098
      ],
      [
        "cut",
        -10.218459879683722
      ],
      [
        "Select",
        -10.218732869205429
      ],
      [
        "Ġtoxic",
        -10.219456049375644
      ],
      [
        "def",
        -10.21947653516852
      ],
      [
        "that",
        -10.22032982218505
      ],
      [
        "Florida",
        -10.220866950071784
      ],
      [
        "Onc",
        -10.22088606095251
      ],
      [
        "Ġleav",
        -10.221277205927723
      ],
      [
        "Ġpredator",
        -10.222914307226471
      ],
      [
        "emb",
        -10.22303316450648
      ],
      [
        "ĠSch",
        -10.223856273805124
      ],
      [
        "ĠAc",
        -10.224787123211025
      ],
      [
        "New",
        -10.224963241589816
      ],
      [
        "ĠWhere",
        -10.2249663489412
      ],
      [
        "Ġcredit",
        -10.224997206860891
      ],
      [
        "ĠAbout",
        -10.225514143381622
      ],
      [
        "NO",
        -10.2258827203611
      ],
      [
        "ĠInternational",
        -10.226638680657636
      ],
      [
        "cat",
        -10.22690126423543
      ],
      [
        "ĠAC",
        -10.226936993652451
      ],
      [
        "ĠCha",
        -10.227192918224894
      ],
      [
        "ston",
        -10.227856182716994
      ],
      [
        "diversity",
        -10.228095158729197
      ],
      [
        "grad",
        -10.22854265787129
      ],
      [
        "`",
        -10.229110583116125
      ],
      [
        "Ġcontrast",
        -10.229110988880336
      ],
      [
        "Ġzero",
        -10.229209704065646
      ],
      [
        "Ġfeedback",
        -10.22926072520869
      ],
      [
        "uk",
        -10.229262787357891
      ],
      [
        "Ġtrick",
        -10.229726359210144
      ],
      [
        "Ġbulb",
        -10.230088634475958
      ],
      [
        "cra",
        -10.230450126303229
      ],
      [
        "Ġhardware",
        -10.231508193065132
      ],
      [
        "Ġref",
        -10.231927615787551
      ],
      [
        "Share",
        -10.232859093820174
      ],
      [
        "Ġfarmers",
        -10.233213033891433
      ],
      [
        "Ġsudden",
        -10.233264346083365
      ],
      [
        "site",
        -10.23344091213474
      ],
      [
        "Ġmechanical",
        -10.233990744239746
      ],
      [
        "Ġpainting",
        -10.235220490525176
      ],
      [
        "First",
        -10.235228933743496
      ],
      [
        "ĠPh",
        -10.23539171874485
      ],
      [
        "ĠLike",
        -10.23630524624274
      ],
      [
        "ĠTake",
        -10.23692130298016
      ],
      [
        "CO",
        -10.237138525010872
      ],
      [
        "Ġrough",
        -10.238825616995385
      ],
      [
        "Example",
        -10.239553009327883
      ],
      [
        "Ġborn",
        -10.240221436708625
      ],
      [
        "ĠConsider",
        -10.24148556540517
      ],
      [
        "Ġintervention",
        -10.241624328816552
      ],
      [
        "Ġspray",
        -10.241722929017891
      ],
      [
        "Ġshowing",
        -10.242098413784564
      ],
      [
        "Ġopening",
        -10.242729439425396
      ],
      [
        "dent",
        -10.244232674758551
      ],
      [
        "Ġinsert",
        -10.244920921361576
      ],
      [
        "Ġthrow",
        -10.245386120475503
      ],
      [
        "ĠKe",
        -10.245451769372073
      ],
      [
        "TR",
        -10.246074928155808
      ],
      [
        "gra",
        -10.246121343705834
      ],
      [
        "Ġwhatever",
        -10.246212247036924
      ],
      [
        "Ġnose",
        -10.246350508708538
      ],
      [
        "Ġcompetition",
        -10.247939972683078
      ],
      [
        "Ġyield",
        -10.247940175091244
      ],
      [
        "Ġcurve",
        -10.248252235042775
      ],
      [
        "Ġbread",
        -10.248516732960503
      ],
      [
        "Ġunits",
        -10.248549450311009
      ],
      [
        "gram",
        -10.24868335005711
      ],
      [
        "ĠPri",
        -10.249967016772557
      ],
      [
        "?\"",
        -10.250531294269656
      ],
      [
        "Ġprinting",
        -10.251877336443178
      ],
      [
        "Ġsufficient",
        -10.252172397591536
      ],
      [
        "Ġconversation",
        -10.252172481922385
      ],
      [
        "ĠLearn",
        -10.25271936224825
      ],
      [
        "Ġdishe",
        -10.252729593214104
      ],
      [
        "Ġcopy",
        -10.252745496979044
      ],
      [
        "Ġfilled",
        -10.253255137981578
      ],
      [
        "put",
        -10.254092411847909
      ],
      [
        "Ġneuro",
        -10.254154591263212
      ],
      [
        "Ġprofile",
        -10.254302054033705
      ],
      [
        "Ġincorporate",
        -10.254479360657877
      ],
      [
        "ĠFebruary",
        -10.254527639095814
      ],
      [
        "ĠCheck",
        -10.254772045550911
      ],
      [
        "Ġstorie",
        -10.255060577598808
      ],
      [
        "mod",
        -10.255960284050254
      ],
      [
        "-related",
        -10.256423391887097
      ],
      [
        "direct",
        -10.257001074380444
      ],
      [
        "Ġnormally",
        -10.25846692247903
      ],
      [
        "ĠEnergy",
        -10.25881185015228
      ],
      [
        "Ġcalm",
        -10.259388825752293
      ],
      [
        "Ġheater",
        -10.2595634504077
      ],
      [
        "Ġlighting",
        -10.259615322941729
      ],
      [
        "Ġexplor",
        -10.26015917872228
      ],
      [
        "Ġdestroy",
        -10.260694950906974
      ],
      [
        "Ġhistorical",
        -10.260731203390163
      ],
      [
        "position",
        -10.260970027858985
      ],
      [
        "Ġpure",
        -10.26100722625904
      ],
      [
        "Ġfloat",
        -10.2610767661645
      ],
      [
        "bul",
        -10.261404986010042
      ],
      [
        "Ġrow",
        -10.262469652857051
      ],
      [
        "Ġsilver",
        -10.26283357814755
      ],
      [
        "âĢĭ",
        -10.262836380374935
      ],
      [
        "Ġdecided",
        -10.262878578229714
      ],
      [
        "Ġappeal",
        -10.262885695357497
      ],
      [
        "Ġmistake",
        -10.262888875323862
      ],
      [
        "Ġpilot",
        -10.262916241689284
      ],
      [
        "Ġnutrition",
        -10.264126829009353
      ],
      [
        "ĠSho",
        -10.264217630638548
      ],
      [
        "dom",
        -10.264343927069229
      ],
      [
        "âĪĴ",
        -10.264981618296243
      ],
      [
        "Ġsaving",
        -10.265490524210392
      ],
      [
        "Ġwouldn",
        -10.265741495568566
      ],
      [
        "Ġconsideration",
        -10.266298117321224
      ],
      [
        "Ġcolumn",
        -10.26713015925625
      ],
      [
        "Ġaudience",
        -10.267134287881635
      ],
      [
        "Ġrecognize",
        -10.267928773994525
      ],
      [
        "Ġdust",
        -10.267986977077909
      ],
      [
        "Ġillustrate",
        -10.26845972138488
      ],
      [
        "Ġvisibl",
        -10.26879435348256
      ],
      [
        "ĠGen",
        -10.268932213978072
      ],
      [
        "UN",
        -10.269414254307264
      ],
      [
        "Ġwet",
        -10.269580771689014
      ],
      [
        "Ġbeauty",
        -10.27144912704074
      ],
      [
        "Ġcorn",
        -10.271506522441072
      ],
      [
        "Ġchair",
        -10.27151833506552
      ],
      [
        "Ġprofessionals",
        -10.271878969248409
      ],
      [
        "Ġcontrolle",
        -10.273042222899964
      ],
      [
        "test",
        -10.27310060341995
      ],
      [
        "ette",
        -10.273398594952704
      ],
      [
        "Ġminimal",
        -10.273645471842316
      ],
      [
        "ez",
        -10.273733949817595
      ],
      [
        "ĠStart",
        -10.27402596324466
      ],
      [
        "Ġupdate",
        -10.274158499638071
      ],
      [
        "Ġbug",
        -10.274394475766034
      ],
      [
        "Ġgirl",
        -10.275778931702517
      ],
      [
        "Ġcommunicate",
        -10.27686128931095
      ],
      [
        "new",
        -10.27796528088153
      ],
      [
        "Ġsector",
        -10.277981924780642
      ],
      [
        "Ġimagine",
        -10.278842311429123
      ],
      [
[...]
