{
  "version": "1.0",
  "truncation": null,
  "padding": null,
  "added_tokens": [
    {
      "id": 0,
      "content": "<|bos|>",
      "single_word": false,
      "lstrip": false,
      "rstrip": false,
      "normalized": false,
      "special": true
    },
    {
      "id": 1,
      "content": "<|user_start|>",
      "single_word": false,
      "lstrip": false,
      "rstrip": false,
      "normalized": false,
      "special": true
    },
    {
      "id": 2,
      "content": "<|user_end|>",
      "single_word": false,
      "lstrip": false,
      "rstrip": false,
      "normalized": false,
      "special": true
    },
    {
      "id": 3,
      "content": "<|assistant_start|>",
      "single_word": false,
      "lstrip": false,
      "rstrip": false,
      "normalized": false,
      "special": true
    },
    {
      "id": 4,
      "content": "<|assistant_end|>",
      "single_word": false,
      "lstrip": false,
      "rstrip": false,
      "normalized": false,
      "special": true
    },
    {
      "id": 5,
      "content": "<|python_start|>",
      "single_word": false,
      "lstrip": false,
      "rstrip": false,
      "normalized": false,
      "special": true
    },
    {
      "id": 6,
      "content": "<|python_end|>",
      "single_word": false,
      "lstrip": false,
      "rstrip": false,
      "normalized": false,
      "special": true
    },
    {
      "id": 7,
      "content": "<|output_start|>",
      "single_word": false,
      "lstrip": false,
      "rstrip": false,
      "normalized": false,
      "special": true
    },
    {
      "id": 8,
      "content": "<|output_end|>",
      "single_word": false,
      "lstrip": false,
      "rstrip": false,
      "normalized": false,
      "special": true
    },
    {
      "id": 9,
      "content": "<|unk|>",
      "single_word": false,
      "lstrip": false,
      "rstrip": false,
      "normalized": false,
      "special": true
    }
  ],
  "normalizer": null,
  "pre_tokenizer": {
    "type": "Sequence",
    "pretokenizers": [
      {
        "type": "Split",
        "pattern": {
          "Regex": "'(?i:[sdmt]|ll|ve|re)|[^\\r\\n\\p{L}\\p{N}]?+\\p{L}+|\\p{N}{1,2}| ?[^\\s\\p{L}\\p{N}]++[\\r\\n]*|\\s*[\\r\\n]|\\s+(?!\\S)|\\s+"
        },
        "behavior": "Isolated",
        "invert": false
      },
      {
        "type": "ByteLevel",
        "add_prefix_space": false,
        "trim_offsets": true,
        "use_regex": false
      }
    ]
  },
  "post_processor": {
    "type": "TemplateProcessing",
    "single": [
      {
        "Sequence": {
          "id": "A",
          "type_id": 0
        }
      }
    ],
    "pair": [
      {
        "Sequence": {
          "id": "A",
          "type_id": 0
        }
      },
      {
        "Sequence": {
          "id": "B",
          "type_id": 1
        }
      }
    ],
    "special_tokens": {}
  },
  "decoder": null,
  "model": {
    "type": "Unigram",
    "unk_id": 9,
    "vocab": [
      [
        "<|bos|>",
        0.0
      ],
      [
        "<|user_start|>",
        0.0
      ],
      [
        "<|user_end|>",
        0.0
      ],
      [
        "<|assistant_start|>",
        0.0
      ],
      [
        "<|assistant_end|>",
        0.0
      ],
      [
        "<|python_start|>",
        0.0
      ],
      [
        "<|python_end|>",
        0.0
      ],
      [
        "<|output_start|>",
        0.0
      ],
      [
        "<|output_end|>",
        0.0
      ],
      [
        "<|unk|>",
        0.0
      ],
      [
        "s",
        -3.038798324091365
      ],
      [
        "Ġ",
        -3.1335624045440778
      ],
      [
        "Ġthe",
        -3.439064898136616
      ],
      [
        ",",
        -3.488985758433497
      ],
      [
        ".",
        -3.7777061655677056
      ],
      [
        "a",
        -3.9443362925682095
      ],
      [
        "Ġand",
        -3.982611476179475
      ],
      [
        "Ġto",
        -4.025915751365396
      ],
      [
        "Ġof",
        -4.027919335156277
      ],
      [
        "ing",
        -4.409150423222568
      ],
      [
        "Ġin",
        -4.514476432723672
      ],
      [
        "Ġis",
        -4.675516886097034
      ],
      [
        "ed",
        -4.7806452502172085
      ],
      [
        "d",
        -4.915037437960795
      ],
      [
        "'",
        -4.951277787029918
      ],
      [
        "e",
        -5.043441370527782
      ],
      [
        "y",
        -5.074475466864474
      ],
      [
        "Ġthat",
        -5.075559793264597
      ],
      [
        "Ġfor",
        -5.085915731963116
      ],
      [
        "0",
        -5.086357213637136
      ],
      [
        "t",
        -5.179432269199774
      ],
      [
        "1",
        -5.197637365873582
      ],
      [
        "ly",
        -5.211754733688949
      ],
      [
        "Ġare",
        -5.266986927294791
      ],
      [
        ":",
        -5.3168544999529725
      ],
      [
        "Ġyou",
        -5.342089308812987
      ],
      [
        "Ġit",
        -5.34597183156893
      ],
      [
        ".Ċ",
        -5.375340887183869
      ],
      [
        ".ĊĊ",
        -5.387478159764866
      ],
      [
        "-",
        -5.399730380854795
      ],
      [
        "Ġwith",
        -5.428109076243956
      ],
      [
        "2",
        -5.434210961194903
      ],
      [
        "Ċ",
        -5.434519643492736
      ],
      [
        "Ġbe",
        -5.517594860579587
      ],
      [
        "Ġon",
        -5.5367321378970615
      ],
      [
        "Ġcan",
        -5.542475666654008
      ],
      [
        "Ġas",
        -5.563035816563563
      ],
      [
        "Ġor",
        -5.5687671001307635
      ],
      [
        "ĊĊ",
        -5.673065729857262
      ],
      [
        "Ġyour",
        -5.745383152771867
      ],
      [
        "Ġ(",
        -5.751544874906722
      ],
      [
        "n",
        -5.792401140873686
      ],
      [
        "\"",
        -5.872075311853825
      ],
      [
        "Ġfrom",
        -5.934252100242393
      ],
      [
        "Ġhave",
        -5.9379453310083115
      ],
      [
        "ĠThe",
        -5.9504144114250614
      ],
      [
        "ĠI",
        -5.986206213122459
      ],
      [
        "o",
        -6.0062448289414245
      ],
      [
        "Ġby",
        -6.021076631658911
      ],
      [
        "Ġan",
        -6.039033565249854
      ],
      [
        ")",
        -6.052602478390005
      ],
      [
        "3",
        -6.068072290114566
      ],
      [
        "5",
        -6.105411380615475
      ],
      [
        "Ġthis",
        -6.105749288461183
      ],
      [
        "?",
        -6.133341894407485
      ],
      [
        "Ġat",
        -6.1500183746827695
      ],
      [
        "i",
        -6.158449067848032
      ],
      [
        "Ġnot",
        -6.166489215795918
      ],
      [
        "er",
        -6.218862413032726
      ],
      [
        "Ġwill",
        -6.2500744876702825
      ],
      [
        "4",
        -6.277604127857334
      ],
      [
        "Ġtheir",
        -6.279466419352577
      ],
      [
        "r",
        -6.285130014899982
      ],
      [
        "Ġmore",
        -6.375941790986886
      ],
      [
        "Ġthey",
        -6.387491259255569
      ],
      [
        "9",
        -6.391605792202407
      ],
      [
        "Ġwas",
        -6.411312411889622
      ],
      [
        "The",
        -6.488749035040591
      ],
      [
        "Ġwe",
        -6.51393417130334
      ],
      [
        "6",
        -6.519311143235752
      ],
      [
        "Ġbut",
        -6.524076754022673
      ],
      [
        "Ġhas",
        -6.540418635162208
      ],
      [
        "Ġwhich",
        -6.550149682160674
      ],
      [
        "m",
        -6.563306197260575
      ],
      [
        "ĠA",
        -6.580411562390509
      ],
      [
        "8",
        -6.602195763796347
      ],
      [
        "Ġone",
        -6.611109116174518
      ],
      [
        "Ġalso",
        -6.632073797485905
      ],
      [
        "Question",
        -6.633405463703983
      ],
      [
        "ĠAnswer",
        -6.656521034534098
      ],
      [
        "7",
        -6.673630514361037
      ],
      [
        "ies",
        -6.67514311143581
      ],
      [
        "Ġall",
        -6.715246711988977
      ],
      [
        "Ġabout",
        -6.726686124958604
      ],
      [
        "l",
        -6.736286620383751
      ],
      [
        "A",
        -6.737287877904903
      ],
      [
        "Ġother",
        -6.747313604351117
      ],
      [
        "ĠIt",
        -6.767295162722734
      ],
      [
        "Ġwhen",
        -6.772210601197706
      ],
      [
        "al",
        -6.786010774380211
      ],
      [
        "Ġdo",
        -6.820440397216064
      ],
      [
        "Ġif",
        -6.831012993664974
      ],
      [
        "Ġtime",
        -6.833654698437561
      ],
      [
        "Ġthem",
        -6.841799971391767
      ],
      [
        "re",
        -6.845359091017913
      ],
      [
        "Ġso",
        -6.846256262343829
      ],
      [
        "Ġuse",
        -6.856833334914784
      ],
      [
        "c",
        -6.859877633557749
      ],
      [
        "Ġinto",
        -6.861861338074039
      ],
      [
        "Ġlike",
        -6.8622626885628915
      ],
      [
        "on",
        -6.875636751339485
      ],
      [
        "Ġmay",
        -6.889748841564689
      ],
      [
        "ĠThis",
        -6.906728486762296
      ],
      [
        "Ġsome",
        -6.918514777185482
      ],
      [
        "Ġup",
        -6.934349829013952
      ],
      [
        "Ġout",
        -6.959400490748516
      ],
      [
        "Ġthan",
        -6.960527141976016
      ],
      [
        "in",
        -6.967353751710798
      ],
      [
        "ĠWhat",
        -6.982195802182261
      ],
      [
        "Ġthese",
        -7.000794996495388
      ],
      [
        "Ġthere",
        -7.033074926466632
      ],
      [
        "Ġwater",
        -7.039287324893799
      ],
      [
        "ĠIn",
        -7.044977883493157
      ],
      [
        "Ġget",
        -7.04527598356375
      ],
      [
        "Ġhelp",
        -7.0466522833578935
      ],
      [
        "Ġhow",
        -7.0511032942748795
      ],
      [
        "Ġwhat",
        -7.084426696949773
      ],
      [
        "Ġused",
        -7.096430877060145
      ],
      [
        "g",
        -7.098368143575314
      ],
      [
        "Ġmost",
        -7.101064062381322
      ],
      [
        "Ġmake",
        -7.105609827974657
      ],
      [
        "able",
        -7.106797932244842
      ],
      [
        "Ġour",
        -7.108644548699475
      ],
      [
        "p",
        -7.110783198955497
      ],
      [
        "Ġwere",
        -7.1155909900081
      ],
      [
        "/",
        -7.122251571533724
      ],
      [
        "Ġsuch",
        -7.155552140742477
      ],
      [
        "Ġany",
        -7.181748977758954
      ],
      [
        "I",
        -7.214131617756646
      ],
      [
        "Ġbeen",
        -7.216552496275416
      ],
      [
        ";",
        -7.229419852556667
      ],
      [
        "Ġpeople",
        -7.232247671568773
      ],
      [
        "or",
        -7.235208518469021
      ],
      [
        "Ġnew",
        -7.240421196476866
      ],
      [
        "Ġthrough",
        -7.241585426750689
      ],
      [
        "Ġneed",
        -7.249413111488483
      ],
      [
        "Ġover",
        -7.274740977710641
      ],
      [
        "Ġwould",
        -7.285524328297219
      ],
      [
        "Ġshould",
        -7.29224945930391
      ],
      [
        "Ġonly",
        -7.309228330161055
      ],
      [
        "Ġits",
        -7.310376413448557
      ],
      [
        "b",
        -7.313140851769322
      ],
      [
        "Ġwho",
        -7.323958286731152
      ],
      [
        "Ġjust",
        -7.325972872115152
      ],
      [
        "Ġmany",
        -7.341133231330632
      ],
      [
        "Ġfirst",
        -7.345851691902407
      ],
      [
        "Ġwell",
        -7.34885254853752
      ],
      [
        "Ġwork",
        -7.35633683811597
      ],
      [
        "ĠB",
        -7.378209744522987
      ],
      [
        "Ġtwo",
        -7.392565248092815
      ],
      [
        "Ġhigh",
        -7.407138233819918
      ],
      [
        "S",
        -7.425226080459755
      ],
      [
        "f",
        -7.42724990912974
      ],
      [
        "Ġno",
        -7.429889744200905
      ],
      [
        "Ġdifferent",
        -7.438783815029211
      ],
      [
        "Ġway",
        -7.439547199007194
      ],
      [
        "Ġbetween",
        -7.440840934550312
      ],
      [
        "Ġmy",
        -7.444788066857079
      ],
      [
        "Ġsee",
        -7.447324276342442
      ],
      [
        "Ġtake",
        -7.451485139285483
      ],
      [
        "Ġwhere",
        -7.452328405151718
      ],
      [
        "is",
        -7.461793425919659
      ],
      [
        "!",
        -7.471346410559974
      ],
      [
        "ĠC",
        -7.477196677822381
      ],
      [
        "h",
        -7.480651236091033
      ],
      [
        "ic",
        -7.489147006742719
      ],
      [
        "Ġusing",
        -7.489422550309992
      ],
      [
        "?Ċ",
        -7.500978436988362
      ],
      [
        "ĠS",
        -7.521075063653978
      ],
      [
        "Ġbecause",
        -7.53107502476287
      ],
      [
        "Ġlook",
        -7.540456845895534
      ],
      [
        "ion",
        -7.542017936769192
      ],
      [
        "ĠIf",
        -7.542331092139664
      ],
      [
        "k",
        -7.548230767952328
      ],
      [
        "Ġcould",
        -7.563025895482527
      ],
      [
        "ity",
        -7.563030961138219
      ],
      [
        "Ġeven",
        -7.567858097141881
      ],
      [
        "Ġpart",
        -7.572066868943052
      ],
      [
        "ĠHow",
        -7.576580789878902
      ],
      [
        "Ġvery",
        -7.577456875613429
      ],
      [
        "Ġknow",
        -7.581727074232578
      ],
      [
        "In",
        -7.582369632987671
      ],
      [
        "Ġsystem",
        -7.5930441235835
      ],
      [
        "Ġyears",
        -7.5931088864787295
      ],
      [
        "Ġhe",
        -7.596930630041754
      ],
      [
        "ce",
        -7.599669800342676
      ],
      [
        ").",
        -7.6083967961568515
      ],
      [
        "Ġmuch",
        -7.626282760009669
      ],
      [
        "Ġgood",
        -7.626688651055932
      ],
      [
        "ve",
        -7.629613837109496
      ],
      [
        "Ġeach",
        -7.630456939722995
      ],
      [
        "u",
        -7.635785976795603
      ],
      [
        "ĠThey",
        -7.641793187482723
      ],
      [
        "Ġwant",
        -7.641811621271575
      ],
      [
        "Ġhad",
        -7.642286047464035
      ],
      [
        "ĠâĢĵ",
        -7.646289764512751
      ],
      [
        "Ġhealth",
        -7.649371199876661
      ],
      [
        "le",
        -7.654147282181473
      ],
      [
        "Ġimportant",
        -7.661267396031056
      ],
      [
        "?ĊĊ",
        -7.662873713243119
      ],
      [
        "Ġsmall",
        -7.667659745712028
      ],
      [
        "Ġhis",
        -7.669220651024375
      ],
      [
        "Ġcell",
        -7.672662879050259
      ],
      [
        "Ġwhile",
        -7.675456348426256
      ],
      [
        "ĠYou",
        -7.678731086591043
      ],
      [
        "Ġprovide",
        -7.681273409664346
      ],
      [
        "th",
        -7.690933466631604
      ],
      [
        "Ġprocess",
        -7.700013689820812
      ],
      [
        "Ġfood",
        -7.700572544887601
      ],
      [
        "Ġdoes",
        -7.703447952846973
      ],
      [
        "um",
        -7.712682591640835
      ],
      [
        "ever",
        -7.713374190201678
      ],
      [
        "Ġlong",
        -7.722321534645262
      ],
      [
        "ll",
        -7.723578289958475
      ],
      [
        "ation",
        -7.726609862220938
      ],
      [
        "x",
        -7.735817523609031
      ],
      [
        "it",
        -7.738062837208139
      ],
      [
        "ĠP",
        -7.739933629866988
      ],
      [
        "Ġdesign",
        -7.740256842327787
      ],
      [
        "Ġdon",
        -7.7410727317133805
      ],
      [
        "Ġafter",
        -7.751308136962214
      ],
      [
        "Ġthing",
        -7.754985398291879
      ],
      [
        "us",
        -7.762377179229452
      ],
      [
        "ers",
        -7.762947419121081
      ],
      [
        "Ġinclude",
        -7.763229321855539
      ],
      [
        "an",
        -7.76355501067615
      ],
      [
        "Ġworld",
        -7.763983239532207
      ],
      [
        "Ġlight",
        -7.770841581331913
      ],
      [
        "Ġenergy",
        -7.775205633269229
      ],
      [
        "Ġbefore",
        -7.777106705722542
      ],
      [
        "B",
        -7.77798821051042
      ],
      [
        "Ġaround",
        -7.788051662778587
      ],
      [
        "Ġcome",
        -7.792066870070258
      ],
      [
        "Ġallow",
        -7.798163984041606
      ],
      [
        "Ġduring",
        -7.807713454310603
      ],
      [
        "Ġsame",
        -7.815168597026901
      ],
      [
        "made",
        -7.818351184325456
      ],
      [
        "Ġdown",
        -7.822071732067226
      ],
      [
        "%",
        -7.822602860949251
      ],
      [
        "Ġcreate",
        -7.827420528928483
      ],
      [
        "Ġlife",
        -7.831925279670079
      ],
      [
        "Ġbody",
        -7.834432123084675
      ],
      [
        "w",
        -7.841031891214511
      ],
      [
        "Ġbeing",
        -7.845973223203542
      ],
      [
        "Ġthose",
        -7.852653779693504
      ],
      [
        "D",
        -7.854311867441792
      ],
      [
        "Ġkeep",
        -7.854646623040505
      ],
      [
        "),",
        -7.85764795784144
      ],
      [
        "Ġplace",
        -7.873962228140067
      ],
      [
        "Ġfound",
        -7.877933804900927
      ],
      [
        "Ġreal",
        -7.878818947700401
      ],
      [
        "Ġcause",
        -7.886180397654561
      ],
      [
        "Ġback",
        -7.888901494594116
      ],
      [
        "Ġdata",
        -7.889424612152467
      ],
      [
        "ĠWe",
        -7.889555617822239
      ],
      [
        "Ġright",
        -7.890310218792099
      ],
      [
        "Ġfind",
        -7.891508898284574
      ],
      [
        "Ġoften",
        -7.892928369035964
      ],
      [
        "C",
        -7.898389601935053
      ],
      [
        "Ġboth",
        -7.899539955019886
      ],
      [
        "Ġbest",
        -7.902247548658233
      ],
      [
        "Ġthink",
        -7.91140373490566
      ],
      [
        "What",
        -7.913593082373094
      ],
      [
        "Ġyear",
        -7.918604451924203
      ],
      [
        "Ġgreat",
        -7.926351536333936
      ],
      [
        "ĠFor",
        -7.927058750615315
      ],
      [
        "Ġday",
        -7.9321850002694525
      ],
      [
        "Ġun",
        -7.933628553986651
      ],
      [
        "Ġcommon",
        -7.93904004004966
      ],
      [
        "Ġnumber",
        -7.942995700100152
      ],
      [
        "Ġgo",
        -7.949222792241823
      ],
      [
        "Ġinformation",
        -7.949794743462313
      ],
      [
        "Ġstudy",
        -7.957714994062835
      ],
      [
        "Ġhome",
        -7.95965011295927
      ],
      [
        "Ġpower",
        -7.96031883743435
      ],
      [
        "and",
        -7.964583110971587
      ],
      [
        "(",
        -7.9653805096486
      ],
      [
        "Ġchange",
        -7.965781245627795
      ],
      [
        "ive",
        -7.966994219197037
      ],
      [
        "Ġcolor",
        -7.976788165780675
      ],
      [
        "T",
        -7.984308237510803
      ],
      [
        "ĠD",
        -7.99275755578925
      ],
      [
        "Ġdevelop",
        -7.994287999365273
      ],
      [
        "Ġus",
        -7.994935433547651
      ],
      [
        "How",
        -8.00214769552952
      ],
      [
        "ĠM",
        -8.003983779346223
      ],
      [
        "ability",
        -8.005889331694464
      ],
      [
        ":Ċ",
        -8.009555953282401
      ],
      [
        "Ġme",
        -8.010367931864845
      ],
      [
        "Ġmight",
        -8.012287355422613
      ],
      [
        "ĠTo",
        -8.012948345569612
      ],
      [
        "Ġshow",
        -8.020039154081063
      ],
      [
        "Ġlead",
        -8.022007227030466
      ],
      [
        "Ġplant",
        -8.023015880247426
      ],
      [
        "Ġresearch",
        -8.023390463528042
      ],
      [
        "Ġanimal",
        -8.027740422558962
      ],
      [
        "Ġsaid",
        -8.032317958543361
      ],
      [
        "Ġevery",
        -8.034491299159573
      ],
      [
        "ness",
        -8.035581126096893
      ],
      [
        "Ġown",
        -8.039310411676924
      ],
      [
        "Ġlarge",
        -8.041821057841672
      ],
      [
        "Ġoff",
        -8.04332516295514
      ],
      [
        "ĠThese",
        -8.048494003977126
      ],
      [
        "This",
        -8.04870190259171
      ],
      [
        "Ġsupport",
        -8.048864776434238
      ],
      [
        "Ġher",
        -8.053087437610097
      ],
      [
        "v",
        -8.05433880192079
      ],
      [
        "Ġbetter",
        -8.054851951804048
      ],
      [
        "Ġnow",
        -8.057476696861803
      ],
      [
        "Ġheat",
        -8.063022942011058
      ],
      [
        "Ġair",
        -8.064278389429695
      ],
      [
        "Ġbecome",
        -8.0651529883499
      ],
      [
        "Ġform",
        -8.071451252778006
      ],
      [
        "Ġgrow",
        -8.072795652324738
      ],
      [
        "Ġconsider",
        -8.076642611541606
      ],
      [
        "If",
        -8.078582344415306
      ],
      [
        "Ġfew",
        -8.08217790629597
      ],
      [
        "Ġexample",
        -8.08511493603168
      ],
      [
        "Ġwithout",
        -8.091146870521355
      ],
      [
        "P",
        -8.093648944700604
      ],
      [
        "Ġsize",
        -8.094099711979045
      ],
      [
        "Ġstudents",
        -8.094150033608068
      ],
      [
        "...",
        -8.096181571077585
      ],
      [
        "Ġend",
        -8.101740279655122
      ],
      [
        "ĠE",
        -8.103293432367623
      ],
      [
        "Ġincrease",
        -8.104064998528031
      ],
      [
        "Ġtype",
        -8.10993631401779
      ],
      [
        "Ġstill",
        -8.115238304984898
      ],
      [
        "Ġmaking",
        -8.118358353301742
      ],
      [
        "Ġincluding",
        -8.119681058349958
      ],
      [
        "It",
        -8.120045677520656
      ],
      [
        "Ġunder",
        -8.122036764679839
      ],
      [
        "Ġcase",
        -8.123217833592046
      ],
      [
        ":ĊĊ",
        -8.125128708653596
      ],
      [
        "Ġexperience",
        -8.128292932367676
      ],
      [
        "ĠT",
        -8.135221754503778
      ],
      [
        "Ġissue",
        -8.139475188532863
      ],
      [
        "Ġspecies",
        -8.140345800486537
      ],
      [
        "Ġhuman",
        -8.142707434924588
      ],
      [
        "Ġgroup",
        -8.147009573416982
      ],
      [
        "ment",
        -8.14927578554417
      ],
      [
        "Ġadd",
        -8.149657161049005
      ],
      [
        "Ġeffect",
        -8.154338921229177
      ],
      [
        "Ġresult",
        -8.160995099996544
      ],
      [
        "Ġless",
        -8.163317733418646
      ],
      [
        "ĠF",
        -8.163885016799908
      ],
      [
        "F",
        -8.165585978522124
      ],
      [
        "ĠG",
        -8.173188419248405
      ],
      [
        "Ġchildren",
        -8.173623802865372
      ],
      [
        "ĠBut",
        -8.176909317528382
      ],
      [
        "Ġbase",
        -8.181207587829581
      ],
      [
        "Ġpoint",
        -8.187681671995076
      ],
      [
        "Ġlot",
        -8.188415290549877
      ],
      [
        "ĠSo",
        -8.19213009920867
      ],
      [
        "Ġthree",
        -8.193386473053607
      ],
      [
        "Ġper",
        -8.195549404644048
      ],
      [
        "G",
        -8.195683494220335
      ],
      [
        "ĠAnd",
        -8.198308601787533
      ],
      [
        "Ġdog",
        -8.204030066389675
      ],
      [
        "Ġcontrol",
        -8.20440615921402
      ],
      [
        "Ġgive",
        -8.209689835071451
      ],
      [
        "Ġcost",
        -8.216408754250336
      ],
      [
        "Ġsure",
        -8.220473594555978
      ],
      [
        "Ġwithin",
        -8.2214537793534
      ],
      [
        "Ġoffer",
        -8.228757388849846
      ],
      [
        "Ġcalled",
        -8.231076224433057
      ],
      [
        "ar",
        -8.232655281476402
      ],
      [
        "Ġindividual",
        -8.235980867137442
      ],
      [
        "ĠH",
        -8.238490017473735
      ],
      [
        "less",
        -8.238620610059202
      ],
      [
        "Ġmain",
        -8.243393478777378
      ],
      [
        "ĠR",
        -8.244323966644062
      ],
      [
        "Ġfish",
        -8.244407376902558
      ],
      [
        "Ġquestion",
        -8.248156435439162
      ],
      [
        "Ġcar",
        -8.248552123201497
      ],
      [
        "known",
        -8.251532111348222
      ],
      [
        "Ġschool",
        -8.253625446073624
      ],
      [
        "Ġset",
        -8.258678910095899
      ],
      [
        "Ġplay",
        -8.263464430165437
      ],
      [
        "Ġsomething",
        -8.264922367201788
      ],
      [
        "Ġwhy",
        -8.274569884367555
      ],
      [
        "Ġmust",
        -8.27718366503383
      ],
      [
        "Ġreduce",
        -8.277359178416631
      ],
      [
        "Ġlearn",
        -8.27947890478839
      ],
      [
        "Ġre",
        -8.281282458285066
      ],
      [
        "Ġplants",
        -8.281543754679838
      ],
      [
        "Ġfield",
        -8.281992596231838
      ],
      [
        "Ġhard",
        -8.282518074030309
      ],
      [
        "to",
        -8.290240370686819
      ],
      [
        "Ġensure",
        -8.291528065760618
      ],
      [
        "Ġsource",
        -8.29454533707767
      ],
      [
        "Ġfactor",
        -8.303335924800724
      ],
      [
        "Ġspecific",
        -8.30489863409799
      ],
      [
        "Ġtemperature",
        -8.305405012975996
      ],
      [
        "Ġblood",
        -8.312628840101624
      ],
      [
        "Ġgoing",
        -8.313916976009784
      ],
      [
        "ry",
        -8.315621764789848
      ],
      [
        "ĠWhen",
        -8.319997010662552
      ],
      [
        "Ġfollowing",
        -8.323337602013336
      ],
      [
        "Ġlevel",
        -8.324928826386856
      ],
      [
        "ĠN",
        -8.32713285679544
      ],
      [
        "Ġdue",
        -8.334774995491767
      ],
      [
        "Ġline",
        -8.337361719648758
      ],
      [
        "the",
        -8.340140556717344
      ],
      [
        "Ġhere",
        -8.342882803674478
      ],
      [
        "Ġstart",
        -8.347081508024306
      ],
      [
        "Ġdevice",
        -8.347494076530852
      ],
      [
        "Ġamount",
        -8.349767883424894
      ],
      [
        "Ġlow",
        -8.3522304550986
      ],
      [
        "ĠThere",
        -8.353938340153364
      ],
      [
        "Ġimpact",
        -8.36261228843683
      ],
      [
        "Ġspace",
        -8.362755294891489
      ],
      [
        "Ġvarious",
        -8.363662436190326
      ],
      [
        "Ġpossible",
        -8.36368150396721
      ],
      [
        "Ġcare",
        -8.36501669733539
      ],
      [
        "Ġprevent",
        -8.370036065369176
      ],
      [
        "Ġsignificant",
        -8.372658215982383
      ],
      [
        "Ġanother",
        -8.375372944630918
      ],
      [
        "Ġmeans",
        -8.378596380547538
      ],
      [
        "Ġeffective",
        -8.386842602660407
      ],
      [
        "Ġnatural",
        -8.389145889190747
      ],
      [
        "Ġshe",
        -8.389153259942201
      ],
      [
        "ally",
        -8.390874408066779
      ],
      [
        "M",
        -8.390966591395262
      ],
      [
        "]",
        -8.393473390628415
      ],
      [
        "Ġtreatment",
        -8.395687423907336
      ],
      [
        "Ġrequire",
        -8.39635391134176
      ],
      [
        "Ġrange",
        -8.398269834649625
      ],
      [
        "Ġpotential",
        -8.40077315386674
      ],
      [
        "Ġalways",
        -8.401122230484061
      ],
      [
        "Ġstate",
        -8.401856594825853
      ],
      [
        "E",
        -8.404373078182857
      ],
      [
        "Ġsecond",
        -8.404894806627377
      ],
      [
        "ther",
        -8.404985837177188
      ],
      [
        "Ġlittle",
        -8.406172359658376
      ],
      [
        "Ġfeel",
        -8.406834216400945
      ],
      [
        "ĠHe",
        -8.41354234779699
      ],
      [
        "Ġdid",
        -8.413735633719682
      ],
      [
        "Ġgeneral",
        -8.415327818872612
      ],
      [
        "out",
        -8.418632396873907
      ],
      [
        "Ġdevelopment",
        -8.428305745183067
      ],
      [
        "Ġde",
        -8.429604439817881
      ],
      [
        "ch",
        -8.43077076565794
      ],
      [
        "Ġenvironment",
        -8.431747264140512
      ],
      [
        "Ġactual",
        -8.43203394064538
      ],
      [
        "Ġlast",
        -8.43383413210649
      ],
      [
        "Ġmaterial",
        -8.435091898776493
      ],
      [
        "age",
        -8.440817232165767
      ],
      [
        "N",
        -8.44669249543437
      ],
      [
        "Ġorder",
        -8.45143807312538
      ],
      [
        "V",
        -8.452990141834453
      ],
      [
        "Ġcontain",
        -8.454716486809033
      ],
      [
        "ĠWhich",
        -8.455511210370627
      ],
      [
        "Ġrisk",
        -8.455528472747355
      ],
      [
        "est",
        -8.455802282724502
      ],
      [
        "Ġreason",
        -8.457920504331957
      ],
      [
        "Ġtest",
        -8.459804757320411
      ],
      [
        ",\"",
        -8.460504590996852
      ],
      [
        "H",
        -8.462991512020409
      ],
      [
        "Ġavailable",
        -8.463778863600329
      ],
      [
        "Ġcomplete",
        -8.466428286220244
      ],
      [
        "Ġproblem",
        -8.467582121727713
      ],
      [
        "Ġdays",
        -8.467843245882655
      ],
      [
        "ĠV",
        -8.470206433220937
      ],
      [
        "Ġside",
        -8.473543223851149
      ],
      [
        "Ġdisease",
        -8.474122914597583
      ],
      [
        "Ġweek",
        -8.47626572727922
      ],
      [
        "Ġquality",
        -8.476896082496406
      ],
      [
        "Ġcurrent",
        -8.481472730311394
      ],
      [
        "Ġidea",
        -8.48248961272203
      ],
      [
        "Ġopen",
        -8.484308426936254
      ],
      [
        "Ġleave",
        -8.484922711590652
      ],
      [
        "Ġsurface",
        -8.485954018670666
      ],
      [
        "Ġseveral",
        -8.487819296209612
      ],
      [
        "Ġenough",
        -8.4880213690953
      ],
      [
        "ĠU",
        -8.488349337316997
      ],
      [
        "Ġsoil",
        -8.49315678026911
      ],
      [
        "Ġlive",
        -8.493789941442836
      ],
      [
        "Ġcourse",
        -8.494728010743096
      ],
      [
        "Ġage",
        -8.49615818563095
      ],
      [
        "Ġ[",
        -8.49967621911361
      ],
      [
        "be",
        -8.500841032970897
      ],
      [
        "Ġimprove",
        -8.501037126693227
      ],
      [
        "Ġtypes",
        -8.50164268025074
      ],
      [
        "Ġessential",
        -8.501653740632191
      ],
      [
        "Ġcertain",
        -8.502105658622753
      ],
      [
        "Ġhand",
        -8.507276081476007
      ],
      [
        "Ġareas",
        -8.50961903820675
      ],
      [
        "Ġunderstand",
        -8.510886003585142
      ],
      [
        "Ġusually",
        -8.511144693084422
      ],
      [
        "Ġapplication",
        -8.51150448116162
      ],
      [
        "Ġlearning",
        -8.514327915888906
      ],
      [
        "Ġfunction",
        -8.515946035030478
      ],
      [
        "Ġ$",
        -8.516508653337828
      ],
      [
        "Ġlocal",
        -8.517454579162045
      ],
      [
        "ĠAs",
        -8.519915643158326
      ],
      [
        "Ġdamage",
        -8.520322430938737
      ],
      [
        "K",
        -8.520475343620255
      ],
      [
        "Ġtechnology",
        -8.52279412221967
      ],
      [
        "Ġneeds",
        -8.530793300787604
      ],
      [
        "Ġ&",
        -8.53295585753414
      ],
      [
        "When",
        -8.534581152804526
      ],
      [
        "R",
        -8.54065057524664
      ],
      [
        "Ġmean",
        -8.543904461811906
      ],
      [
        "Ġname",
        -8.544804297351206
      ],
      [
        "Ġfree",
        -8.546826907479465
      ],
      [
        "Ġstructure",
        -8.547854193778553
      ],
      [
        "Ġuntil",
        -8.548203028624382
      ],
      [
        "Ġteam",
        -8.5492244593708
      ],
      [
        "*",
        -8.5493101178353
      ],
      [
        "Ġtext",
        -8.551000625438565
      ],
      [
        "Ġperson",
        -8.551970097653774
      ],
      [
        "W",
        -8.566513547967
      ],
      [
        "Ġkey",
        -8.566907022246319
      ],
      [
        "Ġsay",
        -8.567644562121021
      ],
      [
        "Ġtogether",
        -8.567888717879237
      ],
      [
        "Ġconditions",
        -8.569017222499955
      ],
      [
        "Ġnon",
        -8.569789287286888
      ],
      [
        "Ġsince",
        -8.57089408325966
      ],
      [
        "ĠW",
        -8.572263303546475
      ],
      [
        "Ġprotein",
        -8.575245246090518
      ],
      [
        "We",
        -8.576536596976702
      ],
      [
        "Ġpressure",
        -8.577593885718755
      ],
      [
        "Ġcreat",
        -8.578356384029892
      ],
      [
        "Ġparticular",
        -8.580246488989424
      ],
      [
        "Ġtechnique",
        -8.581191532936156
      ],
      [
        "ur",
        -8.585381968505406
      ],
      [
        "Ġfull",
        -8.585662393557918
      ],
      [
        "Ġrate",
        -8.585827381119202
      ],
      [
        "Ġmaintain",
        -8.586831423878428
      ],
      [
        "Ġwhite",
        -8.587541161433915
      ],
      [
        "ish",
        -8.58958359403174
      ],
      [
        "Ġproducts",
        -8.590996111026335
      ],
      [
        "Ġmaterials",
        -8.594173843204462
      ],
      [
        "Ġnext",
        -8.594576683817497
      ],
      [
        "having",
        -8.595083264019447
      ],
      [
        "Ġarea",
        -8.596095947094158
      ],
      [
        "Ġput",
        -8.597305965919052
      ],
      [
        "Ġlower",
        -8.598731596158313
      ],
      [
        "You",
        -8.599484692129828
      ],
      [
        "Ġaway",
        -8.600145050362215
      ],
      [
        "Ġaccess",
        -8.600366758347304
      ],
      [
        "Ġ=",
        -8.600673399637442
      ],
      [
        "Ġvalue",
        -8.601146293153768
      ],
      [
        "ĠBy",
        -8.602781549849585
      ],
      [
        "Ġanswer",
        -8.60467041503875
      ],
      [
        "Ġweight",
        -8.607272162729203
      ],
      [
        "Ġtop",
        -8.610652507314928
      ],
      [
        "Ġpresent",
        -8.611041068259196
      ],
      [
        "Ġmonth",
        -8.611788417499337
      ],
      [
        "Ġagain",
        -8.61319777920729
      ],
      [
        "Ġmethod",
        -8.613847574112395
      ],
      [
        "Ġeye",
        -8.61506516741317
      ],
      [
        "Ġmarket",
        -8.616712273516416
      ],
      [
        "ĠRe",
        -8.616901491487159
      ],
      [
        "Ġfamily",
        -8.617004072540478
      ],
      [
        "ĠThat",
        -8.617194773561767
      ],
      [
        "Ġstrong",
        -8.617826513474913
      ],
      [
        "Ġrole",
        -8.621100576008052
      ],
      [
        "Ġcheck",
        -8.62218832184829
      ],
      [
        "Ġresults",
        -8.62268703441909
      ],
      [
        "Ġdirect",
        -8.622901803153798
      ],
      [
        "ĠK",
        -8.623572620906966
      ],
      [
        "Ġmodel",
        -8.624537078298923
      ],
      [
        "ĠO",
        -8.6248847136511
      ],
      [
        "Ġfocus",
        -8.626919559863884
      ],
      [
        "âĢĵ",
        -8.628513900267013
      ],
      [
        "Ġdiet",
        -8.631287478740868
      ],
      [
        "Ġpaper",
        -8.632963100781389
      ],
      [
        "ary",
        -8.637301672933676
      ],
      [
        "Ġsimple",
        -8.639137635719102
      ],
      [
        "Ġbook",
        -8.63995294582078
      ],
      [
        "Ġgame",
        -8.643284225896794
      ],
      [
        "Ġvariet",
        -8.643359075138164
      ],
      [
        "Ġmakes",
        -8.64342693006632
      ],
      [
        "Ġhealthy",
        -8.644615978309353
      ],
      [
        "ĠUniversity",
        -8.645408646243204
      ],
      [
        "Ġsystems",
        -8.645722835446541
      ],
      [
        "ul",
        -8.647377882737956
      ],
      [
        "Ġclean",
        -8.652339448264744
      ],
      [
        "Ġcomputer",
        -8.652534670816204
      ],
      [
        "Ġeasy",
        -8.65522398149659
      ],
      [
        "Ġalong",
        -8.655437230110289
      ],
      [
        "Ġlikely",
        -8.659381931800578
      ],
      [
        "Ġshort",
        -8.659545535532217
      ],
      [
        "Ġwide",
        -8.66185881219767
      ],
      [
        "Ġturn",
        -8.664045998745202
      ],
      [
        "Ġavoid",
        -8.664576850202666
      ],
      [
        "Ġlet",
        -8.669016131888766
      ],
      [
        "Ġproject",
        -8.66957055281783
      ],
      [
        "ĠL",
        -8.671619487002761
      ],
      [
        "Ġoil",
        -8.67229901973473
      ],
      [
        "Ġdoesn",
        -8.674893156171592
      ],
      [
        "Ġprotect",
        -8.675122223617464
      ],
      [
        "Ġsimilar",
        -8.684464785206377
      ],
      [
        "Ġseem",
        -8.68580952645187
      ],
      [
        "early",
        -8.687399028026078
      ],
      [
        "self",
        -8.688241541178066
      ],
      [
        "Ġsafe",
        -8.689207388325705
      ],
      [
        "Ġmove",
        -8.689211879768738
      ],
      [
        "Ġlevels",
        -8.689628793543093
      ],
      [
        "Ġdepend",
        -8.689997906191884
      ],
      [
        "man",
        -8.690737389478294
      ],
      [
        "There",
        -8.691052466285754
      ],
      [
        "To",
        -8.69399919098004
      ],
      [
        "Ġperiod",
        -8.694080938231831
      ],
      [
        "ten",
        -8.695186789898138
      ],
      [
        "Ġtypical",
        -8.697589891912768
      ],
      [
        "Ġworking",
        -8.699982320396224
      ],
      [
        "Ġleast",
        -8.701662016294813
      ],
      [
        "Ġrun",
        -8.702461911621832
      ],
      [
        "Ġplan",
        -8.70400897818622
      ],
      [
        "ance",
        -8.704428673831679
      ],
      [
        "Ġhead",
        -8.706081366275665
      ],
      [
        "Ġarticle",
        -8.706530489559391
      ],
      [
        "Ġunique",
        -8.707525416828295
      ],
      [
        "Ġphysical",
        -8.707972975147088
      ],
      [
        "Ġproduction",
        -8.708105833841207
      ],
      [
        "higher",
        -8.708278925652575
      ],
      [
        "_",
        -8.708769555047706
      ],
      [
        "Ġlimit",
        -8.70919334478236
      ],
      [
        "Ġchanges",
        -8.711639736247372
      ],
      [
        "Ġdone",
        -8.712183796828242
      ],
      [
        "Ġfast",
        -8.714472088191929
      ],
      [
        "ter",
        -8.714520254745704
      ],
      [
        "Ġproblems",
        -8.71575210518348
      ],
      [
        "ent",
        -8.71624601211975
      ],
      [
        "Ġsocial",
        -8.716335626874505
      ],
      [
        "Ġgrowth",
        -8.716929145530969
      ],
      [
        "âĢĶ",
        -8.717685572583104
      ],
      [
        "not",
        -8.71814197660516
      ],
      [
        "Ġpopulation",
        -8.719716274810912
      ],
      [
        "Ġaccording",
        -8.71986805255763
      ],
      [
        "Ġprofessional",
        -8.723403018031538
      ],
      [
        "Ġgas",
        -8.72748002927834
      ],
      [
        "stead",
        -8.727558644545397
      ],
      [
        "Ġgiven",
        -8.728351982282554
      ],
      [
        "Ġclear",
        -8.728642024025401
      ],
      [
        "Ġnever",
        -8.729565678077632
      ],
      [
        "âĢĻs",
        -8.730737000919566
      ],
      [
        "Ġchild",
        -8.732126166375663
      ],
      [
        "Ġespecially",
        -8.73234355674553
      ],
      [
        "Ġeat",
        -8.733955019791743
      ],
      [
        "Ġproduct",
        -8.733976246808382
      ],
      [
        "Ġunit",
        -8.734803928546828
      ],
      [
        "For",
        -8.735148247841437
      ],
      [
        "Ġskin",
        -8.739304958824224
      ],
      [
        "Ġtreat",
        -8.741962669715452
      ],
      [
        "Ġground",
        -8.74197776194167
      ],
      [
        "Ġprogram",
        -8.742426219119142
      ],
      [
        "Ġsuggest",
        -8.742643898340535
      ],
      [
        "z",
        -8.743119037856932
      ],
      [
        "Ġdifficult",
        -8.743154717327617
      ],
      [
        "Ġsingle",
        -8.745371788061112
      ],
      [
        "Ġflow",
        -8.745573019380286
      ],
      [
        "Ġcontinue",
        -8.745945843751617
      ],
      [
        "Ġmachine",
        -8.748471084003302
      ],
      [
        "Ġstep",
        -8.74916081478309
      ],
      [
        "across",
        -8.750391765580623
      ],
      [
        "ĠWith",
        -8.753289028271539
      ],
      [
        "Ġask",
        -8.7535548585665
      ],
      [
        "Ġdogs",
        -8.755583759827655
      ],
      [
        "Ġbusiness",
        -8.755927738400018
      ],
      [
        "Ġposition",
        -8.756670505979901
      ],
      [
        "Ġbuilding",
        -8.758536657142493
      ],
      [
        "Ġold",
        -8.759535493506188
      ],
      [
        "Ġpost",
        -8.759830388526225
      ],
      [
        "Ġstore",
        -8.76049499387257
      ],
      [
        "!Ċ",
        -8.763025288841963
      ],
      [
        "ĠAn",
        -8.766666037981244
      ],
      [
        "âĢĻ",
        -8.770901987159583
      ],
      [
        "Ġfuture",
        -8.774596720388821
      ],
      [
        "Ġtimes",
        -8.775018604195019
      ],
      [
        "Ġlove",
        -8.776599796737
      ],
      [
        "Ġfact",
        -8.778388212386545
      ],
      [
        "Ġgarden",
        -8.778672985211436
      ],
      [
        "Ġclimate",
        -8.778762303954359
      ],
      [
        "Ġabove",
        -8.780348760331343
      ],
      [
        "Ġbit",
        -8.7806027259885
      ],
      [
        "Ġclose",
        -8.781230243321373
      ],
      [
        "Ġheart",
        -8.782320217658757
      ],
      [
        "Ġwhe",
        -8.784383352049176
      ],
      [
        "Ġfar",
        -8.78462110571487
      ],
      [
        "Ġamong",
        -8.788291804402235
      ],
      [
        "Ġdifference",
        -8.789147452366372
      ],
      [
        "ous",
        -8.79086895911797
      ],
      [
        "Ġbasic",
        -8.794491524424567
      ],
      [
        "ĠJ",
        -8.797620276691742
      ],
      [
        "Ġregular",
        -8.798228199946367
      ],
      [
        "Ġbenefits",
        -8.798446718211704
      ],
      [
        "ves",
        -8.798700741745055
      ],
      [
        "Ġdeep",
        -8.79974632140746
      ],
      [
        "ĠNo",
        -8.80021192567163
      ],
      [
        "Ġcontent",
        -8.800845081735282
      ],
      [
        "Ġsign",
        -8.802780331717521
      ],
      [
        "Ġcomponent",
        -8.803892468887208
      ],
      [
        "Ġtry",
        -8.806322104050317
      ],
      [
        "Ġcat",
        -8.806333236172229
      ],
      [
        "Ġimage",
        -8.810362752956113
      ],
      [
        "Ġresearcher",
        -8.811057374168092
      ],
      [
        "Ġdetermine",
        -8.811864594140285
      ],
      [
        "O",
        -8.813925298474171
      ],
      [
        ")ĊĊ",
        -8.814860498279923
      ],
      [
        "ĠNew",
        -8.816544112078823
      ],
      [
        "Ġenjoy",
        -8.816691211723981
      ],
      [
        "Ġlayer",
        -8.81704102860051
      ],
      [
        "Ġsun",
        -8.81814408731036
      ],
      [
        "Ġchemical",
        -8.81863120547214
      ],
      [
        "Ġmatter",
        -8.818928075828087
      ],
      [
        "Ġscience",
        -8.820219764652624
      ],
      [
        "Ġtoday",
        -8.82146641315631
      ],
      [
        "ĠSome",
        -8.822610801469748
      ],
      [
        "Ġcompare",
        -8.822750727871844
      ],
      [
        "Ġwarm",
        -8.82278812837546
      ],
      [
        "Ġinterest",
        -8.823362791130531
      ],
      [
        "Ġproduce",
        -8.823465950858491
      ],
      [
        "Ġmajor",
        -8.825929179266215
      ],
      [
        "Ġfour",
        -8.826244469725316
      ],
      [
        "Ġtraining",
        -8.827398250750988
      ],
      [
        "Ġremove",
        -8.828370914248687
      ],
      [
        "Ġbring",
        -8.828485031557637
      ],
      [
        "Ġsound",
        -8.830897569533438
      ],
      [
        "Ġcondition",
        -8.83096944181513
      ],
      [
        "Ġpopular",
        -8.83370723964254
      ],
      [
        "Ġbrain",
        -8.83435818934544
      ],
      [
        "ĠOn",
        -8.835001426981275
      ],
      [
        "Ġpattern",
        -8.836686576218986
      ],
      [
        "one",
        -8.837569080500403
      ],
      [
        "ism",
        -8.838380373361256
      ],
      [
        "Ġread",
        -8.839049911996224
      ],
      [
        "Ġsignal",
        -8.84056605803364
      ],
      [
        "Ġengine",
        -8.842548694351251
      ],
      [
        "Ġcancer",
        -8.845302774628925
      ],
      [
        "Ġperformance",
        -8.845545485980395
      ],
      [
        "Ġaddition",
        -8.846298355670953
      ],
      [
        "Ġpiece",
        -8.847182752731788
      ],
      [
        ")Ċ",
        -8.847247928136849
      ],
      [
        "Ġhim",
        -8.848015557626747
      ],
      [
        "ĠYour",
        -8.84858923954304
      ],
      [
        "Ġbig",
        -8.848831209126267
      ],
      [
        "Ġcover",
        -8.850056205334802
      ],
      [
        "Ġcorrect",
        -8.8512826260742
      ],
      [
        "Ġperform",
        -8.851421803941854
      ],
      [
        "Ġbatter",
        -8.852154147540393
      ],
      [
        "Ġregion",
        -8.853363748600731
      ],
      [
        "Ġseed",
        -8.853570069355428
      ],
      [
        "Ġrecent",
        -8.856742648535977
      ],
      [
        "ĠâĢĶ",
        -8.857703293791388
      ],
      [
        "Ġmillion",
        -8.857864309725418
      ],
      [
        "Ġstudie",
        -8.859367022975302
      ],
      [
        "Ġleft",
        -8.859888537673527
      ],
      [
        "\"ĊĊ",
        -8.860260208776886
      ],
      [
        "Ġbelow",
        -8.861849984665835
      ],
      [
        "Ġcarbon",
        -8.8623886416051
      ],
      [
        "Ġnormal",
        -8.865024515217037
      ],
      [
        "Ġunderstanding",
        -8.870587510395097
      ],
      [
        "Ġinside",
        -8.87419075474467
      ],
      [
        "Ġfurther",
        -8.875578788029053
      ],
      [
        "Ġcold",
        -8.879797819503164
      ],
      [
        "Ġparent",
        -8.880460472882202
      ],
      [
        "Ġchoice",
        -8.880734877461844
      ],
      [
        "Ġeither",
        -8.880796348371447
      ],
      [
        "if",
        -8.881952425964837
      ],
      [
        "Ġam",
        -8.882210549967002
      ],
      [
        "Ġchallenge",
        -8.883057791751025
      ],
      [
        "Ġbuild",
        -8.884373925340146
      ],
      [
        "ant",
        -8.88812560318067
      ],
      [
        "Ġaffect",
        -8.888739166483525
      ],
      [
        "Ġmind",
        -8.890538874828843
      ],
      [
        "Ġsays",
        -8.893008353989844
      ],
      [
        "Ġskills",
        -8.893395064764665
      ],
      [
        "Ġnecessary",
        -8.893613776195465
      ],
      [
        "Ġtoward",
        -8.894592598203893
      ],
      [
        "Ġgreen",
        -8.897224279636704
      ],
      [
        "Ġloss",
        -8.897998229432385
      ],
      [
        "Ġtalk",
        -8.898287420472279
      ],
      [
        "Ġnear",
        -8.898779680829852
      ],
      [
        "Ġred",
        -8.899517614626978
      ],
      [
        "im",
        -8.89976842268798
      ],
      [
        "ian",
        -8.904225949149318
      ],
      [
        "Ġgenetic",
        -8.905169308412123
      ],
      [
        "Ġyoung",
        -8.905458817292734
      ],
      [
        "Ġblack",
        -8.905500674391327
      ],
      [
        "tic",
        -8.909142779594024
      ],
      [
        "Ġreach",
        -8.910142069551016
      ],
      [
        "\\",
        -8.910302586332465
      ],
      [
        "Ġtotal",
        -8.911631957579058
      ],
      [
        "ate",
        -8.911764273009098
      ],
      [
        "Ġcall",
        -8.912865277740279
      ],
      [
        "Ġcompany",
        -8.913169389847958
      ],
      [
        "mm",
        -8.9152492675818
      ],
      [
        "Ġspeed",
        -8.915313639897143
      ],
      [
        "Ġfeatures",
        -8.915935665682813
      ],
      [
        "âĢ¦",
        -8.916194674025995
      ],
      [
        "Ġapproach",
        -8.916788214145054
      ],
      [
        "Ġreport",
        -8.917184413446632
      ],
      [
        "Ġdry",
        -8.917600793417025
      ],
      [
        "Ġindustry",
        -8.918534337219896
      ],
      [
        "already",
        -8.91894307485962
      ],
      [
        "Ġpre",
        -8.919052247116653
      ],
      [
        "Ġappear",
        -8.919539636603137
      ],
      [
        "Ġtell",
        -8.920092347096968
      ],
      [
        "Ġhours",
        -8.92017147941452
      ],
      [
        "Ġpurpose",
        -8.922197125123779
      ],
      [
        "Ġflower",
        -8.92399379283423
      ],
      [
        "living",
        -8.92646051213923
      ],
      [
        "Ġways",
        -8.926482617728556
      ],
      [
        "Ġthought",
        -8.92836689043504
      ],
      [
        "Ġforce",
        -8.929003217430107
      ],
      [
        "Ġclass",
        -8.930253876096806
      ],
      [
        "Ġconcern",
        -8.935591509706658
      ],
      [
        "Ġwhole",
        -8.935641505391873
      ],
      [
        "Ġtree",
        -8.937205895554763
      ],
      [
        "Ġcommunity",
        -8.938310969241428
      ],
      [
        "Ġmilk",
        -8.94248179089806
      ],
      [
        "Ġpain",
        -8.944628712058055
      ],
      [
        "Ġneeded",
        -8.94630702276995
      ],
      [
        "Ġpositive",
        -8.94822314843675
      ],
      [
        "ĠDo",
        -8.949433153055171
      ],
      [
        "Ġshape",
        -8.949858321847984
      ],
      [
        "Ġhistory",
        -8.950494899427643
      ],
      [
        "ĠAI",
        -8.951673442667527
      ],
      [
        "ĠOne",
        -8.953635954569304
      ],
      [
        "Ġauthor",
        -8.95371646981754
      ],
      [
        "Ġremain",
        -8.954468529818124
      ],
      [
        "Ġkind",
        -8.95477746614355
      ],
      [
        "Ġuser",
        -8.957519807935197
      ],
      [
        "Ġcomplex",
        -8.960805095677554
      ],
      [
        "Ġpersonal",
        -8.962166322665876
      ],
      [
        "Ġfuel",
        -8.962784718517966
      ],
      [
        "Ġhouse",
        -8.962809169830248
      ],
      [
        "U",
        -8.963001283589609
      ],
      [
        "Ġbehavior",
        -8.963640624161934
      ],
      [
        "Ġstay",
        -8.965609784767572
      ],
      [
        "Ġsolution",
        -8.965630081115037
      ],
      [
        "Ġmedical",
        -8.969744456548932
      ],
      [
        "Ġrequired",
        -8.97133533097173
      ],
      [
        "Ġactivities",
        -8.971843332789136
      ],
      [
        "Ġsleep",
        -8.972236276318355
      ],
      [
        "Ġnature",
        -8.974335810019504
      ],
      [
        "Ġface",
        -8.974707796979857
      ],
      [
        "Ġfall",
        -8.974880852787294
      ],
      [
        "Ġsomeone",
        -8.97551447839858
      ],
      [
        "Ġbelieve",
        -8.975862027904578
      ],
      [
        "Ġlonger",
        -8.975876235205455
      ],
      [
        "Ġexist",
        -8.976723839207693
      ],
      [
        "Ġfollow",
        -8.977103193260689
      ],
      [
        "Ġcountry",
        -8.9782474595427
      ],
      [
        ".\"Ċ",
        -8.979476137004806
      ],
      [
        "Ġdescribe",
        -8.98202509383918
      ],
      [
        "Ġknowledge",
        -8.985896142248777
      ],
      [
        "Ġetc",
        -8.986682942342187
      ],
      [
        "un",
        -8.987018650497559
      ],
      [
        "Ġlanguage",
        -8.9886129092375
      ],
      [
        "afety",
        -8.988889963095197
      ],
      [
        "Ġmeasure",
        -8.990525977798178
      ],
      [
        "Ġrecord",
        -8.991033403137202
      ],
      [
        "Ġcut",
        -8.991716904622711
      ],
      [
        "Ġsea",
        -8.995832467691585
      ],
      [
        ").Ċ",
        -8.996559499168526
      ],
      [
        "As",
        -8.997411467480394
      ],
      [
        "up",
        -8.997907682944508
      ],
      [
        "Ġeasil",
        -8.99884757144627
      ],
      [
        "Ġenvironmental",
        -8.99913872867948
      ],
      [
        "So",
        -8.999908042845743
      ],
      [
        "Ġentire",
        -9.000804667465253
      ],
      [
        "Ġvehicle",
        -9.002129081787018
      ],
      [
        "Ġcool",
        -9.00411727132928
      ],
      [
        "ling",
        -9.004644616144233
      ],
      [
        "Ġlist",
        -9.005155233585102
      ],
      [
        "Ġthough",
        -9.005416414100878
      ],
      [
        "Ġaction",
        -9.007169852090996
      ],
      [
        "ized",
        -9.00908110155682
      ],
      [
        "Ġperfect",
        -9.009299793952133
      ],
      [
        "Ġpublic",
        -9.009429481939684
      ],
      [
        "Ġhot",
        -9.009777339465163
      ],
      [
        "Ġmoney",
        -9.010018241880832
      ],
      [
        "Ġsense",
        -9.010145926962144
      ],
      [
        "Ġexercise",
        -9.010776801681237
      ],
      [
        "Ġb",
        -9.011102661479132
      ],
      [
        "Ġpractice",
        -9.012889566598886
      ],
      [
        "Ġland",
        -9.014562603531097
      ],
      [
        "Ġslow",
        -9.014881424952415
      ],
      [
        "Ġbuy",
        -9.015667185393728
      ],
      [
        "Ġstress",
        -9.016561241124007
      ],
      [
        "Ġtaking",
        -9.01744894943396
      ],
      [
        "Ġcrucial",
        -9.018626731686918
      ],
      [
        "Ġpast",
        -9.018818969401766
      ],
      [
        "Ġsub",
        -9.02179754189124
      ],
      [
        "Ġsymptoms",
        -9.026327677810794
      ],
      [
        "Ġactivity",
        -9.026606226601633
      ],
      [
        ".\"",
        -9.027035429757792
      ],
      [
        "Ġassociated",
        -9.027158740820402
      ],
      [
        "land",
        -9.029197956131194
      ],
      [
        "Ġmethods",
        -9.029903706199544
      ],
      [
        "Ġchoose",
        -9.03438125593748
      ],
      [
        "Ġonline",
        -9.034601231351951
      ],
      [
        "Ġtools",
        -9.036631631818832
      ],
      [
        "ory",
        -9.036898198903115
      ],
      [
        "Ġsample",
        -9.03786642467836
      ],
      [
        "Ġdoing",
        -9.037896788109364
      ],
      [
        "Ġterms",
        -9.039575059266303
      ],
      [
        "Ġbalance",
        -9.040352335725212
      ],
      [
        "Ġself",
        -9.04085812738892
      ],
      [
        "Ġtask",
        -9.041538274528854
      ],
      [
        "cy",
        -9.04160377779714
      ],
      [
        "Ġspecial",
        -9.042043818255475
      ],
      [
        "Ġpaint",
        -9.042639735540575
      ],
      [
        "Ġfruit",
        -9.046765809302968
      ],
      [
        "ĠDr",
        -9.048438280247304
      ],
      [
        "Ġoverall",
        -9.048873014991582
      ],
      [
        "Ġtrees",
        -9.051971936955798
      ],
      [
        "Ġlocation",
        -9.052047398072732
      ],
      [
        "+",
        -9.053328319190452
      ],
      [
        "Ġroom",
        -9.053403583287654
      ],
      [
        "ĠAmerican",
        -9.056540413005036
      ],
      [
        "line",
        -9.05693830704512
      ],
      [
        "Ġrather",
        -9.058032465304333
      ],
      [
        "Ġcode",
        -9.058602218721331
      ],
      [
        "Y",
        -9.05883979411966
      ],
      [
        "Ġreceive",
        -9.059422827407118
      ],
      [
        "Ġresources",
        -9.06034999164214
      ],
      [
        "ge",
        -9.061006201694964
      ],
      [
        "Ġwomen",
        -9.06149047190735
      ],
      [
        "Ġseason",
        -9.06201919048365
      ],
      [
        "Ġvideo",
        -9.062289423860232
      ],
      [
        "Ġtarget",
        -9.062676729965537
      ],
      [
        "by",
        -9.063057053618838
      ],
      [
        "Ġgot",
        -9.064243032066711
      ],
      [
        "Ġpatients",
        -9.067770417258409
      ],
      [
        "Ġaverage",
        -9.067792157288796
      ],
      [
        "Ġrelationship",
        -9.069336156105663
      ],
      [
        "Ġwinter",
        -9.070627021628734
      ],
      [
        "Ġco",
        -9.070691573330716
      ],
      [
        "Ġsolar",
        -9.071573875625294
      ],
      [
        "-base",
        -9.072843603986612
      ],
      [
        "ĠAll",
        -9.07330021241698
      ],
      [
        "Ġdiscover",
        -9.074028217509316
      ],
      [
        "Ġselect",
        -9.074906082415689
      ],
      [
        "Ġmanagement",
        -9.075019004033829
      ],
      [
        "Ġmetal",
        -9.081284324247504
      ],
      [
        "Ġstop",
        -9.0819277219868
      ],
      [
        "Ġplastic",
        -9.08284195335154
      ],
      [
        "Ġeffort",
        -9.083009385217306
      ],
      [
        "Ġlarger",
        -9.085009151578705
      ],
      [
        "Ġminutes",
        -9.087923089570465
      ],
      [
        "Ġprobabl",
        -9.089969502630955
      ],
      [
        "Ġdigital",
        -9.097229927606474
      ],
      [
        "ĠSt",
        -9.097380016325044
      ],
      [
        "Ġlater",
        -9.097910250493952
      ],
      [
        "[",
        -9.098715903913009
      ],
      [
        "L",
        -9.099851579832483
      ],
      [
        "Ġtravel",
        -9.101842441434876
      ],
      [
        "Ġmodern",
        -9.104246128929525
      ],
      [
        "Ġquickly",
        -9.1056205350198
      ],
      [
        "Ġstage",
        -9.106816603439643
      ],
      [
        "Ġguide",
        -9.107306928102746
      ],
      [
        "Ġwalk",
        -9.107694944801228
      ],
      [
        "Ġothers",
        -9.108996697409824
      ],
      [
        "Ġnetwork",
        -9.109266181083369
      ],
      [
        "Ġhappen",
        -9.109650910720534
      ],
      [
        "ization",
        -9.110296890330504
      ],
      [
        "Ġrelated",
        -9.110962355654442
      ],
      [
        "Ġwild",
        -9.112078500526405
      ],
      [
        "Ġwaste",
        -9.112976875981683
      ],
      [
        "gainst",
        -9.114582063976576
      ],
      [
        "Ġmix",
        -9.114858269442893
      ],
      [
        "ĠAt",
        -9.119059996389478
      ],
      [
        "Ġterm",
        -9.120422566929228
      ],
      [
        "ĠBe",
        -9.12054685025088
      ],
      [
        "Ġfront",
        -9.121686956321817
      ],
      [
        "Ġfive",
        -9.123296449943954
      ],
      [
        "Ġpet",
        -9.124496939160874
      ],
      [
        "where",
        -9.124906745404456
      ],
      [
        "Ġglobal",
        -9.12505920315908
      ],
      [
        "Ġtraditional",
        -9.125456993107026
      ],
      [
        "ĠWhile",
        -9.125820068996228
      ],
      [
        "Ġregard",
        -9.126099308233368
      ],
      [
        "Ġsimply",
        -9.126100075927678
      ],
      [
        "Ġcontact",
        -9.126840522450776
      ],
      [
        "Ġservice",
        -9.126841292295287
      ],
      [
        "Ġattention",
        -9.127582893438872
      ],
      [
        "Ġprimar",
        -9.128447043345597
      ],
      [
        "however",
        -9.129382912807776
      ],
      [
        "ĠScience",
        -9.129464673031205
      ],
      [
        "me",
        -9.129615128710292
      ],
      [
        "Ġmultiple",
        -9.13132139409955
      ],
      [
        "Ġdegree",
        -9.13400700880212
      ],
      [
        "Ġrelative",
        -9.134672210275127
      ],
      [
        "Ġoutside",
        -9.136286538030884
      ],
      [
        "ĠDe",
        -9.13665694940602
      ],
      [
        "once",
        -9.138330361672567
      ],
      [
        "Ġmovement",
        -9.139239834930304
      ],
      [
        "Ġresponse",
        -9.140100772102208
      ],
      [
        "Ġfun",
        -9.140325419938538
      ],
      [
        "Ġact",
        -9.141254247569318
      ],
      [
        "Ġstrateg",
        -9.141567821463616
      ],
      [
        "Ġhumans",
        -9.144000655364676
      ],
      [
        "Ġfemale",
        -9.1472278386251
      ],
      [
        "Many",
        -9.148404261042264
      ],
      [
        "Ġsite",
        -9.14865090514346
      ],
      [
        "Ġrest",
        -9.15029257992115
      ],
      [
        "Ġrelease",
        -9.150990328840267
      ],
      [
        "Ġlength",
        -9.151744153327286
      ],
      [
        "Ġreturn",
        -9.152943908683678
      ],
      [
        "J",
        -9.153699337200049
      ],
      [
        "Ġpay",
        -9.154770972473411
      ],
      [
        "ĠDNA",
        -9.15606306903425
      ],
      [
        "Ġnight",
        -9.1595118287734
      ],
      [
        "Ġequipment",
        -9.160053393367251
      ],
      [
        "|",
        -9.161282336150464
      ],
      [
        "Ġsensor",
        -9.161455989964503
      ],
      [
        "ial",
        -9.164258712262516
      ],
      [
        "Ġwon",
        -9.164799280268175
      ],
      [
        "Ġeyes",
        -9.165879952038926
      ],
      [
        "Ġconcept",
        -9.167007788804238
      ],
      [
        "Ġcenter",
        -9.167139947100754
      ],
      [
        "Ġeducation",
        -9.167610425107933
      ],
      [
        "Ġefficient",
        -9.168058364034389
      ],
      [
        ">",
        -9.169303792465032
      ],
      [
        "am",
        -9.169718505801988
      ],
      [
        "Ġshare",
        -9.170179613003056
      ],
      [
        "Ġadditional",
        -9.170430473753676
      ],
      [
        "ĠHere",
        -9.17319261274261
      ],
      [
        "Ġhold",
        -9.175109131339385
      ],
      [
        "Ġbad",
        -9.17567921331104
      ],
      [
        "Ġaddress",
        -9.175735078659846
      ],
      [
        "Ġsugar",
        -9.177972161765885
      ],
      [
        "Ġsometime",
        -9.17858455551059
      ],
      [
        "Ġalmost",
        -9.17867387984296
      ],
      [
        "ber",
        -9.179088347234623
      ],
      [
        "Ġprovid",
        -9.179471829263433
      ],
      [
        "Ġproperties",
        -9.18019391367332
      ],
      [
        "Ġart",
        -9.181566249307838
      ],
      [
        "Ġpercent",
        -9.182394505928698
      ],
      [
        "Ġsummer",
        -9.182546834385647
      ],
      [
        "Ġserve",
        -9.18262408638377
      ],
      [
        "Ġsetting",
        -9.183484393445292
      ],
      [
        "Ġrepresent",
        -9.184024302875592
      ],
      [
        "Ġal",
        -9.185073012029129
      ],
      [
        "Ġoriginal",
        -9.18528589116628
      ],
      [
        "Ġexplore",
        -9.18600515326952
      ],
      [
        "Ġfinal",
        -9.18862848524758
      ],
      [
        "ĠEarth",
        -9.18989754352948
      ],
      [
        "Ġacid",
        -9.190159747545255
      ],
      [
        "Ġproper",
        -9.191291449016546
      ],
      [
        "Ġhalf",
        -9.192065180400611
      ],
      [
        "Ġeasie",
        -9.192131022236858
      ],
      [
        "Ġrule",
        -9.192534697211885
      ],
      [
        "Ġservices",
        -9.192562287437344
      ],
      [
        "Ġenhance",
        -9.193628834167685
      ],
      [
        "Ġoptions",
        -9.195071655611336
      ],
      [
        "Ġtool",
        -9.195156026708467
      ],
      [
        "Ġactive",
        -9.19533613402974
      ],
      [
        "Ġdrive",
        -9.19793545031889
      ],
      [
        "ĠCan",
        -9.198380945012858
      ],
      [
        "Ġfeed",
        -9.19913314176064
      ],
      [
        "Ġmass",
        -9.201090189139304
      ],
      [
        "Ġreading",
        -9.20248307567633
      ],
      [
        "ĠNational",
        -9.202896458166055
      ],
      [
        "Ġaccount",
        -9.203151571476589
      ],
      [
        "ĠX",
        -9.20342385636632
      ],
      [
        "ated",
        -9.207221818978212
      ],
      [
        "Ġoperation",
        -9.208598528950006
      ],
      [
        "Ġsuccessful",
        -9.209011732157151
      ],
      [
        "ĠUnited",
        -9.20976411634694
      ],
      [
        "Ġorganization",
        -9.210204238954764
      ],
      [
        "Ġwood",
        -9.211045854893616
      ],
      [
        "yourself",
        -9.211130117411257
      ],
      [
        "Ġcamera",
        -9.2112238910521
      ],
      [
        "Ġinvolve",
        -9.212455448608562
      ],
      [
        "Ġreduc",
        -9.2128394407445
      ],
      [
        "Ġeggs",
        -9.216162673733114
      ],
      [
        "ier",
        -9.217625576044693
      ],
      [
        "Ġbirds",
        -9.220721274922951
      ],
      [
        "Ġthemsel",
        -9.22114613874194
      ],
      [
        "Ġparticle",
        -9.22250078364809
      ],
      [
        "Ġwebsite",
        -9.223389101553988
      ],
      [
        "Ġachieve",
        -9.224502085682868
      ],
      [
        "Ġever",
        -9.224573558559117
      ],
      [
        "Ġvisit",
        -9.225122738441415
      ],
      [
        "Ġnegative",
        -9.225441110168877
      ],
      [
        "Ġsave",
        -9.226312648823722
      ],
      [
        "Ġelements",
        -9.228544256832294
      ],
      [
        "op",
        -9.230160264220322
      ],
      [
        "Ġfresh",
        -9.23038498397041
      ],
      [
        "light",
        -9.23038809880936
      ],
      [
        "Ġexplain",
        -9.232724782650456
      ],
      [
        "Ġdirection",
        -9.233947642944392
      ],
      [
        "Ġmeat",
        -9.234533874768864
      ],
      [
        "Ġtissue",
        -9.234900470348368
      ],
      [
        "Ġpass",
        -9.23495627437922
      ],
      [
        "Ġanalysis",
        -9.235721913905056
      ],
      [
        "Ġplayer",
        -9.236055149027962
      ],
      [
        "Ġgain",
        -9.237374477221902
      ],
      [
        "Ġweather",
        -9.239093617707107
      ],
      [
        "Ġquite",
        -9.241304003598692
      ],
      [
        "Ġkids",
        -9.241463105379214
      ],
      [
        "Ġprevious",
        -9.241528106398576
      ],
      [
        "One",
        -9.24160199450245
      ],
      [
        "ful",
        -9.2426304804963
      ],
      [
        "Ġear",
        -9.243576840768624
      ],
      [
        "Ġdi",
        -9.24380684820866
      ],
      [
        "Ġscientists",
        -9.246236272904994
      ],
      [
        "Ġview",
        -9.24779736260501
      ],
      [
        "Ġfeet",
        -9.248970521437794
      ],
      [
        "Ġvegetable",
        -9.252399323281823
      ],
      [
        "Ġbehind",
        -9.253247425839191
      ],
      [
        "Ġsupply",
        -9.253720543267631
      ],
      [
        "ything",
        -9.255164329128409
      ],
      [
        "Ġmentioned",
        -9.256802792904557
      ],
      [
        "ut",
        -9.257794298387214
      ],
      [
        "Ġexact",
        -9.258331519850696
      ],
      [
        "ĠShe",
        -9.258472009448283
      ],
      [
        "ĠAfter",
        -9.259992050915326
      ],
      [
        "Ġfat",
        -9.26033533287082
      ],
      [
        "ring",
        -9.262743887874546
      ],
      [
        "Ġfinding",
        -9.262974075378246
      ],
      [
        "An",
        -9.263196060503384
      ],
      [
        "Ġyet",
        -9.264044423057063
      ],
      [
        "Ġstarted",
        -9.264157387227494
      ],
      [
        "Ġtrue",
        -9.266862731626674
      ],
      [
        "Ġago",
        -9.267247023660442
      ],
      [
        "Ġtrying",
        -9.268245621942814
      ],
      [
        "Ġeverything",
        -9.268764892553234
      ],
      [
        "Ġstandard",
        -9.270232881428912
      ],
      [
        "end",
        -9.272499975112051
      ],
      [
        "Ġmemory",
        -9.276183789564527
      ],
      [
        "Ġdark",
        -9.278139255146822
      ],
      [
        "Ġadvantage",
        -9.278671956601144
      ],
      [
        "Ġwall",
        -9.279829055075464
      ],
      [
        "Ġstory",
        -9.28081386905772
      ],
      [
        "Ġspread",
        -9.28209406891273
      ],
      [
        "Ġfit",
        -9.28323463182284
      ],
      [
        "Ġwords",
        -9.283667487697826
      ],
      [
        "Why",
        -9.284877160209094
      ],
      [
        "Ġfine",
        -9.2860931914342
      ],
      [
        "Ġice",
        -9.288434245820255
      ],
      [
        "Ġbacteria",
        -9.28953375118677
      ],
      [
        "Ġcircuit",
        -9.289786872265854
      ],
      [
        "Ġbrand",
        -9.290068414697108
      ],
      [
        "Ġfoods",
        -9.294285428033714
      ],
      [
        "daily",
        -9.294546365530376
      ],
      [
        "vi",
        -9.29664254702487
      ],
      [
        "Ġsix",
        -9.301303985874942
      ],
      [
        "Ġcontribute",
        -9.302513857525131
      ],
      [
        "Ġfill",
        -9.302956932835404
      ],
      [
        "lthough",
        -9.302990097713437
      ],
      [
        "Ġmeet",
        -9.303669556590387
      ],
      [
        "Ġextra",
        -9.30493413119672
      ],
      [
        "Ġjob",
        -9.305166995250204
      ],
      [
        "Ġisn",
        -9.305250550662524
      ],
      [
        "Ġwatch",
        -9.30633020555698
      ],
      [
        "Ġconstant",
        -9.306864089295244
      ],
      [
        "Ġapply",
        -9.30691065364742
      ],
      [
        "Ġcharacter",
        -9.307285304026031
      ],
      [
        "Ġindicate",
        -9.308917338898205
      ],
      [
        "ship",
        -9.30892928864852
      ],
      [
        "Ġcustomer",
        -9.309429620503234
      ],
      [
        "Ġreview",
        -9.30965966852305
      ],
      [
        "Ġsection",
        -9.310664915357606
      ],
      [
        "Ġgenerate",
        -9.31210047905909
      ],
      [
        "Ġsearch",
        -9.312235442561123
      ],
      [
        "Ġnote",
        -9.31277786789759
      ],
      [
        "Ġcleaning",
        -9.31346817048898
      ],
      [
        "Ġexperiment",
        -9.313728506910216
      ],
      [
        "Ġspring",
        -9.314334921376414
      ],
      [
        "Ġcountr",
        -9.315266575375228
      ],
      [
        "âĢĿ",
        -9.31548316404629
      ],
      [
        "Ġinfluence",
        -9.31727516188759
      ],
      [
        "Ġmodels",
        -9.317362843657074
      ],
      [
        "Ġwind",
        -9.319430258882347
      ],
      [
        "Ġinsect",
        -9.319762969639804
      ],
      [
        "Ġcommunication",
        -9.32038126592719
      ],
      [
        "Ġmental",
        -9.321890232837768
      ],
      [
        "Ġculture",
        -9.323030303364536
      ],
      [
        "Ġdidn",
        -9.325197341387184
      ],
      [
        "Ġconduct",
        -9.325922113367508
      ],
      [
        "Ġoption",
        -9.326528167471036
      ],
      [
        "Ġevidence",
        -9.327510998227469
      ],
      [
        "Ġblue",
        -9.329343496651733
      ],
      [
        "Ġseparate",
        -9.330498894960993
      ],
      [
        "Ġliquid",
        -9.331145788566376
      ],
      [
        "Ġbreed",
        -9.332260917777983
      ],
      [
        "Ġwave",
        -9.332623334380454
      ],
      [
        "ĠMay",
        -9.33376276763806
      ],
      [
        "Ġtank",
        -9.333881406234871
      ],
      [
        "Ġmedia",
        -9.335202611860849
      ],
      [
        "Ġobject",
        -9.335447432842496
      ],
      [
        "ĠStates",
        -9.335513685767
      ],
      [
        "ecause",
        -9.335856398998844
      ],
      [
        "Ġprotection",
        -9.336819630178711
      ],
      [
        "Ġeveryone",
        -9.337178287131866
      ],
      [
        "Ġefficienc",
        -9.337189334710708
      ],
      [
        "Ġnotice",
        -9.337847199406497
      ],
      [
        "But",
        -9.33878062193907
      ],
      [
        "Ġcook",
        -9.339422784494689
      ],
      [
        "Ġdistance",
        -9.339680308086509
      ],
      [
        "Ġprovided",
        -9.340095916358564
      ],
      [
        "Ġfire",
        -9.340137864051869
      ],
      [
        "Ġstyle",
        -9.34117871897858
      ],
      [
        "Ġtrack",
        -9.342850695993562
      ],
      [
        "X",
        -9.343945853007128
      ],
      [
        "ĠUse",
        -9.34398491201976
      ],
      [
        "Ġmonitor",
        -9.34437147191074
      ],
      [
        "Ġworks",
        -9.346311278484269
      ],
      [
        "ver",
        -9.346684524257686
      ],
      [
        "Ġprice",
        -9.346927525153188
      ],
      [
        "Ġtopic",
        -9.34731118441966
      ],
      [
        "Ġaspect",
        -9.347669869784
      ],
      [
        "Ġsoftware",
        -9.347949843495323
      ],
      [
        "$",
        -9.34846164909039
      ],
      [
        "Ġcritical",
        -9.349118729026204
      ],
      [
        "Ġscientific",
        -9.349373753525796
      ],
      [
        "Q",
        -9.350173722019877
      ],
      [
        "Ġtouch",
        -9.350291244656749
      ],
      [
        "Ġtend",
        -9.351682678828308
      ],
      [
        "Ġlack",
        -9.354428880644956
      ],
      [
        "Ġcity",
        -9.355498308498133
      ],
      [
        "Ġsteps",
        -9.3555003764444
      ],
      [
        "Ġelectric",
        -9.35642018027663
      ],
      [
        "Ġdream",
        -9.35696602781395
      ],
      [
        "Ġremember",
        -9.3572427049247
      ],
      [
        "Ġaim",
        -9.357384211234196
      ],
      [
        "ĠSouth",
        -9.357658797203667
      ],
      [
        "Ġenter",
        -9.359693759670137
      ],
      [
        "Ġbenefit",
        -9.35983939592442
      ],
      [
        "Ġman",
        -9.35991447527853
      ],
      [
        "Ġproduced",
        -9.360174661840034
      ],
      [
        "Ġcollect",
        -9.36024554230872
      ],
      [
        "Ġelse",
        -9.360408915464504
      ],
      [
        "=",
        -9.360856186316024
      ],
      [
        "Ġteacher",
        -9.36197015052893
      ],
      [
        "Ġinstall",
        -9.362069044393555
      ],
      [
        "Ġeating",
        -9.363083310508872
      ],
      [
        "Ġidentify",
        -9.36356004722242
      ],
      [
        "Ġprocesses",
        -9.36421869715684
      ],
      [
        "Ġdoctor",
        -9.36633308540906
      ],
      [
        "Ġcycle",
        -9.367968415706349
      ],
      [
        "Ġgovernment",
        -9.368001614554991
      ],
      [
        "Ġlate",
        -9.368846634439688
      ],
      [
        "Ġroot",
        -9.369249342512052
      ],
      [
        "Ġstrength",
        -9.369837110599963
      ],
      [
        ".S",
        -9.37159964751146
      ],
      [
        "Ġelectrical",
        -9.371641009776862
      ],
      [
        "Ġcharge",
        -9.371887758604306
      ],
      [
        "Ġfinish",
        -9.37378513326921
      ],
      [
        "Ġdisplay",
        -9.374084770736506
      ],
      [
        "Ġevent",
        -9.374120123245014
      ],
      [
        "Ġappropriate",
        -9.37442226078432
      ],
      [
        "ĠâĢľ",
        -9.376111866162011
      ],
      [
        "Ġexpert",
        -9.37667852042452
      ],
      [
        "Ġdemand",
        -9.37678196445404
      ],
      [
        "Ġmanage",
        -9.377722207942345
      ],
      [
        "Ġstudent",
        -9.378421379004651
      ],
      [
        "Ġhair",
        -9.378658444108924
      ],
      [
        "Ġsalt",
        -9.37878506353771
      ],
      [
        "Ġrecommended",
        -9.37962111928543
      ],
      [
        "Ġingredient",
        -9.37964005594724
      ],
      [
        "Ġinstruction",
        -9.380850334381975
      ],
      [
        "Ġseries",
        -9.381619669618097
      ],
      [
        "go",
        -9.381733322841397
      ],
      [
        "ĠWorld",
        -9.386157601701065
      ],
      [
        "Ġinvolved",
        -9.386433140967243
      ],
      [
        "over",
        -9.387425271601485
      ],
      [
        "Ġcats",
        -9.387938698046934
      ],
      [
        "Ġpage",
        -9.389022079875913
      ],
      [
        "Ġtips",
        -9.391369575752416
      ],
      [
        "Ġshows",
        -9.39325403040494
      ],
      [
        "ember",
        -9.3934374322617
      ],
      [
        "Can",
        -9.395747465614026
      ],
      [
        "Ġemission",
        -9.398019341222824
      ],
      [
        "ĠSchool",
        -9.399828216541096
      ],
      [
        "we",
        -9.400992270585428
      ],
      [
        "Ġbird",
        -9.401185512546537
      ],
      [
        "Ġitems",
        -9.401937752508328
      ],
      [
        "Ġrequirement",
        -9.402371207064668
      ],
      [
        "Ġgoal",
        -9.402873133394166
      ],
      [
        "Ġforest",
        -9.40470231134399
      ],
      [
        "Ġchance",
        -9.404823816561382
      ],
      [
        "Ġstorage",
        -9.40879509295552
      ],
      [
        "Ġbreak",
        -9.410045447359677
      ],
      [
        "Ġcharacteristic",
        -9.410735494744564
      ],
      [
        "Ġpoints",
        -9.412372230502845
      ],
      [
        "Ġbuilt",
        -9.4134341715773
      ],
      [
        "Ġfarm",
        -9.415522389090484
      ],
      [
        "Ġsubject",
        -9.418458317985376
      ],
      [
        "head",
        -9.419707053302933
      ],
      [
        "ĠUS",
        -9.419790847606
      ],
      [
        "Ġkill",
        -9.420495241964217
      ],
      [
        "Ġfilm",
        -9.421611169495923
      ],
      [
        "Ġconnection",
        -9.422375322068106
      ],
      [
        "Ġscale",
        -9.423170683125944
      ],
      [
        "Ġrepair",
        -9.423626106135991
      ],
      [
        "Ġword",
        -9.424480349892344
      ],
      [
        "Ġversion",
        -9.425007554326738
      ],
      [
        "Ġ--",
        -9.426910797132336
      ],
      [
        "Ġspot",
        -9.427580405105404
      ],
      [
        "ize",
        -9.42778205019478
      ],
      [
        "Ġmaintenance",
        -9.429260969961735
      ],
      [
        "Ġinitial",
        -9.42960950139208
      ],
      [
        "ĠHealth",
        -9.429685054946631
      ],
      [
        "Ġcauses",
        -9.43184714914447
      ],
      [
        "Ġimages",
        -9.431992660274204
      ],
      [
        "Ġorganic",
        -9.432268685265054
      ],
      [
        "per",
        -9.432869033008206
      ],
      [
        "Ġmale",
        -9.433004144645237
      ],
      [
        "ĠAmerica",
        -9.43360158055674
      ],
      [
        "Ġrunning",
        -9.434714543454792
      ],
      [
        "Ġoutput",
        -9.434774011493769
      ],
      [
        "Ġattack",
        -9.435815262898604
      ],
      [
        "Ġmolecule",
        -9.435971067743438
      ],
      [
        "Ġfigure",
        -9.43748391989726
      ],
      [
        "Ġgene",
        -9.440133801053696
      ],
      [
        "companie",
        -9.440771710369631
      ],
      [
        "-to",
        -9.44089571199099
      ],
      [
        "Ġequal",
        -9.441344030988828
      ],
      [
        "Ġswitch",
        -9.44135373501787
      ],
      [
        "ĠMy",
        -9.441713544464992
      ],
      [
        "Ġfrequent",
        -9.441728954814533
      ],
      [
        "Ġmoving",
        -9.44190570716173
      ],
      [
        "Ġoccur",
        -9.442275853274596
      ],
      [
        "ĠResearch",
        -9.44250730339193
      ],
      [
        "Ġfeeling",
        -9.443536973864216
      ],
      [
        "Ġideal",
        -9.444155875410308
      ],
      [
        "Ġtaste",
        -9.444440717145136
      ],
      [
        "ĠYes",
        -9.44517193449719
      ],
      [
        "Ġstar",
        -9.446999992655176
      ],
      [
        "Ġuseful",
        -9.447843388606488
      ],
      [
        "Ġimmediate",
        -9.447848301152934
      ],
      [
        "Ġdetect",
        -9.44966271283618
      ],
      [
        "ĠCo",
        -9.450374520346944
      ],
      [
        "ible",
        -9.45185232429213
      ],
      [
        "Ġfeature",
        -9.452924700939173
      ],
      [
        "ill",
        -9.45334155126598
      ],
      [
        "Ġbegin",
        -9.453808771517885
      ],
      [
        "Ġwear",
        -9.455305700178611
      ],
      [
        "Ġmembers",
        -9.455929275941685
      ],
      [
        "care",
        -9.456172694855406
      ],
      [
        "Ġsoft",
        -9.456174124081214
      ],
      [
        "Ġhandle",
        -9.45643108068128
      ],
      [
        "ical",
        -9.45746886431204
      ],
      [
        "Ġcarry",
        -9.457962000983038
      ],
      [
        "Ġclaim",
        -9.459805688497513
      ],
      [
        "ĠOr",
        -9.461586203461607
      ],
      [
        "Ġsuccess",
        -9.463692896814408
      ],
      [
        "Re",
        -9.463810815460045
      ],
      [
        "Ġworth",
        -9.46446112051022
      ],
      [
        "Ġvisual",
        -9.465391562521038
      ],
      [
        "Ġcontext",
        -9.465576492460269
      ],
      [
        "Ġwire",
        -9.465623329670706
      ],
      [
        "Ġcross",
        -9.466972942513989
      ],
      [
        "Ġplann",
        -9.467799896478764
      ],
      [
        "Ġreplace",
        -9.468336735656331
      ],
      [
        "Ġcombination",
        -9.468730062712652
      ],
      [
        "Ġglass",
        -9.47039130595516
      ],
      [
        "Ġdecrease",
        -9.470598493712853
      ],
      [
        "Ġpatient",
        -9.470931900936256
      ],
      [
        "for",
        -9.471719297458815
      ],
      [
        "Ġsoon",
        -9.472758667932691
      ],
      [
        "ĠWhy",
        -9.473799768686256
      ],
      [
        "Ġteeth",
        -9.475858496662116
      ],
      [
        "Ġdesire",
        -9.479021844046624
      ],
      [
        "he",
        -9.479135603777898
      ],
      [
        "Ġserious",
        -9.481134855938503
      ],
      [
        "Ġmulti",
        -9.483004685640662
      ],
      [
        "ĠNorth",
        -9.483946355818262
      ],
      [
        "Ġpublished",
        -9.483975267137993
      ],
      [
        "Ġgoe",
        -9.48424955298779
      ],
      [
        "ĠFrom",
        -9.484261479322068
      ],
      [
        "Ġobtain",
        -9.484310669565115
      ],
      [
        "ĠMost",
        -9.48433256461395
      ],
      [
        "Ġcount",
        -9.484720637318658
      ],
      [
        "Ġhope",
        -9.486098454630689
      ],
      [
        "time",
        -9.488566163995724
      ],
      [
        "Ġ+",
        -9.488688153197243
      ],
      [
        "Ġslight",
        -9.49020001185088
      ],
      [
        "Ġpair",
        -9.490648876761798
      ],
      [
        "Ġpump",
        -9.491728851033104
      ],
      [
        "Ġpretty",
        -9.491767890908392
      ],
      [
        "ivity",
        -9.491927988321493
      ],
      [
        "Ġelectronic",
        -9.49272634705284
      ],
      [
        "While",
        -9.493237429317588
      ],
      [
        "Ġcrop",
        -9.493578751767611
      ],
      [
        "ĠAls",
        -9.493603250825252
      ],
      [
        "Ġextend",
        -9.495088465800595
      ],
      [
        "ĠAl",
        -9.49525745418596
      ],
      [
        "Ġfile",
        -9.495713839648538
      ],
      [
        "Ġgeneration",
        -9.496120357033432
      ],
      [
        "min",
        -9.49780683661386
      ],
      [
        "Ġcon",
        -9.498032488199446
      ],
      [
        "Ġimportanc",
        -9.49817563298668
      ],
      [
        "Ġearth",
        -9.498291487125922
      ],
      [
        "all",
        -9.498590411535863
      ],
      [
        "Ġcapacit",
        -9.49965378500984
      ],
      [
        "of",
        -9.500322658507605
      ],
      [
        "Ġcollection",
        -9.501264820611771
      ],
      [
        "Ġwrite",
        -9.502089198560228
      ],
      [
        "Ġinput",
        -9.502452562622812
      ],
      [
        "Ġbottom",
        -9.502538656886944
      ],
      [
        "Ġfabric",
        -9.502639534287187
      ],
      [
        "Ġburn",
        -9.50276611619442
      ],
      [
        "Ġtemperatures",
        -9.503362710253386
      ],
      [
        "Ġfilter",
        -9.503572315921772
      ],
      [
        "Ġresistance",
        -9.503744562373292
      ],
      [
        "Using",
        -9.503907100998653
      ],
      [
        "Ġrich",
        -9.504778484598358
      ],
      [
        "Ġnoise",
        -9.505031472671956
      ],
      [
        "Ġcouple",
        -9.50575964570443
      ],
      [
        "Ġdeliver",
        -9.506660993984992
      ],
      [
        "Ġdisorder",
        -9.507934445356724
      ],
      [
        "ium",
        -9.5081056280704
      ],
      [
        "Ġdeath",
        -9.508118450979234
      ],
      [
        "Ġmoment",
        -9.50924950566414
      ],
      [
        "By",
        -9.510438004302332
      ],
      [
        "Ġdiseases",
        -9.512296766427143
      ],
      [
        "Ġwriting",
        -9.512407860659629
      ],
      [
        "Ġnothing",
        -9.51278078880052
      ],
      [
        "ating",
        -9.513802697330425
      ],
      [
        "Ġreaction",
        -9.513823943047877
      ],
      [
        "ions",
        -9.515148280664585
      ],
      [
        "Ġlives",
        -9.51528736257396
      ],
      [
        "ok",
        -9.515611292536766
      ],
      [
        "ware",
        -9.516045938287869
      ],
      [
        "Ġenable",
        -9.516227957280872
      ],
      [
        "Ġusers",
        -9.516336375595632
      ],
      [
        "Ġexcellen",
        -9.516669364060494
      ],
      [
        "Ġplatform",
        -9.5177364414419
      ],
      [
        "friendly",
        -9.51775924575275
      ],
      [
        "ĠMore",
        -9.51898505134545
      ],
      [
        "Ġvitamin",
        -9.5196782106764
      ],
      [
        "Ġpoor",
        -9.520286479540388
      ],
      [
        "Ġsequence",
        -9.521106492166314
      ],
      [
        "more",
        -9.521380676434855
      ],
      [
        "Ġbaby",
        -9.52218236140913
      ],
      [
        "Ġcame",
        -9.524010123674945
      ],
      [
        "Ġcontainer",
        -9.524203973392904
      ],
      [
        "ĠNot",
        -9.524736499889825
      ],
      [
        "Ġportion",
        -9.524850817575226
      ],
      [
        "ĠOf",
        -9.524966280937107
      ],
      [
        "j",
        -9.527938101010903
      ],
      [
        "Ġadjust",
        -9.528497612988172
      ],
      [
        "Ġcooking",
        -9.530312705625674
      ],
      [
        "con",
        -9.53033392782394
      ],
      [
        "Ġjoint",
        -9.531300206161472
      ],
      [
        "Ġleg",
        -9.531527169922995
      ],
      [
        "ture",
        -9.532171499765134
      ],
      [
        "Ġobjects",
        -9.532748651316243
      ],
      [
        "Ġboard",
        -9.533302252910048
      ],
      [
        "Ġencourage",
        -9.53405582052053
      ],
      [
        "let",
        -9.535613426341609
      ],
      [
        "Ġconstruction",
        -9.53688899222822
      ],
      [
        "Ġdraw",
        -9.538528503951824
      ],
      [
        "Ġsolid",
        -9.539364174428204
      ],
      [
        "Ġfund",
        -9.53986700321255
      ],
      [
        "Ġyellow",
        -9.540784898047594
      ],
      [
        "Ġbike",
        -9.541576896595654
      ],
      [
        "Ġmineral",
        -9.543264998932054
      ],
      [
        "Ġincreasing",
        -9.54354258804522
      ],
      [
        "Ġinteraction",
        -9.544117798504876
      ],
      [
        "Ġprojects",
        -9.544137989975518
      ],
      [
        "Ġdocument",
        -9.54516899058438
      ],
      [
        "}",
        -9.545201730734972
      ],
      [
        "Ġgenes",
        -9.546596348887435
      ],
      [
        "Ġresponsible",
        -9.548728700609898
      ],
      [
        "Ġoxygen",
        -9.55057846225342
      ],
      [
        "ĠOur",
        -9.550769576268635
      ],
      [
        "Ġsuitabl",
        -9.55145455171662
      ],
      [
        "Ġready",
        -9.551669559925752
      ],
      [
        "Ġsituation",
        -9.55414797487543
      ],
      [
        "Ġrefer",
        -9.555062893256082
      ],
      [
        "Ġedge",
        -9.555557608550668
      ],
      [
        "-A",
        -9.556079380330182
      ],
      [
        "Ġpush",
        -9.556168503815485
      ],
      [
        "Ġprint",
        -9.55749840792902
      ],
      [
        "pp",
        -9.557844217677852
      ],
      [
        "Ġprograms",
        -9.55810948249103
      ],
      [
        "Ġphotograph",
        -9.559075469330756
      ],
      [
        "Ġmusic",
        -9.559258284311271
      ],
      [
        "ĠWho",
        -9.560409942523872
      ],
      [
        "Ġscreen",
        -9.560698482784009
      ],
      [
        "Ġcap",
        -9.561286046446185
      ],
      [
        "âĢ¢",
        -9.561539509556304
      ],
      [
        "Ġsustainabl",
        -9.56157393057874
      ],
      [
        "iv",
        -9.561975230606162
      ],
      [
        "Ġstone",
        -9.563616388455436
      ],
      [
        "ence",
        -9.563895023473336
      ],
      [
        "Ġpull",
        -9.564961854211312
      ],
      [
        "||",
        -9.565110133528046
      ],
      [
        "Ġupon",
        -9.5659272365593
      ],
      [
        "Ġvolume",
        -9.566055437728902
      ],
      [
        "Ġfoot",
        -9.566184009407111
      ],
      [
        "Ġdecision",
        -9.566548165867603
      ],
      [
        "Ġvision",
        -9.566605664857764
      ],
      [
        "Ġconsist",
        -9.56683353511115
      ],
      [
        "Do",
        -9.566849632436508
      ],
      [
        "life",
        -9.567287121793797
      ],
      [
        "Ġphoto",
        -9.568912583860753
      ],
      [
        "Ġnumbers",
        -9.57075127085486
      ],
      [
        "Ġstem",
        -9.571812911780404
      ],
      [
        "Ġcutting",
        -9.571976871221567
      ],
      [
        "fully",
        -9.572857554612732
      ],
      [
        "Ġbrown",
        -9.573024191382748
      ],
      [
        "Ġanti",
        -9.573036993686518
      ],
      [
        "Ġpowerful",
        -9.574613034610074
      ],
      [
        "Ġpath",
        -9.575243000678665
      ],
      [
        "Ġtable",
        -9.575993568595155
      ],
      [
        "Ġlesson",
        -9.576294897977334
      ],
      [
        "On",
        -9.576396523572484
      ],
      [
        "ex",
        -9.57642883474609
      ],
      [
        "Ġevents",
        -9.579046102466847
      ],
      [
        "fer",
        -9.579393710236973
      ],
      [
        "went",
        -9.580204790727496
      ],
      [
        "ure",
        -9.580500158082549
      ],
      [
        "Ġheavy",
        -9.581401039165032
      ],
      [
        "Ġsmooth",
        -9.582246867436083
      ],
      [
        "Ġhappens",
        -9.583104392023236
      ],
      [
        "Ġhear",
        -9.585155466419792
      ],
      [
        "Ġpromote",
        -9.585368188139082
      ],
      [
        "board",
        -9.585657603971905
      ],
      [
        "Ġvary",
        -9.587201305217118
      ],
      [
        "Ġrock",
        -9.587617051388785
      ],
      [
        "men",
        -9.589086358348244
      ],
      [
        "These",
        -9.59024206289887
      ],
      [
        "Ġbeautiful",
        -9.590555738725865
      ],
      [
        "giving",
        -9.59056623027172
      ],
      [
        "properly",
        -9.590885154326603
      ],
      [
        "Ġchang",
        -9.591410851341177
      ],
      [
        "Ġrare",
        -9.591862446244006
      ],
      [
        "Ġadult",
        -9.591933410067636
      ],
      [
        "With",
        -9.592186178568369
      ],
      [
        "Ġpractices",
        -9.592287166829532
      ],
      [
        "Ġsort",
        -9.59794942629895
      ],
      [
        "-up",
        -9.599392153405322
      ],
      [
        "And",
        -9.600621558048363
      ],
      [
        "Ġteaching",
        -9.60140402079934
      ],
      [
        "Ġinstance",
        -9.6024325690293
      ],
      [
        "Ġexpensive",
        -9.602435203737468
      ],
      [
        "Ġreflect",
        -9.603278025312209
      ],
      [
        "Ġvoltage",
        -9.603685578291817
      ],
      [
        "Ġdeal",
        -9.60421133832926
      ],
      [
        "Ġwrong",
        -9.604816248845536
      ],
      [
        "ect",
        -9.606181265963835
      ],
      [
        "Ġload",
        -9.607238392186057
      ],
      [
        "Ġensur",
        -9.608662952920398
      ],
      [
        "Ġlocated",
        -9.609662074961498
      ],
      [
        "Ġcurrently",
        -9.609692844654614
      ],
      [
        "pe",
        -9.609822957391213
      ],
      [
        "Ġtherapy",
        -9.611866424171035
      ],
      [
        "ke",
        -9.612454968997742
      ],
      [
        "Ġnest",
        -9.613788153086418
      ],
      [
        "Ġball",
        -9.614488475910292
      ],
      [
        "Ġbag",
        -9.6145362398856
      ],
      [
        "ĠThen",
        -9.614545499062933
      ],
      [
        "ĠâĢ¦",
        -9.61510265540721
      ],
      [
        "Ġrecommend",
        -9.615227936022258
      ],
      [
        "ard",
        -9.616754841018038
      ],
      [
        "Ġconnected",
        -9.61700386435144
      ],
      [
        "Ġcausing",
        -9.617178377343624
      ],
      [
        "Ġstand",
        -9.617373345514034
      ],
      [
        "immune",
        -9.617924213991234
      ],
      [
        "Z",
        -9.619828737266598
      ],
      [
        "Ġmuscle",
        -9.620054321415436
      ],
      [
        "older",
        -9.620157443616096
      ],
      [
        "Ġpurchase",
        -9.62036241035308
      ],
      [
        "Ġpick",
        -9.620542096214162
      ],
      [
        "Ġvalues",
        -9.620964573067546
      ],
      [
        "Ġwonder",
        -9.622141108155017
      ],
      [
        "Ġmotor",
        -9.622387017832391
      ],
      [
        "ĠLa",
        -9.624075979887005
      ],
      [
        "Ġadding",
        -9.625022935354174
      ],
      [
        "Ġrise",
        -9.625243003712733
      ],
      [
        "Ġcolour",
        -9.625695450967296
      ],
      [
        "Ġwait",
        -9.626741154139024
      ],
      [
        "Ġmen",
        -9.62675690070548
      ],
      [
        "Ġexpect",
        -9.627650345754816
      ],
      [
        "Ġcompound",
        -9.6278216446747
      ],
      [
        "Ġmechanism",
        -9.62904516279476
      ],
      [
        "Ġthird",
        -9.62904564512332
      ],
      [
        "applied",
        -9.62940108673756
      ],
      [
        "ĠLe",
        -9.6301353730056
      ],
      [
        "Ġsolutions",
        -9.630261078422414
      ],
      [
        "Ġsecurity",
        -9.631039058166348
      ],
      [
        "Ġmeaning",
        -9.631098646359195
      ],
      [
        "Ġalternative",
        -9.63151267295995
      ],
      [
        "Ġsevere",
        -9.63184177143545
      ],
      [
        "Ġprinciple",
        -9.632088190999744
      ],
      [
        "Ġeconomic",
        -9.632997963629442
      ],
      [
        "ph",
        -9.634075456459534
      ],
      [
        "ang",
        -9.634294248047276
      ],
      [
        "Ġhost",
        -9.634850839790092
      ],
      [
        "Ġchain",
        -9.634982766661205
      ],
      [
        "ĠAdditional",
        -9.636524589636544
      ],
      [
        "Ġintroduce",
        -9.63698678808699
      ],
      [
        "Ġstates",
        -9.638557019205011
      ],
      [
        "Ġhole",
        -9.638609298823653
      ],
      [
        "Ġaid",
        -9.639682448742557
      ],
      [
        "#",
        -9.639897833445502
      ],
      [
        "Ġmouth",
        -9.639949223940905
      ],
      [
        "Ġround",
        -9.641784698273742
      ],
      [
        "Ġgames",
        -9.64438382384141
      ],
      [
        "Ġelectricity",
        -9.644569485456708
      ],
      [
        "Ġinfection",
        -9.64485565438676
      ],
      [
        "Ġforward",
        -9.645884909052016
      ],
      [
        "ĠNow",
        -9.646333771762569
      ],
      [
        "Ġconsumption",
        -9.646367415800126
      ],
      [
        "Step",
        -9.646532508359766
      ],
      [
        "ative",
        -9.64695377279107
      ],
      [
        "Ġelement",
        -9.64847660409622
      ],
      [
        "Ġfriends",
        -9.649048058540176
      ],
      [
        "ĠAre",
        -9.649704997928051
      ],
      [
        "Ġbox",
        -9.649947077030165
      ],
      [
        "yond",
        -9.650492837716715
      ],
      [
        "Ġroof",
        -9.650975384915805
      ],
      [
        "ĠY",
        -9.651030562068051
      ],
      [
        "Ġflight",
        -9.653598177685224
      ],
      [
        "Ġaccurate",
        -9.653875724068698
      ],
      [
        "ĠBo",
        -9.654091686894134
      ],
      [
        ".com",
        -9.654467894734973
      ],
      [
        "-term",
        -9.655570045570432
      ],
      [
        "Ġadapt",
        -9.656423783990316
      ],
      [
        "Ġphone",
        -9.65712152687716
      ],
      [
        "Ġblock",
        -9.65926025171499
      ],
      [
        "Ġcoat",
        -9.65968057362161
      ],
      [
        "ĠCenter",
        -9.660327722350154
      ],
      [
        "Ġnutrients",
        -9.661355724338204
      ],
      [
        "Some",
        -9.661713245821264
      ],
      [
        "Ġvaluable",
        -9.66176852716693
      ],
      [
        "Ġbone",
        -9.662268708163678
      ],
      [
        "lost",
        -9.66449705390863
      ],
      [
        "Ġreference",
        -9.665884925246472
      ],
      [
        "Ġexposure",
        -9.666797460208572
      ],
      [
        "Ġpicture",
        -9.66684101919632
      ],
      [
        "Ġbecame",
        -9.669079289880903
      ],
      [
        "ow",
        -9.669134670233907
      ],
      [
        "Ġroad",
        -9.669553098586476
      ],
      [
        "ide",
        -9.67010181480278
      ],
      [
        "Whether",
        -9.670353685186988
      ],
      [
        "Ġvi",
        -9.67107241410883
      ],
      [
        "Ġexpression",
        -9.6722432179496
      ],
      [
        "Ġjoin",
        -9.673877875621354
      ],
      [
        "Ġstarting",
        -9.674065485593186
      ],
      [
        "Ġmedication",
        -9.67423147124866
      ],
      [
        "low",
        -9.67477279673663
      ],
      [
        "Ġcomfort",
        -9.674885575767345
      ],
      [
        "ibility",
        -9.675079664022045
      ],
      [
        "Ġgear",
        -9.676639002290749
      ],
      [
        "Ġfloor",
        -9.677624303301172
      ],
      [
        "Ġcoming",
        -9.677822984801308
      ],
      [
        "Ġreveal",
        -9.678053502226792
      ],
      [
        "Ġsell",
        -9.679603383098234
      ],
      [
        "Ġhearing",
        -9.679925000649789
      ],
      [
        "ities",
        -9.680138895585175
      ],
      [
        "Ġhorse",
        -9.680518777070672
      ],
      [
        "Ġmath",
        -9.68129733846273
      ],
      [
        "lin",
        -9.682589441872873
      ],
      [
        "Ġsuper",
        -9.683984385642631
      ],
      [
        "Ġfluid",
        -9.685826232677504
      ],
      [
        "taken",
        -9.6869110220495
      ],
      [
        "Ġvital",
        -9.687117096630564
      ],
      [
        "Ġpro",
        -9.687876822146578
      ],
      [
        "Ġhands",
        -9.688300127125196
      ],
      [
        "Ġproperty",
        -9.68846492635063
      ],
      [
        "Ġpresen",
        -9.68870504516568
      ],
      [
        "Ġmiddle",
        -9.689720959514734
      ],
      [
        "Ġaren",
        -9.69017292047358
      ],
      [
        "Ġvirus",
        -9.691593098106626
      ],
      [
        "Ġflavor",
        -9.692992911917194
      ],
      [
        "ler",
        -9.693103163449369
      ],
      [
        "Ġprefer",
        -9.693232823749804
      ],
      [
        "Ġtexture",
        -9.693880836911696
      ],
      [
        "Ġthread",
        -9.694944678887367
      ],
      [
        "Ġlaw",
        -9.695259521730224
      ],
      [
        "Ġexpand",
        -9.696248755909508
      ],
      [
        "ĠWater",
        -9.697005305761357
      ],
      [
        "Ġcentury",
        -9.699252750512624
      ],
      [
        "...ĊĊ",
        -9.699349530249451
      ],
      [
        "Ġcoast",
        -9.70157915860327
      ],
      [
        "Ġconcentration",
        -9.70160635097164
      ],
      [
        "ĠWar",
        -9.70266567866252
      ],
      [
        "ification",
        -9.703060568270102
      ],
      [
        "ile",
        -9.703687521872755
      ],
      [
        "Ġphase",
        -9.704426254894289
      ],
      [
        "Ġrecognize",
        -9.706061896538085
      ],
      [
        "Ġcommand",
        -9.70821952301623
      ],
      [
        "Ġthus",
        -9.708274731424982
      ],
      [
        "Ġled",
        -9.709086519790596
      ],
      [
        "Ġbio",
        -9.709303726921563
      ],
      [
        "Ġjourney",
        -9.709445568370985
      ],
      [
        "Ġconsistent",
        -9.709630351352391
      ],
      [
        "Ġstick",
        -9.709745701604394
      ],
      [
        "Ġdate",
        -9.710958412620563
      ],
      [
        "ĠEach",
        -9.71143436310876
      ],
      [
        "Ġquick",
        -9.711976026055716
      ],
      [
        "ĠInstitute",
        -9.712108373877118
      ],
      [
        "Ġrain",
        -9.71362415831702
      ],
      [
        "ĠOther",
        -9.714215900304971
      ],
      [
        "Ġdead",
        -9.71428613814408
      ],
      [
        "Ġwar",
        -9.714306696397212
      ],
      [
        "Ġshift",
        -9.71460365189688
      ],
      [
        "Ġinter",
        -9.715522608225466
      ],
      [
        "Ġcommercial",
        -9.71611304327292
      ],
      [
        "Ġmatch",
        -9.716778750636792
      ],
      [
        "Ġfight",
        -9.716826155848308
      ],
      [
        "ha",
        -9.717226131735488
      ],
      [
        "ĠThei",
        -9.717569067528808
      ],
      [
        "ĠCa",
        -9.718480360913777
      ],
      [
        "Ġnational",
        -9.718999994520972
      ],
      [
        "Ġhuge",
        -9.720138118661978
      ],
      [
        "Ġiron",
        -9.720177654030651
      ],
      [
        "Ġextremely",
        -9.720278109477563
      ],
      [
        "Ġtesting",
        -9.720351112743778
      ],
      [
        "Ġmedicine",
        -9.720364515108235
      ],
      [
        "Ġinteresting",
        -9.720475062925663
      ],
      [
        "Ġabsorb",
        -9.721042638389626
      ],
      [
        "ub",
        -9.721275100166793
      ],
      [
        "Ġcombine",
        -9.721915384148176
      ],
      [
        "Ġcomfortabl",
        -9.722098208282915
      ],
      [
        "fish",
        -9.723483833933884
      ],
      [
        "driving",
        -9.724173574578144
      ],
      [
        "Ġinsight",
        -9.72457622998926
      ],
      [
        "ĠState",
        -9.725251522531584
      ],
      [
        "Ġadvanced",
        -9.725702186996225
      ],
      [
        "Ġmoistur",
        -9.725795804263988
      ],
      [
        "Ġreported",
        -9.726947568937357
      ],
      [
        "Ġpool",
        -9.72699594152062
      ],
      [
        "Ġsnow",
        -9.727373382788745
      ],
      [
        "work",
        -9.727396388221166
      ],
      [
        "Ġmessage",
        -9.727399777298826
      ],
      [
        "Ġfamili",
        -9.728280734669976
      ],
      [
        "ner",
        -9.728452949950174
      ],
      [
        "Ġdetails",
        -9.728828828821538
      ],
      [
        "Ġmanufacturer",
        -9.729045804560307
      ],
      [
        "ĠNOT",
        -9.729087515696351
      ],
      [
        "ĠMake",
        -9.730577907388971
      ],
      [
        "Ġoccurs",
        -9.731165032260266
      ],
      [
        "Ġvia",
        -9.73181358572195
      ],
      [
        "haps",
        -9.732154997834368
      ],
      [
        "Ġplanet",
        -9.73284567581009
      ],
      [
        "Ġfeeding",
        -9.734063749374512
      ],
      [
        "ĠEx",
        -9.734318742290451
      ],
      [
        "Ġerror",
        -9.73621804735524
      ],
      [
        "Ġflat",
        -9.736889500407848
      ],
      [
        "Ġapp",
        -9.737952014258234
      ],
      [
        "Ġdiscuss",
        -9.738285604151947
      ],
      [
        "Ġfly",
        -9.73859092524514
      ],
      [
        "Ġratio",
        -9.73876101111809
      ],
      [
        "Ġimprov",
        -9.739415294686747
      ],
      [
        "ĠGo",
        -9.742437523886688
      ],
      [
        "Ġstatement",
        -9.742976497514558
      ],
      [
        "Ġsend",
        -9.743940503207565
      ],
      [
        "water",
        -9.74421245233878
      ],
      [
        "hi",
        -9.744496186125303
      ],
      [
        "-like",
        -9.744716681859115
      ],
      [
        "Ġappearance",
        -9.744986184655254
      ],
      [
        "Ġsustain",
        -9.74525199894996
      ],
      [
        "anyone",
        -9.746391311209942
      ],
      [
        "ĠAccording",
        -9.746473175433264
      ],
      [
        "gu",
        -9.746831359133978
      ],
      [
        "body",
        -9.74752572984084
      ],
      [
        "Now",
        -9.74763034708787
      ],
      [
        "Ġadults",
        -9.748235136990925
      ],
      [
        "Ġspeak",
        -9.74841317552668
      ],
      [
        "No",
        -9.749135354146176
      ],
      [
        "way",
        -9.749367147872764
      ],
      [
        "Ġconvert",
        -9.751337663561056
      ],
      [
        "chi",
        -9.752354030231448
      ],
      [
        "ice",
        -9.75298762250129
      ],
      [
        "spite",
        -9.753221142220156
      ],
      [
        "Ġaffected",
        -9.753730744633907
      ],
      [
        "Ġconnect",
        -9.754246225424822
      ],
      [
        "Ġdepth",
        -9.755213582760144
      ],
      [
        "Ġheight",
        -9.756036996666245
      ],
      [
        "Ġdouble",
        -9.757075286529531
      ],
      [
        "Ġcomment",
        -9.7571825031748
      ],
      [
        "Ġdistribution",
        -9.75860602548872
      ],
      [
        "Our",
        -9.75870957004206
      ],
      [
        "Ġletter",
        -9.759069454176736
      ],
      [
        "Ġca",
        -9.76052573539257
      ],
      [
        "Ġdiabetes",
        -9.762378610800296
      ],
      [
        "Ġsurrounding",
        -9.762752500667435
      ],
      [
        "Ġtransition",
        -9.762779906484925
      ],
      [
        "Ġemergenc",
        -9.76324460727217
      ],
      [
        "Ġopportunit",
        -9.764310151968743
      ],
      [
        "ĠPro",
        -9.765124938837504
      ],
      [
        "Ġelectron",
        -9.766201327819424
      ],
      [
        "Ġalthough",
        -9.766829335657793
      ],
      [
        "ĠLi",
        -9.766877323472016
      ],
      [
        "They",
        -9.76810860046194
      ],
      [
        "ĠFirst",
        -9.768207355914356
      ],
      [
        "ĠHigh",
        -9.769480788532263
      ],
      [
        "Ġestimate",
        -9.770348942196298
      ],
      [
        "Ġcommunit",
        -9.770500451745912
      ],
      [
        "Ġlose",
        -9.770803106541734
      ],
      [
        "Ġlink",
        -9.772534888418704
      ],
      [
        "can",
        -9.77259963898596
      ],
      [
        "Here",
        -9.772832376345544
      ],
      [
        "Ġocean",
        -9.7735036680377
      ],
      [
        "Ġtherefor",
        -9.77377064378723
      ],
      [
        "Ġgrain",
        -9.77398830909731
      ],
      [
        "Ġbeginning",
        -9.77399146754107
      ],
      [
        "ight",
        -9.77413304844536
      ],
      [
        "Ġdriver",
        -9.774419009589147
      ],
      [
        "gen",
        -9.77451509558484
      ],
      [
        "Ġcore",
        -9.774803975749029
      ],
      [
        "-in",
        -9.774858466955545
      ],
      [
        "our",
        -9.775116376061792
      ],
      [
        "Ġhit",
        -9.775229598716482
      ],
      [
        "Ġmicro",
        -9.775534397700902
      ],
      [
        "Ġattach",
        -9.776079102942589
      ],
      [
        "Ġinternational",
        -9.778206817971236
      ],
      [
        "Ġangle",
        -9.779030744794609
      ],
      [
        "Ġstuff",
        -9.77945876345807
      ],
      [
        "Ġsp",
        -9.779813384072495
      ],
      [
        "Ġimplement",
        -9.780610197034118
      ],
      [
        "Ġthermal",
        -9.781085330758934
      ],
      [
        "Ġexpress",
        -9.781311890097683
      ],
      [
        "Ġwrit",
        -9.78158599693074
      ],
      [
        "Ġengage",
        -9.782191715367771
      ],
      [
        "Ġorganism",
        -9.782543782682303
      ],
      [
        "ĠLet",
        -9.783051133913094
      ],
      [
        "Ġinternal",
        -9.783300918853508
      ],
      [
        "Ġtransport",
        -9.784917345908738
      ],
      [
        "izing",
        -9.78653042743959
      ],
      [
        "red",
        -9.786670286056864
      ],
      [
        "Ġsaw",
        -9.787047837099088
      ],
      [
        "Ġweb",
        -9.787570210664551
      ],
      [
        "Ġcloth",
        -9.7877252899282
      ],
      [
        "Ġattempt",
        -9.788220225704748
      ],
      [
        "Ġprogress",
        -9.788701529040113
      ],
      [
        "ĠCalifornia",
        -9.788773084644715
      ],
      [
        "Ġonto",
        -9.791047363111009
      ],
      [
        "Ġmedium",
        -9.791436839975551
      ],
      [
        "Ġgoals",
        -9.79144336948138
      ],
      [
        "Ġextract",
        -9.791934826806422
      ],
      [
        "About",
        -9.792394645480693
      ],
      [
        "Ġtechnologies",
        -9.792538310956632
      ],
      [
        "Ġapproximate",
        -9.793426967249616
      ],
      [
        "Ġgold",
        -9.794032900953134
      ],
      [
        "ĠSea",
        -9.794941179413614
      ],
      [
        "ng",
        -9.795218341963594
      ],
      [
        "Ġframe",
        -9.795225366496256
      ],
      [
        "ĠGerman",
        -9.795797474214163
      ],
      [
        "ĠEven",
        -9.795936775983671
      ],
      [
        "Ġspend",
        -9.797585084722805
      ],
      [
        "uc",
        -9.797865472719984
      ],
      [
        "Ġchicken",
        -9.798241427601166
      ],
      [
        "Ġfavorite",
        -9.798339308029547
      ],
      [
        "Ġplease",
        -9.798374174560037
      ],
      [
        "form",
        -9.798404105943035
      ],
      [
        "Ġidentified",
        -9.7984050517728
      ],
      [
        "Ġpractical",
        -9.80011232530378
      ],
      [
        "ists",
        -9.800155249981204
      ],
      [
        "Be",
        -9.800601456010597
      ],
      [
        "Ġmember",
        -9.801416473638094
      ],
      [
        "que",
        -9.802077372702083
      ],
      [
        "Ġdynamic",
        -9.802422216134044
      ],
      [
        "den",
        -9.802455231754532
      ],
      [
        "Ġnative",
        -9.8028539274552
      ],
      [
        "ĠClass",
        -9.803005288956856
      ],
      [
        "Ġcapture",
        -9.804798445615807
      ],
      [
        "Ġbasi",
        -9.805022542316092
      ],
      [
        "Ġobserve",
        -9.805690601476527
      ],
      [
        "ĠMar",
        -9.806094196459838
      ],
      [
        "Ġmarine",
        -9.806260584734629
      ],
      [
        "ĠTherefor",
        -9.808460432984235
      ],
      [
        "Ġraw",
        -9.808463227923191
      ],
      [
        "Ġalgorithm",
        -9.809704783212483
      ],
      [
        "ĠCon",
        -9.812212509136849
      ],
      [
        "Ġformed",
        -9.81295892402092
      ],
      [
        "Ġtransfer",
        -9.813666735024992
      ],
      [
        "Ġegg",
        -9.815874547235888
      ],
      [
        "Ġdrawing",
        -9.817136721141887
      ],
      [
        "Ġfashion",
        -9.81739340726445
      ],
      [
        "Ġmid",
        -9.817854657824157
      ],
      [
        "ĠZ",
        -9.817981239535024
      ],
      [
        "Ġcheese",
        -9.818874187679558
      ],
      [
        "Ġmagnetic",
        -9.82134580921525
      ],
      [
        "Ġannual",
        -9.822015753240482
      ],
      [
        "Ġboat",
        -9.823421137467122
      ],
      [
        "Ġfrequency",
        -9.823873331059236
      ],
      [
        "ER",
        -9.82631731717997
      ],
      [
        "Ġhabitat",
        -9.82719533341552
      ],
      [
        "Ġmap",
        -9.827345040315311
      ],
      [
        "air",
        -9.82857058498503
      ],
      [
        "ĠHo",
        -9.828790849222166
      ],
      [
        "Ġharvest",
        -9.830806459592642
      ],
      [
        "ail",
        -9.83121904237766
      ],
      [
        "ran",
        -9.831553111116913
      ],
      [
        "Ġsquare",
        -9.831729695756744
      ],
      [
        "Ġdie",
        -9.83206260008288
      ],
      [
        "Ġstring",
        -9.832649772125514
      ],
      [
        "Ġrecipe",
        -9.83382729779763
      ],
      [
        "ĠOver",
        -9.834259518850978
      ],
      [
        "Ġthin",
        -9.834907859460015
      ],
      [
        "happy",
        -9.8353233306132
      ],
      [
        "Ġcontroll",
        -9.836667061155516
      ],
      [
        "Ġbackground",
        -9.837045501580224
      ],
      [
        "Ġbillion",
        -9.837544415590052
      ],
      [
        "Ġmotion",
        -9.838839172041506
      ],
      [
        "ĠUn",
        -9.838915423294658
      ],
      [
        "ĠEnglish",
        -9.839682699004566
      ],
      [
        "Ġalone",
        -9.841805962523711
      ],
      [
        "Ġcars",
        -9.843113602243324
      ],
      [
        "Ġspecifically",
        -9.843974267793165
      ],
      [
        "ster",
        -9.844075096675226
      ],
      [
        "ble",
        -9.844710408730192
      ],
      [
        "side",
        -9.845312336176118
      ],
      [
        "ĠUK",
        -9.845512540748356
      ],
      [
        "expected",
        -9.84580230188508
      ],
      [
        "ell",
        -9.845978269410352
      ],
      [
        "Ġfacilit",
        -9.846411465487105
      ],
      [
        "Ġ#",
        -9.846749801927146
      ],
      [
        "Ġfinancial",
        -9.847448235549397
      ],
      [
        "act",
        -9.849141001012017
      ],
      [
        "ĠDec",
        -9.849476382816968
      ],
      [
        "Ġinvestment",
        -9.850730674436903
      ],
      [
        "Ġtri",
        -9.851300217044288
      ],
      [
        "ley",
        -9.851669905072598
      ],
      [
        "Ġpan",
        -9.851787484806268
      ],
      [
        "Ġopportunities",
        -9.85188371827416
      ],
      [
        "ger",
        -9.852733538268392
      ],
      [
        "Ġdifferences",
        -9.852929977918368
      ],
      [
        "Ġlandscape",
        -9.853001643098953
      ],
      [
        "Ġpreference",
        -9.853654786925942
      ],
      [
        "Ġfan",
        -9.853693657689195
      ],
      [
        "mp",
        -9.853884934259352
      ],
      [
        "Ġtube",
        -9.854080078763891
      ],
      [
        "Ġeducational",
        -9.854785763178068
      ],
      [
        "inches",
        -9.854790369058367
      ],
      [
        "defined",
        -9.85485176423293
      ],
      [
        "Ġupdate",
        -9.855043905137077
      ],
      [
        "ĠFood",
        -9.855335613620651
      ],
      [
        "Ġdrink",
        -9.856776853739962
      ],
      [
        "Ġregulation",
        -9.857429425757346
      ],
      [
        "Ġnearly",
        -9.857461189151604
      ],
      [
        "tra",
        -9.859073355656143
      ],
      [
        "ĠIndia",
        -9.859483958960896
      ],
      [
        "ĠPer",
        -9.860201374862436
      ],
      [
        "Ġjournal",
        -9.860371456652864
      ],
      [
        "ick",
        -9.862136698728897
      ],
      [
        "Ġbright",
        -9.86243698743344
      ],
      [
        "Ġcoffee",
        -9.86282132685856
      ],
      [
        "Ġwash",
        -9.86282376179134
      ],
      [
        "Ġancient",
        -9.863278413912855
      ],
      [
        "%)",
        -9.86417524677714
      ],
      [
        "Ã©",
        -9.86518287827116
      ],
      [
        "Ġmaximum",
        -9.865924526105744
      ],
      [
        "Ġremov",
        -9.865944271256202
      ],
      [
        "After",
        -9.865945657968885
      ],
      [
        "Ġadvice",
        -9.86598813199371
      ],
      [
        "Ġformat",
        -9.866080523565216
      ],
      [
        "Ġmelt",
        -9.866089682686953
      ],
      [
        "Ġprivate",
        -9.866327646327097
      ],
      [
        "Ġpredict",
        -9.866561935215293
      ],
      [
        "ĠRo",
        -9.867423665272204
      ],
      [
        "ĠAfrica",
        -9.869097006587914
      ],
      [
        "Ġcompost",
        -9.869228829377755
      ],
      [
        "Ġfunctions",
        -9.869671478394055
      ],
      [
        "Ġselection",
        -9.87196641640679
      ],
      [
        "tion",
        -9.8726308878717
      ],
      [
        "ĠMe",
        -9.873142279279298
      ],
      [
        "itis",
        -9.873696166230646
      ],
      [
        "Ġdoor",
        -9.874571851768932
      ],
      [
        "ĠMa",
        -9.875591087192957
      ],
      [
        "Ġlisten",
        -9.875596718013169
      ],
      [
        "Ġformation",
        -9.87722301659323
      ],
      [
        "Answer",
        -9.87739132921169
      ],
      [
        "Ġspray",
        -9.877626012054524
      ],
      [
        "Ġroutine",
        -9.878434445358634
      ],
      [
        "Ġatmosphere",
        -9.878434763028302
      ],
      [
        "ĠJust",
        -9.87898065470187
      ],
      [
        "visible",
        -9.87933558640595
      ],
      [
        "ĠAir",
        -9.879712783912854
      ],
      [
        "Ġdirt",
        -9.88002900693308
      ],
      [
        "Ġemploy",
        -9.88005692974248
      ],
      [
        "ology",
        -9.880069157327242
      ],
      [
        "Ġresource",
        -9.881080181575424
      ],
      [
        "ĠCar",
        -9.881800619850406
      ],
      [
        "Ġroots",
        -9.882972760439484
      ],
      [
        "mat",
        -9.883609678632205
      ],
      [
        "ven",
        -9.883806684688846
      ],
      [
        "Ġbooks",
        -9.884372209250396
      ],
      [
        "Ġplate",
        -9.884748322770012
      ],
      [
        "ĠSince",
        -9.885544328720831
      ],
      [
        "ĠDon",
        -9.886014421043974
      ],
      [
        "Ġbodie",
        -9.888042892948354
      ],
      [
        "Ġbegan",
        -9.888157222131234
      ],
      [
        "Ġsecure",
        -9.888299467787572
      ],
      [
        "Ġinform",
        -9.888466874844577
      ],
      [
        "Ġmiles",
        -9.889569249730148
      ],
      [
        "Ġtru",
        -9.88972514841092
      ],
      [
        "ĠGreat",
        -9.889994220187615
      ],
      [
        "wide",
        -9.89136035151515
      ],
      [
        "Ġdrop",
        -9.891777804933367
      ],
      [
        "Ġindustrial",
        -9.891866132995911
      ],
      [
        "Ġclick",
        -9.892737175965609
      ],
      [
        "ĠNa",
        -9.894407813793944
      ],
      [
        "Ġopening",
        -9.894689129347192
      ],
      [
        "ĠCO",
        -9.895129584342854
      ],
      [
        "That",
        -9.89585995814012
      ],
      [
        "Ġsuit",
        -9.896874916414026
      ],
      [
        "Ġsupplement",
        -9.897508297186995
      ],
      [
        "Ġdental",
        -9.897661507065871
      ],
      [
        "Ġcup",
        -9.899183833055542
      ],
      [
        "Ġbar",
        -9.899580069178516
      ],
      [
        "All",
        -9.900087652012084
      ],
      [
        "Ġsounds",
        -9.900088631634086
      ],
      [
        "quality",
        -9.900633286556063
      ],
      [
        "Ġcatch",
        -9.9017338450789
      ],
      [
        "Ġobvious",
        -9.902320930527786
      ],
      [
        "use",
        -9.902597142744629
      ],
      [
        "Ġstrain",
        -9.902689780859545
      ],
      [
        "Ġhighest",
        -9.903312332053948
      ],
      [
        "Ġcard",
        -9.903323148518034
      ],
      [
        "Ġoutcome",
        -9.904197259502908
      ],
      [
        "Ġcentral",
        -9.905142312072304
      ],
      [
        "Ġassess",
        -9.90531443044847
      ],
      [
        "Ġpainting",
        -9.905541177604608
      ],
      [
        "Ġsmell",
        -9.90558866903731
      ],
      [
        "Ġsites",
        -9.905968399253204
      ],
      [
        "Ġbroad",
        -9.90654121397579
      ],
      [
        "ĠOnc",
        -9.9070686786729
      ],
      [
        "Ġdiverse",
        -9.907337514733133
      ],
      [
        "ĠWell",
        -9.90737123243807
      ],
      [
        "Ġfarmer",
        -9.907756942413313
      ],
      [
        "Ġcheap",
        -9.908799219130152
      ],
      [
        "ĠDay",
        -9.91038474261643
      ],
      [
        "Ġowners",
        -9.910390335621573
      ],
      [
        "Ġsit",
        -9.910585145491716
      ],
      [
        "Ġsheet",
        -9.911200081181898
      ],
      [
        "Ġtechnical",
        -9.911487007666398
      ],
      [
        "Ġtrain",
        -9.911603126095883
      ],
      [
        "Ġsweet",
        -9.912915992598098
      ],
      [
        "Ġdrug",
        -9.91325836351478
      ],
      [
        "Ġtiny",
        -9.913695475933457
      ],
      [
        "ĠQ",
        -9.914183340999523
      ],
      [
        "ĠEurope",
        -9.914816516446589
      ],
      [
        "Ġchannel",
        -9.91693197556514
      ],
      [
        "{",
        -9.91739081810722
      ],
      [
        "Ġprepare",
        -9.91778082091125
      ],
      [
        "pril",
        -9.918274652218702
      ],
      [
        "Ġbirth",
        -9.920064326159713
      ],
      [
        "Ġdemonstrate",
        -9.921229994504944
      ],
      [
        "Ġcrack",
        -9.921881400464637
      ],
      [
        "Ġrespond",
        -9.923333312588898
      ],
      [
        "Ġintelligence",
        -9.923494347583166
      ],
      [
        "Ġfailure",
        -9.923522559869708
      ],
      [
        "Ġartificial",
        -9.926791959084872
      ],
      [
        "Ġgrass",
        -9.92705962597383
      ],
      [
        "Ġscene",
        -9.927161799066658
      ],
      [
        "Ġpotentially",
        -9.92717707151576
      ],
      [
        "Ġprepared",
        -9.928317830456264
      ],
      [
        "Ġwindow",
        -9.92861793707941
      ],
      [
        "ĠArt",
        -9.928960969410856
      ],
      [
        "ĠDepartment",
        -9.93010050789802
      ],
      [
        "Ġrobot",
        -9.931447197106344
      ],
      [
        "Ġsteel",
        -9.93176458399763
      ],
      [
        "Ġfriend",
        -9.93183695279314
      ],
      [
        "tri",
        -9.93254809088658
      ],
      [
        "Ġtrigger",
        -9.933258629813997
      ],
      [
        "Ġexperiences",
        -9.933983667333663
      ],
      [
        "Ġoffice",
        -9.935357017014937
      ],
      [
        "Ġgrown",
        -9.935486642564054
      ],
      [
        "He",
        -9.93555377114474
      ],
      [
        "Ġlens",
        -9.936058548573534
      ],
      [
        "ign",
        -9.936276624576996
      ],
      [
        "Ġcredit",
        -9.93652428384037
      ],
      [
        "Ġnumerous",
        -9.936751884899476
      ],
      [
        "Ġaccept",
        -9.937109227771794
      ],
      [
        "Ġearlier",
        -9.937228716104723
      ],
      [
        "ĠDur",
        -9.937621257476687
      ],
      [
        "Ġmaster",
        -9.93894924850127
      ],
      [
        "Ġhour",
        -9.939145257761682
      ],
      [
        "ĠMo",
        -9.93924644881756
      ],
      [
        "Ġindependent",
        -9.939525063841806
      ],
      [
        "Ġskill",
        -9.939591767738287
      ],
      [
        "Ġhelpful",
        -9.939741740983855
      ],
      [
        "Ġstaff",
        -9.94009225630954
      ],
      [
        "Ġblog",
        -9.940860613780943
      ],
      [
        "Ġconservation",
        -9.941019929211038
      ],
      [
        "Ġthick",
        -9.941037128531596
      ],
      [
        "Ġmembrane",
        -9.942188724980682
      ],
      [
        "Ġriver",
        -9.942376925366704
      ],
      [
        "ak",
        -9.942485125966718
      ],
      [
        "Ġsurvey",
        -9.94344515620142
      ],
      [
        "Ġfiber",
        -9.944437078346924
      ],
      [
        "Ġbreast",
        -9.944647865264486
      ],
      [
        "Ġmis",
        -9.944732332249156
      ],
      [
        "hu",
        -9.944958124980536
      ],
      [
        "ĠYork",
        -9.945127408827904
      ],
      [
        "Ġestablished",
        -9.94538373718784
      ],
      [
        "Ġsymbol",
        -9.946538644431984
      ],
      [
        "Ġdetermin",
        -9.948120762660798
      ],
      [
        "Yes",
        -9.948980115260492
      ],
      [
        "classes",
        -9.949232106115062
      ],
      [
        "Ġeconom",
        -9.949263602169726
      ],
      [
        "ping",
        -9.949924466128262
      ],
      [
        "ES",
        -9.95015865155635
      ],
      [
        "Ġfear",
        -9.950372184912862
      ],
      [
        "Ġtold",
        -9.95186505609612
      ],
      [
        "Ġassist",
        -9.952276597416017
      ],
      [
        "Ġengineering",
        -9.953330838893024
      ],
      [
        "Ġsession",
        -9.95357265218962
      ],
      [
        "Ġmechanical",
        -9.954711223440778
      ],
      [
        "Ġten",
        -9.954776558426444
      ],
      [
        "har",
        -9.95627389048954
      ],
      [
        "Ġattract",
        -9.956556266527606
      ],
      [
        "ĠEuropean",
        -9.95666389191239
      ],
      [
        "Ġpest",
        -9.957671926257408
      ],
      [
        "Ġcultural",
        -9.957792708279635
      ],
      [
        "Ġatom",
        -9.958676280519716
      ],
      [
        "Ġreliabl",
        -9.958680927841574
      ],
      [
        "Ġteach",
        -9.958966359960373
      ],
      [
        "Ġessay",
        -9.960381983020572
      ],
      [
        "ĠChina",
        -9.961311418781026
      ],
      [
        "Ġmother",
        -9.96137430362868
      ],
      [
        "ĠAustralia",
        -9.962251210738668
      ],
      [
        "Ġconsume",
        -9.963455999831432
      ],
      [
        "Ġeventual",
        -9.963838307404345
      ],
      [
        "aging",
        -9.964244262966726
      ],
      [
        "Ġstock",
        -9.96443656734649
      ],
      [
        "Ġtrial",
        -9.965293027271969
      ],
      [
        "Ġrace",
        -9.96542166463438
      ],
      [
        "Ġpollution",
        -9.965519892699993
      ],
      [
        "Ġgreenhouse",
        -9.965614315129134
      ],
      [
        "Ġevolution",
        -9.966659314753445
      ],
      [
        "Ġyield",
        -9.96723554120446
      ],
      [
        "Ġcontinuous",
        -9.967250261032351
      ],
      [
        "Ġexamples",
        -9.967294655916806
      ],
      [
        "Ġallerg",
        -9.967822600412628
      ],
      [
        "wise",
        -9.967984577200635
      ],
      [
        "Ġfollowed",
        -9.969336470164958
      ],
      [
        "Ġcreative",
        -9.97036199850508
      ],
      [
        "Ġnamed",
        -9.970496919533009
      ],
      [
        "car",
        -9.970886363849957
      ],
      [
        "see",
        -9.971655503658312
      ],
      [
        "Ġoccurr",
        -9.973032234842398
      ],
      [
        "Ġroll",
        -9.973164148844813
      ],
      [
        "Ġmuscles",
        -9.973237701129486
      ],
      [
        "ĠDesign",
        -9.973799127166451
      ],
      [
        "Ġcream",
        -9.973905471557064
      ],
      [
        "Ġagree",
        -9.974002140166618
      ],
      [
        "Ġcontrast",
        -9.97413810105786
      ],
      [
        "king",
        -9.9746707131383
      ],
      [
        "ĠPh",
        -9.975110152929457
      ],
      [
        "-year",
        -9.976852023633578
      ],
      [
        "ĠRa",
        -9.977515227413235
      ],
      [
        "Ġma",
        -9.978255571370603
      ],
      [
        "Ġdecisions",
        -9.97863772053201
      ],
      [
        "Ġincreases",
        -9.98024548258422
      ],
      [
        "Ġheld",
        -9.980587056782248
      ],
      [
        "Ġbrush",
        -9.980908292573584
      ],
      [
        "Ġvariation",
        -9.981094032712171
      ],
      [
        "Ġlabel",
        -9.981955170936873
      ],
      [
        "Ġupper",
        -9.98322614308951
      ],
      [
        "Ġrelevan",
        -9.983238210776497
      ],
      [
        "Ġmill",
        -9.983661555389466
      ],
      [
        "<",
        -9.983871891973482
      ],
      [
        "Ġseat",
        -9.985113598669274
      ],
      [
        "Ġindoor",
        -9.985254630141668
      ],
      [
        "society",
        -9.985624055591146
      ],
      [
        "Ġstraight",
        -9.986022699413777
      ],
      [
        "ĠPi",
        -9.987932432518722
      ],
      [
        "Ġextreme",
        -9.98967865964395
      ],
      [
        "Ġmanufacturing",
        -9.98984519358426
      ],
      [
        "Ġcomprehensive",
        -9.989910411720183
      ],
      [
        "ung",
        -9.99020829619009
      ],
      [
        "Ġauto",
        -9.9909756638068
      ],
      [
        "Ġformula",
        -9.991911051531568
      ],
      [
        "Ġaware",
        -9.992647939037688
      ],
      [
        "Ġhighlight",
        -9.993027247978215
      ],
      [
        "Ġharmful",
        -9.993455739249807
      ],
      [
        "ĠEvery",
        -9.99392669396862
      ],
      [
        "Ġpack",
        -9.994972979281542
      ],
      [
        "Ġleak",
        -9.995038643430725
      ],
      [
        "Ġaircraft",
        -9.995293136380422
      ],
      [
        "Ġemotional",
        -9.9959472742292
      ],
      [
        "Ġoperate",
        -9.996313477115264
      ],
      [
        "qui",
        -9.996402936768195
      ],
      [
        "val",
        -9.99681332259084
      ],
      [
        "Ġinnovation",
        -9.998680704590669
      ],
      [
        "Ġseven",
        -9.999548627574145
      ],
      [
        "Ġoffering",
        -9.99976769323688
      ],
      [
        "Ġstain",
        -10.000460094614404
      ],
      [
        "Ġaudio",
        -10.000519065657866
      ],
      [
        "Ġbear",
        -10.00083480576748
      ],
      [
        "Are",
        -10.001360616279385
      ],
      [
        "Ġsurgery",
        -10.001666453234009
      ],
      [
        "ĠDoes",
        -10.00173150974327
      ],
      [
        "Another",
        -10.003334046793343
      ],
      [
        "Ġdangerous",
        -10.004123265316128
      ],
      [
        "coming",
        -10.00423321930928
      ],
      [
        "Ġdetailed",
        -10.004568635634538
      ],
      [
        "-free",
        -10.00481583966259
      ],
      [
        "ash",
        -10.005308822810832
      ],
      [
        "Ġpress",
        -10.0066367619981
      ],
      [
        "ĠSan",
        -10.007923387418382
      ],
      [
        "Ġcable",
        -10.008490185325892
      ],
      [
        "My",
        -10.008888325681724
      ],
      [
        "Ġtransform",
        -10.01044972406753
      ],
      [
        "Ġprecise",
        -10.01081359513539
      ],
      [
        "und",
        -10.011624457444269
      ],
      [
        "Ġexhibit",
        -10.012078920449852
      ],
      [
        "Ġdust",
        -10.012978492269784
      ],
      [
        "log",
        -10.01307694569058
      ],
      [
        "Ġsaving",
        -10.013697483843618
      ],
      [
        "Ġexternal",
        -10.014181206697764
      ],
      [
        "Ġbond",
        -10.015563038852347
      ],
      [
        "which",
        -10.01645397975746
      ],
      [
        "Ġopinion",
        -10.016584874298296
      ],
      [
        "Ġsmart",
        -10.016931795510317
      ],
      [
        "Ġdrugs",
        -10.01703831037597
      ],
      [
        "ĠHa",
        -10.017614742244032
      ],
      [
        "Ġbank",
        -10.017673681972706
      ],
      [
        "Ġprimari",
        -10.018438499454138
      ],
      [
        "Ġrespect",
        -10.018801965626077
      ],
      [
        "Ġoptimal",
        -10.019052171945066
      ],
      [
        "dium",
        -10.019195650938611
      ],
      [
        "Ġsaying",
        -10.0197335047912
      ],
      [
        "Ġdefinition",
        -10.019924790027932
      ],
      [
        "ĠSept",
        -10.019960230601557
      ],
      [
        "Ġultimate",
        -10.02020521738525
      ],
      [
        "ĠBlack",
        -10.02093095935405
      ],
      [
        "Ġpot",
        -10.02236807436886
      ],
      [
        "Ġshell",
        -10.022652223749589
      ],
      [
        "ose",
        -10.022992742814854
      ],
      [
        "Ġthreat",
        -10.023561912642524
      ],
      [
        "ou",
        -10.024123492858036
      ],
      [
        "ĠPlant",
        -10.024402336140955
      ],
      [
        "Ġnation",
        -10.024426641200105
      ],
      [
        "Ġoperat",
        -10.024610132926176
      ],
      [
        "ction",
        -10.025327499021971
      ],
      [
        "Ġoutdoor",
        -10.025433963610023
      ],
      [
        "Ġfundamental",
        -10.025659279146886
      ],
      [
        "Ġconclusion",
        -10.025667658608349
      ],
      [
        "Ġwalls",
        -10.02635975192466
      ],
      [
        "Ġnaturally",
        -10.026448727809228
      ],
      [
        "Ġmeter",
        -10.026701281974477
      ],
      [
        "kin",
        -10.026869383705533
      ],
      [
        "Ġvirtual",
        -10.02694617281611
      ],
      [
        "Ġjump",
        -10.027485557427914
      ],
      [
        "Ġsector",
        -10.028216751324234
      ],
      [
        "back",
        -10.028320643027744
      ],
      [
        "Ġschedule",
        -10.02871679851376
      ],
      [
        "Ġhistorical",
        -10.02904048720402
      ],
      [
        "ĠWest",
        -10.029261472026851
      ],
      [
        "Ġhospital",
        -10.029316116767989
      ],
      [
        "q",
        -10.029378621196852
      ],
      [
        "TCG",
        -10.029466893468973
      ],
      [
        "Ġmold",
        -10.02955380532832
      ],
      [
        "Ġclinical",
        -10.029970650306735
      ],
      [
        "ear",
        -10.030176204953523
      ],
      [
        "Ġstories",
        -10.030378610184558
      ],
      [
        "ĠKeep",
        -10.030796006746742
      ],
      [
        "Ġcreation",
        -10.030830703922389
      ],
      [
        "Ġlaunch",
        -10.031144587217758
      ],
      [
        "Ġpossibilit",
        -10.031158326115666
      ],
      [
        "qu",
        -10.032550611462325
      ],
      [
        "Ġmeal",
        -10.033119715141268
      ],
      [
        "Ġdis",
        -10.033813180019033
      ],
      [
        "ĠStudent",
        -10.034037921864217
      ],
      [
        "Ġdiscussion",
        -10.034353537714477
      ],
      [
        "Ġnice",
        -10.034450311996489
      ],
      [
        "Ġcomposition",
        -10.03471160292531
      ],
      [
        "ug",
        -10.035889800950992
      ],
      [
        "Ġkitchen",
        -10.03666451465674
      ],
      [
        "weight",
        -10.037553654036069
      ],
      [
        "Ġspeaker",
        -10.0376460394267
      ],
      [
        "ttle",
        -10.03765122263086
      ],
      [
        "ward",
        -10.0382056629783
      ],
      [
        "Ġwhose",
        -10.039500232055447
      ],
      [
        "Ġprogramm",
        -10.03986457430534
      ],
      [
        "Ġexposed",
        -10.040316109903925
      ],
      [
        "Ġinteract",
        -10.04033329748931
      ],
      [
        "Ġextensive",
        -10.040369265266497
      ],
      [
        "Ġbathroom",
        -10.040369390451165
      ],
      [
        "Ġorange",
        -10.040425399538552
      ],
      [
        "ong",
        -10.041010439718526
      ],
      [
        "ified",
        -10.041190131011588
      ],
      [
        "Ġport",
        -10.041202458265168
      ],
      [
        "Ġsubstance",
        -10.042477570745556
      ],
      [
        "took",
        -10.044013532944216
      ],
      [
        "Conclusion",
        -10.044088324102034
      ],
      [
        "Ġlarges",
        -10.044258091247684
      ],
      [
        "Ġreality",
        -10.044902388266983
      ],
      [
        "Ġchoos",
        -10.04504933112312
      ],
      [
        "Ġheal",
        -10.045567822969476
      ],
      [
        "Ġsurvive",
        -10.045834452279468
      ],
      [
        "right",
        -10.046151036201172
      ],
      [
        "Ġlegal",
        -10.046263915579177
      ],
      [
        "ĠJohn",
        -10.047443623834113
      ],
      [
        "Ġincredibl",
        -10.047780044728448
      ],
      [
        "Ġmorning",
        -10.047780874927644
      ],
      [
        "Ġmeeting",
        -10.049184134565891
      ],
      [
        "Ġbeneficial",
        -10.049645600511804
      ],
      [
        "Ġbottle",
        -10.04967038227657
      ],
      [
        "Ġrice",
        -10.050720368991271
      ],
      [
        "rol",
        -10.051753093388651
      ],
      [
        "set",
        -10.051918467259584
      ],
      [
        "Ġthousands",
        -10.052170527485362
      ],
      [
        "Ġprocedure",
        -10.052254729973376
      ],
      [
        "ĠSp",
        -10.052505408163274
      ],
      [
        "Ġlay",
        -10.054659243174644
      ],
      [
        "Ġbutton",
        -10.055517529851896
      ],
      [
        "Ġobserv",
        -10.057170670501
      ],
      [
        "Ġdefine",
        -10.0597850207127
      ],
      [
        "Ġinjury",
        -10.059992378264052
      ],
      [
        "Ġcareer",
        -10.06047398623667
      ],
      [
        "Ġcit",
        -10.06065687932815
      ],
      [
        "Ġtea",
        -10.06098450369986
      ],
      [
        "Ġexamine",
        -10.06098450373626
      ],
      [
        "rat",
        -10.06116627849051
      ],
      [
        "Ġradio",
        -10.06152400595275
      ],
      [
        "Ġsolve",
        -10.061793484985458
      ],
      [
        "Ġreactions",
        -10.064482777499322
      ],
      [
        "Ġbi",
        -10.064620022033717
      ],
      [
        "Ġcomput",
        -10.0647138147007
      ],
      [
        "Ġmixture",
        -10.064887725200894
      ],
      [
        "Ġvs",
        -10.064974369252024
      ],
      [
        "Ġargument",
        -10.066674024388886
      ],
      [
        "ham",
        -10.066847537285048
      ],
      [
        "Ġbak",
        -10.066852545484029
      ],
      [
        "Ġtrust",
        -10.066986890111163
      ],
      [
        "Ġradiation",
        -10.068545867431894
      ],
      [
        "Ġplent",
        -10.068581384155424
      ],
      [
        "Most",
        -10.068960454516509
      ],
      [
        "Ġex",
        -10.070295336270927
      ],
      [
        "een",
        -10.070592938254007
      ],
      [
        "ĠFrench",
        -10.071165164055286
      ],
      [
        "ĠRiver",
        -10.071227959667572
      ],
      [
        "ĠProgram",
        -10.071444727299774
      ],
      [
        "kept",
        -10.072541232545472
      ],
      [
        "Ġrisks",
        -10.072867625149396
      ],
      [
        "Ġcalci",
        -10.074122666489338
      ],
      [
        "lie",
        -10.074632825291069
      ],
      [
        "Ġlab",
        -10.07533969303542
      ],
      [
        "Ġboost",
        -10.075461822903996
      ],
      [
        "Ġstandards",
        -10.076067478936327
      ],
      [
        "Ġenzyme",
        -10.076095940557126
      ],
      [
        "Ġbr",
        -10.076257668513612
      ],
      [
        "Ġanxiet",
        -10.076739338102575
      ],
      [
        "AL",
        -10.076975441533245
      ],
      [
        "ĠPark",
        -10.0775091595162
      ],
      [
        "Ġvoice",
        -10.079789428680051
      ],
      [
        "Ġleaf",
        -10.080227713204836
      ],
      [
        "Ġguy",
        -10.08036062053969
      ],
      [
        "Ġpound",
        -10.080589719217055
      ],
      [
        "Ġfossil",
        -10.081250892462233
      ],
      [
        "Ġbutter",
        -10.082939728091691
      ],
      [
        "ĠLake",
        -10.083166435026836
      ],
      [
        "Ġbudget",
        -10.083847592776944
      ],
      [
        "ĠEducation",
        -10.0839730837517
      ],
      [
        "Ġfoundation",
        -10.083985987269257
      ],
      [
        "Ġproducing",
        -10.084286732750533
      ],
      [
        "Ġvertical",
        -10.084671394593304
      ],
      [
        "Ġemail",
        -10.08577170078215
      ],
      [
        "Ġattend",
        -10.085819294062722
      ],
      [
        "Ġaliv",
        -10.085982140695048
      ],
      [
        "ĠService",
        -10.085993899303704
      ],
      [
        "Ġdensity",
        -10.086205296992729
      ],
      [
        "ĠMarch",
        -10.086571734473264
      ],
      [
        "Ġ<",
        -10.087475028105754
      ],
      [
        "latest",
        -10.087695367578196
      ],
      [
        "Ġengineer",
        -10.087727281479708
      ],
      [
        "Ġreduction",
        -10.087966784689236
      ],
      [
        "part",
        -10.088350995046309
      ],
      [
        "Ġrealize",
        -10.088921721578572
      ],
      [
        "Ġsuffer",
        -10.089163990341785
      ],
      [
        "Ġaccident",
        -10.089394689242352
      ],
      [
        "Ġthorough",
        -10.08965092719234
      ],
      [
        "Ġpolicy",
        -10.089651071149682
      ],
      [
        "Ġworry",
        -10.089691802571384
      ],
      [
        "Ġautomatic",
        -10.09077448021976
      ],
      [
        "ÂŃ",
        -10.091560525412374
      ],
      [
        "Ġtests",
        -10.092635546505276
      ],
      [
        "Finally",
        -10.095237754733892
      ],
      [
        "Ġrough",
        -10.09530450723901
      ],
      [
        "Ġpropose",
        -10.095573125596289
      ],
      [
        "Ġprove",
        -10.096007840551954
      ],
      [
        "Ġinvest",
        -10.096798715690635
      ],
      [
        "Ġisland",
        -10.097474758310906
      ],
      [
        "Ġdetail",
        -10.09801247574751
      ],
      [
        "Ġmission",
        -10.098155652408026
      ],
      [
        "/or",
        -10.09845659237608
      ],
      [
        "Ġsituations",
        -10.100249720736835
      ],
      [
        "Ġboil",
        -10.10042152821932
      ],
      [
        "ĠAdd",
        -10.101678426036964
      ],
      [
        "ĠJune",
        -10.101893936475104
      ],
      [
        "Ġcarefully",
        -10.102083518478135
      ],
      [
        "Ġtrade",
        -10.102389502937411
      ],
      [
        "Ġpanels",
        -10.103394738339908
      ],
      [
        "Ġcoal",
        -10.103749640464692
      ],
      [
        "Use",
        -10.103856680485336
      ],
      [
        "Ġpets",
        -10.104008251248352
      ],
      [
        "Ġresident",
        -10.10534195271157
      ],
      [
        "what",
        -10.10564730174506
      ],
      [
        "Ġdrain",
        -10.107243505718516
      ],
      [
        "ĠPre",
        -10.108848419295388
      ],
      [
        "Ġblend",
        -10.108858281952276
      ],
      [
        "ĠInternational",
        -10.10897211088345
      ],
      [
        "Ġchronic",
        -10.10927863413359
      ],
      [
        "Ġcreature",
        -10.109601401984968
      ],
      [
        "^",
        -10.110191399981051
      ],
      [
        "ĠGod",
        -10.11026895461127
      ],
      [
        "ric",
        -10.110447482239042
      ],
      [
        "Ġimprovement",
        -10.110755936899968
      ],
      [
        "Ġinterface",
        -10.11128253382522
      ],
      [
        "Ġlifestyle",
        -10.111379643848402
      ],
      [
        "Ġfertilizer",
        -10.111827562035728
      ],
      [
        "ade",
        -10.112865816409784
      ],
      [
        "Ġmention",
        -10.113138267762178
      ],
      [
        "Ġbiological",
        -10.113514254403432
      ],
      [
        "Ġassessment",
        -10.113607858923563
      ],
      [
        "Ġobjective",
        -10.114011348430656
      ],
      [
        "Ġcapabilit",
        -10.114520521560507
      ],
      [
        "Ġbas",
        -10.11505662414542
      ],
      [
        "Ġcollege",
        -10.1152429275085
      ],
      [
        "Ġminimum",
        -10.11524778908028
      ],
      [
        "Ġpowder",
        -10.11538151055374
      ],
      [
        "US",
        -10.11549592719361
      ],
      [
        "Ġintake",
        -10.116045044475632
      ],
      [
        "ack",
        -10.116402171410776
      ],
      [
        "Ġadopt",
        -10.11663656993845
      ],
      [
        "Ġarm",
        -10.11668527956721
      ],
      [
        "Ġclimb",
        -10.11702441100567
      ],
      [
        "Ġdecades",
        -10.117674981690602
      ],
      [
        "Ġobservation",
        -10.11770797533961
      ],
      [
        "Ġorigin",
        -10.118116781907103
      ],
      [
        "Ġharm",
        -10.118739884727582
      ],
      [
        "Ġinfections",
        -10.12037006354984
      ],
      [
        "ĠDog",
        -10.120903699549004
      ],
      [
        "Ġmode",
        -10.121255504643251
      ],
      [
        "Ġsupplie",
        -10.121381910076297
      ],
      [
        "Ġstatus",
        -10.121534327545724
      ],
      [
        "ĠHave",
        -10.121546336841558
      ],
      [
        "referred",
        -10.121547170584094
      ],
      [
        "ĠIsland",
        -10.123617680625628
      ],
      [
        "Ġborn",
        -10.12471965666388
      ],
      [
        "Ġpar",
        -10.125575208155206
      ],
      [
        "Ġgenerator",
        -10.125987597155238
      ],
      [
        "Ġinstallation",
        -10.126213355259512
      ],
      [
        "ĠBlue",
        -10.12651196234381
      ],
      [
        "Ġofficial",
        -10.127280705519428
      ],
      [
        "ze",
        -10.127922495110116
      ],
      [
        "Ġfirm",
        -10.128360020277253
      ],
      [
        "Ġfix",
        -10.129238178939776
      ],
      [
        "Ġchapter",
        -10.129299320623604
      ],
      [
        "Ġclassroom",
        -10.129396010522314
      ],
      [
        "Ġtail",
        -10.129759426714754
      ],
      [
        "stock",
        -10.130167108175655
      ],
      [
        "Ġlitera",
        -10.1301914126473
      ],
      [
        "ĠSystem",
        -10.130819642580091
      ],
      [
        "Ġassembl",
        -10.131146223549456
      ],
      [
        "Ġstroke",
        -10.13120236087791
      ],
      [
        "Your",
        -10.13276862157894
      ],
      [
        "Ġplanting",
        -10.13284289874199
      ],
      [
        "Ġaudience",
        -10.133352027212064
      ],
      [
        "ĠCanada",
        -10.13337387701734
      ],
      [
        "ĠQu",
        -10.133441900400816
      ],
      [
        "Ġhousehold",
        -10.1335312248302
      ],
      [
        "bu",
        -10.134446619024658
      ],
      [
        "Ġraise",
        -10.13471593516547
      ],
      [
        "Ġestablish",
        -10.134782068447102
      ],
      [
        "Ġdish",
        -10.135028579186152
      ],
      [
        "discovered",
        -10.13516335051673
      ],
      [
        "Ġchallenging",
        -10.135384523632196
      ],
      [
        "Ġlie",
        -10.135533189075664
      ],
      [
        "According",
        -10.136700273967742
      ],
      [
        "ĠAr",
        -10.13676464463434
      ],
      [
        "ĠBoth",
        -10.13696258970149
      ],
      [
        "Ġdiversity",
        -10.1374308093449
      ],
      [
        "acific",
        -10.137433451210864
      ],
      [
        "Ġstable",
        -10.138197607802995
      ],
      [
        "Ġhelping",
        -10.138297640098187
      ],
      [
        "Ġmeasured",
        -10.138457045143763
      ],
      [
        "Ġadvance",
        -10.138779082599614
      ],
      [
        "Ġtransmission",
        -10.139473533819451
      ],
      [
        "Ġsensitive",
        -10.140836889639065
      ],
      [
        "Ġconstruct",
        -10.14088406182114
      ],
      [
        "Ġacademic",
        -10.141623566995625
      ],
      [
        "Ġexcit",
        -10.14277763549826
      ],
      [
        "Ġdecide",
        -10.143480997210975
      ],
      [
        "that",
        -10.143606416378592
      ],
      [
        "Ġpark",
        -10.143615257926946
      ],
      [
        "ole",
        -10.144092023059418
      ],
      [
        "Ġprey",
        -10.144531970462616
      ],
      [
        "Ġpen",
        -10.14481166953932
      ],
      [
        "Ġgrade",
        -10.146770173662423
      ],
      [
        "Ġshade",
        -10.14717777381952
      ],
      [
        "Ġinternet",
        -10.147718457399431
      ],
      [
        "Ġfixed",
        -10.148105993995785
      ],
      [
        "Ġwish",
        -10.14847773511888
      ],
      [
        "ious",
        -10.150140892674653
      ],
      [
        "-time",
        -10.150295926288482
      ],
      [
        "Ġassume",
        -10.150394886903497
      ],
      [
        "Ġexplor",
        -10.15050131569992
      ],
      [
        "Pro",
        -10.151338045952103
      ],
      [
        "Ġgenerat",
        -10.15159975788723
      ],
      [
        "Ġcompetition",
        -10.151800654310597
      ],
      [
        "ene",
        -10.15201788820998
      ],
      [
        "off",
        -10.15203774105596
      ],
      [
        ");",
        -10.152479468568336
      ],
      [
        "Ġshared",
        -10.15370712593
      ],
      [
        "Ġbulb",
        -10.153870377122145
      ],
      [
        "Ġpuppy",
        -10.154371517979524
      ],
      [
        "Ġinstrument",
        -10.155302398348931
      ],
      [
        "ĠCl",
        -10.15548494924058
      ],
      [
        "qua",
        -10.15584455117795
      ],
      [
        "Ġlinked",
        -10.156059278285069
      ],
      [
        "hal",
        -10.156067645884054
      ],
      [
        "Onc",
        -10.15632321977313
      ],
      [
        "MS",
        -10.157397601117722
      ],
      [
        "etting",
        -10.15768882490693
      ],
      [
        "Ġpoly",
        -10.157703956021376
      ],
      [
        "uary",
        -10.157837465550216
      ],
      [
        "Ġremote",
        -10.158019233857742
      ],
      [
        "Ġlaser",
        -10.158196778832108
      ],
      [
        "ĠJuly",
        -10.158498800674336
      ],
      [
        "Ġsouth",
        -10.158706904765594
      ],
      [
        "Ġwound",
        -10.160102609663152
      ],
      [
        "Ġexcessive",
        -10.160432680900955
      ],
      [
        "Ġseek",
        -10.161198719023162
      ],
      [
        "].",
        -10.161707858484991
      ],
      [
        "Ġcalculate",
        -10.162087796622329
      ],
      [
        "mer",
        -10.162784845702689
      ],
      [
        "ĠGr",
        -10.16330375123075
      ],
      [
        "Ġdigest",
        -10.163856071190676
      ],
      [
        "Ġapart",
        -10.164937414905484
      ],
      [
        "Ġlift",
        -10.16517226449814
      ],
      [
        "ĠGreen",
        -10.165623844231318
      ],
      [
        "Ġconsideration",
        -10.16575275079819
      ],
      [
        "Ġalcohol",
        -10.166142795438326
      ],
      [
        "Ġamazing",
        -10.16637891469527
      ],
      [
        "Ġmild",
        -10.166569611995946
      ],
      [
        "Ġmeasurement",
        -10.167718912428782
      ],
      [
        "Ġcraft",
        -10.168896057695749
      ],
      [
        "Ġherb",
        -10.168921231331272
      ],
      [
        "Ġevaluate",
        -10.169009440075804
      ],
      [
        "Ġlibrary",
        -10.170584842400617
      ],
      [
        "Ġconsequence",
        -10.17058490839968
      ],
      [
        "Ġevolve",
        -10.170585027989304
      ],
      [
        "ĠCheck",
        -10.170691348563205
      ],
      [
        "ĠRead",
        -10.170806537777976
      ],
      [
        "Ġenvironments",
        -10.171517622781655
      ],
      [
        "Ġcr",
        -10.171663134756946
      ],
      [
        "Ġsecret",
        -10.1717686831368
      ],
      [
        "Ġconfirm",
        -10.17225993921796
      ],
      [
        "ĠII",
        -10.172291267113728
      ],
      [
        "Ġbrough",
        -10.172639746281728
      ],
      [
        "Ġinflammation",
        -10.172694537230624
      ],
      [
        "Ġleaving",
        -10.172702957951774
      ],
      [
        "Ġnet",
        -10.17354114485967
      ],
      [
        "Ġconcrete",
        -10.1748172174015
      ],
      [
        "Ġkidney",
        -10.174825309615912
      ],
      [
        "Ġnerve",
        -10.174914282712969
      ],
      [
        "Ġcompos",
        -10.174953380597938
      ],
      [
        "ĠFurther",
        -10.175580035973375
      ],
      [
        "Ġawareness",
        -10.17626608777536
      ],
      [
        "oil",
        -10.176326568817595
      ],
      [
        "Ġtight",
        -10.17697710177764
      ],
      [
        "Ġtitle",
        -10.1778357339294
      ],
      [
        "Ġcl",
        -10.178296039851944
      ],
      [
        "Ġuniverse",
        -10.179056612567091
      ],
      [
        "Ġwheel",
        -10.179109992216503
      ],
      [
        "dom",
        -10.180436532317032
      ],
      [
        "zi",
        -10.180695170426798
      ],
      [
        "Ġcustom",
        -10.180733118231805
      ],
      [
        "Ġtrip",
        -10.181278541365078
      ],
      [
        "Ġgr",
        -10.182312617494826
      ],
      [
        "Ġquantum",
        -10.183314896250764
      ],
      [
        "long",
        -10.183549804263038
      ],
      [
        "More",
        -10.183723335754376
      ],
      [
        "ĠGa",
        -10.185392276835422
      ],
      [
        "âĢĭ",
        -10.185450657174286
      ],
      [
        "Ġtoilet",
        -10.18570061719278
      ],
      [
        "Ġbill",
        -10.185791062381195
      ],
      [
        "ĠGoogle",
        -10.185893113846014
      ],
      [
        "eath",
        -10.185947363500448
      ],
      [
        "ĠCr",
        -10.186022015721944
      ],
      [
        "Ġnorth",
        -10.186306804079283
      ],
      [
        "bar",
        -10.18745840465316
      ],
      [
        "Ġsex",
        -10.18751188344586
      ],
      [
        "Ġprofessor",
        -10.187588436255552
      ],
      [
        "Ġtoxic",
        -10.188023725500935
      ],
      [
        "ĠEl",
        -10.188288182571169
      ],
      [
        "Ġprior",
        -10.188949523363032
      ],
      [
        "Ġinner",
        -10.18905296112299
      ],
      [
        "pro",
        -10.189251738068418
      ],
      [
        "Ġhormone",
        -10.18973434703874
      ],
      [
        "Ġdestroy",
        -10.189735205173918
      ],
      [
        "Ġrecovery",
        -10.190473231426084
      ],
      [
        "ĠBrit",
        -10.191508382579771
      ],
      [
        "Ġuniversit",
        -10.191643008799613
      ],
      [
        "Ġbarrier",
        -10.191885256136716
      ],
      [
        "Ġbeauty",
        -10.191886163298504
      ],
      [
        "ĠNe",
        -10.192195405123538
      ],
      [
        "Ġwasn",
        -10.192269408757898
      ],
      [
        "Ġreceiv",
        -10.192521033957448
      ],
      [
        "led",
        -10.193603647699051
      ],
      [
        "Ġguideline",
        -10.193680785269622
      ],
      [
        "&",
        -10.193685013280955
      ],
      [
        "ĠVi",
        -10.194027583232934
      ],
      [
        "Ġrandom",
        -10.194054177268844
      ],
      [
        "Ġemployee",
        -10.194097116580751
      ],
      [
        "facing",
        -10.19417779898627
      ],
      [
        "ĠAC",
        -10.194980344892766
      ],
      [
        "ĠKa",
        -10.195517449090774
      ],
      [
        "ĠPo",
        -10.1958990187763
      ],
      [
        "Ġsediment",
        -10.196200375091
      ],
      [
        "Ġcommitment",
        -10.196262627890125
      ],
      [
        "Ġtooth",
        -10.196612703688462
      ],
      [
        "ĠLook",
        -10.196847288137352
      ],
      [
        "ĠTechnology",
        -10.1970421644888
      ],
      [
        "Ġsurfaces",
        -10.197679523625943
      ],
      [
        "Let",
        -10.197870141138797
      ],
      [
        "Ġphysic",
        -10.198611773051772
      ],
      [
        "pl",
        -10.198803658227584
      ],
      [
        "ĠMan",
        -10.199302040395123
      ],
      [
        "Ġrapidly",
        -10.199326060173664
      ],
      [
        "Ġsports",
        -10.199354574068648
      ],
      [
        "Ġmobile",
        -10.199427532619438
      ],
      [
        "Ġpure",
        -10.200116357899075
      ],
      [
        "Ġshoes",
        -10.200443965428036
      ],
      [
        "Ġflea",
        -10.200662317849964
      ],
      [
        "Ġminimize",
        -10.200688814971244
      ],
      [
        "ING",
        -10.200773343033028
      ],
      [
        "Ġworm",
        -10.200814355720402
      ],
      [
        "Ġpassage",
        -10.20110717554772
      ],
      [
        "Ġpanel",
        -10.203170686449386
      ],
      [
        "Ġquantit",
        -10.203348539295291
      ],
      [
        "Ġcorn",
        -10.20354312239924
      ],
      [
        "Ġfl",
        -10.204346998407155
      ],
      [
        "like",
        -10.204383647939585
      ],
      [
        "Ġparticipants",
        -10.204452255471224
      ],
      [
        "my",
        -10.20457125349567
      ],
      [
        "ĠLED",
        -10.20476819383754
      ],
      [
        "but",
        -10.205636157579884
      ],
      [
        "Ġexcess",
        -10.206725099720696
      ],
      [
        "Ġmanual",
        -10.207084893851512
      ],
      [
        "Ġsufficient",
        -10.20742197610599
      ],
      [
        "Ġmo",
        -10.207425756116455
      ],
      [
        "Ġanalyze",
        -10.20744018281258
      ],
      [
        "ki",
        -10.207585083016705
      ],
      [
        "Ġpercentage",
        -10.207674748191266
      ],
      [
        "Ġzero",
        -10.20819328143742
      ],
      [
        "Ġdivide",
        -10.209457955776015
      ],
      [
        "Ġlake",
        -10.20958378275654
      ],
      [
        "Ġnutrition",
        -10.20982909781445
      ],
      [
        "iness",
        -10.209967939259574
      ],
      [
        "Ġputt",
        -10.210221627789702
      ],
      [
        "gg",
        -10.210632326640642
      ],
      [
        "Ġclosed",
        -10.211469121433224
      ],
      [
        "Ġweld",
        -10.211803478670992
      ],
      [
        "Ġspecialize",
        -10.212136143751708
      ],
      [
        "Ġutilize",
        -10.212312657240584
      ],
      [
        "ĠWhere",
        -10.212346797474517
      ],
      [
        "Ġcommunicate",
        -10.212358626213597
      ],
      [
        "cu",
        -10.21364079669933
      ],
      [
        "Ġdescription",
        -10.213648596718343
      ],
      [
        "Ġdefinite",
        -10.213693256995173
      ],
      [
        "Ġla",
        -10.213742341745863
      ],
      [
        "-being",
        -10.213883923013544
      ],
      [
        "Ġdomain",
        -10.213989539415696
      ],
      [
        "book",
        -10.214303090083614
      ],
      [
        "with",
        -10.216380995904704
      ],
      [
        "Ġdur",
        -10.2168883788687
      ],
      [
        "Ġcloser",
        -10.217073265712836
      ],
      [
        "Ġemotion",
        -10.217121756756455
      ],
      [
        "Ġheavi",
        -10.218394561321569
      ],
      [
        "Ġcombin",
        -10.219039579688827
      ],
      [
        "lay",
        -10.219805310189823
      ],
      [
        "ĠTa",
        -10.219854349976432
      ],
      [
        "ĠTime",
        -10.21994133250847
      ],
      [
        "Ġreplacement",
        -10.220902515986095
      ],
      [
        "Ġflex",
        -10.221625734115731
      ],
      [
        "Ġhomes",
        -10.22356588775162
      ],
      [
        "Ġfamiliar",
        -10.224405015999253
      ],
      [
        "Ġrestaurant",
        -10.224710580024976
      ],
      [
        "Ġphotos",
        -10.2247398713492
      ],
      [
        "ĠPeople",
        -10.224785933601684
      ],
      [
        "RE",
        -10.225184127463592
      ],
      [
        "ĠOcto",
        -10.22698860909722
      ],
      [
        "rate",
        -10.22786638986901
      ],
      [
        "Ġcalm",
        -10.227922213476578
      ],
      [
        "ĠLike",
        -10.2279453250722
      ],
      [
        "rote",
        -10.228006305291428
      ],
      [
        "Ġequation",
        -10.228081433058582
      ],
      [
        "ches",
        -10.228832480731016
      ],
      [
        "Ġwhale",
        -10.22917151675147
      ],
      [
        "istic",
        -10.229633238914822
      ],
      [
        "Ġedit",
        -10.22996103826037
      ],
      [
        "lot",
        -10.230316065217462
      ],
      [
        "Ġrapid",
        -10.230415158087668
      ],
      [
        "Ġinfect",
        -10.230774926696306
      ],
      [
        "Ġstation",
        -10.23223366162959
      ],
      [
        "Ġdecided",
        -10.232738333501178
      ],
      [
        "Ġstomach",
        -10.233649182445005
      ],
      [
        "Ġstabil",
        -10.23371914527837
      ],
      [
        "Ġloop",
        -10.233775055571323
      ],
      [
        "Ġcoral",
        -10.23447618637148
      ],
      [
        "Ġbrake",
        -10.235182467993084
      ],
      [
        "ĠSaudi",
        -10.23589232137436
      ],
      [
        "Ġchocolate",
        -10.235896370049892
      ],
      [
        "ĠCollege",
        -10.235896474313712
      ],
      [
        "Ġbecom",
        -10.23614271521573
      ],
      [
        "Ġscore",
        -10.23622832155928
      ],
      [
        "Ġbean",
        -10.23635266030824
      ],
      [
        "Ġspin",
        -10.236355202694345
      ],
      [
        "Ġwin",
        -10.23663526999892
      ],
      [
        "AR",
        -10.236884141863404
      ],
      [
        "ĠSu",
        -10.237210713826546
      ],
      [
        "Ġcharg",
        -10.23755774757873
      ],
      [
        "uck",
        -10.237849055370166
      ],
      [
        "Dr",
        -10.238025260574853
      ],
      [
        "ĠAfrican",
        -10.23806235867891
      ],
      [
        "ili",
        -10.238629241912282
      ],
      [
        "Ġbug",
        -10.239658592935836
      ],
      [
        "hose",
        -10.24008969827379
      ],
      [
        "Ġbloom",
        -10.240406136503289
      ],
      [
        "Ġurban",
        -10.240410813017167
      ],
      [
        "ĠWork",
        -10.240575061587442
      ],
      [
        "ĠGuide",
        -10.240677490804403
      ],
      [
        "Ġroute",
        -10.2408051660741
      ],
      [
        "Ġtwi",
        -10.241792217927957
      ],
      [
        "Ġsmoke",
        -10.241870456444593
      ],
      [
        "Ġrelax",
        -10.242226033653594
      ],
      [
        "Ġmolecular",
        -10.242313140727044
      ],
      [
        "Ġrocks",
        -10.242667993496068
      ],
      [
        "Ġpresentation",
        -10.242668800404502
      ],
      [
        "Ġtown",
        -10.242765477280956
      ],
      [
        "Ġsight",
        -10.24374663377852
      ],
      [
        "Ġvector",
        -10.244941853383883
      ],
      [
        "Ġexchange",
        -10.245346301863613
      ],
      [
        "Ġlenses",
        -10.24535770455401
      ],
      [
        "ĠLight",
        -10.245369154095425
      ],
      [
        "Ġappreciate",
        -10.24570858674272
      ],
      [
        "Ġtruck",
        -10.24613086473848
      ],
      [
        "pH",
        -10.24621846919979
      ],
      [
        "ĠHome",
        -10.246458900087172
      ],
      [
        "ological",
        -10.24706221725577
      ],
      [
        "Ġconversation",
        -10.247208707045353
      ],
      [
        "Ġmask",
        -10.247269537850588
      ],
      [
        "Â°C",
        -10.247461193312532
      ],
      [
        "heard",
        -10.24880657573539
      ],
      [
        "Ġsegment",
        -10.249486698259028
      ],
      [
        "Ġcopper",
        -10.249555392345073
      ],
      [
        "Ġkit",
        -10.24981789114793
      ],
      [
        "Ġbroken",
        -10.25024099354193
      ],
      [
        "Ġwet",
        -10.25046828112876
      ],
      [
        "bel",
        -10.250803758959911
      ],
      [
        "cha",
        -10.251612749324243
      ],
      [
        "Ġretain",
        -10.251770580451424
      ],
      [
        "Ġsharp",
        -10.25183177201638
      ],
      [
        "Ġrecycl",
        -10.25271232623965
      ],
      [
        "Ġeliminate",
        -10.253509837974198
      ],
      [
        "AT",
        -10.253601618881175
      ],
      [
        "Ġfunctional",
        -10.254194169479394
      ],
      [
        "rich",
        -10.25466785107427
      ],
      [
        "Ġwhatever",
        -10.255580920113855
      ],
      [
        "Ġreward",
        -10.255982096686337
      ],
      [
        "ĠEnergy",
        -10.256104953375209
      ],
      [
        "Ġwindows",
        -10.256289274201066
      ],
      [
        "Ġcloud",
        -10.256351986310907
      ],
      [
        "First",
        -10.25648057593973
      ],
      [
        "Ġstarts",
        -10.256881541121553
      ],
      [
        "Ġbehaviour",
        -10.25766682335966
      ],
      [
        "Ġshowing",
        -10.257826110471251
      ],
      [
        "ĠBi",
        -10.258522883399408
      ],
      [
        "Ġfoster",
        -10.258674236972263
      ],
      [
        "ĠTake",
        -10.258727936608144
      ],
      [
        "Ġalter",
        -10.25882208656602
      ],
      [
        "Ġcement",
        -10.258856303038884
      ],
      [
        "ĠFe",
        -10.259367167845031
      ],
      [
        "some",
        -10.260919818485426
      ],
      [
        "Ġbreath",
        -10.261335311894118
      ],
      [
        "read",
        -10.261825238139243
      ],
      [
        "Ġbreeding",
        -10.2640953630452
      ],
      [
        "Ġkinds",
        -10.26546376865777
      ],
      [
        "Dur",
        -10.265734939021687
      ],
      [
        "ĠIndian",
        -10.266043269487897
      ],
      [
        "ĠJew",
        -10.26660049898894
      ],
      [
        "ĠJanuary",
        -10.266814481053498
      ],
      [
        "ink",
        -10.267093930728
      ],
      [
        "Ġnuclear",
        -10.267884407169843
      ],
      [
        "Ġpages",
        -10.2685025715184
      ],
      [
        "otherwise",
        -10.268562539357138
      ],
      [
        "ĠCh",
        -10.268650453117443
      ],
      [
        "Ġdetection",
        -10.26916315514116
      ],
      [
        "Ġexam",
        -10.269534470737412
      ],
      [
        "Ġweak",
        -10.269653545603251
      ],
      [
        "are",
        -10.269701039425534
      ],
      [
        "Ġvast",
        -10.270369129780349
      ],
      [
        "Ġsteam",
        -10.270820890928569
      ],
      [
        "@",
        -10.27095610201616
      ],
      [
        "Ġdistinct",
        -10.271311011784016
      ],
      [
        "cut",
        -10.27149723999426
      ],
      [
        "gone",
        -10.272057732345187
      ],
      [
        "ĠAnimal",
        -10.272624510945606
      ],
      [
        "Ġcontract",
        -10.272881770145627
      ],
      [
        "New",
        -10.273704383174994
      ],
      [
        "most",
        -10.274012049971905
      ],
      [
        "Ġindex",
        -10.274148273054369
      ],
      [
        "PR",
        -10.274684693929466
      ],
      [
        "Ġperspective",
        -10.276013899093396
      ],
      [
        "Ġpilot",
        -10.27614574677637
      ],
      [
        "Ġconfiden",
        -10.27628167751589
      ],
      [
        "Ġowner",
        -10.27868743221078
      ],
      [
        "Ġfair",
        -10.278855688500023
      ],
      [
        "Ġtall",
        -10.279133925939844
      ],
      [
        "Ġencounter",
        -10.279581459038916
      ],
      [
        "Ġguess",
        -10.27958255682934
      ],
      [
        "Ġinnovative",
        -10.279591372474172
      ],
      [
        "Ġ\\(",
        -10.279641006284368
      ],
      [
        "Ġpackage",
        -10.279879053267422
      ],
      [
        "Ġsh",
        -10.281747177326665
      ],
      [
        "ck",
        -10.281800998944249
      ],
      [
        "Ġtraffic",
        -10.281934399511442
      ],
      [
        "Ġpreparation",
        -10.281934493102703
      ],
      [
        "Ġunlike",
        -10.282329123274938
      ],
      [
        "Ġeight",
        -10.28266279468492
      ],
      [
        "lat",
        -10.282798635282097
      ],
      [
        "ĠSun",
        -10.283917839974698
      ],
      [
        "day",
        -10.284134074304774
      ],
      [
        "Ġfelt",
        -10.284391983816732
      ],
      [
        "rid",
        -10.28449952789868
      ],
      [
        "Ġrely",
        -10.28451961759455
      ],
      [
        "ach",
        -10.284528163001426
      ],
      [
        "Ġthrow",
        -10.28482496042863
      ],
      [
        "Ġhunting",
        -10.284841337116912
      ],
      [
        "ami",
        -10.285167442228184
      ],
      [
        "Ġnovel",
        -10.285841270182956
      ],
      [
        "anagement",
        -10.286391681139468
      ],
      [
        "Ġdecline",
        -10.28774435550137
      ],
      [
        "Ġbones",
        -10.288301526284032
      ],
      [
        "nder",
        -10.289812090673944
      ],
      [
        "Ġstream",
        -10.290692430112063
      ],
      [
        "]Ċ",
        -10.29105669539176
      ],
      [
        "Ġautomat",
        -10.291153755243249
      ],
      [
        "Ġimagine",
        -10.291401922671064
      ],
      [
        "Ġmountain",
        -10.291417454589332
      ],
      [
        "Ġreef",
        -10.291435590882497
      ],
      [
        "IN",
        -10.291440244215424
      ],
      [
        "ĠGet",
        -10.29152012160613
      ],
      [
        "Ġbowl",
        -10.29163451742426
      ],
      [
        "\"The",
        -10.292110796669004
      ],
      [
        "Ġgraph",
        -10.292177757393816
      ],
      [
        "Ġconsumers",
        -10.293613446764327
      ],
      [
        "Ġwouldn",
        -10.293696448015812
      ],
      [
        "ĠGood",
        -10.29399674833674
      ],
      [
        "Ġrenewable",
        -10.294230347875768
      ],
      [
        "Ġsurvival",
        -10.29441242712323
      ],
      [
        "Ġshot",
        -10.29449245509948
      ],
      [
        "ĠEast",
        -10.29521722027312
      ],
      [
        "bal",
        -10.295998419720911
      ],
      [
        "ĠâĢ¢",
        -10.296056270279424
      ],
      [
        "wood",
        -10.296122996761849
      ],
      [
        "Ġabsolute",
        -10.296169507865834
      ],
      [
        "han",
        -10.296240853026635
      ],
      [
        "()",
        -10.296285234691805
      ],
      [
        "Ġlawn",
        -10.297040093347416
      ],
      [
        "Ġdimension",
        -10.297279720084802
      ],
      [
        "ĠChines",
        -10.297330567521865
      ],
      [
        "Ġpossibl",
        -10.298230854849164
      ],
      [
        "ĠDi",
        -10.298391034164654
      ],
      [
        "iz",
        -10.298435565080847
      ],
      [
        "ĠHouse",
        -10.29843639907158
      ],
      [
        "Ġpresented",
        -10.298871215266145
      ],
      [
        "Ġmice",
        -10.2989572192184
      ],
      [
        "gave",
        -10.299129100754463
      ],
      [
        "osis",
        -10.299410590119615
      ],
      [
        "ĠCare",
        -10.300006083386291
      ],
      [
        "gar",
        -10.300428842526587
      ],
      [
        "ular",
        -10.300455304289606
      ],
      [
        "Con",
        -10.300574309363537
      ],
      [
        "pot",
        -10.302140365392123
      ],
      [
        "Ġseal",
        -10.30230687841561
      ],
      [
        "Ġdirector",
        -10.30267220882627
      ],
      [
        "Ġfamous",
        -10.303363890081467
      ],
      [
        "Ġblade",
        -10.30342648736838
      ],
      [
        "Ġcards",
        -10.303681281908665
      ],
      [
        "Ġcolon",
        -10.304705238097055
      ],
      [
        "ably",
        -10.305226826529204
      ],
      [
        "ĠCounty",
        -10.30565063448869
      ],
      [
        "field",
        -10.305707448693742
      ],
      [
        "Ġtrend",
        -10.305737468066557
      ],
      [
        "Ġprompt",
        -10.305773990708555
      ],
      [
        "ĠType",
        -10.305858352433756
      ],
      [
        "Ġfeedback",
        -10.30590699986213
      ],
      [
        "ĠHis",
        -10.306130299543955
      ],
      [
        "Share",
        -10.307638840013816
      ],
      [
        "Ġsilver",
        -10.30857779553828
      ],
      [
        "Ġim",
        -10.309280011983002
      ],
      [
        "Hi",
        -10.309855249635117
      ],
      [
        "carried",
        -10.31010654184645
      ],
      [
        "Ġbees",
        -10.310465319465946
      ],
      [
        "Ġweigh",
        -10.310519742945113
      ],
      [
        "Ġaccurac",
        -10.31055865498189
      ],
      [
        "Ġbegins",
        -10.310559731610889
      ],
      [
        "Ġintervention",
        -10.310610191013753
      ],
      [
        "Ġplays",
        -10.310709669530551
      ],
      [
        "Ġworkshop",
        -10.310795614358394
      ],
      [
        "Ġdownload",
        -10.310887508054712
      ],
      [
        "cho",
        -10.310894588928434
      ],
      [
        "Ġdiscussed",
        -10.311105386194916
      ],
      [
        "Over",
        -10.311133337365836
      ],
      [
        "ĠSee",
        -10.311968633915855
      ],
      [
        "Ġloose",
        -10.312553835960257
      ],
      [
        "Ġintended",
        -10.312792551683554
      ],
      [
        "Ġprices",
        -10.312876528775648
      ],
      [
        "Ġincorporate",
        -10.31295024168831
      ],
      [
        "Ġgift",
        -10.31303822563829
      ],
      [
        "Ġdelicious",
        -10.313038773326031
      ],
      [
        "Ġdatabase",
        -10.313197367234068
      ],
      [
        "house",
        -10.313298845295003
      ],
      [
        "ĠLo",
        -10.313632271184645
      ],
      [
        "ST",
        -10.315179526311788
      ],
      [
        "Ġ{",
        -10.315693517671058
      ],
      [
        "Figure",
        -10.315844145782396
      ],
      [
        "Ġdiamond",
        -10.31626841877929
      ],
      [
        "ĠAugust",
        -10.316548171862166
      ],
      [
        "Ġmark",
        -10.31771110677191
      ],
      [
        "Ġbiggest",
        -10.318158202078834
      ],
      [
        "Ġthrive",
        -10.318289944202885
      ],
      [
        "Ġalign",
        -10.3191787378277
      ],
      [
        "Ġmine",
        -10.31924463127448
      ],
      [
        "Ġapproache",
        -10.320275660928502
      ],
      [
        "Ġarray",
        -10.320419970942677
      ],
      [
        "-p",
        -10.320553895698126
      ],
      [
        "Ġmanner",
        -10.320618277842163
      ],
      [
        "ĠJapan",
        -10.32119398132671
      ],
      [
        "ĠGarden",
        -10.322798355778898
      ],
      [
        "Ġscratch",
        -10.322805886349371
      ],
      [
        "Ġplane",
        -10.32287254398273
      ],
      [
        "Ġvalve",
        -10.322882882373392
      ],
      [
        "Ġdive",
        -10.323260916114442
      ],
      [
        "Ġzone",
        -10.323752321003422
      ],
      [
        "Ġvaccine",
        -10.323925052780076
      ],
      [
        "Ġprovider",
        -10.324770640547882
      ],
      [
        "ĠAssociation",
        -10.325262484170398
      ],
      [
        "Ġparallel",
        -10.325779802085204
      ],
      [
        "Ġrow",
        -10.325944563771486
      ],
      [
        "Ġshar",
        -10.326640532595851
      ],
      [
        "ĠTwo",
        -10.326917929017196
      ],
      [
        "thing",
        -10.327319935629022
      ],
      [
        "RO",
        -10.327454128721683
      ],
      [
        "SE",
        -10.327787147703138
      ],
      [
        "jo",
        -10.327886408875685
      ],
      [
        "Ġworse",
        -10.327888313219573
      ],
      [
        "Ġrelation",
        -10.328210395936445
      ],
      [
        "ĠOut",
        -10.328487228090388
      ],
      [
        "Ġsport",
        -10.328615645109693
      ],
      [
        "Ġagricultur",
        -10.328716837963784
      ],
      [
        "Ġgun",
        -10.328870270179507
      ],
      [
        "Ġsold",
        -10.329510738586851
      ],
      [
        "Ġneuron",
        -10.329931885886529
      ],
      [
        "Ġserving",
        -10.330195140006218
      ],
      [
        "Ġdiameter",
        -10.33019608281336
      ],
      [
        "Ġhabits",
        -10.330647648451684
      ],
      [
        "Ġconsult",
        -10.331917084524562
      ],
      [
        "gra",
        -10.33238254774015
      ],
      [
        "Ġcomparison",
        -10.332669892209193
      ],
      [
        "Ġdedicate",
        -10.33267085410296
      ],
      [
        "Ġsauce",
        -10.332675761295892
      ],
      [
        "Ġshark",
        -10.333225457640925
      ],
      [
        "Ġnose",
        -10.33350818796717
      ],
      [
        "Ġmassive",
        -10.333747305239523
      ],
      [
        "Ġcurve",
        -10.333846120192687
      ],
      [
        "well",
        -10.333890229680168
      ],
      [
        "Ġvariable",
        -10.334372778435686
      ],
      [
        "ĠCity",
        -10.33455119299687
      ],
      [
        "ĠRed",
        -10.334560644645682
      ],
      [
        "Ġbelief",
        -10.335154377662366
      ],
      [
        "Ġinjurie",
        -10.33515624241982
      ],
      [
        "industrie",
        -10.335174924537824
      ],
      [
        "Ġfur",
        -10.335543336909172
      ],
      [
        "Ġcounter",
        -10.336844601928636
      ],
      [
        "Ġluck",
        -10.337713330441996
      ],
      [
        "ĠConsider",
        -10.33794965194636
      ],
      [
        "Ġcircle",
        -10.337959569286962
      ],
      [
        "ĠData",
        -10.338065109555451
      ],
      [
        "ram",
        -10.338140243287022
      ],
      [
        "uk",
        -10.338884573602732
      ],
      [
        "Ġdishe",
        -10.338960224868645
      ],
      [
        "Ġparticipat",
        -10.340035979510125
      ],
      [
        "Ġnitrogen",
        -10.34013283052296
      ],
      [
        "che",
        -10.340225715641726
      ],
      [
        "Ġhandling",
        -10.340989553179323
      ],
      [
        "ĠPower",
        -10.34101778517984
      ],
      [
        "Ġdrie",
        -10.34132384284169
      ],
      [
        "Ġprinting",
        -10.342200459293888
      ],
      [
        "covered",
        -10.342648111945577
      ],
      [
        "Ġachiev",
        -10.343284408150003
      ],
      [
        "Ġflu",
        -10.343485112704087
      ],
      [
        "Ġhumidit",
        -10.344690820281665
      ],
      [
        "Ġlock",
        -10.344696572850715
      ],
      [
        "Ġdiffer",
        -10.344943266570985
      ],
      [
        "oma",
        -10.345059503691171
      ],
      [
        "Ġhoney",
        -10.345134169732162
      ],
      [
        "Ġcolumn",
        -10.345139601274276
      ],
      [
        "Ġmutation",
        -10.34514011523897
      ],
      [
        "Ġhidden",
        -10.345163420283452
      ],
      [
        "**",
        -10.346149044304823
      ],
      [
        "Ġcm",
        -10.346654776204328
      ],
      [
        "ome",
        -10.346724927095432
      ],
      [
        "Ġchemistr",
        -10.34682606761704
      ],
      [
        "Ġsubstances",
        -10.347280031327555
      ],
      [
        "Ġplug",
        -10.347473903058638
      ],
      [
        "Not",
        -10.347887173018275
      ],
      [
        "Ġplus",
        -10.348051529556162
      ],
      [
        "SA",
        -10.348329116062654
      ],
      [
        "ĠHuman",
        -10.348880053252316
      ],
      [
        "col",
        -10.34901549013233
      ],
      [
        "ĠLife",
        -10.349547887508052
      ],
      [
        "Ġmeasurements",
        -10.349711257250863
      ],
      [
        "COVID",
        -10.350170732918102
      ],
      [
        "rus",
        -10.350303635282174
      ],
      [
        "Ġpolitical",
        -10.350690837346985
      ],
      [
        "Ġbridge",
        -10.3507246161222
      ],
      [
        "net",
        -10.35098622465012
      ],
      [
        "Ġpictures",
        -10.352017841904996
      ],
      [
        "-on",
        -10.352142511216869
      ],
      [
        "ought",
        -10.352471434401092
      ],
      [
        "ĠThrough",
        -10.352667357352896
      ],
      [
        "ĠBar",
        -10.354705718894376
      ],
      [
        "AS",
        -10.354750487636196
      ],
      [
        "Ġdiagram",
        -10.355228383914076
      ],
      [
        "Ġcollaboration",
        -10.355345950977211
      ],
      [
        "Ġoven",
        -10.355406914562234
      ],
      [
        "Ġtrouble",
        -10.355439385733046
      ],
      [
        "Ġgut",
        -10.355627410187958
      ],
      [
        "Ġillustrate",
        -10.355670051868856
      ],
      [
        "ĠLearn",
        -10.356841277626607
      ],
      [
        "Ġsurprise",
        -10.35776529887195
      ],
      [
        "Ġspeech",
        -10.35776575657927
      ],
      [
        "Ġgenome",
        -10.35776780718502
      ],
      [
        "Ġcrystal",
        -10.357921895779796
      ],
      [
        "Ġbread",
        -10.357934061380858
      ],
      [
        "Ġcareful",
        -10.358106889248011
      ],
      [
        "Ġbiolog",
        -10.358464965462858
      ],
      [
        "Ġstrengthen",
        -10.358551454231677
      ],
      [
        "Ġforget",
        -10.358658209691908
      ],
      [
        "box",
        -10.360297392409397
      ],
      [
        "lam",
        -10.362473346776149
      ],
      [
        "Ġpa",
        -10.362659316306582
      ],
      [
        "OR",
        -10.362673584761202
      ],
      [
        "Ġregulate",
        -10.362868548440536
      ],
      [
        "Ġhydrogen",
        -10.362897541073655
      ],
      [
        "-b",
        -10.363150246946336
      ],
      [
        "Ġgrant",
        -10.363235254433832
      ],
      [
        "Ġrat",
        -10.36366708769974
      ],
      [
        "ĠAct",
        -10.363854750002274
      ],
      [
        "ĠCat",
        -10.364854447709458
      ],
      [
        "Ġjuice",
        -10.364975343056887
      ],
      [
        "bit",
        -10.365058601990556
      ],
      [
        "port",
        -10.365420174024443
      ],
      [
        "Ġassociation",
        -10.365561610768395
      ],
      [
        "ĠSe",
        -10.366075977965547
      ],
      [
        "van",
        -10.366495364680045
      ],
      [
        "Ġbranch",
        -10.368973612041827
      ],
      [
        "Ġworker",
        -10.370533608305868
      ],
      [
        "Ġinitiative",
        -10.370605258923415
      ],
      [
        "|Ċ",
        -10.370715972675338
      ],
      [
        "Ġdepression",
        -10.37080615126397
      ],
      [
        "From",
        -10.370975790064785
      ],
      [
        "Ġshop",
        -10.372963598640574
      ],
      [
        "Ġmattress",
        -10.37313108913562
      ],
      [
        "Ġprofile",
        -10.373152519164163
      ],
      [
        "Ġauthors",
        -10.3734036893316
      ],
      [
        "inary",
        -10.373875827420925
      ],
      [
        "Ġtie",
        -10.375538576111676
      ],
      [
        "Ġsudden",
        -10.375714703789026
      ],
      [
        "ĠKing",
        -10.375997725692134
      ],
      [
        "Ġinsurance",
        -10.376036062525078
      ],
      [
        "Ġturning",
        -10.37627241004522
      ],
      [
        "Ġresponsibilit",
        -10.37763128837052
      ],
      [
        "Ġincorporat",
        -10.377892818927132
      ],
      [
        "Ġfiles",
        -10.378181067741014
      ],
      [
        "ground",
        -10.3782606580652
      ],
      [
        "Ġscenario",
        -10.378305162781842
      ],
      [
        "Ġpermanent",
        -10.378305464086704
      ],
      [
        "Ġvegan",
        -10.378323370511772
      ],
      [
        "ĠWi",
        -10.379211428690509
      ],
      [
        "Ġmeals",
        -10.379631601732184
      ],
      [
        "ĠGroup",
        -10.380883665132677
      ],
      [
        "hood",
        -10.382051536098825
      ],
      [
        "bilities",
        -10.382112602572269
      ],
      [
        "Ġgradual",
        -10.3835071601057
      ],
      [
        "Ġmicrowave",
        -10.383525239566616
      ],
      [
        "Co",
        -10.384059702121249
      ],
      [
        "tuck",
        -10.385356939462792
      ],
      [
        "Ġpolicies",
        -10.386117735832974
      ],
      [
        "Ġexplanation",
        -10.386119534557944
      ],
      [
        "Ġinterview",
        -10.386139442872771
      ],
      [
        "Ġpose",
        -10.38641359335811
      ],
      [
        "Ġmining",
        -10.386451520570658
      ],
      [
        "Ġshapes",
        -10.386682326547154
      ],
      [
        "ĠControl",
        -10.387535603389432
      ],
      [
        "ĠGeneral",
        -10.388149201041312
      ],
      [
        "Ġspen",
        -10.388239703903777
      ],
      [
        "Ġrecording",
        -10.388280157982283
      ],
      [
        "Ġsales",
        -10.388317609627531
      ],
      [
        "Ġdanger",
        -10.388586337451937
      ],
      [
        "Ġpartial",
        -10.38871997600238
      ],
      [
        "Ġconflict",
        -10.388735498736905
      ],
      [
        "Ġrequest",
        -10.388735787569644
      ],
      [
        "how",
        -10.388742194002567
      ],
      [
        "ĠToday",
        -10.389562974881308
      ],
      [
        "ĠMc",
        -10.389768777205578
      ],
      [
        "PS",
        -10.390538013119288
      ],
      [
        "Ġneck",
        -10.39060882108311
      ],
      [
        "Ġtone",
        -10.390762486289518
      ],
      [
        "chosen",
        -10.391052280411763
      ],
      [
        "Ġregister",
        -10.391360278260734
      ],
      [
        "Ġcluster",
        -10.391368730233545
      ],
      [
        "Ġfeather",
        -10.391368790778206
      ],
      [
        "cat",
        -10.39151921039085
      ],
      [
        "Ġcopy",
        -10.391546495187445
      ],
      [
        "Ġclay",
        -10.391563069730504
      ],
      [
        "Ġlaborator",
        -10.39168949807275
      ],
      [
        "AD",
        -10.39189488753869
      ],
      [
        "Ġseeking",
        -10.391969862244457
      ],
      [
        "Ġpop",
        -10.392191550518504
      ],
      [
        "Ġcast",
        -10.392271897107442
      ],
      [
        "cur",
        -10.392352771789412
      ],
      [
        "Read",
        -10.39252050154126
      ],
      [
        "Before",
        -10.392559519394911
      ],
      [
        "ership",
        -10.392781619471291
      ],
      [
        "Ġpromot",
        -10.393029977619523
      ],
      [
        "ford",
        -10.39334532986209
      ],
      [
        "Ġcapital",
        -10.393657326478625
      ],
      [
        "Ġpeak",
        -10.394675205838936
      ],
      [
        "Ġrear",
        -10.39481373661322
      ],
      [
        "ĠGu",
        -10.395159990286018
      ],
      [
        "Ġmoved",
        -10.395207200752845
      ],
      [
        "ĠLong",
        -10.39529562470872
      ],
      [
        "Ġera",
        -10.395306893055224
      ],
      [
        "Ġresolution",
        -10.395308353210265
      ],
      [
        "Ġraised",
        -10.395729120367836
      ],
      [
        "Ġride",
        -10.396018687234136
      ],
      [
        "Me",
        -10.396046473810966
      ],
      [
        "Ġinterior",
        -10.39623394671662
      ],
      [
        "Ro",
        -10.39630137387387
      ],
      [
        "Ġband",
        -10.3968435965954
      ],
      [
        "ĠAny",
        -10.39721480067723
      ],
      [
        "Ġprotective",
        -10.398569880631891
      ],
      [
        "her",
        -10.399067893900956
      ],
      [
        "Ġreplac",
        -10.399187565197842
      ],
      [
        "Ġdiagnosi",
        -10.399316953160238
      ],
      [
        "rie",
        -10.39979780396381
      ],
      [
        "late",
        -10.39994421053458
      ],
      [
        "Ġdress",
        -10.40159837798596
      ],
      [
        "Ġmilitar",
        -10.401928730841526
      ],
      [
        "making",
        -10.402149048062007
      ],
      [
        "ĠFebr",
        -10.402418309122574
      ],
      [
        "loved",
        -10.402717719374689
      ],
      [
        "amp",
        -10.403380518231948
      ],
      [
        "ĠYear",
        -10.403781218497503
      ],
      [
        "ĠBr",
        -10.40485158385146
      ],
      [
        "Ġtax",
        -10.4049469594262
      ],
      [
        "nes",
        -10.406077680348195
      ],
      [
        "Ġintroduction",
        -10.4065042060138
      ],
      [
        "Ġtip",
        -10.40715417089256
      ],
      [
        "Ġgarlic",
        -10.40726415470085
      ],
      [
        "Ġprofit",
        -10.407280754962924
      ],
      [
        "Ġbrief",
        -10.40729291937695
      ],
      [
        "Ġmajorit",
[...]
