{"[UNK]": 0, "endoftextbehere": 1, "\u0120imagination": 2, "\u0120Exam": 3, "February": 4, "\u0120mountains": 5, "dh": 6, "particle": 7, "\u0120Planning": 8, "\u0120vendor": 9, "\u0120Introduction": 10, "vious": 11, "\u0120Uses": 12, "\u0120supplementation": 13, "\u0120cancers": 14, "\u0120genus": 15, "\u0120Rizal": 16, "\u0120belonging": 17, "\u0120monitoring": 18, "\u0120arise": 19, "\u0120her": 20, "\u0120dumped": 21, "\u0120humid": 22, "Ox": 23, "\u0120Native": 24, "\u0120threads": 25, "\u0120illness": 26, "pur": 27, "\u0120cytokine": 28, "\u0120Board": 29, "\u0120Certified": 30, "squ": 31, "herty": 32, "\u0120Honor": 33, "alo": 34, "\u0120Nelson": 35, "\u0120Language": 36, "\u0120blooms": 37, "\u0120jail": 38, "\u0120PET": 39, "\u0120flares": 40, "\u0120Debate": 41, "NO": 42, "\u0120complaining": 43, "From": 44, "\u0120phosphorus": 45, "\u0120Peoria": 46, "carrying": 47, "\u0120Server": 48, "\u0120collapsed": 49, "care": 50, "heim": 51, "\u0120memorial": 52, "\u0120eloquent": 53, "\u0120thoroughly": 54, "\u0120strategy": 55, "\u0120immunodeficiency": 56, "\u0120Superintendent": 57, "vir": 58, "\u0120TN": 59, "\u0120law": 60, "\u0120pound": 61, "\u0120publicly": 62, "\u0120synovial": 63, "surgeon": 64, "\u0120Syrian": 65, "\u0120promise": 66, "that": 67, "\u0120blessed": 68, "fish": 69, "\u0120intend": 70, "\u00e7": 71, "\u01201886": 72, "\u0120crucifixion": 73, "\u0120township": 74, "\u0120oily": 75, "iya": 76, "\u0120Factor": 77, "\u0120captive": 78, "ine": 79, "\u0120convert": 80, "\u0120kit": 81, "\u0120painless": 82, "aceae": 83, "\u0120appropriate": 84, "hh": 85, "\u0120intended": 86, "\u0120broadcasting": 87, "\u0120Diagnosis": 88, "\u0120metastatic": 89, "Your": 90, "\u0120roast": 91, "\u0120feels": 92, "region": 93, "\u0120Geophys": 94, "\u0120AK": 95, "\u0120gods": 96, "\u0120J": 97, "\u0120spreads": 98, "\u0120\u00e2\u0122\u0135": 99, "\u0120Darwinism": 100, "phyl": 101, "\u0120commute": 102, "\u0120graphics": 103, "\u0120acknowledge": 104, "sciences": 105, "\u0120mismatch": 106, "\u0120Egypt": 107, "\u0120ulcers": 108, "\u0120Omega": 109, "\u0120reconstructed": 110, "\u0120Roots": 111, "\u0120hybridization": 112, "\u0120regular": 113, "Texas": 114, "\u0120Ms": 115, "\u0120stubborn": 116, "cellular": 117, "\u0120sheer": 118, "\u0120distorted": 119, "\u0120Cambrian": 120, "\u0120apes": 121, "\u0120L": 122, "\u0120firsthand": 123, "\u0120absurd": 124, "\u0120bloody": 125, "\u0120militia": 126, "\u0120permanent": 127, "hos": 128, "ddle": 129, "\u0120fascinated": 130, "ately": 131, "\u0120cacao": 132, "ij": 133, "France": 134, "\u0120bring": 135, "eye": 136, "\u0120implemented": 137, "\u0120Jamestown": 138, "\u0120reversible": 139, "\u0120dynamics": 140, "\u0120airport": 141, "\u0120Torres": 142, "\u00d7\u013b\u00d7": 143, "Ever": 144, "Wednesday": 145, "FA": 146, "\u0120incapacit": 147, "\u0120physics": 148, "pha": 149, "\u0120Chapman": 150, "End": 151, "Random": 152, "\u0120Talk": 153, "\u0120Mechanism": 154, "\u0120homepage": 155, "\u0120abandoning": 156, "\u0120Tocharian": 157, "\u0120Large": 158, "\u0120nuns": 159, "\u0120reveals": 160, "\u0120Doug": 161, "\u0120longitude": 162, "XT": 163, "\u0120tossed": 164, "\u0120Scan": 165, "\u0120rinse": 166, "\u0120Simultaneous": 167, "\u0120wetter": 168, "\u0120uniqueness": 169, "\u0120horns": 170, "\u0120tight": 171, "\u0120dinosaurs": 172, "\u0120manufacturing": 173, "\u0120Sharing": 174, "\u00d1\u0122": 175, "\u0120inconsistencies": 176, "\u00e1\u00bd": 177, "\u0120Conservancy": 178, "\u01201963": 179, "\u0120prophecies": 180, "\u0120ominous": 181, "\u0120evenly": 182, "\u0120FC": 183, "\u0120Hinduism": 184, "\u01201995": 185, "oy": 186, "\u0120mom": 187, "\u0120Zachary": 188, "\u0120Maj": 189, "\u0120parenting": 190, "related": 191, "atum": 192, "civil": 193, "\u0120commission": 194, "\u0120probabilistic": 195, "\u0120baseline": 196, "\u0120Two": 197, "missions": 198, "1889": 199, "\u0120calculation": 200, "\u0120filed": 201, "\u0120Rho": 202, "\u0120Revolution": 203, "\u0120acted": 204, "shine": 205, "\u0120Experts": 206, "hed": 207, "\u0120Cedar": 208, "\u0120dysfunction": 209, "equivalent": 210, "\u0120underestimated": 211, "\u0120locating": 212, "\u0120Committee": 213, "\u0120alive": 214, "\u0120regulator": 215, "rks": 216, "\u0120ET": 217, "\u0120vowel": 218, "\u0120Alaska": 219, "\u0120Elsevier": 220, "\u0120330": 221, "\u0120Osiris": 222, "2": 223, "\u0120condemnation": 224, "\u0120dict": 225, "\u0120crazy": 226, "gues": 227, "\u0120Construction": 228, "ered": 229, "\u0120conviction": 230, "conduct": 231, "\u0120quantity": 232, "\u0120equations": 233, "\u0120def": 234, "\u0120generation": 235, "\u0120Cyril": 236, "\u0120Coolidge": 237, "\u0120Afghanistan": 238, "\u0120rhetoric": 239, "\u0120trap": 240, "\u0120fluoride": 241, "\u0120energetic": 242, "DN": 243, "\u0120endometrial": 244, "eer": 245, "Sto": 246, "\u0120Liberia": 247, "\u0120thirst": 248, "loc": 249, "\u0120asserting": 250, "Young": 251, "\u0120Hart": 252, "\u0120quit": 253, "\u0120peaked": 254, "\u0120deduction": 255, "\u0120opportunities": 256, "\u00e2\u0122\u013b": 257, "\u0120Ticonderoga": 258, "\u0120staple": 259, "\u0120conservatives": 260, "\u0120Roland": 261, "\u0120suggestions": 262, "\u0120Across": 263, "\u0120publication": 264, "\u0120106": 265, "\u0120memoirs": 266, "\u0120shareholders": 267, "wings": 268, "\u0120Feb": 269, "tone": 270, "\u0120puppet": 271, "ball": 272, "\u0120spasms": 273, "1973": 274, "\u0120woven": 275, "\u0120locally": 276, "\u0120String": 277, "\u0120orient": 278, "\u0120Companies": 279, "\u0120plagued": 280, "\u0120nuts": 281, "sler": 282, "\u0120motif": 283, "cup": 284, "shelf": 285, "TY": 286, "\u0120Einstein": 287, "\u0120dominion": 288, "\u0120deputies": 289, "Studies": 290, "\u0120seasons": 291, "\u0120conditioning": 292, "\u0120herald": 293, "INT": 294, "\u0120negative": 295, "\u0120pendulum": 296, "fat": 297, "\u0120deprivation": 298, "\u0120newer": 299, "\u0120comments": 300, "\u0120Play": 301, "\u0120ref": 302, "Il": 303, "\u0120acting": 304, "\u0120Cu": 305, "\u0120photographers": 306, "\u0120Robbins": 307, "\u0120total": 308, "\u0120Gui": 309, "\u0120unsafe": 310, "\u0120quiet": 311, "\u0120Mary": 312, "\u0120converting": 313, "\u0120Impact": 314, "\u0120cracking": 315, "dly": 316, "\u0120objection": 317, "\u0120fuse": 318, "\u0120sigmoid": 319, "\u0120respondents": 320, "\u0120cumbersome": 321, "ains": 322, "En": 323, "\u0120usual": 324, "oria": 325, "\u0120It": 326, "\u0120aligned": 327, "\u01206": 328, "\u0120bet": 329, "\u0120kindness": 330, "phor": 331, "\u0120Jefferson": 332, "\u0120mind": 333, "\u0120heading": 334, "\u0120desperately": 335, "\u0120Gallipoli": 336, "Comment": 337, "240": 338, "Fs": 339, "\u0120mammoth": 340, "\u0120Isthmus": 341, "\u0120agreed": 342, "\u0120surplus": 343, "\u0120fanatic": 344, "\u0120overlap": 345, "\u0120residential": 346, "\u0120Perkins": 347, "ir": 348, "coast": 349, "\u0120nucleotide": 350, "\u0120nervous": 351, "\u0120Revised": 352, "\u0120Ki": 353, "\u012034": 354, "\u0120EDUCATION": 355, "headed": 356, "\u0120surges": 357, "interpret": 358, "\u0120geologic": 359, "forced": 360, "org": 361, "\u0120unsurpassed": 362, "ame": 363, "\u0120192": 364, "\u0120complex": 365, "\u0120Conventions": 366, "\u0120DHCP": 367, "\u0120unforgettable": 368, "\u0120PP": 369, "\u0120frost": 370, "Few": 371, "\u0120aerospace": 372, "\u0120statin": 373, "Domestic": 374, "\u0120browsing": 375, "\u0120ideological": 376, "\u0120Fleming": 377, "\u0120debate": 378, "\u0120fragmentation": 379, "\u0120Dog": 380, "nz": 381, "\u0120Scenario": 382, "49": 383, "\u0120nickname": 384, "\u0120education": 385, "\u0120array": 386, "\u0120replaced": 387, "bis": 388, "\u0120primordial": 389, "BT": 390, "\u0120swear": 391, "\u0120correlated": 392, "\u0120folk": 393, "\u0120Petro": 394, "\u0120Review": 395, "\u0120though": 396, "Strateg": 397, "\u0120saltwater": 398, "Surgery": 399, "\u0120Basics": 400, "\u0120coconut": 401, "mg": 402, "\u0120nectar": 403, "\u0120Wilson": 404, "\u0120Aires": 405, "place": 406, "\u0120segment": 407, "\u0120Ven": 408, "\u0120endocrine": 409, "gs": 410, "Donnchadh": 411, "Shi": 412, "sized": 413, "fted": 414, "\u0120PULITZER": 415, "\u0120beach": 416, "\u0120admiration": 417, "Health": 418, "\u0120symbol": 419, "\u0120NRC": 420, "\u0120occupy": 421, "\u0120intersect": 422, "Office": 423, "\u0120shocks": 424, "\u0120separation": 425, "\u0120factors": 426, "\u0120intentional": 427, "Cultural": 428, "212": 429, "\u0120motivated": 430, "\u0120dementia": 431, "OC": 432, "\u0120Solution": 433, "\u0120economics": 434, "\u0120scalp": 435, "\u0120presidency": 436, "\u0120difficulties": 437, "\u0120ni": 438, "\u0120trees": 439, "\u0120disparate": 440, "\u0120intermediary": 441, "\u0120factor": 442, "\u0120click": 443, "nk": 444, "ieve": 445, "\u0120transient": 446, "nathan": 447, "\u0120IF": 448, "\u0120video": 449, "\u0120P": 450, "\u0120uncontrolled": 451, "\u0120sessions": 452, "\u0120quotations": 453, "\u0120sorts": 454, "ware": 455, "gler": 456, "Ne": 457, "\u0120state": 458, "\u0120Metropolitan": 459, "\u0120remain": 460, "\u0120atoms": 461, "esque": 462, "\u0120predecessor": 463, "sal": 464, "Gl": 465, "\u0120rebound": 466, "\u0120solitary": 467, "\u0120agglomeration": 468, "\u0120Total": 469, "\u0120flavor": 470, "\u0120float": 471, "ternity": 472, "\u0120function": 473, "\u0120Aid": 474, "\u0120recall": 475, "\u0120conserved": 476, "\u0120listed": 477, "Reg": 478, "valued": 479, "1016": 480, "\u0120larva": 481, "\u012075": 482, "\u0120urea": 483, "\u0120Implementation": 484, "\u0120prompt": 485, "\u0120appreciated": 486, "\u00e1\u00b8": 487, "\u0120fra": 488, "\u0120pheno": 489, "\u0120copyrighted": 490, "\u0120forces": 491, "\u0120saying": 492, "\u0120Soul": 493, "\u0120mixes": 494, "\u0120fowl": 495, "\u0120Socialist": 496, "Could": 497, "Word": 498, "\u0120225": 499, "algebra": 500, "\u0120Adirondack": 501, "\u0120Parsons": 502, "Circ": 503, "\u0120push": 504, "\u0120surprises": 505, "green": 506, "\u0120pads": 507, "\u0120faced": 508, "\u0120Mitsubishi": 509, "\u0120Counties": 510, "\u0120Rehabilitation": 511, "\u0120corresponds": 512, "\u0120console": 513, "\u0120complement": 514, "\u0120TECHNOLOG": 515, "\u0120explode": 516, "\u0120Cru": 517, "\u0120chromosome": 518, "\u0120Oil": 519, "erial": 520, "\u0120exploring": 521, "au": 522, "also": 523, "\u0120mm": 524, "\u0120install": 525, "\u01201800": 526, "\u0120poaching": 527, "\u0120Wave": 528, "\u0120Yo": 529, "\u0120Influence": 530, "\u0120licenses": 531, "\u0120narratives": 532, "\u0120suite": 533, "\u0120conquest": 534, "erly": 535, "LM": 536, "\u0120sustainable": 537, "\u0120Harper": 538, "\u0120folklore": 539, "entry": 540, "\u0120tax": 541, "ivists": 542, "\u0120tin": 543, "Review": 544, "\u0120Dwight": 545, "\u0120habit": 546, "\u0120marvellous": 547, "condition": 548, "\u0120Dave": 549, "\u0120enigmatic": 550, "\u00ef\u00bf\u00bd": 551, "\u0120lodge": 552, "\u0120Warbler": 553, "\u0120hive": 554, "\u0120Shin": 555, "ester": 556, "\u0120pasteur": 557, "\u0120reckon": 558, "\u0120Lion": 559, "ction": 560, "\u0120cruelty": 561, "\u0120diagrams": 562, "better": 563, "program": 564, "\u0120Medal": 565, "\u0120od": 566, "\u0120feedback": 567, "135": 568, "\u0120emails": 569, "\u0120aspiration": 570, "\u0120Santiago": 571, "\u0120mono": 572, "ted": 573, "\u0120principles": 574, "\u0120relation": 575, "\u0120probably": 576, "\u0120default": 577, "ant": 578, "\u0120visualize": 579, "\u0120Commons": 580, "\u0120balls": 581, "\u0120engage": 582, "\u0120sanit": 583, "\u0120did": 584, "from": 585, "\u0120searchable": 586, "\u0120sensors": 587, "\u00c3\u00a9s": 588, "\u0120describes": 589, "\u0120agricultural": 590, "ethane": 591, "\u0120Easter": 592, "\u0120upland": 593, "Bel": 594, "\u0120Passage": 595, "\u0120received": 596, "\u0120Most": 597, "\u0120Marketing": 598, "\u0120Quintana": 599, "ulation": 600, "\u0120brands": 601, "\u0120repeat": 602, "face": 603, "\u0120benevolent": 604, "\u0120readings": 605, "\u0120picks": 606, "usion": 607, "\u0120Letters": 608, "\u0120highlighted": 609, "\u0120millimeters": 610, "\u0120financing": 611, "\u0120instructors": 612, "\u0120goddess": 613, "nid": 614, "Hence": 615, "mb": 616, "\u0120lay": 617, "\u0120governor": 618, "\u0120attacked": 619, "has": 620, "\u0120server": 621, "Focus": 622, "\u0120extrapola": 623, "izable": 624, "\u0120Gold": 625, "\u0120Log": 626, "thyroidism": 627, "\u0120asking": 628, "\u0120detergent": 629, "\u0120inauguration": 630, "\u0120hat": 631, ",\u00e2\u0122\u013b": 632, "\u0120algebraic": 633, "\u0120131": 634, "my": 635, "\u0120230": 636, "php": 637, "LF": 638, "or": 639, "tuary": 640, "\u0120Julie": 641, "\u0120Dana": 642, "Sc": 643, "Free": 644, "\u0120yogurt": 645, "\u0120signatures": 646, "members": 647, "served": 648, "...\"": 649, "\u0120homeland": 650, "Would": 651, "\u0120theologians": 652, "term": 653, "\u0120carnivores": 654, "\u00e3\u0123": 655, "\u0120conglomerate": 656, "\u0120webpage": 657, "ves": 658, "\u0120Project": 659, "\u0120Unity": 660, "\u0120Rice": 661, "associated": 662, "\u0120hunter": 663, "\u0120morbidity": 664, "\u0120rented": 665, "\u0120remittances": 666, "\u0120patriarch": 667, "\u0120winding": 668, "\u0120SY": 669, "test": 670, "\u0120form": 671, "\u0120specializes": 672, "\u0120Oakland": 673, "\u0120interpreter": 674, "\u0120ha": 675, "\u0120appearance": 676, "anic": 677, "\u0120fine": 678, "\u0120Manuel": 679, "\u0120temple": 680, "ifolia": 681, "da": 682, "\u0120telescopes": 683, "\u0120Transparency": 684, "\u0120dorsal": 685, "\u0120subdued": 686, "\u0120habits": 687, "\u0120Lynn": 688, "pieces": 689, "\u0120conversions": 690, "ges": 691, "\u0120expended": 692, "\u0120cutting": 693, "Stop": 694, "\u0120Privy": 695, "\u0120segregated": 696, "\u0120propositions": 697, "\u0120Charleston": 698, "\u0120amyloid": 699, "\u0120Fan": 700, "\u0120Healing": 701, "Death": 702, "mide": 703, "\u0120admir": 704, "\u0120suck": 705, "\u0120speculative": 706, "\u0120Lexington": 707, "\u01201943": 708, "\u0120twigs": 709, "\u0120reservoirs": 710, "\u0120Analysis": 711, "\u0120spinach": 712, "\u0120pr\u00c4\u0123\u00e1\u00b9\u0129a": 713, "\u0120geographically": 714, "\u0120OCD": 715, "\u0120Majesty": 716, "\u0120Tak": 717, "\u0120involves": 718, "\u0120pay": 719, "\u0120harmful": 720, "\u0120obstacles": 721, "Air": 722, "\u0120cures": 723, "\u0120vitro": 724, "\u0120citizens": 725, "pad": 726, "\u0120fictitious": 727, "\u0120tailings": 728, "\u0120inflammation": 729, "\u0120clash": 730, "Meanwhile": 731, "\u0120Protected": 732, "CU": 733, "Az": 734, "\u0120Chal": 735, "\u0120statue": 736, "\u0120Borneo": 737, "\u0120tortoises": 738, "\u0120grandeur": 739, "effective": 740, "GROSS": 741, "1996": 742, "\u0120laid": 743, "\u0120technology": 744, "\u0120refugees": 745, "\u0120im": 746, "mill": 747, "\u0120improving": 748, "\u0120exhibited": 749, "\u0120MET": 750, "\u0120required": 751, "\u0120favourable": 752, "\u0120marble": 753, "erre": 754, "\u01201897": 755, "\u0120dignified": 756, "\u0120Construct": 757, "\u0120excavations": 758, "ocean": 759, "finder": 760, "\u0120exhausted": 761, "\u0120Groups": 762, "\u0120Chemistry": 763, "\u0120Mich": 764, "\u0120outpatient": 765, "\u0120Want": 766, "\u0120groups": 767, "\u0120Demand": 768, "anticipated": 769, "uch": 770, "\u0120Eisenhower": 771, "\u0120population": 772, "\u00e2\u0122\u013f.": 773, "\u0120Oak": 774, "\u0120festive": 775, "\u0120Pali": 776, "\u0120herbs": 777, "\u0120rewards": 778, "\u0120straw": 779, "\u0120mixing": 780, "\u0120obstetric": 781, "\u0120Responsibility": 782, "\u0120daunting": 783, "\u0120Products": 784, "\u0120tomorrow": 785, "\u0120Southern": 786, "\u0120nutritious": 787, "\u0120decomposition": 788, "\u0120never": 789, "\u0120Cash": 790, "iest": 791, "learn": 792, "real": 793, "\u0120protein": 794, "\u0120thinkers": 795, "irs": 796, "\u0120M\u00c4\u0123ori": 797, "\u0120Agricultural": 798, "\u0120KS": 799, "If": 800, "\u0120sparsely": 801, "\u0120hardest": 802, "\u0120Affordable": 803, "\u0120reintrodu": 804, "\u0120slowly": 805, "\u0120region": 806, "\u0120Death": 807, "\u0120Ba": 808, "\u0120requires": 809, "\u0120census": 810, "\u0120Character": 811, "\u0120geo": 812, "\u0120workshop": 813, "\u0120snakes": 814, "\u0120Fun": 815, "\u0120Ver": 816, "atus": 817, "\u0120Peri": 818, "\u0120spectrometer": 819, "\u0120dowry": 820, "\u0120recommendations": 821, "\u0120symbolic": 822, "\u0120banned": 823, "just": 824, "\u0120knows": 825, "\u0120probabilities": 826, "\u0120browse": 827, "12": 828, "ARY": 829, "\u0120dragged": 830, "\u0120Concentration": 831, "\u0120Providing": 832, "Irish": 833, "LB": 834, "\u0120nobody": 835, "\u0120no": 836, "qual": 837, "\u0120Mile": 838, "\u0120hiding": 839, "\u0120Heights": 840, "\u0120prairie": 841, "\u0120solutions": 842, "\u0120nephew": 843, "\u0120kin": 844, "\u0120navigable": 845, "\u0120bin": 846, "\u0120members": 847, "\u0120created": 848, "\u0120biting": 849, "man": 850, "\u0120Darfur": 851, "\u0120talent": 852, "\u0120secure": 853, "\u0120Carroll": 854, "\u0120chaired": 855, "ide": 856, "\u0120ants": 857, "aly": 858, "ectomy": 859, "SU": 860, "\u0120registry": 861, "\u0120harvest": 862, "\u0120amenities": 863, "\u0120Ai": 864, "\u0120Messenger": 865, "\u0120Own": 866, "\u0120Thor": 867, "\u0120MHz": 868, "\u00ef\u00bc": 869, "\u0120Gem": 870, "Note": 871, "\u0120ancestors": 872, "\u0120BASIC": 873, "TT": 874, "\u0120migration": 875, "\u0120chapters": 876, "\u0120pollutant": 877, "\u0120Niagara": 878, "\u0120plaque": 879, "\u0120p": 880, "Elizabeth": 881, "\u0120buyers": 882, "\u0120emphasizing": 883, "\u0120handles": 884, "\u0120concerning": 885, "za": 886, "\u0120Wong": 887, "\u0120architecture": 888, "ration": 889, "\u0120denominations": 890, "\u0120Compact": 891, "\u0120assign": 892, "sm": 893, "\u0120Capitol": 894, "\u0120uncover": 895, "\u0120Seven": 896, "Anyone": 897, "\u0120instructional": 898, "\u0120Position": 899, "aking": 900, "\u0120crater": 901, "\u0120Glen": 902, "\u0120Babbitt": 903, "\u0120Psycho": 904, "vian": 905, "page": 906, "\u0120pelvic": 907, "\u0120audience": 908, "ZA": 909, "\u0120Coast": 910, "logic": 911, "SB": 912, "\u00be": 913, "\u0120insertion": 914, "mo": 915, "\u01201929": 916, "\u0120newcomers": 917, "\u0120tend": 918, "\u0120older": 919, "\u0120firmly": 920, "\u0120olfactory": 921, "uce": 922, "\u0120Anatomy": 923, "\u0120Con": 924, "cated": 925, "tish": 926, "four": 927, "\u0120shape": 928, "\u0120affecting": 929, "\u0120232": 930, "\u0120butter": 931, "\u0120Standard": 932, "\u0120increased": 933, "\u0120Y": 934, "high": 935, "Em": 936, "De": 937, "\u0120parental": 938, "\u0120accessed": 939, "\u0120Az": 940, "below": 941, "ather": 942, "\u0120assay": 943, "pod": 944, "bottom": 945, "\u0120embed": 946, "\u0120Bird": 947, "\u0120abnormalities": 948, "\u0120pres": 949, "\u0120Newsletter": 950, "\u0120grapes": 951, "ternal": 952, "\u0120Additional": 953, "neo": 954, "\u0120twelve": 955, "\u0120grade": 956, "\u0120Cr": 957, "\u0120Back": 958, "\u0120Tyrannosaurus": 959, "protected": 960, "\u0120rectangle": 961, "existing": 962, "Collins": 963, "\u0120quality": 964, "\u0120junk": 965, "\u0120jubilee": 966, "16": 967, "\u0120Worksheet": 968, "\u013c": 969, "UC": 970, "\u0120rebel": 971, "\u0120sudden": 972, "\u0120operated": 973, "\u0120subjects": 974, "\u0120Africa": 975, "\u0120residence": 976, "\u0120relating": 977, "\u0120Who": 978, "\u0120amber": 979, "\u0120develop": 980, "\u0120According": 981, "06": 982, "\u0120Oceans": 983, "\u0120mountain": 984, "NI": 985, "\u0120COM": 986, "\u0120unearthed": 987, "\u0120accepting": 988, "\u0120precepts": 989, "\u0120Gale": 990, "\u0120gut": 991, "\u0120sunlight": 992, "\u0120sinful": 993, "\u0120handheld": 994, "\u0120storytelling": 995, "\u0120delicious": 996, "\u0120Comp": 997, "\u0120spaceflight": 998, "1945": 999, "\u0120mature": 1000, "taking": 1001, "ophilus": 1002, "\u0120Work": 1003, "\u0120enclosure": 1004, "\u0120botanist": 1005, "\u0120full": 1006, "gu": 1007, "etary": 1008, "\u0120histori": 1009, "\u0120trash": 1010, "Max": 1011, "sense": 1012, "ock": 1013, "\u0120invasion": 1014, "\u0120fights": 1015, "89": 1016, "\u0120pla": 1017, "\u0120plu": 1018, "\u0120worn": 1019, "\u0120fantasy": 1020, "\u0120sells": 1021, "een": 1022, "\u0120stirred": 1023, "oinsettia": 1024, "\u0120UNHCR": 1025, "\u0120pueblo": 1026, "\u0120recurring": 1027, "\u0120Zo": 1028, "\u0120catech": 1029, "\u0120confeder": 1030, "hma": 1031, "Major": 1032, "\u0120schizophrenic": 1033, "\u0120nice": 1034, "Food": 1035, "\u0120Dun": 1036, "\u0120church": 1037, "\u0120ante": 1038, "\u0120Indonesia": 1039, "\u0120Observations": 1040, "\u0120Ukraine": 1041, "\u0120visited": 1042, "\u0120Roberts": 1043, "\u0120Ferguson": 1044, "Definition": 1045, "type": 1046, "\u01201798": 1047, "\u0120survey": 1048, "\u0120AG": 1049, "ococcal": 1050, "\u0120Brown": 1051, "morph": 1052, "\u0120Success": 1053, "\u0120Rothschild": 1054, "\u0120originated": 1055, "\u0120lifting": 1056, "lam": 1057, "\u0120NS": 1058, "Wh": 1059, "\u0120deterioration": 1060, "\u0120turquoise": 1061, "\u0120Custom": 1062, "\u0120metabol": 1063, "\u0120bias": 1064, "\u0120County": 1065, "lph": 1066, "Work": 1067, "\u0120charge": 1068, "\u0120discussions": 1069, "\u0120Calcutta": 1070, "wire": 1071, "\u0120scholars": 1072, "\u0120UNI": 1073, "\u0120vaccination": 1074, "\u0120ray": 1075, "\u0120Tea": 1076, "\u0120dizziness": 1077, "\u0120joke": 1078, "\u0120lonely": 1079, "\u0120specialized": 1080, "\u0120delicate": 1081, "\u0120pollinators": 1082, "\u0120consumers": 1083, "\u0120involve": 1084, "factor": 1085, "\u0120quart": 1086, "\u0120ingenious": 1087, "\u0120suspects": 1088, "\u0120amniotic": 1089, "\u0120hotels": 1090, "\u0120together": 1091, "\u0120bravery": 1092, "Boston": 1093, "bh": 1094, "\u0120electronic": 1095, "\u0120Ou": 1096, "\u0120mobilize": 1097, "\u0120Geography": 1098, "ible": 1099, "\u0120drop": 1100, "believe": 1101, "\u0120disburse": 1102, "\u0120evacuation": 1103, "Fa": 1104, "must": 1105, "\u0120requiring": 1106, "Indo": 1107, "\u0120ultrasound": 1108, "\u0120proven": 1109, "mm": 1110, "\u0120soul": 1111, "\u0120rapidly": 1112, "\u0120prompting": 1113, "\u0120Eskimo": 1114, "\u0120afterwards": 1115, "\u0120Atlanta": 1116, "\u0120Valley": 1117, "\u0120Romeo": 1118, "\u0120Aryan": 1119, "azepam": 1120, "\u0120works": 1121, "FR": 1122, "\u0120alliances": 1123, "\u0120informative": 1124, "\u0120Vedic": 1125, "\u0120Think": 1126, "Base": 1127, "\u0120brighter": 1128, "\u0120courtyard": 1129, "\u0120Stop": 1130, "rum": 1131, "\u0120burden": 1132, "\u0120lakes": 1133, "Interestingly": 1134, "DA": 1135, "\u0120accompanied": 1136, ".''": 1137, "\u0120knowing": 1138, "1111": 1139, "\u0120Galaxy": 1140, "\u0120waiting": 1141, "\u0120starches": 1142, "concept": 1143, "Ap": 1144, "\u0120commemorating": 1145, "\u0120desktop": 1146, "\u0120Carpenter": 1147, "planted": 1148, "Plants": 1149, "\u0120prosperity": 1150, "\u0120Genealogical": 1151, "\u0120Fur": 1152, "\u0120difficile": 1153, "\u0120remarkably": 1154, "\u0120Cordillera": 1155, "\u0120adequate": 1156, "\u0120Lives": 1157, "\u0120parasit": 1158, "member": 1159, "\u0120Imaging": 1160, "\u0120Farmers": 1161, "\u0120soluble": 1162, "\u0120assimilation": 1163, "Exposure": 1164, "enburg": 1165, "\u0120Private": 1166, "\u0120transcripts": 1167, "\u0120blocks": 1168, "\u0120copying": 1169, "\u0120sermons": 1170, "\u0120services": 1171, "\u0120physiology": 1172, "\u0120Kno": 1173, "\u0120familiarity": 1174, "\u0120neglected": 1175, "\u0120mening": 1176, "\u0120miss": 1177, "\u0120website": 1178, "\u0120Abhimanyu": 1179, "1957": 1180, "Inflammatory": 1181, "\u0120inexpensive": 1182, "\u0120moms": 1183, "\u0120throwing": 1184, "\u0120division": 1185, "\u0120while": 1186, "\u0120Landscape": 1187, "\u0120Rum": 1188, "Copyright": 1189, "\u0120spiders": 1190, "init": 1191, "\u0120Ins": 1192, "Low": 1193, "NC": 1194, "\u01201789": 1195, "\u0120scanner": 1196, "\u0120tablespoon": 1197, "\u0120discharges": 1198, "\u0120Account": 1199, "\u0120well": 1200, "ref": 1201, "\u0120annotated": 1202, "\u0120seeing": 1203, "\u0120oxidation": 1204, "\u0120vicious": 1205, "Michael": 1206, "\u0120obscured": 1207, "\u0120progress": 1208, "Carol": 1209, "quarters": 1210, "\u0120Sylv": 1211, "\u0120curing": 1212, "\u0120distractions": 1213, "\u0120Santa": 1214, "ned": 1215, "\u0120hosts": 1216, "\u0120Request": 1217, "\u0120mould": 1218, "ores": 1219, "y": 1220, "\u0120PVC": 1221, "\u0120healthcare": 1222, "\u0120surveyed": 1223, "\u0120asteroids": 1224, "\u0120Juvenile": 1225, "\u0120instances": 1226, "\u0120volcano": 1227, "gnostic": 1228, "\u0120Federalist": 1229, "170": 1230, "\u0120ends": 1231, "\u0120observable": 1232, "\u0120drew": 1233, "\u0120206": 1234, "Such": 1235, "\u0120postwar": 1236, "itating": 1237, "\u0120centuries": 1238, "index": 1239, "\u0120Progress": 1240, "\u0120American": 1241, "axial": 1242, "paths": 1243, "\u0120mill": 1244, "\u0120ski": 1245, "\u0120167": 1246, "\u0120say": 1247, "Others": 1248, "political": 1249, "\u0120Swedish": 1250, "\u0120colleagues": 1251, "\u0120phrase": 1252, "\u0120j": 1253, "\u0120pernicious": 1254, "dd": 1255, "\u0120Write": 1256, "ometry": 1257, "\u0120PK": 1258, "\u0120Engineering": 1259, "cation": 1260, "\u0120pheasant": 1261, "based": 1262, "\u0120contained": 1263, "\u0120Fle": 1264, "\u0120Mt": 1265, "David": 1266, "\u0120depends": 1267, "\u0120prescribed": 1268, "\u0120retro": 1269, "\u0120housed": 1270, "\u0120sticking": 1271, "ceived": 1272, "Photos": 1273, "America": 1274, "\u0120selfish": 1275, "nia": 1276, "\u0120wrote": 1277, "Hungary": 1278, "\u0120enjoyable": 1279, "eration": 1280, "\u0120complain": 1281, "\u0120became": 1282, "ither": 1283, "\u0120Vision": 1284, "etum": 1285, "\u0120Fu": 1286, "\u0120deposits": 1287, "\u0120sonar": 1288, "\u0120Himself": 1289, "\u0120morals": 1290, "\u0120sexually": 1291, "China": 1292, "\u0120Fortune": 1293, "seven": 1294, "\u0120entirely": 1295, "\u0120rebuilding": 1296, "\u0120lava": 1297, "\u0120Song": 1298, "\u0120Frederick": 1299, "\u0120GC": 1300, "\u0120Industries": 1301, "\u0120Interstate": 1302, "\u0120Choose": 1303, "\u0120Casablanca": 1304, "\u0120binge": 1305, "\u0120strengthen": 1306, "\u0120lith": 1307, "\u01201794": 1308, "\u0120Parks": 1309, "\u0120branches": 1310, "don": 1311, "\u0120algorithms": 1312, "\u0120Diagnostic": 1313, "\u0120employed": 1314, "',": 1315, "\u01201961": 1316, "\u0120patriotic": 1317, "alt": 1318, "\u012050": 1319, "Writing": 1320, "\u0120keeping": 1321, "\u0120exporting": 1322, "200": 1323, "\u0120Clear": 1324, "\u0120handsome": 1325, "Fast": 1326, "ctions": 1327, "\u0120austerity": 1328, "\u0120radioisotope": 1329, "\u0120z": 1330, "\u0120Maya": 1331, "pat": 1332, "ulsion": 1333, "\u0120naturalist": 1334, "\u0120sabbath": 1335, "\u0120Bog": 1336, "\u0120scheduled": 1337, "\u0120lent": 1338, "\u0120cursor": 1339, "\u0120has": 1340, "\u0120awkward": 1341, "\u0120nonprofit": 1342, "\u0120overestimate": 1343, "\u0120AAP": 1344, "\u0120jar": 1345, "\u0120SW": 1346, "\u0120harmony": 1347, "ban": 1348, "AE": 1349, "\u0120proportion": 1350, "\u0120expectation": 1351, "\u0120entrepreneurs": 1352, "\u0120Mag": 1353, "\u0120Colleges": 1354, "\u0120Prize": 1355, "LU": 1356, "\u0120curve": 1357, "\u0120obliged": 1358, "Ancient": 1359, "ordered": 1360, "\u00a7": 1361, "\u0120concentrate": 1362, "\u0120jejuni": 1363, "\u0120practiced": 1364, "\u0120Wagner": 1365, "\u0120Armed": 1366, "\u0120poetry": 1367, "\u0120sharing": 1368, "\u0120basin": 1369, "\u0120Workers": 1370, "\u0120concurrent": 1371, "opause": 1372, "\u0120inequities": 1373, "\u0120frontier": 1374, "tension": 1375, "Congress": 1376, "\u0120rifle": 1377, "\u0120Celest": 1378, "\u0120screw": 1379, "\u0120olive": 1380, "logs": 1381, "\u0120cou": 1382, "\u0120bayonet": 1383, "\u0120Basic": 1384, "cutaneous": 1385, "mit": 1386, "\u0120Gaddafi": 1387, "\u0120Type": 1388, "\u0120saint": 1389, "\u0120Cabinet": 1390, "\u0120manifestation": 1391, "\u0120fe": 1392, "\u0120named": 1393, "\u0120Sarah": 1394, "\u0120Richard": 1395, "\u0120Lea": 1396, "\u0120fertile": 1397, "\u0120recovered": 1398, "\u0120eventual": 1399, "\u0120overheating": 1400, "\u0120packs": 1401, "sium": 1402, "\u0120modify": 1403, "\u00d8\u00b1": 1404, "aves": 1405, "\u0120weights": 1406, "\u0120slit": 1407, "\u0120mosque": 1408, "kk": 1409, "\u0120scarce": 1410, "\u0120deposed": 1411, "\u0120soothing": 1412, "\u0120counteract": 1413, "\u0120flex": 1414, "\u0120MAR": 1415, "\u0120intake": 1416, "\u0120tactical": 1417, "App": 1418, "\u0120silver": 1419, "\u0120Included": 1420, "\u0120obese": 1421, "Improving": 1422, "families": 1423, "\u0120vertically": 1424, "\u0120humili": 1425, "\u0120tendons": 1426, "\u0120moods": 1427, "\u0120Johnny": 1428, "meth": 1429, "\u0120maximal": 1430, "\u0120synapse": 1431, "\u0120Bac": 1432, "\u0120Transmission": 1433, "\u0120dengue": 1434, "block": 1435, "\u0120attacking": 1436, "\u0120Naples": 1437, "Edit": 1438, "\u0120disappointed": 1439, "\u0120brainstorming": 1440, "\u01201908": 1441, "\u0120Dharma": 1442, "\u0120Reviewer": 1443, "ut": 1444, "\u0120Grades": 1445, "\u0120Thank": 1446, "\u0120sailing": 1447, "\u0120bu": 1448, "\u0120progenitor": 1449, "perfect": 1450, "\u0120amphibian": 1451, "\u0120sculpt": 1452, "fr": 1453, "Bird": 1454, "\u0120gran": 1455, "\u0120Had": 1456, "sibly": 1457, "\u0120offerings": 1458, "\u0120piracy": 1459, "\u0120copied": 1460, "\u0120bigger": 1461, "\u0120fighting": 1462, "\u0120harvesting": 1463, "\u0120sciences": 1464, ")?": 1465, "\u0120bang": 1466, "hel": 1467, "\u0120Translation": 1468, "\u00e1\u00b9\u0143i": 1469, "\u0120sins": 1470, "\u0120greatly": 1471, "\u0120herein": 1472, "\u0120files": 1473, "\u0120143": 1474, "\u0120ball": 1475, "\u0120W": 1476, "\u0120opioid": 1477, "\u0120Book": 1478, "\u0120manufacture": 1479, "\u0120quotas": 1480, "\u0120jeopard": 1481, "\u0120sexual": 1482, "\u0120production": 1483, "\u0120Vaccine": 1484, "\u0120Meat": 1485, "\u0120horrible": 1486, "\u0120correcting": 1487, "\u0120stated": 1488, "utation": 1489, "Archae": 1490, "\u0120entire": 1491, "\u0120drive": 1492, "\u0120Walk": 1493, "School": 1494, "\u0120unrest": 1495, "\u0120traded": 1496, "\u0120Allen": 1497, "\u0120expression": 1498, "\u0120instance": 1499, "rable": 1500, "\u0120permitting": 1501, "\u0120Shiva": 1502, "\u0120college": 1503, "\u0120locale": 1504, "\u0120tubes": 1505, "\u0120entitled": 1506, "\u0120fitness": 1507, "\u0120appreciate": 1508, "\u0120pores": 1509, "\u0120narrowed": 1510, "atomic": 1511, "\u0120opponents": 1512, "\u0120assistants": 1513, "\u0120then": 1514, "Dia": 1515, "\u0120courage": 1516, "\u0120intolerance": 1517, "\u0120analysed": 1518, "\u0120nonsense": 1519, "\u0120Qua": 1520, "\u0120rim": 1521, "ml": 1522, "\u0120ie": 1523, "\u0120PhD": 1524, "\u0120skills": 1525, "\u0120Chemicals": 1526, "\u0120injure": 1527, "\u0120constructing": 1528, "\u0120decreased": 1529, "\u00c3\u00bb": 1530, "\u0120purity": 1531, "\u0120always": 1532, "\u0120Confederacy": 1533, "\u0120shaped": 1534, "slow": 1535, "NA": 1536, "curricular": 1537, "\u0120demand": 1538, "until": 1539, "\u0120batteries": 1540, "\u0120strings": 1541, ";\"": 1542, "\u0120attitude": 1543, "\u0120functioning": 1544, "\u0120mechanical": 1545, "\u0120same": 1546, "\u0120establishment": 1547, "tant": 1548, "\u0120Bee": 1549, "\u0120republic": 1550, "Pa": 1551, "\u0120evils": 1552, "\u0120tremendous": 1553, "\u0120provides": 1554, "\u0120Toussaint": 1555, "\u0120Sy": 1556, "\u0120mural": 1557, "\u0120Evidence": 1558, "\u0120Resurrection": 1559, "\u0120distressed": 1560, "\u0120patronage": 1561, "\u0120Watch": 1562, "\u0120Wal": 1563, "Scott": 1564, "chan": 1565, "Again": 1566, "\u0120deaths": 1567, "\u0120agent": 1568, "\u0120rubbing": 1569, "\u0120Wellington": 1570, "\u0120foresee": 1571, "\u0120grotesque": 1572, "\u0120transferring": 1573, "\u0120studio": 1574, "\u0120June": 1575, "psy": 1576, "\u00d0\u00bd": 1577, "\u0120surpassed": 1578, "\u0120Roth": 1579, "\u0120Phyto": 1580, "Jerusalem": 1581, "\u0120authenticity": 1582, "\u0120plain": 1583, "\u0120screen": 1584, "Smith": 1585, "\u0120External": 1586, "\u0120fertility": 1587, "\u0120relics": 1588, "\u0120#": 1589, "gold": 1590, "\u0120avocado": 1591, "\u0120Spo": 1592, "\u0120Marie": 1593, "\u0120epic": 1594, "\u0120bulge": 1595, "88": 1596, "\u0120Guru": 1597, "\u0120unravel": 1598, "\u0120virtue": 1599, "\u0120returned": 1600, "\u0120representations": 1601, "\u0120Franklin": 1602, "\u0120Higgs": 1603, "\u0120archbishop": 1604, "\u0120impressions": 1605, "\u0120griev": 1606, "\u0120portable": 1607, "\u0120manpower": 1608, "\u0120Wildlife": 1609, "\u0120Province": 1610, "oco": 1611, "\u0120membranes": 1612, "\u0120origin": 1613, "\u0120sympath": 1614, "\u0120ion": 1615, "\u0120unusually": 1616, "duction": 1617, "\u0120Constitutional": 1618, "\u0120predicts": 1619, "\u0120chairs": 1620, "ided": 1621, "\u0120interpreting": 1622, "\u0120prosper": 1623, "Clearly": 1624, "\u0120seized": 1625, "\u0120specific": 1626, "\u0120pathways": 1627, "\u0120Follow": 1628, "\u0120Records": 1629, "\u0120Lar": 1630, "\u0120Ming": 1631, "dorf": 1632, "\u0120chin": 1633, "\u0120mRNA": 1634, "vitamin": 1635, "\u0120multi": 1636, "\u0120Guatemala": 1637, "\u0120establish": 1638, "\u0120Eu": 1639, "gies": 1640, "\u0120S": 1641, "\u0120archaeologist": 1642, "\u0120loops": 1643, "motive": 1644, "Virtual": 1645, "ers": 1646, "\u0120require": 1647, "\u0120deciduous": 1648, "\u0120elections": 1649, "\u0120Building": 1650, "\u0120accelerate": 1651, "31": 1652, "\u0120space": 1653, "\u0120Ken": 1654, "\u0120killed": 1655, "\u0120strengthening": 1656, "\u0120thoughts": 1657, "\u0120gauge": 1658, "\u0120Nixon": 1659, "\u0120chords": 1660, "\u0120yo": 1661, "\u0120sepsis": 1662, "m\u00c4\u0123": 1663, "IP": 1664, "\u0120rally": 1665, "\u0120homeowners": 1666, "taken": 1667, "HS": 1668, "\u0120districts": 1669, "\u0120producer": 1670, "\u0120AND": 1671, "\u0120boys": 1672, "\u0120Egg": 1673, "\u0120abundance": 1674, "\u0120noticeable": 1675, "\u0120ratification": 1676, "uting": 1677, "\u0120collected": 1678, "\u0120knob": 1679, "\u0120claiming": 1680, "\u0120tooth": 1681, "\u0120lunch": 1682, "\u0120Minor": 1683, "\u0120raster": 1684, "\u0120privat": 1685, "overs": 1686, "\u0120bursts": 1687, "\u0120Hughes": 1688, "\u0120Lab": 1689, "\u0120migraine": 1690, "\u0120slows": 1691, "r\u00c4\u0123": 1692, "\u0120trends": 1693, "\u0120Pis": 1694, "\u0120heaven": 1695, "\u0120literally": 1696, "\u0120prospect": 1697, "\u0120fat": 1698, "\u0120vine": 1699, "founded": 1700, "cont": 1701, "\u0120labeled": 1702, "\u0120tamper": 1703, "\u0120Kel": 1704, "\u0120Probably": 1705, "fact": 1706, "FI": 1707, "\u0120seminar": 1708, "zer": 1709, "kinson": 1710, "\u01201931": 1711, "\u0120puppies": 1712, "\u0120cult": 1713, "mil": 1714, "cot": 1715, "\u0120mobilization": 1716, "\u0120summarized": 1717, "\u0120subtropical": 1718, "\u0120bit": 1719, "\u0120square": 1720, "\u0120measuring": 1721, "development": 1722, "\u0120Kor": 1723, "\u0120significant": 1724, "\u0120Improving": 1725, "\u0120dozen": 1726, "\u0120Darwinian": 1727, "ima": 1728, "\u0120slope": 1729, "nting": 1730, "\u0120severe": 1731, "metic": 1732, "\u0120Tolerance": 1733, "\u0120NAD": 1734, "\u0120abs": 1735, "\u0120hast": 1736, "\u0120Barry": 1737, "\u0120proboscis": 1738, "\u0120resurgence": 1739, "\u0120Janeiro": 1740, "\u0120Reid": 1741, "\u0120expanse": 1742, "\u0120fairly": 1743, "\u0120Speech": 1744, "lid": 1745, "\u0120Gen": 1746, "\u0120ideal": 1747, "\u0120pull": 1748, "\u0120contraceptives": 1749, "\u0120diagnosis": 1750, "\u0120lee": 1751, "\u0120frozen": 1752, "\u0120Sculpture": 1753, "Gold": 1754, "\u0120FP": 1755, "\u0120Newfoundland": 1756, "\u0120Monsanto": 1757, "ground": 1758, "\u0120impractical": 1759, "ives": 1760, "near": 1761, "\u0120''": 1762, "cn": 1763, "\u0120had": 1764, "\u0120rhyme": 1765, "\u0120Burns": 1766, "\u0120stormwater": 1767, "Rob": 1768, "\u0120Suppl": 1769, "\u0120spent": 1770, "\u0120brown": 1771, "\u0120Miller": 1772, "\u0120Ethiopian": 1773, "\u00c5\u00ab": 1774, "NSAIDs": 1775, "\u0120adverb": 1776, "\u0120Cohort": 1777, "\u0120classifications": 1778, "\u0120Factory": 1779, "\u0120Important": 1780, "\u0120splitting": 1781, "mechanics": 1782, "\u0120deviation": 1783, "\u0120Left": 1784, "\u0120poorly": 1785, "\u0120sheep": 1786, "\u0120angels": 1787, "Ev": 1788, "\u0120Son": 1789, "\u0120Nordic": 1790, "ie": 1791, "\u01201990": 1792, "iae": 1793, "uate": 1794, "three": 1795, "\u0120Festival": 1796, "Sep": 1797, "\u0120miracle": 1798, "\u0120abstinence": 1799, "\u0120logistical": 1800, "\u0120pumped": 1801, "Eff": 1802, "Perhaps": 1803, "fer": 1804, "\u0120Internal": 1805, "\u0120traces": 1806, "\u0120staggering": 1807, "\u0120providers": 1808, "\u0120CSO": 1809, "pa": 1810, "\u0120Hydro": 1811, "\u0120famine": 1812, "\u0120creeks": 1813, "\u0120Organization": 1814, "\u0120Legal": 1815, "\u0120biotechnology": 1816, "\u0120planning": 1817, "1914": 1818, "\u0120Olympics": 1819, "Story": 1820, "\u0120forget": 1821, "\u0120uncomplicated": 1822, "\u0120Justice": 1823, "\u0120agency": 1824, "\u0120Youth": 1825, "\u0120mayor": 1826, "Lesson": 1827, "bodies": 1828, "1946": 1829, "\u0120Difference": 1830, "\u0120crippling": 1831, "fully": 1832, "\u0120Exodus": 1833, "\u0120cataclysm": 1834, "\u0120hold": 1835, "\u0120tavern": 1836, "\u0120beyond": 1837, "\u0120facilitates": 1838, "\u0120rice": 1839, "\u0120namely": 1840, "\u0120attached": 1841, "icular": 1842, "op": 1843, "\u0120kg": 1844, "\u0120pearl": 1845, "cket": 1846, "\u0120Except": 1847, "\u0120Nik": 1848, "\u0120microns": 1849, "\u0120encompass": 1850, "\u0120dioxide": 1851, "\u0120ambitions": 1852, "\u0120Otherwise": 1853, "asing": 1854, "\u00d8\u00aa": 1855, "\u0120Traditional": 1856, "\u0120AMD": 1857, "Stephen": 1858, "\u0120hailed": 1859, "\u0120Nursing": 1860, "\u0120Sure": 1861, "verted": 1862, "\u00c2\u00ae,": 1863, "\u0120sheltered": 1864, "\u0120fence": 1865, "Conventional": 1866, "\u0120experts": 1867, "\u0120Louisiana": 1868, "\u0120est": 1869, "\u0120noses": 1870, "\u0120follicles": 1871, "crew": 1872, "\u0120Iranian": 1873, "\u0120arrange": 1874, "\u0120duct": 1875, "\u0120controlling": 1876, "\u0120messengers": 1877, "\u0120Intergovernmental": 1878, "\u0120anniversary": 1879, "\u0120calculated": 1880, "planned": 1881, "serv": 1882, "\u0120Controvers": 1883, "low": 1884, "\u0120dictated": 1885, "\u0120iso": 1886, "\u0120Teen": 1887, "\u0120urethra": 1888, "\u0120Radiation": 1889, "\u0120terrorism": 1890, "\u0120erosion": 1891, "\u0120zeal": 1892, "\u0120vivo": 1893, "\u0120weekly": 1894, "\u0120flexibility": 1895, "bbling": 1896, "\u0120178": 1897, "\u0120Physician": 1898, "\u0120Tar": 1899, "\u0120spa": 1900, "oo": 1901, "\u0120north": 1902, "\u0120inhibitors": 1903, "\u0120photographic": 1904, "\u0120inverse": 1905, "\u0120efficient": 1906, "\u0120lobster": 1907, "\u0120haven": 1908, "however": 1909, "\u0120Cognitive": 1910, "\u0120stretches": 1911, "\u0120Fort": 1912, "\u0120Powder": 1913, "\u0120puzzling": 1914, "\u0120shelter": 1915, "\u0120pixel": 1916, "\u0120Invasion": 1917, "\u012090": 1918, "tic": 1919, "\u0120imprisoned": 1920, "\u0120productivity": 1921, "\u0120Negroes": 1922, "\u0120kilometer": 1923, "Home": 1924, "::": 1925, "\u01201906": 1926, "\u0120Plymouth": 1927, "ium": 1928, "\u0120trustworthy": 1929, "\u0120seated": 1930, "\u0120unmarried": 1931, "oracle": 1932, "\u0120Raleigh": 1933, "\u0120drum": 1934, "\u0120paid": 1935, "\u00c3\u00a8": 1936, "\u0120Hutchinson": 1937, "\u0120moons": 1938, "\u0120Alfonso": 1939, "Write": 1940, "\u0120roof": 1941, "\u0120eccentric": 1942, "\u0120commentaries": 1943, "\u0120flute": 1944, "\u0120Noah": 1945, "\u0120popes": 1946, "sufficient": 1947, "\u0120ladies": 1948, "\u0120Emissions": 1949, "\u0120astonishing": 1950, "\u0120sandstone": 1951, "\u0120Lost": 1952, "mated": 1953, "\u0120endeavors": 1954, "\u0120pale": 1955, "\u0120crowd": 1956, "\u0120CT": 1957, "\u0120attaches": 1958, "sim": 1959, "Right": 1960, "\u012016": 1961, "\u0120Purchase": 1962, "\u0120cookie": 1963, "\u0120think": 1964, "\u0120clues": 1965, "\u0120vomit": 1966, "\u0120EDT": 1967, "\u0120praying": 1968, "\u0120concomitant": 1969, "W": 1970, "\u0120Afghan": 1971, "\u0120serving": 1972, "\u0120unsuccessful": 1973, "\u0120evaluating": 1974, "\u0120alter": 1975, "\u0120subtraction": 1976, "\u0120coloured": 1977, "\u0120McLe": 1978, "\u0120Live": 1979, "\u0120cer": 1980, "\u0120Standing": 1981, "\u0120Weekly": 1982, "\u0120wiring": 1983, "\u0120slim": 1984, "\u0120256": 1985, "Florida": 1986, "\u0120shaking": 1987, "LT": 1988, "\u0120Learners": 1989, "NN": 1990, "story": 1991, "\u0120win": 1992, "DOE": 1993, "\u0120Sample": 1994, "\u0120tactic": 1995, "\u0120Boccaccio": 1996, "News": 1997, "\u0120machines": 1998, "??": 1999, "\u0120supervise": 2000, "\u0120hence": 2001, "\u0120Ste": 2002, "\u0120radius": 2003, "\u0120Mongolia": 2004, "\u0120pruning": 2005, "\u0120points": 2006, "\u0120IEP": 2007, "\u0120growing": 2008, "economic": 2009, "\u0120analyzes": 2010, "\u0120broadband": 2011, "\u0120yellow": 2012, "\u0120Host": 2013, "\u0120advise": 2014, "\u0120bridge": 2015, "\u0120Bulgaria": 2016, "Marriage": 2017, "ass": 2018, "\u0120solicit": 2019, "\u0120typical": 2020, "\u0120we": 2021, "\u0120observance": 2022, "\u0120sym": 2023, "global": 2024, "\u0120nozzle": 2025, "\u0120antibody": 2026, "\u0120Amb": 2027, "Paper": 2028, "\u0120Nacional": 2029, "\u0120happens": 2030, "\u0120Cor": 2031, "\u0120>": 2032, "\u0120Sand": 2033, "\u0120del": 2034, "\u0120contributor": 2035, "\u0120symbolism": 2036, "\u0120threatened": 2037, "\u0120Rhine": 2038, "\u0120Rhodes": 2039, "\u0120engagement": 2040, "\u0120Types": 2041, "\u0120Vocational": 2042, "\u0120Nile": 2043, "\u0120pseudo": 2044, "\u0120Volume": 2045, "\u0120apocryphal": 2046, "\u0120tab": 2047, "\u01201842": 2048, "\u0120municipality": 2049, "\u0120rests": 2050, "\u0120Junior": 2051, "\u0120Business": 2052, "\u0120reproduction": 2053, "\u0120coaches": 2054, "\u0120neurological": 2055, "Virginia": 2056, "rat": 2057, "\u0120rejects": 2058, "\u0120Chrys": 2059, "\u0120equally": 2060, "\u0120Ten": 2061, "\u0120Police": 2062, "dominated": 2063, "conc": 2064, "\u012002": 2065, "\u0120endurance": 2066, "\u0120reputed": 2067, "\u0120harp": 2068, "ffed": 2069, "Ra": 2070, "\u0120parachute": 2071, "ovan": 2072, "\u0120Humboldt": 2073, "\u0120breakfast": 2074, "\u0120shocking": 2075, "\u0120Pueblo": 2076, "\u0120Institut": 2077, "\u0120Bus": 2078, "\u0120divers": 2079, "Linux": 2080, "\u0120bargain": 2081, "primary": 2082, "\u0120optim": 2083, ")\"": 2084, "rington": 2085, "\u0120exhaustion": 2086, "dem": 2087, "\u0120transparency": 2088, "\u0120Appropriate": 2089, "\u0120Conservation": 2090, "\u0120strengthens": 2091, "actly": 2092, "Afghan": 2093, "\u0120avenue": 2094, "\u0120hollow": 2095, "orable": 2096, "licit": 2097, "\u0120parity": 2098, "\u0120smell": 2099, "elli": 2100, "\u0120Bra": 2101, "\u0120euthanasia": 2102, "\u0120unreliable": 2103, "\u0120refer": 2104, "\u0120interacts": 2105, "\u0120historically": 2106, "\u0120duel": 2107, "\u0120Leonard": 2108, "\u0120McKinney": 2109, "\u0120apartment": 2110, "\u0120Women": 2111, "\u0120encyclopedia": 2112, "Watch": 2113, "\u0120Spain": 2114, "\u0120edit": 2115, "\u0120Models": 2116, "elling": 2117, "\u0120breasts": 2118, "suit": 2119, "olo": 2120, "\u0120references": 2121, "\u0120Pol": 2122, "\u0120employers": 2123, "gm": 2124, "ay": 2125, "\u0120Terry": 2126, "oma": 2127, "\u0120Schwarz": 2128, "\u0120Property": 2129, "\u0120revelation": 2130, "\u0120Bel": 2131, "\u0120Square": 2132, "\u0120Gon": 2133, "toxin": 2134, "record": 2135, "\u0120pyramid": 2136, "\u0120criticized": 2137, "\u0120Testing": 2138, "mba": 2139, "\u0120dispersion": 2140, "Rock": 2141, "\u0120boss": 2142, "\u0120homin": 2143, "\u0120rolls": 2144, "\u0120manipulation": 2145, "\u0120voucher": 2146, "\u0120used": 2147, "\u0120inconclusive": 2148, "\u0120essence": 2149, "WASHINGTON": 2150, "\u0120Caucasus": 2151, "Capital": 2152, "\u0120KB": 2153, "\u0120Congo": 2154, "cen": 2155, "break": 2156, "\u0120positioning": 2157, "Mus": 2158, "\u0120Tuesday": 2159, "\u0120Claus": 2160, "\u0120affluent": 2161, "Sun": 2162, "\u0120hypertension": 2163, "\u0120Maps": 2164, "\u0120measure": 2165, "\u0120association": 2166, "\u0120biology": 2167, "sea": 2168, "\u0120126": 2169, "\u0120folding": 2170, "eval": 2171, "\u0120stimulated": 2172, "\u0120halfway": 2173, "\u0120Rosen": 2174, "\u0120platelet": 2175, "\u0120renew": 2176, "\u0120Poles": 2177, "\u0120Los": 2178, "\u0120Investigator": 2179, "\u0120Elder": 2180, "ician": 2181, "\u0120lithium": 2182, "sistent": 2183, "\u0120viable": 2184, "\u0120Phys": 2185, "\u0120deployment": 2186, "\u0120mathematics": 2187, "\u0120reservations": 2188, "\u0120Quetzalcoatl": 2189, "writer": 2190, "\u0120knights": 2191, "lating": 2192, "\u0120tour": 2193, "mut": 2194, "\u0120Rodriguez": 2195, "\u0120ok": 2196, "\u0120USC": 2197, "India": 2198, "\u0120detective": 2199, "\u0120Gi": 2200, "\u0120rape": 2201, "January": 2202, "\u0120pasture": 2203, "up": 2204, "\u0120polygons": 2205, "\u0120Bonaparte": 2206, "\u0120Libyan": 2207, "ii": 2208, "Bri": 2209, "\u0120chains": 2210, "STER": 2211, "\u0120Site": 2212, "\u0120hypno": 2213, "\u0120Arthur": 2214, "\">": 2215, "\u0120reconnaissance": 2216, "law": 2217, "\u0120There": 2218, "\u0120kid": 2219, "\u0120bounty": 2220, "\u0120integer": 2221, "ok": 2222, "\u0120Olympia": 2223, "\u0120Eff": 2224, "\u0120carrier": 2225, "operated": 2226, "\u0120Egyptian": 2227, "\u0120angular": 2228, "\u0120predictive": 2229, ")||": 2230, "\u0120prostitutes": 2231, "Fundamental": 2232, "\u0120risen": 2233, "\u01201808": 2234, "\u0120pornography": 2235, "arding": 2236, "\u0120Suff": 2237, "\u012041": 2238, "\u0120stage": 2239, "\u0120calibrate": 2240, "ometer": 2241, "\u0120forgive": 2242, "\u0120Tony": 2243, "\u0120sediments": 2244, "\u0120barley": 2245, "\u0120Norman": 2246, "\u0120superstitious": 2247, "\u0120maturity": 2248, "\u0120atheist": 2249, "\u0120inhibitor": 2250, "\u0120auspicious": 2251, "\u0120antibiotic": 2252, "\u0120notably": 2253, "\u0120So": 2254, "actic": 2255, "\u0120Rap": 2256, "\u0120asymmetric": 2257, "\u0120Viet": 2258, "\u0120minus": 2259, "\u0120largely": 2260, "Collect": 2261, "\u0120ultra": 2262, "\u0120FA": 2263, "\u0120foliage": 2264, "istan": 2265, "\u0120Psychological": 2266, "\u0120overwhelmed": 2267, "\u0120Any": 2268, "\u0120bulletin": 2269, "\u0120Democritus": 2270, "\u0120osteoporosis": 2271, "\u0120exercises": 2272, "\u0120original": 2273, "pit": 2274, "\u0120Love": 2275, "\u0120neuro": 2276, "Shop": 2277, "Cl": 2278, "Questions": 2279, "purpose": 2280, "\u0120appropriated": 2281, "grave": 2282, "\u0120unwanted": 2283, "\u0120tribal": 2284, "\u0120biomedical": 2285, "\u0120fixing": 2286, "\u0120harmon": 2287, "\u0120walnut": 2288, "\u0120WHO": 2289, "\u0120sensitivities": 2290, "shu": 2291, "\u0120Pink": 2292, "strict": 2293, "\u0120save": 2294, "feedback": 2295, "\u0120Increased": 2296, "powder": 2297, "La": 2298, "\u0120powder": 2299, "Preventing": 2300, "\u0120earlier": 2301, "\u0120masters": 2302, "\u0120rescued": 2303, "\u0120K\u00c3\u00a1rm\u00c3\u00a1n": 2304, "\u0120raising": 2305, "\u0120Hills": 2306, "Report": 2307, "\u0120Patriarch": 2308, "\u0120finance": 2309, "\u0120Newport": 2310, "\u0120amp": 2311, "\u0120scripture": 2312, "\u0120Arjuna": 2313, "\u0120Lafayette": 2314, "\u0120ask": 2315, "synthetic": 2316, "\u0120103": 2317, "sam": 2318, "\u0120explain": 2319, "\u0120fold": 2320, "\u0120CP": 2321, "\u0120rehabilitation": 2322, "\u0120inversion": 2323, "\u0120Lamb": 2324, "\u0120Analy": 2325, "\u0120welcome": 2326, "_": 2327, "\u0120Old": 2328, "\u0120Children": 2329, "\u0120pipeline": 2330, "\u0120Buff": 2331, "\u0120DDT": 2332, "\u0120all": 2333, "\u0120Lee": 2334, "\u0120Tale": 2335, "\u0120patron": 2336, "\u0120Clearly": 2337, "\u0120update": 2338, "\u0120fork": 2339, "\u0120vampire": 2340, "\u0120willing": 2341, "\u0120ruler": 2342, "\u0120gri": 2343, "\u0120rein": 2344, "\u0120wander": 2345, "\u0120economically": 2346, "inent": 2347, "lly": 2348, "eff": 2349, "\u0120investigative": 2350, "g": 2351, "\u0120emigrants": 2352, "\u0120understands": 2353, "\u0120jewelry": 2354, "\u0120reduce": 2355, "\u0120Kathleen": 2356, "\u0120Divine": 2357, "\u0120adeno": 2358, "\u0120improves": 2359, "ape": 2360, "llies": 2361, "\u0120movie": 2362, "79": 2363, "\u0120rebuilt": 2364, "\u0120nomads": 2365, "\u0120ND": 2366, "\u0120Spencer": 2367, "\u0120closest": 2368, "\u0120science": 2369, "\u0120funded": 2370, "Ph": 2371, "\u0120Conservative": 2372, "\u0120cats": 2373, "\u01201920": 2374, "\u0120praised": 2375, "\u0120kittens": 2376, "\u0120energ": 2377, "\u0120iii": 2378, "\u0120consequence": 2379, "\u0120GMOs": 2380, "\u0120sore": 2381, "\u0120Found": 2382, "\u0120Bacillus": 2383, "\u0120chance": 2384, "author": 2385, "Jean": 2386, "\u0120contrasted": 2387, "\u0120fingers": 2388, "\u0120minority": 2389, "bus": 2390, "\u0120Network": 2391, "\u0120Copenhagen": 2392, "\u0120153": 2393, "aa": 2394, "\u0120Tacitus": 2395, "\u0120honest": 2396, "\u0120March": 2397, "\u0120Scandinavia": 2398, "semi": 2399, "\u0120coordinator": 2400, "timer": 2401, "\u0120Elections": 2402, "\u0120Cons": 2403, "\u0120Tanzania": 2404, "\u0120wellbeing": 2405, "\u0120quasi": 2406, "\u0120Keeping": 2407, "breast": 2408, "\u0120mist": 2409, "\u0120Section": 2410, "\u0120limitation": 2411, "\u0120fight": 2412, "\u0120writes": 2413, "\u0120GS": 2414, "\u0120inertial": 2415, "\u0120reside": 2416, "\u0120realistic": 2417, "\u0120Social": 2418, "\u0120Constant": 2419, "\u0120iconic": 2420, "\u0120illicit": 2421, "\u0120interoperability": 2422, "\u0120170": 2423, "\u0120reformers": 2424, "C": 2425, "\u0120organ": 2426, "Unknown": 2427, "\u0120genomic": 2428, "\u0120faded": 2429, "\u0120Proposition": 2430, "ton": 2431, "shima": 2432, "\u0120Field": 2433, "\u0120Processes": 2434, "tto": 2435, "\u0120conveniently": 2436, "\u0120interface": 2437, "\u0120traumatic": 2438, "\u0120Jam": 2439, "\u0120market": 2440, "\u0120102": 2441, "Rom": 2442, "dah": 2443, "EASE": 2444, "kara": 2445, "\u0120supplying": 2446, "\u0120Short": 2447, "\u01205": 2448, "Cap": 2449, "\u0120dumping": 2450, "\u0120Communion": 2451, "hman": 2452, "plan": 2453, "\u0120reconstruction": 2454, "\u0120Astro": 2455, "orted": 2456, "\u0120today": 2457, "Cor": 2458, "\u0120gone": 2459, "le": 2460, "Course": 2461, "ENTS": 2462, "\u0120Trials": 2463, "treated": 2464, "\u0120fairy": 2465, "\u0120relationship": 2466, "\u0120Certain": 2467, "\u0120compile": 2468, "\u0120Caliph": 2469, "\u0120Guy": 2470, "\u0120barrier": 2471, "\u0120Crater": 2472, "\u0120sol": 2473, "\u0120novelty": 2474, "\u0120thistle": 2475, "\u0120Hesiod": 2476, "\u0120PWM": 2477, "\u0120terrorists": 2478, "\u0120renders": 2479, "1971": 2480, "\u0120principle": 2481, "ability": 2482, "\u0120idea": 2483, "\u0120Cau": 2484, "\u0120\"": 2485, "\u0120Roo": 2486, "\u0120plus": 2487, "\u0120Dan": 2488, "\u0120Walton": 2489, "\u0120launches": 2490, "ceiving": 2491, "\u0120Whit": 2492, "\u0120surface": 2493, "\u0120dyslexic": 2494, "\u0120rigid": 2495, "\u0120cleaned": 2496, "\u0120kingdoms": 2497, "site": 2498, "\u0120hardwood": 2499, "otherapy": 2500, "infected": 2501, "\u0120Nature": 2502, "\u0120rearing": 2503, "\u0120Auckland": 2504, "\u0120NAACP": 2505, "\u0120Explorer": 2506, "tributing": 2507, "bridge": 2508, "\u0120memorable": 2509, "\u0120Nehemiah": 2510, "\u0120disputes": 2511, "\u0120monkeys": 2512, "\u0120way": 2513, "\u0120elusive": 2514, "\u0120sequence": 2515, "\u012086": 2516, "Re": 2517, "\u0120buried": 2518, "\u0120Clifford": 2519, "\u0120Versailles": 2520, "1930": 2521, "\u00d1\u0125": 2522, "\u0120bedtime": 2523, "\u0120Fra": 2524, "Ly": 2525, "azine": 2526, "\u0120contextual": 2527, "\u0120Admiralty": 2528, "\u0120prevented": 2529, "\u0120Cemetery": 2530, "yas": 2531, "Benjamin": 2532, "\u0120Gettysburg": 2533, "\u0120profits": 2534, "\u0120Midrash": 2535, "\u0120Elohim": 2536, "\u0120Kings": 2537, "lm": 2538, "\u0120pits": 2539, "\u0120Cicero": 2540, "\u0120musk": 2541, "\u0120Lucy": 2542, "\u0120easily": 2543, "\u0120any": 2544, "ne": 2545, "tat": 2546, "\u0120Confucian": 2547, "\u0120mentioning": 2548, "\u00e1\u00ba": 2549, "\u0120spaces": 2550, "\u0120cannon": 2551, "\u0120environmentalists": 2552, "\u0120families": 2553, "Jewish": 2554, "\u0120attack": 2555, "\u0120dictator": 2556, "contra": 2557, "\u0120contractors": 2558, "\u00c3\u00b8": 2559, "\u0120psycho": 2560, "monas": 2561, "ann": 2562, "\u0120oath": 2563, "\u0120juvenile": 2564, "nts": 2565, "ennial": 2566, "\u0120lexicon": 2567, "\u0120predomin": 2568, "\u0120riboflavin": 2569, "Reuters": 2570, "posite": 2571, "\u0120Gay": 2572, "\u0120substantially": 2573, "\u0120Med": 2574, "123": 2575, "\u0120temp": 2576, "\u0120Apo": 2577, "\u0120immersed": 2578, "\u0120banning": 2579, "\u0120allocation": 2580, "\u0120Istanbul": 2581, "\u0120constipation": 2582, "\u0120Beauty": 2583, "\u0120lessen": 2584, "\u0120interpretation": 2585, "\u0120Mer": 2586, "\u0120circling": 2587, "ents": 2588, "Put": 2589, "\u0120levied": 2590, "\u0120screened": 2591, "\u0120eject": 2592, "\u0120outstanding": 2593, "\u0120prevalence": 2594, "\u0120Radio": 2595, "\u0120partial": 2596, "\u0120Marx": 2597, "\u0120exempl": 2598, "\u0120Mayan": 2599, "\u0120Re": 2600, "Ob": 2601, "ette": 2602, "\u0120sounding": 2603, "\u0120linkages": 2604, "\u0120electron": 2605, "rky": 2606, "\u0120grab": 2607, "hd": 2608, "\u0120demise": 2609, "\u0120Bau": 2610, "jan": 2611, "\u0120arm": 2612, "\u0120burrow": 2613, "gamy": 2614, "asc": 2615, "\u0120cerevisiae": 2616, "**": 2617, "theon": 2618, "\u0120gyneco": 2619, "\u0120uphold": 2620, "cra": 2621, "rib": 2622, "\u0120symmetrical": 2623, "\u0120woody": 2624, "\u0120Yosemite": 2625, "\u0120Pocahontas": 2626, "\u0120shre": 2627, "ney": 2628, "\u0120cows": 2629, "\u0120tells": 2630, "\u0120packages": 2631, "along": 2632, "\u0120unwarranted": 2633, "\u0120Average": 2634, "\u0120approaching": 2635, "\u0120Island": 2636, "\u0120Bolzano": 2637, "\u0120workforce": 2638, "\u0120Rutgers": 2639, "IF": 2640, "\u0120aliens": 2641, "\u0120assail": 2642, "\u0120exceeding": 2643, "king": 2644, "\u0120relieving": 2645, "works": 2646, "\u0120157": 2647, "\u0120summaries": 2648, "\u0120donors": 2649, "lers": 2650, "\u0120obsc": 2651, "\u0120pain": 2652, "\u0120respect": 2653, "generation": 2654, "\u0120Vera": 2655, "aco": 2656, "ep": 2657, "\u0120elites": 2658, "enriched": 2659, "\u0120veto": 2660, "\u0120dys": 2661, "\u0120vocabulary": 2662, "\u0120pushes": 2663, "\u0120merchandise": 2664, "\u0120fingerprint": 2665, "Source": 2666, "\u0120hijack": 2667, "\u0120considerations": 2668, "\u0120Ke": 2669, "\u0120Argentine": 2670, "\u0120fauna": 2671, "\u0120Add": 2672, "\u0120tee": 2673, "um": 2674, "\u0120JE": 2675, "Academic": 2676, "\u0120polio": 2677, "\u0120planets": 2678, "\u0120bees": 2679, "mmed": 2680, "frey": 2681, "mia": 2682, "\u0120express": 2683, "\u0120depths": 2684, "\u0120refuse": 2685, "\u0120discussion": 2686, "\u0120Martian": 2687, "\u0120career": 2688, "\u0120proficiency": 2689, "\u0120skunks": 2690, "\u0120urban": 2691, "\u0120testimonies": 2692, "Digital": 2693, "\u0120specialised": 2694, "\u0120produces": 2695, "\u0120before": 2696, "\u0120Co": 2697, "\u0120doctor": 2698, "\u0120imperative": 2699, "\u0120seventh": 2700, "\u0120Krist": 2701, "\u0120Psychology": 2702, "\u0120Personal": 2703, "\u0120si": 2704, "\u0120aloud": 2705, "\u0120sixteenth": 2706, "Program": 2707, "\u0120Leopold": 2708, "\u0120Sie": 2709, "\u0120bacterium": 2710, "\u01201836": 2711, "\u0120items": 2712, "\u0120frightened": 2713, "\u0120absorbed": 2714, "\u0120cools": 2715, "lett": 2716, "\u0120LEDs": 2717, "\u0120boo": 2718, "\u0120hull": 2719, "\u0120congregate": 2720, "\u0120EMERGENCY": 2721, "001": 2722, "115": 2723, "\u0120flax": 2724, "cens": 2725, "\u0120ranks": 2726, "\u0120metastasis": 2727, "eMedicineHealth": 2728, "nch": 2729, "i\u00c4\u0129": 2730, "\u0120fragility": 2731, "\u0120germination": 2732, "\u0120Absolute": 2733, "\u01201940": 2734, "riers": 2735, "\u0120antidepressant": 2736, "\u0120disagreement": 2737, "fibr": 2738, "\u0120Crisis": 2739, "\u0120Saviour": 2740, "\u0120procedure": 2741, "She": 2742, "\u0120self": 2743, "\u0120photon": 2744, "\u0120encoded": 2745, "Web": 2746, "ables": 2747, "\u0120Amendments": 2748, "\u0120giants": 2749, "wang": 2750, "\u0120Creator": 2751, "comb": 2752, "\u0120_": 2753, "\u0120shelves": 2754, "eira": 2755, "\u0120vesic": 2756, "\u0120Schuster": 2757, "\u00cb\u0132": 2758, "\u0120offices": 2759, "\u0120Documents": 2760, "\u0120plural": 2761, "\u0120published": 2762, "ISBN": 2763, "ical": 2764, "\u0120follow": 2765, "\u0120Bar": 2766, "\u0120monogamous": 2767, "\u0120observations": 2768, "nai": 2769, "\u0120Systems": 2770, "\u0120dominates": 2771, "\u0120circles": 2772, "che": 2773, "\u0120Archaeological": 2774, "\u0120She": 2775, "\u0120jigsaw": 2776, "\u0120fluctuate": 2777, "\u0120Corporate": 2778, "\u0120customary": 2779, "\u0120foretold": 2780, "moving": 2781, "\u0120cue": 2782, "\u0120projecting": 2783, "\u0120Heaven": 2784, "\u0120numbered": 2785, "\u0120crystalline": 2786, "\u0120lamb": 2787, "4": 2788, "ander": 2789, "\u0120syllabus": 2790, "\u0120retirement": 2791, "Alaska": 2792, "\u0120polygon": 2793, "\u0120Maimonides": 2794, "\u0120practise": 2795, "1002": 2796, "ijuana": 2797, "dust": 2798, "\u0120listen": 2799, "PORT": 2800, "\u00a3": 2801, "rie": 2802, "foo": 2803, "\u0120cyclo": 2804, "\u0120harming": 2805, "\u0120speakers": 2806, "\u0120condemn": 2807, "\u0120lectures": 2808, "Captain": 2809, "degree": 2810, "uff": 2811, "kie": 2812, "\u0120oppress": 2813, "\u0120Program": 2814, "\u0120caldera": 2815, "\u0120Grande": 2816, "\u0120analyze": 2817, "\u0120Shepherd": 2818, "?": 2819, "\u0120Recognition": 2820, "Andrew": 2821, "\u0120grams": 2822, "\u0120curved": 2823, "Associate": 2824, "\u0120losses": 2825, "\u0120harassment": 2826, "\u0120recess": 2827, "\u0120upwelling": 2828, "\u0120Leon": 2829, "\u0120visualization": 2830, "\u0120catalyze": 2831, "Port": 2832, "\u0120retaliate": 2833, "\u0120shingles": 2834, "\u0120mushroom": 2835, "\u0120RN": 2836, "\u0120Huntington": 2837, "\u0120shirt": 2838, "\u0120involving": 2839, "\u0120Conference": 2840, "Gar": 2841, "\u0120Objectives": 2842, "cco": 2843, "\u0120KI": 2844, "\u0120exists": 2845, "\u0120pour": 2846, "\u0120Starbucks": 2847, "\u00ed": 2848, "\u0120Rao": 2849, "prov": 2850, "\u0120updates": 2851, "ikh": 2852, "Oklahoma": 2853, "\u0120repair": 2854, "Learn": 2855, "\u0120combine": 2856, "ville": 2857, "uri": 2858, "\u0120foot": 2859, "\u0120exits": 2860, "\u0120Adequate": 2861, "\u0120parish": 2862, "But": 2863, "\u0120protesters": 2864, "\u0120referral": 2865, "\u0120upgraded": 2866, "\u0120conveys": 2867, "\u0120comprise": 2868, "Mi": 2869, "\u0120activate": 2870, "\u0120Herodotus": 2871, "syllabic": 2872, "\u0120selecting": 2873, "\u0120En": 2874, "Massachusetts": 2875, "\u0120lamin": 2876, "\u0120masculine": 2877, "\u0120fringe": 2878, "\u0120spinning": 2879, "\u0120Anabaptist": 2880, "\u0120minimizing": 2881, "\u0120sequencing": 2882, "\u0120upgrade": 2883, "\u0120manners": 2884, "\u0120Rose": 2885, "\u0120Stars": 2886, "\u0120deployed": 2887, "\u0120Educators": 2888, "\u0120Sha": 2889, "\u0120sucking": 2890, "\u0120Directive": 2891, "\u0120broken": 2892, "\u0120Excellence": 2893, "ellar": 2894, "put": 2895, "\u0120fool": 2896, "aming": 2897, "hybrid": 2898, "\u01201981": 2899, "\u0120Yucat\u00c3\u00a1n": 2900, "\u0120verbal": 2901, "\u0120concession": 2902, "\u0120000": 2903, "\u0120rum": 2904, "\u0120influenza": 2905, "Canadian": 2906, "\u0120projection": 2907, "ther": 2908, "\u0120shrubs": 2909, "\u0120lunar": 2910, "\u0120Hill": 2911, "TU": 2912, "\u0120monthly": 2913, "Weight": 2914, "\u0120theory": 2915, "\u0120Fre": 2916, "\u0120superseded": 2917, "rk": 2918, "//": 2919, "\u0120famously": 2920, "\u0120Cats": 2921, "\u0120practice": 2922, "\u0120swollen": 2923, "\u0120symptom": 2924, "\u0120surgical": 2925, "hor": 2926, "\u0120firm": 2927, "\u0120Seas": 2928, "\u01201979": 2929, "\u0120SIDS": 2930, "\u0120decorations": 2931, "\u0120colour": 2932, "\u0120revered": 2933, "\u0120hermaphrodi": 2934, "Qa": 2935, "\u0120legislators": 2936, "sonic": 2937, "Tags": 2938, "\u0120Myths": 2939, "\u0120syphilis": 2940, "\u0120versatile": 2941, "\u0120Wade": 2942, "\u0120emigrated": 2943, "\u0120Lin": 2944, "\u0120philanthrop": 2945, "ms": 2946, "TC": 2947, "rights": 2948, "\u0120craft": 2949, "\u0120specimens": 2950, "mn": 2951, "\u0120graves": 2952, "\u0120oral": 2953, "ual": 2954, "\u0120sacrificed": 2955, "bl": 2956, "\u0120romance": 2957, "molecule": 2958, "\u0120clever": 2959, "\u0120Harvest": 2960, "\u0120overflow": 2961, "\u0120erupt": 2962, "pop": 2963, "\u0120eliminates": 2964, "\u0120Republicans": 2965, "\u0120lupus": 2966, "Ah": 2967, "\u0120beetles": 2968, "ographers": 2969, "\u0120dist": 2970, "\u0120detract": 2971, "odhisattva": 2972, "\u0120benign": 2973, "Jesus": 2974, "\u0120navigating": 2975, "\u0120strife": 2976, "default": 2977, "\u0120qualify": 2978, "\u0120instability": 2979, "\u0120surgeons": 2980, "\u0120incubation": 2981, "\u0120Greeks": 2982, "\u0120keyword": 2983, "\u0120dazzling": 2984, "creation": 2985, "\u0120Jesuit": 2986, "\u0120Medici": 2987, "\u0120illustrate": 2988, "\u0120calling": 2989, "\u0120Living": 2990, "\u0120interpersonal": 2991, "spo": 2992, "located": 2993, "\u0120sailors": 2994, "\u0120naive": 2995, "mitted": 2996, "\u0120plummet": 2997, "\u0120losing": 2998, "\u0120Al": 2999, "Support": 3000, "\u0120of": 3001, "Order": 3002, "\u0120Baton": 3003, "access": 3004, "gha": 3005, "\u0120unpleasant": 3006, "\u0120Ley": 3007, "\u0120Appleton": 3008, "\u0120na": 3009, "\u0120recreation": 3010, "\u0120Todd": 3011, "\u0120Something": 3012, "\u00ba": 3013, "\u0120pigeon": 3014, "\u0120Cynthia": 3015, "\u0120greatest": 3016, "\u0120Strip": 3017, "ridge": 3018, "\u0120discontinued": 3019, "\u0120Ocean": 3020, "\u0120incessant": 3021, "\u0120Herschel": 3022, "\u0120interval": 3023, "llah": 3024, "\u0120vitamins": 3025, "\u0120concerted": 3026, "\u0120Apocrypha": 3027, "\u0120Beth": 3028, "\u0120reluctance": 3029, "Br": 3030, "pulmonary": 3031, "\u0120invertebrate": 3032, "\u0120natives": 3033, "\u0120determination": 3034, "\u0120Flight": 3035, "\u0120bony": 3036, "\u0120graduating": 3037, "\u0120devout": 3038, "137": 3039, "\u0120Similarly": 3040, "\u0120enormously": 3041, "\u0120Milwaukee": 3042, "\u0120consum": 3043, "\u0120Michael": 3044, "\u0120Robertson": 3045, "\u0120acqui": 3046, "\u0120Tigris": 3047, "OE": 3048, "\u0120Belize": 3049, "\u0120obligations": 3050, "\u0120enlightenment": 3051, "tm": 3052, "\u0120(\u00e2\u0122\u013e": 3053, "\u0120CS": 3054, "\u0120know": 3055, "offs": 3056, "\u0120swallow": 3057, "\u0120dosing": 3058, "\u0120angry": 3059, "\u0120leader": 3060, "\u0120war": 3061, "fu": 3062, "\u0120learners": 3063, "citizen": 3064, "\u0120Laws": 3065, "\u0120Behaviour": 3066, "\u0120starter": 3067, "\u0120Glossary": 3068, "\u0120trading": 3069, "\u00d0\u00b3": 3070, "boys": 3071, "\u0120licensing": 3072, "\u0120medication": 3073, "half": 3074, "\u0120homestead": 3075, "\u0120Zechariah": 3076, "Monday": 3077, "\u0120pictured": 3078, "\u0120interprets": 3079, "ify": 3080, "\u0120Boy": 3081, "\u0120atrazine": 3082, "\u0120Hei": 3083, "\u0120vaccines": 3084, "\u0120sphincter": 3085, "\u0120Cascade": 3086, "\u0120Syphilis": 3087, "Based": 3088, "\u0120NJ": 3089, "\u0120Halifax": 3090, "\u0120entertaining": 3091, "dwell": 3092, "\u0120hanging": 3093, "bu": 3094, "\u0120dubbed": 3095, "\u0120aboard": 3096, "\u0120middle": 3097, "teenth": 3098, "\u0120burgdorferi": 3099, "\u0120constraint": 3100, "\u0120Commercial": 3101, "\u0120avenge": 3102, "\u0120Polytechnic": 3103, ")/": 3104, "\u0120workplace": 3105, "\u0120sophomore": 3106, "\u0120Viol": 3107, "\u0120modular": 3108, "\u0120unexpectedly": 3109, "\u0120towns": 3110, "environmental": 3111, "\u0120repression": 3112, "Adv": 3113, "\u0120Speed": 3114, "\u0120Rail": 3115, "\u0120eight": 3116, "\u0120characters": 3117, "\u0120Clim": 3118, "Recent": 3119, "\u0120claws": 3120, "\u0120Um": 3121, "\u0120Se": 3122, "HC": 3123, "\u0120les": 3124, "\u0120Volcano": 3125, "Th": 3126, "\u0120nation": 3127, "gis": 3128, "\u0120dissipate": 3129, "Flu": 3130, "ia": 3131, "\u0120prostitution": 3132, "\u0120hackers": 3133, "\u0120GM": 3134, "\u01201994": 3135, "\u0120cart": 3136, "ez": 3137, "\u0120Alert": 3138, "\u0120re": 3139, "\u0120heaviest": 3140, "\u0120observing": 3141, "vable": 3142, "\u0120loans": 3143, "\u0120Sp": 3144, "\u0120commerce": 3145, "\u0120bait": 3146, "RB": 3147, "\u0120cheek": 3148, "\u0120Stamp": 3149, "\u0120Brewster": 3150, "\u0120Galilee": 3151, "\u0120appearing": 3152, "\u0120contemporaneous": 3153, "\u0120outright": 3154, "firm": 3155, "\u0120bot": 3156, "\u0120item": 3157, "\u0120dose": 3158, "\u0120HB": 3159, "\u0120blight": 3160, "IGN": 3161, "td": 3162, "\u0120feat": 3163, "\u0120Emperor": 3164, "Dan": 3165, "ffling": 3166, "\u0120flavors": 3167, "\u0120understand": 3168, "\u0120beliefs": 3169, "\u0120Where": 3170, "SE": 3171, "\u0120Trinidad": 3172, "\u00a6": 3173, "\u0120boom": 3174, "\u0120Armenia": 3175, "\u0120compatible": 3176, "\u0120Orders": 3177, "AB": 3178, "\u0120fuels": 3179, "\u0120preparing": 3180, "\u0120Theravada": 3181, "\u0120homemade": 3182, "\u0120Genomics": 3183, "\u0120force": 3184, "tomy": 3185, "ttery": 3186, "\u0120Company": 3187, "\u0120pending": 3188, "dl": 3189, "\u0120arthro": 3190, "\u0120Computing": 3191, "\u0120downhill": 3192, "\u0120dyslexia": 3193, "Canada": 3194, "\u0120microbiology": 3195, "\u0120feared": 3196, "oli": 3197, "\u0120Artemis": 3198, "\u0120lump": 3199, "\u0120Founding": 3200, "\u0120expressed": 3201, "Large": 3202, "non": 3203, "\u0120Mumbai": 3204, "\u0120issued": 3205, "\u0120tender": 3206, "\u0120Running": 3207, "\u0120Caroline": 3208, "toxic": 3209, "\u0120forth": 3210, "\u0120summar": 3211, "\u0120retract": 3212, "\u0120strenuous": 3213, "\u0120via": 3214, "\u0120context": 3215, "many": 3216, "\u0120Religion": 3217, "\u0120nationalist": 3218, "\u0120detailed": 3219, "\u0120torch": 3220, "\u0120escort": 3221, "\u0120aggregation": 3222, "\u0120microorganisms": 3223, "\u0120insisted": 3224, "\u012048": 3225, "\u0120Accept": 3226, "was": 3227, "plication": 3228, "\u0120cucumbers": 3229, "\u0120adaptive": 3230, "\u0120invisibility": 3231, "\u0120recognisable": 3232, "\u0120Bund": 3233, "pine": 3234, "\u0120Duck": 3235, "\u0120rainforests": 3236, "\u0120enables": 3237, "\u0120microscopes": 3238, "ase": 3239, "\u0120Monastery": 3240, ");": 3241, "\u0120second": 3242, "Dec": 3243, "\u0120designer": 3244, "Poverty": 3245, "\u0120unstable": 3246, "scale": 3247, "\u0120odor": 3248, "pher": 3249, "\u0120navigation": 3250, "\u0120assimilate": 3251, "father": 3252, "\u0120acorns": 3253, "\u0120ride": 3254, "\u0120margins": 3255, "\u0120math": 3256, "\u0120vols": 3257, "\u0120Electric": 3258, "FE": 3259, "Suppose": 3260, "Approximately": 3261, "understood": 3262, "\u0120vet": 3263, "\u0120apparition": 3264, "\u0120coded": 3265, "\u0120factory": 3266, "\u0120efficiently": 3267, "moral": 3268, "\u0120149": 3269, "OK": 3270, "Darwin": 3271, "\u0120coding": 3272, "nut": 3273, "\u0120fort": 3274, "\u0120Compensation": 3275, "\u0120weight": 3276, "\u0120Everglades": 3277, "\u0120Crusade": 3278, "\u0120Recently": 3279, "Vaccin": 3280, "\u0120Numerous": 3281, "\u0120shoes": 3282, "\u0120greens": 3283, "\u0120hardship": 3284, "CB": 3285, "\u0120Clement": 3286, "added": 3287, "\u0120Alvarez": 3288, "\u012011": 3289, "parallel": 3290, "esis": 3291, "\u0120hampered": 3292, "\u0120excuse": 3293, "\u0120Ypres": 3294, "\u0120Le": 3295, "Century": 3296, "apa": 3297, "\u0120logically": 3298, "\u0120outlines": 3299, "\u0120indicators": 3300, "\u0120\u00c3\u0139": 3301, "\u0120Pala": 3302, "\u00e2\u0126\u00a2": 3303, "\u0120prophes": 3304, "\u0120persuaded": 3305, "\u0120Qatar": 3306, "\u0120LI": 3307, "\u0120emphasis": 3308, "\u0120Bring": 3309, "\u0120Nausea": 3310, "\u0120searching": 3311, "Sub": 3312, "\u0120Origin": 3313, "\u0120Later": 3314, "\u0120accelerated": 3315, "\u0120dispersal": 3316, "\u0120Katrina": 3317, "\u0120Technological": 3318, "\u0120Pal": 3319, "Deposited": 3320, "\u0120Duryodhana": 3321, "National": 3322, "\u0120operating": 3323, "directed": 3324, "\u0120embedded": 3325, "\u0120crosses": 3326, "\u0120sophisticated": 3327, "\u0120notes": 3328, "\u01201937": 3329, "\u0120products": 3330, "logy": 3331, "assembly": 3332, "\u0120Union": 3333, "Compa": 3334, "\u0120prestigious": 3335, "\u0120enterprise": 3336, "publish": 3337, "\u0120Ganges": 3338, "\u0120mundane": 3339, "\u0120ignored": 3340, "\u0120fanciful": 3341, "watt": 3342, "\u0120Lenin": 3343, "\u0120Colonel": 3344, "\u0120basilica": 3345, "how": 3346, "\u0120imposing": 3347, "\u0120caste": 3348, "\u0120particular": 3349, "\u0120biologists": 3350, "handed": 3351, "\u0120opposite": 3352, "\u0120honesty": 3353, "\u0120Chancellor": 3354, "\u0120tempted": 3355, "\u0120hill": 3356, "\u0120Valencia": 3357, "\u0120Therapy": 3358, "sufficiency": 3359, "\u0120Pershing": 3360, "\u0120slightly": 3361, "\u012071": 3362, "\u0120smooth": 3363, "\u0120Distribution": 3364, "\u0120abide": 3365, "\u0120Horn": 3366, "\u0120Durham": 3367, "\u0120involvement": 3368, "\u0120Time": 3369, "\u0120plugs": 3370, "zero": 3371, "\u0120Lo": 3372, "V": 3373, "\u0120unprecedented": 3374, "\u0120molecular": 3375, "\u0120publishers": 3376, "\u0120parentheses": 3377, "\u0120raise": 3378, "\u0120reciproc": 3379, "\u012020": 3380, "\u0120statewide": 3381, "\u0120triggering": 3382, "\u0120every": 3383, "\u0120uncon": 3384, "\u0120imposed": 3385, "\u0120welding": 3386, "\u0120Ivan": 3387, "\u0120package": 3388, "\u0120ovaries": 3389, "\u0120coup": 3390, "\u0120nodes": 3391, "leaf": 3392, "\u0120fluoroquinolone": 3393, "\u0120Sanders": 3394, "\u0120grand": 3395, "EC": 3396, "\u0120Race": 3397, "\u0120investigators": 3398, "00": 3399, "|": 3400, "\u0120Governors": 3401, "dor": 3402, "\u0120accumulate": 3403, "\u0120cement": 3404, "urban": 3405, "\u0120penguins": 3406, "\u0120Intelligent": 3407, "\u0120inception": 3408, "\u0120lac": 3409, "\u01201898": 3410, "\u0120domain": 3411, "\u0120migrate": 3412, "EM": 3413, "\u0120belong": 3414, "Stanford": 3415, "\u0120inspire": 3416, "Keywords": 3417, "\u0120owe": 3418, "\u0120Samhain": 3419, "\u0120floor": 3420, "\u0120counsel": 3421, "Here": 3422, "\u0120journeys": 3423, "\u0120Cunningham": 3424, "\u0120ceremonies": 3425, "\u0120includes": 3426, "\u0120stabil": 3427, "\u00e2\u012a\u0134": 3428, "\u0120pertaining": 3429, "nomy": 3430, "\u0120Ok": 3431, "\u0120transform": 3432, "\u0120arrow": 3433, "\u0120inde": 3434, "\u0120Conn": 3435, "\u0120but": 3436, "\u0120alleged": 3437, "\u0120Margaret": 3438, "\u0120arithmetic": 3439, "\u0120grades": 3440, "\u0120patent": 3441, "kra": 3442, "\u0120URI": 3443, "iano": 3444, "\u0120USD": 3445, "\u0120Pentateuch": 3446, "morphic": 3447, "\u0120therapeutic": 3448, "\u0120theology": 3449, "\u0120diseased": 3450, "\u0120Potassium": 3451, "\u0120Joaquin": 3452, "\u0120Ahmad": 3453, "\u0120groin": 3454, "\u0120tourists": 3455, "\u0120Hampshire": 3456, "\u01201791": 3457, "Standard": 3458, "bourg": 3459, "\u01201813": 3460, "\u0120ancestry": 3461, "\u0120onions": 3462, "\u0120Calendar": 3463, "\u0120tidal": 3464, "racial": 3465, "\u0120diphtheria": 3466, "\u0120prophets": 3467, "\u0120Fast": 3468, "level": 3469, "\u0120NIST": 3470, "\u0120relying": 3471, "\u0120ideas": 3472, "\u0120158": 3473, "articles": 3474, "\u0120rewarded": 3475, "oxygen": 3476, "\u0120hardships": 3477, "\u0120Prov": 3478, "\u0120Dem": 3479, "\u0120uniform": 3480, "\u0120admitted": 3481, "film": 3482, "then": 3483, "\u0120Coll": 3484, "\u0120contemplation": 3485, "\u0120interior": 3486, "\u01201888": 3487, "\u0120reblogged": 3488, "\u0120Gastro": 3489, "\u0120souvenir": 3490, "ners": 3491, "\u0120Burkina": 3492, "\u0120marching": 3493, "iot": 3494, "\u00ef\u00ac\u0123": 3495, "\u0120adolescents": 3496, "\u0120awe": 3497, "\u0120v": 3498, "\u0120flourish": 3499, "\u0120superfluous": 3500, "\u0120patch": 3501, "\u0120token": 3502, "OCR": 3503, "\u012058": 3504, "approved": 3505, "\u0120Global": 3506, "\u0120module": 3507, "\u0120impart": 3508, "\u0120corrective": 3509, "dot": 3510, "effects": 3511, "tu": 3512, "\u0120dirty": 3513, "\u0120Angel": 3514, "Most": 3515, "'": 3516, "\u0120river": 3517, "\u0120Energy": 3518, "\u0120concludes": 3519, "\u0120120": 3520, "Hebrew": 3521, "\u0120evacuated": 3522, "Music": 3523, "24": 3524, "\u0120protects": 3525, "\u0120Such": 3526, "enic": 3527, "\u0120scale": 3528, "\u0120RAINBOW": 3529, "Mexican": 3530, ":||": 3531, "\u0120compressor": 3532, "Japan": 3533, "\u0120poses": 3534, "am": 3535, "\u0120attaining": 3536, "\u0120suppressed": 3537, "\u0120rank": 3538, "Han": 3539, "\u0120pleasant": 3540, "\u0120PV": 3541, "\u0120Sch": 3542, "\u0120Sign": 3543, "\u0120hugely": 3544, "m": 3545, "\u0120confidence": 3546, "\u0120particle": 3547, "\u0120speaker": 3548, "\u0120recharge": 3549, "\u0120hydration": 3550, "\u0120Edinburgh": 3551, "Causes": 3552, "\u0120notice": 3553, "\u00c3\u00b3n": 3554, "mines": 3555, "\u0120AR": 3556, "\u0120serious": 3557, "aj": 3558, "\u0120Subsequently": 3559, "\u0120EV": 3560, "ano": 3561, "\u0120remedy": 3562, "\u0120spirit": 3563, "\u0120inadequate": 3564, "003": 3565, "\u0120seeds": 3566, "\u0120Stefan": 3567, "\u0120Status": 3568, "male": 3569, "\u0120Task": 3570, "\u0120lenses": 3571, "\u0120prosecuted": 3572, "Occasionally": 3573, "ya": 3574, "\u0120Peters": 3575, "\u00c2\u00b4": 3576, "\u0120hopes": 3577, "\u0120fluency": 3578, "\u0120Fundamental": 3579, "\u0120vegan": 3580, "\u0120New": 3581, "\u0120Americans": 3582, "\u0120clashes": 3583, "\u0120altruism": 3584, "\u0120heir": 3585, "security": 3586, "\u0120Charles": 3587, "owa": 3588, "ensive": 3589, "\u0120An": 3590, "\u0120degrade": 3591, "\u0120Falcon": 3592, "\u0120Mar": 3593, "Jeff": 3594, "\u0120cattle": 3595, "\u0120Innsbruck": 3596, "\u0120inverted": 3597, "\u00c3\u00a4": 3598, "\u0120criminals": 3599, "\u0120209": 3600, "\u0120rendered": 3601, "rst": 3602, "\u0120Northern": 3603, "arn": 3604, "\u0120executing": 3605, "\u0120runs": 3606, "\u0120crossed": 3607, "qu": 3608, "\u0120DOE": 3609, "\u0120Loyal": 3610, "\u0120controller": 3611, "Given": 3612, "\u0120Zhu": 3613, "\u0120Fifth": 3614, "\u0120triglyceride": 3615, "\u0120Initially": 3616, "\u0120stakes": 3617, "\u0120matched": 3618, "pathic": 3619, "\u0120rabbits": 3620, "\u0120abundant": 3621, "\u0120seating": 3622, "\u0120Springs": 3623, "\u0120punctuation": 3624, "\u0120tannins": 3625, "\u0120polymorphisms": 3626, "\u0120divorce": 3627, "\u0120Custer": 3628, "Short": 3629, "\u0120inventories": 3630, "\u0120//": 3631, "\u0120109": 3632, "\u0120unthinkable": 3633, "icide": 3634, "\u0120Battle": 3635, "literation": 3636, "Europe": 3637, "h": 3638, "]": 3639, "2009": 3640, "\u0120regardless": 3641, "\u0120translated": 3642, "\u0120wisely": 3643, "\u0120zero": 3644, "\u0120Cases": 3645, "\u0120Gordon": 3646, "\u0120remarked": 3647, "\u00c3\u0143a": 3648, "Between": 3649, "\u0120affiliated": 3650, "\u0120Cancer": 3651, "\u0120cow": 3652, "\u0120SA": 3653, "\u0120Hispanics": 3654, "\u0120interspersed": 3655, "\u0120kava": 3656, "\u0120BLM": 3657, "\u0120Hawaii": 3658, "\u0120hub": 3659, "\u0120Broad": 3660, "\u0120sprout": 3661, "\u0120mortality": 3662, "\u0120classics": 3663, "PER": 3664, "\u0120objected": 3665, "\u0120Cameroon": 3666, "\u0120Penn": 3667, "\u0120Risk": 3668, "\u0120typically": 3669, "\u0120signaling": 3670, "Comparison": 3671, "\u0120diving": 3672, "\u0120Ext": 3673, "\u0120quin": 3674, "\u0120Known": 3675, "ury": 3676, "\u0120anterior": 3677, "\u0120zenith": 3678, "tained": 3679, "\u0120Ly": 3680, "Wood": 3681, "clusion": 3682, "ising": 3683, "\u0120INFORMATION": 3684, "\u0120UNESCO": 3685, "\u0120sandwich": 3686, "fluorocarbons": 3687, "\u0120Moshe": 3688, "\u0120effluent": 3689, "\u0120dreamed": 3690, "106": 3691, "except": 3692, "\u0120swept": 3693, "\u00d4": 3694, "abstract": 3695, "\u0120gardens": 3696, "\u0120arriving": 3697, "\u0120revolve": 3698, "\u0120renowned": 3699, "\u0120lizards": 3700, "\u0120construction": 3701, "oring": 3702, "\u0120Index": 3703, "Hol": 3704, "Ivoire": 3705, "`": 3706, "dus": 3707, "\u0120pressures": 3708, "Alcohol": 3709, "\u0120Communications": 3710, "\u0120redirect": 3711, "\u0120emits": 3712, "\u0120titanium": 3713, "\u0120intolerable": 3714, "phth": 3715, "\u0120strawberries": 3716, "mad": 3717, "\u0120Rule": 3718, "AL": 3719, "rian": 3720, "\u0120holistic": 3721, "\u0120discusses": 3722, "\u0120Shield": 3723, "\u0120small": 3724, "\u0120determine": 3725, "\u0120consist": 3726, "\u0120fortunes": 3727, "\u0120populace": 3728, "steroidal": 3729, "\u0120sn": 3730, "\u0120judges": 3731, "\u0120impact": 3732, "\u0120zigzag": 3733, "\u0120chord": 3734, "tested": 3735, "\u0120Early": 3736, "|\u00e2\u0122\u013e||": 3737, "\u0120bottles": 3738, "\u0120sustenance": 3739, "\u0120Paraguay": 3740, "Drug": 3741, "zar": 3742, "\u0120trend": 3743, "\u0120comment": 3744, "\u0120confirm": 3745, "ndo": 3746, "ematopoietic": 3747, "Inter": 3748, "\u0120southern": 3749, "\u0120allocated": 3750, "toria": 3751, "\u0120quick": 3752, "\u0120antigen": 3753, "?)": 3754, "tain": 3755, "\u0120anus": 3756, "\u0120breast": 3757, "\u0120Ornith": 3758, "\u0120dye": 3759, "\u0120Sel": 3760, "\u0120offence": 3761, "\u0120pursued": 3762, "\u0120on": 3763, "eva": 3764, "ums": 3765, "Earth": 3766, "\u0120reputable": 3767, "\u0120cloudy": 3768, "\u0120frequently": 3769, "\u0120keep": 3770, "\u0120Flower": 3771, "\u0120tundra": 3772, "\u0120Keller": 3773, "\u0120Brahman": 3774, "continental": 3775, "\u0120UAVs": 3776, "\u0120unilateral": 3777, "\u0120migrants": 3778, "\u0120inheritance": 3779, "\u0120gifted": 3780, "\u0120Faraday": 3781, "\u0120stigma": 3782, "\u0120much": 3783, "\u0120po": 3784, "employment": 3785, "\u0120Favorite": 3786, "\u0120berries": 3787, "\u0120turbines": 3788, "\u0120Mack": 3789, "\u0120beast": 3790, "\u0120Wein": 3791, "\u0120presumption": 3792, "eland": 3793, "\u0120Logic": 3794, "\u0120Bir": 3795, "inter": 3796, "\u0120velocity": 3797, "\u0120song": 3798, "Patients": 3799, "dicated": 3800, "\u0120worries": 3801, "\u0120Mas": 3802, "\u0120Allergy": 3803, "\u0120Bear": 3804, "\u0120fishing": 3805, "\u0120considers": 3806, "\u0120DJ": 3807, "\u0120reparations": 3808, "have": 3809, "\u0120Ang": 3810, "\u0120enca": 3811, "que": 3812, "202": 3813, "\u0120parking": 3814, ".\u00e2\u0122\u013b\u00e2\u0122\u013f": 3815, "ding": 3816, "\u0120Adaptation": 3817, "\u012074": 3818, "\u0120jacket": 3819, "ff": 3820, "\u0120chemical": 3821, "\u0120tissue": 3822, "\u0120swim": 3823, "\u0120immunosuppress": 3824, "Ro": 3825, "\u0120democracies": 3826, "\u0120Therefore": 3827, "\u0120tending": 3828, "01": 3829, ":-": 3830, "\u0120gyrus": 3831, "\u0120Seventh": 3832, "\u0120royal": 3833, "\u0120escape": 3834, "vascular": 3835, "\u0120backed": 3836, "\u0120attempt": 3837, "\u0120meteorites": 3838, "\u0120finish": 3839, "\u0120bore": 3840, "\u0120culminate": 3841, "\u0120rites": 3842, "\u0120Parliament": 3843, "ducing": 3844, "\u0120Fil": 3845, "\u0120mating": 3846, "\u0120postulated": 3847, "\u0120Aachen": 3848, "\u00c3\u0143s": 3849, "\u0120merger": 3850, "\u0120sector": 3851, "\u0120rarely": 3852, "\u0120Sustainability": 3853, "fried": 3854, "\u0120tinnitus": 3855, "\u0120Booth": 3856, "\u0120reappear": 3857, "\u0120lease": 3858, "consumer": 3859, "\u0120Transportation": 3860, "\u0120Entry": 3861, "\u0120maker": 3862, "Keeping": 3863, "\u0120unprotected": 3864, "\u0120Mall": 3865, "\u0120shattered": 3866, "\u0120S\u00c3\u00a3o": 3867, "hara": 3868, "\u0120carcinogens": 3869, "\u0120Sleep": 3870, "Fall": 3871, "\u0120attracts": 3872, "\u0120blueprint": 3873, "nished": 3874, "\u0120Lan": 3875, "\u0120Vaughan": 3876, "\u0120implementation": 3877, "\u0120Tom": 3878, "\u0120Klamath": 3879, "\u0120Medium": 3880, "\u0120relentless": 3881, "'d": 3882, "\u0120semiconductors": 3883, "\u0120plasmid": 3884, "\u0120charging": 3885, "\u0120desert": 3886, "\u0120canyon": 3887, "\u0120Seeds": 3888, "\u0120cases": 3889, "\u0120privileged": 3890, "ckle": 3891, "\u0120isotope": 3892, "Hel": 3893, "\u0120staged": 3894, "\u0120verbs": 3895, "\u0120annexation": 3896, "\u0120Ni\u00c3\u00b1a": 3897, "flies": 3898, "\u0120Michel": 3899, "\u0120anyway": 3900, "\u0120Ado": 3901, "\u0120commit": 3902, "\u0120porch": 3903, "\u0120seventeenth": 3904, "\u0120pumpkins": 3905, "1861": 3906, "\u0120judge": 3907, "\u0120Hier": 3908, "usual": 3909, "\u0120uncanny": 3910, "\u0120Observatory": 3911, "\u0120lin": 3912, "\u0120judgments": 3913, "\u0120Lil": 3914, "\u0120accumulates": 3915, "yama": 3916, "\u0120Size": 3917, "yt": 3918, "GDP": 3919, "\u0120Koreans": 3920, "kilo": 3921, "\u0120mission": 3922, "\u00e2\u0122\u013b)": 3923, "\u0120atom": 3924, "\u0120disastrous": 3925, "\u0120Baltimore": 3926, "\u0120inflamed": 3927, "mund": 3928, "als": 3929, "\u0120QU": 3930, "\u0120substantive": 3931, "\u0120minutes": 3932, "\u0120spectro": 3933, "\u0120demon": 3934, "\u0120wool": 3935, "\u0120Photoshop": 3936, "\u01201600": 3937, "\u0120seasonal": 3938, "mini": 3939, "Quick": 3940, "\u0120Older": 3941, "\u0120arguing": 3942, "\u0120Values": 3943, "\u0120ovulation": 3944, "\u0120Light": 3945, "\u0120Kurzweil": 3946, "\u0120Jones": 3947, "\u0120Rousseau": 3948, "\u0120eliminate": 3949, "\u0120hymn": 3950, "\u0120Scheme": 3951, "\u0120infestation": 3952, "switch": 3953, "\u0120Pittsburgh": 3954, "\u01201823": 3955, "\u0120tired": 3956, "\u0120greatness": 3957, "\u0120messenger": 3958, "Real": 3959, "OP": 3960, "\u0120passenger": 3961, "\u0120tends": 3962, "\u0120Ponsonby": 3963, "Discuss": 3964, "\u0120Rich": 3965, "array": 3966, "circle": 3967, "\u0120Innovation": 3968, "\u0120Hour": 3969, "ckles": 3970, "\u0120Fortunately": 3971, "\u0120camps": 3972, "space": 3973, "\u0120BBC": 3974, "doc": 3975, "\u0120spleen": 3976, "\u0120Lunch": 3977, "\u0120aphasia": 3978, "\u0120Harris": 3979, "were": 3980, "\u0120News": 3981, "\u0120Unlike": 3982, "\u0120suffice": 3983, "\u0120cholesterol": 3984, "\u0120percentage": 3985, "\u0120lagoons": 3986, "Vi": 3987, "\u0120stature": 3988, "Making": 3989, "hra": 3990, "\u0120Alleg": 3991, "204": 3992, "\u0120controlled": 3993, "\u0120enter": 3994, "\u0120believers": 3995, "PubMed": 3996, "Individual": 3997, "\u0120oats": 3998, "\u0120inspected": 3999, "\u0120opposing": 4000, "\u0120Erik": 4001, "\u012033": 4002, "\u0120falciparum": 4003, "So": 4004, "\u0120Fol": 4005, "\u0120composer": 4006, "\u0120Until": 4007, "\u0120Yorkshire": 4008, "ony": 4009, "ssing": 4010, "lux": 4011, "\u0120Catholics": 4012, "lip": 4013, "Arctic": 4014, "speaking": 4015, "\u0120pride": 4016, "\u0120discrepancies": 4017, "logue": 4018, "\u0120Depression": 4019, "LAN": 4020, "\u0120Urban": 4021, "Cat": 4022, "\u0120sustained": 4023, "\u0120returning": 4024, "\u0120Jorge": 4025, "\u0120annoy": 4026, "\u0120Excessive": 4027, "\u0120ignoring": 4028, "\u0120crime": 4029, "\u0120Cyber": 4030, "\u0120Iraqi": 4031, "\u0120ring": 4032, "owed": 4033, "\u0120swimming": 4034, "\u0120mourning": 4035, "ients": 4036, "\u0120Dynamic": 4037, "\u0120prolong": 4038, "\u0120hemoglobin": 4039, "\u0120touches": 4040, "\u0120worried": 4041, "\u0120av": 4042, "\u0120inflammatory": 4043, "class": 4044, "\u0120victim": 4045, "\u0120girl": 4046, "\u0120ganglion": 4047, "\u0120homosexuality": 4048, "\u0120Madison": 4049, "\u0120intelligible": 4050, "gun": 4051, "\u0120Cultural": 4052, "\u0120collecting": 4053, "1952": 4054, "-": 4055, "\u0120Volunteers": 4056, "\u0120resilience": 4057, "time": 4058, "stin": 4059, "\u0120navy": 4060, "\u0120system": 4061, "\u0120utilize": 4062, "\u0120metamorpho": 4063, "acoustic": 4064, "\u0120administrative": 4065, "\u0120pseudonym": 4066, "\u0120whaling": 4067, "iferous": 4068, "\u0120Aside": 4069, "\u0120Kal": 4070, "\u0120additions": 4071, "\u0120endowed": 4072, "\u0120libraries": 4073, "\u0120advises": 4074, "\u0120Photography": 4075, "back": 4076, "FM": 4077, "\u0120discharged": 4078, "Typical": 4079, "\u0120arrhythmias": 4080, "\u0120leaks": 4081, "\u0120erase": 4082, "\u0120regeneration": 4083, "\u0120Kan": 4084, "\u0120Universal": 4085, "\u0120dressing": 4086, "\u0120inventory": 4087, "*,": 4088, "\u0120utilizes": 4089, "\u0120Fisher": 4090, "\u0120(\u00e2\u0122\u013a": 4091, "\u0120Color": 4092, "152": 4093, "\u0120traders": 4094, "\u0120cache": 4095, "\u0120Ring": 4096, "\u00b7": 4097, "sible": 4098, "\u0120four": 4099, "\u0120Highlands": 4100, "\u0120extension": 4101, "Courtesy": 4102, "\u0120applications": 4103, "\u0120displace": 4104, "Temp": 4105, "\u0120cosmic": 4106, "\u0120pt": 4107, "\u0120wives": 4108, "yn": 4109, "\u0120cure": 4110, "\u0120bolt": 4111, "\u0120donated": 4112, "\u0120preach": 4113, "\u0120Six": 4114, "\u0120Nations": 4115, "\u0120Persian": 4116, "\u0120DES": 4117, "\u0120Censor": 4118, "lum": 4119, "\u0120urgently": 4120, "28": 4121, "nets": 4122, "\u0120Saturn": 4123, "\u0120termination": 4124, "\u0120area": 4125, "\u0120OS": 4126, "\u0120Radical": 4127, "1982": 4128, "gling": 4129, "\u0120updating": 4130, "could": 4131, "\u0120overhaul": 4132, "\u0120knife": 4133, "\u0120zip": 4134, "\u0120shores": 4135, "\u0120Gregory": 4136, "\u0120sucrose": 4137, "\u0120basis": 4138, "\u0120accumulated": 4139, "osis": 4140, "None": 4141, "\u0120cyanide": 4142, "\u0120level": 4143, "illing": 4144, "smokers": 4145, "\u0120sun": 4146, "\u0120Cincinnati": 4147, "\u0120requests": 4148, "\u0120Birds": 4149, "Mur": 4150, "dit": 4151, "\u0120might": 4152, "\u0120Consumption": 4153, "\u0120Infrastructure": 4154, "\u0120punish": 4155, "\u0120atop": 4156, "\u0120displays": 4157, "\u0120quadrup": 4158, "\u0120Pier": 4159, "atable": 4160, "IE": 4161, "\u0120codes": 4162, "\u0120veggies": 4163, "etics": 4164, "\u00e0\u00a5": 4165, "ous": 4166, "\u0120Markets": 4167, "\u0120odds": 4168, "\u0120hopeful": 4169, "Increasing": 4170, "\u0120Turkish": 4171, "\u0120indeed": 4172, "\u0120receptors": 4173, "\u0120gates": 4174, "Bra": 4175, "\u0120Revelation": 4176, "\u0120who": 4177, "\u0137": 4178, "\u0120zircon": 4179, "\u0120DBY": 4180, "\u0120sprayed": 4181, "\u0120unanswered": 4182, "\u0120almost": 4183, "\u0120spoke": 4184, "\u0120Beautiful": 4185, "\u0120extraterrestrial": 4186, "\u0120oatmeal": 4187, "\u0120submerged": 4188, "\u0120vessels": 4189, "\u0120Wells": 4190, "\u0120experience": 4191, "\u0120intricate": 4192, "\u0120Lawrence": 4193, "\u0120amusement": 4194, "search": 4195, "era": 4196, "\u0120transformations": 4197, "\u0120Biochemistry": 4198, "\u0120Propulsion": 4199, "\u0120martyrdom": 4200, "\u0120slogan": 4201, "\u0120sheds": 4202, "\u0120hundreds": 4203, "\u0120painter": 4204, "active": 4205, "Urban": 4206, "\u0120Infant": 4207, "False": 4208, "\u01201838": 4209, "\u0120RS": 4210, "conventional": 4211, "\u0120complexity": 4212, "\u0120reach": 4213, "\u0120malfunction": 4214, "\u0120Prospe": 4215, "grams": 4216, "\u0120you": 4217, "\u0120RO": 4218, "\u0120Asimov": 4219, "\u0120speaking": 4220, "\u012069": 4221, "\u0120backyard": 4222, "\u0120CA": 4223, "\u0120OF": 4224, "\u0120upheld": 4225, "\u0120lobe": 4226, "\u0120latex": 4227, "ibly": 4228, "\u0120potent": 4229, "\u0120Employ": 4230, "\u0120consideration": 4231, "\u0120Ukrainian": 4232, "\u0120eva": 4233, "\u0120nut": 4234, "Breast": 4235, "report": 4236, "\u0120Phelps": 4237, "\u0120cuff": 4238, "\u0120encounters": 4239, "lands": 4240, "\u0120folders": 4241, "\u0120vocational": 4242, "\u0120Gu": 4243, "\u0120HDL": 4244, "\u0120cheetah": 4245, "respect": 4246, "\u0120cave": 4247, "\u0120requisite": 4248, "\u0120sq": 4249, "\u0120Traffic": 4250, "hs": 4251, "\u0120fissure": 4252, "oi": 4253, "\u0120TI": 4254, "\u0120lip": 4255, "\u0120Sagittarius": 4256, "\u0120escapes": 4257, "\u0120ARE": 4258, "\u0120hyphen": 4259, "\u0120subordinate": 4260, "Mal": 4261, "\u0120foods": 4262, "\u0120marketing": 4263, "\u0120Samuel": 4264, "\u0120rejection": 4265, "\u0120liturgy": 4266, "\u0120wouldn": 4267, "\u0120resulted": 4268, "\u0120Nguyen": 4269, "\u0120Telegraph": 4270, "oster": 4271, "fo": 4272, "istry": 4273, "\u0120Walt": 4274, "\u0120generate": 4275, "\u0120unnoticed": 4276, "\u0120height": 4277, "\u0120taxation": 4278, "\u0120carefully": 4279, "\u0120scratch": 4280, "\u0120documents": 4281, "by": 4282, "\u0120golden": 4283, "\u0120ip": 4284, "\u0120One": 4285, "\u0120proposes": 4286, "\u0120shields": 4287, "\u0120Forum": 4288, "lasting": 4289, "\u0120PBDEs": 4290, "],": 4291, "PV": 4292, "\u0120Anthrop": 4293, "\u0120reviewed": 4294, "cc": 4295, "\u0120camping": 4296, "\u0120madness": 4297, "\u0120replica": 4298, "\u0120Format": 4299, "\u0120Lowell": 4300, "\u0120pellets": 4301, "\u0120lawns": 4302, "\u0120telling": 4303, "\u0120psoriasis": 4304, "\u0120collaborator": 4305, "Fer": 4306, "ruption": 4307, "Line": 4308, "\u0120Thanksgiving": 4309, "load": 4310, "\u0120reinforcing": 4311, "\u0120exceptionally": 4312, "\u0120healthful": 4313, "\u0120Morning": 4314, "\u0120tariffs": 4315, "\u0120highways": 4316, "ughlin": 4317, "\u0120Dream": 4318, "\u0120miles": 4319, "Ana": 4320, "\u0120nine": 4321, "confidence": 4322, "\u0120redness": 4323, "\u0120draft": 4324, "\u0120embraced": 4325, "\u0120contend": 4326, "\u0120subspecies": 4327, "\u0120grape": 4328, "\u0120ang": 4329, "\u0120urgency": 4330, "\u0120tapes": 4331, "\u0120response": 4332, "\u01201949": 4333, "Additionally": 4334, "lepsy": 4335, "\u0120paradise": 4336, "\u0120Poland": 4337, "Be": 4338, "\u0120otters": 4339, "\u0120heater": 4340, "yards": 4341, "\u0120requested": 4342, "\u0120GHz": 4343, "\u0120privacy": 4344, "\u0120consciousness": 4345, "\u0120listener": 4346, "\u0120Cave": 4347, "\u0120bother": 4348, "\u0120concepts": 4349, "\u0120faculties": 4350, "\u0120checking": 4351, "\u0120berry": 4352, "front": 4353, "\u0120paternal": 4354, "\u0120Dermat": 4355, "\u0120Valentine": 4356, "\u0120Surgery": 4357, "\u0120betray": 4358, "authors": 4359, "\u0120Numbers": 4360, "\u0120Waterloo": 4361, "\u0120culinary": 4362, "\u0120gravity": 4363, "\u0120alleviation": 4364, "\u0120Ye": 4365, "nte": 4366, "use": 4367, "\u0120mosquito": 4368, "\u0120sweetener": 4369, "\u0120Earlier": 4370, "boxes": 4371, "Nutrition": 4372, "\u0120milieu": 4373, "rist": 4374, "\u012064": 4375, "\u0120McCormick": 4376, "\u01201894": 4377, "\u0120Economics": 4378, "\u0120cites": 4379, "\u0120Wall": 4380, "\u0120Roche": 4381, "\u0120portions": 4382, "\u0120designs": 4383, "\u0120defenses": 4384, "\u0120bundles": 4385, "\u0120Judah": 4386, "\u0120Biological": 4387, "Religion": 4388, "cribe": 4389, "\u0120squirrel": 4390, "\u0120Historically": 4391, "\u0120placing": 4392, "xus": 4393, "\u0120irritability": 4394, "ARS": 4395, "atic": 4396, "ends": 4397, "\u0120arrogant": 4398, "Using": 4399, "\u012063": 4400, "\u0120declare": 4401, "\u0120thermal": 4402, "175": 4403, "\u0120book": 4404, "Address": 4405, "\u0120coincided": 4406, "ntology": 4407, "\u0120ASTM": 4408, "\u0120edge": 4409, "\u0120crippled": 4410, "\u0120rides": 4411, "\u0120subdivided": 4412, "idity": 4413, "registered": 4414, "\u0120solidarity": 4415, "\u0120distributions": 4416, "\u0120Immediately": 4417, "\u0120weekend": 4418, "AA": 4419, "\u0120connector": 4420, "\u0120bombed": 4421, "\u0120Wel": 4422, "\u0120Including": 4423, "\u00e2\u012a": 4424, "\u0120Dewey": 4425, "\u0120Argument": 4426, "\u0120chemo": 4427, "\u0120domesticated": 4428, "\u0120denotes": 4429, "\u0120504": 4430, "discovery": 4431, "adj": 4432, "\u0120contested": 4433, "\u0120pencils": 4434, "\u0120Dome": 4435, "\u0120Claims": 4436, "\u0120retrieval": 4437, "\u0120hippocampal": 4438, "\u0120Instructional": 4439, "\u0120deformed": 4440, "\u0120gets": 4441, "ulus": 4442, "\u0120abdominal": 4443, "\u0120SQL": 4444, "JU": 4445, "\u0120ideologies": 4446, "\u0120mathematicians": 4447, "\u0120Immunization": 4448, "\u0120Adventures": 4449, "\u0120AD": 4450, "\u0120toxicology": 4451, "Temperature": 4452, "\u0120sections": 4453, "\u0120Gazette": 4454, "pas": 4455, "outs": 4456, "\u0120wondrous": 4457, "\u0120ally": 4458, "\u0120ros": 4459, "\u0120Sup": 4460, "thic": 4461, "\u0120Manchuria": 4462, "\u0120droughts": 4463, "monitoring": 4464, "\u0120Cards": 4465, "\u0120In": 4466, "\u0120apocalypse": 4467, "\u0120impending": 4468, "\u0120thunderstorms": 4469, "\u0120crackers": 4470, "\u0120Thailand": 4471, "\u0120Kierkegaard": 4472, "\u0120distinct": 4473, "\u0120contexts": 4474, "\u0120perceptual": 4475, "\u0120Sac": 4476, "\u0120machine": 4477, "nm": 4478, "\u0120docking": 4479, "\u0120Lex": 4480, "circumcised": 4481, "\u0120Object": 4482, "\u0120drilling": 4483, "\u0120ponds": 4484, "References": 4485, "Man": 4486, "\u0120similarly": 4487, "\u0120awareness": 4488, "\u0120narrowly": 4489, "\u0120Optical": 4490, "\u0120bands": 4491, "\u0120Person": 4492, "you": 4493, "\u0120Flora": 4494, "\u0120administrator": 4495, "Gregor": 4496, "\u0120Cap": 4497, "\u0120surge": 4498, "\u0120sulfur": 4499, "Give": 4500, "\u0120fifteenth": 4501, "\u0120display": 4502, "\u0120Flinders": 4503, "\u0120onwards": 4504, "ic": 4505, "hic": 4506, "\u0120alarming": 4507, "\u0120resource": 4508, "Stat": 4509, "\u00d0\u00b0": 4510, "\u0120atrial": 4511, "Red": 4512, "rists": 4513, "\u0120Felix": 4514, "\u0120destroyed": 4515, "\u0120HTTP": 4516, "\u0120coyotes": 4517, "\u0120Secondary": 4518, "\u0120lengthy": 4519, "\u0120amygdala": 4520, "\u0120COP": 4521, "\u0120finances": 4522, "\u0120Mothers": 4523, "ell": 4524, "\u0120transactions": 4525, "\u0120paints": 4526, "\u0120anatomy": 4527, "\u0120guides": 4528, "\u0120UC": 4529, "\u0120unchecked": 4530, "worms": 4531, "\u0120resident": 4532, "\u0120pr": 4533, "\u0120antelope": 4534, "\u0120las": 4535, "\u0120Taliban": 4536, "uated": 4537, "\u0120eloquence": 4538, "\u0120responsibly": 4539, "\u0120sympathetic": 4540, "\u0120Various": 4541, "\u0120reckless": 4542, "Hurricane": 4543, "\u0120Mikhail": 4544, "\u0120recognizing": 4545, "\u0120Montefiore": 4546, "izers": 4547, "rim": 4548, "\u0120Take": 4549, "\u0120dislo": 4550, "ently": 4551, "\u0120cost": 4552, "\u013b": 4553, "\u0120discount": 4554, "\u0120a": 4555, "95": 4556, "eting": 4557, "\u0120Sheffield": 4558, "\u0120fourteen": 4559, "\u0120melt": 4560, "later": 4561, "\u0120delegation": 4562, "\u0120Wis": 4563, "\u0120mile": 4564, "\u0120northern": 4565, "heated": 4566, "\u0120switch": 4567, "\u0120believed": 4568, "43": 4569, "\u0120)": 4570, "\u0120antidepressants": 4571, "\u0120label": 4572, "\u0120anticipating": 4573, "\u0120Using": 4574, "Mr": 4575, "turb": 4576, "\u0120scare": 4577, "\u0120inferences": 4578, "\u0120scratching": 4579, "\u0120capacitors": 4580, "\u0120junior": 4581, "\u0120vertigo": 4582, "\u01201770": 4583, "\u0120shifts": 4584, "\u0120Otto": 4585, "\u0120V": 4586, "\u0120appreciation": 4587, "\u0120kernels": 4588, "\u0120crank": 4589, "\u0120patience": 4590, "ene": 4591, "\u0120Journey": 4592, "\u0120quitting": 4593, "\u0120CBS": 4594, "\u0120good": 4595, "\u0120Upon": 4596, "Mor": 4597, "\u0120Sodium": 4598, "cast": 4599, "\u0120contain": 4600, "\u0120Wednesday": 4601, "\u0120battles": 4602, "\u0120NICHD": 4603, "\u0120Have": 4604, "\u0120manner": 4605, "\u0120handler": 4606, "\u0120Dietary": 4607, "\u0120voices": 4608, "\u0120tears": 4609, "\u0120With": 4610, "\u0120evocative": 4611, "\u0120Cornelius": 4612, "\u0120dies": 4613, "\u0120giving": 4614, "\u0120colonists": 4615, "\u0120horses": 4616, "yak": 4617, "\u0120amplified": 4618, "->": 4619, "SF": 4620, "\u0120nanoparticles": 4621, "\u0120monks": 4622, "Size": 4623, "ben": 4624, "\u0120kilogram": 4625, "\u0120electrically": 4626, "\u0120ILO": 4627, "\u0120alert": 4628, "\u0120model": 4629, "\u0120hyper": 4630, "existence": 4631, "\u0120overcome": 4632, "sch": 4633, "\u0120Calhoun": 4634, "\u0120palette": 4635, "\u0120gatherings": 4636, "\u0120pur": 4637, "\u0120patrol": 4638, "suggest": 4639, "tis": 4640, "\u0120Gods": 4641, "\u0120handle": 4642, "\u0120instantaneous": 4643, "\u0120relocate": 4644, "Finally": 4645, "\u0120Herzegovina": 4646, "\u0120inex": 4647, "\u01202008": 4648, "logist": 4649, "\u0120Providence": 4650, "\u0120indirect": 4651, "\u0120machin": 4652, "\u0120institution": 4653, "products": 4654, "\u0120Au": 4655, "\u0120angel": 4656, "APA": 4657, "94": 4658, "\u0120roads": 4659, "trophy": 4660, "rived": 4661, "\u0120NPR": 4662, "\u0120cavern": 4663, "equal": 4664, "NOW": 4665, "\u0120numeric": 4666, "\u0120thoracic": 4667, "\u0120ple": 4668, "\u0120remained": 4669, "\u0120advances": 4670, "\u0120heirs": 4671, "\u0120illustrations": 4672, "\u0120Transition": 4673, "diabetes": 4674, "hours": 4675, "\u0120etiquette": 4676, "\u0120percent": 4677, "Glossary": 4678, "\u0120teas": 4679, "\u0120convex": 4680, "ings": 4681, "143": 4682, "\u0120grandson": 4683, "\u0120\u00e5": 4684, "\u0120deuterium": 4685, "\u0120ingenuity": 4686, "\u0120Ch": 4687, "\u0120Tyndale": 4688, "Russia": 4689, "\u0120reports": 4690, "\u0120diamonds": 4691, "\u0120Planetary": 4692, "daughter": 4693, "\u0120shrines": 4694, "\u0120committees": 4695, "\u0120secretary": 4696, "\u0120citrus": 4697, "\u0120Supervisor": 4698, "East": 4699, "\u0120remark": 4700, "\u0120Name": 4701, "\u0120niche": 4702, "\u0120graph": 4703, "\u0120Anton": 4704, "\u0120morality": 4705, "\u0120measured": 4706, "mont": 4707, "\u0120must": 4708, "\u0120Wol": 4709, "\u0120Lunar": 4710, "\u0120justices": 4711, "alty": 4712, "milk": 4713, "\u0120Dom": 4714, "trum": 4715, "\u0120curricula": 4716, "may": 4717, "\u0120Break": 4718, "hold": 4719, "\u0120Creative": 4720, "\u0120vomiting": 4721, "\u0120Gur": 4722, "\u0120far": 4723, "\u0120spectral": 4724, "\u0120Montenegro": 4725, "\u0120shrimp": 4726, "co": 4727, "Blood": 4728, "\u0120seismo": 4729, "cru": 4730, "\u0120rather": 4731, "\u0120Joseph": 4732, "osterone": 4733, "\u0120Hole": 4734, "tters": 4735, "7": 4736, "Consumer": 4737, "Part": 4738, "\u0120pedestal": 4739, "\u0120admire": 4740, "\u0120regularly": 4741, "\u0120commander": 4742, "\u0120m": 4743, "eschwader": 4744, "\u0120inequality": 4745, "uating": 4746, "\u0120biomass": 4747, "\u0120Taken": 4748, "\u0120improvis": 4749, "\u0120series": 4750, "Wi": 4751, "\u0120geese": 4752, "\u0120complexes": 4753, "\u0120PMC": 4754, "\u0120formula": 4755, "\u0120H": 4756, "\u0120owner": 4757, "\u0120thwart": 4758, "Because": 4759, "\u0120Jonathan": 4760, "scopy": 4761, "\u0120conceivably": 4762, "\u0120mandatory": 4763, "\u0120Viking": 4764, "\u0120Piedmont": 4765, "\u0120linguistics": 4766, "\u0120sto": 4767, "210": 4768, "\u0120characterization": 4769, "\u0120smartphones": 4770, "\u0120eroding": 4771, "\u0120Normally": 4772, "\u0120fluoridation": 4773, "\u0120NH": 4774, "\u0120Woodrow": 4775, "\u0120registers": 4776, "\u0120enforcing": 4777, "Sp": 4778, "\u0120fright": 4779, "\u0120Neither": 4780, "Occup": 4781, "\u0120chocolate": 4782, "iers": 4783, "\u0120Obama": 4784, "\u0120drunk": 4785, "\u0120election": 4786, "\u0120supernova": 4787, "||\u00e2\u0122\u0136||": 4788, "\u0120Budapest": 4789, "ENCE": 4790, "shire": 4791, "sche": 4792, "\u0120commemorate": 4793, "\u0120juices": 4794, "mono": 4795, "origin": 4796, "\u0120propulsion": 4797, "\u0120evaluates": 4798, "\u0120lumbar": 4799, "\u0120c": 4800, "\u0120power": 4801, "\u0120YOU": 4802, "\u0120sec": 4803, "\u0120Pea": 4804, "\u0120Gustav": 4805, "\u0120Polit": 4806, "\u0120202": 4807, "\u0120west": 4808, "\u0120Department": 4809, "\u0120apparatus": 4810, "\u0120struck": 4811, "\u0120Bahamas": 4812, "main": 4813, "\u0120foul": 4814, "\u0120weave": 4815, "\u0120Centuries": 4816, "\u0120Integ": 4817, "\u0120Recipes": 4818, "\u0120AE": 4819, "\u0120fertilizer": 4820, "\u0120Interpret": 4821, "\u0120peasant": 4822, "\u0120latter": 4823, "\u0120Navajo": 4824, "response": 4825, "uta": 4826, "\u0120seq": 4827, "\u00c4\u00ab": 4828, "ovich": 4829, "inv": 4830, "\u0120Rivers": 4831, "\u0120skeletons": 4832, "\u01202017": 4833, "\u0120Leaders": 4834, "\u0120teenagers": 4835, "\u0120glass": 4836, "\u0120spikes": 4837, "\u0120escaping": 4838, "\u0120Jehovah": 4839, "\u0120precedent": 4840, "leigh": 4841, "\u0120monstrous": 4842, "\u0120?": 4843, "\u0120incomes": 4844, "\u0120Jewry": 4845, "\u0120Boo": 4846, "\u0120costs": 4847, "\u0120defend": 4848, "\u0120Natchez": 4849, "\u0120Ble": 4850, "\u0120Vietnam": 4851, "\u0120malicious": 4852, "\u0120regard": 4853, "\u0120III": 4854, "cted": 4855, "\u0120postmenopausal": 4856, "\u0120Librarian": 4857, "\u0120adoption": 4858, "\u0120pancreatitis": 4859, "\u0120unnecessarily": 4860, "\u0120Lung": 4861, "\u0120honeybees": 4862, "\u01201795": 4863, "physicist": 4864, "\u0120emit": 4865, "\u0120disproportionately": 4866, "\u0120oseltamivir": 4867, "\u0120Calgary": 4868, "\u0120Garrett": 4869, "pson": 4870, "\u0120skirmish": 4871, "\u0120urged": 4872, "\u0120Wang": 4873, "\u0120Arts": 4874, "\u0120dance": 4875, "shield": 4876, "\u0120fission": 4877, "\u0120time": 4878, "\u0120flesh": 4879, "Think": 4880, "\u0120pacif": 4881, "\u0120Pharaoh": 4882, "\u0120donate": 4883, "Gra": 4884, "\u0120god": 4885, "\u0120spar": 4886, "\u0120pdf": 4887, "\u0120doesn": 4888, "\u0120observed": 4889, "\u00c4\u0123na": 4890, "\u0120Cold": 4891, "\u0120leaf": 4892, "\u0120Strong": 4893, "\u0120forbid": 4894, "\u0120unnatural": 4895, "\u0120Helm": 4896, "\u0120Route": 4897, "\u0120Wilmington": 4898, "\u0120Bour": 4899, "enna": 4900, "\u0120Su": 4901, "\u0120departed": 4902, "\u0120Israeli": 4903, "\u0120testified": 4904, "hibition": 4905, "\u0120epidemiologic": 4906, "\u0132": 4907, "\u0120Change": 4908, "Div": 4909, "\u0120originating": 4910, "\u0120hemophilia": 4911, "78": 4912, "\u0120upgrades": 4913, "FL": 4914, "lio": 4915, "\u0120Chile": 4916, "\u0120attacker": 4917, "\u0120campaign": 4918, "\u0120culture": 4919, "\u0120er": 4920, "\u0120This": 4921, "\u0120Van": 4922, "\u0120hop": 4923, "\u0120Songs": 4924, "\u0120tetra": 4925, "\u0120mainland": 4926, "\u0120appellate": 4927, "eminence": 4928, "\u0120assemble": 4929, "\u0120oxid": 4930, "\u0120MS": 4931, "\u0120thr": 4932, "\u0120indigenous": 4933, "\u0120professional": 4934, "vine": 4935, "\u0120ferocious": 4936, "\u0120Destruction": 4937, "\u0120Operations": 4938, "\u0120gland": 4939, "tical": 4940, "\u0120character": 4941, "\u0120TU": 4942, "\u012023": 4943, "\u0120curtains": 4944, "\u0120sink": 4945, "\u0120chemicals": 4946, "rhythm": 4947, "\u0120mercury": 4948, "\u0120Gill": 4949, "too": 4950, "\u0120benchmarks": 4951, "\u0120explanatory": 4952, "\u0120Jos\u00c3\u00a9": 4953, "\u0120fusion": 4954, "\u0120digits": 4955, "\u0120thief": 4956, "\u0120Spra": 4957, "medical": 4958, "\u0120magnetic": 4959, "\u0120policy": 4960, "\u0120alleg": 4961, "\u0120GMO": 4962, "\u0120registration": 4963, "seat": 4964, "\u0120!": 4965, "\u0120Thousands": 4966, "Along": 4967, "\u0120background": 4968, "\u0120throughout": 4969, "\u0120lead": 4970, "\u0120geek": 4971, "\u0120crypt": 4972, "\u0120Spatial": 4973, "\u0120inertia": 4974, "\u0120confused": 4975, "vara": 4976, "\u0120trim": 4977, "\u0120wherein": 4978, "\u00ce\u00af": 4979, "\u0120Beyond": 4980, "Please": 4981, "\u0120Soviets": 4982, "\u0120Are": 4983, "Analy": 4984, "59": 4985, "\u0120harvested": 4986, "\u0120clarify": 4987, "\u0120ASD": 4988, "\u0120Nowadays": 4989, "MP": 4990, "\u0120rubbish": 4991, "\u0120particulate": 4992, "\u0120Fresno": 4993, "\u0120House": 4994, "\u0120scoop": 4995, "\u0120Intellectual": 4996, "\u0120unpredictable": 4997, "\u0120confusing": 4998, "\u0120pro": 4999, "ops": 5000, "57": 5001, "\u0120Fo": 5002, "\u0120AT": 5003, "\u0120Zeus": 5004, "\u0120Hunting": 5005, "\u0120awful": 5006, "\u0120anesthetic": 5007, "\u0120\u00c2\u00a3": 5008, "\u0120oscill": 5009, "ously": 5010, "\u0120laser": 5011, "\u0120borrow": 5012, "\u0120kerat": 5013, "\u0120restructuring": 5014, "\u0120between": 5015, "84": 5016, "\u0120stealing": 5017, "\u0120joy": 5018, "\u0120Milky": 5019, "\u0120sorrow": 5020, "\u0120Jupiter": 5021, "\u0120Cuba": 5022, "\u0120brittle": 5023, "wis": 5024, "\u0120Neck": 5025, "\u0120enhance": 5026, "tford": 5027, "\u0120Super": 5028, "\u0120Sandy": 5029, "\u0120missionary": 5030, "RNAs": 5031, "\u0120commissions": 5032, "\u0120analytical": 5033, "\u0120consistent": 5034, "ux": 5035, "\u0120Benson": 5036, "\u0120beasts": 5037, "\u0120Chalcedon": 5038, "\u0120colleague": 5039, "\u0120worst": 5040, "\u0120Werner": 5041, "\u0120propeller": 5042, "\u0120unintentional": 5043, "\u0120prevailed": 5044, "\u0120completion": 5045, "\u0120Having": 5046, "\u0120Rica": 5047, "\u0120simplest": 5048, "in": 5049, "\u0120flow": 5050, "\u0120Flint": 5051, "\u0120authentication": 5052, "\u0120besides": 5053, "\u0120intellectually": 5054, "\u0120Atlas": 5055, "\u0120overlook": 5056, "\u0120licensed": 5057, "\u0120translator": 5058, "\u0120receives": 5059, "\u0120ever": 5060, "\u0120Prussia": 5061, "\u0120carcasses": 5062, "\u0120Avenue": 5063, "duced": 5064, "\u0120refine": 5065, "\u0120Odysseus": 5066, "\u0120secured": 5067, "\u0120Bloomberg": 5068, "xes": 5069, "\u0120neat": 5070, "\u0120metadata": 5071, "\u0120metabolism": 5072, "\u0120sustainably": 5073, "\u0120millennium": 5074, "\u0120irritant": 5075, "mbo": 5076, "\u0120Wake": 5077, "Only": 5078, "\u0120local": 5079, "aka": 5080, "\u0120tensions": 5081, "\u0120implementing": 5082, "\u0120realism": 5083, "\u0120woodpecker": 5084, "\u0120microfinance": 5085, "\u0120Bh": 5086, "\u0120drives": 5087, "\u0120Enceladus": 5088, "\u0120Intra": 5089, "\u0120hose": 5090, "\u0120Parish": 5091, "\u0120anticipation": 5092, "Orthodox": 5093, "\u0120immer": 5094, "ils": 5095, "\u0120Drop": 5096, "\u0120starts": 5097, "Library": 5098, "inas": 5099, "\u0120undermined": 5100, "Estimated": 5101, "DD": 5102, "\u0120Classic": 5103, "\u0120tedious": 5104, "\u0120CMOS": 5105, "\u0120saved": 5106, "\u0120legumes": 5107, "\u0120corruption": 5108, "\u0120investigating": 5109, "\u0120fitted": 5110, "\u0120Blog": 5111, "\u0120seats": 5112, "\u0120Matthew": 5113, "\u0120watermelon": 5114, "\u0120kilometers": 5115, "\u0120disclosure": 5116, "\u0120applicable": 5117, "DV": 5118, "\u0120regulatory": 5119, "\u0120Length": 5120, "\u0120biodiesel": 5121, "\u0120PI": 5122, "\u0120prevalent": 5123, "\u0120bats": 5124, "start": 5125, "\u0120cognition": 5126, "\u0120willingly": 5127, "\u0120cream": 5128, "\u0120Pinocchio": 5129, "\u0120microwave": 5130, "\u0120historical": 5131, "\u0120resignation": 5132, "\u0120Chinese": 5133, "\u0120mast": 5134, "ER": 5135, "body": 5136, "\u0120meter": 5137, "\u0120replied": 5138, "\u0120Somerset": 5139, "\u0120diagnosed": 5140, "\u0120Ophthalm": 5141, "\u0120EBSCO": 5142, "\u0120Tuskegee": 5143, "\u0120Trumbull": 5144, "\u0120indicator": 5145, "\u0120Sheet": 5146, "\u0120filaments": 5147, "\u0120snacks": 5148, "\u0120unforeseen": 5149, "\u0120touching": 5150, "ad": 5151, "\u0120whip": 5152, "\u0120utilities": 5153, "\u01201960": 5154, "\u0120islands": 5155, "\u0120Allan": 5156, "During": 5157, "\u0120trunk": 5158, "building": 5159, "\u0120mutated": 5160, "\u0120\u00d8\u00a7\u00d9\u0126": 5161, "architect": 5162, "\u0120Campylobacter": 5163, "cula": 5164, "ington": 5165, "\u0120410": 5166, "Du": 5167, "Read": 5168, "\u0120witness": 5169, "nium": 5170, "\u0120rent": 5171, "nes": 5172, "ivism": 5173, "\u0120commonplace": 5174, "\u0120aegypti": 5175, "\u0120big": 5176, "\u0120bent": 5177, "\u0120advancing": 5178, "\u0120lawsuit": 5179, "diments": 5180, "Central": 5181, "iri": 5182, "ulous": 5183, "ena": 5184, "religious": 5185, "\u0120ranch": 5186, "\u0120testimony": 5187, "\u0120myo": 5188, "];": 5189, "\u0120sensations": 5190, "\u0120mainly": 5191, "\u0120Developmental": 5192, "\u0120indoor": 5193, "\u0120abilities": 5194, "\u0120supplies": 5195, "\u0120block": 5196, "\u0120Emp": 5197, "Sir": 5198, "winged": 5199, "56": 5200, "\u0120proxies": 5201, "dia": 5202, "\u0120commissioned": 5203, "\u0120Yucatan": 5204, "\u0120Mitigation": 5205, "\u0120capture": 5206, "\u0120imaginable": 5207, "\u0120recommendation": 5208, "Teachers": 5209, "\u0120households": 5210, "\u0120talents": 5211, "\u0120Duch": 5212, "bound": 5213, "\u0120Sche": 5214, "irty": 5215, "\u0120shoots": 5216, "\u0120Continental": 5217, "\u0120Trinity": 5218, "\u0120188": 5219, "\u0120Deer": 5220, "\u0120drinks": 5221, "nco": 5222, "\u0120Khrushchev": 5223, "\u0120sectors": 5224, "\u0120underwent": 5225, "\u0120elements": 5226, "\u0120cingulate": 5227, "\u0120floors": 5228, "\u0120penny": 5229, "usable": 5230, "\u0120Kerala": 5231, "\u0120litres": 5232, "\u0120dehydrated": 5233, "Cha": 5234, "analy": 5235, "\u012089": 5236, "\u0120Zero": 5237, "left": 5238, "\u0120successors": 5239, "\u0120Bay": 5240, "\u0120PD": 5241, "\u0120mercy": 5242, "conf": 5243, "\u0120important": 5244, "\u0120223": 5245, "\u0120Jesus": 5246, "\u0120rupture": 5247, "Roman": 5248, "\u0120mucus": 5249, "\u0120humane": 5250, "\u0120Sydney": 5251, "\u0120proof": 5252, "\u0120=": 5253, "Cre": 5254, "\u0120Keynes": 5255, "\u0120requesting": 5256, "\u0120Badoglio": 5257, "\u0120major": 5258, "\u0120they": 5259, "statement": 5260, "MAN": 5261, "\u0120lever": 5262, "pelled": 5263, "\u0120pneum": 5264, "\u0120cortical": 5265, "\u0120proposition": 5266, "\u0120scrotum": 5267, "\u0120Ohio": 5268, "Learning": 5269, "1990": 5270, "\u0120January": 5271, "\u0120interested": 5272, "\u0120gadgets": 5273, "\u0120prediction": 5274, "\u0120ISS": 5275, "\u0120tribe": 5276, "\u0120restriction": 5277, "\u0120Mozambique": 5278, "\u0120corners": 5279, "orum": 5280, "\u0120Proto": 5281, "\u0120bulimia": 5282, "Grade": 5283, "bro": 5284, "\u0120Poor": 5285, "./": 5286, "\u0120insurmountable": 5287, "\u0120celebrations": 5288, "\u0120Events": 5289, "Hard": 5290, "nga": 5291, "\u0120literal": 5292, "\u0120belongs": 5293, "Place": 5294, "above": 5295, "\u0120Ess": 5296, "\u0120Doctrine": 5297, "dL": 5298, "Hyper": 5299, "\u0120Khartoum": 5300, "\u0120Mario": 5301, "\u0120determinant": 5302, "\u0120lifetime": 5303, "\u0120combustion": 5304, "\u0120lending": 5305, "\u0120contradiction": 5306, "\u0120preserve": 5307, "\u0120staying": 5308, "\u0120Inn": 5309, "peritoneal": 5310, "\u0120hot": 5311, "imeter": 5312, "\u0120examinations": 5313, "1959": 5314, "Origin": 5315, "\u0120index": 5316, "\u0120Subsequent": 5317, "\u0120landslides": 5318, "\u0120recycled": 5319, "\u0120205": 5320, "\u0120CH": 5321, "\u0120Procedures": 5322, "bas": 5323, "\u0120internet": 5324, "\u0120cubic": 5325, "\u0120periodontal": 5326, "\u0120devised": 5327, "\u0120Wilkins": 5328, "\u0120DVD": 5329, "\u0120impartial": 5330, "\u0120impressed": 5331, "\u0120restrained": 5332, "\u0120chemically": 5333, "tan": 5334, "mand": 5335, "ALL": 5336, "\u0120surviving": 5337, "\u0120embargo": 5338, "Guide": 5339, "discovered": 5340, "\u0120theatrical": 5341, "\u0120wetlands": 5342, "\u0120represented": 5343, "Obviously": 5344, "\u0120laboratory": 5345, "Behavio": 5346, "\u0120complication": 5347, "\u0120accident": 5348, "\u0120Shannon": 5349, "\u0120decompose": 5350, "\u0120stanza": 5351, "\u0120deliberate": 5352, "\u0120killers": 5353, "erus": 5354, "\u0120marsh": 5355, "NY": 5356, "\u0120forgot": 5357, "\u0120ambulance": 5358, "\u0120Stephen": 5359, "\u0120Somali": 5360, "\u0120IA": 5361, "\u0120manual": 5362, "\u0120conscience": 5363, "\u0120teachings": 5364, "ctory": 5365, "\u0120Nottingham": 5366, "tern": 5367, "\u0120reused": 5368, "Fifth": 5369, "\u0120certainty": 5370, "\u0120M\u00c3\u00bcller": 5371, "\u0120moment": 5372, "mbre": 5373, "\u0120fourteenth": 5374, "\u0120routers": 5375, "'re": 5376, "ethnic": 5377, "Current": 5378, "\u0120stro": 5379, "\u0120nematode": 5380, "\u0120inserted": 5381, "\u0120plentiful": 5382, "\u0120Railway": 5383, "\u0120awaiting": 5384, "bread": 5385, "\u0120Pot": 5386, "SS": 5387, "\u0120Siegfried": 5388, "\u0120Campbell": 5389, "tches": 5390, "\u0120Wiley": 5391, "\u0120Manufacturing": 5392, "\u0120Italians": 5393, "\u0120directional": 5394, "\u0120Press": 5395, "\u0120Ner": 5396, "\u0120Twitter": 5397, "\u0120Mountain": 5398, "rar": 5399, "\u0120107": 5400, "Every": 5401, "\u0120Reporting": 5402, "\u0120realms": 5403, "medicine": 5404, "Ele": 5405, "\u0120Alliance": 5406, "ult": 5407, "\u0120routine": 5408, "\u0120Calcium": 5409, "\u0120thro": 5410, "\u0120Clark": 5411, "thro": 5412, "\u0120delaying": 5413, "\u0120footprints": 5414, "problem": 5415, "\u0120components": 5416, "\u0120mes": 5417, "\u0120cues": 5418, "\u0120vi": 5419, "\u0120working": 5420, "\u0120Gh": 5421, "sen": 5422, "\u0120fancy": 5423, "PH": 5424, "\u0120name": 5425, "\u0120Chattanooga": 5426, "\u0120semen": 5427, "ely": 5428, "\u0120rap": 5429, "\u0120cranes": 5430, "\u0120interim": 5431, "eus": 5432, "\u0120rugged": 5433, "\u0120Aj": 5434, "\u0120uncovered": 5435, "\u0120Islamic": 5436, "\u0120Alfred": 5437, "\u0120regional": 5438, "\u0120ancients": 5439, "\u0120Elisabeth": 5440, "\u0120contemporary": 5441, "Special": 5442, "\u0120thickness": 5443, "\u0120source": 5444, "||(": 5445, "\u0120antioxidants": 5446, "bug": 5447, "osarcoma": 5448, "\u0120der": 5449, "\u0120Crafts": 5450, "\u0120unsatisfactory": 5451, "Parents": 5452, "\u01201846": 5453, "\u0120Advances": 5454, "\u0120Deb": 5455, "\u0120Indian": 5456, "\u0120gunpowder": 5457, "\u0120enrollment": 5458, "\u0120License": 5459, "\u0120decay": 5460, "\u0120heights": 5461, "\u0120Specifically": 5462, "\u0120argues": 5463, "\u0120Count": 5464, "\u0120managers": 5465, "\u0120ancestor": 5466, "\u0120timing": 5467, "\u0120Sig": 5468, "\u0120Ultra": 5469, "\u0120digestion": 5470, "\u0120Hy": 5471, "\u0120supernatural": 5472, "ake": 5473, "tica": 5474, "HE": 5475, "\u0120genome": 5476, "certified": 5477, "chu": 5478, "\u0120lot": 5479, "\u0120insert": 5480, "\u0120fragmented": 5481, "\u0120coll": 5482, "\u0120Mechanics": 5483, "\u0120Subjects": 5484, "i": 5485, "\u0120Jacob": 5486, "water": 5487, "fall": 5488, "\u0120shalt": 5489, "\u0120emulate": 5490, "\u0120\u00d1\u0123": 5491, "\u0120Soon": 5492, "\u0120camera": 5493, "Severe": 5494, "\u0120peppers": 5495, "\u0120chest": 5496, "\u0120Advancement": 5497, "\u0120synthesis": 5498, "\u0120multiplying": 5499, "\u0120mammalian": 5500, "\u0120Armstrong": 5501, "Medi": 5502, "centric": 5503, "\u0120perspective": 5504, "\u0120abyss": 5505, "\u0120barriers": 5506, "\u0120Lime": 5507, "WS": 5508, "\u0120identifiable": 5509, "\u0120exalted": 5510, "rag": 5511, "\u0120hatch": 5512, "\u0120naturally": 5513, "\u0120incurred": 5514, "\u0120nutrients": 5515, "Green": 5516, "\u0120chiropractic": 5517, "\u0120Maasai": 5518, "\u0120cooled": 5519, "\u0120common": 5520, "\u0120attained": 5521, "\u0120nu": 5522, "\u0120comparative": 5523, "\u0120ego": 5524, "\u0120brilliance": 5525, "gie": 5526, "sociation": 5527, "\u0120unique": 5528, "\u0120proposing": 5529, "\u0120decoration": 5530, "secondary": 5531, "\u0120thin": 5532, "\u0120those": 5533, "Service": 5534, "\u0120Release": 5535, "\u0120educate": 5536, "\u0120exposition": 5537, "\u0120tighter": 5538, "liness": 5539, "discrimination": 5540, "\u0120completes": 5541, "\u0120resembled": 5542, "\u0120Barker": 5543, "\u0120accusation": 5544, "f": 5545, "\u0120clearly": 5546, "\u0120uns": 5547, "\u0120Hel": 5548, "\u0120denoted": 5549, "\u0120peasants": 5550, "\u0120palm": 5551, "\u0120inv": 5552, "\u0120offense": 5553, "\u0120peritoneum": 5554, "\u0120surmise": 5555, "\u0120Slav": 5556, "\u0120shows": 5557, "\u0120grief": 5558, "Lead": 5559, "\u0120Courtesy": 5560, "\u0120Havana": 5561, "\u0120McDowell": 5562, "\u0120premier": 5563, "\u0120Plains": 5564, "\u012098": 5565, "Beginning": 5566, "\u0120induced": 5567, "\u0120indications": 5568, "\u0120daughters": 5569, "\u0120pioneered": 5570, "\u0120receptacle": 5571, "\u0120jo": 5572, "\u0120Sur": 5573, "\u0120THE": 5574, "\u0120noting": 5575, "\u0120resveratrol": 5576, "Brain": 5577, "\u0120frank": 5578, "\u0120Final": 5579, "lay": 5580, "\u0120Shia": 5581, "bal": 5582, "\u0120monopol": 5583, "\u0120disappointment": 5584, "\u0120hook": 5585, "\u0120Jordan": 5586, "\u0120Nara": 5587, "hart": 5588, "\u0120illustrated": 5589, "\u0120sniff": 5590, "Sexual": 5591, "km": 5592, "\u0120injustice": 5593, "\u0120construed": 5594, "positions": 5595, "res": 5596, "\u0120ballistic": 5597, "\u0120salary": 5598, "Joshua": 5599, "\u0120nominal": 5600, "\u0120systems": 5601, "\u0120Clin": 5602, "\u0120browser": 5603, "\u0120birch": 5604, "Comments": 5605, "\u0120claims": 5606, "\u0120vein": 5607, "\u0120canyons": 5608, "\u0120Rh": 5609, "\u0120Chlor": 5610, "\u01201821": 5611, "\u0120Hancock": 5612, "st": 5613, "Va": 5614, "aspx": 5615, "ets": 5616, "ended": 5617, "\u0120academia": 5618, "\u0120speeches": 5619, "\u0120singing": 5620, "\u0120Columbus": 5621, "\u0120indoors": 5622, "\u0120mailing": 5623, "\u0120finger": 5624, "\u00c3\u00a1l": 5625, "\u0120businesses": 5626, "\u0120Waste": 5627, "\u0120surround": 5628, "\u0120pedagogical": 5629, "\u0120SE": 5630, "\u0120developmental": 5631, "linear": 5632, "\u01201954": 5633, "\u0120az": 5634, "\u0120Must": 5635, "turing": 5636, "\u0120experimental": 5637, "\u0120FDR": 5638, "\u0120Relationship": 5639, "motor": 5640, "\u0120gastro": 5641, "physics": 5642, "\u0120at": 5643, "\u0120diagnosing": 5644, "ocracy": 5645, "ssell": 5646, "However": 5647, "\u0120Appendix": 5648, "\u0120gathering": 5649, "\u0120operations": 5650, "ager": 5651, "\u0120industrial": 5652, "\u0120corals": 5653, "\u0120recurrent": 5654, "heart": 5655, "\u0120delirium": 5656, "\u0120un": 5657, "\u0120leads": 5658, "itt": 5659, "hy": 5660, "\u0120insult": 5661, "erra": 5662, "\u0120radium": 5663, "\u0120Dance": 5664, "\u0120Architecture": 5665, "\u0120Hrothgar": 5666, "\u0120observatories": 5667, "\u0120vastly": 5668, "Pacific": 5669, "Av": 5670, "\u0120hate": 5671, "\u0120admit": 5672, "\u0120lived": 5673, "\u0120pristine": 5674, "\u0120grid": 5675, "\u0120classes": 5676, "\u0120dual": 5677, "\u0120Roanoke": 5678, "\u0120Chief": 5679, "Prince": 5680, "Basic": 5681, "una": 5682, "\u0120Northeast": 5683, "\u0120aperture": 5684, "Fact": 5685, "76": 5686, "\u0120bandwidth": 5687, "who": 5688, "\u0120115": 5689, "\u0120sending": 5690, "WP": 5691, "\u0120Ricardo": 5692, "\u0120citations": 5693, "\u0120academy": 5694, "Question": 5695, "\u0120Vincent": 5696, "clean": 5697, "\u0120barge": 5698, "\u0120Xer": 5699, "Korean": 5700, "\u0120Kodiak": 5701, "\u0120violently": 5702, "\u0120embarked": 5703, "consider": 5704, "pixel": 5705, "\u0120ejected": 5706, "\u0120phones": 5707, "\u0120underpin": 5708, "\u0120colonization": 5709, "\u0120tenants": 5710, "\u0120specifies": 5711, "\u0120websites": 5712, "white": 5713, "\u0120Finch": 5714, "\u0120outlet": 5715, "yana": 5716, "\u0120Galapagos": 5717, "\u0120fever": 5718, "\u0120hubs": 5719, "\u0120Arabia": 5720, "\u0120travelers": 5721, "\u0120prizes": 5722, "\u0120politicians": 5723, "tics": 5724, "\u0120\u00e2\u0122\u00a2": 5725, "White": 5726, "\u0120folds": 5727, "\u0120Dodge": 5728, "George": 5729, "\u0120publisher": 5730, "\u0120annoying": 5731, "\u0120graduates": 5732, "Rich": 5733, "alpha": 5734, "\u0120juncture": 5735, "\u0120burning": 5736, "\u0120either": 5737, "\u0120Pure": 5738, "\u0120enthusiastic": 5739, "\u0120loudly": 5740, "\u0120enable": 5741, "\u0120calcium": 5742, "\u0120sadly": 5743, "\u0120Samsung": 5744, "guard": 5745, "\u0120alloys": 5746, "\u0120Tel": 5747, "\u0120Hartford": 5748, "trade": 5749, "1890": 5750, "ams": 5751, "\u0120emptiness": 5752, "\u01201869": 5753, "faith": 5754, "\u0120conceivable": 5755, "opening": 5756, "\u0120Gott": 5757, "\u0120stressors": 5758, "\u0120Continu": 5759, "\u0120pancreas": 5760, "\u0120Homo": 5761, "\u0120Alpha": 5762, "\u0120DH": 5763, "\u0120glabrous": 5764, "\u00c3\u00a1": 5765, "\u0120submitting": 5766, "\u0120director": 5767, "\u0120ka": 5768, "\u0120freight": 5769, "\u0120excess": 5770, "\u0120psyche": 5771, "\u0120cliff": 5772, "tched": 5773, "\u0120duke": 5774, "ECTION": 5775, "\u0120flames": 5776, "\u0120maze": 5777, "IR": 5778, "\u0120deliberately": 5779, "EN": 5780, "\u0120generic": 5781, "\u0120Meh": 5782, "aq": 5783, "trans": 5784, "\u0120More": 5785, "close": 5786, "\u0120broke": 5787, "\u0120Ancient": 5788, "\u0120Ce": 5789, "Trans": 5790, "xon": 5791, "\u0120Heidelberg": 5792, "\u0120w": 5793, "\u0120commodities": 5794, "\u0120MU": 5795, "\u0120Column": 5796, "\u0120empowered": 5797, "\u0120atypical": 5798, "\u0120Psa": 5799, "\u0120beacon": 5800, "\u0120presumably": 5801, "\u0120attentive": 5802, "\u0120elect": 5803, "\u0120suggest": 5804, "\u0120analytic": 5805, "\u0120Product": 5806, "\u0120duodenum": 5807, "Nebraska": 5808, "\u0120spurred": 5809, "\u0120trademark": 5810, "\u0120Previously": 5811, "holders": 5812, "icin": 5813, "\u0120Han": 5814, "\u0120Thought": 5815, "\u0120Spr": 5816, "UN": 5817, "\u0120Zimmerman": 5818, "\u0120tried": 5819, "mino": 5820, "\u0120caterpillars": 5821, "vol": 5822, "\u0120Asians": 5823, "behavior": 5824, "\u0120Cycle": 5825, "\u0120Solutions": 5826, "\u0120forfeit": 5827, "\u0120viral": 5828, "\u0120confront": 5829, "uh": 5830, "\u0120vegetable": 5831, "\u0120Cup": 5832, "\u0120Benjamin": 5833, "\u0120ditch": 5834, "\u0120toolkit": 5835, "\u0120wounded": 5836, "\u0120milligrams": 5837, "\u0120Correct": 5838, "\u0120fueled": 5839, "\u0120configurations": 5840, "\u0120McC": 5841, "\u0120infiltrate": 5842, "\u0120Times": 5843, "\u0120C\u00c3\u00b4te": 5844, "\u0120handicap": 5845, "\u0120offers": 5846, "\u0120bits": 5847, "ulating": 5848, "ckers": 5849, "middle": 5850, "\u0120landlord": 5851, "Excerpt": 5852, "\u0120ongoing": 5853, "\u0120Rhode": 5854, "\u0120aureus": 5855, "bia": 5856, "\u0120pragmatic": 5857, "\u0120systemic": 5858, "\u0120womb": 5859, "\u0120dependency": 5860, "\u0120vaccin": 5861, "\u0120mankind": 5862, "\u0120crop": 5863, "\u0120Sc": 5864, "\u0120mechan": 5865, "gc": 5866, "\u0120Frequency": 5867, "\u012044": 5868, "\u0120rejoice": 5869, "-,": 5870, "\u0120debilitating": 5871, "ah": 5872, "\u0120dancing": 5873, "\u0120\u00c2\u00b5g": 5874, "\u0120shines": 5875, "600": 5876, "1977": 5877, "\u0120randomized": 5878, "organisms": 5879, "ur": 5880, "\u0120testes": 5881, "\u0120status": 5882, "\u0120says": 5883, "\u0120transformation": 5884, "Semitism": 5885, "hog": 5886, "\u0120loved": 5887, "\u0120racial": 5888, "\u0120judicial": 5889, "\u0120alpine": 5890, "Haiti": 5891, "\u01201876": 5892, "2000": 5893, "\u0120mulch": 5894, "\u0120Alb": 5895, "\u0120punct": 5896, "\u0120Toronto": 5897, "\u0120indexes": 5898, "\u0120founders": 5899, "Ye": 5900, "\u0120Pain": 5901, "\u0120dermatitis": 5902, "\u0120dependent": 5903, "osomes": 5904, "\u0120polynomial": 5905, "\u0120emphasized": 5906, "\u0120Shabbat": 5907, "urs": 5908, "\u0120Tennyson": 5909, "\u0120seven": 5910, "\u0120110": 5911, "\u00e2\u0122\u00b3": 5912, "\u0120Lincoln": 5913, "\u0120irrespective": 5914, "\u0120camp": 5915, "\u0120Dakota": 5916, "jpg": 5917, "\u0120Concern": 5918, "\u00e2": 5919, "\u0120coating": 5920, "\u0120skill": 5921, "\u0120destroying": 5922, "borg": 5923, "\u0120defeat": 5924, "RR": 5925, "\u0120hurricane": 5926, "\u0120Ellis": 5927, "\u0120amendment": 5928, "\u0120slight": 5929, "physical": 5930, "\u0120anth": 5931, "\u0120vaccinated": 5932, "\u0120sturdy": 5933, "\u0120fore": 5934, "\u0120Chippewa": 5935, "\u0120Supreme": 5936, "bin": 5937, "\u0120bladder": 5938, "\u0120Empire": 5939, "heavy": 5940, "As": 5941, "\u0120Fund": 5942, "\u0120attend": 5943, "\u0120editions": 5944, "\u0120thesis": 5945, "\u0120Warm": 5946, "\u0120collaborative": 5947, "\u0120rations": 5948, "\u0120authors": 5949, "ological": 5950, "rhynchus": 5951, "\u0120subsequent": 5952, "\u0120helmets": 5953, "horn": 5954, "\u0120Kie": 5955, "either": 5956, "\u01201922": 5957, "\u0120jumping": 5958, "\u00bf": 5959, "\u0120fairness": 5960, "\u0120Oct": 5961, "\u0120Organic": 5962, "\u0120pretty": 5963, "\u0120Invasive": 5964, "\u0120ordnance": 5965, "\u0120testicular": 5966, "\u0120correlates": 5967, "\u0120verses": 5968, "\u0120Buddhists": 5969, "\u0120caregivers": 5970, "\u012029": 5971, "\u0120Side": 5972, "\u0120extensive": 5973, "\u0120synergistic": 5974, "\u00c5\u0135": 5975, "\u0120Smoking": 5976, "\u0120regulate": 5977, "\u01201942": 5978, "\u0120flour": 5979, "\u0120birth": 5980, "ceptive": 5981, "\u0120dessert": 5982, "\u0120Estimates": 5983, "\u0120strikes": 5984, "\u0120eggs": 5985, "\u0120holidays": 5986, "\u0120Arm": 5987, "\u0120comma": 5988, "MI": 5989, "\u0120cooling": 5990, "anol": 5991, "\u0120consisted": 5992, "\u0120emotion": 5993, "\u0120CR": 5994, "\u0120Quest": 5995, "bot": 5996, "\u0120interwoven": 5997, "fare": 5998, "\u0120lizard": 5999, "\u0120inject": 6000, "Site": 6001, "\u00d0\u00b2": 6002, "hero": 6003, "\u0120Gonzalez": 6004, "\u0120gondii": 6005, "\u0120corpor": 6006, "\u0120constituent": 6007, "\u0120Fluor": 6008, "\u0120recruited": 6009, "\u0120Isaiah": 6010, "\u0120mites": 6011, "\u0120confident": 6012, "saw": 6013, "\u0120ginger": 6014, "\u0120Culture": 6015, "\u0120movements": 6016, "\u0120wondering": 6017, "\u0120pleasing": 6018, "terranean": 6019, "\u0120Android": 6020, "\u0120Nebuchadnezzar": 6021, "Say": 6022, "\u0120Access": 6023, "\u0120Grenad": 6024, "\u0120cent": 6025, "\u0120symposium": 6026, "This": 6027, "\u0120warehouse": 6028, "\u0120Exploring": 6029, "\u0120Units": 6030, "\u0120frequency": 6031, "\u0120Mortality": 6032, "Tech": 6033, "\u0120infinite": 6034, "\u0120passages": 6035, "\u0120Es": 6036, "\u0120duties": 6037, "\u01201839": 6038, "might": 6039, "\u01202050": 6040, "\u0120caring": 6041, "\u0120explaining": 6042, "\u0120meticulous": 6043, "\u0120paramount": 6044, "able": 6045, "\u0120imagine": 6046, "\u0120Treasure": 6047, "\u0120indiscriminate": 6048, "\u0120drugs": 6049, "\u0120Billy": 6050, "\u0120Sor": 6051, "Adult": 6052, "\u0120incorporated": 6053, "tail": 6054, "\u0120parameters": 6055, "\u0120forage": 6056, "\u0120Psalms": 6057, "\u0120inac": 6058, "hi": 6059, "Clean": 6060, "Sha": 6061, "\u0120raises": 6062, "\u0120Often": 6063, "\u0120programme": 6064, "prising": 6065, "mac": 6066, "\u0120ideals": 6067, "\u0120accordingly": 6068, "\u0120Exo": 6069, "\u0120cu": 6070, "\u0120attacks": 6071, "sboro": 6072, "\u0120Pet": 6073, "\u0120Tales": 6074, "\u0120volcanic": 6075, "sticks": 6076, "\u0120incidental": 6077, "\u0120Burke": 6078, "\u0120Questions": 6079, "\u0120variable": 6080, "\u0120contentious": 6081, "\u0120indefinite": 6082, "\u0120flo": 6083, "duce": 6084, "\u0120Linear": 6085, "patient": 6086, "osa": 6087, "\u0120acne": 6088, "\u0120troubling": 6089, "\u0120KENDALL": 6090, "CI": 6091, "\u0120treat": 6092, "\u0120branch": 6093, "TER": 6094, "\u0120Artillery": 6095, "yx": 6096, "\u0120Bend": 6097, "\u0120illustration": 6098, "file": 6099, "\u0120English": 6100, "\u0120decided": 6101, "shift": 6102, "\u0120Simple": 6103, "onia": 6104, "\u0120ambassador": 6105, "\u0120sellers": 6106, "ettes": 6107, "\u0120T": 6108, "\u0120neutrophil": 6109, "AN": 6110, "\u0120intercept": 6111, "\u01201885": 6112, "\u0120fences": 6113, "emitting": 6114, "\u0120thrust": 6115, "\u0120chore": 6116, "ols": 6117, "\u0120Belfast": 6118, "\u0120bath": 6119, "\u0120Drum": 6120, "\u0120withdrawal": 6121, "\u0120watering": 6122, "\u0120inventions": 6123, "\u0120Dragon": 6124, "\u0120President": 6125, "\u0120extending": 6126, "\u0120dragging": 6127, "\u0120Perspective": 6128, "Austr": 6129, "\u0120farmers": 6130, "explo": 6131, "\u0120downloads": 6132, "\u0120areas": 6133, "\u0120Auto": 6134, "especially": 6135, "\u0120sy": 6136, "\u0120advancements": 6137, "UT": 6138, "\u0120Basilica": 6139, "\u0120Un": 6140, "\u0120logic": 6141, "\u0120shake": 6142, "Nor": 6143, "\u0120extremes": 6144, "\u0120rebels": 6145, "\u0120Efforts": 6146, "mc": 6147, "\u0120Oracle": 6148, "contained": 6149, "118": 6150, "\u0120Nagasaki": 6151, "\u0120tributaries": 6152, "\u0120clearing": 6153, "ules": 6154, "\u0120banner": 6155, "\u0120Resolution": 6156, "Net": 6157, "sian": 6158, "\u0120tablet": 6159, "Or": 6160, "\u0120canon": 6161, "\u0120insignificant": 6162, "\u0120hippocampus": 6163, "see": 6164, "accept": 6165, "Justice": 6166, "\u0120allegorical": 6167, "\u0120201": 6168, "\u0120convinced": 6169, "sten": 6170, "PM": 6171, "\u0120AH": 6172, "stler": 6173, "\u0120connexion": 6174, "\u0120practically": 6175, "Recently": 6176, "\u0120clinicians": 6177, "\u0120narco": 6178, "\u0120fruit": 6179, "\u0120loads": 6180, "\u0120diversity": 6181, "\u0120Each": 6182, "\u0120pathologist": 6183, "\u0120extrem": 6184, "\u0120lily": 6185, "\u0120assessing": 6186, "\u0120clothed": 6187, "\u0120Lessons": 6188, "\u0120legally": 6189, "\u0120Sex": 6190, "\u0120N": 6191, "nick": 6192, "\u0120h": 6193, "\u0120Isabel": 6194, "\u0120alcoholic": 6195, "\u0120lore": 6196, "inence": 6197, "sweet": 6198, "\u0120dangerous": 6199, "\u0120123": 6200, "\u0120genital": 6201, "rifice": 6202, "\u0120realm": 6203, "\u0120Indigenous": 6204, "\u0120trimester": 6205, "sent": 6206, "\u0120wonder": 6207, "initis": 6208, "\u0120Kaiser": 6209, "\u0120Customer": 6210, "!!": 6211, "\u0120Duncan": 6212, "idae": 6213, "\u0120excursion": 6214, "stal": 6215, "\u0120transporting": 6216, "\u0120April": 6217, "\u0120honors": 6218, "\u0120Armenian": 6219, "\u0120Wind": 6220, "\u0120configuration": 6221, "\u0120acres": 6222, "\u0120Claudius": 6223, "\u0120Diet": 6224, "river": 6225, "Organic": 6226, "\u0120Dou": 6227, "\u0120castle": 6228, "\u0120Arabs": 6229, "\u0120Karen": 6230, "\u0120success": 6231, "\u0120picnic": 6232, "\u0120Dresden": 6233, "\u0120unincorporated": 6234, "\u0120baking": 6235, "\u0120openings": 6236, "\u0120vigilant": 6237, "\u0120Dio": 6238, "du": 6239, "does": 6240, "\u0120Wrexham": 6241, "\u0120conju": 6242, "\u0120Medical": 6243, "phi": 6244, "\u01200": 6245, "oper": 6246, "phys": 6247, "\u0120Toxicology": 6248, "\u0120Earth": 6249, "\u0120Maybe": 6250, "\u0120Lang": 6251, "\u0120denser": 6252, "\u0120exhibits": 6253, "\u0120viruses": 6254, "\u0120martyr": 6255, "\u0120relax": 6256, "work": 6257, "\u0120t": 6258, "\u0120anarch": 6259, "formed": 6260, "\u0120GPS": 6261, "dder": 6262, "\u0120freshly": 6263, "\u0120Lot": 6264, "\u0120feminism": 6265, "\u0120serpent": 6266, "\u0120LCD": 6267, "\u0120cichlids": 6268, "\u0120specialization": 6269, "\u0120here": 6270, "\u0120arsenic": 6271, "\u0120Stand": 6272, "\u0120debated": 6273, "kjv": 6274, "\u0120Aquatic": 6275, "\u0120menstrual": 6276, "\u0120Improve": 6277, "\u0120threshold": 6278, "\u0120legs": 6279, "\u0120Husayn": 6280, "\u0120governed": 6281, "\u0120Christine": 6282, "\u0120Cluster": 6283, "\u0120Diff": 6284, "\u0120North": 6285, "Oh": 6286, "\u0120Kitchen": 6287, "wal": 6288, "\u0120Oscillation": 6289, "\u0120favorite": 6290, "\u0120Can": 6291, "\u0120espionage": 6292, "\u0120transplant": 6293, "cfm": 6294, "\u0120partners": 6295, "Measure": 6296, "\u0120Restaurant": 6297, "\u0120quarters": 6298, "\u0120renaissance": 6299, "\u0120manic": 6300, "\u0120Room": 6301, "\u0120biopsy": 6302, "\u0120output": 6303, "\u0120closes": 6304, "tas": 6305, "\u0109": 6306, "\u0120Development": 6307, "\u0120dairy": 6308, "Van": 6309, "\u0120Victor": 6310, "\u0120molecule": 6311, "\u0120infrared": 6312, "Vietnam": 6313, "141": 6314, "%;": 6315, "\u0120pec": 6316, "\u0120biodiversity": 6317, "\u0120Byrd": 6318, "aughter": 6319, "\u0120YLT": 6320, "\u0120penetrating": 6321, "\u0120Born": 6322, "\u0120Kyrgyz": 6323, "\u0120Clip": 6324, "\u0120safer": 6325, "\u0120occupations": 6326, "\u0120Colo": 6327, "\u0120Court": 6328, "\u0120soak": 6329, "\u0120sleep": 6330, "\u0120expensive": 6331, "\u0120Look": 6332, "\u0120demographic": 6333, "\u0120weaker": 6334, "\u0120communications": 6335, "represent": 6336, "\u0120stiffness": 6337, "\u0120cancelled": 6338, "\u0120make": 6339, "solving": 6340, "\u0120indexed": 6341, "\u0120case": 6342, "\u0120planters": 6343, "lling": 6344, "zzo": 6345, "\u0120collaborate": 6346, "\u0120Congress": 6347, "\u0120safe": 6348, "credit": 6349, "Sources": 6350, "\u0120Classification": 6351, "six": 6352, "\u0120Gladstone": 6353, "ites": 6354, "ups": 6355, "\u012083": 6356, "\u0120using": 6357, "\u01201887": 6358, "finding": 6359, "\u0120equipment": 6360, "\u0120numbness": 6361, "\u0120ignited": 6362, "\u0120Louise": 6363, "\u0120Flat": 6364, "\u00cf\u0127": 6365, "\u0120sound": 6366, "\u0120terminate": 6367, "\u0120individualized": 6368, "\u0120hen": 6369, "\u0120Better": 6370, "\u0120logs": 6371, "\u0120Career": 6372, "\u0120rotates": 6373, "\u0120deck": 6374, "\u0120leap": 6375, "\u0120fired": 6376, "Sk": 6377, "\u0120Euclid": 6378, "\u0120repressive": 6379, "\u0120Pipeline": 6380, "\u0120listened": 6381, "\u0120Aster": 6382, "\u0120overnight": 6383, "\u0120Victorian": 6384, "\u0120condemned": 6385, "\u0120colitis": 6386, "\u0120BU": 6387, "\u0120hostilities": 6388, "\u0120ps": 6389, "Nuclear": 6390, "\u0120NC": 6391, "lead": 6392, "\u0120eczema": 6393, "\u0120infringement": 6394, "\u0120bless": 6395, "\u0120Latino": 6396, "\u0120translates": 6397, "print": 6398, "\u0120scheme": 6399, "\u0120fatal": 6400, "hydro": 6401, "002": 6402, "\u0120maneuver": 6403, "\u0120binding": 6404, "34": 6405, "\u0120Dartmouth": 6406, "\u0120Cyclopedia": 6407, "UNICEF": 6408, "\u0120psychologist": 6409, "\u0120Subject": 6410, "\u0120spectacle": 6411, "\u0120Pp": 6412, "\u0120psychiatric": 6413, "mass": 6414, "\u0120bush": 6415, "\u0120esteem": 6416, "\u0120periphery": 6417, "boats": 6418, "\u0120ECE": 6419, "\u0120runaway": 6420, "VI": 6421, "\u0120Facility": 6422, "\u0120having": 6423, "\u0120hurried": 6424, "\u0120herbicides": 6425, "\u0120thalamus": 6426, "\u0120disturb": 6427, "production": 6428, "obe": 6429, "\u0120dissection": 6430, "\u0120BMI": 6431, "\u0120ghost": 6432, "\u0120existence": 6433, "\u0120ruminants": 6434, "\u00d0\u00bc": 6435, "\u0120asphalt": 6436, "\u0120McPherson": 6437, "\u0120lovely": 6438, "\u0120125": 6439, "\u0120Aegean": 6440, "ffin": 6441, "Education": 6442, "\u0120Obesity": 6443, "till": 6444, "\u0120...\"": 6445, "pedia": 6446, "\u0120hits": 6447, "\u0120adjectives": 6448, "make": 6449, "\u0120approached": 6450, "enter": 6451, "\u0120enclave": 6452, "Are": 6453, "ishment": 6454, "\u0120hypothesize": 6455, "rel": 6456, "\u0120uncle": 6457, "\u0120manages": 6458, "\u0120lat": 6459, "\u0120heats": 6460, ".'\"": 6461, "ash": 6462, "\u0120wondered": 6463, "\u0120MT": 6464, "trophic": 6465, "\u0120reasoning": 6466, "\u0120bun": 6467, "\u0120newsletter": 6468, "\u0120cyst": 6469, "\u0120Citizens": 6470, "67": 6471, "\u0120nucleus": 6472, "\u0120provinces": 6473, "\u0120pixels": 6474, "\u0120wea": 6475, "\u0120Gov": 6476, "bay": 6477, "\u0120cont": 6478, "\u0120Grants": 6479, "Through": 6480, "\u0120improvements": 6481, "Smithsonian": 6482, "\u0120coastline": 6483, "\u0120situ": 6484, "idence": 6485, "\u0120platinum": 6486, "\u0120chromium": 6487, "\u0120refined": 6488, "\u0120survived": 6489, "\u0120surely": 6490, "\u0120Scale": 6491, "net": 6492, "\u0120aspects": 6493, "\u0120Sou": 6494, "IB": 6495, "ME": 6496, "\u0120dialysis": 6497, "ppe": 6498, "888": 6499, "\u0120Cool": 6500, "\u0120climb": 6501, "1956": 6502, "\u0120spells": 6503, "NOAA": 6504, "\u0120showing": 6505, "\u0120archaeological": 6506, "\u0120novelist": 6507, "\u0120Pike": 6508, "\u0120boiler": 6509, "\u0120oo": 6510, "\u0120multimedia": 6511, "DM": 6512, "\u0120Pearson": 6513, "\u0120right": 6514, "\u0120Arr": 6515, "\u0120Conqueror": 6516, "\u0120month": 6517, "\u0120bioge": 6518, "\u00e6": 6519, "\u0120Adding": 6520, "closed": 6521, "\u0120game": 6522, "\u0120SB": 6523, "sity": 6524, "LS": 6525, "\u0120Navigation": 6526, "\u0120Sk": 6527, "\u0120solve": 6528, "\u0120terrific": 6529, "\u0120direct": 6530, "\u0120Il": 6531, "\u0120tie": 6532, "\u0120percentile": 6533, "\u0120STEM": 6534, "\u0120Chandra": 6535, "iac": 6536, "Grand": 6537, "aware": 6538, "\u0120catching": 6539, "\u0120Exploration": 6540, "otic": 6541, "old": 6542, "\u0120scanned": 6543, "\u00f0": 6544, "Smart": 6545, "\u0120disconnect": 6546, "\u0120doctorate": 6547, "\u0120flu": 6548, "Hz": 6549, "AF": 6550, "\u0120Bou": 6551, "\u0120fluor": 6552, "\u0120Night": 6553, "\u0120um": 6554, "Chi": 6555, "oriented": 6556, "\u0120Infants": 6557, "\u0120Child": 6558, "\u0120Generation": 6559, "\u0120insoluble": 6560, "cie": 6561, "\u0120&": 6562, "essor": 6563, "\u0120therapy": 6564, "environment": 6565, "\u0120scent": 6566, "\u00d6\u00bc": 6567, "\u0120suicide": 6568, "\u0120kilometres": 6569, "144": 6570, "\u0120introducing": 6571, "Epi": 6572, "\u0120Survey": 6573, "\u0120sinking": 6574, "\u0120morphological": 6575, "\u0120Humans": 6576, "\u0120pleasurable": 6577, "\u0120misfortune": 6578, "\u0120cycles": 6579, "action": 6580, "\u0120simulation": 6581, "\u0120Maul": 6582, "\u0120Gate": 6583, "circ": 6584, "\u0120situated": 6585, "On": 6586, "\u0120develops": 6587, "stle": 6588, "\u0120methodology": 6589, "soft": 6590, "\u0120conveying": 6591, "\u0120campuses": 6592, "\u0120beforehand": 6593, "\u0120maturation": 6594, "\u0120astro": 6595, "\u0120landfills": 6596, "\u0120compelling": 6597, "\u0120desire": 6598, "idium": 6599, "\u0120Natural": 6600, "\u0120Blessed": 6601, "\u0120attribution": 6602, "\u0120lasted": 6603, "\u0120Criminal": 6604, "\u0120apostles": 6605, "\u0120unattractive": 6606, "ergy": 6607, "known": 6608, "\u0120brigade": 6609, "33": 6610, "\u0120ventricles": 6611, "yote": 6612, "\u0120constitution": 6613, "\u0120camel": 6614, "acting": 6615, "Help": 6616, "\u0120Emily": 6617, "\u0120match": 6618, "Jo": 6619, "\u0120Meanwhile": 6620, "ampton": 6621, "\u0120kills": 6622, "\u0120signify": 6623, "\u00e2\u0124\u00ac\u00e2\u0126\u00a2": 6624, "\u0120Hans": 6625, "\u0120petroleum": 6626, "X": 6627, "\u0120bought": 6628, "\u0120characterised": 6629, "\u0120vigorous": 6630, "\u0120shorten": 6631, "\u0120greenhouse": 6632, "\u0120easier": 6633, "\u0120freeing": 6634, "myel": 6635, "teacher": 6636, "\u0120strained": 6637, "\u0120benefited": 6638, "nik": 6639, "\u0120trail": 6640, "\u0120Aztec": 6641, "ische": 6642, "Yesterday": 6643, "\u0120Manufacturers": 6644, "\u0120Sclerosis": 6645, "\u0120ineffective": 6646, "\u0120skin": 6647, "\u0120Europa": 6648, "\u0120enshrined": 6649, "\u0120instrument": 6650, "\u0120additives": 6651, "\u0120fleets": 6652, "IT": 6653, "\u0120Brooklyn": 6654, "\u0120Younger": 6655, "\u0120Claudia": 6656, "West": 6657, "\u0120vertebral": 6658, "\u0120patches": 6659, "\u0120Gospel": 6660, "\u0120oranges": 6661, "\u0120exc": 6662, "\u0120obviously": 6663, "\u0120bold": 6664, "October": 6665, "\u0120Media": 6666, "\u0120ext": 6667, "\u0120Serengeti": 6668, "\u0120Hen": 6669, "\u0120feud": 6670, "\u0120binds": 6671, "ti": 6672, "\u0120contractor": 6673, "\u0120Monarchs": 6674, "animal": 6675, "BMI": 6676, "\u0120Foundation": 6677, "\u0120Structures": 6678, "\u0120acupuncture": 6679, "\u0120kinds": 6680, "pu": 6681, "\u0120nearly": 6682, "\u0120Essay": 6683, "still": 6684, "att": 6685, "\u0120Lerner": 6686, "\u0120unaware": 6687, "\u0120Wonder": 6688, "\u0120Tri": 6689, "\u0120Summer": 6690, "sometimes": 6691, "\u0120shouting": 6692, "rig": 6693, "History": 6694, "\u0120stout": 6695, "\u0120Codex": 6696, "\u0120yours": 6697, "\u0120homeostasis": 6698, "\u0120activation": 6699, "\u0120husbands": 6700, "\u0120anim": 6701, "\u0120regiments": 6702, "\u0120tabernacle": 6703, "\u0120Dallas": 6704, "\u0120Er": 6705, "\u0120consensus": 6706, "\u0120sang": 6707, "\u0120Happy": 6708, "\u012066": 6709, "rus": 6710, "\u0120Words": 6711, "\u0120busy": 6712, "\u0120downfall": 6713, "\u0120Preventive": 6714, "83": 6715, "\u0120hostility": 6716, "tes": 6717, "\u0120Vijay": 6718, "\u0120PRI": 6719, "\u0120corps": 6720, "ried": 6721, "\u0120Palo": 6722, "\u0120tone": 6723, "\u012036": 6724, "Hispanic": 6725, "\u0120adept": 6726, "\u00c2\u00bf": 6727, "\u0120sweet": 6728, "\u0120Emphasis": 6729, "beat": 6730, "\u0120commitments": 6731, "\u0120ignition": 6732, "\u0120rural": 6733, "\u0120estate": 6734, "\u0120EG": 6735, "\u0120what": 6736, "\u0120impediment": 6737, "\u0120tallest": 6738, "\u0120hoc": 6739, "\u0120noodles": 6740, "\u0120monsters": 6741, "UM": 6742, "\u0120Om": 6743, "\u0120Integrated": 6744, "\u0120proving": 6745, "\u0120hamburger": 6746, "colored": 6747, "\u0120Registry": 6748, "\u0120hooked": 6749, "\u0120responsible": 6750, "lia": 6751, "\u0120terminals": 6752, "\u0120fragile": 6753, "\u0120BE": 6754, "\u0120inability": 6755, "nor": 6756, "\u0120Reviews": 6757, "\u0120lacked": 6758, "\u0120containing": 6759, "\u0120sanitary": 6760, "ita": 6761, "\u0120dating": 6762, "\u0120bases": 6763, "\u0120ease": 6764, "IAL": 6765, "current": 6766, "\u0120manned": 6767, "\u0120mal": 6768, "\u0120prevention": 6769, "OL": 6770, "\u0120inanimate": 6771, ".'": 6772, "\u0120bare": 6773, "\u0120Shirley": 6774, "phony": 6775, "\u0120pl": 6776, "\u0120destructive": 6777, "Thomas": 6778, "\u0120palms": 6779, "\u0120uncomfortable": 6780, "arium": 6781, "rol": 6782, "\u01201812": 6783, "Hydraulic": 6784, "\u0120paralyzed": 6785, "\u0120SM": 6786, "\u0120Geometry": 6787, "\u0120159": 6788, "\u0120craftsmen": 6789, "\u0120opium": 6790, "protect": 6791, "\u0120Missile": 6792, "\u0120latent": 6793, "\u0120provider": 6794, "\u0120Morris": 6795, "\u0120Leading": 6796, "\u0120disguise": 6797, "\u0120evil": 6798, "\u0120trying": 6799, "?\u00e2\u0122\u013b": 6800, "\u0120message": 6801, "\u0120distance": 6802, "prevent": 6803, "\u0120suppress": 6804, "\u0120rose": 6805, "Cr": 6806, "Tele": 6807, "\u0120suit": 6808, "\u0120elevate": 6809, "\u0120Colorado": 6810, "\u0120circulating": 6811, "lapse": 6812, "\u0120*": 6813, "under": 6814, "\u0120Got": 6815, "\u0120chronic": 6816, "\u0120Admiral": 6817, "loads": 6818, "\u0120factual": 6819, "\u0120phytoplankton": 6820, "human": 6821, "\u0120Sus": 6822, "\u0120confidential": 6823, "\u0120Learning": 6824, "\u0120invent": 6825, "chlor": 6826, "\u0120incorporate": 6827, "\u0120invariably": 6828, "\u0120candles": 6829, "\u0120Tolkien": 6830, "\u0120slightest": 6831, "\u0120NSW": 6832, "\u0120aesthetic": 6833, "bate": 6834, "\u0120reducing": 6835, "Neill": 6836, "IG": 6837, "marriage": 6838, "\u0120rating": 6839, "\u0120sores": 6840, "\u0120dynasty": 6841, "\u0120succeed": 6842, "\u0120Harbor": 6843, "shot": 6844, "\u0120appliance": 6845, "\u0120Braun": 6846, "\u0120reconciliation": 6847, "gotten": 6848, "\u0120hurts": 6849, "\u0120covering": 6850, "watch": 6851, "\u0120disparity": 6852, "\u0120guerrilla": 6853, "\u0120article": 6854, "ntz": 6855, "\u0120Mineral": 6856, "\u0120implicit": 6857, "the": 6858, "\u0120lipoprotein": 6859, "birds": 6860, "\u0120erratic": 6861, "\u0120Stilwell": 6862, "\u0120Golden": 6863, "\u0120Palestine": 6864, "fossil": 6865, "\u0120Hu": 6866, "\u0120Friedrich": 6867, "\u0120Hundreds": 6868, "\u0120electronically": 6869, "\u0120two": 6870, "\u0120federally": 6871, "stream": 6872, "...": 6873, "information": 6874, "\u0120destroys": 6875, "\u0120guarantees": 6876, "\u0120statements": 6877, "Nar": 6878, "\u0120miRNA": 6879, "\u0120Start": 6880, "\u0120forecasting": 6881, "\u01202003": 6882, "\u0120carb": 6883, "\u0120Haskell": 6884, "Bill": 6885, "Manufactur": 6886, "\u0120Nucle": 6887, "ssel": 6888, "GT": 6889, "Non": 6890, "\u0120Kara": 6891, "\u0120Trouble": 6892, "\u0120perceptions": 6893, "lean": 6894, ".\u00e2\u0122\u013f": 6895, "\u0120orange": 6896, "\u0120supplements": 6897, "Their": 6898, "\u0120commanding": 6899, "\u0120Leslie": 6900, "\u0120zodiac": 6901, "keepers": 6902, "\u0120Mr": 6903, "\u0120attain": 6904, "\u01201971": 6905, "\u0120Path": 6906, "\u0120Information": 6907, "wind": 6908, "\u0120[\u00e2\u0122\u00a6]": 6909, "\u0120usher": 6910, "\u0120crevices": 6911, "\u0120Seminary": 6912, "\u0120carpet": 6913, "perhaps": 6914, "\u0120Berlin": 6915, "\u0120autoimmune": 6916, "ard": 6917, "\u0120whis": 6918, "ong": 6919, "\u0120within": 6920, "\u0120terms": 6921, "eur": 6922, "\u0120tomatoes": 6923, "\u0120delusion": 6924, "eous": 6925, "\u0120immediate": 6926, "\u0120650": 6927, "\u0120conquer": 6928, "\u0120alligators": 6929, "\u0120try": 6930, "imony": 6931, "XX": 6932, "\u0120clinical": 6933, "ador": 6934, "\u0120avoided": 6935, "\u0120enjoy": 6936, "\u01201968": 6937, "\u0120relief": 6938, "\u0120questionnaire": 6939, "\u0120toward": 6940, "\u0120assist": 6941, "\u0120Ronald": 6942, "\u0120county": 6943, "\u0120daring": 6944, "\u0120psychologists": 6945, "\u0120For": 6946, "COM": 6947, "pres": 6948, "\u0120\u00e2\u0122\u00a6": 6949, "\u0120password": 6950, "\u0120Germany": 6951, "\u0120terminated": 6952, "\u0120zidovudine": 6953, "\u0120ya": 6954, "\u0120library": 6955, "\u01201810": 6956, "\u0120prematurely": 6957, "\u0120Far": 6958, "\u0120Tam": 6959, "\u0120welfare": 6960, "\u0120neg": 6961, "\u0120subsidies": 6962, "\u0120Come": 6963, "raising": 6964, "\u0120lexical": 6965, "\u0120Tol": 6966, "bber": 6967, "\u0120Coastal": 6968, "\u0120Warrior": 6969, "\u0120burnt": 6970, "photo": 6971, "\u0120shell": 6972, "\u0120pines": 6973, "hat": 6974, "aging": 6975, "xx": 6976, "\u0120bike": 6977, "Sa": 6978, "\u0120lightweight": 6979, "\u0120unbeliev": 6980, "\u0120wealthy": 6981, "\u0120Supply": 6982, "\u0120friends": 6983, "\u0120stating": 6984, "\u0120Underground": 6985, "\u0120Combat": 6986, "\u0120XX": 6987, "Sch": 6988, "\u0120remembrance": 6989, "zed": 6990, "\u0120unfinished": 6991, "\u0120Sat": 6992, "\u0120scary": 6993, "\u0120compliance": 6994, "TIONAL": 6995, "shop": 6996, "Wiktionary": 6997, "\u0120Sei": 6998, "\u0120distract": 6999, "\u0120toothpaste": 7000, "\u0120Assuming": 7001, "olar": 7002, "ed": 7003, "\u0120relocated": 7004, "\u0120scored": 7005, "\u0120extensively": 7006, "\u0120questionnaires": 7007, "\u0120Zone": 7008, "\u0120province": 7009, "\u0120Scouts": 7010, "\u0120Sioux": 7011, "\u0120crayfish": 7012, "\u0120currently": 7013, "iles": 7014, "\u0120Fen": 7015, "\u0120PAR": 7016, "\u0120impairment": 7017, "\u0120antiqu": 7018, "\u0120Ephraim": 7019, "cri": 7020, "\u0120elimination": 7021, "\u0120ed": 7022, "Teacher": 7023, "established": 7024, "\u0120campus": 7025, "\u0120nomadic": 7026, "\u0120gem": 7027, "\u0120tied": 7028, "\u0120camouflage": 7029, "\u0120185": 7030, "\u0120observers": 7031, "\u0120Beliefs": 7032, "\u0120prefecture": 7033, "intro": 7034, "\u0120deadly": 7035, "\u0120calibration": 7036, "lingual": 7037, "\u0120discouraged": 7038, "\u0120Rosa": 7039, "journ": 7040, "\u0120obligation": 7041, "\u0120word": 7042, "\u0120fry": 7043, "isted": 7044, "\u0120milestones": 7045, "MIT": 7046, "\u0120joins": 7047, "\u0120respectful": 7048, "\u0120lobbying": 7049, "\u0120shutdown": 7050, "\u0120Og": 7051, "\u0120Enoch": 7052, "\u0120False": 7053, "\u0120each": 7054, "iga": 7055, "IN": 7056, "\u0120Jet": 7057, "\u0120stabilized": 7058, "\u0120requirements": 7059, "\u0120compulsory": 7060, "\u0120pinn": 7061, "\u0120changed": 7062, "\u0120workshops": 7063, "friend": 7064, "\u0120blemish": 7065, "\u0120tetanus": 7066, "\u0120Legend": 7067, "\u0120Phyl": 7068, "\u0120Worldwide": 7069, "\u0120renounce": 7070, "\u0120Check": 7071, "\u0120INS": 7072, "Environmental": 7073, "\u0120Top": 7074, "\u0120Artificial": 7075, "\u0120coloration": 7076, "\u0120\u00e0": 7077, "\u0120singular": 7078, "return": 7079, "\u0120bestowed": 7080, "\u0120Essex": 7081, "\u0120struggles": 7082, "\u0120Hyper": 7083, "\u0120perpendicular": 7084, "\u0120ce": 7085, "\u0120radically": 7086, "dw": 7087, "\u0120Semiconductor": 7088, "\u0120Chocolate": 7089, "\u0120OP": 7090, "\u0120secrecy": 7091, "\u0120Malaysia": 7092, "\u0120enslave": 7093, "\u0120discriminatory": 7094, "\u0120LE": 7095, "Ger": 7096, "\u0120Barbados": 7097, "\u0120Session": 7098, "\u0120season": 7099, "\u0120signal": 7100, "\u0120gro": 7101, "\u0120sighting": 7102, "\u0120SR": 7103, "\u0120spinal": 7104, "\u012021": 7105, "Ab": 7106, "\u0120lice": 7107, "\u0120Reuters": 7108, "\u0136": 7109, "Section": 7110, "\u0120probability": 7111, "\u0120alfalfa": 7112, "\u0120lukewarm": 7113, "rier": 7114, "\u0120Parkinson": 7115, "\u0120Kru": 7116, "acies": 7117, "\u0120Anim": 7118, "\u0120conceal": 7119, "\u0120Ramsar": 7120, "illion": 7121, "\u0120pressurized": 7122, "\u0120MRI": 7123, "\u0120understanding": 7124, "web": 7125, "\u0120suppliers": 7126, "\u0120ecological": 7127, "\u0120cong": 7128, "Synonyms": 7129, "\u0120Neurology": 7130, "\u0120sco": 7131, "\u0120Churches": 7132, "\u0120Tornado": 7133, "\u0120Assembl": 7134, "\u0120Same": 7135, "\u0120Bhattarak": 7136, "\u0120glucose": 7137, "IST": 7138, "\u0120Module": 7139, "lee": 7140, "\u0120providing": 7141, "\u0120Descartes": 7142, "\u0120watt": 7143, "\u0120picked": 7144, "\u0120whereabouts": 7145, "\u0120Op": 7146, "sis": 7147, "\u0120pitcher": 7148, "eck": 7149, "lier": 7150, "\u0120stability": 7151, "\u0120Malaysian": 7152, "wak": 7153, "\u0120urbanization": 7154, "\u0120academics": 7155, "ada": 7156, "\u0120benefactor": 7157, "\u0120Florida": 7158, "\u0120president": 7159, "\u0120kiss": 7160, "directional": 7161, "please": 7162, "\u0120ceremonial": 7163, "\u0120peptides": 7164, "\u0120bystander": 7165, "\u0120Money": 7166, "\u0120ancient": 7167, "\u0120remission": 7168, "\u0120Aurangzeb": 7169, "].": 7170, "\u0120heterosexual": 7171, "\u0120quotation": 7172, "Ru": 7173, "\u0120colossal": 7174, "\u0120apnea": 7175, "\u0120assigning": 7176, "Sustain": 7177, "\u0120reduces": 7178, "\u0120Trans": 7179, "\u0120fil": 7180, "\u01201852": 7181, "\u0120dome": 7182, "\u0120playground": 7183, "\u0120Bank": 7184, "ones": 7185, "\u0120Rafael": 7186, "\u0120oscillations": 7187, "\u0120revealing": 7188, "ivers": 7189, "\u0120Gutenberg": 7190, ")\".": 7191, "\u0120fails": 7192, "\u0120Sharp": 7193, "\u0120crustaceans": 7194, "ulnerability": 7195, "\u012e": 7196, "ni": 7197, "thi": 7198, "\u0120expressions": 7199, "rous": 7200, "\u0120coagulation": 7201, "\u0120Agro": 7202, "profile": 7203, "\u0120Wehrmacht": 7204, "Professor": 7205, "\u0120whales": 7206, "\u0120Options": 7207, "\u0120Ag": 7208, "tia": 7209, "\u0120Montessori": 7210, "\u0120dizzy": 7211, "\u0120gre": 7212, "\u0120silly": 7213, "\u0120richly": 7214, "\u0120spyware": 7215, "\u0120anybody": 7216, "\u0120relapsing": 7217, "\u0120Edu": 7218, "processing": 7219, "genes": 7220, "\u0120breathing": 7221, "aud": 7222, "\u0120hotel": 7223, "\u0120FE": 7224, "oved": 7225, "belief": 7226, "\u0120gamma": 7227, "those": 7228, "\u0120thermostat": 7229, "\u0120Predict": 7230, "\u0120bomber": 7231, "\u0120Lockheed": 7232, "\u0120stands": 7233, "\u0120Echo": 7234, "\u0120clarity": 7235, "Compared": 7236, "\u0120emphysema": 7237, "\u0120A": 7238, "\"-": 7239, "\u0120extinction": 7240, "grained": 7241, "\u0120Moslem": 7242, "Indi": 7243, "\u0120Forestry": 7244, "\u0120har": 7245, "tons": 7246, "\u0120opponent": 7247, "\u0120gastric": 7248, "\u0120skeptical": 7249, "c": 7250, "\u0120Spokane": 7251, "\u0120Corridor": 7252, "isting": 7253, "\u0120your": 7254, "\u0120governments": 7255, "\u0120responses": 7256, "\u0120tropical": 7257, "hin": 7258, "\u0120commonly": 7259, "\u0120lets": 7260, "LECT": 7261, "ngling": 7262, "\u0120reflected": 7263, "Soybean": 7264, "\u0120GE": 7265, "\u0120define": 7266, "owned": 7267, "\u0120Republic": 7268, "\u01201992": 7269, "\u0120colorful": 7270, "\u0120Executive": 7271, "death": 7272, "\u0120Truman": 7273, "\u0120perceive": 7274, "\u0120formats": 7275, "\u0120advocacy": 7276, "\u0120Results": 7277, "\u0120during": 7278, "\u0120bronch": 7279, "Luke": 7280, "\u0120BT": 7281, "\u0120spherical": 7282, "\u0120principal": 7283, "manufactur": 7284, "Ver": 7285, "\u0120Ca": 7286, "\u0120filing": 7287, "pen": 7288, "\u0120Jain": 7289, "\u0120vigor": 7290, "157": 7291, "\u0120(+": 7292, "\u0120irrational": 7293, "\u0120distribute": 7294, "\u0120galaxy": 7295, "\u0120last": 7296, "\u0120Wr": 7297, "\u0120belongings": 7298, "\u0120unexplored": 7299, "\u0120ADA": 7300, "\u0120resting": 7301, "\u0120radical": 7302, "\u0120seem": 7303, "\u0120excitatory": 7304, "\u0120ancestral": 7305, "Each": 7306, "\u0120cakes": 7307, "equipped": 7308, "\u0120embassy": 7309, "\u0120respectively": 7310, "\u0120getting": 7311, "google": 7312, "\u0120triangles": 7313, "\u0120tram": 7314, "\u0120resulting": 7315, "\u0120card": 7316, "\u0120Baptism": 7317, "\u0120artificially": 7318, "\u0120Bishops": 7319, "\u0120investments": 7320, "\u0120Chad": 7321, "gin": 7322, "\u0120routinely": 7323, "\u0120southwest": 7324, "Summer": 7325, "\u0120Precipitation": 7326, "70": 7327, "\u0120enthusiasm": 7328, "Medicine": 7329, "\u0120mention": 7330, "134": 7331, "\u0120depending": 7332, "\u0120::": 7333, "\u0120perception": 7334, "\u0120community": 7335, "\u0120secrets": 7336, "\u0120blessings": 7337, "og": 7338, "\u0120illusion": 7339, "dle": 7340, "\u0120Commander": 7341, "\u0120motor": 7342, "\u0120cardiomyopathy": 7343, "\u0120Edmund": 7344, "\u0120Paul": 7345, "\u0120Collaboration": 7346, "major": 7347, "\u0120Inquisition": 7348, "%||": 7349, ",...": 7350, "\u0120Monterey": 7351, "\u0120UNC": 7352, "\u0120puzzle": 7353, "\u0120disappears": 7354, "\u0120dew": 7355, "\u0120repertoire": 7356, "\u0120Kathryn": 7357, "USDA": 7358, "\u0120add": 7359, "\u0120polling": 7360, "Apparently": 7361, "\u0120cleaner": 7362, "na": 7363, "\u0120uninsured": 7364, "\u0120reset": 7365, "\u00d0\u00bf": 7366, "evolution": 7367, "\u0120nets": 7368, "\u0120stopped": 7369, "\u0120HO": 7370, "\u0120stationed": 7371, "\u0120competition": 7372, "\u0120Protestants": 7373, "\u0120Wyoming": 7374, "\u0120gravitational": 7375, "\u0120discrete": 7376, "\u0120surveys": 7377, "PL": 7378, "\u0120offer": 7379, "\u0120Roll": 7380, "glasses": 7381, "\u0120openly": 7382, "\u0120bonding": 7383, "\u0120hyperactivity": 7384, "\u0120Graduate": 7385, "\u0120College": 7386, "Government": 7387, "\u0120Anthropology": 7388, "\u0120Font": 7389, "\u0120130": 7390, "\u0120Drew": 7391, "Nearly": 7392, "\u0120Infections": 7393, "\u0120yields": 7394, "piration": 7395, "\u0120noble": 7396, "\u0120ownership": 7397, "\u0120pan": 7398, "quity": 7399, "\u0120scenario": 7400, "gl": 7401, "\u0120lanes": 7402, "\u00e0\u00a4\u00be": 7403, "\u0120explains": 7404, "\u0120Aphrodite": 7405, "\u0120harmed": 7406, "\u0120Eye": 7407, "\u0120airplanes": 7408, "\u0120practical": 7409, "ila": 7410, "\u0120ale": 7411, "uria": 7412, "oil": 7413, "files": 7414, "ante": 7415, "tention": 7416, "\u0120difficulty": 7417, "Join": 7418, "\u0120slots": 7419, "\u0120silk": 7420, "\u0120viewers": 7421, "\u0120propriet": 7422, "kg": 7423, "\u0120Fi": 7424, "\u0133": 7425, "\u0120neural": 7426, "brush": 7427, "\u0120immortal": 7428, "\u0120shed": 7429, "\u0120hydropower": 7430, "Prov": 7431, "University": 7432, "\u0120Engl": 7433, "\u0120parabola": 7434, "stasy": 7435, "NS": 7436, "\u0120emergencies": 7437, "\u0120charter": 7438, "\u0120Touch": 7439, "\u0120determining": 7440, "\u0120experiential": 7441, "\u0120worms": 7442, "\u0120properly": 7443, "\u0120inlet": 7444, "\u0120Utah": 7445, "\u0120comes": 7446, "\u0120hermeneutic": 7447, "\u0120Less": 7448, "\u0120odors": 7449, "ished": 7450, "\u0120narrator": 7451, "\u0120chimps": 7452, "\u0120esoteric": 7453, "\u0120Maurice": 7454, "\u0120\"...": 7455, "poverty": 7456, "\u0120Definition": 7457, "\u0120trout": 7458, "\u0120apply": 7459, "\u0120u": 7460, "\u0120broadly": 7461, "\u0120credibility": 7462, "yo": 7463, "\u0120initiation": 7464, "Radio": 7465, "\u0120conceptual": 7466, "encies": 7467, "pot": 7468, "usr": 7469, "\u0120clients": 7470, "\u0120niece": 7471, "\u0120Explo": 7472, "stones": 7473, "\u0120Hus": 7474, "\u0120stethoscope": 7475, "\u0120nature": 7476, "\u0120diesel": 7477, "\u0120disadvantage": 7478, "\u00c3\u00a3o": 7479, "ised": 7480, "\u0120incremental": 7481, "\u0120doubt": 7482, "\u0120Spot": 7483, "reased": 7484, "\u0120Yemen": 7485, "\u0120Rocky": 7486, "\u0120else": 7487, "\u0120Sony": 7488, "UNESCO": 7489, "static": 7490, "\u0120digitally": 7491, "\u0120missing": 7492, "\u0120competencies": 7493, "\u0120Moff": 7494, "\u0120casing": 7495, "\u0120cochlea": 7496, "\u0120untouched": 7497, "\u0120Both": 7498, "\u0120Opposition": 7499, "\u0120inseparable": 7500, "\u0120signifies": 7501, "oked": 7502, "\u0120Queen": 7503, "\u0120behavior": 7504, "\u0120speak": 7505, "Explanation": 7506, "\u0120progressive": 7507, "\u0120approach": 7508, "arch": 7509, "eral": 7510, "\u0120Berk": 7511, "Yet": 7512, "AID": 7513, "\u0120Surgeon": 7514, "\u0120800": 7515, "htm": 7516, "\u0120ii": 7517, "\u0120peas": 7518, "\u0120trial": 7519, "\u0120induct": 7520, "\u00c3\u00a1s": 7521, "\u0120inevitably": 7522, "\u0120precise": 7523, "\u0120Principle": 7524, "issa": 7525, "\u0120EL": 7526, "\u0120journalists": 7527, "\u0120probe": 7528, "\u0120Helena": 7529, "Meta": 7530, "\u0120immun": 7531, "\u0120flank": 7532, "\u0120compute": 7533, "\u0120Northwestern": 7534, "\u0120viscosity": 7535, "\u0120tactics": 7536, "\u0120porcelain": 7537, "\u00e2\u0122\u00a2": 7538, "\u0120cyto": 7539, "\u0120wetland": 7540, "\u0120Russia": 7541, "\u0120summer": 7542, "\u0120available": 7543, "\u0120San": 7544, "\u0120harmonious": 7545, "\u0120command": 7546, "\u0120doubling": 7547, "\u0120lit": 7548, "\u0120improper": 7549, "\u0120spanning": 7550, "\u0120Cardiovascular": 7551, "menopausal": 7552, "hav": 7553, "\u0120guardian": 7554, "\u0120interviewed": 7555, "\u0120eu": 7556, "\u0120Paralympic": 7557, "\u0120perfect": 7558, "\u0120bishop": 7559, "\u0120cathedral": 7560, "\u0120Scra": 7561, "sh": 7562, "\u0120volts": 7563, "\u0120Cre": 7564, "nature": 7565, "\u0120sixteen": 7566, "\u0120Push": 7567, "\u0120Modern": 7568, "\u0120contaminant": 7569, "\u0120Lux": 7570, "\u0120missile": 7571, "\u0120Australia": 7572, "\u0120Prof": 7573, "\u0120spreadsheet": 7574, "\u0120inserting": 7575, "\u0120Nanotechnology": 7576, "ggling": 7577, "\u0120promising": 7578, "\u0120danger": 7579, "\u0120shadow": 7580, "\u0120gift": 7581, "ego": 7582, "\u0120therapist": 7583, "\u0120compens": 7584, "\u0120train": 7585, "\u0120approximation": 7586, "\u0120garbage": 7587, "\u0120sponge": 7588, "interested": 7589, "\u0120Gram": 7590, "\u0120billion": 7591, "\u0120Brand": 7592, "matter": 7593, "illa": 7594, "2002": 7595, "\u0120directory": 7596, "\u01201818": 7597, "\u0120instant": 7598, "cat": 7599, "\u012051": 7600, "\u0120pope": 7601, "\u0120decisive": 7602, "\u0120Overview": 7603, "\u0120founder": 7604, "tivate": 7605, "\u0120Disc": 7606, "\u0120incapable": 7607, "\u0120peers": 7608, "\u0120locations": 7609, "\u0120millimetres": 7610, "\u0120K": 7611, "five": 7612, "Share": 7613, "\u0120Dawn": 7614, "\u0120depth": 7615, "\u0120casualties": 7616, "\u0120sclerosis": 7617, "cal": 7618, "speech": 7619, "\u0120tyrann": 7620, "\u0120Elsewhere": 7621, "\u0120Window": 7622, "complex": 7623, "\u0120modification": 7624, "\u0120theatre": 7625, "\u0120Kh": 7626, "\u0120Entertainment": 7627, "\u0120trainers": 7628, "\u0120offenders": 7629, "\u0120patriarchal": 7630, "Er": 7631, "\u0120skeleton": 7632, "\u0120reclaim": 7633, "eal": 7634, "142": 7635, "Big": 7636, "dden": 7637, "\u0120elite": 7638, "\u0120prehistoric": 7639, "\u01201864": 7640, "\u0120Orthodox": 7641, "\u0120co": 7642, "\u0120wants": 7643, "\u0120lifestyle": 7644, "\u0120filling": 7645, "\u0120arachn": 7646, "\u0120ventilat": 7647, "\u0120gradient": 7648, "u": 7649, "\u0120Hassan": 7650, "\u0120distinctions": 7651, "\u0120theoretical": 7652, "Move": 7653, "\u0120rheumatoid": 7654, "\u0120GA": 7655, "chs": 7656, "Business": 7657, "rap": 7658, "\u0120federal": 7659, "eb": 7660, "\u00f3": 7661, "\u0120disin": 7662, "\u0120River": 7663, "book": 7664, "\u0120kan": 7665, "\u0120evangelical": 7666, "Hodgkin": 7667, "Establish": 7668, "\u0120Trump": 7669, "\u0120motives": 7670, "\u0120garden": 7671, "nan": 7672, "\u01201914": 7673, "\u0120Huxley": 7674, "\u0120sup": 7675, "\u0120over": 7676, "\u0120wounds": 7677, "\u0120Guinea": 7678, "\u012a": 7679, "ven": 7680, "\u0120Updated": 7681, "volt": 7682, "\u0120simulations": 7683, "\u0120piles": 7684, "\u0120personnel": 7685, "\u0120map": 7686, "\u0120contradict": 7687, "\u0120|": 7688, "\u0120papyrus": 7689, "vas": 7690, "\u0120salts": 7691, "\u0120hectare": 7692, "\u0120ve": 7693, "\u0120Trade": 7694, "\u0120passes": 7695, "\u0120fashioned": 7696, "\u00ce": 7697, "kh": 7698, "\u0120idle": 7699, "vised": 7700, "\u0120bequeathed": 7701, "\u0120moss": 7702, "\u0120stages": 7703, "\u0120ranges": 7704, "165": 7705, "\u0120Reynolds": 7706, "\u0120transformed": 7707, "\u0120Purdue": 7708, "\u0120characterize": 7709, "\u0120fumes": 7710, "1911": 7711, "\u0120notified": 7712, "\u0120Planet": 7713, "legged": 7714, "\u0120Among": 7715, "\u0120280": 7716, "\u0120hated": 7717, "\u0120colours": 7718, "salt": 7719, "\u0120earnest": 7720, "Sta": 7721, "\u0120cause": 7722, "nian": 7723, "\u0120Inequality": 7724, "60": 7725, "arid": 7726, "\u0120pilots": 7727, "\u0120spelled": 7728, "\u0120Heinrich": 7729, "\u0120insulin": 7730, "pun": 7731, "\u0120established": 7732, "rc": 7733, "\u0120introduce": 7734, "\u0120winter": 7735, "\u0120greeting": 7736, "\u0120jaw": 7737, "endo": 7738, "\u0120Dionys": 7739, "\u0120chiefly": 7740, "17": 7741, "ula": 7742, "\u0120snail": 7743, "\u0120grown": 7744, "\u0120Browse": 7745, "\u0120lighthouse": 7746, "\u0120alignment": 7747, "\u0120deteriorating": 7748, "\u0120comparable": 7749, "\u0120MB": 7750, "\u0120satisfied": 7751, "[*]": 7752, "election": 7753, "\u0120Detroit": 7754, "\u0120individually": 7755, "\u012072": 7756, "ensen": 7757, "\u0120equitable": 7758, "\u0120Age": 7759, "\u0120Coordinating": 7760, "\u0120Mubarak": 7761, "\u0120Theatre": 7762, "205": 7763, "\u0120Drake": 7764, "\u0120Carson": 7765, "dhi": 7766, "\u0120duck": 7767, "\u0120FAO": 7768, "\u0120registered": 7769, "\u0120Hawaiian": 7770, "ache": 7771, "Photograph": 7772, "FF": 7773, "\u0120bead": 7774, "\u0120disregard": 7775, "tral": 7776, "\u0120Ralph": 7777, "RTH": 7778, "\u0120Edition": 7779, "week": 7780, "\u0120build": 7781, "\u0120Officer": 7782, "\u0120guitar": 7783, "\u0120accrue": 7784, "45": 7785, "\u0120Highland": 7786, "UP": 7787, "\u0120helper": 7788, "\u0120slices": 7789, "pired": 7790, "\u0120ant": 7791, "\u0120propagate": 7792, "\u0120noxious": 7793, "universal": 7794, "\u0120certification": 7795, "\u0120resistors": 7796, "Sept": 7797, "profit": 7798, "\u0120dangers": 7799, "foot": 7800, "\u0120Zedekiah": 7801, "\u0120Trail": 7802, "izer": 7803, "!!!": 7804, "\u01201820": 7805, "\u0120Livonia": 7806, "width": 7807, "\u0120differ": 7808, "\u0120nostrils": 7809, "hyper": 7810, "Marine": 7811, "\u0120germs": 7812, "\u0120sociological": 7813, "ial": 7814, "\u0120starvation": 7815, "qui": 7816, "\u0120vandalism": 7817, "\u0120frontiers": 7818, "Ba": 7819, "\u0120reasonably": 7820, "\u0120Respiratory": 7821, "\u0120velomobile": 7822, "\u0120taxed": 7823, "\u0120Sr": 7824, "\u0120instructions": 7825, "\u0120stretch": 7826, "\u0120guidelines": 7827, "\u0120styl": 7828, "\u0120identities": 7829, "yurvedic": 7830, "\u0120natural": 7831, "\u0120proposed": 7832, "bullying": 7833, "etz": 7834, "RY": 7835, "\u0120IL": 7836, "\u0120rated": 7837, "PU": 7838, "\u0120service": 7839, "produced": 7840, "\u0120yoghurt": 7841, "\u0120tapped": 7842, "ust": 7843, "\u0120quo": 7844, "nical": 7845, "cultural": 7846, "\u0120Potsdam": 7847, "\u01201866": 7848, "\u0120wise": 7849, "\u0120cables": 7850, "\u01201877": 7851, "\u0120suspicion": 7852, "\u0120irritation": 7853, "\u0120eastward": 7854, "\u0120stamina": 7855, "\u0120ministers": 7856, "\u0120fault": 7857, "dging": 7858, "permanent": 7859, "\u0120Vancouver": 7860, "\u0120Smith": 7861, "\u012b": 7862, "38": 7863, "\u0120vibrant": 7864, "ining": 7865, "\u00e2\u0122": 7866, "ppa": 7867, "\u0120cast": 7868, "cephal": 7869, "\u0120riparian": 7870, "\u0120Ald": 7871, "\u0120intermittent": 7872, "\u0120shrub": 7873, "\u0120Solomon": 7874, "\u0120Ethno": 7875, "\u0120Maryland": 7876, "Sil": 7877, "\u0120molecules": 7878, "\u0120Ge": 7879, "\u0120Reserved": 7880, "\u0120synthetic": 7881, "kam": 7882, "\u0120reminds": 7883, "inus": 7884, "\u0120Gl": 7885, "\u0120Omaha": 7886, "\u0120pins": 7887, "requisite": 7888, "\u0120question": 7889, "\u0120Built": 7890, "hus": 7891, "mped": 7892, "2006": 7893, "\u0120arrested": 7894, "\u0120Programme": 7895, "\u0120exponential": 7896, "\u0120so": 7897, "):": 7898, "\u0120Adult": 7899, "\u0120covalent": 7900, "dg": 7901, "\u0120Yahweh": 7902, "\u0120pipes": 7903, "\u0120Selected": 7904, "\u0120wires": 7905, "\u0120Cyrus": 7906, "\u0120school": 7907, "\u0120Glasgow": 7908, "\u0120simplicity": 7909, "vier": 7910, "tra": 7911, "\u0120wood": 7912, "continu": 7913, "\u0120bowls": 7914, "\u0120systematic": 7915, "\u0120Pi": 7916, "\u0120yourself": 7917, "Day": 7918, "\u0120positioned": 7919, "\u0120lev": 7920, "\u0120Senate": 7921, "\u0120215": 7922, "\u0120room": 7923, "\u0120Pra": 7924, "Select": 7925, "largest": 7926, "\u0120twenties": 7927, "\u0120kidnap": 7928, "Materials": 7929, "\u0120Archipelago": 7930, "\u0120examples": 7931, "\u0120Brook": 7932, "cating": 7933, "\u0120Accessibility": 7934, "ly": 7935, "\u0120decide": 7936, "get": 7937, "\u0120bacteria": 7938, "Au": 7939, "\u0120demanding": 7940, "\u0120Mahabharata": 7941, "rom": 7942, "ek": 7943, "\u0120notify": 7944, "Instead": 7945, "\u0120Shem": 7946, "\u0120beans": 7947, "exc": 7948, "\u0120Cri": 7949, "\u0120America": 7950, "\u0120unit": 7951, "\u0120dispersing": 7952, "\u0120absorption": 7953, "\u0120disinteg": 7954, "\u0120Bun": 7955, "\u0120Commitment": 7956, "\u0120melody": 7957, "Choose": 7958, "VS": 7959, "\u0120GR": 7960, "\u0120Together": 7961, "engine": 7962, "\u0120shafts": 7963, "\u0120Tip": 7964, "\u0120arid": 7965, "Which": 7966, "\u0120southward": 7967, "\u0120ready": 7968, "\u0120TS": 7969, "\u0120Babies": 7970, "Jack": 7971, "\u0120utmost": 7972, "\u0120Pakistani": 7973, "hre": 7974, "\u0120antifungal": 7975, "\u0120respiratory": 7976, "\u0120anticonvulsant": 7977, "\u0120Europeans": 7978, "\u0120parade": 7979, "\u0120outputs": 7980, "\u0120Ishmael": 7981, "Solomon": 7982, "\u0120affection": 7983, "\u0120women": 7984, "98": 7985, "Make": 7986, "sse": 7987, "ductive": 7988, "\u0120Pas": 7989, "plicate": 7990, "171": 7991, "phenol": 7992, "%": 7993, "appropriate": 7994, "\u0120Tucson": 7995, "\u0120barren": 7996, "\u0120twenty": 7997, "\u0120destroyers": 7998, "\u0120Equal": 7999, "\u0120observatory": 8000, "\u0120veins": 8001, "\u0120racially": 8002, "\u0120development": 8003, "destructive": 8004, "\u0120spontaneity": 8005, "\u0120burn": 8006, "\u0120Atonement": 8007, "String": 8008, "\u0120sugary": 8009, "\u0120Merc": 8010, "\u0120asleep": 8011, "\u0120Prentice": 8012, "\u0120humpback": 8013, "\u0120localized": 8014, "\u0120meadow": 8015, "comp": 8016, "\u0120added": 8017, "tty": 8018, "chrome": 8019, "\u0120Deputy": 8020, "Cross": 8021, "\u0120UFO": 8022, "\u0120ST": 8023, "\u0120challenge": 8024, "\u0120Finn": 8025, "transfer": 8026, "\u0120substitution": 8027, "\u0120Queensland": 8028, "label": 8029, "uk": 8030, "\u0120Princess": 8031, "\u0120responds": 8032, "\u0120wary": 8033, "\u0120respective": 8034, "\u0120academically": 8035, "\u00c2\u00bd": 8036, "\u0120Gibson": 8037, "tten": 8038, "hum": 8039, "\u0120135": 8040, "\u0120harmonic": 8041, "Teach": 8042, "WILLIAM": 8043, "ora": 8044, "\u0120Swe": 8045, "\u0120Cardinal": 8046, "\u0120circle": 8047, "\u0120Human": 8048, "\u0120bread": 8049, "\u0120biases": 8050, "\u0120Active": 8051, "\u0120colonized": 8052, "project": 8053, "probably": 8054, "hole": 8055, "\u0120Axis": 8056, "\u0120streaming": 8057, "\u0120royalty": 8058, "\u0120poorer": 8059, "\u0120evaporation": 8060, "\u0120KA": 8061, "\u0120ridiculous": 8062, "\u0120hind": 8063, "\u0120fortified": 8064, "\u0120holiness": 8065, "\u0120seas": 8066, "\u0120restrict": 8067, "\u0120(=": 8068, "fair": 8069, "\u0120booster": 8070, "Space": 8071, "\u01201921": 8072, "\u0120molasses": 8073, "\u0120cabbage": 8074, "\u0120Growing": 8075, "technical": 8076, "respon": 8077, "\u0120GB": 8078, "ranging": 8079, "\u0120grounds": 8080, "\u0120contemporaries": 8081, "veget": 8082, "\u0120bucket": 8083, "\u0120Netherlands": 8084, "DI": 8085, "\u0120Literacy": 8086, "\u0120inconceivable": 8087, "\u0120comic": 8088, "\u0120scept": 8089, "\u0120lyrics": 8090, "\u0120ballast": 8091, "\u0120ligaments": 8092, "\u0120bla": 8093, "\u0120appetite": 8094, "\u0120guards": 8095, "\u0120ability": 8096, "\u0120usurp": 8097, "\u0120outside": 8098, "kan": 8099, "Wal": 8100, "\u0120adds": 8101, "\u0120dilution": 8102, "\u0120wildfires": 8103, "cou": 8104, "\u0120SF": 8105, "Test": 8106, "\u00c6": 8107, "\u0120Academic": 8108, "\u0120acidic": 8109, "\u0120note": 8110, "hon": 8111, "\u0120increasing": 8112, "un": 8113, "\u0120cal": 8114, "\u0120Grade": 8115, "\u0120entails": 8116, "pay": 8117, "\u0120Perth": 8118, "\u0120tonight": 8119, "\u0120Sir": 8120, "\u0120ground": 8121, "\u0120implicitly": 8122, "\u0120relaxed": 8123, "\u0120Ahmed": 8124, "\u0120dad": 8125, "vour": 8126, "\u0120Astronomy": 8127, "\u0120aerosols": 8128, "\u0120Fraser": 8129, "\u0120Blacks": 8130, "\u0120metaphysical": 8131, "\u0120nap": 8132, "\u0120now": 8133, "\u0120amorphous": 8134, "\u0120complaints": 8135, "i\u00c3\u00a8re": 8136, "\u0120circulate": 8137, "\u0120Shinto": 8138, "go": 8139, "\u0120Fine": 8140, "\u0120Sometimes": 8141, "\u0120concrete": 8142, "Bio": 8143, "\u0120Protect": 8144, "\u0120cheer": 8145, "\u0120Banaras": 8146, "aya": 8147, "\u0120goals": 8148, "\u0120veterans": 8149, "An": 8150, "\u0120celestial": 8151, "\u0120fees": 8152, "com": 8153, "\u0120lethargy": 8154, "\u0120Alice": 8155, "\u0120cooler": 8156, "\u0120Ubuntu": 8157, "\u0120Kay": 8158, "\u0120decreases": 8159, "\u0120carbon": 8160, "\u0120visually": 8161, "\u0120marvelous": 8162, "\u0120finding": 8163, "\u0120Emma": 8164, "\u0120payment": 8165, "\u0120backing": 8166, "ule": 8167, "\u0120Prometheus": 8168, "\u0120packing": 8169, "\u0120melts": 8170, "\u0120Colonies": 8171, "\u0120joints": 8172, "\u0120Wai": 8173, "ARD": 8174, "\u0120domination": 8175, "\u0120outsiders": 8176, "\u0120cri": 8177, "\u012010": 8178, "ING": 8179, "\u0120couldn": 8180, "LG": 8181, "\u0120).": 8182, "pic": 8183, "\u0120Renewable": 8184, "\u0120Yom": 8185, "\u0120Jesse": 8186, "\u0120Ave": 8187, "\u0120wrapping": 8188, "cycle": 8189, "\u00c3\u00b0": 8190, "\u0120UN": 8191, "\u0120illiterate": 8192, "glacial": 8193, "\u00d9\u0134": 8194, "\u0120buff": 8195, "itudes": 8196, "\u0120proved": 8197, "\u0120gallons": 8198, "\u0120signed": 8199, "\u0120Res": 8200, "\u0120implementations": 8201, "\u0120Himalayan": 8202, "\u0120neo": 8203, "180": 8204, "\u0120ar": 8205, "\u0120Belgian": 8206, "\u0120stabilize": 8207, "\u0120\u00e2\u0122\u013e": 8208, "iff": 8209, "\u0120Eat": 8210, "\u0120topped": 8211, "\u0120sockets": 8212, "know": 8213, "Philosoph": 8214, "\u0120cups": 8215, "\u0120danced": 8216, "\u0120also": 8217, "olved": 8218, "\u0120dotted": 8219, "\u0120indicates": 8220, "\u0120southwestern": 8221, "Im": 8222, "\u0120microprocessor": 8223, "\u0120unr": 8224, "\u0120contact": 8225, "\u0120propel": 8226, "noid": 8227, "\u0120Publications": 8228, "\u00d2": 8229, "\u0120geographic": 8230, "\u0120voluntarily": 8231, "\u0120replenish": 8232, "bo": 8233, "plus": 8234, "\u0120\u00c3\u012b": 8235, "\u0120Ent": 8236, "\u0120TCP": 8237, "\u0120constitutional": 8238, "dium": 8239, "\u0120Temporary": 8240, "\u0120pi": 8241, "\u0120Gentiles": 8242, "\u0120Biography": 8243, "AG": 8244, "\u0120bone": 8245, "\u0120Scho": 8246, "\u0120subsidi": 8247, "\u0120Kaplan": 8248, "\u0120\u00e6": 8249, "\u0120Saraswati": 8250, "\u0120abduction": 8251, "\u0120tougher": 8252, "\u0120-": 8253, "\u0120rabies": 8254, "\u0120rev": 8255, "\u0120synchron": 8256, "\u0120Pediatr": 8257, "\u0120Supper": 8258, "\u0120closer": 8259, "\u0120Astrophysics": 8260, "\u0120rectum": 8261, "\u0120wet": 8262, "\u0120cumulative": 8263, "balls": 8264, "\u0120Burgess": 8265, "\u0120popularity": 8266, "\u0120Navigator": 8267, "\u0120epi": 8268, "\u0120chose": 8269, "ment": 8270, "ret": 8271, "\u0120Palm": 8272, "\u0120railways": 8273, "\u012076": 8274, "Michel": 8275, "\u0120Poe": 8276, "\u0120mutual": 8277, "zzi": 8278, "chner": 8279, "ares": 8280, "\u0120Head": 8281, "cop": 8282, "\u0120b": 8283, "\u0120monasteries": 8284, "change": 8285, "\u0120fixture": 8286, "female": 8287, "\u0120harass": 8288, "\u0120Gary": 8289, "\u0120Bernard": 8290, "rica": 8291, "ceive": 8292, "\u0120pick": 8293, "Ka": 8294, "adult": 8295, "hoe": 8296, "\u0120righteousness": 8297, "\u0120Catechism": 8298, "\u0120inbox": 8299, "\u0120dismiss": 8300, "uly": 8301, "\u0120Pacific": 8302, "\u0120urination": 8303, "\u0120transported": 8304, "\u0120flooded": 8305, "z": 8306, "\u0120Kennedy": 8307, "\u0120Inter": 8308, "\u0120Butter": 8309, "\u0120trust": 8310, "\u0120drag": 8311, "\u0120Len": 8312, "\u0120usefulness": 8313, "\u0120magazine": 8314, "\u0120critique": 8315, "\u0120dark": 8316, "\u0120Basil": 8317, "\u0120derivation": 8318, "\u0120nuisance": 8319, "\u0120spices": 8320, "bbing": 8321, "\u0120afflict": 8322, "\u0120Mathematica": 8323, "\u0120Purpose": 8324, "\u0120Second": 8325, "Cur": 8326, "\u0120smarter": 8327, "\u0120Iroquois": 8328, "Key": 8329, "\u0120polite": 8330, "\u0120kite": 8331, "English": 8332, "\u0120Capulet": 8333, "\u0120Messianic": 8334, "\u0120dignity": 8335, "Buddh": 8336, "\u0120Bern": 8337, "\u0120mackerel": 8338, "\u0120Ontario": 8339, "\u0120reproduced": 8340, "spatial": 8341, "\u0120Pierre": 8342, "ou": 8343, "\u0120Syria": 8344, "\u0120Base": 8345, "\u0120Papers": 8346, "\u0120criterion": 8347, "\u0120occasional": 8348, "\u0120chick": 8349, "\u0120completing": 8350, "\u00e2\u0122\u0133": 8351, "\u0120Taking": 8352, "\u0120Chain": 8353, "\u0120floods": 8354, "nging": 8355, "\u0120Examination": 8356, "\u0120Geo": 8357, "fia": 8358, "\u0120Gadamer": 8359, "\u0120detecting": 8360, "\u0120interstitial": 8361, "\u0120105": 8362, "\u0120attitudes": 8363, "\u0120retrofit": 8364, "\u0120enzymatic": 8365, "\u0120Thu": 8366, "\u0120embarrassment": 8367, "\u0120cubes": 8368, "model": 8369, "20": 8370, "\u0120Epi": 8371, "\u0120picturesque": 8372, "\u0120Assyrian": 8373, "\u0120sunburn": 8374, "Christ": 8375, "\u0120themes": 8376, "HA": 8377, "\u0120cli": 8378, "\u0120bracket": 8379, "\u0120bears": 8380, "\u0120developers": 8381, "\u0120Granada": 8382, "\u0120piety": 8383, "resistant": 8384, "\u0120avoids": 8385, "\u0120Archive": 8386, "\u0120brakes": 8387, "\u0120investigate": 8388, "Med": 8389, "\u0120confinement": 8390, "\u0120accommodating": 8391, "\u0120Hos": 8392, "\u0120reinforcement": 8393, "\u0120baths": 8394, "\u0120cloth": 8395, "\u0120shale": 8396, "\u0120play": 8397, "\u0120clomipramine": 8398, "\u0120Rec": 8399, "for": 8400, "\u0120Kn": 8401, "()": 8402, "\u0120Answer": 8403, "\u0120Office": 8404, "\u0120cessation": 8405, "\u0120FCC": 8406, "92": 8407, "angled": 8408, "\u0120grading": 8409, "\u0120sub": 8410, "\u0120stratosphere": 8411, "\u0120manifested": 8412, "\u0120alterations": 8413, "\u0120solely": 8414, "\u0120homotopy": 8415, "\u0120BR": 8416, "\u00d8": 8417, "\u0120Romantic": 8418, "\u0120micro": 8419, "availability": 8420, "\u0120ER": 8421, "\u0120centred": 8422, "\u0120Major": 8423, "\u0120unwelcome": 8424, "\u0120semaphore": 8425, "\u0120Tobago": 8426, "\u0120fraud": 8427, "\u0120spiritually": 8428, "\u0120Centauri": 8429, "\u0120fame": 8430, "\u0120pastures": 8431, "\u0120ambitious": 8432, "\u0120acquisition": 8433, "\u0120pertussis": 8434, "\u0120handbook": 8435, "Mis": 8436, "\u0120irreversible": 8437, "\u0120Professional": 8438, "\u0120Bloom": 8439, "WD": 8440, "\u0120roofing": 8441, "\u0120rituals": 8442, "\u0120Optim": 8443, "lings": 8444, "\u0120mount": 8445, "\u0120exec": 8446, "\u0120footsteps": 8447, "\").": 8448, "\u0120Symbols": 8449, "\u0120orbits": 8450, "\u0120externally": 8451, "GA": 8452, "Four": 8453, "\u0120excerpt": 8454, "\u0120Her": 8455, "\u01201872": 8456, "pods": 8457, "\u0120persist": 8458, "ett": 8459, "\u0120GUI": 8460, "\u0120Bulletin": 8461, "glu": 8462, "\u0120pastor": 8463, "\u00e2\u0122\u00a6.": 8464, "\u0120vegetables": 8465, "\u0120baboons": 8466, "\u0120slender": 8467, "\u0120smelt": 8468, "\u0120hue": 8469, "\u0120variant": 8470, "\u0120Flying": 8471, "alia": 8472, "2012": 8473, "\u0120towards": 8474, "\u0120450": 8475, "\u0120mild": 8476, "\u0120integrity": 8477, "\u0120iPad": 8478, "\u0120Custodian": 8479, "\u0120PO": 8480, "\u0120Cancun": 8481, "ides": 8482, "\u0120Jewish": 8483, "\u0120Paint": 8484, "sks": 8485, "\u0120Plateau": 8486, "tos": 8487, "lein": 8488, "\u0120Venus": 8489, "\u0120tiger": 8490, "evident": 8491, "\u0120comply": 8492, "\u0120preeminent": 8493, "esa": 8494, "\u0120sick": 8495, "\u0120reacted": 8496, "\u0120decimal": 8497, "\u0120weaknesses": 8498, "\u0120lyric": 8499, "\u0120Mosque": 8500, "rail": 8501, "\u0120Flood": 8502, "\u0120wonderfully": 8503, "\u0120realizing": 8504, "\u0120include": 8505, "\u0120CF": 8506, "ffer": 8507, "\u0120Judge": 8508, "gro": 8509, "\u0120cerebellum": 8510, "\u0120Sanb\u00c3\u00b4ky\u00c3\u00b4dan": 8511, "\u0120Edwin": 8512, "\u0120idolatry": 8513, "\u0120Stream": 8514, "\u0120motivating": 8515, "\u0120posts": 8516, "\u0120Baptist": 8517, "\u0120distraction": 8518, "\u0120arch": 8519, "\u00c3\u00bcn": 8520, "View": 8521, "\u0120Eurasia": 8522, "\u0120behaviors": 8523, "\u0120glob": 8524, "\u0120specializing": 8525, "Create": 8526, "\u0120universities": 8527, "\u0120Normandy": 8528, "\u0120hepato": 8529, "health": 8530, "\u0120resembling": 8531, "ov": 8532, "\u0120Exp": 8533, "\u0120migratory": 8534, "\u0120query": 8535, "crates": 8536, "\u0120occupies": 8537, "\u0120entail": 8538, "\u0120Saddam": 8539, "vic": 8540, "\u0120Jehoiakim": 8541, "\u0120rub": 8542, "metal": 8543, "dependent": 8544, "\u0120improvement": 8545, "\u0120silence": 8546, "\u0120GL": 8547, "\u0120stu": 8548, "River": 8549, "\u0120Denis": 8550, "\u0120genealogi": 8551, "bush": 8552, "\u01201936": 8553, "\u0120ticks": 8554, "\u0120macro": 8555, "nation": 8556, "\u0120Questionnaire": 8557, "\u0120Official": 8558, "\u0120burrows": 8559, "\u0120archive": 8560, "\u0120``": 8561, "\u0120Max": 8562, "\u0120shocked": 8563, "\u0120trick": 8564, "pl": 8565, "hab": 8566, "renewable": 8567, "\u0120Marsh": 8568, "\u0120Nashville": 8569, "ath": 8570, "\u0120Sherman": 8571, "\u0120prowess": 8572, "pies": 8573, "hang": 8574, "\u0120Conversely": 8575, "\u0120tilapia": 8576, "Many": 8577, "\u0120tuition": 8578, "\u0120gambling": 8579, "\u0120critical": 8580, "uma": 8581, "\u0120spheres": 8582, "\u0120indicative": 8583, "\u0120Unfortunately": 8584, "noun": 8585, "\u0120mar": 8586, "\u0120temperament": 8587, "forest": 8588, "\u0120exclusively": 8589, "\u0120Karl": 8590, "\u0120165": 8591, "\u0120startling": 8592, "\u0120Recent": 8593, "\u0120Rel": 8594, "\u0120CSIRO": 8595, "wave": 8596, "TV": 8597, "ERS": 8598, "gby": 8599, "\u0120rocket": 8600, "\u0120exposes": 8601, "\u0120mph": 8602, "\u0120Normal": 8603, "\u0120ischemic": 8604, "\u0120agreeing": 8605, "\u0120everyone": 8606, "\u0120flaw": 8607, ").\u00e2\u0122\u013f": 8608, "pala": 8609, "\u0120standpoint": 8610, "about": 8611, "says": 8612, "\u0120Sparta": 8613, "dee": 8614, "xia": 8615, "\u0120electrolyte": 8616, "\u0120Gil": 8617, "im": 8618, "\u0120powers": 8619, "\u0120exceptional": 8620, "\u00b6": 8621, "\u0120Deacon": 8622, "\u0120cosmos": 8623, "vies": 8624, "\u0120remind": 8625, "\u0120painters": 8626, "\u0120painful": 8627, "\u0126": 8628, "method": 8629, "\u0120bass": 8630, "\u0120dividing": 8631, "\u0120studying": 8632, "\u0120Accessed": 8633, "\u0120Zan": 8634, "\u0120bricks": 8635, "\u0120tertiary": 8636, "\u0120amended": 8637, "\u0120Basin": 8638, "\u0120another": 8639, "izophrenia": 8640, "\u0120permissions": 8641, "\u0120file": 8642, "\u0120Institute": 8643, "\u0120variations": 8644, "\u0120directors": 8645, "\u0120computing": 8646, "\u0120bolts": 8647, "mp": 8648, "\u0120wagon": 8649, "\u0120defensive": 8650, "\u0120sponsor": 8651, "abad": 8652, "\u0120encourage": 8653, "frame": 8654, "\u0120Make": 8655, "\u0120Scrolls": 8656, "\u0120dead": 8657, "\u0120unjust": 8658, "\u0120ferment": 8659, "\u0120Yet": 8660, "\u0120dre": 8661, "\u0120gestures": 8662, "\u0120vis": 8663, "\u0120Bio": 8664, "\u0120arguably": 8665, "\u0120toler": 8666, "\u0120Commerce": 8667, "\u0120Specific": 8668, "\u0120unrelated": 8669, "\u0120glove": 8670, "\u0120amniocentesis": 8671, "aring": 8672, "\u0120Therapeutic": 8673, "\u0120coated": 8674, "bility": 8675, "\u0120justify": 8676, "\u0120neighborhood": 8677, "\u0120Territory": 8678, "\u00d7\u0137": 8679, "check": 8680, "\u012054": 8681, "\u0120advertisements": 8682, "\u0120Arms": 8683, "\u0120simulated": 8684, "\u0120highway": 8685, "\u0120diaphragm": 8686, "\u0120groove": 8687, "veh": 8688, "lain": 8689, "\u0120sulph": 8690, "iss": 8691, "\u0120retain": 8692, "tsu": 8693, "\u0120Skin": 8694, "membran": 8695, "\u0120multiply": 8696, "\u0120downward": 8697, "\u0120obsolete": 8698, "\u0120Ford": 8699, "lift": 8700, "\u0120Irish": 8701, "\u0120n\u00c4\u0123dis": 8702, "neck": 8703, "\u0120difficult": 8704, "\u0120composed": 8705, "\u0120Balance": 8706, "Image": 8707, "\u0120da": 8708, "cess": 8709, "\u0120sep": 8710, "\u0120Alexandr": 8711, "tl": 8712, "\u0120divine": 8713, "\u0120Tocqueville": 8714, "rays": 8715, "\u0120penis": 8716, "conflict": 8717, "\u0120filament": 8718, "\u0120Cambridge": 8719, "\u0120Tin": 8720, "\u0120Command": 8721, "tale": 8722, "\u0120invoked": 8723, "\u0120labyrinth": 8724, "\u0120endemic": 8725, "\u012027": 8726, "\u0120temporarily": 8727, "\u0120apex": 8728, "\u0120e": 8729, "\u01202100": 8730, "think": 8731, "\u0120Target": 8732, "\u0120respects": 8733, "\u00c3\u00a5": 8734, "Sen": 8735, "\u0120Beck": 8736, "\u0120semantics": 8737, "\u0120Aparecida": 8738, "\u0120variously": 8739, "\u0120atmosphere": 8740, "\u0120encode": 8741, "\u0120isn": 8742, "Unit": 8743, "\u0120infer": 8744, "\u0120municipal": 8745, "\u0120volunteer": 8746, "\u0120necessarily": 8747, "\u0120retiring": 8748, "\u0120manipulative": 8749, "\u0120Selection": 8750, "\u0120Democrat": 8751, "\u0120Mel": 8752, "\u0120judiciary": 8753, "\u0120inhibiting": 8754, "\u0120Editorial": 8755, "\u0120Fields": 8756, "\u0120Portuguese": 8757, "\u0120NHS": 8758, "\u0120batch": 8759, "\u0120Cambodian": 8760, "\u0120Craft": 8761, "\u0120trumpet": 8762, "\u0120threatens": 8763, "\u0120ethnicity": 8764, "Ni": 8765, "II": 8766, "\u0120exchange": 8767, "\u0120positions": 8768, "\u0120Equipment": 8769, "sby": 8770, "\u0120tenderness": 8771, "\u0120Taxonomy": 8772, "\u00d9\u012c": 8773, "\u0120abnormally": 8774, "\u0120visible": 8775, "NH": 8776, "plasma": 8777, "\u0120Islander": 8778, "\u0120amassed": 8779, "\u0120fragment": 8780, "\u0120emitted": 8781, "\u0120beginnings": 8782, "\u0120bells": 8783, ")]": 8784, "\u0120knowledge": 8785, "\u0120amalgam": 8786, "\u0120scaffold": 8787, "foreign": 8788, "\u0120era": 8789, "bon": 8790, "\u0120Fellowship": 8791, "\u0120rat": 8792, "\u0120listening": 8793, "\u0120prepare": 8794, "Since": 8795, "\u0120hawk": 8796, "\u0120jealous": 8797, "industry": 8798, "\u0120honey": 8799, "\u0120famed": 8800, "\u01201867": 8801, "\u0120Fukushima": 8802, "\u0120Raw": 8803, "\u0120Series": 8804, "58": 8805, "\u0120Videos": 8806, "\u0120auto": 8807, "\u0120Prev": 8808, "\u0120rhetorical": 8809, "\u0120illuminated": 8810, "\u0120com": 8811, "\u0120momentum": 8812, "\u0120History": 8813, "\u0120su": 8814, "\u0120Community": 8815, "\u0120sizes": 8816, "\u0120Am": 8817, "\u0120beautifully": 8818, "\u0120www": 8819, "\u0120current": 8820, "\u0120Atlantis": 8821, "\u0120barrel": 8822, "\u0120judicious": 8823, "\u0120ATP": 8824, "\u0120invoke": 8825, "\u0120knit": 8826, "\u0120phospho": 8827, "\u0120struggling": 8828, "\u0120crimes": 8829, "\u01201200": 8830, "\u0120counterfeit": 8831, "\u0120Dover": 8832, "\u0120alluvial": 8833, "MO": 8834, "\u0120Topeka": 8835, "\u0120omni": 8836, "ecting": 8837, "lays": 8838, "\u0120darkness": 8839, "\u0120arguments": 8840, "\u0120crushing": 8841, "q": 8842, "\u0120ICD": 8843, "\u0120Faith": 8844, "\u0120Few": 8845, "cclesiast": 8846, "300": 8847, "\u0120plans": 8848, "ent": 8849, "\u0120meaningless": 8850, "\u0120shade": 8851, "\u0120copyright": 8852, "\u0120Po": 8853, "\u0120tip": 8854, "\u0120MiG": 8855, "\u0120Funding": 8856, "\u0120wines": 8857, "\u0120reap": 8858, "found": 8859, "\u0120Guardian": 8860, "\u0120worship": 8861, "fusion": 8862, "\u0120Cur": 8863, "\u0120festivals": 8864, "Weather": 8865, "\u0120recalls": 8866, "Le": 8867, "\u0120pagan": 8868, "\u0120weapons": 8869, "\u0120Eighth": 8870, "\u0120surpass": 8871, "\u0120Rather": 8872, "\u0120preface": 8873, "ases": 8874, "\u0120Rare": 8875, "\u0120researching": 8876, "\u0120Sustainable": 8877, "opportun": 8878, "\u0120delight": 8879, "\u0120presently": 8880, "\u0120Collection": 8881, "\u0120Bryant": 8882, "\u0120shore": 8883, "\u0120remove": 8884, "\u0120fa": 8885, "\u0120riot": 8886, "\u0120weekends": 8887, "\u0120geometry": 8888, "pository": 8889, "\u0120Henry": 8890, "\u0120heap": 8891, "\u0120Frost": 8892, "Auto": 8893, "Fig": 8894, "\u0120Rockies": 8895, "\u0120Jericho": 8896, "hen": 8897, "\u0120sometimes": 8898, "\u0120Horizon": 8899, "xo": 8900, "\u0120differs": 8901, "\u0120protocol": 8902, "\u0120supplementary": 8903, "\u0120Sensitivity": 8904, "\u0120Kids": 8905, "\u0120Commission": 8906, "UE": 8907, "\u0120backwards": 8908, "Cu": 8909, "\u0120unequal": 8910, "Philadelphia": 8911, "\u0120brake": 8912, "\u0120homeowner": 8913, "\u0120sharp": 8914, "\u0120turbulent": 8915, "CR": 8916, "\u0120raids": 8917, "Bacteria": 8918, "/": 8919, "\u0120Agenda": 8920, "\u0120Remember": 8921, "\u0120operators": 8922, "wers": 8923, "\u0120hoping": 8924, "\u0120riches": 8925, "\u0120salad": 8926, "\u0120projectile": 8927, "\u0120Invest": 8928, "\u0120eleventh": 8929, "\u0120cafeteria": 8930, "\u0120globally": 8931, "\u0120eagles": 8932, "\u0120squares": 8933, "\u0120preschool": 8934, "rooms": 8935, "\u0120sluggish": 8936, "\u0120connect": 8937, "\u0120perennial": 8938, "\u0120alcohol": 8939, "\u0120flexible": 8940, "possible": 8941, "\u0120Berger": 8942, "atmosphere": 8943, "plicity": 8944, "drop": 8945, "\u0120Ord": 8946, "ema": 8947, "\u0120originates": 8948, "\u0120seal": 8949, "\u0120spindle": 8950, "\u0120deep": 8951, "\u0120gi": 8952, "lish": 8953, "\u0120Bethlehem": 8954, "rush": 8955, "IAN": 8956, "\u0120exposed": 8957, "\u0120Reconciliation": 8958, "\u0120apo": 8959, "acc": 8960, "\u0120preaching": 8961, "isal": 8962, "\u0120transit": 8963, "NIH": 8964, "\u0120calculator": 8965, "what": 8966, "\u0120phosphate": 8967, "\u0120reflection": 8968, "\u0120came": 8969, "\u0120detriment": 8970, "\u0120Et": 8971, "\u0120crystal": 8972, "\u0120cortex": 8973, "\u0120composers": 8974, "\u0120directing": 8975, "\u0120flowed": 8976, "\u0120Mongol": 8977, "\u0120Deut": 8978, "\u0120fighter": 8979, "\u0120Hiroshige": 8980, "\u0120turnover": 8981, "\u0120Romans": 8982, "\u0120fibrous": 8983, "\u0120ven": 8984, "nunciation": 8985, "column": 8986, "tree": 8987, "\u0120discrimination": 8988, "\u0120Force": 8989, "info": 8990, "\u0120wastes": 8991, "\u0120defence": 8992, "arc": 8993, "\u0120lose": 8994, "\u0120diagnose": 8995, "\u0120tapping": 8996, "\u0120bail": 8997, "\u0120world": 8998, "\u0120Judaism": 8999, "\u0120plea": 9000, "bone": 9001, "\u0120Allison": 9002, "\u0120133": 9003, "\u0120Bur": 9004, "\u0120ethnographic": 9005, "\u0120Nurses": 9006, "safety": 9007, "library": 9008, "\u0120fuel": 9009, "\u0120divergence": 9010, "\u01201945": 9011, "\u0120Wool": 9012, "Encyclopedia": 9013, "\u0120Nehru": 9014, "ider": 9015, "\u0120live": 9016, "\u0120renamed": 9017, "E": 9018, "\u0123": 9019, "\u0120likeness": 9020, "\u0120retains": 9021, "\u0120Chesapeake": 9022, "engineering": 9023, "\u0120Pharisees": 9024, "\u0120While": 9025, "\u0120volcanoes": 9026, "\u0120enjoying": 9027, "\u0120moral": 9028, "\u0120contracted": 9029, "\u0120antiseptic": 9030, "\u0120cheeses": 9031, "new": 9032, "\u0120place": 9033, "\u0120squirrels": 9034, "\u0120get": 9035, "\u0120notions": 9036, "\u0120satisfactorily": 9037, "\u0120zone": 9038, "\u0120streetcars": 9039, "\u0120Herb": 9040, "\u0120AZ": 9041, "\u0120Always": 9042, "grow": 9043, "\u0120Guidance": 9044, "\u0120presented": 9045, ".\u00e2\u0122\u013b": 9046, "\u0120intervening": 9047, "\u0120emergence": 9048, "\u0120vapor": 9049, "\u0120Kar": 9050, "\u0120Lisp": 9051, "van": 9052, "\u0120unseen": 9053, "USE": 9054, "\u0120ignore": 9055, "\u0120empire": 9056, "academic": 9057, "\u0120Xinjiang": 9058, "\u0120got": 9059, "\u0120entom": 9060, "\u0120Understand": 9061, "\u0120Slov": 9062, "most": 9063, "\u0120Original": 9064, "\u0120survives": 9065, "\u0120uncertain": 9066, "pet": 9067, "\u0120quietly": 9068, "Script": 9069, "\u0120Spectrum": 9070, "\u0120Tal": 9071, "\u0120Bibli": 9072, "SL": 9073, "ELL": 9074, "oop": 9075, "edge": 9076, "\u0120bridegroom": 9077, "\u0120peaks": 9078, "regard": 9079, "great": 9080, "CM": 9081, "\u0120Comet": 9082, ")-": 9083, "\u0120correctly": 9084, "\u0120vor": 9085, "ami": 9086, "Thou": 9087, "\u0120sneezing": 9088, "\u0120canopy": 9089, "\u0120statistically": 9090, "\u0120Jr": 9091, "\u0120136": 9092, "uous": 9093, "\u0120vow": 9094, "\u0120dia": 9095, "\u0120paddle": 9096, "Nano": 9097, "Edward": 9098, "Take": 9099, "\u0120Hard": 9100, "\u0120blankets": 9101, "\u0120circumstance": 9102, "\u0120focal": 9103, "Healthy": 9104, "essing": 9105, "\u0120Might": 9106, "\u0120tank": 9107, "\u0120as": 9108, "\u0120evacuate": 9109, "zz": 9110, "discover": 9111, "\u00d7\u0137\u00d7": 9112, "\u0120canals": 9113, "\u0120hips": 9114, "\u0120Corona": 9115, "\u0120apt": 9116, "\u0120informal": 9117, "\u0120Wil": 9118, "\u0120coordinating": 9119, "\u0120Anthony": 9120, "\u0120legitimacy": 9121, "AIN": 9122, "\u0120biofuels": 9123, "Depression": 9124, "\u0120Generalissimo": 9125, "Eating": 9126, "\u0120separately": 9127, "\u0120arXiv": 9128, "WHAT": 9129, "\u0120Enter": 9130, "\u0120decreed": 9131, "cz": 9132, "\u0120hiking": 9133, "\u0120Quant": 9134, "\u0120subjective": 9135, "\u0120acro": 9136, "\u0120scalar": 9137, "Updated": 9138, "\u0120coat": 9139, "ards": 9140, "\u0120thoughtful": 9141, "informed": 9142, "\u0120magical": 9143, "ator": 9144, "\u0120affective": 9145, "\u0120commenced": 9146, "\u0120tailor": 9147, "\u0120Rattlesnake": 9148, "\u0120holders": 9149, "\u0120crucified": 9150, "yk": 9151, "\u0120heat": 9152, "iii": 9153, "\u0120Serpent": 9154, "\u0120Garrison": 9155, "\u0120businessman": 9156, "\u0120Bol": 9157, "\u0120yes": 9158, "pee": 9159, "\u0120CW": 9160, "\u0120Pierce": 9161, "\u0120constellations": 9162, "\u0120Small": 9163, "\u0120clandestine": 9164, "\u0120dont": 9165, "\u0120definition": 9166, "\u0120ocean": 9167, "\u0120concerned": 9168, "\u0120constitutions": 9169, "\u0120atrophy": 9170, "ief": 9171, "\u0120museum": 9172, "ori": 9173, "demeanor": 9174, "born": 9175, "\u0120'": 9176, "\u0120keeps": 9177, "\u0120thousands": 9178, "\u0120phases": 9179, "\u0120first": 9180, "\u0120Flickr": 9181, "values": 9182, "\u0120trillion": 9183, "ns": 9184, "\u0120institute": 9185, "erate": 9186, "\u0120dishes": 9187, "\u0120kick": 9188, "ict": 9189, "\u0120lavish": 9190, "\u0120interests": 9191, "cible": 9192, "\u0120Expect": 9193, "\u0120rewarding": 9194, "\u0120radial": 9195, "\u0120conversion": 9196, "\u0120guiding": 9197, "again": 9198, "Para": 9199, "\u0120door": 9200, "\u0120glaucoma": 9201, "\u0120friend": 9202, "\u0120artery": 9203, "\u0120omit": 9204, "\u0120lobes": 9205, "\u0120baggage": 9206, "\u0120Fernando": 9207, "\u0120Massacre": 9208, "ont": 9209, "\u0120Hospital": 9210, "\u0120Applications": 9211, "uka": 9212, "\u0120Bat": 9213, "\u0120ribs": 9214, "\u0120Dogs": 9215, "oys": 9216, "\u0120hereby": 9217, "\u0120amplify": 9218, "\u0120borders": 9219, "one": 9220, "\u0120modest": 9221, "\u0120Dixie": 9222, "\u0120hints": 9223, "depressants": 9224, "\u00ca": 9225, "iosis": 9226, "\u01201853": 9227, "run": 9228, "\u0120Power": 9229, "\u01201826": 9230, "\u0120refused": 9231, "\u0120answering": 9232, "\u0120LGBT": 9233, "\u0120lateral": 9234, "\u0120U": 9235, "\u0120111": 9236, "\u0120300": 9237, "\u0120Fla": 9238, "\u0120effectively": 9239, "lord": 9240, "\u0120TM": 9241, "\u0120Exhibit": 9242, "ced": 9243, "\u0120lowest": 9244, "\u0120insurrection": 9245, "\u0120Autonomous": 9246, "\u0120leuk": 9247, "population": 9248, "disciplinary": 9249, "\u0120experienced": 9250, "\u0120squad": 9251, "\u0120testosterone": 9252, "os": 9253, "\u0120Sri": 9254, "\u0120Wo": 9255, "Ass": 9256, "Besides": 9257, "\u0120Loyola": 9258, "\u0120OC": 9259, "inger": 9260, "\u0120helping": 9261, "tley": 9262, "quired": 9263, "\u0120deficiency": 9264, "\u0120inspection": 9265, "\u0120capacitor": 9266, "Plan": 9267, "\u0120fleeing": 9268, "\u0120ecoregion": 9269, "\u0120rhino": 9270, "\u0120unanimous": 9271, "\u0120EE": 9272, "\u0120stereotype": 9273, "Listen": 9274, "Plus": 9275, "\u0120epidemiologist": 9276, "fting": 9277, "Technology": 9278, "\u0120specifications": 9279, "\u0120DEC": 9280, "\u0120pursue": 9281, "athing": 9282, "\u0120PR": 9283, "\u0120fires": 9284, "Then": 9285, "\u0120pig": 9286, "\u0120unfortunate": 9287, "UK": 9288, "\u0120Sentence": 9289, "\u0120remains": 9290, "\u0120RR": 9291, "wen": 9292, "\u0120resistance": 9293, "\u0120waterfront": 9294, "\u0120dem": 9295, "\u0120hectares": 9296, "\u0120bordering": 9297, "\u0120specifically": 9298, "\u0120ruling": 9299, "ap": 9300, "\u0120Lutheran": 9301, "\u0120scream": 9302, "\u0120containers": 9303, "\u0120WWF": 9304, "\u0120grinding": 9305, "\u0120swamp": 9306, "\u0120cleavage": 9307, "vering": 9308, "\u0120Bin": 9309, "\u0120ethno": 9310, "\u0120Move": 9311, "\u0120chunks": 9312, "judicial": 9313, "\u0120lig": 9314, "\u0120Miami": 9315, "\u0120homeopathic": 9316, "mounted": 9317, "\u0120stupid": 9318, "\u0120primarily": 9319, "120": 9320, "\u0120changing": 9321, "orting": 9322, "\u0120building": 9323, "\u0120Achaemenid": 9324, "\u0120Unicode": 9325, "truth": 9326, "\u0120echoed": 9327, "motion": 9328, "\u0120socialism": 9329, "\u0120manoeuvr": 9330, "\u0120investigator": 9331, "\u0120Treatment": 9332, "administ": 9333, "\u0120Humanities": 9334, "\u0120Matter": 9335, "\u0120contour": 9336, "Peripheral": 9337, "\u0120descriptive": 9338, "Harvard": 9339, "\u00d0\u00be\u00d0\u00b2": 9340, "\u0120seniors": 9341, "imi": 9342, "\u0120alkaline": 9343, "fig": 9344, "\u0120lethal": 9345, "\u0120Julia": 9346, "KS": 9347, ":|": 9348, "\u0120cultivars": 9349, "cott": 9350, "\u0120deputy": 9351, "\u0120younger": 9352, "\u0120database": 9353, "\u0120deed": 9354, "\u0120pm": 9355, "\u0120rodent": 9356, "ROM": 9357, "\u0120**": 9358, "\u0120voyages": 9359, "\u0120preservative": 9360, "gender": 9361, "therapeutic": 9362, "\u0120mesh": 9363, "\u0120communicate": 9364, "\u0120Aberdeen": 9365, "\u0120landscaping": 9366, "\u0120disgust": 9367, "tolerant": 9368, "valence": 9369, "\u0120salt": 9370, "\u0120smallest": 9371, "\u0120drilled": 9372, "\u0120purposes": 9373, "Arizona": 9374, "\u0120confirms": 9375, "L": 9376, "\u0120accredited": 9377, "\u0120Harold": 9378, "difficult": 9379, "sign": 9380, "\u0120Davenport": 9381, "\u0120Har": 9382, "\u0120Perl": 9383, "\u0120turkey": 9384, "\u0120seed": 9385, "GNU": 9386, "\u0120Walter": 9387, "placing": 9388, "\u0120deer": 9389, "\u0120WI": 9390, "\u0120thyroid": 9391, "\u0120achieving": 9392, "\u0120pra": 9393, "\u0120partisan": 9394, "\u0120Belt": 9395, "\u0120cohesive": 9396, "\u0120irritated": 9397, "\u0120healthy": 9398, "\u0120sword": 9399, "sil": 9400, "stu": 9401, "\u0120questioning": 9402, "\u0120partner": 9403, "\u0120Horse": 9404, "\u0120Talmud": 9405, "\u0120assault": 9406, "\u0120participant": 9407, "empt": 9408, "\u0120study": 9409, "sum": 9410, "eliac": 9411, "\u0120medals": 9412, "Jacque": 9413, "nos": 9414, "ars": 9415, "direct": 9416, "\u0120Donald": 9417, "\u0120revolution": 9418, "\u0120Clyde": 9419, "\u0120Israelites": 9420, "cher": 9421, "\u0120Be": 9422, "\u0120select": 9423, "\u0120Edwards": 9424, "\u0120guy": 9425, "Overall": 9426, "\u0120Bah\u00c3\u00a1": 9427, "\u01201916": 9428, "Son": 9429, "esarean": 9430, "\u0120health": 9431, "\u0120Cliff": 9432, "\u0120protections": 9433, "\u0120Students": 9434, "\u0120Eng": 9435, "fires": 9436, "wise": 9437, "\u00ce\u00ba": 9438, "amen": 9439, "Popular": 9440, "\u0120belts": 9441, "ospheric": 9442, "\u0120Hmong": 9443, "\u0120predicted": 9444, "\u0120Unit": 9445, "crete": 9446, "\u0120flocks": 9447, "\u0120Cooperative": 9448, "\u0120dollar": 9449, "fill": 9450, "\u0120Michelle": 9451, "jar": 9452, "woman": 9453, "\u0120Crop": 9454, "\u0120diary": 9455, "\u0120polystyrene": 9456, "\u0120pastoral": 9457, "\u0120fully": 9458, "\u0120High": 9459, "\u0120Sacred": 9460, "\u0120Dawson": 9461, "acles": 9462, "\u0120lax": 9463, "\u0120By": 9464, "\u0120Illustrated": 9465, "bing": 9466, "\u0120discourse": 9467, "pass": 9468, "TIONS": 9469, "\u0120ecologically": 9470, "chel": 9471, "214": 9472, "\u0120Mus": 9473, "\u0120art": 9474, "\u0120bullied": 9475, "\u0120IMMEDIATE": 9476, "\u0120degraded": 9477, "\u0120knowledgeable": 9478, "\u0120insurg": 9479, "\u0120scriptures": 9480, "\u0120NGC": 9481, "icides": 9482, "\u0120overall": 9483, "\u0120bloom": 9484, "\u0120drafts": 9485, "\u0120Bridges": 9486, "\u0120disabilities": 9487, "\u0120Tips": 9488, "\u0120coal": 9489, "\u0120IB": 9490, "Ex": 9491, "ships": 9492, "\u00e0": 9493, "north": 9494, "bars": 9495, "\u0120Savannah": 9496, "\u0120Marqu": 9497, "\u0120indignation": 9498, "DAY": 9499, "evaluation": 9500, "\u0120prolonged": 9501, "\u0120unsuitable": 9502, "\u0120hearing": 9503, "CN": 9504, "\u0120drafted": 9505, "\u0120vain": 9506, "\u0120south": 9507, "\u0120mussel": 9508, "Ang": 9509, "\u0120releasing": 9510, "\u0120repay": 9511, "ulin": 9512, "alism": 9513, "mond": 9514, "\u0120Stones": 9515, "\u0120Registration": 9516, "\u0120Weapons": 9517, "\u0120Dick": 9518, "153": 9519, "\u0120densely": 9520, "gue": 9521, "\u0120Ti": 9522, "\u0120drank": 9523, "\u0120patients": 9524, "\u0120occurred": 9525, "\u0120CAP": 9526, "\u0120discoveries": 9527, "\u0120preserved": 9528, "\u0120proudly": 9529, "\u0120[": 9530, "\u0120impose": 9531, "\u0120blacksmith": 9532, "\u0120microscopic": 9533, "\u0120injection": 9534, "\u0120recommend": 9535, "900": 9536, "\u0120hearings": 9537, "\u0120driver": 9538, "\u0120CAD": 9539, "\u0120Impression": 9540, "\u0120Schwe": 9541, "\u0120link": 9542, "\u0120Labs": 9543, "DB": 9544, "\u0120cores": 9545, "\u0120supposedly": 9546, "\u0120transport": 9547, "HTML": 9548, "\u0120around": 9549, "\u0120Vernon": 9550, "\u0120The": 9551, "\u0120class": 9552, "Genetic": 9553, "\u0120Emory": 9554, "\u0120purchased": 9555, "\u0120replacing": 9556, "\u0120Everest": 9557, "\u0120Ov": 9558, "\u0120exacerbated": 9559, "\u0120Background": 9560, "Following": 9561, "\u0120Road": 9562, "\u0120Springfield": 9563, "arity": 9564, "Ce": 9565, "\u0120archaeology": 9566, "\u0120cottage": 9567, "\u0120concert": 9568, "\u0120Racial": 9569, "\u0120credit": 9570, "Heavy": 9571, "\u0120Hum": 9572, "mental": 9573, "\u0120prophylactic": 9574, "achment": 9575, "\u01201890": 9576, "\u0120revise": 9577, "\u0120mule": 9578, "\u0120taxi": 9579, "Char": 9580, "\u0120examine": 9581, "\u0120described": 9582, "\u0120100": 9583, "light": 9584, "\u0120Party": 9585, "\u0120destination": 9586, "\u0120hole": 9587, "\u0120serves": 9588, "\u0120Prayer": 9589, "vision": 9590, "\u0120ghosts": 9591, "\u0120mixture": 9592, "\u0120compression": 9593, "\u0120Context": 9594, "pta": 9595, "plasm": 9596, "\u0120Cumberland": 9597, "Contra": 9598, "\u0120neutrinos": 9599, "Send": 9600, "ARE": 9601, "\u0120insecticide": 9602, "kr": 9603, "\u0120LDS": 9604, "\u0120governance": 9605, "\u0120Proclamation": 9606, "\u0120membership": 9607, "\u0120bon": 9608, "\u0120Bound": 9609, "Res": 9610, "\u0120Craig": 9611, "\u0120OB": 9612, "ffy": 9613, "\u0120rebirth": 9614, "\u0120SCA": 9615, "Fu": 9616, "joy": 9617, "\u0120sixth": 9618, "\u0120loading": 9619, "units": 9620, "\u0120tracing": 9621, "\u0120marketed": 9622, "\u0120proceedings": 9623, "\u0120Flanders": 9624, "\u0120Blue": 9625, "\u0120gloves": 9626, "\u0120profiling": 9627, "\u0120AFP": 9628, "dial": 9629, "\u0120Trent": 9630, "G": 9631, "oxy": 9632, "\u0120contacted": 9633, "\u0120parameter": 9634,
[...]
