{
  "version": "1.0",
  "truncation": null,
  "padding": null,
  "added_tokens": [
    {
      "id": 0,
      "content": "<|bos|>",
      "single_word": false,
      "lstrip": false,
      "rstrip": false,
      "normalized": false,
      "special": true
    },
    {
      "id": 1,
      "content": "<|user_start|>",
      "single_word": false,
      "lstrip": false,
      "rstrip": false,
      "normalized": false,
      "special": true
    },
    {
      "id": 2,
      "content": "<|user_end|>",
      "single_word": false,
      "lstrip": false,
      "rstrip": false,
      "normalized": false,
      "special": true
    },
    {
      "id": 3,
      "content": "<|assistant_start|>",
      "single_word": false,
      "lstrip": false,
      "rstrip": false,
      "normalized": false,
      "special": true
    },
    {
      "id": 4,
      "content": "<|assistant_end|>",
      "single_word": false,
      "lstrip": false,
      "rstrip": false,
      "normalized": false,
      "special": true
    },
    {
      "id": 5,
      "content": "<|python_start|>",
      "single_word": false,
      "lstrip": false,
      "rstrip": false,
      "normalized": false,
      "special": true
    },
    {
      "id": 6,
      "content": "<|python_end|>",
      "single_word": false,
      "lstrip": false,
      "rstrip": false,
      "normalized": false,
      "special": true
    },
    {
      "id": 7,
      "content": "<|output_start|>",
      "single_word": false,
      "lstrip": false,
      "rstrip": false,
      "normalized": false,
      "special": true
    },
    {
      "id": 8,
      "content": "<|output_end|>",
      "single_word": false,
      "lstrip": false,
      "rstrip": false,
      "normalized": false,
      "special": true
    },
    {
      "id": 9,
      "content": "<|unk|>",
      "single_word": false,
      "lstrip": false,
      "rstrip": false,
      "normalized": false,
      "special": true
    }
  ],
  "normalizer": null,
  "pre_tokenizer": {
    "type": "Sequence",
    "pretokenizers": [
      {
        "type": "Split",
        "pattern": {
          "Regex": "'(?i:[sdmt]|ll|ve|re)|[^\\r\\n\\p{L}\\p{N}]?+\\p{L}+|\\p{N}{1,2}| ?[^\\s\\p{L}\\p{N}]++[\\r\\n]*|\\s*[\\r\\n]|\\s+(?!\\S)|\\s+"
        },
        "behavior": "Isolated",
        "invert": false
      },
      {
        "type": "ByteLevel",
        "add_prefix_space": false,
        "trim_offsets": true,
        "use_regex": false
      }
    ]
  },
  "post_processor": {
    "type": "TemplateProcessing",
    "single": [
      {
        "Sequence": {
          "id": "A",
          "type_id": 0
        }
      }
    ],
    "pair": [
      {
        "Sequence": {
          "id": "A",
          "type_id": 0
        }
      },
      {
        "Sequence": {
          "id": "B",
          "type_id": 1
        }
      }
    ],
    "special_tokens": {}
  },
  "decoder": null,
  "model": {
    "type": "Unigram",
    "unk_id": 9,
    "vocab": [
      [
        "<|bos|>",
        0.0
      ],
      [
        "<|user_start|>",
        0.0
      ],
      [
        "<|user_end|>",
        0.0
      ],
      [
        "<|assistant_start|>",
        0.0
      ],
      [
        "<|assistant_end|>",
        0.0
      ],
      [
        "<|python_start|>",
        0.0
      ],
      [
        "<|python_end|>",
        0.0
      ],
      [
        "<|output_start|>",
        0.0
      ],
      [
        "<|output_end|>",
        0.0
      ],
      [
        "<|unk|>",
        0.0
      ],
      [
        "s",
        -2.97053324961362
      ],
      [
        "Ġthe",
        -3.400262238213358
      ],
      [
        ",",
        -3.4502524170307556
      ],
      [
        ".",
        -3.73929121032136
      ],
      [
        "Ġ",
        -3.761098548644128
      ],
      [
        "Ġand",
        -3.9316348949779663
      ],
      [
        "Ġto",
        -3.98505772342804
      ],
      [
        "Ġof",
        -3.991141574159688
      ],
      [
        "Ġa",
        -4.117689861499018
      ],
      [
        "ing",
        -4.195582909053984
      ],
      [
        "Ġin",
        -4.481605590652787
      ],
      [
        "Ġis",
        -4.62177228395816
      ],
      [
        "ed",
        -4.662008044796135
      ],
      [
        "y",
        -4.825902693282995
      ],
      [
        "'",
        -4.926845623212795
      ],
      [
        "Ġthat",
        -5.021649458404047
      ],
      [
        "d",
        -5.024691332301078
      ],
      [
        "ly",
        -5.033278800669169
      ],
      [
        "Ġfor",
        -5.060108362771329
      ],
      [
        "0",
        -5.0914262868494795
      ],
      [
        "e",
        -5.1125916593473
      ],
      [
        "1",
        -5.182467436231896
      ],
      [
        "Ċ",
        -5.247590101535099
      ],
      [
        ":",
        -5.256830861008739
      ],
      [
        "Ġare",
        -5.26515202351221
      ],
      [
        ".Ċ",
        -5.291500230699574
      ],
      [
        "Ġit",
        -5.301973361811704
      ],
      [
        ".ĊĊ",
        -5.313340901716973
      ],
      [
        "Ġon",
        -5.316353327504739
      ],
      [
        "Ġyou",
        -5.327194252539474
      ],
      [
        "2",
        -5.356654540029522
      ],
      [
        "Ġwith",
        -5.360735842555757
      ],
      [
        "t",
        -5.413976803080715
      ],
      [
        "Ġbe",
        -5.427906520260795
      ],
      [
        "Ġcan",
        -5.53436659209564
      ],
      [
        "Ġor",
        -5.544244545069564
      ],
      [
        "-",
        -5.546234223045381
      ],
      [
        "ĊĊ",
        -5.647098316225689
      ],
      [
        "Ġyour",
        -5.726176636239789
      ],
      [
        "Ġ(",
        -5.733184134226688
      ],
      [
        "Ġas",
        -5.743728302782291
      ],
      [
        "Ġhave",
        -5.864843110552751
      ],
      [
        "\"",
        -5.8725511044382674
      ],
      [
        "ĠThe",
        -5.902139872925057
      ],
      [
        "ĠI",
        -5.9046834813792
      ],
      [
        "Ġfrom",
        -5.90896210945983
      ],
      [
        ")",
        -5.949749059093765
      ],
      [
        "Ġby",
        -5.998821129559309
      ],
      [
        "Ġan",
        -6.002284719963239
      ],
      [
        "3",
        -6.038807605615785
      ],
      [
        "Ġthis",
        -6.042170301825937
      ],
      [
        "5",
        -6.097336692870201
      ],
      [
        "Ġnot",
        -6.101841741149375
      ],
      [
        "?",
        -6.102151604155237
      ],
      [
        "Ġat",
        -6.15633899563
      ],
      [
        "Ġwill",
        -6.192912190054969
      ],
      [
        "4",
        -6.217287534350337
      ],
      [
        "Ġtheir",
        -6.232959999091749
      ],
      [
        "a",
        -6.309379253386501
      ],
      [
        "Ġmore",
        -6.33428133472739
      ],
      [
        "9",
        -6.354584610289409
      ],
      [
        "Ġthey",
        -6.3679704598102855
      ],
      [
        "Ġwas",
        -6.373444606560451
      ],
      [
        "n",
        -6.423865801521481
      ],
      [
        "The",
        -6.4472122328509
      ],
      [
        "er",
        -6.459587156864059
      ],
      [
        "6",
        -6.481921032391313
      ],
      [
        "Ġbut",
        -6.483721986247444
      ],
      [
        "ies",
        -6.4890110552610825
      ],
      [
        "Ġwe",
        -6.489035080093807
      ],
      [
        "Ġhas",
        -6.497264164169634
      ],
      [
        "Ġwhich",
        -6.511492376194198
      ],
      [
        "8",
        -6.536954770764375
      ],
      [
        "Ġone",
        -6.564473879814425
      ],
      [
        "Ġother",
        -6.568163588894516
      ],
      [
        "Ġalso",
        -6.607772026715656
      ],
      [
        "Question",
        -6.618398531846012
      ],
      [
        "7",
        -6.632224123053334
      ],
      [
        "ĠAnswer",
        -6.632570872042267
      ],
      [
        "Ġall",
        -6.66839179662624
      ],
      [
        "Ġabout",
        -6.685683710336669
      ],
      [
        "ĠA",
        -6.689172917393588
      ],
      [
        "on",
        -6.6965170520291775
      ],
      [
        "r",
        -6.714050915875616
      ],
      [
        "Ġwhen",
        -6.720948562975474
      ],
      [
        "Ġdo",
        -6.74466440695752
      ],
      [
        "ĠIt",
        -6.74934158824151
      ],
      [
        "i",
        -6.7726601661973955
      ],
      [
        "Ġuse",
        -6.773999631780722
      ],
      [
        "Ġif",
        -6.775103894721317
      ],
      [
        "Ġtime",
        -6.77630088049311
      ],
      [
        "Ġthem",
        -6.789362650859982
      ],
      [
        "Ġinto",
        -6.796473524874067
      ],
      [
        "Ġlike",
        -6.805268949194138
      ],
      [
        "Ġso",
        -6.8302757792493125
      ],
      [
        "Ġup",
        -6.832815747537129
      ],
      [
        "ĠThis",
        -6.84099779752607
      ],
      [
        "Ġhow",
        -6.842606593923865
      ],
      [
        "Ġneed",
        -6.847750217194893
      ],
      [
        "Ġsome",
        -6.859611408573549
      ],
      [
        "Ġmay",
        -6.8601577969603404
      ],
      [
        "Ġout",
        -6.904027201300238
      ],
      [
        "ĠWhat",
        -6.912094667212298
      ],
      [
        "A",
        -6.913167618854322
      ],
      [
        "o",
        -6.920225417447268
      ],
      [
        "Ġthan",
        -6.931736152481939
      ],
      [
        "Ġthere",
        -6.9507581503236615
      ],
      [
        "Ġthese",
        -6.9615679281760805
      ],
      [
        "m",
        -6.970627354588746
      ],
      [
        "Ġany",
        -6.992071216468579
      ],
      [
        "Ġwhat",
        -6.992993294167446
      ],
      [
        "Ġwater",
        -7.016875364389186
      ],
      [
        "Ġused",
        -7.019734609763702
      ],
      [
        "al",
        -7.037404890318273
      ],
      [
        "Ġour",
        -7.039493308529794
      ],
      [
        "Ġmake",
        -7.052970793375087
      ],
      [
        "ĠIn",
        -7.081251374692686
      ],
      [
        "Ġwere",
        -7.088380116946944
      ],
      [
        "If",
        -7.1010053949944805
      ],
      [
        "Ġmost",
        -7.1147517282106225
      ],
      [
        "Ġhelp",
        -7.115169337411583
      ],
      [
        "re",
        -7.119723461041945
      ],
      [
        "Ġsuch",
        -7.135276773725339
      ],
      [
        "ity",
        -7.13853992314443
      ],
      [
        "Ġnew",
        -7.1427713727891415
      ],
      [
        "Ġbeen",
        -7.1537993858635485
      ],
      [
        "Ġpeople",
        -7.182193916126847
      ],
      [
        "Ġwould",
        -7.182568874832615
      ],
      [
        "Ġwho",
        -7.184194423916841
      ],
      [
        "able",
        -7.190392816363158
      ],
      [
        "Ġshould",
        -7.196603790716599
      ],
      [
        "Ġget",
        -7.199264873225131
      ],
      [
        "/",
        -7.215187984427011
      ],
      [
        "Ġjust",
        -7.255646547627457
      ],
      [
        "Ġits",
        -7.256253907839014
      ],
      [
        "Ġhigh",
        -7.257111520888804
      ],
      [
        "Ġmany",
        -7.266920661338812
      ],
      [
        "c",
        -7.27339362987029
      ],
      [
        "Ġwell",
        -7.300814565900092
      ],
      [
        "Ġover",
        -7.305898662235235
      ],
      [
        "Ġtwo",
        -7.317042603704197
      ],
      [
        "Ġplant",
        -7.321509469251879
      ],
      [
        "Ġwork",
        -7.322082216418975
      ],
      [
        "I",
        -7.32683471452267
      ],
      [
        ";",
        -7.329229603059016
      ],
      [
        "Ġbetween",
        -7.340695011255251
      ],
      [
        "Ġhealth",
        -7.346970786213768
      ],
      [
        "Ġway",
        -7.349064312385195
      ],
      [
        "Ġmy",
        -7.351271113379566
      ],
      [
        "Ġdifferent",
        -7.358646589513924
      ],
      [
        "Ġfirst",
        -7.378604581958726
      ],
      [
        "?Ċ",
        -7.384569773322369
      ],
      [
        "Ġlong",
        -7.392465899441044
      ],
      [
        "Ġno",
        -7.413159110651364
      ],
      [
        "Ġthrough",
        -7.419630474329011
      ],
      [
        "!",
        -7.421934569052379
      ],
      [
        "Ġusing",
        -7.428333325125143
      ],
      [
        "Ġwhere",
        -7.431139989567498
      ],
      [
        "Ġday",
        -7.43757889882724
      ],
      [
        "Ġprovide",
        -7.450372931391156
      ],
      [
        "ever",
        -7.458058489332636
      ],
      [
        "ĠC",
        -7.46366626985083
      ],
      [
        "Ġbecaus",
        -7.480261410098235
      ],
      [
        "Ġlook",
        -7.490447400380203
      ],
      [
        "l",
        -7.497035379943691
      ],
      [
        "Ġcould",
        -7.501888404171922
      ],
      [
        "Ġeven",
        -7.509841997495377
      ],
      [
        "Ġhad",
        -7.523409294587317
      ],
      [
        "Ġthen",
        -7.528768110626341
      ],
      [
        "Ġvery",
        -7.539025471144358
      ],
      [
        "Ġeach",
        -7.548452849415282
      ],
      [
        "ĠHow",
        -7.5532333984151165
      ],
      [
        "Ġsystem",
        -7.554335467835081
      ],
      [
        "Ġhe",
        -7.564685908423884
      ],
      [
        "ic",
        -7.565704867394329
      ],
      [
        "Ġknow",
        -7.568444435836428
      ],
      [
        "ĠThey",
        -7.56949387606705
      ],
      [
        "Ġevery",
        -7.584568103335631
      ],
      [
        "?ĊĊ",
        -7.585184392702871
      ],
      [
        "Ġmuch",
        -7.5963435500653
      ],
      [
        "ĠâĢĵ",
        -7.598443741104754
      ],
      [
        "Ġfood",
        -7.606760997151935
      ],
      [
        "Ġdoes",
        -7.617146151775351
      ],
      [
        "Ġgood",
        -7.624319173020488
      ],
      [
        "Ġimportant",
        -7.631591325126083
      ],
      [
        "Ġtake",
        -7.635085867983873
      ],
      [
        "ĠYou",
        -7.635542550038098
      ],
      [
        "Ġarea",
        -7.636023587016225
      ],
      [
        "In",
        -7.637283053706217
      ],
      [
        ").",
        -7.643292351993151
      ],
      [
        "Ġwhile",
        -7.6446475541885395
      ],
      [
        "Ġdon",
        -7.644978510218898
      ],
      [
        "ĠS",
        -7.654297022411645
      ],
      [
        "Ġhis",
        -7.654302942944581
      ],
      [
        "Ġsee",
        -7.65630231123266
      ],
      [
        "Ġstart",
        -7.669918813496447
      ],
      [
        "Ġlarge",
        -7.670100115704037
      ],
      [
        "Ġafter",
        -7.6721069306171
      ],
      [
        "Ġbefore",
        -7.675247212447274
      ],
      [
        "in",
        -7.67983445473333
      ],
      [
        "ve",
        -7.6826735204597005
      ],
      [
        "ce",
        -7.683734297550228
      ],
      [
        "Ġyears",
        -7.684346506870919
      ],
      [
        "Ġlevel",
        -7.695658404215452
      ],
      [
        "Ġhuman",
        -7.705426269421644
      ],
      [
        "Ġthing",
        -7.706688286496327
      ],
      [
        "Ġworld",
        -7.716710285074957
      ],
      [
        "ĠB",
        -7.728948171524725
      ],
      [
        "Ġaround",
        -7.737296666515784
      ],
      [
        "Ġsame",
        -7.741912253577103
      ],
      [
        "Ġlight",
        -7.749819111561454
      ],
      [
        "Ġcause",
        -7.751013148581986
      ],
      [
        "Ġwant",
        -7.751503805615953
      ],
      [
        "ness",
        -7.751643938825859
      ],
      [
        "Ġcome",
        -7.752086865330907
      ],
      [
        "Ġlife",
        -7.752761527536216
      ],
      [
        "Ġboth",
        -7.762565607591419
      ],
      [
        "Ġdata",
        -7.765148110518416
      ],
      [
        "Ġfollow",
        -7.766404280938827
      ],
      [
        "Ġgreat",
        -7.770470546737737
      ],
      [
        "Ġduring",
        -7.77202542557582
      ],
      [
        "Ġallow",
        -7.772515104441422
      ],
      [
        "h",
        -7.773529660404984
      ],
      [
        "S",
        -7.7765052655210996
      ],
      [
        "Ġdesign",
        -7.783377516559587
      ],
      [
        "is",
        -7.789416710031472
      ],
      [
        "Ġpart",
        -7.792776738747936
      ],
      [
        "Ġthink",
        -7.795586524865857
      ],
      [
        "Ġright",
        -7.800528878260417
      ],
      [
        "Ġbeing",
        -7.800560094614231
      ],
      [
        "Ġmaterial",
        -7.801860525676915
      ],
      [
        "Ġdown",
        -7.806300652972666
      ],
      [
        "us",
        -7.807269246796956
      ],
      [
        "x",
        -7.8158013824213235
      ],
      [
        "Ġkeep",
        -7.819210259131624
      ],
      [
        "Ġbody",
        -7.821985925917455
      ],
      [
        "Ġthose",
        -7.828959726656356
      ],
      [
        "Ġback",
        -7.831500275713893
      ],
      [
        "g",
        -7.8396445253228
      ],
      [
        "Ġfound",
        -7.84119723411403
      ],
      [
        "Ġfind",
        -7.8487909567602445
      ],
      [
        "Ġoften",
        -7.848793840540758
      ],
      [
        "),",
        -7.849210753669435
      ],
      [
        "What",
        -7.855195045375356
      ],
      [
        "Ġsmall",
        -7.855517056751464
      ],
      [
        "Ġenergy",
        -7.857386253024192
      ],
      [
        "Ġprocess",
        -7.859267441414767
      ],
      [
        "(",
        -7.8693742272862
      ],
      [
        "%",
        -7.869425716445067
      ],
      [
        "Ġbest",
        -7.872850550887574
      ],
      [
        "Ġmade",
        -7.87471176359332
      ],
      [
        "Ġinclude",
        -7.875660293998732
      ],
      [
        "Ġcreate",
        -7.877088960037514
      ],
      [
        "Ġshow",
        -7.891248019266058
      ],
      [
        "Ġyear",
        -7.89482026746952
      ],
      [
        "f",
        -7.895917048665438
      ],
      [
        "Ġus",
        -7.896873477565547
      ],
      [
        "Ġmean",
        -7.900940570922655
      ],
      [
        "ĠWe",
        -7.903160975028426
      ],
      [
        "Ġcommon",
        -7.90477836905094
      ],
      [
        "Ġincrease",
        -7.90642499420601
      ],
      [
        "ĠFor",
        -7.914711364066633
      ],
      [
        "C",
        -7.916924178586404
      ],
      [
        "D",
        -7.928614743766988
      ],
      [
        "Ġchange",
        -7.935389417763648
      ],
      [
        "Ġlead",
        -7.940812969024833
      ],
      [
        "ation",
        -7.941928098870653
      ],
      [
        "ll",
        -7.943426175078723
      ],
      [
        "Ġgrow",
        -7.9438390019662
      ],
      [
        "Ġhome",
        -7.944031883584858
      ],
      [
        "Ġinformation",
        -7.951055937034448
      ],
      [
        "Ġplace",
        -7.951793299558554
      ],
      [
        "Ġrequire",
        -7.952600566380457
      ],
      [
        ":Ċ",
        -7.953514564574727
      ],
      [
        "Ġstudents",
        -7.956503032696693
      ],
      [
        "Ġexperience",
        -7.962638077032849
      ],
      [
        "Ġnow",
        -7.968248658062303
      ],
      [
        "Ġtemperature",
        -7.97103379462252
      ],
      [
        "âĢĻ",
        -7.971286717732139
      ],
      [
        "Ġnumber",
        -7.980775564752847
      ],
      [
        "bility",
        -7.981485044553052
      ],
      [
        "Ġcondition",
        -7.985635065797361
      ],
      [
        "This",
        -7.986144851797158
      ],
      [
        "Ġsaid",
        -7.986309679369722
      ],
      [
        "ĠTo",
        -7.988389893485862
      ],
      [
        "How",
        -7.990694512332028
      ],
      [
        "Ġspecies",
        -7.991167094998872
      ],
      [
        "Ġbetter",
        -7.991903671471197
      ],
      [
        "Ġinclud",
        -7.992000566475272
      ],
      [
        "Ġgo",
        -7.996476561213014
      ],
      [
        "Ġoff",
        -8.000010165844014
      ],
      [
        "Ġfew",
        -8.00741750739545
      ],
      [
        "Ġresearch",
        -8.0097675889901
      ],
      [
        "Ġchildren",
        -8.012704218542973
      ],
      [
        "Ġform",
        -8.013516822295433
      ],
      [
        "Ġun",
        -8.015221478701093
      ],
      [
        "Ġbecome",
        -8.017918735433312
      ],
      [
        "Ġdog",
        -8.018845920339718
      ],
      [
        "ĠE",
        -8.021330287099794
      ],
      [
        "Ġexample",
        -8.021583786740184
      ],
      [
        "ĠThese",
        -8.025051923446071
      ],
      [
        "Ġstudy",
        -8.026965714180935
      ],
      [
        "Ġunder",
        -8.02716461488026
      ],
      [
        "Ġair",
        -8.029259609181288
      ],
      [
        "Ġstill",
        -8.032655351958228
      ],
      [
        "Ġme",
        -8.034163252190446
      ],
      [
        "Ġown",
        -8.035405706030108
      ],
      [
        "Ġher",
        -8.03807457798426
      ],
      [
        "Ġpotential",
        -8.043182458346838
      ],
      [
        "Ġsupport",
        -8.04957859634097
      ],
      [
        "Ġschool",
        -8.055679550841534
      ],
      [
        "Ġmethod",
        -8.060829298203526
      ],
      [
        "based",
        -8.060982050836017
      ],
      [
        "Ġconsider",
        -8.065198124394788
      ],
      [
        "Ġtoo",
        -8.065244519091856
      ],
      [
        "ance",
        -8.073532996280505
      ],
      [
        "um",
        -8.074336119196968
      ],
      [
        "est",
        -8.076214964720233
      ],
      [
        "Ġtest",
        -8.078009988694635
      ],
      [
        "Ġdevelop",
        -8.0806685949773
      ],
      [
        "Ġcar",
        -8.08725698476292
      ],
      [
        "Ġmight",
        -8.089436569518028
      ],
      [
        "Ġissue",
        -8.090055172369944
      ],
      [
        "ion",
        -8.092067087825175
      ],
      [
        "without",
        -8.098496179884755
      ],
      [
        "Ġpower",
        -8.101618992949385
      ],
      [
        "Ġresult",
        -8.102309891000402
      ],
      [
        "Ġcontrol",
        -8.106525426838676
      ],
      [
        "Ġgroup",
        -8.110233046947997
      ],
      [
        "Ġgive",
        -8.112409778061204
      ],
      [
        "Ġcase",
        -8.113674016789453
      ],
      [
        "Ġdisease",
        -8.116238988533954
      ],
      [
        "Ġheat",
        -8.117195309154134
      ],
      [
        "It",
        -8.119415764010009
      ],
      [
        "Ġknown",
        -8.125789859235946
      ],
      [
        "or",
        -8.129109243138714
      ],
      [
        "Ġmaking",
        -8.131364994279899
      ],
      [
        "Ġtype",
        -8.132291002261653
      ],
      [
        "ĠBut",
        -8.13230234361215
      ],
      [
        "Ġless",
        -8.13329739326692
      ],
      [
        "Ġthree",
        -8.135884286264151
      ],
      [
        "Ġset",
        -8.13641589319959
      ],
      [
        "Ġend",
        -8.139032082988662
      ],
      [
        "and",
        -8.139345558646252
      ],
      [
        "Ġnatural",
        -8.15784866366863
      ],
      [
        "Ġlot",
        -8.165937824813927
      ],
      [
        "Ġindividual",
        -8.169084093455101
      ],
      [
        "ĠD",
        -8.174262435116527
      ],
      [
        "Ġwithin",
        -8.174442940467575
      ],
      [
        "Ġrisk",
        -8.176580712749402
      ],
      [
        "Ġplay",
        -8.178611821589078
      ],
      [
        "Ġenvironment",
        -8.184196824149545
      ],
      [
        "Ġal",
        -8.185304214406765
      ],
      [
        "Ġmust",
        -8.189633338763734
      ],
      [
        "Ġreally",
        -8.20105146867186
      ],
      [
        "Ġpoint",
        -8.203776963460305
      ],
      [
        "b",
        -8.204395149882757
      ],
      [
        "Ġcolor",
        -8.205390417715833
      ],
      [
        "Ġmain",
        -8.207008134849373
      ],
      [
        "Ġbenefit",
        -8.207941778541098
      ],
      [
        "ĠP",
        -8.207942708643866
      ],
      [
        "Ġreduce",
        -8.209935479675114
      ],
      [
        "Ġwhy",
        -8.213352921064425
      ],
      [
        "Ġdue",
        -8.214677836149827
      ],
      [
        ":ĊĊ",
        -8.215216814406526
      ],
      [
        "Ġquestion",
        -8.21544454473797
      ],
      [
        "Ġacid",
        -8.216503141341605
      ],
      [
        "Ġblood",
        -8.21814043368454
      ],
      [
        "one",
        -8.218492180170651
      ],
      [
        "ĠWhen",
        -8.219473301843085
      ],
      [
        "Ġspecific",
        -8.220324733922144
      ],
      [
        "Ġadd",
        -8.22069851113832
      ],
      [
        "Ġprevent",
        -8.22173962993186
      ],
      [
        "Ġlow",
        -8.223410350249331
      ],
      [
        "...",
        -8.223832628075897
      ],
      [
        "Ġsoil",
        -8.224971454358819
      ],
      [
        "ĠAnd",
        -8.229442181486597
      ],
      [
        "Ġensure",
        -8.230290108261492
      ],
      [
        "Ġsure",
        -8.231080633802257
      ],
      [
        "Ġcost",
        -8.234814613933645
      ],
      [
        "p",
        -8.239463642571502
      ],
      [
        "Ġturn",
        -8.23958513472582
      ],
      [
        "Ġanother",
        -8.24149635206954
      ],
      [
        "Ġcalled",
        -8.242742596041516
      ],
      [
        "the",
        -8.248625593234609
      ],
      [
        "le",
        -8.253071062510845
      ],
      [
        "Ġcare",
        -8.255718654508941
      ],
      [
        "Ġtry",
        -8.25928467600177
      ],
      [
        "Ġpossible",
        -8.260342731817026
      ],
      [
        "Ġtree",
        -8.268275120429657
      ],
      [
        "Ġvalue",
        -8.268898423617578
      ],
      [
        "Ġrange",
        -8.280290715516017
      ],
      [
        "Ġsomething",
        -8.28845067124811
      ],
      [
        "ĠT",
        -8.292940390648447
      ],
      [
        "th",
        -8.293763292089467
      ],
      [
        "ĠSo",
        -8.29491554154978
      ],
      [
        "Ġamount",
        -8.296614687193266
      ],
      [
        "ĠM",
        -8.298312541283732
      ],
      [
        "Ġhere",
        -8.299893306956925
      ],
      [
        "Ġlearn",
        -8.302209035765202
      ],
      [
        "Ġalways",
        -8.303744957592118
      ],
      [
        "Ġdid",
        -8.305276439203539
      ],
      [
        "Ġsource",
        -8.305901993078416
      ],
      [
        "ous",
        -8.30864139087378
      ],
      [
        "Ġproject",
        -8.30871787667277
      ],
      [
        "B",
        -8.309113046421945
      ],
      [
        "Ġline",
        -8.309887799143816
      ],
      [
        "ĠThere",
        -8.312438158875384
      ],
      [
        "Ġteam",
        -8.31483655439347
      ],
      [
        "an",
        -8.321967551103292
      ],
      [
        "Ġlast",
        -8.326274342394932
      ],
      [
        "Ġlive",
        -8.32768311568659
      ],
      [
        "Ġproblem",
        -8.328075866589277
      ],
      [
        "Ġvarious",
        -8.328268950845477
      ],
      [
        "Ġspace",
        -8.329042991617946
      ],
      [
        "Ġshe",
        -8.330313497454842
      ],
      [
        "Ġper",
        -8.336835745912992
      ],
      [
        "Ġanimals",
        -8.33792523543117
      ],
      [
        "Ġcontain",
        -8.352890472083189
      ],
      [
        "Ġcurrent",
        -8.355714052803394
      ],
      [
        "Ġpresent",
        -8.363849540506525
      ],
      [
        "Ġpressure",
        -8.366505190892958
      ],
      [
        "Ġsurface",
        -8.36661511331529
      ],
      [
        "+",
        -8.366685493128061
      ],
      [
        "Ġusual",
        -8.368697814665293
      ],
      [
        "Ġdevelopment",
        -8.371259143726931
      ],
      [
        "less",
        -8.372113677310544
      ],
      [
        "Ġfactor",
        -8.374896911952874
      ],
      [
        "Ġgoing",
        -8.377061009647942
      ],
      [
        "Ġlittle",
        -8.37945833610944
      ],
      [
        "Ġopen",
        -8.382210072182705
      ],
      [
        "ally",
        -8.385011403854243
      ],
      [
        "Ġeasi",
        -8.391967229426864
      ],
      [
        "Ġsignificant",
        -8.394190733947097
      ],
      [
        "Ġfish",
        -8.39438479142613
      ],
      [
        "Ġsecond",
        -8.39557341094816
      ],
      [
        "Ġlearning",
        -8.396432847922465
      ],
      [
        "Ġavailable",
        -8.399657992362236
      ],
      [
        "Ġcells",
        -8.403419701541349
      ],
      [
        "Ġorder",
        -8.40347494937105
      ],
      [
        "Ġname",
        -8.404648635153652
      ],
      [
        "Ġrole",
        -8.409365416499796
      ],
      [
        "Ġquality",
        -8.411448351159411
      ],
      [
        "T",
        -8.413257699665795
      ],
      [
        "v",
        -8.420448027568792
      ],
      [
        "Ġstate",
        -8.424239842202613
      ],
      [
        "Ġenough",
        -8.424535115587432
      ],
      [
        "Ġfeel",
        -8.429318420077347
      ],
      [
        "Ġsolution",
        -8.432344757446849
      ],
      [
        "Ġsize",
        -8.434865281312131
      ],
      [
        "en",
        -8.436777310508486
      ],
      [
        "Ġessential",
        -8.44099297612501
      ],
      [
        "Ġgeneral",
        -8.44497166257371
      ],
      [
        "Ġfunction",
        -8.445047097122604
      ],
      [
        "Ġobject",
        -8.445307042264485
      ],
      [
        "ĠAs",
        -8.446092785418756
      ],
      [
        "Ġtogether",
        -8.451254178741657
      ],
      [
        "Ġage",
        -8.45270366778782
      ],
      [
        "Ġfull",
        -8.453834829628278
      ],
      [
        "u",
        -8.454789372741558
      ],
      [
        "Ġperson",
        -8.455740082294433
      ],
      [
        ",\"",
        -8.45676004130749
      ],
      [
        "Ġweek",
        -8.459722313713865
      ],
      [
        "Ġprotect",
        -8.465295269461503
      ],
      [
        "Ġproducts",
        -8.468191529875408
      ],
      [
        "several",
        -8.47018295402285
      ],
      [
        "Ġimpact",
        -8.471473590002155
      ],
      [
        "Ġput",
        -8.47303864758887
      ],
      [
        "k",
        -8.474638179694548
      ],
      [
        "Ġunderstand",
        -8.476465839349025
      ],
      [
        "Ġtext",
        -8.479481380835121
      ],
      [
        "Ġleave",
        -8.480123477641172
      ],
      [
        "Ġaway",
        -8.482520291495742
      ],
      [
        "Ġhappen",
        -8.482857807951472
      ],
      [
        "Ġsay",
        -8.483288246474052
      ],
      [
        "ĠWhich",
        -8.485671373914322
      ],
      [
        "Ġcertain",
        -8.488880653047909
      ],
      [
        "Ġproduce",
        -8.491208348232473
      ],
      [
        "Ġtechnolog",
        -8.491273203153764
      ],
      [
        "Ġgrowth",
        -8.494554253871678
      ],
      [
        "Ġdifference",
        -8.499511452588731
      ],
      [
        "Ġhard",
        -8.500375359850405
      ],
      [
        "Ġterm",
        -8.500508550711993
      ],
      [
        "Ġlocal",
        -8.501217341902587
      ],
      [
        "Ġhand",
        -8.501937642307212
      ],
      [
        "Ġnear",
        -8.502727091774446
      ],
      [
        "Ġimprove",
        -8.503569244411086
      ],
      [
        "Ġweight",
        -8.504766261161471
      ],
      [
        "Ġproblems",
        -8.504951858407455
      ],
      [
        "Ġparticular",
        -8.505756611265042
      ],
      [
        "Ġmodel",
        -8.50743943661309
      ],
      [
        "Ġtop",
        -8.509757498854285
      ],
      [
        "Ġre",
        -8.510070260258356
      ],
      [
        "Ġnon",
        -8.511200429389223
      ],
      [
        "Ġtechnique",
        -8.512883744990503
      ],
      [
        "ry",
        -8.515586767781404
      ],
      [
        "Ġfree",
        -8.519356793706365
      ],
      [
        "Ġpractice",
        -8.51941926796745
      ],
      [
        "ive",
        -8.52033287237289
      ],
      [
        "Ġside",
        -8.521796345237926
      ],
      [
        "Ġtypes",
        -8.52224700892942
      ],
      [
        "Ġoil",
        -8.522710211046052
      ],
      [
        "Ġpatient",
        -8.522742972330132
      ],
      [
        "hether",
        -8.526011704354556
      ],
      [
        "thing",
        -8.527307610780682
      ],
      [
        "Ġshort",
        -8.529941177649643
      ],
      [
        "ĠSome",
        -8.531495875699147
      ],
      [
        "Ġdiet",
        -8.532723706977988
      ],
      [
        "Ġgarden",
        -8.533563584357434
      ],
      [
        "Ġfocus",
        -8.53572906529812
      ],
      [
        "Ġcourse",
        -8.535738938217868
      ],
      [
        "Ġfast",
        -8.537401410741447
      ],
      [
        "having",
        -8.537850092933343
      ],
      [
        "Ġtreatment",
        -8.538075785020201
      ],
      [
        "Ġlet",
        -8.542408585350193
      ],
      [
        "Ġleas",
        -8.54647931312833
      ],
      [
        "You",
        -8.546932026948522
      ],
      [
        "When",
        -8.54722938034445
      ],
      [
        "]",
        -8.548548532899918
      ],
      [
        "ary",
        -8.55170871360627
      ],
      [
        "Ġmaintain",
        -8.553203052053426
      ],
      [
        "Ġprogram",
        -8.555069862744364
      ],
      [
        "Ġword",
        -8.555247713701934
      ],
      [
        "ĠHe",
        -8.558552246731367
      ],
      [
        "ĠThat",
        -8.560062955414551
      ],
      [
        "Ġdamage",
        -8.560074302053499
      ],
      [
        "Ġsystems",
        -8.560943671015742
      ],
      [
        "Ġw",
        -8.56392997652302
      ],
      [
        "Ġ&",
        -8.56630563423985
      ],
      [
        "Ġprotein",
        -8.566876241914898
      ],
      [
        "Ġsince",
        -8.57028715365102
      ],
      [
        "Ġuntil",
        -8.570438193909744
      ],
      [
        "ĠBy",
        -8.575608164703837
      ],
      [
        "Ġdirect",
        -8.576155663703503
      ],
      [
        "Ġ[",
        -8.577030688317407
      ],
      [
        "Ġphysical",
        -8.579439835309959
      ],
      [
        "Ġalong",
        -8.581489280049688
      ],
      [
        "Ġearly",
        -8.581971783666456
      ],
      [
        "Ġresults",
        -8.582377105568252
      ],
      [
        "Ġproper",
        -8.583804525984874
      ],
      [
        "Ġlove",
        -8.584265660352509
      ],
      [
        "Ġkey",
        -8.58542309471061
      ],
      [
        "Ġfamily",
        -8.587090290697034
      ],
      [
        "Ġnext",
        -8.593925543713596
      ],
      [
        "Ġskin",
        -8.594797203378066
      ],
      [
        "Ġsafe",
        -8.597936033091717
      ],
      [
        "Ġoffer",
        -8.599883791129406
      ],
      [
        "Ġfield",
        -8.60065501352939
      ],
      [
        "Ġremain",
        -8.602789465420994
      ],
      [
        "Ġworking",
        -8.603226815900975
      ],
      [
        "though",
        -8.60328097606837
      ],
      [
        "ĠWith",
        -8.603490416090745
      ],
      [
        "Ġproduction",
        -8.60448168183062
      ],
      [
        "Ġkind",
        -8.60505644789334
      ],
      [
        "age",
        -8.605191651196046
      ],
      [
        "Ġrun",
        -8.605307970314907
      ],
      [
        "Ġstrong",
        -8.606737079201963
      ],
      [
        "Ġhigher",
        -8.609743600457445
      ],
      [
        "Ġ$",
        -8.610021462812515
      ],
      [
        "Ġ=",
        -8.610324695072155
      ],
      [
        "Ġcheck",
        -8.610972329311272
      ],
      [
        "We",
        -8.611679878729355
      ],
      [
        "ĠH",
        -8.613479681956806
      ],
      [
        "Ġdogs",
        -8.613671657005629
      ],
      [
        "Ġsite",
        -8.614203752066274
      ],
      [
        "Ġmakes",
        -8.617447275302414
      ],
      [
        "Ġcook",
        -8.623086753713995
      ],
      [
        "Ġchild",
        -8.624534557854993
      ],
      [
        "To",
        -8.625937907910664
      ],
      [
        "Ġbusiness",
        -8.627014506028384
      ],
      [
        "Ġreal",
        -8.627440153174708
      ],
      [
        "Ġold",
        -8.628276971612273
      ],
      [
        "!Ċ",
        -8.628327349363445
      ],
      [
        "E",
        -8.63070391944251
      ],
      [
        "Ġcell",
        -8.634397307660265
      ],
      [
        "Ġeasy",
        -8.635663899622692
      ],
      [
        "Ġsimilar",
        -8.636365062172292
      ],
      [
        "Ġanimal",
        -8.637192467744299
      ],
      [
        "Ġchanges",
        -8.637231088591452
      ],
      [
        "Ġdoesn",
        -8.6420313523554
      ],
      [
        "Ġvariet",
        -8.644003627363226
      ],
      [
        "ĠUniversit",
        -8.647182280983579
      ],
      [
        "Ġlower",
        -8.647868876588845
      ],
      [
        "Ġcover",
        -8.64848770741214
      ],
      [
        "There",
        -8.64909373206963
      ],
      [
        "Ġeffective",
        -8.649957562972734
      ],
      [
        "Ġmachine",
        -8.650045411648843
      ],
      [
        "self",
        -8.651474271578849
      ],
      [
        "Ġavoid",
        -8.651488829477032
      ],
      [
        "Ġbuilding",
        -8.653452541407962
      ],
      [
        "Ġcat",
        -8.654273479609383
      ],
      [
        "Ġlikely",
        -8.654292862736362
      ],
      [
        "Ġseem",
        -8.65740679945371
      ],
      [
        "Ġwide",
        -8.657451800488179
      ],
      [
        "Ġprofessional",
        -8.657977724981526
      ],
      [
        "Ġtraining",
        -8.663596335953212
      ],
      [
        "Ġfuel",
        -8.664563251119056
      ],
      [
        "Ġmarket",
        -8.665871327501904
      ],
      [
        "Ġunique",
        -8.668174861800164
      ],
      [
        "not",
        -8.668732583146891
      ],
      [
        ")Ċ",
        -8.674514806629807
      ],
      [
        "Ġpost",
        -8.677535569192324
      ],
      [
        "ĠO",
        -8.677747217636147
      ],
      [
        "Ġnever",
        -8.678174021844722
      ],
      [
        "Ġfuture",
        -8.678243257737469
      ],
      [
        "Ġimage",
        -8.679358490259862
      ],
      [
        "Ġbook",
        -8.679957287726388
      ],
      [
        "Ġactually",
        -8.680391471341082
      ],
      [
        "Ġnecessar",
        -8.681298127112013
      ],
      [
        "Ġcomponent",
        -8.684429934845593
      ],
      [
        "ĠN",
        -8.684483337523385
      ],
      [
        "Ġask",
        -8.685269651428154
      ],
      [
        "Ġpopulation",
        -8.687787883484802
      ],
      [
        "Ġreason",
        -8.687919539594159
      ],
      [
        "Ġacross",
        -8.688207507594004
      ],
      [
        "ĠNew",
        -8.688992424106807
      ],
      [
        "Ġsimple",
        -8.689850699992672
      ],
      [
        "Ġexist",
        -8.690311582019067
      ],
      [
        "Ġgas",
        -8.69130066932637
      ],
      [
        "Ġsocial",
        -8.692026363232653
      ],
      [
        "ĠâĢĶ",
        -8.6929644788949
      ],
      [
        "Ġenvironmental",
        -8.69386824183418
      ],
      [
        "Ġoccur",
        -8.695471579281033
      ],
      [
        "Ġgiven",
        -8.69731895738367
      ],
      [
        "against",
        -8.698126019531808
      ],
      [
        "Ġespeciall",
        -8.699365468785775
      ],
      [
        "Ġsuggest",
        -8.700488215938519
      ],
      [
        "Ġeye",
        -8.702544209237097
      ],
      [
        "Ġtreat",
        -8.702637287213
      ],
      [
        "Ġp",
        -8.703117103700922
      ],
      [
        "Ġdry",
        -8.705931486059352
      ],
      [
        "Ġcreat",
        -8.70849630229186
      ],
      [
        "stead",
        -8.710332374252882
      ],
      [
        "Ġdone",
        -8.71060722726033
      ],
      [
        "Ġheart",
        -8.714981875539774
      ],
      [
        "Ġcomputer",
        -8.717467802475204
      ],
      [
        "ĠYour",
        -8.717914669588687
      ],
      [
        "Ġface",
        -8.71879626584088
      ],
      [
        "Ġstep",
        -8.71888467370875
      ],
      [
        "Ġfar",
        -8.718951905630128
      ],
      [
        "Ġfact",
        -8.719277725681367
      ],
      [
        "Ġaffect",
        -8.719489954397659
      ],
      [
        "Ġresource",
        -8.723401800661183
      ],
      [
        "Ġdepend",
        -8.723540422936505
      ],
      [
        "Ġarticle",
        -8.727098598495825
      ],
      [
        "ĠAmerican",
        -8.727301261660925
      ],
      [
        "Ġmillion",
        -8.728463805852789
      ],
      [
        "Ġcall",
        -8.731754793804065
      ],
      [
        "*",
        -8.732907436725633
      ],
      [
        "Ġelectric",
        -8.736473172290278
      ],
      [
        "Ġproduct",
        -8.740695179330945
      ],
      [
        "Ġparts",
        -8.742764759469708
      ],
      [
        "Ġminute",
        -8.742857299533181
      ],
      [
        "Ġtoday",
        -8.743053697996054
      ],
      [
        "Ġstore",
        -8.743445633333819
      ],
      [
        "Ġleft",
        -8.747119572969705
      ],
      [
        "Ġpet",
        -8.750008846655696
      ],
      [
        "ĠR",
        -8.75103814232427
      ],
      [
        "ment",
        -8.752293202803788
      ],
      [
        "Ġrecommend",
        -8.7530193226673
      ],
      [
        "Ġspeed",
        -8.754035184571162
      ],
      [
        "ctivity",
        -8.75440265321738
      ],
      [
        "Ġground",
        -8.754462273965746
      ],
      [
        "Ġcarbon",
        -8.756537982574788
      ],
      [
        "Ġregular",
        -8.759996324412716
      ],
      [
        "it",
        -8.761073479664013
      ],
      [
        "Ġaccording",
        -8.763134305258713
      ],
      [
        "Ġvehicle",
        -8.76315509438841
      ],
      [
        "Ġdifficult",
        -8.763180932249885
      ],
      [
        "Ġcontent",
        -8.763330625117021
      ],
      [
        "Ġsign",
        -8.76432003609617
      ],
      [
        "Ġloss",
        -8.766577110155172
      ],
      [
        "Ġabove",
        -8.767823716478699
      ],
      [
        "Ġeffects",
        -8.767826230381624
      ],
      [
        "Ġwhite",
        -8.77226987516369
      ],
      [
        "Ġfurther",
        -8.774081976499573
      ],
      [
        "Ġplan",
        -8.774512736034726
      ],
      [
        "Ġclose",
        -8.775852192945447
      ],
      [
        "Ġdeep",
        -8.77643921665608
      ],
      [
        "Ġindustry",
        -8.778427283797384
      ],
      [
        "Ġdetail",
        -8.779663722601848
      ],
      [
        "most",
        -8.782912557540321
      ],
      [
        "Ġtimes",
        -8.783894883290724
      ],
      [
        "Ġparent",
        -8.78420827810099
      ],
      [
        "Ġwarm",
        -8.784471031110328
      ],
      [
        "Ġengine",
        -8.786331704056176
      ],
      [
        "Ġbig",
        -8.787476234434521
      ],
      [
        "Ġsays",
        -8.79158749088733
      ],
      [
        "Ġfour",
        -8.79174916464035
      ],
      [
        "Ġshare",
        -8.793510869139713
      ],
      [
        "ĠNo",
        -8.793880247771039
      ],
      [
        "âĢĵ",
        -8.794853102439271
      ],
      [
        "Ġunderstanding",
        -8.795430234478381
      ],
      [
        "ĠU",
        -8.795630120981572
      ],
      [
        "Ġactivities",
        -8.795833980402481
      ],
      [
        "Ġsingle",
        -8.798153035757966
      ],
      [
        "Ġrate",
        -8.798647739246059
      ],
      [
        "Ġclear",
        -8.798716950165478
      ],
      [
        "Ġunit",
        -8.79876193438957
      ],
      [
        "Ġclean",
        -8.804742723398405
      ],
      [
        "P",
        -8.804760653774824
      ],
      [
        "Ġrecent",
        -8.80600045479499
      ],
      [
        "Ġaction",
        -8.808120492082118
      ],
      [
        "to",
        -8.808862741903186
      ],
      [
        "Ġnetwork",
        -8.809630619814289
      ],
      [
        "Ġfeatures",
        -8.810185304530536
      ],
      [
        "Ġstudie",
        -8.81032415450284
      ],
      [
        "Ġread",
        -8.811286987560756
      ],
      [
        "Ġhim",
        -8.813562449224493
      ],
      [
        "Ġcomplex",
        -8.81406889240916
      ],
      [
        "Ġbasic",
        -8.814702926388467
      ],
      [
        "Ġmanagement",
        -8.816839635864472
      ],
      [
        "âĢ¦",
        -8.81860939343925
      ],
      [
        "Ġaddress",
        -8.818974913961114
      ],
      [
        "Ġvideo",
        -8.819836016506109
      ],
      [
        "Ġscience",
        -8.82088184197538
      ],
      [
        "Ġbring",
        -8.820935342469681
      ],
      [
        "Ġlist",
        -8.821341233877849
      ],
      [
        "Ġenjoy",
        -8.822030366003743
      ],
      [
        "Ġhours",
        -8.823029304182917
      ],
      [
        "O",
        -8.823959456772322
      ],
      [
        "Ġbelieve",
        -8.826277935357997
      ],
      [
        "Ġapproach",
        -8.826312881342059
      ],
      [
        "Ġuser",
        -8.826356650937118
      ],
      [
        "Ġeffect",
        -8.826881807026306
      ],
      [
        "Ġchoice",
        -8.82786197144724
      ],
      [
        "Ġposition",
        -8.830259810728634
      ],
      [
        "Ġamong",
        -8.831141477245229
      ],
      [
        "Ġclimate",
        -8.831788944079934
      ],
      [
        "Ġaddition",
        -8.83375483104394
      ],
      [
        "Ġskills",
        -8.833813269204459
      ],
      [
        "Ġdiscover",
        -8.834838769550277
      ],
      [
        "Ġmatter",
        -8.834923556974992
      ],
      [
        "ĠW",
        -8.836030232874776
      ],
      [
        "Ġaccess",
        -8.83647044699532
      ],
      [
        "Ġpaper",
        -8.83685589926554
      ],
      [
        "Ġstructure",
        -8.839926794733088
      ],
      [
        "Ġeat",
        -8.841958361089588
      ],
      [
        "Ġgett",
        -8.84608356290423
      ],
      [
        "Ġb",
        -8.847637655148908
      ],
      [
        "Ġeither",
        -8.848020987240766
      ],
      [
        "Ġinside",
        -8.848699279995763
      ],
      [
        "Ġsafety",
        -8.848961643984532
      ],
      [
        "Ġmove",
        -8.849235887321305
      ],
      [
        "âĢĶ",
        -8.85035170134102
      ],
      [
        "ĠG",
        -8.850919252484553
      ],
      [
        "Ġalready",
        -8.85256551831296
      ],
      [
        "w",
        -8.85347530021915
      ],
      [
        "Ġsense",
        -8.858901210702397
      ],
      [
        "Ġexplain",
        -8.860819633506754
      ],
      [
        "Ġcommunity",
        -8.862156272421103
      ],
      [
        "Ġbit",
        -8.86441412973424
      ],
      [
        "Ġinterest",
        -8.864925277617163
      ],
      [
        "Ġresponse",
        -8.865482567153284
      ],
      [
        "Ġthought",
        -8.865549636365113
      ],
      [
        "Ġstay",
        -8.865940813477213
      ],
      [
        "For",
        -8.867400964181506
      ],
      [
        "Ġnormal",
        -8.869825216317096
      ],
      [
        "Ġanswer",
        -8.87063474814774
      ],
      [
        "Ġhead",
        -8.871761245826125
      ],
      [
        "ĠOne",
        -8.871912336730897
      ],
      [
        "Ġbehavior",
        -8.872737493009623
      ],
      [
        "Ġagain",
        -8.873066766416494
      ],
      [
        "Ġslow",
        -8.880373615897987
      ],
      [
        "Ġperformance",
        -8.881324790980027
      ],
      [
        "Ġpublic",
        -8.88365761409544
      ],
      [
        "Ġshape",
        -8.883809881027988
      ],
      [
        "Ġmention",
        -8.88601428087216
      ],
      [
        "Ġliving",
        -8.886359845321227
      ],
      [
        "Ġtalk",
        -8.886897904165352
      ],
      [
        "Ġsound",
        -8.887958735518385
      ],
      [
        "Ġbase",
        -8.888728795332414
      ],
      [
        "Ġperiod",
        -8.890431047881258
      ],
      [
        "Ġred",
        -8.896675714187621
      ],
      [
        "Ġbelow",
        -8.897619020413998
      ],
      [
        "Ġfall",
        -8.898056017379584
      ],
      [
        "Ġconcern",
        -8.902145054962606
      ],
      [
        "Ġstress",
        -8.90299967380907
      ],
      [
        "Ġcompany",
        -8.903272186504136
      ],
      [
        "Ġmilk",
        -8.904018846602305
      ],
      [
        "ĠL",
        -8.90666028898033
      ],
      [
        "Ġseen",
        -8.907383118985589
      ],
      [
        "Ġbrain",
        -8.909632286718782
      ],
      [
        "Ġfee",
        -8.912129563757535
      ],
      [
        "Ġthough",
        -8.913936774465006
      ],
      [
        "Ġidea",
        -8.91450072659528
      ],
      [
        "Ġpopular",
        -8.91547459675422
      ],
      [
        "Ġmind",
        -8.915766309179887
      ],
      [
        "Ġassociate",
        -8.917490520388345
      ],
      [
        "Ġnature",
        -8.919717781219003
      ],
      [
        "Ġpositive",
        -8.922742332806557
      ],
      [
        "Ġflower",
        -8.925465730372187
      ],
      [
        "ĠUnit",
        -8.926893209925304
      ],
      [
        "Ġwomen",
        -8.927087062182874
      ],
      [
        "ĠWhil",
        -8.927167629860588
      ],
      [
        "Ġmajor",
        -8.92766173422682
      ],
      [
        "ite",
        -8.93256740614841
      ],
      [
        "ers",
        -8.93268510332216
      ],
      [
        "Ġtoward",
        -8.93292791064263
      ],
      [
        "Ġwaste",
        -8.934265563872405
      ],
      [
        "Ġwhole",
        -8.93506749769421
      ],
      [
        "Ġtotal",
        -8.93746332691195
      ],
      [
        "Ġhistor",
        -8.937821419277466
      ],
      [
        "Ġscientist",
        -8.938853627448385
      ],
      [
        "Ġbuild",
        -8.938971941628292
      ],
      [
        "Ġcode",
        -8.939235711102103
      ],
      [
        "Ġadult",
        -8.94014724622291
      ],
      [
        "Ġexercise",
        -8.94140854793689
      ],
      [
        "Ġpersonal",
        -8.94275590378854
      ],
      [
        "F",
        -8.944641568005302
      ],
      [
        "Ġsetting",
        -8.944681493305655
      ],
      [
        "H",
        -8.945958434261737
      ],
      [
        "Ġresearchers",
        -8.947246936166545
      ],
      [
        "Ġmovement",
        -8.94796700654495
      ],
      [
        "Ġmonths",
        -8.948923294741075
      ],
      [
        "Ġcold",
        -8.94974533543823
      ],
      [
        "Ġtools",
        -8.950326670912458
      ],
      [
        "Ġcool",
        -8.95416746147764
      ],
      [
        "Ġtip",
        -8.959964619809767
      ],
      [
        "M",
        -8.960213892472233
      ],
      [
        "Ġprovid",
        -8.96126791686696
      ],
      [
        "Ġcorrect",
        -8.962264133846801
      ],
      [
        "ĠAI",
        -8.962291624908662
      ],
      [
        "Ġchemical",
        -8.96257656322507
      ],
      [
        "Ġever",
        -8.963878746186994
      ],
      [
        "Ġsugar",
        -8.96527926954483
      ],
      [
        "Ġcut",
        -8.966023523459889
      ],
      [
        "Ġways",
        -8.968192555741357
      ],
      [
        "Ġbreak",
        -8.968480948440547
      ],
      [
        "Ġtraditional",
        -8.96870065593206
      ],
      [
        "_",
        -8.970071800219097
      ],
      [
        "Ġpercent",
        -8.970189309514451
      ],
      [
        "Ġappear",
        -8.971096594539222
      ],
      [
        "Ġbatter",
        -8.97384747354172
      ],
      [
        "Ġview",
        -8.973916536685511
      ],
      [
        "Ġgame",
        -8.97524807145929
      ],
      [
        "ĠAn",
        -8.975686328633243
      ],
      [
        "Ġam",
        -8.976315234391
      ],
      [
        "Ġplastic",
        -8.976700235358683
      ],
      [
        "Ġcancer",
        -8.977519631186787
      ],
      [
        "Ġgenetic",
        -8.978034508897807
      ],
      [
        "Ġdetermine",
        -8.978128087567365
      ],
      [
        "Ġblack",
        -8.97929393117402
      ],
      [
        "Ġknowledge",
        -8.982378067331112
      ],
      [
        "Ġland",
        -8.98318654628617
      ],
      [
        "Ġpattern",
        -8.983586339951094
      ],
      [
        "Ġbalance",
        -8.985982322274484
      ],
      [
        "Ġreach",
        -8.98872253952203
      ],
      [
        "Ġsomeone",
        -8.991290914011415
      ],
      [
        "Ġroom",
        -8.992146153711786
      ],
      [
        "Ġoutside",
        -8.992196740987199
      ],
      [
        "Ġtell",
        -8.992972317423343
      ],
      [
        "Ġcontinue",
        -8.996372159348951
      ],
      [
        "taking",
        -8.996981593258742
      ],
      [
        "Ġfruit",
        -8.997155342094079
      ],
      [
        "Ġdoing",
        -9.001115886843985
      ],
      [
        "Ġactive",
        -9.00123378049781
      ],
      [
        "Ġrepresent",
        -9.001370758077655
      ],
      [
        "ĠF",
        -9.002294998818835
      ],
      [
        "Ġtypically",
        -9.002733142706452
      ],
      [
        "Ġmedical",
        -9.003417353334848
      ],
      [
        "Ġsymptoms",
        -9.003920388684634
      ],
      [
        "z",
        -9.005113458569916
      ],
      [
        "Ġforce",
        -9.005860191627026
      ],
      [
        "Ġonline",
        -9.00781504281753
      ],
      [
        "Ġstrateg",
        -9.008370322919358
      ],
      [
        "âĢ¢",
        -9.009168860261742
      ],
      [
        "Ġoverall",
        -9.009492464999669
      ],
      [
        "Ġaverage",
        -9.00977199116339
      ],
      [
        "Ġwear",
        -9.009822898445616
      ],
      [
        "Ġwinter",
        -9.009964543863097
      ],
      [
        "Ġyoung",
        -9.011004667122922
      ],
      [
        ".\"ĊĊ",
        -9.013210362772917
      ],
      [
        "N",
        -9.01432998304583
      ],
      [
        "Ġapplications",
        -9.015640074670248
      ],
      [
        "Ġmuscle",
        -9.016420169178296
      ],
      [
        "Ġchoose",
        -9.016626664614048
      ],
      [
        "Ġact",
        -9.016724673267856
      ],
      [
        "man",
        -9.017292854398914
      ],
      [
        "Ġservice",
        -9.017294447668434
      ],
      [
        "Ġclass",
        -9.018892352959494
      ],
      [
        "Ġsimpl",
        -9.02069345672211
      ],
      [
        "Ġhouse",
        -9.021158516880346
      ],
      [
        "Ġpast",
        -9.02349014522187
      ],
      [
        "As",
        -9.025040258317045
      ],
      [
        "ĠMan",
        -9.025951229005845
      ],
      [
        "Ġisn",
        -9.02829226095852
      ],
      [
        "Ġcrucial",
        -9.028708978843987
      ],
      [
        "Ġinvolve",
        -9.028865822624514
      ],
      [
        "Ġcamera",
        -9.030141815249433
      ],
      [
        "Ġidentify",
        -9.030507804410377
      ],
      [
        "Ġperfect",
        -9.031796786291462
      ],
      [
        "Ġpain",
        -9.033858798507037
      ],
      [
        "So",
        -9.034803990639638
      ],
      [
        "Ġperform",
        -9.035376378383145
      ],
      [
        "Ġglobal",
        -9.036636277167831
      ],
      [
        "Ġgreen",
        -9.037274227186872
      ],
      [
        "ach",
        -9.039164461083644
      ],
      [
        "Ġhelps",
        -9.04286356202903
      ],
      [
        "Ġentire",
        -9.04592153432392
      ],
      [
        "Ġtarget",
        -9.046008168705535
      ],
      [
        "Ġeffort",
        -9.047121582359846
      ],
      [
        "Ġbirds",
        -9.047135186116773
      ],
      [
        "Ġanalysis",
        -9.048410395405874
      ],
      [
        "Ġreaction",
        -9.04937717812932
      ],
      [
        "Ġrule",
        -9.049631701706383
      ],
      [
        "Ġmix",
        -9.049824968211963
      ],
      [
        "Ġhear",
        -9.050842972132724
      ],
      [
        "ĠK",
        -9.05085800702754
      ],
      [
        "ĠDo",
        -9.051104036611534
      ],
      [
        "Ġexplore",
        -9.052477289301994
      ],
      [
        "ĠSchool",
        -9.053233911658802
      ],
      [
        "Ġhold",
        -9.054623822884064
      ],
      [
        "Ġcontact",
        -9.055048739951722
      ],
      [
        "Ġfive",
        -9.055469236658553
      ],
      [
        "Ġspecial",
        -9.055897154295163
      ],
      [
        "ĠJ",
        -9.057037434263002
      ],
      [
        "Ġbuy",
        -9.059131169720636
      ],
      [
        "Ġrelationship",
        -9.06044750413614
      ],
      [
        "Ġseason",
        -9.061662298630493
      ],
      [
        "Ġguide",
        -9.062101111863791
      ],
      [
        "ĠNational",
        -9.062284339588915
      ],
      [
        "Ġprimar",
        -9.064089668618884
      ],
      [
        "Ġsituation",
        -9.064887394254209
      ],
      [
        "Ġreceive",
        -9.065137308150437
      ],
      [
        "Ġmodern",
        -9.066807598913543
      ],
      [
        "Ġchicken",
        -9.067665139548652
      ],
      [
        "Ġmetal",
        -9.069744354770872
      ],
      [
        "Ġrelated",
        -9.069798411030884
      ],
      [
        "Ġserve",
        -9.07051480276794
      ],
      [
        "Ġflow",
        -9.071070978179542
      ],
      [
        "Ġmoney",
        -9.072181543691386
      ],
      [
        "Ġinfection",
        -9.074147078935724
      ],
      [
        "Ġmultiple",
        -9.07671337977904
      ],
      [
        "by",
        -9.076753492309862
      ],
      [
        "Ġsometime",
        -9.07727916465318
      ],
      [
        ".\"Ċ",
        -9.080439594840094
      ],
      [
        "Ġlocation",
        -9.080666074341451
      ],
      [
        "Ġstop",
        -9.084678056415829
      ],
      [
        "Ġdevice",
        -9.08509992775899
      ],
      [
        "Ġbacteria",
        -9.085486875660902
      ],
      [
        "Ġauthor",
        -9.086303946589677
      ],
      [
        "be",
        -9.087278619414167
      ],
      [
        "Ġdivers",
        -9.089294302904472
      ],
      [
        "Ġregion",
        -9.089427545844805
      ],
      [
        "Ġetc",
        -9.08977178435823
      ],
      [
        "Ġcomplete",
        -9.090548024116584
      ],
      [
        "land",
        -9.090712436995044
      ],
      [
        "Ġdigital",
        -9.091120778195885
      ],
      [
        "Ġdecision",
        -9.091391081609888
      ],
      [
        "Ġhot",
        -9.093703828615304
      ],
      [
        "Ġwood",
        -9.093872428060829
      ],
      [
        "Ġtool",
        -9.093987787485322
      ],
      [
        "ĠDNA",
        -9.095616893626906
      ],
      [
        "Ġself",
        -9.095812114679866
      ],
      [
        "Ġgot",
        -9.098184453631932
      ],
      [
        "Ġrelease",
        -9.098717783537484
      ],
      [
        "Ġproperties",
        -9.101150695805623
      ],
      [
        "Ġcycle",
        -9.102879263651811
      ],
      [
        "Ġsignal",
        -9.104355896605584
      ],
      [
        "ĠHealth",
        -9.105274437762668
      ],
      [
        "Ġremove",
        -9.105603634162142
      ],
      [
        "Ġmonitor",
        -9.106438728500471
      ],
      [
        "ĠâĢľ",
        -9.108055519585848
      ],
      [
        "Ġexact",
        -9.108073118463082
      ],
      [
        "Ġexpert",
        -9.108181728280334
      ],
      [
        ").Ċ",
        -9.111356000737082
      ],
      [
        "Ġmemor",
        -9.111731979794236
      ],
      [
        "Ġexperiment",
        -9.112056396131464
      ],
      [
        "Ġregard",
        -9.112841266484777
      ],
      [
        "where",
        -9.1137028874984
      ],
      [
        "R",
        -9.115271025963676
      ],
      [
        "Ġtrue",
        -9.115587306987068
      ],
      [
        "throughout",
        -9.118170083759102
      ],
      [
        "Ġenhance",
        -9.118945465748771
      ],
      [
        "ather",
        -9.119665133220844
      ],
      [
        "Ġrelative",
        -9.12056633024111
      ],
      [
        "Ġnutrient",
        -9.12186463853996
      ],
      [
        "ism",
        -9.122213533048171
      ],
      [
        "Ġcompared",
        -9.124320051936165
      ],
      [
        "Ġpass",
        -9.12528920908352
      ],
      [
        "Ġinvolved",
        -9.12843743220186
      ],
      [
        "Ġselect",
        -9.128478376074373
      ],
      [
        "ĠAl",
        -9.128478950555918
      ],
      [
        "Ġelements",
        -9.128485685002284
      ],
      [
        "Ġsuccessful",
        -9.12970105476677
      ],
      [
        "G",
        -9.12997240385215
      ],
      [
        "Ġteacher",
        -9.130050278913156
      ],
      [
        "Ġice",
        -9.13060047114136
      ],
      [
        "Ġlayer",
        -9.131150302462114
      ],
      [
        "Ġblock",
        -9.132215384509342
      ],
      [
        "Ġeating",
        -9.133626824919066
      ],
      [
        "yet",
        -9.134622108184352
      ],
      [
        "Ġlength",
        -9.13535867605453
      ],
      [
        "Ġapplication",
        -9.136938974207524
      ],
      [
        "Ġtravel",
        -9.138409151186789
      ],
      [
        "Ġnight",
        -9.1387891583367
      ],
      [
        "cy",
        -9.139398211013088
      ],
      [
        "ĠAll",
        -9.1432242057699
      ],
      [
        "Ġcontribute",
        -9.14497715632729
      ],
      [
        "Ġbad",
        -9.146513305422712
      ],
      [
        "Ġoptions",
        -9.147031688125754
      ],
      [
        "Ġlink",
        -9.1472107658656
      ],
      [
        "Ġlanguage",
        -9.148256857164384
      ],
      [
        "Ġtrack",
        -9.148643934229488
      ],
      [
        "Ġimport",
        -9.150535335505063
      ],
      [
        "ĠNorth",
        -9.1509203773508
      ],
      [
        "Ġsoftware",
        -9.151718129889217
      ],
      [
        "ar",
        -9.154534737614672
      ],
      [
        "Ġfarm",
        -9.159347212753328
      ],
      [
        "Ġsubject",
        -9.16118591608288
      ],
      [
        "Ġsummer",
        -9.161948352410022
      ],
      [
        "Ġattention",
        -9.162090142214574
      ],
      [
        "Ġequipment",
        -9.162762977886608
      ],
      [
        "Ġsample",
        -9.163960555624572
      ],
      [
        "Ġtaken",
        -9.164269506151893
      ],
      [
        "Ġprobabl",
        -9.17015373585085
      ],
      [
        "Ġwon",
        -9.173228436400247
      ],
      [
        "Ġfoods",
        -9.17365207155646
      ],
      [
        "Ġingredient",
        -9.174089081662853
      ],
      [
        "Ġvisit",
        -9.176170444827504
      ],
      [
        "Ġsleep",
        -9.176491214479892
      ],
      [
        "W",
        -9.176831994550302
      ],
      [
        "Ġstory",
        -9.177377467857855
      ],
      [
        "Ġspread",
        -9.17923067340711
      ],
      [
        "Ġincreasing",
        -9.179286411962716
      ],
      [
        "Ġkill",
        -9.180249915191942
      ],
      [
        "Ġapply",
        -9.18053549414166
      ],
      [
        "Ġeggs",
        -9.181069865321112
      ],
      [
        "Ġstudent",
        -9.182657896970357
      ],
      [
        "Ġextreme",
        -9.182821240558564
      ],
      [
        "Ġoption",
        -9.183199189180652
      ],
      [
        "Ġservices",
        -9.183722141054703
      ],
      [
        "Ġsea",
        -9.184092788229854
      ],
      [
        "hind",
        -9.184180145416924
      ],
      [
        "Ġefficient",
        -9.185663553529665
      ],
      [
        "ĠBe",
        -9.186851571732142
      ],
      [
        "V",
        -9.188285306677155
      ],
      [
        "Ġdescribe",
        -9.18868069432376
      ],
      [
        "ĠAt",
        -9.19060752340186
      ],
      [
        "Ġsave",
        -9.190888759713843
      ],
      [
        "Ġconnection",
        -9.191493381294825
      ],
      [
        "L",
        -9.191564423089044
      ],
      [
        "Ġnegative",
        -9.193304116031689
      ],
      [
        "ĠOn",
        -9.195715477629324
      ],
      [
        "Ġdistance",
        -9.19623327510406
      ],
      [
        "Ġde",
        -9.19696577387443
      ],
      [
        "Ġfat",
        -9.197361067155576
      ],
      [
        "Ġadditional",
        -9.198881188918332
      ],
      [
        "Why",
        -9.199029725752094
      ],
      [
        "Ġgain",
        -9.199723673062806
      ],
      [
        "Ġfill",
        -9.200968164789645
      ],
      [
        "ility",
        -9.203456404958432
      ],
      [
        "Ġfinding",
        -9.203565087673027
      ],
      [
        "Ġdrive",
        -9.20360788552251
      ],
      [
        "Ġcaus",
        -9.203899476417511
      ],
      [
        "Ġshown",
        -9.205547748876024
      ],
      [
        "One",
        -9.205713084401289
      ],
      [
        "Ġcountry",
        -9.206131107219909
      ],
      [
        "Ġaccount",
        -9.207506577749022
      ],
      [
        "Ġweather",
        -9.208586239237796
      ],
      [
        "âĢĿ",
        -9.208805055516528
      ],
      [
        "Ġeducation",
        -9.210030751698635
      ],
      [
        "Ġachieve",
        -9.211130752625545
      ],
      [
        "Ġmeat",
        -9.211511324275968
      ],
      [
        "Ġcharge",
        -9.211568106167402
      ],
      [
        "Ġsearch",
        -9.212234522041484
      ],
      [
        "Ġplayer",
        -9.212317575710756
      ],
      [
        "Ġadded",
        -9.214257925957352
      ],
      [
        "ĠCan",
        -9.21435750149135
      ],
      [
        "Ġpurpose",
        -9.21494132044229
      ],
      [
        "at",
        -9.215265407739016
      ],
      [
        "Ġwebsite",
        -9.217404386540624
      ],
      [
        ">",
        -9.218760125611205
      ],
      [
        "quite",
        -9.219572145929645
      ],
      [
        "Ġmonth",
        -9.220123608157635
      ],
      [
        "Ġprice",
        -9.220643498079944
      ],
      [
        "Ġcompound",
        -9.221028370291569
      ],
      [
        "Ġcrop",
        -9.22141497922351
      ],
      [
        "Ġrecord",
        -9.222352534499656
      ],
      [
        "Ġdai",
        -9.224065793150736
      ],
      [
        "Ġfun",
        -9.22414783340598
      ],
      [
        "ĠStates",
        -9.228221906379158
      ],
      [
        "Ġparticle",
        -9.228602579628514
      ],
      [
        "Ġart",
        -9.22956954267476
      ],
      [
        "Ġsalt",
        -9.229631308213708
      ],
      [
        "ĠScience",
        -9.230107941738687
      ],
      [
        "ĠHere",
        -9.231278328938831
      ],
      [
        "out",
        -9.231319915565123
      ],
      [
        "Ġfinal",
        -9.231549683860012
      ],
      [
        "Ġman",
        -9.232374453869268
      ],
      [
        "Ġrest",
        -9.233232632650974
      ],
      [
        "Ġreport",
        -9.234410193774378
      ],
      [
        "Ġevidence",
        -9.234560888688296
      ],
      [
        "Ġmeasure",
        -9.235686094810134
      ],
      [
        "Ġprocesse",
        -9.235936620920912
      ],
      [
        "Ġmolecule",
        -9.238675424564937
      ],
      [
        "Ġdrink",
        -9.241074911059885
      ],
      [
        "\\",
        -9.242918470255624
      ],
      [
        "Ġaspect",
        -9.243260294127705
      ],
      [
        "quickly",
        -9.243600765088315
      ],
      [
        "But",
        -9.246331885034346
      ],
      [
        "Ġgenes",
        -9.247085199666364
      ],
      [
        "Ġgoal",
        -9.247950015181342
      ],
      [
        "Ġinput",
        -9.24813638925557
      ],
      [
        "Ġago",
        -9.249558244958816
      ],
      [
        ".\"",
        -9.249560544569144
      ],
      [
        "Ġlater",
        -9.250190732434
      ],
      [
        "Ġoutput",
        -9.251431723612242
      ],
      [
        "Ġscale",
        -9.252796381144364
      ],
      [
        "Ġattack",
        -9.25290874699344
      ],
      [
        "Ġhalf",
        -9.252986443825566
      ],
      [
        "=",
        -9.254941590037811
      ],
      [
        "Ġconcept",
        -9.255767008833171
      ],
      [
        "Ġdisplay",
        -9.257650368762318
      ],
      [
        "Ġreturn",
        -9.257907597242651
      ],
      [
        "Ġsensor",
        -9.259597305003382
      ],
      [
        "Ġappropriate",
        -9.260284423104434
      ],
      [
        "Ġsection",
        -9.260288009191164
      ],
      [
        "Ġthemsel",
        -9.262170127527575
      ],
      [
        "Ġdark",
        -9.263299091119285
      ],
      [
        "Ġreduc",
        -9.264729719232976
      ],
      [
        "Ġpre",
        -9.26490324898529
      ],
      [
        "Ġgovernment",
        -9.26542974714365
      ],
      [
        "Ġfront",
        -9.266463516846937
      ],
      [
        "Ġoffers",
        -9.266895875303485
      ],
      [
        "Ġjob",
        -9.267318290034323
      ],
      [
        "Ġindicate",
        -9.268776956829438
      ],
      [
        "ful",
        -9.26915765933948
      ],
      [
        "Ġproduced",
        -9.27146779717343
      ],
      [
        "Ġhorse",
        -9.271472064473336
      ],
      [
        "Ġdevices",
        -9.27232376271617
      ],
      [
        "Ġdidn",
        -9.2744631282591
      ],
      [
        "Ġvolume",
        -9.274844860029962
      ],
      [
        "Ġoriginal",
        -9.277171351335314
      ],
      [
        "Ġsupply",
        -9.277591480838996
      ],
      [
        "Ġspot",
        -9.278691239302908
      ],
      [
        "ves",
        -9.278968187234987
      ],
      [
        "Ġdoctor",
        -9.279204988335977
      ],
      [
        "Ġinfluence",
        -9.279432079179692
      ],
      [
        "Ġcenter",
        -9.279531129221796
      ],
      [
        "Ġsmaller",
        -9.27986878490746
      ],
      [
        "Ġestablish",
        -9.281752520292972
      ],
      [
        "ĠMore",
        -9.28202709793086
      ],
      [
        "Ġpay",
        -9.282418244250175
      ],
      [
        "ĠV",
        -9.283157954956849
      ],
      [
        "Ġenter",
        -9.283310058865638
      ],
      [
        "Ġnode",
        -9.283404283345714
      ],
      [
        "ĠX",
        -9.283907295136729
      ],
      [
        "Ġpoints",
        -9.28426608438289
      ],
      [
        "Ġstage",
        -9.284432567517063
      ],
      [
        "Ġfeed",
        -9.287042008136089
      ],
      [
        "Ġinsect",
        -9.288258983486
      ],
      [
        "more",
        -9.288267953535158
      ],
      [
        "ĠAmerica",
        -9.288591193969577
      ],
      [
        "Ġwatch",
        -9.290006357673292
      ],
      [
        "Ġkids",
        -9.291375204861277
      ],
      [
        "Ġoperation",
        -9.291407926135625
      ],
      [
        "Ġphone",
        -9.291749116732554
      ],
      [
        "Ġmeet",
        -9.293336162040378
      ],
      [
        "Ġfile",
        -9.293366387699187
      ],
      [
        "Ġcommunication",
        -9.293717754889812
      ],
      [
        "Ġscientific",
        -9.293994928760911
      ],
      [
        "Ġreading",
        -9.297671073389472
      ],
      [
        "Ġtank",
        -9.29813016562712
      ],
      [
        "Ġspring",
        -9.2987446499747
      ],
      [
        "ĠDr",
        -9.298817342168608
      ],
      [
        "Ġmental",
        -9.29958214679242
      ],
      [
        "Ġseparate",
        -9.299646388507366
      ],
      [
        "ĠUse",
        -9.299959560205778
      ],
      [
        "Ġtakes",
        -9.300011537954584
      ],
      [
        "Ġversion",
        -9.301838240278492
      ],
      [
        "Ġworks",
        -9.303322145503564
      ],
      [
        "Ġfresh",
        -9.30359089852908
      ],
      [
        "Ġstandard",
        -9.303739606550623
      ],
      [
        "Ġextend",
        -9.304358711990112
      ],
      [
        "Ġquick",
        -9.304638304190426
      ],
      [
        "-to",
        -9.305325380135372
      ],
      [
        "ĠShe",
        -9.306221197036898
      ],
      [
        "Ġleaf",
        -9.307049313563262
      ],
      [
        "Ġlack",
        -9.30714211380247
      ],
      [
        "Ġdiscuss",
        -9.311626430919048
      ],
      [
        "Ġexpect",
        -9.31253287959626
      ],
      [
        "Ġconduct",
        -9.31406423555049
      ],
      [
        "Ġestimate",
        -9.31480367342041
      ],
      [
        "Ġlimit",
        -9.315898231615028
      ],
      [
        "Ġinstall",
        -9.316958585665478
      ],
      [
        "Ġcats",
        -9.317077710254392
      ],
      [
        "Ġtend",
        -9.318939948363584
      ],
      [
        "ĠYes",
        -9.319967868183683
      ],
      [
        "Â°",
        -9.32133884825474
      ],
      [
        "ĠAfter",
        -9.323304193182912
      ],
      [
        "Ġbaby",
        -9.325027478973
      ],
      [
        "Ġchallenges",
        -9.325841963434527
      ],
      [
        "Ġdirection",
        -9.331510262411625
      ],
      [
        "Ġorganic",
        -9.332601639441606
      ],
      [
        "Ġcity",
        -9.33341007007254
      ],
      [
        "Ġextra",
        -9.33488993246219
      ],
      [
        "Ġstrength",
        -9.335082844216345
      ],
      [
        "Ġstone",
        -9.336542724862372
      ],
      [
        "Ġgene",
        -9.337062366278625
      ],
      [
        "Ġocean",
        -9.337361111129162
      ],
      [
        "Ġdraw",
        -9.337821703485872
      ],
      [
        "Ġsix",
        -9.337917833476473
      ],
      [
        "running",
        -9.338085414588004
      ],
      [
        "Ġcutting",
        -9.340194723340955
      ],
      [
        "Ġfeature",
        -9.340333062562005
      ],
      [
        "Ġmainten",
        -9.340485954947194
      ],
      [
        "Ġwalk",
        -9.34124348685872
      ],
      [
        "Ġideal",
        -9.343849883068913
      ],
      [
        "Ġmodels",
        -9.3447564009257
      ],
      [
        "Ġtaste",
        -9.348132318641898
      ],
      [
        "Ġrepair",
        -9.350570614451224
      ],
      [
        "Ġcompletely",
        -9.351115400922785
      ],
      [
        "Ġgoe",
        -9.351373361076416
      ],
      [
        "Ġdrain",
        -9.352028817116343
      ],
      [
        "Ġemission",
        -9.353974463771504
      ],
      [
        "Ġsubstance",
        -9.354179189113085
      ],
      [
        "Ġevent",
        -9.355659448879834
      ],
      [
        "Because",
        -9.356517198638716
      ],
      [
        "Ġcritical",
        -9.357455160548389
      ],
      [
        "Ġseeds",
        -9.359442019585671
      ],
      [
        "yourself",
        -9.359565849007552
      ],
      [
        "Ġaim",
        -9.3602703250428
      ],
      [
        "companie",
        -9.361809504180345
      ],
      [
        "Ġelse",
        -9.361824204257555
      ],
      [
        "Ġglass",
        -9.363122946686095
      ],
      [
        "Ġadvance",
        -9.363314898933304
      ],
      [
        "Ġmedia",
        -9.363523644704369
      ],
      [
        "Ġeyes",
        -9.363617974511026
      ],
      [
        "Ġconstant",
        -9.364409503314388
      ],
      [
        "day",
        -9.364603469203225
      ],
      [
        "fish",
        -9.365290496032962
      ],
      [
        "ĠResearch",
        -9.366189319199536
      ],
      [
        "Ġimages",
        -9.366710697593035
      ],
      [
        "Ġbegin",
        -9.36854309831715
      ],
      [
        "Ġenable",
        -9.369148512140928
      ],
      [
        "care",
        -9.370206828163482
      ],
      [
        "Ġsuccess",
        -9.370858370186172
      ],
      [
        "Q",
        -9.371056046967
      ],
      [
        "Ġteeth",
        -9.373997180620158
      ],
      [
        "Ġblue",
        -9.374135541278209
      ],
      [
        "Ġdate",
        -9.374971214324896
      ],
      [
        "Ġsolar",
        -9.375777329912616
      ],
      [
        "ĠEarth",
        -9.377018394719512
      ],
      [
        "Ġsun",
        -9.377662809137904
      ],
      [
        "Ġplann",
        -9.37954887157112
      ],
      [
        "Whil",
        -9.380467854353633
      ],
      [
        "Ġdeath",
        -9.380596981899178
      ],
      [
        "Ġlives",
        -9.381111073112535
      ],
      [
        "Ġbird",
        -9.381194933906382
      ],
      [
        "ĠWhy",
        -9.381651728544137
      ],
      [
        "Ġlate",
        -9.383662715616769
      ],
      [
        "ĠAdditional",
        -9.383992919239835
      ],
      [
        "Ġmass",
        -9.384008990284418
      ],
      [
        "Ġoxygen",
        -9.3845819827763
      ],
      [
        "Ġstyle",
        -9.390283243652377
      ],
      [
        "Ġfemale",
        -9.390426178426726
      ],
      [
        "Ġflight",
        -9.390656255687633
      ],
      [
        "ĠUS",
        -9.391277352931644
      ],
      [
        "Ġitems",
        -9.392999787204388
      ],
      [
        "Ġmanage",
        -9.393384421560912
      ],
      [
        "Ġrich",
        -9.393736556119013
      ],
      [
        "Ġcircuit",
        -9.394188424916107
      ],
      [
        "Ġcentur",
        -9.395924418404814
      ],
      [
        "Ġpump",
        -9.39643085627696
      ],
      [
        "ĠFrom",
        -9.397573984381676
      ],
      [
        "Ġaware",
        -9.400155166947538
      ],
      [
        "Ġfine",
        -9.400575335906272
      ],
      [
        "Ġuseful",
        -9.401491729253191
      ],
      [
        "Ġdecrease",
        -9.402343019178836
      ],
      [
        "Ġseries",
        -9.404597112305323
      ],
      [
        "Ġear",
        -9.404738994457812
      ],
      [
        "Ġinjur",
        -9.405168811986474
      ],
      [
        "Ġhair",
        -9.405398999078823
      ],
      [
        "ĠMost",
        -9.405478483925243
      ],
      [
        "Ġtrain",
        -9.407755328328332
      ],
      [
        "Ġmeal",
        -9.409101034935968
      ],
      [
        "ĠSouth",
        -9.409164888267927
      ],
      [
        "Ġresponsibl",
        -9.410325313363078
      ],
      [
        "Ġreplace",
        -9.410531563499436
      ],
      [
        "Ġnotice",
        -9.411092993617128
      ],
      [
        "Ġprotection",
        -9.413066494751614
      ],
      [
        "Ġmale",
        -9.41366387734498
      ],
      [
        "Ġgenerate",
        -9.41543410055588
      ],
      [
        "Ġbox",
        -9.41571484562208
      ],
      [
        "Ġfeeling",
        -9.417473515082415
      ],
      [
        "ĠWorld",
        -9.41872718436072
      ],
      [
        ".S",
        -9.41875973270659
      ],
      [
        "Ġbag",
        -9.420318495088548
      ],
      [
        "Ġliquid",
        -9.421352628566275
      ],
      [
        "Ġdiabetes",
        -9.421449209287315
      ],
      [
        "Ġencourage",
        -9.424449517699127
      ],
      [
        "Ġdocument",
        -9.425700618912687
      ],
      [
        "Ġconnect",
        -9.4266790259074
      ],
      [
        "Ġcame",
        -9.42676087435732
      ],
      [
        "Ġfit",
        -9.426768453426442
      ],
      [
        "Ġremember",
        -9.427280629900366
      ],
      [
        "Ġbuil",
        -9.428953223534563
      ],
      [
        "Ġsteps",
        -9.430229544267906
      ],
      [
        "Ġcharacteristic",
        -9.43149529874592
      ],
      [
        "Ġengineer",
        -9.431730065995149
      ],
      [
        "Ġball",
        -9.432568428363352
      ],
      [
        "Ġmoving",
        -9.433144976891402
      ],
      [
        "Ġseek",
        -9.434928297210885
      ],
      [
        "**",
        -9.43493098530476
      ],
      [
        "Ġfrequent",
        -9.435662225383004
      ],
      [
        "Can",
        -9.435947566742758
      ],
      [
        "Ġmembers",
        -9.436005891929543
      ],
      [
        "Ġfilter",
        -9.438086526967147
      ],
      [
        "Ġdetect",
        -9.439287771433548
      ],
      [
        "Ġcountr",
        -9.439295072368571
      ],
      [
        "Ġdeal",
        -9.439318313074828
      ],
      [
        "Ġconvert",
        -9.44006007184177
      ],
      [
        "ization",
        -9.44044101733518
      ],
      [
        "Ġlimited",
        -9.442322703696323
      ],
      [
        "Ġcarry",
        -9.442418043291134
      ],
      [
        "Ġnote",
        -9.444207815779135
      ],
      [
        "Ġpoor",
        -9.444550040886424
      ],
      [
        "Ġhandle",
        -9.444992635457886
      ],
      [
        "Ġframe",
        -9.445194620360551
      ],
      [
        "Ġtransport",
        -9.44605826357282
      ],
      [
        "Ġtable",
        -9.448107447093545
      ],
      [
        "Ġculture",
        -9.448265408344854
      ],
      [
        "Ġcombination",
        -9.449166062367286
      ],
      [
        "Ġsoft",
        -9.44969006660414
      ],
      [
        "Another",
        -9.450462614983582
      ],
      [
        "Ġsequence",
        -9.450849063153926
      ],
      [
        "wise",
        -9.451098053793428
      ],
      [
        "Ġvia",
        -9.451829829863671
      ],
      [
        "Ġcollect",
        -9.451896482163768
      ],
      [
        "Ġplatform",
        -9.452642968313624
      ],
      [
        "Ġedge",
        -9.45393987209011
      ],
      [
        "Y",
        -9.454380783926336
      ],
      [
        "Ġbone",
        -9.454422488509367
      ],
      [
        "Ġprett",
        -9.454487072389869
      ],
      [
        "K",
        -9.454916675472417
      ],
      [
        "Ġlandscape",
        -9.456344705512748
      ],
      [
        "Ġraise",
        -9.456622880457886
      ],
      [
        "applied",
        -9.456633662421035
      ],
      [
        "Ġtheory",
        -9.457219412852794
      ],
      [
        "Ġinitial",
        -9.457273895283258
      ],
      [
        "Ġhost",
        -9.45740363686425
      ],
      [
        "Ġcloth",
        -9.457821394546546
      ],
      [
        "Ġvisual",
        -9.459530409673448
      ],
      [
        "Ġdemand",
        -9.459696483451818
      ],
      [
        "ish",
        -9.459745059327776
      ],
      [
        "These",
        -9.462021217692634
      ],
      [
        "Ġadjust",
        -9.463277235190148
      ],
      [
        "Ġalternative",
        -9.464461388560265
      ],
      [
        "Ġvary",
        -9.466074934100943
      ],
      [
        "Ġbottom",
        -9.46627518394081
      ],
      [
        "Ġbrown",
        -9.46792274575147
      ],
      [
        "Ġserious",
        -9.46798982218331
      ],
      [
        "Ġelectrical",
        -9.468763913155694
      ],
      [
        "Ġpiece",
        -9.470124438061232
      ],
      [
        "Ġelement",
        -9.471919935662322
      ],
      [
        "Ġensur",
        -9.472371517767566
      ],
      [
        "Ġbrand",
        -9.472709963892596
      ],
      [
        "Ġlose",
        -9.473306275195618
      ],
      [
        "Ġmineral",
        -9.473375619541102
      ],
      [
        "Ġready",
        -9.474253049374934
      ],
      [
        "Ġsustainabl",
        -9.474297245384292
      ],
      [
        "Ġ--",
        -9.476735307163144
      ],
      [
        "Ġegg",
        -9.47695296203034
      ],
      [
        "Ġcommercial",
        -9.4770147755994
      ],
      [
        "Ġreview",
        -9.47829584828628
      ],
      [
        "-term",
        -9.480862572336555
      ],
      [
        "Ġtouch",
        -9.482470648633544
      ],
      [
        "Ġco",
        -9.484780357941442
      ],
      [
        "Ġinstance",
        -9.485331207780463
      ],
      [
        "Ġgeneration",
        -9.487269451734251
      ],
      [
        "Ġwild",
        -9.488154837054038
      ],
      [
        "Ġrise",
        -9.488291165408274
      ],
      [
        "Ġpromote",
        -9.488323512379262
      ],
      [
        "Some",
        -9.488671468061543
      ],
      [
        "[",
        -9.489491779390612
      ],
      [
        "Ġsupplement",
        -9.489853142515068
      ],
      [
        "Ġforest",
        -9.490048513358929
      ],
      [
        "Ġrare",
        -9.49166930679506
      ],
      [
        "Ġevents",
        -9.491878511800897
      ],
      [
        "Ġwall",
        -9.492039833687874
      ],
      [
        "Ġapp",
        -9.492046126731797
      ],
      [
        "gan",
        -9.49250666520926
      ],
      [
        "ĠMy",
        -9.495647726239255
      ],
      [
        "Ġtissue",
        -9.496508272358158
      ],
      [
        "Ġcolors",
        -9.49750467026838
      ],
      [
        "Ġiron",
        -9.499165036997946
      ],
      [
        "Ġflavor",
        -9.499545510791789
      ],
      [
        "Ġfire",
        -9.503120876376926
      ],
      [
        "Ġrain",
        -9.504729711615358
      ],
      [
        "Ġaccurate",
        -9.50560688113772
      ],
      [
        "Ġprocedure",
        -9.505766657343916
      ],
      [
        "ĠNot",
        -9.507323369866622
      ],
      [
        "Ġpark",
        -9.507385627340744
      ],
      [
        "Ġsoon",
        -9.507987941617737
      ],
      [
        "ch",
        -9.50920121016206
      ],
      [
        "Ġnothing",
        -9.509847996626624
      ],
      [
        "Ġfly",
        -9.5105959733705
      ],
      [
        "Ġcollection",
        -9.510614007195874
      ],
      [
        "mm",
        -9.511433975156166
      ],
      [
        "Ġ#",
        -9.51257348148887
      ],
      [
        "Ġshoot",
        -9.512810693429648
      ],
      [
        "And",
        -9.513034618681626
      ],
      [
        "Ġhope",
        -9.513424574560451
      ],
      [
        "Ġyellow",
        -9.514114265457856
      ],
      [
        "Ġpair",
        -9.514446622950777
      ],
      [
        "Ġwait",
        -9.515060083639522
      ],
      [
        "Ġvision",
        -9.515986552258315
      ],
      [
        "Ġwriting",
        -9.517591192426156
      ],
      [
        "Ġchance",
        -9.518276650271517
      ],
      [
        "of",
        -9.518400759194307
      ],
      [
        "Ġfriends",
        -9.520201963347008
      ],
      [
        "Ġreasons",
        -9.52166386193857
      ],
      [
        "Ġprograms",
        -9.522409419160804
      ],
      [
        "Ġdesire",
        -9.523172706729088
      ],
      [
        "Ġreference",
        -9.523315893713123
      ],
      [
        "Ġcount",
        -9.524474779383873
      ],
      [
        "Ġvitamin",
        -9.52448977946906
      ],
      [
        "Ġaid",
        -9.524733915331476
      ],
      [
        "Ġlibrar",
        -9.526358728053715
      ],
      [
        "ĠOur",
        -9.5289120286468
      ],
      [
        "Ġusers",
        -9.529290606263524
      ],
      [
        "Ġhearing",
        -9.529469312048445
      ],
      [
        "Ġpresen",
        -9.52966567198693
      ],
      [
        "Ġpublished",
        -9.531198062853669
      ],
      [
        "Ġchang",
        -9.53160352087014
      ],
      [
        "Ġequal",
        -9.53213382409668
      ],
      [
        "Ġspend",
        -9.533053436712164
      ],
      [
        "Ġlesson",
        -9.533472684675823
      ],
      [
        "Ġfluid",
        -9.53381641045758
      ],
      [
        "Ġtherefor",
        -9.533903684561228
      ],
      [
        "Ġpicture",
        -9.536313245859068
      ],
      [
        "once",
        -9.536923626514977
      ],
      [
        "An",
        -9.537003310652054
      ],
      [
        "Ġpick",
        -9.537584171423433
      ],
      [
        "By",
        -9.5376246896152
      ],
      [
        "Ġalcohol",
        -9.538023539407664
      ],
      [
        "Ġrecover",
        -9.538094692902952
      ],
      [
        "Ġpest",
        -9.538165593613002
      ],
      [
        "Ġfriend",
        -9.538522063750944
      ],
      [
        "Ġpowerful",
        -9.53890506923014
      ],
      [
        "Ġmusic",
        -9.539426498132382
      ],
      [
        "Ġslight",
        -9.540483108747347
      ],
      [
        "Ġlabel",
        -9.54057344805245
      ],
      [
        "Ġdie",
        -9.541567226628722
      ],
      [
        "Ġsecurity",
        -9.542125502585732
      ],
      [
        "Ġtherap",
        -9.542498597899318
      ],
      [
        "Ġshot",
        -9.543698971008416
      ],
      [
        "Ġfloor",
        -9.543847072021816
      ],
      [
        "Ġhands",
        -9.54519711475732
      ],
      [
        "Ġefficiency",
        -9.545866123613283
      ],
      [
        "Ġswitch",
        -9.547417156133774
      ],
      [
        "-up",
        -9.547532239949188
      ],
      [
        "yond",
        -9.547880867120725
      ],
      [
        "Ġmode",
        -9.547888639766002
      ],
      [
        "Ġbeautiful",
        -9.549767362100088
      ],
      [
        "Ġlocate",
        -9.55000410003896
      ],
      [
        "Ġrequirements",
        -9.550998644607157
      ],
      [
        "ĠAlso",
        -9.551070992280806
      ],
      [
        "Ġthus",
        -9.55191744592123
      ],
      [
        "]Ċ",
        -9.553478540404887
      ],
      [
        "ĠCenter",
        -9.553867521062042
      ],
      [
        "Ġmoisture",
        -9.554354266556524
      ],
      [
        "Ġcombine",
        -9.5548152848069
      ],
      [
        "Ġrecycl",
        -9.555382179254702
      ],
      [
        "Ġconsistent",
        -9.557673311305368
      ],
      [
        "Ġpage",
        -9.559365241515678
      ],
      [
        "Ġsolid",
        -9.559405386631246
      ],
      [
        "Ġcleaning",
        -9.559924229156438
      ],
      [
        "Ġeffectively",
        -9.560827375226324
      ],
      [
        "Ġopportunity",
        -9.56110307509254
      ],
      [
        "Ġthird",
        -9.561586121599284
      ],
      [
        "Ġrock",
        -9.56179302312809
      ],
      [
        "Ġconstruction",
        -9.562110005416448
      ],
      [
        "Ġjourney",
        -9.562216528798476
      ],
      [
        "Ġidentifi",
        -9.562741351489365
      ],
      [
        "Ġroof",
        -9.562911834330595
      ],
      [
        "giving",
        -9.56380067848447
      ],
      [
        "Ġcapacit",
        -9.563821284393178
      ],
      [
        "Ġroot",
        -9.56452813797952
      ],
      [
        "Ġfoot",
        -9.564940397465987
      ],
      [
        "Ġfigure",
        -9.565147965500032
      ],
      [
        "Ġmulti",
        -9.566170025268182
      ],
      [
        "Ġresistance",
        -9.566794100456132
      ],
      [
        "Ġmoment",
        -9.568973952825434
      ],
      [
        "Ġled",
        -9.571230458056142
      ],
      [
        "Ġrapid",
        -9.571469689331234
      ],
      [
        "Ġpull",
        -9.571709301687278
      ],
      [
        "time",
        -9.571866176804026
      ],
      [
        "Ġfrequency",
        -9.572376766791129
      ],
      [
        "Ġwrong",
        -9.573953032012469
      ],
      [
        "Ġmessage",
        -9.574466548036153
      ],
      [
        "Ġvariable",
        -9.57660671980123
      ],
      [
        "ĠTheir",
        -9.576643534955313
      ],
      [
        "Ġcolour",
        -9.576986632558896
      ],
      [
        "âĪĴ",
        -9.57752927975913
      ],
      [
        "Ġforward",
        -9.578058925424696
      ],
      [
        "Ġpath",
        -9.579223759286364
      ],
      [
        "ĠQ",
        -9.579365566986542
      ],
      [
        "Ġalgorithm",
        -9.581041519273205
      ],
      [
        "Ġmedication",
        -9.581166615289774
      ],
      [
        "Ġobtain",
        -9.58139293160563
      ],
      [
        "Ġdefine",
        -9.582166608923092
      ],
      [
        "Ġvirus",
        -9.582780440864395
      ],
      [
        "Ġtask",
        -9.583488830071897
      ],
      [
        "Ġseed",
        -9.585725158466223
      ],
      [
        "Step",
        -9.586818074623809
      ],
      [
        "Ġexpression",
        -9.587031393031335
      ],
      [
        "Ġsend",
        -9.588519420432954
      ],
      [
        "Ġbar",
        -9.590278471168066
      ],
      [
        "Ġleg",
        -9.590535390242126
      ],
      [
        "Ġconsumption",
        -9.590627749082367
      ],
      [
        "Ġmiddle",
        -9.59124075796334
      ],
      [
        "Ġpaint",
        -9.591821327024178
      ],
      [
        "Ġinteresting",
        -9.592100727905292
      ],
      [
        "head",
        -9.592142199600024
      ],
      [
        "ĠHigh",
        -9.592340954143092
      ],
      [
        "ything",
        -9.592796539754088
      ],
      [
        "Ġlaw",
        -9.593553724866926
      ],
      [
        "Ġconnected",
        -9.595259576051362
      ],
      [
        "Ġhighlight",
        -9.595872537144333
      ],
      [
        "storage",
        -9.596537118990277
      ],
      [
        "ĠAre",
        -9.59691706322712
      ],
      [
        "Ġstick",
        -9.596946080991724
      ],
      [
        "Ġmother",
        -9.598754352120562
      ],
      [
        "Ġfiber",
        -9.600563718573817
      ],
      [
        "Ġexposure",
        -9.600768263294622
      ],
      [
        "Ġprint",
        -9.601288510932555
      ],
      [
        "Ġnative",
        -9.60236082406081
      ],
      [
        "Do",
        -9.603048464379622
      ],
      [
        "Ġcontext",
        -9.603058395522408
      ],
      [
        "ier",
        -9.603538624599054
      ],
      [
        "Ġnumbers",
        -9.604853218919803
      ],
      [
        "Ġboard",
        -9.6052140452761
      ],
      [
        "Ġvital",
        -9.605564827189886
      ],
      [
        "Ġroad",
        -9.60640762524016
      ],
      [
        "Ġimplement",
        -9.608168524903435
      ],
      [
        "Ġcouple",
        -9.60854902487072
      ],
      [
        "Ġtasks",
        -9.610335042508956
      ],
      [
        "Ġwind",
        -9.611964410750105
      ],
      [
        "Ġdeliver",
        -9.613357124207813
      ],
      [
        "Ġsevere",
        -9.613453552139614
      ],
      [
        "ĠNow",
        -9.614008444913912
      ],
      [
        "Ġstem",
        -9.614723963309473
      ],
      [
        "Ġvegetables",
        -9.614974836413715
      ],
      [
        "Now",
        -9.615151283501206
      ],
      [
        "Ġmouth",
        -9.615239794235888
      ],
      [
        "Ġdrawing",
        -9.615266427457255
      ],
      [
        "ily",
        -9.617623882515662
      ],
      [
        "alone",
        -9.61806856982535
      ],
      [
        "Ġburn",
        -9.618144931483512
      ],
      [
        "Ġpanel",
        -9.619193032931918
      ],
      [
        "Ġworth",
        -9.620311090852027
      ],
      [
        "Ġinternal",
        -9.620530613004975
      ],
      [
        "went",
        -9.62121884585085
      ],
      [
        "Ġforms",
        -9.621362049757275
      ],
      [
        "Ġjoint",
        -9.62180254666016
      ],
      [
        "Ġconcentration",
        -9.621827989444355
      ],
      [
        "ĠGod",
        -9.62187346970462
      ],
      [
        "Ġcommunit",
        -9.622244589735894
      ],
      [
        "Ġideas",
        -9.62278486539532
      ],
      [
        "Ġwonder",
        -9.623109006698376
      ],
      [
        "Ġmechanism",
        -9.623283668436528
      ],
      [
        "Ġsuitabl",
        -9.62602176463168
      ],
      [
        "Ġdynamic",
        -9.626338850157442
      ],
      [
        "Ġolder",
        -9.62752796278374
      ],
      [
        "Ġreflect",
        -9.627644242543008
      ],
      [
        "Ġfinish",
        -9.628452151331777
      ],
      [
        "Ġclaim",
        -9.629109653543336
      ],
      [
        "ĠOr",
        -9.62990674048714
      ],
      [
        "Ġpush",
        -9.630326694070646
      ],
      [
        "ĠRe",
        -9.631753057051585
      ],
      [
        "Ġoperat",
        -9.633753891386764
      ],
      [
        "ĠLet",
        -9.633991488237088
      ],
      [
        "Ġerror",
        -9.634519853909344
      ],
      [
        "Ġsub",
        -9.63645246682842
      ],
      [
        "Ġexpensive",
        -9.636733063533658
      ],
      [
        "Ġpurchase",
        -9.636893683842745
      ],
      [
        "Ġadapt",
        -9.637302303658648
      ],
      [
        "Ġdead",
        -9.63839218076895
      ],
      [
        "ĠMake",
        -9.641361027672955
      ],
      [
        "Ġtexture",
        -9.641374405649476
      ],
      [
        "Ġfix",
        -9.641728174613778
      ],
      [
        "Ġheavy",
        -9.642166663758095
      ],
      [
        "hap",
        -9.64320566361958
      ],
      [
        "ĠOf",
        -9.648452289888985
      ],
      [
        "Ġround",
        -9.649718412142697
      ],
      [
        "Ġstuff",
        -9.65035727092554
      ],
      [
        "Ġsport",
        -9.653465504498572
      ],
      [
        "Ġlens",
        -9.653769986667836
      ],
      [
        "Ġaccept",
        -9.65428040783221
      ],
      [
        "Ġmedium",
        -9.65476533371668
      ],
      [
        "Ġthousand",
        -9.657212595526584
      ],
      [
        "Ġprevious",
        -9.658934479165564
      ],
      [
        "written",
        -9.659033415464034
      ],
      [
        "aught",
        -9.660391044751636
      ],
      [
        "Ġdepth",
        -9.660575706168524
      ],
      [
        "Ġcard",
        -9.660745903243743
      ],
      [
        "ĠWho",
        -9.661217259209568
      ],
      [
        "Ġfamili",
        -9.662200470430854
      ],
      [
        "Ġmeaning",
        -9.662306073837613
      ],
      [
        "ĠOnc",
        -9.662582015905484
      ],
      [
        "Ġpropert",
        -9.663306299610957
      ],
      [
        "ĠState",
        -9.66445818143493
      ],
      [
        "With",
        -9.66515998740142
      ],
      [
        "Ġsweet",
        -9.665764488835318
      ],
      [
        "Ġsteel",
        -9.665926242633914
      ],
      [
        "Ġwire",
        -9.66598319028578
      ],
      [
        "ĠCO",
        -9.667994795845145
      ],
      [
        "Ġreported",
        -9.668665303452078
      ],
      [
        "came",
        -9.668864204143045
      ],
      [
        "Ġphase",
        -9.669696307635036
      ],
      [
        "ĠDay",
        -9.669943394829346
      ],
      [
        "Ġcomfortabl",
        -9.670138902141248
      ],
      [
        "X",
        -9.673567770542617
      ],
      [
        "ĠFirst",
        -9.676009038919904
      ],
      [
        "Ġearth",
        -9.67729179632919
      ],
      [
        "ĠEnglish",
        -9.67848063050929
      ],
      [
        "Ġweb",
        -9.679058483426846
      ],
      [
        "no",
        -9.679704087131444
      ],
      [
        "if",
        -9.679717709874064
      ],
      [
        "Ġsort",
        -9.679894900049542
      ],
      [
        "Ġpot",
        -9.680357994643318
      ],
      [
        "Ġtechnologies",
        -9.680707509404698
      ],
      [
        "Ġsociet",
        -9.681283546256626
      ],
      [
        "Ġcoming",
        -9.681459016345844
      ],
      [
        "Ġpredict",
        -9.68271555666353
      ],
      [
        "ĠâĢ¦",
        -9.682814437193116
      ],
      [
        "Ġonto",
        -9.68293987150302
      ],
      [
        "Al",
        -9.68349028825643
      ],
      [
        "Ġwrite",
        -9.68388182479913
      ],
      [
        "Ġfair",
        -9.68449000879786
      ],
      [
        "Ġwindow",
        -9.684707928188502
      ],
      [
        "Ġfund",
        -9.684760233751865
      ],
      [
        "Ġdriv",
        -9.68530377868151
      ],
      [
        "Ġstates",
        -9.685570380916683
      ],
      [
        "Ġstand",
        -9.686332785730611
      ],
      [
        "Ġmatch",
        -9.687088614270133
      ],
      [
        "work",
        -9.687744209995238
      ],
      [
        "tic",
        -9.688193997659765
      ],
      [
        "Ġrefer",
        -9.68856802359431
      ],
      [
        "Ġnoise",
        -9.691056709422211
      ],
      [
        "Ġsurrounding",
        -9.691834962987734
      ],
      [
        "Ġfinancial",
        -9.692250217417827
      ],
      [
        "Ġsmooth",
        -9.692325006490565
      ],
      [
        "Ġreveal",
        -9.692365272935175
      ],
      [
        "Ġblade",
        -9.69244559504402
      ],
      [
        "They",
        -9.692921632827328
      ],
      [
        "Ġaren",
        -9.693007094221892
      ],
      [
        "Ġmiss",
        -9.694040818226863
      ],
      [
        "Ġexpress",
        -9.694564965815326
      ],
      [
        "over",
        -9.698002000252153
      ],
      [
        "Ġsell",
        -9.69948848486202
      ],
      [
        "Ġgrass",
        -9.699707306782884
      ],
      [
        "Ġsmell",
        -9.701334135040865
      ],
      [
        "Ġattempt",
        -9.702182984718464
      ],
      [
        "Ġflat",
        -9.704237300993997
      ],
      [
        "ĠAccording",
        -9.704766406814905
      ],
      [
        "ĠLake",
        -9.705758137066423
      ],
      [
        "ber",
        -9.70630792426628
      ],
      [
        "Ġcheese",
        -9.706569811624329
      ],
      [
        "Ġinsight",
        -9.707226806252615
      ],
      [
        "Ġobserve",
        -9.708738939605825
      ],
      [
        "Ġbroad",
        -9.71008694044479
      ],
      [
        "Ġcontainer",
        -9.710146791643387
      ],
      [
        "Ġanti",
        -9.711048368698034
      ],
      [
        "Ġrecognize",
        -9.711362628285109
      ],
      [
        "Ġcatch",
        -9.711380262896888
      ],
      [
        "Ġload",
        -9.711799559851425
      ],
      [
        "ĠWater",
        -9.71189412898424
      ],
      [
        "Ġwar",
        -9.712234286985508
      ],
      [
        "Ġdrug",
        -9.7123635608822
      ],
      [
        "Ġoutcome",
        -9.714456771098334
      ],
      [
        "up",
        -9.716983797430691
      ],
      [
        "Ġhapp",
        -9.717150692990122
      ],
      [
        "Ġchallenge",
        -9.719727909587313
      ],
      [
        "About",
        -9.720418097907686
      ],
      [
        "ial",
        -9.720882014986955
      ],
      [
        "Ġfight",
        -9.72105174499033
      ],
      [
        "Ġcontroll",
        -9.72109808924944
      ],
      [
        "Ġmotion",
        -9.721758047888244
      ],
      [
        "held",
        -9.724092399678646
      ],
      [
        "ĠPlant",
        -9.724392146246563
      ],
      [
        "Ġconsumer",
        -9.724750120385178
      ],
      [
        "Ġphotograph",
        -9.725327950474016
      ],
      [
        "Ġvoltage",
        -9.725831832891402
      ],
      [
        "Ġupdate",
        -9.72591048697145
      ],
      [
        "Ġhydrogen",
        -9.72605355416151
      ],
      [
        "ĠUs",
        -9.726576768420442
      ],
      [
        "Ġplanet",
        -9.72706209293348
      ],
      [
        "Ġimmune",
        -9.72821881901024
      ],
      [
        "Ġassessment",
        -9.72835262689118
      ],
      [
        "Ġdrop",
        -9.728413625772312
      ],
      [
        "Ġscreen",
        -9.730335211045697
      ],
      [
        "Ġmen",
        -9.731601324897746
      ],
      [
        "Ġhuge",
        -9.731632726814013
      ],
      [
        "Ġfunctions",
        -9.731769318268466
      ],
      [
        "Ġorganization",
        -9.73181446271878
      ],
      [
        "Ġspeak",
        -9.73309282887762
      ],
      [
        "Ġsymbol",
        -9.73641141587454
      ],
      [
        "Ġcarrie",
        -9.73649641473203
      ],
      [
        "Ġdegrees",
        -9.736942676521496
      ],
      [
        "ian",
        -9.738388381245333
      ],
      [
        "ĠRNA",
        -9.74284108825002
      ],
      [
        "Ġexpand",
        -9.74289965390152
      ],
      [
        "Ġbiological",
        -9.743303544576529
      ],
      [
        "$",
        -9.74372226425383
      ],
      [
        "ship",
        -9.744063204367905
      ],
      [
        ".com",
        -9.74453624640443
      ],
      [
        "Ġpractical",
        -9.745085162487497
      ],
      [
        "Ġgames",
        -9.745712230379617
      ],
      [
        "Ġdouble",
        -9.745969511442668
      ],
      [
        "Ġevolution",
        -9.746084191963718
      ],
      [
        "Ġdemonstrate",
        -9.746644128922432
      ],
      [
        "Ġregions",
        -9.74915974676231
      ],
      [
        "Ġperspective",
        -9.751488409649994
      ],
      [
        "Ġpieces",
        -9.752460562560064
      ],
      [
        "Ġheight",
        -9.754825267847526
      ],
      [
        "Ġadvantage",
        -9.755326154106026
      ],
      [
        "Ġmeasures",
        -9.755397943018288
      ],
      [
        "ĠOther",
        -9.755788796603529
      ],
      [
        "Ġnational",
        -9.757017032245203
      ],
      [
        "ĠNOT",
        -9.757434396927437
      ],
      [
        "Ġsecure",
        -9.757992105128691
      ],
      [
        "Ġhabitat",
        -9.758263516000005
      ],
      [
        "body",
        -9.758599337307956
      ],
      [
        "Ġsurvey",
        -9.76027779326845
      ],
      [
        "U",
        -9.761574010618649
      ],
      [
        "ok",
        -9.7637640693696
      ],
      [
        "Ġcapture",
        -9.763994003862814
      ],
      [
        "ĠService",
        -9.764085355691806
      ],
      [
        "Ġmedicine",
        -9.76421492211179
      ],
      [
        "Ġsurvive",
        -9.766211449945914
      ],
      [
        "Ġlearned",
        -9.767641237079234
      ],
      [
        "ĠUK",
        -9.768113430654871
      ],
      [
        "for",
        -9.768134138533863
      ],
      [
        "efore",
        -9.768312761378631
      ],
      [
        "Ġfail",
        -9.76856904864059
      ],
      [
        "Ġmaximu",
        -9.769033374903826
      ],
      [
        "Ġbackground",
        -9.7692766347867
      ],
      [
        "Ġteaching",
        -9.7692849544063
      ],
      [
        "Ġaffected",
        -9.771056863443553
      ],
      [
        "Ġinternational",
        -9.771884212278229
      ],
      [
        "Ġopportunit",
        -9.772588209381162
      ],
      [
        "Ġinches",
        -9.77260316292491
      ],
      [
        "Ġappearance",
        -9.773226610429388
      ],
      [
        "Ġwanted",
        -9.77353048801962
      ],
      [
        "Ġstructures",
        -9.7746403105701
      ],
      [
        "ture",
        -9.77468116833586
      ],
      [
        "On",
        -9.77468537771623
      ],
      [
        "Ġmeasurement",
        -9.775267016223856
      ],
      [
        "ical",
        -9.775349683110894
      ],
      [
        "Ġfarmer",
        -9.775365308277332
      ],
      [
        "ĠEven",
        -9.7767452042652
      ],
      [
        "|",
        -9.777841923236274
      ],
      [
        "Ġexcellent",
        -9.777969784720892
      ],
      [
        "all",
        -9.77801382596058
      ],
      [
        "Ġdriver",
        -9.779943290774266
      ],
      [
        "Ġmember",
        -9.78008172039308
      ],
      [
        "side",
        -9.780841055481336
      ],
      [
        "That",
        -9.781273177253825
      ],
      [
        "Ġmixture",
        -9.78142841520199
      ],
      [
        ".[",
        -9.78206585003367
      ],
      [
        "water",
        -9.783403056367298
      ],
      [
        "Ġconservation",
        -9.783566270061796
      ],
      [
        "Ġecosystem",
        -9.7839542586613
      ],
      [
        "ĠInstitute",
        -9.784152552003013
      ],
      [
        "Ġrespond",
        -9.7846602372088
      ],
      [
        "Ġhole",
        -9.785126182232853
      ],
      [
        "Ġmanual",
        -9.7874310321691
      ],
      [
        "ĠCalifornia",
        -9.788106584150588
      ],
      [
        "Ġassist",
        -9.78814267273114
      ],
      [
        "ĠMay",
        -9.788849939250778
      ],
      [
        "Ġbasi",
        -9.789029235389927
      ],
      [
        "Ġcore",
        -9.789074839526766
      ],
      [
        "Ġhit",
        -9.78956477888702
      ],
      [
        "board",
        -9.790400643430033
      ],
      [
        "Ġselection",
        -9.791523001712648
      ],
      [
        "Ġclick",
        -9.791834093210245
      ],
      [
        "Ġchain",
        -9.794846728481996
      ],
      [
        "Ġsaw",
        -9.795226005888654
      ],
      [
        "Ġcapabilit",
        -9.795701875667657
      ],
      [
        "Ġ|",
        -9.796294673101563
      ],
      [
        "Ġstaff",
        -9.796669046480057
      ],
      [
        "ĠDur",
        -9.798490939168188
      ],
      [
        "Ġvaluable",
        -9.79893157899673
      ],
      [
        "Ġenzyme",
        -9.79959926558642
      ],
      [
        "Ġsession",
        -9.802198890125718
      ],
      [
        "Ġgrade",
        -9.80247431119041
      ],
      [
        "Ġexamples",
        -9.803456616831424
      ],
      [
        "Ġsuit",
        -9.804983610982694
      ],
      [
        "Ġbright",
        -9.806015507581552
      ],
      [
        ".)Ċ",
        -9.806206828097713
      ],
      [
        "Ġvoice",
        -9.807851817420977
      ],
      [
        "Ġimprov",
        -9.807879192106054
      ],
      [
        "Ġcross",
        -9.808168545622836
      ],
      [
        "Ġabsorb",
        -9.808635558622012
      ],
      [
        "Ġcoast",
        -9.809098672453686
      ],
      [
        "Ġoffice",
        -9.810727307174751
      ],
      [
        "ctober",
        -9.811033628303267
      ],
      [
        "Ġroutine",
        -9.81160957046246
      ],
      [
        "Ġclasses",
        -9.811669793990026
      ],
      [
        "Ġbodie",
        -9.81283136089801
      ],
      [
        "Ġtri",
        -9.814117652427557
      ],
      [
        "Ġequation",
        -9.814699601017832
      ],
      [
        "ĠOver",
        -9.816221784921204
      ],
      [
        "Ġintroduce",
        -9.817239451158423
      ],
      [
        "Ġplease",
        -9.81761880135608
      ],
      [
        "Ġprogress",
        -9.818849195886788
      ],
      [
        "Ġinform",
        -9.819477219241003
      ],
      [
        "tiny",
        -9.819858020673651
      ],
      [
        "Ġpossibilit",
        -9.820459190803604
      ],
      [
        "Ġannual",
        -9.821128745268071
      ],
      [
        "Ġoptimal",
        -9.821305615866033
      ],
      [
        "Ġwildlif",
        -9.82137611117163
      ],
      [
        "Ġbooks",
        -9.822421760563994
      ],
      [
        "Ġnumer",
        -9.823176365164828
      ],
      [
        "ought",
        -9.823318637403924
      ],
      [
        "Ġparticipant",
        -9.823500453891636
      ],
      [
        "Ġdangerous",
        -9.823530415017675
      ],
      [
        "Ġcreative",
        -9.823791402819603
      ],
      [
        "Ġactual",
        -9.823819429438451
      ],
      [
        "Ġyield",
        -9.824174981946353
      ],
      [
        "ĠTherefor",
        -9.824932290409908
      ],
      [
        "Ġraw",
        -9.825928532351345
      ],
      [
        "Ġshade",
        -9.826043683955552
      ],
      [
        "Ġbottle",
        -9.82684776798718
      ],
      [
        "Ġeventual",
        -9.82686117142238
      ],
      [
        "Ġapproximate",
        -9.82728418713148
      ],
      [
        "-free",
        -9.827452042444056
      ],
      [
        "Ġcoat",
        -9.827879201502014
      ],
      [
        "Ġlegal",
        -9.82940403670086
      ],
      [
        "Ġisland",
        -9.829518455605488
      ],
      [
        "ten",
        -9.829807915568274
      ],
      [
        "-like",
        -9.830071054588965
      ],
      [
        "Ġcup",
        -9.83165542047836
      ],
      [
        "ge",
        -9.831977602081302
      ],
      [
        "Ġroll",
        -9.833370038373344
      ],
      [
        "Ġbreed",
        -9.833436624629837
      ],
      [
        "Ġagent",
        -9.83343790114273
      ],
      [
        "Ġcentral",
        -9.834433562296738
      ],
      [
        "Ġbirth",
        -9.83520923227822
      ],
      [
        "âĢĻt",
        -9.836287406355224
      ],
      [
        "Ġcheap",
        -9.836331016777198
      ],
      [
        "Ġcustomer",
        -9.83641433852758
      ],
      [
        "Ġbillion",
        -9.836813652683688
      ],
      [
        "Ġlisten",
        -9.837239504463874
      ],
      [
        "Ġhabit",
        -9.83813434994794
      ],
      [
        "Here",
        -9.839013187251457
      ],
      [
        "Ġstrain",
        -9.839375018474108
      ],
      [
        "un",
        -9.840595213367376
      ],
      [
        "Ġmembrane",
        -9.841458012431811
      ],
      [
        "Ġcategor",
        -9.84163365785304
      ],
      [
        "Ġbeginning",
        -9.842324507089014
      ],
      [
        "co",
        -9.842472694036193
      ],
      [
        "Ġdecade",
        -9.84255291325453
      ],
      [
        "Ġfashion",
        -9.842629646242951
      ],
      [
        "ring",
        -9.842846105648851
      ],
      [
        "Ġmanufacturer",
        -9.843134632068946
      ],
      [
        "am",
        -9.843341597428283
      ],
      [
        "Ġfeeding",
        -9.843444114237776
      ],
      [
        "Ġflood",
        -9.845468549532876
      ],
      [
        "Ġconcrete",
        -9.84549928525207
      ],
      [
        "Ġsquare",
        -9.845892111565565
      ],
      [
        "ĠDepartment",
        -9.84627226172543
      ],
      [
        "Ġshell",
        -9.846976418588316
      ],
      [
        "Ġatmosphere",
        -9.84782814574849
      ],
      [
        "Ġadvice",
        -9.848664584825142
      ],
      [
        "Ġreduction",
        -9.84935830480373
      ],
      [
        "Ġcomfort",
        -9.849988627833149
      ],
      [
        "Ġcommand",
        -9.850238010264905
      ],
      [
        "Ġatom",
        -9.850246617911855
      ],
      [
        "Ġchemicals",
        -9.851573777936077
      ],
      [
        "Ġcomprehensive",
        -9.851912313881495
      ],
      [
        "Ġprocessing",
        -9.853305614593236
      ],
      [
        "Ġartist",
        -9.853345759028656
      ],
      [
        "Ġhour",
        -9.85341367871199
      ],
      [
        "Ġsports",
        -9.854240922157423
      ],
      [
        "Ġtransfer",
        -9.854482471230572
      ],
      [
        "Ġearlie",
        -9.855127334991868
      ],
      [
        "ĠY",
        -9.856167317123578
      ],
      [
        "Ġrat",
        -9.856299338811144
      ],
      [
        "Ġroots",
        -9.85651230735708
      ],
      [
        "Ġangle",
        -9.856821915964872
      ],
      [
        "ĠSince",
        -9.857219184727162
      ],
      [
        "ence",
        -9.858427632579003
      ],
      [
        "ĠPark",
        -9.859733987622468
      ],
      [
        "Ġstandards",
        -9.86039576399585
      ],
      [
        "Ġblog",
        -9.86043823765142
      ],
      [
        "Ġschedule",
        -9.86064259448474
      ],
      [
        "Our",
        -9.860913072678018
      ],
      [
        "ĠAfrica",
        -9.86099249600387
      ],
      [
        "ter",
        -9.861259176391512
      ],
      [
        "ĠIndia",
        -9.86200242515948
      ],
      [
        "Ġmiles",
        -9.862959432278956
      ],
      [
        "Ġmotor",
        -9.86298111731694
      ],
      [
        "Ġplaces",
        -9.86425368295822
      ],
      [
        "No",
        -9.864549385499032
      ],
      [
        "Ġclassroom",
        -9.864820619064076
      ],
      [
        "her",
        -9.865319980836556
      ],
      [
        "Ġrates",
        -9.86535735904625
      ],
      [
        "Ġnice",
        -9.866103372152786
      ],
      [
        "den",
        -9.866686628433197
      ],
      [
        "Ġtransform",
        -9.867488867909838
      ],
      [
        "Ġhundred",
        -9.868326763199937
      ],
      [
        "Ġantibiotic",
        -9.868488004439705
      ],
      [
        "Ġauto",
        -9.869815591506809
      ],
      [
        "Ġsounds",
        -9.870473745431967
      ],
      [
        "ĠpH",
        -9.870548148289586
      ],
      [
        "ĠFood",
        -9.87109549131682
      ],
      [
        "Ġorgan",
        -9.871427733040449
      ],
      [
        "Ġshift",
        -9.872860955708958
      ],
      [
        "Ġeconomic",
        -9.87446117530424
      ],
      [
        "Ġfossil",
        -9.874874114826264
      ],
      [
        "Ġdoor",
        -9.875004644464006
      ],
      [
        "Ġcloud",
        -9.875739541389937
      ],
      [
        "Ġphotos",
        -9.87615394144487
      ],
      [
        "Ġresident",
        -9.876298614242396
      ],
      [
        "After",
        -9.877465735485886
      ],
      [
        "Ġexternal",
        -9.87824322193966
      ],
      [
        "ling",
        -9.880003522028607
      ],
      [
        "Ġemotion",
        -9.880896046754668
      ],
      [
        "Be",
        -9.880965367312967
      ],
      [
        "Ġfavorite",
        -9.881514713370208
      ],
      [
        "Ġmarine",
        -9.882227319713651
      ],
      [
        "stock",
        -9.882609348681752
      ],
      [
        "related",
        -9.883517482608411
      ],
      [
        "wide",
        -9.883784637709388
      ],
      [
        "Ġdistribution",
        -9.884577800644216
      ],
      [
        "Ġlung",
        -9.88561038387001
      ],
      [
        "Ġtopic",
        -9.886174239132217
      ],
      [
        "ĠJust",
        -9.887467846731834
      ],
      [
        "Ġstraight",
        -9.888189358066672
      ],
      [
        "Ġpress",
        -9.888368989102354
      ],
      [
        "lost",
        -9.888462162128704
      ],
      [
        "Ġassess",
        -9.890004621738775
      ],
      [
        "Ġpolluti",
        -9.89028867308864
      ],
      [
        "Ġcit",
        -9.890318086784353
      ],
      [
        "ant",
        -9.891230642049296
      ],
      [
        "Ġinstructions",
        -9.891399158801548
      ],
      [
        "Ġblend",
        -9.891475371061592
      ],
      [
        "Ġdiagram",
        -9.89151516644452
      ],
      [
        "Ġcalculate",
        -9.891644874711266
      ],
      [
        "Ġartificial",
        -9.89214013161886
      ],
      [
        "Ġlab",
        -9.892232127522805
      ],
      [
        "Ġstock",
        -9.892412656261516
      ],
      [
        "Ġthin",
        -9.893578847485712
      ],
      [
        "Ġreliabl",
        -9.89487550520138
      ],
      [
        "Ġcomment",
        -9.896215949177268
      ],
      [
        "ĠAustralia",
        -9.8970655760878
      ],
      [
        "Ġtransition",
        -9.897976120149366
      ],
      [
        "ĠRiver",
        -9.898642579071542
      ],
      [
        "Ġfabric",
        -9.899124305390588
      ],
      [
        "Ġtrip",
        -9.89950511510368
      ],
      [
        "Ġchalleng",
        -9.90060561539431
      ],
      [
        "ĠStudent",
        -9.901486161595791
      ],
      [
        "which",
        -9.90148838583153
      ],
      [
        "Ġrid",
        -9.902866190462358
      ],
      [
        "Ġcontrast",
        -9.904887584248437
      ],
      [
        "Ġsheet",
        -9.906963611564002
      ],
      [
        "Ġinterface",
        -9.908207012118432
      ],
      [
        "Ġbutton",
        -9.908693269679317
      ],
      [
        "Ġpack",
        -9.909903086535335
      ],
      [
        "ate",
        -9.910323964783805
      ],
      [
        "ĠEvery",
        -9.910635397073952
      ],
      [
        "Ġdi",
        -9.910706132515706
      ],
      [
        "Ġconclusion",
        -9.911597318028097
      ],
      [
        "Ġinternet",
        -9.911939217679842
      ],
      [
        "All",
        -9.91215813411818
      ],
      [
        "Ġdegree",
        -9.912205376915908
      ],
      [
        "Ġprefer",
        -9.912336419524095
      ],
      [
        "Ġcustomers",
        -9.91235066375044
      ],
      [
        "Ġelectronic",
        -9.91238778682695
      ],
      [
        "Ġemotional",
        -9.91248249095912
      ],
      [
        "-in",
        -9.913795071134771
      ],
      [
        "ble",
        -9.913798951670522
      ],
      [
        "Man",
        -9.914098996134175
      ],
      [
        "Ġvirtual",
        -9.915030766821117
      ],
      [
        "Ġinvestment",
        -9.915568841289868
      ],
      [
        "Ġchocolate",
        -9.918231142487944
      ],
      [
        "Ġskill",
        -9.918238072387716
      ],
      [
        "Ġsnail",
        -9.918272927799215
      ],
      [
        "Ġsector",
        -9.918566622924631
      ],
      [
        "Ġbeneficial",
        -9.918599446720323
      ],
      [
        "Ġdiscussion",
        -9.919336190264987
      ],
      [
        "Ġtypical",
        -9.919363452715178
      ],
      [
        "Ġsolve",
        -9.919387697067592
      ],
      [
        "like",
        -9.919847511763198
      ],
      [
        "tion",
        -9.920302037641974
      ],
      [
        "Ġnest",
        -9.923142048647884
      ],
      [
        "Ġmid",
        -9.923188224014456
      ],
      [
        "ĠLife",
        -9.924097475028251
      ],
      [
        "ĠEuropean",
        -9.927286194407522
      ],
      [
        "Ġindustrial",
        -9.92739342218324
      ],
      [
        "ĠEducation",
        -9.927481234756764
      ],
      [
        "Ġeducational",
        -9.927598373769436
      ],
      [
        "Ġorganisms",
        -9.92792739676244
      ],
      [
        "Ġindependent",
        -9.929116270548434
      ],
      [
        "Ġphoto",
        -9.93007019550512
      ],
      [
        "Ġoperate",
        -9.931849619082026
      ],
      [
        "Ġthick",
        -9.932095416252048
      ],
      [
        "Ġattach",
        -9.934911055252453
      ],
      [
        "Ġstorie",
        -9.93496701730282
      ],
      [
        "Ġformation",
        -9.935278437335036
      ],
      [
        "Ġthreat",
        -9.9355162299046
      ],
      [
        "kept",
        -9.935551879427436
      ],
      [
        "Ġhazard",
        -9.936047646594751
      ],
      [
        "Ġallerg",
        -9.937260661952354
      ],
      [
        "Ġrespect",
        -9.937340524957438
      ],
      [
        "Ġstation",
        -9.941251888900773
      ],
      [
        "Ġremoved",
        -9.941462476333417
      ],
      [
        "Ġpro",
        -9.942876797415629
      ],
      [
        "Ġgoals",
        -9.943754907115686
      ],
      [
        "Ġmeasur",
        -9.943781091476383
      ],
      [
        "ĠYork",
        -9.94591325479378
      ],
      [
        "rought",
        -9.94598373673052
      ],
      [
        "Ġlake",
        -9.946075856512897
      ],
      [
        "Ġvariation",
        -9.946080681711052
      ],
      [
        "ized",
        -9.946405313820772
      ],
      [
        "Ġfailure",
        -9.946455051224495
      ],
      [
        "visible",
        -9.946652113057732
      ],
      [
        "ĠDon",
        -9.946755108338817
      ],
      [
        "Ġbroke",
        -9.947719234499369
      ],
      [
        "Ġshar",
        -9.948182471297226
      ],
      [
        "Ġguid",
        -9.948326169122918
      ],
      [
        "Ġemergenc",
        -9.949314745558745
      ],
      [
        "Ġsnow",
        -9.949437029703734
      ],
      [
        "Ġportion",
        -9.949966655675723
      ],
      [
        "Ġlay",
        -9.95076192831768
      ],
      [
        "Ġheal",
        -9.951858491274017
      ],
      [
        "Ġcomposition",
        -9.95290521934073
      ],
      [
        "ĠZ",
        -9.95299681745812
      ],
      [
        "Ġmelt",
        -9.953148151769517
      ],
      [
        "Ġharmful",
        -9.953535036068883
      ],
      [
        "Ġtrigger",
        -9.953605339787376
      ],
      [
        "Ġrace",
        -9.95383269352368
      ],
      [
        "Ġcompost",
        -9.954779968566005
      ],
      [
        "Ġlaunch",
        -9.954973012296229
      ],
      [
        "Ġoutdoor",
        -9.955120756157593
      ],
      [
        "Ġaudio",
        -9.955519130135576
      ],
      [
        "Ġkitchen",
        -9.956696376521174
      ],
      [
        "#",
        -9.956777301486046
      ],
      [
        "Ġtrust",
        -9.95687546318
      ],
      [
        "ĠFurther",
        -9.957378388047664
      ],
      [
        "Ġattract",
        -9.957397473847262
      ],
      [
        "Ġgenome",
        -9.957706492022464
      ],
      [
        "line",
        -9.958082354977885
      ],
      [
        "Ġoffering",
        -9.95851917238609
      ],
      [
        "told",
        -9.95922235833206
      ],
      [
        "Ġzone",
        -9.960110079075744
      ],
      [
        "Ġtransmission",
        -9.96030870585049
      ],
      [
        "Ġextract",
        -9.960600456217076
      ],
      [
        "Ġmold",
        -9.960754395565177
      ],
      [
        "Ġpregnanc",
        -9.960909937772517
      ],
      [
        "Ġcultural",
        -9.96229944634614
      ],
      [
        "Ġwalls",
        -9.963718016916824
      ],
      [
        "Ġharvest",
        -9.963850864780776
      ],
      [
        "Ġinnovation",
        -9.964152869532938
      ],
      [
        "Ġlie",
        -9.96433428295612
      ],
      [
        "Ġprivate",
        -9.966177492369058
      ],
      [
        "Ġfan",
        -9.967506083864908
      ],
      [
        "Ġinvest",
        -9.968017698391828
      ],
      [
        "Ġobvious",
        -9.96809593532704
      ],
      [
        "Ġcharacter",
        -9.968859227116736
      ],
      [
        "Ġteach",
        -9.970497075085412
      ],
      [
        "Ġaircraft",
        -9.97340948708635
      ],
      [
        "ĠPeople",
        -9.973833533448644
      ],
      [
        "Ġcarefully",
        -9.975787231970976
      ],
      [
        "Ġregulator",
        -9.976094310279382
      ],
      [
        "that",
        -9.97676880582458
      ],
      [
        "Ġratio",
        -9.977593590229326
      ],
      [
        "latest",
        -9.978038722593071
      ],
      [
        "ĠKeep",
        -9.978064224723711
      ],
      [
        "Ġultimate",
        -9.978319959806154
      ],
      [
        "Ġinstallation",
        -9.97900582830707
      ],
      [
        "Ġcream",
        -9.979406144385344
      ],
      [
        "-be",
        -9.979636712499245
      ],
      [
        "Ġscore",
        -9.98038438467072
      ],
      [
        "Ġbecom",
        -9.982318264527365
      ],
      [
        "Ġmanag",
        -9.983026631966188
      ],
      [
        "Ġedit",
        -9.985752513968938
      ],
      [
        "Ġcable",
        -9.986351449480388
      ],
      [
        "Ġletter",
        -9.986559869642846
      ],
      [
        "Ġspin",
        -9.988083013220775
      ],
      [
        "Ġagriculture",
        -9.98944135366763
      ],
      [
        "Ġreward",
        -9.989513659552593
      ],
      [
        "Ġrelevan",
        -9.989986032226
      ],
      [
        "Ġgap",
        -9.99020117516368
      ],
      [
        "Ġarrow",
        -9.991454919234291
      ],
      [
        "what",
        -9.991715947804504
      ],
      [
        "ĠSt",
        -9.99177711383322
      ],
      [
        "Ġwaves",
        -9.99205326436537
      ],
      [
        "Ġpounds",
        -9.992853270694898
      ],
      [
        "-quality",
        -9.993116038077332
      ],
      [
        "ĠWell",
        -9.993288854890768
      ],
      [
        "Ġinteract",
        -9.993348715591033
      ],
      [
        "Ġlift",
        -9.994553922467086
      ],
      [
        "Ġboat",
        -9.994935380872096
      ],
      [
        "ĠAir",
        -9.995590824804813
      ],
      [
        "Ġtea",
        -9.996625078715269
      ],
      [
        "Ġmorning",
        -9.997103130618
      ],
      [
        "Ġcreature",
        -9.99715359539142
      ],
      [
        "Ġdioxide",
        -9.997380478377462
      ],
      [
        "Ġlitera",
        -9.997608053697718
      ],
      [
        "tely",
        -9.9985188450849
      ],
      [
        "Ġsit",
        -9.998899591341594
      ],
      [
        "Ġgenerat",
        -9.99930555709879
      ],
      [
        "Ġmaster",
        -9.99967496149144
      ],
      [
        "Ġagree",
        -10.000947050964722
      ],
      [
        "Ġjoin",
        -10.001529217352427
      ],
      [
        "Ġcreation",
        -10.001599686707802
      ],
      [
        "Ġautomatic",
        -10.001758705209014
      ],
      [
        "Ġtru",
        -10.001903632446338
      ],
      [
        "-friendly",
        -10.002125568917895
      ],
      [
        "Ġupper",
        -10.003062108100064
      ],
      [
        "Ġhunting",
        -10.003445348777186
      ],
      [
        "Ġhelpful",
        -10.003670875097209
      ],
      [
        "ng",
        -10.004062067984629
      ],
      [
        "Ġamazing",
        -10.004149452310113
      ],
      [
        "Ġbleed",
        -10.004393052146806
      ],
      [
        "Ġbike",
        -10.004593602420533
      ],
      [
        "Ġimprovement",
        -10.004862772832436
      ],
      [
        "Ġwheel",
        -10.005911923801822
      ],
      [
        "ca",
        -10.006328912297782
      ],
      [
        "ard",
        -10.006381356757895
      ],
      [
        "Ġwave",
        -10.007146615437987
      ],
      [
        "Ġchannel",
        -10.008569389313935
      ],
      [
        "Ġtooth",
        -10.009384503709228
      ],
      [
        "Ġengage",
        -10.009398139821702
      ],
      [
        "-time",
        -10.010634306598064
      ],
      [
        "Ġbreath",
        -10.01135976400404
      ],
      [
        "Ġconsequence",
        -10.011655121459498
      ],
      [
        "Ġtechnical",
        -10.0120660104835
      ],
      [
        "Ġbaking",
        -10.012085378533854
      ],
      [
        "Ġabsolute",
        -10.012129882903938
      ],
      [
        "Ġrestaurant",
        -10.012150976577727
      ],
      [
        "ĠEurope",
        -10.01216869189884
      ],
      [
        "Ġowner",
        -10.01234128689103
      ],
      [
        "Ġstring",
        -10.015247443814731
      ],
      [
        "Ġfiles",
        -10.01539105693274
      ],
      [
        "Ġdefinition",
        -10.016105941470174
      ],
      [
        "ĠBritish",
        -10.016835941004093
      ],
      [
        "Ġdimension",
        -10.018259920609006
      ],
      [
        "za",
        -10.018612430177336
      ],
      [
        "Ġthorough",
        -10.019215973048992
      ],
      [
        "Ġfirm",
        -10.019322018220771
      ],
      [
        "Ġinteractions",
        -10.019407341153231
      ],
      [
        "Ġregulations",
        -10.019471330146873
      ],
      [
        "Ġassume",
        -10.020333552671
      ],
      [
        "we",
        -10.020824108226746
      ],
      [
        "Ġrenewable",
        -10.020825266928329
      ],
      [
        "Ġexhibit",
        -10.022740086045232
      ],
      [
        "Ġdetermined",
        -10.022777352714858
      ],
      [
        "Ġcontinuous",
        -10.023190513336296
      ],
      [
        "Ġtrial",
        -10.023259532071767
      ],
      [
        "cognition",
        -10.023417466354609
      ],
      [
        "Ġbatteries",
        -10.02355547814801
      ],
      [
        "Ġurban",
        -10.02476393147406
      ],
      [
        "Ġcurve",
        -10.0249423907617
      ],
      [
        "ĠEnergy",
        -10.026634486852544
      ],
      [
        "Ġfilm",
        -10.02712697722514
      ],
      [
        "/or",
        -10.02717209383394
      ],
      [
        "Ġindoor",
        -10.0275604297849
      ],
      [
        "Ġconsume",
        -10.028281100196208
      ],
      [
        "Ġconsideration",
        -10.029346228971514
      ],
      [
        "Ġformula",
        -10.030312490540815
      ],
      [
        "Ġmutation",
        -10.03070373299918
      ],
      [
        "Ġinner",
        -10.030782535479997
      ],
      [
        "Ġgirl",
        -10.031350705763344
      ],
      [
        "ory",
        -10.031698745890465
      ],
      [
        "Ġcalci",
        -10.03224398954861
      ],
      [
        "immediately",
        -10.034339306423904
      ],
      [
        "Ġplent",
        -10.034840207218153
      ],
      [
        "Ġleak",
        -10.034845029345597
      ],
      [
        "Ġprepare",
        -10.03494020534583
      ],
      [
        "Ġsaving",
        -10.035088908310389
      ],
      [
        "Ġopinion",
        -10.035112912184983
      ],
      [
        "-year",
        -10.035211031084362
      ],
      [
        "Ġprimari",
        -10.035862878566927
      ],
      [
        "ĠChina",
        -10.035865206452664
      ],
      [
        "Ġpreviously",
        -10.036318126755432
      ],
      [
        "Ġclinical",
        -10.03640987875122
      ],
      [
        "Ġbill",
        -10.036461344633892
      ],
      [
        "Ġtopics",
        -10.036538343628
      ],
      [
        "Ġmajority",
        -10.036903541987035
      ],
      [
        "Ġweed",
        -10.037255119130482
      ],
      [
        "Ġhistorical",
        -10.037722510545771
      ],
      [
        "Ġstomach",
        -10.038450552066433
      ],
      [
        "Ġleav",
        -10.038593586291526
      ],
      [
        "Ġplanting",
        -10.03864630238584
      ],
      [
        "Ġpainting",
        -10.038938413404397
      ],
      [
        "ĠJohn",
        -10.039138853555308
      ],
      [
        "Ġborder",
        -10.039662326373165
      ],
      [
        "Ġweld",
        -10.039675877038148
      ],
      [
        "ex",
        -10.040995640834767
      ],
      [
        "Ġbreast",
        -10.041025310217698
      ],
      [
        "Are",
        -10.042134882434908
      ],
      [
        "Ġversatil",
        -10.042290787582749
      ],
      [
        "Ġvessel",
        -10.042947800038904
      ],
      [
        "Ġmeeting",
        -10.043099849544644
      ],
      [
        "Ġwouldn",
        -10.043527608386992
      ],
      [
        "ĠMarch",
        -10.04557857032215
      ],
      [
        "ĠGoogle",
        -10.046771046579732
      ],
      [
        "itis",
        -10.04706660217848
      ],
      [
        "ĠAfrican",
        -10.049557759501017
      ],
      [
        "Ġnutrition",
        -10.04960683580266
      ],
      [
        "Ġgift",
        -10.05005668844634
      ],
      [
        "Ġeight",
        -10.05018168767667
      ],
      [
        "took",
        -10.05020897884268
      ],
      [
        "Ġowners",
        -10.050442991593366
      ],
      [
        "ĠCanada",
        -10.051126101625115
      ],
      [
        "Ġprior",
        -10.052174237604994
      ],
      [
        "ĠDe",
        -10.052674421407932
      ],
      [
        "Ġfuse",
        -10.052736551067849
      ],
      [
        "Ġdish",
        -10.052937723125346
      ],
      [
        "He",
        -10.053531075396858
      ],
      [
        "Ġminimum",
        -10.053969959140789
      ],
      [
        "Ġmath",
        -10.054209110190362
      ],
      [
        "ĠWar",
        -10.054838889496908
      ],
      [
        "il",
        -10.054886892926142
      ],
      [
        "ĠAdd",
        -10.055002678698765
      ],
      [
        "Ġhormone",
        -10.056031745016329
      ],
      [
        "Ġeconom",
        -10.056774489543583
      ],
      [
        "Ġlayers",
        -10.05772807506978
      ],
      [
        "Ġoccurr",
        -10.057861363047987
      ],
      [
        "Ġuniverse",
        -10.057914252438383
      ],
      [
        "Ġemployee",
        -10.057929961441586
      ],
      [
        "Ġexcessive",
        -10.058087772654089
      ],
      [
        "ions",
        -10.058157154366103
      ],
      [
        "Ġsuper",
        -10.05941158495309
      ],
      [
        "Ġprinciples",
        -10.05954337468874
      ],
      [
        "Ġgrain",
        -10.059562334823235
      ],
      [
        "Your",
        -10.060619921674448
      ],
      [
        "ĠGreat",
        -10.060628415546851
      ],
      [
        "Ġspray",
        -10.060939947141268
      ],
      [
        "ĠRead",
        -10.061074333385704
      ],
      [
        "Ġguidelines",
        -10.062659152934309
      ],
      [
        "Ġcontract",
        -10.063543371766151
      ],
      [
        "ĠCo",
        -10.064031837416715
      ],
      [
        "being",
        -10.06457698998296
      ],
      [
        "Ġobserv",
        -10.065235131518367
      ],
      [
        "Ġpathogen",
        -10.06648711445599
      ],
      [
        "Ġstatement",
        -10.067164575065306
      ],
      [
        "Ġnamed",
        -10.067408190955511
      ],
      [
        "ĠTake",
        -10.067634698456772
      ],
      [
        "Ġharm",
        -10.068201764924511
      ],
      [
        "Ġmission",
        -10.068508582563943
      ],
      [
        "ĠHis",
        -10.069507660226376
      ],
      [
        "Ġresponsibilit",
        -10.069809871222946
      ],
      [
        "Ġintelligence",
        -10.069815804312796
      ],
      [
        "Ġexamine",
        -10.069888980809225
      ],
      [
        "Yes",
        -10.070732170680918
      ],
      [
        "Ġlaser",
        -10.070763764010806
      ],
      [
        "Ġwasn",
        -10.07161071124053
      ],
      [
        "Ġsauce",
        -10.071807330102754
      ],
      [
        "Ġexplor",
        -10.073010548318065
      ],
      [
        "Ġjump",
        -10.07301558945472
      ],
      [
        "Ġanxiet",
        -10.073573873379903
      ],
      [
        "Ġcoffee",
        -10.074051451665635
      ],
      [
        "Ġconsist",
        -10.074658512807158
      ],
      [
        "Ġmap",
        -10.075059459818432
      ],
      [
        "Ġobjective",
        -10.07535610942955
      ],
      [
        "Ġglucos",
        -10.075453702690028
      ],
      [
        "Ġfundamental",
        -10.075589633697213
      ],
      [
        "ĠApril",
        -10.076264785074644
      ],
      [
        "-on",
        -10.076808477265004
      ],
      [
        "Ġdefinite",
        -10.078270509187924
      ],
      [
        "Ġsurvival",
        -10.0784238503314
      ],
      [
        "Ġborn",
        -10.08055272791188
      ],
      [
        "Ġwash",
        -10.081153797044877
      ],
      [
        "Ġillness",
        -10.0818657609952
      ],
      [
        "Ġbeauty",
        -10.082136623790632
      ],
      [
        "Ġdecide",
        -10.082658105933625
      ],
      [
        "Ġwet",
        -10.0829781767669
      ],
      [
        "Ġsmart",
        -10.08467330399088
      ],
      [
        "Ġkidney",
        -10.08591100747942
      ],
      [
        "Ġcircle",
        -10.08592824098618
      ],
      [
        "Ġofficial",
        -10.08624844874776
      ],
      [
        "Ġcompetition",
        -10.086638649891356
      ],
      [
        "Ġgear",
        -10.087753359338462
      ],
      [
        "Ġradio",
        -10.087872886507892
      ],
      [
        "Ġcommunicate",
        -10.091641514653528
      ],
      [
        "ĠJune",
        -10.091929021959976
      ],
      [
        "Ġexpose",
        -10.092140994579864
      ],
      [
        "Ġtube",
        -10.0932938567792
      ],
      [
        "Ġfoundation",
        -10.093329085989732
      ],
      [
        "Ġextensive",
        -10.094067285583668
      ],
      [
        "Ġdestroy",
        -10.094397814699244
      ],
      [
        "Ġprepared",
        -10.095221886786817
      ],
      [
        "Answer",
        -10.09527434049281
      ],
      [
        "Most",
        -10.095326283523132
      ],
      [
        "Ġtitle",
        -10.095715966925276
      ],
      [
        "Ġgets",
        -10.09576924547672
      ],
      [
        "Ġproduc",
        -10.095941764381829
      ],
      [
        "Ġshark",
        -10.096243908207864
      ],
      [
        "Ġintend",
        -10.0963379337393
      ],
      [
        "ĠLike",
        -10.09656877021952
      ],
      [
        "Use",
        -10.096690055380472
      ],
      [
        "Ġorigin",
        -10.096910697858997
      ],
      [
        "can",
        -10.09796377651757
      ],
      [
        "Ġcomparison",
        -10.098694050147284
      ],
      [
        "Ġnerve",
        -10.098893610163287
      ],
      [
        "ging",
        -10.099343618569243
      ],
      [
        "ĠInternational",
        -10.099383845489696
      ],
      [
        "Ġutiliz",
        -10.1001019110361
      ],
      [
        "nflammation",
        -10.101947049639817
      ],
      [
        "Conclusion",
        -10.10226703675238
      ],
      [
        "Ġsunlight",
        -10.10238678746232
      ],
      [
        "J",
        -10.102671763879052
      ],
      [
        "Ġpathway",
        -10.1028493874707
      ],
      [
        "mobile",
        -10.103742684583572
      ],
      [
        "Ġsong",
        -10.103915340200505
      ],
      [
        "Ġship",
        -10.105023805780514
      ],
      [
        "Ġfear",
        -10.10696022565315
      ],
      [
        "Ġtight",
        -10.108714580059733
      ],
      [
        "Ġminimize",
        -10.109081810605057
      ],
      [
        "Ġcareer",
        -10.110166381589544
      ],
      [
        "Ġremov",
        -10.110294206517114
      ],
      [
        "Ġconstruct",
        -10.11035988305512
      ],
      [
        "Ġfoster",
        -10.110555739052348
      ],
      [
        "Ġconventional",
        -10.112967794943865
      ],
      [
        "Ġprinter",
        -10.114232909063674
      ],
      [
        "Ġfields",
        -10.11459895617939
      ],
      [
        "Ġinnovative",
        -10.114715312519683
      ],
      [
        "Ġclient",
        -10.11526723372198
      ],
      [
        "ĠPro",
        -10.115880044639384
      ],
      [
        "Ġarm",
        -10.116857865776083
      ],
      [
        "cation",
        -10.11735808419691
      ],
      [
        "Ġlaws",
        -10.117788444456338
      ],
      [
        "Ġpromot",
        -10.118592199616051
      ],
      [
        "Ġtests",
        -10.118949219985684
      ],
      [
        "Ġseat",
        -10.119077364473997
      ],
      [
        "Ġalign",
        -10.11909274549228
      ],
      [
        "healthy",
        -10.119479290329338
      ],
      [
        "Ġliver",
        -10.119761470739968
      ],
      [
        "Ġparameter",
        -10.119961448068736
      ],
      [
        "Ġdental",
        -10.12010942644268
      ],
      [
        "According",
        -10.120719160075712
      ],
      [
        "Ġwoman",
        -10.12076838329116
      ],
      [
        "Ġdesp",
        -10.121327670994472
      ],
      [
        "My",
        -10.123215376185575
      ],
      [
        "Ġbehaviour",
        -10.123355004217787
      ],
      [
        "Ġstroke",
        -10.124010362141211
      ],
      [
        "Ġdomain",
        -10.124105874691448
      ],
      [
        "ĠSea",
        -10.124290389048385
      ],
      [
        "Ġchronic",
        -10.124787567355265
      ],
      [
        "Ġthrow",
        -10.12732906385416
      ],
      [
        "Ġaudience",
        -10.127676416757009
      ],
      [
        "Ġbrick",
        -10.128002576183247
      ],
      [
        "Ġcloser",
        -10.128260517234382
      ],
      [
        "Ġformat",
        -10.128380737509014
      ],
      [
        "Ġprofile",
        -10.130468365335933
      ],
      [
        "Ġfisher",
        -10.131487907954837
      ],
      [
        "Ġmask",
        -10.13157057092616
      ],
      [
        "coming",
        -10.132105195707457
      ],
      [
        "Ġemail",
        -10.133849795311452
      ],
      [
        "Ġseal",
        -10.134167382055423
      ],
      [
        "Ġseven",
        -10.13430052630087
      ],
      [
        "Ġorganizations",
        -10.13601465646482
      ],
      [
        "Ġinteraction",
        -10.136035356487614
      ],
      [
        "Ġprecise",
        -10.13619574090857
      ],
      [
        "Ġradiation",
        -10.13630560434236
      ],
      [
        "Ġworksheet",
        -10.136353464962523
      ],
      [
        "Ġadopt",
        -10.137497518920185
      ],
      [
        "Ġutilize",
        -10.13977935093403
      ],
      [
        "Ġexcess",
        -10.139889652116873
      ],
      [
        "referred",
        -10.1404505148945
      ],
      [
        "Ġarchitecture",
        -10.140860295313733
      ],
      [
        "Ġapart",
        -10.141297418994288
      ],
      [
        "fully",
        -10.141546631608646
      ],
      [
        "Ġrely",
        -10.14198916785312
      ],
      [
        "Ġdecided",
        -10.142381280402091
      ],
      [
        "Ġhorses",
        -10.142496465812012
      ],
      [
        "Ġdensit",
        -10.14270109264749
      ],
      [
        "Ġpackag",
        -10.143414391011277
      ],
      [
        "Ġappeal",
        -10.144388773058104
      ],
      [
        "Ġworm",
        -10.14535432279198
      ],
      [
        "Ġchose",
        -10.14538389837922
      ],
      [
        "Ġeliminate",
        -10.145778363247526
      ],
      [
        "Ġarray",
        -10.14588941816999
      ],
      [
        "ĠTime",
        -10.146080126946108
      ],
      [
        "Ġopening",
        -10.146295553449256
      ],
      [
        "ma",
        -10.146643551385525
      ],
      [
        "Ġadvantages",
        -10.147045525697015
      ],
      [
        "More",
        -10.147548744257897
      ],
      [
        "times",
        -10.147863298831156
      ],
      [
        "Ġgate",
        -10.148510398600909
      ],
      [
        "Ġsteam",
        -10.148805372126343
      ],
      [
        "Ġbond",
        -10.1496933427066
      ],
      [
        "ĠHave",
        -10.149853316081776
      ],
      [
        "ĠâĢĺ",
        -10.15069733119905
      ],
      [
        "Ġ...Ċ",
        -10.151554743692843
      ],
      [
        "Ġtrouble",
        -10.151871183591958
      ],
      [
        "ĠThrough",
        -10.1520749753975
      ],
      [
        "ĠLe",
        -10.15275700247284
      ],
      [
        "Ġhousehold",
        -10.153059020504374
      ],
      [
        "Ġprinting",
        -10.153295613800935
      ],
      [
        "Ġmanufacturing",
        -10.153956907222824
      ],
      [
        "Ġgraphic",
        -10.154163720415609
      ],
      [
        "Ġcrack",
        -10.155059880918742
      ],
      [
        "ĠProgram",
        -10.155079730916022
      ],
      [
        "Ġsaying",
        -10.155099164470382
      ],
      [
        "Ġputt",
        -10.155303815724473
      ],
      [
        "Ġspen",
        -10.15582950554409
      ],
      [
        "Ġzero",
        -10.155881105813476
      ],
      [
        "Ġstar",
        -10.156008902875293
      ],
      [
        "Ġpane",
        -10.156849394107546
      ],
      [
        "Ġrealize",
        -10.157218696292857
      ],
      [
        "ĠAct",
        -10.158036073588756
      ],
      [
        "ĠSan",
        -10.15856690544219
      ],
      [
        "Ġenhanc",
        -10.160121137139562
      ],
      [
        "ĠBoth",
        -10.16056472365175
      ],
      [
        "Ġquantit",
        -10.160940192438808
      ],
      [
        "November",
        -10.161826743591782
      ],
      [
        "Ġplate",
        -10.16445590607037
      ],
      [
        "Ġchoos",
        -10.164473533384246
      ],
      [
        "Ġpool",
        -10.165173122116729
      ],
      [
        "ĠDoes",
        -10.166388573895368
      ],
      [
        "Ġintroduc",
        -10.16684574816142
      ],
      [
        "ĠGreen",
        -10.167885976250696
      ],
      [
        "Ġusage",
        -10.167941071622884
      ],
      [
        "Ġ**",
        -10.168609190136213
      ],
      [
        "Ġinstitution",
        -10.169627919290182
      ],
      [
        "ĠII",
        -10.169981712457451
      ],
      [
        "ern",
        -10.170515133849523
      ],
      [
        "Ġdatabase",
        -10.170586507613802
      ],
      [
        "Ġpreparation",
        -10.17074967700134
      ],
      [
        "ĠBlack",
        -10.170783996178171
      ],
      [
        "gave",
        -10.17139125928667
      ],
      [
        "Ġroute",
        -10.171828148094036
      ],
      [
        "ĠLight",
        -10.172429096932412
      ],
      [
        "Ġnet",
        -10.174654916048858
      ],
      [
        "Ġbug",
        -10.174829581016986
      ],
      [
        "Ġencounter",
        -10.174949107179565
      ],
      [
        "Ġstable",
        -10.175692487427929
      ],
      [
        "Ġconsists",
        -10.178064397942045
      ],
      [
        "Ġancient",
        -10.178158363359753
      ],
      [
        "Ġinstrument",
        -10.178161601883223
      ],
      [
        "ĠWeb",
        -10.178628957617793
      ],
      [
        "Ġten",
        -10.178954180558136
      ],
      [
        "Ġreceiv",
        -10.179290260902729
      ],
      [
        "Ġwish",
        -10.17932220071275
      ],
      [
        "Ġmagnetic",
        -10.179372703328696
      ],
      [
        "Ġrandom",
        -10.17969224779988
      ],
      [
        "Ġderive",
        -10.179802765089535
      ],
      [
        "Ġconfirm",
        -10.179832935725706
      ],
      [
        "Ġagricultural",
        -10.179980873599838
      ],
      [
        "Ġbarrier",
        -10.179981038010467
      ],
      [
        "Ġsnake",
        -10.180298098311564
      ],
      [
        "Ġrecorded",
        -10.1813526522571
      ],
      [
        "Ġpolicy",
        -10.18220701602826
      ],
      [
        "Ġpictures",
        -10.182666113515308
      ],
      [
        "Ġalter",
        -10.182686864781443
      ],
      [
        "Ġweigh",
        -10.183992955305982
      ],
      [
        "Ġpan",
        -10.186473177838089
      ],
      [
        "Ġrequir",
        -10.186546308650758
      ],
      [
        "Ġsharp",
        -10.186698047407678
      ],
      [
        "Ġconsult",
        -10.187350989862455
      ],
      [
        "Ġvaccine",
        -10.188827184017567
      ],
      [
        "sium",
        -10.189335652911568
      ],
      [
        "Ġthread",
        -10.189801747022557
      ],
      [
        "ĠLong",
        -10.190844819071543
      ],
      [
        "VCA",
        -10.190922485993706
      ],
      [
        "ent",
        -10.190952802908257
      ],
      [
        "go",
        -10.191232667065734
      ],
      [
        "ĠPh",
        -10.191472228120965
      ],
      [
        "ĠMicro",
        -10.19174687586315
      ],
      [
        "Figure",
        -10.191968986438658
      ],
      [
        "Ġinitiative",
        -10.192871322385384
      ],
      [
        "Ġframework",
        -10.1936815041967
      ],
      [
        "Ġprove",
        -10.194038756168316
      ],
      [
        "Ġtrade",
        -10.194185982525925
      ],
      [
        "Ġbrush",
        -10.194761284773232
      ],
      [
        "Ġsensitive",
        -10.195354313539193
      ],
      [
        "Ġtomato",
        -10.19737665340666
      ],
      [
        "ification",
        -10.197619510374468
      ],
      [
        "ĠAny",
        -10.197733273759937
      ],
      [
        "Ġdownload",
        -10.197929982594893
      ],
      [
        "Ġboundar",
        -10.197959614149832
      ],
      [
        "Ġshapes",
        -10.198431591178265
      ],
      [
        "Ġclothes",
        -10.198642968516634
      ],
      [
        "va",
        -10.198708174173252
      ],
      [
        "ĠIndian",
        -10.199555029292409
      ],
      [
        "Ġstatus",
        -10.200058983708123
      ],
      [
        "Ġbutter",
        -10.200678034232109
      ],
      [
        "Ġjournal",
        -10.200690340761945
      ],
      [
        "ĠWest",
        -10.20125326005376
      ],
      [
        "ĠChrist",
        -10.201344369203126
      ],
      [
        "Ġsufficient",
        -10.201916358349436
      ],
      [
        "Ġband",
        -10.202001635466878
      ],
      [
        "Ġdistinct",
        -10.20202582101
      ],
      [
        "Ġpad",
        -10.202109633356384
      ],
      [
        "Ġpowder",
        -10.202736001158137
      ],
      [
        "Ġbulb",
        -10.202843289088756
      ],
      [
        "ĠFoundation",
        -10.203021174832402
      ],
      [
        "Ġheavi",
        -10.204654539789525
      ],
      [
        "ver",
        -10.204906209806488
      ],
      [
        "Ġindustries",
        -10.206494689637823
      ],
      [
        "Ġrequest",
        -10.206977177056013
      ],
      [
        "Ġprogramm",
        -10.207093641729427
      ],
      [
        "Re",
        -10.207180520996534
      ],
      [
        "Ġclock",
        -10.207650323645169
      ],
      [
        "ĠDesign",
        -10.208350767019018
      ],
      [
        "going",
        -10.208610715042507
      ],
      [
        "ĠHuman",
        -10.20879167414745
      ],
      [
        "Ġengag",
        -10.2090344428002
      ],
      [
        "Ġwor",
        -10.209222493968188
      ],
      [
        "Ġrice",
        -10.20944404949957
      ],
      [
        "are",
        -10.210024176831574
      ],
      [
        "Ġstabilit",
        -10.210346791713734
      ],
      [
        "Ġwarming",
        -10.210749512348272
      ],
      [
        "Ġmammal",
        -10.211719712292629
      ],
      [
        "Ġrepeat",
        -10.211792133679502
      ],
      [
        "Ġwrot",
        -10.211818184464786
      ],
      [
        "Let",
        -10.21213272812864
      ],
      [
        "Ġantibod",
        -10.21249409931152
      ],
      [
        "Ġhospital",
        -10.215797610619822
      ],
      [
        "Ġpredator",
        -10.21584867476024
      ],
      [
        "mas",
        -10.21625966553734
      ],
      [
        "Ġcollege",
        -10.216360085768793
      ],
      [
        "Ġamino",
        -10.216517829225047
      ],
      [
        "Ġforget",
        -10.21748968871611
      ],
      [
        "Ġbreeding",
        -10.21763100235937
      ],
      [
        "men",
        -10.218149399673909
      ],
      [
        "Ġoven",
        -10.218828607892895
      ],
      [
        "Ġworkshop",
        -10.220363742752811
      ],
      [
        "Ġforces",
        -10.220643566306196
      ],
      [
        "Ġcalculation",
        -10.220680426418692
      ],
      [
        "Ġtown",
        -10.221137474735157
      ],
      [
        "Ġvarie",
        -10.221336480052688
      ],
      [
        "Ġcapabl",
        -10.221970940844162
      ],
      [
        "ĠLa",
        -10.222648975586123
      ],
      [
        "Ġcredit",
        -10.223347888398926
      ],
      [
        "Ġsignals",
        -10.224007424985109
      ],
      [
        "Ġperiods",
        -10.22411449556953
      ],
      [
        "Ġtoxic",
        -10.226314354160602
      ],
      [
        "Ġprovider",
        -10.226771643977555
      ],
      [
        "Ġsurger",
        -10.226990931992097
      ],
      [
        "Ġgraph",
        -10.227082690151128
      ],
      [
        "Ġattend",
        -10.227355622485623
      ],
      [
        "Ġgold",
        -10.227541088760294
      ],
      [
        "Ġspeech",
        -10.228708473280015
      ],
      [
        "ĠWhere",
        -10.228875023696409
      ],
      [
        "Ġsurprise",
        -10.229631709065355
      ],
      [
        "Ġtrait",
        -10.229634115743902
      ],
      [
        "Ġpound",
        -10.230989806206235
      ],
      [
        "Z",
        -10.231183632179912
      ],
      [
        "Ġcompare",
        -10.231536394068373
      ],
      [
        "Ġnose",
        -10.23315312344017
      ],
      [
        "Ġappreciate",
        -10.233481640073675
      ],
      [
        "Ġmanner",
        -10.23446126780107
      ],
      [
        "Ġuniversit",
        -10.234498640509155
      ],
      [
        "from",
        -10.234603105941584
      ],
      [
        "Ġcollaboration",
        -10.234666980053191
      ],
      [
        "ĠRed",
        -10.234801579388492
      ],
      [
        "Ġcraft",
        -10.236092649690068
      ],
      [
        "Ġintake",
        -10.23642932991618
      ],
      [
        "Ġbi",
        -10.237126543418212
      ],
      [
        "ĠJanuary",
        -10.237558413054082
      ],
      [
        "Ġplane",
        -10.238192232715289
      ],
      [
        "Ġthrive",
        -10.238228312396853
      ],
      [
        "Ġdivide",
        -10.238897058480518
      ],
      [
        "Ġguess",
        -10.239054001733418
      ],
      [
        "Ġregulate",
        -10.239339903774528
      ],
      [
        "ĠSA",
        -10.240283516773562
      ],
      [
        "Ġdust",
        -10.240771476463165
      ],
      [
        "Ġfault",
        -10.243782875548249
      ],
      [
        "Ġpercentage",
        -10.244439422193132
      ],
      [
        "Ġadequate",
        -10.24539849557565
      ],
      [
        "Ġcake",
        -10.24545039615397
      ],
      [
        "ĠAugust",
        -10.24563684429053
      ],
      [
        "Ġspeaker",
        -10.247100981091046
      ],
      [
        "but",
        -10.247317148513064
      ],
      [
        "Ġmolecular",
        -10.248518926782236
      ],
      [
        "Ġintegrate",
        -10.248981588614004
      ],
      [
        "way",
        -10.249335857087589
      ],
      [
        "Ġriver",
        -10.250881754757152
      ],
      [
        "Ġsharks",
        -10.251089749150882
      ],
      [
        "Ġfac",
        -10.25150894082497
      ],
      [
        "soft",
        -10.251741700571795
      ],
      [
        "Ġincorporate",
        -10.252650917940162
      ],
      [
        "Ġlinked",
        -10.252758489171992
      ],
      [
        "afety",
        -10.25310875150857
      ],
      [
        "Ġbite",
        -10.253146686199056
      ],
      [
        "Ġsignificance",
        -10.253464808667331
      ],
      [
        "Ġimmediate",
        -10.25359765312104
      ],
      [
        "Ġmild",
        -10.253815478521128
      ],
      [
        "Ġlaborator",
        -10.253847831731957
      ],
      [
        "Ġflu",
        -10.254060900772494
      ],
      [
        "Ġwalking",
        -10.254080422469787
      ],
      [
        "Ġanalyze",
        -10.254308915036544
      ],
      [
        "low",
        -10.254574225481278
      ],
      [
        "Ġshop",
        -10.257926972603263
      ],
      [
        "ĠCa",
        -10.257951406917158
      ],
      [
        "Ġlifestyle",
        -10.258186168944306
      ],
      [
        "Ġopposite",
        -10.258201272253936
      ],
      [
        "ley",
        -10.258265640950196
      ],
      [
        "ow",
        -10.258710555963248
      ],
      [
        "wood",
        -10.258795164750262
      ],
      [
        "From",
        -10.258884025527884
      ],
      [
        "Ġpepper",
        -10.25900434834744
      ],
      [
        "Ġdescription",
        -10.25926793292856
      ],
      [
        "Ġnovel",
        -10.259565735414984
      ],
      [
        "Ġrecommendation",
        -10.259732229807206
      ],
      [
        "Ġkg",
        -10.259789010234655
      ],
      [
        "ĠAgricultur",
        -10.259929446767504
      ],
      [
        "ĠFish",
        -10.260178526849916
      ],
      [
        "ĠCounty",
        -10.260239859008628
      ],
      [
        "Ġscene",
        -10.26039440863612
      ],
      [
        "ĠOpen",
        -10.261525462964627
      ],
      [
        "Ġassembl",
        -10.26197922552382
      ],
      [
        "ĠGroup",
        -10.262947092378369
      ],
      [
        "Ġscenario",
        -10.26296806794101
      ],
      [
        "Ġexpense",
        -10.262968074516303
      ],
      [
        "Ġdepartment",
        -10.26328098779113
      ],
      [
        "ĠUn",
        -10.263727550899151
      ],
      [
        "Ġapproaches",
        -10.264277922300462
      ],
      [
        "Ġpure",
        -10.264763565532364
      ],
      [
        "ĠPacific",
        -10.26558287399486
      ],
      [
        "Ġorange",
        -10.26649582866596
      ],
      [
        "Ġstands",
        -10.266763387506666
      ],
      [
        "ĠApple",
        -10.266857894833011
      ],
      [
        "Ġhandl",
        -10.267191148784455
      ],
      [
        "Ġcontinues",
        -10.267706187262617
      ],
      [
        "Ġvast",
        -10.267828073607964
      ],
      [
        "Ġvolunteer",
        -10.26800036511504
      ],
      [
        "Ġengagement",
        -10.268030479043354
      ],
      [
        "Ġadjustment",
        -10.268175935770008
      ],
      [
        "Ġstructural",
        -10.268642510637244
      ],
      [
        "ĠLook",
        -10.269010584043508
      ],
      [
        "Ġessay",
        -10.27033556835764
      ],
      [
        "Ġwindows",
        -10.272264488701447
      ],
      [
        "Ġmechanical",
        -10.272387042559028
      ],
      [
        "Ġsmoke",
        -10.272737307832283
      ],
      [
        "Ġprompt",
        -10.272996754914953
      ],
      [
        "Ġdetection",
        -10.27341737408188
      ],
      [
        "Ġbloom",
        -10.27369252904412
      ],
      [
        "Ġouter",
        -10.27400079524076
      ],
      [
        "Ġweak",
        -10.27420848685881
      ],
      [
        "Ġsustainab",
        -10.27421870051878
      ],
      [
        "Ġbeans",
        -10.27428827416388
      ],
      [
        "ĠNatural",
        -10.2746848664892
      ],
      [
        "ĠControl",
        -10.275778368128416
      ],
      [
        "Ġfamiliar",
        -10.275999314210548
      ],
      [
        "ĠSystem",
        -10.277289136418844
      ],
      [
        "ĠNatur",
        -10.277449745709127
      ],
      [
        "Ġshirt",
        -10.277603212836414
      ],
      [
        "Ġcalm",
        -10.27779938824748
      ],
      [
        "ĠThus",
        -10.277935448956184
      ],
      [
        "Ġwhale",
        -10.278251545362073
      ],
      [
        "Ġcorn",
        -10.278476084895194
      ],
      [
        "Ġaccurac",
        -10.278604641429766
      ],
      [
        "Ġregister",
        -10.278605107691904
      ],
      [
        "Ġpermanent",
        -10.279049352315198
      ],
      [
        "ha",
        -10.279913343607197
      ],
      [
        "Ġboost",
        -10.280437660763395
      ],
      [
        "Ġacademic",
        -10.280861395428136
      ],
      [
        "iness",
        -10.28201661112406
      ],
      [
        "Ġdefin",
        -10.282824337994418
      ],
      [
        "Ġreact",
        -10.2835229394727
      ],
      [
        "Ġconfidence",
        -10.28377245185551
      ],
      [
        "Ġsent",
        -10.283878228621518
      ],
      [
        "Ġpurposes",
        -10.28394586333108
      ],
      [
        "Ġfelt",
        -10.284370692823064
      ],
      [
        "Ġfunctional",
        -10.284371311752588
      ],
      [
        "Ġscratch",
        -10.285598710579723
      ],
      [
        "Ġrecipe",
        -10.285617135482532
      ],
      [
        "Ġtour",
        -10.285872756019682
      ],
      [
        "nd",
        -10.286235733834646
      ],
      [
        "Ġtraffic",
        -10.28749338597066
      ],
      [
        "Ġease",
        -10.28755897073462
      ],
      [
        "Ġquant",
        -10.288211605895324
      ],
      [
        "Ġnarrow",
        -10.288252918433294
      ],
      [
        "Ġfroze",
        -10.2888744324615
      ],
      [
        "chemistry",
        -10.289489903557936
      ],
      [
        "Ġprey",
        -10.290089330319104
      ],
      [
        "Ġreports",
        -10.290698896296307
      ],
      [
        "well",
        -10.291092872843954
      ],
      [
        "Ġremote",
        -10.292874088031091
      ],
      [
        "accessible",
        -10.293804986760923
      ],
      [
        "Ġdream",
        -10.29418824387053
      ],
      [
        "expected",
        -10.294252894636466
      ],
      [
        "Ġbio",
        -10.29595351757975
      ],
      [
        "Ġelevate",
        -10.296131255175098
      ],
      [
        "Ġprocessor",
        -10.29713526923847
      ],
      [
        "Ġpossibl",
        -10.297454801830307
      ],
      [
        "Ġspider",
        -10.297456947856586
      ],
      [
        "Ġcombin",
        -10.29794240265266
      ],
      [
        "Ġcompleted",
        -10.298812730704135
      ],
      [
        "Ġbigge",
        -10.298888160201807
      ],
      [
        "ĠSeptem",
        -10.299446548289456
      ],
      [
        "Ġbreastfeed",
        -10.299595822581658
      ],
      [
        "Ġbinding",
        -10.299692704328717
      ],
      [
        "Ġfamous",
        -10.299799821753131
      ],
      [
        "ĠIsland",
        -10.300559800570152
      ],
      [
        "Ġconversation",
        -10.301245596548668
      ],
      [
        "Ġrecording",
        -10.301607585739005
      ],
      [
        "Ġeco",
        -10.302025346246738
      ],
      [
        "Ġdelicious",
        -10.302479532854427
      ],
      [
        "Ġgradual",
        -10.30248034665031
      ],
      [
        "Not",
        -10.303291709422684
      ],
      [
        "uary",
        -10.303508730114372
      ],
      [
        "ĠGet",
        -10.303783204292822
      ],
      [
        "Ġmovie",
        -10.303819804092786
      ],
      [
        "Ġloop",
        -10.303833761002318
      ],
      [
        "how",
        -10.304312399257448
      ],
      [
        "Ġstorm",
        -10.304879931720102
      ],
      [
        "Ġhid",
        -10.30725280346143
      ],
      [
        "ĠCheck",
        -10.307361317346306
      ],
      [
        "Ġbegins",
        -10.30757455624198
      ],
      [
        "Ġcontribut",
        -10.307619251835693
      ],
      [
        "Ġterminal",
        -10.307862414229913
      ],
      [
        "Ġgreenhouse",
        -10.308610069544391
      ],
      [
        "Ġunlike",
        -10.308687363557322
      ],
      [
        "Ġdiagnose",
        -10.309022972986206
      ],
      [
        "Ġdrugs",
        -10.309328247494776
      ],
      [
        "ĠGo",
        -10.309528358665858
      ],
      [
        "Ġpartial",
        -10.310037556908831
      ],
      [
        "Ġdishe",
        -10.310329275575809
      ],
      [
        "Ġdecline",
        -10.31126820999187
      ],
      [
        "Florida",
        -10.312606332034068
      ],
      [
        "Ġdelay",
        -10.312623487954475
      ],
      [
        "anagement",
        -10.312874762700948
      ],
      [
        "Over",
        -10.31293091218726
      ],
      [
        "Ġworkers",
        -10.313277470891544
      ],
      [
        "Ġbreathing",
        -10.313291058494611
      ],
      [
        "ĠAssociation",
        -10.31339983783444
      ],
      [
        "Ġbelief",
        -10.313400103531864
      ],
      [
        "Ġchapter",
        -10.313523684274092
      ],
      [
        "Ġfold",
        -10.313553884181026
      ],
      [
        "ĠIP",
        -10.313574385352185
      ],
      [
        "Ġfertilizer",
        -10.313585662612788
      ],
      [
        "with",
        -10.313871649667073
      ],
      [
        "Ġsex",
        -10.31399663889006
      ],
      [
        "Since",
        -10.314719027265062
      ],
      [
        "Ġstream",
        -10.314935561041407
      ],
      [
        "Ġboil",
        -10.315692834721029
      ],
      [
        "Ġdiffer",
        -10.317782639167325
      ],
      [
        "Ġvalve",
        -10.317814900963784
      ],
      [
        "Ġmilitar",
        -10.31846019360258
      ],
      [
        "Ġride",
        -10.318716458170474
      ],
      [
        "Ġshadow",
        -10.318761906468602
      ],
      [
        "Ġbread",
        -10.318799456126916
      ],
      [
        "Ġkick",
        -10.319308857339838
      ],
      [
        "ĠPlease",
        -10.31931096384617
      ],
      [
        "made",
        -10.319568440029162
      ],
      [
        "ities",
        -10.320281218497144
      ],
      [
        "OVID",
        -10.320426105819074
      ],
      [
        "ĠJuly",
        -10.320578933980643
      ],
      [
        "Ġclosed",
        -10.321002711845228
      ],
      [
        "Onc",
        -10.32125535041164
      ],
      [
        "ĠAsia",
        -10.321950993514832
      ],
      [
        "Ġcoating",
        -10.322043899031158
      ],
      [
        "ĠWild",
        -10.32208977229162
      ],
      [
        "Texas",
        -10.32283809097715
      ],
      [
        "Ġtutorial",
        -10.32285988664488
      ],
      [
        "Ġcommitment",
        -10.322882401160848
      ],
      [
        "Ġcement",
        -10.32288636495217
      ],
      [
        "ĠLearn",
        -10.323229998966545
      ],
      [
        "ĠFrench",
        -10.32378282076808
      ],
      [
        "Ġvertical",
        -10.32401780463793
      ],
      [
        "Ġarrive",
        -10.324474370688648
      ],
      [
        "Ġcouldn",
        -10.324528996234696
      ],
      [
        "ĠRemember",
        -10.324570750312454
      ],
      [
        "Ġdelve",
        -10.325556898783924
      ],
      [
        "Ġinspire",
        -10.327302447042564
      ],
      [
        "Ġjuice",
        -10.327474970477404
      ],
      [
        "{",
        -10.327561531618384
      ],
      [
        "Ġintricate",
        -10.32799096347761
      ],
      [
        "ĠPC",
        -10.328794716526843
      ],
      [
        "].",
        -10.331071755567478
      ],
      [
        "ĠClass",
        -10.332106234027703
      ],
      [
        "Ġlense",
        -10.332836496926872
      ],
      [
        "Ġmining",
        -10.333332169860803
      ],
      [
        "Ġlogic",
        -10.333475730066468
      ],
      [
        "Ġpuppy",
        -10.333486992135956
      ],
      [
        "Ġcoral",
        -10.333690887772573
      ],
      [
        "Ġstretch",
        -10.33418471922764
      ],
      [
        "Ġbigger",
        -10.3345278952223
      ],
      [
        "Ġparticipate",
        -10.336808031607449
      ],
      [
        "Ġsupplie",
        -10.33830781322674
      ],
      [
        "?\"",
        -10.3384921581004
      ],
      [
        "Ġfeedback",
        -10.33915278743278
      ],
      [
        "ĠFree",
        -10.339503675760472
      ],
      [
        "ĠFeb",
        -10.339807351216788
      ],
      [
        "Ġworse",
        -10.339994317145656
      ],
      [
        "Ġnitrogen",
        -10.340195204492622
      ],
      [
        "ĠChildren",
        -10.34048686128731
      ],
      [
        "Ġcluster",
        -10.340574222778145
      ],
      [
        "Ġaward",
        -10.340756168717842
      ],
      [
        "Ġgum",
        -10.342226100776148
      ],
      [
        "Ġevaluate",
        -10.342873974640934
      ],
      [
        "ĠHelp",
        -10.343323847164768
      ],
      [
        "Ġcustom",
        -10.343961403230118
      ],
      [
        "Ġdiagnosi",
        -10.344352146273476
      ],
      [
        "Ġthermal",
        -10.344439245596243
      ],
      [
        "Ġtrends",
        -10.345254800316562
      ],
      [
        "Ġfed",
        -10.346148184330216
      ],
      [
        "Ġpages",
        -10.346341298155192
      ],
      [
        "ĠColor",
        -10.346917759494506
      ],
      [
        "Ġmistake",
        -10.34768419945155
      ],
      [
        "Ġpreserve",
        -10.34813856367676
      ],
      [
        "Ġpropose",
        -10.348336997523862
      ],
      [
        "ĠDog",
        -10.348364909921642
      ],
      [
        "Ġcareful",
        -10.348396403586758
      ],
      [
        "Ġpose",
        -10.348577258318652
      ],
      [
        "Unfortuna",
        -10.34887927085678
      ],
      [
        "Ġherb",
        -10.349635317996258
      ],
      [
        "Ġdisorders",
        -10.350107222077984
      ],
      [
        "Ġport",
        -10.350401577872631
      ],
      [
        "Ġsecret",
        -10.3507596380471
      ],
      [
        "Ġcounter",
        -10.350889420002527
      ],
      [
        "ĉ",
        -10.351337208578755
      ],
      [
        "ball",
        -10.353202745212814
      ],
      [
        "ĠFinal",
        -10.353307192861436
      ],
      [
        "Ġholding",
        -10.35356805219233
      ],
      [
        "Ġprofessor",
        -10.354170278970752
      ],
      [
        "Ġfascinating",
        -10.354173860415251
      ],
      [
        "Ġgut",
        -10.35504555182635
      ],
      [
        "Ġcharging",
        -10.35504885324179
      ],
      [
        "Ġbowl",
        -10.355242722182416
      ],
      [
        "Ġyouth",
        -10.355252816554476
      ],
      [
        "Ġblow",
        -10.356605608924497
      ],
      [
        "ĠWindow",
        -10.357043522577936
      ],
      [
        "Ġrelax",
        -10.357048196624069
      ],
      [
        "Ġinter",
        -10.358172531545604
      ],
      [
        "Ġplot",
        -10.35846392653895
      ],
      [
        "Ġdirector",
        -10.358899446968652
      ],
      [
        "life",
        -10.359047781831446
      ],
      [
        "Ġpond",
        -10.35906781939859
      ],
      [
        "ĠFind",
        -10.359263651489908
      ],
      [
        "ural",
        -10.359477790595015
      ],
      [
        "wimming",
        -10.359923806510418
      ],
      [
        "Ġmark",
        -10.360250207322196
      ],
      [
        "upon",
        -10.361255433493923
      ],
      [
        "ĠUp",
        -10.361831661318092
      ],
      [
        "Ġmenu",
        -10.362241242862266
      ],
      [
        "Ġlock",
        -10.362553696295592
      ],
      [
        "Ġcontinu",
        -10.363340323165987
      ],
      [
        "Ġserver",
        -10.364628834550736
      ],
      [
        "Ġhelmet",
        -10.364839346496716
      ],
      [
        "Ġlifespan",
        -10.36484223254962
      ],
      [
        "Ġdepression",
        -10.364909492410783
      ],
      [
        "Ġintervention",
        -10.365160440462988
      ],
      [
        "Ġstrip",
        -10.365590524587777
      ],
      [
        "Ġpreserv",
        -10.365676480485002
      ],
      [
        "Ġcopper",
        -10.366447503489
      ],
      [
        "Ġneck",
        -10.36696229046846
      ],
      [
        "Ġtwi",
        -10.367070117048948
      ],
      [
        "Ġaesthetic",
        -10.36721678308858
      ],
      [
        "ĠWhite",
        -10.367819010277238
      ],
      [
        "Ġenabl",
        -10.368555896575115
      ],
      [
        "weight",
        -10.369132228285004
      ],
      [
        "Ġbear",
        -10.369288934216124
      ],
      [
        "Ġmoved",
        -10.369791117903349
      ],
      [
        "Ġdanger",
        -10.37002143369538
      ],
      [
        "pm",
        -10.37014806014141
      ],
      [
        "Ġclub",
        -10.371702375512005
      ],
      [
        "Ġgrant",
        -10.371847779903623
      ],
      [
        "Ġexcit",
        -10.372549048415571
      ],
      [
        "-of",
        -10.373168471479932
      ],
      [
        "ĠEast",
        -10.374989434364611
      ],
      [
        "Ġvibrant",
        -10.375618769630943
      ],
      [
        "Ġextent",
        -10.37562349644185
      ],
      [
        "Ġmetabolism",
        -10.375634615511643
      ],
      [
        "Ġcompressor",
        -10.375777419268193
      ],
      [
        "Ġcolumn",
        -10.37592155078676
      ],
      [
        "ĠJesu",
        -10.376703240383735
      ],
      [
        "ĠTV",
        -10.379564107873936
      ],
      [
        "ĠCommon",
        -10.379627516600294
      ],
      [
        "ĠCar",
        -10.379945302024293
      ],
      [
        "Ġattribute",
        -10.380576341050364
      ],
      [
        "Ġshoes",
        -10.380704059100513
      ],
      [
        "Ġbrief",
        -10.381053566373112
      ],
      [
        "Ġclay",
        -10.381079031497183
      ],
      [
        "Ġveterinarian",
        -10.381562588215758
      ],
      [
        "ill",
        -10.381774413526012
      ],
      [
        "Ġathlete",
        -10.382413815189096
      ],
      [
        "Ġtradition",
        -10.383072313050793
      ],
      [
        "Ġargument",
        -10.384181371477927
      ],
      [
        "Ġevolve",
        -10.385809323293763
      ],
      [
        "Ġmine",
        -10.386016048731744
      ],
      [
        "Ġsuffer",
        -10.386045868831465
      ],
      [
        "ĠPower",
        -10.386480729347708
      ],
      [
        "Ġshelter",
        -10.38651830298256
      ],
      [
        "Ġplug",
        -10.387349081150209
      ],
      [
        "Ġeveryday",
        -10.387937920768444
      ],
      [
        "Ġnuclea",
        -10.388103607394363
      ],
      [
        "sistance",
        -10.38831054640712
      ],
      [
        "...Ċ",
        -10.38842158835718
      ],
      [
        "Ġpilot",
        -10.388558578113678
      ],
      [
        "Ġwherea",
        -10.388722794980538
      ],
      [
        "Ġtail",
        -10.389985829097288
      ],
      [
        "Ġexcept",
        -10.390021259240696
      ],
      [
        "Ġplac",
        -10.391327697454605
      ],
      [
        "Ġchamber",
        -10.392344736362563
      ],
      [
        "Ġsubsequent",
        -10.392344894462491
      ],
      [
        "per",
        -10.392456662827804
      ],
      [
        "-level",
        -10.392615055113616
      ],
      [
        "ĠMichigan",
        -10.392615823717769
      ],
      [
        "Ġvisitor",
        -10.393040534521726
      ],
      [
        "Ġtract",
        -10.393504897262607
      ],
      [
        "set",
        -10.394742149053997
      ],
      [
        "Ġknew",
        -10.397540012764328
      ],
      [
        "Ġdelicate",
        -10.397540624518328
      ],
      [
        "Ġrelief",
        -10.397725463680056
      ],
      [
        "Ġintroduction",
        -10.39806454198938
      ],
      [
        "Ġlarva",
        -10.398128303818286
      ],
      [
        "ĠCollege",
        -10.398270790140526
      ],
      [
        "Ġcontribution",
        -10.398464467029642
      ],
      [
        "ĠTHE",
        -10.3986019809063
      ],
      [
        "org",
        -10.399274634160808
      ],
      [
        "ĠGeneral",
        -10.399816648458437
      ],
      [
        "Ġgases",
        -10.399841629779427
      ],
      [
        "ĠEnvironmental",
        -10.4002654125595
      ],
      [
        "Ġwin",
        -10.400283202574766
      ],
      [
        "Ġemploy",
        -10.400705745635104
      ],
      [
        "@",
        -10.401475874991814
      ],
      [
        "Ġrobot",
        -10.402203142106911
      ],
      [
        "Ġdisorder",
        -10.402404597887005
      ],
      [
        "Ġinvestigate",
        -10.402669032836744
      ],
      [
        "Ġaluminum",
        -10.402754830954382
      ],
      [
        "Ġrealm",
        -10.403079291009607
      ],
      [
        "Ġmindset",
        -10.403242757913194
      ],
      [
        "Ġequivalent",
        -10.403429243511132
      ],
      [
        "Ġdetermining",
        -10.403828803508556
      ],
      [
        "Ġsouth",
        -10.40391228514762
      ],
      [
        "Ġcolon",
        -10.404123949711902
      ],
      [
        "Ġstyles",
        -10.40539701324277
      ],
      [
        "Ġparticipati",
        -10.406224700548751
      ],
      [
        "Ġethical",
        -10.406575301930804
      ],
      [
        "Ġtall",
        -10.407958899481065
      ],
      [
        "Ġplays",
        -10.408374980979785
      ],
      [
        "Ġinterior",
        -10.408708395751743
      ],
      [
        "Ġcm",
        -10.409254955250605
      ],
      [
        "Ġassign",
        -10.40973628246995
      ],
      [
        "Ġsodium",
        -10.409756027426724
      ],
      [
        "Ġwarning",
        -10.409822148942276
      ],
      [
        "ĠType",
        -10.410090541805545
      ],
      [
        "Ġgather",
        -10.410387879422665
      ],
      [
        "Ġrealit",
        -10.410728437698648
      ],
      [
        "Ġwidth",
        -10.411584774539836
      ],
      [
        "you",
        -10.411652797848063
      ],
      [
        "ĠDecember",
        -10.41345944694465
      ],
      [
        "q",
        -10.413605789327685
      ],
      [
        "im",
        -10.414184423045723
      ],
      [
        "Ġmirror",
        -10.414297525413254
      ],
      [
        "Ġobes",
        -10.4143020799021
      ],
      [
        "Ġtruck",
        -10.414688013451595
      ],
      [
        "Ġhoney",
        -10.415721472522204
      ],
      [
        "Ġagenc",
        -10.415939060414178
      ],
      [
        "Ġreceptor",
        -10.416244636151925
      ],
      [
        "Ġcellular",
        -10.416371621758756
      ],
      [
        "ĠGood",
        -10.416735466503896
      ],
      [
        "Ġbeer",
        -10.41715324512036
      ],
      [
        "Ġdirt",
        -10.417555056876909
      ],
      [
        "Ġhabitats",
        -10.41761118466118
      ],
      [
        "Ġboy",
        -10.418691408865271
      ],
      [
        "ground",
        -10.41878247832388
      ],
      [
        "Ġinfant",
        -10.41930412648782
      ],
      [
        "ĠChange",
        -10.419895602769362
      ],
      [
        "ated",
        -10.420282276017993
      ],
      [
        "ĠHistory",
        -10.42033952611559
      ],
      [
        "Ġheater",
        -10.420403216463352
      ],
      [
        "Ġbudget",
        -10.42043416223492
      ],
      [
        "Ġexploration",
        -10.420444243002612
      ],
      [
        "Ġspecialize",
        -10.420459322109329
      ],
      [
        "Ġsexual",
        -10.421100553668696
      ],
      [
        "ĠPer",
        -10.421146648990662
      ],
      [
        "Ġcalorie",
        -10.421317365765267
      ],
      [
        "Ġpromise",
        -10.421848164288958
      ],
      [
        "Ġtransportation",
        -10.421905702819064
      ],
      [
        "Ġimpacts",
        -10.422951750000063
      ],
      [
        "Ġmeant",
        -10.423405144871053
      ],
      [
        "Ġregulation",
        -10.423459424002028
      ],
      [
        "First",
        -10.425027443187368
      ],
      [
        "Ġformer",
        -10.426039363691928
      ],
      [
        "Ġinfect",
        -10.426224725527415
      ],
      [
        "Ġpartner",
        -10.426375598376575
      ],
      [
        "Ġpeak",
        -10.426541354764346
      ],
      [
        "Ġimagine",
        -10.42698104614852
      ],
      [
        "Ġfloat",
        -10.427339914060855
      ],
      [
        "ĠHome",
        -10.427574014965693
      ],
      [
        "rising",
        -10.42831061598452
      ],
      [
        "ists",
        -10.430476940793248
      ],
      [
        "Ġleader",
        -10.430726855611711
      ],
      [
        "neath",
        -10.431337013831588
      ],
      [
        "Ġshaft",
        -10.431350935473612
      ],
      [
        "Ġinsulin",
        -10.431404430061097
      ],
      [
        "Ġspectrum",
        -10.43165487719995
      ],
      [
        "Ġexam",
        -10.432156050017012
      ],
      [
        "ĠWork",
        -10.4322325705791
      ],
      [
        "Ġintegration",
        -10.432237209268902
      ],
      [
        "Ġblind",
        -10.4327780341936
      ],
      [
        "Ġpackage",
        -10.432840513563736
      ],
      [
        "Ġworry",
        -10.43362587025254
      ],
      [
        "Ġemerg",
        -10.433750076493254
      ],
      [
        "Ġanswers",
        -10.435149510161686
      ],
      [
        "\"The",
        -10.436340968102824
      ],
      [
        "ĠStart",
        -10.436353250362998
      ],
      [
        "ĠUnderstand",
        -10.436838782733172
      ],
      [
        "back",
        -10.436969029702253
      ],
      [
        "Ġprotocol",
        -10.437090690752177
      ],
      [
        "Ġallele",
        -10.437160228864006
      ],
      [
        "Ġremarkabl",
        -10.43727779884465
      ],
      [
        "Ġhop",
        -10.438018696579435
      ],
      [
        "Ġdesigner",
        -10.438125951377213
      ],
      [
        "ership",
        -10.438680243925717
      ],
      [
        "Ġcorresponding",
        -10.438896827035997
      ],
      [
        "Ġescape",
        -10.4415337093317
      ],
      [
        "Ġhunt",
        -10.442319316327984
      ],
      [
        "Ġsatellite",
        -10.443359005625975
      ],
      [
        "ĠTest",
        -10.443662386274356
      ],
      [
        "Ġsudden",
        -10.443775662428171
      ],
      [
        "Ġmassive",
        -10.444374698034018
      ],
      [
        "see",
        -10.444702545877028
      ],
      [
        "Ġcelebrate",
        -10.445692927644004
      ],
      [
        "Ġfinger",
        -10.445824683242009
      ],
      [
        "ĠKing",
        -10.446221459464446
      ],
      [
        "light",
        -10.446286250841853
      ],
      [
        "Ġprofit",
        -10.44651440303748
      ],
      [
        "vity",
        -10.446566944085353
      ],
      [
        "ĠLED",
        -10.446683312288698
      ],
      [
        "Ġachiev",
        -10.447416832352776
      ],
      [
        "ler",
        -10.447613421729937
      ],
      [
        "Ġcleaner",
        -10.447979327980804
      ],
      [
        "Ġmice",
        -10.448019926140056
      ],
      [
        "Ġcurriculum",
        -10.448686544429505
      ],
      [
        "Ġfederal",
        -10.448689167335685
      ],
      [
        "Ġpassenger",
        -10.44904174452492
      ],
      [
        "Ġsegment",
        -10.44921915328324
      ],
      [
        "Ġcopy",
        -10.449423164800343
      ],
      [
        "ular",
        -10.44972368354902
      ],
      [
        "Ġitem",
        -10.4519971637378
      ],
      [
        "Ġmicro",
        -10.452179388216456
      ],
      [
        "Ġspice",
        -10.452579958027169
      ],
      [
        "Ġdurab",
        -10.453657080454722
      ],
      [
        "Ġdeposit",
        -10.453994100746527
      ],
      [
        "ĠSocial",
        -10.454118283482362
      ],
      [
        "Ġpreferences",
        -10.454132407364522
      ],
      [
        "Ġgrid",
        -10.454766667226384
      ],
      [
        "Researchers",
        -10.454806325391452
      ],
      [
        "ĠEngland",
        -10.45490088353368
      ],
      [
        "linary",
        -10.455056773101113
      ],
      [
        "Ġfoam",
        -10.455665582167155
      ],
      [
        "ĠDevelopment",
        -10.455937820293656
      ],
      [
        "making",
        -10.456084832672929
      ],
      [
        "Ġlos",
        -10.45610413176238
      ],
      [
        "Ġvegetable",
        -10.456453500007498
      ],
      [
        "Ġneural",
        -10.45651589355609
      ],
      [
        "Ġcorner",
        -10.45769601028858
      ],
      [
        "Ġoccasional",
        -10.457976785078086
      ],
      [
        "Ġdeveloper",
        -10.45903310256599
      ],
      [
        "ĠCare",
        -10.459568845273918
      ],
      [
        "Ġhybrid",
        -10.460199761492074
      ],
      [
        "Ġconflict",
        -10.460630920533406
      ],
      [
        "Ġbab",
        -10.460763120234352
      ],
      [
        "Ġreplac",
        -10.460956078721466
      ],
      [
        "Ġmood",
        -10.461123586584094
      ],
      [
        "Ġhomes",
        -10.461347652277537
      ],
      [
        "ka",
        -10.461412424376928
      ],
      [
        "Ġcotton",
        -10.461620105666782
      ],
      [
        "Ġspecialist",
        -10.462342031269976
      ],
      [
        "Ġdebate",
        -10.462653372687
      ],
      [
        "ating",
        -10.46344711629253
      ],
      [
        "Ġbridge",
        -10.46512693810761
      ],
      [
        "rich",
        -10.465139392907904
      ],
      [
        "Ġinfrastructure",
        -10.466332541881677
      ],
      [
        "Ġpesticide",
        -10.466341014048218
      ],
      [
        "availabilit",
        -10.46636425947733
      ],
      [
        "Ġinteractive",
        -10.466668442504286
      ],
      [
        "ĠFIG",
        -10.466702343878
      ],
      [
        "Ġscan",
        -10.466708498461331
      ],
      [
        "Ġconclude",
        -10.466759596448473
      ],
      [
        "Ġleaders",
        -10.46742065713123
      ],
      [
        "Ġlimitation",
        -10.467451711834444
      ],
      [
        "Ġmountain",
        -10.468705721543838
      ],
      [
        "Ġvet",
        -10.469265759295842
      ],
      [
        "Dur",
        -10.469611453772082
      ],
      [
        "Ġflavors",
        -10.47021315080626
      ],
      [
        "ĠLi",
        -10.470887184194655
      ],
      [
        "ries",
        -10.470979901147343
      ],
      [
        "Note",
        -10.471817891475927
      ],
      [
        "Ġsick",
        -10.472092359116754
      ],
      [
        "Ġarise",
        -10.472302548320666
      ],
      [
        "ĠSociety",
        -10.472695659899813
      ],
      [
        "Ġreplacement",
        -10.472750943608672
      ],
      [
        "Ġguarantee",
        -10.472787427175666
      ],
      [
        "Understand",
        -10.47283682273216
      ],
      [
        "Ġauthors",
        -10.473845941149262
      ],
      [
        "ĠTechnology",
        -10.474662887598168
      ],
      [
        "he",
        -10.474782177391848
      ],
      [
        "end",
        -10.475102082084906
      ],
      [
        "ĠData",
        -10.475852887489967
      ],
      [
        "Ġpotatoe",
        -10.476162233520231
      ],
      [
        "ĠSecond",
        -10.476272399390004
      ],
      [
        "Ġstruggle",
        -10.476599344395067
      ],
      [
        "Ġloose",
        -10.476638298249604
      ],
      [
        "Ġmature",
        -10.477074666523585
      ],
      [
        "tropical",
        -10.477188458877272
      ],
      [
        "ĠTwo",
        -10.478004314737785
      ],
      [
        "some",
        -10.478144638411806
      ],
      [
        "Ġdiamond",
        -10.478272660774277
      ],
      [
        "Ġprobabilit",
        -10.478784120275543
      ],
      [
        "ĠGuide",
        -10.479063825752938
      ],
      [
        "ĠOnly",
        -10.479498610874485
      ],
      [
        "Us",
        -10.482610611336373
      ],
      [
        "Every",
        -10.482843821768798
      ],
      [
        "Ġrepeated",
        -10.484450790715444
      ],
      [
        "Ġsoap",
        -10.484778414689853
      ],
      [
        "Ġrespirator",
        -10.48495664029311
      ],
      [
        "Ġparasite",
        -10.48510376109337
      ],
      [
        "Ġrotation",
        -10.485182686692886
      ],
      [
        "Ġarrangement",
        -10.485490616136223
      ],
      [
        "Ġlonge",
        -10.486069498741855
      ],
      [
        "Ġyounger",
        -10.48611697773276
      ],
      [
        "such",
        -10.486674474940212
      ],
      [
        "Ġnutritional",
        -10.487829532450377
      ],
      [
        "--",
        -10.488390359805988
      ],
      [
        "Ġsecondar",
        -10.488623910449494
      ],
      [
        "ĠSee",
        -10.488993423386493
      ],
      [
        "Ġsets",
        -10.489252660858677
      ],
      [
        "Ġtruth",
        -10.489422256953116
      ],
      [
        "Ġbeat",
        -10.489498075102208
      ],
      [
        "Ġrobust",
        -10.489906562833765
      ],
      [
        "Ġnail",
        -10.490097315383805
      ],
      [
        "Ġfacilit",
        -10.490116664214645
      ],
      [
        "Ġadditive",
        -10.490357658897668
      ],
      [
        "Ġsides",
        -10.490872615399834
      ],
      [
        "Ġpreferred",
        -10.49120463438812
      ],
      [
        "Ġyes",
        -10.49177524146904
      ],
      [
        "Does",
        -10.4920550484136
      ],
      [
        "ĠInternet",
        -10.49219447867826
      ],
      [
        "ĠCat",
        -10.49231337005271
      ],
      [
        "Ġinfluen",
        -10.493403981738208
      ],
      [
        "Ġsweat",
        -10.493945664132356
      ],
      [
        "Ġprinciple",
        -10.494143206579851
      ],
      [
        "ĠBay",
        -10.494969856636205
      ],
      [
        "Ġ<",
        -10.494971315029328
      ],
      [
        "Ġbin",
        -10.495014165218068
      ],
      [
        "Ġclassic",
        -10.49517892219728
      ],
      [
        "Ġfingers",
        -10.495468861133038
      ],
      [
        "ster",
        -10.496665590756152
      ],
      [
        "Ġfacilitate",
        -10.4968047003121
      ],
      [
        "Ġhardware",
        -10.497174339929792
      ],
      [
        "Ġtape",
        -10.497320784160973
      ],
      [
        "Ġcu",
        -10.497548880635982
      ],
      [
        "Where",
        -10.497649853989405
      ],
      [
[...]
