{
  "version": "1.0",
  "truncation": null,
  "padding": null,
  "added_tokens": [
    {
      "id": 0,
      "content": "<|bos|>",
      "single_word": false,
      "lstrip": false,
      "rstrip": false,
      "normalized": false,
      "special": true
    },
    {
      "id": 1,
      "content": "<|user_start|>",
      "single_word": false,
      "lstrip": false,
      "rstrip": false,
      "normalized": false,
      "special": true
    },
    {
      "id": 2,
      "content": "<|user_end|>",
      "single_word": false,
      "lstrip": false,
      "rstrip": false,
      "normalized": false,
      "special": true
    },
    {
      "id": 3,
      "content": "<|assistant_start|>",
      "single_word": false,
      "lstrip": false,
      "rstrip": false,
      "normalized": false,
      "special": true
    },
    {
      "id": 4,
      "content": "<|assistant_end|>",
      "single_word": false,
      "lstrip": false,
      "rstrip": false,
      "normalized": false,
      "special": true
    },
    {
      "id": 5,
      "content": "<|python_start|>",
      "single_word": false,
      "lstrip": false,
      "rstrip": false,
      "normalized": false,
      "special": true
    },
    {
      "id": 6,
      "content": "<|python_end|>",
      "single_word": false,
      "lstrip": false,
      "rstrip": false,
      "normalized": false,
      "special": true
    },
    {
      "id": 7,
      "content": "<|output_start|>",
      "single_word": false,
      "lstrip": false,
      "rstrip": false,
      "normalized": false,
      "special": true
    },
    {
      "id": 8,
      "content": "<|output_end|>",
      "single_word": false,
      "lstrip": false,
      "rstrip": false,
      "normalized": false,
      "special": true
    },
    {
      "id": 9,
      "content": "<|unk|>",
      "single_word": false,
      "lstrip": false,
      "rstrip": false,
      "normalized": false,
      "special": true
    }
  ],
  "normalizer": null,
  "pre_tokenizer": {
    "type": "Sequence",
    "pretokenizers": [
      {
        "type": "Split",
        "pattern": {
          "Regex": "'(?i:[sdmt]|ll|ve|re)|[^\\r\\n\\p{L}\\p{N}]?+\\p{L}+|\\p{N}{1,2}| ?[^\\s\\p{L}\\p{N}]++[\\r\\n]*|\\s*[\\r\\n]|\\s+(?!\\S)|\\s+"
        },
        "behavior": "Isolated",
        "invert": false
      },
      {
        "type": "ByteLevel",
        "add_prefix_space": false,
        "trim_offsets": true,
        "use_regex": false
      }
    ]
  },
  "post_processor": {
    "type": "TemplateProcessing",
    "single": [
      {
        "Sequence": {
          "id": "A",
          "type_id": 0
        }
      }
    ],
    "pair": [
      {
        "Sequence": {
          "id": "A",
          "type_id": 0
        }
      },
      {
        "Sequence": {
          "id": "B",
          "type_id": 1
        }
      }
    ],
    "special_tokens": {}
  },
  "decoder": null,
  "model": {
    "type": "BPE",
    "dropout": null,
    "unk_token": "<|unk|>",
    "continuing_subword_prefix": null,
    "end_of_word_suffix": null,
    "fuse_unk": false,
    "byte_fallback": false,
    "ignore_merges": false,
    "vocab": {
      "<|bos|>": 0,
      "<|user_start|>": 1,
      "<|user_end|>": 2,
      "<|assistant_start|>": 3,
      "<|assistant_end|>": 4,
      "<|python_start|>": 5,
      "<|python_end|>": 6,
      "<|output_start|>": 7,
      "<|output_end|>": 8,
      "<|unk|>": 9,
      "!": 10,
      "\"": 11,
      "#": 12,
      "$": 13,
      "%": 14,
      "&": 15,
      "'": 16,
      "(": 17,
      ")": 18,
      "*": 19,
      "+": 20,
      ",": 21,
      "-": 22,
      ".": 23,
      "/": 24,
      "0": 25,
      "1": 26,
      "2": 27,
      "3": 28,
      "4": 29,
      "5": 30,
      "6": 31,
      "7": 32,
      "8": 33,
      "9": 34,
      ":": 35,
      ";": 36,
      "<": 37,
      "=": 38,
      ">": 39,
      "?": 40,
      "@": 41,
      "A": 42,
      "B": 43,
      "C": 44,
      "D": 45,
      "E": 46,
      "F": 47,
      "G": 48,
      "H": 49,
      "I": 50,
      "J": 51,
      "K": 52,
      "L": 53,
      "M": 54,
      "N": 55,
      "O": 56,
      "P": 57,
      "Q": 58,
      "R": 59,
      "S": 60,
      "T": 61,
      "U": 62,
      "V": 63,
      "W": 64,
      "X": 65,
      "Y": 66,
      "Z": 67,
      "[": 68,
      "\\": 69,
      "]": 70,
      "^": 71,
      "_": 72,
      "`": 73,
      "a": 74,
      "b": 75,
      "c": 76,
      "d": 77,
      "e": 78,
      "f": 79,
      "g": 80,
      "h": 81,
      "i": 82,
      "j": 83,
      "k": 84,
      "l": 85,
      "m": 86,
      "n": 87,
      "o": 88,
      "p": 89,
      "q": 90,
      "r": 91,
      "s": 92,
      "t": 93,
      "u": 94,
      "v": 95,
      "w": 96,
      "x": 97,
      "y": 98,
      "z": 99,
      "{": 100,
      "|": 101,
      "}": 102,
      "~": 103,
      "¡": 104,
      "¢": 105,
      "£": 106,
      "¤": 107,
      "¥": 108,
      "¦": 109,
      "§": 110,
      "¨": 111,
      "©": 112,
      "ª": 113,
      "«": 114,
      "¬": 115,
      "®": 116,
      "¯": 117,
      "°": 118,
      "±": 119,
      "²": 120,
      "³": 121,
      "´": 122,
      "µ": 123,
      "¶": 124,
      "·": 125,
      "¸": 126,
      "¹": 127,
      "º": 128,
      "»": 129,
      "¼": 130,
      "½": 131,
      "¾": 132,
      "¿": 133,
      "À": 134,
      "Á": 135,
      "Â": 136,
      "Ã": 137,
      "Ä": 138,
      "Å": 139,
      "Æ": 140,
      "Ç": 141,
      "È": 142,
      "É": 143,
      "Ê": 144,
      "Ë": 145,
      "Ì": 146,
      "Í": 147,
      "Î": 148,
      "Ï": 149,
      "Ð": 150,
      "Ñ": 151,
      "Ò": 152,
      "Ó": 153,
      "Ô": 154,
      "Õ": 155,
      "Ö": 156,
      "×": 157,
      "Ø": 158,
      "Ù": 159,
      "Ú": 160,
      "Û": 161,
      "Ü": 162,
      "Ý": 163,
      "Þ": 164,
      "ß": 165,
      "à": 166,
      "á": 167,
      "â": 168,
      "ã": 169,
      "ä": 170,
      "å": 171,
      "æ": 172,
      "ç": 173,
      "è": 174,
      "é": 175,
      "ê": 176,
      "ë": 177,
      "ì": 178,
      "í": 179,
      "î": 180,
      "ï": 181,
      "ð": 182,
      "ñ": 183,
      "ò": 184,
      "ó": 185,
      "ô": 186,
      "õ": 187,
      "ö": 188,
      "÷": 189,
      "ø": 190,
      "ù": 191,
      "ú": 192,
      "û": 193,
      "ü": 194,
      "ý": 195,
      "þ": 196,
      "ÿ": 197,
      "Ā": 198,
      "ā": 199,
      "Ă": 200,
      "ă": 201,
      "Ą": 202,
      "ą": 203,
      "Ć": 204,
      "ć": 205,
      "Ĉ": 206,
      "ĉ": 207,
      "Ċ": 208,
      "ċ": 209,
      "Č": 210,
      "č": 211,
      "Ď": 212,
      "ď": 213,
      "Đ": 214,
      "đ": 215,
      "Ē": 216,
      "ē": 217,
      "Ĕ": 218,
      "ĕ": 219,
      "Ė": 220,
      "ė": 221,
      "Ę": 222,
      "ę": 223,
      "Ě": 224,
      "ě": 225,
      "Ĝ": 226,
      "ĝ": 227,
      "Ğ": 228,
      "ğ": 229,
      "Ġ": 230,
      "ġ": 231,
      "Ģ": 232,
      "ģ": 233,
      "Ĥ": 234,
      "ĥ": 235,
      "Ħ": 236,
      "ħ": 237,
      "Ĩ": 238,
      "ĩ": 239,
      "Ī": 240,
      "ī": 241,
      "Ĭ": 242,
      "ĭ": 243,
      "Į": 244,
      "į": 245,
      "İ": 246,
      "ı": 247,
      "Ĳ": 248,
      "ĳ": 249,
      "Ĵ": 250,
      "ĵ": 251,
      "Ķ": 252,
      "ķ": 253,
      "ĸ": 254,
      "Ĺ": 255,
      "ĺ": 256,
      "Ļ": 257,
      "ļ": 258,
      "Ľ": 259,
      "ľ": 260,
      "Ŀ": 261,
      "ŀ": 262,
      "Ł": 263,
      "ł": 264,
      "Ń": 265,
      "Ġt": 266,
      "Ġa": 267,
      "in": 268,
      "he": 269,
      "re": 270,
      "on": 271,
      "Ġthe": 272,
      "er": 273,
      "Ġs": 274,
      "at": 275,
      "Ġc": 276,
      "Ġo": 277,
      "es": 278,
      "en": 279,
      "Ġw": 280,
      "nd": 281,
      "ing": 282,
      "it": 283,
      "is": 284,
      "Ġp": 285,
      "Ġb": 286,
      "or": 287,
      "Ġf": 288,
      "ou": 289,
      "al": 290,
      "an": 291,
      "Ġm": 292,
      "ed": 293,
      "Ġto": 294,
      "Ġin": 295,
      "Ġof": 296,
      "ar": 297,
      "Ġand": 298,
      "Ġd": 299,
      "ion": 300,
      "ic": 301,
      "le": 302,
      "ro": 303,
      "as": 304,
      "Ġh": 305,
      "Ġth": 306,
      "ct": 307,
      "ent": 308,
      "Ġe": 309,
      "Ġl": 310,
      "il": 311,
      "ve": 312,
      "Ġre": 313,
      "om": 314,
      "us": 315,
      ".Ċ": 316,
      "Ġis": 317,
      "Ġn": 318,
      "et": 319,
      "Ġy": 320,
      "ly": 321,
      "Ġg": 322,
      "Ġyou": 323,
      "Ġbe": 324,
      "ut": 325,
      "ow": 326,
      "ot": 327,
      "im": 328,
      "id": 329,
      "ol": 330,
      "ĠT": 331,
      "st": 332,
      "ce": 333,
      "ig": 334,
      "Ġfor": 335,
      "ra": 336,
      "ĠA": 337,
      "ch": 338,
      "ation": 339,
      "ur": 340,
      "Ġon": 341,
      "Ġst": 342,
      "ĠI": 343,
      "Ġthat": 344,
      "ir": 345,
      "el": 346,
      "ver": 347,
      "ul": 348,
      "Ġit": 349,
      "ay": 350,
      "ith": 351,
      "Ġare": 352,
      "Ġpro": 353,
      "if": 354,
      "se": 355,
      "Ġan": 356,
      "Ġwith": 357,
      "ĠS": 358,
      ".ĊĊ": 359,
      "am": 360,
      "Ġcon": 361,
      "od": 362,
      "Ġas": 363,
      "Ġor": 364,
      "est": 365,
      "Ġal": 366,
      "Ġha": 367,
      "her": 368,
      "ĠC": 369,
      "ĊĊ": 370,
      "ter": 371,
      "ke": 372,
      "un": 373,
      "Ġwh": 374,
      "ure": 375,
      "Ġcan": 376,
      "ess": 377,
      "ge": 378,
      "ad": 379,
      "Ġcom": 380,
      "ill": 381,
      "ab": 382,
      "ĠThe": 383,
      "ate": 384,
      "Ġex": 385,
      "um": 386,
      "Ġhe": 387,
      "ĠW": 388,
      "ore": 389,
      "ant": 390,
      "ect": 391,
      "th": 392,
      "ers": 393,
      "ive": 394,
      "igh": 395,
      "qu": 396,
      "Ġus": 397,
      "ment": 398,
      "pp": 399,
      "'s": 400,
      "Ġwe": 401,
      "ies": 402,
      "em": 403,
      "op": 404,
      "ity": 405,
      "Ġyour": 406,
      "Ġv": 407,
      "ac": 408,
      "os": 409,
      "ld": 410,
      "Ġ(": 411,
      "ain": 412,
      "ist": 413,
      "ĠP": 414,
      "ĠM": 415,
      "Ġde": 416,
      "rom": 417,
      "Ġne": 418,
      "Ġch": 419,
      "Ġen": 420,
      "ĠB": 421,
      "Ġr": 422,
      "Ġse": 423,
      "Ġsu": 424,
      "Ġsh": 425,
      "Ġat": 426,
      "Ġsp": 427,
      "ial": 428,
      "iv": 429,
      "Ġle": 430,
      "Ġhave": 431,
      "ort": 432,
      "Ġdo": 433,
      "Ġfrom": 434,
      "res": 435,
      "ight": 436,
      "nt": 437,
      "Ġnot": 438,
      "ĠD": 439,
      "art": 440,
      "Ġpl": 441,
      "Ġby": 442,
      "ĠH": 443,
      "oc": 444,
      "ust": 445,
      "and": 446,
      "ud": 447,
      "all": 448,
      "ĠF": 449,
      "per": 450,
      "Ġthis": 451,
      "ome": 452,
      "ical": 453,
      "ri": 454,
      "ide": 455,
      "âĢ": 456,
      "ould": 457,
      "Ġab": 458,
      "rou": 459,
      "ĠE": 460,
      "Ġu": 461,
      "ine": 462,
      "act": 463,
      "du": 464,
      "pt": 465,
      "ell": 466,
      "ions": 467,
      "og": 468,
      "out": 469,
      "Ġim": 470,
      "ost": 471,
      "Ġcomp": 472,
      "ĠR": 473,
      "Ġma": 474,
      "ns": 475,
      "ard": 476,
      "ast": 477,
      "ere": 478,
      "ood": 479,
      "Ġwill": 480,
      "Ġwhe": 481,
      "ich": 482,
      "Ġint": 483,
      "Ġwor": 484,
      "our": 485,
      "Ġad": 486,
      "Ġk": 487,
      "Ġthey": 488,
      "gh": 489,
      "Ġtheir": 490,
      "ther": 491,
      "ff": 492,
      "ĠN": 493,
      "king": 494,
      "The": 495,
      "iz": 496,
      "ater": 497,
      "age": 498,
      "ip": 499,
      "ĠL": 500,
      "ec": 501,
      "are": 502,
      "Ġwas": 503,
      "ated": 504,
      "Ġall": 505,
      "able": 506,
      "Ġmore": 507,
      "ag": 508,
      "Ġcont": 509,
      "pl": 510,
      "end": 511,
      "ult": 512,
      "hat": 513,
      "ĠG": 514,
      "Ġso": 515,
      "ib": 516,
      "ans": 517,
      "ks": 518,
      "Ġbut": 519,
      "oo": 520,
      "ind": 521,
      "ally": 522,
      "ear": 523,
      "Ġres": 524,
      "ous": 525,
      "Ġte": 526,
      "ĠO": 527,
      "so": 528,
      "ong": 529,
      "ep": 530,
      "ike": 531,
      "Ġac": 532,
      "Ġinc": 533,
      "wer": 534,
      "Ġj": 535,
      "ru": 536,
      "ance": 537,
      "estion": 538,
      "Ġhas": 539,
      "Ġme": 540,
      "ry": 541,
      "ap": 542,
      "Ġout": 543,
      "orm": 544,
      "Ġcl": 545,
      "Qu": 546,
      "Ġwhich": 547,
      "vel": 548,
      "ire": 549,
      "Ġun": 550,
      "Ġ\"": 551,
      "20": 552,
      "ations": 553,
      "his": 554,
      "Ġdis": 555,
      "ents": 556,
      "Ġimp": 557,
      "Ġman": 558,
      "Ġother": 559,
      "Ġpre": 560,
      "cess": 561,
      "'t": 562,
      "ens": 563,
      "one": 564,
      "Ġalso": 565,
      "Ġtim": 566,
      "Ġone": 567,
      "av": 568,
      "nswer": 569,
      "ace": 570,
      "Question": 571,
      "Ġapp": 572,
      "ction": 573,
      "ence": 574,
      "ress": 575,
      "reat": 576,
      "ign": 577,
      "ach": 578,
      "ice": 579,
      "ition": 580,
      "ie": 581,
      "ĠAnswer": 582,
      "aus": 583,
      "ase": 584,
      "very": 585,
      "Ġfe": 586,
      "ass": 587,
      "Ġthem": 588,
      "ĠIn": 589,
      "ary": 590,
      "ile": 591,
      "Ġlike": 592,
      "ack": 593,
      "Ġper": 594,
      "Ġup": 595,
      "Ġabout": 596,
      "Ġsc": 597,
      "ĠU": 598,
      "ild": 599,
      "ĠIt": 600,
      "ors": 601,
      "low": 602,
      "iff": 603,
      "Ġwhen": 604,
      "ound": 605,
      "Ġro": 606,
      "Ġsome": 607,
      "now": 608,
      "Ġpart": 609,
      "Ġev": 610,
      "Ġqu": 611,
      "ue": 612,
      "Ġif": 613,
      "Ġsy": 614,
      "ite": 615,
      "Ġinto": 616,
      "ose": 617,
      "ric": 618,
      "Ġuse": 619,
      "Ġdiff": 620,
      "Ġneed": 621,
      "Ġcol": 622,
      "ĠThis": 623,
      "Ġtime": 624,
      "Ġhow": 625,
      "Ġar": 626,
      "ays": 627,
      "ia": 628,
      "Ġthere": 629,
      "Ġits": 630,
      "ĠY": 631,
      "Ġmay": 632,
      "row": 633,
      "ces": 634,
      "ame": 635,
      "ak": 636,
      "ail": 637,
      "Ġhel": 638,
      "form": 639,
      "ree": 640,
      "ting": 641,
      "les": 642,
      "Ġbet": 643,
      "ll": 644,
      "Ġbec": 645,
      "Ġthan": 646,
      "Ġtra": 647,
      "Ġbl": 648,
      "Ġrec": 649,
      "ating": 650,
      "Ġany": 651,
      "Ġcomm": 652,
      "ific": 653,
      "Ġover": 654,
      "ĠWhat": 655,
      "ber": 656,
      "als": 657,
      "ĠâĢ": 658,
      "Ġhelp": 659,
      "Ġcons": 660,
      "Ġpe": 661,
      "we": 662,
      "ang": 663,
      "Ġknow": 664,
      "Ġprodu": 665,
      "ause": 666,
      "Ġthese": 667,
      "ake": 668,
      "Ġstud": 669,
      "ature": 670,
      "ough": 671,
      "ove": 672,
      "hy": 673,
      "ord": 674,
      "Ġget": 675,
      "ish": 676,
      "te": 677,
      "Ġgo": 678,
      "lect": 679,
      "nder": 680,
      "ond": 681,
      "Ġtr": 682,
      "Ġwater": 683,
      "Ġspec": 684,
      "yp": 685,
      "olog": 686,
      "Ġused": 687,
      "Ġdes": 688,
      "red": 689,
      "Ġour": 690,
      "Ġgen": 691,
      "Ġind": 692,
      "ings": 693,
      "Ġsa": 694,
      "ms": 695,
      "Ġwhat": 696,
      "Ġact": 697,
      "stem": 698,
      "Ġdiffere": 699,
      "Ġfl": 700,
      "Ġra": 701,
      "ick": 702,
      "Ġeff": 703,
      "ory": 704,
      "rough": 705,
      "ari": 706,
      "alth": 707,
      "ons": 708,
      "..": 709,
      "ub": 710,
      "Ġco": 711,
      "ount": 712,
      "ĠJ": 713,
      "ook": 714,
      "ular": 715,
      "int": 716,
      "Ġadd": 717,
      "ning": 718,
      "Ġnew": 719,
      "Ġwere": 720,
      "Ġyear": 721,
      "Ġwho": 722,
      "erv": 723,
      "vers": 724,
      "Ġoff": 725,
      "ople": 726,
      "Ġprov": 727,
      "round": 728,
      "Ġmake": 729,
      "Ġmost": 730,
      "Ġam": 731,
      "Ġwould": 732,
      "lud": 733,
      "ility": 734,
      "Ġag": 735,
      "ates": 736,
      "xt": 737,
      "Ġcar": 738,
      "Ġsuch": 739,
      "Ġshould": 740,
      "ient": 741,
      "Ġdi": 742,
      "Ġsm": 743,
      "Ġem": 744,
      "Ġbeen": 745,
      "ne": 746,
      "Ġunder": 747,
      "ject": 748,
      "eth": 749,
      "Ġtw": 750,
      "ful": 751,
      "ments": 752,
      "ise": 753,
      "oth": 754,
      "ple": 755,
      "ĠSt": 756,
      "uring": 757,
      "Ġpeople": 758,
      "ative": 759,
      "ble": 760,
      "ck": 761,
      "10": 762,
      "irst": 763,
      "Ġsystem": 764,
      "Ġreg": 765,
      "ange": 766,
      "Ġjust": 767,
      "Ġno": 768,
      "Ġinter": 769,
      "oss": 770,
      "Ġonly": 771,
      "erg": 772,
      "Ġhigh": 773,
      "Ġpo": 774,
      "ark": 775,
      "hes": 776,
      "Ġinclud": 777,
      "ities": 778,
      "ced": 779,
      "Ġwork": 780,
      "Ġplant": 781,
      "ph": 782,
      "Ġthrough": 783,
      "ics": 784,
      "Ġpr": 785,
      "Ġmy": 786,
      "fore": 787,
      "Ġmany": 788,
      "own": 789,
      "its": 790,
      "ov": 791,
      "ten": 792,
      "ween": 793,
      "Ġhealth": 794,
      "velop": 795,
      "Ġke": 796,
      "Ġtyp": 797,
      "Ġwell": 798,
      "Ġexp": 799,
      "ren": 800,
      "lic": 801,
      "Ġrep": 802,
      "Ġmod": 803,
      "Ġdifferent": 804,
      "Ġrel": 805,
      "ĠK": 806,
      "Ġdoes": 807,
      "ible": 808,
      "ink": 809,
      "19": 810,
      "Ġtwo": 811,
      "ĠV": 812,
      "Ġbu": 813,
      "ased": 814,
      "ob": 815,
      "fter": 816,
      "ual": 817,
      "chn": 818,
      "hen": 819,
      "Ġsur": 820,
      "ract": 821,
      "ram": 822,
      "Ġbetween": 823,
      "Ġche": 824,
      "old": 825,
      "Ġob": 826,
      "ower": 827,
      "ft": 828,
      "Ġrem": 829,
      "tain": 830,
      "ential": 831,
      "Ġexper": 832,
      "arm": 833,
      "Ġlong": 834,
      "?Ċ": 835,
      "ife": 836,
      "Ġwhere": 837,
      "Ġfirst": 838,
      "Ġtrans": 839,
      "Ġway": 840,
      "Ġdevelop": 841,
      "ience": 842,
      "erm": 843,
      "Ġfood": 844,
      "get": 845,
      "Ġsim": 846,
      "Ġusing": 847,
      "Ġsupp": 848,
      "iron": 849,
      "Ġinv": 850,
      "ade": 851,
      "Ġacc": 852,
      "rop": 853,
      "Ġthen": 854,
      "ĠCh": 855,
      "uch": 856,
      "Ġimport": 857,
      "Ġprocess": 858,
      "Ġass": 859,
      "hed": 860,
      "Ġvari": 861,
      "Ġcould": 862,
      "ef": 863,
      "ool": 864,
      "rit": 865,
      "Ġinst": 866,
      "ts": 867,
      "Ġpat": 868,
      "Ġbecause": 869,
      "In": 870,
      "rib": 871,
      "Ġeven": 872,
      "Ġgrow": 873,
      "ually": 874,
      "Ġinf": 875,
      "Ġ-": 876,
      "cy": 877,
      "Ġdet": 878,
      "ĠIf": 879,
      "ious": 880,
      "ize": 881,
      "Ġdec": 882,
      "iss": 883,
      "Ġmain": 884,
      "mer": 885,
      "Ġeffect": 886,
      "Ġph": 887,
      "Ġtechn": 888,
      "gg": 889,
      "Ġlear": 890,
      "Ġatt": 891,
      "Ġevery": 892,
      "ically": 893,
      "ution": 894,
      "Ġsub": 895,
      "arch": 896,
      "Ġhad": 897,
      "ĠThey": 898,
      "ĠHow": 899,
      ").": 900,
      "Ġsee": 901,
      "uc": 902,
      "gan": 903,
      "Ġcre": 904,
      "ural": 905,
      "ever": 906,
      "Ġvery": 907,
      "Ġchild": 908,
      "Ġext": 909,
      "ily": 910,
      "oy": 911,
      "Ġeach": 912,
      "Ġhum": 913,
      "iqu": 914,
      "Ġrequ": 915,
      "ĠYou": 916,
      "Ġsk": 917,
      "'re": 918,
      "wn": 919,
      "?ĊĊ": 920,
      "vent": 921,
      "ures": 922,
      "ins": 923,
      "Ġset": 924,
      "viron": 925,
      "ody": 926,
      "ata": 927,
      "Ġdog": 928,
      "Ġdon": 929,
      "Ġsol": 930,
      "ness": 931,
      "Ġsign": 932,
      "Ġmin": 933,
      "Ġins": 934,
      "Ġfun": 935,
      "ĠâĢĵ": 936,
      "Ġmuch": 937,
      "Ġpot": 938,
      "cc": 939,
      "Ġrese": 940,
      "Ġform": 941,
      "Ġback": 942,
      "Ġlar": 943,
      "Ġpres": 944,
      "ines": 945,
      "Ġexam": 946,
      "Ġgood": 947,
      "Ġfind": 948,
      "Ġresult": 949,
      "Ġafter": 950,
      "Ġwant": 951,
      "ollow": 952,
      "),": 953,
      "Ġpers": 954,
      "Ġimportant": 955,
      "chool": 956,
      "Ġnum": 957,
      "Ġsmall": 958,
      "ruct": 959,
      "Ġwhile": 960,
      "Ġincre": 961,
      "Ġyears": 962,
      "Ġgra": 963,
      "Ġresp": 964,
      "Ġstart": 965,
      "ational": 966,
      "ology": 967,
      "Ġgener": 968,
      "Ġav": 969,
      "ĠWh": 970,
      "Ġhis": 971,
      "Ġdisc": 972,
      "stand": 973,
      "ergy": 974,
      "Ġloc": 975,
      "Ġbre": 976,
      "00": 977,
      "vironment": 978,
      "other": 979,
      "Ġbefore": 980,
      "ĠAs": 981,
      "Ġtake": 982,
      "ues": 983,
      "ied": 984,
      "Ġmed": 985,
      "Ġlight": 986,
      "Ġbeing": 987,
      "Ġve": 988,
      "ality": 989,
      "ian": 990,
      "ives": 991,
      "ps": 992,
      "ety": 993,
      "Ġref": 994,
      "ix": 995,
      "eg": 996,
      "Ġlevel": 997,
      "ĠWe": 998,
      "Ġanim": 999,
      "Ġdown": 1000,
      "Ġcell": 1001,
      "Ġgl": 1002,
      "elf": 1003,
      "Ġproble": 1004,
      "ont": 1005,
      "Ġpartic": 1006,
      "ds": 1007,
      "Ġear": 1008,
      "aterial": 1009,
      "Ġdesign": 1010,
      "ices": 1011,
      "Ġcomple": 1012,
      "Ġair": 1013,
      "Ġcle": 1014,
      "Ġworld": 1015,
      "Ġfound": 1016,
      "Ġsec": 1017,
      "Ġmon": 1018,
      "Ġtem": 1019,
      "Ġelect": 1020,
      "ists": 1021,
      "ros": 1022,
      "Ġaround": 1023,
      "ption": 1024,
      "Ġshe": 1025,
      "nce": 1026,
      "ring": 1027,
      "Ġcor": 1028,
      "Ġsame": 1029,
      "Ġexpl": 1030,
      "dition": 1031,
      "ases": 1032,
      "Ġher": 1033,
      "Ġprog": 1034,
      "ĠUn": 1035,
      "Ġhand": 1036,
      "Ġfollow": 1037,
      "ized": 1038,
      "Ġcur": 1039,
      "Ġlife": 1040,
      "ox": 1041,
      "Ġredu": 1042,
      "Ġcall": 1043,
      "Ġdist": 1044,
      "cl": 1045,
      "Ġallow": 1046,
      "Ġboth": 1047,
      "els": 1048,
      "Ġaut": 1049,
      "tle": 1050,
      "Ġdata": 1051,
      "ys": 1052,
      "ward": 1053,
      "Ġart": 1054,
      "Ġduring": 1055,
      "Ġeas": 1056,
      "ection": 1057,
      "Ġfact": 1058,
      "urn": 1059,
      "ets": 1060,
      "Ġinform": 1061,
      "--": 1062,
      "Ġlead": 1063,
      "Ġdep": 1064,
      "ages": 1065,
      "ock": 1066,
      "Ġright": 1067,
      "Ġproduct": 1068,
      "Ġmaterial": 1069,
      "ider": 1070,
      "ew": 1071,
      "tern": 1072,
      "Ġtoo": 1073,
      "air": 1074,
      ".\"": 1075,
      "Ġval": 1076,
      "Ġshow": 1077,
      "Ġkeep": 1078,
      "Ġcat": 1079,
      "Ġown": 1080,
      "Ġbody": 1081,
      "Ġcare": 1082,
      "ident": 1083,
      "Ġgu": 1084,
      "âĢĻ": 1085,
      "Ġthose": 1086,
      "Ġenvironment": 1087,
      "eng": 1088,
      "Ġday": 1089,
      "cer": 1090,
      "ining": 1091,
      "ng": 1092,
      "Ġread": 1093,
      ":Ċ": 1094,
      "Ġoften": 1095,
      "Ġent": 1096,
      "atter": 1097,
      "omm": 1098,
      "Ġcontro": 1099,
      "-b": 1100,
      "Ġstr": 1101,
      "Ġenergy": 1102,
      "ĠAl": 1103,
      "Ġbest": 1104,
      "ving": 1105,
      "Ġchar": 1106,
      "Ġposs": 1107,
      "ides": 1108,
      "Ġprot": 1109,
      "iew": 1110,
      "iel": 1111,
      "ale": 1112,
      "Ġmade": 1113,
      "ull": 1114,
      "Ġplay": 1115,
      "ave": 1116,
      "ĠFor": 1117,
      "Ġsom": 1118,
      "aw": 1119,
      "Ġless": 1120,
      "What": 1121,
      "the": 1122,
      "12": 1123,
      "eed": 1124,
      "ĠHe": 1125,
      "Ġed": 1126,
      "perature": 1127,
      "ĠPro": 1128,
      "cing": 1129,
      "Ġcommon": 1130,
      "Ġperson": 1131,
      "ather": 1132,
      "iving": 1133,
      "Ġdef": 1134,
      "Ġvis": 1135,
      "Ġmet": 1136,
      "Ġend": 1137,
      "Ġadv": 1138,
      "read": 1139,
      "Ġeng": 1140,
      "Ġpoint": 1141,
      "Ġrequire": 1142,
      "ium": 1143,
      "ty": 1144,
      "ted": 1145,
      "acter": 1146,
      "ited": 1147,
      "ands": 1148,
      "aking": 1149,
      "Ġproper": 1150,
      "ethod": 1151,
      "Ġtest": 1152,
      "ected": 1153,
      "Ġcommun": 1154,
      "Ġben": 1155,
      "Ġunderstand": 1156,
      "Ġdr": 1157,
      "ute": 1158,
      "io": 1159,
      "ids": 1160,
      "ason": 1161,
      "Ġstudents": 1162,
      "ork": 1163,
      "ien": 1164,
      "hys": 1165,
      "Ġnow": 1166,
      "Ġactiv": 1167,
      "ier": 1168,
      "Ġpower": 1169,
      "Ġhome": 1170,
      "ved": 1171,
      "any": 1172,
      "Ġens": 1173,
      "Ġinformation": 1174,
      "Ġorgan": 1175,
      "Ġgre": 1176,
      "Ġprovide": 1177,
      "cent": 1178,
      "up": 1179,
      "Ġtemperature": 1180,
      "ivid": 1181,
      "ined": 1182,
      "ath": 1183,
      "Ġsaf": 1184,
      "Ġpop": 1185,
      "pen": 1186,
      "Ġequ": 1187,
      "Ġdid": 1188,
      "ional": 1189,
      "Ġlook": 1190,
      "Ġsaid": 1191,
      "Ġlit": 1192,
      "Ġspecies": 1193,
      "-s": 1194,
      "ots": 1195,
      "Ġbetter": 1196,
      "ivers": 1197,
      "ves": 1198,
      "ven": 1199,
      "rap": 1200,
      "Ġ'": 1201,
      "way": 1202,
      "ead": 1203,
      "led": 1204,
      "ict": 1205,
      "ulation": 1206,
      "ways": 1207,
      "cept": 1208,
      "Ġmethod": 1209,
      "This": 1210,
      "How": 1211,
      "oci": 1212,
      "Ġchildren": 1213,
      "Ġgreat": 1214,
      "imate": 1215,
      "Ġfam": 1216,
      "ĠThese": 1217,
      "ĠAn": 1218,
      "Ġplants": 1219,
      "ants": 1220,
      "Ġresearch": 1221,
      "Ġstudy": 1222,
      "und": 1223,
      "Ġris": 1224,
      "Ġthink": 1225,
      "Ġbenef": 1226,
      "Ġstill": 1227,
      "hip": 1228,
      "Ġtreat": 1229,
      "Ġserv": 1230,
      "ered": 1231,
      "Ġnumber": 1232,
      "Ġprof": 1233,
      "der": 1234,
      "Ġclass": 1235,
      "ars": 1236,
      "Ġpotential": 1237,
      "Ġmem": 1238,
      "Ġimpro": 1239,
      "itive": 1240,
      "Ġdire": 1241,
      "day": 1242,
      "Ġsupport": 1243,
      "Ġschool": 1244,
      "Ġwithout": 1245,
      "inal": 1246,
      "Ġpol": 1247,
      "Ġhapp": 1248,
      "NA": 1249,
      "ĠTh": 1250,
      "itions": 1251,
      "Ġchang": 1252,
      "ability": 1253,
      "line": 1254,
      "Ġbeh": 1255,
      "Ġhuman": 1256,
      "rent": 1257,
      "Ġexample": 1258,
      "Ġbuild": 1259,
      "bs": 1260,
      "Ġpos": 1261,
      "kes": 1262,
      "ĠBut": 1263,
      "Ġlearn": 1264,
      "Ġiss": 1265,
      "Ġcent": 1266,
      "Ġcreat": 1267,
      "Ġplan": 1268,
      "Ġmight": 1269,
      "Ġaff": 1270,
      "ĠSp": 1271,
      "less": 1272,
      "Ġocc": 1273,
      "Ġagain": 1274,
      "ger": 1275,
      "Ġtext": 1276,
      "ĠAnd": 1277,
      "ĠThere": 1278,
      "ats": 1279,
      "Ġgrou": 1280,
      "Ġfew": 1281,
      "gen": 1282,
      ",\"": 1283,
      "ĠAd": 1284,
      "Ġele": 1285,
      "Ġcontrol": 1286,
      "ince": 1287,
      "Ġlarge": 1288,
      "15": 1289,
      "Ġpur": 1290,
      "Ġtop": 1291,
      "ash": 1292,
      "Ġdra": 1293,
      "ially": 1294,
      "Ġincluding": 1295,
      "ert": 1296,
      "Ġdise": 1297,
      "ĠTo": 1298,
      "atural": 1299,
      "esp": 1300,
      "ital": 1301,
      "Ġknown": 1302,
      "ism": 1303,
      "Ġbra": 1304,
      "Ġcontain": 1305,
      "Ġmaking": 1306,
      "It": 1307,
      "Ġrun": 1308,
      "Ġide": 1309,
      "apt": 1310,
      "ording": 1311,
      "Ġchange": 1312,
      "Ġplace": 1313,
      "Ġpract": 1314,
      "Ġbi": 1315,
      "ron": 1316,
      "Ġthree": 1317,
      ":ĊĊ": 1318,
      "Ġpress": 1319,
      "cle": 1320,
      "meric": 1321,
      "18": 1322,
      "-f": 1323,
      "ran": 1324,
      "ention": 1325,
      "Ġprevent": 1326,
      "Ġthough": 1327,
      "ters": 1328,
      "ooking": 1329,
      "ross": 1330,
      "ior": 1331,
      "ole": 1332,
      "If": 1333,
      "hers": 1334,
      "ify": 1335,
      "ering": 1336,
      "Ġblood": 1337,
      "ustr": 1338,
      "oid": 1339,
      "Ġbo": 1340,
      "-t": 1341,
      "Ġwithin": 1342,
      "Ġindivid": 1343,
      "ared": 1344,
      "ield": 1345,
      "co": 1346,
      "Ġlow": 1347,
      "Ġess": 1348,
      "Ġperform": 1349,
      "ouse": 1350,
      "30": 1351,
      "Ġcreate": 1352,
      "rodu": 1353,
      "Ġthings": 1354,
      "iness": 1355,
      "ee": 1356,
      "Ġcaus": 1357,
      "ape": 1358,
      "__": 1359,
      "Ġmust": 1360,
      "Ġmus": 1361,
      "icle": 1362,
      "Ġey": 1363,
      "Ġreally": 1364,
      "âĢĶ": 1365,
      "Ġopt": 1366,
      "Ġbir": 1367,
      "Ġpain": 1368,
      "Ġtype": 1369,
      "erc": 1370,
      "Ġconn": 1371,
      "'ll": 1372,
      "**": 1373,
      "Ġdel": 1374,
      "Ġappro": 1375,
      "Ġsl": 1376,
      "ner": 1377,
      "ator": 1378,
      "Ġser": 1379,
      "Ġreal": 1380,
      "Ġfeel": 1381,
      "Ġcost": 1382,
      "...": 1383,
      "ĠSo": 1384,
      "11": 1385,
      "Ġwhy": 1386,
      "Ġcal": 1387,
      "Ġphys": 1388,
      "Ġarea": 1389,
      "ination": 1390,
      "ĠWhen": 1391,
      "ense": 1392,
      "Ġdue": 1393,
      "Ġtre": 1394,
      "Ġsoil": 1395,
      "Ġsour": 1396,
      "ique": 1397,
      "Ġcount": 1398,
      "omp": 1399,
      "oms": 1400,
      "iven": 1401,
      "Ġsure": 1402,
      "ern": 1403,
      "Ġgr": 1404,
      "atch": 1405,
      "Ġcalled": 1406,
      "Ġbel": 1407,
      "ething": 1408,
      "Ġmove": 1409,
      "iver": 1410,
      "Ġproject": 1411,
      "Ġtry": 1412,
      "Ġsw": 1413,
      "ĠHowever": 1414,
      "Ġanother": 1415,
      "Ġant": 1416,
      "Ġconf": 1417,
      "Ġcontin": 1418,
      "Ġmeas": 1419,
      "ills": 1420,
      "ode": 1421,
      "Ġdev": 1422,
      "Ġsignific": 1423,
      "Ġconst": 1424,
      "ime": 1425,
      "Ġfunction": 1426,
      "Ġobject": 1427,
      "Ġcause": 1428,
      "here": 1429,
      "Ġanal": 1430,
      "erest": 1431,
      "Ġflow": 1432,
      "Ġpossible": 1433,
      "ware": 1434,
      "ently": 1435,
      "Ġhere": 1436,
      "Ġfollowing": 1437,
      "Ġident": 1438,
      "Ġinvol": 1439,
      "Ġhard": 1440,
      "ug": 1441,
      "16": 1442,
      "ĠAmeric": 1443,
      "-c": 1444,
      "of": 1445,
      "Ġopen": 1446,
      "Ġsit": 1447,
      "Ġsecond": 1448,
      "Ġtool": 1449,
      "Ġphot": 1450,
      "Ġavail": 1451,
      "ex": 1452,
      "port": 1453,
      "ling": 1454,
      "Ġprogram": 1455,
      "oot": 1456,
      "af": 1457,
      "Ġoper": 1458,
      "Ġhy": 1459,
      "ax": 1460,
      "Ġpub": 1461,
      "Ġheat": 1462,
      "ization": 1463,
      "Ġsomething": 1464,
      "ĠPl": 1465,
      "Ġfree": 1466,
      "Ġput": 1467,
      "Ġclean": 1468,
      "ends": 1469,
      "Ġest": 1470,
      "ours": 1471,
      "Ġstruct": 1472,
      "thing": 1473,
      "Ġamount": 1474,
      "face": 1475,
      "uss": 1476,
      "Ġbecome": 1477,
      "Ġbas": 1478,
      "ĠSc": 1479,
      "Ġteam": 1480,
      "Ġanimals": 1481,
      "land": 1482,
      "aring": 1483,
      "Ġalways": 1484,
      "me": 1485,
      "Ġapplic": 1486,
      "Ġconsider": 1487,
      "Ġdirect": 1488,
      "Ġbus": 1489,
      "'ve": 1490,
      "be": 1491,
      "pect": 1492,
      "Ġcolor": 1493,
      "Ġrest": 1494,
      "Ġable": 1495,
      "Ġold": 1496,
      "Ġspecific": 1497,
      "ental": 1498,
      "Ġcut": 1499,
      "Ġnatural": 1500,
      "Ġcomb": 1501,
      "Ġstep": 1502,
      "Ġmark": 1503,
      "Ġcome": 1504,
      "ertain": 1505,
      "Ġcap": 1506,
      "St": 1507,
      "ocus": 1508,
      "Ġlim": 1509,
      "Ġlast": 1510,
      "Ġinclude": 1511,
      "ilar": 1512,
      "ank": 1513,
      "Ġvarious": 1514,
      "Ġaddition": 1515,
      "Ġstand": 1516,
      "akes": 1517,
      "Ġhig": 1518,
      "Ġdam": 1519,
      "Ġexperience": 1520,
      "ration": 1521,
      "ateg": 1522,
      "Ġvol": 1523,
      "Ġimpact": 1524,
      "Ġfeature": 1525,
      "ished": 1526,
      "ones": 1527,
      "Ġlot": 1528,
      "ĠEx": 1529,
      "Ġnut": 1530,
      "iversity": 1531,
      "osed": 1532,
      "etic": 1533,
      "Ġpresent": 1534,
      "Ġfin": 1535,
      "Ġproblem": 1536,
      "Ġel": 1537,
      "Ġpass": 1538,
      "Ġgoing": 1539,
      "Ġwee": 1540,
      "âĢĻs": 1541,
      "aste": 1542,
      "Ġsym": 1543,
      "Ġsay": 1544,
      "Ġcurrent": 1545,
      "Ġcond": 1546,
      "Ġprom": 1547,
      "Ġmil": 1548,
      "Ġstate": 1549,
      "Ġcells": 1550,
      "Ġneeds": 1551,
      "ush": 1552,
      "ients": 1553,
      "lu": 1554,
      "Ġpar": 1555,
      "Ġspace": 1556,
      "Ġcy": 1557,
      "Ġsuc": 1558,
      "Ġmult": 1559,
      "Ġlet": 1560,
      "cul": 1561,
      "iod": 1562,
      "ified": 1563,
      "Ġlearning": 1564,
      "Ġmonth": 1565,
      "50": 1566,
      "Ġlittle": 1567,
      "-d": 1568,
      "arent": 1569,
      "Ġrange": 1570,
      "Ġimm": 1571,
      "Ġmeans": 1572,
      "Ġdevelopment": 1573,
      "Ġchem": 1574,
      "Ġsignificant": 1575,
      "ieve": 1576,
      "Ġbr": 1577,
      "Ġmakes": 1578,
      "Ġbased": 1579,
      "omes": 1580,
      "agement": 1581,
      "Ġoccur": 1582,
      "Ġavailable": 1583,
      "con": 1584,
      "Ġinterest": 1585,
      "ending": 1586,
      "ological": 1587,
      "'m": 1588,
      "put": 1589,
      "Ġfish": 1590,
      "over": 1591,
      "inc": 1592,
      "Ġcam": 1593,
      "ances": 1594,
      "bers": 1595,
      "Ġscient": 1596,
      "bon": 1597,
      ")Ċ": 1598,
      "Ġprovid": 1599,
      "Ġhead": 1600,
      "Ġmean": 1601,
      "Ġquality": 1602,
      "Ġsever": 1603,
      "Ġrisk": 1604,
      "orn": 1605,
      "ĠSh": 1606,
      "au": 1607,
      "Ġareas": 1608,
      "Ġeffective": 1609,
      "ision": 1610,
      "Ġgive": 1611,
      "ĠCl": 1612,
      "Ġensure": 1613,
      "atic": 1614,
      "outh": 1615,
      "ards": 1616,
      "Ġpost": 1617,
      "Ġfocus": 1618,
      "urther": 1619,
      "Ġenough": 1620,
      "Ġacid": 1621,
      "Ġbig": 1622,
      "aces": 1623,
      "Ġcir": 1624,
      "ote": 1625,
      "Ġsystems": 1626,
      "Ġproducts": 1627,
      "Ġpressure": 1628,
      "aves": 1629,
      "Ġet": 1630,
      "arden": 1631,
      "Ġopp": 1632,
      "Ġprofess": 1633,
      "de": 1634,
      "-p": 1635,
      "ocial": 1636,
      "Ġret": 1637,
      "ris": 1638,
      "Ġfil": 1639,
      "Ġessential": 1640,
      "ĠIs": 1641,
      "ems": 1642,
      "Ġdeterm": 1643,
      "Ġdig": 1644,
      "Ġproblems": 1645,
      "ency": 1646,
      "Ġtimes": 1647,
      "As": 1648,
      "Ġoil": 1649,
      "Ġtoget": 1650,
      "Ġtypes": 1651,
      "Ġtogether": 1652,
      "We": 1653,
      "orts": 1654,
      "ĠAr": 1655,
      "alk": 1656,
      "arc": 1657,
      "Ġnon": 1658,
      "14": 1659,
      "Ġunt": 1660,
      "Ġsal": 1661,
      "Ġlay": 1662,
      "utes": 1663,
      "Ġusually": 1664,
      "Ġmaterials": 1665,
      "Ġdisease": 1666,
      "eds": 1667,
      "Ġname": 1668,
      "omen": 1669,
      "icro": 1670,
      "17": 1671,
      "ounds": 1672,
      "view": 1673,
      "Ġcho": 1674,
      "Ġseveral": 1675,
      "par": 1676,
      "Ġaway": 1677,
      "ables": 1678,
      "Ġaccess": 1679,
      "Ġengine": 1680,
      "ips": 1681,
      "Ġconditions": 1682,
      "ogn": 1683,
      "gn": 1684,
      "let": 1685,
      "oring": 1686,
      "ably": 1687,
      "Ġworks": 1688,
      "aster": 1689,
      "Ġlevels": 1690,
      "Ġcertain": 1691,
      "Ġbro": 1692,
      "Ġdem": 1693,
      "ĠWhich": 1694,
      "Ġ[": 1695,
      "Ġbeg": 1696,
      "fort": 1697,
      "oes": 1698,
      "Ġfre": 1699,
      "Ġweight": 1700,
      "Ġgrowth": 1701,
      "oad": 1702,
      "Ġcomput": 1703,
      "ourse": 1704,
      "Ġdesc": 1705,
      "work": 1706,
      "Ġtechnology": 1707,
      "ah": 1708,
      "ott": 1709,
      "ended": 1710,
      "olution": 1711,
      "Ġdays": 1712,
      "ustom": 1713,
      "Ġresults": 1714,
      ")ĊĊ": 1715,
      "illion": 1716,
      "ump": 1717,
      "Ġorder": 1718,
      "Ġsuccess": 1719,
      "Ġparticular": 1720,
      "ral": 1721,
      "Ġhist": 1722,
      "Ġkey": 1723,
      "inter": 1724,
      "Ġsens": 1725,
      "Ġbehav": 1726,
      "Ġchall": 1727,
      "Ġrole": 1728,
      "Ġconsum": 1729,
      "cial": 1730,
      "Ġlist": 1731,
      "Ġdogs": 1732,
      "âĢ¦": 1733,
      "Ġprote": 1734,
      "You": 1735,
      "Ġz": 1736,
      "ĠCan": 1737,
      "pping": 1738,
      "az": 1739,
      "Ġside": 1740,
      "ains": 1741,
      "Ġter": 1742,
      "Ġperiod": 1743,
      "Ġturn": 1744,
      "Ġchanges": 1745,
      "ires": 1746,
      "ories": 1747,
      "ĠRe": 1748,
      "ĠNew": 1749,
      "Ġsize": 1750,
      "Ġhaving": 1751,
      "ored": 1752,
      "Ġfeed": 1753,
      "ĠBy": 1754,
      "ggest": 1755,
      "Ġeduc": 1756,
      "Ġcomplete": 1757,
      "ĠBe": 1758,
      "Ġrad": 1759,
      "Ġmind": 1760,
      "ĠInd": 1761,
      "Ġkind": 1762,
      "Ġrecomm": 1763,
      "Ġsimilar": 1764,
      "Ġimprove": 1765,
      "rate": 1766,
      "Ġworking": 1767,
      "ately": 1768,
      "ĠThat": 1769,
      "Ġenc": 1770,
      "Ġmaintain": 1771,
      "Ġmar": 1772,
      "13": 1773,
      "ĠWith": 1774,
      "Ġsince": 1775,
      "asing": 1776,
      "Ġlocal": 1777,
      "ication": 1778,
      "aper": 1779,
      "Ġspecial": 1780,
      "Ġprim": 1781,
      "Ġ&": 1782,
      "Ġmodel": 1783,
      "Ġnear": 1784,
      "oose": 1785,
      "Ġleast": 1786,
      "Ġeffic": 1787,
      "Ġinvest": 1788,
      "uture": 1789,
      "Ġshort": 1790,
      "Ġtur": 1791,
      "Ġmot": 1792,
      "-l": 1793,
      "Ġreact": 1794,
      "ane": 1795,
      "hor": 1796,
      "Ġline": 1797,
      "Ġ$": 1798,
      "Ġuntil": 1799,
      "aut": 1800,
      "Ġ=": 1801,
      "Ġearly": 1802,
      "Ġalong": 1803,
      "not": 1804,
      "There": 1805,
      "iting": 1806,
      "Ġlab": 1807,
      "izing": 1808,
      "oint": 1809,
      "Ġsurface": 1810,
      "When": 1811,
      "Ġnet": 1812,
      "Ġquick": 1813,
      "Ġfamily": 1814,
      "Ġtru": 1815,
      "aging": 1816,
      "imes": 1817,
      "Ġfac": 1818,
      "Ġnext": 1819,
      "Ġincrease": 1820,
      "Ġegg": 1821,
      "Ġleg": 1822,
      "Ġfu": 1823,
      "ĠRes": 1824,
      "Ġsing": 1825,
      "Ġgroup": 1826,
      "Ġwind": 1827,
      "Ġwarm": 1828,
      "Ġreduce": 1829,
      "Ġstrong": 1830,
      "osp": 1831,
      "Ġnecess": 1832,
      "jor": 1833,
      "Ġdry": 1834,
      "Ġprotect": 1835,
      "Ġmach": 1836,
      "ecially": 1837,
      "Ġhigher": 1838,
      ".,": 1839,
      "ooks": 1840,
      "Ġfri": 1841,
      "ope": 1842,
      "Ġproduction": 1843,
      "Ġcomes": 1844,
      "Ġsuggest": 1845,
      "oun": 1846,
      "Ġlikely": 1847,
      "Ġdiet": 1848,
      "Ġbenefits": 1849,
      "Ġrele": 1850,
      "ember": 1851,
      "Ġothers": 1852,
      "25": 1853,
      "ived": 1854,
      "Ġparts": 1855,
      "fer": 1856,
      "Ġgarden": 1857,
      "Ġmov": 1858,
      "Ġstra": 1859,
      "astic": 1860,
      "Ġrepl": 1861,
      "Ġsoft": 1862,
      "fact": 1863,
      "Ġbusiness": 1864,
      "self": 1865,
      "Ġcontrib": 1866,
      "Ġlive": 1867,
      "Ġste": 1868,
      "rect": 1869,
      "Ġeasy": 1870,
      "Ġissues": 1871,
      "vious": 1872,
      "hem": 1873,
      "ither": 1874,
      "Ġesp": 1875,
      "Ġfar": 1876,
      "Ġcase": 1877,
      "though": 1878,
      "ired": 1879,
      "Ġintern": 1880,
      "ĠCon": 1881,
      "Ġhealthy": 1882,
      "Ġchemical": 1883,
      "Ġsn": 1884,
      "por": 1885,
      "reen": 1886,
      "Ġthing": 1887,
      "Ġfield": 1888,
      "Ġhim": 1889,
      "Ġheart": 1890,
      "Ġspeed": 1891,
      "Ġskin": 1892,
      "ret": 1893,
      "orth": 1894,
      "Ġdoesn": 1895,
      "Ġcustom": 1896,
      "Ġreason": 1897,
      "ury": 1898,
      "Ġassoci": 1899,
      "side": 1900,
      "Ġrece": 1901,
      "atory": 1902,
      "Ġi": 1903,
      "Ġvers": 1904,
      "Ġcourse": 1905,
      "Ġaddress": 1906,
      "Ġcirc": 1907,
      "ĠUniversity": 1908,
      "Ġtraining": 1909,
      "-m": 1910,
      "Ġage": 1911,
      "Ġans": 1912,
      "Ġavoid": 1913,
      "ler": 1914,
      "ries": 1915,
      "Ġmajor": 1916,
      "icult": 1917,
      "ĠâĢĶ": 1918,
      "anced": 1919,
      "Ġbatter": 1920,
      "ression": 1921,
      "----": 1922,
      "Ġnever": 1923,
      "Ġactually": 1924,
      "Ġcheck": 1925,
      "Ġfour": 1926,
      "ĠAt": 1927,
      "ĠSome": 1928,
      "Ġcompon": 1929,
      "Ġunique": 1930,
      "Ġfuture": 1931,
      "lement": 1932,
      "Ġsocial": 1933,
      "Ġbook": 1934,
      "Ġfore": 1935,
      "Ġacross": 1936,
      "Ġphysical": 1937,
      "Ġanimal": 1938,
      "lish": 1939,
      "Ġability": 1940,
      "Ġpred": 1941,
      "Ġcarbon": 1942,
      "light": 1943,
      "Ġcult": 1944,
      "An": 1945,
      "Ġgiven": 1946,
      "ustry": 1947,
      "Ġcomplex": 1948,
      "agn": 1949,
      "oney": 1950,
      "Ġfull": 1951,
      "Ġflu": 1952,
      "Ġvalue": 1953,
      "Ġespecially": 1954,
      "Ġwrit": 1955,
      "Ġlower": 1956,
      "ilities": 1957,
      "Ġappear": 1958,
      "Ġobs": 1959,
      "Ġagainst": 1960,
      "Ġcool": 1961,
      "ym": 1962,
      "ivity": 1963,
      "Ġrespons": 1964,
      "Ġelectric": 1965,
      "ĠSe": 1966,
      "ames": 1967,
      "Ġdone": 1968,
      "verage": 1969,
      "resh": 1970,
      "bit": 1971,
      "ĠZ": 1972,
      "Ġleft": 1973,
      "ples": 1974,
      "Ġmeasure": 1975,
      "ream": 1976,
      "!ĊĊ": 1977,
      "bo": 1978,
      "Ġresour": 1979,
      "Ġsubst": 1980,
      "ores": 1981,
      "Ġsimple": 1982,
      "Ġsun": 1983,
      "ustain": 1984,
      "most": 1985,
      "Ġeffects": 1986,
      "Ġabs": 1987,
      "oor": 1988,
      "ators": 1989,
      "Ġsays": 1990,
      "usion": 1991,
      "Ġpercent": 1992,
      "to": 1993,
      "Ġrepres": 1994,
      "Ġpath": 1995,
      "Ġproduce": 1996,
      "Ġaffect": 1997,
      "Ġgas": 1998,
      "idence": 1999,
      "une": 2000,
      "ĠYour": 2001,
      "ission": 2002,
      "Ġcharacter": 2003,
      "Ġeye": 2004,
      "40": 2005,
      "Ġsum": 2006,
      "utions": 2007,
      "Ġfrequ": 2008,
      "Ġhold": 2009,
      "duct": 2010,
      "Ġcra": 2011,
      "ĠTe": 2012,
      "Ġprob": 2013,
      "Ġways": 2014,
      "ĠEn": 2015,
      "istic": 2016,
      "wards": 2017,
      "Ġpublic": 2018,
      "Ġhelps": 2019,
      "Ġtoday": 2020,
      "ibility": 2021,
      "avor": 2022,
      "To": 2023,
      "ches": 2024,
      "joy": 2025,
      "igns": 2026,
      "Ġsafe": 2027,
      "Ġenh": 2028,
      "Ġinteract": 2029,
      "Ġground": 2030,
      "iple": 2031,
      "Ġorig": 2032,
      "pper": 2033,
      "pped": 2034,
      "Ġlooking": 2035,
      "Ġloss": 2036,
      "amm": 2037,
      "Ġnorm": 2038,
      "ensive": 2039,
      "ification": 2040,
      "Ġregular": 2041,
      "21": 2042,
      "Ġprovides": 2043,
      "Ġveh": 2044,
      "ibr": 2045,
      "Ġaccording": 2046,
      "Ġdifficult": 2047,
      "Ġgreen": 2048,
      "Ġyoung": 2049,
      "Ġeat": 2050,
      "ysis": 2051,
      "fect": 2052,
      "Ġach": 2053,
      "Ġabove": 2054,
      "Ġreport": 2055,
      "Ġbegin": 2056,
      "man": 2057,
      "uals": 2058,
      "Ġmarket": 2059,
      "Ġpast": 2060,
      "Ġtreatment": 2061,
      "Ġfurther": 2062,
      "Ġterm": 2063,
      "Ġbacter": 2064,
      "Ġhyd": 2065,
      "ĠĠ": 2066,
      "Ġox": 2067,
      "Ġwide": 2068,
      "Ġparent": 2069,
      "Ġindustry": 2070,
      "Ġhouse": 2071,
      "Ġdetail": 2072,
      "Ġfeatures": 2073,
      "edi": 2074,
      "ised": 2075,
      "Ġfr": 2076,
      "Ġcru": 2077,
      "Ġimage": 2078,
      "Ġresearc": 2079,
      "Ġunderstanding": 2080,
      "Ġ.": 2081,
      "Ġvir": 2082,
      "etimes": 2083,
      "Ġactivity": 2084,
      "Ġred": 2085,
      "Ġstress": 2086,
      "Ġquestion": 2087,
      "Ġbal": 2088,
      "ray": 2089,
      "Ġcondition": 2090,
      "Ġdiscuss": 2091,
      "ows": 2092,
      "Ġactivities": 2093,
      "Ġdamage": 2094,
      "ĠDe": 2095,
      "erence": 2096,
      "ffic": 2097,
      "Ġwr": 2098,
      "Ġfat": 2099,
      "Ġonce": 2100,
      "ding": 2101,
      "Ġfall": 2102,
      "Ġtell": 2103,
      "Ġhours": 2104,
      "ney": 2105,
      "Ġenvironmental": 2106,
      "Ġview": 2107,
      "ortun": 2108,
      "ales": 2109,
      "Ġvide": 2110,
      "Ġstructure": 2111,
      "Ġcr": 2112,
      "Ġneeded": 2113,
      "Ġbreak": 2114,
      "ae": 2115,
      "ton": 2116,
      "Ġdescrib": 2117,
      "âĢĵ": 2118,
      "Ġbit": 2119,
      "ĠCol": 2120,
      "Ġskills": 2121,
      "Ġsource": 2122,
      "Ġsingle": 2123,
      "Ġlif": 2124,
      "estions": 2125,
      "Ġmanagement": 2126,
      "Ġdesigned": 2127,
      "hing": 2128,
      "Ġer": 2129,
      "Ġexist": 2130,
      "ledge": 2131,
      "Ġenjoy": 2132,
      "ready": 2133,
      "Wh": 2134,
      "Ġfarm": 2135,
      "Ġthin": 2136,
      "ina": 2137,
      "Ġgetting": 2138,
      "Ġoffer": 2139,
      "Ġwhite": 2140,
      "chan": 2141,
      "vert": 2142,
      "Ġallows": 2143,
      "angu": 2144,
      "Ġamong": 2145,
      "Ġindic": 2146,
      "Ġland": 2147,
      "Ġlove": 2148,
      "Ġrecord": 2149,
      "for": 2150,
      "ried": 2151,
      "Ġregul": 2152,
      "Ġfuel": 2153,
      "yle": 2154,
      "ploy": 2155,
      "ume": 2156,
      "use": 2157,
      "Ġchalleng": 2158,
      "Ġmatter": 2159,
      "Ġtradition": 2160,
      "Ġemb": 2161,
      "eral": 2162,
      "Ġdeg": 2163,
      "just": 2164,
      "Ġeither": 2165,
      "ĠPh": 2166,
      "Ġhappen": 2167,
      "Ġclose": 2168,
      "Ġindividual": 2169,
      "Ġweek": 2170,
      "Ġsafety": 2171,
      "lished": 2172,
      "nam": 2173,
      "Ġsound": 2174,
      "Ġmo": 2175,
      "Ġalready": 2176,
      "Ġparticip": 2177,
      "Ġconnect": 2178,
      "Ġexperim": 2179,
      "Ġinside": 2180,
      "Ġwood": 2181,
      "Ġwild": 2182,
      "Ġdraw": 2183,
      "gar": 2184,
      "Ġhor": 2185,
      "Ġconcer": 2186,
      "ĠUS": 2187,
      "Ġfactors": 2188,
      "Ġcommunity": 2189,
      "ER": 2190,
      "idd": 2191,
      "Ġinstall": 2192,
      "Ġhumans": 2193,
      "24": 2194,
      "ask": 2195,
      "ging": 2196,
      "Ġill": 2197,
      "Ġslow": 2198,
      "ĠOne": 2199,
      "Ġstrateg": 2200,
      "upp": 2201,
      "Ġpet": 2202,
      "Ġexerc": 2203,
      "ptoms": 2204,
      "Ġcrit": 2205,
      "Ġpan": 2206,
      "lection": 2207,
      "Ġuser": 2208,
      "fully": 2209,
      "ĠIm": 2210,
      "Ġvariety": 2211,
      "Ġdoing": 2212,
      "Ġauthor": 2213,
      "ĠOn": 2214,
      "ĠOr": 2215,
      "For": 2216,
      "Ġapproach": 2217,
      "ird": 2218,
      "iques": 2219,
      "ystem": 2220,
      "Ġclear": 2221,
      "Ġpersonal": 2222,
      "Ġnecessary": 2223,
      "aling": 2224,
      "aken": 2225,
      ",Ċ": 2226,
      "Ġrequired": 2227,
      "raph": 2228,
      "Ġmole": 2229,
      "ĠNo": 2230,
      "ĠAmerican": 2231,
      "Ġexce": 2232,
      "ĠBl": 2233,
      "Ġevent": 2234,
      "pr": 2235,
      "ties": 2236,
      "Ġliving": 2237,
      "Ġwhether": 2238,
      "Ġpurp": 2239,
      "inary": 2240,
      "Ġmix": 2241,
      "Ġinit": 2242,
      "Ġinteg": 2243,
      "Ġscience": 2244,
      "Ġever": 2245,
      "ĠCent": 2246,
      "Ġexperien": 2247,
      "!Ċ": 2248,
      "Al": 2249,
      "ĠEng": 2250,
      "obal": 2251,
      "Ġsustain": 2252,
      "Ġbelow": 2253,
      "Ġrate": 2254,
      "aps": 2255,
      "Ġcontent": 2256,
      "Ġrecogn": 2257,
      "ufact": 2258,
      "Ġask": 2259,
      "Ġseen": 2260,
      "Ġcompany": 2261,
      "Ġpopular": 2262,
      "Ġtools": 2263,
      "22": 2264,
      "Ġdifference": 2265,
      "ising": 2266,
      "igure": 2267,
      "ung": 2268,
      "Ġveget": 2269,
      "Ġmonths": 2270,
      "Ch": 2271,
      "Ġmass": 2272,
      "Ġarticle": 2273,
      "Ġbuilding": 2274,
      "ument": 2275,
      "Ġlonger": 2276,
      "Ġperformance": 2277,
      "ĠAll": 2278,
      "âĢĿ": 2279,
      "Ġgrowing": 2280,
      "Ġwar": 2281,
      "Ġinflu": 2282,
      "ese": 2283,
      "Ġisn": 2284,
      "Ġnature": 2285,
      "ĠAI": 2286,
      "Ġconsist": 2287,
      "Ġcoll": 2288,
      "esc": 2289,
      "by": 2290,
      "ming": 2291,
      "Ġtot": 2292,
      "ctor": 2293,
      "verse": 2294,
      "ruction": 2295,
      "ery": 2296,
      "ilt": 2297,
      "ength": 2298,
      "Ġut": 2299,
      "Ġmillion": 2300,
      "Ġclimate": 2301,
      "Ġwomen": 2302,
      "urs": 2303,
      "Ġprop": 2304,
      "Ġsmo": 2305,
      "Ġsolution": 2306,
      "ĠWhile": 2307,
      "oura": 2308,
      "Ġminim": 2309,
      "Ġmilk": 2310,
      "ograp": 2311,
      "Ġminutes": 2312,
      "60": 2313,
      "overed": 2314,
      "Ġpositive": 2315,
      "ply": 2316,
      "Ġmethods": 2317,
      "Ġpoll": 2318,
      "Ġbrain": 2319,
      "Ġresearchers": 2320,
      "Ġla": 2321,
      "ned": 2322,
      "ĠWor": 2323,
      "Ġsetting": 2324,
      "Ġbar": 2325,
      "Ġmicro": 2326,
      "Ġtree": 2327,
      "ĠInst": 2328,
      "Ġindividuals": 2329,
      "Ġtar": 2330,
      "Ġneg": 2331,
      "Ġopportun": 2332,
      "nces": 2333,
      "ule": 2334,
      "Ġport": 2335,
      "com": 2336,
      "Ġpaper": 2337,
      "Ġautom": 2338,
      "Ġfoods": 2339,
      "Ġur": 2340,
      "rel": 2341,
      "alf": 2342,
      "Ġblack": 2343,
      "Ġcorrect": 2344,
      "reng": 2345,
      "Ġassociated": 2346,
      "Ġing": 2347,
      "amp": 2348,
      "Ġextra": 2349,
      "uck": 2350,
      "itch": 2351,
      "Ġmention": 2352,
      "Ġlaw": 2353,
      "ervation": 2354,
      "-based": 2355,
      "cre": 2356,
      "ext": 2357,
      "Ġdeep": 2358,
      "aving": 2359,
      "ges": 2360,
      "aced": 2361,
      "Ġwhole": 2362,
      "Ġharm": 2363,
      "Ġaltern": 2364,
      "Ġhistory": 2365,
      "erve": 2366,
      "eter": 2367,
      "Ġapplications": 2368,
      "Ġface": 2369,
      "Ġsam": 2370,
      "Ġwall": 2371,
      "sel": 2372,
      "rogen": 2373,
      "Ġmechan": 2374,
      "Ġprec": 2375,
      "Ġhot": 2376,
      "Ġstay": 2377,
      "rams": 2378,
      "Ġrelations": 2379,
      "Ġtechniques": 2380,
      "conom": 2381,
      "Ġfru": 2382,
      "Ġtrees": 2383,
      "âĪ": 2384,
      "illed": 2385,
      "Ġadult": 2386,
      "Ġknowledge": 2387,
      "br": 2388,
      "Ġanswer": 2389,
      "So": 2390,
      "Ġsense": 2391,
      "Ġeasily": 2392,
      "aches": 2393,
      "Ġcook": 2394,
      "Ġpack": 2395,
      "Ġidea": 2396,
      "iation": 2397,
      "lying": 2398,
      "Ġsuper": 2399,
      "Ġsitu": 2400,
      "Ġcomputer": 2401,
      "Ġfast": 2402,
      "leep": 2403,
      "Ġleaves": 2404,
      "Ġgeneral": 2405,
      "Ġbehavior": 2406,
      ").Ċ": 2407,
      "ĠCO": 2408,
      "Ġrather": 2409,
      "Ġfram": 2410,
      "Ġsomeone": 2411,
      "Ġbirds": 2412,
      "Ġmat": 2413,
      "Ġchick": 2414,
      "Ġselect": 2415,
      "Ġintrodu": 2416,
      "Ġbuy": 2417,
      "Ġsymptoms": 2418,
      "Ġtypically": 2419,
      "Ġremov": 2420,
      "Ġactive": 2421,
      "ricult": 2422,
      "Ġoutside": 2423,
      "Ġtravel": 2424,
      "Ġbab": 2425,
      "Ġonline": 2426,
      "Ġprotein": 2427,
      "Ġlangu": 2428,
      ".\"ĊĊ": 2429,
      "Ġoverall": 2430,
      "Ġcreating": 2431,
      "ners": 2432,
      "aged": 2433,
      "Ġquestions": 2434,
      "Ġremain": 2435,
      "Ġposition": 2436,
      "ĠX": 2437,
      "Ġcases": 2438,
      "idered": 2439,
      "Ġpay": 2440,
      "rown": 2441,
      "Ġincreased": 2442,
      "ik": 2443,
      "Ġstudies": 2444,
      "uff": 2445,
      "sect": 2446,
      "Ġsepar": 2447,
      "Ġprofessional": 2448,
      "selves": 2449,
      "era": 2450,
      "ged": 2451,
      "ellow": 2452,
      "ĠLe": 2453,
      "Ġresist": 2454,
      "Ġgover": 2455,
      "ĠCar": 2456,
      "Ġmedical": 2457,
      "Ġthought": 2458,
      "Ġquickly": 2459,
      "Ġrepresent": 2460,
      "Ġsite": 2461,
      "Ġbring": 2462,
      "Ġidentify": 2463,
      "Ġgame": 2464,
      "Ġmanufact": 2465,
      "Ġcrucial": 2466,
      "Ġseason": 2467,
      "____": 2468,
      "ĠQu": 2469,
      "Ġtaking": 2470,
      "ĠApp": 2471,
      "nov": 2472,
      "Ġissue": 2473,
      "Ġbattery": 2474,
      "app": 2475,
      "Ġself": 2476,
      "Ġpractice": 2477,
      "osing": 2478,
      "Ġconsidered": 2479,
      "Ġcover": 2480,
      "onse": 2481,
      "abor": 2482,
      "pro": 2483,
      "Ġhowever": 2484,
      "Ġtraditional": 2485,
      "Ġtarget": 2486,
      "Ġperfect": 2487,
      "Ġanalysis": 2488,
      "Ġaverage": 2489,
      "osis": 2490,
      "Ġcompet": 2491,
      "Ġentire": 2492,
      "Ġappl": 2493,
      "erous": 2494,
      "ops": 2495,
      "Ġcold": 2496,
      "ura": 2497,
      "lex": 2498,
      "mit": 2499,
      "Ġcompan": 2500,
      "-w": 2501,
      "Ġuses": 2502,
      "Ġcontact": 2503,
      "earch": 2504,
      "Ġmachine": 2505,
      "Ġfive": 2506,
      "Ġsequ": 2507,
      "Ġchoose": 2508,
      "Ġrelated": 2509,
      "Ġcollect": 2510,
      "Ġtakes": 2511,
      "ĠSchool": 2512,
      "Ġresources": 2513,
      "Ġrelationship": 2514,
      "ules": 2515,
      "Ġcapt": 2516,
      "Ġpict": 2517,
      "Ġstreng": 2518,
      "Ġmodern": 2519,
      "ĠEar": 2520,
      "Ġmeet": 2521,
      "aily": 2522,
      "uit": 2523,
      "ze": 2524,
      "Ġprep": 2525,
      "Ġsurv": 2526,
      "Ġpopulation": 2527,
      "augh": 2528,
      "Ġbeaut": 2529,
      "ĠAm": 2530,
      "ucle": 2531,
      "Ġgroups": 2532,
      "ĠShe": 2533,
      "Ġmoney": 2534,
      "Ġstory": 2535,
      "Ġang": 2536,
      "Ġcancer": 2537,
      "ĠNational": 2538,
      "Ġanything": 2539,
      "Ġetc": 2540,
      "Ġinstead": 2541,
      "CA": 2542,
      "Ġshape": 2543,
      "ival": 2544,
      "aching": 2545,
      "isms": 2546,
      "amin": 2547,
      "Ġjob": 2548,
      "Ġdispl": 2549,
      "ĠUnited": 2550,
      "rec": 2551,
      "reme": 2552,
      "ĠDo": 2553,
      "Ġoptim": 2554,
      "Ġjour": 2555,
      "Ġservice": 2556,
      "Ġswe": 2557,
      "het": 2558,
      "ipment": 2559,
      "icles": 2560,
      "Ġgot": 2561,
      "Ġcomfort": 2562,
      "Ġprimary": 2563,
      "Ġassess": 2564,
      ".\"Ċ": 2565,
      "lor": 2566,
      "Ġwaste": 2567,
      "Ġnight": 2568,
      "ropri": 2569,
      "Ġmultiple": 2570,
      "Ġsat": 2571,
      "ĠDNA": 2572,
      "Ġarr": 2573,
      "Ġscientists": 2574,
      "Ġwinter": 2575,
      "Ġfund": 2576,
      "Ġsubject": 2577,
      "Ġelements": 2578,
      "Th": 2579,
      "Ġadjust": 2580,
      "Ġsometimes": 2581,
      "Ġtend": 2582,
      "ĠComp": 2583,
      "Ġcannot": 2584,
      "80": 2585,
      "Ġdom": 2586,
      "Ġoptions": 2587,
      "ites": 2588,
      "Ġbad": 2589,
      "rug": 2590,
      "ĠHealth": 2591,
      "Ġproperties": 2592,
      "Ġestab": 2593,
      "elling": 2594,
      "Ġthroughout": 2595,
      "Ġshows": 2596,
      "ians": 2597,
      "Ġfit": 2598,
      "ĠâĢľ": 2599,
      "eding": 2600,
      "Ġmonit": 2601,
      "Ġexact": 2602,
      "itud": 2603,
      "Ġheav": 2604,
      "onst": 2605,
      "Ġmagn": 2606,
      "Ġdigital": 2607,
      "Ġvideo": 2608,
      "Ġeating": 2609,
      "Ġbacteria": 2610,
      "iot": 2611,
      "Ġfail": 2612,
      "Ġmen": 2613,
      "new": 2614,
      "Ġdetermine": 2615,
      "Ġeggs": 2616,
      "Ġeconom": 2617,
      "ison": 2618,
      "Ġlater": 2619,
      "Ġsimply": 2620,
      "Ġinvolved": 2621,
      "Ġtrue": 2622,
      "room": 2623,
      "Ġspe": 2624,
      "Ġcompared": 2625,
      "Ġteac": 2626,
      "Ġtotal": 2627,
      "hib": 2628,
      "Ġshare": 2629,
      "Ġnutri": 2630,
      "Ġgovern": 2631,
      "Ġyourself": 2632,
      "Ġroom": 2633,
      "Ġaccount": 2634,
      "Ġsqu": 2635,
      "oph": 2636,
      "Ġresponse": 2637,
      "iency": 2638,
      "Ġservices": 2639,
      "aff": 2640,
      "xim": 2641,
      "Ġcode": 2642,
      "Ġspread": 2643,
      "Ġexplain": 2644,
      "23": 2645,
      "Ġice": 2646,
      "Ġce": 2647,
      "asons": 2648,
      "Ġincludes": 2649,
      "Ġcreated": 2650,
      "Ġaud": 2651,
      "Ġalmost": 2652,
      "Ġcomponents": 2653,
      "Ġdy": 2654,
      "rist": 2655,
      "Ġhabit": 2656,
      "abet": 2657,
      "Ġlarger": 2658,
      "Ġglobal": 2659,
      "Ġlength": 2660,
      "Ġdeveloped": 2661,
      "oh": 2662,
      "Ġprevious": 2663,
      "Ġtransport": 2664,
      "ls": 2665,
      "Ġbase": 2666,
      "ift": 2667,
      "ension": 2668,
      "Ġregion": 2669,
      "Ġdevice": 2670,
      "rum": 2671,
      "ino": 2672,
      "rad": 2673,
      "ĠAf": 2674,
      "Ġconcept": 2675,
      "Ġmetal": 2676,
      "urity": 2677,
      "Ġpoints": 2678,
      "70": 2679,
      "urop": 2680,
      "RE": 2681,
      "Ġelectr": 2682,
      "Ġfeet": 2683,
      "Ġrout": 2684,
      "Ġplastic": 2685,
      "Ġfresh": 2686,
      "Ġhun": 2687,
      "Ġec": 2688,
      "ĠAc": 2689,
      "Ġadapt": 2690,
      "Ġsoftware": 2691,
      ").ĊĊ": 2692,
      "Ġyet": 2693,
      "Ġann": 2694,
      "90": 2695,
      "rig": 2696,
      "Ġtaken": 2697,
      "Ġbott": 2698,
      "lease": 2699,
      "Ġmoist": 2700,
      "Ġlog": 2701,
      "ĠComm": 2702,
      "ĠUs": 2703,
      "Ġnetwork": 2704,
      "ĠMan": 2705,
      "Ġpatients": 2706,
      "aries": 2707,
      "Ġseem": 2708,
      "IN": 2709,
      "Ġstarted": 2710,
      "Ġfamil": 2711,
      "Ġobserv": 2712,
      "cular": 2713,
      "Ġsugar": 2714,
      "ograph": 2715,
      "Ġrob": 2716,
      "Ġwebs": 2717,
      "Ġattention": 2718,
      "Ġeverything": 2719,
      "Ġproviding": 2720,
      "part": 2721,
      "ences": 2722,
      "Ġoffers": 2723,
      "ĠTr": 2724,
      "Ġequipment": 2725,
      "Ad": 2726,
      "Ġadvant": 2727,
      "Ġingred": 2728,
      "Ġwa": 2729,
      "Ġvac": 2730,
      "Ġprobably": 2731,
      "val": 2732,
      "Ġoption": 2733,
      "Ġpri": 2734,
      "Ġemploy": 2735,
      "yl": 2736,
      "ils": 2737,
      "umb": 2738,
      "Ġincreasing": 2739,
      "Ġnormal": 2740,
      "Ġbelieve": 2741,
      "Ġsleep": 2742,
      "Ġefficient": 2743,
      "Ġlands": 2744,
      "ĠDr": 2745,
      "tenance": 2746,
      "Ġvehicle": 2747,
      "Ġcou": 2748,
      "acy": 2749,
      "Ġwords": 2750,
      "Ġadded": 2751,
      "Ġcontinu": 2752,
      "Ġchoice": 2753,
      "Ġtherap": 2754,
      "Ġpest": 2755,
      "Ġbur": 2756,
      "Ġbox": 2757,
      "Ġapplication": 2758,
      "rated": 2759,
      "where": 2760,
      "Ġconcent": 2761,
      "Ġgenetic": 2762,
      "Ġemot": 2763,
      "Ġfoot": 2764,
      "Ġinsect": 2765,
      "ctions": 2766,
      "cean": 2767,
      "ean": 2768,
      "Ġlink": 2769,
      "Ġexc": 2770,
      "ĠStates": 2771,
      "atively": 2772,
      "Ġregard": 2773,
      "sp": 2774,
      "ccording": 2775,
      "Ġguid": 2776,
      "rition": 2777,
      "Ġaction": 2778,
      "Ġwon": 2779,
      "ann": 2780,
      "Ġexplore": 2781,
      "ditionally": 2782,
      "Ġcountry": 2783,
      "Ġterms": 2784,
      "go": 2785,
      "Ġge": 2786,
      "Ġshown": 2787,
      "Ġquite": 2788,
      "Ġgenes": 2789,
      "Ġremove": 2790,
      "mb": 2791,
      "ycl": 2792,
      "Ġlanguage": 2793,
      "-in": 2794,
      "ground": 2795,
      "rip": 2796,
      "Ġfront": 2797,
      "ene": 2798,
      "arily": 2799,
      "izes": 2800,
      "Ġprovided": 2801,
      "08": 2802,
      "ises": 2803,
      "sequ": 2804,
      "ĠNorth": 2805,
      "Ġsuit": 2806,
      "Ġeducation": 2807,
      "Ġencoura": 2808,
      "Ġsummer": 2809,
      "Ġones": 2810,
      ".S": 2811,
      "Ġforce": 2812,
      "Ġemerg": 2813,
      "Ġdevices": 2814,
      "ygen": 2815,
      "ĠCont": 2816,
      "Ġweather": 2817,
      "ĠHere": 2818,
      "Ġexercise": 2819,
      "atives": 2820,
      "Ġcauses": 2821,
      "But": 2822,
      "Ġhar": 2823,
      "ster": 2824,
      "Ġprocesses": 2825,
      "Why": 2826,
      "Ġbreat": 2827,
      "alking": 2828,
      "Ġcats": 2829,
      "Ġparents": 2830,
      "ocol": 2831,
      "Ġfib": 2832,
      "Ġmom": 2833,
      "hol": 2834,
      "issions": 2835,
      "Ġmedic": 2836,
      "Ġbasic": 2837,
      "Ġachieve": 2838,
      "One": 2839,
      "Ġextreme": 2840,
      "Ġobjects": 2841,
      "Ġcrop": 2842,
      "Ġappropri": 2843,
      "Ġrequires": 2844,
      "AT": 2845,
      "Ġmodels": 2846,
      "abetes": 2847,
      "ST": 2848,
      "Ġball": 2849,
      "Ġfire": 2850,
      "Ġguide": 2851,
      "gest": 2852,
      "ha": 2853,
      "Ġitself": 2854,
      "Ġstudent": 2855,
      "Ġconduct": 2856,
      "ĠMed": 2857,
      "ON": 2858,
      "Ġpurpose": 2859,
      "Ġmentioned": 2860,
      "He": 2861,
      "set": 2862,
      "Ġlens": 2863,
      "Ġsources": 2864,
      "Ex": 2865,
      "Ġaspect": 2866,
      "Ġeyes": 2867,
      "ĠCal": 2868,
      "Ġfem": 2869,
      "Ġinput": 2870,
      "Ġdark": 2871,
      "Ġreview": 2872,
      "Ġdoc": 2873,
      "rict": 2874,
      "Ġcalcul": 2875,
      "Ġmess": 2876,
      "Ġalg": 2877,
      "Ġdirectly": 2878,
      "Ġhalf": 2879,
      "Ġlives": 2880,
      "ription": 2881,
      "Ġoutput": 2882,
      "reg": 2883,
      "Ġgain": 2884,
      "oll": 2885,
      "ĠEurop": 2886,
      "Ġproduced": 2887,
      "head": 2888,
      "Ġtrying": 2889,
      "ured": 2890,
      "ĠPr": 2891,
      "ights": 2892,
      "Ġleading": 2893,
      "Ġdefin": 2894,
      "ĠAfric": 2895,
      "Ġago": 2896,
      "Ġgenerally": 2897,
      "iles": 2898,
      "imately": 2899,
      "Ġdaily": 2900,
      "Ġunit": 2901,
      "Ġthemselves": 2902,
      "Ġcaused": 2903,
      "Ġantib": 2904,
      "Ġlo": 2905,
      "ĠCons": 2906,
      "sy": 2907,
      "Ġvit": 2908,
      "acks": 2909,
      "Is": 2910,
      "ched": 2911,
      "Ġleaf": 2912,
      "Ġinsp": 2913,
      "Ġsearch": 2914,
      "ecause": 2915,
      "Ġevidence": 2916,
      "'d": 2917,
      "Ġimages": 2918,
      "ipe": 2919,
      "Ġwond": 2920,
      "ĠAfter": 2921,
      "Ġroad": 2922,
      "Ġadditional": 2923,
      "Ġstop": 2924,
      "ĠMore": 2925,
      "Ġpatient": 2926,
      "Ġsmaller": 2927,
      "Ġdrug": 2928,
      "iring": 2929,
      "Ġhighly": 2930,
      "Ġdecre": 2931,
      "wh": 2932,
      "Ġir": 2933,
      "Ġful": 2934,
      "ĠCo": 2935,
      "mon": 2936,
      "Ġcard": 2937,
      "irt": 2938,
      "Ġlayer": 2939,
      "osition": 2940,
      "Ġkids": 2941,
      "Ġtable": 2942,
      "Ġsil": 2943,
      "Ġassist": 2944,
      "Ġvisit": 2945,
      "Ġmembers": 2946,
      "Ġinnov": 2947,
      "ĠAg": 2948,
      "term": 2949,
      "Ġstandard": 2950,
      "OT": 2951,
      "ĠTra": 2952,
      "istics": 2953,
      "Pro": 2954,
      "Ġinj": 2955,
      "Ġdest": 2956,
      "asks": 2957,
      "Ġdiagn": 2958,
      "Ġcontinue": 2959,
      "aim": 2960,
      "Ġtou": 2961,
      "oses": 2962,
      "ĠNot": 2963,
      "Ġimplement": 2964,
      "Ġdidn": 2965,
      "Ġchallenges": 2966,
      "ĠMy": 2967,
      "pid": 2968,
      "45": 2969,
      "aur": 2970,
      "ief": 2971,
      "Ġgoal": 2972,
      "Ġbalance": 2973,
      "Ġchicken": 2974,
      "-st": 2975,
      "Ġquant": 2976,
      "iddle": 2977,
      "Ġsignal": 2978,
      "Ġsix": 2979,
      "Ġword": 2980,
      "Ġgreater": 2981,
      "ening": 2982,
      "ley": 2983,
      "omet": 2984,
      "inct": 2985,
      "icial": 2986,
      "ĠYes": 2987,
      "ocks": 2988,
      "Ġbehind": 2989,
      "Ġcycle": 2990,
      "come": 2991,
      "icy": 2992,
      "icate": 2993,
      "osure": 2994,
      "ounter": 2995,
      "like": 2996,
      "vere": 2997,
      "Ġpurch": 2998,
      "odes": 2999,
      "Ġseeds": 3000,
      "Ġtowards": 3001,
      "Ġmaxim": 3002,
      "Ġcolors": 3003,
      "Ġarch": 3004,
      "Ġrunning": 3005,
      "Ġutil": 3006,
      "Ġlandsc": 3007,
      "rast": 3008,
      "Â°": 3009,
      "Ġbag": 3010,
      "Ġcosts": 3011,
      "Ġanaly": 3012,
      "Ġrecommend": 3013,
      "Ġpoly": 3014,
      "Ġexpect": 3015,
      "bol": 3016,
      "Ġdistrib": 3017,
      "Ġrecommended": 3018,
      "Ġcity": 3019,
      "raft": 3020,
      "ĠStud": 3021,
      "ronic": 3022,
      "ography": 3023,
      "Ġhair": 3024,
      "ively": 3025,
      "Ġweeks": 3026,
      "Ġrecent": 3027,
      "Ġmovement": 3028,
      "Ġsteps": 3029,
      "Ġbaby": 3030,
      "Ġx": 3031,
      "Ġpret": 3032,
      "Ġgoes": 3033,
      "Ġtemperatures": 3034,
      "cles": 3035,
      "itation": 3036,
      "ades": 3037,
      "iece": 3038,
      "Ġparticularly": 3039,
      "Ġstrength": 3040,
      "Ġplat": 3041,
      "-to": 3042,
      "ma": 3043,
      "Ġdou": 3044,
      "epend": 3045,
      "Ġmeat": 3046,
      "Ġcutting": 3047,
      "28": 3048,
      "AR": 3049,
      "Ġstat": 3050,
      "ĠMay": 3051,
      "Ġcontains": 3052,
      "Ġfriend": 3053,
      "oming": 3054,
      "Ġdeb": 3055,
      "Ġtransform": 3056,
      "Ġsupply": 3057,
      "Ġbreast": 3058,
      "Ġcompletely": 3059,
      "yond": 3060,
      "Ġmaintenance": 3061,
      "cks": 3062,
      "more": 3063,
      "Ġmemory": 3064,
      "ĠAmerica": 3065,
      "Ġtips": 3066,
      "Ġroof": 3067,
      "Ġindustr": 3068,
      "Ġreading": 3069,
      "water": 3070,
      "Ġdang": 3071,
      "Ġeth": 3072,
      "ĠDep": 3073,
      "Ġspring": 3074,
      "Ġbenefit": 3075,
      "Ġdemonst": 3076,
      "Ġoxygen": 3077,
      "Ġaim": 3078,
      "clusion": 3079,
      "Ġeasier": 3080,
      "Ġhappens": 3081,
      "min": 3082,
      "ancy": 3083,
      "irm": 3084,
      "emic": 3085,
      "ĠPre": 3086,
      "Ġrespect": 3087,
      "Ġprior": 3088,
      "atur": 3089,
      "Ġhorse": 3090,
      "Ġnegative": 3091,
      "Ġwatch": 3092,
      "ulations": 3093,
      "ĠWhy": 3094,
      "Ġprinc": 3095,
      "Ġglass": 3096,
      "Ġther": 3097,
      "att": 3098,
      "Ġfro": 3099,
      "Ġshar": 3100,
      "Ġorganic": 3101,
      "Ġblue": 3102,
      "Ġgene": 3103,
      "Ġscientific": 3104,
      "ĠEarth": 3105,
      "Ġ,": 3106,
      "Ġload": 3107,
      "Ġwear": 3108,
      "Ġsolutions": 3109,
      "isc": 3110,
      "odies": 3111,
      "ĠGen": 3112,
      "Ġelse": 3113,
      "Ġcompanies": 3114,
      "Can": 3115,
      "ED": 3116,
      "vant": 3117,
      "Ġrot": 3118,
      "nal": 3119,
      "oe": 3120,
      "Ġ+": 3121,
      "orpor": 3122,
      "Ġstore": 3123,
      "ĠSouth": 3124,
      "Ġeveryone": 3125,
      "airs": 3126,
      "cohol": 3127,
      "life": 3128,
      "Ġitems": 3129,
      "Ġnumbers": 3130,
      "aks": 3131,
      "Ġmut": 3132,
      "Ġliqu": 3133,
      "ĠAre": 3134,
      "Ġsolar": 3135,
      "Ġproperly": 3136,
      "Ġabsor": 3137,
      "ror": 3138,
      "alu": 3139,
      "Ġreach": 3140,
      "artment": 3141,
      "Ġhands": 3142,
      "Ġappropriate": 3143,
      "Ġdeath": 3144,
      "Ġseed": 3145,
      "ĠResearch": 3146,
      "ching": 3147,
      "Ġevolution": 3148,
      "Ġteeth": 3149,
      "Ġsus": 3150,
      "ĠGu": 3151,
      "Ġagricult": 3152,
      "hood": 3153,
      "vest": 3154,
      "ĠFrom": 3155,
      "Ġrefer": 3156,
      "-g": 3157,
      "oon": 3158,
      "Ġ/": 3159,
      "iny": 3160,
      "Ġforms": 3161,
      "hern": 3162,
      "Ġsurround": 3163,
      "oxide": 3164,
      "Ġdiseases": 3165,
      "fl": 3166,
      "Ġmor": 3167,
      "ĠInt": 3168,
      "ĠAss": 3169,
      "Ġgrass": 3170,
      "iable": 3171,
      "Ġaware": 3172,
      "ĠMost": 3173,
      "Ġcooking": 3174,
      "ript": 3175,
      "ologies": 3176,
      "ube": 3177,
      "Ġprograms": 3178,
      "Ġcamera": 3179,
      "ault": 3180,
      "li": 3181,
      "ĠMany": 3182,
      "eces": 3183,
      "ustral": 3184,
      "Ġconstant": 3185,
      "Ġphotos": 3186,
      "Ġuseful": 3187,
      "Ġallowing": 3188,
      "Ġcommonly": 3189,
      "Ġdrop": 3190,
      "Ġexcess": 3191,
      "Ġseries": 3192,
      "-h": 3193,
      "rees": 3194,
      "Ġpump": 3195,
      "Ġnucle": 3196,
      "Ġschools": 3197,
      "Ġmeaning": 3198,
      "Ġfriends": 3199,
      "ai": 3200,
      "Ġfaster": 3201,
      "aly": 3202,
      "Ġkit": 3203,
      "ĠUse": 3204,
      "Ġsigns": 3205,
      "Ġreasons": 3206,
      "Ġleave": 3207,
      "Ġvalues": 3208,
      "âĪĴ": 3209,
      "sych": 3210,
      "Be": 3211,
      "Sh": 3212,
      "Ġsand": 3213,
      "Ġcame": 3214,
      "Ġfile": 3215,
      "oud": 3216,
      "Ġmental": 3217,
      "Ġprefer": 3218,
      "Ġenhance": 3219,
      "AC": 3220,
      "ĠQ": 3221,
      "iate": 3222,
      "Ġcommunication": 3223,
      "ĠScience": 3224,
      "ĠWorld": 3225,
      "Ġhost": 3226,
      "vey": 3227,
      "uted": 3228,
      "iful": 3229,
      "Ġwebsite": 3230,
      "illing": 3231,
      "ĠPer": 3232,
      "Ġdiabetes": 3233,
      "Ġdistance": 3234,
      "Ġcenter": 3235,
      "Ġupon": 3236,
      "aker": 3237,
      "sc": 3238,
      "Ġarg": 3239,
      "bor": 3240,
      "eep": 3241,
      "Ġtalk": 3242,
      "enc": 3243,
      "Ġusers": 3244,
      "rick": 3245,
      "Ġlocation": 3246,
      "Ġearth": 3247,
      "itude": 3248,
      "mosp": 3249,
      "Ġbecomes": 3250,
      "Ġimportance": 3251,
      "Ġcountries": 3252,
      "Ġlimited": 3253,
      "Ġvolume": 3254,
      "rim": 3255,
      "Ġinvestig": 3256,
      "Ġmoving": 3257,
      "wor": 3258,
      "Ġfert": 3259,
      "Ġmiss": 3260,
      "istry": 3261,
      "Ġsea": 3262,
      "Ġevents": 3263,
      "rs": 3264,
      "Ġbuilt": 3265,
      "ĠAdditionally": 3266,
      "Ġtheory": 3267,
      "Ġsustainable": 3268,
      "Ġspot": 3269,
      "Ġcamp": 3270,
      "Ġsalt": 3271,
      "Con": 3272,
      "Ġwel": 3273,
      "nds": 3274,
      "Ġgives": 3275,
      "ĠThen": 3276,
      "Ġimpl": 3277,
      "Ġcarry": 3278,
      "Ġexpress": 3279,
      "Ġimmedi": 3280,
      "Ġop": 3281,
      "Ġbond": 3282,
      "anks": 3283,
      "ĠMar": 3284,
      "Ġshap": 3285,
      "ĠOf": 3286,
      "Ġgets": 3287,
      "Ġreplace": 3288,
      "While": 3289,
      "fish": 3290,
      "Ġfix": 3291,
      "Ġlines": 3292,
      "Ġrecycl": 3293,
      "enn": 3294,
      "Ġdim": 3295,
      "ĠRNA": 3296,
      "Ġdepending": 3297,
      "Ġexperiment": 3298,
      "\",": 3299,
      "-term": 3300,
      "ober": 3301,
      "Ġstyle": 3302,
      "Ġseems": 3303,
      "ightly": 3304,
      "Ġprint": 3305,
      "Ġbroad": 3306,
      "Ġoccurs": 3307,
      "Ġplatform": 3308,
      "Ġcommerc": 3309,
      "Ġprotection": 3310,
      "orage": 3311,
      "ĠRec": 3312,
      "ĠâĢ¦": 3313,
      "Ġmusic": 3314,
      "Ġdisplay": 3315,
      "-e": 3316,
      "ula": 3317,
      "hyd": 3318,
      "Ġready": 3319,
      "Ġprojects": 3320,
      "Ġgovernment": 3321,
      "Ġpretty": 3322,
      "mber": 3323,
      "hest": 3324,
      "ĠGo": 3325,
      "Ġinstruct": 3326,
      "Ġbird": 3327,
      "Ġforest": 3328,
      "Ġult": 3329,
      "Ġvary": 3330,
      "Ġdeal": 3331,
      "Ġcloth": 3332,
      "And": 3333,
      "abol": 3334,
      "ĠReg": 3335,
      "Ġadding": 3336,
      "Ġmedia": 3337,
      "Ġideal": 3338,
      "Ġserious": 3339,
      "Ġcritical": 3340,
      "rehe": 3341,
      "rag": 3342,
      "Ġtrack": 3343,
      "Ġcross": 3344,
      "ĠAct": 3345,
      "Ġgar": 3346,
      "umin": 3347,
      "Ġvisual": 3348,
      "Ġresponsible": 3349,
      "Ġtank": 3350,
      "ulate": 3351,
      "Ġsuff": 3352,
      "These": 3353,
      "Ġpractices": 3354,
      "05": 3355,
      "ony": 3356,
      "Ġpick": 3357,
      "terns": 3358,
      "ĠLet": 3359,
      "Ġdisp": 3360,
      "Ġtook": 3361,
      "Ġcharge": 3362,
      "zz": 3363,
      "rol": 3364,
      "Ġyellow": 3365,
      "Ġrich": 3366,
      "Ġnutrients": 3367,
      "sh": 3368,
      "Ġ#": 3369,
      "Ġsave": 3370,
      "At": 3371,
      "ID": 3372,
      "Ġthick": 3373,
      "Ġproced": 3374,
      "Ġcapac": 3375,
      "ixt": 3376,
      "Ġwalk": 3377,
      "Ġlibr": 3378,
      "order": 3379,
      "Ġrain": 3380,
      "Ġgraph": 3381,
      "Ġreflect": 3382,
      "Ġingredients": 3383,
      "AS": 3384,
      "volution": 3385,
      "ĠAb": 3386,
      "ĠAustral": 3387,
      "ivate": 3388,
      "Ġsoon": 3389,
      "Ġrare": 3390,
      "Ġphone": 3391,
      "Ġensuring": 3392,
      "Ġbottom": 3393,
      "26": 3394,
      "load": 3395,
      "Ġthreat": 3396,
      "Ġscreen": 3397,
      "Ġcontroll": 3398,
      "Ġpromot": 3399,
      "01": 3400,
      "32": 3401,
      "idge": 3402,
      "Ġapplied": 3403,
      "EN": 3404,
      "Ġtiss": 3405,
      "orith": 3406,
      "empt": 3407,
      "Ġestim": 3408,
      "Ġexactly": 3409,
      "ana": 3410,
      "ĠIntern": 3411,
      "Ġpoor": 3412,
      "09": 3413,
      "uge": 3414,
      "Ġbul": 3415,
      "Ġimag": 3416,
      "fficient": 3417,
      "itute": 3418,
      "Ġfine": 3419,
      "Ġfavor": 3420,
      "Ġtherefore": 3421,
      "Ġaccur": 3422,
      "Ġ--": 3423,
      "Ġtechnique": 3424,
      "ociety": 3425,
      "Ġsignificantly": 3426,
      "lands": 3427,
      "wise": 3428,
      "Ġsection": 3429,
      "ancing": 3430,
      "Ġkn": 3431,
      "obile": 3432,
      "Ġreturn": 3433,
      "Ġoriginal": 3434,
      "OS": 3435,
      "cin": 3436,
      "Ġdead": 3437,
      "Ġresid": 3438,
      "Ġcausing": 3439,
      "Ġnutrition": 3440,
      "ĠSim": 3441,
      "Ġnothing": 3442,
      "ogen": 3443,
      "They": 3444,
      "Ġdeveloping": 3445,
      "Ġfruit": 3446,
      "27": 3447,
      "overy": 3448,
      "Ġlack": 3449,
      "Ġhearing": 3450,
      "nthes": 3451,
      "--------": 3452,
      "mission": 3453,
      "Ġiron": 3454,
      "ĠHigh": 3455,
      "Ġremember": 3456,
      "Ġattract": 3457,
      ".g": 3458,
      "eration": 3459,
      "Ġstates": 3460,
      "Ġatmosp": 3461,
      "Ġevalu": 3462,
      "standing": 3463,
      "cules": 3464,
      "met": 3465,
      "unch": 3466,
      "ections": 3467,
      "hold": 3468,
      "pe": 3469,
      "ĠPe": 3470,
      "ĠOur": 3471,
      "Ġapply": 3472,
      "Ġelement": 3473,
      "Ġelectrical": 3474,
      "inks": 3475,
      "Ġpatterns": 3476,
      "Ġtesting": 3477,
      "Ġideas": 3478,
      "ES": 3479,
      "Ġpresence": 3480,
      "eb": 3481,
      "Ġë": 3482,
      "Ġhol": 3483,
      "Ġlate": 3484,
      "ails": 3485,
      "rought": 3486,
      "Ġpublished": 3487,
      "35": 3488,
      "Ġbehavi": 3489,
      "Ġpiece": 3490,
      "Ġpregn": 3491,
      "Ġrequirements": 3492,
      "By": 3493,
      "Ġsent": 3494,
      "Ġcommit": 3495,
      "ĠChrist": 3496,
      "Ġcleaning": 3497,
      "04": 3498,
      "Ġled": 3499,
      "Ġalcohol": 3500,
      "Ġaccept": 3501,
      "ields": 3502,
      "Ġhope": 3503,
      "elt": 3504,
      "Ġaren": 3505,
      "ĠDi": 3506,
      "Ġexamples": 3507,
      "Ġsecurity": 3508,
      "Ġstrategies": 3509,
      "Ġmount": 3510,
      "Ġwriting": 3511,
      "Sc": 3512,
      "craft": 3513,
      "Ġeffectively": 3514,
      "Ġefficiency": 3515,
      "Ġthinking": 3516,
      "Ġalternative": 3517,
      "Ġdynam": 3518,
      "Ġsuitable": 3519,
      "ellig": 3520,
      "ificial": 3521,
      "Ġvision": 3522,
      "Ġreaction": 3523,
      "itect": 3524,
      "Ġconvers": 3525,
      "Ġdoctor": 3526,
      "Ġcontext": 3527,
      "Ġemissions": 3528,
      "Ġdetect": 3529,
      "Ġreducing": 3530,
      "ĠAlso": 3531,
      "Ġsuccessful": 3532,
      "board": 3533,
      "Ġbeautiful": 3534,
      "OR": 3535,
      "care": 3536,
      "Ġthus": 3537,
      "ĠOnce": 3538,
      "Ġjo": 3539,
      "Ġanti": 3540,
      "Ġcontribute": 3541,
      "Ġweb": 3542,
      "duc": 3543,
      "Ġcurrently": 3544,
      "Ġopportunity": 3545,
      "Ġfully": 3546,
      "ET": 3547,
      "Im": 3548,
      "Ġdri": 3549,
      "omb": 3550,
      "Ġpowerful": 3551,
      "Ġmoisture": 3552,
      "Ġtherm": 3553,
      "\".": 3554,
      "07": 3555,
      "know": 3556,
      "Ġtasks": 3557,
      "Ġroll": 3558,
      "Ġanyone": 3559,
      "Ġinfl": 3560,
      "Ġreduced": 3561,
      "Ġtaste": 3562,
      "Ġbeyond": 3563,
      "Ġscale": 3564,
      "Ġblock": 3565,
      "Ġfunctions": 3566,
      "Ġprogress": 3567,
      "Ġdrive": 3568,
      "Ġinteresting": 3569,
      "Ġwrong": 3570,
      "Ġsituation": 3571,
      "Cl": 3572,
      "Ġbed": 3573,
      "ibly": 3574,
      "apter": 3575,
      "Ġcollabor": 3576,
      "Ġcop": 3577,
      "Ġlose": 3578,
      "Ġplaces": 3579,
      "06": 3580,
      "Ġtrou": 3581,
      "Ġmouth": 3582,
      "Ġliter": 3583,
      "arian": 3584,
      "Ġinfection": 3585,
      "Ġinvolves": 3586,
      "Ġfrequency": 3587,
      "Ġresistance": 3588,
      "rew": 3589,
      "Ġbrown": 3590,
      "olar": 3591,
      "ĠTheir": 3592,
      "Ġchance": 3593,
      "Ġrid": 3594,
      "ĠOver": 3595,
      "Ġupd": 3596,
      "Ġadults": 3597,
      "AN": 3598,
      "ached": 3599,
      "Ġrapid": 3600,
      "Ġstarting": 3601,
      "Ġhandle": 3602,
      "With": 3603,
      "Ġpull": 3604,
      "Ġmother": 3605,
      "Ġdirection": 3606,
      "Ġvirus": 3607,
      "ball": 3608,
      "back": 3609,
      "ieces": 3610,
      "za": 3611,
      "Ġworth": 3612,
      "Ġoutd": 3613,
      "ensity": 3614,
      "Ġobtain": 3615,
      "Ġalgorith": 3616,
      "Ġliquid": 3617,
      "icking": 3618,
      "Ġparticles": 3619,
      "Ġconnected": 3620,
      "Ġconstruction": 3621,
      "Ġexcell": 3622,
      "Ġmuscle": 3623,
      "Ġthr": 3624,
      "Ġstim": 3625,
      "Ġalthough": 3626,
      "Ġshoot": 3627,
      "Ġflight": 3628,
      "...ĊĊ": 3629,
      "Ġmiddle": 3630,
      "ĠChe": 3631,
      "Ġvia": 3632,
      "ĠNow": 3633,
      "ĠGod": 3634,
      "ype": 3635,
      "Ġdifferences": 3636,
      "Ġnews": 3637,
      "Ġdecision": 3638,
      "Step": 3639,
      "Ġsymbol": 3640,
      "ipp": 3641,
      "Ġver": 3642,
      "inking": 3643,
      "Ġfing": 3644,
      "Ġthird": 3645,
      "Ġflavor": 3646,
      "Ġincluded": 3647,
      "Ġprice": 3648,
      "Ġconsumption": 3649,
      "Ġversion": 3650,
      "Ġvegetables": 3651,
      "Pl": 3652,
      "iar": 3653,
      "Ġocean": 3654,
      "ifically": 3655,
      "ĠSm": 3656,
      "Ġrules": 3657,
      "Ġhighlight": 3658,
      "inting": 3659,
      "ffect": 3660,
      "Ġproteins": 3661,
      "Ġstraight": 3662,
      "inate": 3663,
      "Ġble": 3664,
      "Ġsex": 3665,
      "Ġmode": 3666,
      "Ġplanning": 3667,
      "IG": 3668,
      "ams": 3669,
      "ender": 3670,
      "Ġsolid": 3671,
      "Ġmanufacture": 3672,
      "inally": 3673,
      "ipes": 3674,
      "Ġclin": 3675,
      "Ġkeeping": 3676,
      "ĠCenter": 3677,
      "Ġstorage": 3678,
      "Ġconver": 3679,
      "hetic": 3680,
      "rehens": 3681,
      "Ġfinal": 3682,
      "Ġplaced": 3683,
      "Ġadop": 3684,
      "ĠIts": 3685,
      "Ġfactor": 3686,
      "Ġcircuit": 3687,
      "right": 3688,
      "Ġep": 3689,
      "Ġroot": 3690,
      "ashion": 3691,
      "Ġlimit": 3692,
      "Ġpredict": 3693,
      "On": 3694,
      "ened": 3695,
      "Ġpage": 3696,
      "inding": 3697,
      "Ġcommercial": 3698,
      "uild": 3699,
      "Ġcit": 3700,
      "Ġpow": 3701,
      "rier": 3702,
      "Ġjoint": 3703,
      "Ġdrain": 3704,
      "Ġboard": 3705,
      "Ġmolecules": 3706,
      "Ġpicture": 3707,
      "Ġmoment": 3708,
      "33": 3709,
      "IS": 3710,
      "hel": 3711,
      "Ġforward": 3712,
      "ĠRem": 3713,
      "Ġolder": 3714,
      "ken": 3715,
      "mat": 3716,
      "oration": 3717,
      "Ġsevere": 3718,
      "Ġexpert": 3719,
      "Ġvalu": 3720,
      "ban": 3721,
      "Ġreve": 3722,
      "Ġclaim": 3723,
      "Ġcateg": 3724,
      "isions": 3725,
      "Ġattempt": 3726,
      "Ġcommunities": 3727,
      "02": 3728,
      "ius": 3729,
      "isher": 3730,
      "oman": 3731,
      "Ġanc": 3732,
      "Ġcombination": 3733,
      "Now": 3734,
      "Ġtask": 3735,
      "abilities": 3736,
      "ĠWest": 3737,
      "Ġexpensive": 3738,
      "ĠWho": 3739,
      "Ġswitch": 3740,
      "Ġfab": 3741,
      "Ġlat": 3742,
      "Ġnative": 3743,
      "rain": 3744,
      "ĠâĢ¢": 3745,
      "Ġrepe": 3746,
      "zy": 3747,
      "lege": 3748,
      "Ġsweet": 3749,
      "Ġheavy": 3750,
      "RNA": 3751,
      "cking": 3752,
      "lier": 3753,
      "Ġgames": 3754,
      "Ġstream": 3755,
      "Ġincorpor": 3756,
      "Ġrespond": 3757,
      "Ġelectro": 3758,
      "crete": 3759,
      "aught": 3760,
      "enge": 3761,
      "ĠAir": 3762,
      "ĠSw": 3763,
      "ĠBrit": 3764,
      "ĠRep": 3765,
      "ously": 3766,
      "Ġlocated": 3767,
      "Ġdescribed": 3768,
      "ero": 3769,
      "asp": 3770,
      "Ġlooks": 3771,
      "Ġstuff": 3772,
      "amed": 3773,
      "Ġdivers": 3774,
      "Ġmotor": 3775,
      "Ġjourney": 3776,
      "Do": 3777,
      "Ġtox": 3778,
      "Ġhear": 3779,
      "ĠWater": 3780,
      "Ġexposure": 3781,
      "Ġproperty": 3782,
      "Ġstructures": 3783,
      "Ġtouch": 3784,
      "amb": 3785,
      "acing": 3786,
      "osystem": 3787,
      "ĠEach": 3788,
      "ĠGe": 3789,
      "Ġregions": 3790,
      "Ġmedium": 3791,
      "Ġreported": 3792,
      "Ġbooks": 3793,
      "Ġder": 3794,
      "Ġthous": 3795,
      "enty": 3796,
      "ester": 3797,
      "ĠMin": 3798,
      "Ġeffort": 3799,
      "Ġdepth": 3800,
      "ternal": 3801,
      "Ġcalc": 3802,
      "Ġcapacity": 3803,
      "ancial": 3804,
      "urt": 3805,
      "erson": 3806,
      "Ġpref": 3807,
      "ĠJoh": 3808,
      "Ġresulting": 3809,
      "Ġdepend": 3810,
      "Ġmetabol": 3811,
      "Ġexisting": 3812,
      "Ġdate": 3813,
      "roup": 3814,
      "ĠFirst": 3815,
      "ieved": 3816,
      "Ġtransfer": 3817,
      "Ġhistor": 3818,
      "29": 3819,
      "Ġwent": 3820,
      "Ġstage": 3821,
      "Ġcoming": 3822,
      "ĠGl": 3823,
      "Ġmeasures": 3824,
      "Ġmis": 3825,
      "Ġnav": 3826,
      "char": 3827,
      "ĠLear": 3828,
      "anging": 3829,
      "Ġflowers": 3830,
      "ĠBecause": 3831,
      "Ġround": 3832,
      "ĠState": 3833,
      "Ġtechnologies": 3834,
      "Ġexperiences": 3835,
      "ĠEnglish": 3836,
      "Ġonto": 3837,
      "add": 3838,
      "Ġkill": 3839,
      "Ġbirth": 3840,
      "Ġprofession": 3841,
      "dom": 3842,
      "Ġaqu": 3843,
      "Ġreceive": 3844,
      "rates": 3845,
      "Ġfamilies": 3846,
      "wers": 3847,
      "Ġtri": 3848,
      "Ġpieces": 3849,
      "Ġclos": 3850,
      "Ġflat": 3851,
      "-be": 3852,
      "Ġsites": 3853,
      "gram": 3854,
      "onic": 3855,
      "ĠAccording": 3856,
      "Ġcollection": 3857,
      "Ġadvanced": 3858,
      "Ġinternal": 3859,
      "Ġcomfortable": 3860,
      "]Ċ": 3861,
      "Ġdin": 3862,
      "ĠSec": 3863,
      "ada": 3864,
      "Ġju": 3865,
      "Ġattack": 3866,
      "Ġvolt": 3867,
      "TI": 3868,
      "ying": 3869,
      "Ġwet": 3870,
      "Ġkid": 3871,
      "Ġremains": 3872,
      "Ġgradu": 3873,
      "Ġdegrees": 3874,
      "03": 3875,
      "31": 3876,
      "bing": 3877,
      "faces": 3878,
      "haps": 3879,
      "Ġfed": 3880,
      "Ġfair": 3881,
      "roll": 3882,
      "omy": 3883,
      "Ġalone": 3884,
      "rows": 3885,
      "Ġadvantage": 3886,
      "esign": 3887,
      "orial": 3888,
      "elines": 3889,
      "ulated": 3890,
      "erences": 3891,
      "Ġwanted": 3892,
      "Ġdocument": 3893,
      "Ġpsych": 3894,
      "Ġnote": 3895,
      "Ġund": 3896,
      "ĠNOT": 3897,
      "Ġmanage": 3898,
      "Ġrecently": 3899,
      "Ġexpected": 3900,
      "Ġinstance": 3901,
      "Ġsport": 3902,
      "izations": 3903,
      "Ġarm": 3904,
      "Ġrelease": 3905,
      "36": 3906,
      "bran": 3907,
      "uries": 3908,
      "iforn": 3909,
      "Ġseal": 3910,
      "Ġqual": 3911,
      "Ġincreases": 3912,
      "Ġcomponent": 3913,
      "Ġwin": 3914,
      "Ġgold": 3915,
      "Ġsample": 3916,
      "-up": 3917,
      "Some": 3918,
      "iling": 3919,
      "Ġvo": 3920,
      "ĠDis": 3921,
      "Ġsmart": 3922,
      "den": 3923,
      "Ġefforts": 3924,
      "Ġhydrogen": 3925,
      "Ġsounds": 3926,
      "ĠEven": 3927,
      "Ġbutter": 3928,
      "ĠArt": 3929,
      "ĠTechn": 3930,
      "ixture": 3931,
      "Re": 3932,
      "Ġì": 3933,
      "hether": 3934,
      "used": 3935,
      "Ġgiving": 3936,
      "riend": 3937,
      "ĠRed": 3938,
      "Ġdriving": 3939,
      "Ġfabric": 3940,
      "PA": 3941,
      "ux": 3942,
      "Ġ|": 3943,
      "itis": 3944,
      "Ġmic": 3945,
      "Ġmill": 3946,
      "Ġstri": 3947,
      "acific": 3948,
      "Ġrates": 3949,
      "Ġcentury": 3950,
      "Ġimmune": 3951,
      "Ġprincip": 3952,
      "zing": 3953,
      "Ġtail": 3954,
      "Ġbow": 3955,
      "ille": 3956,
      "othes": 3957,
      "ĠServ": 3958,
      "ocal": 3959,
      "Ġrelatively": 3960,
      "Ġlearned": 3961,
      "Ġarchitect": 3962,
      "wing": 3963,
      "Ġdat": 3964,
      "Ġhuge": 3965,
      "ĠAut": 3966,
      "ĠMe": 3967,
      "Ġcompounds": 3968,
      "Ġchanging": 3969,
      "Ġsteel": 3970,
      "75": 3971,
      "bits": 3972,
      "ĠÂ": 3973,
      "Ġwat": 3974,
      "Ġhyp": 3975,
      "resp": 3976,
      "Ġnotice": 3977,
      "Ġcontract": 3978,
      "Ġconservation": 3979,
      "Ġchemicals": 3980,
      "Ġteachers": 3981,
      "Ġobserved": 3982,
      "Ġlandscape": 3983,
      "ifornia": 3984,
      "Un": 3985,
      "na": 3986,
      "ishing": 3987,
      "Ġwindow": 3988,
      "Ġinfluence": 3989,
      "xi": 3990,
      "Ġindepend": 3991,
      "Ġagree": 3992,
      "Ġconnection": 3993,
      "Ġslightly": 3994,
      "Ġdemand": 3995,
      "Ġwrite": 3996,
      "Ġsmooth": 3997,
      "related": 3998,
      ".com": 3999,
      "Ġvital": 4000,
      "ĠDay": 4001,
      "Ġcompar": 4002,
      "Ġexpression": 4003,
      "Ġaffected": 4004,
      "Ġelim": 4005,
      "Ġbud": 4006,
      "ĠMod": 4007,
      "ĠEm": 4008,
      "ĠOther": 4009,
      "Ġbecame": 4010,
      "Ġdiscovered": 4011,
      "ĠAlthough": 4012,
      "Ġtherapy": 4013,
      "Ġaspects": 4014,
      "rehensive": 4015,
      "99": 4016,
      "gans": 4017,
      "oors": 4018,
      "alt": 4019,
      "ĠMake": 4020,
      "agram": 4021,
      "Ġappe": 4022,
      "Ġillustr": 4023,
      "ups": 4024,
      "Ġflex": 4025,
      "Ġnode": 4026,
      "Ġbegan": 4027,
      "Ġneut": 4028,
      "Ġcoast": 4029,
      "Ġagg": 4030,
      "Ġprocessing": 4031,
      "Ġlargest": 4032,
      "Ġperspect": 4033,
      "eech": 4034,
      "Ġextremely": 4035,
      "Ġsnow": 4036,
      "Ġwire": 4037,
      "key": 4038,
      "Ġdiverse": 4039,
      "Sp": 4040,
      "Ã©": 4041,
      "Ġtooth": 4042,
      "Ġhit": 4043,
      "Ġnar": 4044,
      "ided": 4045,
      "Ġneigh": 4046,
      "Ġrise": 4047,
      "Ġintellig": 4048,
      "ĠNe": 4049,
      "Ġevol": 4050,
      "Ġbreed": 4051,
      "Ġrisks": 4052,
      "****": 4053,
      "ocolate": 4054,
      "Ġdiv": 4055,
      "ogle": 4056,
      "Ġbecoming": 4057,
      "iverse": 4058,
      "Ġoperating": 4059,
      "Ġseparate": 4060,
      "ests": 4061,
      "Ġheight": 4062,
      "Ġserve": 4063,
      "Ġsettings": 4064,
      "Ġfertil": 4065,
      "Ġ...": 4066,
      "Ġrat": 4067,
      "Ġsports": 4068,
      "ĠFl": 4069,
      "ĠUK": 4070,
      "Ġblog": 4071,
      "ĠJust": 4072,
      "AL": 4073,
      "Ġbound": 4074,
      "Ġdu": 4075,
      "semb": 4076,
      "ĠBi": 4077,
      "ĠRead": 4078,
      "Ġinches": 4079,
      "Ġbackground": 4080,
      "Ġfinding": 4081,
      "Ġallowed": 4082,
      "Ġdetails": 4083,
      "âĢ¢": 4084,
      "Ġfishing": 4085,
      "Ġmaximum": 4086,
      "Ġstro": 4087,
      "ĠEduc": 4088,
      "Ġpaint": 4089,
      "Ġculture": 4090,
      "book": 4091,
      "unction": 4092,
      "ĠLake": 4093,
      "ears": 4094,
      "ĠOct": 4095,
      "Ġsaw": 4096,
      "Ġchanged": 4097,
      "Ġstandards": 4098,
      "Ġhighest": 4099,
      "Ġinsects": 4100,
      "Ġcrops": 4101,
      "ĠAnt": 4102,
      "ĠSystem": 4103,
      "unk": 4104,
      "Ġacids": 4105,
      "Ġhelping": 4106,
      "Ġhappy": 4107,
      "Ġfeeling": 4108,
      "Ġopportunities": 4109,
      "Ġvoltage": 4110,
      "Ar": 4111,
      "Ġpen": 4112,
      "omic": 4113,
      "Ġspir": 4114,
      "However": 4115,
      "Ġecosystem": 4116,
      "Ġexcellent": 4117,
      ".[": 4118,
      "off": 4119,
      "Ġsess": 4120,
      "atically": 4121,
      "Ġsty": 4122,
      "ĠBar": 4123,
      "Ġrepair": 4124,
      "Ġcheese": 4125,
      "roduction": 4126,
      "âĢĶâĢĶ": 4127,
      "Ġapprox": 4128,
      "Ġwritten": 4129,
      "Ġframe": 4130,
      "time": 4131,
      "Ġsav": 4132,
      "Ġfly": 4133,
      "icated": 4134,
      "Ġrenew": 4135,
      "iment": 4136,
      "Ġalle": 4137,
      "Ġroots": 4138,
      "Ġtests": 4139,
      "Ġfinancial": 4140,
      "Ġvirt": 4141,
      "Ġasked": 4142,
      "-y": 4143,
      "Ġmatch": 4144,
      "ĠPC": 4145,
      "Ġtrain": 4146,
      "Ġcentral": 4147,
      "Ġsatis": 4148,
      "Ġcry": 4149,
      "Ġcounter": 4150,
      "ister": 4151,
      "Ġmid": 4152,
      "Ġmig": 4153,
      "Ġstaff": 4154,
      "ĠFr": 4155,
      "Ġteaching": 4156,
      "nderstanding": 4157,
      "Ġshell": 4158,
      "ĠProf": 4159,
      "Ġmotion": 4160,
      "ĠĠĠĠ": 4161,
      "uce": 4162,
      "odium": 4163,
      "undred": 4164,
      "azing": 4165,
      "Ġestablish": 4166,
      "gs": 4167,
      "oly": 4168,
      "vity": 4169,
      "Ġfight": 4170,
      "ĠTH": 4171,
      "raction": 4172,
      "Ġowners": 4173,
      "That": 4174,
      "icks": 4175,
      "Ġstick": 4176,
      "Ġrock": 4177,
      "anges": 4178,
      "Ġdiam": 4179,
      "ĠCalifornia": 4180,
      "uary": 4181,
      "Ġtax": 4182,
      "ilit": 4183,
      "âĢĻt": 4184,
      "Ġdrawing": 4185,
      "equ": 4186,
      "Ġspect": 4187,
      "Ġcompress": 4188,
      "Ġreference": 4189,
      "Ġclasses": 4190,
      "Ġfluid": 4191,
      "Ġappearance": 4192,
      "Ġelectricity": 4193,
      "Ġhabitat": 4194,
      "Ġencourage": 4195,
      "Ġlost": 4196,
      "ource": 4197,
      "Ġmaybe": 4198,
      "ĠTherefore": 4199,
      "Ġregarding": 4200,
      "Ġvaluable": 4201,
      "Ġsold": 4202,
      "Ġple": 4203,
      "Ġfigure": 4204,
      "Ġlov": 4205,
      "Ġfilter": 4206,
      "Ġchallenge": 4207,
      "Ġwildlife": 4208,
      "house": 4209,
      "pre": 4210,
      "Ġshot": 4211,
      "ĠDon": 4212,
      "Ġtransl": 4213,
      "ĠTw": 4214,
      "Ġconc": 4215,
      "Ġconsult": 4216,
      "Ġflood": 4217,
      "Ġmembran": 4218,
      "-free": 4219,
      "Ġdangerous": 4220,
      "Ġbodies": 4221,
      "Ġdie": 4222,
      "Ġstar": 4223,
      "Ġrub": 4224,
      "Ġworked": 4225,
      "Ġshel": 4226,
      "Ġelev": 4227,
      "Ġvehicles": 4228,
      "Ġwonder": 4229,
      "Ġpush": 4230,
      "Ġhomes": 4231,
      "Ġexhib": 4232,
      "Ġcommand": 4233,
      "Ġactual": 4234,
      "Ġhealthcare": 4235,
      "Ġdistinct": 4236,
      "Ġdefined": 4237,
      "Ġinterested": 4238,
      "Ġast": 4239,
      "ĠDog": 4240,
      "Ġcomplic": 4241,
      "orders": 4242,
      "Ġsmell": 4243,
      "Ġnoise": 4244,
      "vention": 4245,
      "Ġmember": 4246,
      "Ġswim": 4247,
      "Ġpromote": 4248,
      "Ġlabor": 4249,
      "Ġsuggests": 4250,
      "Ġinternational": 4251,
      "Ġfemale": 4252,
      "34": 4253,
      "ications": 4254,
      "Ġdoor": 4255,
      "Ġenter": 4256,
      "-like": 4257,
      "ok": 4258,
      "Ġtiny": 4259,
      "ĠPart": 4260,
      "Ġtrust": 4261,
      "Ġraw": 4262,
      "Ġdiscover": 4263,
      "Ġpopulations": 4264,
      "Ġbiological": 4265,
      "works": 4266,
      "Ġmale": 4267,
      "Ġnational": 4268,
      "Ġhaz": 4269,
      "Ġchain": 4270,
      "asting": 4271,
      "...Ċ": 4272,
      "Ġbrand": 4273,
      "chen": 4274,
      "Ġod": 4275,
      "Ġmel": 4276,
      "Ġlots": 4277,
      "ĠSince": 4278,
      "ĠEd": 4279,
      "Ġgoals": 4280,
      "Ġexpand": 4281,
      "Ġnearly": 4282,
      "Ġconcerns": 4283,
      "Ġcele": 4284,
      "Ġdouble": 4285,
      "Ġnavig": 4286,
      "Ph": 4287,
      "Ġdepends": 4288,
      "Ġadvice": 4289,
      "Ġaccurate": 4290,
      "65": 4291,
      "iol": 4292,
      "oul": 4293,
      "aser": 4294,
      "uth": 4295,
      "olute": 4296,
      "Ġconcrete": 4297,
      "ĠLife": 4298,
      "Ġidentified": 4299,
      "Ġbasis": 4300,
      "Ġmiles": 4301,
      "Ġsequence": 4302,
      "tes": 4303,
      "Ġpets": 4304,
      "ĠGra": 4305,
      "Ġapprec": 4306,
      "Ġformed": 4307,
      "Ġsecure": 4308,
      "Ġparam": 4309,
      "Ġfeeding": 4310,
      "Ġinitial": 4311,
      "Ġpollution": 4312,
      "Ġestablished": 4313,
      "ĠUsing": 4314,
      "Ġimmediately": 4315,
      "Ġapart": 4316,
      "icip": 4317,
      "Ġheld": 4318,
      "Ġspl": 4319,
      "place": 4320,
      "Ġcustomers": 4321,
      "Here": 4322,
      "Res": 4323,
      "can": 4324,
      "Ġsort": 4325,
      "ica": 4326,
      "ste": 4327,
      "Ġcars": 4328,
      "Ġnumerous": 4329,
      "ĠIndia": 4330,
      "Ġmaintaining": 4331,
      "Ġreceived": 4332,
      "ĠAfrica": 4333,
      "Ġ?": 4334,
      "Ġwave": 4335,
      "Ġselection": 4336,
      "ĠFood": 4337,
      "inder": 4338,
      "Ġunits": 4339,
      "Ġgeneration": 4340,
      "Ġmuscles": 4341,
      "ĠDepartment": 4342,
      "AD": 4343,
      "All": 4344,
      "ny": 4345,
      "Ġcore": 4346,
      "ĠpH": 4347,
      "Ġfill": 4348,
      "Ġfoss": 4349,
      "Ġded": 4350,
      "Ġhundred": 4351,
      "Ġnit": 4352,
      "cell": 4353,
      "unte": 4354,
      "Ġsche": 4355,
      "Ġspecifically": 4356,
      "Ġconsistent": 4357,
      "Ġantibiot": 4358,
      "Ġinstructions": 4359,
      "Ġfashion": 4360,
      "Ġcomprehensive": 4361,
      "ressive": 4362,
      "Ġtrig": 4363,
      "Ġveter": 4364,
      "ĠEnvironment": 4365,
      "Ġbeginning": 4366,
      "-qu": 4367,
      "Ġstone": 4368,
      "osa": 4369,
      "Ġpattern": 4370,
      "Ġregularly": 4371,
      "Ġsell": 4372,
      "Ġthor": 4373,
      "celer": 4374,
      "ĠSk": 4375,
      "Ġheard": 4376,
      "ĠPar": 4377,
      "ĠEvery": 4378,
      "Ġstarts": 4379,
      "Ġamounts": 4380,
      "After": 4381,
      "bed": 4382,
      "ta": 4383,
      "Ġmixture": 4384,
      "Ġhorm": 4385,
      "phas": 4386,
      "Ġsimpl": 4387,
      "ĠEurope": 4388,
      "nthesis": 4389,
      "Ġatmosphere": 4390,
      "riendly": 4391,
      ".e": 4392,
      "AM": 4393,
      "Ġtour": 4394,
      "Ġlung": 4395,
      "orses": 4396,
      "vironments": 4397,
      "Ġlighting": 4398,
      "Ġdrink": 4399,
      "Ġcreative": 4400,
      "Ġoperation": 4401,
      "bl": 4402,
      "pris": 4403,
      "Ġpal": 4404,
      "eties": 4405,
      "Ġstru": 4406,
      "ĠWar": 4407,
      "ĠDuring": 4408,
      "ĠHy": 4409,
      "Ġbright": 4410,
      "Ġcustomer": 4411,
      "Ġcharacteristics": 4412,
      "Ġwalls": 4413,
      "-being": 4414,
      "-le": 4415,
      "Our": 4416,
      "bal": 4417,
      "Ġax": 4418,
      "Ġconsequ": 4419,
      "ĠCount": 4420,
      "oughly": 4421,
      "Ġleaders": 4422,
      "ĠTrans": 4423,
      "ĠCom": 4424,
      "umn": 4425,
      "ĠMicro": 4426,
      "Ġplayer": 4427,
      "ashing": 4428,
      "ĠInstitute": 4429,
      "Ġoptimal": 4430,
      "Ġ:": 4431,
      "uting": 4432,
      "ĠMon": 4433,
      "ĠYork": 4434,
      "ĠAdd": 4435,
      "Ġpractical": 4436,
      "ĠAustralia": 4437,
      "Ġtissue": 4438,
      "xiety": 4439,
      "hop": 4440,
      "lines": 4441,
      "oom": 4442,
      "Ġ*": 4443,
      "Ġfung": 4444,
      "Ġplayers": 4445,
      "Ġorganization": 4446,
      "Ġfiles": 4447,
      "Ġsubstances": 4448,
      "zen": 4449,
      "erals": 4450,
      "Ġfol": 4451,
      "Ġfields": 4452,
      "Ġhour": 4453,
      "uration": 4454,
      "oday": 4455,
      "Ġenvironments": 4456,
      "Ġcontrast": 4457,
      "apan": 4458,
      "Ġscen": 4459,
      "Ġorganisms": 4460,
      "Ġclothing": 4461,
      "?\"": 4462,
      "ipped": 4463,
      "mm": 4464,
      "imal": 4465,
      "Ġstored": 4466,
      "Ġuns": 4467,
      "ĠJan": 4468,
      "Ġearlier": 4469,
      "ranch": 4470,
      "Ġturned": 4471,
      "Ġcouple": 4472,
      "Ġsect": 4473,
      "Ġmist": 4474,
      "ĠMich": 4475,
      "ivil": 4476,
      "Ġmarine": 4477,
      "Ġinternet": 4478,
      "Ġeventually": 4479,
      "minist": 4480,
      "wide": 4481,
      "Ġcovered": 4482,
      "Ġnice": 4483,
      "Ġclim": 4484,
      "Ġdish": 4485,
      "Ġpotentially": 4486,
      "Ġinvolve": 4487,
      "Ġiniti": 4488,
      "-r": 4489,
      ".)": 4490,
      "IT": 4491,
      "iet": 4492,
      "ĠÎ": 4493,
      "Ġaid": 4494,
      "Ġplease": 4495,
      "ĠPark": 4496,
      "ĠHar": 4497,
      "Ġfindings": 4498,
      "ifying": 4499,
      "Ġconstruct": 4500,
      "Ġremoved": 4501,
      "Ġteacher": 4502,
      "aturally": 4503,
      "Ġdiversity": 4504,
      "Us": 4505,
      "cious": 4506,
      "ey": 4507,
      "ss": 4508,
      "Ġcert": 4509,
      "Ġdress": 4510,
      "icious": 4511,
      "rote": 4512,
      "Ġspend": 4513,
      "Ġbeneficial": 4514,
      "Ġplanet": 4515,
      "Ġindicate": 4516,
      "ĠPhot": 4517,
      "tr": 4518,
      "Ġgerm": 4519,
      "ĠAv": 4520,
      "ĠWill": 4521,
      "Ġemp": 4522,
      "Ġtypical": 4523,
      "Ġphase": 4524,
      "Ġlights": 4525,
      "Ġimproved": 4526,
      "Ġsurvive": 4527,
      "respond": 4528,
      "Ġpupp": 4529,
      "Ġfilled": 4530,
      "ĠII": 4531,
      "ĠSol": 4532,
      "Ġchocolate": 4533,
      "redit": 4534,
      "Ġeducational": 4535,
      "Ġprofessionals": 4536,
      "body": 4537,
      "Ġphen": 4538,
      "Ġtold": 4539,
      "Ġstom": 4540,
      "aming": 4541,
      "ĠCle": 4542,
      "Ġexternal": 4543,
      "Ġscr": 4544,
      "Ġdesired": 4545,
      "Ġactions": 4546,
      "ublic": 4547,
      "Ġemphas": 4548,
      "Ġinsul": 4549,
      "which": 4550,
      "Ġindustrial": 4551,
      "Ġinflamm": 4552,
      "Ġtit": 4553,
      "org": 4554,
      "Ġstories": 4555,
      "ulf": 4556,
      "Ġlayers": 4557,
      "ospital": 4558,
      "-S": 4559,
      "ĠIP": 4560,
      "opl": 4561,
      "ĠChild": 4562,
      "Ġextract": 4563,
      "Ġlaws": 4564,
      "Ġwaves": 4565,
      "ĠPres": 4566,
      "ffee": 4567,
      "Ġblade": 4568,
      "ought": 4569,
      "Ġartificial": 4570,
      "Ġlabel": 4571,
      "Ġstrategy": 4572,
      "Ġeconomic": 4573,
      "CE": 4574,
      "CO": 4575,
      "feed": 4576,
      "ĠSur": 4577,
      "Ġexec": 4578,
      "Ġheating": 4579,
      "ĠGerm": 4580,
      "ĠGreen": 4581,
      "Ġteach": 4582,
      "Ġexposed": 4583,
      "ucose": 4584,
      "ĠSpec": 4585,
      "Ġtopic": 4586,
      "Ġflower": 4587,
      "Ġresource": 4588,
      "Ġbreath": 4589,
      "ĠOctober": 4590,
      "iant": 4591,
      "Ġtalking": 4592,
      "alle": 4593,
      "ĠFurther": 4594,
      "rupt": 4595,
      "Ġpartners": 4596,
      "formation": 4597,
      "Ġdescribe": 4598,
      "Ġdistribution": 4599,
      "No": 4600,
      "inated": 4601,
      "Ġpounds": 4602,
      "Ġcompost": 4603,
      "Ġcolour": 4604,
      "Ġfollowed": 4605,
      "Ġfrequently": 4606,
      "Ġexperienced": 4607,
      "Ġharmful": 4608,
      "istor": 4609,
      "ĠRiver": 4610,
      "Ġacqu": 4611,
      "Ġcatch": 4612,
      "-sh": 4613,
      "Ġseconds": 4614,
      "ĠClass": 4615,
      "Ġlibrary": 4616,
      "Ġbillion": 4617,
      "Ġmold": 4618,
      "Ġdro": 4619,
      "uman": 4620,
      "Ġshad": 4621,
      "Ġplanting": 4622,
      "ugust": 4623,
      "Ġwidely": 4624,
      "Ġdetailed": 4625,
      "Ġroutine": 4626,
      "Ġvacc": 4627,
      "-M": 4628,
      "iced": 4629,
      "ĠFound": 4630,
      "Ġmostly": 4631,
      "Ġassign": 4632,
      "Ġedge": 4633,
      "Ġensures": 4634,
      "Ġoccas": 4635,
      "Ġlegal": 4636,
      "Ġdegree": 4637,
      "Ġparticipants": 4638,
      "Ġharvest": 4639,
      "Ġign": 4640,
      "Ġfold": 4641,
      "Ġgir": 4642,
      "elp": 4643,
      "ama": 4644,
      "Ġvent": 4645,
      "Ġmag": 4646,
      "Ġfloor": 4647,
      "ĠKeep": 4648,
      "Ġobvious": 4649,
      "Ġadvance": 4650,
      "Ġinfluen": 4651,
      "Ġfruits": 4652,
      "Ġlatest": 4653,
      "ndom": 4654,
      "Ġband": 4655,
      "acking": 4656,
      "osite": 4657,
      "Ġkept": 4658,
      "rench": 4659,
      "Ġaircraft": 4660,
      "Ġcarefully": 4661,
      "Ġplaying": 4662,
      "roduct": 4663,
      "pril": 4664,
      "Ġfavorite": 4665,
      "38": 4666,
      "AP": 4667,
      "Ġbot": 4668,
      "Ġoffice": 4669,
      "Ġrelax": 4670,
      "Ġreliable": 4671,
      "Ġgenerate": 4672,
      "Ġleads": 4673,
      "Ġequal": 4674,
      "iction": 4675,
      "Ġinteractions": 4676,
      "Ġchallenging": 4677,
      "Ġmonitor": 4678,
      "lements": 4679,
      "ventional": 4680,
      "ĠProgram": 4681,
      "Ġtopics": 4682,
      "Ġbrush": 4683,
      "ĠPeople": 4684,
      "Ġpric": 4685,
      "Ġbone": 4686,
      "Ġdura": 4687,
      "eters": 4688,
      "raw": 4689,
      "atever": 4690,
      "ocking": 4691,
      "asts": 4692,
      "Ġmeal": 4693,
      "Ġinstit": 4694,
      "hemat": 4695,
      "Ġsurrounding": 4696,
      ".)Ċ": 4697,
      "ded": 4698,
      "ipping": 4699,
      "Ġpair": 4700,
      "Ġbrought": 4701,
      "ums": 4702,
      "ĠWell": 4703,
      "Ġreactions": 4704,
      "Ġreleased": 4705,
      "hemical": 4706,
      "Another": 4707,
      "Ġregulations": 4708,
      "Ġvitamin": 4709,
      "Ġrecycling": 4710,
      "tion": 4711,
      "Ġtut": 4712,
      "Ġsong": 4713,
      "ĠSte": 4714,
      "dule": 4715,
      "Ġcorrespond": 4716,
      "Ġcombined": 4717,
      "Ġfarmers": 4718,
      "Ġurban": 4719,
      "Ġmonitoring": 4720,
      "Are": 4721,
      "ception": 4722,
      "Ġflav": 4723,
      "Ġsurvey": 4724,
      "Ġdigest": 4725,
      "Ġhunting": 4726,
      "Ġemotional": 4727,
      "Ġagriculture": 4728,
      "Ġestimated": 4729,
      "-quality": 4730,
      "Bl": 4731,
      "Int": 4732,
      "mar": 4733,
      "ìĿ": 4734,
      "Ġhous": 4735,
      "oding": 4736,
      "que": 4737,
      "active": 4738,
      "ĠNet": 4739,
      "ologists": 4740,
      "Ġreduction": 4741,
      "Ġintroduced": 4742,
      "Ġfundam": 4743,
      "Ġwait": 4744,
      "Ġperspective": 4745,
      "bre": 4746,
      "iers": 4747,
      "Ġsociety": 4748,
      "Ġfo": 4749,
      "ads": 4750,
      "ĠHis": 4751,
      "Ġdioxide": 4752,
      "Ġassum": 4753,
      "Ġpotat": 4754,
      "-sp": 4755,
      "-friendly": 4756,
      "Ġrestaur": 4757,
      "Ġdetermined": 4758,
      "Ġsquare": 4759,
      "/or": 4760,
      "]ĊĊ": 4761,
      "che": 4762,
      "my": 4763,
      "olf": 4764,
      "Ġassemb": 4765,
      "Ġvibr": 4766,
      "ĠInter": 4767,
      "Ġamazing": 4768,
      "force": 4769,
      "Ġapproximately": 4770,
      "55": 4771,
      "nes": 4772,
      "ishes": 4773,
      "Ġhon": 4774,
      "antic": 4775,
      "Ġchann": 4776,
      "Ġplays": 4777,
      "Ġshowing": 4778,
      "Ġprimarily": 4779,
      "Ġoutdoor": 4780,
      "RO": 4781,
      "cop": 4782,
      "comes": 4783,
      "rors": 4784,
      "Ġcand": 4785,
      "Ġbaking": 4786,
      "Ġmit": 4787,
      "Ġreality": 4788,
      "idity": 4789,
      "Ġshared": 4790,
      "akers": 4791,
      "Ġhelpful": 4792,
      "Ġoffering": 4793,
      "Ġinfections": 4794,
      "clus": 4795,
      "Ġrights": 4796,
      "Ġinjury": 4797,
      "encies": 4798,
      "My": 4799,
      "Ġpa": 4800,
      "Ġmamm": 4801,
      "Ġkil": 4802,
      "itely": 4803,
      "ologist": 4804,
      "Ġexperts": 4805,
      "Ġformation": 4806,
      "Ġpainting": 4807,
      "ĠPlant": 4808,
      "Ġcultural": 4809,
      "ĠBritish": 4810,
      "-re": 4811,
      "ares": 4812,
      "ek": 4813,
      "iday": 4814,
      "idth": 4815,
      "ĠSch": 4816,
      "Ġacceler": 4817,
      "Ġtrial": 4818,
      "Ġrandom": 4819,
      "Ġprivate": 4820,
      "Ġbatteries": 4821,
      "Ġabsolute": 4822,
      "Ġangle": 4823,
      "ĠAssoci": 4824,
      "Ġshapes": 4825,
      "Ġstomach": 4826,
      "-related": 4827,
      "Ab": 4828,
      "En": 4829,
      "Ġhorses": 4830,
      "Ġincred": 4831,
      "Ġclick": 4832,
      "Ġscan": 4833,
      "Ġsurfaces": 4834,
      "Ġtransmission": 4835,
      "Ġgrad": 4836,
      "-time": 4837,
      "Ġchoices": 4838,
      "ĠEnergy": 4839,
      "Ġaudio": 4840,
      "Ġstrugg": 4841,
      "-se": 4842,
      "zer": 4843,
      "iration": 4844,
      "Ġdecisions": 4845,
      "ĠAny": 4846,
      "iveness": 4847,
      "Ġpreviously": 4848,
      "Ġrobot": 4849,
      "Ġkitchen": 4850,
      "ĠJohn": 4851,
      "Ġprinciples": 4852,
      "ĠEducation": 4853,
      "flow": 4854,
      "rass": 4855,
      "uk": 4856,
      "Ġnamed": 4857,
      "Ġnaturally": 4858,
      "Ġweak": 4859,
      "Ġsituations": 4860,
      "________": 4861,
      "-on": 4862,
      "52": 4863,
      "eah": 4864,
      "lim": 4865,
      "Ġten": 4866,
      "Ġtub": 4867,
      "aled": 4868,
      "Ġtoward": 4869,
      "ida": 4870,
      "izer": 4871,
      "ĠLab": 4872,
      "ĠJu": 4873,
      "Ġtransc": 4874,
      "Ġshowed": 4875,
      "Ġbusinesses": 4876,
      "Ġmajority": 4877,
      "Ġopin": 4878,
      "Ġthousands": 4879,
      "CT": 4880,
      "hab": 4881,
      "with": 4882,
      "Ġbath": 4883,
      "uls": 4884,
      "Ġalign": 4885,
      "uments": 4886,
      "ĠPol": 4887,
      "Ġrule": 4888,
      "Ġwasn": 4889,
      "ĠChina": 4890,
      "US": 4891,
      "box": 4892,
      "ees": 4893,
      "alse": 4894,
      "Ġstem": 4895,
      "Ġord": 4896,
      "that": 4897,
      "Ġvess": 4898,
      "ĠBet": 4899,
      "orthern": 4900,
      "Ġupper": 4901,
      "ĠGet": 4902,
      "irect": 4903,
      "Ġcarried": 4904,
      "Ġclassroom": 4905,
      "Ġafford": 4906,
      "Ġboat": 4907,
      "Ġversat": 4908,
      "Ġappears": 4909,
      "Ġhydro": 4910,
      "Ġrelationships": 4911,
      "ĠGoogle": 4912,
      "42": 4913,
      "RI": 4914,
      "ios": 4915,
      "ĠMarch": 4916,
      "Ġallerg": 4917,
      "ĠOut": 4918,
      "Ġperformed": 4919,
      "Ġperiods": 4920,
      "Ġpictures": 4921,
      "ĠProfess": 4922,
      "41": 4923,
      "cers": 4924,
      "reet": 4925,
      "ingly": 4926,
      "ĠDet": 4927,
      "ĠElect": 4928,
      "orms": 4929,
      "Ġradio": 4930,
      "Ġreferred": 4931,
      "-C": 4932,
      "iled": 4933,
      "oma": 4934,
      "Ġforces": 4935,
      "Ġdesigns": 4936,
      "Ġtexture": 4937,
      "Ġcertainly": 4938,
      "ĠCanada": 4939,
      "Ġrelevant": 4940,
      "Ġconnections": 4941,
      "Ġpregnancy": 4942,
      "48": 4943,
      "ND": 4944,
      "Ġbio": 4945,
      "Ġmath": 4946,
      "ĠTake": 4947,
      "urance": 4948,
      "Ġalt": 4949,
      "Ġleaving": 4950,
      "rief": 4951,
      "Ġcomposition": 4952,
      "Ġsets": 4953,
      "espite": 4954,
      "ĠPlan": 4955,
      "Ġminimum": 4956,
      "Ġsamples": 4957,
      "Ġguidelines": 4958,
      "Ġdynamic": 4959,
      "EM": 4960,
      "what": 4961,
      "Ġfas": 4962,
      "Ġmaster": 4963,
      "Ġstock": 4964,
      "Ġenab": 4965,
      "Ġflo": 4966,
      "Ġwouldn": 4967,
      "Ġminerals": 4968,
      "Ġpreserv": 4969,
      "Ġdeliver": 4970,
      "Ġmedicine": 4971,
      "37": 4972,
      "Ġesc": 4973,
      "erate": 4974,
      "Ġfrag": 4975,
      "ĠSaf": 4976,
      "unity": 4977,
      "Ġshall": 4978,
      "ormal": 4979,
      "Ġseek": 4980,
      "Ġorganizations": 4981,
      "Ġrepresents": 4982,
      "ĠEuropean": 4983,
      "Ġawareness": 4984,
      "Over": 4985,
      "bles": 4986,
      "Ġmobile": 4987,
      "Ġeight": 4988,
      "Ġisol": 4989,
      "iding": 4990,
      "ĠWhether": 4991,
      "Ġtransition": 4992,
      "fortun": 4993,
      "Ġtruly": 4994,
      "Ġmorning": 4995,
      "Ġconven": 4996,
      "ache": 4997,
      "Ġenable": 4998,
      "Ġplans": 4999,
      "Ġcoffee": 5000,
      "Ġsupplement": 5001,
      "ĠChar": 5002,
      "ework": 5003,
      "Ġadvantages": 5004,
      "Ġmessage": 5005,
      "Ġpurchase": 5006,
      "Ġintelligence": 5007,
      "ii": 5008,
      "med": 5009,
      "itary": 5010,
      "Ġpin": 5011,
      "organ": 5012,
      "Ġfer": 5013,
      "ĠApril": 5014,
      "Ġchrom": 5015,
      "Ġsignals": 5016,
      "ructure": 5017,
      "Ġaffects": 5018,
      "Ġsurvival": 5019,
      "Ġconcentration": 5020,
      "wood": 5021,
      "alks": 5022,
      "Ġinject": 5023,
      "Ġinner": 5024,
      "ĠJune": 5025,
      "Ġbuildings": 5026,
      "Ġsaying": 5027,
      "Ġexperiments": 5028,
      "Ġillness": 5029,
      "Ġprepared": 5030,
      "Ġbeauty": 5031,
      "Ġtoxic": 5032,
      "Ġvoice": 5033,
      "Many": 5034,
      "Your": 5035,
      "Ġâ": 5036,
      "Ġsem": 5037,
      "Ġban": 5038,
      "Ġbike": 5039,
      "Ġborn": 5040,
      "roid": 5041,
      "oster": 5042,
      "Ġcolon": 5043,
      "Ġproduces": 5044,
      "Ġsurpris": 5045,
      "Ġmachines": 5046,
      "Ġmicrob": 5047,
      "known": 5048,
      "kin": 5049,
      "Ġplate": 5050,
      "ĠLike": 5051,
      "Ġsyn": 5052,
      "weight": 5053,
      "ky": 5054,
      "mary": 5055,
      "Ġtun": 5056,
      "Ġsick": 5057,
      "anol": 5058,
      "Ġrein": 5059,
      "Ġyield": 5060,
      "Ġanxiety": 5061,
      "Ġcream": 5062,
      "Ġextensive": 5063,
      "Ġmovements": 5064,
      "Ġoperations": 5065,
      "ĠSept": 5066,
      "ĠAfrican": 5067,
      "Ġdestro": 5068,
      "Ġprocedure": 5069,
      "Ġrenewable": 5070,
      "Yes": 5071,
      "gra": 5072,
      "uper": 5073,
      "Ġotherwise": 5074,
      "Ġseeing": 5075,
      "Ġcontinues": 5076,
      "Ġkinds": 5077,
      "Ġmixed": 5078,
      "ING": 5079,
      "ĠStudents": 5080,
      "ĠInternational": 5081,
      "Pre": 5082,
      "Ġ**": 5083,
      "Ġcup": 5084,
      "Ġrev": 5085,
      "ĠBo": 5086,
      "Ġgenerated": 5087,
      "Ġcapabilities": 5088,
      "Ġsunlight": 5089,
      "Ġemotions": 5090,
      "Ġmembrane": 5091,
      "Ġmild": 5092,
      "ĠCor": 5093,
      "ĠWind": 5094,
      "Ġplenty": 5095,
      "Ġmanual": 5096,
      "....": 5097,
      "Ġowner": 5098,
      "Ġtreatments": 5099,
      "ĠThrough": 5100,
      "Ġlegs": 5101,
      "Ġnormally": 5102,
      "Ġfamiliar": 5103,
      "Ġdecrease": 5104,
      "Ġclinical": 5105,
      "Ġratio": 5106,
      "39": 5107,
      "CS": 5108,
      "chers": 5109,
      "iance": 5110,
      "zym": 5111,
      "Ġfear": 5112,
      "ĠCity": 5113,
      "ighter": 5114,
      "ĠHer": 5115,
      "ĠKing": 5116,
      "Ġsolve": 5117,
      "Ġinsights": 5118,
      "Ġimproving": 5119,
      "Ġpresented": 5120,
      "Ġcorrectly": 5121,
      "Ġaw": 5122,
      "Ġpark": 5123,
      "imens": 5124,
      "eline": 5125,
      "ĠPot": 5126,
      "Ġuniverse": 5127,
      "Ġcorn": 5128,
      "Ġimpacts": 5129,
      "Ġfailure": 5130,
      "95": 5131,
      "ked": 5132,
      "ye": 5133,
      "ĠCur": 5134,
      "Ġvs": 5135,
      "ĠOpen": 5136,
      "ĠVol": 5137,
      "oyal": 5138,
      "Ġgrade": 5139,
      "exp": 5140,
      "Ġengineering": 5141,
      "Ġsnail": 5142,
      "Ġcooling": 5143,
      "idden": 5144,
      "Ġinstallation": 5145,
      "Ġprepare": 5146,
      "going": 5147,
      "Most": 5148,
      "cher": 5149,
      "eper": 5150,
      "rest": 5151,
      "eras": 5152,
      "Ġwoman": 5153,
      "Ġpig": 5154,
      "Ġdental": 5155,
      "Ġnerv": 5156,
      "Ġstret": 5157,
      "ĠCare": 5158,
      "Ġspots": 5159,
      "erent": 5160,
      "Ġprepar": 5161,
      "Ġproducing": 5162,
      "Ġdesp": 5163,
      "Ġaccum": 5164,
      "Ġgrown": 5165,
      "Ġcreation": 5166,
      "ĠWeb": 5167,
      "Ġwindows": 5168,
      "Ġpests": 5169,
      "ĠAbout": 5170,
      "-year": 5171,
      "Cons": 5172,
      "ias": 5173,
      "och": 5174,
      "istory": 5175,
      "ĠBra": 5176,
      "Ġoutcomes": 5177,
      "Ġrow": 5178,
      "Ġconsists": 5179,
      "Ġcoord": 5180,
      "Ġprinting": 5181,
      "iences": 5182,
      "Ġpolit": 5183,
      "Ġpreventing": 5184,
      "Ġphotograph": 5185,
      "Ġsensor": 5186,
      "Ġconducted": 5187,
      "Ġinnovative": 5188,
      "Ġsusp": 5189,
      "Ġcloser": 5190,
      "Let": 5191,
      "Ġath": 5192,
      "onge": 5193,
      "Ġbat": 5194,
      "Ġmal": 5195,
      "Ġgear": 5196,
      "ĠIns": 5197,
      "ĠSupp": 5198,
      "Ġwhose": 5199,
      "Ġmap": 5200,
      "Ġdecided": 5201,
      "gery": 5202,
      "Ġconsidering": 5203,
      "Ġfiber": 5204,
      "uminum": 5205,
      "Ġbleeding": 5206,
      "down": 5207,
      "ued": 5208,
      "Ġliver": 5209,
      "igen": 5210,
      "ĠSan": 5211,
      "Ġconclusion": 5212,
      "Ġring": 5213,
      "ivest": 5214,
      "Ġabund": 5215,
      "outhern": 5216,
      "Ġperhaps": 5217,
      "rowing": 5218,
      "Ġglucose": 5219,
      "Ġcycl": 5220,
      "Ġworkshe": 5221,
      "Ġfacilit": 5222,
      "Ġcraft": 5223,
      "ĠBlack": 5224,
      "Ġprecise": 5225,
      "men": 5226,
      "Ġnan": 5227,
      "Ġnames": 5228,
      "ĠMus": 5229,
      "Ġshark": 5230,
      "Ġcompound": 5231,
      "Ġrelative": 5232,
      "Ġradiation": 5233,
      "porary": 5234,
      "ĠDevelop": 5235,
      "Ġconcern": 5236,
      "Although": 5237,
      "Ġassessment": 5238,
      "85": 5239,
      "According": 5240,
      "see": 5241,
      "Ġconvert": 5242,
      "ĠMark": 5243,
      "ager": 5244,
      "ovember": 5245,
      "Ġgenome": 5246,
      "Ġlooked": 5247,
      "Ġinvestment": 5248,
      "Ġpurposes": 5249,
      "Ġconcepts": 5250,
      "):": 5251,
      "VID": 5252,
      "ait": 5253,
      "Ġsides": 5254,
      "Ġmac": 5255,
      "Ġconventional": 5256,
      "Ġchronic": 5257,
      "ĠDoes": 5258,
      "rie": 5259,
      "ĠâĢĺ": 5260,
      "Ġputting": 5261,
      "Ġcapable": 5262,
      "Ġturning": 5263,
      "Ġwarming": 5264,
      "Ġcontrolled": 5265,
      "hors": 5266,
      "la": 5267,
      "Ġfle": 5268,
      "Ġfurn": 5269,
      "change": 5270,
      "ĠBoth": 5271,
      "Ġjump": 5272,
      "Ġreports": 5273,
      "Ġvariable": 5274,
      "Ġreduces": 5275,
      "Ġcomputers": 5276,
      "Ġmeasured": 5277,
      "Ġhousehold": 5278,
      "Ġmanufacturing": 5279,
      "Ġexcessive": 5280,
      "89": 5281,
      "96": 5282,
      "Comp": 5283,
      "lies": 5284,
      "rations": 5285,
      "Ġcoc": 5286,
      "Ġcris": 5287,
      "asive": 5288,
      "Ġnest": 5289,
      "irds": 5290,
      "Ġspent": 5291,
      "Ġspray": 5292,
      "Ġunless": 5293,
      "ientists": 5294,
      "ĠSpan": 5295,
      "Ġphoto": 5296,
      "Ġparas": 5297,
      "Ġrecorded": 5298,
      "Ġpackaging": 5299,
      "CAA": 5300,
      "Ġwaters": 5301,
      "Ġschedule": 5302,
      "ivestock": 5303,
      "een": 5304,
      "Ġtap": 5305,
      "icide": 5306,
      "eless": 5307,
      "ĠCat": 5308,
      "Ġwearing": 5309,
      "Ġspaces": 5310,
      "Ġunivers": 5311,
      "Ġpool": 5312,
      "Ġlesson": 5313,
      "Ġcontaining": 5314,
      "Ġteams": 5315,
      "LL": 5316,
      "gy": 5317,
      "itting": 5318,
      "ometimes": 5319,
      "Ġtea": 5320,
      "Ġnovel": 5321,
      "Ġequation": 5322,
      "Ġmulti": 5323,
      "Ġinstalled": 5324,
      "Ġdatab": 5325,
      "Ġvirtual": 5326,
      "cil": 5327,
      "cast": 5328,
      "Ġtag": 5329,
      "Ġtried": 5330,
      "Ġstring": 5331,
      "Ġintric": 5332,
      "ricks": 5333,
      "Ġrefers": 5334,
      "Ġremoving": 5335,
      "Ġemergency": 5336,
      "Ġcalcium": 5337,
      "Ġinflammation": 5338,
      "CH": 5339,
      "IM": 5340,
      "Ġvert": 5341,
      "Ġtip": 5342,
      "Ġtrip": 5343,
      "Ġap": 5344,
      "itor": 5345,
      "Ġfur": 5346,
      "arant": 5347,
      "ĠSy": 5348,
      "Ġseg": 5349,
      "ĠDesign": 5350,
      "obe": 5351,
      "Ġpassed": 5352,
      "Ġfilm": 5353,
      "Ġchoosing": 5354,
      "ĠIndian": 5355,
      "Ġcooked": 5356,
      "Ġcapture": 5357,
      "Ġsend": 5358,
      "Ġhop": 5359,
      "Ġstands": 5360,
      "ĠMac": 5361,
      "ĠDec": 5362,
      "ĠUp": 5363,
      "Ġtreated": 5364,
      "fortunately": 5365,
      "TS": 5366,
      "Ġsizes": 5367,
      "Ġpill": 5368,
      "Ġgave": 5369,
      "ĠSet": 5370,
      "ĠDiff": 5371,
      "ĠHave": 5372,
      "ĠRuss": 5373,
      "astics": 5374,
      "Ġacad": 5375,
      "Ġunc": 5376,
      "Ġdiss": 5377,
      "Ġtrained": 5378,
      "Ġpolicy": 5379,
      "Ġbegins": 5380,
      "Ġagricultural": 5381,
      "Ġpromoting": 5382,
      "Ġstimul": 5383,
      "!!": 5384,
      "More": 5385,
      "ev": 5386,
      "rant": 5387,
      "ingu": 5388,
      "Ġpup": 5389,
      "Ġfirm": 5390,
      "Ġfisher": 5391,
      "Ġthread": 5392,
      "ctic": 5393,
      "Ġusage": 5394,
      "Ġscore": 5395,
      "Ġcreates": 5396,
      "ĠExpl": 5397,
      "Ġmagnetic": 5398,
      "feeding": 5399,
      "Use": 5400,
      "aft": 5401,
      "gin": 5402,
      "Ġtube": 5403,
      "Ġtomat": 5404,
      "Ġforget": 5405,
      "Ġstable": 5406,
      "Ġshade": 5407,
      "ivation": 5408,
      "Ġadvent": 5409,
      "ensions": 5410,
      "Ġsensitive": 5411,
      "Ġinteraction": 5412,
      "Ġspirit": 5413,
      "Ġmm": 5414,
      "Ġnurs": 5415,
      "Ġgut": 5416,
      "Ġbear": 5417,
      "urch": 5418,
      "ifies": 5419,
      "estyle": 5420,
      "ophy": 5421,
      "ĠBro": 5422,
      "Ġbreeding": 5423,
      "Ġdownload": 5424,
      "Ġstatus": 5425,
      "Ġancient": 5426,
      "Ġfundamental": 5427,
      "Ġfascin": 5428,
      "44": 5429,
      "Se": 5430,
      "ugg": 5431,
      "Ġcivil": 5432,
      "Ġwest": 5433,
      "Ġlaser": 5434,
      "ompl": 5435,
      "ulum": 5436,
      "Ġsufficient": 5437,
      "ĠGreat": 5438,
      "Ġbutton": 5439,
      "Ġclothes": 5440,
      "Ġprem": 5441,
      "Ġtwice": 5442,
      "Ġinterp": 5443,
      "oys": 5444,
      "Ġsuccessfully": 5445,
      "Ġexception": 5446,
      "Ġsharks": 5447,
      "-D": 5448,
      "VCAA": 5449,
      "ira": 5450,
      "opping": 5451,
      "Ġblow": 5452,
      "Ġtoler": 5453,
      "ĠSA": 5454,
      "ardens": 5455,
      "onds": 5456,
      "Ġprotected": 5457,
      "ĠExper": 5458,
      "Ġfinish": 5459,
      "Ġzero": 5460,
      "Ġsuggested": 5461,
      "Ġreplaced": 5462,
      "brid": 5463,
      "Ġinnovation": 5464,
      "Ġindustries": 5465,
      "Ġstroke": 5466,
      "zymes": 5467,
      "Ġment": 5468,
      "Ġdivid": 5469,
      "lets": 5470,
      "Ġlact": 5471,
      "ĠAng": 5472,
      "Ġstability": 5473,
      "ĠWhere": 5474,
      "Ġarray": 5475,
      "ords": 5476,
      "Ġdiagram": 5477,
      "Ġattrib": 5478,
      "Ġslowly": 5479,
      "uracy": 5480,
      "Ġdefinitely": 5481,
      "NC": 5482,
      "Not": 5483,
      "gers": 5484,
      "Ġahead": 5485,
      "Ġsouth": 5486,
      "Ġwalking": 5487,
      "Ġwrote": 5488,
      "isation": 5489,
      "roc": 5490,
      "Ġhom": 5491,
      "cember": 5492,
      "Ġhabits": 5493,
      "Ġwhatever": 5494,
      "Ġviol": 5495,
      "Ġrice": 5496,
      "Ġshut": 5497,
      "Ġplug": 5498,
      "plant": 5499,
      "arsh": 5500,
      "Ġanswers": 5501,
      "Ġerror": 5502,
      "-n": 5503,
      "98": 5504,
      "].": 5505,
      "but": 5506,
      "cule": 5507,
      "rating": 5508,
      "Ġaer": 5509,
      "Ġburn": 5510,
      "otal": 5511,
      "nthetic": 5512,
      "Ġjud": 5513,
      "Ġmeant": 5514,
      "Ġcloud": 5515,
      "Ġraise": 5516,
      "ĠVal": 5517,
      "Ġdecor": 5518,
      "Ġmedication": 5519,
      "Ġworldwide": 5520,
      "Ġcommunicate": 5521,
      "Ġcontainer": 5522,
      "Ġdamaged": 5523,
      "Ġsubstance": 5524,
      "Ġannual": 5525,
      "Ġdrugs": 5526,
      "Ġduct": 5527,
      "62": 5528,
      "ĠMain": 5529,
      "ĠBre": 5530,
      "Ġrecovery": 5531,
      "Ġcollected": 5532,
      "Ġeconomy": 5533,
      "Ġlinked": 5534,
      "ĠFoundation": 5535,
      "Ġdespite": 5536,
      "-H": 5537,
      "61": 5538,
      "uzz": 5539,
      "inction": 5540,
      "Ġcul": 5541,
      "Ġcart": 5542,
      "Ġnorth": 5543,
      "Ġyouth": 5544,
      "Ġstones": 5545,
      "antly": 5546,
      "osen": 5547,
      "Ġneu": 5548,
      "Ġperman": 5549,
      "ypes": 5550,
      "Ġrace": 5551,
      "Ġelectron": 5552,
      "Ġcareer": 5553,
      "Ġbroken": 5554,
      "Ġpanel": 5555,
      "Ġselected": 5556,
      "Ġhistorical": 5557,
      "Figure": 5558,
      "Once": 5559,
      "rus": 5560,
      "well": 5561,
      "iter": 5562,
      "edia": 5563,
      "ico": 5564,
      "Ġlinks": 5565,
      "irts": 5566,
      "Ġchlor": 5567,
      "Ġworry": 5568,
      "Ġadequ": 5569,
      "ĠLong": 5570,
      "ibilities": 5571,
      "Ġamb": 5572,
      "Ġbelong": 5573,
      "Ġconfirm": 5574,
      "Ġopening": 5575,
      "Ġorigin": 5576,
      "Ġvideos": 5577,
      "Ġhappened": 5578,
      "Ġdefinition": 5579,
      "ĠJanuary": 5580,
      "Answer": 5581,
      "PS": 5582,
      "Ġpure": 5583,
      "Ġpages": 5584,
      "rot": 5585,
      "ĠAugust": 5586,
      "umber": 5587,
      "Ġtele": 5588,
      "Ġdecide": 5589,
      "Ġdecades": 5590,
      "Ġguess": 5591,
      "Ġfocused": 5592,
      "Ġparticipation": 5593,
      "Ġrecognition": 5594,
      "ĠWorks": 5595,
      "Ġarrange": 5596,
      "From": 5597,
      "ker": 5598,
      "mp": 5599,
      "Ġ>": 5600,
      "Ġca": 5601,
      "Ġfault": 5602,
      "ctors": 5603,
      "igan": 5604,
      "ĠOb": 5605,
      "Ġcalls": 5606,
      "Ġstudying": 5607,
      "Ġsupports": 5608,
      "Ġcreatures": 5609,
      "ĠAdv": 5610,
      "Ġnetworks": 5611,
      "Ġoxid": 5612,
      "Ġmolecular": 5613,
      "Ġsector": 5614,
      "oke": 5615,
      "west": 5616,
      "Ġdust": 5617,
      "Ġhoney": 5618,
      "ĠPhys": 5619,
      "ifications": 5620,
      "Ġmainly": 5621,
      "Ġtechnical": 5622,
      "Ġkeeps": 5623,
      "enger": 5624,
      "Ġboost": 5625,
      "bohyd": 5626,
      "ĠOrgan": 5627,
      "Ġmathemat": 5628,
      "Ġremaining": 5629,
      "46": 5630,
      "Reg": 5631,
      "iology": 5632,
      "mark": 5633,
      "net": 5634,
      "Ġtum": 5635,
      "ona": 5636,
      "orous": 5637,
      "Ġdip": 5638,
      "olor": 5639,
      "Ġcomment": 5640,
      "ĠWild": 5641,
      "Ġriver": 5642,
      "ĠFlor": 5643,
      "Ġmeals": 5644,
      "Ġtraffic": 5645,
      "ĠJapan": 5646,
      "Ġmineral": 5647,
      "Ġexploring": 5648,
      "Ġsignificance": 5649,
      "Ġefficiently": 5650,
      "Ġindependent": 5651,
      "Ġcomparison": 5652,
      "yth": 5653,
      "eries": 5654,
      "Ġcab": 5655,
      "Ġden": 5656,
      "Ġlic": 5657,
      "oles": 5658,
      "Ġorgans": 5659,
      "Ġexcept": 5660,
      "Ġneck": 5661,
      "Ġseven": 5662,
      "Ġincl": 5663,
      "Ġofficial": 5664,
      "Ġinterface": 5665,
      "Ġvarieties": 5666,
      "Ġinformed": 5667,
      "ĠProt": 5668,
      "Ġdefic": 5669,
      "hips": 5670,
      "otton": 5671,
      "Ġclosely": 5672,
      "ĠAgricult": 5673,
      "Conclusion": 5674,
      "ĠCounty": 5675,
      "Ġscenari": 5676,
      "Ġphenomen": 5677,
      "Ġsnailfish": 5678,
      "uel": 5679,
      "vision": 5680,
      "´ë": 5681,
      "Ġpil": 5682,
      "anation": 5683,
      "Ġdensity": 5684,
      "Ġbeans": 5685,
      "unning": 5686,
      "ĠPacific": 5687,
      "Ġkg": 5688,
      "Ġreserv": 5689,
      "Ġcoat": 5690,
      "Ġskill": 5691,
      "Ġwants": 5692,
      "Ġapproaches": 5693,
      "Ġresponsibility": 5694,
      "Ġalgorithm": 5695,
      "97": 5696,
      "App": 5697,
      "ota": 5698,
      "Ġvast": 5699,
      "osal": 5700,
      "ĠEl": 5701,
      "ĠLight": 5702,
      "ĠInc": 5703,
      "Ġformula": 5704,
      "Ġcompleted": 5705,
      "Ġvolunte": 5706,
      "Ġzone": 5707,
      "Ġturns": 5708,
      "Ġsteam": 5709,
      "Ġhoriz": 5710,
      "mitted": 5711,
      "Ġtrop": 5712,
      "athy": 5713,
      "Ġcities": 5714,
      "Ġnodes": 5715,
      "Ġproport": 5716,
      "ament": 5717,
      "osph": 5718,
      "ĠPress": 5719,
      "Ġamino": 5720,
      "Ġformat": 5721,
      "Ġserves": 5722,
      "ĠThus": 5723,
      "ĠExam": 5724,
      "Ġprompt": 5725,
      "haust": 5726,
      "Ġsharp": 5727,
      "Ġstyles": 5728,
      "64": 5729,
      "fall": 5730,
      "hus": 5731,
      "iated": 5732,
      "orter": 5733,
      "icing": 5734,
      "asure": 5735,
      "Ġrecept": 5736,
      "otic": 5737,
      "unt": 5738,
      "Ġspeech": 5739,
      "ĠNature": 5740,
      "ĠOff": 5741,
      "soft": 5742,
      "Ġtested": 5743,
      "overn": 5744,
      "Ġfarming": 5745,
      "Ġportion": 5746,
      "Ġbehaviour": 5747,
      "rite": 5748,
      "Ġpound": 5749,
      "Ġtow": 5750,
      "Ġtown": 5751,
      "etics": 5752,
      "ĠPat": 5753,
      "ĠGold": 5754,
      "Ġblank": 5755,
      "Ġaccuracy": 5756,
      "Ġauthors": 5757,
      "Ġvalid": 5758,
      "Ġpossess": 5759,
      "Ġvisible": 5760,
      "Ġconfidence": 5761,
      "Ġoperate": 5762,
      "Ġcameras": 5763,
      "Ġopposite": 5764,
      "âĢ¦ĊĊ": 5765,
      "Ġfriendly": 5766,
      "vents": 5767,
      "eria": 5768,
      "ald": 5769,
      "iders": 5770,
      "ĠTex": 5771,
      "ĠSee": 5772,
      "Ġvul": 5773,
      "ĠBel": 5774,
      "ĠDav": 5775,
      "ĠDef": 5776,
      "ĠNovember": 5777,
      "play": 5778,
      "Ġclosed": 5779,
      "Ġblocks": 5780,
      "Ġcoop": 5781,
      "Ġlessons": 5782,
      "Ġinjuries": 5783,
      "Ġalgorithms": 5784,
      "Gen": 5785,
      "Ġcos": 5786,
      "encing": 5787,
      "Ġfan": 5788,
      "Ġfelt": 5789,
      "Ġdream": 5790,
      "Ġreward": 5791,
      "Ġouter": 5792,
      "Ġtrim": 5793,
      "Ġdetection": 5794,
      "Ġattached": 5795,
      "Ġconsumers": 5796,
      "Ġminimize": 5797,
      "Ġcompetition": 5798,
      "Ġbreathing": 5799,
      "Ġconstantly": 5800,
      "Ġfossil": 5801,
      "Ġconsequences": 5802,
      "New": 5803,
      "tical": 5804,
      "Ġsac": 5805,
      "Ġmort": 5806,
      "Ġstores": 5807,
      "ĠSum": 5808,
      "rome": 5809,
      "Ġcoating": 5810,
      "Ġworkers": 5811,
      "Ġelectronic": 5812,
      "Ġbiggest": 5813,
      "Ġrecognize": 5814,
      "Ġspeaker": 5815,
      "Ġcontinued": 5816,
      "ĠFurthermore": 5817,
      "ĠSeptember": 5818,
      ".âĢĿ": 5819,
      "LE": 5820,
      "OU": 5821,
      "TP": 5822,
      "mic": 5823,
      "point": 5824,
      "Ġsed": 5825,
      "Ġmission": 5826,
      "ĠMc": 5827,
      "ĠMet": 5828,
      "Ġrig": 5829,
      "ĠRel": 5830,
      "ĠLa": 5831,
      "Ġdishes": 5832,
      "Ġdisorders": 5833,
      "Ġprey": 5834,
      "ossible": 5835,
      "airy": 5836,
      "Ġdelicious": 5837,
      "Ġsensors": 5838,
      "ouncil": 5839,
      "Ġentirely": 5840,
      "Ġnose": 5841,
      "rab": 5842,
      "ĠPlease": 5843,
      "Ġintake": 5844,
      "Ġadminist": 5845,
      "Ġunlike": 5846,
      "ĠInf": 5847,
      "aked": 5848,
      "ĠStep": 5849,
      "Ġsupplements": 5850,
      "Ġlocations": 5851,
      "oxid": 5852,
      "Ġpossibly": 5853,
      "aws": 5854,
      "Ġtrends": 5855,
      "Ġneutral": 5856,
      "-ch": 5857,
      "Te": 5858,
      "from": 5859,
      "gl": 5860,
      "tt": 5861,
      "Ġgate": 5862,
      "Ġvine": 5863,
      "ĠFran": 5864,
      "Ġresil": 5865,
      "Ġcarp": 5866,
      "Ġemail": 5867,
      "Ġauto": 5868,
      "Ġengagement": 5869,
      "Ġbelief": 5870,
      "Ġhyper": 5871,
      "Ġmechanism": 5872,
      "Ġaudience": 5873,
      "Ġguidance": 5874,
      "Ġsatisf": 5875,
      "ĠJuly": 5876,
      "47": 5877,
      "49": 5878,
      "DF": 5879,
      "Ind": 5880,
      "ford": 5881,
      "Ġbinding": 5882,
      "alysis": 5883,
      "Ġcham": 5884,
      "Ġsharing": 5885,
      "iva": 5886,
      "rix": 5887,
      "Ġadvert": 5888,
      "Ġexplains": 5889,
      "Ġessay": 5890,
      "Ġfunctional": 5891,
      "being": 5892,
      "Ġprocedures": 5893,
      "ĠCheck": 5894,
      "ĠRemember": 5895,
      "Ġantibiotics": 5896,
      "Rem": 5897,
      "Rec": 5898,
      "gu": 5899,
      "oids": 5900,
      "Ġwish": 5901,
      "Ġfa": 5902,
      "Ġfuse": 5903,
      "Ġrely": 5904,
      "uses": 5905,
      "umps": 5906,
      "emy": 5907,
      "Ġdeeper": 5908,
      "ĠBr": 5909,
      "ĠBas": 5910,
      "ĠFrench": 5911,
      "acts": 5912,
      "Ġmanner": 5913,
      "Ġadds": 5914,
      "Ġoffic": 5915,
      "Ġcouldn": 5916,
      "Ġpresc": 5917,
      "Ġbiod": 5918,
      "Ġstructural": 5919,
      "Ġpercentage": 5920,
      "Ġholding": 5921,
      "ĠColor": 5922,
      "Ġrecords": 5923,
      "Ġmechanisms": 5924,
      "Ġjournal": 5925,
      "Ġnutrient": 5926,
      "Ġhabitats": 5927,
      "Ġtutorial": 5928,
      "esus": 5929,
      "Ġdoll": 5930,
      "Ġhospital": 5931,
      "Ġrevolution": 5932,
      "idents": 5933,
      "ĠBen": 5934,
      "ĠNatural": 5935,
      "enses": 5936,
      "assium": 5937,
      "Ġcollege": 5938,
      "phone": 5939,
      "Ġremote": 5940,
      "Ġmining": 5941,
      "Ġcurric": 5942,
      "Ġengage": 5943,
      "Ġcontrols": 5944,
      "Ġlisted": 5945,
      "Ġstronger": 5946,
      "ĠInstead": 5947,
      "ĠControl": 5948,
      "Ġlenses": 5949,
      "ĠConsider": 5950,
      "Ġbags": 5951,
      "Ġrapidly": 5952,
      "Cont": 5953,
      "Ġlip": 5954,
      "Ġstation": 5955,
      "sec": 5956,
      "ĠFe": 5957,
      "ĠFeb": 5958,
      "Ġknows": 5959,
      "Ġcorner": 5960,
      "espan": 5961,
      "Ġsecondary": 5962,
      "Ġbigger": 5963,
      "Ġaccessible": 5964,
      "Ġcircum": 5965,
      "Ġclearly": 5966,
      "Ġsustainability": 5967,
      "ĠApple": 5968,
      "Ġcement": 5969,
      "Ġmedications": 5970,
      "Ġpuppy": 5971,
      "-B": 5972,
      "43": 5973,
      "56": 5974,
      "58": 5975,
      "Since": 5976,
      "lation": 5977,
      "arks": 5978,
      "Ġdil": 5979,
      "Ġweigh": 5980,
      "Ġweap": 5981,
      "Ġends": 5982,
      "Ġworse": 5983,
      "ĠLead": 5984,
      "Ġrecipe": 5985,
      "Ġsurgery": 5986,
      "ĠAnother": 5987,
      "Ġphotograp": 5988,
      "ognitive": 5989,
      "Ġmoved": 5990,
      "ĠSea": 5991,
      "Ġholds": 5992,
      "Ġbalanced": 5993,
      "Ġcardi": 5994,
      "Ġbehaviors": 5995,
      "Ġtrouble": 5996,
      "Ġfinger": 5997,
      "ĠService": 5998,
      "Ġnitrogen": 5999,
      "ĠChildren": 6000,
      "Ġflavors": 6001,
      "Ġpreparation": 6002,
      "51": 6003,
      "92": 6004,
      "ca": 6005,
      "Ġ)": 6006,
      "Ġaest": 6007,
      "ĠTur": 6008,
      "stream": 6009,
      "igue": 6010,
      "ĠSub": 6011,
      "Ġran": 6012,
      "Ġwheel": 6013,
      "Ġwash": 6014,
      "Ġunf": 6015,
      "ava": 6016,
      "Ġrab": 6017,
      "Ġinterf": 6018,
      "Ġfamous": 6019,
      "Ġresponses": 6020,
      "Ġfrequent": 6021,
      "Ġlogic": 6022,
      "Ġdiagnosis": 6023,
      "Ġfrozen": 6024,
      "Ġwelding": 6025,
      "uilding": 6026,
      "\"The": 6027,
      "71": 6028,
      "Get": 6029,
      "MS": 6030,
      "PT": 6031,
      "iest": 6032,
      "Ġoven": 6033,
      "Ġbill": 6034,
      "Ġease": 6035,
      "Ġgun": 6036,
      "Ġenables": 6037,
      "ĠExt": 6038,
      "Ġcontamin": 6039,
      "Ġclub": 6040,
      "Ġseeking": 6041,
      "Ġruns": 6042,
      "Ġnuclear": 6043,
      "Ġfixed": 6044,
      "Ġkidney": 6045,
      "Ġcryst": 6046,
      "ĠFlorida": 6047,
      "medi": 6048,
      "Ġisland": 6049,
      "etime": 6050,
      "Ġgather": 6051,
      "eling": 6052,
      "Ġspin": 6053,
      "Ġintended": 6054,
      "Ġmanaging": 6055,
      "Ġmanaged": 6056,
      "Ġsauce": 6057,
      "Ġcareful": 6058,
      "Ġcharging": 6059,
      "Ġmilitary": 6060,
      "Ġlisten": 6061,
      "Ġmeasurement": 6062,
      "Ġframework": 6063,
      "Ġderived": 6064,
      "Ġarchitecture": 6065,
      "ĠAssociation": 6066,
      "Ġfascinating": 6067,
      "Ġinterpret": 6068,
      "-of": 6069,
      "Or": 6070,
      "requ": 6071,
      "Ġlived": 6072,
      "Ġalk": 6073,
      "Ġshoes": 6074,
      "Ġclock": 6075,
      "Ġwhereas": 6076,
      "Ġdiscovery": 6077,
      "Ġfoundation": 6078,
      "Ġhandling": 6079,
      "Ġfacts": 6080,
      "Ġmetals": 6081,
      "Ġcrus": 6082,
      "Ġmechanical": 6083,
      "Ġdomest": 6084,
      "ĠLearn": 6085,
      "Ġdedicated": 6086,
      "Ġscratch": 6087,
      "Ġtall": 6088,
      "Ġtables": 6089,
      "Ġtaught": 6090,
      "Ġbones": 6091,
      "orrect": 6092,
      "arter": 6093,
      "roph": 6094,
      "ascular": 6095,
      "ado": 6096,
      "Ġexhaust": 6097,
      "ĠPower": 6098,
      "Ġatoms": 6099,
      "ocy": 6100,
      "ĠGroup": 6101,
      "Ġdisapp": 6102,
      "Ġcopper": 6103,
      "Ġdecl": 6104,
      "Ġequival": 6105,
      "cover": 6106,
      "Ġfeedback": 6107,
      "Ġgreenhouse": 6108,
      "Ġrecognized": 6109,
      "Ġmeeting": 6110,
      "osaurs": 6111,
      "Ġdestroy": 6112,
      "PR": 6113,
      "Ġsch": 6114,
      "Ġcable": 6115,
      "icides": 6116,
      "Ġhaven": 6117,
      "Ġhealing": 6118,
      "Ġclus": 6119,
      "Ġcolle": 6120,
      "arium": 6121,
      "Ġampl": 6122,
      "Ġremark": 6123,
      "Ġaccompl": 6124,
      "Ġcreativity": 6125,
      "Ġfinished": 6126,
      "print": 6127,
      "Ġswimming": 6128,
      "LA": 6129,
      "erative": 6130,
      "isp": 6131,
      "Ġeco": 6132,
      "Ġgardens": 6133,
      "ĠTV": 6134,
      "ĠEast": 6135,
      "ruary": 6136,
      "Ġoffered": 6137,
      "Ġextend": 6138,
      "Ġrefrig": 6139,
      "Ġdepression": 6140,
      "Stud": 6141,
      "Ġmoves": 6142,
      "Ġlifestyle": 6143,
      "Ġlaun": 6144,
      "Ġexplained": 6145,
      "ĠMedic": 6146,
      "Ġvulner": 6147,
      "sor": 6148,
      "uing": 6149,
      "uis": 6150,
      "Ġtight": 6151,
      "Ġtack": 6152,
      "Ġbrief": 6153,
      "Ġinhib": 6154,
      "iratory": 6155,
      "ĠCit": 6156,
      "abil": 6157,
      "umes": 6158,
      "ĠFree": 6159,
      "Ġcompris": 6160,
      "earing": 6161,
      "apor": 6162,
      "apers": 6163,
      "ieving": 6164,
      "Ġscene": 6165,
      "Ġtrade": 6166,
      "Ġobst": 6167,
      "Ġpharm": 6168,
      "Ġbiom": 6169,
      "Ġdiscussion": 6170,
      "Ġcontinuous": 6171,
      "Ġcollaboration": 6172,
      "Ġveterin": 6173,
      "Ġintricate": 6174,
      "ĠTexas": 6175,
      "-the": 6176,
      "SA": 6177,
      "Ġol": 6178,
      "Ġmir": 6179,
      "Ġnation": 6180,
      "Ġprol": 6181,
      "ĠMiss": 6182,
      "ĠMex": 6183,
      "Ġcompat": 6184,
      "ĠJesus": 6185,
      "ĠStart": 6186,
      "Ġeveryday": 6187,
      "Ġsubsequ": 6188,
      "Ġsheet": 6189,
      "Ġsafely": 6190,
      "Ġtells": 6191,
      "Ġmolecule": 6192,
      "-F": 6193,
      "how": 6194,
      "nect": 6195,
      "inger": 6196,
      "anc": 6197,
      "Ġlake": 6198,
      "ilos": 6199,
      "ĠToday": 6200,
      "ceed": 6201,
      "Ġcompare": 6202,
      "ournal": 6203,
      "Ġtract": 6204,
      "Ġhelped": 6205,
      "Ġagent": 6206,
      "Ġpurs": 6207,
      "Ġstatement": 6208,
      "Ġachieved": 6209,
      "Ġlifespan": 6210,
      "Ġspeak": 6211,
      "Ġthermal": 6212,
      "Ġpowder": 6213,
      "Ġmetabolism": 6214,
      "-level": 6215,
      "ĠMichigan": 6216,
      "Ġrestaurant": 6217,
      "Ġvibrant": 6218,
      "/s": 6219,
      "54": 6220,
      "Dr": 6221,
      "Rep": 6222,
      "bar": 6223,
      "fly": 6224,
      "hav": 6225,
      "Ġsodium": 6226,
      "Ġcour": 6227,
      "Ġpit": 6228,
      "Ġdram": 6229,
      "Ġgro": 6230,
      "Ġgases": 6231,
      "ĠSocial": 6232,
      "ĠBay": 6233,
      "Ġship": 6234,
      "Ġknew": 6235,
      "Ġanywhere": 6236,
      "Ġraised": 6237,
      "Ġrelief": 6238,
      "Ġcheap": 6239,
      "Ġextended": 6240,
      "Ġbread": 6241,
      "ocket": 6242,
      "Ġprofile": 6243,
      "ĠExp": 6244,
      "Ġgardening": 6245,
      "Ġdiscussed": 6246,
      "Ġsmoke": 6247,
      "Â°C": 6248,
      "Ġmissing": 6249,
      ");": 6250,
      "Ġretain": 6251,
      "Ġyog": 6252,
      "Ġgall": 6253,
      "uts": 6254,
      "owing": 6255,
      "Ġvariables": 6256,
      "Ġcellular": 6257,
      "Ġedges": 6258,
      "Ġoccup": 6259,
      "Ġphotography": 6260,
      "Ġdetermining": 6261,
      "Ġincreasingly": 6262,
      "Ġcommitment": 6263,
      "ffective": 6264,
      "Ġopinion": 6265,
      "Ġdatabase": 6266,
      "II": 6267,
      "vol": 6268,
      "Ġshed": 6269,
      "Ġcere": 6270,
      "Ġwidth": 6271,
      "Ġpun": 6272,
      "Ġlik": 6273,
      "Ġbeer": 6274,
      "Ġpros": 6275,
      "Ġaluminum": 6276,
      "ĠCam": 6277,
      "ĠWood": 6278,
      "ĠHelp": 6279,
      "acters": 6280,
      "ĠGood": 6281,
      "Ġapplying": 6282,
      "Ġfewer": 6283,
      "Ġplanted": 6284,
      "Ġprinter": 6285,
      "Ġextent": 6286,
      "ĠAsia": 6287,
      "Ġthoughts": 6288,
      "Ġmultip": 6289,
      "Ġnecessarily": 6290,
      "ĠDecember": 6291,
      "Ġcopy": 6292,
      "Ġhundreds": 6293,
      "66": 6294,
      "dden": 6295,
      "you": 6296,
      "Ġow": 6297,
      "Ġbran": 6298,
      "Ġindu": 6299,
      "Ġhole": 6300,
      "otes": 6301,
      "Ġenzymes": 6302,
      "ĠHistory": 6303,
      "Ġwilling": 6304,
      "Ġpeace": 6305,
      "Ġcarbohyd": 6306,
      "Ġbreeds": 6307,
      "Ġcurve": 6308,
      "Ġbelieved": 6309,
      "Ġconsume": 6310,
      "Ġdietary": 6311,
      "ĠCollege": 6312,
      "Ġpanels": 6313,
      "ĠManagement": 6314,
      "-th": 6315,
      "Don": 6316,
      "inity": 6317,
      "enior": 6318,
      "Ġdent": 6319,
      "ionally": 6320,
      "asy": 6321,
      "ĠTest": 6322,
      "Ġformer": 6323,
      "ĠIS": 6324,
      "ĠST": 6325,
      "ĠCB": 6326,
      "Ġappoint": 6327,
      "Ġarrow": 6328,
      "Ġtrail": 6329,
      "Ġoverl": 6330,
      "ĠWhite": 6331,
      "Ġplayed": 6332,
      "Ġautomatically": 6333,
      "Ġexciting": 6334,
      "Ġfemales": 6335,
      "Ġjoin": 6336,
      "Ġthrive": 6337,
      "Ġcitiz": 6338,
      "Ġpreferences": 6339,
      "Ġbudget": 6340,
      "Ġsession": 6341,
      "ĠEnvironmental": 6342,
      ".m": 6343,
      "53": 6344,
      "72": 6345,
      "DA": 6346,
      "PE": 6347,
      "band": 6348,
      "dy": 6349,
      "uum": 6350,
      "Ġ<": 6351,
      "inations": 6352,
      "Ġov": 6353,
      "Ġdirt": 6354,
      "rooms": 6355,
      "ĠIll": 6356,
      "Ġoral": 6357,
      "ĠCell": 6358,
      "kelet": 6359,
      "Ġseam": 6360,
      "Ġnotes": 6361,
      "ocation": 6362,
      "riers": 6363,
      "izers": 6364,
      "Ġprofit": 6365,
      "Ġfinally": 6366,
      "Ġtransportation": 6367,
      "Ġrobust": 6368,
      "Ġcalculate": 6369,
      "Ġforests": 6370,
      "Ġathlet": 6371,
      "IC": 6372,
      "Ġcm": 6373,
      "roat": 6374,
      "Ġlivestock": 6375,
      "amins": 6376,
      "Ġweed": 6377,
      "Ġshaft": 6378,
      "Ġnoted": 6379,
      "Ġflour": 6380,
      "ribe": 6381,
      "Ġphysic": 6382,
      "Ġenhancing": 6383,
      "Ġindicates": 6384,
      "Ġintroduction": 6385,
      "Before": 6386,
      "----------------": 6387,
      "Ġfingers": 6388,
      "Ġspectrum": 6389,
      "Ġconclud": 6390,
      "Ġparameters": 6391,
      "Ġinsulin": 6392,
      ".D": 6393,
      "74": 6394,
      "ham": 6395,
      "Ġcards": 6396,
      "Ġpul": 6397,
      "owns": 6398,
      "ĠTry": 6399,
      "sts": 6400,
      "Ġages": 6401,
      "Ġmyself": 6402,
      "oves": 6403,
      "ĠKnow": 6404,
      "Ġparticle": 6405,
      "Ġenthus": 6406,
      "Ġprotocol": 6407,
      "Ġmeasuring": 6408,
      "Ġhybrid": 6409,
      "Ġturb": 6410,
      "Ġexercises": 6411,
      "Ġargument": 6412,
      "Ġmillions": 6413,
      "FT": 6414,
      "Lear": 6415,
      "Pe": 6416,
      "mas": 6417,
      "yn": 6418,
      "ette": 6419,
      "iform": 6420,
      "Ġsudden": 6421,
      "ĠLED": 6422,
      "earchers": 6423,
      "Ġempt": 6424,
      "Ġregist": 6425,
      "ĠVe": 6426,
      "Ġinstruction": 6427,
      "Ġinfected": 6428,
      "ontal": 6429,
      "Ġcharacters": 6430,
      "Ġlimits": 6431,
      "ĠBefore": 6432,
      "Ġfacing": 6433,
      "Ġstrain": 6434,
      "Ġsubstant": 6435,
      "Ġbacterial": 6436,
      "Ġsatell": 6437,
      "Ġdoub": 6438,
      "Ġexpressed": 6439,
      "Ġconversation": 6440,
      "Ġneighbor": 6441,
      "aj": 6442,
      "lin": 6443,
      "zed": 6444,
      "Ġmature": 6445,
      "ĠCre": 6446,
      "Ġshift": 6447,
      "ĠFIG": 6448,
      "eren": 6449,
      "Ġknowing": 6450,
      "Ġcovers": 6451,
      "Ġpriv": 6452,
      "Ġexploration": 6453,
      "Ġsupported": 6454,
      "Ġgrasp": 6455,
      "Ġprogramming": 6456,
      "Ġchemistry": 6457,
      "Ġcontributing": 6458,
      "Ġcharacteristic": 6459,
      "ĠOnly": 6460,
      "ĠAcad": 6461,
      "rastructure": 6462,
      "Ġdriver": 6463,
      "(s": 6464,
      "Ġ\\": 6465,
      "itness": 6466,
      "Ġmice": 6467,
      "stract": 6468,
      "illage": 6469,
      "ĠMat": 6470,
      "Ġneural": 6471,
      "ĠFind": 6472,
      "Ġscrew": 6473,
      "Ġarter": 6474,
      "Ġblind": 6475,
      "Ġunderlying": 6476,
      "Ġattacks": 6477,
      "Ġminor": 6478,
      "Ġsecret": 6479,
      "Ġdepos": 6480,
      "Ġdrinking": 6481,
      "ugs": 6482,
      "Ġmindset": 6483,
      "Ġerrors": 6484,
      "ĠEngland": 6485,
      "Ġobtained": 6486,
      "Ġshooting": 6487,
      "ĠAgriculture": 6488,
      "First": 6489,
      "lers": 6490,
      "Ġcotton": 6491,
      "Ġmood": 6492,
      "Ġlies": 6493,
      "stone": 6494,
      "ĠAC": 6495,
      "anted": 6496,
      "alled": 6497,
      "ĠFore": 6498,
      "iber": 6499,
      "Ġrod": 6500,
      "Ġrelig": 6501,
      "Ġdelicate": 6502,
      "Ġconflic": 6503,
      "prise": 6504,
      "ĠCOVID": 6505,
      "Ġbuying": 6506,
      "Ġemployees": 6507,
      "Ġhazard": 6508,
      "Ġadequate": 6509,
      "-P": 6510,
      "68": 6511,
      "ivery": 6512,
      "pa": 6513,
      "Ġsight": 6514,
      "Ġgem": 6515,
      "Ġgift": 6516,
      "ĠAS": 6517,
      "ĠWashing": 6518,
      "Ġintest": 6519,
      "Ġresol": 6520,
      "Ġunw": 6521,
      "Ġtruth": 6522,
      "Ġacts": 6523,
      "althy": 6524,
      "Ġhadal": 6525,
      "Ġcataly": 6526,
      "Ġguarant": 6527,
      "Ġintegrated": 6528,
      "Ġmassive": 6529,
      "Ġcalculated": 6530,
      "Ġcampa": 6531,
      "Ġultimately": 6532,
      "zyme": 6533,
      "Ġfairly": 6534,
      "Ġnarrow": 6535,
      "Ġtitle": 6536,
      "Ġinstitutions": 6537,
      "Ġmitig": 6538,
      "Ġcurriculum": 6539,
      "Ġequivalent": 6540,
      "93": 6541,
      "MA": 6542,
      "iam": 6543,
      "normal": 6544,
      "oons": 6545,
      "Ġcast": 6546,
      "Ġmales": 6547,
      "Ġhidden": 6548,
      "Ġgast": 6549,
      "Ġstrip": 6550,
      "ĠSociety": 6551,
      "Ġalter": 6552,
      "heric": 6553,
      "ĠHuman": 6554,
      "âĢĭ": 6555,
      "Ġregulation": 6556,
      "Ġpoison": 6557,
      "Ġminute": 6558,
      "Ġlarv": 6559,
      "Ġears": 6560,
      "Ġpossibility": 6561,
      "Ġadvoc": 6562,
      "ĠAtl": 6563,
      "ographic": 6564,
      "Ġassistance": 6565,
      "Ġrepeated": 6566,
      "addle": 6567,
      "ĠSecond": 6568,
      "ĠTechnology": 6569,
      "Ġcompressor": 6570,
      "Ġlaboratory": 6571,
      "73": 6572,
      "91": 6573,
      "vin": 6574,
      "Ġcaught": 6575,
      "iture": 6576,
      "Ġdial": 6577,
      "Ġstages": 6578,
      "thrit": 6579,
      "emperature": 6580,
      "Ġtransp": 6581,
      "Ġcircle": 6582,
      "Ġoils": 6583,
      "Ġconcerned": 6584,
      "ĠEngine": 6585,
      "Ġidentifying": 6586,
      "Ġlandscap": 6587,
      "Ġdimensions": 6588,
      "Ġneighb": 6589,
      "ĠTwo": 6590,
      "Ġbottle": 6591,
      "Ġversatile": 6592,
      "Car": 6593,
      "FA": 6594,
      "Le": 6595,
      "aul": 6596,
      "itative": 6597,
      "Ġbite": 6598,
      "Ġyes": 6599,
      "oli": 6600,
      "ĠDist": 6601,
      "ĠHome": 6602,
      "Ġmanip": 6603,
      "Ġrecording": 6604,
      "hyl": 6605,
      "Ġdied": 6606,
      "Ġaccident": 6607,
      "Ġserved": 6608,
      "Ġlargely": 6609,
      "Ġfeelings": 6610,
      "ourses": 6611,
      "Ġbrings": 6612,
      "Ġprofessor": 6613,
      "Ġpredic": 6614,
      "ymph": 6615,
      "Ġyounger": 6616,
      "Ġintegration": 6617,
      "Ġplatforms": 6618,
      "ĠLearning": 6619,
      "Ġpotatoes": 6620,
      "Ġacademic": 6621,
      "Che": 6622,
      "EO": 6623,
      "Ġarom": 6624,
      "atin": 6625,
      "ods": 6626,
      "Ġdisorder": 6627,
      "Ġrecipes": 6628,
      "Ġstudied": 6629,
      "Ġinterior": 6630,
      "Ġinfrastructure": 6631,
      "Ġsupporting": 6632,
      "Ġingredient": 6633,
      "Ġpreferred": 6634,
      "ĠInternet": 6635,
      "Ġdrivers": 6636,
      "Ġliterature": 6637,
      "Ġcelebr": 6638,
      "Ġprices": 6639,
      "\"ĊĊ": 6640,
      "59": 6641,
      "63": 6642,
      "BC": 6643,
      "Every": 6644,
      "nab": 6645,
      "Ġok": 6646,
      "esity": 6647,
      "alian": 6648,
      "edom": 6649,
      "Ġshorter": 6650,
      "Ġworn": 6651,
      "Ġfeels": 6652,
      "asses": 6653,
      "Ġenhanced": 6654,
      "Ġquantum": 6655,
      "Ġabsorb": 6656,
      "Ġfederal": 6657,
      "ĠTHE": 6658,
      "Ġtrigger": 6659,
      "Ġdigestive": 6660,
      "ĠSafety": 6661,
      "Ġdivided": 6662,
      "Rel": 6663,
      "oin": 6664,
      "Ġpipes": 6665,
      "Ġlapt": 6666,
      "Ġster": 6667,
      "irty": 6668,
      "Ġchapter": 6669,
      "Ġsucc": 6670,
      "reek": 6671,
      "Ġthanks": 6672,
      "Ġsupposed": 6673,
      "Ġengaging": 6674,
      "Ġrealm": 6675,
      "Ġhardware": 6676,
      "Ġsitting": 6677,
      "Ġavailability": 6678,
      "azon": 6679,
      "Ġembra": 6680,
      "Ġbreastfeeding": 6681,
      "Ġethical": 6682,
      "ĠWestern": 6683,
      "thritis": 6684,
      "67": 6685,
      "gent": 6686,
      "orld": 6687,
      "Ġtoys": 6688,
      "igital": 6689,
      "Ġstain": 6690,
      "Ġitem": 6691,
      "Ġorange": 6692,
      "ĠPort": 6693,
      "ĠBig": 6694,
      "ĠData": 6695,
      "ogens": 6696,
      "Ġintense": 6697,
      "Ġwashing": 6698,
      "ĠOcean": 6699,
      "Ġdecay": 6700,
      "Ġmeters": 6701,
      "Ġboil": 6702,
      "ĠPlay": 6703,
      "Ġimprovement": 6704,
      "Ġspecialized": 6705,
      "ĠCentral": 6706,
      "Ġvegetable": 6707,
      "Ġdemonstrate": 6708,
      "Ġmanufacturer": 6709,
      "Ġexpertise": 6710,
      "Ġcoastal": 6711,
      "Ġcorresponding": 6712,
      "ongevity": 6713,
      "Ġrefriger": 6714,
      "88": 6715,
      "IP": 6716,
      "mor": 6717,
      "rem": 6718,
      "Ġcredit": 6719,
      "Ġflying": 6720,
      "aria": 6721,
      "ented": 6722,
      "Ġluck": 6723,
      "usiness": 6724,
      "ppers": 6725,
      "Ġchart": 6726,
      "ĠLook": 6727,
      "rence": 6728,
      "Ġherb": 6729,
      "Ġarticles": 6730,
      "Ġreaders": 6731,
      "Ġbiology": 6732,
      "Ġfacilities": 6733,
      "Ġinteractive": 6734,
      "Ġproposed": 6735,
      "Ġresistant": 6736,
      "Ġdomin": 6737,
      "Ġmessages": 6738,
      "Ġwatching": 6739,
      "Ġimplications": 6740,
      "Ġholes": 6741,
      "Ġcategories": 6742,
      "Ġeliminate": 6743,
      "ĠClean": 6744,
      "Ġabsolutely": 6745,
      "78": 6746,
      "De": 6747,
      "Does": 6748,
      "Where": 6749,
      "bur": 6750,
      "Ġborder": 6751,
      "arge": 6752,
      "ilk": 6753,
      "Ġnerve": 6754,
      "Ġgap": 6755,
      "ĠAP": 6756,
      "ocr": 6757,
      "agues": 6758,
      "Ġblend": 6759,
      "Ġphilos": 6760,
      "Ġbreaking": 6761,
      "Ġclassic": 6762,
      "Ġpolic": 6763,
      "Ġbasically": 6764,
      "ĠArch": 6765,
      "Ġbabies": 6766,
      "Ġbringing": 6767,
      "ĠCommon": 6768,
      "Ġvitamins": 6769,
      "Ġaims": 6770,
      "Ġmountain": 6771,
      "Ġappreciate": 6772,
      "During": 6773,
      "lings": 6774,
      "Ġcrow": 6775,
      "Ġcran": 6776,
      "ceans": 6777,
      "Ġvict": 6778,
      "Ġspark": 6779,
      "Ġabilities": 6780,
      "ago": 6781,
      "ĠOh": 6782,
      "rue": 6783,
      "Ġunus": 6784,
      "Ġarms": 6785,
      "anged": 6786,
      "Ġexpans": 6787,
      "inese": 6788,
      "Ġdelivery": 6789,
      "Ġpassion": 6790,
      "Ġbrother": 6791,
      "Ġfatigue": 6792,
      "Ġsilver": 6793,
      "ometric": 6794,
      "Ġdebris": 6795,
      "Ġimagine": 6796,
      "Ġnutritional": 6797,
      "ĠDevelopment": 6798,
      "Ġpermanent": 6799,
      "-A": 6800,
      "nel": 6801,
      "atus": 6802,
      "Ġbeach": 6803,
      "ĠIN": 6804,
      "osion": 6805,
      "Ġnoticed": 6806,
      "ĠRef": 6807,
      "Ġsoy": 6808,
      "Ġtrad": 6809,
      "Ġdefine": 6810,
      "Ġprotecting": 6811,
      "Ġhappening": 6812,
      "Ġparticipate": 6813,
      "Ġurine": 6814,
      "Ġroute": 6815,
      "Ġharness": 6816,
      "Ġgradually": 6817,
      "Ġloved": 6818,
      "Using": 6819,
      "ĠWindows": 6820,
      "Have": 6821,
      "MI": 6822,
      "bility": 6823,
      "fit": 6824,
      "gal": 6825,
      "oa": 6826,
      "Ġions": 6827,
      "erts": 6828,
      "atric": 6829,
      "Ġpad": 6830,
      "Ġdairy": 6831,
      "Ġloose": 6832,
      "Ġgone": 6833,
      "ĠDise": 6834,
      "ĠHol": 6835,
      "ander": 6836,
      "eck": 6837,
      "Ġapparent": 6838,
      "Ġprocessor": 6839,
      "Ġgrows": 6840,
      "Ġphosph": 6841,
      "Ġdistingu": 6842,
      "Ġartists": 6843,
      "Ġdelay": 6844,
      "Ġrealize": 6845,
      "Ġcomplexity": 6846,
      "Ġexperiencing": 6847,
      "Ġperfectly": 6848,
      "Ġmenu": 6849,
      "Ġancest": 6850,
      "Ġsplit": 6851,
      "ĠMicrosoft": 6852,
      "Ġpaid": 6853,
      "-res": 6854,
      "uous": 6855,
      "Ġtape": 6856,
      "Ġaward": 6857,
      "Ġcognitive": 6858,
      "using": 6859,
      "Ġgent": 6860,
      "stances": 6861,
      "ifts": 6862,
      "ĠMuse": 6863,
      "ĠOpt": 6864,
      "Ġclay": 6865,
      "ĠUnderstanding": 6866,
      "Ġattend": 6867,
      "rapy": 6868,
      "lessly": 6869,
      "Ġencounter": 6870,
      "Ġprotective": 6871,
      "Ġaffecting": 6872,
      "escription": 6873,
      "Ġselecting": 6874,
      "Ġdomain": 6875,
      "Ġburning": 6876,
      "Ġrespectively": 6877,
      "Ġprinciple": 6878,
      "Ġbonds": 6879,
      "Ġrarely": 6880,
      "********": 6881,
      "ĠWashington": 6882,
      "CC": 6883,
      "Red": 6884,
      "Read": 6885,
      "mers": 6886,
      "son": 6887,
      "such": 6888,
      "then": 6889,
      "Ġfav": 6890,
      "asc": 6891,
      "utrition": 6892,
      "ĠSn": 6893,
      "Ġdealing": 6894,
      "Ġchances": 6895,
      "Ġride": 6896,
      "Ġleak": 6897,
      "ources": 6898,
      "Ġkick": 6899,
      "Ġcoal": 6900,
      "Ġgoods": 6901,
      "Ġpersist": 6902,
      "Ġproductivity": 6903,
      "Ġtrend": 6904,
      "ounced": 6905,
      "Ġhimself": 6906,
      "Ġcrust": 6907,
      "Ġminimal": 6908,
      "aughter": 6909,
      "ĠMoreover": 6910,
      "ometry": 6911,
      "Ġecosystems": 6912,
      "Ġthoroughly": 6913,
      "'.": 6914,
      "AI": 6915,
      "EE": 6916,
      "Note": 6917,
      "OW": 6918,
      "fra": 6919,
      "lated": 6920,
      "top": 6921,
      "ndrome": 6922,
      "itors": 6923,
      "ora": 6924,
      "Ġfig": 6925,
      "Ġgal": 6926,
      "Ġbears": 6927,
      "ĠID": 6928,
      "amil": 6929,
      "ĠWrit": 6930,
      "Ġweeds": 6931,
      "osaur": 6932,
      "Ġplot": 6933,
      "ella": 6934,
      "ults": 6935,
      "ĠGarden": 6936,
      "apters": 6937,
      "Ġimpossible": 6938,
      "Ġblo": 6939,
      "Ġunderst": 6940,
      "angered": 6941,
      "Ġwellbeing": 6942,
      "Ġvariation": 6943,
      "Ġpossibilities": 6944,
      "Ġconsideration": 6945,
      "Ġconsumer": 6946,
      "Ġcontributes": 6947,
      "Ġirrit": 6948,
      "Ġsuffer": 6949,
      "ĠSimilar": 6950,
      "Ġmammals": 6951,
      "iability": 6952,
      "rans": 6953,
      "sm": 6954,
      "Ġmine": 6955,
      "Ġhood": 6956,
      "ĠTime": 6957,
      "Ġasking": 6958,
      "mentation": 6959,
      "Ġspo": 6960,
      "Ġspat": 6961,
      "ressed": 6962,
      "Ġrespiratory": 6963,
      "Ġfollows": 6964,
      "ĠProject": 6965,
      "Ġdefault": 6966,
      "-sc": 6967,
      "Ġgreatly": 6968,
      "Ġprevention": 6969,
      "Ġcalm": 6970,
      "Ġcapital": 6971,
      "Ġstanding": 6972,
      "Ġobserve": 6973,
      "Also": 6974,
      "Ġrecommendations": 6975,
      "Ġmanufacturers": 6976,
      "ranchise": 6977,
      "ĠAvoid": 6978,
      "Ġchromos": 6979,
      "TH": 6980,
      "bot": 6981,
      "rich": 6982,
      "tic": 6983,
      "Ġtast": 6984,
      "inn": 6985,
      "cel": 6986,
      "ĠSat": 6987,
      "ĠCouncil": 6988,
      "Ġven": 6989,
      "lder": 6990,
      "aped": 6991,
      "Ġconscious": 6992,
      "Ġindoor": 6993,
      "ĠStr": 6994,
      "Ġvet": 6995,
      "Ġdepartment": 6996,
      "ercise": 6997,
      "Ġphysics": 6998,
      "Ġestimate": 6999,
      "Ġdifficulty": 7000,
      "Ġinitially": 7001,
      "Ġpropag": 7002,
      "Ġvacuum": 7003,
      "Ġimmediate": 7004,
      "âĢĶâĢĶâĢĶâĢĶ": 7005,
      "Ġwonderful": 7006,
      "Ġchannel": 7007,
      "Ġenabling": 7008,
      "ĠMuseum": 7009,
      "DS": 7010,
      "mal": 7011,
      "Ġ...ĊĊ": 7012,
      "inus": 7013,
      "erally": 7014,
      "ara": 7015,
      "Ġhur": 7016,
      "Ġbees": 7017,
      "Ġongoing": 7018,
      "ĠPal": 7019,
      "Ġenzyme": 7020,
      "ĠBest": 7021,
      "Ġcomprom": 7022,
      "agine": 7023,
      "Ġtracking": 7024,
      "Ġaccomp": 7025,
      "Ġinfect": 7026,
      "aterials": 7027,
      "roscop": 7028,
      "Ġleader": 7029,
      "Ġnearby": 7030,
      "Ġlibraries": 7031,
      "Ġresidents": 7032,
      "Ġsexual": 7033,
      "Ġsessions": 7034,
      "Ġnervous": 7035,
      "Ġremarkable": 7036,
      "Ġlarvae": 7037,
      ",âĢĿ": 7038,
      "Other": 7039,
      "Pr": 7040,
      "born": 7041,
      "cont": 7042,
      "eut": 7043,
      "ynthesis": 7044,
      "ïĤ": 7045,
      "Ġpix": 7046,
      "Ġbub": 7047,
      "Ġdating": 7048,
      "etch": 7049,
      "Ġstems": 7050,
      "ulose": 7051,
      "ĠMount": 7052,
      "ĠHall": 7053,
      "ĠGM": 7054,
      "Ġconserv": 7055,
      "Ġrepairs": 7056,
      "Ġattach": 7057,
      "Ġinsulation": 7058,
      "Ġengines": 7059,
      "Ġgrid": 7060,
      "Ġconfig": 7061,
      "Ġidentity": 7062,
      "Ġidentification": 7063,
      "Ġpathogen": 7064,
      "Ġterminal": 7065,
      "Ġlift": 7066,
      "Ġelectrons": 7067,
      "Ġwaiting": 7068,
      "Ġdecreased": 7069,
      "Ġimplementation": 7070,
      "ĠGuide": 7071,
      "Ġjuice": 7072,
      "Ġflexibility": 7073,
      "Ġevolved": 7074,
      "ĠProfessor": 7075,
      "Ġtropical": 7076,
      "ĠFebruary": 7077,
      "//": 7078,
      ";Ċ": 7079,
      "Keep": 7080,
      "pm": 7081,
      "ront": 7082,
      "Ġtire": 7083,
      "Ġcow": 7084,
      "Ġlongevity": 7085,
      "omfort": 7086,
      "ige": 7087,
      "ĠAR": 7088,
      "illa": 7089,
      "Ġseat": 7090,
      "ĠEnd": 7091,
      "ĠRad": 7092,
      "Ġparty": 7093,
      "Ġoverw": 7094,
      "phones": 7095,
      "ĠVis": 7096,
      "taining": 7097,
      "Inst": 7098,
      "Ġharder": 7099,
      "ushing": 7100,
      "-pro": 7101,
      "Ġdescription": 7102,
      "Ġdescribes": 7103,
      "ĠCarol": 7104,
      "Ġdrainage": 7105,
      "Ġexhibit": 7106,
      "Ġlungs": 7107,
      "Ġpolitical": 7108,
      "ython": 7109,
      ".org": 7110,
      "vis": 7111,
      "ville": 7112,
      "ðŁ": 7113,
      "ıĦ": 7114,
      "Ġtheore": 7115,
      "Ġsoph": 7116,
      "Ġped": 7117,
      "ano": 7118,
      "arity": 7119,
      "asm": 7120,
      "ading": 7121,
      "ĠMot": 7122,
      "Ġshru": 7123,
      "ĠGovern": 7124,
      "Ġcolumn": 7125,
      "Ġwatering": 7126,
      "Ġproven": 7127,
      "Ġdetected": 7128,
      "Ġgrand": 7129,
      "Ġherbs": 7130,
      "Ġentry": 7131,
      "Ġentertain": 7132,
      "-by": 7133,
      "Ġtreats": 7134,
      "Ġfuels": 7135,
      "Ġmeasurements": 7136,
      "Ġmarketing": 7137,
      "ĠMedical": 7138,
      "Ġloop": 7139,
      "Ġanalyze": 7140,
      "Ġpregnant": 7141,
      "ĠServices": 7142,
      "Ġelevated": 7143,
      "Ġceleb": 7144,
      "Ġcandid": 7145,
      "Ġculinary": 7146,
      "69": 7147,
      "81": 7148,
      "==": 7149,
      "Understanding": 7150,
      "night": 7151,
      "Ġsouthern": 7152,
      "Ġpane": 7153,
      "Ġrear": 7154,
      "ether": 7155,
      "oda": 7156,
      "aint": 7157,
      "Ġchosen": 7158,
      "Ġjoy": 7159,
      "ĠIncre": 7160,
      "ĠInformation": 7161,
      "Ġpreserve": 7162,
      "ommon": 7163,
      "Ġcontainers": 7164,
      "Ġfatty": 7165,
      "Ġintegr": 7166,
      "Ġwarning": 7167,
      "ĠRegular": 7168,
      "ENT": 7169,
      "Ġtissues": 7170,
      "Ġantioxid": 7171,
      "Ġadoption": 7172,
      "Ġdurable": 7173,
      "forcement": 7174,
      "Ġpilot": 7175,
      "Ġbranches": 7176,
      "\"We": 7177,
      "77": 7178,
      "ka": 7179,
      "rance": 7180,
      "sis": 7181,
      "vide": 7182,
      "ycle": 7183,
      "onut": 7184,
      "Ġcater": 7185,
      "esides": 7186,
      "Ġbrick": 7187,
      "anes": 7188,
      "Ġmer": 7189,
      "ifier": 7190,
      "ĠSometimes": 7191,
      "ĠCD": 7192,
      "ĠMach": 7193,
      "ĠHor": 7194,
      "ĠHouse": 7195,
      "Ġadhes": 7196,
      "Ġking": 7197,
      "Ġourselves": 7198,
      "Ġrequest": 7199,
      "Ġartist": 7200,
      "Ġradius": 7201,
      "Ġpredators": 7202,
      "Ġembry": 7203,
      "Ġrecycled": 7204,
      "Ġupdated": 7205,
      "Ġjoints": 7206,
      "stein": 7207,
      "ĠHyd": 7208,
      "Ġassembly": 7209,
      "Ġvessels": 7210,
      "Ġcabin": 7211,
      "Ġempty": 7212,
      "57": 7213,
      "82": 7214,
      "94": 7215,
      "SI": 7216,
      "Ġvel": 7217,
      "Ġthroat": 7218,
      "Ġdeploy": 7219,
      "ivated": 7220,
      "ivating": 7221,
      "Ġcompl": 7222,
      "Ġcompli": 7223,
      "ĠOF": 7224,
      "Ġsynthetic": 7225,
      "Ġpositions": 7226,
      "Ġfocusing": 7227,
      "Ġprobability": 7228,
      "Ġextraction": 7229,
      "Ġjobs": 7230,
      "Ġdemonstrated": 7231,
      "Ġreplacement": 7232,
      "Ġcategory": 7233,
      "ĠÂ·": 7234,
      "Ġcomplicated": 7235,
      "allel": 7236,
      "imensional": 7237,
      "Ġbiodiversity": 7238,
      "87": 7239,
      "ML": 7240,
      "Table": 7241,
      "uits": 7242,
      "Ġtick": 7243,
      "Ġtension": 7244,
      "Ġtrick": 7245,
      "Ġsan": 7246,
      "Ġreb": 7247,
      "omas": 7248,
      "Ġbeet": 7249,
      "uter": 7250,
      "ĠTreat": 7251,
      "iger": 7252,
      "Ġstead": 7253,
      "Ġstars": 7254,
      "ĠPract": 7255,
      "ĠMa": 7256,
      "Ġdeer": 7257,
      "Ġsoap": 7258,
      "Ġshouldn": 7259,
      "Ġinterview": 7260,
      "Ġbuff": 7261,
      "Ġassume": 7262,
      "Ġexplanation": 7263,
      "Ġcombust": 7264,
      "Ġheads": 7265,
      "Ġconsistency": 7266,
      "Ġmatrix": 7267,
      "Ġrobots": 7268,
      "Ġconcentrations": 7269,
      "Ġsuscept": 7270,
      "charge": 7271,
      "Ġgirls": 7272,
      "Ġescape": 7273,
      "86": 7274,
      "MP": 7275,
      "Me": 7276,
      "ael": 7277,
      "under": 7278,
      "word": 7279,
      "Ġtires": 7280,
      "orge": 7281,
      "ĠAD": 7282,
      "illation": 7283,
      "âĢľ": 7284,
      "rous": 7285,
      "Ġkilled": 7286,
      "ecess": 7287,
      "Ġunable": 7288,
      "Ġrocks": 7289,
      "Ġpartner": 7290,
      "Ġhelmet": 7291,
      "ĠJournal": 7292,
      "Ġbuck": 7293,
      "Ġeffectiveness": 7294,
      "Ġfunctioning": 7295,
      "Ġcombine": 7296,
      "lux": 7297,
      "Ġaddressing": 7298,
      "Ġdegrad": 7299,
      "Ġalternatives": 7300,
      "Ġtargets": 7301,
      "Ġdiameter": 7302,
      "Ġchamber": 7303,
      "Ġalkal": 7304,
      "Ġveterinarian": 7305,
      "Even": 7306,
      "Tra": 7307,
      "field": 7308,
      "Ġton": 7309,
      "Ġtough": 7310,
      "reens": 7311,
      "Ġpond": 7312,
      "Ġdol": 7313,
      "Ġdies": 7314,
      "Ġlighter": 7315,
      "Ġrect": 7316,
      "ston": 7317,
      "Ġprove": 7318,
      "amily": 7319,
      "thal": 7320,
      "acc": 7321,
      "ĠMal": 7322,
      "ĠBook": 7323,
      "Ġrib": 7324,
      "ials": 7325,
      "ĠHT": 7326,
      "berry": 7327,
      "ĠChinese": 7328,
      "Ġdecline": 7329,
      "Ġdistur": 7330,
      "Ġrequirement": 7331,
      "Ġequipped": 7332,
      "Ġperforming": 7333,
      "Ġdelve": 7334,
      "Ġsoils": 7335,
      "Ġcyl": 7336,
      "Ġaddresses": 7337,
      "agnetic": 7338,
      "Ġremoval": 7339,
      "Ġfibers": 7340,
      "Ġvisitors": 7341,
      "Ġabsorption": 7342,
      "Ġrubber": 7343,
      "Ġvertical": 7344,
      "\"Ċ": 7345,
      "-E": 7346,
      "dx": 7347,
      "Ġwings": 7348,
      "cture": 7349,
      "iments": 7350,
      "sters": 7351,
      "terior": 7352,
      "unting": 7353,
      "Ġranging": 7354,
      "ĠDisc": 7355,
      "ĠDespite": 7356,
      "ĠFinally": 7357,
      "Ġrecover": 7358,
      "luding": 7359,
      "Ġprone": 7360,
      "Ġrelation": 7361,
      "Ġobesity": 7362,
      "Ġdiscip": 7363,
      "Ġbrands": 7364,
      "ĠAmericans": 7365,
      "Ġopened": 7366,
      "ĠShould": 7367,
      "Ġlistening": 7368,
      "Ġversus": 7369,
      "Ġmixing": 7370,
      "Ġcompetitive": 7371,
      "ĠAmazon": 7372,
      "Ġevolutionary": 7373,
      "rimp": 7374,
      "Ġrevealed": 7375,
      "Ġnavigate": 7376,
      "Ġworksheets": 7377,
      "Ġenthusi": 7378,
      "AB": 7379,
      "Because": 7380,
      "IV": 7381,
      "lt": 7382,
      "itter": 7383,
      "Ġpairs": 7384,
      "Ġmere": 7385,
      "Ġduration": 7386,
      "ĠAND": 7387,
      "ĠSuper": 7388,
      "amic": 7389,
      "ĠMax": 7390,
      "Ġsug": 7391,
      "rium": 7392,
      "Ġcomposed": 7393,
      "Ġapps": 7394,
      "ĠUnder": 7395,
      "Ġsynthesis": 7396,
      "Ġthereby": 7397,
      "Ġdifferently": 7398,
      "Ġexamine": 7399,
      "Ġdiscomfort": 7400,
      "ĠProduct": 7401,
      "ĠThose": 7402,
      "Ġcalories": 7403,
      "Ġpollen": 7404,
      "Ġchickens": 7405,
      "Ġintroduce": 7406,
      "Ġrepresented": 7407,
      "Ġfunding": 7408,
      "Ġecological": 7409,
      "while": 7410,
      "Ġglasses": 7411,
      "ĠFrance": 7412,
      "Ġcircumstances": 7413,
      "ĠMedicine": 7414,
      "Ġpolicies": 7415,
      "',": 7416,
      "79": 7417,
      "rh": 7418,
      "Ġson": 7419,
      "Ġwing": 7420,
      "Ġwra": 7421,
      "Ġnorthern": 7422,
      "otype": 7423,
      "ĠCamp": 7424,
      "Ġchat": 7425,
      "ortion": 7426,
      "ĠDel": 7427,
      "outs": 7428,
      "ĠNeed": 7429,
      "izza": 7430,
      "ĠLaw": 7431,
      "Ġroles": 7432,
      "Ġdesk": 7433,
      "Ġbugs": 7434,
      "Ġsky": 7435,
      "Ġcorrel": 7436,
      "Ġvalve": 7437,
      "Ġshowc": 7438,
      "Ġadvis": 7439,
      "Ġdrag": 7440,
      "Ġdirections": 7441,
      "Ġbusy": 7442,
      "Ġrestrict": 7443,
      "Ġsales": 7444,
      "Ġregardless": 7445,
      "Ġethanol": 7446,
      "ĠChristmas": 7447,
      "Ġhighlights": 7448,
      "TION": 7449,
      "Ġbowl": 7450,
      "ĠGerman": 7451,
      "Ġcolleagues": 7452,
      "Ġunusual": 7453,
      "Go": 7454,
      "ME": 7455,
      "Water": 7456,
      "ras": 7457,
      "rument": 7458,
      "van": 7459,
      "herent": 7460,
      "Ġcourses": 7461,
      "Ġore": 7462,
      "Ġmes": 7463,
      "Ġdried": 7464,
      "Ġforced": 7465,
      "Ġplus": 7466,
      "ĠFigure": 7467,
      "ĠLabor": 7468,
      "Ġprocessed": 7469,
      "Ġforming": 7470,
      "rosion": 7471,
      "Ġorganized": 7472,
      "Ġgreatest": 7473,
      "Ġcenturies": 7474,
      "Ġbasics": 7475,
      "Ġfocuses": 7476,
      "Ġlegis": 7477,
      "Ġspeeds": 7478,
      "Which": 7479,
      "ĠUSA": 7480,
      "Ġlawn": 7481,
      "Ġprecision": 7482,
      "Ġsubjects": 7483,
      "Ġfitness": 7484,
      "Ġdocuments": 7485,
      "Ġmutations": 7486,
      "Art": 7487,
      "Ġhormone": 7488,
      "Ġvinegar": 7489,
      "nabis": 7490,
      ".The": 7491,
      ".)ĊĊ": 7492,
      "Man": 7493,
      "Well": 7494,
      "bage": 7495,
      "pat": 7496,
      "wo": 7497,
      "Ġty": 7498,
      "onents": 7499,
      "Ġdive": 7500,
      "Ġislands": 7501,
      "uty": 7502,
      "eli": 7503,
      "ĠSun": 7504,
      "Ġcomments": 7505,
      "emporary": 7506,
      "ĠPen": 7507,
      "ria": 7508,
      "ĠEqu": 7509,
      "agon": 7510,
      "Ġsole": 7511,
      "ĠOx": 7512,
      "Ġincome": 7513,
      "berries": 7514,
      "hyth": 7515,
      "Ġdiver": 7516,
      "Ġchest": 7517,
      "Ġgenerations": 7518,
      "Ġrising": 7519,
      "Ġplane": 7520,
      "Ġserver": 7521,
      "Ġinvolving": 7522,
      "Ġletters": 7523,
      "Ġradi": 7524,
      "Ġsnake": 7525,
      "Ġversions": 7526,
      "Ġcrack": 7527,
      "ĠAcid": 7528,
      "ĠCommun": 7529,
      "Ġutilize": 7530,
      "ĠSpanish": 7531,
      "comp": 7532,
      "mble": 7533,
      "pan": 7534,
      "Ġtons": 7535,
      "Ġsoci": 7536,
      "Ġpand": 7537,
      "Ġpine": 7538,
      "Ġfell": 7539,
      "Ġfalse": 7540,
      "edge": 7541,
      "omin": 7542,
      "Ġgest": 7543,
      "Ġgender": 7544,
      "ĠCa": 7545,
      "ĠWork": 7546,
      "mented": 7547,
      "istant": 7548,
      "ĠPublic": 7549,
      "ĠMath": 7550,
      "Ġchol": 7551,
      "Ġdoors": 7552,
      "ĠFin": 7553,
      "ĠFace": 7554,
      "rian": 7555,
      "aren": 7556,
      "Ġclients": 7557,
      "Ġquiet": 7558,
      "Ġindex": 7559,
      "ubric": 7560,
      "Ġagents": 7561,
      "Ġgravity": 7562,
      "Ġserving": 7563,
      "Ġpassing": 7564,
      "Ġletter": 7565,
      "Ġacidic": 7566,
      "ĠIsland": 7567,
      "Ġworkshop": 7568,
      "Ġcharacterized": 7569,
      "Ġquantity": 7570,
      "Ġaggressive": 7571,
      "ĠSystems": 7572,
      "Ġsavings": 7573,
      "Ġincredible": 7574,
      "Ġtomatoes": 7575,
      "´ëıĦ": 7576,
      "Ġsatellite": 7577,
      ",ĊĊ": 7578,
      "kers": 7579,
      "tles": 7580,
      "Ġcake": 7581,
      "itches": 7582,
      "Ġpip": 7583,
      "Ġinch": 7584,
      "arn": 7585,
      "utical": 7586,
      "Ġstatic": 7587,
      "ĠCert": 7588,
      "advant": 7589,
      "Ġneur": 7590,
      "Ġrivers": 7591,
      "Ġplacing": 7592,
      "Ġjack": 7593,
      "Ġprevents": 7594,
      "Ġsched": 7595,
      "ondon": 7596,
      "Ġhealthier": 7597,
      "Ġcurious": 7598,
      "Ġposts": 7599,
      "Ġfacility": 7600,
      "Ġsequences": 7601,
      "Ġspeaking": 7602,
      "Ġimplant": 7603,
      "Ġgolden": 7604,
      "Ġcomplications": 7605,
      ".'": 7606,
      "NS": 7607,
      "PC": 7608,
      "Ġsou": 7609,
      "Ġoceans": 7610,
      "Ġpiv": 7611,
      "Ġbind": 7612,
      "Ġmouse": 7613,
      "Ġlux": 7614,
      "Ġreverse": 7615,
      "Ġreached": 7616,
      "ĠTer": 7617,
      "ĠSl": 7618,
      "ĠSing": 7619,
      "ĠBur": 7620,
      "Ġrating": 7621,
      "Ġranges": 7622,
      "Ġcolored": 7623,
      "text": 7624,
      "Ġcheaper": 7625,
      "Ġremed": 7626,
      "Ġinspect": 7627,
      "ommod": 7628,
      "Ġtreating": 7629,
      "atching": 7630,
      "Ġcleaner": 7631,
      "Ġdirector": 7632,
      "Ġoccurred": 7633,
      "Ġstraw": 7634,
      "Ġlaid": 7635,
      "rigation": 7636,
      "Ġdrops": 7637,
      "Ġsuffering": 7638,
      "Ġevaluate": 7639,
      "Ġflexible": 7640,
      "Ġfertilizer": 7641,
      "Ġsatisfact": 7642,
      "ĠDogs": 7643,
      "Ġexpansion": 7644,
      "Ġgentle": 7645,
      "AG": 7646,
      "Sm": 7647,
      "do": 7648,
      "ww": 7649,
      "Ġion": 7650,
      "Ġpear": 7651,
      "Ġpose": 7652,
      "Ġpink": 7653,
      "Ġbought": 7654,
      "Ġfif": 7655,
      "Ġmask": 7656,
      "astern": 7657,
      "Ġthrow": 7658,
      "Ġnor": 7659,
      "imm": 7660,
      "amination": 7661,
      "this": 7662,
      "ĠMr": 7663,
      "ptic": 7664,
      "ĠNC": 7665,
      "ultane": 7666,
      "Ġuniform": 7667,
      "Ġhumidity": 7668,
      "Ġsetup": 7669,
      "Ġmini": 7670,
      "Ġfinds": 7671,
      "Ġconfident": 7672,
      "Ġinterests": 7673,
      "coming": 7674,
      "ĠLevel": 7675,
      "Share": 7676,
      "Ġestimates": 7677,
      "esterol": 7678,
      "Ġmetabolic": 7679,
      "Ġconvenient": 7680,
      "Ġvulnerable": 7681,
      "Ġunderstood": 7682,
      "eff": 7683,
      "iological": 7684,
      "no": 7685,
      "©´ëıĦ": 7686,
      "Ġcub": 7687,
      "Ġfather": 7688,
      "Ġstreet": 7689,
      "ĠCF": 7690,
      "iller": 7691,
      "ĠDire": 7692,
      "alls": 7693,
      "ostic": 7694,
      "ĠRob": 7695,
      "Ġunknown": 7696,
      "anger": 7697,
      "oving": 7698,
      "Ġreput": 7699,
      "Ġsupplies": 7700,
      "ĠChoose": 7701,
      "ribed": 7702,
      "engers": 7703,
      "Ġreads": 7704,
      "ĠProcess": 7705,
      "Ġcombat": 7706,
      "Ġera": 7707,
      "Ġpreparing": 7708,
      "Ġadapted": 7709,
      "Ġalgae": 7710,
      "Ġdistributed": 7711,
      "Ġthreats": 7712,
      "Ġaquatic": 7713,
      "Ġresilience": 7714,
      ".C": 7715,
      "84": 7716,
      "OC": 7717,
      "ket": 7718,
      "lied": 7719,
      "Ġwider": 7720,
      "itivity": 7721,
      "Ġhat": 7722,
      "utch": 7723,
      "urrent": 7724,
      "Ġexchange": 7725,
      "Ġdoctors": 7726,
      "ĠFish": 7727,
      "ogether": 7728,
      "aceutical": 7729,
      "Ġperoxide": 7730,
      "Ġschem": 7731,
      "Ġtraits": 7732,
      "ĠJames": 7733,
      "plete": 7734,
      "Ġpotassium": 7735,
      "Ġcoral": 7736,
      "ĠUnfortunately": 7737,
      "Ġcharged": 7738,
      "Ġmetric": 7739,
      "Ġnuts": 7740,
      "Ġparking": 7741,
      "Ġmarks": 7742,
      "reshold": 7743,
      "Ġexperimental": 7744,
      "Ġreviews": 7745,
      "Ġincorporate": 7746,
      "Ġaffordable": 7747,
      "Ġcrisis": 7748,
      "-and": 7749,
      "Ac": 7750,
      "BA": 7751,
      "dent": 7752,
      "win": 7753,
      "war": 7754,
      "ÂŃ": 7755,
      "Ġ...Ċ": 7756,
      "Ġaids": 7757,
      "heat": 7758,
      "itage": 7759,
      "ounce": 7760,
      "icular": 7761,
      "Ġlosing": 7762,
      "ometer": 7763,
      "Ġgum": 7764,
      "otive": 7765,
      "ĠAud": 7766,
      "ĠMass": 7767,
      "Ġshop": 7768,
      "Ġspr": 7769,
      "ĠDu": 7770,
      "ĠFollow": 7771,
      "Ġresc": 7772,
      "Ġdisrupt": 7773,
      "Ġperce": 7774,
      "berg": 7775,
      "ĠStand": 7776,
      "Ġreprodu": 7777,
      "Ġextension": 7778,
      "Ġcorpor": 7779,
      "ditional": 7780,
      "Ġediting": 7781,
      "ĠPlants": 7782,
      "Ġmarkets": 7783,
      "Ġtruck": 7784,
      "ĠConst": 7785,
      "Ġreceiving": 7786,
      "ĠAtt": 7787,
      "Ġpathogens": 7788,
      "Ġsuperior": 7789,
      "itudes": 7790,
      "ĠTraining": 7791,
      "flies": 7792,
      "ĠRNAs": 7793,
      "Ġriding": 7794,
      "##": 7795,
      "OL": 7796,
      "Of": 7797,
      "SE": 7798,
      "Sim": 7799,
      "ëĤ": 7800,
      "Ġtens": 7801,
      "inating": 7802,
      "hered": 7803,
      "alog": 7804,
      "Ġmob": 7805,
      "rog": 7806,
      "asma": 7807,
      "Ġthy": 7808,
      "Ġanat": 7809,
      "Ġchip": 7810,
      "Ġatom": 7811,
      "ĠEc": 7812,
      "weet": 7813,
      "Ġflag": 7814,
      "ints": 7815,
      "Ġintermedi": 7816,
      "Ġaccidents": 7817,
      "Ġinsurance": 7818,
      "Ġgrain": 7819,
      "Ġcomplement": 7820,
      "Ġcenters": 7821,
      "Ġbelie": 7822,
      "ĠNews": 7823,
      "Ġinvesting": 7824,
      "Ġdrying": 7825,
      "Ġfarms": 7826,
      "Ġpackage": 7827,
      "Ġobservations": 7828,
      "Ġexcited": 7829,
      "Ġutilized": 7830,
      "ependent": 7831,
      "ersonal": 7832,
      "Ġalleles": 7833,
      "ĠPhotos": 7834,
      "Ġhousing": 7835,
      "ĠMarket": 7836,
      "Ġlaptop": 7837,
      "-old": 7838,
      "-cl": 7839,
      "IR": 7840,
      "Pa": 7841,
      "mia": 7842,
      "inters": 7843,
      "onom": 7844,
      "Ġwast": 7845,
      "itos": 7846,
      "Ġpipe": 7847,
      "Ġbare": 7848,
      "icit": 7849,
      "lete": 7850,
      "Ġho": 7851,
      "Ġnine": 7852,
      "Ġyard": 7853,
      "ĠTop": 7854,
      "Ġsto": 7855,
      "estone": 7856,
      "Ġvan": 7857,
      "ĠMess": 7858,
      "ĠMart": 7859,
      "ĠFA": 7860,
      "ĠResp": 7861,
      "Ġintensity": 7862,
      "ĠLow": 7863,
      "ulture": 7864,
      "Ġvariations": 7865,
      "Ġinstrument": 7866,
      "âĢĻre": 7867,
      "ĠProper": 7868,
      "Ġpolar": 7869,
      "Ġfunctionality": 7870,
      "Ġcaps": 7871,
      "Ġpromise": 7872,
      "Ġpathways": 7873,
      "Ġbarrier": 7874,
      "Ġaccurately": 7875,
      "Ġconversion": 7876,
      "Ġupdate": 7877,
      "Just": 7878,
      "fol": 7879,
      "log": 7880,
      "rial": 7881,
      "inent": 7882,
      "Ġbin": 7883,
      "Ġbull": 7884,
      "Ġfost": 7885,
      "Ġdense": 7886,
      "icon": 7887,
      "Ġbee": 7888,
      "imen": 7889,
      "ĠSa": 7890,
      "ĠCorn": 7891,
      "Ġusual": 7892,
      "Ġatomic": 7893,
      "Ġplain": 7894,
      "ĠLondon": 7895,
      "Ġjew": 7896,
      "avy": 7897,
      "Ġapple": 7898,
      "Ġscores": 7899,
      "Ġinstrum": 7900,
      "Ġtechnological": 7901,
      "Ġvector": 7902,
      "Ġsensory": 7903,
      "Ġwarmer": 7904,
      "Ġindicated": 7905,
      "ĠAustralian": 7906,
      "Ġlimitations": 7907,
      "Ġshelter": 7908,
      "Ġgirl": 7909,
      "roductive": 7910,
      "Ġhonest": 7911,
      "Ġfurniture": 7912,
      "Ġmathematical": 7913,
      "ĠMexico": 7914,
      "ĠAtlantic": 7915,
      "Com": 7916,
      "fire": 7917,
      "kl": 7918,
      "Ġtab": 7919,
      "Ġtoile": 7920,
      "iche": 7921,
      "icul": 7922,
      "icity": 7923,
      "ctu": 7924,
      "Ġreaches": 7925,
      "Ġgently": 7926,
      "ĠTips": 7927,
      "ĠAlex": 7928,
      "Ġstabil": 7929,
      "ĠSal": 7930,
      "ĠSil": 7931,
      "Ġheater": 7932,
      "ĠPet": 7933,
      "Ġspices": 7934,
      "ĠLeg": 7935,
      "Ġscar": 7936,
      "Ġcommands": 7937,
      "bert": 7938,
      "Ġpeak": 7939,
      "othing": 7940,
      "Ġinvent": 7941,
      "Ġcrew": 7942,
      "Ġcontained": 7943,
      "Ġobjectives": 7944,
      "Ġparad": 7945,
      "-dimensional": 7946,
      "Ġbridge": 7947,
      "ĠClub": 7948,
      "Ġlabels": 7949,
      "ĠConf": 7950,
      "Ġfrustr": 7951,
      "ĠBlood": 7952,
      "Ġlanguages": 7953,
      "Ġcovering": 7954,
      "Ġmagnet": 7955,
      "Ġhunt": 7956,
      "ĠConservation": 7957,
      "Ġroads": 7958,
      "ĠMaybe": 7959,
      "Ġpriority": 7960,
      "Ġinvestigate": 7961,
      "Ġcarrying": 7962,
      "Ġgraphics": 7963,
      "Ġdynamics": 7964,
      "Ġrepeat": 7965,
      "ĠPresident": 7966,
      "Ġdurability": 7967,
      "expected": 7968,
      "ĠWildlife": 7969,
      "Ġdollars": 7970,
      "Ġcampaign": 7971,
      "Related": 7972,
      "meg": 7973,
      "oz": 7974,
      "rative": 7975,
      "Ġille": 7976,
      "Ġcure": 7977,
      "Ġbrows": 7978,
      "Ġfant": 7979,
      "Ġfract": 7980,
      "Ġfilling": 7981,
      "Ġharsh": 7982,
      "Ġlie": 7983,
      "Ġrept": 7984,
      "othy": 7985,
      "olars": 7986,
      "ĠAns": 7987,
      "Ġstorm": 7988,
      "Ġants": 7989,
      "ĠCut": 7990,
      "anta": 7991,
      "ĠMult": 7992,
      "ĠRet": 7993,
      "Ġadverse": 7994,
      "Ġreson": 7995,
      "Ġresolution": 7996,
      "Ġsyndrome": 7997,
      "Ġextinction": 7998,
      "Ġpots": 7999,
      "Ġgray": 8000,
      "Ġboiling": 8001,
      "Ġanalog": 8002,
      "Ġparallel": 8003,
      "Ġretur": 8004,
      "Ġfreedom": 8005,
      "ĠPrinc": 8006,
      "Ġutilizing": 8007,
      "Ġfrost": 8008,
      "Ġattractive": 8009,
      "Ġinitiatives": 8010,
      "Ġincredibly": 8011,
      "Ġtubes": 8012,
      "igenous": 8013,
      "Ġcombustion": 8014,
      "-day": 8015,
      "Source": 8016,
      "fast": 8017,
      "rical": 8018,
      "Ġsaving": 8019,
      "Ġcred": 8020,
      "Ġdrought": 8021,
      "Ġbeam": 8022,
      "ĠTre": 8023,
      "Ġshock": 8024,
      "udd": 8025,
      "ĠEth": 8026,
      "Ġworms": 8027,
      "Ġbutt": 8028,
      "Ġpreval": 8029,
      "Ġovercome": 8030,
      "atures": 8031,
      "Ġmodified": 8032,
      "Ġinvasive": 8033,
      "Ġaccommod": 8034,
      "Ġsettle": 8035,
      "Ġdesigning": 8036,
      "Ġdistract": 8037,
      "Ġdriven": 8038,
      "Ġclassification": 8039,
      "Ġflowering": 8040,
      "Ġcycles": 8041,
      "Ġoccurring": 8042,
      "Ġstrains": 8043,
      "hemistry": 8044,
      "Ġforeign": 8045,
      "ĠQuestions": 8046,
      "Ġdebate": 8047,
      "Ġpriorit": 8048,
      "ĠInteg": 8049,
      "working": 8050,
      "Ġwelcome": 8051,
      "Ġgarlic": 8052,
      "Ġfoam": 8053,
      "ĠDavid": 8054,
      "Ġcarbohydrates": 8055,
      "Ġathletes": 8056,
      "Make": 8057,
      "cies": 8058,
      "lock": 8059,
      "Ġí": 8060,
      "Ġsle": 8061,
      "Ġselling": 8062,
      "Ġsections": 8063,
      "Ġcav": 8064,
      "Ġloud": 8065,
      "utive": 8066,
      "ĠIB": 8067,
      "amar": 8068,
      "Ġheated": 8069,
      "ĠDid": 8070,
      "Ġimper": 8071,
      "Ġcompens": 8072,
      "Ġkay": 8073,
      "ague": 8074,
      "Ġjaw": 8075,
      "Ġdesire": 8076,
      "Ġtwist": 8077,
      "Ġinfest": 8078,
      "Ġrequiring": 8079,
      "there": 8080,
      "-making": 8081,
      "ĠApplic": 8082,
      "Ġheavily": 8083,
      "ĠAccess": 8084,
      "Ġdanger": 8085,
      "Ġmutation": 8086,
      "Ġinvestigation": 8087,
      "rolog": 8088,
      "Ġevaluation": 8089,
      "Ġdependent": 8090,
      "Ġdinosaurs": 8091,
      "Ġqualities": 8092,
      "Ġboundaries": 8093,
      "Ġleadership": 8094,
      "Ġvaccine": 8095,
      "Ġstruggle": 8096,
      "Ġneighborhood": 8097,
      "ĠCarolina": 8098,
      "gien": 8099,
      "zil": 8100,
      "oral": 8101,
      "oured": 8102,
      "Ġloyal": 8103,
      "oted": 8104,
      "ĠTable": 8105,
      "Ġfort": 8106,
      "Ġstunning": 8107,
      "ĠCreat": 8108,
      "Ġexists": 8109,
      "ĠWord": 8110,
      "osqu": 8111,
      "Ġrough": 8112,
      "ocity": 8113,
      "actions": 8114,
      "Ġimaging": 8115,
      "Ġcompact": 8116,
      "ĠRober": 8117,
      "Ġkne": 8118,
      "ĠNAS": 8119,
      "agers": 8120,
      "Ġfever": 8121,
      "ailable": 8122,
      "lectric": 8123,
      "Ġindeed": 8124,
      "Ġpresents": 8125,
      "Ġdrawn": 8126,
      "-con": 8127,
      "Ġengineers": 8128,
      "Ġfaced": 8129,
      "Ġcriteria": 8130,
      "umbing": 8131,
      "Expl": 8132,
      "Ġimplemented": 8133,
      "aturday": 8134,
      "Ġatmospheric": 8135,
      "Ġmagic": 8136,
      "Ġcitizens": 8137,
      "oir": 8138,
      "Ġwalks": 8139,
      "Ġfranchise": 8140,
      "ĠArab": 8141,
      "ĠSuch": 8142,
      "uning": 8143,
      "Ġvaries": 8144,
      "ĠFre": 8145,
      "pling": 8146,
      "Ġoutcome": 8147,
      "Ġparties": 8148,
      "Ġrecre": 8149,
      "onscious": 8150,
      "ĠChange": 8151,
      "Ġstrange": 8152,
      "Ġpersonality": 8153,
      "Ġgreens": 8154,
      "Ġequil": 8155,
      "unday": 8156,
      "Ġpolice": 8157,
      "afe": 8158,
      "bean": 8159,
      "ĠClick": 8160,
      "Ġterrit": 8161,
      "Ġmaintained": 8162,
      "Ġregulate": 8163,
      "Ġpopularity": 8164,
      "Ġinspired": 8165,
      "Ġimplementing": 8166,
      "Ġroofs": 8167,
      "Ġcontrolling": 8168,
      "Ġë©´ëıĦ": 8169,
      "Ġelectrode": 8170,
      "Ġagreement": 8171,
      "Ġdivision": 8172,
      "-rich": 8173,
      "Ġtranscription": 8174,
      "Ġabundance": 8175,
      "ĠGolden": 8176,
      "Ġintegrity": 8177,
      "itosan": 8178,
      "Am": 8179,
      "list": 8180,
      "oos": 8181,
      "Ġes": 8182,
      "hent": 8183,
      "itives": 8184,
      "Ġpacific": 8185,
      "Ġda": 8186,
      "Ġdys": 8187,
      "rained": 8188,
      "Ġstir": 8189,
      "ulating": 8190,
      "ĠSqu": 8191
    },
    "merges": [
      [
        "Ġ",
        "t"
      ],
      [
        "Ġ",
        "a"
      ],
      [
        "i",
        "n"
      ],
      [
        "h",
        "e"
      ],
      [
        "r",
        "e"
      ],
      [
        "o",
        "n"
      ],
      [
        "Ġt",
        "he"
      ],
      [
        "e",
        "r"
      ],
      [
        "Ġ",
        "s"
      ],
      [
        "a",
        "t"
      ],
      [
        "Ġ",
        "c"
      ],
      [
        "Ġ",
        "o"
      ],
      [
        "e",
        "s"
      ],
      [
        "e",
        "n"
      ],
      [
        "Ġ",
        "w"
      ],
      [
        "n",
        "d"
      ],
      [
        "in",
        "g"
      ],
      [
        "i",
        "t"
      ],
      [
        "i",
        "s"
      ],
      [
        "Ġ",
        "p"
      ],
      [
        "Ġ",
        "b"
      ],
      [
        "o",
        "r"
      ],
      [
        "Ġ",
        "f"
      ],
      [
        "o",
        "u"
      ],
      [
        "a",
        "l"
      ],
      [
        "a",
        "n"
      ],
      [
        "Ġ",
        "m"
      ],
      [
        "e",
        "d"
      ],
      [
        "Ġt",
        "o"
      ],
      [
        "Ġ",
        "in"
      ],
      [
        "Ġo",
        "f"
      ],
      [
        "a",
        "r"
      ],
      [
        "Ġa",
        "nd"
      ],
      [
        "Ġ",
        "d"
      ],
      [
        "i",
        "on"
      ],
      [
        "i",
        "c"
      ],
      [
        "l",
        "e"
      ],
      [
        "r",
        "o"
      ],
      [
        "a",
        "s"
      ],
      [
        "Ġ",
        "h"
      ],
      [
        "Ġt",
        "h"
      ],
      [
        "c",
        "t"
      ],
      [
        "en",
        "t"
      ],
      [
        "Ġ",
        "e"
      ],
      [
        "Ġ",
        "l"
      ],
      [
        "i",
        "l"
      ],
      [
        "v",
        "e"
      ],
      [
        "Ġ",
        "re"
      ],
      [
        "o",
        "m"
      ],
      [
        "u",
        "s"
      ],
      [
        ".",
        "Ċ"
      ],
      [
        "Ġ",
        "is"
      ],
      [
        "Ġ",
        "n"
      ],
      [
        "e",
        "t"
      ],
      [
        "Ġ",
        "y"
      ],
      [
        "l",
        "y"
      ],
      [
        "Ġ",
        "g"
      ],
      [
        "Ġy",
        "ou"
      ],
      [
        "Ġb",
        "e"
      ],
      [
        "u",
        "t"
      ],
      [
        "o",
        "w"
      ],
      [
        "o",
        "t"
      ],
      [
        "i",
        "m"
      ],
      [
        "i",
        "d"
      ],
      [
        "o",
        "l"
      ],
      [
        "Ġ",
        "T"
      ],
      [
        "s",
        "t"
      ],
      [
        "c",
        "e"
      ],
      [
        "i",
        "g"
      ],
      [
        "Ġf",
        "or"
      ],
      [
        "r",
        "a"
      ],
      [
        "Ġ",
        "A"
      ],
      [
        "c",
        "h"
      ],
      [
        "at",
        "ion"
      ],
      [
        "u",
        "r"
      ],
      [
        "Ġ",
        "on"
      ],
      [
        "Ġs",
        "t"
      ],
      [
        "Ġ",
        "I"
      ],
      [
        "Ġth",
        "at"
      ],
      [
        "i",
        "r"
      ],
      [
        "e",
        "l"
      ],
      [
        "v",
        "er"
      ],
      [
        "u",
        "l"
      ],
      [
        "Ġ",
        "it"
      ],
      [
        "a",
        "y"
      ],
      [
        "it",
        "h"
      ],
      [
        "Ġa",
        "re"
      ],
      [
        "Ġp",
        "ro"
      ],
      [
        "i",
        "f"
      ],
      [
        "s",
        "e"
      ],
      [
        "Ġa",
        "n"
      ],
      [
        "Ġw",
        "ith"
      ],
      [
        "Ġ",
        "S"
      ],
      [
        ".Ċ",
        "Ċ"
      ],
      [
        "a",
        "m"
      ],
      [
        "Ġc",
        "on"
      ],
      [
        "o",
        "d"
      ],
      [
        "Ġa",
        "s"
      ],
      [
        "Ġo",
        "r"
      ],
      [
        "es",
        "t"
      ],
      [
        "Ġa",
        "l"
      ],
      [
        "Ġh",
        "a"
      ],
      [
        "he",
        "r"
      ],
      [
        "Ġ",
        "C"
      ],
      [
        "Ċ",
        "Ċ"
      ],
      [
        "t",
        "er"
      ],
      [
        "k",
        "e"
      ],
      [
        "u",
        "n"
      ],
      [
        "Ġw",
        "h"
      ],
      [
        "u",
        "re"
      ],
      [
        "Ġc",
        "an"
      ],
      [
        "es",
        "s"
      ],
      [
        "g",
        "e"
      ],
      [
        "a",
        "d"
      ],
      [
        "Ġc",
        "om"
      ],
      [
        "il",
        "l"
      ],
      [
        "a",
        "b"
      ],
      [
        "ĠT",
        "he"
      ],
      [
        "at",
        "e"
      ],
      [
        "Ġe",
        "x"
      ],
      [
        "u",
        "m"
      ],
      [
        "Ġ",
        "he"
      ],
      [
        "Ġ",
        "W"
      ],
      [
        "o",
        "re"
      ],
      [
        "an",
        "t"
      ],
      [
        "e",
        "ct"
      ],
      [
        "t",
        "h"
      ],
      [
        "er",
        "s"
      ],
      [
        "i",
        "ve"
      ],
      [
        "ig",
        "h"
      ],
      [
        "q",
        "u"
      ],
      [
        "Ġ",
        "us"
      ],
      [
        "m",
        "ent"
      ],
      [
        "p",
        "p"
      ],
      [
        "'",
        "s"
      ],
      [
        "Ġw",
        "e"
      ],
      [
        "i",
        "es"
      ],
      [
        "e",
        "m"
      ],
      [
        "o",
        "p"
      ],
      [
        "it",
        "y"
      ],
      [
        "Ġyou",
        "r"
      ],
      [
        "Ġ",
        "v"
      ],
      [
        "a",
        "c"
      ],
      [
        "o",
        "s"
      ],
      [
        "l",
        "d"
      ],
      [
        "Ġ",
        "("
      ],
      [
        "a",
        "in"
      ],
      [
        "is",
        "t"
      ],
      [
        "Ġ",
        "P"
      ],
      [
        "Ġ",
        "M"
      ],
      [
        "Ġd",
        "e"
      ],
      [
        "ro",
        "m"
      ],
      [
        "Ġn",
        "e"
      ],
      [
        "Ġc",
        "h"
      ],
      [
        "Ġ",
        "en"
      ],
      [
        "Ġ",
        "B"
      ],
      [
        "Ġ",
        "r"
      ],
      [
        "Ġs",
        "e"
      ],
      [
        "Ġs",
        "u"
      ],
      [
        "Ġs",
        "h"
      ],
      [
        "Ġa",
        "t"
      ],
      [
        "Ġs",
        "p"
      ],
      [
        "i",
        "al"
      ],
      [
        "i",
        "v"
      ],
      [
        "Ġ",
        "le"
      ],
      [
        "Ġha",
        "ve"
      ],
      [
        "or",
        "t"
      ],
      [
        "Ġd",
        "o"
      ],
      [
        "Ġf",
        "rom"
      ],
      [
        "re",
        "s"
      ],
      [
        "igh",
        "t"
      ],
      [
        "n",
        "t"
      ],
      [
        "Ġn",
        "ot"
      ],
      [
        "Ġ",
        "D"
      ],
      [
        "ar",
        "t"
      ],
      [
        "Ġp",
        "l"
      ],
      [
        "Ġb",
        "y"
      ],
      [
        "Ġ",
        "H"
      ],
      [
        "o",
        "c"
      ],
      [
        "us",
        "t"
      ],
      [
        "a",
        "nd"
      ],
      [
        "u",
        "d"
      ],
      [
        "al",
        "l"
      ],
      [
        "Ġ",
        "F"
      ],
      [
        "p",
        "er"
      ],
      [
        "Ġth",
        "is"
      ],
      [
        "om",
        "e"
      ],
      [
        "ic",
        "al"
      ],
      [
        "r",
        "i"
      ],
      [
        "id",
        "e"
      ],
      [
        "â",
        "Ģ"
      ],
      [
        "ou",
        "ld"
      ],
      [
        "Ġa",
        "b"
      ],
      [
        "r",
        "ou"
      ],
      [
        "Ġ",
        "E"
      ],
      [
        "Ġ",
        "u"
      ],
      [
        "in",
        "e"
      ],
      [
        "a",
        "ct"
      ],
      [
        "d",
        "u"
      ],
      [
        "p",
        "t"
      ],
      [
        "el",
        "l"
      ],
      [
        "ion",
        "s"
      ],
      [
        "o",
        "g"
      ],
      [
        "ou",
        "t"
      ],
      [
        "Ġ",
        "im"
      ],
      [
        "o",
        "st"
      ],
      [
        "Ġcom",
        "p"
      ],
      [
        "Ġ",
        "R"
      ],
      [
        "Ġm",
        "a"
      ],
      [
        "n",
        "s"
      ],
      [
        "ar",
        "d"
      ],
      [
        "as",
        "t"
      ],
      [
        "e",
        "re"
      ],
      [
        "o",
        "od"
      ],
      [
        "Ġw",
        "ill"
      ],
      [
        "Ġw",
        "he"
      ],
      [
        "ic",
        "h"
      ],
      [
        "Ġin",
        "t"
      ],
      [
        "Ġw",
        "or"
      ],
      [
        "ou",
        "r"
      ],
      [
        "Ġa",
        "d"
      ],
      [
        "Ġ",
        "k"
      ],
      [
        "Ġthe",
        "y"
      ],
      [
        "g",
        "h"
      ],
      [
        "Ġthe",
        "ir"
      ],
      [
        "t",
        "her"
      ],
      [
        "f",
        "f"
      ],
      [
        "Ġ",
        "N"
      ],
      [
        "k",
        "ing"
      ],
      [
        "T",
        "he"
      ],
      [
        "i",
        "z"
      ],
      [
        "at",
        "er"
      ],
      [
        "a",
        "ge"
      ],
      [
        "i",
        "p"
      ],
      [
        "Ġ",
        "L"
      ],
      [
        "e",
        "c"
      ],
      [
        "a",
        "re"
      ],
      [
        "Ġw",
        "as"
      ],
      [
        "at",
        "ed"
      ],
      [
        "Ġal",
        "l"
      ],
      [
        "ab",
        "le"
      ],
      [
        "Ġm",
        "ore"
      ],
      [
        "a",
        "g"
      ],
      [
        "Ġcon",
        "t"
      ],
      [
        "p",
        "l"
      ],
      [
        "en",
        "d"
      ],
      [
        "ul",
        "t"
      ],
      [
        "h",
        "at"
      ],
      [
        "Ġ",
        "G"
      ],
      [
        "Ġs",
        "o"
      ],
      [
        "i",
        "b"
      ],
      [
        "an",
        "s"
      ],
      [
        "k",
        "s"
      ],
      [
        "Ġb",
        "ut"
      ],
      [
        "o",
        "o"
      ],
      [
        "in",
        "d"
      ],
      [
        "al",
        "ly"
      ],
      [
        "e",
        "ar"
      ],
      [
        "Ġre",
        "s"
      ],
      [
        "ou",
        "s"
      ],
      [
        "Ġt",
        "e"
      ],
      [
        "Ġ",
        "O"
      ],
      [
        "s",
        "o"
      ],
      [
        "on",
        "g"
      ],
      [
        "e",
        "p"
      ],
      [
        "i",
        "ke"
      ],
      [
        "Ġa",
        "c"
      ],
      [
        "Ġin",
        "c"
      ],
      [
        "w",
        "er"
      ],
      [
        "Ġ",
        "j"
      ],
      [
        "r",
        "u"
      ],
      [
        "an",
        "ce"
      ],
      [
        "est",
        "ion"
      ],
      [
        "Ġh",
        "as"
      ],
      [
        "Ġm",
        "e"
      ],
      [
        "r",
        "y"
      ],
      [
        "a",
        "p"
      ],
      [
        "Ġo",
        "ut"
      ],
      [
        "or",
        "m"
      ],
      [
        "Ġc",
        "l"
      ],
      [
        "Q",
        "u"
      ],
      [
        "Ġwh",
        "ich"
      ],
      [
        "ve",
        "l"
      ],
      [
        "i",
        "re"
      ],
      [
        "Ġ",
        "un"
      ],
      [
        "Ġ",
        "\""
      ],
      [
        "2",
        "0"
      ],
      [
        "ation",
        "s"
      ],
      [
        "h",
        "is"
      ],
      [
        "Ġd",
        "is"
      ],
      [
        "ent",
        "s"
      ],
      [
        "Ġim",
        "p"
      ],
      [
        "Ġm",
        "an"
      ],
      [
        "Ġo",
        "ther"
      ],
      [
        "Ġp",
        "re"
      ],
      [
        "c",
        "ess"
      ],
      [
        "'",
        "t"
      ],
      [
        "en",
        "s"
      ],
      [
        "on",
        "e"
      ],
      [
        "Ġal",
        "so"
      ],
      [
        "Ġt",
        "im"
      ],
      [
        "Ġon",
        "e"
      ],
      [
        "a",
        "v"
      ],
      [
        "ns",
        "wer"
      ],
      [
        "a",
        "ce"
      ],
      [
        "Qu",
        "estion"
      ],
      [
        "Ġa",
        "pp"
      ],
      [
        "ct",
        "ion"
      ],
      [
        "en",
        "ce"
      ],
      [
        "res",
        "s"
      ],
      [
        "re",
        "at"
      ],
      [
        "ig",
        "n"
      ],
      [
        "a",
        "ch"
      ],
      [
        "ic",
        "e"
      ],
      [
        "it",
        "ion"
      ],
      [
        "i",
        "e"
      ],
      [
        "ĠA",
        "nswer"
      ],
      [
        "a",
        "us"
      ],
      [
        "as",
        "e"
      ],
      [
        "ver",
        "y"
      ],
      [
        "Ġf",
        "e"
      ],
      [
        "as",
        "s"
      ],
      [
        "Ġthe",
        "m"
      ],
      [
        "ĠI",
        "n"
      ],
      [
        "ar",
        "y"
      ],
      [
        "i",
        "le"
      ],
      [
        "Ġl",
        "ike"
      ],
      [
        "ac",
        "k"
      ],
      [
        "Ġp",
        "er"
      ],
      [
        "Ġu",
        "p"
      ],
      [
        "Ġab",
        "out"
      ],
      [
        "Ġs",
        "c"
      ],
      [
        "Ġ",
        "U"
      ],
      [
        "il",
        "d"
      ],
      [
        "ĠI",
        "t"
      ],
      [
        "or",
        "s"
      ],
      [
        "l",
        "ow"
      ],
      [
        "if",
        "f"
      ],
      [
        "Ġwhe",
        "n"
      ],
      [
        "ou",
        "nd"
      ],
      [
        "Ġ",
        "ro"
      ],
      [
        "Ġs",
        "ome"
      ],
      [
        "n",
        "ow"
      ],
      [
        "Ġp",
        "art"
      ],
      [
        "Ġe",
        "v"
      ],
      [
        "Ġ",
        "qu"
      ],
      [
        "u",
        "e"
      ],
      [
        "Ġ",
        "if"
      ],
      [
        "Ġs",
        "y"
      ],
      [
        "it",
        "e"
      ],
      [
        "Ġint",
        "o"
      ],
      [
        "o",
        "se"
      ],
      [
        "r",
        "ic"
      ],
      [
        "Ġus",
        "e"
      ],
      [
        "Ġd",
        "iff"
      ],
      [
        "Ġne",
        "ed"
      ],
      [
        "Ġc",
        "ol"
      ],
      [
        "ĠT",
        "his"
      ],
      [
        "Ġtim",
        "e"
      ],
      [
        "Ġh",
        "ow"
      ],
      [
        "Ġa",
        "r"
      ],
      [
        "ay",
        "s"
      ],
      [
        "i",
        "a"
      ],
      [
        "Ġthe",
        "re"
      ],
      [
        "Ġit",
        "s"
      ],
      [
        "Ġ",
        "Y"
      ],
      [
        "Ġm",
        "ay"
      ],
      [
        "ro",
        "w"
      ],
      [
        "c",
        "es"
      ],
      [
        "am",
        "e"
      ],
      [
        "a",
        "k"
      ],
      [
        "a",
        "il"
      ],
      [
        "Ġhe",
        "l"
      ],
      [
        "f",
        "orm"
      ],
      [
        "re",
        "e"
      ],
      [
        "t",
        "ing"
      ],
      [
        "l",
        "es"
      ],
      [
        "Ġb",
        "et"
      ],
      [
        "l",
        "l"
      ],
      [
        "Ġbe",
        "c"
      ],
      [
        "Ġth",
        "an"
      ],
      [
        "Ġt",
        "ra"
      ],
      [
        "Ġb",
        "l"
      ],
      [
        "Ġre",
        "c"
      ],
      [
        "at",
        "ing"
      ],
      [
        "Ġan",
        "y"
      ],
      [
        "Ġcom",
        "m"
      ],
      [
        "if",
        "ic"
      ],
      [
        "Ġo",
        "ver"
      ],
      [
        "ĠW",
        "hat"
      ],
      [
        "b",
        "er"
      ],
      [
        "al",
        "s"
      ],
      [
        "Ġ",
        "âĢ"
      ],
      [
        "Ġhel",
        "p"
      ],
      [
        "Ġcon",
        "s"
      ],
      [
        "Ġp",
        "e"
      ],
      [
        "w",
        "e"
      ],
      [
        "an",
        "g"
      ],
      [
        "Ġk",
        "now"
      ],
      [
        "Ġpro",
        "du"
      ],
      [
        "aus",
        "e"
      ],
      [
        "Ġthe",
        "se"
      ],
      [
        "a",
        "ke"
      ],
      [
        "Ġst",
        "ud"
      ],
      [
        "at",
        "ure"
      ],
      [
        "ou",
        "gh"
      ],
      [
        "o",
        "ve"
      ],
      [
        "h",
        "y"
      ],
      [
        "or",
        "d"
      ],
      [
        "Ġg",
        "et"
      ],
      [
        "is",
        "h"
      ],
      [
        "t",
        "e"
      ],
      [
        "Ġg",
        "o"
      ],
      [
        "le",
        "ct"
      ],
      [
        "nd",
        "er"
      ],
      [
        "on",
        "d"
      ],
      [
        "Ġt",
        "r"
      ],
      [
        "Ġw",
        "ater"
      ],
      [
        "Ġsp",
        "ec"
      ],
      [
        "y",
        "p"
      ],
      [
        "ol",
        "og"
      ],
      [
        "Ġus",
        "ed"
      ],
      [
        "Ġd",
        "es"
      ],
      [
        "re",
        "d"
      ],
      [
        "Ġo",
        "ur"
      ],
      [
        "Ġg",
        "en"
      ],
      [
        "Ġin",
        "d"
      ],
      [
        "ing",
        "s"
      ],
      [
        "Ġs",
        "a"
      ],
      [
        "m",
        "s"
      ],
      [
        "Ġwh",
        "at"
      ],
      [
        "Ġa",
        "ct"
      ],
      [
        "st",
        "em"
      ],
      [
        "Ġdiff",
        "ere"
      ],
      [
        "Ġf",
        "l"
      ],
      [
        "Ġ",
        "ra"
      ],
      [
        "ic",
        "k"
      ],
      [
        "Ġe",
        "ff"
      ],
      [
        "or",
        "y"
      ],
      [
        "rou",
        "gh"
      ],
      [
        "ar",
        "i"
      ],
      [
        "al",
        "th"
      ],
      [
        "on",
        "s"
      ],
      [
        ".",
        "."
      ],
      [
        "u",
        "b"
      ],
      [
        "Ġc",
        "o"
      ],
      [
        "ou",
        "nt"
      ],
      [
        "Ġ",
        "J"
      ],
      [
        "oo",
        "k"
      ],
      [
        "ul",
        "ar"
      ],
      [
        "in",
        "t"
      ],
      [
        "Ġad",
        "d"
      ],
      [
        "n",
        "ing"
      ],
      [
        "Ġne",
        "w"
      ],
      [
        "Ġwe",
        "re"
      ],
      [
        "Ġy",
        "ear"
      ],
      [
        "Ġwh",
        "o"
      ],
      [
        "er",
        "v"
      ],
      [
        "ver",
        "s"
      ],
      [
        "Ġof",
        "f"
      ],
      [
        "op",
        "le"
      ],
      [
        "Ġpro",
        "v"
      ],
      [
        "rou",
        "nd"
      ],
      [
        "Ġma",
        "ke"
      ],
      [
        "Ġm",
        "ost"
      ],
      [
        "Ġa",
        "m"
      ],
      [
        "Ġw",
        "ould"
      ],
      [
        "l",
        "ud"
      ],
      [
        "il",
        "ity"
      ],
      [
        "Ġa",
        "g"
      ],
      [
        "at",
        "es"
      ],
      [
        "x",
        "t"
      ],
      [
        "Ġc",
        "ar"
      ],
      [
        "Ġsu",
        "ch"
      ],
      [
        "Ġsh",
        "ould"
      ],
      [
        "i",
        "ent"
      ],
      [
        "Ġd",
        "i"
      ],
      [
        "Ġs",
        "m"
      ],
      [
        "Ġe",
        "m"
      ],
      [
        "Ġbe",
        "en"
      ],
      [
        "n",
        "e"
      ],
      [
        "Ġu",
        "nder"
      ],
      [
        "j",
        "ect"
      ],
      [
        "et",
        "h"
      ],
      [
        "Ġt",
        "w"
      ],
      [
        "f",
        "ul"
      ],
      [
        "ment",
        "s"
      ],
      [
        "is",
        "e"
      ],
      [
        "ot",
        "h"
      ],
      [
        "p",
        "le"
      ],
      [
        "ĠS",
[...]
