{
  "version": "1.0",
  "truncation": null,
  "padding": null,
  "added_tokens": [
    {
      "id": 0,
      "content": "<|bos|>",
      "single_word": false,
      "lstrip": false,
      "rstrip": false,
      "normalized": false,
      "special": true
    },
    {
      "id": 1,
      "content": "<|user_start|>",
      "single_word": false,
      "lstrip": false,
      "rstrip": false,
      "normalized": false,
      "special": true
    },
    {
      "id": 2,
      "content": "<|user_end|>",
      "single_word": false,
      "lstrip": false,
      "rstrip": false,
      "normalized": false,
      "special": true
    },
    {
      "id": 3,
      "content": "<|assistant_start|>",
      "single_word": false,
      "lstrip": false,
      "rstrip": false,
      "normalized": false,
      "special": true
    },
    {
      "id": 4,
      "content": "<|assistant_end|>",
      "single_word": false,
      "lstrip": false,
      "rstrip": false,
      "normalized": false,
      "special": true
    },
    {
      "id": 5,
      "content": "<|python_start|>",
      "single_word": false,
      "lstrip": false,
      "rstrip": false,
      "normalized": false,
      "special": true
    },
    {
      "id": 6,
      "content": "<|python_end|>",
      "single_word": false,
      "lstrip": false,
      "rstrip": false,
      "normalized": false,
      "special": true
    },
    {
      "id": 7,
      "content": "<|output_start|>",
      "single_word": false,
      "lstrip": false,
      "rstrip": false,
      "normalized": false,
      "special": true
    },
    {
      "id": 8,
      "content": "<|output_end|>",
      "single_word": false,
      "lstrip": false,
      "rstrip": false,
      "normalized": false,
      "special": true
    },
    {
      "id": 9,
      "content": "<|unk|>",
      "single_word": false,
      "lstrip": false,
      "rstrip": false,
      "normalized": false,
      "special": true
    }
  ],
  "normalizer": null,
  "pre_tokenizer": {
    "type": "Sequence",
    "pretokenizers": [
      {
        "type": "Split",
        "pattern": {
          "Regex": "'(?i:[sdmt]|ll|ve|re)|[^\\r\\n\\p{L}\\p{N}]?+\\p{L}+|\\p{N}{1,2}| ?[^\\s\\p{L}\\p{N}]++[\\r\\n]*|\\s*[\\r\\n]|\\s+(?!\\S)|\\s+"
        },
        "behavior": "Isolated",
        "invert": false
      },
      {
        "type": "ByteLevel",
        "add_prefix_space": false,
        "trim_offsets": true,
        "use_regex": false
      }
    ]
  },
  "post_processor": {
    "type": "TemplateProcessing",
    "single": [
      {
        "Sequence": {
          "id": "A",
          "type_id": 0
        }
      }
    ],
    "pair": [
      {
        "Sequence": {
          "id": "A",
          "type_id": 0
        }
      },
      {
        "Sequence": {
          "id": "B",
          "type_id": 1
        }
      }
    ],
    "special_tokens": {}
  },
  "decoder": {
    "type": "ByteLevel",
    "add_prefix_space": true,
    "trim_offsets": true,
    "use_regex": true
  },
  "model": {
    "type": "Unigram",
    "unk_id": 9,
    "vocab": [
      [
        "<|bos|>",
        -1.0
      ],
      [
        "<|user_start|>",
        -1.0
      ],
      [
        "<|user_end|>",
        -1.0
      ],
      [
        "<|assistant_start|>",
        -1.0
      ],
      [
        "<|assistant_end|>",
        -1.0
      ],
      [
        "<|python_start|>",
        -1.0
      ],
      [
        "<|python_end|>",
        -1.0
      ],
      [
        "<|output_start|>",
        -1.0
      ],
      [
        "<|output_end|>",
        -1.0
      ],
      [
        "<|unk|>",
        -1.0
      ],
      [
        "wi",
        -1.0
      ],
      [
        "ĠBasel",
        -1.0
      ],
      [
        "Ġtilting",
        -1.0
      ],
      [
        "zan",
        -1.0
      ],
      [
        "iflora",
        -1.0
      ],
      [
        "Ġbas",
        -1.0
      ],
      [
        "-drained",
        -1.0
      ],
      [
        "ĠPID",
        -1.0
      ],
      [
        "ĠOcean",
        -1.0
      ],
      [
        "Keep",
        -1.0
      ],
      [
        "ĠAnyone",
        -1.0
      ],
      [
        "Ġfoggy",
        -1.0
      ],
      [
        "Ġpros",
        -1.0
      ],
      [
        "ĠWallpaper",
        -1.0
      ],
      [
        "How",
        -1.0
      ],
      [
        "ĠRaw",
        -1.0
      ],
      [
        "Ġdairies",
        -1.0
      ],
      [
        "Ġbehavioural",
        -1.0
      ],
      [
        "fel",
        -1.0
      ],
      [
        "linear",
        -1.0
      ],
      [
        "Puppies",
        -1.0
      ],
      [
        "somy",
        -1.0
      ],
      [
        "Ġprofessions",
        -1.0
      ],
      [
        "/ad",
        -1.0
      ],
      [
        "Ġfe",
        -1.0
      ],
      [
        "open",
        -1.0
      ],
      [
        "Ġwag",
        -1.0
      ],
      [
        "Ġperk",
        -1.0
      ],
      [
        "ĠFrames",
        -1.0
      ],
      [
        "Ġtechnique",
        -1.0
      ],
      [
        "Ġischemic",
        -1.0
      ],
      [
        "-stage",
        -1.0
      ],
      [
        "OUGH",
        -1.0
      ],
      [
        "orous",
        -1.0
      ],
      [
        "Ġurchin",
        -1.0
      ],
      [
        "ĠIndustry",
        -1.0
      ],
      [
        "Ġslang",
        -1.0
      ],
      [
        "Ġpolarity",
        -1.0
      ],
      [
        "Ġmaximising",
        -1.0
      ],
      [
        "ĠCompany",
        -1.0
      ],
      [
        "Ġexceptional",
        -1.0
      ],
      [
        "();",
        -1.0
      ],
      [
        "ĠPoisonous",
        -1.0
      ],
      [
        "Ġtimer",
        -1.0
      ],
      [
        "Ġcategorize",
        -1.0
      ],
      [
        "Excellent",
        -1.0
      ],
      [
        "Ġperforming",
        -1.0
      ],
      [
        "ĠBian",
        -1.0
      ],
      [
        "inf",
        -1.0
      ],
      [
        "ĠASIC",
        -1.0
      ],
      [
        "ĠAdelaide",
        -1.0
      ],
      [
        "Ġpodiatrist",
        -1.0
      ],
      [
        "ĠBlow",
        -1.0
      ],
      [
        "Ġneuroma",
        -1.0
      ],
      [
        "ĠEstimate",
        -1.0
      ],
      [
        "Ġinstructive",
        -1.0
      ],
      [
        "ease",
        -1.0
      ],
      [
        "ĠHe",
        -1.0
      ],
      [
        "Ġlongest",
        -1.0
      ],
      [
        "Ġspraying",
        -1.0
      ],
      [
        "Ġscreenshot",
        -1.0
      ],
      [
        "IG",
        -1.0
      ],
      [
        "Ġbottled",
        -1.0
      ],
      [
        "ĠIndigenous",
        -1.0
      ],
      [
        "-tooth",
        -1.0
      ],
      [
        "Ġmovie",
        -1.0
      ],
      [
        "Ġreproduced",
        -1.0
      ],
      [
        "Ġmalocclusion",
        -1.0
      ],
      [
        "casting",
        -1.0
      ],
      [
        "riz",
        -1.0
      ],
      [
        "crowd",
        -1.0
      ],
      [
        "Ġrecruitment",
        -1.0
      ],
      [
        "Ġreverted",
        -1.0
      ],
      [
        "Ġmethodology",
        -1.0
      ],
      [
        "-at",
        -1.0
      ],
      [
        "ĠSeventh",
        -1.0
      ],
      [
        "axy",
        -1.0
      ],
      [
        "ĠHero",
        -1.0
      ],
      [
        "Ġdice",
        -1.0
      ],
      [
        "Ġcoincides",
        -1.0
      ],
      [
        "ĠGAN",
        -1.0
      ],
      [
        "Ġreshaping",
        -1.0
      ],
      [
        "Ġsalvaged",
        -1.0
      ],
      [
        "Ġelephant",
        -1.0
      ],
      [
        "Ġprotrusions",
        -1.0
      ],
      [
        "bn",
        -1.0
      ],
      [
        "Ġomen",
        -1.0
      ],
      [
        "Ġunscrupulous",
        -1.0
      ],
      [
        "-nosed",
        -1.0
      ],
      [
        "','",
        -1.0
      ],
      [
        "oxide",
        -1.0
      ],
      [
        "Ġsporty",
        -1.0
      ],
      [
        "iw",
        -1.0
      ],
      [
        "Ġdeletions",
        -1.0
      ],
      [
        "Ġproteases",
        -1.0
      ],
      [
        "Nonetheless",
        -1.0
      ],
      [
        "Ġbicycling",
        -1.0
      ],
      [
        "orative",
        -1.0
      ],
      [
        "PL",
        -1.0
      ],
      [
        "ĠFIT",
        -1.0
      ],
      [
        "Ġyellowing",
        -1.0
      ],
      [
        "Ġrendezvous",
        -1.0
      ],
      [
        "Ġerect",
        -1.0
      ],
      [
        "Ġentrance",
        -1.0
      ],
      [
        "ĠPesticide",
        -1.0
      ],
      [
        "Ġmanagement",
        -1.0
      ],
      [
        "Ġfingernail",
        -1.0
      ],
      [
        "prepare",
        -1.0
      ],
      [
        "Ġcollapse",
        -1.0
      ],
      [
        "Ġcanister",
        -1.0
      ],
      [
        "Synopsis",
        -1.0
      ],
      [
        "ĠHypertension",
        -1.0
      ],
      [
        "Ġethane",
        -1.0
      ],
      [
        "engage",
        -1.0
      ],
      [
        "Ġic",
        -1.0
      ],
      [
        "Ġdummies",
        -1.0
      ],
      [
        "Ġwidening",
        -1.0
      ],
      [
        "Ġembryo",
        -1.0
      ],
      [
        "-auto",
        -1.0
      ],
      [
        "Ġoverseas",
        -1.0
      ],
      [
        "Ġinstaller",
        -1.0
      ],
      [
        "/Shutterstock",
        -1.0
      ],
      [
        "Ġanions",
        -1.0
      ],
      [
        "Ġfacts",
        -1.0
      ],
      [
        "ĠFrenchie",
        -1.0
      ],
      [
        "bbed",
        -1.0
      ],
      [
        "aby",
        -1.0
      ],
      [
        "?âĢĿ",
        -1.0
      ],
      [
        "Ġupset",
        -1.0
      ],
      [
        "Does",
        -1.0
      ],
      [
        "-explo",
        -1.0
      ],
      [
        "ĠStructures",
        -1.0
      ],
      [
        "ĠDiameter",
        -1.0
      ],
      [
        "Aging",
        -1.0
      ],
      [
        "Ġapical",
        -1.0
      ],
      [
        "Ġbru",
        -1.0
      ],
      [
        "Ġundo",
        -1.0
      ],
      [
        "glyc",
        -1.0
      ],
      [
        "ĠBreeding",
        -1.0
      ],
      [
        "Ġwillows",
        -1.0
      ],
      [
        "Ġwrappers",
        -1.0
      ],
      [
        "Ġmins",
        -1.0
      ],
      [
        "ĠDav",
        -1.0
      ],
      [
        "Ġsturdier",
        -1.0
      ],
      [
        "ĠGland",
        -1.0
      ],
      [
        "nim",
        -1.0
      ],
      [
        "ĠFischer",
        -1.0
      ],
      [
        "Ġgenotypes",
        -1.0
      ],
      [
        "Ġcichlid",
        -1.0
      ],
      [
        "ĠCoulomb",
        -1.0
      ],
      [
        "Ġyoke",
        -1.0
      ],
      [
        "ĠRoomba",
        -1.0
      ],
      [
        "ĠZwi",
        -1.0
      ],
      [
        "Ġhydrogel",
        -1.0
      ],
      [
        "Ġtarpon",
        -1.0
      ],
      [
        "77",
        -1.0
      ],
      [
        "Ġporches",
        -1.0
      ],
      [
        "Ġnotable",
        -1.0
      ],
      [
        "ĠTaylor",
        -1.0
      ],
      [
        "Ġphenyl",
        -1.0
      ],
      [
        "_image",
        -1.0
      ],
      [
        "Ġpickups",
        -1.0
      ],
      [
        "Ġounces",
        -1.0
      ],
      [
        "Ġattribution",
        -1.0
      ],
      [
        "lk",
        -1.0
      ],
      [
        "Ġatom",
        -1.0
      ],
      [
        "Ġunfold",
        -1.0
      ],
      [
        "Ġlawyers",
        -1.0
      ],
      [
        "Ġoffices",
        -1.0
      ],
      [
        "Anorexia",
        -1.0
      ],
      [
        "ĠDion",
        -1.0
      ],
      [
        "Ġfounding",
        -1.0
      ],
      [
        "Ġorifice",
        -1.0
      ],
      [
        "nias",
        -1.0
      ],
      [
        "Ġbur",
        -1.0
      ],
      [
        "å®",
        -1.0
      ],
      [
        "Ġlossy",
        -1.0
      ],
      [
        "opoulos",
        -1.0
      ],
      [
        "ĠInformatics",
        -1.0
      ],
      [
        "Ġairport",
        -1.0
      ],
      [
        "ĠMap",
        -1.0
      ],
      [
        "rsa",
        -1.0
      ],
      [
        "Ġmegawatt",
        -1.0
      ],
      [
        "Ġsubheadings",
        -1.0
      ],
      [
        "Ġscholarships",
        -1.0
      ],
      [
        "Ġheck",
        -1.0
      ],
      [
        "-tasking",
        -1.0
      ],
      [
        "Ġye",
        -1.0
      ],
      [
        "smin",
        -1.0
      ],
      [
        "llan",
        -1.0
      ],
      [
        "Ġ(@",
        -1.0
      ],
      [
        "keywords",
        -1.0
      ],
      [
        "Ġhalal",
        -1.0
      ],
      [
        "mast",
        -1.0
      ],
      [
        "Ġlaughs",
        -1.0
      ],
      [
        "zero",
        -1.0
      ],
      [
        "ĠDelft",
        -1.0
      ],
      [
        "ĠEDM",
        -1.0
      ],
      [
        "ĠJoint",
        -1.0
      ],
      [
        "Variant",
        -1.0
      ],
      [
        "Ġdonor",
        -1.0
      ],
      [
        "ĠEarth",
        -1.0
      ],
      [
        "Ġmicroseconds",
        -1.0
      ],
      [
        "Ġdwindle",
        -1.0
      ],
      [
        "Ġvaccination",
        -1.0
      ],
      [
        "Ġbrooch",
        -1.0
      ],
      [
        "Anything",
        -1.0
      ],
      [
        "ika",
        -1.0
      ],
      [
        "Ġthrone",
        -1.0
      ],
      [
        "Ġamnesia",
        -1.0
      ],
      [
        "ĠFALSE",
        -1.0
      ],
      [
        "ĠExp",
        -1.0
      ],
      [
        "Dolphin",
        -1.0
      ],
      [
        "Ġclocked",
        -1.0
      ],
      [
        "Ġvoodoo",
        -1.0
      ],
      [
        "Ġrecommending",
        -1.0
      ],
      [
        "Ġwired",
        -1.0
      ],
      [
        "ĠAutistic",
        -1.0
      ],
      [
        "gawa",
        -1.0
      ],
      [
        "Activated",
        -1.0
      ],
      [
        "-leg",
        -1.0
      ],
      [
        "ĠMechanical",
        -1.0
      ],
      [
        "âĥĹ",
        -1.0
      ],
      [
        "lists",
        -1.0
      ],
      [
        "that",
        -1.0
      ],
      [
        "Ġdin",
        -1.0
      ],
      [
        "rro",
        -1.0
      ],
      [
        "Ġmoulds",
        -1.0
      ],
      [
        "ĠBarking",
        -1.0
      ],
      [
        "ĠEmperor",
        -1.0
      ],
      [
        "Ġpalli",
        -1.0
      ],
      [
        "opods",
        -1.0
      ],
      [
        "ĠEndowment",
        -1.0
      ],
      [
        "Ġhypo",
        -1.0
      ],
      [
        "Ġepidemic",
        -1.0
      ],
      [
        "doubt",
        -1.0
      ],
      [
        "sexual",
        -1.0
      ],
      [
        "Ġmaritime",
        -1.0
      ],
      [
        "ĠWITH",
        -1.0
      ],
      [
        "Ġboiled",
        -1.0
      ],
      [
        "/ethnicity",
        -1.0
      ],
      [
        "ĠHeight",
        -1.0
      ],
      [
        "Ġfacsimile",
        -1.0
      ],
      [
        "Ġunequal",
        -1.0
      ],
      [
        "ĠWa",
        -1.0
      ],
      [
        "esse",
        -1.0
      ],
      [
        "Purchasing",
        -1.0
      ],
      [
        "ĠKawasaki",
        -1.0
      ],
      [
        "Ġworkbook",
        -1.0
      ],
      [
        "ĠHorror",
        -1.0
      ],
      [
        "menorrhea",
        -1.0
      ],
      [
        "liberal",
        -1.0
      ],
      [
        "Ġidentify",
        -1.0
      ],
      [
        "Ġcompilers",
        -1.0
      ],
      [
        "named",
        -1.0
      ],
      [
        "ĠFate",
        -1.0
      ],
      [
        "ĠObjective",
        -1.0
      ],
      [
        "ĠDaddy",
        -1.0
      ],
      [
        "ĠSomerset",
        -1.0
      ],
      [
        "Ġknuckle",
        -1.0
      ],
      [
        "Ġgovernmental",
        -1.0
      ],
      [
        "ĠBiologists",
        -1.0
      ],
      [
        "ĠBuddha",
        -1.0
      ],
      [
        "Ġenrollment",
        -1.0
      ],
      [
        "ĠWee",
        -1.0
      ],
      [
        "ĠPIXMA",
        -1.0
      ],
      [
        "Ġfloppy",
        -1.0
      ],
      [
        "Ecology",
        -1.0
      ],
      [
        "Ġretirement",
        -1.0
      ],
      [
        "Blind",
        -1.0
      ],
      [
        "Ġcenturies",
        -1.0
      ],
      [
        "lactose",
        -1.0
      ],
      [
        "ulating",
        -1.0
      ],
      [
        "Ġtreble",
        -1.0
      ],
      [
        "Ġincidents",
        -1.0
      ],
      [
        "Crystal",
        -1.0
      ],
      [
        "mei",
        -1.0
      ],
      [
        "Ġintensifying",
        -1.0
      ],
      [
        "ĠStud",
        -1.0
      ],
      [
        "Ġpanther",
        -1.0
      ],
      [
        "ĠTell",
        -1.0
      ],
      [
        "Ġscrapbooking",
        -1.0
      ],
      [
        "Ġpupal",
        -1.0
      ],
      [
        "/u",
        -1.0
      ],
      [
        "'l",
        -1.0
      ],
      [
        "Ġparser",
        -1.0
      ],
      [
        "ĠHU",
        -1.0
      ],
      [
        "rn",
        -1.0
      ],
      [
        "Ġcertificate",
        -1.0
      ],
      [
        "ĠFraming",
        -1.0
      ],
      [
        "Ġcuff",
        -1.0
      ],
      [
        "ĠText",
        -1.0
      ],
      [
        "Shared",
        -1.0
      ],
      [
        "lti",
        -1.0
      ],
      [
        "ĠMaddux",
        -1.0
      ],
      [
        "bius",
        -1.0
      ],
      [
        "ĠPorcupine",
        -1.0
      ],
      [
        "Ġexacerbate",
        -1.0
      ],
      [
        "Ġrefresher",
        -1.0
      ],
      [
        "ĠRud",
        -1.0
      ],
      [
        "Genus",
        -1.0
      ],
      [
        "Ġburgers",
        -1.0
      ],
      [
        "Ġrevamp",
        -1.0
      ],
      [
        "Pearl",
        -1.0
      ],
      [
        "Ġheirloom",
        -1.0
      ],
      [
        "ĠUFC",
        -1.0
      ],
      [
        "irt",
        -1.0
      ],
      [
        "ĠLebanon",
        -1.0
      ],
      [
        "favor",
        -1.0
      ],
      [
        "Ġequips",
        -1.0
      ],
      [
        "rangle",
        -1.0
      ],
      [
        "-loss",
        -1.0
      ],
      [
        "ĠForces",
        -1.0
      ],
      [
        "Kha",
        -1.0
      ],
      [
        "ĠâĢĵĊ",
        -1.0
      ],
      [
        "Ġfold",
        -1.0
      ],
      [
        "extreme",
        -1.0
      ],
      [
        "Background",
        -1.0
      ],
      [
        "nm",
        -1.0
      ],
      [
        "ĠEmerald",
        -1.0
      ],
      [
        "Ġcheesecloth",
        -1.0
      ],
      [
        "Ġsmoothed",
        -1.0
      ],
      [
        "ĠEPUB",
        -1.0
      ],
      [
        "folia",
        -1.0
      ],
      [
        "Ġoutings",
        -1.0
      ],
      [
        "Ġcamera",
        -1.0
      ],
      [
        "Ġduck",
        -1.0
      ],
      [
        "ĠMirror",
        -1.0
      ],
      [
        "ĠBalancing",
        -1.0
      ],
      [
        "Ġinterviewing",
        -1.0
      ],
      [
        "ĠDirectX",
        -1.0
      ],
      [
        "Anatomical",
        -1.0
      ],
      [
        "ĠOxfam",
        -1.0
      ],
      [
        "ĠLifestyle",
        -1.0
      ],
      [
        "ĠNow",
        -1.0
      ],
      [
        "mimicry",
        -1.0
      ],
      [
        "Format",
        -1.0
      ],
      [
        "Ġalpaca",
        -1.0
      ],
      [
        "ĠAccurate",
        -1.0
      ],
      [
        "Fourth",
        -1.0
      ],
      [
        "Ġsprinkled",
        -1.0
      ],
      [
        "ĠComm",
        -1.0
      ],
      [
        "Ġrotting",
        -1.0
      ],
      [
        "ĠBulldog",
        -1.0
      ],
      [
        "ĠFilters",
        -1.0
      ],
      [
        "ĠPlastics",
        -1.0
      ],
      [
        "ĠGraham",
        -1.0
      ],
      [
        "ubs",
        -1.0
      ],
      [
        "Ġreplenish",
        -1.0
      ],
      [
        "undant",
        -1.0
      ],
      [
        "Ġbetray",
        -1.0
      ],
      [
        "Ġmening",
        -1.0
      ],
      [
        "ĠFossils",
        -1.0
      ],
      [
        "-N",
        -1.0
      ],
      [
        "Featured",
        -1.0
      ],
      [
        "Ġsymmetries",
        -1.0
      ],
      [
        "sea",
        -1.0
      ],
      [
        "Ġgrievance",
        -1.0
      ],
      [
        "gga",
        -1.0
      ],
      [
        "acle",
        -1.0
      ],
      [
        "ĠWasher",
        -1.0
      ],
      [
        "Ġinequalities",
        -1.0
      ],
      [
        "Ġtack",
        -1.0
      ],
      [
        "?s",
        -1.0
      ],
      [
        "Ġequestrian",
        -1.0
      ],
      [
        "ĠKol",
        -1.0
      ],
      [
        "Ġguide",
        -1.0
      ],
      [
        "ĠAi",
        -1.0
      ],
      [
        "ĠPerfectly",
        -1.0
      ],
      [
        "Ġliposomes",
        -1.0
      ],
      [
        "bou",
        -1.0
      ],
      [
        "Ġrein",
        -1.0
      ],
      [
        "Ix",
        -1.0
      ],
      [
        "ĠNotably",
        -1.0
      ],
      [
        "noble",
        -1.0
      ],
      [
        "olone",
        -1.0
      ],
      [
        "Ġnotoriously",
        -1.0
      ],
      [
        "Ġanguish",
        -1.0
      ],
      [
        "Ġcommenter",
        -1.0
      ],
      [
        "BSD",
        -1.0
      ],
      [
        "BX",
        -1.0
      ],
      [
        "ĠShutterstock",
        -1.0
      ],
      [
        "Ġtweet",
        -1.0
      ],
      [
        "Ġcapita",
        -1.0
      ],
      [
        "Ġyachts",
        -1.0
      ],
      [
        "ĠBonding",
        -1.0
      ],
      [
        "ĠGauge",
        -1.0
      ],
      [
        "Threats",
        -1.0
      ],
      [
        "Ġclu",
        -1.0
      ],
      [
        "Ġoperators",
        -1.0
      ],
      [
        "kti",
        -1.0
      ],
      [
        "Author",
        -1.0
      ],
      [
        "-mile",
        -1.0
      ],
      [
        "Ġcilia",
        -1.0
      ],
      [
        "ĠMinkowski",
        -1.0
      ],
      [
        "-great",
        -1.0
      ],
      [
        "connecting",
        -1.0
      ],
      [
        "Ġpermissions",
        -1.0
      ],
      [
        "Ġdoubly",
        -1.0
      ],
      [
        ".s",
        -1.0
      ],
      [
        "ĠGrove",
        -1.0
      ],
      [
        "Corn",
        -1.0
      ],
      [
        "Ġbottom",
        -1.0
      ],
      [
        "Ġtattoo",
        -1.0
      ],
      [
        "ĠLadder",
        -1.0
      ],
      [
        "Ġalum",
        -1.0
      ],
      [
        "ĠKEY",
        -1.0
      ],
      [
        "ĠReliability",
        -1.0
      ],
      [
        "Ġarrhythmias",
        -1.0
      ],
      [
        "Ġsucceeding",
        -1.0
      ],
      [
        "Ġuncommon",
        -1.0
      ],
      [
        "Ġapple",
        -1.0
      ],
      [
        "Ġrepair",
        -1.0
      ],
      [
        "Ġrel",
        -1.0
      ],
      [
        "contain",
        -1.0
      ],
      [
        "Ġvicarious",
        -1.0
      ],
      [
        "Ü",
        -1.0
      ],
      [
        "ĠLCD",
        -1.0
      ],
      [
        "Teaching",
        -1.0
      ],
      [
        "ruption",
        -1.0
      ],
      [
        "Ġverification",
        -1.0
      ],
      [
        "Babies",
        -1.0
      ],
      [
        "Ġframeworks",
        -1.0
      ],
      [
        "Ġaudiologists",
        -1.0
      ],
      [
        "tat",
        -1.0
      ],
      [
        "Ġexposure",
        -1.0
      ],
      [
        "Ġportraiture",
        -1.0
      ],
      [
        "Ġastrology",
        -1.0
      ],
      [
        "Ġmannequin",
        -1.0
      ],
      [
        "Ġcomrades",
        -1.0
      ],
      [
        "Ġexempt",
        -1.0
      ],
      [
        "Due",
        -1.0
      ],
      [
        "Ġfiller",
        -1.0
      ],
      [
        "Ġfigurative",
        -1.0
      ],
      [
        "Ġharsh",
        -1.0
      ],
      [
        "China",
        -1.0
      ],
      [
        "Ġdecade",
        -1.0
      ],
      [
        "ĠSausage",
        -1.0
      ],
      [
        "syn",
        -1.0
      ],
      [
        "STE",
        -1.0
      ],
      [
        "ĠAtomic",
        -1.0
      ],
      [
        "Ġonset",
        -1.0
      ],
      [
        "saw",
        -1.0
      ],
      [
        "Lighting",
        -1.0
      ],
      [
        "ĠSeeing",
        -1.0
      ],
      [
        "ĠLoyal",
        -1.0
      ],
      [
        "Ġchickpea",
        -1.0
      ],
      [
        "è¨ĺ",
        -1.0
      ],
      [
        "ĠDocker",
        -1.0
      ],
      [
        "Ġsequenced",
        -1.0
      ],
      [
        "uchi",
        -1.0
      ],
      [
        "ĠGeorgetown",
        -1.0
      ],
      [
        "ĠWalla",
        -1.0
      ],
      [
        "ĠTrust",
        -1.0
      ],
      [
        "ĠCutter",
        -1.0
      ],
      [
        "Ġag",
        -1.0
      ],
      [
        "ĠPEP",
        -1.0
      ],
      [
        "tize",
        -1.0
      ],
      [
        "ĠEindhoven",
        -1.0
      ],
      [
        "Ġorthographic",
        -1.0
      ],
      [
        "ĠThur",
        -1.0
      ],
      [
        "Bor",
        -1.0
      ],
      [
        "roll",
        -1.0
      ],
      [
        "ĠThrow",
        -1.0
      ],
      [
        "Europe",
        -1.0
      ],
      [
        "Ġponds",
        -1.0
      ],
      [
        "Ġfalsely",
        -1.0
      ],
      [
        ".",
        -1.0
      ],
      [
        "ng",
        -1.0
      ],
      [
        "Wild",
        -1.0
      ],
      [
        "Ġgrinders",
        -1.0
      ],
      [
        "Prolonged",
        -1.0
      ],
      [
        "ĠSudbury",
        -1.0
      ],
      [
        "Ps",
        -1.0
      ],
      [
        "dened",
        -1.0
      ],
      [
        "ĠBeethoven",
        -1.0
      ],
      [
        "hardt",
        -1.0
      ],
      [
        "ĠQatar",
        -1.0
      ],
      [
        "Ġguarantees",
        -1.0
      ],
      [
        "ĠKw",
        -1.0
      ],
      [
        "erc",
        -1.0
      ],
      [
        "ĠPantone",
        -1.0
      ],
      [
        "ĠOrganics",
        -1.0
      ],
      [
        "Ġbariatric",
        -1.0
      ],
      [
        "Fo",
        -1.0
      ],
      [
        "ĠLost",
        -1.0
      ],
      [
        "grades",
        -1.0
      ],
      [
        "Ġthree",
        -1.0
      ],
      [
        "å°ı",
        -1.0
      ],
      [
        "Blank",
        -1.0
      ],
      [
        "32",
        -1.0
      ],
      [
        "!).Ċ",
        -1.0
      ],
      [
        "ĠChurchill",
        -1.0
      ],
      [
        "Ġfennel",
        -1.0
      ],
      [
        "Ġcrawfish",
        -1.0
      ],
      [
        "Ġcooktop",
        -1.0
      ],
      [
        "Ġphilanthropy",
        -1.0
      ],
      [
        "ĠFork",
        -1.0
      ],
      [
        "ĠMETHOD",
        -1.0
      ],
      [
        "ddin",
        -1.0
      ],
      [
        "-walled",
        -1.0
      ],
      [
        "ĠÐ¾",
        -1.0
      ],
      [
        "Ġyet",
        -1.0
      ],
      [
        "ĠGizmo",
        -1.0
      ],
      [
        "Ġmealybug",
        -1.0
      ],
      [
        "Ġmuscles",
        -1.0
      ],
      [
        "Ġmonitor",
        -1.0
      ],
      [
        "Ġportobello",
        -1.0
      ],
      [
        "toxic",
        -1.0
      ],
      [
        "kines",
        -1.0
      ],
      [
        "âĿ",
        -1.0
      ],
      [
        "ĠXL",
        -1.0
      ],
      [
        "Ġ)ĊĊ",
        -1.0
      ],
      [
        "Ġfluent",
        -1.0
      ],
      [
        "ĠDrives",
        -1.0
      ],
      [
        "Ġfuneral",
        -1.0
      ],
      [
        "aba",
        -1.0
      ],
      [
        "Ġnarcotics",
        -1.0
      ],
      [
        "Ġpride",
        -1.0
      ],
      [
        "Ġflecks",
        -1.0
      ],
      [
        "ĠBalkans",
        -1.0
      ],
      [
        "nden",
        -1.0
      ],
      [
        "ĠAmen",
        -1.0
      ],
      [
        "Ġgreater",
        -1.0
      ],
      [
        "ĠEndurance",
        -1.0
      ],
      [
        "bet",
        -1.0
      ],
      [
        "ĠKara",
        -1.0
      ],
      [
        "pk",
        -1.0
      ],
      [
        "-CH",
        -1.0
      ],
      [
        "ĠIndulge",
        -1.0
      ],
      [
        "Ġamalgamation",
        -1.0
      ],
      [
        "eting",
        -1.0
      ],
      [
        "Ġmeristem",
        -1.0
      ],
      [
        "Ġlac",
        -1.0
      ],
      [
        "Ġit",
        -1.0
      ],
      [
        "Plastic",
        -1.0
      ],
      [
        "ĠEssentially",
        -1.0
      ],
      [
        "ĠButton",
        -1.0
      ],
      [
        "Ġmagenta",
        -1.0
      ],
      [
        "Ġaerator",
        -1.0
      ],
      [
        "Ġscrumptious",
        -1.0
      ],
      [
        "Ġunde",
        -1.0
      ],
      [
        "Ġingredients",
        -1.0
      ],
      [
        "Ġraindrops",
        -1.0
      ],
      [
        "Ġwart",
        -1.0
      ],
      [
        "Ġendothelium",
        -1.0
      ],
      [
        "Alice",
        -1.0
      ],
      [
        "Ġspanned",
        -1.0
      ],
      [
        "ĠPresidents",
        -1.0
      ],
      [
        "Ġonion",
        -1.0
      ],
      [
        "ĠOceania",
        -1.0
      ],
      [
        "ĠGlacier",
        -1.0
      ],
      [
        "ĠComparison",
        -1.0
      ],
      [
        "Meat",
        -1.0
      ],
      [
        "ĠBiomass",
        -1.0
      ],
      [
        "itÃ©",
        -1.0
      ],
      [
        "ĠMinutes",
        -1.0
      ],
      [
        "ĠBye",
        -1.0
      ],
      [
        "Ġvir",
        -1.0
      ],
      [
        "âĢĿ",
        -1.0
      ],
      [
        "sma",
        -1.0
      ],
      [
        "Mud",
        -1.0
      ],
      [
        "ĠParsons",
        -1.0
      ],
      [
        "ĠHenri",
        -1.0
      ],
      [
        "ĠChalk",
        -1.0
      ],
      [
        "pn",
        -1.0
      ],
      [
        "grad",
        -1.0
      ],
      [
        "Ġhindering",
        -1.0
      ],
      [
        "Ġhorizons",
        -1.0
      ],
      [
        "Sop",
        -1.0
      ],
      [
        ".co",
        -1.0
      ],
      [
        "ssen",
        -1.0
      ],
      [
        "ĠNicole",
        -1.0
      ],
      [
        "Ġcoco",
        -1.0
      ],
      [
        "ė",
        -1.0
      ],
      [
        "Ġfeedlot",
        -1.0
      ],
      [
        "ĠUnreal",
        -1.0
      ],
      [
        "Eco",
        -1.0
      ],
      [
        "Ġlidar",
        -1.0
      ],
      [
        "ĠStation",
        -1.0
      ],
      [
        "Ġinvades",
        -1.0
      ],
      [
        "Ġtwenties",
        -1.0
      ],
      [
        "Ġthermocouple",
        -1.0
      ],
      [
        "Ġflattened",
        -1.0
      ],
      [
        "bil",
        -1.0
      ],
      [
        "Ġhobbies",
        -1.0
      ],
      [
        "STER",
        -1.0
      ],
      [
        "-terrain",
        -1.0
      ],
      [
        "ĠPrintable",
        -1.0
      ],
      [
        "ortic",
        -1.0
      ],
      [
        "Ġtrade",
        -1.0
      ],
      [
        "ĠD",
        -1.0
      ],
      [
        "-grit",
        -1.0
      ],
      [
        "ĠCrypto",
        -1.0
      ],
      [
        "Ġbluebird",
        -1.0
      ],
      [
        "}$.",
        -1.0
      ],
      [
        "junct",
        -1.0
      ],
      [
        "Avoiding",
        -1.0
      ],
      [
        "mmy",
        -1.0
      ],
      [
        "Ġcabins",
        -1.0
      ],
      [
        "Ġmicroscope",
        -1.0
      ],
      [
        "Resilience",
        -1.0
      ],
      [
        "Ġmimics",
        -1.0
      ],
      [
        "Ġpicker",
        -1.0
      ],
      [
        "Ġevidences",
        -1.0
      ],
      [
        "ĠMen",
        -1.0
      ],
      [
        "Ġpoinsettia",
        -1.0
      ],
      [
        "-col",
        -1.0
      ],
      [
        "kc",
        -1.0
      ],
      [
        "Ġapprehend",
        -1.0
      ],
      [
        "ïĥ",
        -1.0
      ],
      [
        "ĠDivine",
        -1.0
      ],
      [
        "Ġseated",
        -1.0
      ],
      [
        "ĠAudrey",
        -1.0
      ],
      [
        "Ġexcludes",
        -1.0
      ],
      [
        "Ġinflicting",
        -1.0
      ],
      [
        "calculate",
        -1.0
      ],
      [
        "Ġoft",
        -1.0
      ],
      [
        "ĠSteven",
        -1.0
      ],
      [
        "ĠNye",
        -1.0
      ],
      [
        "Ġairship",
        -1.0
      ],
      [
        "Ġstaphyl",
        -1.0
      ],
      [
        "Ġvisit",
        -1.0
      ],
      [
        "CAP",
        -1.0
      ],
      [
        "ĠDermatology",
        -1.0
      ],
      [
        "Ġnewcomers",
        -1.0
      ],
      [
        "Cha",
        -1.0
      ],
      [
        "ĠOscar",
        -1.0
      ],
      [
        "ĠLor",
        -1.0
      ],
      [
        "Feedback",
        -1.0
      ],
      [
        "Ġcall",
        -1.0
      ],
      [
        "Ġlegendary",
        -1.0
      ],
      [
        "Ġescapes",
        -1.0
      ],
      [
        "packing",
        -1.0
      ],
      [
        "WHERE",
        -1.0
      ],
      [
        "Ku",
        -1.0
      ],
      [
        "Ġdissect",
        -1.0
      ],
      [
        "ozyme",
        -1.0
      ],
      [
        "Ġjune",
        -1.0
      ],
      [
        "Ġstriated",
        -1.0
      ],
      [
        "ĠFresnel",
        -1.0
      ],
      [
        "ĠStephanie",
        -1.0
      ],
      [
        "Ġpediatric",
        -1.0
      ],
      [
        "ĠTerms",
        -1.0
      ],
      [
        "ulia",
        -1.0
      ],
      [
        "Ġnicknames",
        -1.0
      ],
      [
        "Ġeasier",
        -1.0
      ],
      [
        "/In",
        -1.0
      ],
      [
        "Ġcompetitors",
        -1.0
      ],
      [
        "adium",
        -1.0
      ],
      [
        "Ġdiagrams",
        -1.0
      ],
      [
        "Ġvandalism",
        -1.0
      ],
      [
        "kis",
        -1.0
      ],
      [
        "Ġplayers",
        -1.0
      ],
      [
        "Ġpeeing",
        -1.0
      ],
      [
        "-exec",
        -1.0
      ],
      [
        "ĠListeria",
        -1.0
      ],
      [
        "feeding",
        -1.0
      ],
      [
        "ĠScholar",
        -1.0
      ],
      [
        "ĠFormation",
        -1.0
      ],
      [
        "mper",
        -1.0
      ],
      [
        "ĠIdeal",
        -1.0
      ],
      [
        "Ġgirth",
        -1.0
      ],
      [
        "Ġdoctoral",
        -1.0
      ],
      [
        "ĠMixed",
        -1.0
      ],
      [
        "ĠAutism",
        -1.0
      ],
      [
        "ĠTF",
        -1.0
      ],
      [
        "ANSWER",
        -1.0
      ],
      [
        "-learning",
        -1.0
      ],
      [
        "0",
        -1.0
      ],
      [
        "In",
        -1.0
      ],
      [
        "Ġleverages",
        -1.0
      ],
      [
        "Ġcbd",
        -1.0
      ],
      [
        "ĠTur",
        -1.0
      ],
      [
        "Ġmont",
        -1.0
      ],
      [
        "Ġcurriculum",
        -1.0
      ],
      [
        "ĠAustralia",
        -1.0
      ],
      [
        "ĠCinderella",
        -1.0
      ],
      [
        "ĠDust",
        -1.0
      ],
      [
        "dos",
        -1.0
      ],
      [
        "imp",
        -1.0
      ],
      [
        "ĠMANAGEMENT",
        -1.0
      ],
      [
        "Ġcans",
        -1.0
      ],
      [
        "Ġsightseeing",
        -1.0
      ],
      [
        "Ġexclusivity",
        -1.0
      ],
      [
        "cula",
        -1.0
      ],
      [
        "ĠEngineers",
        -1.0
      ],
      [
        "Ġchurn",
        -1.0
      ],
      [
        "Ġeustachian",
        -1.0
      ],
      [
        "Stomach",
        -1.0
      ],
      [
        "Hay",
        -1.0
      ],
      [
        ",x",
        -1.0
      ],
      [
        "ĠUAVs",
        -1.0
      ],
      [
        "ĠDamage",
        -1.0
      ],
      [
        "Kirk",
        -1.0
      ],
      [
        "Ġtempted",
        -1.0
      ],
      [
        "ĠRPM",
        -1.0
      ],
      [
        "Ġflattening",
        -1.0
      ],
      [
        "ĠShips",
        -1.0
      ],
      [
        "Ġcounts",
        -1.0
      ],
      [
        "ĠRichter",
        -1.0
      ],
      [
        "Ġdepictions",
        -1.0
      ],
      [
        "Partner",
        -1.0
      ],
      [
        "Ġmak",
        -1.0
      ],
      [
        "slav",
        -1.0
      ],
      [
        "ĠModification",
        -1.0
      ],
      [
        "Ġinsulator",
        -1.0
      ],
      [
        "Ġbuttermilk",
        -1.0
      ],
      [
        "ĠNeuralink",
        -1.0
      ],
      [
        "ĠProceedings",
        -1.0
      ],
      [
        "Ġlooser",
        -1.0
      ],
      [
        "Ġtricks",
        -1.0
      ],
      [
        "Chesapeake",
        -1.0
      ],
      [
        "numer",
        -1.0
      ],
      [
        "ĠIndicator",
        -1.0
      ],
      [
        "TES",
        -1.0
      ],
      [
        "argument",
        -1.0
      ],
      [
        "tay",
        -1.0
      ],
      [
        "Ġdocs",
        -1.0
      ],
      [
        "tes",
        -1.0
      ],
      [
        "ĠKarma",
        -1.0
      ],
      [
        "Ġrecapitulate",
        -1.0
      ],
      [
        "forcing",
        -1.0
      ],
      [
        "Ġkeyboard",
        -1.0
      ],
      [
        "Ġcrossing",
        -1.0
      ],
      [
        "SQL",
        -1.0
      ],
      [
        "Ġjur",
        -1.0
      ],
      [
        "Ġdeclaration",
        -1.0
      ],
      [
        "Ġspherical",
        -1.0
      ],
      [
        "Ġskeptics",
        -1.0
      ],
      [
        "ĠStre",
        -1.0
      ],
      [
        "Ġperfusion",
        -1.0
      ],
      [
        "regular",
        -1.0
      ],
      [
        "Ġacrylamide",
        -1.0
      ],
      [
        "ĠHair",
        -1.0
      ],
      [
        "Ġspecially",
        -1.0
      ],
      [
        "dB",
        -1.0
      ],
      [
        "Ġleeway",
        -1.0
      ],
      [
        "nor",
        -1.0
      ],
      [
        "ĠMcClure",
        -1.0
      ],
      [
        "Ġseptember",
        -1.0
      ],
      [
        "primitive",
        -1.0
      ],
      [
        "mente",
        -1.0
      ],
      [
        "Ġcheating",
        -1.0
      ],
      [
        "Ġdifficult",
        -1.0
      ],
      [
        "Ġpurely",
        -1.0
      ],
      [
        "ĠMaker",
        -1.0
      ],
      [
        "Ġpunishment",
        -1.0
      ],
      [
        "Ġoccupies",
        -1.0
      ],
      [
        "phyr",
        -1.0
      ],
      [
        "Ġcomb",
        -1.0
      ],
      [
        "-In",
        -1.0
      ],
      [
        "Ġsucker",
        -1.0
      ],
      [
        "ĠSurveillance",
        -1.0
      ],
      [
        "-dry",
        -1.0
      ],
      [
        "Ġsaddle",
        -1.0
      ],
      [
        "Really",
        -1.0
      ],
      [
        "erent",
        -1.0
      ],
      [
        "ĠChampion",
        -1.0
      ],
      [
        "Ġsubroutine",
        -1.0
      ],
      [
        "ĠTask",
        -1.0
      ],
      [
        "ĠMagnesium",
        -1.0
      ],
      [
        "Ġgrasshoppers",
        -1.0
      ],
      [
        "Ġwetter",
        -1.0
      ],
      [
        "Ġnestlings",
        -1.0
      ],
      [
        "\"This",
        -1.0
      ],
      [
        "ĠMama",
        -1.0
      ],
      [
        "music",
        -1.0
      ],
      [
        "Ġfinesse",
        -1.0
      ],
      [
        "Ġembarking",
        -1.0
      ],
      [
        "EPS",
        -1.0
      ],
      [
        "Ġjigsaw",
        -1.0
      ],
      [
        "erary",
        -1.0
      ],
      [
        "expansion",
        -1.0
      ],
      [
        "-inf",
        -1.0
      ],
      [
        "Ġii",
        -1.0
      ],
      [
        "ĠPrincipal",
        -1.0
      ],
      [
        "Battery",
        -1.0
      ],
      [
        "ĠAccording",
        -1.0
      ],
      [
        "Ġwonderland",
        -1.0
      ],
      [
        "at",
        -1.0
      ],
      [
        "ĠAaron",
        -1.0
      ],
      [
        "edded",
        -1.0
      ],
      [
        "Ġmarshmallows",
        -1.0
      ],
      [
        "PAN",
        -1.0
      ],
      [
        "Ġcategories",
        -1.0
      ],
      [
        "ĠUncover",
        -1.0
      ],
      [
        "ĠShows",
        -1.0
      ],
      [
        "itas",
        -1.0
      ],
      [
        "ĠCliff",
        -1.0
      ],
      [
        "ĠDiane",
        -1.0
      ],
      [
        "ĠDIF",
        -1.0
      ],
      [
        "-carbon",
        -1.0
      ],
      [
        "Ġmudflats",
        -1.0
      ],
      [
        "tri",
        -1.0
      ],
      [
        "ĠRob",
        -1.0
      ],
      [
        "Ġfencing",
        -1.0
      ],
      [
        "cans",
        -1.0
      ],
      [
        "ĠExcess",
        -1.0
      ],
      [
        "Ġindexing",
        -1.0
      ],
      [
        "Ġâĸ",
        -1.0
      ],
      [
        "Ġcavern",
        -1.0
      ],
      [
        "ĠZurich",
        -1.0
      ],
      [
        "rba",
        -1.0
      ],
      [
        "Ġurgent",
        -1.0
      ],
      [
        "Ġfloors",
        -1.0
      ],
      [
        "excluding",
        -1.0
      ],
      [
        "âľĵ",
        -1.0
      ],
      [
        "ĠCanberra",
        -1.0
      ],
      [
        "Ġnumerals",
        -1.0
      ],
      [
        "riot",
        -1.0
      ],
      [
        "Pun",
        -1.0
      ],
      [
        "Ġimpregnated",
        -1.0
      ],
      [
        "ĠMAF",
        -1.0
      ],
      [
        "ĠAbi",
        -1.0
      ],
      [
        "-government",
        -1.0
      ],
      [
        "Ġwarn",
        -1.0
      ],
      [
        "pled",
        -1.0
      ],
      [
        "NT",
        -1.0
      ],
      [
        "Ġpaneling",
        -1.0
      ],
      [
        "Ġox",
        -1.0
      ],
      [
        "ĠBabies",
        -1.0
      ],
      [
        "ĠTudor",
        -1.0
      ],
      [
        "ista",
        -1.0
      ],
      [
        "Ġtwins",
        -1.0
      ],
      [
        "!\"",
        -1.0
      ],
      [
        "ĠData",
        -1.0
      ],
      [
        "ogi",
        -1.0
      ],
      [
        "Ġlures",
        -1.0
      ],
      [
        "Ġroller",
        -1.0
      ],
      [
        "ĠVersion",
        -1.0
      ],
      [
        "Ġnauseous",
        -1.0
      ],
      [
        "Ġuntreated",
        -1.0
      ],
      [
        "/mL",
        -1.0
      ],
      [
        "Ġneem",
        -1.0
      ],
      [
        "Ġfactory",
        -1.0
      ],
      [
        "Ġmindful",
        -1.0
      ],
      [
        "Ġsalesperson",
        -1.0
      ],
      [
        "ĠDip",
        -1.0
      ],
      [
        "ĠCanada",
        -1.0
      ],
      [
        "Ġmol",
        -1.0
      ],
      [
        "Ġmole",
        -1.0
      ],
      [
        "urg",
        -1.0
      ],
      [
        "Ġmommy",
        -1.0
      ],
      [
        "ĠAnime",
        -1.0
      ],
      [
        "Ġhighly",
        -1.0
      ],
      [
        "Ġchallenging",
        -1.0
      ],
      [
        "ĠGrav",
        -1.0
      ],
      [
        "Ġsquamous",
        -1.0
      ],
      [
        "Ġobstacle",
        -1.0
      ],
      [
        "issues",
        -1.0
      ],
      [
        "ĠZZ",
        -1.0
      ],
      [
        "Automation",
        -1.0
      ],
      [
        "Ġerupted",
        -1.0
      ],
      [
        "Ġaudits",
        -1.0
      ],
      [
        "shing",
        -1.0
      ],
      [
        "ĠChemical",
        -1.0
      ],
      [
        "reason",
        -1.0
      ],
      [
        "ĠJeff",
        -1.0
      ],
      [
        "play",
        -1.0
      ],
      [
        "Ġsupercharger",
        -1.0
      ],
      [
        "Ġcleansers",
        -1.0
      ],
      [
        "Ġpeloton",
        -1.0
      ],
      [
        "ĠStatistical",
        -1.0
      ],
      [
        "Ġhouses",
        -1.0
      ],
      [
        "Ġcockatoo",
        -1.0
      ],
      [
        "-alcoholic",
        -1.0
      ],
      [
        "ibles",
        -1.0
      ],
      [
        "Ġpedal",
        -1.0
      ],
      [
        "Ġcombustion",
        -1.0
      ],
      [
        "ĠEveryday",
        -1.0
      ],
      [
        "Ġmanipulative",
        -1.0
      ],
      [
        "/The",
        -1.0
      ],
      [
        "plo",
        -1.0
      ],
      [
        "waii",
        -1.0
      ],
      [
        "Ġmonth",
        -1.0
      ],
      [
        "Ġhomeschool",
        -1.0
      ],
      [
        "Ġpediatrician",
        -1.0
      ],
      [
        "ĠEmploy",
        -1.0
      ],
      [
        "Ġvisitation",
        -1.0
      ],
      [
        "know",
        -1.0
      ],
      [
        "ĠInfantry",
        -1.0
      ],
      [
        "ĠSupplements",
        -1.0
      ],
      [
        "ĠWake",
        -1.0
      ],
      [
        "Ġseparately",
        -1.0
      ],
      [
        "Ġhinged",
        -1.0
      ],
      [
        "ĠShropshire",
        -1.0
      ],
      [
        "ĠÂŃ",
        -1.0
      ],
      [
        "Ġaccolades",
        -1.0
      ],
      [
        "Ġquit",
        -1.0
      ],
      [
        "ĠIngredient",
        -1.0
      ],
      [
        "Ġlethargy",
        -1.0
      ],
      [
        "zia",
        -1.0
      ],
      [
        "Ġsenator",
        -1.0
      ],
      [
        "ĠList",
        -1.0
      ],
      [
        "Ġbullies",
        -1.0
      ],
      [
        "-defense",
        -1.0
      ],
      [
        "Ġannum",
        -1.0
      ],
      [
        "Ġosteo",
        -1.0
      ],
      [
        "Ġintensifies",
        -1.0
      ],
      [
        "ĠKenny",
        -1.0
      ],
      [
        "lating",
        -1.0
      ],
      [
        "Ġspirited",
        -1.0
      ],
      [
        "Ġutilization",
        -1.0
      ],
      [
        "Ġcistern",
        -1.0
      ],
      [
        "aqua",
        -1.0
      ],
      [
        "Ġcruciate",
        -1.0
      ],
      [
        "Ġmarketplace",
        -1.0
      ],
      [
        "climatic",
        -1.0
      ],
      [
        "ĠâĪĪ",
        -1.0
      ],
      [
        "ĠPhe",
        -1.0
      ],
      [
        "Ġcheat",
        -1.0
      ],
      [
        "ĠExpected",
        -1.0
      ],
      [
        "Ġmedicines",
        -1.0
      ],
      [
        "zu",
        -1.0
      ],
      [
        "Ġlacing",
        -1.0
      ],
      [
        "ĠStockholm",
        -1.0
      ],
      [
        "ĠKeown",
        -1.0
      ],
      [
        "Ġclandestine",
        -1.0
      ],
      [
        "quel",
        -1.0
      ],
      [
        "fat",
        -1.0
      ],
      [
        "gray",
        -1.0
      ],
      [
        "Ġstats",
        -1.0
      ],
      [
        "Ġimpairment",
        -1.0
      ],
      [
        "ĠWest",
        -1.0
      ],
      [
        "Ġfresco",
        -1.0
      ],
      [
        "Ġkiln",
        -1.0
      ],
      [
        "ĠClassic",
        -1.0
      ],
      [
        "Director",
        -1.0
      ],
      [
        "ĠMustang",
        -1.0
      ],
      [
        "ĠMIS",
        -1.0
      ],
      [
        "Ġsped",
        -1.0
      ],
      [
        "Ġgalaxy",
        -1.0
      ],
      [
        "Gli",
        -1.0
      ],
      [
        "ĠSingapore",
        -1.0
      ],
      [
        "ĠTen",
        -1.0
      ],
      [
        "DEC",
        -1.0
      ],
      [
        "ospores",
        -1.0
      ],
      [
        "lde",
        -1.0
      ],
      [
        "Ġperishable",
        -1.0
      ],
      [
        "Ġwalrus",
        -1.0
      ],
      [
        "Compliance",
        -1.0
      ],
      [
        "Ġsovereignty",
        -1.0
      ],
      [
        "mouth",
        -1.0
      ],
      [
        "mbu",
        -1.0
      ],
      [
        "ĠConsultant",
        -1.0
      ],
      [
        "Ġaffiliate",
        -1.0
      ],
      [
        "ĠFLATOW",
        -1.0
      ],
      [
        "Ġsurround",
        -1.0
      ],
      [
        "controlled",
        -1.0
      ],
      [
        "Ġmarinated",
        -1.0
      ],
      [
        "ĠIndirect",
        -1.0
      ],
      [
        "Ġstunting",
        -1.0
      ],
      [
        "Ġangiosperms",
        -1.0
      ],
      [
        "Ġviolence",
        -1.0
      ],
      [
        "ĠBonds",
        -1.0
      ],
      [
        "Ġagitation",
        -1.0
      ],
      [
        "ĠSpeakers",
        -1.0
      ],
      [
        "Ġrubber",
        -1.0
      ],
      [
        "Ġmotto",
        -1.0
      ],
      [
        "Ġinkjet",
        -1.0
      ],
      [
        "Wel",
        -1.0
      ],
      [
        "Ġdenies",
        -1.0
      ],
      [
        "ĠBlueberries",
        -1.0
      ],
      [
        "horse",
        -1.0
      ],
      [
        "ĠPhenomenon",
        -1.0
      ],
      [
        "Ġ(*",
        -1.0
      ],
      [
        "ĠPE",
        -1.0
      ],
      [
        "ĠSikkim",
        -1.0
      ],
      [
        "ĠAncestry",
        -1.0
      ],
      [
        "mAh",
        -1.0
      ],
      [
        "ĠOk",
        -1.0
      ],
      [
        "ĠHoneywell",
        -1.0
      ],
      [
        "Ġfronds",
        -1.0
      ],
      [
        "Ġfurthermore",
        -1.0
      ],
      [
        "Ġhammer",
        -1.0
      ],
      [
        "Ġwhitetail",
        -1.0
      ],
      [
        "ĠSIP",
        -1.0
      ],
      [
        "ĠChocolate",
        -1.0
      ],
      [
        "Ġstationed",
        -1.0
      ],
      [
        "Ġwhisky",
        -1.0
      ],
      [
        "Ġdisciple",
        -1.0
      ],
      [
        "ĠBLM",
        -1.0
      ],
      [
        "$.ĊĊ",
        -1.0
      ],
      [
        "Ġroofs",
        -1.0
      ],
      [
        "Ġtreasure",
        -1.0
      ],
      [
        "elle",
        -1.0
      ],
      [
        "SL",
        -1.0
      ],
      [
        "Turns",
        -1.0
      ],
      [
        "Ġattention",
        -1.0
      ],
      [
        "Ġsale",
        -1.0
      ],
      [
        "Bol",
        -1.0
      ],
      [
        "bacterial",
        -1.0
      ],
      [
        "Ġelevation",
        -1.0
      ],
      [
        "span",
        -1.0
      ],
      [
        "ĠTwice",
        -1.0
      ],
      [
        "ĠeBook",
        -1.0
      ],
      [
        "Countries",
        -1.0
      ],
      [
        "Ġconsumed",
        -1.0
      ],
      [
        "inea",
        -1.0
      ],
      [
        "Ġput",
        -1.0
      ],
      [
        "ãĥĨ",
        -1.0
      ],
      [
        "Ġpromised",
        -1.0
      ],
      [
        "iT",
        -1.0
      ],
      [
        "ĠBaking",
        -1.0
      ],
      [
        "LLE",
        -1.0
      ],
      [
        "Ġtrump",
        -1.0
      ],
      [
        "remove",
        -1.0
      ],
      [
        "ĠGuelph",
        -1.0
      ],
      [
        "Ġjunior",
        -1.0
      ],
      [
        "\").",
        -1.0
      ],
      [
        "Ġdowns",
        -1.0
      ],
      [
        "Ġmotives",
        -1.0
      ],
      [
        "ĠDao",
        -1.0
      ],
      [
        "Python",
        -1.0
      ],
      [
        "thanks",
        -1.0
      ],
      [
        "-immune",
        -1.0
      ],
      [
        "examples",
        -1.0
      ],
      [
        "Ġresulted",
        -1.0
      ],
      [
        "Ġpairings",
        -1.0
      ],
      [
        "Ġearthworms",
        -1.0
      ],
      [
        "Ġdrool",
        -1.0
      ],
      [
        "ĠGla",
        -1.0
      ],
      [
        "ĠTwelve",
        -1.0
      ],
      [
        "Ġsuccess",
        -1.0
      ],
      [
        "rably",
        -1.0
      ],
      [
        "mbler",
        -1.0
      ],
      [
        "Ġtransmit",
        -1.0
      ],
      [
        "Ġupbringing",
        -1.0
      ],
      [
        "Ġjelly",
        -1.0
      ],
      [
        "Ġcrumbled",
        -1.0
      ],
      [
        "ĠConvection",
        -1.0
      ],
      [
        "ĠTaliban",
        -1.0
      ],
      [
        "Ġgastro",
        -1.0
      ],
      [
        "Ġdun",
        -1.0
      ],
      [
        "ĠEnd",
        -1.0
      ],
      [
        "Ġpoppies",
        -1.0
      ],
      [
        "ĠEastern",
        -1.0
      ],
      [
        "Ġyielding",
        -1.0
      ],
      [
        "ĠiCloud",
        -1.0
      ],
      [
        "Ġbeginning",
        -1.0
      ],
      [
        "Ġoverflowing",
        -1.0
      ],
      [
        "Ġdesperate",
        -1.0
      ],
      [
        "Ġflooding",
        -1.0
      ],
      [
        "ĠDrinks",
        -1.0
      ],
      [
        "Ġdigesting",
        -1.0
      ],
      [
        "-sulfur",
        -1.0
      ],
      [
        "Ġinterferes",
        -1.0
      ],
      [
        "Pig",
        -1.0
      ],
      [
        "ĠNewly",
        -1.0
      ],
      [
        "Ġultimately",
        -1.0
      ],
      [
        "ĠLoss",
        -1.0
      ],
      [
        "sb",
        -1.0
      ],
      [
        "Ġsalad",
        -1.0
      ],
      [
        "ä½ľ",
        -1.0
      ],
      [
        "nut",
        -1.0
      ],
      [
        "Football",
        -1.0
      ],
      [
        "ĠAdrenal",
        -1.0
      ],
      [
        "-ex",
        -1.0
      ],
      [
        "Ġselected",
        -1.0
      ],
      [
        "Ġbikes",
        -1.0
      ],
      [
        "hf",
        -1.0
      ],
      [
        "ĠMario",
        -1.0
      ],
      [
        "Ġnubilus",
        -1.0
      ],
      [
        "Ġinsufficient",
        -1.0
      ],
      [
        "Ġvaccines",
        -1.0
      ],
      [
        "ĠBadge",
        -1.0
      ],
      [
        "Ġ()",
        -1.0
      ],
      [
        "credited",
        -1.0
      ],
      [
        "Ġlamellae",
        -1.0
      ],
      [
        "Ġaftermath",
        -1.0
      ],
      [
        "-tasting",
        -1.0
      ],
      [
        "hit",
        -1.0
      ],
      [
        "Ġfoo",
        -1.0
      ],
      [
        "Athletes",
        -1.0
      ],
      [
        "ĠCertificate",
        -1.0
      ],
      [
        "method",
        -1.0
      ],
      [
        "Challenges",
        -1.0
      ],
      [
        "Ġ.",
        -1.0
      ],
      [
        "ĠGenerating",
        -1.0
      ],
      [
        "ocu",
        -1.0
      ],
      [
        "environment",
        -1.0
      ],
      [
        "cco",
        -1.0
      ],
      [
        "Ġdownloads",
        -1.0
      ],
      [
        "ĠGroundwater",
        -1.0
      ],
      [
        "depend",
        -1.0
      ],
      [
        "Fleas",
        -1.0
      ],
      [
        "Ġcoin",
        -1.0
      ],
      [
        "Ġcannot",
        -1.0
      ],
      [
        "Push",
        -1.0
      ],
      [
        "rou",
        -1.0
      ],
      [
        "-layered",
        -1.0
      ],
      [
        "Ġbackups",
        -1.0
      ],
      [
        "ye",
        -1.0
      ],
      [
        "ĠYep",
        -1.0
      ],
      [
        "ĠVor",
        -1.0
      ],
      [
        "',",
        -1.0
      ],
      [
        "Ġpheasant",
        -1.0
      ],
      [
        "ĠWherever",
        -1.0
      ],
      [
        "IND",
        -1.0
      ],
      [
        "Ġperitonitis",
        -1.0
      ],
      [
        "visit",
        -1.0
      ],
      [
        "ĠKla",
        -1.0
      ],
      [
        "ĠSpe",
        -1.0
      ],
      [
        "-resolution",
        -1.0
      ],
      [
        "rassment",
        -1.0
      ],
      [
        "âĹ¦",
        -1.0
      ],
      [
        "Ġacademies",
        -1.0
      ],
      [
        "Ġwinters",
        -1.0
      ],
      [
        "ĠGibraltar",
        -1.0
      ],
      [
        "Want",
        -1.0
      ],
      [
        "Ġcool",
        -1.0
      ],
      [
        "ĠElias",
        -1.0
      ],
      [
        "Ġsprain",
        -1.0
      ],
      [
        "ĠWarriors",
        -1.0
      ],
      [
        "Ġcommanders",
        -1.0
      ],
      [
        "ĠLIGO",
        -1.0
      ],
      [
        "Ġradiations",
        -1.0
      ],
      [
        "ĠGermination",
        -1.0
      ],
      [
        "zzling",
        -1.0
      ],
      [
        "Ġtouchscreen",
        -1.0
      ],
      [
        "Hand",
        -1.0
      ],
      [
        "Ġthermostats",
        -1.0
      ],
      [
        "Ġfoils",
        -1.0
      ],
      [
        "/ml",
        -1.0
      ],
      [
        "Ġchile",
        -1.0
      ],
      [
        "Ġpole",
        -1.0
      ],
      [
        "Ġding",
        -1.0
      ],
      [
        "ĠThinking",
        -1.0
      ],
      [
        "-flight",
        -1.0
      ],
      [
        "Ġsti",
        -1.0
      ],
      [
        "ĠBreath",
        -1.0
      ],
      [
        "Ġsharpness",
        -1.0
      ],
      [
        "Ġiguanas",
        -1.0
      ],
      [
        "sail",
        -1.0
      ],
      [
        "ĠRit",
        -1.0
      ],
      [
        "Ġtransferred",
        -1.0
      ],
      [
        "glucose",
        -1.0
      ],
      [
        "Ġhot",
        -1.0
      ],
      [
        "Ġparasites",
        -1.0
      ],
      [
        "Ġlaborious",
        -1.0
      ],
      [
        "Ġprofiles",
        -1.0
      ],
      [
        "Ġcoffin",
        -1.0
      ],
      [
        "Ġgel",
        -1.0
      ],
      [
        "Ġlime",
        -1.0
      ],
      [
        "Ġnewer",
        -1.0
      ],
      [
        "orr",
        -1.0
      ],
      [
        "Ġgrueling",
        -1.0
      ],
      [
        "Ġrenewables",
        -1.0
      ],
      [
        "rov",
        -1.0
      ],
      [
        "Ġjudgements",
        -1.0
      ],
      [
        "Ġshortcut",
        -1.0
      ],
      [
        "styles",
        -1.0
      ],
      [
        "-gl",
        -1.0
      ],
      [
        "Ġsubway",
        -1.0
      ],
      [
        "ĠPatrol",
        -1.0
      ],
      [
        "/S",
        -1.0
      ],
      [
        "ĠAccess",
        -1.0
      ],
      [
        "Ġmotion",
        -1.0
      ],
      [
        "Ġfamiliarize",
        -1.0
      ],
      [
        "Ġbump",
        -1.0
      ],
      [
        "Marc",
        -1.0
      ],
      [
        "Ġdocumented",
        -1.0
      ],
      [
        "Ġcladding",
        -1.0
      ],
      [
        "Breakfast",
        -1.0
      ],
      [
        "Det",
        -1.0
      ],
      [
        "ĠRIGHT",
        -1.0
      ],
      [
        "Ġdecks",
        -1.0
      ],
      [
        "ĠErosion",
        -1.0
      ],
      [
        "Ġcapitals",
        -1.0
      ],
      [
        "Ġbred",
        -1.0
      ],
      [
        "vaccination",
        -1.0
      ],
      [
        "lla",
        -1.0
      ],
      [
        "Anthropo",
        -1.0
      ],
      [
        "SF",
        -1.0
      ],
      [
        "-spi",
        -1.0
      ],
      [
        "Ġshore",
        -1.0
      ],
      [
        "tivate",
        -1.0
      ],
      [
        "Ġrationality",
        -1.0
      ],
      [
        "Ġromantic",
        -1.0
      ],
      [
        "stasis",
        -1.0
      ],
      [
        "dew",
        -1.0
      ],
      [
        "Ġplucked",
        -1.0
      ],
      [
        "Ġarbitrarily",
        -1.0
      ],
      [
        "Northern",
        -1.0
      ],
      [
        "ĠJW",
        -1.0
      ],
      [
        "Ġpelagic",
        -1.0
      ],
      [
        "Ġobey",
        -1.0
      ],
      [
        "ter",
        -1.0
      ],
      [
        "Ġcovid",
        -1.0
      ],
      [
        "ĠAlexandr",
        -1.0
      ],
      [
        "@yahoo",
        -1.0
      ],
      [
        "union",
        -1.0
      ],
      [
        "tified",
        -1.0
      ],
      [
        "Ġejaculate",
        -1.0
      ],
      [
        "Ġjealous",
        -1.0
      ],
      [
        "Ġcombating",
        -1.0
      ],
      [
        "Ġappointed",
        -1.0
      ],
      [
        "Ġdefaults",
        -1.0
      ],
      [
        "ĠMSD",
        -1.0
      ],
      [
        "Curious",
        -1.0
      ],
      [
        "Ġpatchwork",
        -1.0
      ],
      [
        "Ġgrained",
        -1.0
      ],
      [
        "Ġiced",
        -1.0
      ],
      [
        "ĠVeterinarian",
        -1.0
      ],
      [
        "-third",
        -1.0
      ],
      [
        "Ġcontributors",
        -1.0
      ],
      [
        "Ġmiddle",
        -1.0
      ],
      [
        "Ġintake",
        -1.0
      ],
      [
        "uer",
        -1.0
      ],
      [
        "Ġwingspan",
        -1.0
      ],
      [
        "Ġdv",
        -1.0
      ],
      [
        "near",
        -1.0
      ],
      [
        "DNA",
        -1.0
      ],
      [
        "igan",
        -1.0
      ],
      [
        "label",
        -1.0
      ],
      [
        "Ġslowed",
        -1.0
      ],
      [
        "Ġbrushless",
        -1.0
      ],
      [
        "ark",
        -1.0
      ],
      [
        "ĠStartup",
        -1.0
      ],
      [
        "ðĿ",
        -1.0
      ],
      [
        "ĠInha",
        -1.0
      ],
      [
        "chin",
        -1.0
      ],
      [
        "Ġpayout",
        -1.0
      ],
      [
        "/green",
        -1.0
      ],
      [
        "ĠDaniel",
        -1.0
      ],
      [
        "-Gro",
        -1.0
      ],
      [
        "ĠCarrying",
        -1.0
      ],
      [
        "Ġrecovery",
        -1.0
      ],
      [
        "Construction",
        -1.0
      ],
      [
        "ĠAccomplish",
        -1.0
      ],
      [
        "Ġaccentuate",
        -1.0
      ],
      [
        "Ġstarters",
        -1.0
      ],
      [
        "Ġlights",
        -1.0
      ],
      [
        "Ġhedgehog",
        -1.0
      ],
      [
        "Ġrelentlessly",
        -1.0
      ],
      [
        "collection",
        -1.0
      ],
      [
        "Ġmagnesium",
        -1.0
      ],
      [
        "Ġamphoteric",
        -1.0
      ],
      [
        "towards",
        -1.0
      ],
      [
        "Ġorganize",
        -1.0
      ],
      [
        "Ġbackyard",
        -1.0
      ],
      [
        "Ġty",
        -1.0
      ],
      [
        "Ġjeans",
        -1.0
      ],
      [
        "Ġparadise",
        -1.0
      ],
      [
        "Ġholdings",
        -1.0
      ],
      [
        "Ġtray",
        -1.0
      ],
      [
        "Ġwhiter",
        -1.0
      ],
      [
        "Unleash",
        -1.0
      ],
      [
        "lock",
        -1.0
      ],
      [
        "mathbb",
        -1.0
      ],
      [
        "Related",
        -1.0
      ],
      [
        "ĠFahrenheit",
        -1.0
      ],
      [
        "atis",
        -1.0
      ],
      [
        "em",
        -1.0
      ],
      [
        "Ġnecro",
        -1.0
      ],
      [
        "orbital",
        -1.0
      ],
      [
        "Vp",
        -1.0
      ],
      [
        "doll",
        -1.0
      ],
      [
        "gression",
        -1.0
      ],
      [
        "omycetes",
        -1.0
      ],
      [
        "Ġbeluga",
        -1.0
      ],
      [
        "Above",
        -1.0
      ],
      [
        "ĠAlways",
        -1.0
      ],
      [
        "ĠORIGIN",
        -1.0
      ],
      [
        "display",
        -1.0
      ],
      [
        "ĠRefrigerate",
        -1.0
      ],
      [
        "fie",
        -1.0
      ],
      [
        "sonance",
        -1.0
      ],
      [
        "Ġoverwrite",
        -1.0
      ],
      [
        ".ĊĊ",
        -1.0
      ],
      [
        "phage",
        -1.0
      ],
      [
        "tur",
        -1.0
      ],
      [
        "ĠiOS",
        -1.0
      ],
      [
        "Ġartistry",
        -1.0
      ],
      [
        "ĠPittsburgh",
        -1.0
      ],
      [
        "employ",
        -1.0
      ],
      [
        "Ġinvader",
        -1.0
      ],
      [
        "_e",
        -1.0
      ],
      [
        "ĠDrosophila",
        -1.0
      ],
      [
        "ogenesis",
        -1.0
      ],
      [
        "Ġlasts",
        -1.0
      ],
      [
        "Ġdodging",
        -1.0
      ],
      [
        "Ġdownwind",
        -1.0
      ],
      [
        "Most",
        -1.0
      ],
      [
        "_p",
        -1.0
      ],
      [
        "Ġsie",
        -1.0
      ],
      [
        "Ġbattleships",
        -1.0
      ],
      [
        "mercury",
        -1.0
      ],
      [
        "Idaho",
        -1.0
      ],
      [
        "Jaw",
        -1.0
      ],
      [
        "kla",
        -1.0
      ],
      [
        "spiritual",
        -1.0
      ],
      [
        "ecu",
        -1.0
      ],
      [
        "Ġstrikes",
        -1.0
      ],
      [
        "ĠLEARN",
        -1.0
      ],
      [
        "ayana",
        -1.0
      ],
      [
        "Ġactivist",
        -1.0
      ],
      [
        "Depression",
        -1.0
      ],
      [
        "solar",
        -1.0
      ],
      [
        "ĠSapiens",
        -1.0
      ],
      [
        "BMS",
        -1.0
      ],
      [
        "fin",
        -1.0
      ],
      [
        "ĠRick",
        -1.0
      ],
      [
        "Ġswan",
        -1.0
      ],
      [
        "ĠExactly",
        -1.0
      ],
      [
        "Ġdownhill",
        -1.0
      ],
      [
        "ĠRoofing",
        -1.0
      ],
      [
        "JA",
        -1.0
      ],
      [
        "Ġroe",
        -1.0
      ],
      [
        "ĠFla",
        -1.0
      ],
      [
        "Ġetcetera",
        -1.0
      ],
      [
        "text",
        -1.0
      ],
      [
        "Ġcounting",
        -1.0
      ],
      [
        "Ġgrappling",
        -1.0
      ],
      [
        "-painted",
        -1.0
      ],
      [
        "Ġsubstratum",
        -1.0
      ],
      [
        "Ġdir",
        -1.0
      ],
      [
        "87",
        -1.0
      ],
      [
        "Ġmentors",
        -1.0
      ],
      [
        "ĠSnake",
        -1.0
      ],
      [
        "PRE",
        -1.0
      ],
      [
        "ĠEcho",
        -1.0
      ],
      [
        "kWh",
        -1.0
      ],
      [
        "simple",
        -1.0
      ],
      [
        "Comparison",
        -1.0
      ],
      [
        "Ġstork",
        -1.0
      ],
      [
        "Ġ):",
        -1.0
      ],
      [
        "ĠIron",
        -1.0
      ],
      [
        "Reflect",
        -1.0
      ],
      [
        "Ġallergy",
        -1.0
      ],
      [
        "Ġwaveguide",
        -1.0
      ],
      [
        "Ġrelic",
        -1.0
      ],
      [
        "ĠInterfaces",
        -1.0
      ],
      [
        "Ġfederal",
        -1.0
      ],
      [
        "Ġpathologist",
        -1.0
      ],
      [
        "Ġtutoring",
        -1.0
      ],
      [
        "Ġfjord",
        -1.0
      ],
      [
        "ĠSavannah",
        -1.0
      ],
      [
        "ĠRÃ©",
        -1.0
      ],
      [
        "ĠDiscussions",
        -1.0
      ],
      [
        "Ġanimators",
        -1.0
      ],
      [
        "-forward",
        -1.0
      ],
      [
        "Ġuniqueness",
        -1.0
      ],
      [
        "ĠCrispy",
        -1.0
      ],
      [
        "IVE",
        -1.0
      ],
      [
        "Ġcurbside",
        -1.0
      ],
      [
        "ĠIng",
        -1.0
      ],
      [
        "ĠTreatment",
        -1.0
      ],
      [
        "Ġgrieve",
        -1.0
      ],
      [
        "Ġepisode",
        -1.0
      ],
      [
        "ĠSERVICES",
        -1.0
      ],
      [
        "Ġroyalty",
        -1.0
      ],
      [
        "Ġvi",
        -1.0
      ],
      [
        "Ġthreading",
        -1.0
      ],
      [
        "ocyte",
        -1.0
      ],
      [
        "ĠTaurus",
        -1.0
      ],
      [
        "ĠSkate",
        -1.0
      ],
      [
        "ĠGlenn",
        -1.0
      ],
      [
        "Ġproposing",
        -1.0
      ],
      [
        "Ġonto",
        -1.0
      ],
      [
        "ĠLynx",
        -1.0
      ],
      [
        "Ġcountries",
        -1.0
      ],
      [
        "Ġumbrellas",
        -1.0
      ],
      [
        "Ġbot",
        -1.0
      ],
      [
        "Ġdraft",
        -1.0
      ],
      [
        "ĠDistricts",
        -1.0
      ],
      [
        "58",
        -1.0
      ],
      [
        "Ġdomination",
        -1.0
      ],
      [
        "Ġebike",
        -1.0
      ],
      [
        "ĠBehind",
        -1.0
      ],
      [
        "Tools",
        -1.0
      ],
      [
        "ĠCarn",
        -1.0
      ],
      [
        "ĠIntrepid",
        -1.0
      ],
      [
        "Ġdistortions",
        -1.0
      ],
      [
        "ĠObserve",
        -1.0
      ],
      [
        "Ġinvestigated",
        -1.0
      ],
      [
        "ĠTeresa",
        -1.0
      ],
      [
        "Ġcarpal",
        -1.0
      ],
      [
        "Ġsignatures",
        -1.0
      ],
      [
        "Ġtemperate",
        -1.0
      ],
      [
        "ĠWilliams",
        -1.0
      ],
      [
        "Ġstreaming",
        -1.0
      ],
      [
        "(\\",
        -1.0
      ],
      [
        "Ġtrainees",
        -1.0
      ],
      [
        "mini",
        -1.0
      ],
      [
        "Ġmovable",
        -1.0
      ],
      [
        "ĠAren",
        -1.0
      ],
      [
        "Ġchairman",
        -1.0
      ],
      [
        "Ġgeneric",
        -1.0
      ],
      [
        "Ġnearly",
        -1.0
      ],
      [
        "Vic",
        -1.0
      ],
      [
        "ĠScoring",
        -1.0
      ],
      [
        "Ġfragmented",
        -1.0
      ],
      [
        "ĠFAMILY",
        -1.0
      ],
      [
        "Ġyears",
        -1.0
      ],
      [
        "Ġsmith",
        -1.0
      ],
      [
        "Ġbehavior",
        -1.0
      ],
      [
        "Ġcompound",
        -1.0
      ],
      [
        "Ġreprimand",
        -1.0
      ],
      [
        "java",
        -1.0
      ],
      [
        "ĠPNP",
        -1.0
      ],
      [
        "Ġgall",
        -1.0
      ],
      [
        "Bh",
        -1.0
      ],
      [
        "(j",
        -1.0
      ],
      [
        "bour",
        -1.0
      ],
      [
        "Ġsleeper",
        -1.0
      ],
      [
        "Ġshipment",
        -1.0
      ],
      [
        "Ġoverwatering",
        -1.0
      ],
      [
        "Ġelasticity",
        -1.0
      ],
      [
        "Ġlessen",
        -1.0
      ],
      [
        "Fungi",
        -1.0
      ],
      [
        "Ġturbines",
        -1.0
      ],
      [
        "Ġsagging",
        -1.0
      ],
      [
        "-volatile",
        -1.0
      ],
      [
        "ĠOs",
        -1.0
      ],
      [
        "Ġmodes",
        -1.0
      ],
      [
        "JP",
        -1.0
      ],
      [
        "GLE",
        -1.0
      ],
      [
        "iscosity",
        -1.0
      ],
      [
        "ĠDiscount",
        -1.0
      ],
      [
        "furor",
        -1.0
      ],
      [
        "Ġmagpie",
        -1.0
      ],
      [
        "ĠLev",
        -1.0
      ],
      [
        "Ġmegapixel",
        -1.0
      ],
      [
        "Kam",
        -1.0
      ],
      [
        "bF",
        -1.0
      ],
      [
        "Ġformulate",
        -1.0
      ],
      [
        "ĠCharm",
        -1.0
      ],
      [
        "Ġamending",
        -1.0
      ],
      [
        "ĠBolt",
        -1.0
      ],
      [
        "ÑĢÐ¾",
        -1.0
      ],
      [
        "ĠIraq",
        -1.0
      ],
      [
        "migration",
        -1.0
      ],
      [
        "ĠAccordingly",
        -1.0
      ],
      [
        "Te",
        -1.0
      ],
      [
        "Ġbrownie",
        -1.0
      ],
      [
        "CRA",
        -1.0
      ],
      [
        "aI",
        -1.0
      ],
      [
        "Ġlaryngeal",
        -1.0
      ],
      [
        "vib",
        -1.0
      ],
      [
        "cle",
        -1.0
      ],
      [
        "Ġbou",
        -1.0
      ],
      [
        "Ġbookmarks",
        -1.0
      ],
      [
        "Ġcrushing",
        -1.0
      ],
      [
        "Ġmurky",
        -1.0
      ],
      [
        "Ġsyringes",
        -1.0
      ],
      [
        "ĠMeter",
        -1.0
      ],
      [
        "=\"",
        -1.0
      ],
      [
        "æĽ´",
        -1.0
      ],
      [
        "become",
        -1.0
      ],
      [
        "ĠIndex",
        -1.0
      ],
      [
        "ĠBubble",
        -1.0
      ],
      [
        "Ġcolor",
        -1.0
      ],
      [
        "\".ĊĊ",
        -1.0
      ],
      [
        "Ġangina",
        -1.0
      ],
      [
        "VI",
        -1.0
      ],
      [
        "Ġbillboards",
        -1.0
      ],
      [
        "Ġshifted",
        -1.0
      ],
      [
        "ĠDictionary",
        -1.0
      ],
      [
        "ĠGre",
        -1.0
      ],
      [
        "-Da",
        -1.0
      ],
      [
        "FD",
        -1.0
      ],
      [
        "pha",
        -1.0
      ],
      [
        "find",
        -1.0
      ],
      [
        "Norwegian",
        -1.0
      ],
      [
        "amplifier",
        -1.0
      ],
      [
        "Ġexperiment",
        -1.0
      ],
      [
        "Ġalerts",
        -1.0
      ],
      [
        "Ġropes",
        -1.0
      ],
      [
        "ĠHybrid",
        -1.0
      ],
      [
        "Trouble",
        -1.0
      ],
      [
        "ciÃ³n",
        -1.0
      ],
      [
        "Ġcongestion",
        -1.0
      ],
      [
        "ĠTomatoes",
        -1.0
      ],
      [
        "ĠGlossary",
        -1.0
      ],
      [
        "Ġemploying",
        -1.0
      ],
      [
        "ĠRican",
        -1.0
      ],
      [
        "Ġbeverage",
        -1.0
      ],
      [
        "Ġpottery",
        -1.0
      ],
      [
        "Ġcheaper",
        -1.0
      ],
      [
        "IMPORTANT",
        -1.0
      ],
      [
        "ĠLecture",
        -1.0
      ],
      [
        "ĠRecognizing",
        -1.0
      ],
      [
        "Ġadhere",
        -1.0
      ],
      [
        ":The",
        -1.0
      ],
      [
        "ĠPizza",
        -1.0
      ],
      [
        "Ġradiate",
        -1.0
      ],
      [
        "ĠBoulevard",
        -1.0
      ],
      [
        "ĠEthanol",
        -1.0
      ],
      [
        "mv",
        -1.0
      ],
      [
        "gage",
        -1.0
      ],
      [
        "Ġpostpone",
        -1.0
      ],
      [
        "Ġstargazing",
        -1.0
      ],
      [
        "Ġadjuvant",
        -1.0
      ],
      [
        "Ġpigeon",
        -1.0
      ],
      [
        "ĠHarbinger",
        -1.0
      ],
      [
        "ĠCompensation",
        -1.0
      ],
      [
        "Ġdistract",
        -1.0
      ],
      [
        "ĠJoan",
        -1.0
      ],
      [
        "âĢĿ.",
        -1.0
      ],
      [
        "Ġlyric",
        -1.0
      ],
      [
        "diabetes",
        -1.0
      ],
      [
        "VV",
        -1.0
      ],
      [
        "Ġbrandy",
        -1.0
      ],
      [
        "Ġdidnt",
        -1.0
      ],
      [
        "ĠGT",
        -1.0
      ],
      [
        "hg",
        -1.0
      ],
      [
        "April",
        -1.0
      ],
      [
        "fton",
        -1.0
      ],
      [
        "Ġchiropractic",
        -1.0
      ],
      [
        "Ġvodka",
        -1.0
      ],
      [
        "Ġgoogling",
        -1.0
      ],
      [
        "Ġsolace",
        -1.0
      ],
      [
        "ĠHuskies",
        -1.0
      ],
      [
        "Ġabutment",
        -1.0
      ],
      [
        "Ġdimensional",
        -1.0
      ],
      [
        "aque",
        -1.0
      ],
      [
        "ĠSoap",
        -1.0
      ],
      [
        "ĠOp",
        -1.0
      ],
      [
        "rica",
        -1.0
      ],
      [
        "marking",
        -1.0
      ],
      [
        "Ġmoods",
        -1.0
      ],
      [
        "ĠSN",
        -1.0
      ],
      [
        "ubiquitin",
        -1.0
      ],
      [
        "-employed",
        -1.0
      ],
      [
        "Ġboyfriend",
        -1.0
      ],
      [
        "Rice",
        -1.0
      ],
      [
        "ĠPoly",
        -1.0
      ],
      [
        "Ġlaundromat",
        -1.0
      ],
      [
        "-stu",
        -1.0
      ],
      [
        "Ġcementing",
        -1.0
      ],
      [
        "ĠGV",
        -1.0
      ],
      [
        "Object",
        -1.0
      ],
      [
        "Ġward",
        -1.0
      ],
      [
        "ĠRad",
        -1.0
      ],
      [
        "ĠPaying",
        -1.0
      ],
      [
        "Ġstarboard",
        -1.0
      ],
      [
        "Ġdrilled",
        -1.0
      ],
      [
        "rift",
        -1.0
      ],
      [
        "Ġoffer",
        -1.0
      ],
      [
        "ĠLEDs",
        -1.0
      ],
      [
        "outer",
        -1.0
      ],
      [
        "Ġduller",
        -1.0
      ],
      [
        "ĠMuk",
        -1.0
      ],
      [
        "Ġunreachable",
        -1.0
      ],
      [
        "Technology",
        -1.0
      ],
      [
        "Ġperpetrators",
        -1.0
      ],
      [
        "ĠMul",
        -1.0
      ],
      [
        "ĠVibration",
        -1.0
      ],
      [
        "ĠWeekend",
        -1.0
      ],
      [
        "ĠDiscord",
        -1.0
      ],
      [
        "ifl",
        -1.0
      ],
      [
        "Ġinterrupting",
        -1.0
      ],
      [
        "ĠSchi",
        -1.0
      ],
      [
        "...",
        -1.0
      ],
      [
        "lto",
        -1.0
      ],
      [
        "Ġderives",
        -1.0
      ],
      [
        "Ġemail",
        -1.0
      ],
      [
        "Ġcreosote",
        -1.0
      ],
      [
        "Ġconstructing",
        -1.0
      ],
      [
        "Ġdownstream",
        -1.0
      ],
      [
        "Figs",
        -1.0
      ],
      [
        "Ġnewest",
        -1.0
      ],
      [
        "ĠEndangered",
        -1.0
      ],
      [
        "erry",
        -1.0
      ],
      [
        "Ġturbine",
        -1.0
      ],
      [
        "order",
        -1.0
      ],
      [
        "ĠCannabis",
        -1.0
      ],
      [
        "Ġmillennium",
        -1.0
      ],
      [
        "rky",
        -1.0
      ],
      [
        "xle",
        -1.0
      ],
      [
        "åĬĽ",
        -1.0
      ],
      [
        "Ġprogressive",
        -1.0
      ],
      [
        "ivities",
        -1.0
      ],
      [
        "ĠKos",
        -1.0
      ],
      [
        "tin",
        -1.0
      ],
      [
        "Ġlaurel",
        -1.0
      ],
      [
        "ĠHillary",
        -1.0
      ],
      [
        "Ġcortisol",
        -1.0
      ],
      [
        "ĠLevels",
        -1.0
      ],
      [
        "_v",
        -1.0
      ],
      [
        "Ġcalving",
        -1.0
      ],
      [
        "Ġcouplings",
        -1.0
      ],
      [
        "Ġmods",
        -1.0
      ],
      [
        "oves",
        -1.0
      ],
      [
        "Ġassignment",
        -1.0
      ],
      [
        ":a",
        -1.0
      ],
      [
        "imus",
        -1.0
      ],
      [
        "ĠDSC",
        -1.0
      ],
      [
        "-scented",
        -1.0
      ],
      [
        "ĠGoddard",
        -1.0
      ],
      [
        "Ġrefrigerant",
        -1.0
      ],
      [
        "-me",
        -1.0
      ],
      [
        "Ġemploys",
        -1.0
      ],
      [
        "Track",
        -1.0
      ],
      [
        "Ġbelief",
        -1.0
      ],
      [
        "ĠSquadron",
        -1.0
      ],
      [
        "Ġbeaver",
        -1.0
      ],
      [
        "ĠElisa",
        -1.0
      ],
      [
        "Ġfounders",
        -1.0
      ],
      [
        "Ġblueberries",
        -1.0
      ],
      [
        "ĠCrest",
        -1.0
      ],
      [
        "Ġmillimetres",
        -1.0
      ],
      [
        "ĠAnalytics",
        -1.0
      ],
      [
        "ĠCava",
        -1.0
      ],
      [
        "Ġniacin",
        -1.0
      ],
      [
        "ĠDN",
        -1.0
      ],
      [
        "Ġshout",
        -1.0
      ],
      [
        "Ġinitialize",
        -1.0
      ],
      [
        "Ġnostrils",
        -1.0
      ],
      [
        "ÂŃing",
        -1.0
      ],
      [
        "ĠZimbabwe",
        -1.0
      ],
      [
        "Ġmasculine",
        -1.0
      ],
      [
        "nw",
        -1.0
      ],
      [
        "Ġgay",
        -1.0
      ],
      [
        "Ġsportsbooks",
        -1.0
      ],
      [
        "Ġgeophysical",
        -1.0
      ],
      [
        "Ġconsiders",
        -1.0
      ],
      [
        "ĠMormon",
        -1.0
      ],
      [
        "Ġdrunk",
        -1.0
      ],
      [
        "Ġinfuriat",
        -1.0
      ],
      [
        "-aging",
        -1.0
      ],
      [
        "nutrition",
        -1.0
      ],
      [
        "Ġbathtubs",
        -1.0
      ],
      [
        "loved",
        -1.0
      ],
      [
        "ĠLists",
        -1.0
      ],
      [
        "ĠCrack",
        -1.0
      ],
      [
        "Ġdefendants",
        -1.0
      ],
      [
        "Ġpetty",
        -1.0
      ],
      [
        "Moisture",
        -1.0
      ],
      [
        "Ġhighways",
        -1.0
      ],
      [
        "TA",
        -1.0
      ],
      [
        "Ġelectrifying",
        -1.0
      ],
      [
        "&C",
        -1.0
      ],
      [
        "Ġpodium",
        -1.0
      ],
      [
        "ĠEnergy",
        -1.0
      ],
      [
        "Ġpolymorphic",
        -1.0
      ],
      [
        "Ġactions",
        -1.0
      ],
      [
        "JW",
        -1.0
      ],
      [
        "Ġgoat",
        -1.0
      ],
      [
        "Ġowls",
        -1.0
      ],
      [
        "Insomnia",
        -1.0
      ],
      [
        "Rabies",
        -1.0
      ],
      [
        "Ġimplicitly",
        -1.0
      ],
      [
        "oth",
        -1.0
      ],
      [
        "Ġ([",
        -1.0
      ],
      [
        "Jam",
        -1.0
      ],
      [
        "bu",
        -1.0
      ],
      [
        "Ġideally",
        -1.0
      ],
      [
        "please",
        -1.0
      ],
      [
        "Ġwidget",
        -1.0
      ],
      [
        "Ġmedals",
        -1.0
      ],
      [
        "Ġguilds",
        -1.0
      ],
      [
        "Ġkeystrokes",
        -1.0
      ],
      [
        "ĠSpar",
        -1.0
      ],
      [
        "ĠNumbers",
        -1.0
      ],
      [
        "CTURE",
        -1.0
      ],
      [
        "Ġinterprets",
        -1.0
      ],
      [
        "Ġvibrational",
        -1.0
      ],
      [
        "ĠPersian",
        -1.0
      ],
      [
        "isis",
        -1.0
      ],
      [
        "Ġfees",
        -1.0
      ],
      [
        "ĠYes",
        -1.0
      ],
      [
        "ĠWish",
        -1.0
      ],
      [
        "Armed",
        -1.0
      ],
      [
        "genic",
        -1.0
      ],
      [
        "ĠSPACE",
        -1.0
      ],
      [
        "erp",
        -1.0
      ],
      [
        "Ġpurpose",
        -1.0
      ],
      [
        "oha",
        -1.0
      ],
      [
        "Ġscream",
        -1.0
      ],
      [
        "Ġprehistoric",
        -1.0
      ],
      [
        "\"",
        -1.0
      ],
      [
        "Ġlibitum",
        -1.0
      ],
      [
        "ĠCombination",
        -1.0
      ],
      [
        "boiled",
        -1.0
      ],
      [
        "feed",
        -1.0
      ],
      [
        "ĠIce",
        -1.0
      ],
      [
        "ĠFLO",
        -1.0
      ],
      [
        "Ġparallels",
        -1.0
      ],
      [
        "Ġhaired",
        -1.0
      ],
      [
        "Ġdoing",
        -1.0
      ],
      [
        "Ġremaining",
        -1.0
      ],
      [
        "atter",
        -1.0
      ],
      [
        "Ġrevenues",
        -1.0
      ],
      [
        "ET",
        -1.0
      ],
      [
        "Ġwitch",
        -1.0
      ],
      [
        "Ġpowers",
        -1.0
      ],
      [
        "Ġspeeding",
        -1.0
      ],
      [
        "Ġturpentine",
        -1.0
      ],
      [
        "ynes",
        -1.0
      ],
      [
        "Ġaborted",
        -1.0
      ],
      [
        "Ġscramble",
        -1.0
      ],
      [
        "Ġtheta",
        -1.0
      ],
      [
        "Ġundercut",
        -1.0
      ],
      [
        "ĠVitamin",
        -1.0
      ],
      [
        "Ġexpose",
        -1.0
      ],
      [
        "Aquarium",
        -1.0
      ],
      [
        "MY",
        -1.0
      ],
      [
        "Ġcypress",
        -1.0
      ],
      [
        "Ġaccepted",
        -1.0
      ],
      [
        "Ġclockwise",
        -1.0
      ],
      [
        "Pros",
        -1.0
      ],
      [
        "oss",
        -1.0
      ],
      [
        "Applause",
        -1.0
      ],
      [
        "Ġcorded",
        -1.0
      ],
      [
        "ĠLORD",
        -1.0
      ],
      [
        "Ġya",
        -1.0
      ],
      [
        "Ġconfluence",
        -1.0
      ],
      [
        "52",
        -1.0
      ],
      [
        "-dark",
        -1.0
      ],
      [
        "Ġforex",
        -1.0
      ],
      [
        "Ġmuffler",
        -1.0
      ],
      [
        "Ġunsolved",
        -1.0
      ],
      [
        "Ġalcohols",
        -1.0
      ],
      [
        "electrons",
        -1.0
      ],
      [
        "tation",
        -1.0
      ],
      [
        "Spi",
        -1.0
      ],
      [
        "Ġunsanitary",
        -1.0
      ],
      [
        "Ġplanktonic",
        -1.0
      ],
      [
        "Ã¤s",
        -1.0
      ],
      [
        "mps",
        -1.0
      ],
      [
        "ĠHunter",
        -1.0
      ],
      [
        "beat",
        -1.0
      ],
      [
        "Ġcockroaches",
        -1.0
      ],
      [
        "Ġglycemic",
        -1.0
      ],
      [
        "Ġpun",
        -1.0
      ],
      [
        "Ġtriangular",
        -1.0
      ],
      [
        "Visible",
        -1.0
      ],
      [
        "ĠFSC",
        -1.0
      ],
      [
        "Junior",
        -1.0
      ],
      [
        "ĠGentle",
        -1.0
      ],
      [
        "Ġscrambled",
        -1.0
      ],
      [
        "ĠNeon",
        -1.0
      ],
      [
        "\":[{\"",
        -1.0
      ],
      [
        "Ġstep",
        -1.0
      ],
      [
        "Single",
        -1.0
      ],
      [
        "Ġnamesake",
        -1.0
      ],
      [
        "Ġaficionado",
        -1.0
      ],
      [
        "ĠStates",
        -1.0
      ],
      [
        "'C",
        -1.0
      ],
      [
        "Ġmediator",
        -1.0
      ],
      [
        "Ġpertains",
        -1.0
      ],
      [
        "ĠMt",
        -1.0
      ],
      [
        "ĠVillage",
        -1.0
      ],
      [
        "Ġcuddly",
        -1.0
      ],
      [
        "gis",
        -1.0
      ],
      [
        "Fever",
        -1.0
      ],
      [
        "Tesla",
        -1.0
      ],
      [
        "Ġinvisible",
        -1.0
      ],
      [
        "Ġunc",
        -1.0
      ],
      [
        "Ġulcerative",
        -1.0
      ],
      [
        "Ġherbicides",
        -1.0
      ],
      [
        "Ġwhitewater",
        -1.0
      ],
      [
        "ĠMeyer",
        -1.0
      ],
      [
        "los",
        -1.0
      ],
      [
        "ĠMadison",
        -1.0
      ],
      [
        "ĠHouses",
        -1.0
      ],
      [
        "Ġfluoro",
        -1.0
      ],
      [
        "Ġsegregated",
        -1.0
      ],
      [
        "Ġfolk",
        -1.0
      ],
      [
        "ĠBreakthrough",
        -1.0
      ],
      [
        "mise",
        -1.0
      ],
      [
        "ament",
        -1.0
      ],
      [
        "ĠBonsai",
        -1.0
      ],
      [
        "scal",
        -1.0
      ],
      [
        "sta",
        -1.0
      ],
      [
        "ĠSwan",
        -1.0
      ],
      [
        "Ġhonoured",
        -1.0
      ],
      [
        "Ġexothermic",
        -1.0
      ],
      [
        "OU",
        -1.0
      ],
      [
        "Ġverb",
        -1.0
      ],
      [
        "ĠBasics",
        -1.0
      ],
      [
        "ĠTurbine",
        -1.0
      ],
      [
        "Ġlocking",
        -1.0
      ],
      [
        "Ġmis",
        -1.0
      ],
      [
        "Ġcafes",
        -1.0
      ],
      [
        "Complications",
        -1.0
      ],
      [
        "ĠSnip",
        -1.0
      ],
      [
        "omin",
        -1.0
      ],
      [
        "Ġpioneers",
        -1.0
      ],
      [
        "Beet",
        -1.0
      ],
      [
        "ĠVALUE",
        -1.0
      ],
      [
        "ckers",
        -1.0
      ],
      [
        "Ġresumes",
        -1.0
      ],
      [
        "Ġliable",
        -1.0
      ],
      [
        "ille",
        -1.0
      ],
      [
        "ĠDiet",
        -1.0
      ],
      [
        "odont",
        -1.0
      ],
      [
        "ĠGlobal",
        -1.0
      ],
      [
        "Ġea",
        -1.0
      ],
      [
        "toe",
        -1.0
      ],
      [
        "jj",
        -1.0
      ],
      [
        "Ġladies",
        -1.0
      ],
      [
        "Ġect",
        -1.0
      ],
      [
        "Ġreflected",
        -1.0
      ],
      [
        "ĠDudley",
        -1.0
      ],
      [
        "Ġcarotid",
        -1.0
      ],
      [
        "ĠThunder",
        -1.0
      ],
      [
        "ãĥĪ",
        -1.0
      ],
      [
        "ĠWG",
        -1.0
      ],
      [
        "-round",
        -1.0
      ],
      [
        "topia",
        -1.0
      ],
      [
        "Filling",
        -1.0
      ],
      [
        "Ġsubwoofer",
        -1.0
      ],
      [
        "Ġrecordings",
        -1.0
      ],
      [
        "ĠMary",
        -1.0
      ],
      [
        "axial",
        -1.0
      ],
      [
        "Ġcrowding",
        -1.0
      ],
      [
        "Chihuahua",
        -1.0
      ],
      [
        "Ġregard",
        -1.0
      ],
      [
        "ĠCapacity",
        -1.0
      ],
      [
        "ĠRottweilers",
        -1.0
      ],
      [
        "ovsky",
        -1.0
      ],
      [
        "ecology",
        -1.0
      ],
      [
        "ĠThey",
        -1.0
      ],
      [
        "ITS",
        -1.0
      ],
      [
        "Ġempowers",
        -1.0
      ],
      [
        "Ġinterfacing",
        -1.0
      ],
      [
        "Ġhears",
        -1.0
      ],
      [
        "Ġreviewed",
        -1.0
      ],
      [
        "Ġdetermined",
        -1.0
      ],
      [
        "Studies",
        -1.0
      ],
      [
        "Ġhello",
        -1.0
      ],
      [
        "Ġcaveat",
        -1.0
      ],
      [
        "Lor",
        -1.0
      ],
      [
        "hy",
        -1.0
      ],
      [
        "ĠAlfred",
        -1.0
      ],
      [
        "-products",
        -1.0
      ],
      [
        "ĠWoodpeckers",
        -1.0
      ],
      [
        "active",
        -1.0
      ],
      [
        "-east",
        -1.0
      ],
      [
        "Ġrenewal",
        -1.0
      ],
      [
        "SW",
        -1.0
      ],
      [
        "Ġunderwear",
        -1.0
      ],
      [
        "|The",
        -1.0
      ],
      [
        "Ġjustifying",
        -1.0
      ],
      [
        "Ġdissolution",
        -1.0
      ],
      [
        "rle",
        -1.0
      ],
      [
        "Ġscavengers",
        -1.0
      ],
      [
        "Sensitivity",
        -1.0
      ],
      [
        "ĠMazda",
        -1.0
      ],
      [
        "KA",
        -1.0
      ],
      [
        "symbol",
        -1.0
      ],
      [
        "Ġguidelines",
        -1.0
      ],
      [
        "Ġpickleball",
        -1.0
      ],
      [
        "ĠHoles",
        -1.0
      ],
      [
        "ä¸Ń",
        -1.0
      ],
      [
        "writer",
        -1.0
      ],
      [
        "igators",
        -1.0
      ],
      [
        "Ġgrasshopper",
        -1.0
      ],
      [
        "Ġmicrowaves",
        -1.0
      ],
      [
        "Ġfrayed",
        -1.0
      ],
      [
        "Ġvariety",
        -1.0
      ],
      [
        "Diet",
        -1.0
      ],
      [
        "ĠSliding",
        -1.0
      ],
      [
        "ĠFertilizing",
        -1.0
      ],
      [
        "CRI",
        -1.0
      ],
      [
        "kit",
        -1.0
      ],
      [
        "Ġuncooked",
        -1.0
      ],
      [
        "{Ċ",
        -1.0
      ],
      [
        "ĠLei",
        -1.0
      ],
      [
        "ĠUpgrade",
        -1.0
      ],
      [
        "Ġbarometer",
        -1.0
      ],
      [
        "\"No",
        -1.0
      ],
      [
        "ĠMeters",
        -1.0
      ],
      [
        "Ġexamine",
        -1.0
      ],
      [
        "Yup",
        -1.0
      ],
      [
        "ĠJehovah",
        -1.0
      ],
      [
        "playerpage",
        -1.0
      ],
      [
        "Web",
        -1.0
      ],
      [
        "Ġoscillator",
        -1.0
      ],
      [
        "Ġfights",
        -1.0
      ],
      [
        "Ġhusbandry",
        -1.0
      ],
      [
        "ĠCK",
        -1.0
      ],
      [
        "-det",
        -1.0
      ],
      [
        "condition",
        -1.0
      ],
      [
        "Ġji",
        -1.0
      ],
      [
        "ĠNPCs",
        -1.0
      ],
      [
        "Ġteeny",
        -1.0
      ],
      [
        "Ġgenuine",
        -1.0
      ],
      [
        "Ġsprouted",
        -1.0
      ],
      [
        "Ġlegitimate",
        -1.0
      ],
      [
        "Ġundis",
        -1.0
      ],
      [
        "Ġfirm",
        -1.0
      ],
      [
        "Skill",
        -1.0
      ],
      [
        "Ġcirculatory",
        -1.0
      ],
      [
        "Ġmulch",
        -1.0
      ],
      [
        "Ġglobe",
        -1.0
      ],
      [
        "Ġrapidly",
        -1.0
      ],
      [
        "-paid",
        -1.0
      ],
      [
        "ĠGuangzhou",
        -1.0
      ],
      [
        "Ġoocytes",
        -1.0
      ],
      [
        "Ġattract",
        -1.0
      ],
      [
        "Ġdampen",
        -1.0
      ],
      [
        "ĠCreativity",
        -1.0
      ],
      [
        "vio",
        -1.0
      ],
      [
        "ĠAfterwards",
        -1.0
      ],
      [
        "ĠCarbon",
        -1.0
      ],
      [
        "ãĢĮ",
        -1.0
      ],
      [
        "ĠEmeritus",
        -1.0
      ],
      [
        "nau",
        -1.0
      ],
      [
        "åĩº",
        -1.0
      ],
      [
        "Ġantenna",
        -1.0
      ],
      [
        "rÃ©",
        -1.0
      ],
      [
        "vich",
        -1.0
      ],
      [
        "signs",
        -1.0
      ],
      [
        "range",
        -1.0
      ],
      [
        "Ġsavory",
        -1.0
      ],
      [
        "Ġqueue",
        -1.0
      ],
      [
        "Ġwel",
        -1.0
      ],
      [
        "Ġwafer",
        -1.0
      ],
      [
        "Ġreachable",
        -1.0
      ],
      [
        "Ġpony",
        -1.0
      ],
      [
        "pond",
        -1.0
      ],
      [
        "Ġexercise",
        -1.0
      ],
      [
        "mounted",
        -1.0
      ],
      [
        "Ġibuprofen",
        -1.0
      ],
      [
        "Ġautomakers",
        -1.0
      ],
      [
        "Ġsemiarid",
        -1.0
      ],
      [
        "ype",
        -1.0
      ],
      [
        "Ġresonate",
        -1.0
      ],
      [
        "ically",
        -1.0
      ],
      [
        "Ġphosphatase",
        -1.0
      ],
      [
        "ĠChallenge",
        -1.0
      ],
      [
        "Ġpumped",
        -1.0
      ],
      [
        "Fx",
        -1.0
      ],
      [
        "Ġdeafness",
        -1.0
      ],
      [
        "-themed",
        -1.0
      ],
      [
        "History",
        -1.0
      ],
      [
        "spective",
        -1.0
      ],
      [
        "Ġeg",
        -1.0
      ],
      [
        "ĠCompatible",
        -1.0
      ],
      [
        "ĠYale",
        -1.0
      ],
      [
        "Ġskeletal",
        -1.0
      ],
      [
        "ĠPySimpleGUI",
        -1.0
      ],
      [
        "ãĥī",
        -1.0
      ],
      [
        "ĠWife",
        -1.0
      ],
      [
        "ĠDIFFERENT",
        -1.0
      ],
      [
        "ĠSka",
        -1.0
      ],
      [
        "FAR",
        -1.0
      ],
      [
        "Ġhemp",
        -1.0
      ],
      [
        "ĠBurton",
        -1.0
      ],
      [
        "ĠWhales",
        -1.0
      ],
      [
        "Ġviolation",
        -1.0
      ],
      [
        "Ġdeadlines",
        -1.0
      ],
      [
        "Present",
        -1.0
      ],
      [
        "@",
        -1.0
      ],
      [
        "Ġloss",
        -1.0
      ],
      [
        "ored",
        -1.0
      ],
      [
        "ĠFlights",
        -1.0
      ],
      [
        "ĠUP",
        -1.0
      ],
      [
        "hood",
        -1.0
      ],
      [
        "Ġcreamier",
        -1.0
      ],
      [
        "Ġunderwent",
        -1.0
      ],
      [
        "ĠINCLUD",
        -1.0
      ],
      [
        "Ġengagement",
        -1.0
      ],
      [
        "device",
        -1.0
      ],
      [
        "Groups",
        -1.0
      ],
      [
        "Ġclicker",
        -1.0
      ],
      [
        "Ġcasseroles",
        -1.0
      ],
      [
        "ĠExpression",
        -1.0
      ],
      [
        "Qk",
        -1.0
      ],
      [
        "ĠTeddy",
        -1.0
      ],
      [
        "Ġtestis",
        -1.0
      ],
      [
        "ĠSeas",
        -1.0
      ],
      [
        "ç¼ºé»ŀ",
        -1.0
      ],
      [
        "Fri",
        -1.0
      ],
      [
        "ĠShenzhen",
        -1.0
      ],
      [
        "Ġarchitecture",
        -1.0
      ],
      [
        "-mod",
        -1.0
      ],
      [
        "Ġattempting",
        -1.0
      ],
      [
        "probability",
        -1.0
      ],
      [
        "Ġwie",
        -1.0
      ],
      [
        "ĠTaekwondo",
        -1.0
      ],
      [
        "Ġpreamble",
        -1.0
      ],
      [
        "tica",
        -1.0
      ],
      [
        "Ġbridges",
        -1.0
      ],
      [
        "Ġgambiae",
        -1.0
      ],
      [
        "suit",
        -1.0
      ],
      [
        "Ġstealing",
        -1.0
      ],
      [
        "-write",
        -1.0
      ],
      [
        "Ġsuffocating",
        -1.0
      ],
      [
        "wind",
        -1.0
      ],
      [
        "ĠUCSF",
        -1.0
      ],
      [
        "Ġquasars",
        -1.0
      ],
      [
        "mar",
        -1.0
      ],
      [
        "PB",
        -1.0
      ],
      [
        "ĠRana",
        -1.0
      ],
      [
        "Ġcrossovers",
        -1.0
      ],
      [
        "Ġwhose",
        -1.0
      ],
      [
        "Ġtextile",
        -1.0
      ],
      [
        "Ġspeedometer",
        -1.0
      ],
      [
        "Ġsetback",
        -1.0
      ],
      [
        "ĠGardiner",
        -1.0
      ],
      [
        "{sub",
        -1.0
      ],
      [
        "ĠWu",
        -1.0
      ],
      [
        "fuel",
        -1.0
      ],
      [
        "ĠCNT",
        -1.0
      ],
      [
        "Ġconflict",
        -1.0
      ],
      [
        "ĠRequest",
        -1.0
      ],
      [
        "graft",
        -1.0
      ],
      [
        "Ġnutty",
        -1.0
      ],
      [
        "ĠStethoscope",
        -1.0
      ],
      [
        "ĠRecord",
        -1.0
      ],
      [
        "ĠCCS",
        -1.0
      ],
      [
        "ĠBricks",
        -1.0
      ],
      [
        "Ġsensing",
        -1.0
      ],
      [
        "Planting",
        -1.0
      ],
      [
        "ĠGren",
        -1.0
      ],
      [
        "Ġmashing",
        -1.0
      ],
      [
        "\"E",
        -1.0
      ],
      [
        "Que",
        -1.0
      ],
      [
        "Ġintricate",
        -1.0
      ],
      [
        "ĠWai",
        -1.0
      ],
      [
        "filling",
        -1.0
      ],
      [
        "-mount",
        -1.0
      ],
      [
        "Ġagrees",
        -1.0
      ],
      [
        "tility",
        -1.0
      ],
      [
        "final",
        -1.0
      ],
      [
        "Ġdal",
        -1.0
      ],
      [
        "Ġaching",
        -1.0
      ],
      [
        "agon",
        -1.0
      ],
      [
        "glue",
        -1.0
      ],
      [
        "mechanics",
        -1.0
      ],
      [
        "ĠMODULE",
        -1.0
      ],
      [
        "-us",
        -1.0
      ],
      [
        "ĠECE",
        -1.0
      ],
      [
        "ĠCookies",
        -1.0
      ],
      [
        "ĠPositioning",
        -1.0
      ],
      [
        "Ġshader",
        -1.0
      ],
      [
        "ĠVessels",
        -1.0
      ],
      [
        "Ġelongated",
        -1.0
      ],
      [
        "ĠBundesliga",
        -1.0
      ],
      [
        "Op",
        -1.0
      ],
      [
        "Grant",
        -1.0
      ],
      [
        "Ġontology",
        -1.0
      ],
      [
        "Ġhectares",
        -1.0
      ],
      [
        "IBLE",
        -1.0
      ],
      [
        "Ġmed",
        -1.0
      ],
      [
        "start",
        -1.0
      ],
      [
        "Robots",
        -1.0
      ],
      [
        "Ġnec",
        -1.0
      ],
      [
        "Cervical",
        -1.0
      ],
      [
        "Ġaffidavit",
        -1.0
      ],
      [
        "https",
        -1.0
      ],
      [
        "Ġbark",
        -1.0
      ],
      [
        "Ġwasps",
        -1.0
      ],
      [
        "Ġbackend",
        -1.0
      ],
      [
        "Ġeconomists",
        -1.0
      ],
      [
        "ĠVS",
        -1.0
      ],
      [
        "athi",
        -1.0
      ],
      [
        "Ġpermission",
        -1.0
      ],
      [
        "Experimental",
        -1.0
      ],
      [
        "ipping",
        -1.0
      ],
      [
        "Ġabove",
        -1.0
      ],
      [
        "Ġchalcogen",
        -1.0
      ],
      [
        "YZ",
        -1.0
      ],
      [
        "generator",
        -1.0
      ],
      [
        "QUOTE",
        -1.0
      ],
      [
        "esthe",
        -1.0
      ],
      [
        "ĠPep",
        -1.0
      ],
      [
        "tled",
        -1.0
      ],
      [
        "ĠEk",
        -1.0
      ],
      [
        "Ġbetrayal",
        -1.0
      ],
      [
        "Ġdamn",
        -1.0
      ],
      [
        "ĠBaptist",
        -1.0
      ],
      [
        "bine",
        -1.0
      ],
      [
        "Ġproductions",
        -1.0
      ],
      [
        "Ġsilverware",
        -1.0
      ],
      [
        "Ġrhinitis",
        -1.0
      ],
      [
        "ĠRUN",
        -1.0
      ],
      [
        "Private",
        -1.0
      ],
      [
        "Ġmicrowave",
        -1.0
      ],
      [
        "Ġexpressed",
        -1.0
      ],
      [
        "Ġshotgun",
        -1.0
      ],
      [
        "Ġledger",
        -1.0
      ],
      [
        "topics",
        -1.0
      ],
      [
        "Ġpulmonary",
        -1.0
      ],
      [
        "Guideline",
        -1.0
      ],
      [
        "Ġsubscript",
        -1.0
      ],
      [
        "Ġvelvety",
        -1.0
      ],
      [
        "Ġformat",
        -1.0
      ],
      [
        "Ġstylish",
        -1.0
      ],
      [
        "Ġmilitia",
        -1.0
      ],
      [
        "ĠChatham",
        -1.0
      ],
      [
        "Ġundergone",
        -1.0
      ],
      [
        "ĠHomeowners",
        -1.0
      ],
      [
        "Ġrecurring",
        -1.0
      ],
      [
        "ĠTimer",
        -1.0
      ],
      [
        "-poor",
        -1.0
      ],
      [
        "Ġtranslator",
        -1.0
      ],
      [
        "ĠEthno",
        -1.0
      ],
      [
        "ĠStarFilled",
        -1.0
      ],
      [
        "Ġdipping",
        -1.0
      ],
      [
        "RA",
        -1.0
      ],
      [
        "Help",
        -1.0
      ],
      [
        "ĠPerfume",
        -1.0
      ],
      [
        "Ġregarded",
        -1.0
      ],
      [
        "Ġele",
        -1.0
      ],
      [
        "ylon",
        -1.0
      ],
      [
        "Long",
        -1.0
      ],
      [
        "Ġchances",
        -1.0
      ],
      [
        "drop",
        -1.0
      ],
      [
        "Ġfibrin",
        -1.0
      ],
      [
        "ĠMcMahon",
        -1.0
      ],
      [
        "ĠMemorial",
        -1.0
      ],
      [
        "Ġmeteorite",
        -1.0
      ],
      [
        "Ġwormhole",
        -1.0
      ],
      [
        "Ġuro",
        -1.0
      ],
      [
        "Ġrailroads",
        -1.0
      ],
      [
        "ĠInterrupt",
        -1.0
      ],
      [
        "ĠInorganic",
        -1.0
      ],
      [
        "Ġdusty",
        -1.0
      ],
      [
        "Ġstatute",
        -1.0
      ],
      [
        "ĠDominican",
        -1.0
      ],
      [
        "Ġforested",
        -1.0
      ],
      [
        "Ġmillimeters",
        -1.0
      ],
      [
        "Ġgamete",
        -1.0
      ],
      [
        "ĠSecretariat",
        -1.0
      ],
      [
        "ular",
        -1.0
      ],
      [
        "ĠSahel",
        -1.0
      ],
      [
        "Ġsubgroups",
        -1.0
      ],
      [
        "Ġintercourse",
        -1.0
      ],
      [
        "otypes",
        -1.0
      ],
      [
        "resses",
        -1.0
      ],
      [
        "Ġeffecting",
        -1.0
      ],
      [
        "ĠNU",
        -1.0
      ],
      [
        "Ġretreats",
        -1.0
      ],
      [
        "ĠThrush",
        -1.0
      ],
      [
        "ĠCalif",
        -1.0
      ],
      [
        "Predator",
        -1.0
      ],
      [
        "Ġmetre",
        -1.0
      ],
      [
        "Ġnearby",
        -1.0
      ],
      [
        "-layer",
        -1.0
      ],
      [
        "Ġchallenged",
        -1.0
      ],
      [
        "ĠCasey",
        -1.0
      ],
      [
        "Ġdwindled",
        -1.0
      ],
      [
        "Ġpolyurethane",
        -1.0
      ],
      [
        "Ùĩ",
        -1.0
      ],
      [
        "-friendliness",
        -1.0
      ],
      [
        "Ġfarmers",
        -1.0
      ],
      [
        "ĠFor",
        -1.0
      ],
      [
        "Ġexo",
        -1.0
      ],
      [
        "Seasonal",
        -1.0
      ],
      [
        "Ġclar",
        -1.0
      ],
      [
        "vul",
        -1.0
      ],
      [
        "Ġfaculty",
        -1.0
      ],
      [
        "ĠOftentimes",
        -1.0
      ],
      [
        "Supporting",
        -1.0
      ],
      [
        "Ġrearrange",
        -1.0
      ],
      [
        "Ġvocals",
        -1.0
      ],
      [
        "ĠEmergencies",
        -1.0
      ],
      [
        "Ġov",
        -1.0
      ],
      [
        "-word",
        -1.0
      ],
      [
        "Designed",
        -1.0
      ],
      [
        "Ġhobbyist",
        -1.0
      ],
      [
        "Ġcomedian",
        -1.0
      ],
      [
        "(u",
        -1.0
      ],
      [
        "Ger",
        -1.0
      ],
      [
        "Ġhijacked",
        -1.0
      ],
      [
        "-square",
        -1.0
      ],
      [
        "ĠRemarkable",
        -1.0
      ],
      [
        "ĠTrench",
        -1.0
      ],
      [
        "Ġalbeit",
        -1.0
      ],
      [
        "ĠYou",
        -1.0
      ],
      [
        "Ġspectral",
        -1.0
      ],
      [
        "Ġpunctures",
        -1.0
      ],
      [
        "won",
        -1.0
      ],
      [
        "ĠChrist",
        -1.0
      ],
      [
        "ckman",
        -1.0
      ],
      [
        "ĠSeparate",
        -1.0
      ],
      [
        "Ġcalculate",
        -1.0
      ],
      [
        "Ġpel",
        -1.0
      ],
      [
        "Ġinterwoven",
        -1.0
      ],
      [
        "Ġredox",
        -1.0
      ],
      [
        "Ġpanthers",
        -1.0
      ],
      [
        "wed",
        -1.0
      ],
      [
        "eeping",
        -1.0
      ],
      [
        "ĠEngineering",
        -1.0
      ],
      [
        "ills",
        -1.0
      ],
      [
        "ĠSwap",
        -1.0
      ],
      [
        "Ġmigrate",
        -1.0
      ],
      [
        "ethical",
        -1.0
      ],
      [
        "/low",
        -1.0
      ],
      [
        "Omega",
        -1.0
      ],
      [
        "Ġvisions",
        -1.0
      ],
      [
        "Sour",
        -1.0
      ],
      [
        "ĠHyacinth",
        -1.0
      ],
      [
        "tions",
        -1.0
      ],
      [
        "Ġtrying",
        -1.0
      ],
      [
        "Ġvisionary",
        -1.0
      ],
      [
        "She",
        -1.0
      ],
      [
        "Ġblowing",
        -1.0
      ],
      [
        "Ġsmartwatch",
        -1.0
      ],
      [
        "Ġpreach",
        -1.0
      ],
      [
        "Ġspade",
        -1.0
      ],
      [
        "Ġitchy",
        -1.0
      ],
      [
        "Ġprickly",
        -1.0
      ],
      [
        "sqrt",
        -1.0
      ],
      [
        "ĠGn",
        -1.0
      ],
      [
        "ĠEA",
        -1.0
      ],
      [
        "tino",
        -1.0
      ],
      [
        "ĠìĤ¬ìļ©",
        -1.0
      ],
      [
        "Ġornamental",
        -1.0
      ],
      [
        "ĠAndrew",
        -1.0
      ],
      [
        "Ġtwo",
        -1.0
      ],
      [
        "Ġallergist",
        -1.0
      ],
      [
        "interesting",
        -1.0
      ],
      [
        "Strategies",
        -1.0
      ],
      [
        "ĠHorned",
        -1.0
      ],
      [
        "ĠINSTRUCTIONS",
        -1.0
      ],
      [
        "ĠNewer",
        -1.0
      ],
      [
        "Ġamplifiers",
        -1.0
      ],
      [
        "tzer",
        -1.0
      ],
      [
        "Ġblinding",
        -1.0
      ],
      [
        "å¹´",
        -1.0
      ],
      [
        "ĠEMS",
        -1.0
      ],
      [
        "Ġdystopian",
        -1.0
      ],
      [
        "Ġdisks",
        -1.0
      ],
      [
        "Ġjammed",
        -1.0
      ],
      [
        "ĠIGF",
        -1.0
      ],
      [
        "Ġvolcanism",
        -1.0
      ],
      [
        "Ġunsecured",
        -1.0
      ],
      [
        "Reproductive",
        -1.0
      ],
      [
        "Wearing",
        -1.0
      ],
      [
        "FA",
        -1.0
      ],
      [
        "ĠGru",
        -1.0
      ],
      [
        "urring",
        -1.0
      ],
      [
        "ĠDemonstrate",
        -1.0
      ],
      [
        "Ġaccumulates",
        -1.0
      ],
      [
        "Ġcapacitor",
        -1.0
      ],
      [
        "ubation",
        -1.0
      ],
      [
        "Ġsimplifies",
        -1.0
      ],
      [
        "ĠBob",
        -1.0
      ],
      [
        "gna",
        -1.0
      ],
      [
        "locations",
        -1.0
      ],
      [
        "Ġinferred",
        -1.0
      ],
      [
        "Ġvacuuming",
        -1.0
      ],
      [
        "Ġdisdain",
        -1.0
      ],
      [
        "Ġimpulsivity",
        -1.0
      ],
      [
        "Scar",
        -1.0
      ],
      [
        "onomies",
        -1.0
      ],
      [
        "Ġallegiance",
        -1.0
      ],
      [
        "Ġsubterranean",
        -1.0
      ],
      [
        "ĠSweep",
        -1.0
      ],
      [
        "Ġfeedbacks",
        -1.0
      ],
      [
        "Ġprairie",
        -1.0
      ],
      [
        "Ġdefrosting",
        -1.0
      ],
      [
        "Ġbride",
        -1.0
      ],
      [
        "About",
        -1.0
      ],
      [
        "-exposed",
        -1.0
      ],
      [
        "pull",
        -1.0
      ],
      [
        "mov",
        -1.0
      ],
      [
        "ĠInter",
        -1.0
      ],
      [
        "Ġgraft",
        -1.0
      ],
      [
        "Ġinducing",
        -1.0
      ],
      [
        "Ġprawn",
        -1.0
      ],
      [
        "ĠRatio",
        -1.0
      ],
      [
        "Ġnarrower",
        -1.0
      ],
      [
        "Ġiconic",
        -1.0
      ],
      [
        "ĠGillespie",
        -1.0
      ],
      [
        "ĠGastro",
        -1.0
      ],
      [
        "Ġintercooler",
        -1.0
      ],
      [
        "Cy",
        -1.0
      ],
      [
        "Tool",
        -1.0
      ],
      [
        "tinction",
        -1.0
      ],
      [
        "Ġcured",
        -1.0
      ],
      [
        "ĠEnc",
        -1.0
      ],
      [
        "NM",
        -1.0
      ],
      [
        "Ġpounding",
        -1.0
      ],
      [
        "pc",
        -1.0
      ],
      [
        "Ġnotions",
        -1.0
      ],
      [
        "ĠSp",
        -1.0
      ],
      [
        "Ġtempting",
        -1.0
      ],
      [
        "Ġvolatility",
        -1.0
      ],
      [
        "Ġcreek",
        -1.0
      ],
      [
        "ience",
        -1.0
      ],
      [
        "ĠBennett",
        -1.0
      ],
      [
        "ĠRatings",
        -1.0
      ],
      [
        "Ġmyo",
        -1.0
      ],
      [
        "-gas",
        -1.0
      ],
      [
        "ĠColin",
        -1.0
      ],
      [
        "Ġlos",
        -1.0
      ],
      [
        ".append",
        -1.0
      ],
      [
        "Ġincluding",
        -1.0
      ],
      [
        "ĠFew",
        -1.0
      ],
      [
        "ĠZoos",
        -1.0
      ],
      [
        "Ġsorghum",
        -1.0
      ],
      [
        "raction",
        -1.0
      ],
      [
        "Ġimplements",
        -1.0
      ],
      [
        "Wide",
        -1.0
      ],
      [
        "Ġscrub",
        -1.0
      ],
      [
        "Eb",
        -1.0
      ],
      [
        "Dip",
        -1.0
      ],
      [
        "Warm",
        -1.0
      ],
      [
        "-banded",
        -1.0
      ],
      [
        "dt",
        -1.0
      ],
      [
        "fluid",
        -1.0
      ],
      [
        "ĠFore",
        -1.0
      ],
      [
        "ĠTorres",
        -1.0
      ],
      [
        "gart",
        -1.0
      ],
      [
        "hae",
        -1.0
      ],
      [
        "Ġescalated",
        -1.0
      ],
      [
        "Ġintonation",
        -1.0
      ],
      [
        "Analysis",
        -1.0
      ],
      [
        "Ġoutpace",
        -1.0
      ],
      [
        "VIN",
        -1.0
      ],
      [
        "ĠRav",
        -1.0
      ],
      [
        "ĠAdapting",
        -1.0
      ],
      [
        "Employ",
        -1.0
      ],
      [
        "Ġfalcons",
        -1.0
      ],
      [
        "Ġsimiliar",
        -1.0
      ],
      [
        "Ġschooling",
        -1.0
      ],
      [
        "ĠNightmare",
        -1.0
      ],
      [
        "section",
        -1.0
      ],
      [
        "hello",
        -1.0
      ],
      [
        "ĠPumpkin",
        -1.0
      ],
      [
        "æĮģ",
        -1.0
      ],
      [
        "Dis",
        -1.0
      ],
      [
        "ĠProviders",
        -1.0
      ],
      [
        "Ġcrockpot",
        -1.0
      ],
      [
        "Ġsightings",
        -1.0
      ],
      [
        "ĠWaikato",
        -1.0
      ],
      [
        "application",
        -1.0
      ],
      [
        "ĠAAP",
        -1.0
      ],
      [
        "Ġface",
        -1.0
      ],
      [
        "copa",
        -1.0
      ],
      [
        "Ġproportion",
        -1.0
      ],
      [
        "Ġtodays",
        -1.0
      ],
      [
        "Ġocelot",
        -1.0
      ],
      [
        "Transcript",
        -1.0
      ],
      [
        "Ġgastronomic",
        -1.0
      ],
      [
        "ĠRita",
        -1.0
      ],
      [
        "ĠDiana",
        -1.0
      ],
      [
        "Ġlightbulbs",
        -1.0
      ],
      [
        "Ġincidental",
        -1.0
      ],
      [
        "ĠJumping",
        -1.0
      ],
      [
        "Ġduration",
        -1.0
      ],
      [
        "Ġbarbed",
        -1.0
      ],
      [
        ".Com",
        -1.0
      ],
      [
        "Ġug",
        -1.0
      ],
      [
        "ĠMaverick",
        -1.0
      ],
      [
        "/f",
        -1.0
      ],
      [
        "Ġtomatillo",
        -1.0
      ],
      [
        "Ġpray",
        -1.0
      ],
      [
        "ĠVeg",
        -1.0
      ],
      [
        "ĠMembrane",
        -1.0
      ],
      [
        "Ġhyphen",
        -1.0
      ],
      [
        "ĠInfant",
        -1.0
      ],
      [
        "enia",
        -1.0
      ],
      [
        "esi",
        -1.0
      ],
      [
        "sem",
        -1.0
      ],
      [
        "Ġmidline",
        -1.0
      ],
      [
        "Ġdebridement",
        -1.0
      ],
      [
        "ĠGolden",
        -1.0
      ],
      [
        "Ġalong",
        -1.0
      ],
      [
        "Ġcushion",
        -1.0
      ],
      [
        "tane",
        -1.0
      ],
      [
        "Rem",
        -1.0
      ],
      [
        "Ġpassword",
        -1.0
      ],
      [
        "Ġquark",
        -1.0
      ],
      [
        "Ġnesting",
        -1.0
      ],
      [
        "Ġdelivery",
        -1.0
      ],
      [
        "prompt",
        -1.0
      ],
      [
        "istically",
        -1.0
      ],
      [
        "Ġlistening",
        -1.0
      ],
      [
        "ĠVe",
        -1.0
      ],
      [
        "Ġgland",
        -1.0
      ],
      [
        "ĠBrowse",
        -1.0
      ],
      [
        "Ġgoddamn",
        -1.0
      ],
      [
        "Ġsupports",
        -1.0
      ],
      [
        "Ġspline",
        -1.0
      ],
      [
        "Ġassigning",
        -1.0
      ],
      [
        "ĠApps",
        -1.0
      ],
      [
        "ĠIncorrect",
        -1.0
      ],
      [
        "Ob",
        -1.0
      ],
      [
        "Ġgregarious",
        -1.0
      ],
      [
        "Ġdebugging",
        -1.0
      ],
      [
        "Ġlunch",
        -1.0
      ],
      [
        "ĠPsychology",
        -1.0
      ],
      [
        "ĠExperimental",
        -1.0
      ],
      [
        "Ġscared",
        -1.0
      ],
      [
        "ĠKM",
        -1.0
      ],
      [
        "Ġcovalent",
        -1.0
      ],
      [
        "nB",
        -1.0
      ],
      [
        "Ġclot",
        -1.0
      ],
      [
        "ĠConvert",
        -1.0
      ],
      [
        "Horse",
        -1.0
      ],
      [
        "Ġextreme",
        -1.0
      ],
      [
        "sweet",
        -1.0
      ],
      [
        "ĠPolynesian",
        -1.0
      ],
      [
        "Ġcytoskeleton",
        -1.0
      ],
      [
        "Ġorbits",
        -1.0
      ],
      [
        "Hiking",
        -1.0
      ],
      [
        "kowski",
        -1.0
      ],
      [
        "-hold",
        -1.0
      ],
      [
        "Ġvoices",
        -1.0
      ],
      [
        "Ġhijack",
        -1.0
      ],
      [
        "conditioning",
        -1.0
      ],
      [
        "ĠContribution",
        -1.0
      ],
      [
        "fg",
        -1.0
      ],
      [
        "Ongoing",
        -1.0
      ],
      [
        "ĠTire",
        -1.0
      ],
      [
        "ounded",
        -1.0
      ],
      [
        "-balance",
        -1.0
      ],
      [
        "ooky",
        -1.0
      ],
      [
        "Ġrollers",
        -1.0
      ],
      [
        "mul",
        -1.0
      ],
      [
        "Rat",
        -1.0
      ],
      [
        "definition",
        -1.0
      ],
      [
        "edes",
        -1.0
      ],
      [
        "ĠFG",
        -1.0
      ],
      [
        "@u",
        -1.0
      ],
      [
        "Ġpeer",
        -1.0
      ],
      [
        "ĠCrickets",
        -1.0
      ],
      [
        "ĠSelf",
        -1.0
      ],
      [
        "CTION",
        -1.0
      ],
      [
        "ĠBirds",
        -1.0
      ],
      [
        "Â¼",
        -1.0
      ],
      [
        "teau",
        -1.0
      ],
      [
        "holders",
        -1.0
      ],
      [
        "ĠMari",
        -1.0
      ],
      [
        "Ġdrugs",
        -1.0
      ],
      [
        "Ġolive",
        -1.0
      ],
      [
        "Champion",
        -1.0
      ],
      [
        "Aid",
        -1.0
      ],
      [
        "Ġ*ĊĊ",
        -1.0
      ],
      [
        "unga",
        -1.0
      ],
      [
        "Ġbrining",
        -1.0
      ],
      [
        "ĠEugen",
        -1.0
      ],
      [
        "Ġsnug",
        -1.0
      ],
      [
        "sins",
        -1.0
      ],
      [
        "insert",
        -1.0
      ],
      [
        "Ġlaughed",
        -1.0
      ],
      [
        "Ġhelminth",
        -1.0
      ],
      [
        "Ã¼h",
        -1.0
      ],
      [
        "IFICATION",
        -1.0
      ],
      [
        "dat",
        -1.0
      ],
      [
        "Ke",
        -1.0
      ],
      [
        "ĠStandardized",
        -1.0
      ],
      [
        "ĠSalisbury",
        -1.0
      ],
      [
        "Ġoldest",
        -1.0
      ],
      [
        "eed",
        -1.0
      ],
      [
        "Ġtranscript",
        -1.0
      ],
      [
        "ĠPublisher",
        -1.0
      ],
      [
        "Ġincurable",
        -1.0
      ],
      [
        "Ġhybridized",
        -1.0
      ],
      [
        "Ġpackets",
        -1.0
      ],
      [
        "Ġcollaborated",
        -1.0
      ],
      [
        "-roll",
        -1.0
      ],
      [
        "uche",
        -1.0
      ],
      [
        "Ġembodies",
        -1.0
      ],
      [
        "Ġpostmortem",
        -1.0
      ],
      [
        "Ġtruths",
        -1.0
      ],
      [
        "ĠCoca",
        -1.0
      ],
      [
        "Recording",
        -1.0
      ],
      [
        "ndel",
        -1.0
      ],
      [
        "ĠCalhoun",
        -1.0
      ],
      [
        "-releasing",
        -1.0
      ],
      [
        "Ġlocale",
        -1.0
      ],
      [
        "Ġtumble",
        -1.0
      ],
      [
        "ĠPassion",
        -1.0
      ],
      [
        "Ġligaments",
        -1.0
      ],
      [
        "Word",
        -1.0
      ],
      [
        "ain",
        -1.0
      ],
      [
        "Ġfer",
        -1.0
      ],
      [
        "ĠAFB",
        -1.0
      ],
      [
        "Ġefficiencies",
        -1.0
      ],
      [
        "Ġmember",
        -1.0
      ],
      [
        "ĠDepend",
        -1.0
      ],
      [
        "Ġlaparoscopic",
        -1.0
      ],
      [
        "ĠAnniversary",
        -1.0
      ],
      [
        "Ġdes",
        -1.0
      ],
      [
        "Ġpitfalls",
        -1.0
      ],
      [
        "MX",
        -1.0
      ],
      [
        "-contrast",
        -1.0
      ],
      [
        "ĠPuppy",
        -1.0
      ],
      [
        "positions",
        -1.0
      ],
      [
        "icides",
        -1.0
      ],
      [
        "Ġceremony",
        -1.0
      ],
      [
        "ĠDecorating",
        -1.0
      ],
      [
        "Ġpatience",
        -1.0
      ],
      [
        "'(",
        -1.0
      ],
      [
        "Ġmetastasis",
        -1.0
      ],
      [
        "ĠTrading",
        -1.0
      ],
      [
        "significant",
        -1.0
      ],
      [
        "ĠSmith",
        -1.0
      ],
      [
        "ĠFifteen",
        -1.0
      ],
      [
        "fice",
        -1.0
      ],
      [
        "Ġnonstop",
        -1.0
      ],
      [
        "ĠSteller",
        -1.0
      ],
      [
        "Ġdominion",
        -1.0
      ],
      [
        "Ġdictating",
        -1.0
      ],
      [
        "Ġthickets",
        -1.0
      ],
      [
        "Ġchafing",
        -1.0
      ],
      [
        "ĠSupports",
        -1.0
      ],
      [
        "Ġdefend",
        -1.0
      ],
      [
        "cycline",
        -1.0
      ],
      [
        "Ġpi",
        -1.0
      ],
      [
        "Ġshook",
        -1.0
      ],
      [
        "ffey",
        -1.0
      ],
      [
        "ĠWarsaw",
        -1.0
      ],
      [
        "ĠNecro",
        -1.0
      ],
      [
        "Ġhemorrhoids",
        -1.0
      ],
      [
        "capacitor",
        -1.0
      ],
      [
        "Sales",
        -1.0
      ],
      [
        "coc",
        -1.0
      ],
      [
        "opathies",
        -1.0
      ],
      [
        "ĠPU",
        -1.0
      ],
      [
        "marine",
        -1.0
      ],
      [
        "Ġhaplotype",
        -1.0
      ],
      [
        "Ġphalanges",
        -1.0
      ],
      [
        "Ġmisconduct",
        -1.0
      ],
      [
        "ĠMeasures",
        -1.0
      ],
      [
        "ĠSimulation",
        -1.0
      ],
      [
        "Ġimperfection",
        -1.0
      ],
      [
        "mi",
        -1.0
      ],
      [
        "Ġdedicate",
        -1.0
      ],
      [
        "Ġloaders",
        -1.0
      ],
      [
        "Ġadvising",
        -1.0
      ],
      [
        "Nick",
        -1.0
      ],
      [
        "ocin",
        -1.0
      ],
      [
        "Ġmaples",
        -1.0
      ],
      [
        "Gardening",
        -1.0
      ],
      [
        "ĠBluetooth",
        -1.0
      ],
      [
        "Ġlevers",
        -1.0
      ],
      [
        "Ġchai",
        -1.0
      ],
      [
        "Ġglycolysis",
        -1.0
      ],
      [
        "Ġappeal",
        -1.0
      ],
      [
        "Ġtweak",
        -1.0
      ],
      [
        "Ġindex",
        -1.0
      ],
      [
        "Mesh",
        -1.0
      ],
      [
        "stock",
        -1.0
      ],
      [
        "Ġger",
        -1.0
      ],
      [
        "Ġneglecting",
        -1.0
      ],
      [
        "PCR",
        -1.0
      ],
      [
        "ĠAra",
        -1.0
      ],
      [
        "Storm",
        -1.0
      ],
      [
        "ĠBucket",
        -1.0
      ],
      [
        "asis",
        -1.0
      ],
      [
        "kha",
        -1.0
      ],
      [
        "Ġgeometrical",
        -1.0
      ],
      [
        "Ġsemicircular",
        -1.0
      ],
      [
        "ĠJakob",
        -1.0
      ],
      [
        "Ġpraised",
        -1.0
      ],
      [
        "Ġparvovirus",
        -1.0
      ],
      [
        "ĠGROW",
        -1.0
      ],
      [
        "ĠEnable",
        -1.0
      ],
      [
        "ĠCody",
        -1.0
      ],
      [
        "mart",
        -1.0
      ],
      [
        "(V",
        -1.0
      ],
      [
        "shr",
        -1.0
      ],
      [
        "Ġonboarding",
        -1.0
      ],
      [
        "Ġblooming",
        -1.0
      ],
      [
        "Ġtopologies",
        -1.0
      ],
      [
        "AIR",
        -1.0
      ],
      [
        "Ġruntime",
        -1.0
      ],
      [
        "ĠSqui",
        -1.0
      ],
      [
        "Ġbuns",
        -1.0
      ],
      [
        "Liver",
        -1.0
      ],
      [
        "ĠHeli",
        -1.0
      ],
      [
        "Ġartefact",
        -1.0
      ],
      [
        "Ġjealousy",
        -1.0
      ],
      [
        "ĠRobinson",
        -1.0
      ],
      [
        "Ġskater",
        -1.0
      ],
      [
        "ĠEditors",
        -1.0
      ],
      [
        "rbidity",
        -1.0
      ],
      [
        "Ġpruners",
        -1.0
      ],
      [
        "ĠTourmaline",
        -1.0
      ],
      [
        "tero",
        -1.0
      ],
      [
        "rence",
        -1.0
      ],
      [
        "BM",
        -1.0
      ],
      [
        "ĠSpaces",
        -1.0
      ],
      [
        "ĠSchw",
        -1.0
      ],
      [
        "Imagine",
        -1.0
      ],
      [
        "posal",
        -1.0
      ],
      [
        "ĠInu",
        -1.0
      ],
      [
        "RATION",
        -1.0
      ],
      [
        "Ġvanishes",
        -1.0
      ],
      [
        "ĠLuo",
        -1.0
      ],
      [
        "Ġpoultry",
        -1.0
      ],
      [
        "excellent",
        -1.0
      ],
      [
        "bV",
        -1.0
      ],
      [
        "Ġlearners",
        -1.0
      ],
      [
        "Ġwrought",
        -1.0
      ],
      [
        "Ġfawn",
        -1.0
      ],
      [
        "-renewable",
        -1.0
      ],
      [
        "Ġodds",
        -1.0
      ],
      [
        "disc",
        -1.0
      ],
      [
        "Ġcoordinate",
        -1.0
      ],
      [
        "Environmental",
        -1.0
      ],
      [
        "present",
        -1.0
      ],
      [
        "ĠSy",
        -1.0
      ],
      [
        "rai",
        -1.0
      ],
      [
        "ĠFinn",
        -1.0
      ],
      [
        "Ġmatrix",
        -1.0
      ],
      [
        "ĠFPGAs",
        -1.0
      ],
      [
        "ĠCeliac",
        -1.0
      ],
      [
        "linguistic",
        -1.0
      ],
      [
        "Ġsports",
        -1.0
      ],
      [
        "hhhh",
        -1.0
      ],
      [
        "Ġsuspicions",
        -1.0
      ],
      [
        "-blooming",
        -1.0
      ],
      [
        "ĠRods",
        -1.0
      ],
      [
        "Ġact",
        -1.0
      ],
      [
        "ies",
        -1.0
      ],
      [
        "-November",
        -1.0
      ],
      [
        "-CoV",
        -1.0
      ],
      [
        "tiny",
        -1.0
      ],
      [
        "Ġwound",
        -1.0
      ],
      [
        "Ġpermaculture",
        -1.0
      ],
      [
        "Ġmotivated",
        -1.0
      ],
      [
        "Yam",
        -1.0
      ],
      [
        "Ġreassured",
        -1.0
      ],
      [
        "tle",
        -1.0
      ],
      [
        "Ġdoes",
        -1.0
      ],
      [
        "Shield",
        -1.0
      ],
      [
        "ismic",
        -1.0
      ],
      [
        "Ġflag",
        -1.0
      ],
      [
        "Ġinline",
        -1.0
      ],
      [
        "ĠUkrainian",
        -1.0
      ],
      [
        "Ġdefines",
        -1.0
      ],
      [
        "rina",
        -1.0
      ],
      [
        "ĠCamellia",
        -1.0
      ],
      [
        "ĠKevin",
        -1.0
      ],
      [
        "=>",
        -1.0
      ],
      [
        "finder",
        -1.0
      ],
      [
        "ris",
        -1.0
      ],
      [
        "viridae",
        -1.0
      ],
      [
        "ĠMuscles",
        -1.0
      ],
      [
        "generation",
        -1.0
      ],
      [
        "Ġinterpretive",
        -1.0
      ],
      [
        "Ġalloy",
        -1.0
      ],
      [
        "namely",
        -1.0
      ],
      [
        "Ġhassles",
        -1.0
      ],
      [
        "ĠTEAM",
        -1.0
      ],
      [
        "((",
        -1.0
      ],
      [
        "Ġïĥ",
        -1.0
      ],
      [
        "Xh",
        -1.0
      ],
      [
        "Ġpeeled",
        -1.0
      ],
      [
        "Ġsweater",
        -1.0
      ],
      [
        "iki",
        -1.0
      ],
      [
        "Ġmischief",
        -1.0
      ],
      [
        "ĠPerforming",
        -1.0
      ],
      [
        "Ġdelaying",
        -1.0
      ],
      [
        "Ġcurse",
        -1.0
      ],
      [
        "ĠMangrove",
        -1.0
      ],
      [
        "Ġgrave",
        -1.0
      ],
      [
        "Ġvowed",
        -1.0
      ],
      [
        "ĠCracks",
        -1.0
      ],
      [
        "ĠEnhancing",
        -1.0
      ],
      [
        "NTS",
        -1.0
      ],
      [
        "inating",
        -1.0
      ],
      [
        "Ġlash",
        -1.0
      ],
      [
        "RP",
        -1.0
      ],
      [
        "Ġminimise",
        -1.0
      ],
      [
        "Ġcommodity",
        -1.0
      ],
      [
        "&R",
        -1.0
      ],
      [
        "Ġcattails",
        -1.0
      ],
      [
        ".sub",
        -1.0
      ],
      [
        "ĠCatapult",
        -1.0
      ],
      [
        "Ġcourtship",
        -1.0
      ],
      [
        "Ġhardener",
        -1.0
      ],
      [
        "Ġalternate",
        -1.0
      ],
      [
        "Ġprecast",
        -1.0
      ],
      [
        "Ġmarigolds",
        -1.0
      ],
      [
        "ĠYEARS",
        -1.0
      ],
      [
        "additional",
        -1.0
      ],
      [
        "90",
        -1.0
      ],
      [
        "Ġdesks",
        -1.0
      ],
      [
        "Ġbiographical",
        -1.0
      ],
      [
        "Bass",
        -1.0
      ],
      [
        "Gam",
        -1.0
      ],
      [
        "Ġaspire",
        -1.0
      ],
      [
        "Ġsol",
        -1.0
      ],
      [
        "exa",
        -1.0
      ],
      [
        "Ġflexibility",
        -1.0
      ],
      [
        "divided",
        -1.0
      ],
      [
        "ĠInteraction",
        -1.0
      ],
      [
        "Ġsebum",
        -1.0
      ],
      [
        "Ġgothic",
        -1.0
      ],
      [
        "Ġplayoff",
        -1.0
      ],
      [
        "ĠRegions",
        -1.0
      ],
      [
        "ĠMON",
        -1.0
      ],
      [
        "Ġadventurers",
        -1.0
      ],
      [
        "Ġtouted",
        -1.0
      ],
      [
        "Ġdrawing",
        -1.0
      ],
      [
        "Mega",
        -1.0
      ],
      [
        "ĠArmadillo",
        -1.0
      ],
      [
        "Ġgoblet",
        -1.0
      ],
      [
        "-spring",
        -1.0
      ],
      [
        "dead",
        -1.0
      ],
      [
        "ĠPlanetary",
        -1.0
      ],
      [
        "ĠTAP",
        -1.0
      ],
      [
        "Ġcontacts",
        -1.0
      ],
      [
        "Ġplateaus",
        -1.0
      ],
      [
        "Ġrunners",
        -1.0
      ],
      [
        "Ġcull",
        -1.0
      ],
      [
        "Ġoverzealous",
        -1.0
      ],
      [
        "ĠCorrelation",
        -1.0
      ],
      [
        "ostasis",
        -1.0
      ],
      [
        "ĠGetting",
        -1.0
      ],
      [
        "aar",
        -1.0
      ],
      [
        "ĠLufthansa",
        -1.0
      ],
      [
        "Ġyoung",
        -1.0
      ],
      [
        "Ġnurturing",
        -1.0
      ],
      [
        "Ġbiotic",
        -1.0
      ],
      [
        "Ġchose",
        -1.0
      ],
      [
        "(l",
        -1.0
      ],
      [
        "Ġevaluator",
        -1.0
      ],
      [
        "Bas",
        -1.0
      ],
      [
        "Ġspontaneous",
        -1.0
      ],
      [
        "Ġincome",
        -1.0
      ],
      [
        "ĠFiber",
        -1.0
      ],
      [
        "ĠKarl",
        -1.0
      ],
      [
        "Ġstance",
        -1.0
      ],
      [
        "Ceramic",
        -1.0
      ],
      [
        "ĠQueens",
        -1.0
      ],
      [
        "Ġbackpacks",
        -1.0
      ],
      [
        "-country",
        -1.0
      ],
      [
        "ĠUrea",
        -1.0
      ],
      [
        "Ġdevoted",
        -1.0
      ],
      [
        "ĠEmilia",
        -1.0
      ],
      [
        "Ġasked",
        -1.0
      ],
      [
        "Ġalveoli",
        -1.0
      ],
      [
        "ĠJamestown",
        -1.0
      ],
      [
        "kind",
        -1.0
      ],
      [
        "hound",
        -1.0
      ],
      [
        "Ġleft",
        -1.0
      ],
      [
        "ĠTut",
        -1.0
      ],
      [
        "Ġghrelin",
        -1.0
      ],
      [
        "Distinguish",
        -1.0
      ],
      [
        "Ġtinted",
        -1.0
      ],
      [
        "nci",
        -1.0
      ],
      [
        "ĠMuller",
        -1.0
      ],
      [
        "ĠAT",
        -1.0
      ],
      [
        "Ride",
        -1.0
      ],
      [
        "Ġaureus",
        -1.0
      ],
      [
        "Ġabscess",
        -1.0
      ],
      [
        "Ġparity",
        -1.0
      ],
      [
        "Ġmill",
        -1.0
      ],
      [
        "Ġfryer",
        -1.0
      ],
      [
        "ĠPRINCIPLE",
        -1.0
      ],
      [
        "Ġsmorgasbord",
        -1.0
      ],
      [
        "-tip",
        -1.0
      ],
      [
        "JG",
        -1.0
      ],
      [
        "-time",
        -1.0
      ],
      [
        "Flip",
        -1.0
      ],
      [
        "fortunate",
        -1.0
      ],
      [
        "Ġspins",
        -1.0
      ],
      [
        "Ġamounted",
        -1.0
      ],
      [
        "Ġnucleotides",
        -1.0
      ],
      [
        "Ġanecdotal",
        -1.0
      ],
      [
        "Ġaggregator",
        -1.0
      ],
      [
        "jin",
        -1.0
      ],
      [
        "Ġpneumoniae",
        -1.0
      ],
      [
        "ooo",
        -1.0
      ],
      [
        "47",
        -1.0
      ],
      [
        "Ġdefer",
        -1.0
      ],
      [
        "Ġtouched",
        -1.0
      ],
      [
        "math",
        -1.0
      ],
      [
        "ĠInvestment",
        -1.0
      ],
      [
        "Ġmanufactured",
        -1.0
      ],
      [
        "-aquatic",
        -1.0
      ],
      [
        "uating",
        -1.0
      ],
      [
        "ĠWhoever",
        -1.0
      ],
      [
        "Ġrestrict",
        -1.0
      ],
      [
        "Ġtangerine",
        -1.0
      ],
      [
        "Ġcf",
        -1.0
      ],
      [
        "lapse",
        -1.0
      ],
      [
        "Ġimmersing",
        -1.0
      ],
      [
        "ĠBull",
        -1.0
      ],
      [
        "Ġpair",
        -1.0
      ],
      [
        ":P",
        -1.0
      ],
      [
        "Ġtent",
        -1.0
      ],
      [
        "Ġpublication",
        -1.0
      ],
      [
        "bea",
        -1.0
      ],
      [
        "IFIED",
        -1.0
      ],
      [
        "Ġsafeguarding",
        -1.0
      ],
      [
        "ĠWIN",
        -1.0
      ],
      [
        "ĠFrontier",
        -1.0
      ],
      [
        "ĠRadiation",
        -1.0
      ],
      [
        "Ġgotten",
        -1.0
      ],
      [
        "inge",
        -1.0
      ],
      [
        "Frost",
        -1.0
      ],
      [
        "Ġfemininity",
        -1.0
      ],
      [
        "ĠLockheed",
        -1.0
      ],
      [
        "Ġplanting",
        -1.0
      ],
      [
        "Ġ/></",
        -1.0
      ],
      [
        "Ġexpenditures",
        -1.0
      ],
      [
        "Static",
        -1.0
      ],
      [
        "Ġpremises",
        -1.0
      ],
      [
        "Ġapartheid",
        -1.0
      ],
      [
        "citizen",
        -1.0
      ],
      [
        "Cultiv",
        -1.0
      ],
      [
        "Ġimplantation",
        -1.0
      ],
      [
        "Ġprosper",
        -1.0
      ],
      [
        "Ġsexism",
        -1.0
      ],
      [
        "stol",
        -1.0
      ],
      [
        "ĠArthritis",
        -1.0
      ],
      [
        "/index",
        -1.0
      ],
      [
        "ĠCatalonia",
        -1.0
      ],
      [
        "ĠMacbeth",
        -1.0
      ],
      [
        "-tissue",
        -1.0
      ],
      [
        "TU",
        -1.0
      ],
      [
        "rth",
        -1.0
      ],
      [
        "Ġurine",
        -1.0
      ],
      [
        "Ġevaluate",
        -1.0
      ],
      [
        "ĠAJ",
        -1.0
      ],
      [
        "Ġbill",
        -1.0
      ],
      [
        "-portrait",
        -1.0
      ],
      [
        "Ġbatch",
        -1.0
      ],
      [
        "Ġmaps",
        -1.0
      ],
      [
        "Ġguerrilla",
        -1.0
      ],
      [
        "Ġcarburet",
        -1.0
      ],
      [
        "ĠVirgo",
        -1.0
      ],
      [
        "Fs",
        -1.0
      ],
      [
        "ĠĠ",
        -1.0
      ],
      [
        "Ġrecords",
        -1.0
      ],
      [
        "-transparent",
        -1.0
      ],
      [
        "BBC",
        -1.0
      ],
      [
        "Sat",
        -1.0
      ],
      [
        "-liquid",
        -1.0
      ],
      [
        "ĠNotable",
        -1.0
      ],
      [
        "Ġgyratory",
        -1.0
      ],
      [
        "ublishing",
        -1.0
      ],
      [
        "Mem",
        -1.0
      ],
      [
        "Ġshuffling",
        -1.0
      ],
      [
        "Ġlayered",
        -1.0
      ],
      [
        "Ġprimed",
        -1.0
      ],
      [
        "ĠYuan",
        -1.0
      ],
      [
        "ĠAlm",
        -1.0
      ],
      [
        "Ġcalamities",
        -1.0
      ],
      [
        "TOM",
        -1.0
      ],
      [
        "Ġarmadillo",
        -1.0
      ],
      [
        "closure",
        -1.0
      ],
      [
        "Ġyelled",
        -1.0
      ],
      [
        "Ġrod",
        -1.0
      ],
      [
        "Ġtele",
        -1.0
      ],
      [
        "rling",
        -1.0
      ],
      [
        "cus",
        -1.0
      ],
      [
        "rained",
        -1.0
      ],
      [
        "ĠTak",
        -1.0
      ],
      [
        "Ġmethyl",
        -1.0
      ],
      [
        "angular",
        -1.0
      ],
      [
        "ĠRamp",
        -1.0
      ],
      [
        "Ġcomponents",
        -1.0
      ],
      [
        "represent",
        -1.0
      ],
      [
        "Ġprompted",
        -1.0
      ],
      [
        "ĠCause",
        -1.0
      ],
      [
        "Ġplanes",
        -1.0
      ],
      [
        "ghs",
        -1.0
      ],
      [
        "Ġrubrics",
        -1.0
      ],
      [
        "Ġplantation",
        -1.0
      ],
      [
        "Ġtransfusions",
        -1.0
      ],
      [
        "Ġanuran",
        -1.0
      ],
      [
        "ĠG",
        -1.0
      ],
      [
        "...ĊĊ",
        -1.0
      ],
      [
        "window",
        -1.0
      ],
      [
        "Ġbok",
        -1.0
      ],
      [
        "Ġinstead",
        -1.0
      ],
      [
        "ĠFootball",
        -1.0
      ],
      [
        "tos",
        -1.0
      ],
      [
        "consumption",
        -1.0
      ],
      [
        "Sept",
        -1.0
      ],
      [
        "ĠYorker",
        -1.0
      ],
      [
        "Ġepicenter",
        -1.0
      ],
      [
        "ĠAllergens",
        -1.0
      ],
      [
        "Ġmicrotubule",
        -1.0
      ],
      [
        "ĠArs",
        -1.0
      ],
      [
        "ĠCMB",
        -1.0
      ],
      [
        "Ġsector",
        -1.0
      ],
      [
        "Ġbecome",
        -1.0
      ],
      [
        "Ġgastritis",
        -1.0
      ],
      [
        "Ġshorelines",
        -1.0
      ],
      [
        "ĠCritically",
        -1.0
      ],
      [
        "Ġfilled",
        -1.0
      ],
      [
        "ĠHH",
        -1.0
      ],
      [
        "ĠBlooming",
        -1.0
      ],
      [
        "ĠAnth",
        -1.0
      ],
      [
        "gara",
        -1.0
      ],
      [
        "slo",
        -1.0
      ],
      [
        "Ġrafters",
        -1.0
      ],
      [
        "Ġdollop",
        -1.0
      ],
      [
        "Ġcomplement",
        -1.0
      ],
      [
        "-current",
        -1.0
      ],
      [
        "Ġbookings",
        -1.0
      ],
      [
        "Ġarable",
        -1.0
      ],
      [
        "ĠGardener",
        -1.0
      ],
      [
        "Ġimplications",
        -1.0
      ],
      [
        "Ġunreasonably",
        -1.0
      ],
      [
        "-flavored",
        -1.0
      ],
      [
        "Ġaerating",
        -1.0
      ],
      [
        "monitoring",
        -1.0
      ],
      [
        "British",
        -1.0
      ],
      [
        "Ġreasonable",
        -1.0
      ],
      [
        "ĠAdvertising",
        -1.0
      ],
      [
        "Ġdonation",
        -1.0
      ],
      [
        "ABC",
        -1.0
      ],
      [
        "Ġfigure",
        -1.0
      ],
      [
        "ĠAgreements",
        -1.0
      ],
      [
        "Ġapproximated",
        -1.0
      ],
      [
        "Ġdeficits",
        -1.0
      ],
      [
        "reo",
        -1.0
      ],
      [
        "Ġcli",
        -1.0
      ],
      [
        "Ġtroll",
        -1.0
      ],
      [
        "Ġhind",
        -1.0
      ],
      [
        "ĠGlaucoma",
        -1.0
      ],
      [
        "ĠE",
        -1.0
      ],
      [
        "Ġleveling",
        -1.0
      ],
      [
        "Ġvineyard",
        -1.0
      ],
      [
        "ilty",
        -1.0
      ],
      [
        "ĠOptional",
        -1.0
      ],
      [
        "ĠZip",
        -1.0
      ],
      [
        "Ġfemur",
        -1.0
      ],
      [
        "Ġneuronal",
        -1.0
      ],
      [
        "ĠHarnessing",
        -1.0
      ],
      [
        "-dra",
        -1.0
      ],
      [
        "Ġhold",
        -1.0
      ],
      [
        "ĠVeda",
        -1.0
      ],
      [
        "ĠAborigines",
        -1.0
      ],
      [
        "proteins",
        -1.0
      ],
      [
        "Ġaliphatic",
        -1.0
      ],
      [
        "shake",
        -1.0
      ],
      [
        "ĠFoods",
        -1.0
      ],
      [
        "ianus",
        -1.0
      ],
      [
        "Ġgeckos",
        -1.0
      ],
      [
        "bees",
        -1.0
      ],
      [
        "ĠCookie",
        -1.0
      ],
      [
        "cyte",
        -1.0
      ],
      [
        "Ġdifficulties",
        -1.0
      ],
      [
        ".pdf",
        -1.0
      ],
      [
        "ĠCleaners",
        -1.0
      ],
      [
        "understand",
        -1.0
      ],
      [
        "JO",
        -1.0
      ],
      [
        "Easy",
        -1.0
      ],
      [
        "rok",
        -1.0
      ],
      [
        "Ġseas",
        -1.0
      ],
      [
        "Ġloc",
        -1.0
      ],
      [
        "preferably",
        -1.0
      ],
      [
        "ĠUpholstery",
        -1.0
      ],
      [
        "fs",
        -1.0
      ],
      [
        "-rep",
        -1.0
      ],
      [
        "Valid",
        -1.0
      ],
      [
        "Ġacademy",
        -1.0
      ],
      [
        "Ġpandemics",
        -1.0
      ],
      [
        "Ġbungee",
        -1.0
      ],
      [
        "Ġcoexist",
        -1.0
      ],
      [
        "ĠUsumacinta",
        -1.0
      ],
      [
        "Ġterritory",
        -1.0
      ],
      [
        "Happiness",
        -1.0
      ],
      [
        "ĠMeredith",
        -1.0
      ],
      [
        "ĠOCD",
        -1.0
      ],
      [
        "procedure",
        -1.0
      ],
      [
        "ĠMun",
        -1.0
      ],
      [
        "ĠPhotograph",
        -1.0
      ],
      [
        "ĠJohan",
        -1.0
      ],
      [
        "ĠDom",
        -1.0
      ],
      [
        "Ġaudiobook",
        -1.0
      ],
      [
        "Thunder",
        -1.0
      ],
      [
        "Ġbenthic",
        -1.0
      ],
      [
        "-activated",
        -1.0
      ],
      [
        "vern",
        -1.0
      ],
      [
        "Ġreminders",
        -1.0
      ],
      [
        "Ġgirls",
        -1.0
      ],
      [
        "jun",
        -1.0
      ],
      [
        "ĠAccent",
        -1.0
      ],
      [
        "Ġbe",
        -1.0
      ],
      [
        "Ġoviposit",
        -1.0
      ],
      [
        "(f",
        -1.0
      ],
      [
        "-business",
        -1.0
      ],
      [
        "ulates",
        -1.0
      ],
      [
        "ĠSpanish",
        -1.0
      ],
      [
        "ĠGriffiths",
        -1.0
      ],
      [
        "Ġclassically",
        -1.0
      ],
      [
        "Ġwaterproof",
        -1.0
      ],
      [
        "lr",
        -1.0
      ],
      [
        "mit",
        -1.0
      ],
      [
        "Ġever",
        -1.0
      ],
      [
        "Ġequity",
        -1.0
      ],
      [
        "sions",
        -1.0
      ],
      [
        "Ġcoalesce",
        -1.0
      ],
      [
        "Ġenterprise",
        -1.0
      ],
      [
        "Ġsaxophone",
        -1.0
      ],
      [
        "Ġ?ĊĊ",
        -1.0
      ],
      [
        "ĠFungus",
        -1.0
      ],
      [
        "vocabulary",
        -1.0
      ],
      [
        "ĠVr",
        -1.0
      ],
      [
        "Ġproportions",
        -1.0
      ],
      [
        "-atom",
        -1.0
      ],
      [
        "ĠLindbergh",
        -1.0
      ],
      [
        "+C",
        -1.0
      ],
      [
        "successful",
        -1.0
      ],
      [
        "Ġwouldnt",
        -1.0
      ],
      [
        "ÉĻ",
        -1.0
      ],
      [
        "ãģį",
        -1.0
      ],
      [
        "ĠSuzanne",
        -1.0
      ],
      [
        "Ġrebuild",
        -1.0
      ],
      [
        "ĠDigging",
        -1.0
      ],
      [
        "atan",
        -1.0
      ],
      [
        "Ġundone",
        -1.0
      ],
      [
        "ĠMagn",
        -1.0
      ],
      [
        "ĠSeems",
        -1.0
      ],
      [
        "-teacher",
        -1.0
      ],
      [
        "-pur",
        -1.0
      ],
      [
        "Ġantiquity",
        -1.0
      ],
      [
        "Ġfader",
        -1.0
      ],
      [
        "bum",
        -1.0
      ],
      [
        "Ġmigrations",
        -1.0
      ],
      [
        "ĠCetacea",
        -1.0
      ],
      [
        "Videos",
        -1.0
      ],
      [
        "-ki",
        -1.0
      ],
      [
        "Ġcalmed",
        -1.0
      ],
      [
        "ĠIntuition",
        -1.0
      ],
      [
        "Ġreduce",
        -1.0
      ],
      [
        "Ġuses",
        -1.0
      ],
      [
        "ĠWhy",
        -1.0
      ],
      [
        "Ġcurricular",
        -1.0
      ],
      [
        "hep",
        -1.0
      ],
      [
        "spi",
        -1.0
      ],
      [
        "kiness",
        -1.0
      ],
      [
        "+ĊĊ",
        -1.0
      ],
      [
        "Ġthing",
        -1.0
      ],
      [
        "zos",
        -1.0
      ],
      [
        "ĠAward",
        -1.0
      ],
      [
        "kick",
        -1.0
      ],
      [
        "ĠCONDITION",
        -1.0
      ],
      [
        "Ġcollared",
        -1.0
      ],
      [
        "Ġhimself",
        -1.0
      ],
      [
        "ili",
        -1.0
      ],
      [
        "Teens",
        -1.0
      ],
      [
        "EAN",
        -1.0
      ],
      [
        "ĠHabits",
        -1.0
      ],
      [
        "client",
        -1.0
      ],
      [
        "Ġpearl",
        -1.0
      ],
      [
        "ĠAlchemy",
        -1.0
      ],
      [
        "ĠManuel",
        -1.0
      ],
      [
        "Ġsaline",
        -1.0
      ],
      [
        "ĠUART",
        -1.0
      ],
      [
        "ece",
        -1.0
      ],
      [
        "ah",
        -1.0
      ],
      [
        "ĠKate",
        -1.0
      ],
      [
        "Ġeuros",
        -1.0
      ],
      [
        "Ġcastle",
        -1.0
      ],
      [
        "ĠDre",
        -1.0
      ],
      [
        "twe",
        -1.0
      ],
      [
        "Ġjerks",
        -1.0
      ],
      [
        "ĠLick",
        -1.0
      ],
      [
        "diagnos",
        -1.0
      ],
      [
        "wls",
        -1.0
      ],
      [
        "ulsive",
        -1.0
      ],
      [
        "Ġantigens",
        -1.0
      ],
      [
        "Ġimagery",
        -1.0
      ],
      [
        "ĠProfile",
        -1.0
      ],
      [
        "ĠRamen",
        -1.0
      ],
      [
        "Ġessays",
        -1.0
      ],
      [
        "Ġmobilize",
        -1.0
      ],
      [
        "Ġpl",
        -1.0
      ],
      [
        "ĠPokÃ©mon",
        -1.0
      ],
      [
        "ayer",
        -1.0
      ],
      [
        "Ġpositioning",
        -1.0
      ],
      [
        "ĠPistol",
        -1.0
      ],
      [
        "Ġthe",
        -1.0
      ],
      [
        "Currency",
        -1.0
      ],
      [
        "ĠREPORT",
        -1.0
      ],
      [
        "Ġsowing",
        -1.0
      ],
      [
        "Ġnurture",
        -1.0
      ],
      [
        "Ġpuffy",
        -1.0
      ],
      [
        "Letter",
        -1.0
      ],
      [
        "Ġvested",
        -1.0
      ],
      [
        "Ġgenerate",
        -1.0
      ],
      [
        "Observing",
        -1.0
      ],
      [
        "composition",
        -1.0
      ],
      [
        "ĠXT",
        -1.0
      ],
      [
        "Ġsweeten",
        -1.0
      ],
      [
        "Night",
        -1.0
      ],
      [
        "Accessibility",
        -1.0
      ],
      [
        "ĠMb",
        -1.0
      ],
      [
        "Ġjacket",
        -1.0
      ],
      [
        "Ġtangible",
        -1.0
      ],
      [
        "photo",
        -1.0
      ],
      [
        "ĠAgriculture",
        -1.0
      ],
      [
        "Ġsuede",
        -1.0
      ],
      [
        "Ġproceeds",
        -1.0
      ],
      [
        "Ġvon",
        -1.0
      ],
      [
        "Ġcombust",
        -1.0
      ],
      [
        "ÂŃe",
        -1.0
      ],
      [
        "ĠBris",
        -1.0
      ],
      [
        "-iron",
        -1.0
      ],
      [
        "QR",
        -1.0
      ],
      [
        "Ġphysicist",
        -1.0
      ],
      [
        "-protein",
        -1.0
      ],
      [
        "Ġstarts",
        -1.0
      ],
      [
        ":Ċ",
        -1.0
      ],
      [
        "Aaron",
        -1.0
      ],
      [
        "Ġunheard",
        -1.0
      ],
      [
        "Ġarbitration",
        -1.0
      ],
      [
        "Preview",
        -1.0
      ],
      [
        "ĠRotterdam",
        -1.0
      ],
      [
        "Ġamaranth",
        -1.0
      ],
      [
        "ĠLisa",
        -1.0
      ],
      [
        "ĠSimply",
        -1.0
      ],
      [
        "ĠExtension",
        -1.0
      ],
      [
        "Ġanisotropy",
        -1.0
      ],
      [
        "Ġfavoured",
        -1.0
      ],
      [
        "Ġresealable",
        -1.0
      ],
      [
        "County",
        -1.0
      ],
      [
        "ĠSelective",
        -1.0
      ],
      [
        "Ġcongruence",
        -1.0
      ],
      [
        "emphasize",
        -1.0
      ],
      [
        "ĠMeso",
        -1.0
      ],
      [
        "CC",
        -1.0
      ],
      [
        "Ġsooty",
        -1.0
      ],
      [
        "-Ch",
        -1.0
      ],
      [
        "ĠSurfaces",
        -1.0
      ],
      [
        "Ġrandom",
        -1.0
      ],
      [
        "Ġpoaching",
        -1.0
      ],
      [
        "Ġbacterium",
        -1.0
      ],
      [
        "ĠTrial",
        -1.0
      ],
      [
        "ĠBuddy",
        -1.0
      ],
      [
        "Crowd",
        -1.0
      ],
      [
        "ZR",
        -1.0
      ],
      [
        "Ġobserves",
        -1.0
      ],
      [
        "bond",
        -1.0
      ],
      [
        "Ġlesion",
        -1.0
      ],
      [
        "Ġfar",
        -1.0
      ],
      [
        "Ġunsigned",
        -1.0
      ],
      [
        "Ġfright",
        -1.0
      ],
      [
        "Ġcicadas",
        -1.0
      ],
      [
        "post",
        -1.0
      ],
      [
        "ĠAZ",
        -1.0
      ],
      [
        "--Ċ",
        -1.0
      ],
      [
        "-reduction",
        -1.0
      ],
      [
        "Ġbeauties",
        -1.0
      ],
      [
        "Ġcrater",
        -1.0
      ],
      [
        "ĠPen",
        -1.0
      ],
      [
        "Ġammeter",
        -1.0
      ],
      [
        "Ġcosmology",
        -1.0
      ],
      [
        "Ġchapel",
        -1.0
      ],
      [
        "ĠSoy",
        -1.0
      ],
      [
        "Anyway",
        -1.0
      ],
      [
        "Al",
        -1.0
      ],
      [
        "Ġconfident",
        -1.0
      ],
      [
        "ass",
        -1.0
      ],
      [
        "Ġexpeditions",
        -1.0
      ],
      [
        "Ġcopulation",
        -1.0
      ],
      [
        "Ġswayed",
        -1.0
      ],
      [
        "-private",
        -1.0
      ],
      [
        "Ġwallpaper",
        -1.0
      ],
      [
        "ĠGregor",
        -1.0
      ],
      [
        "ĠBreaks",
        -1.0
      ],
      [
        "Ġentitled",
        -1.0
      ],
      [
        "Ġfreaking",
        -1.0
      ],
      [
        "Ġdestabil",
        -1.0
      ],
      [
        "ĠChinese",
        -1.0
      ],
      [
        "Direct",
        -1.0
      ],
      [
        "Ġpages",
        -1.0
      ],
      [
        "Ġcorpus",
        -1.0
      ],
      [
        "Ġgoddesses",
        -1.0
      ],
      [
        "Ġdeterrent",
        -1.0
      ],
      [
        "Ġtumour",
        -1.0
      ],
      [
        "Ġcranial",
        -1.0
      ],
      [
        "Ġsoftest",
        -1.0
      ],
      [
        "Father",
        -1.0
      ],
      [
        "-profit",
        -1.0
      ],
      [
        "ĠONE",
        -1.0
      ],
      [
        "ĠFishery",
        -1.0
      ],
      [
        "ĠPrescription",
        -1.0
      ],
      [
        "iber",
        -1.0
      ],
      [
        "ezy",
        -1.0
      ],
      [
        "%âĢĵ",
        -1.0
      ],
      [
        "trich",
        -1.0
      ],
      [
        "ĠClean",
        -1.0
      ],
      [
        "Ġbinaural",
        -1.0
      ],
      [
        "ĠOrnith",
        -1.0
      ],
      [
        "Ġtonsillitis",
        -1.0
      ],
      [
        "Ġhazelnuts",
        -1.0
      ],
      [
        "ĠFighting",
        -1.0
      ],
      [
        "ĠGMO",
        -1.0
      ],
      [
        "ĠLetting",
        -1.0
      ],
      [
        "Ġponies",
        -1.0
      ],
      [
        "ston",
        -1.0
      ],
      [
        "ĠTraction",
        -1.0
      ],
      [
        "bps",
        -1.0
      ],
      [
        "Ġexcites",
        -1.0
      ],
      [
        "Ġlingering",
        -1.0
      ],
      [
        "Ġouting",
        -1.0
      ],
      [
        "Ġagreeable",
        -1.0
      ],
      [
        "Ne",
        -1.0
      ],
      [
        "LAB",
        -1.0
      ],
      [
        "None",
        -1.0
      ],
      [
        "ĠCVS",
        -1.0
      ],
      [
        "Ġindia",
        -1.0
      ],
      [
        "Purpose",
        -1.0
      ],
      [
        "Ġaware",
        -1.0
      ],
      [
        "Ġinhaler",
        -1.0
      ],
      [
        "atures",
        -1.0
      ],
      [
        "Ġowing",
        -1.0
      ],
      [
        "ĠDNS",
        -1.0
      ],
      [
        "Ġstimuli",
        -1.0
      ],
      [
        "instance",
        -1.0
      ],
      [
        "ĠTension",
        -1.0
      ],
      [
        "Message",
        -1.0
      ],
      [
        "Ġinclude",
        -1.0
      ],
      [
        "Ġcomforts",
        -1.0
      ],
      [
        "Ġnewsletters",
        -1.0
      ],
      [
        "reno",
        -1.0
      ],
      [
        "Ġurgently",
        -1.0
      ],
      [
        "Ġbirdbath",
        -1.0
      ],
      [
        "ĠWagner",
        -1.0
      ],
      [
        "software",
        -1.0
      ],
      [
        "ĠNietzsche",
        -1.0
      ],
      [
        "Ġcritique",
        -1.0
      ],
      [
        "Ġ....ĊĊ",
        -1.0
      ],
      [
        "phyl",
        -1.0
      ],
      [
        "ĠWhole",
        -1.0
      ],
      [
        "AUD",
        -1.0
      ],
      [
        "ĠOptions",
        -1.0
      ],
      [
        "-Planck",
        -1.0
      ],
      [
        "Ġsaturate",
        -1.0
      ],
      [
        "deploy",
        -1.0
      ],
      [
        "licit",
        -1.0
      ],
      [
        "Ġinhabiting",
        -1.0
      ],
      [
        "-step",
        -1.0
      ],
      [
        "ved",
        -1.0
      ],
      [
        "iÄĩ",
        -1.0
      ],
      [
        "ĠLydia",
        -1.0
      ],
      [
        "ĠStrand",
        -1.0
      ],
      [
        "ĠSMART",
        -1.0
      ],
      [
        "Ġexcrete",
        -1.0
      ],
      [
        "Ġbushing",
        -1.0
      ],
      [
        "-week",
        -1.0
      ],
      [
        "Ġbeer",
        -1.0
      ],
      [
        "Ġcyclist",
        -1.0
      ],
      [
        "ĠRocks",
        -1.0
      ],
      [
        "ĠCompetitive",
        -1.0
      ],
      [
        "Ġcar",
        -1.0
      ],
      [
        "ended",
        -1.0
      ],
      [
        "ĠAlleg",
        -1.0
      ],
      [
        "vaginal",
        -1.0
      ],
      [
        "Service",
        -1.0
      ],
      [
        "Ġoutside",
        -1.0
      ],
      [
        "usch",
        -1.0
      ],
      [
        "titudes",
        -1.0
      ],
      [
        "Ġzodiac",
        -1.0
      ],
      [
        "éĥ¨",
        -1.0
      ],
      [
        "If",
        -1.0
      ],
      [
        "ize",
        -1.0
      ],
      [
        "Ġvitally",
        -1.0
      ],
      [
        "area",
        -1.0
      ],
      [
        "ĠShel",
        -1.0
      ],
      [
        "logists",
        -1.0
      ],
      [
        "ĠMysterious",
        -1.0
      ],
      [
        "Ġweaned",
        -1.0
      ],
      [
        "availability",
        -1.0
      ],
      [
        "Ġsprays",
        -1.0
      ],
      [
        "ĠGrounds",
        -1.0
      ],
      [
        "ĠPhyl",
        -1.0
      ],
      [
        "Ġparrot",
        -1.0
      ],
      [
        "ĠAf",
        -1.0
      ],
      [
        "ĠLONG",
        -1.0
      ],
      [
        "ĠPlanner",
        -1.0
      ],
      [
        "ĠEdwardian",
        -1.0
      ],
      [
        "ĠBethlehem",
        -1.0
      ],
      [
        "lier",
        -1.0
      ],
      [
        "Ġrelaxed",
        -1.0
      ],
      [
        "Ġrhinos",
        -1.0
      ],
      [
        "Ġrooftops",
        -1.0
      ],
      [
        "Ġunwanted",
        -1.0
      ],
      [
        "ĠErgonomic",
        -1.0
      ],
      [
        "ĠPrecambrian",
        -1.0
      ],
      [
        "Ġanomalous",
        -1.0
      ],
      [
        "Ġmicroarray",
        -1.0
      ],
      [
        "Ġwards",
        -1.0
      ],
      [
        "Ġmildly",
        -1.0
      ],
      [
        "ĠPeabody",
        -1.0
      ],
      [
        "ĠPoker",
        -1.0
      ],
      [
        ".htm",
        -1.0
      ],
      [
        "lymph",
        -1.0
      ],
      [
        "Grab",
        -1.0
      ],
      [
        "itons",
        -1.0
      ],
      [
        "Turquoise",
        -1.0
      ],
      [
        "Ġjournalist",
        -1.0
      ],
      [
        "esh",
        -1.0
      ],
      [
        "Ġmetaphors",
        -1.0
      ],
      [
        "Ġconstituting",
        -1.0
      ],
      [
        "Ġbystander",
        -1.0
      ],
      [
        "ĠMaterials",
        -1.0
      ],
      [
        "Ġalligators",
        -1.0
      ],
      [
        "Ġru",
        -1.0
      ],
      [
        "Ġlimiting",
        -1.0
      ],
      [
        "eU",
        -1.0
      ],
      [
        "Ġsimulator",
        -1.0
      ],
      [
        "zig",
        -1.0
      ],
      [
        "phyte",
        -1.0
      ],
      [
        "ceratops",
        -1.0
      ],
      [
        "hÃ¤",
        -1.0
      ],
      [
        "ĠDU",
        -1.0
      ],
      [
        "Ġregulations",
        -1.0
      ],
      [
        "Ġcommunal",
        -1.0
      ],
      [
        "Vocabulary",
        -1.0
      ],
      [
        "Ġasexually",
        -1.0
      ],
      [
        "oured",
        -1.0
      ],
      [
        "-gatherers",
        -1.0
      ],
      [
        "oom",
        -1.0
      ],
      [
        "ĠMock",
        -1.0
      ],
      [
        "Norway",
        -1.0
      ],
      [
        "Ġcraftsmen",
        -1.0
      ],
      [
        "Ġfarms",
        -1.0
      ],
      [
        "ĠAarhus",
        -1.0
      ],
      [
        "Ġdischarges",
        -1.0
      ],
      [
        "Ġtourniquet",
        -1.0
      ],
      [
        "Ġmolting",
        -1.0
      ],
      [
        "Wholesale",
        -1.0
      ],
      [
        "Ġpredicated",
        -1.0
      ],
      [
        "-out",
        -1.0
      ],
      [
        "Ġhey",
        -1.0
      ],
      [
        "ĠMED",
        -1.0
      ],
      [
        "ĠRose",
        -1.0
      ],
      [
        ".B",
        -1.0
      ],
      [
        "crystal",
        -1.0
      ],
      [
        "ovsk",
        -1.0
      ],
      [
        "Ġclauses",
        -1.0
      ],
      [
        "Ġscallop",
        -1.0
      ],
      [
        "Ġgable",
        -1.0
      ],
      [
        "when",
        -1.0
      ],
      [
        "Ġsheer",
        -1.0
      ],
      [
        "ssie",
        -1.0
      ],
      [
        "ĠOkay",
        -1.0
      ],
      [
        "è¿ŀæİ¥",
        -1.0
      ],
      [
        "'clock",
        -1.0
      ],
      [
        "Hel",
        -1.0
      ],
      [
        "-sensitive",
        -1.0
      ],
      [
        "Ġresveratrol",
        -1.0
      ],
      [
        "-km",
        -1.0
      ],
      [
        "Ġminimalist",
        -1.0
      ],
      [
        "JavaScript",
        -1.0
      ],
      [
        "Ġsizzling",
        -1.0
      ],
      [
        "Ġfeather",
        -1.0
      ],
      [
        "Utilizing",
        -1.0
      ],
      [
        "Chu",
        -1.0
      ],
      [
        "Ġshuffle",
        -1.0
      ],
      [
        "Ġfunctionally",
        -1.0
      ],
      [
        "Ġenquiry",
        -1.0
      ],
      [
        ".biz",
        -1.0
      ],
      [
        "Ġsimmer",
        -1.0
      ],
      [
        "ĠRomania",
        -1.0
      ],
      [
        "Ġevaporating",
        -1.0
      ],
      [
        "Ġcooperation",
        -1.0
      ],
      [
        "Ġsitu",
        -1.0
      ],
      [
        "ĠQuick",
        -1.0
      ],
      [
        "<p",
        -1.0
      ],
      [
        "Ġcomm",
        -1.0
      ],
      [
        "ĠTownsend",
        -1.0
      ],
      [
        "algia",
        -1.0
      ],
      [
        "Ġoverseeing",
        -1.0
      ],
      [
        "imating",
        -1.0
      ],
      [
        "ĠExact",
        -1.0
      ],
      [
        "dR",
        -1.0
      ],
      [
        "vapor",
        -1.0
      ],
      [
        "logging",
        -1.0
      ],
      [
        "Ġfireplaces",
        -1.0
      ],
      [
        "Ġballast",
        -1.0
      ],
      [
        "Ġboom",
        -1.0
      ],
      [
        "Ġstamping",
        -1.0
      ],
      [
        "Sl",
        -1.0
      ],
      [
        "ĠRCA",
        -1.0
      ],
      [
        "terrorism",
        -1.0
      ],
      [
        "Sansevieria",
        -1.0
      ],
      [
        "Ġtact",
        -1.0
      ],
      [
        "Nervous",
        -1.0
      ],
      [
        "Ġinclination",
        -1.0
      ],
      [
        "ĠLamb",
        -1.0
      ],
      [
        "abo",
        -1.0
      ],
      [
        "Ġbooties",
        -1.0
      ],
      [
        "ritos",
        -1.0
      ],
      [
        "Appli",
        -1.0
      ],
      [
        "Ġastonishing",
        -1.0
      ],
      [
        "ĠWinner",
        -1.0
      ],
      [
        "ĠâĨĳ",
        -1.0
      ],
      [
        "&D",
        -1.0
      ],
      [
        "Ġesc",
        -1.0
      ],
      [
        "Multiple",
        -1.0
      ],
      [
        "Ġtaxidermy",
        -1.0
      ],
      [
        "liv",
        -1.0
      ],
      [
        "ĠOriginating",
        -1.0
      ],
      [
        "Ġdeclines",
        -1.0
      ],
      [
        "ĠDecreased",
        -1.0
      ],
      [
        "ĠPassengers",
        -1.0
      ],
      [
        "ĠHawaiÊ»i",
        -1.0
      ],
      [
        "ĠRI",
        -1.0
      ],
      [
        "hik",
        -1.0
      ],
      [
        "Depends",
        -1.0
      ],
      [
        "Ġacting",
        -1.0
      ],
      [
        "arities",
        -1.0
      ],
      [
        "Ġst",
        -1.0
      ],
      [
        "storming",
        -1.0
      ],
      [
        "ĠHabitat",
        -1.0
      ],
      [
        "Ġmassively",
        -1.0
      ],
      [
        "Ġpremiums",
        -1.0
      ],
      [
        "ĠArche",
        -1.0
      ],
      [
        "ĠObtain",
        -1.0
      ],
      [
        "Ġagonizing",
        -1.0
      ],
      [
        "Efficient",
        -1.0
      ],
      [
        "Ġgametes",
        -1.0
      ],
      [
        "Ġmix",
        -1.0
      ],
      [
        "Ġalfalfa",
        -1.0
      ],
      [
        "eners",
        -1.0
      ],
      [
        "Ġsuffering",
        -1.0
      ],
      [
        "ĠPaulo",
        -1.0
      ],
      [
        "Ġphrases",
        -1.0
      ],
      [
        "Ġvaccinated",
        -1.0
      ],
      [
        "Ġtool",
        -1.0
      ],
      [
        "Ġacids",
        -1.0
      ],
      [
        "ĠEthernet",
        -1.0
      ],
      [
        "Ġslag",
        -1.0
      ],
      [
        "ĠâĢ¦.",
        -1.0
      ],
      [
        "connected",
        -1.0
      ],
      [
        "Mechanical",
        -1.0
      ],
      [
        "\"There",
        -1.0
      ],
      [
        "ĠTextures",
        -1.0
      ],
      [
        "says",
        -1.0
      ],
      [
        "Ġcircle",
        -1.0
      ],
      [
        "-er",
        -1.0
      ],
      [
        "Ġafar",
        -1.0
      ],
      [
        "starting",
        -1.0
      ],
      [
        "Ġevening",
        -1.0
      ],
      [
        "Sold",
        -1.0
      ],
      [
        "ĠCredential",
        -1.0
      ],
      [
        "ē",
        -1.0
      ],
      [
        "illy",
        -1.0
      ],
      [
        "Ġlaptops",
        -1.0
      ],
      [
        "ĠExpedia",
        -1.0
      ],
      [
        "Jasmine",
        -1.0
      ],
      [
        "ĠHarrison",
        -1.0
      ],
      [
        "Ġsock",
        -1.0
      ],
      [
        "-mails",
        -1.0
      ],
      [
        "Ġpropose",
        -1.0
      ],
      [
        "Ġprogenitors",
        -1.0
      ],
      [
        "Ġdeformed",
        -1.0
      ],
      [
        "-DOS",
        -1.0
      ],
      [
        "Ġinclines",
        -1.0
      ],
      [
        "-Up",
        -1.0
      ],
      [
        "-lab",
        -1.0
      ],
      [
        "ĠSno",
        -1.0
      ],
      [
        "ĠAllies",
        -1.0
      ],
      [
        "Ġstrongly",
        -1.0
      ],
      [
        "Neutral",
        -1.0
      ],
      [
        "Î",
        -1.0
      ],
      [
        "Understanding",
        -1.0
      ],
      [
        "ĠCompared",
        -1.0
      ],
      [
        "Ġnipples",
        -1.0
      ],
      [
        "ĠSHA",
        -1.0
      ],
      [
        "ĠCleanup",
        -1.0
      ],
      [
        "poration",
        -1.0
      ],
      [
        "lithography",
        -1.0
      ],
      [
        ".Use",
        -1.0
      ],
      [
        "Ġexcreted",
        -1.0
      ],
      [
        "Ġradiocarbon",
        -1.0
      ],
      [
        "Ġappalling",
        -1.0
      ],
      [
        "-inclusive",
        -1.0
      ],
      [
        "Ġinstrument",
        -1.0
      ],
      [
        "th",
        -1.0
      ],
      [
        "Fat",
        -1.0
      ],
      [
        "Ġmodding",
        -1.0
      ],
      [
        "ĠIsabella",
        -1.0
      ],
      [
        "ziness",
        -1.0
      ],
      [
        "MM",
        -1.0
      ],
      [
        "ero",
        -1.0
      ],
      [
        "ĠClasses",
        -1.0
      ],
      [
        "Ġdish",
        -1.0
      ],
      [
        "Ġto",
        -1.0
      ],
      [
        "MAX",
        -1.0
      ],
      [
        "Ġnp",
        -1.0
      ],
      [
        "Ġnarwhal",
        -1.0
      ],
      [
        "Ġshift",
        -1.0
      ],
      [
        "ĠASD",
        -1.0
      ],
      [
        "Ġmuted",
        -1.0
      ],
      [
        "mathcal",
        -1.0
      ],
      [
        "Ġcarburetor",
        -1.0
      ],
      [
        "Ġannotation",
        -1.0
      ],
      [
        "NIH",
        -1.0
      ],
      [
        "Ġasacol",
        -1.0
      ],
      [
        "ĠTrusted",
        -1.0
      ],
      [
        "Ġswi",
        -1.0
      ],
      [
        ".w",
        -1.0
      ],
      [
        "Ġiteratively",
        -1.0
      ],
      [
        "ĠTyphoon",
        -1.0
      ],
      [
        "ĠStam",
        -1.0
      ],
      [
        "-minute",
        -1.0
      ],
      [
        "Ġsaturated",
        -1.0
      ],
      [
        "lide",
        -1.0
      ],
      [
        "gne",
        -1.0
      ],
      [
        "mian",
        -1.0
      ],
      [
        "Ġstimulate",
        -1.0
      ],
      [
        "ĠâĢķ",
        -1.0
      ],
      [
        "TO",
        -1.0
      ],
      [
        "Ġoverflow",
        -1.0
      ],
      [
        "Ġwrong",
        -1.0
      ],
      [
        "ĠReuters",
        -1.0
      ],
      [
        "Recognising",
        -1.0
      ],
      [
        "empty",
        -1.0
      ],
      [
        "Ġimplantable",
        -1.0
      ],
      [
        "statin",
        -1.0
      ],
      [
        "Canada",
        -1.0
      ],
      [
        "Ġoffend",
        -1.0
      ],
      [
        "lY",
        -1.0
      ],
      [
        "ĠAdo",
        -1.0
      ],
      [
        "ĠBay",
        -1.0
      ],
      [
        "_text",
        -1.0
      ],
      [
        "vik",
        -1.0
      ],
      [
        "Ġemphasises",
        -1.0
      ],
      [
        "Ġcomparative",
        -1.0
      ],
      [
        "ĠIllustrated",
        -1.0
      ],
      [
        "ĠConclusion",
        -1.0
      ],
      [
        "Ġbacon",
        -1.0
      ],
      [
        "ĠTurk",
        -1.0
      ],
      [
        "Ġpulley",
        -1.0
      ],
      [
        "Ġsepsis",
        -1.0
      ],
      [
        "Ġbiloba",
        -1.0
      ],
      [
        "pitch",
        -1.0
      ],
      [
        "Tests",
        -1.0
      ],
      [
        "ĠCAF",
        -1.0
      ],
      [
        "Ġsurvivors",
        -1.0
      ],
      [
        "Ġalongside",
        -1.0
      ],
      [
        "Ġdiscovered",
        -1.0
      ],
      [
        "-level",
        -1.0
      ],
      [
        "Ġkit",
        -1.0
      ],
      [
        "ĠBoots",
        -1.0
      ],
      [
        "shy",
        -1.0
      ],
      [
        "-condition",
        -1.0
      ],
      [
        "ĠMrs",
        -1.0
      ],
      [
        "Ġsometime",
        -1.0
      ],
      [
        "raptor",
        -1.0
      ],
      [
        "ĠBalanced",
        -1.0
      ],
      [
        "Ġreabsorption",
        -1.0
      ],
      [
        "-tur",
        -1.0
      ],
      [
        "ĠRoles",
        -1.0
      ],
      [
        "ĠWizard",
        -1.0
      ],
      [
        "cord",
        -1.0
      ],
      [
        "atics",
        -1.0
      ],
      [
        "cG",
        -1.0
      ],
      [
        "ĠComplement",
        -1.0
      ],
      [
        "ĠKayak",
        -1.0
      ],
      [
        "ren",
        -1.0
      ],
      [
        "surgical",
        -1.0
      ],
      [
        "Ġlobster",
        -1.0
      ],
      [
        "Ġincoming",
        -1.0
      ],
      [
        "ĠVaccination",
        -1.0
      ],
      [
        "Ġcannibal",
        -1.0
      ],
      [
        "IZE",
        -1.0
      ],
      [
        "und",
        -1.0
      ],
      [
        "Coal",
        -1.0
      ],
      [
        "Ġslope",
        -1.0
      ],
      [
        "Precautions",
        -1.0
      ],
      [
        "ĠMechanism",
        -1.0
      ],
      [
        "Stephanie",
        -1.0
      ],
      [
        "Ġinsect",
        -1.0
      ],
      [
        "why",
        -1.0
      ],
      [
        "Ġroles",
        -1.0
      ],
      [
        "Ġsexual",
        -1.0
      ],
      [
        "Enhances",
        -1.0
      ],
      [
        "ĠFees",
        -1.0
      ],
      [
        "Ġpetunias",
        -1.0
      ],
      [
        "Ġimplementing",
        -1.0
      ],
      [
        "ĠNATO",
        -1.0
      ],
      [
        "Ġmisplaced",
        -1.0
      ],
      [
        "Ġinitials",
        -1.0
      ],
      [
        "intestinal",
        -1.0
      ],
      [
        "umed",
        -1.0
      ],
      [
        "Ġcuz",
        -1.0
      ],
      [
        "ĠTwist",
        -1.0
      ],
      [
        "Ġcp",
        -1.0
      ],
      [
        "'a",
        -1.0
      ],
      [
        "Ġbromeliads",
        -1.0
      ],
      [
        "ĠMob",
        -1.0
      ],
      [
        "Ġtamper",
        -1.0
      ],
      [
        "ĠStatue",
        -1.0
      ],
      [
        "easy",
        -1.0
      ],
      [
        "ĠBiggest",
        -1.0
      ],
      [
        "ĠMalawi",
        -1.0
      ],
      [
        "Ġsignals",
        -1.0
      ],
      [
        "ĠCreated",
        -1.0
      ],
      [
        "Ġceramics",
        -1.0
      ],
      [
        "Ġsubmerging",
        -1.0
      ],
      [
        "Ġreorgan",
        -1.0
      ],
      [
        "Ġdesigners",
        -1.0
      ],
      [
        "Sri",
        -1.0
      ],
      [
        "åł´åĲĪ",
        -1.0
      ],
      [
        "Ġbigger",
        -1.0
      ],
      [
        "ĠDep",
        -1.0
      ],
      [
        "Ġalluded",
        -1.0
      ],
      [
        "ĠWales",
        -1.0
      ],
      [
        "Ġbreakout",
        -1.0
      ],
      [
        "Ġinvolved",
        -1.0
      ],
      [
        "Ġlatitude",
        -1.0
      ],
      [
        "Ġesophageal",
        -1.0
      ],
      [
        "Ġquantify",
        -1.0
      ],
      [
        "Ġbad",
        -1.0
      ],
      [
        "Ġperforation",
        -1.0
      ],
      [
        "Ġorchestrated",
        -1.0
      ],
      [
        "ĠSOS",
        -1.0
      ],
      [
        "Ġpalette",
        -1.0
      ],
      [
        "Ġtroubling",
        -1.0
      ],
      [
        "ĠDavies",
        -1.0
      ],
      [
        "ĠAlley",
        -1.0
      ],
      [
        "Ġreduced",
        -1.0
      ],
      [
        "ĠRouter",
        -1.0
      ],
      [
        "ĠMendelian",
        -1.0
      ],
      [
        "Ġpuree",
        -1.0
      ],
      [
        "Ġarenas",
        -1.0
      ],
      [
        "Ġhorns",
        -1.0
      ],
      [
        "Lip",
        -1.0
      ],
      [
        "Ġpassenger",
        -1.0
      ],
      [
        "Ġchandelier",
        -1.0
      ],
      [
        "Ġhref",
        -1.0
      ],
      [
        "Ġfelling",
        -1.0
      ],
      [
        "Mulching",
        -1.0
      ],
      [
        "ĠHP",
        -1.0
      ],
      [
        "Ġbrainstem",
        -1.0
      ],
      [
        "Ġmoths",
        -1.0
      ],
      [
        "ĠLovers",
        -1.0
      ],
      [
        "Ġunwieldy",
        -1.0
      ],
      [
        "Ġthreads",
        -1.0
      ],
      [
        "Ensuring",
        -1.0
      ],
      [
        "fabric",
        -1.0
      ],
      [
        "ocaine",
        -1.0
      ],
      [
        "Ġhrs",
        -1.0
      ],
      [
        "Ġpyrethr",
        -1.0
      ],
      [
        "ĠMAR",
        -1.0
      ],
      [
        "Ġlured",
        -1.0
      ],
      [
        "ĠSynthetic",
        -1.0
      ],
      [
        "ĠADA",
        -1.0
      ],
      [
        "Ġthorium",
        -1.0
      ],
      [
        "Ġmanufacture",
        -1.0
      ],
      [
        "Ġadmin",
        -1.0
      ],
      [
        "Ġham",
        -1.0
      ],
      [
        "faith",
        -1.0
      ],
      [
        "Ġinterconnect",
        -1.0
      ],
      [
        "Ġhinge",
        -1.0
      ],
      [
        "Ġpollinated",
        -1.0
      ],
      [
        "ĠSalad",
        -1.0
      ],
      [
        "-sweetened",
        -1.0
      ],
      [
        "Ġejected",
        -1.0
      ],
      [
        "Ġapartment",
        -1.0
      ],
      [
        ".More",
        -1.0
      ],
      [
        "ĠMCT",
        -1.0
      ],
      [
        "ĠMILLION",
        -1.0
      ],
      [
        "@c",
        -1.0
      ],
      [
        "eastern",
        -1.0
      ],
      [
        "ĠCannot",
        -1.0
      ],
      [
        "ĠTransitions",
        -1.0
      ],
      [
        "ĠSticky",
        -1.0
      ],
      [
        "Ġtelescopic",
        -1.0
      ],
      [
        "Ġtransformed",
        -1.0
      ],
      [
        "Ġurea",
        -1.0
      ],
      [
        "Nine",
        -1.0
      ],
      [
        "Ġmatured",
        -1.0
      ],
      [
        "Laura",
        -1.0
      ],
      [
        "eye",
        -1.0
      ],
      [
        "ĠTutorials",
        -1.0
      ],
      [
        "76",
        -1.0
      ],
      [
        "Ġcapability",
        -1.0
      ],
      [
        "æĺİ",
        -1.0
      ],
      [
        "Ġdisastrous",
        -1.0
      ],
      [
        "love",
        -1.0
      ],
      [
        "ĠLatino",
        -1.0
      ],
      [
        "³",
        -1.0
      ],
      [
        "Ġposted",
        -1.0
      ],
      [
        "Ġlicensing",
        -1.0
      ],
      [
        "Ġproficiency",
        -1.0
      ],
      [
        "Ġaccountable",
        -1.0
      ],
      [
        "Ġradiotherapy",
        -1.0
      ],
      [
        "Ġtelecom",
        -1.0
      ],
      [
        "ĠAlf",
        -1.0
      ],
      [
        "Ġcarrying",
        -1.0
      ],
      [
        "Ġrestroom",
        -1.0
      ],
      [
        "Ġpaperwork",
        -1.0
      ],
      [
        "Ġperitoneum",
        -1.0
      ],
      [
        "Fruit",
        -1.0
      ],
      [
        "Ġtheoretical",
        -1.0
      ],
      [
        "-sugar",
        -1.0
      ],
      [
        "åİĭç¼©",
        -1.0
      ],
      [
        "Ġgastr",
        -1.0
      ],
      [
        "VR",
        -1.0
      ],
      [
        "ĠFCC",
        -1.0
      ],
      [
        "Ġarise",
        -1.0
      ],
      [
        "\"),",
        -1.0
      ],
      [
        "percent",
        -1.0
      ],
      [
        "ĠCR",
        -1.0
      ],
      [
        "Ġvibrate",
        -1.0
      ],
      [
        "ĠAmmo",
        -1.0
      ],
      [
        "Ġtriumphs",
        -1.0
      ],
      [
        "ĠWithdrawal",
        -1.0
      ],
      [
        "Ġprov",
        -1.0
      ],
      [
        "Playing",
        -1.0
      ],
      [
        "Ġpredicting",
        -1.0
      ],
      [
        "meters",
        -1.0
      ],
      [
        "natural",
        -1.0
      ],
      [
        "ĠMotivation",
        -1.0
      ],
      [
        "Ġtiniest",
        -1.0
      ],
      [
        "Ġlagoons",
        -1.0
      ],
      [
        "Probiotics",
        -1.0
      ],
      [
        "Ġpatron",
        -1.0
      ],
      [
        "Ġstalwart",
        -1.0
      ],
      [
        "starts",
        -1.0
      ],
      [
        "Ġprenatal",
        -1.0
      ],
      [
        "Ġcraz",
        -1.0
      ],
      [
        "Composite",
        -1.0
      ],
      [
        "Ġberry",
        -1.0
      ],
      [
        "Ġreductions",
        -1.0
      ],
      [
        "Ġgovern",
        -1.0
      ],
      [
        "Ġparabola",
        -1.0
      ],
      [
        "stimulation",
        -1.0
      ],
      [
        "Ġphotograph",
        -1.0
      ],
      [
        "Ġcardiologist",
        -1.0
      ],
      [
        "ija",
        -1.0
      ],
      [
        "Ġstd",
        -1.0
      ],
      [
        "-salt",
        -1.0
      ],
      [
        "ĠSphinx",
        -1.0
      ],
      [
        "preview",
        -1.0
      ],
      [
        "Ġresearches",
        -1.0
      ],
      [
        "ĠIMHO",
        -1.0
      ],
      [
        "Ġplus",
        -1.0
      ],
      [
        "Thick",
        -1.0
      ],
      [
        "ĠOptometry",
        -1.0
      ],
      [
        "ĠCW",
        -1.0
      ],
      [
        "ĠHy",
        -1.0
      ],
      [
        "Ġenerg",
        -1.0
      ],
      [
        "Christopher",
        -1.0
      ],
      [
        "Ġaeronautics",
        -1.0
      ],
      [
        "Ġyolks",
        -1.0
      ],
      [
        "Ġnighttime",
        -1.0
      ],
      [
        "Ġcreams",
        -1.0
      ],
      [
        "Ġhurts",
        -1.0
      ],
      [
        "\\$",
        -1.0
      ],
      [
        "ĠKerry",
        -1.0
      ],
      [
        "Ġhepato",
        -1.0
      ],
      [
        "odized",
        -1.0
      ],
      [
        "ĠMcCull",
        -1.0
      ],
      [
        "Ġrag",
        -1.0
      ],
      [
        "rado",
        -1.0
      ],
      [
        "xels",
        -1.0
      ],
      [
        "Ġsculpture",
        -1.0
      ],
      [
        "wires",
        -1.0
      ],
      [
        "ĠJust",
        -1.0
      ],
      [
        "-keeping",
        -1.0
      ],
      [
        "cha",
        -1.0
      ],
      [
        "-irr",
        -1.0
      ],
      [
        "Ġlifeguards",
        -1.0
      ],
      [
        "Ġcooperative",
        -1.0
      ],
      [
        ".]Ċ",
        -1.0
      ],
      [
        "ond",
        -1.0
      ],
      [
        "ĠKip",
        -1.0
      ],
      [
        "Ġcleanse",
        -1.0
      ],
      [
        "ĠBusinesses",
        -1.0
      ],
      [
        "wat",
        -1.0
      ],
      [
        "Ġkinesthetic",
        -1.0
      ],
      [
        "-v",
        -1.0
      ],
      [
        "ĠCross",
        -1.0
      ],
      [
        "Joe",
        -1.0
      ],
      [
        "Ġhol",
        -1.0
      ],
      [
        "button",
        -1.0
      ],
      [
        "Ġprioritise",
        -1.0
      ],
      [
        "ĠChia",
        -1.0
      ],
      [
        "Ã»",
        -1.0
      ],
      [
        "Ġpersona",
        -1.0
      ],
      [
        "os",
        -1.0
      ],
      [
        "ranging",
        -1.0
      ],
      [
        "sighted",
        -1.0
      ],
      [
        "Ġninety",
        -1.0
      ],
      [
        "Ġinbreeding",
        -1.0
      ],
      [
        "Ġshrimp",
        -1.0
      ],
      [
        "Ap",
        -1.0
      ],
      [
        "Ġtypo",
        -1.0
      ],
      [
        "eus",
        -1.0
      ],
      [
        "âĢĶand",
        -1.0
      ],
      [
        "Ġposture",
        -1.0
      ],
      [
        "Ġenclosing",
        -1.0
      ],
      [
        "Ġgovernor",
        -1.0
      ],
      [
        "Ġgreenhouse",
        -1.0
      ],
      [
        "Ġpegs",
        -1.0
      ],
      [
        "íķľ",
        -1.0
      ],
      [
        "rals",
        -1.0
      ],
      [
        "Ġpaper",
        -1.0
      ],
      [
        "Ġnasty",
        -1.0
      ],
      [
        "Ġswirl",
        -1.0
      ],
      [
        "Ġresemblance",
        -1.0
      ],
      [
        "speed",
        -1.0
      ],
      [
        "ĠSTD",
        -1.0
      ],
      [
        "lau",
        -1.0
      ],
      [
        "geon",
        -1.0
      ],
      [
        "-shot",
        -1.0
      ],
      [
        "Ġanalytic",
        -1.0
      ],
      [
        "Ġcondenser",
        -1.0
      ],
      [
        "Ġwatercraft",
        -1.0
      ],
      [
        "Ġmidday",
        -1.0
      ],
      [
        "Ġfrequented",
        -1.0
      ],
      [
        "Ġgeological",
        -1.0
      ],
      [
        "Ġmetaphor",
        -1.0
      ],
      [
        "Ġreceptor",
        -1.0
      ],
      [
        "Ġstunted",
        -1.0
      ],
      [
        "ĠMood",
        -1.0
      ],
      [
        "Ġcentrifuge",
        -1.0
      ],
      [
        "&A",
        -1.0
      ],
      [
        "Ġmassless",
        -1.0
      ],
      [
        "rty",
        -1.0
      ],
      [
        "ban",
        -1.0
      ],
      [
        "Ġautumn",
        -1.0
      ],
      [
        "Ġrevel",
        -1.0
      ],
      [
        "Ġprobes",
        -1.0
      ],
      [
        "Ġfootball",
        -1.0
      ],
      [
        "Ġsoon",
        -1.0
      ],
      [
        "Ġhectare",
        -1.0
      ],
      [
        ",n",
        -1.0
      ],
      [
        "Ġnegativity",
        -1.0
      ],
      [
        "68",
        -1.0
      ],
      [
        "ĠBio",
        -1.0
      ],
      [
        "ssa",
        -1.0
      ],
      [
        "Ġbrush",
        -1.0
      ],
      [
        "Ġwholesalers",
        -1.0
      ],
      [
        "Ġtopic",
        -1.0
      ],
      [
        "Ġmonitoring",
        -1.0
      ],
      [
        "ĠWeek",
        -1.0
      ],
      [
        "Ġsmiling",
        -1.0
      ],
      [
        "Ġnocturnal",
        -1.0
      ],
      [
        "ĠIRA",
        -1.0
      ],
      [
        "LinkedIn",
        -1.0
      ],
      [
        "ĠMagnet",
        -1.0
      ],
      [
        "ĠAdaptation",
        -1.0
      ],
      [
        "ĠCatalytic",
        -1.0
      ],
      [
        "ĠSwedish",
        -1.0
      ],
      [
        "Ġterrifying",
        -1.0
      ],
      [
        "ĠCoat",
        -1.0
      ],
      [
        "far",
        -1.0
      ],
      [
        "Ġdives",
        -1.0
      ],
      [
        "xan",
        -1.0
      ],
      [
        "!'",
        -1.0
      ],
      [
        "Ġpinna",
        -1.0
      ],
      [
        "Ġhd",
        -1.0
      ],
      [
        "ĠNoodles",
        -1.0
      ],
      [
        "ĠOswego",
        -1.0
      ],
      [
        "ĠObjects",
        -1.0
      ],
      [
        "shock",
        -1.0
      ],
      [
        "ĠAusten",
        -1.0
      ],
      [
        "-taught",
        -1.0
      ],
      [
        "Ġstudies",
        -1.0
      ],
      [
        "Ġphantom",
        -1.0
      ],
      [
        "TRIC",
        -1.0
      ],
      [
        "Ġtransitions",
        -1.0
      ],
      [
        "Ġmicrochip",
        -1.0
      ],
      [
        "Ġshim",
        -1.0
      ],
      [
        "\\\"",
        -1.0
      ],
      [
        ",t",
        -1.0
      ],
      [
        "Ġfenestra",
        -1.0
      ],
      [
        "Ġtributaries",
        -1.0
      ],
      [
        "ĠParr",
        -1.0
      ],
      [
        "Ġtransmitting",
        -1.0
      ],
      [
        "Ġcampfire",
        -1.0
      ],
      [
        "/data",
        -1.0
      ],
      [
        "Expected",
        -1.0
      ],
      [
        "ãĥ«",
        -1.0
      ],
      [
        "Ġyouth",
        -1.0
      ],
      [
        "-neutral",
        -1.0
      ],
      [
        "Ġfactions",
        -1.0
      ],
      [
        "Ġhumane",
        -1.0
      ],
      [
        "\\,",
        -1.0
      ],
      [
        "ĠAQ",
        -1.0
      ],
      [
        "Ġslim",
        -1.0
      ],
      [
        "educational",
        -1.0
      ],
      [
        "aai",
        -1.0
      ],
      [
        "Ġillegitimate",
        -1.0
      ],
      [
        "Ġsadness",
        -1.0
      ],
      [
        "Heading",
        -1.0
      ],
      [
        "GUI",
        -1.0
      ],
      [
        "Ġowners",
        -1.0
      ],
      [
        "Ġderivative",
        -1.0
      ],
      [
        "Ġtampon",
        -1.0
      ],
      [
        "uria",
        -1.0
      ],
      [
        "Ġyen",
        -1.0
      ],
      [
        "Ġrepeats",
        -1.0
      ],
      [
        "...\"ĊĊ",
        -1.0
      ],
      [
        "Ġback",
        -1.0
      ],
      [
        "Ġupgrading",
        -1.0
      ],
      [
        "Ġturret",
        -1.0
      ],
      [
        "ĠConnor",
        -1.0
      ],
      [
        "Processing",
        -1.0
      ],
      [
        "Ġherbivore",
        -1.0
      ],
      [
        "modo",
        -1.0
      ],
      [
        "Ġfatality",
        -1.0
      ],
      [
        "wo",
        -1.0
      ],
      [
        "Necessary",
        -1.0
      ],
      [
        "cW",
        -1.0
      ],
      [
        "Genes",
        -1.0
      ],
      [
        "Ġprohibited",
        -1.0
      ],
      [
        "Buffer",
        -1.0
      ],
      [
        "Ġsurgeons",
        -1.0
      ],
      [
        "ĠDelta",
        -1.0
      ],
      [
        "ĠAttendees",
        -1.0
      ],
      [
        "ĠCarpet",
        -1.0
      ],
      [
        "glow",
        -1.0
      ],
      [
        "+",
        -1.0
      ],
      [
        "Ġparsnip",
        -1.0
      ],
      [
        "Ġstakes",
        -1.0
      ],
      [
        "cases",
        -1.0
      ],
      [
        "Ġconsciously",
        -1.0
      ],
      [
        "minology",
        -1.0
      ],
      [
        "Before",
        -1.0
      ],
      [
        "ffi",
        -1.0
      ],
      [
        "Ġinsoluble",
        -1.0
      ],
      [
        "Ġnavigation",
        -1.0
      ],
      [
        "com",
        -1.0
      ],
      [
        "Ġvogue",
        -1.0
      ],
      [
        "Ġsau",
        -1.0
      ],
      [
        "}[/",
        -1.0
      ],
      [
        "Ġecosystems",
        -1.0
      ],
      [
        ".They",
        -1.0
      ],
      [
        "Metabolic",
        -1.0
      ],
      [
        "Ġgenus",
        -1.0
      ],
      [
        "ĠCabinet",
        -1.0
      ],
      [
        "Ġcontestants",
        -1.0
      ],
      [
        "Ġheartworm",
        -1.0
      ],
      [
        "amethox",
        -1.0
      ],
      [
        "Ġderivation",
        -1.0
      ],
      [
        "wa",
        -1.0
      ],
      [
        "Ġshitty",
        -1.0
      ],
      [
        "ĠScottish",
        -1.0
      ],
      [
        "âĢľI",
        -1.0
      ],
      [
        "Äģn",
        -1.0
      ],
      [
        "ĠYoruba",
        -1.0
      ],
      [
        "Ġcharms",
        -1.0
      ],
      [
        "Ġnaturalized",
        -1.0
      ],
      [
        "Ġsubcontinent",
        -1.0
      ],
      [
        "Ġhooves",
        -1.0
      ],
      [
        "ROS",
        -1.0
      ],
      [
        "ĠProcurement",
        -1.0
      ],
      [
        "iley",
        -1.0
      ],
      [
        "ĠÑĤ",
        -1.0
      ],
      [
        "ĠPit",
        -1.0
      ],
      [
        "Included",
        -1.0
      ],
      [
        "Ġtwisting",
        -1.0
      ],
      [
        "upe",
        -1.0
      ],
      [
        "Ġcosmo",
        -1.0
      ],
      [
        "ĠSometimes",
        -1.0
      ],
      [
        "Ġbuttery",
        -1.0
      ],
      [
        "ĠWhitening",
        -1.0
      ],
      [
        "ĠPis",
        -1.0
      ],
      [
        "Ġlocate",
        -1.0
      ],
      [
        "ĠHeidi",
        -1.0
      ],
      [
        "Ġpriorities",
        -1.0
      ],
      [
        "icum",
        -1.0
      ],
      [
        "Lawrence",
        -1.0
      ],
      [
        "Ġjo",
        -1.0
      ],
      [
        "Ġcog",
        -1.0
      ],
      [
        "Ġembargo",
        -1.0
      ],
      [
        "Angel",
        -1.0
      ],
      [
        "Ġmetronome",
        -1.0
      ],
      [
        "Ġgifted",
        -1.0
      ],
      [
        "Ġamused",
        -1.0
      ],
      [
        "sson",
        -1.0
      ],
      [
        "FIN",
        -1.0
      ],
      [
        "ĠCock",
        -1.0
      ],
      [
        "Gun",
        -1.0
      ],
      [
        "Ġvacation",
        -1.0
      ],
      [
        "ĠFeeding",
        -1.0
      ],
      [
        "-part",
        -1.0
      ],
      [
        "LB",
        -1.0
      ],
      [
        "ĠTalks",
        -1.0
      ],
      [
        "potassium",
        -1.0
      ],
      [
        "???Ċ",
        -1.0
      ],
      [
        "Process",
        -1.0
      ],
      [
        "restricted",
        -1.0
      ],
      [
        "Ġsummon",
        -1.0
      ],
      [
        "ĠMaterial",
        -1.0
      ],
      [
        "Ġï¿½",
        -1.0
      ],
      [
        "Ġcompromising",
        -1.0
      ],
      [
        "ĠKine",
        -1.0
      ],
      [
        "Sne",
        -1.0
      ],
      [
        "-c",
        -1.0
      ],
      [
        "former",
        -1.0
      ],
      [
        "Ġpies",
        -1.0
      ],
      [
        "ĠFluids",
        -1.0
      ],
      [
        "Ġcandies",
        -1.0
      ],
      [
        "-Hodgkin",
        -1.0
      ],
      [
        "\"âĢĶ",
        -1.0
      ],
      [
        "Ġunh",
        -1.0
      ],
      [
        "Ġswimsuit",
        -1.0
      ],
      [
        "Bamboo",
        -1.0
      ],
      [
        "Quar",
        -1.0
      ],
      [
        "Å¾",
        -1.0
      ],
      [
        "ĠCampus",
        -1.0
      ],
      [
        "ĠEducation",
        -1.0
      ],
      [
        "quar",
        -1.0
      ],
      [
        "quisite",
        -1.0
      ],
      [
        "Adams",
        -1.0
      ],
      [
        "ĠVAR",
        -1.0
      ],
      [
        "Ġfascinated",
        -1.0
      ],
      [
        "Ġalienation",
        -1.0
      ],
      [
        "Ġbiologically",
        -1.0
      ],
      [
        "after",
        -1.0
      ],
      [
        "Ġductwork",
        -1.0
      ],
      [
        "Cord",
        -1.0
      ],
      [
        "ĠMonster",
        -1.0
      ],
      [
        "-species",
        -1.0
      ],
      [
        "ASS",
        -1.0
      ],
      [
        "ĠVernon",
        -1.0
      ],
      [
        "cr",
        -1.0
      ],
      [
        "-rings",
        -1.0
      ],
      [
        "Ġopossum",
        -1.0
      ],
      [
        "nase",
        -1.0
      ],
      [
        "journal",
        -1.0
      ],
      [
        "Ġunused",
        -1.0
      ],
      [
        "Ġcontiguous",
        -1.0
      ],
[...]
