{
  "version": "1.0",
  "truncation": null,
  "padding": null,
  "added_tokens": [
    {
      "id": 0,
      "content": "[UNK]",
      "single_word": false,
      "lstrip": false,
      "rstrip": false,
      "normalized": false,
      "special": true
    },
    {
      "id": 1,
      "content": "endoftextbehere",
      "single_word": false,
      "lstrip": false,
      "rstrip": false,
      "normalized": false,
      "special": true
    }
  ],
  "normalizer": null,
  "pre_tokenizer": {
    "type": "ByteLevel",
    "add_prefix_space": false,
    "trim_offsets": true,
    "use_regex": true
  },
  "post_processor": null,
  "decoder": null,
  "model": {
    "type": "Unigram",
    "unk_id": null,
    "vocab": [
      [
        "[UNK]",
        -1.0
      ],
      [
        "endoftextbehere",
        -1.0
      ],
      [
        "med",
        -1.0
      ],
      [
        "mark",
        -1.0
      ],
      [
        "Ġ[",
        -1.0
      ],
      [
        "Ġsolution",
        -1.0
      ],
      [
        "Ġbillion",
        -1.0
      ],
      [
        "Ġjust",
        -1.0
      ],
      [
        "Ġconstitu",
        -1.0
      ],
      [
        "ĠCl",
        -1.0
      ],
      [
        "Ġideas",
        -1.0
      ],
      [
        "Ġgrowth",
        -1.0
      ],
      [
        "Ġis",
        -1.0
      ],
      [
        "Ġdistance",
        -1.0
      ],
      [
        "ah",
        -1.0
      ],
      [
        "R",
        -1.0
      ],
      [
        "tter",
        -1.0
      ],
      [
        "Ġstarted",
        -1.0
      ],
      [
        "Ġmoral",
        -1.0
      ],
      [
        "op",
        -1.0
      ],
      [
        "ĠIsrael",
        -1.0
      ],
      [
        "Ġtumor",
        -1.0
      ],
      [
        "lling",
        -1.0
      ],
      [
        "N",
        -1.0
      ],
      [
        "Ġmedical",
        -1.0
      ],
      [
        "Ġdrink",
        -1.0
      ],
      [
        "There",
        -1.0
      ],
      [
        "Ġbody",
        -1.0
      ],
      [
        "Ġcitizens",
        -1.0
      ],
      [
        "sa",
        -1.0
      ],
      [
        "Ġpoint",
        -1.0
      ],
      [
        "ĠLi",
        -1.0
      ],
      [
        "he",
        -1.0
      ],
      [
        "Ġproportion",
        -1.0
      ],
      [
        "Ġcompet",
        -1.0
      ],
      [
        "ass",
        -1.0
      ],
      [
        "Ġcomplex",
        -1.0
      ],
      [
        "Ġdetermin",
        -1.0
      ],
      [
        "Ġscience",
        -1.0
      ],
      [
        "ax",
        -1.0
      ],
      [
        "sen",
        -1.0
      ],
      [
        "ĠBe",
        -1.0
      ],
      [
        "ĠJuly",
        -1.0
      ],
      [
        "als",
        -1.0
      ],
      [
        "Ġlost",
        -1.0
      ],
      [
        "Ġcur",
        -1.0
      ],
      [
        "based",
        -1.0
      ],
      [
        "Ġproduction",
        -1.0
      ],
      [
        "Ġprotect",
        -1.0
      ],
      [
        "Ġweek",
        -1.0
      ],
      [
        "Ġby",
        -1.0
      ],
      [
        "Ġterm",
        -1.0
      ],
      [
        "Ġroom",
        -1.0
      ],
      [
        "Ã©",
        -1.0
      ],
      [
        "Ġ",
        -1.0
      ],
      [
        "ble",
        -1.0
      ],
      [
        "ock",
        -1.0
      ],
      [
        "°",
        -1.0
      ],
      [
        "Ö",
        -1.0
      ],
      [
        "Ġemphas",
        -1.0
      ],
      [
        "AT",
        -1.0
      ],
      [
        "Ġeduc",
        -1.0
      ],
      [
        "Ġdomin",
        -1.0
      ],
      [
        "Ġqu",
        -1.0
      ],
      [
        "oy",
        -1.0
      ],
      [
        "Ü",
        -1.0
      ],
      [
        "Ġcurrently",
        -1.0
      ],
      [
        "Ġsame",
        -1.0
      ],
      [
        "Ġfully",
        -1.0
      ],
      [
        "ction",
        -1.0
      ],
      [
        "ĠTr",
        -1.0
      ],
      [
        "Ġri",
        -1.0
      ],
      [
        "20",
        -1.0
      ],
      [
        "Ġorganizations",
        -1.0
      ],
      [
        "Ġrefer",
        -1.0
      ],
      [
        "Ġservices",
        -1.0
      ],
      [
        "Ġresearch",
        -1.0
      ],
      [
        "Ġconsume",
        -1.0
      ],
      [
        "Ġcirc",
        -1.0
      ],
      [
        "Ġoriginal",
        -1.0
      ],
      [
        "Ġbook",
        -1.0
      ],
      [
        "Ġbelieve",
        -1.0
      ],
      [
        "Ġwell",
        -1.0
      ],
      [
        "aly",
        -1.0
      ],
      [
        "Ġtemperature",
        -1.0
      ],
      [
        "ĠJohn",
        -1.0
      ],
      [
        "ver",
        -1.0
      ],
      [
        "Ġcustom",
        -1.0
      ],
      [
        "Ġlocal",
        -1.0
      ],
      [
        "Ġdaughter",
        -1.0
      ],
      [
        "Ġcrystal",
        -1.0
      ],
      [
        "fl",
        -1.0
      ],
      [
        "Ġfol",
        -1.0
      ],
      [
        "Ġstage",
        -1.0
      ],
      [
        "Ġcli",
        -1.0
      ],
      [
        "ments",
        -1.0
      ],
      [
        "Ġeither",
        -1.0
      ],
      [
        "Ġidentify",
        -1.0
      ],
      [
        "34",
        -1.0
      ],
      [
        "10",
        -1.0
      ],
      [
        "ong",
        -1.0
      ],
      [
        "back",
        -1.0
      ],
      [
        "Ġplatform",
        -1.0
      ],
      [
        "f",
        -1.0
      ],
      [
        "Ġcandidate",
        -1.0
      ],
      [
        "Ġancient",
        -1.0
      ],
      [
        "Ġmale",
        -1.0
      ],
      [
        "Ġreligion",
        -1.0
      ],
      [
        "ĠCanada",
        -1.0
      ],
      [
        "Ġas",
        -1.0
      ],
      [
        "Ġ196",
        -1.0
      ],
      [
        "Ġ16",
        -1.0
      ],
      [
        "ability",
        -1.0
      ],
      [
        "und",
        -1.0
      ],
      [
        "tin",
        -1.0
      ],
      [
        "Ġeating",
        -1.0
      ],
      [
        "Ġcertain",
        -1.0
      ],
      [
        "Ġtext",
        -1.0
      ],
      [
        "Ġcom",
        -1.0
      ],
      [
        "AIDS",
        -1.0
      ],
      [
        "Ġdel",
        -1.0
      ],
      [
        "ĠW",
        -1.0
      ],
      [
        "ĠAlzheimer",
        -1.0
      ],
      [
        "ĠMinnesota",
        -1.0
      ],
      [
        "ĠJapanese",
        -1.0
      ],
      [
        "here",
        -1.0
      ],
      [
        "lic",
        -1.0
      ],
      [
        "ĠSy",
        -1.0
      ],
      [
        "Ġwith",
        -1.0
      ],
      [
        "ĠAgricultur",
        -1.0
      ],
      [
        "Ġrace",
        -1.0
      ],
      [
        "Ġpiece",
        -1.0
      ],
      [
        "Ĥ",
        -1.0
      ],
      [
        "ĠWashington",
        -1.0
      ],
      [
        "ĥ",
        -1.0
      ],
      [
        "bs",
        -1.0
      ],
      [
        "Ġcoast",
        -1.0
      ],
      [
        "B",
        -1.0
      ],
      [
        "ĠSw",
        -1.0
      ],
      [
        "example",
        -1.0
      ],
      [
        "Ġslave",
        -1.0
      ],
      [
        "Ġisn",
        -1.0
      ],
      [
        "Ġofficial",
        -1.0
      ],
      [
        "Ġperfect",
        -1.0
      ],
      [
        "Ġbase",
        -1.0
      ],
      [
        "ĠBer",
        -1.0
      ],
      [
        "ries",
        -1.0
      ],
      [
        "Ġsens",
        -1.0
      ],
      [
        "where",
        -1.0
      ],
      [
        "cial",
        -1.0
      ],
      [
        "Ġupper",
        -1.0
      ],
      [
        "ĠRobert",
        -1.0
      ],
      [
        "come",
        -1.0
      ],
      [
        "els",
        -1.0
      ],
      [
        "Ġsuggests",
        -1.0
      ],
      [
        "Ġeveryone",
        -1.0
      ],
      [
        "Ġgovern",
        -1.0
      ],
      [
        "ize",
        -1.0
      ],
      [
        "Ġsecure",
        -1.0
      ],
      [
        "ba",
        -1.0
      ],
      [
        "Ġavoid",
        -1.0
      ],
      [
        "Because",
        -1.0
      ],
      [
        "ĠBo",
        -1.0
      ],
      [
        "Ġhun",
        -1.0
      ],
      [
        "Ġdefe",
        -1.0
      ],
      [
        "Ġbio",
        -1.0
      ],
      [
        "Ġiniti",
        -1.0
      ],
      [
        ",âĢĿ",
        -1.0
      ],
      [
        "ĠIllinois",
        -1.0
      ],
      [
        "Ġphotograph",
        -1.0
      ],
      [
        "Ġsix",
        -1.0
      ],
      [
        "gs",
        -1.0
      ],
      [
        "Ġ...",
        -1.0
      ],
      [
        "Ġ2012",
        -1.0
      ],
      [
        "Ġattention",
        -1.0
      ],
      [
        "Ġunits",
        -1.0
      ],
      [
        "ĠLaw",
        -1.0
      ],
      [
        "os",
        -1.0
      ],
      [
        "Ġident",
        -1.0
      ],
      [
        "aging",
        -1.0
      ],
      [
        "Ġcl",
        -1.0
      ],
      [
        "Ġstraight",
        -1.0
      ],
      [
        "Ġ0",
        -1.0
      ],
      [
        "Ġplan",
        -1.0
      ],
      [
        "Ġcenturies",
        -1.0
      ],
      [
        "Ġresponsibility",
        -1.0
      ],
      [
        "Ġtherefore",
        -1.0
      ],
      [
        "iling",
        -1.0
      ],
      [
        "AR",
        -1.0
      ],
      [
        "Ĵ",
        -1.0
      ],
      [
        "ining",
        -1.0
      ],
      [
        "ters",
        -1.0
      ],
      [
        "ser",
        -1.0
      ],
      [
        "33",
        -1.0
      ],
      [
        "ators",
        -1.0
      ],
      [
        "16",
        -1.0
      ],
      [
        "Ġsignal",
        -1.0
      ],
      [
        "ber",
        -1.0
      ],
      [
        "Ġdisorder",
        -1.0
      ],
      [
        "Ġprotein",
        -1.0
      ],
      [
        "Ġmuch",
        -1.0
      ],
      [
        "Ġcamp",
        -1.0
      ],
      [
        "Ġinstitutions",
        -1.0
      ],
      [
        "Ġactive",
        -1.0
      ],
      [
        "Ġgold",
        -1.0
      ],
      [
        "Ġcommunities",
        -1.0
      ],
      [
        "Ġforest",
        -1.0
      ],
      [
        "Ġplanet",
        -1.0
      ],
      [
        "Ġneither",
        -1.0
      ],
      [
        "Ġradiation",
        -1.0
      ],
      [
        "Ġman",
        -1.0
      ],
      [
        "Ġbeyond",
        -1.0
      ],
      [
        "Ġscientists",
        -1.0
      ],
      [
        "Ġstructures",
        -1.0
      ],
      [
        "Ġgrowing",
        -1.0
      ],
      [
        "yc",
        -1.0
      ],
      [
        ":",
        -1.0
      ],
      [
        "Ġacqui",
        -1.0
      ],
      [
        "A",
        -1.0
      ],
      [
        "ĠBook",
        -1.0
      ],
      [
        "ook",
        -1.0
      ],
      [
        "Ġet",
        -1.0
      ],
      [
        "ĠLe",
        -1.0
      ],
      [
        "ext",
        -1.0
      ],
      [
        "Ġend",
        -1.0
      ],
      [
        "ices",
        -1.0
      ],
      [
        "ĠDevelopment",
        -1.0
      ],
      [
        "Ġmeasures",
        -1.0
      ],
      [
        "ame",
        -1.0
      ],
      [
        "Ġrestrict",
        -1.0
      ],
      [
        "Ġconduct",
        -1.0
      ],
      [
        "Ġparticles",
        -1.0
      ],
      [
        "po",
        -1.0
      ],
      [
        "Ġabandon",
        -1.0
      ],
      [
        "sive",
        -1.0
      ],
      [
        "abilities",
        -1.0
      ],
      [
        "Ġworks",
        -1.0
      ],
      [
        "Ġchief",
        -1.0
      ],
      [
        "Ġallowed",
        -1.0
      ],
      [
        "Ġoff",
        -1.0
      ],
      [
        "Ġpilot",
        -1.0
      ],
      [
        "ĠCan",
        -1.0
      ],
      [
        "Ġfire",
        -1.0
      ],
      [
        "ĠNavy",
        -1.0
      ],
      [
        "Ġsto",
        -1.0
      ],
      [
        "Ġvehicle",
        -1.0
      ],
      [
        "con",
        -1.0
      ],
      [
        "ĠEgypt",
        -1.0
      ],
      [
        "Ħ",
        -1.0
      ],
      [
        "k",
        -1.0
      ],
      [
        "Ġupon",
        -1.0
      ],
      [
        "Ġdev",
        -1.0
      ],
      [
        "ĠEv",
        -1.0
      ],
      [
        "ĠRes",
        -1.0
      ],
      [
        "Ġeast",
        -1.0
      ],
      [
        "Ġourselves",
        -1.0
      ],
      [
        "Please",
        -1.0
      ],
      [
        "Ġfunctions",
        -1.0
      ],
      [
        "Ġinput",
        -1.0
      ],
      [
        "ary",
        -1.0
      ],
      [
        "gn",
        -1.0
      ],
      [
        "Ġorbit",
        -1.0
      ],
      [
        "ĠNew",
        -1.0
      ],
      [
        "Ġmeeting",
        -1.0
      ],
      [
        "Ġ2",
        -1.0
      ],
      [
        "Ġescape",
        -1.0
      ],
      [
        "view",
        -1.0
      ],
      [
        "Ġintellig",
        -1.0
      ],
      [
        "Ġadministrat",
        -1.0
      ],
      [
        "cl",
        -1.0
      ],
      [
        "ity",
        -1.0
      ],
      [
        "Ġsucceed",
        -1.0
      ],
      [
        "Ġel",
        -1.0
      ],
      [
        "Ġopinion",
        -1.0
      ],
      [
        "wards",
        -1.0
      ],
      [
        "including",
        -1.0
      ],
      [
        "Ġind",
        -1.0
      ],
      [
        "ĠChurch",
        -1.0
      ],
      [
        "ĠHealth",
        -1.0
      ],
      [
        "Ġadopt",
        -1.0
      ],
      [
        "Ġquant",
        -1.0
      ],
      [
        "ĠCongress",
        -1.0
      ],
      [
        "ĠSea",
        -1.0
      ],
      [
        "Ġcloth",
        -1.0
      ],
      [
        "ff",
        -1.0
      ],
      [
        "Ġpoli",
        -1.0
      ],
      [
        "Ġanalysis",
        -1.0
      ],
      [
        "ĠRa",
        -1.0
      ],
      [
        "Ġ&",
        -1.0
      ],
      [
        "Ġsearch",
        -1.0
      ],
      [
        "26",
        -1.0
      ],
      [
        "sts",
        -1.0
      ],
      [
        "ĉ",
        -1.0
      ],
      [
        "so",
        -1.0
      ],
      [
        "Ġor",
        -1.0
      ],
      [
        "Ġbur",
        -1.0
      ],
      [
        "Ġstill",
        -1.0
      ],
      [
        "Ġability",
        -1.0
      ],
      [
        "Ġsouthern",
        -1.0
      ],
      [
        "a",
        -1.0
      ],
      [
        "Ġdoes",
        -1.0
      ],
      [
        "ĠEast",
        -1.0
      ],
      [
        "Ġoutside",
        -1.0
      ],
      [
        "Ġ:",
        -1.0
      ],
      [
        "aries",
        -1.0
      ],
      [
        "Ġprint",
        -1.0
      ],
      [
        "ĠStud",
        -1.0
      ],
      [
        "Ġwithout",
        -1.0
      ],
      [
        "Å",
        -1.0
      ],
      [
        "lm",
        -1.0
      ],
      [
        "Ġregions",
        -1.0
      ],
      [
        "ham",
        -1.0
      ],
      [
        "ĠK",
        -1.0
      ],
      [
        "Ġreached",
        -1.0
      ],
      [
        "gic",
        -1.0
      ],
      [
        "ae",
        -1.0
      ],
      [
        "Ġfields",
        -1.0
      ],
      [
        "tting",
        -1.0
      ],
      [
        "ely",
        -1.0
      ],
      [
        "¨",
        -1.0
      ],
      [
        "ĠMc",
        -1.0
      ],
      [
        "Ġlimited",
        -1.0
      ],
      [
        "Ġthen",
        -1.0
      ],
      [
        "Ġdevelopment",
        -1.0
      ],
      [
        "Ġinstead",
        -1.0
      ],
      [
        "Ġhistory",
        -1.0
      ],
      [
        "Ġimpact",
        -1.0
      ],
      [
        "ference",
        -1.0
      ],
      [
        "nding",
        -1.0
      ],
      [
        "ĠPla",
        -1.0
      ],
      [
        "igh",
        -1.0
      ],
      [
        "An",
        -1.0
      ],
      [
        "«",
        -1.0
      ],
      [
        "®",
        -1.0
      ],
      [
        "Ġdeliver",
        -1.0
      ],
      [
        "Ġfreedom",
        -1.0
      ],
      [
        "Ġval",
        -1.0
      ],
      [
        "Ġacid",
        -1.0
      ],
      [
        "Ġcool",
        -1.0
      ],
      [
        "4",
        -1.0
      ],
      [
        "Ġ23",
        -1.0
      ],
      [
        "Ġpossible",
        -1.0
      ],
      [
        "sion",
        -1.0
      ],
      [
        "Ġwhose",
        -1.0
      ],
      [
        "è",
        -1.0
      ],
      [
        "Ġsoil",
        -1.0
      ],
      [
        "Ġconsist",
        -1.0
      ],
      [
        "sing",
        -1.0
      ],
      [
        "All",
        -1.0
      ],
      [
        "Ġcame",
        -1.0
      ],
      [
        "ĠSystem",
        -1.0
      ],
      [
        "Ġindustrial",
        -1.0
      ],
      [
        "Ġdeb",
        -1.0
      ],
      [
        "www",
        -1.0
      ],
      [
        "itis",
        -1.0
      ],
      [
        "wo",
        -1.0
      ],
      [
        "ian",
        -1.0
      ],
      [
        "pu",
        -1.0
      ],
      [
        "ī",
        -1.0
      ],
      [
        "water",
        -1.0
      ],
      [
        "Ġhis",
        -1.0
      ],
      [
        "Ġhimself",
        -1.0
      ],
      [
        "Ġbehaviour",
        -1.0
      ],
      [
        "duction",
        -1.0
      ],
      [
        "min",
        -1.0
      ],
      [
        "Ð",
        -1.0
      ],
      [
        "Ġequipment",
        -1.0
      ],
      [
        "ĠPresident",
        -1.0
      ],
      [
        "Ġsource",
        -1.0
      ],
      [
        "Ġsubject",
        -1.0
      ],
      [
        "ce",
        -1.0
      ],
      [
        "ĠIreland",
        -1.0
      ],
      [
        "Ġforeign",
        -1.0
      ],
      [
        "Ġearth",
        -1.0
      ],
      [
        "Ġancest",
        -1.0
      ],
      [
        "While",
        -1.0
      ],
      [
        "x",
        -1.0
      ],
      [
        "Ġeconomic",
        -1.0
      ],
      [
        "ow",
        -1.0
      ],
      [
        "ĠUse",
        -1.0
      ],
      [
        "Ġspirit",
        -1.0
      ],
      [
        "pp",
        -1.0
      ],
      [
        "@",
        -1.0
      ],
      [
        "Ġones",
        -1.0
      ],
      [
        "ĠMuslim",
        -1.0
      ],
      [
        "ist",
        -1.0
      ],
      [
        "Ġmonth",
        -1.0
      ],
      [
        "ĠPort",
        -1.0
      ],
      [
        "or",
        -1.0
      ],
      [
        "ĠJa",
        -1.0
      ],
      [
        "ec",
        -1.0
      ],
      [
        "ange",
        -1.0
      ],
      [
        "late",
        -1.0
      ],
      [
        "ĠAp",
        -1.0
      ],
      [
        "Ġage",
        -1.0
      ],
      [
        "den",
        -1.0
      ],
      [
        "Ġattack",
        -1.0
      ],
      [
        "Ġsupply",
        -1.0
      ],
      [
        "ĠWomen",
        -1.0
      ],
      [
        "Pr",
        -1.0
      ],
      [
        "iting",
        -1.0
      ],
      [
        "Ġher",
        -1.0
      ],
      [
        "Ġside",
        -1.0
      ],
      [
        "Ġmoved",
        -1.0
      ],
      [
        "ª",
        -1.0
      ],
      [
        "Ġpolicy",
        -1.0
      ],
      [
        "Ġbl",
        -1.0
      ],
      [
        "Ġconstruction",
        -1.0
      ],
      [
        "Ġthough",
        -1.0
      ],
      [
        "Ġwalk",
        -1.0
      ],
      [
        "Ġsense",
        -1.0
      ],
      [
        "Ġask",
        -1.0
      ],
      [
        "ĠRe",
        -1.0
      ],
      [
        "Ġnewspaper",
        -1.0
      ],
      [
        "Ġwinter",
        -1.0
      ],
      [
        "ery",
        -1.0
      ],
      [
        "istic",
        -1.0
      ],
      [
        "Ġrates",
        -1.0
      ],
      [
        "Ġolder",
        -1.0
      ],
      [
        "Ġthat",
        -1.0
      ],
      [
        "shop",
        -1.0
      ],
      [
        "Ġsolar",
        -1.0
      ],
      [
        "ĠM",
        -1.0
      ],
      [
        "hy",
        -1.0
      ],
      [
        "arm",
        -1.0
      ],
      [
        "Ġfor",
        -1.0
      ],
      [
        "west",
        -1.0
      ],
      [
        "wide",
        -1.0
      ],
      [
        "Ġefforts",
        -1.0
      ],
      [
        "Ġproduced",
        -1.0
      ],
      [
        "Ġrules",
        -1.0
      ],
      [
        "¤",
        -1.0
      ],
      [
        "ind",
        -1.0
      ],
      [
        "Ġcomputer",
        -1.0
      ],
      [
        "Ġdiseases",
        -1.0
      ],
      [
        ";",
        -1.0
      ],
      [
        "Ġpower",
        -1.0
      ],
      [
        "Ġpara",
        -1.0
      ],
      [
        "Ġvol",
        -1.0
      ],
      [
        "Ġindex",
        -1.0
      ],
      [
        "ĠOther",
        -1.0
      ],
      [
        "ĠMichael",
        -1.0
      ],
      [
        "American",
        -1.0
      ],
      [
        "Ġthem",
        -1.0
      ],
      [
        "Ġsurpr",
        -1.0
      ],
      [
        "ĠMed",
        -1.0
      ],
      [
        "Ġstyle",
        -1.0
      ],
      [
        "ĠTy",
        -1.0
      ],
      [
        "ying",
        -1.0
      ],
      [
        "After",
        -1.0
      ],
      [
        "gov",
        -1.0
      ],
      [
        "Ġshort",
        -1.0
      ],
      [
        "Ġnew",
        -1.0
      ],
      [
        "Ġdamage",
        -1.0
      ],
      [
        "ĠCO",
        -1.0
      ],
      [
        "Ġ100",
        -1.0
      ],
      [
        "Ġpost",
        -1.0
      ],
      [
        "~",
        -1.0
      ],
      [
        "Ġpattern",
        -1.0
      ],
      [
        "Ġ12",
        -1.0
      ],
      [
        "Ġgot",
        -1.0
      ],
      [
        "Ġhe",
        -1.0
      ],
      [
        "Ġpl",
        -1.0
      ],
      [
        "Ġpatients",
        -1.0
      ],
      [
        "Ġpriest",
        -1.0
      ],
      [
        "ars",
        -1.0
      ],
      [
        "Ġ(",
        -1.0
      ],
      [
        "Ġdestroy",
        -1.0
      ],
      [
        "ĠJ",
        -1.0
      ],
      [
        "ĠHIV",
        -1.0
      ],
      [
        "ism",
        -1.0
      ],
      [
        "ĠPu",
        -1.0
      ],
      [
        "Ġwildlife",
        -1.0
      ],
      [
        "alysis",
        -1.0
      ],
      [
        "Ġappreci",
        -1.0
      ],
      [
        "ee",
        -1.0
      ],
      [
        "ĠAct",
        -1.0
      ],
      [
        "Ġbehavior",
        -1.0
      ],
      [
        "ĠSupreme",
        -1.0
      ],
      [
        "Ġnext",
        -1.0
      ],
      [
        "Ġacknowledg",
        -1.0
      ],
      [
        "Ġterr",
        -1.0
      ],
      [
        "ĠMexican",
        -1.0
      ],
      [
        "Ġdisease",
        -1.0
      ],
      [
        "ĠInstitute",
        -1.0
      ],
      [
        "Ch",
        -1.0
      ],
      [
        "ĠO",
        -1.0
      ],
      [
        "ĠArab",
        -1.0
      ],
      [
        "ĠHigh",
        -1.0
      ],
      [
        "Ġhot",
        -1.0
      ],
      [
        "Ġwhether",
        -1.0
      ],
      [
        "Ġalter",
        -1.0
      ],
      [
        "Ġvisual",
        -1.0
      ],
      [
        "ical",
        -1.0
      ],
      [
        "Ġaspects",
        -1.0
      ],
      [
        "ice",
        -1.0
      ],
      [
        "Ġsomeone",
        -1.0
      ],
      [
        "Ġrapid",
        -1.0
      ],
      [
        "Ġappears",
        -1.0
      ],
      [
        "RO",
        -1.0
      ],
      [
        "ally",
        -1.0
      ],
      [
        "Ġweb",
        -1.0
      ],
      [
        "ards",
        -1.0
      ],
      [
        "Ġam",
        -1.0
      ],
      [
        "Ġnegative",
        -1.0
      ],
      [
        "mi",
        -1.0
      ],
      [
        "As",
        -1.0
      ],
      [
        "Ġtakes",
        -1.0
      ],
      [
        "ĠMany",
        -1.0
      ],
      [
        "Ġcalcul",
        -1.0
      ],
      [
        "Ġallows",
        -1.0
      ],
      [
        "'t",
        -1.0
      ],
      [
        "ĠGra",
        -1.0
      ],
      [
        "Ġconsider",
        -1.0
      ],
      [
        "ray",
        -1.0
      ],
      [
        "ump",
        -1.0
      ],
      [
        "://",
        -1.0
      ],
      [
        "Ġemail",
        -1.0
      ],
      [
        "Ġdemonstr",
        -1.0
      ],
      [
        "Ġred",
        -1.0
      ],
      [
        "tic",
        -1.0
      ],
      [
        "Ġprevious",
        -1.0
      ],
      [
        "Ġsp",
        -1.0
      ],
      [
        "ĠDuring",
        -1.0
      ],
      [
        "Ġlaws",
        -1.0
      ],
      [
        "ren",
        -1.0
      ],
      [
        "fully",
        -1.0
      ],
      [
        "ĠBritish",
        -1.0
      ],
      [
        "ĠUS",
        -1.0
      ],
      [
        "Ġcollapse",
        -1.0
      ],
      [
        "Ġcorrespond",
        -1.0
      ],
      [
        "Ġec",
        -1.0
      ],
      [
        "man",
        -1.0
      ],
      [
        "Ġvessel",
        -1.0
      ],
      [
        "Ġcomplete",
        -1.0
      ],
      [
        "Ġ27",
        -1.0
      ],
      [
        "Ġpa",
        -1.0
      ],
      [
        "Ġbasic",
        -1.0
      ],
      [
        "ders",
        -1.0
      ],
      [
        "Ġgr",
        -1.0
      ],
      [
        "ĠManagement",
        -1.0
      ],
      [
        "dis",
        -1.0
      ],
      [
        "Ġcarbon",
        -1.0
      ],
      [
        "su",
        -1.0
      ],
      [
        "Ġwr",
        -1.0
      ],
      [
        "Ġled",
        -1.0
      ],
      [
        "Ġsuffer",
        -1.0
      ],
      [
        "ph",
        -1.0
      ],
      [
        "Ĺ",
        -1.0
      ],
      [
        "ĠYork",
        -1.0
      ],
      [
        "O",
        -1.0
      ],
      [
        "on",
        -1.0
      ],
      [
        "ĠWith",
        -1.0
      ],
      [
        "ep",
        -1.0
      ],
      [
        "sions",
        -1.0
      ],
      [
        "Ġbuildings",
        -1.0
      ],
      [
        "Ġpoison",
        -1.0
      ],
      [
        "Ġshown",
        -1.0
      ],
      [
        "cc",
        -1.0
      ],
      [
        "Ġgenerally",
        -1.0
      ],
      [
        "),",
        -1.0
      ],
      [
        "Ġdeep",
        -1.0
      ],
      [
        "Ġexpan",
        -1.0
      ],
      [
        "Ġefficient",
        -1.0
      ],
      [
        "Ġfla",
        -1.0
      ],
      [
        "Ġareas",
        -1.0
      ],
      [
        "Ġresource",
        -1.0
      ],
      [
        "Ġcompletely",
        -1.0
      ],
      [
        "Ġsouth",
        -1.0
      ],
      [
        "Ġsuccess",
        -1.0
      ],
      [
        "Ġimprove",
        -1.0
      ],
      [
        "pr",
        -1.0
      ],
      [
        "Ġaffect",
        -1.0
      ],
      [
        "âĢ¢",
        -1.0
      ],
      [
        "--",
        -1.0
      ],
      [
        "ade",
        -1.0
      ],
      [
        "Ġcut",
        -1.0
      ],
      [
        "Ġboard",
        -1.0
      ],
      [
        "ĠTexas",
        -1.0
      ],
      [
        "ports",
        -1.0
      ],
      [
        "Ġsudden",
        -1.0
      ],
      [
        "ather",
        -1.0
      ],
      [
        "Ġnature",
        -1.0
      ],
      [
        "Ġeventually",
        -1.0
      ],
      [
        "ĠWhen",
        -1.0
      ],
      [
        "ĠResearch",
        -1.0
      ],
      [
        "Ġunder",
        -1.0
      ],
      [
        "ka",
        -1.0
      ],
      [
        "ness",
        -1.0
      ],
      [
        "Ġfile",
        -1.0
      ],
      [
        "Ġlonger",
        -1.0
      ],
      [
        "âĢĻ",
        -1.0
      ],
      [
        "right",
        -1.0
      ],
      [
        "Ġknown",
        -1.0
      ],
      [
        "Ġfine",
        -1.0
      ],
      [
        "Ġba",
        -1.0
      ],
      [
        "Ġsin",
        -1.0
      ],
      [
        "ĠNor",
        -1.0
      ],
      [
        "ĠFrance",
        -1.0
      ],
      [
        "'s",
        -1.0
      ],
      [
        "tra",
        -1.0
      ],
      [
        "Ġfall",
        -1.0
      ],
      [
        "Ġput",
        -1.0
      ],
      [
        "mit",
        -1.0
      ],
      [
        "atives",
        -1.0
      ],
      [
        "ĠUp",
        -1.0
      ],
      [
        "ĠOffice",
        -1.0
      ],
      [
        "ll",
        -1.0
      ],
      [
        "ĠThese",
        -1.0
      ],
      [
        "Ġat",
        -1.0
      ],
      [
        "Ġ4",
        -1.0
      ],
      [
        "Ġma",
        -1.0
      ],
      [
        "lla",
        -1.0
      ],
      [
        "as",
        -1.0
      ],
      [
        "24",
        -1.0
      ],
      [
        "Ġexc",
        -1.0
      ],
      [
        "Ġplants",
        -1.0
      ],
      [
        "Ġeth",
        -1.0
      ],
      [
        "Ġmake",
        -1.0
      ],
      [
        "ĠCom",
        -1.0
      ],
      [
        "ped",
        -1.0
      ],
      [
        "ĠIs",
        -1.0
      ],
      [
        "Ġbuilt",
        -1.0
      ],
      [
        "Ġde",
        -1.0
      ],
      [
        "Ġmain",
        -1.0
      ],
      [
        "li",
        -1.0
      ],
      [
        "Ġpresence",
        -1.0
      ],
      [
        "ĠChinese",
        -1.0
      ],
      [
        "Ġalmost",
        -1.0
      ],
      [
        "Ġver",
        -1.0
      ],
      [
        "Ġran",
        -1.0
      ],
      [
        "Chapter",
        -1.0
      ],
      [
        "Ġeven",
        -1.0
      ],
      [
        "sp",
        -1.0
      ],
      [
        "Ġmother",
        -1.0
      ],
      [
        "ĠJu",
        -1.0
      ],
      [
        "Ġformula",
        -1.0
      ],
      [
        "Ġfuture",
        -1.0
      ],
      [
        "Ġyoung",
        -1.0
      ],
      [
        "ĠOp",
        -1.0
      ],
      [
        "gu",
        -1.0
      ],
      [
        "cking",
        -1.0
      ],
      [
        "Ġkn",
        -1.0
      ],
      [
        "the",
        -1.0
      ],
      [
        "ale",
        -1.0
      ],
      [
        "nder",
        -1.0
      ],
      [
        "Ġinfluen",
        -1.0
      ],
      [
        "ĠLibrary",
        -1.0
      ],
      [
        "Ġdeveloped",
        -1.0
      ],
      [
        "Ġcommon",
        -1.0
      ],
      [
        "Ġphilosoph",
        -1.0
      ],
      [
        "Ġfindings",
        -1.0
      ],
      [
        "mm",
        -1.0
      ],
      [
        "Ġmaterial",
        -1.0
      ],
      [
        "Ġoccurs",
        -1.0
      ],
      [
        "ĠJames",
        -1.0
      ],
      [
        "Ġcompany",
        -1.0
      ],
      [
        "ĠSch",
        -1.0
      ],
      [
        "Ġinterpret",
        -1.0
      ],
      [
        "Ġpr",
        -1.0
      ],
      [
        "Ġtimes",
        -1.0
      ],
      [
        "Q",
        -1.0
      ],
      [
        "ured",
        -1.0
      ],
      [
        "Ġstories",
        -1.0
      ],
      [
        "ur",
        -1.0
      ],
      [
        "Ġban",
        -1.0
      ],
      [
        "Ġdec",
        -1.0
      ],
      [
        "Ġbirds",
        -1.0
      ],
      [
        "ically",
        -1.0
      ],
      [
        "Ġfactors",
        -1.0
      ],
      [
        "oid",
        -1.0
      ],
      [
        "Ġspi",
        -1.0
      ],
      [
        "Ġtalk",
        -1.0
      ],
      [
        "Ġpassed",
        -1.0
      ],
      [
        "rk",
        -1.0
      ],
      [
        "ó",
        -1.0
      ],
      [
        "Ġlot",
        -1.0
      ],
      [
        "Äģ",
        -1.0
      ],
      [
        "Ġsurviv",
        -1.0
      ],
      [
        "·",
        -1.0
      ],
      [
        "Ġfrequently",
        -1.0
      ],
      [
        "Ġstudent",
        -1.0
      ],
      [
        "Ġhappy",
        -1.0
      ],
      [
        "field",
        -1.0
      ],
      [
        "ed",
        -1.0
      ],
      [
        "Ú",
        -1.0
      ],
      [
        "Ġthinking",
        -1.0
      ],
      [
        "Ġca",
        -1.0
      ],
      [
        "Ġimages",
        -1.0
      ],
      [
        "Ġnear",
        -1.0
      ],
      [
        "Ġmanagement",
        -1.0
      ],
      [
        "14",
        -1.0
      ],
      [
        "Ġmeet",
        -1.0
      ],
      [
        "Ġlu",
        -1.0
      ],
      [
        "Ġprof",
        -1.0
      ],
      [
        "Ġmar",
        -1.0
      ],
      [
        "kes",
        -1.0
      ],
      [
        "Ġjournal",
        -1.0
      ],
      [
        "Ġdespite",
        -1.0
      ],
      [
        "ĠStates",
        -1.0
      ],
      [
        "Ġleaders",
        -1.0
      ],
      [
        "Ġlower",
        -1.0
      ],
      [
        "Ġbalance",
        -1.0
      ],
      [
        "Ġpregnancy",
        -1.0
      ],
      [
        "ĠInter",
        -1.0
      ],
      [
        "Ġsun",
        -1.0
      ],
      [
        "Ġhazard",
        -1.0
      ],
      [
        "Ġcru",
        -1.0
      ],
      [
        "ttle",
        -1.0
      ],
      [
        "_",
        -1.0
      ],
      [
        "Ġpo",
        -1.0
      ],
      [
        "ĠNatural",
        -1.0
      ],
      [
        "Ġwere",
        -1.0
      ],
      [
        "Ġb",
        -1.0
      ],
      [
        "Ġfamiliar",
        -1.0
      ],
      [
        "Ġhost",
        -1.0
      ],
      [
        "are",
        -1.0
      ],
      [
        "ises",
        -1.0
      ],
      [
        "ĠCarolina",
        -1.0
      ],
      [
        "ace",
        -1.0
      ],
      [
        "Ġchronic",
        -1.0
      ],
      [
        "Ġorganization",
        -1.0
      ],
      [
        "ti",
        -1.0
      ],
      [
        "©",
        -1.0
      ],
      [
        "Ġdeveloping",
        -1.0
      ],
      [
        "Ġstudied",
        -1.0
      ],
      [
        "ĠAt",
        -1.0
      ],
      [
        "Ġhas",
        -1.0
      ],
      [
        "ime",
        -1.0
      ],
      [
        "ĠChi",
        -1.0
      ],
      [
        "80",
        -1.0
      ],
      [
        "Ġuntil",
        -1.0
      ],
      [
        "Ġmove",
        -1.0
      ],
      [
        "nal",
        -1.0
      ],
      [
        "Ġprotection",
        -1.0
      ],
      [
        "ack",
        -1.0
      ],
      [
        "Ġdes",
        -1.0
      ],
      [
        "Ġclo",
        -1.0
      ],
      [
        "Ġpractice",
        -1.0
      ],
      [
        "ĠOf",
        -1.0
      ],
      [
        "Ġattempt",
        -1.0
      ],
      [
        "ov",
        -1.0
      ],
      [
        "Ġwhile",
        -1.0
      ],
      [
        "Ġinv",
        -1.0
      ],
      [
        "Ġexamples",
        -1.0
      ],
      [
        "ages",
        -1.0
      ],
      [
        "ca",
        -1.0
      ],
      [
        "Ġartificial",
        -1.0
      ],
      [
        "ĠAb",
        -1.0
      ],
      [
        "ĠBi",
        -1.0
      ],
      [
        "low",
        -1.0
      ],
      [
        "ĠKing",
        -1.0
      ],
      [
        "ĠWindows",
        -1.0
      ],
      [
        "ĠCanadian",
        -1.0
      ],
      [
        "Ġcultural",
        -1.0
      ],
      [
        "Ġcon",
        -1.0
      ],
      [
        "Ġprogram",
        -1.0
      ],
      [
        "Ġfalse",
        -1.0
      ],
      [
        "\"",
        -1.0
      ],
      [
        "Ġformer",
        -1.0
      ],
      [
        "Ġuses",
        -1.0
      ],
      [
        "wa",
        -1.0
      ],
      [
        "Ġaccompan",
        -1.0
      ],
      [
        "Ġag",
        -1.0
      ],
      [
        "Ġclinical",
        -1.0
      ],
      [
        "Ġfrom",
        -1.0
      ],
      [
        "Ġtend",
        -1.0
      ],
      [
        "Ġgoing",
        -1.0
      ],
      [
        "Ġgreen",
        -1.0
      ],
      [
        "ĠRiver",
        -1.0
      ],
      [
        "ĠMississippi",
        -1.0
      ],
      [
        "Ġregard",
        -1.0
      ],
      [
        "ue",
        -1.0
      ],
      [
        "oms",
        -1.0
      ],
      [
        "AM",
        -1.0
      ],
      [
        "h",
        -1.0
      ],
      [
        "ology",
        -1.0
      ],
      [
        "Ġcentral",
        -1.0
      ],
      [
        "ĠCommun",
        -1.0
      ],
      [
        "ĠElizabeth",
        -1.0
      ],
      [
        "Ġframe",
        -1.0
      ],
      [
        "Ġ.",
        -1.0
      ],
      [
        "ĠWorld",
        -1.0
      ],
      [
        "ĠProgram",
        -1.0
      ],
      [
        "set",
        -1.0
      ],
      [
        "Ġnuclear",
        -1.0
      ],
      [
        "ĠMi",
        -1.0
      ],
      [
        "¡",
        -1.0
      ],
      [
        "Ġleading",
        -1.0
      ],
      [
        "ĠSee",
        -1.0
      ],
      [
        "Ġp",
        -1.0
      ],
      [
        "Ġdiscovered",
        -1.0
      ],
      [
        "ĠJerusalem",
        -1.0
      ],
      [
        "Ġgarden",
        -1.0
      ],
      [
        "ĠJo",
        -1.0
      ],
      [
        "ĠGreat",
        -1.0
      ],
      [
        "ĠâĢĶ",
        -1.0
      ],
      [
        "Ġimmediate",
        -1.0
      ],
      [
        "ĠMissouri",
        -1.0
      ],
      [
        "Ġnor",
        -1.0
      ],
      [
        "Ġm",
        -1.0
      ],
      [
        "sis",
        -1.0
      ],
      [
        "ob",
        -1.0
      ],
      [
        "Ġreduced",
        -1.0
      ],
      [
        "Ġcompanies",
        -1.0
      ],
      [
        "Ġyears",
        -1.0
      ],
      [
        "Ġst",
        -1.0
      ],
      [
        "Ġgreater",
        -1.0
      ],
      [
        "Ġliquid",
        -1.0
      ],
      [
        "ise",
        -1.0
      ],
      [
        "sign",
        -1.0
      ],
      [
        "rrow",
        -1.0
      ],
      [
        "ment",
        -1.0
      ],
      [
        "30",
        -1.0
      ],
      [
        "Ġgas",
        -1.0
      ],
      [
        "ĠCivil",
        -1.0
      ],
      [
        "ya",
        -1.0
      ],
      [
        "Ġtechniques",
        -1.0
      ],
      [
        "ild",
        -1.0
      ],
      [
        "Ġprocesses",
        -1.0
      ],
      [
        "Ġ17",
        -1.0
      ],
      [
        "ĠIsland",
        -1.0
      ],
      [
        "ivity",
        -1.0
      ],
      [
        "Ġinside",
        -1.0
      ],
      [
        "Ġcommand",
        -1.0
      ],
      [
        "Ġcover",
        -1.0
      ],
      [
        "Ġtechnical",
        -1.0
      ],
      [
        "b",
        -1.0
      ],
      [
        "Ġreflect",
        -1.0
      ],
      [
        "Ġcapt",
        -1.0
      ],
      [
        "Ġexperience",
        -1.0
      ],
      [
        "Ġcold",
        -1.0
      ],
      [
        "ĠApp",
        -1.0
      ],
      [
        "ĠOxford",
        -1.0
      ],
      [
        "Ġpan",
        -1.0
      ],
      [
        "ĠIndian",
        -1.0
      ],
      [
        "Ġtwo",
        -1.0
      ],
      [
        "Research",
        -1.0
      ],
      [
        "Ġx",
        -1.0
      ],
      [
        "pro",
        -1.0
      ],
      [
        "Ġcomb",
        -1.0
      ],
      [
        "In",
        -1.0
      ],
      [
        "Ġvari",
        -1.0
      ],
      [
        "Ġcopy",
        -1.0
      ],
      [
        "ĠTestament",
        -1.0
      ],
      [
        "Ġapproximately",
        -1.0
      ],
      [
        "39",
        -1.0
      ],
      [
        "ch",
        -1.0
      ],
      [
        "ken",
        -1.0
      ],
      [
        "Ġ7",
        -1.0
      ],
      [
        "see",
        -1.0
      ],
      [
        "and",
        -1.0
      ],
      [
        "Ġtoward",
        -1.0
      ],
      [
        "eat",
        -1.0
      ],
      [
        "ations",
        -1.0
      ],
      [
        "Ġenjoy",
        -1.0
      ],
      [
        "Ġadv",
        -1.0
      ],
      [
        "inary",
        -1.0
      ],
      [
        "ĠAl",
        -1.0
      ],
      [
        "Ġneighbor",
        -1.0
      ],
      [
        "Ġyear",
        -1.0
      ],
      [
        "ĠOctober",
        -1.0
      ],
      [
        "Ġcha",
        -1.0
      ],
      [
        "Ġbecoming",
        -1.0
      ],
      [
        "Cl",
        -1.0
      ],
      [
        "ci",
        -1.0
      ],
      [
        "'ve",
        -1.0
      ],
      [
        "Ġbudget",
        -1.0
      ],
      [
        "Ġother",
        -1.0
      ],
      [
        "ther",
        -1.0
      ],
      [
        "ĠFo",
        -1.0
      ],
      [
        "ĠPaul",
        -1.0
      ],
      [
        "Ġpaper",
        -1.0
      ],
      [
        "Ġwrite",
        -1.0
      ],
      [
        "road",
        -1.0
      ],
      [
        "Ġcharge",
        -1.0
      ],
      [
        "Ġse",
        -1.0
      ],
      [
        "Ġcy",
        -1.0
      ],
      [
        "mon",
        -1.0
      ],
      [
        "Ġlength",
        -1.0
      ],
      [
        "ik",
        -1.0
      ],
      [
        "Ġ40",
        -1.0
      ],
      [
        "Ġabsolute",
        -1.0
      ],
      [
        "Ġprior",
        -1.0
      ],
      [
        "Ġecosystem",
        -1.0
      ],
      [
        "ĠPoli",
        -1.0
      ],
      [
        "Ġculture",
        -1.0
      ],
      [
        "Ġsome",
        -1.0
      ],
      [
        "ute",
        -1.0
      ],
      [
        "Ġfoods",
        -1.0
      ],
      [
        "Ġoften",
        -1.0
      ],
      [
        "head",
        -1.0
      ],
      [
        "ator",
        -1.0
      ],
      [
        "Ġapproach",
        -1.0
      ],
      [
        "res",
        -1.0
      ],
      [
        "Ġemerg",
        -1.0
      ],
      [
        "Ġbro",
        -1.0
      ],
      [
        "Ġbo",
        -1.0
      ],
      [
        "Ġwhole",
        -1.0
      ],
      [
        "osis",
        -1.0
      ],
      [
        "Ġpul",
        -1.0
      ],
      [
        "Ġchoice",
        -1.0
      ],
      [
        "Ġtest",
        -1.0
      ],
      [
        "Ġiso",
        -1.0
      ],
      [
        "ky",
        -1.0
      ],
      [
        "Ġsenior",
        -1.0
      ],
      [
        "Ġprimary",
        -1.0
      ],
      [
        "ford",
        -1.0
      ],
      [
        "house",
        -1.0
      ],
      [
        "Ù",
        -1.0
      ],
      [
        "Ġleave",
        -1.0
      ],
      [
        "Ġdate",
        -1.0
      ],
      [
        "ues",
        -1.0
      ],
      [
        "Ġk",
        -1.0
      ],
      [
        "Ġnever",
        -1.0
      ],
      [
        "Ġgen",
        -1.0
      ],
      [
        "+",
        -1.0
      ],
      [
        "Ġpublished",
        -1.0
      ],
      [
        "Ġsomething",
        -1.0
      ],
      [
        "Ġcase",
        -1.0
      ],
      [
        "Ġtree",
        -1.0
      ],
      [
        "Ġthink",
        -1.0
      ],
      [
        "Ġgirls",
        -1.0
      ],
      [
        "Ġsoldiers",
        -1.0
      ],
      [
        "ees",
        -1.0
      ],
      [
        "one",
        -1.0
      ],
      [
        "very",
        -1.0
      ],
      [
        "av",
        -1.0
      ],
      [
        "Ġeat",
        -1.0
      ],
      [
        "ha",
        -1.0
      ],
      [
        "ions",
        -1.0
      ],
      [
        "Ġg",
        -1.0
      ],
      [
        "Ġgame",
        -1.0
      ],
      [
        "pt",
        -1.0
      ],
      [
        "Ġteeth",
        -1.0
      ],
      [
        "Ġsal",
        -1.0
      ],
      [
        "Ġagricultural",
        -1.0
      ],
      [
        "Ġattach",
        -1.0
      ],
      [
        "ĺ",
        -1.0
      ],
      [
        "ON",
        -1.0
      ],
      [
        "Ġbecomes",
        -1.0
      ],
      [
        "ulation",
        -1.0
      ],
      [
        "Ġwriting",
        -1.0
      ],
      [
        "Ġharm",
        -1.0
      ],
      [
        "Ġissues",
        -1.0
      ],
      [
        "Ġsaw",
        -1.0
      ],
      [
        "Ġauthority",
        -1.0
      ],
      [
        "Ġcat",
        -1.0
      ],
      [
        "Ġincorpor",
        -1.0
      ],
      [
        "Ġrecently",
        -1.0
      ],
      [
        "Ġnu",
        -1.0
      ],
      [
        "Ġprograms",
        -1.0
      ],
      [
        "Ġsafe",
        -1.0
      ],
      [
        "ĠUN",
        -1.0
      ],
      [
        "U",
        -1.0
      ],
      [
        "Ġiron",
        -1.0
      ],
      [
        "sk",
        -1.0
      ],
      [
        "Al",
        -1.0
      ],
      [
        "yer",
        -1.0
      ],
      [
        "itch",
        -1.0
      ],
      [
        "¼",
        -1.0
      ],
      [
        "Ġexam",
        -1.0
      ],
      [
        "31",
        -1.0
      ],
      [
        "Ġthe",
        -1.0
      ],
      [
        "Ġannounce",
        -1.0
      ],
      [
        "ered",
        -1.0
      ],
      [
        "Ġclose",
        -1.0
      ],
      [
        "Ġc",
        -1.0
      ],
      [
        "Ġsca",
        -1.0
      ],
      [
        "Ġaccept",
        -1.0
      ],
      [
        "Ġso",
        -1.0
      ],
      [
        "ĠThat",
        -1.0
      ],
      [
        "Ġantibiotic",
        -1.0
      ],
      [
        "Ġchurch",
        -1.0
      ],
      [
        "Ġbeautiful",
        -1.0
      ],
      [
        "ĠOn",
        -1.0
      ],
      [
        "Ġmuscle",
        -1.0
      ],
      [
        "ant",
        -1.0
      ],
      [
        "yr",
        -1.0
      ],
      [
        "ves",
        -1.0
      ],
      [
        "ĠPennsylvania",
        -1.0
      ],
      [
        "ĠAccording",
        -1.0
      ],
      [
        "AN",
        -1.0
      ],
      [
        "Ġneed",
        -1.0
      ],
      [
        "Ġbeing",
        -1.0
      ],
      [
        "east",
        -1.0
      ],
      [
        "m",
        -1.0
      ],
      [
        "NA",
        -1.0
      ],
      [
        "ight",
        -1.0
      ],
      [
        "cent",
        -1.0
      ],
      [
        "Ġtradition",
        -1.0
      ],
      [
        "dd",
        -1.0
      ],
      [
        "ĠEconom",
        -1.0
      ],
      [
        "ĠâĢĵ",
        -1.0
      ],
      [
        "Ġna",
        -1.0
      ],
      [
        "27",
        -1.0
      ],
      [
        "Ġreveal",
        -1.0
      ],
      [
        "my",
        -1.0
      ],
      [
        "Ġview",
        -1.0
      ],
      [
        "yo",
        -1.0
      ],
      [
        "ief",
        -1.0
      ],
      [
        "rish",
        -1.0
      ],
      [
        "se",
        -1.0
      ],
      [
        "pped",
        -1.0
      ],
      [
        "Æ",
        -1.0
      ],
      [
        "Ġwrote",
        -1.0
      ],
      [
        "Ġblue",
        -1.0
      ],
      [
        "ips",
        -1.0
      ],
      [
        ">",
        -1.0
      ],
      [
        "Ġindividuals",
        -1.0
      ],
      [
        "ted",
        -1.0
      ],
      [
        "From",
        -1.0
      ],
      [
        "qu",
        -1.0
      ],
      [
        "Ġev",
        -1.0
      ],
      [
        "ho",
        -1.0
      ],
      [
        "Ġcost",
        -1.0
      ],
      [
        "Ġdata",
        -1.0
      ],
      [
        "Ġ9",
        -1.0
      ],
      [
        "Ġpeace",
        -1.0
      ],
      [
        "Ġanother",
        -1.0
      ],
      [
        "Ba",
        -1.0
      ],
      [
        "Ġskills",
        -1.0
      ],
      [
        "Ġ28",
        -1.0
      ],
      [
        "Ġan",
        -1.0
      ],
      [
        "DA",
        -1.0
      ],
      [
        "Ġcosts",
        -1.0
      ],
      [
        "Ġallow",
        -1.0
      ],
      [
        "ance",
        -1.0
      ],
      [
        "Ġab",
        -1.0
      ],
      [
        "Ġhistori",
        -1.0
      ],
      [
        "Ġaware",
        -1.0
      ],
      [
        "ath",
        -1.0
      ],
      [
        "Ġta",
        -1.0
      ],
      [
        "âĢ",
        -1.0
      ],
      [
        "cess",
        -1.0
      ],
      [
        "W",
        -1.0
      ],
      [
        "Ġlevels",
        -1.0
      ],
      [
        "Ġmurder",
        -1.0
      ],
      [
        "Ġwo",
        -1.0
      ],
      [
        "Ġvariety",
        -1.0
      ],
      [
        "Ġdigital",
        -1.0
      ],
      [
        "of",
        -1.0
      ],
      [
        "ree",
        -1.0
      ],
      [
        "ĠEngland",
        -1.0
      ],
      [
        "Ġnational",
        -1.0
      ],
      [
        "load",
        -1.0
      ],
      [
        "Ġinju",
        -1.0
      ],
      [
        "Ġsubsequent",
        -1.0
      ],
      [
        "Ġdetermine",
        -1.0
      ],
      [
        "Ġremain",
        -1.0
      ],
      [
        "ĠGi",
        -1.0
      ],
      [
        "Ġwebsite",
        -1.0
      ],
      [
        "Ġunderstanding",
        -1.0
      ],
      [
        "Ġper",
        -1.0
      ],
      [
        ".)",
        -1.0
      ],
      [
        "Ġnames",
        -1.0
      ],
      [
        "ene",
        -1.0
      ],
      [
        "ier",
        -1.0
      ],
      [
        "ĠKa",
        -1.0
      ],
      [
        "la",
        -1.0
      ],
      [
        "Ġtools",
        -1.0
      ],
      [
        "Ġsays",
        -1.0
      ],
      [
        "Ġlittle",
        -1.0
      ],
      [
        "Ġresult",
        -1.0
      ],
      [
        "Ġdesire",
        -1.0
      ],
      [
        "The",
        -1.0
      ],
      [
        "SA",
        -1.0
      ],
      [
        "Ġalong",
        -1.0
      ],
      [
        "Ġuniversal",
        -1.0
      ],
      [
        "ĠBl",
        -1.0
      ],
      [
        "Ġlo",
        -1.0
      ],
      [
        "ĠEducation",
        -1.0
      ],
      [
        "Ġart",
        -1.0
      ],
      [
        "Ġphone",
        -1.0
      ],
      [
        "mediate",
        -1.0
      ],
      [
        "Ġphysical",
        -1.0
      ],
      [
        "Ġoxygen",
        -1.0
      ],
      [
        "Ġpossess",
        -1.0
      ],
      [
        "Ġpicture",
        -1.0
      ],
      [
        "Ġforce",
        -1.0
      ],
      [
        "&",
        -1.0
      ],
      [
        "Ġproviding",
        -1.0
      ],
      [
        "Ġfeatures",
        -1.0
      ],
      [
        "Ġthemselves",
        -1.0
      ],
      [
        "ĠChrist",
        -1.0
      ],
      [
        "tics",
        -1.0
      ],
      [
        "ĠFu",
        -1.0
      ],
      [
        "ĠWar",
        -1.0
      ],
      [
        "Ġlarge",
        -1.0
      ],
      [
        "ub",
        -1.0
      ],
      [
        "]",
        -1.0
      ],
      [
        "Ġtold",
        -1.0
      ],
      [
        "Ġclean",
        -1.0
      ],
      [
        "Ġ/",
        -1.0
      ],
      [
        "itive",
        -1.0
      ],
      [
        "ounds",
        -1.0
      ],
      [
        "Ġfr",
        -1.0
      ],
      [
        "ĠOrganization",
        -1.0
      ],
      [
        "iversity",
        -1.0
      ],
      [
        "Ġevery",
        -1.0
      ],
      [
        "face",
        -1.0
      ],
      [
        "Ġanything",
        -1.0
      ],
      [
        "Ġkilomet",
        -1.0
      ],
      [
        "Ġprotocol",
        -1.0
      ],
      [
        "mer",
        -1.0
      ],
      [
        "sm",
        -1.0
      ],
      [
        "ë",
        -1.0
      ],
      [
        "Ġdecades",
        -1.0
      ],
      [
        "Ġaway",
        -1.0
      ],
      [
        "mission",
        -1.0
      ],
      [
        "Ġmay",
        -1.0
      ],
      [
        "Ġsometimes",
        -1.0
      ],
      [
        "ĠAmerican",
        -1.0
      ],
      [
        "ĠAdministration",
        -1.0
      ],
      [
        "ĠDis",
        -1.0
      ],
      [
        "ze",
        -1.0
      ],
      [
        "ĠNo",
        -1.0
      ],
      [
        "Ġdouble",
        -1.0
      ],
      [
        "Ġthus",
        -1.0
      ],
      [
        "re",
        -1.0
      ],
      [
        "IC",
        -1.0
      ],
      [
        "Ġvote",
        -1.0
      ],
      [
        "Ġrespond",
        -1.0
      ],
      [
        "Ġalternative",
        -1.0
      ],
      [
        "Ġbranch",
        -1.0
      ],
      [
        "ud",
        -1.0
      ],
      [
        "ĠH",
        -1.0
      ],
      [
        "om",
        -1.0
      ],
      [
        "Ġfilm",
        -1.0
      ],
      [
        "Ġanimals",
        -1.0
      ],
      [
        "Ġvideo",
        -1.0
      ],
      [
        "ĠProfessor",
        -1.0
      ],
      [
        "ĠThis",
        -1.0
      ],
      [
        "Ġrelease",
        -1.0
      ],
      [
        "ĠInternet",
        -1.0
      ],
      [
        "de",
        -1.0
      ],
      [
        "que",
        -1.0
      ],
      [
        "Ġpurpose",
        -1.0
      ],
      [
        "Ġmakes",
        -1.0
      ],
      [
        "Ġproduce",
        -1.0
      ],
      [
        "Ġsymbol",
        -1.0
      ],
      [
        "che",
        -1.0
      ],
      [
        "Ġdirectly",
        -1.0
      ],
      [
        "Ġthose",
        -1.0
      ],
      [
        "\",",
        -1.0
      ],
      [
        "Ġacross",
        -1.0
      ],
      [
        "ng",
        -1.0
      ],
      [
        "ights",
        -1.0
      ],
      [
        "ĠPr",
        -1.0
      ],
      [
        "Ġincluding",
        -1.0
      ],
      [
        "Ġquickly",
        -1.0
      ],
      [
        "Ġtu",
        -1.0
      ],
      [
        "ase",
        -1.0
      ],
      [
        "Ġon",
        -1.0
      ],
      [
        "ĠSchool",
        -1.0
      ],
      [
        "ox",
        -1.0
      ],
      [
        "Ġbi",
        -1.0
      ],
      [
        "With",
        -1.0
      ],
      [
        "Ġtowards",
        -1.0
      ],
      [
        "ences",
        -1.0
      ],
      [
        "Ġdisappear",
        -1.0
      ],
      [
        "ĠFl",
        -1.0
      ],
      [
        "Ġformed",
        -1.0
      ],
      [
        "Ġy",
        -1.0
      ],
      [
        "...",
        -1.0
      ],
      [
        "per",
        -1.0
      ],
      [
        "3",
        -1.0
      ],
      [
        "Ġposition",
        -1.0
      ],
      [
        "nce",
        -1.0
      ],
      [
        "Ġwill",
        -1.0
      ],
      [
        "Ġru",
        -1.0
      ],
      [
        "Ġsystems",
        -1.0
      ],
      [
        "Ġself",
        -1.0
      ],
      [
        "Ġsent",
        -1.0
      ],
      [
        "Ġsmall",
        -1.0
      ],
      [
        "Ġdoesn",
        -1.0
      ],
      [
        "Ġwant",
        -1.0
      ],
      [
        "Ġstart",
        -1.0
      ],
      [
        "Ġsm",
        -1.0
      ],
      [
        "Ġcouple",
        -1.0
      ],
      [
        "ond",
        -1.0
      ],
      [
        "Ġfriends",
        -1.0
      ],
      [
        "Ġmark",
        -1.0
      ],
      [
        "sc",
        -1.0
      ],
      [
        "Ġsteps",
        -1.0
      ],
      [
        "¿",
        -1.0
      ],
      [
        "ination",
        -1.0
      ],
      [
        "Ġconsequences",
        -1.0
      ],
      [
        "Ġquality",
        -1.0
      ],
      [
        "Ġtry",
        -1.0
      ],
      [
        "well",
        -1.0
      ],
      [
        "Ġeconomy",
        -1.0
      ],
      [
        "Ġimage",
        -1.0
      ],
      [
        "Ġgroup",
        -1.0
      ],
      [
        "Ġ29",
        -1.0
      ],
      [
        "Ġsound",
        -1.0
      ],
      [
        "ĠMe",
        -1.0
      ],
      [
        "EC",
        -1.0
      ],
      [
        "Ġdu",
        -1.0
      ],
      [
        "ĠOur",
        -1.0
      ],
      [
        "Ġking",
        -1.0
      ],
      [
        "ternal",
        -1.0
      ],
      [
        "go",
        -1.0
      ],
      [
        "36",
        -1.0
      ],
      [
        "Ġpesticide",
        -1.0
      ],
      [
        "Ġagree",
        -1.0
      ],
      [
        "Ġcalcium",
        -1.0
      ],
      [
        "ĠEarth",
        -1.0
      ],
      [
        "Ġcontrol",
        -1.0
      ],
      [
        "Ġblock",
        -1.0
      ],
      [
        "Ġph",
        -1.0
      ],
      [
        "Ġindic",
        -1.0
      ],
      [
        "é",
        -1.0
      ],
      [
        "Ġreally",
        -1.0
      ],
      [
        "So",
        -1.0
      ],
      [
        "Ġ\"",
        -1.0
      ],
      [
        "Ġenvironmental",
        -1.0
      ],
      [
        "Ġapplications",
        -1.0
      ],
      [
        "|",
        -1.0
      ],
      [
        "RE",
        -1.0
      ],
      [
        "X",
        -1.0
      ],
      [
        "ĠMassachusetts",
        -1.0
      ],
      [
        "Ġcomes",
        -1.0
      ],
      [
        "Ġmolecul",
        -1.0
      ],
      [
        "Ġthroughout",
        -1.0
      ],
      [
        "Ġcolor",
        -1.0
      ],
      [
        "Ġdepth",
        -1.0
      ],
      [
        "<",
        -1.0
      ],
      [
        "ĠColumbia",
        -1.0
      ],
      [
        "%",
        -1.0
      ],
      [
        "Ġtook",
        -1.0
      ],
      [
        "ĠU",
        -1.0
      ],
      [
        "ating",
        -1.0
      ],
      [
        "ual",
        -1.0
      ],
      [
        "ĠStreet",
        -1.0
      ],
      [
        "Ġcredit",
        -1.0
      ],
      [
        "Ġcountries",
        -1.0
      ],
      [
        "Ġseen",
        -1.0
      ],
      [
        "Ġaim",
        -1.0
      ],
      [
        "5",
        -1.0
      ],
      [
        "Ġasked",
        -1.0
      ],
      [
        "off",
        -1.0
      ],
      [
        "60",
        -1.0
      ],
      [
        "Ġoccasion",
        -1.0
      ],
      [
        "ug",
        -1.0
      ],
      [
        "lies",
        -1.0
      ],
      [
        "Ġlaw",
        -1.0
      ],
      [
        "les",
        -1.0
      ],
      [
        "Ġtraining",
        -1.0
      ],
      [
        "Ġpreserv",
        -1.0
      ],
      [
        "Ġjoin",
        -1.0
      ],
      [
        "ĠDecember",
        -1.0
      ],
      [
        "ĠV",
        -1.0
      ],
      [
        "IT",
        -1.0
      ],
      [
        "ĠThere",
        -1.0
      ],
      [
        "Ġbone",
        -1.0
      ],
      [
        "Ġthousand",
        -1.0
      ],
      [
        "Ġex",
        -1.0
      ],
      [
        "board",
        -1.0
      ],
      [
        "Ġultimate",
        -1.0
      ],
      [
        "ay",
        -1.0
      ],
      [
        "Ġsyndrome",
        -1.0
      ],
      [
        "Ġf",
        -1.0
      ],
      [
        "ĠPar",
        -1.0
      ],
      [
        "Ġreports",
        -1.0
      ],
      [
        "§",
        -1.0
      ],
      [
        "Ġinhabit",
        -1.0
      ],
      [
        "Ġpotential",
        -1.0
      ],
      [
        "Ġindeed",
        -1.0
      ],
      [
        "Ġmid",
        -1.0
      ],
      [
        "Ġresponse",
        -1.0
      ],
      [
        "Ġgovernment",
        -1.0
      ],
      [
        "Ġapplied",
        -1.0
      ],
      [
        "ĠProject",
        -1.0
      ],
      [
        "C",
        -1.0
      ],
      [
        "Ġsample",
        -1.0
      ],
      [
        "ury",
        -1.0
      ],
      [
        "ĠWestern",
        -1.0
      ],
      [
        "pi",
        -1.0
      ],
      [
        "Do",
        -1.0
      ],
      [
        "Ġabsorb",
        -1.0
      ],
      [
        "tes",
        -1.0
      ],
      [
        "Ġphase",
        -1.0
      ],
      [
        "ils",
        -1.0
      ],
      [
        "itation",
        -1.0
      ],
      [
        "Ġhundred",
        -1.0
      ],
      [
        "ving",
        -1.0
      ],
      [
        "²",
        -1.0
      ],
      [
        "co",
        -1.0
      ],
      [
        "Ġappropriate",
        -1.0
      ],
      [
        "Ġspecific",
        -1.0
      ],
      [
        "ĠUn",
        -1.0
      ],
      [
        "ĠArt",
        -1.0
      ],
      [
        "Ġresponsible",
        -1.0
      ],
      [
        "Ġdiv",
        -1.0
      ],
      [
        "Ġmessage",
        -1.0
      ],
      [
        "Ġrequired",
        -1.0
      ],
      [
        "Ġgu",
        -1.0
      ],
      [
        "Ġzone",
        -1.0
      ],
      [
        "Ġdied",
        -1.0
      ],
      [
        "Ġbetween",
        -1.0
      ],
      [
        "Ġregion",
        -1.0
      ],
      [
        "Ġsacrifice",
        -1.0
      ],
      [
        "um",
        -1.0
      ],
      [
        "Ġtransport",
        -1.0
      ],
      [
        "to",
        -1.0
      ],
      [
        "'ll",
        -1.0
      ],
      [
        "vel",
        -1.0
      ],
      [
        "mospheric",
        -1.0
      ],
      [
        "Ġmembers",
        -1.0
      ],
      [
        "ĠR",
        -1.0
      ],
      [
        "ip",
        -1.0
      ],
      [
        "in",
        -1.0
      ],
      [
        "Ġdri",
        -1.0
      ],
      [
        "etic",
        -1.0
      ],
      [
        "Ġversion",
        -1.0
      ],
      [
        "ĠAll",
        -1.0
      ],
      [
        "ĠDistrict",
        -1.0
      ],
      [
        "ward",
        -1.0
      ],
      [
        "na",
        -1.0
      ],
      [
        "idence",
        -1.0
      ],
      [
        "à",
        -1.0
      ],
      [
        "F",
        -1.0
      ],
      [
        "ama",
        -1.0
      ],
      [
        "itable",
        -1.0
      ],
      [
        "Ġwritten",
        -1.0
      ],
      [
        "Ġdoctor",
        -1.0
      ],
      [
        "Ġset",
        -1.0
      ],
      [
        "Ġobesity",
        -1.0
      ],
      [
        "Ġexplanation",
        -1.0
      ],
      [
        "ĠIndia",
        -1.0
      ],
      [
        "Ġfew",
        -1.0
      ],
      [
        "Ġstream",
        -1.0
      ],
      [
        "state",
        -1.0
      ],
      [
        "verse",
        -1.0
      ],
      [
        "Ġground",
        -1.0
      ],
      [
        "Ġdisc",
        -1.0
      ],
      [
        "Ġensure",
        -1.0
      ],
      [
        "ence",
        -1.0
      ],
      [
        "Ġtoxic",
        -1.0
      ],
      [
        "sta",
        -1.0
      ],
      [
        "Ġinteract",
        -1.0
      ],
      [
        "Ġstaff",
        -1.0
      ],
      [
        "£",
        -1.0
      ],
      [
        "Ġcultiv",
        -1.0
      ],
      [
        "lated",
        -1.0
      ],
      [
        "ys",
        -1.0
      ],
      [
        "½",
        -1.0
      ],
      [
        "Ġte",
        -1.0
      ],
      [
        "Ġfigure",
        -1.0
      ],
      [
        "Ġtechnologies",
        -1.0
      ],
      [
        "ĠNot",
        -1.0
      ],
      [
        "Ġdo",
        -1.0
      ],
      [
        "Ġcholesterol",
        -1.0
      ],
      [
        "with",
        -1.0
      ],
      [
        "Ġdeal",
        -1.0
      ],
      [
        "ĠWest",
        -1.0
      ],
      [
        "ab",
        -1.0
      ],
      [
        "Ġcommunication",
        -1.0
      ],
      [
        "Ġresources",
        -1.0
      ],
      [
        "Ġrespect",
        -1.0
      ],
      [
        "led",
        -1.0
      ],
      [
        "Ġcritic",
        -1.0
      ],
      [
        "Ġreli",
        -1.0
      ],
      [
        "ĠAv",
        -1.0
      ],
      [
        "ĠCity",
        -1.0
      ],
      [
        "Ġemb",
        -1.0
      ],
      [
        "Ġintroduced",
        -1.0
      ],
      [
        "Ġadvance",
        -1.0
      ],
      [
        "Ġr",
        -1.0
      ],
      [
        "Ġsha",
        -1.0
      ],
      [
        "Ġdevices",
        -1.0
      ],
      [
        "Ġge",
        -1.0
      ],
      [
        "tro",
        -1.0
      ],
      [
        "ĠA",
        -1.0
      ],
      [
        "Ġbelieved",
        -1.0
      ],
      [
        "Ġmillion",
        -1.0
      ],
      [
        "Ġinfection",
        -1.0
      ],
      [
        "Ġenergy",
        -1.0
      ],
      [
        "Ġproper",
        -1.0
      ],
      [
        "Ġsurvey",
        -1.0
      ],
      [
        "Ġsocieties",
        -1.0
      ],
      [
        "ko",
        -1.0
      ],
      [
        "Ġinfluence",
        -1.0
      ],
      [
        "Ġparts",
        -1.0
      ],
      [
        "Ġelse",
        -1.0
      ],
      [
        "Ġrecord",
        -1.0
      ],
      [
        "Ġhormone",
        -1.0
      ],
      [
        "Ġdaily",
        -1.0
      ],
      [
        "Ġreceiving",
        -1.0
      ],
      [
        "Ġfirm",
        -1.0
      ],
      [
        "ac",
        -1.0
      ],
      [
        "Ġapplication",
        -1.0
      ],
      [
        "Ġmaximum",
        -1.0
      ],
      [
        "da",
        -1.0
      ],
      [
        "Ġconducted",
        -1.0
      ],
      [
        "Ġdanger",
        -1.0
      ],
      [
        "ints",
        -1.0
      ],
      [
        "Ġtrue",
        -1.0
      ],
      [
        "Ġstory",
        -1.0
      ],
      [
        "Ġsufficient",
        -1.0
      ],
      [
        "Ġpain",
        -1.0
      ],
      [
        "Ġbabies",
        -1.0
      ],
      [
        "Ġwhe",
        -1.0
      ],
      [
        "Ł",
        -1.0
      ],
      [
        "ĠHis",
        -1.0
      ],
      [
        "mitted",
        -1.0
      ],
      [
        "ft",
        -1.0
      ],
      [
        "ĠPa",
        -1.0
      ],
      [
        "Ġestimated",
        -1.0
      ],
      [
        "Ġball",
        -1.0
      ],
      [
        "Ġopportunities",
        -1.0
      ],
      [
        "ification",
        -1.0
      ],
      [
        "Ġar",
        -1.0
      ],
      [
        "Ġfather",
        -1.0
      ],
      [
        "ĠResources",
        -1.0
      ],
      [
        "ris",
        -1.0
      ],
      [
        "wise",
        -1.0
      ],
      [
        "ĠSurvey",
        -1.0
      ],
      [
        "Ġsexual",
        -1.0
      ],
      [
        "Ġparents",
        -1.0
      ],
      [
        "Ġmicro",
        -1.0
      ],
      [
        "Ġmaintain",
        -1.0
      ],
      [
        "Ġchance",
        -1.0
      ],
      [
        "ĠFoundation",
        -1.0
      ],
      [
        "Ġvisible",
        -1.0
      ],
      [
        "Ġmon",
        -1.0
      ],
      [
        "Ġanaly",
        -1.0
      ],
      [
        "!",
        -1.0
      ],
      [
        "arch",
        -1.0
      ],
      [
        "vo",
        -1.0
      ],
      [
        "ĠEurope",
        -1.0
      ],
      [
        "Ġhigher",
        -1.0
      ],
      [
        "Ġmod",
        -1.0
      ],
      [
        "mo",
        -1.0
      ],
      [
        "Ġplaced",
        -1.0
      ],
      [
        "Ġbar",
        -1.0
      ],
      [
        "Ġblood",
        -1.0
      ],
      [
        "25",
        -1.0
      ],
      [
        "u",
        -1.0
      ],
      [
        "Ġcop",
        -1.0
      ],
      [
        "Ġincludes",
        -1.0
      ],
      [
        "Ġl",
        -1.0
      ],
      [
        "Ġ2008",
        -1.0
      ],
      [
        "Ġsign",
        -1.0
      ],
      [
        "ave",
        -1.0
      ],
      [
        "Ġtrigger",
        -1.0
      ],
      [
        "ĠJapan",
        -1.0
      ],
      [
        "Ġexercise",
        -1.0
      ],
      [
        "mber",
        -1.0
      ],
      [
        "ã",
        -1.0
      ],
      [
        "ĠPre",
        -1.0
      ],
      [
        "Ġhouse",
        -1.0
      ],
      [
        "#",
        -1.0
      ],
      [
        "Ġpri",
        -1.0
      ],
      [
        "Ġinternal",
        -1.0
      ],
      [
        "Ġcycle",
        -1.0
      ],
      [
        "sh",
        -1.0
      ],
      [
        "Ġincrease",
        -1.0
      ],
      [
        "cle",
        -1.0
      ],
      [
        "mas",
        -1.0
      ],
      [
        "Ġro",
        -1.0
      ],
      [
        "Ġleader",
        -1.0
      ],
      [
        "Y",
        -1.0
      ],
      [
        "Ġfound",
        -1.0
      ],
      [
        "ĠArch",
        -1.0
      ],
      [
        "hibit",
        -1.0
      ],
      [
        "78",
        -1.0
      ],
      [
        "Ġatmosphere",
        -1.0
      ],
      [
        "for",
        -1.0
      ],
      [
        "ĠPo",
        -1.0
      ],
      [
        "Ġquestion",
        -1.0
      ],
      [
        "Ġ3",
        -1.0
      ],
      [
        "0",
        -1.0
      ],
      [
        "Ġpar",
        -1.0
      ],
      [
        "į",
        -1.0
      ],
      [
        "Ġtotal",
        -1.0
      ],
      [
        "Ġunderstand",
        -1.0
      ],
      [
        "Ġusing",
        -1.0
      ],
      [
        "bor",
        -1.0
      ],
      [
        "Ġwhen",
        -1.0
      ],
      [
        "Ġmoney",
        -1.0
      ],
      [
        "Ġtypical",
        -1.0
      ],
      [
        "han",
        -1.0
      ],
      [
        "ory",
        -1.0
      ],
      [
        "Ġsection",
        -1.0
      ],
      [
        "Ê",
        -1.0
      ],
      [
        "Ġessay",
        -1.0
      ],
      [
        "Ġnine",
        -1.0
      ],
      [
        "Ġseason",
        -1.0
      ],
      [
        "Ġsea",
        -1.0
      ],
      [
        "Ġterritory",
        -1.0
      ],
      [
        "Ġvery",
        -1.0
      ],
      [
        "ria",
        -1.0
      ],
      [
        "Ġgl",
        -1.0
      ],
      [
        "is",
        -1.0
      ],
      [
        "Ġevidence",
        -1.0
      ],
      [
        "Ġeye",
        -1.0
      ],
      [
        "dimensional",
        -1.0
      ],
      [
        "ĠTo",
        -1.0
      ],
      [
        "ĠTra",
        -1.0
      ],
      [
        "Ġrare",
        -1.0
      ],
      [
        "Ġbig",
        -1.0
      ],
      [
        "Ġhim",
        -1.0
      ],
      [
        "Ġreference",
        -1.0
      ],
      [
        "ĠCalifornia",
        -1.0
      ],
      [
        "Ġcreating",
        -1.0
      ],
      [
        "Be",
        -1.0
      ],
      [
        "Ġheav",
        -1.0
      ],
      [
        "p",
        -1.0
      ],
      [
        "ents",
        -1.0
      ],
      [
        ".",
        -1.0
      ],
      [
        "rch",
        -1.0
      ],
      [
        "Ġregular",
        -1.0
      ],
      [
        "Ġswe",
        -1.0
      ],
      [
        "Ġstation",
        -1.0
      ],
      [
        "Ġbacteria",
        -1.0
      ],
      [
        "Ġsince",
        -1.0
      ],
      [
        "Ġstandards",
        -1.0
      ],
      [
        "ou",
        -1.0
      ],
      [
        "Ġappear",
        -1.0
      ],
      [
        "ry",
        -1.0
      ],
      [
        "Ġreasons",
        -1.0
      ],
      [
        "ots",
        -1.0
      ],
      [
        "Ġdegrees",
        -1.0
      ],
      [
        "Ġreceived",
        -1.0
      ],
      [
        "Ġcells",
        -1.0
      ],
      [
        "Ġhospital",
        -1.0
      ],
      [
        "Ġhi",
        -1.0
      ],
      [
        "ĠNASA",
        -1.0
      ],
      [
        "ored",
        -1.0
      ],
      [
        "ising",
        -1.0
      ],
      [
        "rl",
        -1.0
      ],
      [
        "\".",
        -1.0
      ],
      [
        "Ġemotion",
        -1.0
      ],
      [
        "¢",
        -1.0
      ],
      [
        "Ġrelationship",
        -1.0
      ],
      [
        "Ġfollowing",
        -1.0
      ],
      [
        "Ġarriv",
        -1.0
      ],
      [
        "Ġperiod",
        -1.0
      ],
      [
        "Ġdisplay",
        -1.0
      ],
      [
        "lled",
        -1.0
      ],
      [
        "ple",
        -1.0
      ],
      [
        "Ġgo",
        -1.0
      ],
      [
        "ĠLa",
        -1.0
      ],
      [
        "Ġtable",
        -1.0
      ],
      [
        "ĠMountain",
        -1.0
      ],
      [
        "eeding",
        -1.0
      ],
      [
        "ded",
        -1.0
      ],
      [
        "Ġprom",
        -1.0
      ],
      [
        "ration",
        -1.0
      ],
      [
        "When",
        -1.0
      ],
      [
        "ĠNetwork",
        -1.0
      ],
      [
        "Ġmechan",
        -1.0
      ],
      [
        "Ġengage",
        -1.0
      ],
      [
        "ish",
        -1.0
      ],
      [
        "ller",
        -1.0
      ],
      [
        "nvironment",
        -1.0
      ],
      [
        "Ġgeneration",
        -1.0
      ],
      [
        "Ġconcept",
        -1.0
      ],
      [
        "Ġtrade",
        -1.0
      ],
      [
        "Ġnow",
        -1.0
      ],
      [
        "Ġ+",
        -1.0
      ],
      [
        "it",
        -1.0
      ],
      [
        "r",
        -1.0
      ],
      [
        "Ġac",
        -1.0
      ],
      [
        "8",
        -1.0
      ],
      [
        "af",
        -1.0
      ],
      [
        "Ġ10",
        -1.0
      ],
      [
        "12",
        -1.0
      ],
      [
        "*",
        -1.0
      ],
      [
        "Ġmo",
        -1.0
      ],
      [
        "ĠJesus",
        -1.0
      ],
      [
        "ily",
        -1.0
      ],
      [
        "Ġ21",
        -1.0
      ],
      [
        "ics",
        -1.0
      ],
      [
        "Ġplant",
        -1.0
      ],
      [
        "ĠHenry",
        -1.0
      ],
      [
        "Ġtreat",
        -1.0
      ],
      [
        "Ġbox",
        -1.0
      ],
      [
        "old",
        -1.0
      ],
      [
        "ix",
        -1.0
      ],
      [
        "Ġcross",
        -1.0
      ],
      [
        "ify",
        -1.0
      ],
      [
        "Ġch",
        -1.0
      ],
      [
        "ı",
        -1.0
      ],
      [
        "ses",
        -1.0
      ],
      [
        "men",
        -1.0
      ],
      [
        "Ġarticle",
        -1.0
      ],
      [
        "ĠDe",
        -1.0
      ],
      [
        "ĠTa",
        -1.0
      ],
      [
        "ĠFe",
        -1.0
      ],
      [
        "Ġcapital",
        -1.0
      ],
      [
        "ger",
        -1.0
      ],
      [
        "Ġactually",
        -1.0
      ],
      [
        "Ġforward",
        -1.0
      ],
      [
        "Co",
        -1.0
      ],
      [
        "Ġ19",
        -1.0
      ],
      [
        "Ġhold",
        -1.0
      ],
      [
        "ging",
        -1.0
      ],
      [
        "Ġcannot",
        -1.0
      ],
      [
        "Ġever",
        -1.0
      ],
      [
        "Ġexactly",
        -1.0
      ],
      [
        "Ġeffect",
        -1.0
      ],
      [
        "Ġemploy",
        -1.0
      ],
      [
        "ica",
        -1.0
      ],
      [
        "q",
        -1.0
      ],
      [
        "ĠLu",
        -1.0
      ],
      [
        "ja",
        -1.0
      ],
      [
        "y",
        -1.0
      ],
      [
        "Ī",
        -1.0
      ],
      [
        "Ġplastic",
        -1.0
      ],
      [
        "ĠHebrew",
        -1.0
      ],
      [
        "Ġconsidered",
        -1.0
      ],
      [
        "Ġlong",
        -1.0
      ],
      [
        "Ġremains",
        -1.0
      ],
      [
        "ĠBoston",
        -1.0
      ],
      [
        "Ġinflammation",
        -1.0
      ],
      [
        "Ġsub",
        -1.0
      ],
      [
        "ĠEngine",
        -1.0
      ],
      [
        "Ma",
        -1.0
      ],
      [
        "Ġcomfort",
        -1.0
      ],
      [
        "Ġnight",
        -1.0
      ],
      [
        "ĠGoogle",
        -1.0
      ],
      [
        "ĠLo",
        -1.0
      ],
      [
        "Ġdevelop",
        -1.0
      ],
      [
        "ĠBar",
        -1.0
      ],
      [
        "They",
        -1.0
      ],
      [
        "Ġoverall",
        -1.0
      ],
      [
        "Ġfixed",
        -1.0
      ],
      [
        "Ġinvolve",
        -1.0
      ],
      [
        "end",
        -1.0
      ],
      [
        "Ġcases",
        -1.0
      ],
      [
        "bb",
        -1.0
      ],
      [
        "Ġbeen",
        -1.0
      ],
      [
        "ler",
        -1.0
      ],
      [
        "ts",
        -1.0
      ],
      [
        "Ġdrop",
        -1.0
      ],
      [
        "Ġlegislat",
        -1.0
      ],
      [
        "Ġindependent",
        -1.0
      ],
      [
        "ĠWhat",
        -1.0
      ],
      [
        "Ġmonths",
        -1.0
      ],
      [
        "AC",
        -1.0
      ],
      [
        "Ġtrouble",
        -1.0
      ],
      [
        "ns",
        -1.0
      ],
      [
        "Ġare",
        -1.0
      ],
      [
        "Ġcenter",
        -1.0
      ],
      [
        "35",
        -1.0
      ],
      [
        "Ġurban",
        -1.0
      ],
      [
        "ĸ",
        -1.0
      ],
      [
        "Ġcriteria",
        -1.0
      ],
      [
        "ĠISBN",
        -1.0
      ],
      [
        "Ġhands",
        -1.0
      ],
      [
        "Ġ2004",
        -1.0
      ],
      [
        "Ġdistinguish",
        -1.0
      ],
      [
        "Ġwrong",
        -1.0
      ],
      [
        "Ġappointed",
        -1.0
      ],
      [
        "ĠEn",
        -1.0
      ],
      [
        "Although",
        -1.0
      ],
      [
        "burg",
        -1.0
      ],
      [
        "scrib",
        -1.0
      ],
      [
        "ł",
        -1.0
      ],
      [
        "Ġgra",
        -1.0
      ],
      [
        "Ġseven",
        -1.0
      ],
      [
        "ĠYou",
        -1.0
      ],
      [
        "ĠMarch",
        -1.0
      ],
      [
        "Ġdistrict",
        -1.0
      ],
      [
        "Ġworth",
        -1.0
      ],
      [
        "Ġpla",
        -1.0
      ],
      [
        "Ġdef",
        -1.0
      ],
      [
        "Ġdis",
        -1.0
      ],
      [
        "Ġwater",
        -1.0
      ],
      [
        "ner",
        -1.0
      ],
      [
        "anks",
        -1.0
      ],
      [
        "Ġinvolving",
        -1.0
      ],
      [
        "Ġvulnerable",
        -1.0
      ],
      [
        "shes",
        -1.0
      ],
      [
        "ĠCourt",
        -1.0
      ],
      [
        "Ġtraffic",
        -1.0
      ],
      [
        "Ġthese",
        -1.0
      ],
      [
        "Ġinfected",
        -1.0
      ],
      [
        "Ġskin",
        -1.0
      ],
      [
        "ive",
        -1.0
      ],
      [
        "Ġob",
        -1.0
      ],
      [
        "Ġworking",
        -1.0
      ],
      [
        "Ġnamed",
        -1.0
      ],
      [
        "Ġoil",
        -1.0
      ],
      [
        "ĠSo",
        -1.0
      ],
      [
        "Ġalgorithm",
        -1.0
      ],
      [
        "Ġfresh",
        -1.0
      ],
      [
        "ĠCharles",
        -1.0
      ],
      [
        "Ġhalf",
        -1.0
      ],
      [
        "Ġevolution",
        -1.0
      ],
      [
        "Ġreducing",
        -1.0
      ],
      [
        "¥",
        -1.0
      ],
      [
        "Ġpersons",
        -1.0
      ],
      [
        "ition",
        -1.0
      ],
      [
        "Ġdead",
        -1.0
      ],
      [
        "ood",
        -1.0
      ],
      [
        "Ġcountry",
        -1.0
      ],
      [
        "ĠLatin",
        -1.0
      ],
      [
        "ets",
        -1.0
      ],
      [
        "Ġju",
        -1.0
      ],
      [
        "ĠWilliam",
        -1.0
      ],
      [
        "ir",
        -1.0
      ],
      [
        "Ġgeneral",
        -1.0
      ],
      [
        "Ġsa",
        -1.0
      ],
      [
        "Ġcorrect",
        -1.0
      ],
      [
        "Ġapp",
        -1.0
      ],
      [
        "Ġmajority",
        -1.0
      ],
      [
        "Ġrec",
        -1.0
      ],
      [
        "Ġ24",
        -1.0
      ],
      [
        "rge",
        -1.0
      ],
      [
        "Ġdirect",
        -1.0
      ],
      [
        "Ġobserved",
        -1.0
      ],
      [
        "Ġvaluable",
        -1.0
      ],
      [
        "Ġelements",
        -1.0
      ],
      [
        "Ġwho",
        -1.0
      ],
      [
        "ĠP",
        -1.0
      ],
      [
        "ĠFin",
        -1.0
      ],
      [
        "Ġfin",
        -1.0
      ],
      [
        "Ġtru",
        -1.0
      ],
      [
        "These",
        -1.0
      ],
      [
        "Ġpositive",
        -1.0
      ],
      [
        "Ġconservation",
        -1.0
      ],
      [
        "Ġteaching",
        -1.0
      ],
      [
        "Ġga",
        -1.0
      ],
      [
        "ĠMiddle",
        -1.0
      ],
      [
        "Ġcapture",
        -1.0
      ],
      [
        "Ġnatural",
        -1.0
      ],
      [
        "ĠAir",
        -1.0
      ],
      [
        "Ġalready",
        -1.0
      ],
      [
        "Ġbetter",
        -1.0
      ],
      [
        "Ġcombination",
        -1.0
      ],
      [
        "Ġconfirm",
        -1.0
      ],
      [
        "Ġtime",
        -1.0
      ],
      [
        "ure",
        -1.0
      ],
      [
        "Ġzero",
        -1.0
      ],
      [
        "Ġmaking",
        -1.0
      ],
      [
        "known",
        -1.0
      ],
      [
        "tical",
        -1.0
      ],
      [
        "Ġdescribed",
        -1.0
      ],
      [
        "Ġdepend",
        -1.0
      ],
      [
        "³",
        -1.0
      ],
      [
        "ĠPeople",
        -1.0
      ],
      [
        "Ġsk",
        -1.0
      ],
      [
        "Ġschool",
        -1.0
      ],
      [
        "19",
        -1.0
      ],
      [
        "Ġfaculty",
        -1.0
      ],
      [
        "Ġthr",
        -1.0
      ],
      [
        "Ġunderlying",
        -1.0
      ],
      [
        "Ġfour",
        -1.0
      ],
      [
        "Ġcategor",
        -1.0
      ],
      [
        "ra",
        -1.0
      ],
      [
        "net",
        -1.0
      ],
      [
        "Ġastronom",
        -1.0
      ],
      [
        "nging",
        -1.0
      ],
      [
        "ides",
        -1.0
      ],
      [
        "cer",
        -1.0
      ],
      [
        "Ġchoose",
        -1.0
      ],
      [
        "Ġdefinition",
        -1.0
      ],
      [
        "ĠThomas",
        -1.0
      ],
      [
        "Ġgive",
        -1.0
      ],
      [
        "Ġfamous",
        -1.0
      ],
      [
        "ĠAg",
        -1.0
      ],
      [
        "Ġlike",
        -1.0
      ],
      [
        "Ġfar",
        -1.0
      ],
      [
        "Ġstate",
        -1.0
      ],
      [
        "ges",
        -1.0
      ],
      [
        "ĠCha",
        -1.0
      ],
      [
        "lk",
        -1.0
      ],
      [
        "Ġgiving",
        -1.0
      ],
      [
        "Ġconver",
        -1.0
      ],
      [
        "rin",
        -1.0
      ],
      [
        "Ġevalu",
        -1.0
      ],
      [
        "ĠHouse",
        -1.0
      ],
      [
        "Ġtaking",
        -1.0
      ],
      [
        "Ġimportant",
        -1.0
      ],
      [
        "Ġbla",
        -1.0
      ],
      [
        "Ġdays",
        -1.0
      ],
      [
        "Ġpoverty",
        -1.0
      ],
      [
        "act",
        -1.0
      ],
      [
        "Ġcarry",
        -1.0
      ],
      [
        "Si",
        -1.0
      ],
      [
        "Ġdone",
        -1.0
      ],
      [
        "How",
        -1.0
      ],
      [
        "tu",
        -1.0
      ],
      [
        "Ġorgan",
        -1.0
      ],
      [
        "urricane",
        -1.0
      ],
      [
        "Ġtake",
        -1.0
      ],
      [
        "Ġ18",
        -1.0
      ],
      [
        "Ġmean",
        -1.0
      ],
      [
        "Ġillness",
        -1.0
      ],
      [
        "imate",
        -1.0
      ],
      [
        "tor",
        -1.0
      ],
      [
        "Ġsy",
        -1.0
      ],
      [
        "ĠPhil",
        -1.0
      ],
      [
        "İ",
        -1.0
      ],
      [
        "Ġtechnique",
        -1.0
      ],
      [
        "Ġbooks",
        -1.0
      ],
      [
        "Ġaround",
        -1.0
      ],
      [
        "Ġobject",
        -1.0
      ],
      [
        "ied",
        -1.0
      ],
      [
        "Ġjourney",
        -1.0
      ],
      [
        "ĠFrom",
        -1.0
      ],
      [
        "ul",
        -1.0
      ],
      [
        "Ġlikely",
        -1.0
      ],
      [
        "Ġyour",
        -1.0
      ],
      [
        "Ġsl",
        -1.0
      ],
      [
        "Ġlines",
        -1.0
      ],
      [
        "Ġroad",
        -1.0
      ],
      [
        "nting",
        -1.0
      ],
      [
        "Ġbasis",
        -1.0
      ],
      [
        "lar",
        -1.0
      ],
      [
        "Ġnetwork",
        -1.0
      ],
      [
        "Ġirr",
        -1.0
      ],
      [
        "Ġmight",
        -1.0
      ],
      [
        "Ġcor",
        -1.0
      ],
      [
        "âĢ¦",
        -1.0
      ],
      [
        "Ġwords",
        -1.0
      ],
      [
        "Ġnorth",
        -1.0
      ],
      [
        "Ġperform",
        -1.0
      ],
      [
        "Ġsuggest",
        -1.0
      ],
      [
        "Ġsimilar",
        -1.0
      ],
      [
        "Ġpractices",
        -1.0
      ],
      [
        "g",
        -1.0
      ],
      [
        "et",
        -1.0
      ],
      [
        "Ġshe",
        -1.0
      ],
      [
        "ĠMount",
        -1.0
      ],
      [
        "Ġperspective",
        -1.0
      ],
      [
        "us",
        -1.0
      ],
      [
        "Ġphenomen",
        -1.0
      ],
      [
        "Ġfa",
        -1.0
      ],
      [
        "Ġteachers",
        -1.0
      ],
      [
        "ĠGeorgia",
        -1.0
      ],
      [
        "Ġimagin",
        -1.0
      ],
      [
        "if",
        -1.0
      ],
      [
        "Ġcircumstances",
        -1.0
      ],
      [
        "ĠII",
        -1.0
      ],
      [
        "Se",
        -1.0
      ],
      [
        "ĠAr",
        -1.0
      ],
      [
        "ĠPe",
        -1.0
      ],
      [
        "lt",
        -1.0
      ],
      [
        "ĠControl",
        -1.0
      ],
      [
        "Ġrelatively",
        -1.0
      ],
      [
        "Ġco",
        -1.0
      ],
      [
        "ĠFrancis",
        -1.0
      ],
      [
        "Ġflow",
        -1.0
      ],
      [
        "ny",
        -1.0
      ],
      [
        "ç",
        -1.0
      ],
      [
        "Ġeasy",
        -1.0
      ],
      [
        "ful",
        -1.0
      ],
      [
        "Ġreplace",
        -1.0
      ],
      [
        "ĠGroup",
        -1.0
      ],
      [
        "Ġcell",
        -1.0
      ],
      [
        "ĠHo",
        -1.0
      ],
      [
        "Ġschools",
        -1.0
      ],
      [
        "ot",
        -1.0
      ],
      [
        ".,",
        -1.0
      ],
      [
        "Ġfrequency",
        -1.0
      ],
      [
        "Ġprovided",
        -1.0
      ],
      [
        "ĠWeb",
        -1.0
      ],
      [
        "Ġche",
        -1.0
      ],
      [
        "'",
        -1.0
      ],
      [
        "Ġmeasure",
        -1.0
      ],
      [
        "Ġcity",
        -1.0
      ],
      [
        "ĠMediterranean",
        -1.0
      ],
      [
        "oking",
        -1.0
      ],
      [
        "Ġinf",
        -1.0
      ],
      [
        "ville",
        -1.0
      ],
      [
        "Ġda",
        -1.0
      ],
      [
        "l",
        -1.0
      ],
      [
        "ĠT",
        -1.0
      ],
      [
        "Ġearliest",
        -1.0
      ],
      [
        "up",
        -1.0
      ],
      [
        "Į",
        -1.0
      ],
      [
        "Ġprefer",
        -1.0
      ],
      [
        "Ġhome",
        -1.0
      ],
      [
        "Ġreligious",
        -1.0
      ],
      [
        "Ġpoints",
        -1.0
      ],
      [
        "id",
        -1.0
      ],
      [
        "Ġmembrane",
        -1.0
      ],
      [
        "Ġcontribut",
        -1.0
      ],
      [
        "Ġaddition",
        -1.0
      ],
      [
        "ĠPi",
        -1.0
      ],
      [
        "Ġpresented",
        -1.0
      ],
      [
        "ne",
        -1.0
      ],
      [
        "ma",
        -1.0
      ],
      [
        "Ġlove",
        -1.0
      ],
      [
        "ject",
        -1.0
      ],
      [
        "ĠSa",
        -1.0
      ],
      [
        "Ġheld",
        -1.0
      ],
      [
        "Ġo",
        -1.0
      ],
      [
        "Ġequal",
        -1.0
      ],
      [
        "ĠTechnology",
        -1.0
      ],
      [
        "Ġnecessarily",
        -1.0
      ],
      [
        "Ġimmune",
        -1.0
      ],
      [
        "Ġenemy",
        -1.0
      ],
      [
        "Ġestablish",
        -1.0
      ],
      [
        "ge",
        -1.0
      ],
      [
        "Ġenvironment",
        -1.0
      ],
      [
        "ĠC",
        -1.0
      ],
      [
        "Ġhumans",
        -1.0
      ],
      [
        "ĠSome",
        -1.0
      ],
      [
        "now",
        -1.0
      ],
      [
        "Ġweapons",
        -1.0
      ],
      [
        "Ġturn",
        -1.0
      ],
      [
        "Ġsize",
        -1.0
      ],
      [
        "Ġgenes",
        -1.0
      ],
      [
        "lines",
        -1.0
      ],
      [
        "ndigenous",
        -1.0
      ],
      [
        "ĠJust",
        -1.0
      ],
      [
        "ibility",
        -1.0
      ],
      [
        "d",
        -1.0
      ],
      [
        "Ġsur",
        -1.0
      ],
      [
        "es",
        -1.0
      ],
      [
        "ling",
        -1.0
      ],
      [
        "Ġutil",
        -1.0
      ],
      [
        "It",
        -1.0
      ],
      [
        "Ġsu",
        -1.0
      ],
      [
        "fu",
        -1.0
      ],
      [
        "Ġdeath",
        -1.0
      ],
      [
        "Ġweather",
        -1.0
      ],
      [
        "Ġbrain",
        -1.0
      ],
      [
        "Ġrange",
        -1.0
      ],
      [
        "an",
        -1.0
      ],
      [
        "Ġstomach",
        -1.0
      ],
      [
        "Ġcontrovers",
        -1.0
      ],
      [
        "og",
        -1.0
      ],
      [
        "ĠMartin",
        -1.0
      ],
      [
        "Ġspeed",
        -1.0
      ],
      [
        "ste",
        -1.0
      ],
      [
        "ly",
        -1.0
      ],
      [
        "olution",
        -1.0
      ],
      [
        "pes",
        -1.0
      ],
      [
        "ean",
        -1.0
      ],
      [
        "Ġpoor",
        -1.0
      ],
      [
        "fa",
        -1.0
      ],
      [
        "uth",
        -1.0
      ],
      [
        "Ġresearchers",
        -1.0
      ],
      [
        "Ġeach",
        -1.0
      ],
      [
        "wh",
        -1.0
      ],
      [
        "Ä",
        -1.0
      ],
      [
        "ĠSecond",
        -1.0
      ],
      [
        "stitution",
        -1.0
      ],
      [
        "Ġweak",
        -1.0
      ],
      [
        "ctic",
        -1.0
      ],
      [
        "ĠRetrieved",
        -1.0
      ],
      [
        "ar",
        -1.0
      ],
      [
        "Ġfollow",
        -1.0
      ],
      [
        "Ġhad",
        -1.0
      ],
      [
        "Ġespecially",
        -1.0
      ],
      [
        "Ġeasier",
        -1.0
      ],
      [
        "ĠVol",
        -1.0
      ],
      [
        "De",
        -1.0
      ],
      [
        "nivers",
        -1.0
      ],
      [
        "EN",
        -1.0
      ],
      [
        "Ġobserv",
        -1.0
      ],
      [
        "Ġhighly",
        -1.0
      ],
      [
        "Ġfossil",
        -1.0
      ],
      [
        "Ġmission",
        -1.0
      ],
      [
        "Ġbeginning",
        -1.0
      ],
      [
        "Ġevents",
        -1.0
      ],
      [
        "art",
        -1.0
      ],
      [
        "ĠSpec",
        -1.0
      ],
      [
        "Ġroute",
        -1.0
      ],
      [
        "Ġquite",
        -1.0
      ],
      [
        "Ġquarter",
        -1.0
      ],
      [
        "usion",
        -1.0
      ],
      [
        "Ġbenefits",
        -1.0
      ],
      [
        "Ġsoftware",
        -1.0
      ],
      [
        "Ġdr",
        -1.0
      ],
      [
        "ngs",
        -1.0
      ],
      [
        "Ġhealthy",
        -1.0
      ],
      [
        "ĠPsych",
        -1.0
      ],
      [
        "Ġhappen",
        -1.0
      ],
      [
        "ably",
        -1.0
      ],
      [
        "ĠPhiladelphia",
        -1.0
      ],
      [
        "ĠGermany",
        -1.0
      ],
      [
        "Ġpractical",
        -1.0
      ],
      [
        "Con",
        -1.0
      ],
      [
        "ĠHuman",
        -1.0
      ],
      [
        "Ġcaused",
        -1.0
      ],
      [
        "erg",
        -1.0
      ],
      [
        "Ġlargest",
        -1.0
      ],
      [
        "Ġauthor",
        -1.0
      ],
      [
        "ture",
        -1.0
      ],
      [
        "ĠN",
        -1.0
      ],
      [
        "yp",
        -1.0
      ],
      [
        "Ġsimple",
        -1.0
      ],
      [
        "Ġnumerous",
        -1.0
      ],
      [
        "ĠSafety",
        -1.0
      ],
      [
        "Ġbuild",
        -1.0
      ],
      [
        "Ġname",
        -1.0
      ],
      [
        "ners",
        -1.0
      ],
      [
        "Ġ198",
        -1.0
      ],
      [
        "Ġlayer",
        -1.0
      ],
      [
        "Ġthought",
        -1.0
      ],
      [
        "Ġmigr",
        -1.0
      ],
      [
        "Ġhere",
        -1.0
      ],
      [
        "ological",
        -1.0
      ],
      [
        "Ġinvestment",
        -1.0
      ],
      [
        "Ġenhance",
        -1.0
      ],
      [
        "di",
        -1.0
      ],
      [
        "Ġdisturb",
        -1.0
      ],
      [
        "Ġland",
        -1.0
      ],
      [
        "Ġpre",
        -1.0
      ],
      [
        "Ġspecies",
        -1.0
      ],
      [
        "able",
        -1.0
      ],
      [
        "Ġdro",
        -1.0
      ],
      [
        "uring",
        -1.0
      ],
      [
        "Ĩ",
        -1.0
      ],
      [
        "rance",
        -1.0
      ],
      [
        "Ġserious",
        -1.0
      ],
      [
        "nu",
        -1.0
      ],
      [
        "ĠRi",
        -1.0
      ],
      [
        "ĠMod",
        -1.0
      ],
      [
        "Ġocean",
        -1.0
      ],
      [
        "ĠBritain",
        -1.0
      ],
      [
        "Ġ|",
        -1.0
      ],
      [
        "Ġflu",
        -1.0
      ],
      [
        "Ó",
        -1.0
      ],
      [
        "il",
        -1.0
      ],
      [
        "ĠThen",
        -1.0
      ],
      [
        "ĠY",
        -1.0
      ],
      [
        "ĠE",
        -1.0
      ],
      [
        "ĠDarwin",
        -1.0
      ],
      [
        "t",
        -1.0
      ],
      [
        "ever",
        -1.0
      ],
      [
        "Ġsaid",
        -1.0
      ],
      [
        "Ġmodel",
        -1.0
      ],
      [
        "Ġarea",
        -1.0
      ],
      [
        ")",
        -1.0
      ],
      [
        "Ġout",
        -1.0
      ],
      [
        "Ġvitamin",
        -1.0
      ],
      [
        "ened",
        -1.0
      ],
      [
        "Ġconstruct",
        -1.0
      ],
      [
        "New",
        -1.0
      ],
      [
        "Ġenough",
        -1.0
      ],
      [
        "ĠWo",
        -1.0
      ],
      [
        "Ġhypothe",
        -1.0
      ],
      [
        "Ġbattle",
        -1.0
      ],
      [
        "Ġmanage",
        -1.0
      ],
      [
        "ĠInc",
        -1.0
      ],
      [
        "ĠDepartment",
        -1.0
      ],
      [
        "Ġ15",
        -1.0
      ],
      [
        "eck",
        -1.0
      ],
      [
        "Ġcoordinat",
        -1.0
      ],
      [
        "Ġ2010",
        -1.0
      ],
      [
        "tric",
        -1.0
      ],
      [
        "=",
        -1.0
      ],
      [
        "Ġdesign",
        -1.0
      ],
      [
        "ev",
        -1.0
      ],
      [
        "ĠRu",
        -1.0
      ],
      [
        "tation",
        -1.0
      ],
      [
        "Ġtropical",
        -1.0
      ],
      [
        "We",
        -1.0
      ],
      [
        "Ġsubstance",
        -1.0
      ],
      [
        "ol",
        -1.0
      ],
      [
        "Ń",
        -1.0
      ],
      [
        "e",
        -1.0
      ],
      [
        "Ġparticular",
        -1.0
      ],
      [
        "ĠAssessment",
        -1.0
      ],
      [
        "ific",
        -1.0
      ],
      [
        "Ġpolicies",
        -1.0
      ],
      [
        "Ġrelevant",
        -1.0
      ],
      [
        "Ġthis",
        -1.0
      ],
      [
        "Ġteach",
        -1.0
      ],
      [
        "ran",
        -1.0
      ],
      [
        "Ġremo",
        -1.0
      ],
      [
        "ef",
        -1.0
      ],
      [
        "Ġlea",
        -1.0
      ],
      [
        "Ġarch",
        -1.0
      ],
      [
        "Ġexchange",
        -1.0
      ],
      [
        "Ġ60",
        -1.0
      ],
      [
        "Ġschedule",
        -1.0
      ],
      [
        "ĠB",
        -1.0
      ],
      [
        "Ġtraditional",
        -1.0
      ],
      [
        "Ġmy",
        -1.0
      ],
      [
        "gl",
        -1.0
      ],
      [
        "Ġefficiency",
        -1.0
      ],
      [
        "Ġ22",
        -1.0
      ],
      [
        "ĠSpace",
        -1.0
      ],
      [
        "pping",
        -1.0
      ],
      [
        "ĠVietnam",
        -1.0
      ],
      [
        "'re",
        -1.0
      ],
      [
        "Ġkind",
        -1.0
      ],
      [
        "uc",
        -1.0
      ],
      [
        "Ġleaves",
        -1.0
      ],
      [
        "Ġdetermined",
        -1.0
      ],
      [
        "Ġnon",
        -1.0
      ],
      [
        "Ġveget",
        -1.0
      ],
      [
        "Ġfact",
        -1.0
      ],
      [
        "Ġstudents",
        -1.0
      ],
      [
        "Ġwhy",
        -1.0
      ],
      [
        "ad",
        -1.0
      ],
      [
        "Ġbiggest",
        -1.0
      ],
      [
        "eep",
        -1.0
      ],
      [
        "ĠEnvironmental",
        -1.0
      ],
      [
        "Ġlab",
        -1.0
      ],
      [
        "Ġgood",
        -1.0
      ],
      [
        "atic",
        -1.0
      ],
      [
        "ess",
        -1.0
      ],
      [
        "Ġtruth",
        -1.0
      ],
      [
        "Ġproperties",
        -1.0
      ],
      [
        "Ġcal",
        -1.0
      ],
      [
        "Ġstorm",
        -1.0
      ],
      [
        "ĠVi",
        -1.0
      ],
      [
        "Ġcolon",
        -1.0
      ],
      [
        "ĠNa",
        -1.0
      ],
      [
        "G",
        -1.0
      ],
      [
        "Ġoutput",
        -1.0
      ],
      [
        "Ġvo",
        -1.0
      ],
      [
        "î",
        -1.0
      ],
      [
        "ĠChina",
        -1.0
      ],
      [
        "Ġport",
        -1.0
      ],
      [
        "Ġprojects",
        -1.0
      ],
      [
        "Ġuser",
        -1.0
      ],
      [
        "Ġcent",
        -1.0
      ],
      [
        "ai",
        -1.0
      ],
      [
        "ĠS",
        -1.0
      ],
      [
        "sting",
        -1.0
      ],
      [
        "ET",
        -1.0
      ],
      [
        "37",
        -1.0
      ],
      [
        "Ġreceive",
        -1.0
      ],
      [
        "ality",
        -1.0
      ],
      [
        "ĠOver",
        -1.0
      ],
      [
        "Ġobvious",
        -1.0
      ],
      [
        "Ġaccident",
        -1.0
      ],
      [
        "Ġwhite",
        -1.0
      ],
      [
        "Ġed",
        -1.0
      ],
      [
        "Ġbelong",
        -1.0
      ],
      [
        "Ġadded",
        -1.0
      ],
      [
        "Ġinstrument",
        -1.0
      ],
      [
        "Ġspeech",
        -1.0
      ],
      [
        "ĠUnited",
        -1.0
      ],
      [
        "ĠApril",
        -1.0
      ],
      [
        "Ġcampaign",
        -1.0
      ],
      [
        "more",
        -1.0
      ],
      [
        "izing",
        -1.0
      ],
      [
        "inal",
        -1.0
      ],
      [
        "Ġwall",
        -1.0
      ],
      [
        "Ġinvolved",
        -1.0
      ],
      [
        "kers",
        -1.0
      ],
      [
        "Ġsurround",
        -1.0
      ],
      [
        "Ġdid",
        -1.0
      ],
      [
        "ible",
        -1.0
      ],
      [
        "Ġdon",
        -1.0
      ],
      [
        "Ġitems",
        -1.0
      ],
      [
        "ĠFlorida",
        -1.0
      ],
      [
        "Ġfish",
        -1.0
      ],
      [
        "Ġ,",
        -1.0
      ],
      [
        "P",
        -1.0
      ],
      [
        "Ġprofessional",
        -1.0
      ],
      [
        "wi",
        -1.0
      ],
      [
        "Ġnothing",
        -1.0
      ],
      [
        "Ġh",
        -1.0
      ],
      [
        "which",
        -1.0
      ],
      [
        "Ġcondition",
        -1.0
      ],
      [
        "Ġ194",
        -1.0
      ],
      [
        "ĠInstead",
        -1.0
      ],
      [
        "Ġin",
        -1.0
      ],
      [
        "un",
        -1.0
      ],
      [
        "Ġcontact",
        -1.0
      ],
      [
        "This",
        -1.0
      ],
      [
        "ull",
        -1.0
      ],
      [
        "Ġvisit",
        -1.0
      ],
      [
        "using",
        -1.0
      ],
      [
        "Ġtrans",
        -1.0
      ],
      [
        "ear",
        -1.0
      ],
      [
        "ĠEmpire",
        -1.0
      ],
      [
        "Ç",
        -1.0
      ],
      [
        "ĠFor",
        -1.0
      ],
      [
        "Ġpregnant",
        -1.0
      ],
      [
        "Ġincome",
        -1.0
      ],
      [
        "Ġbr",
        -1.0
      ],
      [
        "ĠâĢĺ",
        -1.0
      ],
      [
        "Ġwoman",
        -1.0
      ],
      [
        "ĠHer",
        -1.0
      ],
      [
        "ons",
        -1.0
      ],
      [
        "Ġdifferences",
        -1.0
      ],
      [
        "Ġsmaller",
        -1.0
      ],
      [
        "Ġshare",
        -1.0
      ],
      [
        "ĠAugust",
        -1.0
      ],
      [
        "ĠMedicine",
        -1.0
      ],
      [
        "no",
        -1.0
      ],
      [
        "ģ",
        -1.0
      ],
      [
        "Ġagriculture",
        -1.0
      ],
      [
        "Ġenzyme",
        -1.0
      ],
      [
        "Ġall",
        -1.0
      ],
      [
        "Ġmilk",
        -1.0
      ],
      [
        "On",
        -1.0
      ],
      [
        "Ġrain",
        -1.0
      ],
      [
        "Ġtissue",
        -1.0
      ],
      [
        "Ġwork",
        -1.0
      ],
      [
        "ĠAn",
        -1.0
      ],
      [
        "st",
        -1.0
      ],
      [
        "ĠMost",
        -1.0
      ],
      [
        "ĠMexico",
        -1.0
      ],
      [
        "ich",
        -1.0
      ],
      [
        "Ġdemand",
        -1.0
      ],
      [
        "Ġ50",
        -1.0
      ],
      [
        "Ġop",
        -1.0
      ],
      [
        "I",
        -1.0
      ],
      [
        "Ġaverage",
        -1.0
      ],
      [
        "Ġbad",
        -1.0
      ],
      [
        "Ġprimarily",
        -1.0
      ],
      [
        "ew",
        -1.0
      ],
      [
        "Ġsetting",
        -1.0
      ],
      [
        "rit",
        -1.0
      ],
      [
        "Ġkept",
        -1.0
      ],
      [
        "Ġsubstantial",
        -1.0
      ],
      [
        "Ġstorage",
        -1.0
      ],
      [
        "Ġreport",
        -1.0
      ],
      [
        "||",
        -1.0
      ],
      [
        "ned",
        -1.0
      ],
      [
        "ently",
        -1.0
      ],
      [
        "Ġnews",
        -1.0
      ],
      [
        "âĢĵ",
        -1.0
      ],
      [
        "Ġreleased",
        -1.0
      ],
      [
        "ĠState",
        -1.0
      ],
      [
        "ĠMy",
        -1.0
      ],
      [
        "ĠGr",
        -1.0
      ],
      [
        "Ġcarried",
        -1.0
      ],
      [
        "Ġresults",
        -1.0
      ],
      [
        "Ġpast",
        -1.0
      ],
      [
        "Ġafter",
        -1.0
      ],
      [
        "rds",
        -1.0
      ],
      [
        "Ġprice",
        -1.0
      ],
      [
        "Ġtheory",
        -1.0
      ],
      [
        "Ġmuseum",
        -1.0
      ],
      [
        "[",
        -1.0
      ],
      [
        "ke",
        -1.0
      ],
      [
        "use",
        -1.0
      ],
      [
        "Ġvaccine",
        -1.0
      ],
      [
        "Ġonline",
        -1.0
      ],
      [
        "Ġprovide",
        -1.0
      ],
      [
        "Ġhow",
        -1.0
      ],
      [
        "Ġessential",
        -1.0
      ],
      [
        "Ġdrinking",
        -1.0
      ],
      [
        "ĠLondon",
        -1.0
      ],
      [
        "ĠLaboratory",
        -1.0
      ],
      [
        "Ġ11",
        -1.0
      ],
      [
        "Ġtobacco",
        -1.0
      ],
      [
        "Ġbound",
        -1.0
      ],
      [
        "Ġvirtu",
        -1.0
      ],
      [
        "Ġfast",
        -1.0
      ],
      [
        "Ġeducational",
        -1.0
      ],
      [
        "ĠCommittee",
        -1.0
      ],
      [
        "Ġreading",
        -1.0
      ],
      [
        "Ġsurrounding",
        -1.0
      ],
      [
        "Ġnecessary",
        -1.0
      ],
      [
        "Ġseem",
        -1.0
      ],
      [
        "Ġfaith",
        -1.0
      ],
      [
        "Ġmovement",
        -1.0
      ],
      [
        "Ġdecline",
        -1.0
      ],
      [
        "Ġcome",
        -1.0
      ],
      [
        "Ġprivate",
        -1.0
      ],
      [
        "):",
        -1.0
      ],
      [
        "Ġcommittee",
        -1.0
      ],
      [
        "ĠInternational",
        -1.0
      ],
      [
        "Ġexperiment",
        -1.0
      ],
      [
        "Ġfra",
        -1.0
      ],
      [
        "Ġidea",
        -1.0
      ],
      [
        "Ġmonitor",
        -1.0
      ],
      [
        "ĠSen",
        -1.0
      ],
      [
        "ĠEncyclopedia",
        -1.0
      ],
      [
        "Ġplans",
        -1.0
      ],
      [
        "Ġhorse",
        -1.0
      ],
      [
        "Ġv",
        -1.0
      ],
      [
        "ĠDNA",
        -1.0
      ],
      [
        "Ġthings",
        -1.0
      ],
      [
        "ping",
        -1.0
      ],
      [
        "Ġclassroom",
        -1.0
      ],
      [
        "ĠMedical",
        -1.0
      ],
      [
        "rine",
        -1.0
      ],
      [
        "Ġpowerful",
        -1.0
      ],
      [
        "ior",
        -1.0
      ],
      [
        "ĠUniversity",
        -1.0
      ],
      [
        "Ġguide",
        -1.0
      ],
      [
        "45",
        -1.0
      ],
      [
        "Ġflood",
        -1.0
      ],
      [
        "Ġmunicipal",
        -1.0
      ],
      [
        "Ġactions",
        -1.0
      ],
      [
        "Ġrandom",
        -1.0
      ],
      [
        "iled",
        -1.0
      ],
      [
        "Ġstruggle",
        -1.0
      ],
      [
        "Ġcolour",
        -1.0
      ],
      [
        "Ġmagn",
        -1.0
      ],
      [
        "Ġday",
        -1.0
      ],
      [
        "Ġsure",
        -1.0
      ],
      [
        "ĠDirector",
        -1.0
      ],
      [
        "Ġchanges",
        -1.0
      ],
      [
        "Ġyield",
        -1.0
      ],
      [
        "craft",
        -1.0
      ],
      [
        "ening",
        -1.0
      ],
      [
        "ĠJournal",
        -1.0
      ],
      [
        "Ġthreat",
        -1.0
      ],
      [
        "ĠComp",
        -1.0
      ],
      [
        "Lo",
        -1.0
      ],
      [
        "Ġteam",
        -1.0
      ],
      [
        "Ġvolume",
        -1.0
      ],
      [
        "Ġthere",
        -1.0
      ],
      [
        "ined",
        -1.0
      ],
      [
        "Ġbut",
        -1.0
      ],
      [
        "Ġlack",
        -1.0
      ],
      [
        "Ļ",
        -1.0
      ],
      [
        "Ġassist",
        -1.0
      ],
      [
        "ic",
        -1.0
      ],
      [
        "ĠTrans",
        -1.0
      ],
      [
        "ĭ",
        -1.0
      ],
      [
        "ister",
        -1.0
      ],
      [
        "im",
        -1.0
      ],
      [
        "Ġcommonly",
        -1.0
      ],
      [
        "ap",
        -1.0
      ],
      [
        "Ġoccup",
        -1.0
      ],
      [
        "Ġprinciple",
        -1.0
      ],
      [
        "Ġstra",
        -1.0
      ],
      [
        "Ġli",
        -1.0
      ],
      [
        "Ġbaby",
        -1.0
      ],
      [
        "ised",
        -1.0
      ],
      [
        "É",
        -1.0
      ],
      [
        "Ġlead",
        -1.0
      ],
      [
        "ĠG",
        -1.0
      ],
      [
        "Ġcho",
        -1.0
      ],
      [
        "T",
        -1.0
      ],
      [
        "Ġlast",
        -1.0
      ],
      [
        "L",
        -1.0
      ],
      [
        "Ġdifficult",
        -1.0
      ],
      [
        "Ġstructure",
        -1.0
      ],
      [
        "But",
        -1.0
      ],
      [
        "ĠMary",
        -1.0
      ],
      [
        "ĠAd",
        -1.0
      ],
      [
        "á¹Ń",
        -1.0
      ],
      [
        "ell",
        -1.0
      ],
      [
        "lands",
        -1.0
      ],
      [
        "iz",
        -1.0
      ],
      [
        "Ġfe",
        -1.0
      ],
      [
        "http",
        -1.0
      ],
      [
        "izes",
        -1.0
      ],
      [
        "ces",
        -1.0
      ],
      [
        "dy",
        -1.0
      ],
      [
        "Ġuse",
        -1.0
      ],
      [
        "ĠNow",
        -1.0
      ],
      [
        "bu",
        -1.0
      ],
      [
        "Ġreported",
        -1.0
      ],
      [
        "Ġpro",
        -1.0
      ],
      [
        "yn",
        -1.0
      ],
      [
        "Ġable",
        -1.0
      ],
      [
        "D",
        -1.0
      ],
      [
        "Ġhealth",
        -1.0
      ],
      [
        "its",
        -1.0
      ],
      [
        "/",
        -1.0
      ],
      [
        "Ġsil",
        -1.0
      ],
      [
        "fore",
        -1.0
      ],
      [
        "Ģ",
        -1.0
      ],
      [
        "ĠCollege",
        -1.0
      ],
      [
        "Ġcrisis",
        -1.0
      ],
      [
        "ĠChildren",
        -1.0
      ],
      [
        "Ġup",
        -1.0
      ],
      [
        "sy",
        -1.0
      ],
      [
        "cing",
        -1.0
      ],
      [
        "Ġremember",
        -1.0
      ],
      [
        "Ġbirth",
        -1.0
      ],
      [
        "Ġret",
        -1.0
      ],
      [
        "âĢĶ",
        -1.0
      ],
      [
        "Ġrecogn",
        -1.0
      ],
      [
        "ors",
        -1.0
      ],
      [
        "Re",
        -1.0
      ],
      [
        "lls",
        -1.0
      ],
      [
        "ign",
        -1.0
      ],
      [
        "ures",
        -1.0
      ],
      [
        "ĠPlan",
        -1.0
      ],
      [
        "Ġmulti",
        -1.0
      ],
      [
        "Ġtreatment",
        -1.0
      ],
      [
        "Ġmethods",
        -1.0
      ],
      [
        "Ġalso",
        -1.0
      ],
      [
        "Ġal",
        -1.0
      ],
      [
        "Ġmentioned",
        -1.0
      ],
      [
        "ship",
        -1.0
      ],
      [
        "Ġbul",
        -1.0
      ],
      [
        "ì",
        -1.0
      ],
      [
        "Ġdra",
        -1.0
      ],
      [
        "io",
        -1.0
      ],
      [
        "Ġopposite",
        -1.0
      ],
      [
        "stitute",
        -1.0
      ],
      [
        "ature",
        -1.0
      ],
      [
        "ated",
        -1.0
      ],
      [
        "Ġdifferent",
        -1.0
      ],
      [
        "work",
        -1.0
      ],
      [
        "Ġpoly",
        -1.0
      ],
      [
        "ĠWhite",
        -1.0
      ],
      [
        "Ġlicens",
        -1.0
      ],
      [
        "Ġcu",
        -1.0
      ],
      [
        "Ġdocument",
        -1.0
      ],
      [
        "21",
        -1.0
      ],
      [
        "Ĳ",
        -1.0
      ],
      [
        "Ġfirst",
        -1.0
      ],
      [
        "br",
        -1.0
      ],
      [
        "ĠÂ",
        -1.0
      ],
      [
        "ively",
        -1.0
      ],
      [
        "Ġshow",
        -1.0
      ],
      [
        "rf",
        -1.0
      ],
      [
        "Ġfront",
        -1.0
      ],
      [
        "ĠNews",
        -1.0
      ],
      [
        "Ġtown",
        -1.0
      ],
      [
        "Ġeyes",
        -1.0
      ],
      [
        "Ġstrength",
        -1.0
      ],
      [
        "Ġgraph",
        -1.0
      ],
      [
        "Ġcontinu",
        -1.0
      ],
      [
        "struct",
        -1.0
      ],
      [
        "Z",
        -1.0
      ],
      [
        "ĠFamily",
        -1.0
      ],
      [
        "Ġmatter",
        -1.0
      ],
      [
        "ished",
        -1.0
      ],
      [
        "Ġimpossible",
        -1.0
      ],
      [
        "yal",
        -1.0
      ],
      [
        "Ġdescribe",
        -1.0
      ],
      [
        "Ġmap",
        -1.0
      ],
      [
        "Ġmachine",
        -1.0
      ],
      [
        "Ġminor",
        -1.0
      ],
      [
        "Ġi",
        -1.0
      ],
      [
        "ĠâĢľ",
        -1.0
      ],
      [
        "Ġprobably",
        -1.0
      ],
      [
        "Ġriver",
        -1.0
      ],
      [
        "»",
        -1.0
      ],
      [
        "Ġpermanent",
        -1.0
      ],
      [
        "Ġservice",
        -1.0
      ],
      [
        "Ġtwenty",
        -1.0
      ],
      [
        "Ġra",
        -1.0
      ],
      [
        "sters",
        -1.0
      ],
      [
        "Ġengine",
        -1.0
      ],
      [
        "rd",
        -1.0
      ],
      [
        "Ġpra",
        -1.0
      ],
      [
        "Ġmass",
        -1.0
      ],
      [
        "ymptom",
        -1.0
      ],
      [
        "Ġdiscussion",
        -1.0
      ],
      [
        "Ġcheck",
        -1.0
      ],
      [
        "Ġpretty",
        -1.0
      ],
      [
        "Ġfight",
        -1.0
      ],
      [
        "ey",
        -1.0
      ],
      [
        "nch",
        -1.0
      ],
      [
        "Ġnearly",
        -1.0
      ],
      [
        "æ",
        -1.0
      ],
      [
        "our",
        -1.0
      ],
      [
        "Ġfacilit",
        -1.0
      ],
      [
        "00",
        -1.0
      ],
      [
        "Ġserve",
        -1.0
      ],
      [
        "Ġchallenge",
        -1.0
      ],
      [
        "Ã",
        -1.0
      ],
      [
        "ĠDi",
        -1.0
      ],
      [
        "Ġconf",
        -1.0
      ],
      [
        "Ġgener",
        -1.0
      ],
      [
        "Ġcompared",
        -1.0
      ],
      [
        "ĠSun",
        -1.0
      ],
      [
        "Ġsuch",
        -1.0
      ],
      [
        "Ġtw",
        -1.0
      ],
      [
        "ster",
        -1.0
      ],
      [
        "ĠAfter",
        -1.0
      ],
      [
        "mu",
        -1.0
      ],
      [
        "val",
        -1.0
      ],
      [
        "Ġdecade",
        -1.0
      ],
      [
        "Ġmind",
        -1.0
      ],
      [
        "Ġsustain",
        -1.0
      ],
      [
        "Ġpossibly",
        -1.0
      ],
      [
        "te",
        -1.0
      ],
      [
        "ĠAmerica",
        -1.0
      ],
      [
        "Ġmaterials",
        -1.0
      ],
      [
        "ĠNi",
        -1.0
      ],
      [
        "Ġbusiness",
        -1.0
      ],
      [
        "ĠSouth",
        -1.0
      ],
      [
        "ĠCar",
        -1.0
      ],
      [
        "naissance",
        -1.0
      ],
      [
        "Ġvoice",
        -1.0
      ],
      [
        "we",
        -1.0
      ],
      [
        "29",
        -1.0
      ],
      [
        "Ġexpress",
        -1.0
      ],
      [
        "Ġill",
        -1.0
      ],
      [
        "Ġno",
        -1.0
      ],
      [
        "isms",
        -1.0
      ],
      [
        "Ġachieve",
        -1.0
      ],
      [
        "¶",
        -1.0
      ],
      [
        "Û",
        -1.0
      ],
      [
        "ologist",
        -1.0
      ],
      [
        "ĠOne",
        -1.0
      ],
      [
        "Ġdraw",
        -1.0
      ],
      [
        "lying",
        -1.0
      ],
      [
        "Ġtruly",
        -1.0
      ],
      [
        "ĠSince",
        -1.0
      ],
      [
        "ative",
        -1.0
      ],
      [
        "ĠAm",
        -1.0
      ],
      [
        ");",
        -1.0
      ],
      [
        "ĠNe",
        -1.0
      ],
      [
        "17",
        -1.0
      ],
      [
        "Ġsay",
        -1.0
      ],
      [
        "Ġlanguage",
        -1.0
      ],
      [
        "Ġelement",
        -1.0
      ],
      [
        "È",
        -1.0
      ],
      [
        "Ġdistinct",
        -1.0
      ],
      [
        "ĠTi",
        -1.0
      ],
      [
        "Ġscholar",
        -1.0
      ],
      [
        "self",
        -1.0
      ],
      [
        "Ġstay",
        -1.0
      ],
      [
        "Ġ2001",
        -1.0
      ],
      [
        "Ġdetail",
        -1.0
      ],
      [
        "cal",
        -1.0
      ],
      [
        "Ġhabit",
        -1.0
      ],
      [
        "Ġgoes",
        -1.0
      ],
      [
        "Ġadult",
        -1.0
      ],
      [
        "Ġintellectual",
        -1.0
      ],
      [
        "Ġtesting",
        -1.0
      ],
      [
        "Ġcolumn",
        -1.0
      ],
      [
        "Ġdiscuss",
        -1.0
      ],
      [
        "ĠAtlantic",
        -1.0
      ],
      [
        "ĠThey",
        -1.0
      ],
      [
        "ĠGu",
        -1.0
      ],
      [
        "tion",
        -1.0
      ],
      [
        "Ġwhere",
        -1.0
      ],
      [
        "ii",
        -1.0
      ],
      [
        "ron",
        -1.0
      ],
      [
        "ogen",
        -1.0
      ],
      [
        "dden",
        -1.0
      ],
      [
        "Ġkey",
        -1.0
      ],
      [
        "Ġinformation",
        -1.0
      ],
      [
        "Ġnote",
        -1.0
      ],
      [
        "ĠWork",
        -1.0
      ],
      [
        "Ġlive",
        -1.0
      ],
      [
        "Ġcircle",
        -1.0
      ],
      [
        "nic",
        -1.0
      ],
      [
        "Ġhours",
        -1.0
      ],
      [
        "Ġweight",
        -1.0
      ],
      [
        "c",
        -1.0
      ],
      [
        "Ġchapter",
        -1.0
      ],
      [
        "ĠPro",
        -1.0
      ],
      [
        "ĠWa",
        -1.0
      ],
      [
        "Ġreal",
        -1.0
      ],
      [
        "Ġsites",
        -1.0
      ],
      [
        "ified",
        -1.0
      ],
      [
        "´",
        -1.0
      ],
      [
        "ĠAfrica",
        -1.0
      ],
      [
        "Ġrep",
        -1.0
      ],
      [
        "II",
        -1.0
      ],
      [
        "Ġequ",
        -1.0
      ],
      [
        "o",
        -1.0
      ],
      [
        "Ġmut",
        -1.0
      ],
      [
        "ĠBuddh",
        -1.0
      ],
      [
        "Ġlink",
        -1.0
      ],
      [
        "Ġhusband",
        -1.0
      ],
      [
        "ose",
        -1.0
      ],
      [
        "ate",
        -1.0
      ],
      [
        "ĠCre",
        -1.0
      ],
      [
        "Ġscientist",
        -1.0
      ],
      [
        "Ġbroad",
        -1.0
      ],
      [
        "ve",
        -1.0
      ],
      [
        "ĠColorado",
        -1.0
      ],
      [
        "hold",
        -1.0
      ],
      [
        "Ġtell",
        -1.0
      ],
      [
        "Ġsla",
        -1.0
      ],
      [
        "ĠSociety",
        -1.0
      ],
      [
        "ĠFirst",
        -1.0
      ],
      [
        "Ġphysic",
        -1.0
      ],
      [
        "Ġtoo",
        -1.0
      ],
      [
        "Ġmade",
        -1.0
      ],
      [
        "Ġpark",
        -1.0
      ],
      [
        "zo",
        -1.0
      ],
      [
        "Ġ195",
        -1.0
      ],
      [
        "Ġpatient",
        -1.0
      ],
      [
        "Ġproblems",
        -1.0
      ],
      [
        "Ġonce",
        -1.0
      ],
      [
        "Ġletter",
        -1.0
      ],
      [
        "ag",
        -1.0
      ],
      [
        "Ġcurrent",
        -1.0
      ],
      [
        "199",
        -1.0
      ],
      [
        "Ġheat",
        -1.0
      ],
      [
        "Ġenforce",
        -1.0
      ],
      [
        "atory",
        -1.0
      ],
      [
        "ĠPacific",
        -1.0
      ],
      [
        "ough",
        -1.0
      ],
      [
        "ming",
        -1.0
      ],
      [
        "Ġresistance",
        -1.0
      ],
      [
        "Ġrel",
        -1.0
      ],
      [
        "olving",
        -1.0
      ],
      [
        "ĠGlobal",
        -1.0
      ],
      [
        "^",
        -1.0
      ],
      [
        "Ġplace",
        -1.0
      ],
      [
        "Ġwind",
        -1.0
      ],
      [
        "ST",
        -1.0
      ],
      [
        "Ġconventional",
        -1.0
      ],
      [
        "ĠCor",
        -1.0
      ],
      [
        "ables",
        -1.0
      ],
      [
        "Ġimplement",
        -1.0
      ],
      [
        "Ġsignificant",
        -1.0
      ],
      [
        "Ex",
        -1.0
      ],
      [
        "Ġknow",
        -1.0
      ],
      [
        "Ġlarger",
        -1.0
      ],
      [
        "Ġearlier",
        -1.0
      ],
      [
        "Ġfinal",
        -1.0
      ],
      [
        "Ġfederal",
        -1.0
      ],
      [
        "Ġminutes",
        -1.0
      ],
      [
        "Ġshowed",
        -1.0
      ],
      [
        "ļ",
        -1.0
      ],
      [
        "Ġcivil",
        -1.0
      ],
      [
        "ŀ",
        -1.0
      ],
      [
        "em",
        -1.0
      ],
      [
        "az",
        -1.0
      ],
      [
        "Ġsta",
        -1.0
      ],
      [
        "ates",
        -1.0
      ],
      [
        "Ġclimate",
        -1.0
      ],
      [
        "des",
        -1.0
      ],
      [
        "To",
        -1.0
      ],
      [
        "wer",
        -1.0
      ],
      [
        "Ġstrong",
        -1.0
      ],
      [
        "encies",
        -1.0
      ],
      [
        "shed",
        -1.0
      ],
      [
        "Ġunderstood",
        -1.0
      ],
      [
        "Un",
        -1.0
      ],
      [
        "vention",
        -1.0
      ],
      [
        "Ġbased",
        -1.0
      ],
      [
        "Ġpi",
        -1.0
      ],
      [
        "Ġstri",
        -1.0
      ],
      [
        "Ġresidents",
        -1.0
      ],
      [
        "ĠHu",
        -1.0
      ],
      [
        "-",
        -1.0
      ],
      [
        "Ġdramatic",
        -1.0
      ],
      [
        "7",
        -1.0
      ],
      [
        "Ġdiet",
        -1.0
      ],
      [
        "ĠSu",
        -1.0
      ],
      [
        "Ġalcohol",
        -1.0
      ],
      [
        "Ġbring",
        -1.0
      ],
      [
        "Ġpopular",
        -1.0
      ],
      [
        "ig",
        -1.0
      ],
      [
        "Ġchar",
        -1.0
      ],
      [
        "Ġopen",
        -1.0
      ],
      [
        "Ġlaunch",
        -1.0
      ],
      [
        "å",
        -1.0
      ],
      [
        "Ġexten",
        -1.0
      ],
      [
        "}",
        -1.0
      ],
      [
        "ĠSoviet",
        -1.0
      ],
      [
        "Ġanimal",
        -1.0
      ],
      [
        "eet",
        -1.0
      ],
      [
        "aw",
        -1.0
      ],
      [
        "Ġthree",
        -1.0
      ],
      [
        "Ġmethod",
        -1.0
      ],
      [
        "ĠCambridge",
        -1.0
      ],
      [
        "Ġengineering",
        -1.0
      ],
      [
        "ĠQu",
        -1.0
      ],
      [
        "Ġmetal",
        -1.0
      ],
      [
        "struction",
        -1.0
      ],
      [
        "ĠAmericans",
        -1.0
      ],
      [
        "ĠSan",
        -1.0
      ],
      [
        "Ġstudy",
        -1.0
      ],
      [
        "Ġopportunity",
        -1.0
      ],
      [
        "Ġway",
        -1.0
      ],
      [
        "Ġcomponent",
        -1.0
      ],
      [
        "Ġcontain",
        -1.0
      ],
      [
        "Ġpressure",
        -1.0
      ],
      [
        "Ġhorizon",
        -1.0
      ],
      [
        "Ġdangerous",
        -1.0
      ],
      [
        "ines",
        -1.0
      ],
      [
        "Ġago",
        -1.0
      ],
      [
        "port",
        -1.0
      ],
      [
        "ĠCent",
        -1.0
      ],
      [
        "Ġmost",
        -1.0
      ],
      [
        "St",
        -1.0
      ],
      [
        "Ġactivity",
        -1.0
      ],
      [
        "Ġgalax",
        -1.0
      ],
      [
        "±",
        -1.0
      ],
      [
        "Ġrun",
        -1.0
      ],
      [
        "¹",
        -1.0
      ],
      [
        "ym",
        -1.0
      ],
      [
        "ĠCatholic",
        -1.0
      ],
      [
        "Ġbecause",
        -1.0
      ],
      [
        "Ġmin",
        -1.0
      ],
      [
        "Ġchromosome",
        -1.0
      ],
      [
        "Ġseems",
        -1.0
      ],
      [
        "Ġtemp",
        -1.0
      ],
      [
        "Ġingredient",
        -1.0
      ],
      [
        "Ġcollaborat",
        -1.0
      ],
      [
        "Ġass",
        -1.0
      ],
      [
        "like",
        -1.0
      ],
      [
        "Ġfuel",
        -1.0
      ],
      [
        "Ġtests",
        -1.0
      ],
      [
        "Ġperformance",
        -1.0
      ],
      [
        "Ġeverything",
        -1.0
      ],
      [
        ").",
        -1.0
      ],
      [
        "No",
        -1.0
      ],
      [
        "Ġepi",
        -1.0
      ],
      [
        "Ġfat",
        -1.0
      ],
      [
        "ĠWater",
        -1.0
      ],
      [
        "Ġdistribution",
        -1.0
      ],
      [
        "Ġeasily",
        -1.0
      ],
      [
        "Ġacademic",
        -1.0
      ],
      [
        "ĠCenter",
        -1.0
      ],
      [
        "Ġmouth",
        -1.0
      ],
      [
        "Ġentire",
        -1.0
      ],
      [
        "Ġleft",
        -1.0
      ],
      [
        "uilding",
        -1.0
      ],
      [
        "Ġrepresent",
        -1.0
      ],
      [
        "Ġbrought",
        -1.0
      ],
      [
        "nfortunately",
        -1.0
      ],
      [
        "Ġ2005",
        -1.0
      ],
      [
        "ĠShe",
        -1.0
      ],
      [
        "Ġsettle",
        -1.0
      ],
      [
        "Ġcurriculum",
        -1.0
      ],
      [
        "Ò",
        -1.0
      ],
      [
        "Ġprofessor",
        -1.0
      ],
      [
        "Ġlandscape",
        -1.0
      ],
      [
        "rupt",
        -1.0
      ],
      [
        "Ġproperty",
        -1.0
      ],
      [
        "ĠMan",
        -1.0
      ],
      [
        "htm",
        -1.0
      ],
      [
        "Ġdecision",
        -1.0
      ],
      [
        "ult",
        -1.0
      ],
      [
        "Ġclearly",
        -1.0
      ],
      [
        "ĠAssociation",
        -1.0
      ],
      [
        "bal",
        -1.0
      ],
      [
        "ĠLord",
        -1.0
      ],
      [
        "Ġbenefit",
        -1.0
      ],
      [
        "Ġrequest",
        -1.0
      ],
      [
        "Ġchange",
        -1.0
      ],
      [
        "Ġproducing",
        -1.0
      ],
      [
        "ê",
        -1.0
      ],
      [
        "13",
        -1.0
      ],
      [
        "Ġ26",
        -1.0
      ],
      [
        "er",
        -1.0
      ],
      [
        "Ġsomewhat",
        -1.0
      ],
      [
        "Ġfree",
        -1.0
      ],
      [
        "Ġamong",
        -1.0
      ],
      [
        "book",
        -1.0
      ],
      [
        "Ġtypes",
        -1.0
      ],
      [
        "Ġinter",
        -1.0
      ],
      [
        "Ġexcept",
        -1.0
      ],
      [
        "zing",
        -1.0
      ],
      [
        "Ġvia",
        -1.0
      ],
      [
        "ĠPark",
        -1.0
      ],
      [
        "ĠX",
        -1.0
      ],
      [
        "Ġship",
        -1.0
      ],
      [
        "Ġanti",
        -1.0
      ],
      [
        "Ġdivi",
        -1.0
      ],
      [
        "Ġtransfer",
        -1.0
      ],
      [
        "Ġbefore",
        -1.0
      ],
      [
        "ĠTe",
        -1.0
      ],
      [
        "Ġfollowed",
        -1.0
      ],
      [
        "Ġpopulation",
        -1.0
      ],
      [
        "ĠNovember",
        -1.0
      ],
      [
        "V",
        -1.0
      ],
      [
        "Ġforms",
        -1.0
      ],
      [
        "ĠWhile",
        -1.0
      ],
      [
        "Ġ=",
        -1.0
      ],
      [
        "Ġrise",
        -1.0
      ],
      [
        "Ġquestions",
        -1.0
      ],
      [
        "Ġnotice",
        -1.0
      ],
      [
        "ĠEd",
        -1.0
      ],
      [
        "Ġterms",
        -1.0
      ],
      [
        "Ġstandard",
        -1.0
      ],
      [
        "ial",
        -1.0
      ],
      [
        "Ġcommunicate",
        -1.0
      ],
      [
        "Ġinva",
        -1.0
      ],
      [
        "Ġpsych",
        -1.0
      ],
      [
        "ank",
        -1.0
      ],
      [
        "Ġspo",
        -1.0
      ],
      [
        "ĠPh",
        -1.0
      ],
      [
        "thing",
        -1.0
      ],
      [
        "Ġdirection",
        -1.0
      ],
      [
        "ĠAustralia",
        -1.0
      ],
      [
        "out",
        -1.0
      ],
      [
        "Ġtask",
        -1.0
      ],
      [
        "Ġ2013",
        -1.0
      ],
      [
        "Ġsecurity",
        -1.0
      ],
      [
        "Ġcollection",
        -1.0
      ],
      [
        "Ġtarget",
        -1.0
      ],
      [
        "Ġbe",
        -1.0
      ],
      [
        "Ġdedicated",
        -1.0
      ],
      [
        "ĠHowever",
        -1.0
      ],
      [
        "Ġnot",
        -1.0
      ],
      [
        "ĠIslam",
        -1.0
      ],
      [
        "Ġbatt",
        -1.0
      ],
      [
        "Ġsharp",
        -1.0
      ],
      [
        "Ġfeel",
        -1.0
      ],
      [
        "ĠUnion",
        -1.0
      ],
      [
        "Ġ1990",
        -1.0
      ],
      [
        "Ġget",
        -1.0
      ],
      [
        "Ġwild",
        -1.0
      ],
      [
        "Ġyet",
        -1.0
      ],
      [
        "ile",
        -1.0
      ],
      [
        "ĠCounty",
        -1.0
      ],
      [
        "Ġdetect",
        -1.0
      ],
      [
        "Ġdepression",
        -1.0
      ],
      [
        "Ġloss",
        -1.0
      ],
      [
        "ĠRoman",
        -1.0
      ],
      [
        "Ġinterest",
        -1.0
      ],
      [
        "Ġdoing",
        -1.0
      ],
      [
        "ĠSh",
        -1.0
      ],
      [
        "H",
        -1.0
      ],
      [
        "gr",
        -1.0
      ],
      [
        "Ġgene",
        -1.0
      ],
      [
        "Ġhaving",
        -1.0
      ],
      [
        "ĠMore",
        -1.0
      ],
      [
        "Ġ2009",
        -1.0
      ],
      [
        "Ġinteresting",
        -1.0
      ],
      [
        "Ġfurther",
        -1.0
      ],
      [
        "Ġparticip",
        -1.0
      ],
      [
        "zi",
        -1.0
      ],
      [
        "Ġabove",
        -1.0
      ],
      [
        "Ġang",
        -1.0
      ],
      [
        "by",
        -1.0
      ],
      [
        "arly",
        -1.0
      ],
      [
        "ck",
        -1.0
      ],
      [
        "Ġany",
        -1.0
      ],
      [
        "Ġreduction",
        -1.0
      ],
      [
        "Ġerror",
        -1.0
      ],
      [
        "28",
        -1.0
      ],
      [
        "Ġmemory",
        -1.0
      ],
      [
        "Ġrest",
        -1.0
      ],
      [
        "ous",
        -1.0
      ],
      [
        "ral",
        -1.0
      ],
      [
        "ä",
        -1.0
      ],
      [
        "ited",
        -1.0
      ],
      [
        "rp",
        -1.0
      ],
      [
        "Ġthousands",
        -1.0
      ],
      [
        "Ġprepar",
        -1.0
      ],
      [
        "lation",
        -1.0
      ],
      [
        "ord",
        -1.0
      ],
      [
        "Ġone",
        -1.0
      ],
      [
        "red",
        -1.0
      ],
      [
        "Ġpursu",
        -1.0
      ],
      [
        "Ġpatterns",
        -1.0
      ],
      [
        "Ġlight",
        -1.0
      ],
      [
        "gen",
        -1.0
      ],
      [
        "ĠCa",
        -1.0
      ],
      [
        "ĠAfrican",
        -1.0
      ],
      [
        "Ġdue",
        -1.0
      ],
      [
        "Ġmiles",
        -1.0
      ],
      [
        "Ġplanning",
        -1.0
      ],
      [
        "ĠMon",
        -1.0
      ],
      [
        "Ġpromote",
        -1.0
      ],
      [
        "AS",
        -1.0
      ],
      [
        "Ġsyn",
        -1.0
      ],
      [
        "ĠCu",
        -1.0
      ],
      [
        "Ġallerg",
        -1.0
      ],
      [
        "Ġorigin",
        -1.0
      ],
      [
        "Ġdifference",
        -1.0
      ],
      [
        "Ġ2007",
        -1.0
      ],
      [
        "Ġfo",
        -1.0
      ],
      [
        "Ġchanged",
        -1.0
      ],
      [
        "Ã¡",
        -1.0
      ],
      [
        "lp",
        -1.0
      ],
      [
        "Ġsuccessful",
        -1.0
      ],
      [
        "ĠCouncil",
        -1.0
      ],
      [
        "Ġexpect",
        -1.0
      ],
      [
        "RI",
        -1.0
      ],
      [
        "Pro",
        -1.0
      ],
      [
        "dge",
        -1.0
      ],
      [
        "Ġcount",
        -1.0
      ],
      [
        "Ġhar",
        -1.0
      ],
      [
        "Ġkeep",
        -1.0
      ],
      [
        "ĠGreek",
        -1.0
      ],
      [
        "der",
        -1.0
      ],
      [
        "Ġlitera",
        -1.0
      ],
      [
        "Ġparent",
        -1.0
      ],
      [
        "Ġequivalent",
        -1.0
      ],
      [
        "Ġestablished",
        -1.0
      ],
      [
        "Ġw",
        -1.0
      ],
      [
        "Ġrecover",
        -1.0
      ],
      [
        "bl",
        -1.0
      ],
      [
        "Ġsigns",
        -1.0
      ],
      [
        "nds",
        -1.0
      ],
      [
        "Ġshape",
        -1.0
      ],
      [
        "Ġbegan",
        -1.0
      ],
      [
        "Ġdrug",
        -1.0
      ],
      [
        "Ġliber",
        -1.0
      ],
      [
        "Ġclear",
        -1.0
      ],
      [
        "Ġproject",
        -1.0
      ],
      [
        "ding",
        -1.0
      ],
      [
        "ton",
        -1.0
      ],
      [
        "ning",
        -1.0
      ],
      [
        "Ġoutbreak",
        -1.0
      ],
      [
        "Ġnumber",
        -1.0
      ],
      [
        "Ġincluded",
        -1.0
      ],
      [
        "ĠMay",
        -1.0
      ],
      [
        "Ġmeaning",
        -1.0
      ],
      [
        "Ġsho",
        -1.0
      ],
      [
        "ĠPalestin",
        -1.0
      ],
      [
        "gi",
        -1.0
      ],
      [
        "Ġassociated",
        -1.0
      ],
      [
        "Ġtrees",
        -1.0
      ],
      [
        "Ġadjust",
        -1.0
      ],
      [
        "Ġmarriage",
        -1.0
      ],
      [
        "nks",
        -1.0
      ],
      [
        "¯",
        -1.0
      ],
      [
        "ists",
        -1.0
      ],
      [
        "Ġsupplement",
        -1.0
      ],
      [
        "Ġrather",
        -1.0
      ],
      [
        "Ġfunction",
        -1.0
      ],
      [
        "ways",
        -1.0
      ],
      [
        "Ġwhom",
        -1.0
      ],
      [
        "ĠMar",
        -1.0
      ],
      [
        "do",
        -1.0
      ],
      [
        "Ġcircu",
        -1.0
      ],
      [
        "ies",
        -1.0
      ],
      [
        "(",
        -1.0
      ],
      [
        "Ġnation",
        -1.0
      ],
      [
        "Ġvision",
        -1.0
      ],
      [
        "Ġunusual",
        -1.0
      ],
      [
        "Ġsmo",
        -1.0
      ],
      [
        "Ġsevere",
        -1.0
      ],
      [
        "Ġliving",
        -1.0
      ],
      [
        "Ġsafety",
        -1.0
      ],
      [
        "Ġmen",
        -1.0
      ],
      [
        "Ġsupp",
        -1.0
      ],
      [
        "Ġavailable",
        -1.0
      ],
      [
        "Ġrule",
        -1.0
      ],
      [
        "Ġothers",
        -1.0
      ],
      [
        "ĠMa",
        -1.0
      ],
      [
        "Ġsecond",
        -1.0
      ],
      [
        "Ġspring",
        -1.0
      ],
      [
        "Ġsquare",
        -1.0
      ],
      [
        "Ġbank",
        -1.0
      ],
      [
        "Ġconditions",
        -1.0
      ],
      [
        "ro",
        -1.0
      ],
      [
        "Ġmore",
        -1.0
      ],
      [
        "ĠF",
        -1.0
      ],
      [
        "land",
        -1.0
      ],
      [
        "Ġfind",
        -1.0
      ],
      [
        "ĠCommission",
        -1.0
      ],
      [
        "ĠCancer",
        -1.0
      ],
      [
        "Ċ",
        -1.0
      ],
      [
        "Ġ$",
        -1.0
      ],
      [
        "ing",
        -1.0
      ],
      [
        "lu",
        -1.0
      ],
      [
        "ld",
        -1.0
      ],
      [
        "ĠLouis",
        -1.0
      ],
      [
        "ĠJoseph",
        -1.0
      ],
      [
        "Ġsuper",
        -1.0
      ],
      [
        "ĠGa",
        -1.0
      ],
      [
        "Ġwithin",
        -1.0
      ],
      [
        "Ġalways",
        -1.0
      ],
      [
        "Ġincreased",
        -1.0
      ],
      [
        "Ġlet",
        -1.0
      ],
      [
        "fo",
        -1.0
      ],
      [
        "eb",
        -1.0
      ],
      [
        "tal",
        -1.0
      ],
      [
        "ring",
        -1.0
      ],
      [
        "Ġmodern",
        -1.0
      ],
      [
        "ĠGe",
        -1.0
      ],
      [
        "all",
        -1.0
      ],
      [
        "Ġfinancial",
        -1.0
      ],
      [
        "Ŀ",
        -1.0
      ],
      [
        "Ġhydr",
        -1.0
      ],
      [
        "ĠAcademy",
        -1.0
      ],
      [
        "Ġfi",
        -1.0
      ],
      [
        "position",
        -1.0
      ],
      [
        "Ġbecome",
        -1.0
      ],
      [
        "over",
        -1.0
      ],
      [
        "Ġissue",
        -1.0
      ],
      [
        "time",
        -1.0
      ],
      [
        "Ġ-",
        -1.0
      ],
      [
        "Ġrole",
        -1.0
      ],
      [
        "Ġmi",
        -1.0
      ],
      [
        "ans",
        -1.0
      ],
      [
        "Ġneeds",
        -1.0
      ],
      [
        "Ġaggressive",
        -1.0
      ],
      [
        "Ġsurgery",
        -1.0
      ],
      [
        "ency",
        -1.0
      ],
      [
        "Ġdark",
        -1.0
      ],
      [
        "ED",
        -1.0
      ],
      [
        "Î",
        -1.0
      ],
      [
        "Ġpass",
        -1.0
      ],
      [
        "Ġdesigned",
        -1.0
      ],
      [
        "ĠGovernment",
        -1.0
      ],
      [
        "Ġlow",
        -1.0
      ],
      [
        "Ġinc",
        -1.0
      ],
      [
        "ĠCh",
        -1.0
      ],
      [
        "Ġfailure",
        -1.0
      ],
      [
        "ard",
        -1.0
      ],
      [
        "Ġagain",
        -1.0
      ],
      [
        "vi",
        -1.0
      ],
      [
        "amp",
        -1.0
      ],
      [
        "Ġpeople",
        -1.0
      ],
      [
        "Ġdetails",
        -1.0
      ],
      [
        "ĠArmy",
        -1.0
      ],
      [
        "Ġcharacteristics",
        -1.0
      ],
      [
        "Ġstu",
        -1.0
      ],
      [
        "Ġplease",
        -1.0
      ],
      [
        "Ġnative",
        -1.0
      ],
      [
        "Ġwe",
        -1.0
      ],
      [
        "ane",
        -1.0
      ],
      [
        "Ġattract",
        -1.0
      ],
      [
        "ress",
        -1.0
      ],
      [
        "Ġface",
        -1.0
      ],
      [
        "Ġmodels",
        -1.0
      ],
      [
        "Ġ5",
        -1.0
      ],
      [
        "ĠBu",
        -1.0
      ],
      [
        "Ġpresent",
        -1.0
      ],
      [
        "Ġfood",
        -1.0
      ],
      [
        "Ġnegoti",
        -1.0
      ],
      [
        "Ġleast",
        -1.0
      ],
      [
        "Ġfocus",
        -1.0
      ],
      [
        "Ġ14",
        -1.0
      ],
      [
        "ural",
        -1.0
      ],
      [
        "Ġtr",
        -1.0
      ],
      [
        "yl",
        -1.0
      ],
      [
        "Ġpage",
        -1.0
      ],
      [
        "Ġdollars",
        -1.0
      ],
      [
        "Ġcoming",
        -1.0
      ],
      [
        "Ġdecided",
        -1.0
      ],
      [
        "ĠHistoric",
        -1.0
      ],
      [
        "ĠKentucky",
        -1.0
      ],
      [
        "Ġattend",
        -1.0
      ],
      [
        "ick",
        -1.0
      ],
      [
        "Ġadults",
        -1.0
      ],
      [
        "Ġstatistic",
        -1.0
      ],
      [
        "Ġ30",
        -1.0
      ],
      [
        "Ġexist",
        -1.0
      ],
      [
        "Ġsources",
        -1.0
      ],
      [
        "Ġfoot",
        -1.0
      ],
      [
        "ô",
        -1.0
      ],
      [
        "Ġvalues",
        -1.0
      ],
      [
        "9",
        -1.0
      ],
      [
        "ri",
        -1.0
      ],
      [
        "Ġperhaps",
        -1.0
      ],
      [
        "Ġabnormal",
        -1.0
      ],
      [
        "equ",
        -1.0
      ],
      [
        "ID",
        -1.0
      ],
      [
        "Ġcovered",
        -1.0
      ],
      [
        "Ġoccur",
        -1.0
      ],
      [
        "Ġmobile",
        -1.0
      ],
      [
        "40",
        -1.0
      ],
      [
        "titude",
        -1.0
      ],
      [
        "IN",
        -1.0
      ],
      [
        "Ġbit",
        -1.0
      ],
      [
        "Ġthan",
        -1.0
      ],
      [
        "ese",
        -1.0
      ],
      [
        "Ġpredict",
        -1.0
      ],
      [
        "ĠSeptember",
        -1.0
      ],
      [
        "ĠRo",
        -1.0
      ],
      [
        "elling",
        -1.0
      ],
      [
        "Ġsociety",
        -1.0
      ],
      [
        "âĢľ",
        -1.0
      ],
      [
        "ers",
        -1.0
      ],
      [
        "Ġconcentr",
        -1.0
      ],
      [
        "Ġwar",
        -1.0
      ],
      [
        "hu",
        -1.0
      ],
      [
        "Ġchemical",
        -1.0
      ],
      [
        "Ġres",
        -1.0
      ],
      [
        "Ġsn",
        -1.0
      ],
      [
        "Ġcan",
        -1.0
      ],
      [
        "Ġover",
        -1.0
      ],
      [
        "23",
        -1.0
      ],
      [
        "ty",
        -1.0
      ],
      [
        "Ġmust",
        -1.0
      ],
      [
        "th",
        -1.0
      ],
      [
        "Ġadd",
        -1.0
      ],
      [
        "Ġemissions",
        -1.0
      ],
      [
        "ĠDay",
        -1.0
      ],
      [
        "Ġfive",
        -1.0
      ],
      [
        "Ġof",
        -1.0
      ],
      [
        "Ġfriend",
        -1.0
      ],
      [
        "Ġthey",
        -1.0
      ],
      [
        "Ġassessment",
        -1.0
      ],
      [
        "Ġcare",
        -1.0
      ],
      [
        "Ġme",
        -1.0
      ],
      [
        "Ġz",
        -1.0
      ],
      [
        "nate",
        -1.0
      ],
      [
        "Ġsingle",
        -1.0
      ],
      [
        "Ġcomparison",
        -1.0
      ],
      [
        "Ġindividual",
        -1.0
      ],
      [
        "Ġlegal",
        -1.0
      ],
      [
        "Ġ190",
        -1.0
      ],
      [
        "am",
        -1.0
      ],
      [
        "Ġmilitary",
        -1.0
      ],
      [
        "Ġlevel",
        -1.0
      ],
      [
        "ĠReg",
        -1.0
      ],
      [
        "vision",
        -1.0
      ],
      [
        "ged",
        -1.0
      ],
      [
        "ĠAnd",
        -1.0
      ],
      [
        "ks",
        -1.0
      ],
      [
        "Ġtherapy",
        -1.0
      ],
      [
        "ius",
        -1.0
      ],
      [
        "Ġfl",
        -1.0
      ],
      [
        "Ġencourage",
        -1.0
      ],
      [
        "38",
        -1.0
      ],
      [
        "Ġcharacter",
        -1.0
      ],
      [
        "Ġhuman",
        -1.0
      ],
      [
        "Ġradio",
        -1.0
      ],
      [
        "Ġchannel",
        -1.0
      ],
      [
        "Ġlimit",
        -1.0
      ],
      [
        "Ġre",
        -1.0
      ],
      [
        "cked",
        -1.0
      ],
      [
        "Ġitself",
        -1.0
      ],
      [
        "Ġpresident",
        -1.0
      ],
      [
        "Ġfruit",
        -1.0
      ],
      [
        "Ġprevent",
        -1.0
      ],
      [
        "Ġla",
        -1.0
      ],
      [
        "v",
        -1.0
      ],
      [
        "ĠFree",
        -1.0
      ],
      [
        "ea",
        -1.0
      ],
      [
        "ak",
        -1.0
      ],
      [
        "ĠMor",
        -1.0
      ],
      [
        "One",
        -1.0
      ],
      [
        "Ġwaste",
        -1.0
      ],
      [
        "ĠIn",
        -1.0
      ],
      [
        "ds",
        -1.0
      ],
      [
        "ens",
        -1.0
      ],
      [
        "nning",
        -1.0
      ],
      [
        "name",
        -1.0
      ],
      [
        "By",
        -1.0
      ],
      [
        "Ġinstance",
        -1.0
      ],
      [
        "Ġwidespread",
        -1.0
      ],
      [
        "Ġgetting",
        -1.0
      ],
      [
        "ings",
        -1.0
      ],
      [
        "Ġwent",
        -1.0
      ],
      [
        "90",
        -1.0
      ],
      [
        "let",
        -1.0
      ],
      [
        "Ġconstant",
        -1.0
      ],
      [
        "ER",
        -1.0
      ],
      [
        "Ġvillage",
        -1.0
      ],
      [
        "11",
        -1.0
      ],
      [
        "Ġroot",
        -1.0
      ],
      [
        "Ġspecial",
        -1.0
      ],
      [
        "ĩ",
        -1.0
      ],
      [
        "º",
        -1.0
      ],
      [
        "Ġdog",
        -1.0
      ],
      [
        "Ġturned",
        -1.0
      ],
      [
        "Ġreach",
        -1.0
      ],
      [
        "Ġalthough",
        -1.0
      ],
      [
        "pper",
        -1.0
      ],
      [
        "ories",
        -1.0
      ],
      [
        "ust",
        -1.0
      ],
      [
        "Ġheavy",
        -1.0
      ],
      [
        "Ġcourse",
        -1.0
      ],
      [
        "Ġa",
        -1.0
      ],
      [
        "ĠTh",
        -1.0
      ],
      [
        "Ġfear",
        -1.0
      ],
      [
        "ie",
        -1.0
      ],
      [
        "nel",
        -1.0
      ],
      [
        "Ġmineral",
        -1.0
      ],
      [
        "Ġappro",
        -1.0
      ],
      [
        "ĠNorth",
        -1.0
      ],
      [
        "Ġenthusias",
        -1.0
      ],
      [
        "At",
        -1.0
      ],
      [
        "Ġpay",
        -1.0
      ],
      [
        "Ġhave",
        -1.0
      ],
      [
        "ĠZ",
        -1.0
      ],
      [
        "en",
        -1.0
      ],
      [
        "Ġargue",
        -1.0
      ],
      [
        "ï",
        -1.0
      ],
      [
        "ault",
        -1.0
      ],
      [
        "ores",
        -1.0
      ],
      [
        "ious",
        -1.0
      ],
      [
        "Ġdegree",
        -1.0
      ],
      [
        "Ġrecent",
        -1.0
      ],
      [
        "Ġimmediately",
        -1.0
      ],
      [
        "Ġparty",
        -1.0
      ],
      [
        "Ġcentury",
        -1.0
      ],
      [
        "ular",
        -1.0
      ],
      [
        "Ġcreated",
        -1.0
      ],
      [
        "`",
        -1.0
      ],
      [
        "nd",
        -1.0
      ],
      [
        "Ġ13",
        -1.0
      ],
      [
        "Ġinvest",
        -1.0
      ],
      [
        "Ġexample",
        -1.0
      ],
      [
        "ĠArizona",
        -1.0
      ],
      [
        "Ġdown",
        -1.0
      ],
      [
        "Â",
        -1.0
      ],
      [
        "ĠDisease",
        -1.0
      ],
      [
        "Ġneuro",
        -1.0
      ],
      [
        "Ġlate",
        -1.0
      ],
      [
        "Ġworkers",
        -1.0
      ],
      [
        "Ġconclu",
        -1.0
      ],
      [
        "ient",
        -1.0
      ],
      [
        "Ġmountain",
        -1.0
      ],
      [
        "Ġmer",
        -1.0
      ],
      [
        "ĠAlexand",
        -1.0
      ],
      [
        "Ġsh",
        -1.0
      ],
      [
        "ten",
        -1.0
      ],
      [
        "Ġtreated",
        -1.0
      ],
      [
        "ĠYour",
        -1.0
      ],
      [
        "Ġlife",
        -1.0
      ],
      [
        "ru",
        -1.0
      ],
      [
        "Ġmet",
        -1.0
      ],
      [
        "Source",
        -1.0
      ],
      [
        "ĠKennedy",
        -1.0
      ],
      [
        "Gr",
        -1.0
      ],
      [
        "¸",
        -1.0
      ],
      [
        "Ġfit",
        -1.0
      ],
      [
        "bes",
        -1.0
      ],
      [
        "ities",
        -1.0
      ],
      [
        "mp",
        -1.0
      ],
      [
        "oth",
        -1.0
      ],
      [
        "Ġhttp",
        -1.0
      ],
      [
        "75",
        -1.0
      ],
      [
        "Ġmental",
        -1.0
      ],
      [
        "Ġfavor",
        -1.0
      ],
      [
        "Ġsna",
        -1.0
      ],
      [
        "Ġneeded",
        -1.0
      ],
      [
        "Ġle",
        -1.0
      ],
      [
        "eign",
        -1.0
      ],
      [
        "ĠDa",
        -1.0
      ],
      [
        "Ġwi",
        -1.0
      ],
      [
        "Ġcomprehensive",
        -1.0
      ],
      [
        "fe",
        -1.0
      ],
      [
        "mb",
        -1.0
      ],
      [
        "\\",
        -1.0
      ],
      [
        "Ġbuilding",
        -1.0
      ],
      [
        "Ġexisting",
        -1.0
      ],
      [
        "Ġcontext",
        -1.0
      ],
      [
        "Ġimmigr",
        -1.0
      ],
      [
        "ĠI",
        -1.0
      ],
      [
        "nger",
        -1.0
      ],
      [
        "ct",
        -1.0
      ],
      [
        "ologists",
        -1.0
      ],
      [
        "ound",
        -1.0
      ],
      [
        "Ġu",
        -1.0
      ],
      [
        "Ġinform",
        -1.0
      ],
      [
        "Ġwitness",
        -1.0
      ],
      [
        "ĠBy",
        -1.0
      ],
      [
        "owing",
        -1.0
      ],
      [
        "Ġen",
        -1.0
      ],
      [
        "Ġthird",
        -1.0
      ],
      [
        "Ġvirus",
        -1.0
      ],
      [
        "Ġdatabase",
        -1.0
      ],
      [
        "Ġprocess",
        -1.0
      ],
      [
        "Additional",
        -1.0
      ],
      [
        "Ġ186",
        -1.0
      ],
      [
        "ĠDemocra",
        -1.0
      ],
      [
        "used",
        -1.0
      ],
      [
        "ĠDr",
        -1.0
      ],
      [
        "Ġclaim",
        -1.0
      ],
      [
        "ĠEnergy",
        -1.0
      ],
      [
        "w",
        -1.0
      ],
      [
        "Ġtrying",
        -1.0
      ],
      [
        "ĠInd",
        -1.0
      ],
      [
        "Ġaccount",
        -1.0
      ],
      [
        "Ġserved",
        -1.0
      ],
      [
        "iness",
        -1.0
      ],
      [
        "oo",
        -1.0
      ],
      [
        "eries",
        -1.0
      ],
      [
        "Ġbecame",
        -1.0
      ],
      [
        "Ġreview",
        -1.0
      ],
      [
        "Ġoffers",
        -1.0
      ],
      [
        "ß",
        -1.0
      ],
      [
        "Ġrecommend",
        -1.0
      ],
      [
        "22",
        -1.0
      ],
      [
        "ats",
        -1.0
      ],
      [
        "hood",
        -1.0
      ],
      [
        "ĠFa",
        -1.0
      ],
      [
        "bo",
        -1.0
      ],
      [
        "ĠJe",
        -1.0
      ],
      [
        "Ġcall",
        -1.0
      ],
      [
        "Ġsumm",
        -1.0
      ],
      [
        "Ġduring",
        -1.0
      ],
      [
        "Ġextreme",
        -1.0
      ],
      [
        "ill",
        -1.0
      ],
      [
        "Ġinfrastructure",
        -1.0
      ],
      [
        "ĠPublic",
        -1.0
      ],
      [
        "Ġcolleagues",
        -1.0
      ],
      [
        "ĠSte",
        -1.0
      ],
      [
        "Ġ8",
        -1.0
      ],
      [
        "Ġtele",
        -1.0
      ],
      [
        "15",
        -1.0
      ],
      [
        "Ġd",
        -1.0
      ],
      [
        "Before",
        -1.0
      ],
      [
        "Ġdi",
        -1.0
      ],
      [
        "ire",
        -1.0
      ],
      [
        "ĠTherefore",
        -1.0
      ],
      [
        "ites",
        -1.0
      ],
      [
        "ĠCo",
        -1.0
      ],
      [
        "eg",
        -1.0
      ],
      [
        "Ġexposure",
        -1.0
      ],
      [
        "ought",
        -1.0
      ],
      [
        "Ġpat",
        -1.0
      ],
      [
        "gin",
        -1.0
      ],
      [
        "ĠDavid",
        -1.0
      ],
      [
        "Ġphoto",
        -1.0
      ],
      [
        "Ġmanufactur",
        -1.0
      ],
      [
        "Ġjob",
        -1.0
      ],
      [
        "Ġmathematic",
        -1.0
      ],
      [
        "Ġdomestic",
        -1.0
      ],
      [
        "Ġkids",
        -1.0
      ],
      [
        "Ġlog",
        -1.0
      ],
      [
        "ĠStandard",
        -1.0
      ],
      [
        "ĠRoosevelt",
        -1.0
      ],
      [
        "ina",
        -1.0
      ],
      [
        "Ġice",
        -1.0
      ],
      [
        "ite",
        -1.0
      ],
      [
        "Ġcardiovascular",
        -1.0
      ],
      [
        "ĠJewish",
        -1.0
      ],
      [
        "eed",
        -1.0
      ],
      [
        "ĳ",
        -1.0
      ],
      [
        "Ġborder",
        -1.0
      ],
      [
        "Ġagainst",
        -1.0
      ],
      [
        "tions",
        -1.0
      ],
      [
        "Figure",
        -1.0
      ],
      [
        "ĠDu",
        -1.0
      ],
      [
        "Ġactivities",
        -1.0
      ],
      [
        "Ġenormous",
        -1.0
      ],
      [
        "Ġviol",
        -1.0
      ],
      [
        "ĠChristian",
        -1.0
      ],
      [
        "Ġdry",
        -1.0
      ],
      [
        "Ġcould",
        -1.0
      ],
      [
        "Ġteacher",
        -1.0
      ],
      [
        "Ġconscious",
        -1.0
      ],
      [
        "n",
        -1.0
      ],
      [
        "Ġdisorders",
        -1.0
      ],
      [
        "pl",
        -1.0
      ],
      [
        "Th",
        -1.0
      ],
      [
        "ones",
        -1.0
      ],
      [
        "Ġworship",
        -1.0
      ],
      [
        "vis",
        -1.0
      ],
      [
        "Ġanxiety",
        -1.0
      ],
      [
        "ost",
        -1.0
      ],
      [
        "Ġpopulations",
        -1.0
      ],
      [
        "Ġlived",
        -1.0
      ],
      [
        "ids",
        -1.0
      ],
      [
        "Ġprovides",
        -1.0
      ],
      [
        "Ġhydro",
        -1.0
      ],
      [
        "ĠMichigan",
        -1.0
      ],
      [
        "Ġstep",
        -1.0
      ],
      [
        "ls",
        -1.0
      ],
      [
        "Ġarm",
        -1.0
      ],
      [
        "ert",
        -1.0
      ],
      [
        "Ġhand",
        -1.0
      ],
      [
        "ĠRussia",
        -1.0
      ],
      [
        "Ġemp",
        -1.0
      ],
      [
        "Ġpart",
        -1.0
      ],
      [
        "cha",
        -1.0
      ],
      [
        "ĠLanguage",
        -1.0
      ],
      [
        "Ġsugar",
        -1.0
      ],
      [
        "ĠBlack",
        -1.0
      ],
      [
        "Ġsocial",
        -1.0
      ],
      [
        "Ġtrack",
        -1.0
      ],
      [
        "ĠAc",
        -1.0
      ],
      [
        "Ġtoday",
        -1.0
      ],
      [
        "Ý",
        -1.0
      ],
      [
        "Ġonly",
        -1.0
      ],
      [
        "Despite",
        -1.0
      ],
      [
        "bi",
        -1.0
      ],
      [
        "ĠHawaii",
        -1.0
      ],
      [
        "AL",
        -1.0
      ],
      [
        "Ġbreak",
        -1.0
      ],
      [
        "ark",
        -1.0
      ],
      [
        "j",
        -1.0
      ],
      [
        "org",
        -1.0
      ],
      [
        "Ġchanging",
        -1.0
      ],
      [
        "Ġincreasing",
        -1.0
      ],
      [
        "Ġ25",
        -1.0
      ],
      [
        "Ġha",
        -1.0
      ],
      [
        "teenth",
        -1.0
      ],
      [
        "Ġwa",
        -1.0
      ],
      [
        "ering",
        -1.0
      ],
      [
        "nes",
        -1.0
      ],
      [
        "Ġexpected",
        -1.0
      ],
      [
        "Ġoffice",
        -1.0
      ],
      [
        "Ġwatch",
        -1.0
      ],
      [
        "Ġglobal",
        -1.0
      ],
      [
        "ash",
        -1.0
      ],
      [
        "ut",
        -1.0
      ],
      [
        "M",
        -1.0
      ],
      [
        "Ġgroups",
        -1.0
      ],
      [
        "ain",
        -1.0
      ],
      [
        "Ġcreate",
        -1.0
      ],
      [
        "Ġchildren",
        -1.0
      ],
      [
        "ki",
        -1.0
      ],
      [
        "Ġinto",
        -1.0
      ],
      [
        "Ġvocabulary",
        -1.0
      ],
      [
        "Ġseveral",
        -1.0
      ],
      [
        "Ġintegr",
        -1.0
      ],
      [
        "ĠWe",
        -1.0
      ],
      [
        "lo",
        -1.0
      ],
      [
        "Ġcollege",
        -1.0
      ],
      [
        "cy",
        -1.0
      ],
      [
        "Ġsw",
        -1.0
      ],
      [
        "ked",
        -1.0
      ],
      [
        "Li",
        -1.0
      ],
      [
        "ĠGerman",
        -1.0
      ],
      [
        "Ġja",
        -1.0
      ],
      [
        "Ġgenetic",
        -1.0
      ],
      [
        "ĠAfghanistan",
        -1.0
      ],
      [
        "ĠTu",
        -1.0
      ],
      [
        "Ġvi",
        -1.0
      ],
      [
        "Ġfamilies",
        -1.0
      ],
      [
        "Ġpur",
        -1.0
      ],
      [
        "Ġtaken",
        -1.0
      ],
      [
        "Ġselect",
        -1.0
      ],
      [
        "And",
        -1.0
      ],
      [
        "Ġright",
        -1.0
      ],
      [
        "Ġinstall",
        -1.0
      ],
      [
        "Ġbottom",
        -1.0
      ],
      [
        "ĠKansas",
        -1.0
      ],
      [
        "Ġcriminal",
        -1.0
      ],
      [
        "Ġfull",
        -1.0
      ],
      [
        "ĠCr",
        -1.0
      ],
      [
        "Ġfactor",
        -1.0
      ],
      [
        "ek",
        -1.0
      ],
      [
        "Ġpublic",
        -1.0
      ],
      [
        "ĠJews",
        -1.0
      ],
      [
        "iss",
        -1.0
      ],
      [
        "ws",
        -1.0
      ],
      [
        "Ġdepartment",
        -1.0
      ],
      [
        "Ġrequire",
        -1.0
      ],
      [
        "ization",
        -1.0
      ],
      [
        "Ġimproving",
        -1.0
      ],
      [
        "ĠWi",
        -1.0
      ],
      [
        "Ġits",
        -1.0
      ],
      [
        "ught",
        -1.0
      ],
      [
        "Ġ2006",
        -1.0
      ],
      [
        "Ġalone",
        -1.0
      ],
      [
        "gg",
        -1.0
      ],
      [
        "Ġaction",
        -1.0
      ],
      [
        "gan",
        -1.0
      ],
      [
        "Ġcreat",
        -1.0
      ],
      [
        "Ġlocated",
        -1.0
      ],
      [
        "Ġje",
        -1.0
      ],
      [
        "Ġreturn",
        -1.0
      ],
      [
        "Ġexecut",
        -1.0
      ],
      [
        "Ġstrategy",
        -1.0
      ],
      [
        "Ġillustr",
        -1.0
      ],
      [
        "Ġpharmac",
        -1.0
      ],
      [
        "Ġstatus",
        -1.0
      ],
      [
        "Ġap",
        -1.0
      ],
      [
        "Ġlabor",
        -1.0
      ],
      [
        "Ġlook",
        -1.0
      ],
      [
        "Ġreserv",
        -1.0
      ],
      [
        "rs",
        -1.0
      ],
      [
        "Ġblack",
        -1.0
      ],
      [
        "Ġt",
        -1.0
      ],
      [
        "ĠFrench",
        -1.0
      ],
      [
        "cture",
        -1.0
      ],
      [
        "Ġstop",
        -1.0
      ],
      [
        "PA",
        -1.0
      ],
      [
        "Ġrock",
        -1.0
      ],
      [
        "Ġdiabetes",
        -1.0
      ],
      [
        "Ġhistorical",
        -1.0
      ],
      [
        "E",
        -1.0
      ],
      [
        "ĠHa",
        -1.0
      ],
      [
        "Ġpack",
        -1.0
      ],
      [
        "Ġand",
        -1.0
      ],
      [
        "Ġcities",
        -1.0
      ],
      [
        "Ġunit",
        -1.0
      ],
      [
        "Ġscenario",
        -1.0
      ],
      [
        "Ġspace",
        -1.0
      ],
      [
        "ographic",
        -1.0
      ],
      [
        "Ġpolitical",
        -1.0
      ],
      [
        "ĠCon",
        -1.0
      ],
      [
        "Ġth",
        -1.0
      ],
      [
        "Ġinsu",
        -1.0
      ],
      [
        "200",
        -1.0
      ],
      [
        "Ġearly",
        -1.0
      ],
      [
        "Ġindustry",
        -1.0
      ],
      [
        "her",
        -1.0
      ],
      [
        "ously",
        -1.0
      ],
      [
        "Ġcelebr",
        -1.0
      ],
      [
        "Ġadvantage",
        -1.0
      ],
      [
        "ting",
        -1.0
      ],
      [
        "lf",
        -1.0
      ],
      [
        "gra",
        -1.0
      ],
      [
        "Ġlater",
        -1.0
      ],
      [
        "Ġ20",
        -1.0
      ],
      [
        "OR",
        -1.0
      ],
      [
        "Ġsummer",
        -1.0
      ],
      [
        "Ġdefined",
        -1.0
      ],
      [
        "sl",
        -1.0
      ],
      [
        "Ġexhibit",
        -1.0
      ],
      [
        "ta",
        -1.0
      ],
      [
        "Ġbeneficial",
        -1.0
      ],
      [
        "18",
        -1.0
      ],
      [
        "Ġmaintenance",
        -1.0
      ],
      [
        "Ġsupport",
        -1.0
      ],
      [
        "Ġent",
        -1.0
      ],
      [
        "Ġproducts",
        -1.0
      ],
      [
        "Ġsimply",
        -1.0
      ],
      [
        "Ġcons",
        -1.0
      ],
      [
        "ĠRepublic",
        -1.0
      ],
      [
        "Ġcalled",
        -1.0
      ],
      [
        "Ġspread",
        -1.0
      ],
      [
        "etween",
        -1.0
      ],
      [
        "ident",
        -1.0
      ],
      [
        "Ġdemocra",
        -1.0
      ],
      [
        "si",
        -1.0
      ],
      [
        "Ġbu",
        -1.0
      ],
      [
        "king",
        -1.0
      ],
      [
        "Ġorder",
        -1.0
      ],
      [
        "Ġtravel",
        -1.0
      ],
      [
        "Ñ",
        -1.0
      ],
      [
        "Ġdynamic",
        -1.0
      ],
      [
        "oc",
        -1.0
      ],
      [
        "Ġwon",
        -1.0
      ],
      [
        "lin",
        -1.0
      ],
      [
        "Ġnumbers",
        -1.0
      ],
      [
        "Ġit",
        -1.0
      ],
      [
        "Ġignor",
        -1.0
      ],
      [
        "Ġcap",
        -1.0
      ],
      [
        "lly",
        -1.0
      ],
      [
        "ĠHe",
        -1.0
      ],
      [
        "Ġvolunteer",
        -1.0
      ],
      [
        "that",
        -1.0
      ],
      [
        "Ġoffer",
        -1.0
      ],
      [
        "Ġincreases",
        -1.0
      ],
      [
        "Ġnutrients",
        -1.0
      ],
      [
        "Ġimp",
        -1.0
      ],
      [
        "Ġfeature",
        -1.0
      ],
      [
        "Ġwonder",
        -1.0
      ],
      [
        "ower",
        -1.0
      ],
      [
        "tle",
        -1.0
      ],
      [
        "Ġassign",
        -1.0
      ],
      [
        "Ġactual",
        -1.0
      ],
      [
        "Ġlearned",
        -1.0
      ],
      [
        "Ġaccess",
        -1.0
      ],
      [
        "Ġreduce",
        -1.0
      ],
      [
        "Ġclass",
        -1.0
      ],
      [
        "own",
        -1.0
      ],
      [
        "ĠMin",
        -1.0
      ],
      [
        "uch",
        -1.0
      ],
      [
        "Ġenter",
        -1.0
      ],
      [
        "Ġwomen",
        -1.0
      ],
      [
        "Ġmusic",
        -1.0
      ],
      [
        "est",
        -1.0
      ],
      [
        "ss",
        -1.0
      ],
      [
        "Ġwood",
        -1.0
      ],
      [
        "ĠRevolution",
        -1.0
      ],
      [
        "tt",
        -1.0
      ],
      [
        "ĠService",
        -1.0
      ],
      [
        "Ġwor",
        -1.0
      ],
      [
        "ows",
        -1.0
      ],
      [
        "Ġbreath",
        -1.0
      ],
      [
        "light",
        -1.0
      ],
      [
        "Ġsatellite",
        -1.0
      ],
      [
        "Ġflo",
        -1.0
      ],
      [
        "uck",
        -1.0
      ],
      [
        "ĠScience",
        -1.0
      ],
      [
        "2",
        -1.0
      ],
      [
        "á",
        -1.0
      ],
      [
        "Another",
        -1.0
      ],
      [
        "Ġgi",
        -1.0
      ],
      [
        "Ġ'",
        -1.0
      ],
      [
        "Ġown",
        -1.0
      ],
      [
        "Ġmoving",
        -1.0
      ],
      [
        "Ġlives",
        -1.0
      ],
      [
        "ĠAsia",
        -1.0
      ],
      [
        "ion",
        -1.0
      ],
      [
        "ĠGo",
        -1.0
      ],
      [
        "Ġspec",
        -1.0
      ],
      [
        "ium",
        -1.0
      ],
      [
        "com",
        -1.0
      ],
      [
        "Ġborn",
        -1.0
      ],
      [
        "Ġcourt",
        -1.0
      ],
      [
        "1",
        -1.0
      ],
      [
        "Ġsecret",
        -1.0
      ],
      [
        "Ġthrough",
        -1.0
      ],
      [
        "Ġroutine",
        -1.0
      ],
      [
        "ants",
        -1.0
      ],
      [
        "Ġanswer",
        -1.0
      ],
      [
        "Ġspe",
        -1.0
      ],
      [
        "ĠMuseum",
        -1.0
      ],
      [
        "Ġrich",
        -1.0
      ],
      [
        "Ġlooking",
        -1.0
      ],
      [
        "Ġstroke",
        -1.0
      ],
      [
        "Ġslow",
        -1.0
      ],
      [
        "Ġbelief",
        -1.0
      ],
      [
        "Ġeight",
        -1.0
      ],
      [
        "Ġpu",
        -1.0
      ],
      [
        "Ġcapacity",
        -1.0
      ],
      [
        "me",
        -1.0
      ],
      [
        "Ġyellow",
        -1.0
      ],
      [
        "rry",
        -1.0
      ],
      [
        "ĠAlso",
        -1.0
      ],
      [
        "Ġtechnology",
        -1.0
      ],
      [
        "ĠNu",
        -1.0
      ],
      [
        "Ġpp",
        -1.0
      ],
      [
        ",",
        -1.0
      ],
      [
        "Ġevent",
        -1.0
      ],
      [
        "Ġ2002",
        -1.0
      ],
      [
        "ex",
        -1.0
      ],
      [
        "zz",
        -1.0
      ],
      [
        "Ġfun",
        -1.0
      ],
      [
        "Ġupdate",
        -1.0
      ],
      [
        "ĠFebruary",
        -1.0
      ],
      [
        "ent",
        -1.0
      ],
      [
        "son",
        -1.0
      ],
      [
        "Ġvictim",
        -1.0
      ],
      [
        "Ġbehind",
        -1.0
      ],
      [
        "Ġexcellent",
        -1.0
      ],
      [
        "Ġwould",
        -1.0
      ],
      [
        "Ġscientific",
        -1.0
      ],
      [
        "dependence",
        -1.0
      ],
      [
        "Ġpersonal",
        -1.0
      ],
      [
        "ven",
        -1.0
      ],
      [
        "ĠPress",
        -1.0
      ],
      [
        "be",
        -1.0
      ],
      [
        "Ġdrive",
        -1.0
      ],
      [
        "Ġadapt",
        -1.0
      ],
      [
        "Ġve",
        -1.0
      ],
      [
        "way",
        -1.0
      ],
      [
        "Ġaff",
        -1.0
      ],
      [
        "ake",
        -1.0
      ],
      [
        "Ġtouch",
        -1.0
      ],
      [
        "ĠEm",
        -1.0
      ],
      [
        "ĠFurther",
        -1.0
      ],
      [
        "side",
        -1.0
      ],
      [
        "du",
        -1.0
      ],
      [
        "ĠBecause",
        -1.0
      ],
      [
        "Ġti",
        -1.0
      ],
      [
        "ĠHistory",
        -1.0
      ],
      [
        "ĠValley",
        -1.0
      ],
      [
        "air",
        -1.0
      ],
      [
        "ine",
        -1.0
      ],
      [
        "Ġliter",
        -1.0
      ],
      [
        "Ġmix",
        -1.0
      ],
      [
        "Ġinclude",
        -1.0
      ],
      [
        "Ġline",
        -1.0
      ],
      [
        "Ġcancer",
        -1.0
      ],
      [
        "IS",
        -1.0
      ],
      [
        "Ġgreat",
        -1.0
      ],
      [
        "ĠIf",
        -1.0
      ],
      [
        "urs",
        -1.0
      ],
      [
        "ĠOhio",
        -1.0
      ],
      [
        "Ġadditional",
        -1.0
      ],
      [
        "Ġsleep",
        -1.0
      ],
      [
        "Ġmedia",
        -1.0
      ],
      [
        "Ġsee",
        -1.0
      ],
      [
        "Ġconflict",
        -1.0
      ],
      [
        "Ġmiddle",
        -1.0
      ],
      [
        "Ġmany",
        -1.0
      ],
      [
        "cript",
        -1.0
      ],
      [
        "Ġapparent",
        -1.0
      ],
      [
        "ķ",
        -1.0
      ],
      [
        "lan",
        -1.0
      ],
      [
        "bin",
        -1.0
      ],
      [
        "Ġdioxide",
        -1.0
      ],
      [
        "Ġratio",
        -1.0
      ],
      [
        "Ġeducation",
        -1.0
      ],
      [
        "Ġfield",
        -1.0
      ],
      [
        "Ġhelps",
        -1.0
      ],
      [
        "dr",
        -1.0
      ],
      [
        "sted",
        -1.0
      ],
      [
        "If",
        -1.0
      ],
      [
        "According",
        -1.0
      ],
      [
        "Ġmoment",
        -1.0
      ],
      [
        "ians",
        -1.0
      ],
      [
        "Ġconvers",
        -1.0
      ],
      [
        "Ġprocedure",
        -1.0
      ],
      [
        "Ġdoubt",
        -1.0
      ],
      [
        "Ġsatisf",
        -1.0
      ],
      [
        "Ġperson",
        -1.0
      ],
      [
        "Ġcra",
        -1.0
      ],
      [
        "Ġdidn",
        -1.0
      ],
      [
        "Ġreason",
        -1.0
      ],
      [
        "ins",
        -1.0
      ],
      [
        "Ġwide",
        -1.0
      ],
      [
        "Ġjurisdiction",
        -1.0
      ],
      [
        "een",
        -1.0
      ],
      [
        "ĠHar",
        -1.0
      ],
      [
        "Ġless",
        -1.0
      ],
      [
        "Ġcontains",
        -1.0
      ],
      [
        "Ġrisk",
        -1.0
      ],
      [
        "Ġwhich",
        -1.0
      ],
      [
        "Ġways",
        -1.0
      ],
      [
        "Ġ--",
        -1.0
      ],
      [
        "ĠItalian",
        -1.0
      ],
      [
        "ĠJanuary",
        -1.0
      ],
      [
        "shing",
        -1.0
      ],
      [
        "Ġeffects",
        -1.0
      ],
      [
        "cept",
        -1.0
      ],
      [
        "ĠWildlife",
        -1.0
      ],
      [
        "Ġfeet",
        -1.0
      ],
      [
        "Ï",
        -1.0
      ],
      [
        "í",
        -1.0
      ],
      [
        "ains",
        -1.0
      ],
      [
        "age",
        -1.0
      ],
      [
        "ern",
        -1.0
      ],
      [
        "Ġsi",
        -1.0
      ],
      [
        "har",
        -1.0
      ],
      [
        ".âĢĿ",
        -1.0
      ],
      [
        "ĠIt",
        -1.0
      ],
      [
        "ĠTHE",
        -1.0
      ],
      [
        "Ġchosen",
        -1.0
      ],
      [
        "Ġpe",
        -1.0
      ],
      [
        "Ġscene",
        -1.0
      ],
      [
        "Ġproblem",
        -1.0
      ],
      [
        "Ġnormal",
        -1.0
      ],
      [
        "Ġhard",
        -1.0
      ],
      [
        "od",
        -1.0
      ],
      [
        "Ġpublish",
        -1.0
      ],
      [
        "Ġsituation",
        -1.0
      ],
      [
        "olved",
        -1.0
      ],
      [
        "Ġmultiple",
        -1.0
      ],
      [
        "ker",
        -1.0
      ],
      [
        "ĠSc",
        -1.0
      ],
      [
        "Ġaddress",
        -1.0
      ],
      [
        "ast",
        -1.0
      ],
      [
        "32",
        -1.0
      ],
      [
        "ĠSmith",
        -1.0
      ],
      [
        "Ġins",
        -1.0
      ],
      [
        "Ġten",
        -1.0
      ],
      [
        "rm",
        -1.0
      ],
      [
        "Ġcritical",
        -1.0
      ],
      [
        "year",
        -1.0
      ],
      [
        "Ġfundamental",
        -1.0
      ],
      [
        "ib",
        -1.0
      ],
      [
        "s",
        -1.0
      ],
      [
        "ĠTheir",
        -1.0
      ],
      [
        "ĠBr",
        -1.0
      ],
      [
        "Ġwh",
        -1.0
      ],
      [
        "ĠItaly",
        -1.0
      ],
      [
        "Ġheart",
        -1.0
      ],
      [
        "âĢĿ",
        -1.0
      ],
      [
        "Ġ1",
        -1.0
      ],
      [
        "Ġeffort",
        -1.0
      ],
      [
        "tain",
        -1.0
      ],
      [
        "Ġrecords",
        -1.0
      ],
      [
        "z",
        -1.0
      ],
      [
        "Í",
        -1.0
      ],
      [
        "el",
        -1.0
      ],
      [
        "See",
        -1.0
      ],
      [
        "ach",
        -1.0
      ],
      [
        "iv",
        -1.0
      ],
      [
        "Ġcognitive",
        -1.0
      ],
      [
        "Ġleg",
        -1.0
      ],
      [
        "ric",
        -1.0
      ],
      [
        "S",
        -1.0
      ],
      [
        "Ġprogress",
        -1.0
      ],
      [
        "ized",
        -1.0
      ],
      [
        "Ġplaces",
        -1.0
      ],
      [
        "Ġcomp",
        -1.0
      ],
      [
        "Ġson",
        -1.0
      ],
      [
        "line",
        -1.0
      ],
      [
        "ĠPakistan",
        -1.0
      ],
      [
        "Ġnovel",
        -1.0
      ],
      [
        "Ġexplain",
        -1.0
      ],
      [
        "ĠAs",
        -1.0
      ],
      [
        "ĠGeneral",
        -1.0
      ],
      [
        "Ġstrategies",
        -1.0
      ],
      [
        "Ġwas",
        -1.0
      ],
      [
        "Ġfemale",
        -1.0
      ],
      [
        "Ġgoal",
        -1.0
      ],
      [
        "va",
        -1.0
      ],
      [
        "Ġkilled",
        -1.0
      ],
      [
        "Ġdiscover",
        -1.0
      ],
      [
        "Ġdiagnos",
        -1.0
      ],
      [
        "What",
        -1.0
      ],
      [
        "Ġsurface",
        -1.0
      ],
      [
        "ĠBa",
        -1.0
      ],
      [
        "ĠEuropean",
        -1.0
      ],
      [
        "ħ",
        -1.0
      ],
      [
        "Ġstudies",
        -1.0
      ],
      [
        "Ġrequires",
        -1.0
      ],
      [
        "eu",
        -1.0
      ],
      [
        "al",
        -1.0
      ],
      [
        "Ġtypically",
        -1.0
      ],
      [
        "day",
        -1.0
      ],
      [
        "i",
        -1.0
      ],
      [
        "ĠOcean",
        -1.0
      ],
      [
        "Ġus",
        -1.0
      ],
      [
        "Ġpick",
        -1.0
      ],
      [
        "Ġtroops",
        -1.0
      ],
      [
        "Ġobtain",
        -1.0
      ],
      [
        "Ġj",
        -1.0
      ],
      [
        "Ġgradu",
        -1.0
      ],
      [
        "ĠSp",
        -1.0
      ],
      [
        "Ġour",
        -1.0
      ],
      [
        "Ġetc",
        -1.0
      ],
      [
        "Ġharvest",
        -1.0
      ],
      [
        "ĠEl",
        -1.0
      ],
      [
        "Ġcri",
        -1.0
      ],
      [
        "Ġlocation",
        -1.0
      ],
      [
        "Ġknowledge",
        -1.0
      ],
      [
        "Þ",
        -1.0
      ],
      [
        "Ġaccurate",
        -1.0
      ],
      [
        "oss",
        -1.0
      ],
      [
        "Ġpurchase",
        -1.0
      ],
      [
        "Ġ2003",
        -1.0
      ],
      [
        "Ġestimate",
        -1.0
      ],
      [
        "Ġeliminat",
        -1.0
      ],
      [
        "Ġstar",
        -1.0
      ],
      [
        "Ì",
        -1.0
      ],
      [
        "graph",
        -1.0
      ],
      [
        "Ġused",
        -1.0
      ],
      [
        "Ġ199",
        -1.0
      ],
      [
        "las",
        -1.0
      ],
      [
        "Ġconsumption",
        -1.0
      ],
      [
        "ĠEach",
        -1.0
      ],
      [
        "Ġdecrease",
        -1.0
      ],
      [
        "ĠEx",
        -1.0
      ],
      [
        "tch",
        -1.0
      ],
      [
        "â",
        -1.0
      ],
      [
        "ography",
        -1.0
      ],
      [
        "¬",
        -1.0
      ],
      [
        "Ġclu",
        -1.0
      ],
      [
        "ague",
        -1.0
      ],
      [
        "arian",
        -1.0
      ],
      [
        "Ġsystem",
        -1.0
      ],
      [
        "Ġcontent",
        -1.0
      ],
      [
        "Ġsold",
        -1.0
      ],
      [
        "Ġaccomplish",
        -1.0
      ],
      [
        "Ġbodies",
        -1.0
      ],
      [
        "Ġmarket",
        -1.0
      ],
      [
        "Ġcr",
        -1.0
      ],
      [
        "ĠRights",
        -1.0
      ],
      [
        "Ġad",
        -1.0
      ],
      [
        "take",
        -1.0
      ],
      [
        "Ġplay",
        -1.0
      ],
      [
        "Ġweeks",
        -1.0
      ],
      [
        "fi",
        -1.0
      ],
      [
        "Ġhighest",
        -1.0
      ],
      [
        "Ġtogether",
        -1.0
      ],
      [
        "cu",
        -1.0
      ],
      [
        "Ġimportance",
        -1.0
      ],
      [
        "Ġaudi",
        -1.0
      ],
      [
        "6",
        -1.0
      ],
      [
        "Ġhead",
        -1.0
      ],
      [
        "Ġbackground",
        -1.0
      ],
      [
        "ĠSt",
        -1.0
      ],
      [
        "ĠLincoln",
        -1.0
      ],
      [
        "Ġnoted",
        -1.0
      ],
      [
        "Ġadequate",
        -1.0
      ],
      [
        "Ġbreast",
        -1.0
      ],
      [
        "le",
        -1.0
      ],
      [
        "ĠNational",
        -1.0
      ],
      [
        "Ġvarious",
        -1.0
      ],
      [
        "ĠOb",
        -1.0
      ],
      [
        "fortunately",
        -1.0
      ],
      [
        "ware",
        -1.0
      ],
      [
        "Ġwhat",
        -1.0
      ],
      [
        "Ġprincipal",
        -1.0
      ],
      [
        "ES",
        -1.0
      ],
      [
        "Some",
        -1.0
      ],
      [
        "Ġho",
        -1.0
      ],
      [
        "Ġoperations",
        -1.0
      ],
      [
        "Ġlearn",
        -1.0
      ],
      [
        "Ġcommercial",
        -1.0
      ],
      [
        "Ġmajor",
        -1.0
      ],
      [
        "Ġtri",
        -1.0
      ],
      [
        "form",
        -1.0
      ],
      [
        "oting",
        -1.0
      ],
      [
        "ĠSe",
        -1.0
      ],
      [
        "Ġn",
        -1.0
      ],
      [
        "Ġseparate",
        -1.0
      ],
      [
        "ĠConfedera",
        -1.0
      ],
      [
        "Ġobjects",
        -1.0
      ],
      [
        "ĠKorea",
        -1.0
      ],
      [
        "Ġste",
        -1.0
      ],
      [
        "Ġaccording",
        -1.0
      ],
      [
        "ĠHere",
        -1.0
      ],
      [
        "Ġabs",
        -1.0
      ],
      [
        "Ġparticularly",
        -1.0
      ],
      [
        "Ġelectricity",
        -1.0
      ],
      [
        "Ġthing",
        -1.0
      ],
      [
        "Ġshall",
        -1.0
      ],
      [
        "Ġpath",
        -1.0
      ],
      [
        "Ġsite",
        -1.0
      ],
      [
        "qui",
        -1.0
      ],
      [
        "Ġtra",
        -1.0
      ],
      [
        "Ġcoal",
        -1.0
      ],
      [
        "Ġencounter",
        -1.0
      ],
      [
        "Ġspeak",
        -1.0
      ],
      [
        "Ġpercent",
        -1.0
      ],
      [
        "Ġun",
        -1.0
      ],
      [
        "nted",
        -1.0
      ],
      [
        "ĠVirginia",
        -1.0
      ],
      [
        "Ġseries",
        -1.0
      ],
      [
        "Ġaffected",
        -1.0
      ],
      [
        "ĠGod",
        -1.0
      ],
      [
        "Ġhelp",
        -1.0
      ],
      [
        "rb",
        -1.0
      ],
      [
        "ĠAlthough",
        -1.0
      ],
      [
        "Ġannual",
        -1.0
      ],
      [
        "ĠMo",
        -1.0
      ],
      [
        "ational",
        -1.0
      ],
      [
        "Ġair",
        -1.0
      ],
      [
        "Ġeffective",
        -1.0
      ],
      [
        "ĠD",
        -1.0
      ],
      [
        "ang",
        -1.0
      ],
      [
        "nk",
        -1.0
      ],
      [
        "Õ",
        -1.0
      ],
      [
        "Ĭ",
        -1.0
      ],
      [
        "Ġcreation",
        -1.0
      ],
      [
        "For",
        -1.0
      ],
      [
        "tent",
        -1.0
      ],
      [
        "vy",
        -1.0
      ],
      [
        "rus",
        -1.0
      ],
      [
        "Ġact",
        -1.0
      ],
      [
        "Ġshows",
        -1.0
      ],
      [
        "Ġchild",
        -1.0
      ],
      [
        "related",
        -1.0
      ],
      [
        "Ġinvestig",
        -1.0
      ],
      [
        "Ġinsect",
        -1.0
      ],
      [
        "Ġback",
        -1.0
      ],
      [
        "Ġvalue",
        -1.0
      ],
      [
        "ľ",
        -1.0
      ],
      [
        "Ġforces",
        -1.0
      ],
      [
        "Ġscale",
        -1.0
      ],
      [
        "Ġtax",
        -1.0
      ],
      [
        "Ġear",
        -1.0
      ],
      [
        "ĠGreen",
        -1.0
      ],
      [
        "ĠGeorge",
        -1.0
      ],
      [
        "Ġlibrary",
        -1.0
      ],
      [
        "50",
        -1.0
      ],
      [
        "ome",
        -1.0
      ],
      [
        "Ġtitle",
        -1.0
      ],
      [
        "ms",
        -1.0
      ],
      [
        "za",
        -1.0
      ],
      [
        "Ġminimum",
        -1.0
      ],
      [
        "ved",
        -1.0
      ],
      [
        "Ġfamily",
        -1.0
      ],
      [
        "ĠSecretary",
        -1.0
      ],
      [
        "ter",
        -1.0
      ],
      [
        "Ġsoon",
        -1.0
      ],
      [
        "Ġextremely",
        -1.0
      ],
      [
        "Ġboth",
        -1.0
      ],
      [
        "ĠThus",
        -1.0
      ],
      [
        "style",
        -1.0
      ],
      [
        "Ġchemotherapy",
        -1.0
      ],
      [
        "Ġtop",
        -1.0
      ],
      [
        "Ġpunish",
        -1.0
      ],
      [
        "ctor",
        -1.0
      ],
      [
        "Ľ",
        -1.0
      ],
      [
        "Ġworld",
        -1.0
      ],
      [
        ",\"",
        -1.0
      ],
      [
        "Ġscreen",
        -1.0
      ],
      [
        "Ġuseful",
        -1.0
      ],
      [
        "Ġtransl",
        -1.0
      ],
      [
        "ok",
        -1.0
      ],
      [
        "ĠBut",
        -1.0
      ],
      [
        "aring",
        -1.0
      ],
      [
        "Ġconcern",
        -1.0
      ],
      [
        "pa",
        -1.0
      ],
      [
        "Ġcar",
        -1.0
      ],
      [
        "ni",
        -1.0
      ],
      [
        "Ķ",
        -1.0
      ],
      [
        "Ġur",
        -1.0
      ],
      [
        "You",
        -1.0
      ],
      [
        "Ġdrugs",
        -1.0
      ],
      [
        "ĠThe",
        -1.0
      ],
      [
        "ga",
        -1.0
      ],
      [
        "Ġhigh",
        -1.0
      ],
      [
        "ð",
        -1.0
      ],
      [
        "He",
        -1.0
      ],
      [
        "ĠKe",
        -1.0
      ],
      [
        "level",
        -1.0
      ],
      [
        "Ġ6",
        -1.0
      ],
      [
        "alth",
        -1.0
      ],
      [
        "Ġaid",
        -1.0
      ],
      [
        "Ġcode",
        -1.0
      ],
      [
        "Ë",
        -1.0
      ],
      [
        "ĠDo",
        -1.0
      ],
      [
        "less",
        -1.0
      ],
      [
        "K",
        -1.0
      ],
      [
        "at",
        -1.0
      ],
      [
        "Ġfair",
        -1.0
      ],
      [
        "000",
        -1.0
      ],
      [
        "Ġhowever",
        -1.0
      ],
      [
        "Ġindustries",
        -1.0
      ],
      [
        "ĠâĨĳ",
        -1.0
      ],
      [
        "Ġs",
        -1.0
      ],
      [
        "ore",
        -1.0
      ],
      [
        "¾",
        -1.0
      ],
      [
        "Ġmedicine",
        -1.0
      ],
      [
        "Ġstress",
        -1.0
      ],
      [
        "Ġexplo",
        -1.0
      ],
      [
        "ĠMu",
        -1.0
      ],
      [
        "?",
        -1.0
      ],
      [
        "Ġworked",
        -1.0
      ],
      [
        "ĠRichard",
        -1.0
      ],
      [
        "Ġword",
        -1.0
      ],
      [
        "¦",
        -1.0
      ],
      [
        "Ġsequence",
        -1.0
      ],
      [
        "Ġcollect",
        -1.0
      ],
      [
        "Ġbegin",
        -1.0
      ],
      [
        "Ġkidney",
        -1.0
      ],
      [
        "Ġtype",
        -1.0
      ],
      [
        "ĠIm",
        -1.0
      ],
      [
        "Ġref",
        -1.0
      ],
      [
        "hi",
        -1.0
      ],
      [
        "Ġwest",
        -1.0
      ],
      [
        "Ġeggs",
        -1.0
      ],
      [
        "Ġmarried",
        -1.0
      ],
      [
        "Ġbuy",
        -1.0
      ],
      [
        "ĠCompany",
        -1.0
      ],
      [
        "Ġfertil",
        -1.0
      ],
      [
        "cular",
        -1.0
      ],
      [
        "dom",
        -1.0
      ],
      [
        "ĠOr",
        -1.0
      ],
      [
        "ĠGovernor",
        -1.0
      ],
      [
        "Ġrelated",
        -1.0
      ],
      [
        "Ġlist",
        -1.0
      ],
      [
        "Ġif",
        -1.0
      ],
      [
        "ths",
        -1.0
      ],
      [
        "Ġrights",
        -1.0
      ],
      [
        "Ġphrase",
        -1.0
      ],
      [
        "Ġe",
        -1.0
      ],
      [
        "Ġidentified",
        -1.0
      ],
      [
        "Ġhope",
        -1.0
      ],
      [
        "ives",
        -1.0
      ],
      [
        "Ġpages",
        -1.0
      ],
      [
        "Ġdeclared",
        -1.0
      ],
      [
        "ney",
        -1.0
      ],
      [
        "Ġold",
        -1.0
      ],
      [
        "ĠSi",
        -1.0
      ],
      [
        "ia",
        -1.0
      ],
      [
        "Ġstimul",
        -1.0
      ],
      [
        "Ġ2011",
        -1.0
      ],
      [
        "ĠL",
        -1.0
      ],
      [
        "Ġinternational",
        -1.0
      ],
      [
        "Ġreinforce",
        -1.0
      ],
      [
        "µ",
        -1.0
      ],
      [
        "ĠHospital",
        -1.0
      ],
      [
        "ĠChe",
        -1.0
      ],
      [
        "ĠEnglish",
        -1.0
      ],
      [
        "ĠInformation",
        -1.0
      ],
      [
        "Ġarchitect",
        -1.0
      ],
      [
        "Ġdevice",
        -1.0
      ],
      [
        "Ġtheir",
        -1.0
      ],
      [
        "Ġusually",
        -1.0
      ],
      [
        "Ġbest",
        -1.0
      ],
      [
        "Ø",
        -1.0
      ],
      [
        "Ġread",
        -1.0
      ],
      [
        "Ġjo",
        -1.0
      ],
      [
        "Ġmis",
        -1.0
      ],
      [
        "Ġconnect",
        -1.0
      ],
      [
        "Ġbelow",
        -1.0
      ],
      [
        "Ġfeed",
        -1.0
      ],
      [
        "Ġcauses",
        -1.0
      ],
      [
        "Ġusers",
        -1.0
      ],
      [
        "Ġgives",
        -1.0
      ],
      [
        "Ġto",
        -1.0
      ],
      [
        "Ġ197",
        -1.0
      ],
      [
        "airs",
        -1.0
      ],
      [
        "Ġsymptoms",
        -1.0
      ],
      [
        "Ġmeans",
        -1.0
      ],
      [
        "ĠEven",
        -1.0
      ],
      [
        "ink",
        -1.0
      ],
      [
        "Ġne",
        -1.0
      ],
      [
        "ation",
        -1.0
      ],
      [
        "Ġcause",
        -1.0
      ],
      [
        "Ġgave",
        -1.0
      ],
      [
        "Ġcommunity",
        -1.0
      ],
      [
        "pe",
        -1.0
      ],
      [
        "Ġcontinue",
        -1.0
      ],
      [
        "Ġcitizen",
        -1.0
      ],
      [
        "Ġmember",
        -1.0
      ],
      [
        "term",
        -1.0
      ],
      [
        "mes",
        -1.0
      ],
      [
        "ĠJune",
        -1.0
      ],
      [
        "Ġslightly",
        -1.0
      ],
      [
        "Ġparallel",
        -1.0
      ],
      [
        "ps",
        -1.0
      ],
      [
        "Ġcontinued",
        -1.0
      ],
      [
        "ide",
        -1.0
      ],
      [
        "×",
        -1.0
      ],
      [
        "Ġoper",
        -1.0
      ],
      [
        "Ġadolescen",
        -1.0
      ],
      [
        "Ġrunning",
        -1.0
      ],
      [
        "Ġshould",
        -1.0
      ],
      [
        "lder",
        -1.0
      ],
      [
        "par",
        -1.0
      ],
      [
        "ĠFederal",
        -1.0
      ],
      [
        "J",
        -1.0
      ],
      [
        "Ġabout",
        -1.0
      ],
      [
        "ĠWil",
        -1.0
      ],
      [
        "cks",
        -1.0
      ],
      [
        "ley",
        -1.0
      ],
      [
        "Ġ2000",
        -1.0
      ],
      [
        "Ġamount",
        -1.0
      ],
      [
        "int",
        -1.0
      ],
      [
        "Ġform",
        -1.0
      ],
      [
        "ties",
        -1.0
      ],
      [
        "Ġunique",
        -1.0
      ],
      [
        "Ġstates",
        -1.0
      ],
      [
        "Ġargument",
        -1.0
      ],
      [
        "Ġyou",
        -1.0
      ],
      [
        "Ġlearning",
        -1.0
      ],
      [
        "70",
        -1.0
      ],
      [
        "Ġrate",
        -1.0
      ],
      [
        "Ġnorthern",
        -1.0
      ],
      [
        "Ô",
        -1.0
      ],
      [
        ".\"",
        -1.0
      ],
      [
        "Ġsort",
        -1.0
      ],
      [
        "uk",
        -1.0
      ],
      [
        "Ġsc",
        -1.0
      ],
      [
        "ĠSpanish",
        -1.0
      ],
      [
        "rth",
        -1.0
      ],
      [
        "Ġgiven",
        -1.0
      ],
      [
        "$",
        -1.0
      ],
      [
        "Ġtool",
        -1.0
      ],
      [
        "ĠHow",
        -1.0
      ],
      [
        "ĠPer",
        -1.0
      ],
      [
        "au",
        -1.0
      ],
      [
        "eth",
        -1.0
      ],
      [
        "ird",
        -1.0
      ],
      [
        "Ġproduct",
        -1.0
      ],
      [
        "ĠChicago",
        -1.0
      ],
      [
        "Ġguarantee",
        -1.0
      ],
      [
        "Ġgrow",
        -1.0
      ],
      [
        "Ġextra",
        -1.0
      ],
      [
        "ĵ",
        -1.0
      ]
    ],
    "byte_fallback": false
  }
}