{
  "version": "1.0",
  "truncation": null,
  "padding": null,
  "added_tokens": [
    {
      "id": 0,
      "content": "<|bos|>",
      "single_word": false,
      "lstrip": false,
      "rstrip": false,
      "normalized": false,
      "special": true
    },
    {
      "id": 1,
      "content": "<|user_start|>",
      "single_word": false,
      "lstrip": false,
      "rstrip": false,
      "normalized": false,
      "special": true
    },
    {
      "id": 2,
      "content": "<|user_end|>",
      "single_word": false,
      "lstrip": false,
      "rstrip": false,
      "normalized": false,
      "special": true
    },
    {
      "id": 3,
      "content": "<|assistant_start|>",
      "single_word": false,
      "lstrip": false,
      "rstrip": false,
      "normalized": false,
      "special": true
    },
    {
      "id": 4,
      "content": "<|assistant_end|>",
      "single_word": false,
      "lstrip": false,
      "rstrip": false,
      "normalized": false,
      "special": true
    },
    {
      "id": 5,
      "content": "<|python_start|>",
      "single_word": false,
      "lstrip": false,
      "rstrip": false,
      "normalized": false,
      "special": true
    },
    {
      "id": 6,
      "content": "<|python_end|>",
      "single_word": false,
      "lstrip": false,
      "rstrip": false,
      "normalized": false,
      "special": true
    },
    {
      "id": 7,
      "content": "<|output_start|>",
      "single_word": false,
      "lstrip": false,
      "rstrip": false,
      "normalized": false,
      "special": true
    },
    {
      "id": 8,
      "content": "<|output_end|>",
      "single_word": false,
      "lstrip": false,
      "rstrip": false,
      "normalized": false,
      "special": true
    },
    {
      "id": 9,
      "content": "<|unk|>",
      "single_word": false,
      "lstrip": false,
      "rstrip": false,
      "normalized": false,
      "special": true
    }
  ],
  "normalizer": null,
  "pre_tokenizer": {
    "type": "Sequence",
    "pretokenizers": [
      {
        "type": "Split",
        "pattern": {
          "Regex": "'(?i:[sdmt]|ll|ve|re)|[^\\r\\n\\p{L}\\p{N}]?+\\p{L}+|\\p{N}{1,2}| ?[^\\s\\p{L}\\p{N}]++[\\r\\n]*|\\s*[\\r\\n]|\\s+(?!\\S)|\\s+"
        },
        "behavior": "Isolated",
        "invert": false
      },
      {
        "type": "ByteLevel",
        "add_prefix_space": false,
        "trim_offsets": true,
        "use_regex": false
      }
    ]
  },
  "post_processor": {
    "type": "TemplateProcessing",
    "single": [
      {
        "Sequence": {
          "id": "A",
          "type_id": 0
        }
      }
    ],
    "pair": [
      {
        "Sequence": {
          "id": "A",
          "type_id": 0
        }
      },
      {
        "Sequence": {
          "id": "B",
          "type_id": 1
        }
      }
    ],
    "special_tokens": {}
  },
  "decoder": {
    "type": "ByteLevel",
    "add_prefix_space": true,
    "trim_offsets": true,
    "use_regex": true
  },
  "model": {
    "type": "Unigram",
    "unk_id": 9,
    "vocab": [
      [
        "<|bos|>",
        0.0
      ],
      [
        "<|user_start|>",
        0.0
      ],
      [
        "<|user_end|>",
        0.0
      ],
      [
        "<|assistant_start|>",
        0.0
      ],
      [
        "<|assistant_end|>",
        0.0
      ],
      [
        "<|python_start|>",
        0.0
      ],
      [
        "<|python_end|>",
        0.0
      ],
      [
        "<|output_start|>",
        0.0
      ],
      [
        "<|output_end|>",
        0.0
      ],
      [
        "<|unk|>",
        0.0
      ],
      [
        "Ġ",
        -2.574554637232694
      ],
      [
        "Ġthe",
        -3.341719231161491
      ],
      [
        ",",
        -3.3857644278488017
      ],
      [
        ".",
        -3.6727869312971713
      ],
      [
        "Ġand",
        -3.8815281268633974
      ],
      [
        "a",
        -3.908126820185672
      ],
      [
        "Ġto",
        -3.921696762156325
      ],
      [
        "Ġof",
        -3.924267327148053
      ],
      [
        "s",
        -3.9693893405939473
      ],
      [
        "Ġin",
        -4.443706362013339
      ],
      [
        "Ġis",
        -4.544174820945566
      ],
      [
        "'",
        -4.849536642301665
      ],
      [
        "Ġthat",
        -4.964024355293079
      ],
      [
        "0",
        -4.971127176000051
      ],
      [
        "Ġfor",
        -4.992787113103795
      ],
      [
        "1",
        -5.101240458201573
      ],
      [
        "Ġare",
        -5.156573216779886
      ],
      [
        ":",
        -5.18507390817723
      ],
      [
        "t",
        -5.192140719567252
      ],
      [
        "Ġyou",
        -5.242185297804452
      ],
      [
        "Ċ",
        -5.271271785287585
      ],
      [
        ".Ċ",
        -5.273009101190354
      ],
      [
        "Ġit",
        -5.292224894250067
      ],
      [
        ".ĊĊ",
        -5.302509409230691
      ],
      [
        "2",
        -5.310199065161164
      ],
      [
        "Ġwith",
        -5.318836429657697
      ],
      [
        "-",
        -5.433180217225285
      ],
      [
        "Ġon",
        -5.446270669381642
      ],
      [
        "Ġor",
        -5.456736466679862
      ],
      [
        "Ġcan",
        -5.464597109040758
      ],
      [
        "Ġbe",
        -5.465901772806388
      ],
      [
        "Ġas",
        -5.472661854160933
      ],
      [
        "(",
        -5.583222788761724
      ],
      [
        "Ġyour",
        -5.633759149194919
      ],
      [
        "ĊĊ",
        -5.657187271008908
      ],
      [
        "I",
        -5.682654566548823
      ],
      [
        "\"",
        -5.696009081563247
      ],
      [
        "Ġhave",
        -5.812188199063698
      ],
      [
        "Ġfrom",
        -5.833879598754205
      ],
      [
        "ĠThe",
        -5.8642785772469015
      ],
      [
        "Ġby",
        -5.910763215869045
      ],
      [
        "3",
        -5.949843297067126
      ],
      [
        "ing",
        -5.956774477169128
      ],
      [
        "Ġan",
        -5.97083736534506
      ],
      [
        ")",
        -5.981940867009854
      ],
      [
        "Ġthis",
        -5.994369205031033
      ],
      [
        "5",
        -6.0124579635264315
      ],
      [
        "?",
        -6.03718974706198
      ],
      [
        "Ġnot",
        -6.074091446022345
      ],
      [
        "o",
        -6.107872128199354
      ],
      [
        "i",
        -6.112989091222065
      ],
      [
        "Ġwill",
        -6.154774992945452
      ],
      [
        "4",
        -6.160898907664166
      ],
      [
        "Ġtheir",
        -6.163248607505336
      ],
      [
        "Ġthey",
        -6.185336416192504
      ],
      [
        "d",
        -6.198376409143361
      ],
      [
        "9",
        -6.261806774666798
      ],
      [
        "Ġmore",
        -6.281252369080821
      ],
      [
        "Ġwas",
        -6.308963027533711
      ],
      [
        "n",
        -6.317287406274518
      ],
      [
        "A",
        -6.3370388583447514
      ],
      [
        "e",
        -6.348003376855992
      ],
      [
        "The",
        -6.348255143503344
      ],
      [
        "6",
        -6.421448470849109
      ],
      [
        "Ġbut",
        -6.4246688967638566
      ],
      [
        "Ġwe",
        -6.42867189415743
      ],
      [
        "f",
        -6.431956692281588
      ],
      [
        "Ġwhich",
        -6.435849014056696
      ],
      [
        "ed",
        -6.437319003249835
      ],
      [
        "Ġhas",
        -6.43887413076501
      ],
      [
        "8",
        -6.454186196674204
      ],
      [
        "Ġone",
        -6.5250173916590395
      ],
      [
        "Ġalso",
        -6.526886518822302
      ],
      [
        "Question",
        -6.529572537050315
      ],
      [
        "ĠAnswer",
        -6.552955407573256
      ],
      [
        "7",
        -6.562782133897484
      ],
      [
        "y",
        -6.5666415878460285
      ],
      [
        "Ġabout",
        -6.603726637212423
      ],
      [
        "Ġall",
        -6.60734573473948
      ],
      [
        "Ġother",
        -6.66242438893237
      ],
      [
        "Ġwhen",
        -6.692827267375808
      ],
      [
        "ĠIt",
        -6.697309066548939
      ],
      [
        "Ġthem",
        -6.728368210645742
      ],
      [
        "Ġdo",
        -6.7506858211884815
      ],
      [
        "Ġtime",
        -6.757109202262399
      ],
      [
        "Ġinto",
        -6.770711621482137
      ],
      [
        "Ġlike",
        -6.772176473482464
      ],
      [
        "ĠThis",
        -6.809953168268526
      ],
      [
        "Ġmay",
        -6.834285668669498
      ],
      [
        "Ġuse",
        -6.841005426327065
      ],
      [
        "Ġup",
        -6.841715380364352
      ],
      [
        "Ġsome",
        -6.850652511863013
      ],
      [
        "ly",
        -6.861515522006471
      ],
      [
        "Ġthan",
        -6.861974419353764
      ],
      [
        "Ġout",
        -6.871034885908797
      ],
      [
        "ĠWhat",
        -6.887150660809429
      ],
      [
        "m",
        -6.891163325284484
      ],
      [
        "Ġthese",
        -6.893384907181105
      ],
      [
        "Ġhow",
        -6.904815320826938
      ],
      [
        "Ġthere",
        -6.9385860521745
      ],
      [
        "Ġused",
        -6.967257112691874
      ],
      [
        "Ġwater",
        -6.973586251573165
      ],
      [
        "Ġwhat",
        -6.976677983702299
      ],
      [
        "Ġour",
        -6.997491122730704
      ],
      [
        "Ġits",
        -7.023171030897899
      ],
      [
        "Ġsuch",
        -7.044852202296388
      ],
      [
        "Ġmake",
        -7.045608990151077
      ],
      [
        "Ġwere",
        -7.0621480559433465
      ],
      [
        "Ġmost",
        -7.072225880573207
      ],
      [
        "Ġpeople",
        -7.105580039163646
      ],
      [
        "Ġbeen",
        -7.108766761524569
      ],
      [
        "Ġany",
        -7.12597427184153
      ],
      [
        "ĠIn",
        -7.127472063926795
      ],
      [
        "re",
        -7.134904796547769
      ],
      [
        "Ġshould",
        -7.1598824061507145
      ],
      [
        "Ġwould",
        -7.170709885552549
      ],
      [
        "Ġonly",
        -7.183442232783371
      ],
      [
        "Ġhelp",
        -7.18594124576871
      ],
      [
        "Ġget",
        -7.185959865730519
      ],
      [
        "Ġneed",
        -7.18912652001481
      ],
      [
        "Ġjust",
        -7.198330784253741
      ],
      [
        "Ġmany",
        -7.215492730471213
      ],
      [
        "Ġwho",
        -7.223968678894963
      ],
      [
        "/",
        -7.225695535575593
      ],
      [
        "Ġnew",
        -7.228896192815059
      ],
      [
        ";",
        -7.256468261190799
      ],
      [
        "Ġtwo",
        -7.260753169624694
      ],
      [
        "Ġwell",
        -7.276385273413091
      ],
      [
        "Ġfirst",
        -7.286913770360593
      ],
      [
        "Ġover",
        -7.28953913000864
      ],
      [
        "Ġthrough",
        -7.315287966490608
      ],
      [
        "Ġway",
        -7.331313831511601
      ],
      [
        "Ġmy",
        -7.353284092911361
      ],
      [
        "Ġdifferent",
        -7.353310868491398
      ],
      [
        "Ġbetween",
        -7.355432133475766
      ],
      [
        "Ġwork",
        -7.381096892505173
      ],
      [
        "Ġusing",
        -7.384074609784365
      ],
      [
        "r",
        -7.384197914277355
      ],
      [
        "Ġwhere",
        -7.384953131177141
      ],
      [
        "Ġno",
        -7.397018344906048
      ],
      [
        "Ġbecause",
        -7.404497007043096
      ],
      [
        "?Ċ",
        -7.417027046229348
      ],
      [
        "ĠIf",
        -7.431790568046154
      ],
      [
        "Ġcould",
        -7.440402927854869
      ],
      [
        "Ġvery",
        -7.455374894190019
      ],
      [
        "Ġeven",
        -7.473155032879879
      ],
      [
        "ĠThey",
        -7.47753986489125
      ],
      [
        "Ġhigh",
        -7.492498074204658
      ],
      [
        "Ġsystem",
        -7.499201773710556
      ],
      [
        "he",
        -7.509000268415727
      ],
      [
        "Ġmuch",
        -7.510235059677973
      ],
      [
        "Ġeach",
        -7.511295418813946
      ],
      [
        "Ġknow",
        -7.5473105761938015
      ],
      [
        "!",
        -7.549010946107558
      ],
      [
        "Ġgood",
        -7.550928063798468
      ],
      [
        "Ġimportant",
        -7.554572454488865
      ],
      [
        "?ĊĊ",
        -7.556219054582918
      ],
      [
        "Ġhad",
        -7.562200941542779
      ],
      [
        "Ġyears",
        -7.574868005037425
      ],
      [
        "In",
        -7.576337323674704
      ],
      [
        "Ġdoes",
        -7.579596428766749
      ],
      [
        "ĠâĢĵ",
        -7.582100857710689
      ],
      [
        "ĠYou",
        -7.5914037175231535
      ],
      [
        "Ġwhile",
        -7.594386142563902
      ],
      [
        "Ġhis",
        -7.59737707414275
      ],
      [
        "Ġfood",
        -7.602641348734897
      ],
      [
        "Ġtake",
        -7.610479034156054
      ],
      [
        "Ġdon",
        -7.617884239785106
      ],
      [
        "Ġlong",
        -7.621440839381954
      ],
      [
        "Ġbeing",
        -7.631659896473071
      ],
      [
        ").",
        -7.634653672439059
      ],
      [
        "Ġwant",
        -7.663784978402941
      ],
      [
        "Ġafter",
        -7.6654523259283724
      ],
      [
        "Ġsee",
        -7.680237694705793
      ],
      [
        "Ġduring",
        -7.682608627677107
      ],
      [
        "Ġaround",
        -7.684717411412002
      ],
      [
        "Ġbefore",
        -7.692408029259592
      ],
      [
        "Ġsame",
        -7.694133443905216
      ],
      [
        "c",
        -7.698836492659067
      ],
      [
        "Ġthose",
        -7.725783767391897
      ],
      [
        "Ġhealth",
        -7.730209514518101
      ],
      [
        "able",
        -7.736703111933423
      ],
      [
        "Ġoften",
        -7.749856188453817
      ],
      [
        "Ġworld",
        -7.752065921024664
      ],
      [
        "Ġboth",
        -7.754826613966264
      ],
      [
        "Ġlife",
        -7.757816908599228
      ],
      [
        "What",
        -7.759796613328222
      ],
      [
        "Ġenergy",
        -7.760024885554678
      ],
      [
        "Ġdata",
        -7.766607373957328
      ],
      [
        "Ġbest",
        -7.775661677780411
      ],
      [
        "%",
        -7.776417299384155
      ],
      [
        "Ġprocess",
        -7.783236832163093
      ],
      [
        "Ġbody",
        -7.794333036672578
      ],
      [
        "Ġfound",
        -7.796113343183896
      ],
      [
        "Ġmade",
        -7.798258124612429
      ],
      [
        "Ġback",
        -7.811659929941856
      ],
      [
        "Ġpart",
        -7.823067963819003
      ],
      [
        "D",
        -7.823138284191787
      ],
      [
        "),",
        -7.838899877632571
      ],
      [
        "Ġright",
        -7.843243797534285
      ],
      [
        "Ġfind",
        -7.846087560442884
      ],
      [
        "Ġdown",
        -7.847101117304462
      ],
      [
        "Ġsmall",
        -7.851627336660567
      ],
      [
        "Ġlight",
        -7.868376070696229
      ],
      [
        "Ġinformation",
        -7.87480893476474
      ],
      [
        "Ġday",
        -7.8801067375546285
      ],
      [
        "Ġyear",
        -7.88334276701927
      ],
      [
        "Ġsaid",
        -7.886869403878313
      ],
      [
        "Ġnumber",
        -7.888095216898039
      ],
      [
        "Ġspecies",
        -7.892451312300088
      ],
      [
        "This",
        -7.899007843109409
      ],
      [
        "p",
        -7.905874479646595
      ],
      [
        "ĠFor",
        -7.907131409110109
      ],
      [
        "ĠWe",
        -7.912337079903226
      ],
      [
        "Ġprovide",
        -7.916689422972146
      ],
      [
        "Ġus",
        -7.9259267787334515
      ],
      [
        ":Ċ",
        -7.926464671551882
      ],
      [
        "Ġmight",
        -7.927700136241562
      ],
      [
        "ll",
        -7.953318869737064
      ],
      [
        "ĠThese",
        -7.95706457969359
      ],
      [
        "Ġnow",
        -7.960267042078074
      ],
      [
        "Ġgo",
        -7.960702345905634
      ],
      [
        "Ġpower",
        -7.961423479032973
      ],
      [
        "Ġbetter",
        -7.963724897145221
      ],
      [
        "Ġhome",
        -7.967046266836338
      ],
      [
        "Ġresearch",
        -7.970726027779758
      ],
      [
        "Ġwithout",
        -7.979056582981196
      ],
      [
        "b",
        -7.980204050792269
      ],
      [
        "Ġchange",
        -7.989334494774539
      ],
      [
        "If",
        -7.991502331725872
      ],
      [
        "Ġstudents",
        -7.994524949975457
      ],
      [
        "Ġstill",
        -7.99544920332192
      ],
      [
        "Ġher",
        -7.9993905592701235
      ],
      [
        "Ġthink",
        -7.999402502354826
      ],
      [
        "Ġme",
        -8.000134353896193
      ],
      [
        "Ġexample",
        -8.001335425442116
      ],
      [
        "Ġair",
        -8.005288488768539
      ],
      [
        "Ġplant",
        -8.011255370582779
      ],
      [
        "Ġown",
        -8.011830690006766
      ],
      [
        "Ġkeep",
        -8.018168347383764
      ],
      [
        "Ġincluding",
        -8.01918897734081
      ],
      [
        "Ġplants",
        -8.020237290115599
      ],
      [
        "Ġevery",
        -8.023003814185707
      ],
      [
        "S",
        -8.024389023946085
      ],
      [
        "Ġmaking",
        -8.027105594701457
      ],
      [
        "ve",
        -8.027583181534968
      ],
      [
        "Ġtype",
        -8.027990670342783
      ],
      [
        "How",
        -8.03098879846341
      ],
      [
        "ĠC",
        -8.033784488265985
      ],
      [
        "Ġlook",
        -8.03419571197775
      ],
      [
        "ĠTo",
        -8.03594232936592
      ],
      [
        "Ġstudy",
        -8.0479028968025
      ],
      [
        "Ġcreate",
        -8.049134185474324
      ],
      [
        "Ġfew",
        -8.050732850931306
      ],
      [
        "Ġoff",
        -8.052778871349922
      ],
      [
        "l",
        -8.055749790952458
      ],
      [
        "Ġcommon",
        -8.057905700857273
      ],
      [
        "g",
        -8.062874964562647
      ],
      [
        "Ġdog",
        -8.064049436640797
      ],
      [
        "=",
        -8.067716008954163
      ],
      [
        "...",
        -8.070688870344753
      ],
      [
        "Ġless",
        -8.071301099793976
      ],
      [
        "h",
        -8.071830566079035
      ],
      [
        "Ġknown",
        -8.073296711530448
      ],
      [
        "Ġthree",
        -8.083032958208126
      ],
      [
        "Ġlarge",
        -8.086580099691698
      ],
      [
        ":ĊĊ",
        -8.091231120807084
      ],
      [
        "Ġcause",
        -8.092716840392397
      ],
      [
        "ĠBut",
        -8.109583747827257
      ],
      [
        "Ġchildren",
        -8.122767505721622
      ],
      [
        "Ġthings",
        -8.12356274687831
      ],
      [
        "Ġhuman",
        -8.126728783093865
      ],
      [
        "[",
        -8.137134294133006
      ],
      [
        "Ġcontrol",
        -8.138176490851402
      ],
      [
        "Ġplace",
        -8.14068662587706
      ],
      [
        "Ġmust",
        -8.140745713096234
      ],
      [
        "Ġlot",
        -8.141329612154324
      ],
      [
        "Ġsure",
        -8.14399439323855
      ],
      [
        "Ġset",
        -8.146347148322453
      ],
      [
        "Ġgreat",
        -8.147315447802814
      ],
      [
        "âĢĶ",
        -8.147386575699324
      ],
      [
        "ĠHowever",
        -8.148818985081494
      ],
      [
        "Ġcalled",
        -8.151055197220833
      ],
      [
        "ĠAnd",
        -8.151237511938088
      ],
      [
        "Ġwithin",
        -8.151476657258925
      ],
      [
        "Ġexperience",
        -8.17396481758605
      ],
      [
        "Ġinclude",
        -8.176211691171066
      ],
      [
        "Ġunder",
        -8.186256484856317
      ],
      [
        "Ġwhy",
        -8.187560417968688
      ],
      [
        "Ġreally",
        -8.196313143327945
      ],
      [
        "Ġsomething",
        -8.198378134533469
      ],
      [
        "and",
        -8.207560550267967
      ],
      [
        "ĠAs",
        -8.216474513982751
      ],
      [
        "Ġfollowing",
        -8.218338651529224
      ],
      [
        "$",
        -8.219789342756513
      ],
      [
        "ĠB",
        -8.220269311847545
      ],
      [
        "Ġdue",
        -8.22104777658011
      ],
      [
        "Ġpossible",
        -8.22186432168372
      ],
      [
        "ĠWhen",
        -8.222828749035704
      ],
      [
        "Ġanother",
        -8.224399137154125
      ],
      [
        "Ġform",
        -8.231738321025437
      ],
      [
        "Ġpoint",
        -8.233631004540563
      ],
      [
        "Ġgoing",
        -8.234115398249575
      ],
      [
        "Ġbecome",
        -8.235843659024098
      ],
      [
        "Ġlow",
        -8.236670304120329
      ],
      [
        "Ġcome",
        -8.237679602378712
      ],
      [
        "Ġlevel",
        -8.2466712232461
      ],
      [
        "Ġnatural",
        -8.24775646707622
      ],
      [
        "Ġrange",
        -8.255428592864018
      ],
      [
        "Ġhere",
        -8.257008867634303
      ],
      [
        "Ġvarious",
        -8.262831629064264
      ],
      [
        "Ġcells",
        -8.263832423644601
      ],
      [
        "Ġend",
        -8.265322128111622
      ],
      [
        "Ġcare",
        -8.2684542010442
      ],
      [
        "ĠHow",
        -8.270574705259227
      ],
      [
        "Ġlittle",
        -8.271625984273681
      ],
      [
        "Ġalways",
        -8.27368178747646
      ],
      [
        "Ġcar",
        -8.274338588247879
      ],
      [
        "Ġstart",
        -8.274493195511116
      ],
      [
        "ĠThere",
        -8.27599565071451
      ],
      [
        "ĠSo",
        -8.282156355686405
      ],
      [
        "Ġmeans",
        -8.287613916953694
      ],
      [
        "Ġspecific",
        -8.288684844727687
      ],
      [
        "Ġsize",
        -8.298617525533592
      ],
      [
        "Ġtemperature",
        -8.299877523724135
      ],
      [
        "Ġdid",
        -8.304277045726428
      ],
      [
        "Ġblood",
        -8.306733509759908
      ],
      [
        "Ġspace",
        -8.306851065024377
      ],
      [
        "x",
        -8.313580481733377
      ],
      [
        "Ġsupport",
        -8.315183004213328
      ],
      [
        "Ġdesign",
        -8.319452424270988
      ],
      [
        "in",
        -8.323199420109187
      ],
      [
        "Ġpotential",
        -8.327435632086225
      ],
      [
        "Ġsoil",
        -8.329635237902885
      ],
      [
        "Ġavailable",
        -8.332996485799521
      ],
      [
        "Ġshe",
        -8.335759391169157
      ],
      [
        "Ġenvironment",
        -8.33940337481832
      ],
      [
        "Ġdisease",
        -8.341615010588738
      ],
      [
        "Ġproblem",
        -8.34379038524355
      ],
      [
        "Ġensure",
        -8.344900815920226
      ],
      [
        "Ġlearn",
        -8.347799325624866
      ],
      [
        "Ġneeds",
        -8.350340063370508
      ],
      [
        "Ġseveral",
        -8.352644597392144
      ],
      [
        "Ġmain",
        -8.35391407926155
      ],
      [
        "Ġfeel",
        -8.355081561794208
      ],
      [
        "the",
        -8.35594782636074
      ],
      [
        "&",
        -8.357016222617853
      ],
      [
        "Ġheat",
        -8.357739259859443
      ],
      [
        "Ġlearning",
        -8.358003036305007
      ],
      [
        "Ġtypes",
        -8.358325981766383
      ],
      [
        "Ġbased",
        -8.364889812200142
      ],
      [
        "Ġgive",
        -8.367236153125871
      ],
      [
        "Ġareas",
        -8.369470171134848
      ],
      [
        "on",
        -8.372763697020238
      ],
      [
        "Ġper",
        -8.376724778481682
      ],
      [
        "Ġsurface",
        -8.37714690600458
      ],
      [
        "Ġschool",
        -8.377855932034699
      ],
      [
        "Ġrisk",
        -8.379585809791294
      ],
      [
        "Ġdevelopment",
        -8.379827200278223
      ],
      [
        "Ġenough",
        -8.385248062819542
      ],
      [
        "Ġusually",
        -8.392236543987725
      ],
      [
        "Ġquality",
        -8.393896770132336
      ],
      [
        "ĠWhich",
        -8.396645114372767
      ],
      [
        "Ġtext",
        -8.39826592431607
      ],
      [
        "Ġanimals",
        -8.405323619647639
      ],
      [
        "When",
        -8.40771788747423
      ],
      [
        "Ġconditions",
        -8.408400805369777
      ],
      [
        "Ġlast",
        -8.409826915336199
      ],
      [
        "Ġcolor",
        -8.419722129754788
      ],
      [
        "Ġorder",
        -8.428656693510698
      ],
      [
        "Ġtechnology",
        -8.430165367884413
      ],
      [
        "Ġsystems",
        -8.43042559755454
      ],
      [
        "Ġunderstand",
        -8.433847045822388
      ],
      [
        "Ġside",
        -8.441071017272714
      ],
      [
        "Ġgroup",
        -8.444952639591984
      ],
      [
        "Ġmaterials",
        -8.446200213442962
      ],
      [
        "Ġpressure",
        -8.447676564099098
      ],
      [
        "T",
        -8.455641831594928
      ],
      [
        "Ġsince",
        -8.464718045262126
      ],
      [
        "Ġperson",
        -8.465092019557572
      ],
      [
        "Ġmakes",
        -8.468204177094508
      ],
      [
        "Ġuntil",
        -8.470963158672275
      ],
      [
        "Ġamount",
        -8.471153680257341
      ],
      [
        "Ġtogether",
        -8.471402868591559
      ],
      [
        "Ġstate",
        -8.47143595634334
      ],
      [
        "Ġfish",
        -8.47865084641446
      ],
      [
        "Ġcase",
        -8.480268123989259
      ],
      [
        "Ġcurrent",
        -8.48482647191302
      ],
      [
        "Ġtimes",
        -8.485463571319912
      ],
      [
        "Ġsay",
        -8.488112621322689
      ],
      [
        "Ġresult",
        -8.491392379980379
      ],
      [
        "Ġfamily",
        -8.491497827826569
      ],
      [
        "Ġoil",
        -8.49156959967635
      ],
      [
        "Ġincrease",
        -8.49249573529112
      ],
      [
        "Ġlevels",
        -8.4934156080255
      ],
      [
        "You",
        -8.494334338543775
      ],
      [
        "Ġlead",
        -8.49495174351854
      ],
      [
        "Ġessential",
        -8.498216660830424
      ],
      [
        "Ġmaterial",
        -8.498269313098488
      ],
      [
        "Ġproblems",
        -8.498522470412347
      ],
      [
        "Ġaway",
        -8.49883845351462
      ],
      [
        "Ġtop",
        -8.501160539549534
      ],
      [
        "Ġhaving",
        -8.51150621347034
      ],
      [
        "th",
        -8.511523827220381
      ],
      [
        "Ġage",
        -8.513611912273792
      ],
      [
        "Ġnext",
        -8.515633786391483
      ],
      [
        "Ġput",
        -8.516088911204623
      ],
      [
        "Ġsecond",
        -8.517239948931506
      ],
      [
        "Ġworking",
        -8.517333770135874
      ],
      [
        "Ġimpact",
        -8.521662489594275
      ],
      [
        "Ġresults",
        -8.521925354834622
      ],
      [
        "Ġkey",
        -8.522928446524059
      ],
      [
        "Ġprevent",
        -8.527781064841662
      ],
      [
        "Ġnon",
        -8.53201352422508
      ],
      [
        "Ġname",
        -8.532891684470883
      ],
      [
        "Ġreduce",
        -8.533270340436836
      ],
      [
        "ĠBy",
        -8.534347151024889
      ],
      [
        "Ġproducts",
        -8.534879727729137
      ],
      [
        "Ġfree",
        -8.539672040991038
      ],
      [
        "Ġtreatment",
        -8.541729436330805
      ],
      [
        "Ġcourse",
        -8.541770215805036
      ],
      [
        "Ġhigher",
        -8.544259801248954
      ],
      [
        "Ġvalue",
        -8.544758043449274
      ],
      [
        "Ġearly",
        -8.545249900325857
      ],
      [
        "ĠThat",
        -8.54618760179887
      ],
      [
        "Ġweight",
        -8.546613037937961
      ],
      [
        "Ġeasy",
        -8.547205741634457
      ],
      [
        "Ġgrowth",
        -8.549512934083445
      ],
      [
        "Ġhand",
        -8.551331410059413
      ],
      [
        "There",
        -8.554179852946342
      ],
      [
        "+",
        -8.554322176424204
      ],
      [
        "Ġlikely",
        -8.555991228266926
      ],
      [
        "Ġcomes",
        -8.557514601422184
      ],
      [
        "Ġdays",
        -8.560105508493658
      ],
      [
        "C",
        -8.56172856845577
      ],
      [
        "Ġlocal",
        -8.565675607064282
      ],
      [
        "Ġmethod",
        -8.567467126550582
      ],
      [
        "Ġteam",
        -8.568210507070557
      ],
      [
        "Ġactually",
        -8.56830223442729
      ],
      [
        "]",
        -8.568375528952227
      ],
      [
        "âĢĻs",
        -8.570148622232132
      ],
      [
        "Ġleast",
        -8.57142215741307
      ],
      [
        "Ġline",
        -8.574086241791216
      ],
      [
        "Ġdoesn",
        -8.574530052161816
      ],
      [
        "ĠUniversity",
        -8.575744569537171
      ],
      [
        "Ġchild",
        -8.57588647283189
      ],
      [
        "Ġrole",
        -8.578031249682834
      ],
      [
        "Ġhealthy",
        -8.578083898165016
      ],
      [
        "We",
        -8.580133940019719
      ],
      [
        "Ġopen",
        -8.582909831317078
      ],
      [
        "Ġarea",
        -8.583873377681327
      ],
      [
        "Ġshow",
        -8.584396671126205
      ],
      [
        "ĠHe",
        -8.586431437467631
      ],
      [
        "Ġchanges",
        -8.586842484984725
      ],
      [
        "Ġfull",
        -8.588686556917002
      ],
      [
        "Ġprogram",
        -8.58871852582406
      ],
      [
        "Ġproject",
        -8.59161180586912
      ],
      [
        "Ġsimple",
        -8.59544405463458
      ],
      [
        "Ġlower",
        -8.595552996507468
      ],
      [
        "Ġtest",
        -8.595757665474919
      ],
      [
        "Ġfuture",
        -8.60202214099531
      ],
      [
        "Ġissues",
        -8.604565704440477
      ],
      [
        "Ġplay",
        -8.606816822504172
      ],
      [
        "Ġthing",
        -8.612725000611215
      ],
      [
        "Ġcost",
        -8.615658633055215
      ],
      [
        "Ġpresent",
        -8.617167912868652
      ],
      [
        "Ġproduction",
        -8.620981525555754
      ],
      [
        "Ġespecially",
        -8.621788530052422
      ],
      [
        "Ġalong",
        -8.621837680276364
      ],
      [
        "v",
        -8.623556233667285
      ],
      [
        "Ġunique",
        -8.623940937826136
      ],
      [
        "Ġmodel",
        -8.628287719022456
      ],
      [
        "k",
        -8.629323963185806
      ],
      [
        "Ġfield",
        -8.630909252183226
      ],
      [
        "Ġfunction",
        -8.631469171470435
      ],
      [
        "Ġabove",
        -8.631706243965882
      ],
      [
        "Ġacross",
        -8.633047151055052
      ],
      [
        "Ġcell",
        -8.63383861934908
      ],
      [
        "Ġdogs",
        -8.63712082902527
      ],
      [
        "Ġdone",
        -8.641952675138803
      ],
      [
        "Ġcertain",
        -8.647054493634995
      ],
      [
        "Ġdamage",
        -8.647270016615714
      ],
      [
        "Ġagainst",
        -8.647478268985576
      ],
      [
        "Ġlive",
        -8.647991880263206
      ],
      [
        "Ġgrow",
        -8.651308515053511
      ],
      [
        "Ġgiven",
        -8.653340283967726
      ],
      [
        "Ġadd",
        -8.655050031546347
      ],
      [
        "ĠWith",
        -8.661825803798266
      ],
      [
        "Ġskin",
        -8.662893801669798
      ],
      [
        "Ġwhite",
        -8.663566535907016
      ],
      [
        "Ġhard",
        -8.665883076501563
      ],
      [
        "Ġsingle",
        -8.66717184623524
      ],
      [
        "Ġlet",
        -8.667520151795616
      ],
      [
        "Ġnever",
        -8.668565571836092
      ],
      [
        "Ġeye",
        -8.668647083147501
      ],
      [
        "Ġsource",
        -8.67086240429795
      ],
      [
        "Ġsocial",
        -8.671621245226431
      ],
      [
        "Ġothers",
        -8.677470549982193
      ],
      [
        "*",
        -8.681003567482367
      ],
      [
        "Ġpaper",
        -8.684677228366665
      ],
      [
        "Ġdiet",
        -8.687940435547644
      ],
      [
        "Ġold",
        -8.688352729060828
      ],
      [
        "Ġeffects",
        -8.694259699230198
      ],
      [
        "To",
        -8.6951047294105
      ],
      [
        "Ġphysical",
        -8.696072034635591
      ],
      [
        "Ġtry",
        -8.696267392037493
      ],
      [
        "âĢĵ",
        -8.696604176595216
      ],
      [
        "Ġstep",
        -8.697620635417719
      ],
      [
        "is",
        -8.702665793558317
      ],
      [
        "Ġbenefits",
        -8.70279228909792
      ],
      [
        "Ġunderstanding",
        -8.703242490267025
      ],
      [
        "Ġimprove",
        -8.704285704023143
      ],
      [
        "Ġways",
        -8.706705362200152
      ],
      [
        "Ġbook",
        -8.706769325756824
      ],
      [
        "Ġsimilar",
        -8.708069881846733
      ],
      [
        "Ġsays",
        -8.708180107361338
      ],
      [
        "Ġlooking",
        -8.709311352508834
      ],
      [
        "Ġconsider",
        -8.71144942257655
      ],
      [
        "Ġsignificant",
        -8.712122279410377
      ],
      [
        "Ġfactors",
        -8.714628001691137
      ],
      [
        "or",
        -8.715039235997587
      ],
      [
        "Ġclimate",
        -8.71795971270866
      ],
      [
        "ĠYour",
        -8.722225853957617
      ],
      [
        "Ġfar",
        -8.722559684453332
      ],
      [
        "Ġtraining",
        -8.722865689918633
      ],
      [
        ")Ċ",
        -8.723258199778636
      ],
      [
        "Ġproduce",
        -8.725511479284226
      ],
      [
        "Ġfact",
        -8.726722117182844
      ],
      [
        "Ġreal",
        -8.728620170421356
      ],
      [
        "u",
        -8.729600865304747
      ],
      [
        "ĠSome",
        -8.730564216766538
      ],
      [
        "Ġdesigned",
        -8.733310766221653
      ],
      [
        "Ġeither",
        -8.733728587819781
      ],
      [
        "!ĊĊ",
        -8.739304879279464
      ],
      [
        "Ġparts",
        -8.740317699650008
      ],
      [
        "eat",
        -8.743350129743876
      ],
      [
        "Ġanimal",
        -8.744986203874081
      ],
      [
        "Ġonce",
        -8.746354308845811
      ],
      [
        "For",
        -8.746821052767213
      ],
      [
        "Ġfurther",
        -8.747913824243676
      ],
      [
        "Ġaccording",
        -8.75026943168876
      ],
      [
        "Ġaddition",
        -8.75035001623791
      ],
      [
        "Ġtoday",
        -8.751023882934431
      ],
      [
        "Ġfour",
        -8.751369402110106
      ],
      [
        "ĠNew",
        -8.751751430194965
      ],
      [
        "_",
        -8.755202158927526
      ],
      [
        "Ġcomputer",
        -8.755678286749646
      ],
      [
        "Ġperformance",
        -8.755939402062836
      ],
      [
        "Ġscience",
        -8.756851483711111
      ],
      [
        "Ġleft",
        -8.75912336615636
      ],
      [
        "Ġshort",
        -8.759480609609861
      ],
      [
        "Ġspeed",
        -8.762274182160898
      ],
      [
        "Ġwhether",
        -8.762672911138262
      ],
      [
        "Ġeffective",
        -8.764943290312221
      ],
      [
        "Ġoffer",
        -8.766530492704517
      ],
      [
        "Ġgetting",
        -8.768081846502948
      ],
      [
        "Ġread",
        -8.768170533972159
      ],
      [
        "Ġmove",
        -8.768972375103816
      ],
      [
        "Ġheart",
        -8.76956887330507
      ],
      [
        "Ġhim",
        -8.769877522332512
      ],
      [
        "Ġallows",
        -8.770719541950948
      ],
      [
        "Ġdifference",
        -8.770929495917699
      ],
      [
        "Ġgame",
        -8.774502873522417
      ],
      [
        "Ġhelps",
        -8.777494985825532
      ],
      [
        "Ġproduct",
        -8.777647348740471
      ],
      [
        "Ġeffect",
        -8.778025560211724
      ],
      [
        "Ġmillion",
        -8.778819566362358
      ],
      [
        "Ġnecessary",
        -8.779106175584438
      ],
      [
        "Ġground",
        -8.781715497849458
      ],
      [
        "Ġskills",
        -8.782304082120117
      ],
      [
        "Ġbelow",
        -8.783352986942562
      ],
      [
        "Ġvariety",
        -8.783825280488555
      ],
      [
        "Ġhead",
        -8.785082863219042
      ],
      [
        "Ġgas",
        -8.78586762624809
      ],
      [
        "Ġability",
        -8.787768305128886
      ],
      [
        "ĠM",
        -8.78917875206813
      ],
      [
        "Ġloss",
        -8.79493172943888
      ],
      [
        "Ġimage",
        -8.796370282896122
      ],
      [
        "Ġquestion",
        -8.798241455287306
      ],
      [
        "Ġprovides",
        -8.79866992488467
      ],
      [
        "Ġrate",
        -8.798773564832327
      ],
      [
        "Ġtree",
        -8.801036795480567
      ],
      [
        "Ġclean",
        -8.804839620968586
      ],
      [
        "Ġalready",
        -8.808628432105317
      ],
      [
        "Ġbig",
        -8.80890967321745
      ],
      [
        "Ġindividual",
        -8.81083245123232
      ],
      [
        "Ġavoid",
        -8.810877163615459
      ],
      [
        "Ġhours",
        -8.811640021130884
      ],
      [
        "Ġaccess",
        -8.813085379731689
      ],
      [
        "Ġapproach",
        -8.814341465838325
      ],
      [
        "Ġcommunity",
        -8.815516656191974
      ],
      [
        "Ġallow",
        -8.816874207722726
      ],
      [
        "Ġneeded",
        -8.81899628382241
      ],
      [
        "Ġamong",
        -8.81998513154045
      ],
      [
        "Ġcat",
        -8.820358813867703
      ],
      [
        "Ġsafety",
        -8.820671179163986
      ],
      [
        "Ġcontent",
        -8.820871679691837
      ],
      [
        "Ġsafe",
        -8.821400511197607
      ],
      [
        "Ġhistory",
        -8.821731701778099
      ],
      [
        "Ġdry",
        -8.822847412292038
      ],
      [
        ")ĊĊ",
        -8.823922362710725
      ],
      [
        "Ġrun",
        -8.824353525890446
      ],
      [
        "ness",
        -8.824466740397877
      ],
      [
        "us",
        -8.82519742592809
      ],
      [
        "Ġlove",
        -8.825781509237371
      ],
      [
        "Ġbrain",
        -8.826331216220307
      ],
      [
        "Ġfocus",
        -8.826861136056111
      ],
      [
        "Ġturn",
        -8.826874350849986
      ],
      [
        "Ġfeatures",
        -8.827909593922895
      ],
      [
        "Ġreason",
        -8.828238991820529
      ],
      [
        "Ġdoing",
        -8.829110309208085
      ],
      [
        "Ġdevelop",
        -8.8319317155051
      ],
      [
        "Ġrequire",
        -8.832708904693346
      ],
      [
        "Ġindustry",
        -8.834332406365474
      ],
      [
        "Ġthough",
        -8.835036015246919
      ],
      [
        "Ġblack",
        -8.837685741993564
      ],
      [
        "Ġpain",
        -8.843473410332638
      ],
      [
        "Ġinside",
        -8.84351136212929
      ],
      [
        "ĠIs",
        -8.84384758946918
      ],
      [
        "Ġarticle",
        -8.84802733421724
      ],
      [
        "Ġcarbon",
        -8.84857992129452
      ],
      [
        "Ġstructure",
        -8.849292364934989
      ],
      [
        "Ġsymptoms",
        -8.850604162559643
      ],
      [
        "Ġuser",
        -8.850619585200606
      ],
      [
        "Ġkind",
        -8.850626751112765
      ],
      [
        "Ġseen",
        -8.851115585818862
      ],
      [
        "Ġpublic",
        -8.851385982644155
      ],
      [
        "ĠOne",
        -8.852942137727927
      ],
      [
        "Ġrequired",
        -8.853274058386882
      ],
      [
        "Ġcheck",
        -8.853677670886231
      ],
      [
        "Ġknowledge",
        -8.85397416437956
      ],
      [
        "Ġmajor",
        -8.855221615608468
      ],
      [
        "Ġonline",
        -8.855367131009995
      ],
      [
        "Ġleaves",
        -8.855846063445332
      ],
      [
        "Ġactivities",
        -8.858504204230309
      ],
      [
        "Ġmean",
        -8.85946419235377
      ],
      [
        "Ġgarden",
        -8.86481637289608
      ],
      [
        "Ġbuilding",
        -8.866537257433684
      ],
      [
        "Ġlonger",
        -8.867066560861499
      ],
      [
        "Ġidea",
        -8.867162181596845
      ],
      [
        "Ġpopular",
        -8.869276966101225
      ],
      [
        "Ġbit",
        -8.874476752834513
      ],
      [
        "Ġagain",
        -8.875254362850434
      ],
      [
        "ĠU",
        -8.875544337270144
      ],
      [
        "ĠAmerican",
        -8.875734528630405
      ],
      [
        "!Ċ",
        -8.878071125219273
      ],
      [
        "Ġtools",
        -8.878299550531214
      ],
      [
        "Ġbusiness",
        -8.879573421676893
      ],
      [
        "Ġsound",
        -8.879682603565472
      ],
      [
        "Ġred",
        -8.880137151231791
      ],
      [
        "Ġquestions",
        -8.88190332602175
      ],
      [
        "Ġresearchers",
        -8.882068037087219
      ],
      [
        "ĠAI",
        -8.886367612762896
      ],
      [
        "Ġactivity",
        -8.88682754323509
      ],
      [
        "Ġcompany",
        -8.889159859836262
      ],
      [
        "Ġwhole",
        -8.89323107226542
      ],
      [
        "Ġtaking",
        -8.89806268783888
      ],
      [
        "Ġmatter",
        -8.898269086137962
      ],
      [
        "Ġgreen",
        -8.898677807738009
      ],
      [
        "Ġmethods",
        -8.899318014932206
      ],
      [
        "Ġliving",
        -8.899542773719384
      ],
      [
        "Ġsomeone",
        -8.90225384309203
      ],
      [
        "Ġnature",
        -8.904262624620936
      ],
      [
        "Ġun",
        -8.907255395086342
      ],
      [
        "Ġenvironmental",
        -8.908150124504468
      ],
      [
        "Ġclass",
        -8.911226674274172
      ],
      [
        "Ġtypically",
        -8.911365515916861
      ],
      [
        "Ġclose",
        -8.911509452360924
      ],
      [
        "Ġeasily",
        -8.914202710144325
      ],
      [
        "Ġmind",
        -8.91751872262007
      ],
      [
        "Ġmonths",
        -8.91845504633395
      ],
      [
        "Ġhumans",
        -8.920332007620337
      ],
      [
        "Ġself",
        -8.921169992572583
      ],
      [
        "Ġever",
        -8.921916169730169
      ],
      [
        "Ġindividuals",
        -8.923041642815672
      ],
      [
        "Ġperiod",
        -8.923626703159764
      ],
      [
        "Ġvideo",
        -8.925179600040577
      ],
      [
        "Ġtrees",
        -8.92884560383398
      ],
      [
        "Ġroom",
        -8.929377365524235
      ],
      [
        "ĠP",
        -8.929834159156133
      ],
      [
        "ĠNo",
        -8.93048491919895
      ],
      [
        "Ġgrowing",
        -8.932518055340745
      ],
      [
        "Ġassociated",
        -8.932623468006277
      ],
      [
        "Ġsolution",
        -8.933751565180783
      ],
      [
        "Ġaverage",
        -8.93572869108293
      ],
      [
        "Ġmoney",
        -8.938667396362362
      ],
      [
        "Ġdevice",
        -8.939487823210314
      ],
      [
        ".\"ĊĊ",
        -8.94004113114634
      ],
      [
        "Ġmanagement",
        -8.941050207482624
      ],
      [
        "Ġcancer",
        -8.941103399903437
      ],
      [
        "Ġconsidered",
        -8.943542855506577
      ],
      [
        "Ġoverall",
        -8.947106524943429
      ],
      [
        "Ġgeneral",
        -8.947319852229208
      ],
      [
        "Ġcold",
        -8.947406641485514
      ],
      [
        "Ġcases",
        -8.94828848786736
      ],
      [
        "Ġanswer",
        -8.948627787340866
      ],
      [
        "Ġcrucial",
        -8.94899906116238
      ],
      [
        "Ġmedical",
        -8.949006785501263
      ],
      [
        "Ġstrong",
        -8.950006721042813
      ],
      [
        "Ġminutes",
        -8.950305961794363
      ],
      [
        "Ġchoose",
        -8.950499777482147
      ],
      [
        "Ġtechniques",
        -8.950888766664567
      ],
      [
        "Ġmarket",
        -8.950979579755145
      ],
      [
        "Ġrather",
        -8.953056576642293
      ],
      [
        "Ġetc",
        -8.953704799606875
      ],
      [
        "Ġservice",
        -8.954339688314851
      ],
      [
        "B",
        -8.954501914666015
      ],
      [
        "Ġdifficult",
        -8.955706204944835
      ],
      [
        "Ġweek",
        -8.957045185424438
      ],
      [
        "Ġresources",
        -8.957189533923534
      ],
      [
        "Ġpractice",
        -8.958934368437232
      ],
      [
        "Ġsense",
        -8.959611292549214
      ],
      [
        "Ġpositive",
        -8.959614978575958
      ],
      [
        "Ġpast",
        -8.96061571450414
      ],
      [
        "Ġpopulation",
        -8.961441374853058
      ],
      [
        "Ġclear",
        -8.965613177206388
      ],
      [
        "Ġcreating",
        -8.967340931392147
      ],
      [
        "Ġbuild",
        -8.968392063349091
      ],
      [
        "w",
        -8.96871721309901
      ],
      [
        "Ġpatients",
        -8.969046518931616
      ],
      [
        "Ġprimary",
        -8.970968159191235
      ],
      [
        "Ġcomplex",
        -8.973598556367216
      ],
      [
        "Ġhouse",
        -8.97433663997397
      ],
      [
        "Ġtell",
        -8.975351686921435
      ],
      [
        "Ġhowever",
        -8.977270390004277
      ],
      [
        "Ġengine",
        -8.977437925747017
      ],
      [
        "Ġbelieve",
        -8.977926233572788
      ],
      [
        "-based",
        -8.97837756645376
      ],
      [
        "Ġcondition",
        -8.978613271331874
      ],
      [
        "Ġprotein",
        -8.979109301199616
      ],
      [
        "Ġissue",
        -8.979270747783962
      ],
      [
        "Ġwomen",
        -8.979375963081791
      ],
      [
        "Ġhot",
        -8.981660126476969
      ],
      [
        "Ġquickly",
        -8.981926103920044
      ],
      [
        "Ġtraditional",
        -8.982428709242336
      ],
      [
        "Ġplan",
        -8.982990938274774
      ],
      [
        "Ġthroughout",
        -8.983327019524799
      ],
      [
        "Ġyourself",
        -8.985044616972434
      ],
      [
        "Ġpost",
        -8.98596951703769
      ],
      [
        "Ġcontinue",
        -8.988822888466869
      ],
      [
        "Ġcut",
        -8.990127333959524
      ],
      [
        "Ġyoung",
        -8.996160900999165
      ],
      [
        "ies",
        -8.997978442353725
      ],
      [
        "Ġprofessional",
        -8.998544584946623
      ],
      [
        "Ġremove",
        -9.00022806001112
      ],
      [
        "Ġnear",
        -9.002826501505126
      ],
      [
        "Ġstress",
        -9.004815722821581
      ],
      [
        "Ġoutside",
        -9.00539232645245
      ],
      [
        "So",
        -9.007129209814757
      ],
      [
        "Ġmultiple",
        -9.007205560149224
      ],
      [
        "Ġmachine",
        -9.00968204057706
      ],
      [
        "Ġincreased",
        -9.0116802242182
      ],
      [
        "ĠE",
        -9.011712311780878
      ],
      [
        "Ġsimply",
        -9.011838656638712
      ],
      [
        "Ġcontact",
        -9.013617971086283
      ],
      [
        "Ġlayer",
        -9.013700683076197
      ],
      [
        "Ġprobably",
        -9.01475932093847
      ],
      [
        "Ġdeveloped",
        -9.017920683674816
      ],
      [
        "Ġworks",
        -9.018014819296752
      ],
      [
        "ĠWhile",
        -9.020523393717118
      ],
      [
        "âĢ¢",
        -9.020599981619531
      ],
      [
        "Ġoptions",
        -9.022286029900288
      ],
      [
        "Ġshape",
        -9.02260521247042
      ],
      [
        "Ġrelated",
        -9.02461341513728
      ],
      [
        "Ġcannot",
        -9.025954637151544
      ],
      [
        "Ġbirds",
        -9.02762438448238
      ],
      [
        "O",
        -9.027649604855403
      ],
      [
        "Ġcreated",
        -9.028198004600926
      ],
      [
        "Ġflow",
        -9.028937666399193
      ],
      [
        "Ġfeet",
        -9.029110468462234
      ],
      [
        "Ġstudies",
        -9.029912409985794
      ],
      [
        "Ġspecial",
        -9.030187413403098
      ],
      [
        "Ġpet",
        -9.030337688804662
      ],
      [
        "Ġlist",
        -9.031836026027602
      ],
      [
        ".\"Ċ",
        -9.033275495159542
      ],
      [
        "Ġart",
        -9.036434534664837
      ],
      [
        "Ġwide",
        -9.039008660054693
      ],
      [
        "Ġincludes",
        -9.040789496721334
      ],
      [
        "|",
        -9.041389977656332
      ],
      [
        "Ġparticular",
        -9.042209117414112
      ],
      [
        "Ġalmost",
        -9.042267161014712
      ],
      [
        "One",
        -9.04253966438684
      ],
      [
        "Ġeducation",
        -9.04281721659714
      ],
      [
        "Ġwaste",
        -9.044154631469691
      ],
      [
        "Ġbehavior",
        -9.045510847779047
      ],
      [
        "ĠUnited",
        -9.051370454020915
      ],
      [
        "Ġwinter",
        -9.05143465938491
      ],
      [
        "Ġdetermine",
        -9.051752840116388
      ],
      [
        "Ġtool",
        -9.051874853594418
      ],
      [
        "Ġgot",
        -9.052191030755656
      ],
      [
        "Ġinstead",
        -9.05409006923382
      ],
      [
        "Ġfuel",
        -9.054443207131278
      ],
      [
        "Ġnormal",
        -9.055167061924656
      ],
      [
        "Ġthought",
        -9.056078830916777
      ],
      [
        "Ġposition",
        -9.056342587418577
      ],
      [
        "Ġtotal",
        -9.056639252722324
      ],
      [
        "Ġservices",
        -9.057149196292643
      ],
      [
        "Ġprotect",
        -9.057279351878076
      ],
      [
        "Ġelements",
        -9.057858588886662
      ],
      [
        "Ġsite",
        -9.058393836985722
      ],
      [
        "Ġlarger",
        -9.059393310833231
      ],
      [
        "Ġfive",
        -9.05947365344103
      ],
      [
        "Ġattention",
        -9.059924120867482
      ],
      [
        "Ġcall",
        -9.062702833999245
      ],
      [
        "Ġhalf",
        -9.06383794300056
      ],
      [
        "Ġmodern",
        -9.065713330258315
      ],
      [
        "Ġdeep",
        -9.06680483575122
      ],
      [
        "Ġbasic",
        -9.072373056395351
      ],
      [
        "Ġland",
        -9.073333884284027
      ],
      [
        "Ġlater",
        -9.07353505175989
      ],
      [
        "Ġwon",
        -9.07482702693365
      ],
      [
        "ĠAt",
        -9.07504791252075
      ],
      [
        "Ġauthor",
        -9.075621589503536
      ],
      [
        "Ġglobal",
        -9.077062931092035
      ],
      [
        "to",
        -9.0772163538414
      ],
      [
        "Ġchoice",
        -9.077418195500902
      ],
      [
        "Ġpersonal",
        -9.081596620332466
      ],
      [
        "Ġcompared",
        -9.082382090130585
      ],
      [
        "Ġchemical",
        -9.083127954522542
      ],
      [
        "ĠR",
        -9.083625043935886
      ],
      [
        "Ġscientists",
        -9.08384961058745
      ],
      [
        "ĠNational",
        -9.085990917819604
      ],
      [
        "Ġcauses",
        -9.087178341392985
      ],
      [
        "Ġmaintain",
        -9.08887176448368
      ],
      [
        "Ġshown",
        -9.089478601658048
      ],
      [
        "Ġtakes",
        -9.090291978111294
      ],
      [
        "Ġapplications",
        -9.090625707063706
      ],
      [
        "Ġsometimes",
        -9.09168026847585
      ],
      [
        "Ġproviding",
        -9.093539420964962
      ],
      [
        "Ġanything",
        -9.09542786175005
      ],
      [
        "Ġyet",
        -9.09553203785633
      ],
      [
        "Ġeverything",
        -9.09665186859573
      ],
      [
        "Ġface",
        -9.09720587390245
      ],
      [
        "an",
        -9.09722001975563
      ],
      [
        "Ġeyes",
        -9.09820062429218
      ],
      [
        "Ġcomplete",
        -9.099017143392054
      ],
      [
        "Ġtrue",
        -9.099530547797968
      ],
      [
        "Ġbattery",
        -9.101087772642227
      ],
      [
        "Ġpercent",
        -9.1024399529562
      ],
      [
        "Ġshows",
        -9.104230943547776
      ],
      [
        ").Ċ",
        -9.105132992219154
      ],
      [
        "ĠAn",
        -9.107828615436585
      ],
      [
        "Ġmetal",
        -9.10809039056515
      ],
      [
        "Ġcountry",
        -9.108412293595286
      ],
      [
        "Ġregular",
        -9.110320674414416
      ],
      [
        "Ġadditional",
        -9.111495207243474
      ],
      [
        "Ġcaused",
        -9.111764788957148
      ],
      [
        "Ġquite",
        -9.112463148219687
      ],
      [
        "Ġgenerally",
        -9.113695920053184
      ],
      [
        "Ġweather",
        -9.114179001690998
      ],
      [
        "ĠAll",
        -9.114379713951028
      ],
      [
        "Ġcode",
        -9.114512077840564
      ],
      [
        "Ġshare",
        -9.11625554080905
      ],
      [
        "Ġtaken",
        -9.118302647323649
      ],
      [
        "Ġlanguage",
        -9.119638001220755
      ],
      [
        "Ġbacteria",
        -9.12022433022168
      ],
      [
        "Ġcomponents",
        -9.12030977134217
      ],
      [
        "Ġequipment",
        -9.120443927022158
      ],
      [
        "Ġdevices",
        -9.123238978579174
      ],
      [
        "Ġsoftware",
        -9.12478315662786
      ],
      [
        "#",
        -9.125082415964318
      ],
      [
        "Ġanalysis",
        -9.125303346125955
      ],
      [
        "Ġaffect",
        -9.12614018414987
      ],
      [
        "Ġstay",
        -9.127309836703777
      ],
      [
        "Ġsummer",
        -9.128160771926147
      ],
      [
        "Ġoffers",
        -9.128361345295229
      ],
      [
        "Ġdigital",
        -9.129162030474273
      ],
      [
        "ĠHere",
        -9.131175536397818
      ],
      [
        "Ġstarted",
        -9.131435020884318
      ],
      [
        "Why",
        -9.131735838212949
      ],
      [
        "ity",
        -9.132979103088845
      ],
      [
        "Ġbad",
        -9.133033861261826
      ],
      [
        "Ġfoods",
        -9.134639636516708
      ],
      [
        "Ġterms",
        -9.139309637323889
      ],
      [
        "Ġago",
        -9.14022891611452
      ],
      [
        "Ġperfect",
        -9.140751594297775
      ],
      [
        "Ġsea",
        -9.141833315178802
      ],
      [
        ">",
        -9.143661616679193
      ],
      [
        "Ġhold",
        -9.144623927371724
      ],
      [
        "Ġtrying",
        -9.14625028829556
      ],
      [
        "Ġreading",
        -9.147034081603485
      ],
      [
        "Ġbring",
        -9.147060115242724
      ],
      [
        "Ġitself",
        -9.147730644415388
      ],
      [
        "Ġuses",
        -9.149914153652576
      ],
      [
        "ĠEarth",
        -9.151083660928862
      ],
      [
        "Ġthemselves",
        -9.151933361561646
      ],
      [
        "Ġterm",
        -9.153565977782575
      ],
      [
        "Ġforce",
        -9.156634836034032
      ],
      [
        "Ġpurpose",
        -9.157292605530811
      ],
      [
        "Ġprovided",
        -9.158023369196483
      ],
      [
        "Ġresponse",
        -9.15978335693071
      ],
      [
        "Ġproperties",
        -9.160618664484796
      ],
      [
        "Ġstop",
        -9.163098676150918
      ],
      [
        "Ġenjoy",
        -9.163721079977206
      ],
      [
        "Ġkids",
        -9.163925484892417
      ],
      [
        "Ġaction",
        -9.164928651959595
      ],
      [
        "Ġgroups",
        -9.168452389191094
      ],
      [
        "Ġwords",
        -9.169037806619231
      ],
      [
        "Ġmentioned",
        -9.169731361055645
      ],
      [
        "Ġdaily",
        -9.170630906653953
      ],
      [
        "ĠDNA",
        -9.171468008385345
      ],
      [
        "Ġsignal",
        -9.171555818116518
      ],
      [
        "Ġplastic",
        -9.171753116072262
      ],
      [
        "Ġfollow",
        -9.173286131486208
      ],
      [
        "ĠDo",
        -9.175831233656718
      ],
      [
        "Ġproper",
        -9.177692265441877
      ],
      [
        "Ġlength",
        -9.178342992070364
      ],
      [
        "Ġcover",
        -9.178484456699229
      ],
      [
        "Ġwarm",
        -9.1832100153022
      ],
      [
        "Ġsmaller",
        -9.18349217202623
      ],
      [
        "Ġmeat",
        -9.183796818777347
      ],
      [
        "Ġevidence",
        -9.183892001739377
      ],
      [
        "Ġregion",
        -9.184446833864971
      ],
      [
        "Ġmass",
        -9.184672873554666
      ],
      [
        "Ġadded",
        -9.185125778118666
      ],
      [
        "Ġbehind",
        -9.186403303311678
      ],
      [
        "Ġparticularly",
        -9.188809983020205
      ],
      [
        "Ġeating",
        -9.189006640513956
      ],
      [
        "al",
        -9.190147750406371
      ],
      [
        "Ġoption",
        -9.190392745576302
      ],
      [
        "Ġsteps",
        -9.191291021891251
      ],
      [
        "ĠStates",
        -9.19270555938061
      ],
      [
        "Ġrequires",
        -9.193383449978771
      ],
      [
        "Ġnight",
        -9.195192228775388
      ],
      [
        "ĠOn",
        -9.195299761147684
      ],
      [
        "Ġstandard",
        -9.196300434256774
      ],
      [
        "Ġsugar",
        -9.197136597641276
      ],
      [
        "Ġseason",
        -9.1980023054926
      ],
      [
        "Ġjob",
        -9.199165936848152
      ],
      [
        "Ġfront",
        -9.201144311934376
      ],
      [
        "Ġreach",
        -9.201641762148228
      ],
      [
        "Ġice",
        -9.202819028546209
      ],
      [
        "Ġvehicle",
        -9.203713862556292
      ],
      [
        "Ġstudent",
        -9.204033041138455
      ],
      [
        "Ġfun",
        -9.205919450112267
      ],
      [
        "âĢ¦",
        -9.206765027788162
      ],
      [
        "Ġdirectly",
        -9.206780865883786
      ],
      [
        "Ġwood",
        -9.20787242541495
      ],
      [
        "ĠH",
        -9.208608168445556
      ],
      [
        "--",
        -9.210690371681665
      ],
      [
        "Ġal",
        -9.214847208504072
      ],
      [
        "Ġparents",
        -9.215137066334409
      ],
      [
        "Ġtowards",
        -9.216269954249768
      ],
      [
        "Ġleading",
        -9.217004853877135
      ],
      [
        "Ġmilk",
        -9.217617269632974
      ],
      [
        "Ġapplication",
        -9.218672560482618
      ],
      [
        "Ġhighly",
        -9.21935000095244
      ],
      [
        "Ġinvolved",
        -9.219686142149238
      ],
      [
        "Ġtreat",
        -9.219803048388922
      ],
      [
        "ĠAfter",
        -9.220809314743208
      ],
      [
        "But",
        -9.22216243052356
      ],
      [
        "Ġexplore",
        -9.224352639844051
      ],
      [
        "Ġacid",
        -9.22566386081408
      ],
      [
        "ĠDr",
        -9.226185021314654
      ],
      [
        "Ġentire",
        -9.2264266803686
      ],
      [
        "Ġstory",
        -9.229130478652452
      ],
      [
        "Ġfall",
        -9.231326920691918
      ],
      [
        "Ġguide",
        -9.233895253398764
      ],
      [
        "Ġexercise",
        -9.234021915395994
      ],
      [
        "Ġeveryone",
        -9.234561247062524
      ],
      [
        "Ġproduced",
        -9.236100624213192
      ],
      [
        "Ġgenetic",
        -9.23655693399781
      ],
      [
        "ĠCan",
        -9.237166498701894
      ],
      [
        "Ġdiseases",
        -9.237369792712917
      ],
      [
        "Ġbase",
        -9.238783325758652
      ],
      [
        ").ĊĊ",
        -9.239519759607576
      ],
      [
        "Ġidentify",
        -9.23991575647904
      ],
      [
        "ĠâĢľ",
        -9.241701059689722
      ],
      [
        "Ġteeth",
        -9.2421741870938
      ],
      [
        "Ġobject",
        -9.243146980173714
      ],
      [
        "Ġsleep",
        -9.243875159457795
      ],
      [
        "Ġrest",
        -9.250689595500123
      ],
      [
        "Ġcats",
        -9.250700139317049
      ],
      [
        "ers",
        -9.250754063639674
      ],
      [
        "Ġview",
        -9.250991296066502
      ],
      [
        "Ġsolar",
        -9.252065499337924
      ],
      [
        ".S",
        -9.252943355034306
      ],
      [
        "Ġweeks",
        -9.253001281762684
      ],
      [
        "Ġbalance",
        -9.256516601735044
      ],
      [
        "Ġelectric",
        -9.256905361120994
      ],
      [
        "Ġdidn",
        -9.257165849162735
      ],
      [
        "Ġpoints",
        -9.257641279942884
      ],
      [
        "Ġword",
        -9.258021728650816
      ],
      [
        "Ġfresh",
        -9.258923339981992
      ],
      [
        "Ġcolors",
        -9.259025805034325
      ],
      [
        "Ġrecommended",
        -9.259272057678698
      ],
      [
        "Ġeasier",
        -9.259876050796134
      ],
      [
        "Ġstore",
        -9.260046854485523
      ],
      [
        "Ġenhance",
        -9.260589852804143
      ],
      [
        "Ġgoal",
        -9.260632751280005
      ],
      [
        "Ġmodels",
        -9.260874993774507
      ],
      [
        "Ġwebsite",
        -9.261842221414517
      ],
      [
        "Ġrecent",
        -9.26260617601794
      ],
      [
        "Ġeggs",
        -9.26476999273597
      ],
      [
        "Ġunit",
        -9.264812300998148
      ],
      [
        "Ġmeet",
        -9.265744216280565
      ],
      [
        "ĠF",
        -9.266985883572158
      ],
      [
        "Ġask",
        -9.268410103899097
      ],
      [
        "Ġbenefit",
        -9.268727541460684
      ],
      [
        "Ġblue",
        -9.27094232602019
      ],
      [
        "Ġsources",
        -9.271095115855658
      ],
      [
        "Ġreport",
        -9.27335092173555
      ],
      [
        "Q",
        -9.275335117243497
      ],
      [
        "Ġextra",
        -9.276212566074255
      ],
      [
        "Ġfast",
        -9.276594207464296
      ],
      [
        "Ġcountries",
        -9.276705786450588
      ],
      [
        "Ġbuy",
        -9.278108145970778
      ],
      [
        "Ġitems",
        -9.278834259307754
      ],
      [
        "Ġimages",
        -9.279147472392422
      ],
      [
        "Ġtips",
        -9.282595471342995
      ],
      [
        "Ġlives",
        -9.28284094315899
      ],
      [
        "Ġmovement",
        -9.283063653779331
      ],
      [
        "Ġoccur",
        -9.2832863009903
      ],
      [
        "Ġprocesses",
        -9.283416238301747
      ],
      [
        "Ġevents",
        -9.284340183012633
      ],
      [
        "Ġevent",
        -9.284389387905414
      ],
      [
        "Ġrunning",
        -9.287491976738304
      ],
      [
        "Ġsave",
        -9.287703473985406
      ],
      [
        "Ġcompletely",
        -9.290276829495948
      ],
      [
        "ĠN",
        -9.291676485193776
      ],
      [
        "Ġpatient",
        -9.29232212236954
      ],
      [
        "Ġwear",
        -9.292406365506306
      ],
      [
        "Ġstyle",
        -9.29269504335635
      ],
      [
        "Ġgreater",
        -9.294585878623748
      ],
      [
        "ĠScience",
        -9.294962552726195
      ],
      [
        "Ġuseful",
        -9.295253952375944
      ],
      [
        "Ġmedia",
        -9.296728498543745
      ],
      [
        "Ġsun",
        -9.29840625406766
      ],
      [
        "Ġpiece",
        -9.30218969376272
      ],
      [
        "ĠAmerica",
        -9.302564608666083
      ],
      [
        "Ġsupply",
        -9.30293993331309
      ],
      [
        "Ġseeds",
        -9.303662459448445
      ],
      [
        "ĠShe",
        -9.304143797192747
      ],
      [
        "Ġfit",
        -9.304519842173278
      ],
      [
        "M",
        -9.305102997719729
      ],
      [
        "Ġactive",
        -9.305483773956544
      ],
      [
        "Ġflowers",
        -9.305637359827632
      ],
      [
        "Ġcamera",
        -9.30820811941907
      ],
      [
        "âĢĻ",
        -9.309095746997956
      ],
      [
        "Ġprice",
        -9.310201743179714
      ],
      [
        "Ġcommunication",
        -9.31064543456152
      ],
      [
        "ĠYes",
        -9.310783527911047
      ],
      [
        "Ġproperly",
        -9.31118110795962
      ],
      [
        "Ġlocation",
        -9.316943255009043
      ],
      [
        "Ġseries",
        -9.31812656692832
      ],
      [
        "Ġcontain",
        -9.318515815718024
      ],
      [
        "Ġlines",
        -9.323285132896238
      ],
      [
        "Ġfruit",
        -9.323314603909957
      ],
      [
        "Ġorganic",
        -9.323736157894595
      ],
      [
        "Ġcorrect",
        -9.324590369397209
      ],
      [
        "Ġcool",
        -9.32511442927863
      ],
      [
        "depending",
        -9.327254738903878
      ],
      [
        "Ġefficiency",
        -9.33134906994486
      ],
      [
        "Ġaddress",
        -9.331376943899524
      ],
      [
        "While",
        -9.33203414838064
      ],
      [
        "Ġnegative",
        -9.332722605490495
      ],
      [
        "Ġscientific",
        -9.334069677348756
      ],
      [
        "P",
        -9.334143242423774
      ],
      [
        "Ġgoes",
        -9.334809605180013
      ],
      [
        "Ġleave",
        -9.33499259601182
      ],
      [
        "Ġcritical",
        -9.335392915638485
      ],
      [
        "Ġmoving",
        -9.335463605669016
      ],
      [
        "Ġprotection",
        -9.335624566193736
      ],
      [
        "Ġmembers",
        -9.335727807247713
      ],
      [
        "Ġchallenges",
        -9.337524045872009
      ],
      [
        "Ġoutput",
        -9.338409473341404
      ],
      [
        "-to",
        -9.338711261235746
      ],
      [
        "Ġtemperatures",
        -9.338771131599266
      ],
      [
        "Ġachieve",
        -9.34099690393188
      ],
      [
        "Ġcontribute",
        -9.342592750433022
      ],
      [
        "...ĊĊ",
        -9.34338215522098
      ],
      [
        "Ġspring",
        -9.344491093287289
      ],
      [
        "Ġfeed",
        -9.344837126661137
      ],
      [
        "W",
        -9.346780883876145
      ],
      [
        "Ġbuilt",
        -9.346891194537276
      ],
      [
        "Ġcompanies",
        -9.34715211497535
      ],
      [
        "ĠMost",
        -9.34771067767104
      ],
      [
        "Ġtalk",
        -9.348244889812811
      ],
      [
        "Ġcontains",
        -9.348909771085856
      ],
      [
        "Ġgovernment",
        -9.35041867714467
      ],
      [
        "Ġappropriate",
        -9.350426641329683
      ],
      [
        "Ġtravel",
        -9.351263561789327
      ],
      [
        "Ġmemory",
        -9.3513523015549
      ],
      [
        "ĠNorth",
        -9.35166121702061
      ],
      [
        "Ġtheory",
        -9.351990207769951
      ],
      [
        "ĠK",
        -9.353762983453109
      ],
      [
        "Ġnumbers",
        -9.358378798153176
      ],
      [
        "Ġpatterns",
        -9.358662182130974
      ],
      [
        "Ġtend",
        -9.359266428004137
      ],
      [
        "Ġdistance",
        -9.360350260616013
      ],
      [
        "Ġdeveloping",
        -9.3623393656729
      ],
      [
        "ĠFrom",
        -9.36439586351612
      ],
      [
        "Ġvalues",
        -9.36491531521671
      ],
      [
        "Ġallowing",
        -9.3650338868021
      ],
      [
        "Ġusers",
        -9.36729897303302
      ],
      [
        "Ġchance",
        -9.368094903200936
      ],
      [
        "Ġtable",
        -9.368180463149445
      ],
      [
        "By",
        -9.368554618922175
      ],
      [
        "Ġpage",
        -9.369671081777351
      ],
      [
        "Ġnetwork",
        -9.370654124738634
      ],
      [
        "Ġlimited",
        -9.371860220238688
      ],
      [
        "Ġprograms",
        -9.374739791179646
      ],
      [
        "Ġresistance",
        -9.374751554628752
      ],
      [
        "These",
        -9.375060915978631
      ],
      [
        "Ġcommonly",
        -9.37516394277134
      ],
      [
        "Ġmental",
        -9.375859748890592
      ],
      [
        "Ġprojects",
        -9.376788569284953
      ],
      [
        "ĠUS",
        -9.379049750418169
      ],
      [
        "Ġbottom",
        -9.379330226994083
      ],
      [
        "ĠG",
        -9.37944184497157
      ],
      [
        "Ġmaintenance",
        -9.38120909737346
      ],
      [
        "Ġhappens",
        -9.382458221188756
      ],
      [
        "Ġoriginal",
        -9.382548469461351
      ],
      [
        "Ġseems",
        -9.382936285076068
      ],
      [
        "Ġbreak",
        -9.382959943298482
      ],
      [
        "Ġpay",
        -9.383228122212008
      ],
      [
        "Ġimportance",
        -9.383389768478605
      ],
      [
        "Ġcosts",
        -9.38355323132133
      ],
      [
        "Ġspread",
        -9.383770815513737
      ],
      [
        "Ġbird",
        -9.38386977698962
      ],
      [
        "Ġinfection",
        -9.3859630226649
      ],
      [
        "Ġreasons",
        -9.386711047799622
      ],
      [
        "Ġremember",
        -9.387877399081855
      ],
      [
        "Ġtaste",
        -9.389309846709896
      ],
      [
        "Ġseem",
        -9.389551205572772
      ],
      [
        "Ġvision",
        -9.3909608844201
      ],
      [
        "Ġinterest",
        -9.390993947977933
      ],
      [
        "Ġpretty",
        -9.392509819949709
      ],
      [
        "Ġcame",
        -9.392753338568555
      ],
      [
        "ĠL",
        -9.39285432526756
      ],
      [
        "Ġhair",
        -9.393012760531942
      ],
      [
        "Ġbegin",
        -9.394039960838406
      ],
      [
        "ĠHealth",
        -9.395607787685554
      ],
      [
        "Ġstrength",
        -9.39611628204151
      ],
      [
        "Ġlack",
        -9.396302296478352
      ],
      [
        "ĠSchool",
        -9.39640070557652
      ],
      [
        "Ġforms",
        -9.398104690366392
      ],
      [
        "Ġpublished",
        -9.398191274553716
      ],
      [
        "Ġwriting",
        -9.398646751431984
      ],
      [
        "Ġfile",
        -9.39975123921246
      ],
      [
        "Ġsuccess",
        -9.400432229318469
      ],
      [
        "ĠUse",
        -9.400519150936756
      ],
      [
        "Ġcooking",
        -9.400797083311229
      ],
      [
        "Ġupon",
        -9.400940125938238
      ],
      [
        "Can",
        -9.401095474413632
      ],
      [
        "Step",
        -9.401661803250192
      ],
      [
        "ĠResearch",
        -9.403596562168277
      ],
      [
        "Ġbaby",
        -9.403633785731742
      ],
      [
        "Ġhands",
        -9.40370586991495
      ],
      [
        "Ġsigns",
        -9.40399550956938
      ],
      [
        "Ġcenter",
        -9.40468900862213
      ],
      [
        "ĠMany",
        -9.40625970666003
      ],
      [
        "E",
        -9.407532478790904
      ],
      [
        "Ġfire",
        -9.407574354097322
      ],
      [
        "ĠWorld",
        -9.407691479622205
      ],
      [
        "Ġdirection",
        -9.410018963731403
      ],
      [
        "Ġslow",
        -9.410932139374609
      ],
      [
        "Ġfine",
        -9.411085868413572
      ],
      [
        "Ġelectrical",
        -9.411151274227809
      ],
      [
        "Ġsubject",
        -9.411669948914538
      ],
      [
        "Ġefficient",
        -9.412858677346064
      ],
      [
        "Ġwind",
        -9.41319446879654
      ],
      [
        "ĠOf",
        -9.413306392231942
      ],
      [
        "Ġcycle",
        -9.413408354585954
      ],
      [
        "Ġdrive",
        -9.415096579891042
      ],
      [
        "Ġideal",
        -9.416303943187554
      ],
      [
        "Ġdark",
        -9.416687221498208
      ],
      [
        "Ġsearch",
        -9.420145131566915
      ],
      [
        "Ġobjects",
        -9.42078145163039
      ],
      [
        "Ġdirect",
        -9.42257662961934
      ],
      [
        "Ġfat",
        -9.422830144342145
      ],
      [
        "Ġmeasure",
        -9.425916772579052
      ],
      [
        "Ġelse",
        -9.42749598173823
      ],
      [
        "Ġwild",
        -9.427764436187124
      ],
      [
        "Ġdeal",
        -9.42854470580548
      ],
      [
        "Ġsustainable",
        -9.43271892215484
      ],
      [
        "Ġideas",
        -9.4328601614504
      ],
      [
        "Ġstage",
        -9.433568404726694
      ],
      [
        "Ġcity",
        -9.43402247128422
      ],
      [
        "Ġact",
        -9.434544604161344
      ],
      [
        "Ġready",
        -9.435722469240996
      ],
      [
        "Ġsix",
        -9.436360976433532
      ],
      [
        "Ġsection",
        -9.437016665206636
      ],
      [
        "Ġincreasing",
        -9.437042988762716
      ],
      [
        "Ġman",
        -9.437129774049616
      ],
      [
        "Ġpractices",
        -9.437555015465003
      ],
      [
        "Ġreducing",
        -9.439014643651538
      ],
      [
        "Ġimmune",
        -9.44098310425966
      ],
      [
        "Ġbox",
        -9.441334086417385
      ],
      [
        "Ġstates",
        -9.441507556498966
      ],
      [
        "Ġcleaning",
        -9.441568821637125
      ],
      [
        "Ġhearing",
        -9.442605336321092
      ],
      [
        "Ġinvolves",
        -9.44441591987874
      ],
      [
        "Ġhappen",
        -9.445028002831542
      ],
      [
        "ĠSouth",
        -9.445906277911124
      ],
      [
        "Ġmusic",
        -9.446484461364584
      ],
      [
        "Ġinput",
        -9.447277625846365
      ],
      [
        "Ġbecomes",
        -9.448917131114465
      ],
      [
        "Ġresponsible",
        -9.450547897945787
      ],
      [
        "Ġlate",
        -9.450568482657149
      ],
      [
        "Ġcircuit",
        -9.451555020760887
      ],
      [
        "Ġhope",
        -9.453372389974865
      ],
      [
        "Ġtesting",
        -9.456108492821512
      ],
      [
        "Ġpre",
        -9.456997609438917
      ],
      [
        "Ġsuitable",
        -9.457621512973429
      ],
      [
        "Ġfactor",
        -9.458247644811332
      ],
      [
        "Ġrequirements",
        -9.460996884521458
      ],
      [
        "Ġconstruction",
        -9.461272208885742
      ],
      [
        "ensuring",
        -9.461623650505834
      ],
      [
        "Ġthinking",
        -9.462271000211082
      ],
      [
        "Ġstorage",
        -9.46280166589139
      ],
      [
        "Ġfeature",
        -9.464173194108168
      ],
      [
        "Ġoxygen",
        -9.466192268518949
      ],
      [
        "Ġfriends",
        -9.467160298354944
      ],
      [
        "They",
        -9.46726387950332
      ],
      [
        "Ġsignificantly",
        -9.467496233102397
      ],
      [
        "Ġfinal",
        -9.468052363316186
      ],
      [
        "Ġnoise",
        -9.470261930448723
      ],
      [
        "Ġthird",
        -9.472018870760246
      ],
      [
        "Ġtechnique",
        -9.475039178753557
      ],
      [
        "ĠWhy",
        -9.476126419555513
      ],
      [
        "Ġtarget",
        -9.476527933966468
      ],
      [
        "Ġnothing",
        -9.47755697125162
      ],
      [
        "Ġglass",
        -9.477937163352452
      ],
      [
        "Ġsolutions",
        -9.478224357332651
      ],
      [
        "Ġrelationship",
        -9.47959123145005
      ],
      [
        "Ġgives",
        -9.479979057658356
      ],
      [
        "Ġones",
        -9.480926743084297
      ],
      [
        "Ġreaction",
        -9.48139363120238
      ],
      [
        "Ġappear",
        -9.485572271871408
      ],
      [
        "Ġstarting",
        -9.486331511008007
      ],
      [
        "Ġaccount",
        -9.488530813260985
      ],
      [
        "Ġphase",
        -9.488810799277552
      ],
      [
        "Ġnutrients",
        -9.489593218610812
      ],
      [
        "Ġtook",
        -9.491037025274052
      ],
      [
        "Ġpowerful",
        -9.492554760817
      ],
      [
        "Ġserve",
        -9.493699395137911
      ],
      [
        "ĠAlso",
        -9.493926177404331
      ],
      [
        "Ġsetting",
        -9.494159425550448
      ],
      [
        "Ġapplied",
        -9.496876700576898
      ],
      [
        ".com",
        -9.497683930014484
      ],
      [
        "Ġadding",
        -9.500134046672354
      ],
      [
        "Ġliquid",
        -9.501460021881996
      ],
      [
        "Ġsituation",
        -9.50378127525644
      ],
      [
        "z",
        -9.504046410556136
      ],
      [
        "Ġingredients",
        -9.504351105184208
      ],
      [
        "Ġwall",
        -9.504917200438712
      ],
      [
        "With",
        -9.50506141133879
      ],
      [
        "Ġvia",
        -9.506406862854057
      ],
      [
        "Ġscale",
        -9.50713320729236
      ],
      [
        "Ġfilm",
        -9.509852238043628
      ],
      [
        "Ġiron",
        -9.510995964552617
      ],
      [
        "Ġmonth",
        -9.512887857703165
      ],
      [
        "Ġmuscle",
        -9.513469677526905
      ],
      [
        "Ġpattern",
        -9.513980775843226
      ],
      [
        "ĠNot",
        -9.514423878243898
      ],
      [
        "Ġjourney",
        -9.51469184111272
      ],
      [
        "And",
        -9.515474689444808
      ],
      [
        "Ġcentury",
        -9.516189644815263
      ],
      [
        "Ġroot",
        -9.516485346174107
      ],
      [
        "Ġsalt",
        -9.517977294536218
      ],
      [
        "Ġgene",
        -9.519275470666363
      ],
      [
        "Ġsoon",
        -9.51939857229356
      ],
      [
        "Ġinteresting",
        -9.520370734875224
      ],
      [
        "Ġheavy",
        -9.520599195924794
      ],
      [
        "Y",
        -9.520843783156902
      ],
      [
        "Ġvisual",
        -9.521223528876552
      ],
      [
        "Ġapply",
        -9.521696111798889
      ],
      [
        "Ġcurrently",
        -9.522101061493656
      ],
      [
        "Ġpromote",
        -9.522180619504798
      ],
      [
        "Ġdeath",
        -9.522440539120758
      ],
      [
        "Ġculture",
        -9.52394598126651
      ],
      [
        "Ġdecision",
        -9.525109705518018
      ],
      [
        "ĠAre",
        -9.525868668326504
      ],
      [
        "Ġsuccessful",
        -9.526059918372743
      ],
      [
        "Ġexposure",
        -9.526526369469355
      ],
      [
        "ĠX",
        -9.52759031752679
      ],
      [
        "ĠMy",
        -9.527767740288123
      ],
      [
        "Ġcharge",
        -9.528564004945544
      ],
      [
        "Ġlaw",
        -9.529124332951667
      ],
      [
        "Ġcausing",
        -9.529199746552996
      ],
      [
        "it",
        -9.529267179789342
      ],
      [
        "Ġlocated",
        -9.529807306572204
      ],
      [
        "Ġfully",
        -9.53017197353025
      ],
      [
        "Ġfaster",
        -9.531027585961931
      ],
      [
        "ĠOur",
        -9.531084568755029
      ],
      [
        "Ġgames",
        -9.53152396260766
      ],
      [
        "Ġsecurity",
        -9.53284308209292
      ],
      [
        "ĠTheir",
        -9.532844143087663
      ],
      [
        "of",
        -9.533343933135283
      ],
      [
        "F",
        -9.533822352084025
      ],
      [
        "Ġconnected",
        -9.535062852348462
      ],
      [
        "Ġvegetables",
        -9.53604221563242
      ],
      [
        "Ġwrong",
        -9.537252374755791
      ],
      [
        "Ġmoment",
        -9.537773953872057
      ],
      [
        "Ġreceive",
        -9.53809781947188
      ],
      [
        "Ġexactly",
        -9.539577598997148
      ],
      [
        "Ġanyone",
        -9.541140472531737
      ],
      [
        "Ġcombination",
        -9.541877618745728
      ],
      [
        "Ġfrequency",
        -9.542234748345123
      ],
      [
        "Ġboard",
        -9.542773840996226
      ],
      [
        "Ġtissue",
        -9.54349394718862
      ],
      [
        "Ġpieces",
        -9.543834985320617
      ],
      [
        "Ġopportunity",
        -9.54530675560354
      ],
      [
        "Ġrich",
        -9.545365987414833
      ],
      [
        "Ġserious",
        -9.545768562309712
      ],
      [
        "Ġgets",
        -9.546971401678729
      ],
      [
        "Ġexcellent",
        -9.54904083217047
      ],
      [
        "Now",
        -9.54976393655225
      ],
      [
        "Ġmen",
        -9.549970249142769
      ],
      [
        "Ġforward",
        -9.550327676493298
      ],
      [
        "Ġdescribed",
        -9.55173315275653
      ],
      [
        "Ġcapacity",
        -9.55190604797439
      ],
      [
        "Ġsoft",
        -9.552533311782916
      ],
      [
        "Ġeffectively",
        -9.55362148209153
      ],
      [
        "Ġearth",
        -9.554322477080904
      ],
      [
        "Ġyellow",
        -9.55468968262216
      ],
      [
        "Ġvoltage",
        -9.55502319972963
      ],
      [
        "Ġstrategies",
        -9.556426181317685
      ],
      [
        "Ġgain",
        -9.556714219269267
      ],
      [
        "Ġmoisture",
        -9.556755080754936
      ],
      [
        "Ġheight",
        -9.55697652854613
      ],
      [
        "Ġtask",
        -9.557453199141698
      ],
      [
        "ĠWho",
        -9.558961782499072
      ],
      [
        "Ġmeaning",
        -9.561266222802342
      ],
      [
        "ĠV",
        -9.563129666097987
      ],
      [
        "Ġtherefore",
        -9.56338232950938
      ],
      [
        "Ġcoming",
        -9.565279588028092
      ],
      [
        "-term",
        -9.566946916941266
      ],
      [
        "Ġproperty",
        -9.568872943630478
      ],
      [
        "Ġwrite",
        -9.569429629618682
      ],
      [
        "Ġdisplay",
        -9.569463233287436
      ],
      [
        "Ġoccurs",
        -9.56976173180483
      ],
      [
        "ĠAdditionally",
        -9.571296317546617
      ],
      [
        "N",
        -9.57207873117414
      ],
      [
        "Ġbecame",
        -9.57301488972904
      ],
      [
        "mm",
        -9.57339094143114
      ],
      [
        "Ġincluded",
        -9.573640962379187
      ],
      [
        "Ġrecord",
        -9.5749221625962
      ],
      [
        "Ġprocessing",
        -9.575156252421465
      ],
      [
        "Ġreduced",
        -9.575631033610843
      ],
      [
        "Ġled",
        -9.57614292290041
      ],
      [
        "Do",
        -9.576453145296998
      ],
      [
        "Ġinches",
        -9.576824499267524
      ],
      [
        "Ġfunctions",
        -9.577251969953805
      ],
      [
        "Ġtherapy",
        -9.57749055473015
      ],
      [
        "V",
        -9.577614326002974
      ],
      [
        "Ġbeautiful",
        -9.577951418079486
      ],
      [
        "Ġspot",
        -9.578519459991202
      ],
      [
        "Ġnative",
        -9.579030572054156
      ],
      [
        "Ġmanage",
        -9.579408842680966
      ],
      [
        "Ġthus",
        -9.581779815032975
      ],
      [
        "ĠOnce",
        -9.58480463110873
      ],
      [
        "ĠJ",
        -9.588044923725684
      ],
      [
        "Ġperform",
        -9.589957491105007
      ],
      [
        "Ġbeyond",
        -9.590707354971356
      ],
      [
        "Ġplaces",
        -9.591231175175205
      ],
      [
        "Ġreturn",
        -9.591572242151658
      ],
      [
        "Ġsevere",
        -9.59181862664212
      ],
      [
        "Ġconcept",
        -9.592023586663776
      ],
      [
        "Ġball",
        -9.593347851822644
      ],
      [
        "Ġtank",
        -9.59393590732669
      ],
      [
        "Ġpresence",
        -9.59559266030742
      ],
      [
        "Ġgiving",
        -9.595980845591512
      ],
      [
        "Ġadvanced",
        -9.597142462566405
      ],
      [
        "Ġchallenge",
        -9.597402257024182
      ],
      [
        "Ġtrack",
        -9.598339355933136
      ],
      [
        "Some",
        -9.598683704718228
      ],
      [
        "ĠBecause",
        -9.60005836454114
      ],
      [
        "Ġmix",
        -9.60075011841973
      ],
      [
        "R",
        -9.601356382638624
      ],
      [
        "Ġstem",
        -9.601533286657732
      ],
      [
        "Ġdetails",
        -9.601810638279693
      ],
      [
        "Ġbrown",
        -9.60208694627023
      ],
      [
        "Ġextremely",
        -9.602235946557036
      ],
      [
        "Ġvisit",
        -9.604563395088988
      ],
      [
        "ĠNow",
        -9.604678755262766
      ],
      [
        "Ġmotor",
        -9.60508690988464
      ],
      [
        "An",
        -9.606440366937392
      ],
      [
        "<",
        -9.606507528695548
      ],
      [
        "Ġscreen",
        -9.607728703956942
      ],
      [
        "Ġexpensive",
        -9.608575363152742
      ],
      [
        "Ġelement",
        -9.608644897445286
      ],
      [
        "Ġexpected",
        -9.608722398809366
      ],
      [
        "Ġmaximum",
        -9.609085644980787
      ],
      [
        "ĠEach",
        -9.609135824326405
      ],
      [
        "Ġworth",
        -9.609506512078774
      ],
      [
        "Ġrecently",
        -9.610303224622475
      ],
      [
        "Ġpoor",
        -9.611258257811484
      ],
      [
        "Ġrelease",
        -9.612591936617909
      ],
      [
        "Ġpicture",
        -9.612764102866436
      ],
      [
        "Ġelectricity",
        -9.613362146166892
      ],
      [
        "Ġteaching",
        -9.61339121956606
      ],
      [
        "Ġsteel",
        -9.613420011438787
      ],
      [
        "Ġcouple",
        -9.613690005745502
      ],
      [
        "Ġkeeping",
        -9.613927633227153
      ],
      [
        "ĠMake",
        -9.614072882755778
      ],
      [
        "ĠCenter",
        -9.614344837726351
      ],
      [
        "Ġocean",
        -9.614741157261172
      ],
      [
        "Ġmiddle",
        -9.615194700738234
      ],
      [
        "Ġhuge",
        -9.616456830875755
      ],
      [
        "Ġprevious",
        -9.617724528952849
      ],
      [
        "Ġconsumption",
        -9.617783554083235
      ],
      [
        "Ġalternative",
        -9.617977522426065
      ],
      [
        "Ġhandle",
        -9.620140568928097
      ],
      [
        "Ġparticles",
        -9.621115603204204
      ],
      [
        "Ġalthough",
        -9.623645293185607
      ],
      [
        "Ġolder",
        -9.62436612077644
      ],
      [
        "Ġhorse",
        -9.62720286705781
      ],
      [
        "Ġlost",
        -9.627806406068055
      ],
      [
        "Ġtouch",
        -9.628033610639523
      ],
      [
        "Ġexplain",
        -9.628582575704916
      ],
      [
        "Ġmotion",
        -9.630471238383125
      ],
      [
        "Ġversion",
        -9.630688058246283
      ],
      [
        "Ġsolid",
        -9.632271002851898
      ],
      [
        "Ġvolume",
        -9.632282081291091
      ],
      [
        "Ġequal",
        -9.63293161571758
      ],
      [
        "Ġslightly",
        -9.633187842297456
      ],
      [
        "Ġcars",
        -9.634791122005357
      ],
      [
        "Ġfemale",
        -9.635318735144896
      ],
      [
        "Ġaffected",
        -9.636028650544835
      ],
      [
        "Ġdoctor",
        -9.637911721654527
      ],
      [
        "Ġcutting",
        -9.63823594351168
      ],
      [
        "Ġcommunities",
        -9.639881239732818
      ],
      [
        "ĠEnglish",
        -9.639933225501077
      ],
      [
        "Ġonto",
        -9.640256620513538
      ],
      [
        "Ġsign",
        -9.640797746733648
      ],
      [
        "Ġpaint",
        -9.64194549305621
      ],
      [
        "Ġlargest",
        -9.642156084258492
      ],
      [
        "Here",
        -9.64228763747161
      ],
      [
        "Ġgenes",
        -9.644021265566208
      ],
      [
        "Ġphone",
        -9.645041627134786
      ],
      [
        "Ġroad",
        -9.645157306879442
      ],
      [
        "H",
        -9.645784161120616
      ],
      [
        "Ġrelatively",
        -9.645873770311496
      ],
      [
        "Ġinstance",
        -9.64720352725994
      ],
      [
        "ĠInstitute",
        -9.648165785246672
      ],
      [
        "Ġsites",
        -9.648477482579446
      ],
      [
        "ĠLet",
        -9.648711385109712
      ],
      [
        "Ġtasks",
        -9.649571662191798
      ],
      [
        "Ġexperiment",
        -9.649575200132317
      ],
      [
        "Ġbone",
        -9.64975183182575
      ],
      [
        "ĠMay",
        -9.650377137684783
      ],
      [
        "Ġopportunities",
        -9.65139830423924
      ],
      [
        "Ġvaluable",
        -9.652388100834438
      ],
      [
        "ĠOther",
        -9.652424378368522
      ],
      [
        "Ġinfluence",
        -9.652579381431591
      ],
      [
        "ĠNOT",
        -9.652866094352158
      ],
      [
        "Ġdegrees",
        -9.653511038922518
      ],
      [
        "Ġcharacteristics",
        -9.654353938379204
      ],
      [
        "Ġchanging",
        -9.654399687852663
      ],
      [
        "Ġschools",
        -9.655115982475282
      ],
      [
        "Ġconnection",
        -9.655235517185949
      ],
      [
        "ally",
        -9.655435358932191
      ],
      [
        "Ġdiscovered",
        -9.656113877129684
      ],
      [
        "Ġear",
        -9.656156309699607
      ],
      [
        "Ġstructures",
        -9.65631792718176
      ],
      [
        "Ġcarry",
        -9.656358269043622
      ],
      [
        "Ġplaced",
        -9.6568345552173
      ],
      [
        "Ġcomfortable",
        -9.657531738110247
      ],
      [
        "Ġremain",
        -9.660089582639202
      ],
      [
        "Ġfluid",
        -9.660402218203942
      ],
      [
        "Ġproteins",
        -9.6605344081107
      ],
      [
        "Ġemissions",
        -9.660551879302869
      ],
      [
        "Ġsuggest",
        -9.66059283633552
      ],
      [
        "ĠâĢ¦",
        -9.66094107181348
      ],
      [
        "Ġremains",
        -9.66195647330922
      ],
      [
        "Ġexamples",
        -9.662431881621036
      ],
      [
        "However",
        -9.662927548574942
      ],
      [
        "Ġdemand",
        -9.663334648757097
      ],
      [
        "Ġgoals",
        -9.66354989193793
      ],
      [
        "Ġspend",
        -9.664267573339112
      ],
      [
        "Ġdriving",
        -9.664373271095924
      ],
      [
        "Ġevolution",
        -9.665028017727057
      ],
      [
        "Ġdepth",
        -9.665122927263631
      ],
      [
        "K",
        -9.66630203049128
      ],
      [
        "Ġteachers",
        -9.667325388952468
      ],
      [
        "Ġexperiences",
        -9.66787750916187
      ],
      [
        "Ġlooks",
        -9.668120521385577
      ],
      [
        "Ġdepends",
        -9.66941074645947
      ],
      [
        "Ġdraw",
        -9.669455192224392
      ],
      [
        "Ġadults",
        -9.669662859154291
      ],
      [
        "L",
        -9.672567777745108
      ],
      [
        "Ġbeginning",
        -9.672897996550848
      ],
      [
        "Ġmedium",
        -9.673649441128118
      ],
      [
        "Ġtechnologies",
        -9.674257243516934
      ],
      [
        "for",
        -9.6758245602689
      ],
      [
        "ĠEven",
        -9.676096426149984
      ],
      [
        "Ġdifferences",
        -9.678955087896894
      ],
      [
        "Ġsaw",
        -9.6791778592404
      ],
      [
        "Ġalone",
        -9.680592759562824
      ],
      [
        "Ġbooks",
        -9.68182150406506
      ],
      [
        "Ġconservation",
        -9.681903163868308
      ],
      [
        "Ġdate",
        -9.682940015202655
      ],
      [
        "Ġdistribution",
        -9.68358571889278
      ],
      [
        "Ġrise",
        -9.683791966893562
      ],
      [
        "ĠState",
        -9.683857055307062
      ],
      [
        "Ġmeasures",
        -9.68483873784193
      ],
      [
        "Ġincreases",
        -9.685371951006804
      ],
      [
        "Ġtests",
        -9.686920851810884
      ],
      [
        "ĠIndia",
        -9.68711128017863
      ],
      [
        "Ġco",
        -9.687746142274136
      ],
      [
        "Ġresulting",
        -9.688319688727884
      ],
      [
        "Ġlose",
        -9.688808890207534
      ],
      [
        "Ġnote",
        -9.689368798623793
      ],
      [
        "Ġflight",
        -9.689955643198791
      ],
      [
        "Ġexist",
        -9.690326594013507
      ],
      [
        "Ġreported",
        -9.69091133088774
      ],
      [
        "Ġblock",
        -9.690956744866376
      ],
      [
        "Ġrecommend",
        -9.692797190089731
      ],
      [
        "Ġinitial",
        -9.693677913219888
      ],
      [
        "Ġcomponent",
        -9.69410636463455
      ],
      [
        "Ġsample",
        -9.694556249815909
      ],
      [
        "Ġcommercial",
        -9.694985045508188
      ],
      [
        "ĠWater",
        -9.695813811710428
      ],
      [
        "ĠCalifornia",
        -9.696578030673876
      ],
      [
        "Ġfeeling",
        -9.697017907668553
      ],
      [
        "-up",
        -9.69936830423213
      ],
      [
        "\\",
        -9.69953175823797
      ],
      [
        "On",
        -9.700056959291452
      ],
      [
        "Ġbrand",
        -9.700142453331228
      ],
      [
        "Ġselection",
        -9.700989729651694
      ],
      [
        "ĠMore",
        -9.701140398069722
      ],
      [
        "Ġwent",
        -9.701535258131711
      ],
      [
        "Ġfigure",
        -9.701771235077391
      ],
      [
        "Ġbegan",
        -9.70453565859132
      ],
      [
        "Ġrepresent",
        -9.704995782838235
      ],
      [
        "Ġstand",
        -9.7051014489879
      ],
      [
        "Ġmale",
        -9.705492035562497
      ],
      [
        "Ġhear",
        -9.705880064789003
      ],
      [
        "Ġdiabetes",
        -9.706052605049752
      ],
      [
        "Ġtexture",
        -9.706234212803988
      ],
      [
        "Ġfinancial",
        -9.70624261349704
      ],
      [
        "Ġinsects",
        -9.706762197108391
      ],
      [
        "ĠBe",
        -9.707054613159476
      ],
      [
        "Ġefforts",
        -9.707123398090792
      ],
      [
        "Ġsounds",
        -9.707843171771888
      ],
      [
        "Ġappearance",
        -9.710355205821427
      ],
      [
        "Ġaspects",
        -9.711135034378078
      ],
      [
        "Ġconstant",
        -9.71170539909047
      ],
      [
        "Ġflavor",
        -9.713636319478296
      ],
      [
        "Ġvary",
        -9.714661106168094
      ],
      [
        "Ġweb",
        -9.715200568309347
      ],
      [
        "Ġseparate",
        -9.716315577200657
      ],
      [
        "Ġexisting",
        -9.716679234402342
      ],
      [
        "Ġrules",
        -9.716950662598284
      ],
      [
        "Ġcollection",
        -9.717651440238969
      ],
      [
        "Ġdegree",
        -9.718368791610596
      ],
      [
        "Ġcore",
        -9.719596328242996
      ],
      [
        "Ġeffort",
        -9.719775067795856
      ],
      [
        "Ġseed",
        -9.722109865944674
      ],
      [
        "Ġplanning",
        -9.722179669036665
      ],
      [
        "Ġhabitat",
        -9.723118260897149
      ],
      [
        "Ġroots",
        -9.72373746979061
      ],
      [
        "Ġadvantage",
        -9.726923347883444
      ],
      [
        "ĠFirst",
        -9.727128330863753
      ],
      [
        "Ġrare",
        -9.727905133986644
      ],
      [
        "Ġstuff",
        -9.727956348323632
      ],
      [
        "Ġsort",
        -9.728494296156851
      ],
      [
        "Ġwritten",
        -9.730763319234
      ],
      [
        "Ġdescribe",
        -9.73213099347418
      ],
      [
        "Ġfinding",
        -9.732391925502824
      ],
      [
        "Ġwalk",
        -9.73284191580375
      ],
      [
        "ĠAlthough",
        -9.732862809176122
      ],
      [
        "Ġmaintaining",
        -9.733200876395951
      ],
      [
        "ĠGod",
        -9.733257511751146
      ],
      [
        "Ġfloor",
        -9.7335074066275
      ],
      [
        "Ġvital",
        -9.733674704534195
      ],
      [
        "Ġpopulations",
        -9.734771685811214
      ],
      [
        "Ġplanet",
        -9.73571498071492
      ],
      [
        "Ġoperation",
        -9.735835360211842
      ],
      [
        "Ġvirus",
        -9.73621460147067
      ],
      [
        "Ġcross",
        -9.736531182968587
      ],
      [
        "Ġformed",
        -9.737997748585684
      ],
      [
        "Ġimmediately",
        -9.738168171911964
      ],
      [
        "Ġconnect",
        -9.739189404754049
      ],
      [
        "Ġspecifically",
        -9.739684678537268
      ],
      [
        "Ġreview",
        -9.739944832429291
      ],
      [
        "Ġcontext",
        -9.740129404326543
      ],
      [
        "Ġlink",
        -9.740182303059324
      ],
      [
        "Ġchicken",
        -9.7403108847703
      ],
      [
        "Ġallowed",
        -9.742361912392395
      ],
      [
        "Ġbreed",
        -9.742937511436534
      ],
      [
        "That",
        -9.74336451636134
      ],
      [
        "Ġplease",
        -9.74523823815055
      ],
      [
        "Ġprefer",
        -9.745304683444044
      ],
      [
        "Ġactual",
        -9.74546991834388
      ],
      [
        "Ġanti",
        -9.746429050390269
      ],
      [
        "Ġfoot",
        -9.748208877969123
      ],
      [
        "Ġaccurate",
        -9.74824066387992
      ],
      [
        "Ġadult",
        -9.748275627035976
      ],
      [
        "ĠAccording",
        -9.74933480108828
      ],
      [
        "Ġframe",
        -9.749406271284515
      ],
      [
        "Ġnational",
        -9.749638872981294
      ],
      [
        "Ġreplace",
        -9.74981736233394
      ],
      [
        "Ġinstructions",
        -9.750525564228598
      ],
      [
        "Ġregularly",
        -9.750912058510153
      ],
      [
        "Our",
        -9.752698529402986
      ],
      [
        "Ġmouth",
        -9.753887383469523
      ],
      [
        "Ġasked",
        -9.754499776443325
      ],
      [
        "-like",
        -9.755008176733677
      ],
      [
        "Ġpick",
        -9.755014983105289
      ],
      [
        "Ġquick",
        -9.75525126099046
      ],
      [
        "Ġcovered",
        -9.755475455261928
      ],
      [
        "Ġload",
        -9.75578401923168
      ],
      [
        "Ġfamilies",
        -9.757204038224094
      ],
      [
        "Ġrates",
        -9.758484474641094
      ],
      [
        "Ġatmosphere",
        -9.75954476674484
      ],
      [
        "ĠJust",
        -9.7596924330586
      ],
      [
        "Ġrock",
        -9.762332686158109
      ],
      [
        "Ġswitch",
        -9.7626041245957
      ],
      [
        "Ġgeneration",
        -9.764592656121897
      ],
      [
        "Ġcustomers",
        -9.764723972202567
      ],
      [
        "Ġtopic",
        -9.76489095466014
      ],
      [
        "Ġinternal",
        -9.765151286395897
      ],
      [
        "Ġnearly",
        -9.765210455753618
      ],
      [
        "Ġfilter",
        -9.76624919329473
      ],
      [
        "Ġbasis",
        -9.76670133960006
      ],
      [
        "Ġregions",
        -9.766703078815103
      ],
      [
        "Ġnotice",
        -9.766850445787648
      ],
      [
        "ĠEurope",
        -9.76727152989185
      ],
      [
        "Ġfeeding",
        -9.768453965997567
      ],
      [
        "Ġcentral",
        -9.769030967705673
      ],
      [
        "Ġmember",
        -9.77201373067308
      ],
      [
        "Ġphoto",
        -9.77227606313456
      ],
      [
        "ĠTherefore",
        -9.77255496880608
      ],
      [
        "{",
        -9.77277344196028
      ],
      [
        "Ġeconomic",
        -9.773344487660744
      ],
      [
        "Ġowners",
        -9.774807047469285
      ],
      [
        "Ġratio",
        -9.775523666185654
      ],
      [
        "Ġmolecules",
        -9.77563801630266
      ],
      [
        "Ġgenerate",
        -9.776575288532085
      ],
      [
        "Ġdrawing",
        -9.778144317105731
      ],
      [
        "ĠSince",
        -9.77904976008636
      ],
      [
        "Ġcustomer",
        -9.779177616568289
      ],
      [
        "Ġgrass",
        -9.779206719922106
      ],
      [
        "After",
        -9.780744729472271
      ],
      [
        "Ġemotional",
        -9.783066313899306
      ],
      [
        "Ġrepair",
        -9.783145255783236
      ],
      [
        "Ġtiny",
        -9.783214814347408
      ],
      [
        "Ġexpect",
        -9.783725882282807
      ],
      [
        "Ġdoor",
        -9.786850401242022
      ],
      [
        "Ġfrequently",
        -9.786865974692912
      ],
      [
        "Ġfavorite",
        -9.787673814799136
      ],
      [
        "Ġmiles",
        -9.787966798725686
      ],
      [
        "Ġpath",
        -9.789571398333944
      ],
      [
        "ĠAfrica",
        -9.78990399663517
      ],
      [
        "Ġmarine",
        -9.790355423801532
      ],
      [
        "Ġstaff",
        -9.79130286282551
      ],
      [
        "Another",
        -9.793553254496794
      ],
      [
        "Ġhelping",
        -9.793607296172654
      ],
      [
        "Ġbecoming",
        -9.7938991531292
      ],
      [
        "Ġhappy",
        -9.794499556600549
      ],
      [
        "Ġlearned",
        -9.794902881170431
      ],
      [
        "Ġfriend",
        -9.795510829236514
      ],
      [
        "Ġadvice",
        -9.796392354819426
      ],
      [
        "Ġobserved",
        -9.798015202784406
      ],
      [
        "Ġrelative",
        -9.798285360182122
      ],
      [
        "ĠOr",
        -9.798984731826652
      ],
      [
        "Ġbodies",
        -9.79906009882009
      ],
      [
        "ĠDepartment",
        -9.799432216172008
      ],
      [
        "Ġsuggests",
        -9.79979502558107
      ],
      [
        "Ġwindow",
        -9.799907345103088
      ],
      [
        "Ġpets",
        -9.801838780228842
      ],
      [
        "Ġdouble",
        -9.801918515827358
      ],
      [
        "ability",
        -9.802368379100884
      ],
      [
        "Ġinternational",
        -9.80371160064726
      ],
      [
        "Ġidentified",
        -9.80445268224468
      ],
      [
        "Ġwanted",
        -9.804513074309176
      ],
      [
        "Ġselect",
        -9.8057679229637
      ],
      [
        "Ġstandards",
        -9.806898710354943
      ],
      [
        "Ġregarding",
        -9.807307288247747
      ],
      [
        "Ġplaying",
        -9.80814556261869
      ],
      [
        "Ġimproved",
        -9.808450398365991
      ],
      [
        "Ġwildlife",
        -9.808703613206909
      ],
      [
        "Ġdrug",
        -9.809041017519553
      ],
      [
        "Ġinterested",
        -9.809177382594184
      ],
      [
        "Ġwire",
        -9.80939741678059
      ],
      [
        "Ġplayers",
        -9.810100658496932
      ],
      [
        "Ġedge",
        -9.810111108374088
      ],
      [
        "Ġhour",
        -9.810524510447332
      ],
      [
        "Ġlandscape",
        -9.811009535338409
      ],
      [
        "Ġsociety",
        -9.811785909618225
      ],
      [
        "Ġreference",
        -9.812026431456284
      ],
      [
        "Ġbirth",
        -9.812116078920708
      ],
      [
        "**",
        -9.81338279553306
      ],
      [
        "Ġtransfer",
        -9.813546147057078
      ],
      [
        "Ġaudio",
        -9.815668698139811
      ],
      [
        "Ġprogress",
        -9.816269094923484
      ],
      [
        "Ġorganization",
        -9.816832677762182
      ],
      [
        "ĠUK",
        -9.81729451475921
      ],
      [
        "Ġdangerous",
        -9.817573257882913
      ],
      [
        "âĢĿ",
        -9.81838992940706
      ],
      [
        "Ġsmooth",
        -9.818592358572308
      ],
      [
        "Ġfashion",
        -9.818727653596197
      ],
      [
        "Ġstraight",
        -9.818991362423256
      ],
      [
        "Ġcreative",
        -9.819455159457188
      ],
      [
        "âĢĻt",
        -9.819791950549217
      ],
      [
        "Ġdiscuss",
        -9.823543273543978
      ],
      [
        "Ġflat",
        -9.823721753161264
      ],
      [
        "Ġwatch",
        -9.824506621703945
      ],
      [
        "Ġexperienced",
        -9.824901641929968
      ],
      [
        "Ġdiverse",
        -9.824977435051151
      ],
      [
        "Ġhelpful",
        -9.82512608886
      ],
      [
        "Ġcharacter",
        -9.826030763488218
      ],
      [
        "ĠUsing",
        -9.826570317868963
      ],
      [
        "Answer",
        -9.826713124040024
      ],
      [
        "Ġapp",
        -9.82789135664652
      ],
      [
        "Ġpractical",
        -9.827993043886222
      ],
      [
        "Ġinfections",
        -9.82837500492037
      ],
      [
        "G",
        -9.83044193426835
      ],
      [
        "Ġlimit",
        -9.831252145311268
      ],
      [
        "Ġnumerous",
        -9.831932009208955
      ],
      [
        "Ġbackground",
        -9.833217237610103
      ],
      [
        "Ġcomprehensive",
        -9.83356963853089
      ],
      [
        "Ġpass",
        -9.834019066829043
      ],
      [
        "Ġkitchen",
        -9.834734003004115
      ],
      [
        "um",
        -9.835599847346652
      ],
      [
        "Ġchain",
        -9.836210800139954
      ],
      [
        "Ġchanged",
        -9.836266368956124
      ],
      [
        "Ġlighting",
        -9.836675631535888
      ],
      [
        "No",
        -9.837301487441843
      ],
      [
        "Ġchemicals",
        -9.837967024485776
      ],
      [
        "Ġaware",
        -9.838586506163669
      ],
      [
        "Ġbed",
        -9.840117272837675
      ],
      [
        "ĠAustralia",
        -9.840842904651414
      ],
      [
        "Ġremoved",
        -9.840937062438098
      ],
      [
        "Ġsurvive",
        -9.840948512815224
      ],
      [
        "-free",
        -9.84302467111515
      ],
      [
        "Ġsquare",
        -9.843258110780226
      ],
      [
        "Ġrisks",
        -9.843291355001718
      ],
      [
        "Ġmuscles",
        -9.843314260109404
      ],
      [
        "...Ċ",
        -9.844124481220112
      ],
      [
        "Ġhealthcare",
        -9.845265121786918
      ],
      [
        "Ġworked",
        -9.845453159752797
      ],
      [
        "Ġreality",
        -9.846001104225492
      ],
      [
        "Ġteacher",
        -9.846659858817269
      ],
      [
        "Ġmaybe",
        -9.847236266068483
      ],
      [
        "Ġfruits",
        -9.84822434638985
      ],
      [
        "Ġanxiety",
        -9.848798790854676
      ],
      [
        "Ġestablished",
        -9.851191473870028
      ],
      [
        "which",
        -9.853391051421983
      ],
      [
        "Ġforest",
        -9.854682477447442
      ],
      [
        "Ġsurgery",
        -9.856086149231109
      ],
      [
        "Ġpollution",
        -9.85716971086648
      ],
      [
        "Ġmulti",
        -9.85717157357277
      ],
      [
        "less",
        -9.85886604976935
      ],
      [
        "Ġheld",
        -9.859843111594971
      ],
      [
        "Ġfly",
        -9.859952947290097
      ],
      [
        "Ġdesired",
        -9.860071169590984
      ],
      [
        "Ġalcohol",
        -9.86011253032649
      ],
      [
        "potentially",
        -9.86165973400312
      ],
      [
        "Ġapproximately",
        -9.861836839375645
      ],
      [
        "Ġhit",
        -9.862419649451365
      ],
      [
        "Ġbillion",
        -9.863749203002806
      ],
      [
        "Ġdrop",
        -9.86541196922648
      ],
      [
        "Ġdefined",
        -9.86583060935289
      ],
      [
        "Ġresource",
        -9.86643269663588
      ],
      [
        "Ġconcerns",
        -9.86775506452917
      ],
      [
        "Ġbusinesses",
        -9.867802101413282
      ],
      [
        "ĠYork",
        -9.86781149159617
      ],
      [
        "Ġegg",
        -9.868111064383909
      ],
      [
        "Ġangle",
        -9.8690816677419
      ],
      [
        "Ġreceived",
        -9.869665688483463
      ],
      [
        "Ġmorning",
        -9.87055007512106
      ],
      [
        "Ġreduction",
        -9.871720739996524
      ],
      [
        "Ġdie",
        -9.872669585839716
      ],
      [
        "Ġvehicles",
        -9.873573856988164
      ],
      [
        "Ġfabric",
        -9.873588430122478
      ],
      [
        "man",
        -9.873614961188002
      ],
      [
        "Ġlayers",
        -9.873812897357952
      ],
      [
        "Ġgrown",
        -9.874543711157049
      ],
      [
        "Ġtold",
        -9.875416045994266
      ],
      [
        "ĠDay",
        -9.87552198938826
      ],
      [
        "Ġshowed",
        -9.87609470839185
      ],
      [
        "Ġsend",
        -9.876236427652398
      ],
      [
        "All",
        -9.876844719070622
      ],
      [
        "ĠChina",
        -9.877265247518013
      ],
      [
        "Ġancient",
        -9.880467319500072
      ],
      [
        "Ġcomfort",
        -9.880679374266563
      ],
      [
        "Ġconcrete",
        -9.882152637728144
      ],
      [
        "Ġbeneficial",
        -9.882168781944614
      ],
      [
        "Ġkill",
        -9.882181892060268
      ],
      [
        "/or",
        -9.882690784967613
      ],
      [
        "Ġupper",
        -9.883566707522291
      ],
      [
        "Ġflower",
        -9.884730553901154
      ],
      [
        "Ġengineering",
        -9.884767766371716
      ],
      [
        "Ġhighest",
        -9.885065109413608
      ],
      [
        "Ġsensor",
        -9.8853997842567
      ],
      [
        "Ġfields",
        -9.886122394959482
      ],
      [
        "Ġrule",
        -9.886315074731092
      ],
      [
        "Ġhost",
        -9.886906245551428
      ],
      [
        "Ġoperations",
        -9.887199382778755
      ],
      [
        "Ġraw",
        -9.887410031066263
      ],
      [
        "Ġthin",
        -9.887558480807291
      ],
      [
        "Ġaircraft",
        -9.887964671377643
      ],
      [
        "Ġheating",
        -9.888546488926387
      ],
      [
        "Ġmostly",
        -9.888586975496269
      ],
      [
        "Ġwave",
        -9.888743145184
      ],
      [
        "Ġfailure",
        -9.88964998870146
      ],
      [
        "Ġencourage",
        -9.890040384810622
      ],
      [
        "ĠWhether",
        -9.89035697162372
      ],
      [
        "Ġprepare",
        -9.89083860332709
      ],
      [
        "Ġdental",
        -9.892291531890312
      ],
      [
        "Ġwidely",
        -9.89386147320624
      ],
      [
        "Ġlights",
        -9.893885195093551
      ],
      [
        "Ġearlier",
        -9.894051340121113
      ],
      [
        "by",
        -9.894500526542288
      ],
      [
        "-year",
        -9.894600773203884
      ],
      [
        "Ġtypical",
        -9.894968311056656
      ],
      [
        "Ġclick",
        -9.895020278913291
      ],
      [
        "Ġleaf",
        -9.896004266438707
      ],
      [
        "Ġinjury",
        -9.896135012348877
      ],
      [
        "Ġheard",
        -9.896212081408448
      ],
      [
        "-in",
        -9.896390260768452
      ],
      [
        "Ġmid",
        -9.896540052656986
      ],
      [
        "est",
        -9.8966454762652
      ],
      [
        "Ġtalking",
        -9.896747491511668
      ],
      [
        "Ġdecisions",
        -9.897031356408885
      ],
      [
        "Your",
        -9.897057202136384
      ],
      [
        "Ġsignals",
        -9.897643849042662
      ],
      [
        "Ġclassroom",
        -9.897675945239376
      ],
      [
        "Ġpurchase",
        -9.898348660547304
      ],
      [
        "Most",
        -9.899370338638397
      ],
      [
        "Ġprimarily",
        -9.90038433905612
      ],
      [
        "Ġsaying",
        -9.90042872833892
      ],
      [
        "Ġgold",
        -9.900881873939095
      ],
      [
        "Ġaim",
        -9.901404898464357
      ],
      [
        "Ġharmful",
        -9.902195350470125
      ],
      [
        "Ġamounts",
        -9.902885598016889
      ],
      [
        "Ġlegal",
        -9.903193486663003
      ],
      [
        "Ġteach",
        -9.90322683794688
      ],
      [
        "Ġattack",
        -9.906604048075511
      ],
      [
        "Ġmeal",
        -9.90681673815496
      ],
      [
        "Ġexperts",
        -9.906979763203882
      ],
      [
        "Ġcultural",
        -9.907551042031958
      ],
      [
        "Yes",
        -9.907780213277416
      ],
      [
        "Ġreleased",
        -9.907940221624486
      ],
      [
        "Ġexposed",
        -9.908462300733625
      ],
      [
        "Ġsports",
        -9.908466053624794
      ],
      [
        "Ġelectronic",
        -9.908635723989237
      ],
      [
        "Ġclasses",
        -9.90871492170666
      ],
      [
        "Ġsettings",
        -9.9089815713479
      ],
      [
        "Ġbiological",
        -9.910439752261157
      ],
      [
        "Ġnice",
        -9.910770855826964
      ],
      [
        "Ġpair",
        -9.9119139136738
      ],
      [
        "ĠHigh",
        -9.912877726797367
      ],
      [
        "ĠDuring",
        -9.914125100634337
      ],
      [
        "Ġcapture",
        -9.914978939012109
      ],
      [
        "Ġtransmission",
        -9.916057277856009
      ],
      [
        "Ġtoward",
        -9.91652557879982
      ],
      [
        "Ġrice",
        -9.916565016682965
      ],
      [
        "Ġplatform",
        -9.916802328153286
      ],
      [
        "Ġpool",
        -9.917130315475458
      ],
      [
        "Ġrespect",
        -9.91796043933257
      ],
      [
        "Ġfill",
        -9.918183837714093
      ],
      [
        "Ġcareer",
        -9.918228362363974
      ],
      [
        "Ġartificial",
        -9.918376462226975
      ],
      [
        "Ġnaturally",
        -9.918482895146433
      ],
      [
        "Ġmother",
        -9.918786508988362
      ],
      [
        "Ġeventually",
        -9.919376277908649
      ],
      [
        "Ġoffice",
        -9.920167886199453
      ],
      [
        "Ġnamed",
        -9.920953648895924
      ],
      [
        "Ġround",
        -9.921026950898172
      ],
      [
        "Ġroof",
        -9.921083958290682
      ],
      [
        "Ġclaim",
        -9.921226599184994
      ],
      [
        "Ġunits",
        -9.921565483769944
      ],
      [
        "ĠEuropean",
        -9.9220366006372
      ],
      [
        "ĠAir",
        -9.92258071552668
      ],
      [
        "Ġprivate",
        -9.922699476404269
      ],
      [
        "Ġtransition",
        -9.9228383480712
      ],
      [
        "Ġsub",
        -9.923547763533554
      ],
      [
        "ĠDon",
        -9.923657840479738
      ],
      [
        "Ġdead",
        -9.924489121586127
      ],
      [
        "Ġwait",
        -9.925975627591086
      ],
      [
        "Ġindustrial",
        -9.926725264505729
      ],
      [
        "Ġstrategy",
        -9.927199578238849
      ],
      [
        "Ġindicate",
        -9.92856528725603
      ],
      [
        "Ġrelevant",
        -9.928647920219264
      ],
      [
        "Ġlatest",
        -9.9288481912492
      ],
      [
        "Ġorganisms",
        -9.929266400735695
      ],
      [
        "Ġpolicy",
        -9.929401175235007
      ],
      [
        "Ġmixture",
        -9.930755872815729
      ],
      [
        "Are",
        -9.93094205517641
      ],
      [
        "Ġsmell",
        -9.9313973045156
      ],
      [
        "Ġplans",
        -9.931482056470111
      ],
      [
        "Ġdetailed",
        -9.932318755272648
      ],
      [
        "Ġtransport",
        -9.93250536307405
      ],
      [
        "Ġrelationships",
        -9.932575149350722
      ],
      [
        "Ġexternal",
        -9.932614043549563
      ],
      [
        "Ġdrugs",
        -9.93377588846963
      ],
      [
        "Ġquantum",
        -9.93444689597352
      ],
      [
        "Ġcheese",
        -9.93548909090012
      ],
      [
        "Once",
        -9.935519344164998
      ],
      [
        "Ġfollowed",
        -9.93612813291606
      ],
      [
        "Ġpump",
        -9.936968565737498
      ],
      [
        "Ġbike",
        -9.938934427761929
      ],
      [
        "Ġlab",
        -9.939476060045273
      ],
      [
        "Ġbright",
        -9.94163538578042
      ],
      [
        "Ġtreated",
        -9.942865361047645
      ],
      [
        "Ġcarefully",
        -9.943072825630551
      ],
      [
        "capable",
        -9.943658648510644
      ],
      [
        "Ġoperating",
        -9.94384091322384
      ],
      [
        "aid",
        -9.943968846184882
      ],
      [
        "Ġfindings",
        -9.94435536575067
      ],
      [
        "Ġmedicine",
        -9.94454331211671
      ],
      [
        "Ġmode",
        -9.944655924251965
      ],
      [
        "Ġdetect",
        -9.94472981748028
      ],
      [
        "Ġcomposition",
        -9.945103071476453
      ],
      [
        "Ġextreme",
        -9.945941650358192
      ],
      [
        "Ġnews",
        -9.94625084083456
      ],
      [
        "Ġlifestyle",
        -9.947246650728992
      ],
      [
        "Ġmagnetic",
        -9.947383518404216
      ],
      [
        "Ġgrade",
        -9.948349828881856
      ],
      [
        "Ġwaves",
        -9.948399272270407
      ],
      [
        "Ġlens",
        -9.95032563178616
      ],
      [
        "Ġenvironments",
        -9.951263286973305
      ],
      [
        "Ġmessage",
        -9.9520954467832
      ],
      [
        "Ġbag",
        -9.952182767112902
      ],
      [
        "Ġmold",
        -9.95232100600878
      ],
      [
        "Ġmachines",
        -9.952845645194872
      ],
      [
        "Ġadvantages",
        -9.953766194040972
      ],
      [
        "Ġwalls",
        -9.953818644391996
      ],
      [
        "Ġstories",
        -9.954735466657215
      ],
      [
        "Ġbeauty",
        -9.954817152485871
      ],
      [
        "Ġstored",
        -9.954958468025508
      ],
      [
        "-quality",
        -9.955388842739222
      ],
      [
        "Ġexpression",
        -9.95569157353088
      ],
      [
        "Ġintroduced",
        -9.95571831924423
      ],
      [
        "Ġreliable",
        -9.955744914640498
      ],
      [
        "Ġthousands",
        -9.9558542394768
      ],
      [
        "ĠCanada",
        -9.956919886256854
      ],
      [
        "My",
        -9.95742728059761
      ],
      [
        "Ġconsistent",
        -9.957935610288756
      ],
      [
        "Ġsurfaces",
        -9.958170920043983
      ],
      [
        "Ġsunlight",
        -9.958179362095178
      ],
      [
        "Ġfishing",
        -9.95837782227142
      ],
      [
        "Ġpull",
        -9.958723860765318
      ],
      [
        "Ġoptimal",
        -9.959871628547369
      ],
      [
        "Ġsamples",
        -9.960106797550454
      ],
      [
        "Ġmanufacturing",
        -9.960724567339357
      ],
      [
        "Ġseek",
        -9.96112765501465
      ],
      [
        "Ġchoosing",
        -9.961841561266567
      ],
      [
        "@",
        -9.96330751816723
      ],
      [
        "Ġplanting",
        -9.96342139497479
      ],
      [
        "Ġprint",
        -9.964049596575894
      ],
      [
        "Ġstone",
        -9.965447232863552
      ],
      [
        "Ġbrought",
        -9.96602578569594
      ],
      [
        "Ġcard",
        -9.966091803489686
      ],
      [
        "Ġoutdoor",
        -9.966517343233898
      ],
      [
        "Ġfarmers",
        -9.9666369188126
      ],
      [
        "Ġroutine",
        -9.967508429186037
      ],
      [
        "Ġvitamin",
        -9.96820382697941
      ],
      [
        "Ġbatteries",
        -9.968282207421325
      ],
      [
        "Ġemail",
        -9.968839482629422
      ],
      [
        "Ġformation",
        -9.969756108736034
      ],
      [
        "Ġvoice",
        -9.96991322803352
      ],
      [
        "ĠRiver",
        -9.969986883778471
      ],
      [
        "Ġhole",
        -9.970661966809503
      ],
      [
        "Ġdetermined",
        -9.971053430819982
      ],
      [
        "Ġdish",
        -9.972648946447848
      ],
      [
        "Ġsecure",
        -9.973909987805554
      ],
      [
        "Ġconcentration",
        -9.974290802598077
      ],
      [
        "Ġmatch",
        -9.97486036375865
      ],
      [
        "Ġmonitoring",
        -9.97494893424146
      ],
      [
        "Ġdetail",
        -9.975007671065908
      ],
      [
        "Ġzero",
        -9.975720565354855
      ],
      [
        "Ġsweet",
        -9.975721060905029
      ],
      [
        "ĠDoes",
        -9.975865900886014
      ],
      [
        "Ġclinical",
        -9.976999822477
      ],
      [
        "Ġperspective",
        -9.977035487588653
      ],
      [
        "Ġcoffee",
        -9.97748300811743
      ],
      [
        "Ġsituations",
        -9.977496375179566
      ],
      [
        "focused",
        -9.977929826878308
      ],
      [
        "Ġprepared",
        -9.978143001255884
      ],
      [
        "Ġorganizations",
        -9.978143750449728
      ],
      [
        "Many",
        -9.978267837175586
      ],
      [
        "Ġcontainer",
        -9.97838221335504
      ],
      [
        "Ġshade",
        -9.978424008458012
      ],
      [
        "ĠFrench",
        -9.978570859233104
      ],
      [
        "that",
        -9.978664064148337
      ],
      [
        "Ġfiber",
        -9.979216085529089
      ],
      [
        "Ġtrip",
        -9.979378318004478
      ],
      [
        "Ġradio",
        -9.979619879946483
      ],
      [
        "Ġlegs",
        -9.979895386830076
      ],
      [
        "Ġblog",
        -9.979981774919551
      ],
      [
        "-being",
        -9.980481084324706
      ],
      [
        "Finally",
        -9.980602325013326
      ],
      [
        "Ġadjust",
        -9.98063578768324
      ],
      [
        "Ġoffering",
        -9.980895208332017
      ],
      [
        "Ġperformed",
        -9.981255579787527
      ],
      [
        "Ġkept",
        -9.98256204577549
      ],
      [
        "Ġdiscussion",
        -9.982685806004048
      ],
      [
        "Conclusion",
        -9.983622248698206
      ],
      [
        "Ġappears",
        -9.9836876237089
      ],
      [
        "Ġcombined",
        -9.984124026023787
      ],
      [
        "Ġtooth",
        -9.98439816971285
      ],
      [
        "Ġbreeding",
        -9.984449390164702
      ],
      [
        "ĠGoogle",
        -9.984835690519716
      ],
      [
        "Ġprofessionals",
        -9.98493632824204
      ],
      [
        "-time",
        -9.985999753629226
      ],
      [
        "Ġintelligence",
        -9.986137889115806
      ],
      [
        "Ġprocedure",
        -9.987086771033296
      ],
      [
        "Ġjoint",
        -9.987477058777197
      ],
      [
        "Ġmainly",
        -9.987837046243872
      ],
      [
        "ĠBritish",
        -9.987969602792912
      ],
      [
        "Ġbutton",
        -9.988216512778134
      ],
      [
        "Ġactions",
        -9.98941671673798
      ],
      [
        "ĠJune",
        -9.98970597852275
      ],
      [
        "Ġdensity",
        -9.98984514522708
      ],
      [
        "Ġstatus",
        -9.99076134009008
      ],
      [
        "Ġassist",
        -9.99098925787651
      ],
      [
        "Ġplays",
        -9.991233466805156
      ],
      [
        "ĠFood",
        -9.991571512534202
      ],
      [
        "Ġminimum",
        -9.991577139072586
      ],
      [
        "turned",
        -9.992899507725708
      ],
      [
        "Ġdesigns",
        -9.994344725889189
      ],
      [
        "Ġhydrogen",
        -9.994696010670722
      ],
      [
        "Ġmonitor",
        -9.996249406977558
      ],
      [
        "Ġeducational",
        -9.996550254012888
      ],
      [
        "Ġstarts",
        -9.997006786875511
      ],
      [
        "Ġaudience",
        -9.998126737689468
      ],
      [
        "Ġconclusion",
        -9.99835670376936
      ],
      [
        "||",
        -9.999114029156358
      ],
      [
        "Ġplayer",
        -9.999537626594114
      ],
      [
        "Ġawareness",
        -9.999546583535867
      ],
      [
        "Ġannual",
        -9.9999050870305
      ],
      [
        "Ġaspect",
        -10.000202068081064
      ],
      [
        "Ġdrink",
        -10.000292779386667
      ],
      [
        "Ġamazing",
        -10.000405422107296
      ],
      [
        "Ġleads",
        -10.000963759399092
      ],
      [
        "Ġcontrast",
        -10.0011430789202
      ],
      [
        "-friendly",
        -10.001167659228878
      ],
      [
        "Ġcredit",
        -10.002185826788333
      ],
      [
        "Ġchallenging",
        -10.003154662010704
      ],
      [
        "Ġuniverse",
        -10.004270757983788
      ],
      [
        "ĠMarch",
        -10.004399740753303
      ],
      [
        "Ġfight",
        -10.005107041536634
      ],
      [
        "Ġmeasured",
        -10.005846589527376
      ],
      [
        "Ġfear",
        -10.006318704602394
      ],
      [
        "Ġimproving",
        -10.00678011455278
      ],
      [
        "Ġapart",
        -10.007042370483685
      ],
      [
        "Ġcrops",
        -10.00829479993708
      ],
      [
        "Ġsnow",
        -10.009035204825098
      ],
      [
        "Ġsurrounding",
        -10.009728888030208
      ],
      [
        "Ġmobile",
        -10.01035885741284
      ],
      [
        "Ġcolour",
        -10.01058017792191
      ],
      [
        "Ġrespond",
        -10.011170919964108
      ],
      [
        "Ġcrop",
        -10.0118888386877
      ],
      [
        "ĠApril",
        -10.01208612678333
      ],
      [
        "Ġrain",
        -10.012111897225015
      ],
      [
        "ĠCO",
        -10.012601554549088
      ],
      [
        "Ġcook",
        -10.013419255069977
      ],
      [
        "truly",
        -10.013635340638428
      ],
      [
        "j",
        -10.014076496358996
      ],
      [
        "Ġfarm",
        -10.014605361669828
      ],
      [
        "Ġchoices",
        -10.017662512460412
      ],
      [
        "Ġattempt",
        -10.018646862497482
      ],
      [
        "Ġshowing",
        -10.019281896432831
      ],
      [
        "ĠPeople",
        -10.019309956502696
      ],
      [
        "plenty",
        -10.020760213840031
      ],
      [
        "X",
        -10.020885591471515
      ],
      [
        "Ġsensitive",
        -10.024104091625055
      ],
      [
        "Ġphotos",
        -10.02509190620475
      ],
      [
        "Ġpowder",
        -10.02516337085549
      ],
      [
        "Ġplane",
        -10.025368791231475
      ],
      [
        "Ġsell",
        -10.028141895227078
      ],
      [
        "Ġtreatments",
        -10.02850553518119
      ],
      [
        "Ġstock",
        -10.028665520747271
      ],
      [
        "Ġcoat",
        -10.02906446863445
      ],
      [
        "Ġdecide",
        -10.029260277808334
      ],
      [
        "Ġmechanical",
        -10.029606563696229
      ],
      [
        "Ġerror",
        -10.029718279650986
      ],
      [
        "Ġraise",
        -10.030070571491612
      ],
      [
        "ĠInternational",
        -10.030513490506223
      ],
      [
        "referred",
        -10.030613132851776
      ],
      [
        "Ġenter",
        -10.030764891227347
      ],
      [
        "Ġperhaps",
        -10.031281054491457
      ],
      [
        "ĠSystem",
        -10.031988793383936
      ],
      [
        "Ġconcern",
        -10.03316811929457
      ],
      [
        "Ġplate",
        -10.03389827125757
      ],
      [
        "Ġdecrease",
        -10.034154444686797
      ],
      [
        "Ġwar",
        -10.034329806378896
      ],
      [
        "ring",
        -10.035654144364235
      ],
      [
        "Ġwhose",
        -10.036801983574035
      ],
      [
        "Ġforces",
        -10.037561343663572
      ],
      [
        "Ġmajority",
        -10.037733333619824
      ],
      [
        "Ġleaving",
        -10.040239494139676
      ],
      [
        "Â·",
        -10.040873492435242
      ],
      [
        "Ġprinting",
        -10.041288924375957
      ],
      [
        "shared",
        -10.042255452652936
      ],
      [
        "Ġsequence",
        -10.042868275103972
      ],
      [
        "Ġhomes",
        -10.044063271222052
      ],
      [
        "Ġstatement",
        -10.045004820584172
      ],
      [
        "Ġmechanism",
        -10.04511273885219
      ],
      [
        "Ġlaser",
        -10.04803929187034
      ],
      [
        "Ġpreviously",
        -10.04825016962146
      ],
      [
        "Ġshapes",
        -10.04931538849682
      ],
      [
        "Ġestimated",
        -10.049331582287316
      ],
      [
        "Ġowner",
        -10.04974137123745
      ],
      [
        "Ġfilled",
        -10.054209241706056
      ],
      [
        "Ġradiation",
        -10.054909786690606
      ],
      [
        "Ġchronic",
        -10.055419121658655
      ],
      [
        "Ġcup",
        -10.056627196470927
      ],
      [
        "Ġsets",
        -10.056643190614777
      ],
      [
        "ĠGreat",
        -10.05683626630691
      ],
      [
        "ĠWell",
        -10.056906920333097
      ],
      [
        "Ġportion",
        -10.057694810759214
      ],
      [
        "ĠBoth",
        -10.05814142812949
      ],
      [
        "Ġfundamental",
        -10.058217469676832
      ],
      [
        "Ġpush",
        -10.059173534640426
      ],
      [
        "Ġgear",
        -10.05942654680683
      ],
      [
        "Ġbones",
        -10.059664743148332
      ],
      [
        "Ġspeaker",
        -10.060120953549069
      ],
      [
        "Ġvisible",
        -10.060406197251284
      ],
      [
        "Ġsmart",
        -10.060547856035315
      ],
      [
        "Ġgenerated",
        -10.060985544748966
      ],
      [
        "Ġrefers",
        -10.061309750404533
      ],
      [
        "ĠWar",
        -10.061342031803049
      ],
      [
        "Ġselected",
        -10.061373518316648
      ],
      [
        "Ġborn",
        -10.062284300648392
      ],
      [
        "Ġminerals",
        -10.06296710204528
      ],
      [
        "Ġdust",
        -10.064115361154194
      ],
      [
        "Ġtechnical",
        -10.065361852640452
      ],
      [
        "Ġopening",
        -10.066045639889756
      ],
      [
        "Ġtried",
        -10.066247494532524
      ],
      [
        "Ġclothing",
        -10.06689663076783
      ],
      [
        "ĠEnergy",
        -10.067119497429696
      ],
      [
        "Ġkinds",
        -10.06760385247316
      ],
      [
        "Ġconducted",
        -10.068482423693023
      ],
      [
        "ĠJohn",
        -10.068692952777276
      ],
      [
        "Ġcount",
        -10.069753728365487
      ],
      [
        "Ġcatch",
        -10.069886192473298
      ],
      [
        "Ġreactions",
        -10.069910499800836
      ],
      [
        "ĠEducation",
        -10.070508879824835
      ],
      [
        "Ġimpacts",
        -10.07093998240319
      ],
      [
        "Ġfeedback",
        -10.07121242920486
      ],
      [
        "ĠAfrican",
        -10.072759587921292
      ],
      [
        "Ġessay",
        -10.07296661868836
      ],
      [
        "Ġpainting",
        -10.074823495467951
      ],
      [
        "Ġcertainly",
        -10.07495112699208
      ],
      [
        "Ġenable",
        -10.076413870185077
      ],
      [
        "Ġsolve",
        -10.076944206369909
      ],
      [
        "Ġpot",
        -10.077700720598774
      ],
      [
        "Ġconsidering",
        -10.078190222934774
      ],
      [
        "].",
        -10.079792623639328
      ],
      [
        "Ġstable",
        -10.080340351479164
      ],
      [
        "Ġtube",
        -10.080363950323528
      ],
      [
        "-related",
        -10.080868585509974
      ],
      [
        "Ġparticipants",
        -10.081671386208978
      ],
      [
        "Ġcm",
        -10.082048208688786
      ],
      [
        "Ġintake",
        -10.082458200217449
      ],
      [
        "Ġpresented",
        -10.0826150202438
      ],
      [
        "Ġproducing",
        -10.08264120531198
      ],
      [
        "Ġnerve",
        -10.08279554454086
      ],
      [
        "Ġpurposes",
        -10.08308086027396
      ],
      [
        "ion",
        -10.083758870134012
      ],
      [
        "Ġphotography",
        -10.083868156093908
      ],
      [
        "Ġchocolate",
        -10.083917814915493
      ],
      [
        "Ġstrain",
        -10.083946742918195
      ],
      [
        "Ġdisorders",
        -10.0845766847016
      ],
      [
        "Ġattract",
        -10.084623516091662
      ],
      [
        "Ġthick",
        -10.084746346006408
      ],
      [
        "Ġcompounds",
        -10.084767508730769
      ],
      [
        "Ġotherwise",
        -10.085919359499224
      ],
      [
        "Ġriver",
        -10.086011265484752
      ],
      [
        "Ġtrade",
        -10.088327219676506
      ],
      [
        "Ġmap",
        -10.088611847730595
      ],
      [
        "Ġatoms",
        -10.088614911810806
      ],
      [
        "Ġrecovery",
        -10.08947225151963
      ],
      [
        "Ġwheel",
        -10.089588744649314
      ],
      [
        "Ġensures",
        -10.089996871086376
      ],
      [
        "First",
        -10.090779867127836
      ],
      [
        "Ġinstallation",
        -10.090984442451024
      ],
      [
        "Ġaffects",
        -10.091161426659845
      ],
      [
        "Ġexcessive",
        -10.092085539165929
      ],
      [
        "Ġconcepts",
        -10.092212957088435
      ],
      [
        "Ġbees",
        -10.0923316210688
      ],
      [
        "Ġtail",
        -10.092740796742476
      ],
      [
        "looked",
        -10.093000212058406
      ],
      [
        "ĠPark",
        -10.093997586733
      ],
      [
        "Ġelectrons",
        -10.094790064567638
      ],
      [
        "Ġpictures",
        -10.09520178544096
      ],
      [
        "ĠBlack",
        -10.095744381167266
      ],
      [
        "Ġagree",
        -10.097005942558573
      ],
      [
        "Ġinternet",
        -10.097727069753727
      ],
      [
        "Ġdrain",
        -10.097911852349322
      ],
      [
        "Ġwouldn",
        -10.098387880573885
      ],
      [
        "Ġcooling",
        -10.09850931499204
      ],
      [
        "Ġemergency",
        -10.09857274803318
      ],
      [
        "Ġinflammation",
        -10.098857368797452
      ],
      [
        "Ġcontrolled",
        -10.09891766190854
      ],
      [
        "Ġvarieties",
        -10.100813078853488
      ],
      [
        "Ġconsists",
        -10.100969511862829
      ],
      [
        "Ġbudget",
        -10.100974856980416
      ],
      [
        "Ġtrust",
        -10.101597459300791
      ],
      [
        "Ġengage",
        -10.101738099271504
      ],
      [
        "ĠJuly",
        -10.103698365708777
      ],
      [
        "slowly",
        -10.103982421554113
      ],
      [
        "Ġlabel",
        -10.104735357559248
      ],
      [
        "Ġsit",
        -10.105384777972608
      ],
      [
        "Ġnormally",
        -10.10607489396443
      ],
      [
        "Ġexhibit",
        -10.106519456431435
      ],
      [
        "Ġwalking",
        -10.107121270671763
      ],
      [
        "Ġskill",
        -10.107590592747732
      ],
      [
        "Ġprinciples",
        -10.107938189884658
      ],
      [
        "Ġwhatever",
        -10.108213225053596
      ],
      [
        "Ġdiversity",
        -10.108272456586487
      ],
      [
        "Ġformula",
        -10.108555618844171
      ],
      [
        "ĠHis",
        -10.10867612487026
      ],
      [
        "Ġsizes",
        -10.10916579902798
      ],
      [
        "Ġdefinition",
        -10.10977346872425
      ],
      [
        "ĠCity",
        -10.110518922233506
      ],
      [
        "According",
        -10.110560587059796
      ],
      [
        "Ġsurvival",
        -10.111532925265053
      ],
      [
        "ĠIts",
        -10.115083952945149
      ],
      [
        "Ġclosely",
        -10.11519823317612
      ],
      [
        "Ġassessment",
        -10.115752340139322
      ],
      [
        "Ġmission",
        -10.116078408397769
      ],
      [
        "Ġwarming",
        -10.11624179766612
      ],
      [
        "Use",
        -10.11638422103088
      ],
      [
        "Ġdisorder",
        -10.11654119653822
      ],
      [
        "Ġdamaged",
        -10.117097512718068
      ],
      [
        "Ġfoundation",
        -10.117260626214232
      ],
      [
        "Ġvalve",
        -10.117831239184484
      ],
      [
        "Ġinner",
        -10.118065531498104
      ],
      [
        "ĠOver",
        -10.118096647904895
      ],
      [
        "Ġnutrition",
        -10.118851653941633
      ],
      [
        "Ġexpert",
        -10.118907772592358
      ],
      [
        "Ġcreation",
        -10.119372702198207
      ],
      [
        "Ġvirtual",
        -10.11941254983701
      ],
      [
        "Ġseeing",
        -10.120231157156669
      ],
      [
        "Ġharm",
        -10.120902783223997
      ],
      [
        "Ġdecades",
        -10.121021281053167
      ],
      [
        "Ġmixed",
        -10.121770117028817
      ],
      [
        "Ġcarried",
        -10.122102494280997
      ],
      [
        "Ġinsights",
        -10.12234020493231
      ],
      [
        "Ġten",
        -10.124946349728146
      ],
      [
        "Ġunless",
        -10.125024162098898
      ],
      [
        "Ġholes",
        -10.12505348345927
      ],
      [
        "Ġscene",
        -10.126709911366303
      ],
      [
        "Ġacids",
        -10.126831252155084
      ],
      [
        "Ġprior",
        -10.12726584055378
      ],
      [
        "Let",
        -10.127365569973422
      ],
      [
        "ĠRed",
        -10.127526450649349
      ],
      [
        "ĠSeptember",
        -10.127817317462222
      ],
      [
        "Ġtopics",
        -10.127916278816754
      ],
      [
        "Ġexcess",
        -10.128408367371923
      ],
      [
        "Ġdishes",
        -10.12846678400268
      ],
      [
        "Ġeight",
        -10.128636998462454
      ],
      [
        "Ġcompare",
        -10.12884645351313
      ],
      [
        "Ġpure",
        -10.130198780650309
      ],
      [
        "Ġdecided",
        -10.130543092999142
      ],
      [
        "Ġspent",
        -10.13084638931284
      ],
      [
        "Ġpercentage",
        -10.130861179672351
      ],
      [
        "from",
        -10.132512241549158
      ],
      [
        "Ġcreates",
        -10.1330047630783
      ],
      [
        "Ġlinked",
        -10.134449320733202
      ],
      [
        "Ġcollege",
        -10.134911345942104
      ],
      [
        "`",
        -10.135230800278306
      ],
      [
        "Ġtested",
        -10.135421722887504
      ],
      [
        "ĠKeep",
        -10.136066651796964
      ],
      [
        "Ġcommunicate",
        -10.137174857448477
      ],
      [
        "Ġboost",
        -10.138303804405888
      ],
      [
        "Ġcopper",
        -10.13831197041868
      ],
      [
        "Ġsuper",
        -10.138331600183704
      ],
      [
        "Ġdocument",
        -10.138606530828543
      ],
      [
        "Ġperiods",
        -10.139845773093148
      ],
      [
        "Ġrely",
        -10.141017122345351
      ],
      [
        "Ġcorrectly",
        -10.141315376020588
      ],
      [
        "Ġinvestment",
        -10.141380078387012
      ],
      [
        "Ġgreenhouse",
        -10.141862247605877
      ],
      [
        "Ġcontaining",
        -10.141887327401838
      ],
      [
        "Ġclearly",
        -10.143754688821929
      ],
      [
        "Ġfiles",
        -10.143943521602749
      ],
      [
        "ĠIndian",
        -10.143992304693294
      ],
      [
        "Ġdiscover",
        -10.145494799952976
      ],
      [
        "Ġshot",
        -10.14600930289795
      ],
      [
        "Ġprey",
        -10.146771560905432
      ],
      [
        "Ġpregnancy",
        -10.146789303338355
      ],
      [
        "Ġahead",
        -10.147493505865064
      ],
      [
        "Ġinstall",
        -10.147604290379316
      ],
      [
        "Ġexpand",
        -10.147718882373685
      ],
      [
        "Ġvideos",
        -10.148072168121642
      ],
      [
        "Ġshift",
        -10.148106588940868
      ],
      [
        "Ġdistinct",
        -10.149151946964489
      ],
      [
        "Ġputting",
        -10.149335203267022
      ],
      [
        "Ġtight",
        -10.149360417750623
      ],
      [
        "Ġrepresents",
        -10.14950144020475
      ],
      [
        "Ġfunctional",
        -10.149911605980655
      ],
      [
        "Ġhunting",
        -10.150333208921973
      ],
      [
        "Ġmolecular",
        -10.151846646975164
      ],
      [
        "old",
        -10.15254314492636
      ],
      [
        "Ġcomputers",
        -10.153105638490583
      ],
      [
        "Ġprices",
        -10.153389425724162
      ],
      [
        "Ġcloser",
        -10.15362442648492
      ],
      [
        "Ġtraffic",
        -10.153870514897084
      ],
      [
        "Ġstick",
        -10.153876069062886
      ],
      [
        "Ġattached",
        -10.154126691375966
      ],
      [
        "Ġcalcium",
        -10.15469984137033
      ],
      [
        "Ġbigger",
        -10.155049089657211
      ],
      [
        "Ġguidelines",
        -10.155523756387169
      ],
      [
        "Ġphysics",
        -10.15752145816275
      ],
      [
        "Ġcreatures",
        -10.158034331647896
      ],
      [
        "Ġmarketing",
        -10.158314414112231
      ],
      [
        "Ġmanner",
        -10.158859873580754
      ],
      [
        "Ġthrive",
        -10.159303238556404
      ],
      [
        "Ġinteraction",
        -10.159826573542178
      ],
      [
        "Ġsides",
        -10.159885108036889
      ],
      [
        "Ġaccuracy",
        -10.15992793590321
      ],
      [
        "Although",
        -10.160435530338022
      ],
      [
        "Ġbite",
        -10.160729558621666
      ],
      [
        "Ġmeeting",
        -10.1618050514339
      ],
      [
        "Ġparent",
        -10.162122424357236
      ],
      [
        "ĠInstead",
        -10.163396154610725
      ],
      [
        "Ġhappened",
        -10.165101003623803
      ],
      [
        "Ġship",
        -10.165110736913094
      ],
      [
        "Ġpress",
        -10.165746157788632
      ],
      [
        "Ġurban",
        -10.166251052645553
      ],
      [
        "with",
        -10.166500765982477
      ],
      [
        "Ġbuying",
        -10.167822776046464
      ],
      [
        "Ġdefinitely",
        -10.169625286951216
      ],
      [
        "Ġtrain",
        -10.169764657405723
      ],
      [
        "Ġturning",
        -10.170034205433652
      ],
      [
        "Ġpages",
        -10.170131001268668
      ],
      [
        "ĠCounty",
        -10.170137544399976
      ],
      [
        "Ġstomach",
        -10.170150502279911
      ],
      [
        "Ġpounds",
        -10.17035782145804
      ],
      [
        "Ġapproaches",
        -10.170773999562057
      ],
      [
        "Ġcream",
        -10.170923564391538
      ],
      [
        "we",
        -10.171198827029016
      ],
      [
        "Ġlocations",
        -10.17134638630882
      ],
      [
        "Ġconsume",
        -10.171650491428927
      ],
      [
        "Ġmention",
        -10.171653708602136
      ],
      [
        "ĠThus",
        -10.17218050735521
      ],
      [
        "ĠTake",
        -10.17272999346505
      ],
      [
        "Ġlaws",
        -10.17287315044594
      ],
      [
        "Ġfossil",
        -10.17289459196623
      ],
      [
        "Ġbroken",
        -10.172912732864608
      ],
      [
        "Ġvast",
        -10.172984441866532
      ],
      [
        "Ġspeak",
        -10.17410362870736
      ],
      [
        "ĠpH",
        -10.174694671927655
      ],
      [
        "Ġtoxic",
        -10.176246724389465
      ],
      [
        "From",
        -10.176488643543836
      ],
      [
        "Ġsauce",
        -10.178090128840426
      ],
      [
        "Ġinteractions",
        -10.178959544858722
      ],
      [
        "Ġdescription",
        -10.17918182879917
      ],
      [
        "Ġchapter",
        -10.179557650055228
      ],
      [
        "Ġdepend",
        -10.179731763843092
      ],
      [
        "ĠOctober",
        -10.180063944859302
      ],
      [
        "Ġcareful",
        -10.180545051290611
      ],
      [
        "Ġboat",
        -10.180960205254056
      ],
      [
        "Ġfixed",
        -10.182793490676334
      ],
      [
        "Ġnames",
        -10.182811144250485
      ],
      [
        "Ġmeals",
        -10.183350481483508
      ],
      [
        "Ġlesson",
        -10.184028713316849
      ],
      [
        "Ġobtained",
        -10.184046009075333
      ],
      [
        "Ġstar",
        -10.184642707505786
      ],
      [
        "Ġtall",
        -10.184891502569318
      ],
      [
        "ĠII",
        -10.185167126722703
      ],
      [
        "Ġworry",
        -10.18535226515948
      ],
      [
        "Moreover",
        -10.185694105038374
      ],
      [
        "Ġpreserve",
        -10.186266140803154
      ],
      [
        "Ġpassed",
        -10.186422304564408
      ],
      [
        "Ġbalanced",
        -10.186482247156675
      ],
      [
        "ĠWest",
        -10.186916718342392
      ],
      [
        "Ġintended",
        -10.187553695672626
      ],
      [
        "Ġpanel",
        -10.18761038750422
      ],
      [
        "Ġmedication",
        -10.187641481172198
      ],
      [
        "Ġinstalled",
        -10.187951106333204
      ],
      [
        "Ġfirm",
        -10.188013349105209
      ],
      [
        "Ġsheet",
        -10.188310335802893
      ],
      [
        "Ġeconomy",
        -10.188549140298582
      ],
      [
        "Ġseven",
        -10.188566993677416
      ],
      [
        "Ġfamiliar",
        -10.188725357679152
      ],
      [
        "Ġturns",
        -10.188901655882873
      ],
      [
        "Ġproduces",
        -10.189093159406436
      ],
      [
        "Ġbond",
        -10.189521273957038
      ],
      [
        "âĢ¦ĊĊ",
        -10.189755772074964
      ],
      [
        "Ġindependent",
        -10.19057227147922
      ],
      [
        "one",
        -10.191755811995185
      ],
      [
        "Ġwindows",
        -10.192098964431024
      ],
      [
        "Ġbowl",
        -10.192122153363446
      ],
      [
        "Ġfelt",
        -10.192185916525176
      ],
      [
        "Ġbegins",
        -10.19224255846364
      ],
      [
        "ĠAbout",
        -10.19235136156814
      ],
      [
        "Ġfix",
        -10.192623531796556
      ],
      [
        "Ġdioxide",
        -10.192743626383654
      ],
      [
        "Ġprotected",
        -10.193398553366936
      ],
      [
        "Ġdepression",
        -10.193418530261653
      ],
      [
        "Ġworldwide",
        -10.19391141590522
      ],
      [
        "removing",
        -10.194099503875462
      ],
      [
        "Figure",
        -10.194314309445344
      ],
      [
        "Ġexact",
        -10.194839907646095
      ],
      [
        "Ġsold",
        -10.195048451379307
      ],
      [
        "Ġfamous",
        -10.19582426538274
      ],
      [
        "Ġsharing",
        -10.19666892679276
      ],
      [
        "Ġdeeper",
        -10.196960065754052
      ],
      [
        "Ġrapidly",
        -10.198025916007657
      ],
      [
        "Ġcooked",
        -10.19839965604638
      ],
      [
        "Ġtwice",
        -10.19905104298655
      ],
      [
        "Ġwoman",
        -10.199125967137084
      ],
      [
        "Ġsuggested",
        -10.199295879588728
      ],
      [
        "ĠCollege",
        -10.199378818550077
      ],
      [
        "Ġinnovative",
        -10.20080617103547
      ],
      [
        "Ġcollected",
        -10.200813583320109
      ],
      [
        "Ġsubstance",
        -10.201057395444517
      ],
      [
        "Ġraised",
        -10.201925632259268
      ],
      [
        "Ġhabits",
        -10.202836520720886
      ],
      [
        "ĠJanuary",
        -10.203544058900173
      ],
      [
        "Ġfinish",
        -10.203674047441703
      ],
      [
        "Ġclosed",
        -10.204006184945587
      ],
      [
        "Ġschedule",
        -10.204139438319135
      ],
      [
        "Ġinjuries",
        -10.20422665133172
      ],
      [
        "Ġagriculture",
        -10.204428484204998
      ],
      [
        "Ġworkers",
        -10.204441814146412
      ],
      [
        "Ġliver",
        -10.204660916205718
      ],
      [
        "Ġhorses",
        -10.205569682988338
      ],
      [
        "Ġrecognize",
        -10.206602547741022
      ],
      [
        "Ġseconds",
        -10.206655295239395
      ],
      [
        "Ġbutter",
        -10.20732333292714
      ],
      [
        "Ġadapt",
        -10.208369185464312
      ],
      [
        "Ġanswers",
        -10.208412663299226
      ],
      [
        "Ġrapid",
        -10.208841024418986
      ],
      [
        "Ġextend",
        -10.208861056917424
      ],
      [
        "Ġfurniture",
        -10.210081809415229
      ],
      [
        "Ġneck",
        -10.210644936617872
      ],
      [
        "Ġshoes",
        -10.210775102950045
      ],
      [
        "Ġnitrogen",
        -10.211775107438443
      ],
      [
        "Ġpreventing",
        -10.211958970183982
      ],
      [
        "Ġbaking",
        -10.212273619009334
      ],
      [
        "Ġstages",
        -10.21228674621604
      ],
      [
        "</",
        -10.212805484750886
      ],
      [
        "ĠLike",
        -10.21344685504386
      ],
      [
        "Ġreports",
        -10.213935104047827
      ],
      [
        "Ġcompound",
        -10.213942735568107
      ],
      [
        "ĠChinese",
        -10.215144950290552
      ],
      [
        "ĠCOVID",
        -10.216046154868536
      ],
      [
        "ĠAugust",
        -10.216503269266674
      ],
      [
        "Ġbar",
        -10.217093861868934
      ],
      [
        "Ġjoin",
        -10.21743444067174
      ],
      [
        "Ġhardware",
        -10.218088076329437
      ],
      [
        "Ġthermal",
        -10.218149026562598
      ],
      [
        "ĠCheck",
        -10.218492607280158
      ],
      [
        "Ġopposite",
        -10.219055432333482
      ],
      [
        "Ġpests",
        -10.219828384685114
      ],
      [
        "Ġecosystem",
        -10.219884890233851
      ],
      [
        "Ġpreparation",
        -10.220272097812666
      ],
      [
        "Ġlawn",
        -10.22057091917301
      ],
      [
        "Ġoffered",
        -10.220653247291237
      ],
      [
        "Ġsent",
        -10.220655931709546
      ],
      [
        "Ġthrow",
        -10.221067079018498
      ],
      [
        "Ġmath",
        -10.22113101024356
      ],
      [
        "ĠGreen",
        -10.221777283289642
      ],
      [
        "ĠTechnology",
        -10.222331534997435
      ],
      [
        "ĠWhere",
        -10.222340949472503
      ],
      [
        "Ġminimize",
        -10.222992550846117
      ],
      [
        "Ġsharp",
        -10.223767256224312
      ],
      [
        "Ġprofessor",
        -10.22379497558345
      ],
      [
        "Ġbrush",
        -10.22435858798163
      ],
      [
        "Ġarray",
        -10.224513331852082
      ],
      [
        "Ġmedications",
        -10.22518480345083
      ],
      [
        "ĠSt",
        -10.226016949646745
      ],
      [
        "Ġbiggest",
        -10.22656860794427
      ],
      [
        "Ġstability",
        -10.226939919764906
      ],
      [
        "Ġdiagnosis",
        -10.22723020030118
      ],
      [
        "Ġitem",
        -10.227958079037908
      ],
      [
        "Ġcommand",
        -10.228427627197611
      ],
      [
        "Ġsustainability",
        -10.228566483570113
      ],
      [
        "ĠSea",
        -10.229377137542004
      ],
      [
        "q",
        -10.230064214354384
      ],
      [
        "Ġbiology",
        -10.231266556112368
      ],
      [
        "Ġcommitment",
        -10.232028442839589
      ],
      [
        "Ġformat",
        -10.23286181444503
      ],
      [
        "Ġbreast",
        -10.23307791249581
      ],
      [
        "Ġvariable",
        -10.234580110067592
      ],
      [
        "ĠLearning",
        -10.23461945405828
      ],
      [
        "Ġincreasingly",
        -10.23500516905336
      ],
      [
        "Ġconvert",
        -10.235041715762254
      ],
      [
        "Ġdiscovery",
        -10.23545426918567
      ],
      [
        "Ġrecipe",
        -10.235513529608028
      ],
      [
        "Ġexchange",
        -10.235631131885398
      ],
      [
        "Ġtrained",
        -10.235866026436293
      ],
      [
        "He",
        -10.236338887976888
      ],
      [
        "ĠFlorida",
        -10.237143764489137
      ],
      [
        "Ġspaces",
        -10.237329772830508
      ],
      [
        "Ġrace",
        -10.237625198510791
      ],
      [
        ".[",
        -10.23792615138116
      ],
      [
        "Ġexciting",
        -10.238262897765258
      ],
      [
        "Ġcompetition",
        -10.238539061189057
      ],
      [
        "not",
        -10.238559457925392
      ],
      [
        "Ġdriver",
        -10.239238284111783
      ],
      [
        "Ġdetection",
        -10.23985205245255
      ],
      [
        "Ġcompleted",
        -10.24042885130222
      ],
      [
        "Ġworse",
        -10.2410299740226
      ],
      [
        "Ġoperate",
        -10.241053875946244
      ],
      [
        "Ġdelicious",
        -10.241222008052578
      ],
      [
        "Ġsuffer",
        -10.241419116611604
      ],
      [
        "Ġbottle",
        -10.241707010133483
      ],
      [
        "Ġdespite",
        -10.242339009685775
      ],
      [
        "Ġoven",
        -10.24246937190586
      ],
      [
        "Ġconnections",
        -10.244038323432182
      ],
      [
        "Ġbroad",
        -10.244232636474203
      ],
      [
        "Ġflying",
        -10.244461876198438
      ],
      [
        "Ġbuildings",
        -10.244733339618554
      ],
      [
        "Ġindustries",
        -10.245181416471748
      ],
      [
        "Ġconventional",
        -10.245278582410126
      ],
      [
        "Ġdedicated",
        -10.245422107679046
      ],
      [
        "Ġbelieved",
        -10.24577934088347
      ],
      [
        "Ġcapabilities",
        -10.24596379414521
      ],
      [
        "ĠProgram",
        -10.24694307414546
      ],
      [
        "Ġsubstances",
        -10.247067733399795
      ],
      [
        "ĠControl",
        -10.24714272230064
      ],
      [
        "Share",
        -10.247325092624848
      ],
      [
        "Ġdiscussed",
        -10.247397772213128
      ],
      [
        "Ġfriendly",
        -10.248215306667197
      ],
      [
        "Ġnose",
        -10.24834278241472
      ],
      [
        "Ġobtain",
        -10.248496659855194
      ],
      [
        "Ġwish",
        -10.248897281706324
      ],
      [
        "Ġhistorical",
        -10.24988338309394
      ],
      [
        "Ġregulations",
        -10.25000595718965
      ],
      [
        "Ġequation",
        -10.250544371663109
      ],
      [
        "Ġcharacters",
        -10.250550817247074
      ],
      [
        "Ġclothes",
        -10.25070107300027
      ],
      [
        "Ġdrinking",
        -10.250766746669065
      ],
      [
        "Ġexplained",
        -10.251267923365914
      ],
      [
        "Ġinsurance",
        -10.251911462621358
      ],
      [
        "Ġexploring",
        -10.252210633162846
      ],
      [
        "Ġsuccessfully",
        -10.252401844482728
      ],
      [
        "Ġseeking",
        -10.252457217091312
      ],
      [
        "Ġtip",
        -10.252796677878909
      ],
      [
        "Ġemotions",
        -10.253103073354284
      ],
      [
        "Ġgave",
        -10.25361320065428
      ],
      [
        "Those",
        -10.254464581229175
      ],
      [
        "like",
        -10.255634633264584
      ],
      [
        "Ġlessons",
        -10.255676450055692
      ],
      [
        "Ġmeasurement",
        -10.255935964766586
      ],
      [
        "Ġemployees",
        -10.25595990178892
      ],
      [
        "Ġreduces",
        -10.256226995483836
      ],
      [
        "Ġagricultural",
        -10.256975527914122
      ],
      [
        "Ġinformed",
        -10.25835363315658
      ],
      [
        "Ġlibrary",
        -10.259064928236867
      ],
      [
        "Ġpreferences",
        -10.259290189636207
      ],
      [
        "Ġexperiments",
        -10.25945268981591
      ],
      [
        "-on",
        -10.261165630878867
      ],
      [
        "Ġthreat",
        -10.261178565202009
      ],
      [
        "Ġinteract",
        -10.261210253488372
      ],
      [
        "Ġconfidence",
        -10.261890390316498
      ],
      [
        "Ġmembrane",
        -10.26306203286146
      ],
      [
        "Ġconsumers",
        -10.263084723421445
      ],
      [
        "Ġdiagram",
        -10.263881547629817
      ],
      [
        "ĠTV",
        -10.26474648942556
      ],
      [
        "Ġmassive",
        -10.265116199948778
      ],
      [
        "Ġreplaced",
        -10.265390330818407
      ],
      [
        "ĠLED",
        -10.265439320191753
      ],
      [
        "Ġoutcomes",
        -10.265528171117705
      ],
      [
        "Ġjournal",
        -10.265863749028984
      ],
      [
        "Ġexplains",
        -10.265909053851482
      ],
      [
        "Ġzone",
        -10.266147747644023
      ],
      [
        "Ġprogramming",
        -10.266208064897386
      ],
      [
        "Ġthoughts",
        -10.266341821471942
      ],
      [
        "Ġcalories",
        -10.269566138217368
      ],
      [
        "Ġnutrient",
        -10.269903359916478
      ],
      [
        "Ġblocks",
        -10.271257356087682
      ],
      [
        "Ġsouth",
        -10.271264975070592
      ],
      [
        "Ġremote",
        -10.272574990668623
      ],
      [
        "Ġpossibly",
        -10.272917081905586
      ],
      [
        "ĠSociety",
        -10.273537961523571
      ],
      [
        "Ġconsequences",
        -10.27417366766969
      ],
      [
        "Ġusage",
        -10.274371952800486
      ],
      [
        "Ġnovel",
        -10.27457262143747
      ],
      [
        "Ġindoor",
        -10.27476184346676
      ],
      [
        "Ġunderlying",
        -10.274962901401032
      ],
      [
        "Ġprocedures",
        -10.275018260223302
      ],
      [
        "Ġspray",
        -10.275608784555848
      ],
      [
        "ĠAssociation",
        -10.27598119342382
      ],
      [
        "ĠAct",
        -10.276011003645362
      ],
      [
        "Ġsurvey",
        -10.276654876509008
      ],
      [
        "Ġmanufacturer",
        -10.276981219947162
      ],
      [
        "Ġcontract",
        -10.27728284002696
      ],
      [
        "Ġmovements",
        -10.27795256208885
      ],
      [
        "Ġrenewable",
        -10.278229422569996
      ],
      [
        "Ġmanual",
        -10.2782365198984
      ],
      [
        "ĠAsia",
        -10.27862292063652
      ],
      [
        "ĠTexas",
        -10.27897139789052
      ],
      [
        "ĠStudents",
        -10.27935582104687
      ],
      [
        "-of",
        -10.279712130978456
      ],
      [
        "Ġillness",
        -10.279927688344976
      ],
      [
        "Ġnotes",
        -10.280807576671684
      ],
      [
        "Ġchannel",
        -10.281148830783696
      ],
      [
        "Ġinvolve",
        -10.281224449908962
      ],
      [
        "U",
        -10.281507697056531
      ],
      [
        "Ġsuit",
        -10.28153347209178
      ],
      [
        "Before",
        -10.281636251085358
      ],
      [
        "Ġguidance",
        -10.281705585878711
      ],
      [
        "ĠGerman",
        -10.281949721318028
      ],
      [
        "Ġconstantly",
        -10.282079806455007
      ],
      [
        "Ġadequate",
        -10.28233817988208
      ],
      [
        "Ġtea",
        -10.283307318742317
      ],
      [
        "Ġelectron",
        -10.283585558448664
      ],
      [
        "Ġnorth",
        -10.28409003117219
      ],
      [
        "Ġimagine",
        -10.284223550383388
      ],
      [
        "Ġdynamic",
        -10.284797168318567
      ],
      [
        "Ġplayed",
        -10.285636098518411
      ],
      [
        "Ġswimming",
        -10.28571295609025
      ],
      [
        "Ġforests",
        -10.28600445338094
      ],
      [
        "ĠEast",
        -10.286155552354762
      ],
      [
        "Ġhandling",
        -10.286665512184817
      ],
      [
        "but",
        -10.28727494278659
      ],
      [
        "ĠWhite",
        -10.28809915148061
      ],
      [
        "Ġmenu",
        -10.288172564467562
      ],
      [
        "Ġacademic",
        -10.288334018125154
      ],
      [
        "ĠGet",
        -10.288419568813072
      ],
      [
        "Ġbread",
        -10.288988925299073
      ],
      [
        "ĠDesign",
        -10.289251692535633
      ],
      [
        "Ġdemonstrate",
        -10.289785876834497
      ],
      [
        "Ġyield",
        -10.2899437156925
      ],
      [
        "Ġadds",
        -10.290206042149425
      ],
      [
        "Ġassess",
        -10.290234542628454
      ],
      [
        "Ġpeak",
        -10.293048286380907
      ],
      [
        "Ġfair",
        -10.293363073905102
      ],
      [
        "Ġstudying",
        -10.294292413667565
      ],
      [
        "Ġwash",
        -10.294723563135095
      ],
      [
        "ĠPower",
        -10.29476573311706
      ],
      [
        "Ġrecorded",
        -10.294777662009272
      ],
      [
        "Ġrobot",
        -10.295040040479217
      ],
      [
        "ĠSan",
        -10.295921464369474
      ],
      [
        "Ġpolitical",
        -10.296962166907328
      ],
      [
        "Ġsession",
        -10.297134613514364
      ],
      [
        "Ġcoal",
        -10.297145897718387
      ],
      [
        "Ġinterface",
        -10.297268277371664
      ],
      [
        "ĠLife",
        -10.297758989578895
      ],
      [
        "Ġdiameter",
        -10.298157178220542
      ],
      [
        "Ġbasically",
        -10.298685835011304
      ],
      [
        "Ġburn",
        -10.299315775229338
      ],
      [
        "ĠService",
        -10.299321184091388
      ],
      [
        "Ġsensors",
        -10.299487733699996
      ],
      [
        "Since",
        -10.299692148672593
      ],
      [
        "Ġstores",
        -10.301168616154106
      ],
      [
        "Ġrocks",
        -10.301691778168708
      ],
      [
        "Ġpanels",
        -10.302041482568756
      ],
      [
        "Ġears",
        -10.30269820580104
      ],
      [
        "Ġvaccine",
        -10.303127121177257
      ],
      [
        "Ġtrigger",
        -10.304409016564854
      ],
      [
        "see",
        -10.304804578532078
      ],
      [
        "Ġrecords",
        -10.305817412979705
      ],
      [
        "Ġmaster",
        -10.305831677139016
      ],
      [
        "Ġcompost",
        -10.30655374976263
      ],
      [
        "Ġcontinued",
        -10.306942546656328
      ],
      [
        "Ġhumidity",
        -10.307378364280838
      ],
      [
        "Ġproposed",
        -10.308005733133154
      ],
      [
        "Ġspeech",
        -10.308450484241884
      ],
      [
        "ĠGuide",
        -10.308667799193378
      ],
      [
        "Ġinnovation",
        -10.30939336804998
      ],
      [
        "ĠPlant",
        -10.30941208570008
      ],
      [
        "Ġlay",
        -10.309536814586798
      ],
      [
        "Ġstructural",
        -10.310738606174729
      ],
      [
        "Ġremaining",
        -10.31074318052638
      ],
      [
        "Ġdelivery",
        -10.310753615760635
      ],
      [
        "Ġwrote",
        -10.310954211585862
      ],
      [
        "Ġmice",
        -10.311075754541244
      ],
      [
        "Ġmechanisms",
        -10.311194281617924
      ],
      [
        "Ġorigin",
        -10.311924422328827
      ],
      [
        "Ġextensive",
        -10.31217583152272
      ],
      [
        "Ġride",
        -10.312428151162973
      ],
      [
        "engaging",
        -10.313119698915314
      ],
      [
        "Ġmining",
        -10.313238565415851
      ],
      [
        "ĠTwo",
        -10.314104912357845
      ],
      [
        "Ġdiffer",
        -10.314367574956147
      ],
      [
        "Ġoral",
        -10.314739719400285
      ],
      [
        "wearing",
        -10.315115120836868
      ],
      [
        "Ġentirely",
        -10.315452047312624
      ],
      [
        "Ġgenome",
        -10.31564995996754
      ],
      [
        "Ġsecondary",
        -10.315964404360328
      ],
      [
        "Ġcoast",
        -10.316106767704644
      ],
      [
        "ĠToday",
        -10.316550055553224
      ],
      [
        "Ġsex",
        -10.31813606845135
      ],
      [
        "Â°C",
        -10.318231463652513
      ],
      [
        "Ġcorn",
        -10.318499212778034
      ],
      [
        "Ġreplacement",
        -10.31948756000572
      ],
      [
        "Ġserver",
        -10.319826228611372
      ],
      [
        "?\"",
        -10.320061452839829
      ],
      [
        "Ġrecycling",
        -10.320218933004162
      ],
      [
        "Ġbreathing",
        -10.320269259933774
      ],
      [
        "ĠTime",
        -10.320477826911285
      ],
      [
        "Ġcities",
        -10.320561036902276
      ],
      [
        "Ġrandom",
        -10.320628255859798
      ],
      [
        "Ġband",
        -10.320653358471295
      ],
      [
        "Ġdecline",
        -10.320777889020349
      ],
      [
        "Ġmyself",
        -10.321034101442866
      ],
      [
        "ĠArt",
        -10.321379913639426
      ],
      [
        "Ġparallel",
        -10.321670353026493
      ],
      [
        "Ġanywhere",
        -10.32227618580024
      ],
      [
        "ĠLook",
        -10.32322275327996
      ],
      [
        "Ġcovers",
        -10.323452149016587
      ],
      [
        "Ġrequest",
        -10.323653420350956
      ],
      [
        "ĠNovember",
        -10.323854378680211
      ],
      [
        "Ġmissing",
        -10.32402084335212
      ],
      [
        "Ġcollect",
        -10.324398913925464
      ],
      [
        "Ġequivalent",
        -10.324975133587673
      ],
      [
        "Ġsector",
        -10.325139224985602
      ],
      [
        "Ġvegetable",
        -10.325879469636732
      ],
      [
        "Ġleg",
        -10.326021695531685
      ],
      [
        "Ġtransportation",
        -10.326347155641388
      ],
      [
        "Using",
        -10.326912350910751
      ],
      [
        "Ġgap",
        -10.327006331635433
      ],
      [
        "Ġmetals",
        -10.327413633397848
      ],
      [
        "Ġstudied",
        -10.327678263085328
      ],
      [
        "Ġhoney",
        -10.32780681074494
      ],
      [
        "Ġpuppy",
        -10.32801152354896
      ],
      [
        "ĠRead",
        -10.32825862697969
      ],
      [
        "Ġhospital",
        -10.328288211231738
      ],
      [
        "Ġcontinuous",
        -10.32859272006785
      ],
      [
        "Ġforget",
        -10.328982407693374
      ],
      [
        "Ġbehaviors",
        -10.329190219745714
      ],
      [
        "Ġblend",
        -10.330400027285208
      ],
      [
        "Ġsport",
        -10.33077173489153
      ],
      [
        "Ġtrends",
        -10.331197541795929
      ],
      [
        "Ġtitle",
        -10.331215055451226
      ],
      [
        "Ġfacilities",
        -10.33138144080679
      ],
      [
        "Ġachieved",
        -10.332137548353252
      ],
      [
        "Ġdebris",
        -10.332292496545016
      ],
      [
        "Ġassume",
        -10.332355217640869
      ],
      [
        "Ġsupporting",
        -10.33236660984982
      ],
      [
        "Ġestablish",
        -10.332690492821566
      ],
      [
        "Ġexcept",
        -10.332915784719155
      ],
      [
        "Ġapplying",
        -10.333025817763351
      ],
      [
        "Ġrights",
        -10.33318338809682
      ],
      [
        "Ġcards",
        -10.333484578992003
      ],
      [
        "Ġimprovement",
        -10.333686141610654
      ],
      [
        "Ġcreativity",
        -10.33377277170096
      ],
      [
        "Ġorange",
        -10.333827068797447
      ],
      [
        "Ġbranches",
        -10.334054073706412
      ],
      [
        "Ġstands",
        -10.336031952975748
      ],
      [
        "Ġgravity",
        -10.337116502523964
      ],
      [
        "Ġstronger",
        -10.337142663565212
      ],
      [
        "Ġinch",
        -10.33750538153261
      ],
      [
        "Ġlisted",
        -10.33773978838105
      ],
      [
        "Ġouter",
        -10.338268072612983
      ],
      [
        "ĠDecember",
        -10.338311449682935
      ],
      [
        "ĠRemember",
        -10.339508312707272
      ],
      [
        "ĠHave",
        -10.340488379821632
      ],
      [
        "Ġaccessible",
        -10.340493052362172
      ],
      [
        "Ġpipe",
        -10.340857721738589
      ],
      [
        "Ġsufficient",
        -10.3408855738953
      ],
      [
        "Ġtruth",
        -10.341132315525636
      ],
      [
        "Ġmilitary",
        -10.34127037402353
      ],
      [
        "Ġhundreds",
        -10.341659964018362
      ],
      [
        "Ġarm",
        -10.342468770789544
      ],
      [
        "Ġdirt",
        -10.34253112843698
      ],
      [
        "Ġthread",
        -10.342689888664836
      ],
      [
        "Ġtrouble",
        -10.342750012714047
      ],
      [
        "Ġextended",
        -10.343515769909224
      ],
      [
        "finally",
        -10.344140044055314
      ],
      [
        "Ġguess",
        -10.344638463429732
      ],
      [
        "Ġstring",
        -10.345258836804629
      ],
      [
        "Ġfarming",
        -10.345568869601182
      ],
      [
        "Ġparameters",
        -10.345691099132203
      ],
      [
        "Ġlenses",
        -10.346594402623474
      ],
      [
        "moved",
        -10.34732852551541
      ],
      [
        "More",
        -10.347492104418038
      ],
      [
        "Ġtropical",
        -10.347828808275562
      ],
      [
        "you",
        -10.34817686707337
      ],
      [
        "Ġvacuum",
        -10.3482072089403
      ],
      [
        "Ġmineral",
        -10.348251478379366
      ],
      [
        "Ġprove",
        -10.349102936949954
      ],
      [
        "Ġmeasurements",
        -10.349311111223004
      ],
      [
        "Ġprotective",
        -10.349340170347991
      ],
      [
        "Ġopinion",
        -10.350808788254918
      ],
      [
        ";Ċ",
        -10.35105327347476
      ],
      [
        "Ġfrequent",
        -10.3519731249752
      ],
      [
        "Not",
        -10.35209374927714
      ],
      [
        "Ġintroduce",
        -10.352107592503485
      ],
      [
        "Ġreflect",
        -10.352916907275176
      ],
      [
        "ĠCare",
        -10.352931202530398
      ],
      [
        "Ġjuice",
        -10.353037391780337
      ],
      [
        "ĠAnother",
        -10.353566203413022
      ],
      [
        "Ġindicates",
        -10.353774562048658
      ],
      [
        "Ġnest",
        -10.354244647520536
      ],
      [
        "Ġlinks",
        -10.354327390459988
      ],
      [
        "Ġbeans",
        -10.354513488224589
      ],
      [
        "ĠEngland",
        -10.354682775914467
      ],
      [
        "Ġgone",
        -10.354700475985275
      ],
      [
        "Ġletter",
        -10.355499985622895
      ],
      [
        "Ġimpossible",
        -10.356222274571795
      ],
      [
        "Ġcognitive",
        -10.356344667492014
      ],
      [
        "Ġfeelings",
        -10.356600518112634
      ],
      [
        "Ġinfected",
        -10.356611215357695
      ],
      [
        "Ġedges",
        -10.35709964552555
      ],
      [
        "Ġloose",
        -10.357760289107574
      ],
      [
        "Ġnetworks",
        -10.358009280599347
      ],
      [
        "Ġsupported",
        -10.358755514416352
      ],
      [
        "Ġspecialized",
        -10.358952259276712
      ],
      [
        "Ġpan",
        -10.359468705250771
      ],
      [
        "Ġvelocity",
        -10.3595614463953
      ],
      [
        "ĠPacific",
        -10.359605362643755
      ],
      [
        "Ġeveryday",
        -10.359628456963524
      ],
      [
        "Ġmeant",
        -10.35995496502008
      ],
      [
        "Ġintroduction",
        -10.360565018130345
      ],
      [
        "Ġsales",
        -10.360906662830244
      ],
      [
        "Ġknowing",
        -10.3615150826904
      ],
      [
        "Ġgardening",
        -10.36259540118744
      ],
      [
        "ĠNature",
        -10.362680710865224
      ],
      [
        "Ġserved",
        -10.362989001541404
      ],
      [
        "Ġminute",
        -10.364231587074508
      ],
      [
        "Ġefficiently",
        -10.364486001122554
      ],
      [
        "Ġcollaboration",
        -10.364509714237204
      ],
      [
        "ĠFoundation",
        -10.364972377199583
      ],
      [
        "Ġruns",
        -10.365072627251465
      ],
      [
        "Ġassistance",
        -10.365486243578191
      ],
      [
        "ĠJapanese",
        -10.366393116217116
      ],
      [
        "Ġwashing",
        -10.366443760058123
      ],
      [
        "Ġdirector",
        -10.367246504961535
      ],
      [
        "Ġclassic",
        -10.367448950751276
      ],
      [
        "Ġsmoke",
        -10.3680032504296
      ],
      [
        "ĠHome",
        -10.368004931728278
      ],
      [
        "Ġrefer",
        -10.368138292473006
      ],
      [
        "ĠThrough",
        -10.36815448238008
      ],
      [
        "Ġprecise",
        -10.368391507585676
      ],
      [
        "~",
        -10.368653751519425
      ],
      [
        "ĠFebruary",
        -10.36872225982949
      ],
      [
        "Ġmeasuring",
        -10.369225976240058
      ],
      [
        "Ġchosen",
        -10.369454098461048
      ],
      [
        "Ġexplanation",
        -10.369577217508835
      ],
      [
        "Ġasking",
        -10.370151576966892
      ],
      [
        "Ġstation",
        -10.371041003348148
      ],
      [
        "Ġpest",
        -10.371259261009246
      ],
      [
        "Ġfemales",
        -10.37133346539423
      ],
      [
        "Ġresolution",
        -10.371427203800367
      ],
      [
        "Ġcalculate",
        -10.371486758032743
      ],
      [
        "Ġbreeds",
        -10.372004056468096
      ],
      [
        "Ġcurve",
        -10.372109635108044
      ],
      [
        "Ġdownload",
        -10.372386184545888
      ],
      [
        "Ġremoval",
        -10.37242362685314
      ],
      [
        "Ġinstruction",
        -10.372492391577577
      ],
      [
        "Ġhappening",
        -10.37263469103879
      ],
      [
        "Ġrealize",
        -10.372901928043412
      ],
      [
        "Ġtaught",
        -10.374572714299608
      ],
      [
        "Ġinterior",
        -10.374660695237628
      ],
      [
        "\"The",
        -10.37526949951101
      ],
      [
        "Ġease",
        -10.37536377625265
      ],
      [
        "Ġpark",
        -10.375809383819847
      ],
      [
        "Ġresponsibility",
        -10.376044424963933
      ],
      [
        "ĠLake",
        -10.376415723516873
      ],
      [
        "Ġfollows",
        -10.376480407892716
      ],
      [
        "Ġcalls",
        -10.376837877862837
      ],
      [
        "Ġexamine",
        -10.377255578600618
      ],
      [
        "Ġcable",
        -10.377385143349215
      ],
      [
        "Ġtissues",
        -10.378680161760888
      ],
      [
        "Ġpartner",
        -10.378746612359258
      ],
      [
        "ĠTHE",
        -10.37888193820618
      ],
      [
        "Ġplus",
        -10.378928647499343
      ],
      [
        "Ġchemistry",
        -10.38003521715749
      ],
      [
        "Ġdeliver",
        -10.380947965183076
      ],
      [
        "Ġwhereas",
        -10.381170511839883
      ],
      [
        "ions",
        -10.381172636704097
      ],
      [
        "Ġobvious",
        -10.38128950282388
      ],
      [
        "Ġsouthern",
        -10.38155137330252
      ],
      [
        "way",
        -10.382093660864433
      ],
      [
        "Ġexpertise",
        -10.3825854235043
      ],
      [
        "Ġfail",
        -10.382655522859803
      ],
      [
        "Ġparty",
        -10.383246934763584
      ],
      [
        "Ġbags",
        -10.383653567126013
      ],
      [
        "Ġveterinarian",
        -10.38371978992194
      ],
      [
        "Ġfan",
        -10.384047702165676
      ],
      [
        "Ġbear",
        -10.384282999993705
      ],
      [
        "Ġdatabase",
        -10.384313638002672
      ],
      [
        "Ġroute",
        -10.38468748025201
      ],
      [
        "Ġindex",
        -10.384765722257171
      ],
      [
        "Ġcomparison",
        -10.385167106289831
      ],
      [
        "be",
        -10.38634098525904
      ],
      [
        "fewer",
        -10.386485039026086
      ],
      [
        "ĠIsland",
        -10.386567630624189
      ],
      [
        "Ġfinished",
        -10.386646640606688
      ],
      [
        "Ġpredict",
        -10.387526980118686
      ],
      [
        "Ġvertical",
        -10.388148953501643
      ],
      [
        "Ġmoves",
        -10.388689831944422
      ],
      [
        "Ġcustom",
        -10.389642486150468
      ],
      [
        "Ġfascinating",
        -10.389718360503208
      ],
      [
        "Ġprinciple",
        -10.390528975169584
      ],
      [
        "Ġmild",
        -10.39118167679941
      ],
      [
        "Ġvitamins",
        -10.391354998435656
      ],
      [
        "During",
        -10.391616058565246
      ],
      [
        "Ġshock",
        -10.39184737089076
      ],
      [
        "Ġinfrastructure",
        -10.392869019482768
      ],
      [
        "Ġcameras",
        -10.39317881301312
      ],
      [
        "Ġpromoting",
        -10.393380168909976
      ],
      [
        "Ġmolecule",
        -10.39363972674906
      ],
      [
        "Ġexercises",
        -10.39372263971881
      ],
      [
        "Ġartists",
        -10.394237605666994
      ],
      [
        "ĠChildren",
        -10.394914368809156
      ],
      [
        "ĠPlease",
        -10.39556015587464
      ],
      [
        "noticed",
        -10.396887342860715
      ],
      [
        "Ġalgorithm",
        -10.397413830847936
      ],
      [
        "Ġconcerned",
        -10.397859130922114
      ],
      [
        "ĠManagement",
        -10.397964250418507
      ],
      [
        "ĠDevelopment",
        -10.39797236699384
      ],
      [
        "ranging",
        -10.398117858556647
      ],
      [
        "Ġcoral",
        -10.398727114067086
      ],
      [
        "Ġsoap",
        -10.399105254442386
      ],
      [
        "Ġalgorithms",
        -10.399290822777145
      ],
      [
        "Ġpackage",
        -10.399476720620235
      ],
      [
        "Ġincorporate",
        -10.40034431611477
      ],
      [
        "Ġauthors",
        -10.400715252786291
      ],
      [
        "Ġlisten",
        -10.400835924187934
      ],
      [
        "safely",
        -10.401369524199582
      ],
      [
        "Ġrecording",
        -10.40178656245975
      ],
      [
        "Ġsitting",
        -10.402035403739935
      ],
      [
        "Ġthanks",
        -10.40215968146289
      ],
      [
        "Ġorgans",
        -10.402294476210294
      ],
      [
        "Ġmeters",
        -10.402747683152718
      ],
      [
        "Ġjobs",
        -10.403664512574904
      ],
      [
        "Ġwonderful",
        -10.403992519587456
      ],
      [
        "Ġcombine",
        -10.404603919218514
      ],
      [
        "Ġparticle",
        -10.404928574104948
      ],
      [
        "Ġaccept",
        -10.4049688553086
      ],
      [
        "Ġstanding",
        -10.40515037236042
      ],
      [
        "ĠData",
        -10.405660966232
      ],
      [
        "Ġmales",
        -10.40568802168768
      ],
      [
        "Ġnorthern",
        -10.405927924151952
      ],
      [
        "Ġmanaging",
        -10.406246352780784
      ],
      [
        "Ġfacts",
        -10.406854109916551
      ],
      [
        "Ġvet",
        -10.407464345172633
      ],
      [
        "ĠNatural",
        -10.407657951164197
      ],
      [
        "Ġbreath",
        -10.407660987070203
      ],
      [
        "ĠAdd",
        -10.40774329307589
      ],
      [
        "Ġhabitats",
        -10.408152665389432
      ],
      [
        "loved",
        -10.40817545366931
      ],
      [
        "ties",
        -10.40824206740295
      ],
      [
        "Ġhousehold",
        -10.40855449669696
      ],
      [
        "Ġultimately",
        -10.408666733458558
      ],
      [
        "Ġmark",
        -10.408807416339824
      ],
      [
        "Ġmanufacturers",
        -10.409028321367137
      ],
      [
        "Ġpredators",
        -10.4092562747799
      ],
      [
        "Other",
        -10.409800809343723
      ],
      [
        "-the",
        -10.410176468676296
      ],
      [
        "Ġshell",
        -10.410995904916811
      ],
      [
        "Ġcomment",
        -10.411137306519226
      ],
      [
        "ÂŃ",
        -10.411150573063944
      ],
      [
        "Ġseat",
        -10.412217127880478
      ],
      [
        "Ġinsulation",
        -10.412562872853638
      ],
      [
        "Ġconsult",
        -10.412622181153292
      ],
      [
        "ĠProject",
        -10.4133750566408
      ],
      [
        "\"I",
        -10.413829108042602
      ],
      [
        "Ġstyles",
        -10.413956093067789
      ],
      [
        "Ġsignificance",
        -10.414116822661825
      ],
      [
        "J",
        -10.414390346050192
      ],
      [
        "Ġdairy",
        -10.414508922983355
      ],
      [
        "Ġlaboratory",
        -10.414518948269714
      ],
      [
        "Ġarticles",
        -10.414671215805072
      ],
      [
        "Ġweak",
        -10.414713150847826
      ],
      [
        "Ġdivided",
        -10.4148041348815
      ],
      [
        "Ġsupplies",
        -10.41487916256768
      ],
      [
        "Ġrecognition",
        -10.41493499567362
      ],
      [
        "Ġdanger",
        -10.41517009501834
      ],
      [
        "Ġtown",
        -10.415371011324543
      ],
      [
        "Ġcharging",
        -10.415480488422302
      ],
      [
        "ĠMexico",
        -10.415543036606888
      ],
      [
        "ĠHistory",
        -10.41618446146104
      ],
      [
        "Ġtire",
        -10.416561540855456
      ],
      [
        "Ġvessels",
        -10.416717174673517
      ],
      [
        "Ġcopy",
        -10.417955640448406
      ],
      [
        "Ġteams",
        -10.41801535685554
      ],
      [
        "ĠMuseum",
        -10.418277883851236
      ],
      [
        "Ġresponses",
        -10.418501055991245
      ],
      [
        "Ġextent",
        -10.42053905873544
      ],
      [
        "Ġwatching",
        -10.42054729942198
      ],
      [
        "Ġwonder",
        -10.420665526718317
      ],
      [
        "Ġhighlight",
        -10.42094185082065
      ],
      [
        "Ġecosystems",
        -10.422743998861757
      ],
      [
        "Ġsymbol",
        -10.4232659948577
      ],
      [
        "Ġperfectly",
        -10.424010646477829
      ],
      [
        "Ġbacterial",
        -10.424116482883704
      ],
      [
        "fairly",
        -10.424619556836763
      ],
      [
        "Ġresistant",
        -10.4248508221509
      ],
      [
        "Ġgut",
        -10.425194122839356
      ],
      [
        "ĠLearn",
        -10.425195075189116
      ],
      [
        "Ġaggressive",
        -10.425218003156951
      ],
      [
        "Ġgardens",
        -10.425635938334588
      ],
      [
        "Ġcourses",
        -10.425966736542
      ],
      [
        "Ġautomatically",
        -10.426956539364063
      ],
      [
        "Ġharder",
        -10.427004481812816
      ],
      [
        "Ġreached",
        -10.427286508739249
      ],
      [
        "Ġdive",
        -10.427333181929152
      ],
      [
        "ĠSee",
        -10.42781746532153
      ],
      [
        "Ġappreciate",
        -10.4285840430021
      ],
      [
        "Ġserving",
        -10.42888113485794
      ],
      [
        "Ġnutritional",
        -10.430516078562915
      ],
      [
        "ĠEvery",
        -10.43132789765767
      ],
      [
        "Ġholding",
        -10.431692328608827
      ],
      [
        "Ġfertilizer",
        -10.432053399642545
      ],
      [
        "Also",
        -10.432155950913158
      ],
      [
        "Ġstars",
        -10.432702864095738
      ],
      [
        "Ġreact",
        -10.433623641948223
      ],
      [
        "Ġwin",
        -10.433777977917064
      ],
      [
        "Ġisland",
        -10.434343820809408
      ],
      [
        "><",
        -10.435404061088246
      ],
      [
        "Â°",
        -10.435575369660654
      ],
      [
        "Ġstroke",
        -10.436008248403468
      ],
      [
        "Ġpossibility",
        -10.436878600125414
      ],
      [
        "ĠConsider",
        -10.436896904272215
      ],
      [
        "Ġnarrow",
        -10.437287977205452
      ],
      [
        "Ġcake",
        -10.437410390501904
      ],
      [
        "Don",
        -10.437420115391337
      ],
      [
        "Ġbrings",
        -10.439715178507392
      ],
      [
        "Ġpolicies",
        -10.440041376487954
      ],
      [
        "Where",
        -10.440146608273272
      ],
      [
        "Ġtransform",
        -10.440430032004
      ],
      [
        "Ġtear",
        -10.440780750068969
      ],
      [
        "Does",
        -10.440803926420571
      ],
      [
        "Ġsyndrome",
        -10.441765131714508
      ],
      [
        "Ġparticipate",
        -10.44207704224362
      ],
      [
        "Ġnecessarily",
        -10.442636907301903
      ],
      [
        "Ġincome",
        -10.442653152852952
      ],
      [
        "Ġcouldn",
        -10.443111713716942
      ],
      [
        "Dr",
        -10.443200457499763
      ],
      [
        "}",
        -10.443425615380818
      ],
      [
        "Ġevaluate",
        -10.444385830195907
      ],
      [
        "Ġeliminate",
        -10.444548202604038
      ],
      [
        "Ġhealing",
        -10.445585558384936
      ],
      [
        "lies",
        -10.445827837907022
      ],
      [
        "Ġyard",
        -10.445969241377384
      ],
      [
        "Ġsupports",
        -10.446050333316084
      ],
      [
        "Ġlogic",
        -10.44605735213116
      ],
      [
        "Ġengines",
        -10.44622038790473
      ],
      [
        "Ġatom",
        -10.446544095967546
      ],
      [
        "Ġconversation",
        -10.447227769801676
      ],
      [
        "ĠAustralian",
        -10.44773942618243
      ],
      [
        "Ġprecision",
        -10.447805496868265
      ],
      [
        "vibrant",
        -10.44829443500385
      ],
      [
        "Ġproductivity",
        -10.448334691433812
      ],
      [
        "Ġviruses",
        -10.44849392397831
      ],
      [
        "New",
        -10.448688610802584
      ],
      [
        "Ġends",
        -10.44884678399831
      ],
      [
        "Ġdefine",
        -10.449043242433596
      ],
      [
        "knew",
        -10.44921164780227
      ],
      [
        "Ġvariation",
        -10.449262092061312
      ],
      [
        "Ġflexible",
        -10.449629977232142
      ],
      [
        "ĠJapan",
        -10.44978828241445
      ],
      [
        "Ġyes",
        -10.44984870787386
      ],
      [
        "Ġaluminum",
        -10.450140776390104
      ],
      [
        "Ġflexibility",
        -10.450453137186749
      ],
      [
        "Ġplatforms",
        -10.4507339410299
      ],
      [
        "Ġimplement",
        -10.451402189489142
      ],
      [
        "Ġmood",
        -10.451833459381453
      ],
      [
        "ĠGood",
        -10.451851517283316
      ],
      [
        "Ġintensity",
        -10.451879115252297
      ],
      [
        "]ĊĊ",
        -10.451924911563726
      ],
      [
        "Ġflavors",
        -10.452246745634422
      ],
      [
        "Ġabsorb",
        -10.452612376205517
      ],
      [
        "Ġloop",
        -10.452973847612338
      ],
      [
        "Ġspectrum",
        -10.45342643683448
      ],
      [
        "Ġjump",
        -10.454584322452664
      ],
      [
        "ĠDog",
        -10.454785709391128
      ],
      [
        "Ġsessions",
        -10.45491671049446
      ],
      [
        "Ġprevention",
        -10.458290133405065
      ],
      [
        "Ġmicro",
        -10.458292811074934
      ],
      [
        "Ġduration",
        -10.458349454211891
      ],
      [
        "Ġclay",
        -10.458533588104912
      ],
      [
        "Ġfunding",
        -10.458871232033012
      ],
      [
        "Ġrecommendations",
        -10.45942676265451
      ],
      [
        "Ġevolved",
        -10.459653310655312
      ],
      [
        "Ġmovie",
        -10.45994383174082
      ],
      [
        "Ġargument",
        -10.460477396772133
      ],
      [
        "ation",
        -10.462332271828382
      ],
      [
        "Because",
        -10.462782562385769
      ],
      [
        "Ġfacing",
        -10.462955295100372
      ],
      [
        "Ġplanted",
        -10.463357182945192
      ],
      [
        "Ġeffectiveness",
        -10.464017369811522
      ],
      [
        "Ġleaders",
        -10.46433053360543
      ],
      [
        "Ġadvance",
        -10.464787236690276
      ],
      [
        "Ġrid",
        -10.464916006655915
      ],
      [
        "Ġindicator",
        -10.465663798568224
      ],
      [
        "Ġhidden",
        -10.465873431105296
      ],
      [
        "Ġpaid",
        -10.466501636622612
      ],
      [
        "Ġfitness",
        -10.466855947527732
      ],
      [
        "Ġhealthier",
        -10.466879831161696
      ],
      [
        "ĠWashington",
        -10.467308194824373
      ],
      [
        "Ġsteam",
        -10.46780621106138
      ],
      [
        "ĠAny",
        -10.468206336740716
      ],
      [
        "Ġselecting",
        -10.468787980921691
      ],
      [
        "Ġgrain",
        -10.46924416079993
      ],
      [
        "caught",
        -10.469569648257222
      ],
      [
        "ĠInternet",
        -10.47030974931444
      ],
      [
        "Ġscore",
        -10.47078991039243
      ],
      [
        "Ġrecipes",
        -10.47107210440349
      ],
      [
        "ĠEnvironmental",
        -10.471088671369392
      ],
      [
        "are",
        -10.47160187045613
      ],
      [
        "Ġnuclear",
        -10.471613435283269
      ],
      [
        "):",
        -10.471948500998227
      ],
      [
        "such",
        -10.472713757626156
      ],
      [
        "Ġcircle",
        -10.473197835890664
      ],
      [
        "Ġantibiotics",
        -10.473334924485735
      ],
      [
        "Ġgrows",
        -10.473345660374012
      ],
      [
        "Ġintegrated",
        -10.475834205871926
      ],
      [
        "Ġescape",
        -10.475993475914793
      ],
      [
        "Ġcoastal",
        -10.476027930303465
      ],
      [
        "Ġcomplicated",
        -10.476120281208283
      ],
      [
        "Ġgiant",
        -10.476301244645002
      ],
      [
        "Ġprofile",
        -10.476609992653824
      ],
      [
        "ĠSometimes",
        -10.476856039141635
      ],
      [
        "era",
        -10.476909175964137
      ],
      [
        "Ġdigestive",
        -10.477076424289134
      ],
      [
        "Which",
        -10.477118807827594
      ],
      [
        "up",
        -10.477415608119982
      ],
      [
        "Ġbehaviour",
        -10.477515448548752
      ],
      [
        "Ġenables",
        -10.47793848789903
      ],
      [
        "Ġburning",
        -10.478012992416296
      ],
      [
        "Ġclients",
        -10.478278218917453
      ],
      [
        "Ġcalm",
        -10.478286482997088
      ],
      [
        "ĠWestern",
        -10.478314620751336
      ],
      [
        "Ġdrought",
        -10.47850876791027
      ],
      [
        "Ġrecognized",
        -10.478851460186348
      ],
      [
        "Ġnervous",
        -10.479758912762575
      ],
      [
        "Ġbank",
        -10.479832325804272
      ],
      [
        "Ġlift",
        -10.48001124678546
      ],
      [
        "Ġbabies",
        -10.480152507297944
      ],
      [
        "ĠGroup",
        -10.48104691425342
      ],
      [
        "Ġartist",
        -10.481402381794137
      ],
      [
[...]
