{
  "version": "1.0",
  "truncation": null,
  "padding": null,
  "added_tokens": [
    {
      "id": 0,
      "content": "<|bos|>",
      "single_word": false,
      "lstrip": false,
      "rstrip": false,
      "normalized": false,
      "special": true
    },
    {
      "id": 1,
      "content": "<|user_start|>",
      "single_word": false,
      "lstrip": false,
      "rstrip": false,
      "normalized": false,
      "special": true
    },
    {
      "id": 2,
      "content": "<|user_end|>",
      "single_word": false,
      "lstrip": false,
      "rstrip": false,
      "normalized": false,
      "special": true
    },
    {
      "id": 3,
      "content": "<|assistant_start|>",
      "single_word": false,
      "lstrip": false,
      "rstrip": false,
      "normalized": false,
      "special": true
    },
    {
      "id": 4,
      "content": "<|assistant_end|>",
      "single_word": false,
      "lstrip": false,
      "rstrip": false,
      "normalized": false,
      "special": true
    },
    {
      "id": 5,
      "content": "<|python_start|>",
      "single_word": false,
      "lstrip": false,
      "rstrip": false,
      "normalized": false,
      "special": true
    },
    {
      "id": 6,
      "content": "<|python_end|>",
      "single_word": false,
      "lstrip": false,
      "rstrip": false,
      "normalized": false,
      "special": true
    },
    {
      "id": 7,
      "content": "<|output_start|>",
      "single_word": false,
      "lstrip": false,
      "rstrip": false,
      "normalized": false,
      "special": true
    },
    {
      "id": 8,
      "content": "<|output_end|>",
      "single_word": false,
      "lstrip": false,
      "rstrip": false,
      "normalized": false,
      "special": true
    },
    {
      "id": 9,
      "content": "<|unk|>",
      "single_word": false,
      "lstrip": false,
      "rstrip": false,
      "normalized": false,
      "special": true
    }
  ],
  "normalizer": null,
  "pre_tokenizer": {
    "type": "Sequence",
    "pretokenizers": [
      {
        "type": "Split",
        "pattern": {
          "Regex": "'(?i:[sdmt]|ll|ve|re)|[^\\r\\n\\p{L}\\p{N}]?+\\p{L}+|\\p{N}{1,2}| ?[^\\s\\p{L}\\p{N}]++[\\r\\n]*|\\s*[\\r\\n]|\\s+(?!\\S)|\\s+"
        },
        "behavior": "Isolated",
        "invert": false
      },
      {
        "type": "ByteLevel",
        "add_prefix_space": false,
        "trim_offsets": true,
        "use_regex": false
      }
    ]
  },
  "post_processor": {
    "type": "TemplateProcessing",
    "single": [
      {
        "Sequence": {
          "id": "A",
          "type_id": 0
        }
      }
    ],
    "pair": [
      {
        "Sequence": {
          "id": "A",
          "type_id": 0
        }
      },
      {
        "Sequence": {
          "id": "B",
          "type_id": 1
        }
      }
    ],
    "special_tokens": {}
  },
  "decoder": {
    "type": "ByteLevel",
    "add_prefix_space": true,
    "trim_offsets": true,
    "use_regex": true
  },
  "model": {
    "type": "Unigram",
    "unk_id": 9,
    "vocab": [
      [
        "<|bos|>",
        -1.0
      ],
      [
        "<|user_start|>",
        -1.0
      ],
      [
        "<|user_end|>",
        -1.0
      ],
      [
        "<|assistant_start|>",
        -1.0
      ],
      [
        "<|assistant_end|>",
        -1.0
      ],
      [
        "<|python_start|>",
        -1.0
      ],
      [
        "<|python_end|>",
        -1.0
      ],
      [
        "<|output_start|>",
        -1.0
      ],
      [
        "<|output_end|>",
        -1.0
      ],
      [
        "<|unk|>",
        -1.0
      ],
      [
        "çļĦèģļä¼ļ",
        -1.0
      ],
      [
        "ï¼Įåıĳ",
        -1.0
      ],
      [
        "ĠVladimir",
        -1.0
      ],
      [
        "ĠWatendakazi",
        -1.0
      ],
      [
        "ĠDOI",
        -1.0
      ],
      [
        "ĠØªØ³ØªÙħØ¹",
        -1.0
      ],
      [
        "Ġniyaz",
        -1.0
      ],
      [
        "ĠÙĪØ§ÙĦÙĥÙĩØ±Ø¨Ø§Ø¡",
        -1.0
      ],
      [
        "ĠÑģÐ¾Ð¿ÑĢÐ¾Ð²Ð¾Ð¶Ð´",
        -1.0
      ],
      [
        "ĠÐ·Ð½Ð°ÐºÐ¾Ð¼ÑĭÐ¼",
        -1.0
      ],
      [
        "Ġà°Ĵà°ļ",
        -1.0
      ],
      [
        "ĠØ§ÙĦÙħØµØ§ÙĦØŃØ©",
        -1.0
      ],
      [
        "ĠØµÙĦØ§ØªÙĬ",
        -1.0
      ],
      [
        "ĠÙĬØªÙĪÙĦÙĪÙĨ",
        -1.0
      ],
      [
        "Yorum",
        -1.0
      ],
      [
        "à¸±à¸ĩà¸§à¸¥à¸§",
        -1.0
      ],
      [
        "Ġvision",
        -1.0
      ],
      [
        "ĠØ´ÙĩØ¯",
        -1.0
      ],
      [
        "à¸´à¸ģà¹ģà¸¥",
        -1.0
      ],
      [
        "WHO",
        -1.0
      ],
      [
        "ĠÙĪÙĤØ³ÙĨØ·ÙĬÙĨØ©",
        -1.0
      ],
      [
        "åĹ¶åĹ¶",
        -1.0
      ],
      [
        "ĠØ§ÙĦØ¹Ø§ÙĦÙħ",
        -1.0
      ],
      [
        "ĠMouvement",
        -1.0
      ],
      [
        "Ġclef",
        -1.0
      ],
      [
        "ĠhÄ±zÄ±",
        -1.0
      ],
      [
        "à¸±à¸ļà¹ģà¸ľà¸Ļ",
        -1.0
      ],
      [
        "è¢«å¸¦åİ»",
        -1.0
      ],
      [
        "à°¿à°¯",
        -1.0
      ],
      [
        "stu",
        -1.0
      ],
      [
        "rahman",
        -1.0
      ],
      [
        "ĠØ§ÙĦØŃÙĤÙĦ",
        -1.0
      ],
      [
        "ĠKurumsal",
        -1.0
      ],
      [
        "åĲĦåľ°",
        -1.0
      ],
      [
        "ĠGAMEINDY",
        -1.0
      ],
      [
        "\"à°ª",
        -1.0
      ],
      [
        "ĠÐ¿Ð¾Ð»Ð½Ð¾ÑĨÐµÐ½Ð½ÑĭÐµ",
        -1.0
      ],
      [
        "ĠÐĲÑĢÐ±ÐµÑĤÐ½Ð¾ÑĤÐ°",
        -1.0
      ],
      [
        "à¸¡à¸Ħà¸§à¸²à¸¡",
        -1.0
      ],
      [
        "ĠÑĢÐµÐ·Ð°ÑĤÑĮ",
        -1.0
      ],
      [
        "æĪĲéĢĻæ¨£",
        -1.0
      ],
      [
        "Ø¤Ø§ÙĨØ³Ø©",
        -1.0
      ],
      [
        "ĠÙĬØ¯Ø®ÙĦÙĪÙĨ",
        -1.0
      ],
      [
        "ĠØ§ÙĦÙĥÙĪÙĨØºØ±Ø³",
        -1.0
      ],
      [
        "ĠØ§ÙĦØ¥ÙĬØ±Ø§ÙĨÙĬÙĬÙĨ",
        -1.0
      ],
      [
        "èī¯èİłä¸įé½Ĳ",
        -1.0
      ],
      [
        "à¹Īà¸§à¸¡à¸ªà¸£",
        -1.0
      ],
      [
        "Ð°Ð²ÑĮÑĤÐµ",
        -1.0
      ],
      [
        "Application",
        -1.0
      ],
      [
        "ĠGobelin",
        -1.0
      ],
      [
        "à¸´à¸Ļà¸²à¸Ĺ",
        -1.0
      ],
      [
        "Ġà¤Ńà¤°à¤¨",
        -1.0
      ],
      [
        "Ġistemeden",
        -1.0
      ],
      [
        "tron",
        -1.0
      ],
      [
        "Ġsporcular",
        -1.0
      ],
      [
        "ĠyapÄ±labilmesi",
        -1.0
      ],
      [
        "ĠrÃ©pÃ©titions",
        -1.0
      ],
      [
        "kaÃ§",
        -1.0
      ],
      [
        "alarÄ±n",
        -1.0
      ],
      [
        "Ġubunifu",
        -1.0
      ],
      [
        "ĠÙ¾ÛĮØ¯Ø§",
        -1.0
      ],
      [
        "à±įà°ķà°²à°¨",
        -1.0
      ],
      [
        "Ġà¤µà¤¶",
        -1.0
      ],
      [
        "Ä°kon",
        -1.0
      ],
      [
        "à¸´à¸łà¸²à¸ŀà¸ģ",
        -1.0
      ],
      [
        "æ¨Ĥ",
        -1.0
      ],
      [
        "ĠÐºÐ¾Ð»Ð»ÐµÐºÑĤÐ¸Ð²",
        -1.0
      ],
      [
        "ĠØŃØ±Ùĥ",
        -1.0
      ],
      [
        "ĠarrÃªtÃ©es",
        -1.0
      ],
      [
        "åİŁçĲĨ",
        -1.0
      ],
      [
        "ĠÙĦÙĦØ³Ø¨Ø§ØŃØ©",
        -1.0
      ],
      [
        "Ġusiokuwa",
        -1.0
      ],
      [
        "ĠØ´Ø±ÙĥØ§Ø¡",
        -1.0
      ],
      [
        "ĠØŃÙĬØ§ØªÙĬ",
        -1.0
      ],
      [
        "ĠÐ°Ð¼Ð½Ð¸ÑģÑĤÐ¸Ð¸",
        -1.0
      ],
      [
        "Standard",
        -1.0
      ],
      [
        "aÅŁÄ±ma",
        -1.0
      ],
      [
        "ĠÐ³Ð½Ð¾",
        -1.0
      ],
      [
        "à¸¢à¸ĩà¸ŀà¸£à¸°",
        -1.0
      ],
      [
        "Ġcareer",
        -1.0
      ],
      [
        "ĠJesus",
        -1.0
      ],
      [
        "Ġrail",
        -1.0
      ],
      [
        "à¸Ļà¹ģà¸ķ",
        -1.0
      ],
      [
        "ÐļÑĥÑħÐ½Ñı",
        -1.0
      ],
      [
        "ĠØ¥ÙĨÙĨÙĬ",
        -1.0
      ],
      [
        "Ġasit",
        -1.0
      ],
      [
        "ĠVile",
        -1.0
      ],
      [
        "ĠÐĺÐ·",
        -1.0
      ],
      [
        "æ»¡èĦ¸",
        -1.0
      ],
      [
        "ØªÙĨÙħÙĬØ©",
        -1.0
      ],
      [
        "ĠÙĪÙĬÙĨÙģÙĤ",
        -1.0
      ],
      [
        "LIÄŀI",
        -1.0
      ],
      [
        "à¹Īà¸ĩà¸Ľà¸¥",
        -1.0
      ],
      [
        "ĠÑĥÑħÐ¼ÑĭÐ»",
        -1.0
      ],
      [
        "Ġencouraging",
        -1.0
      ],
      [
        "Ġrecognition",
        -1.0
      ],
      [
        "Ġregulation",
        -1.0
      ],
      [
        "Ġkaideleri",
        -1.0
      ],
      [
        "ĠØ§ÙĦØŃØ±Ø§Ø³Ø§Øª",
        -1.0
      ],
      [
        "ĠÙĦØ¯Ùī",
        -1.0
      ],
      [
        "à¥ĩà¤Ĥ-",
        -1.0
      ],
      [
        "à¹ģà¸Ħà¸¥à¸Ńà¸£",
        -1.0
      ],
      [
        "ç¼ºåı£",
        -1.0
      ],
      [
        "Ġiliyotoka",
        -1.0
      ],
      [
        "à±ĥà°Ł",
        -1.0
      ],
      [
        "Ġ&",
        -1.0
      ],
      [
        "éł»ç¹ģ",
        -1.0
      ],
      [
        "éĸ±è®Ģ",
        -1.0
      ],
      [
        "Ġà¤ķà¤ª",
        -1.0
      ],
      [
        "èĳĹä»ĸ",
        -1.0
      ],
      [
        "Ġanajificha",
        -1.0
      ],
      [
        "ĠÙĥØ¹Ø§ÙħÙĦ",
        -1.0
      ],
      [
        "Ġovyo",
        -1.0
      ],
      [
        "'H",
        -1.0
      ],
      [
        "ĠrapiÃ¨re",
        -1.0
      ],
      [
        "è´µ",
        -1.0
      ],
      [
        "ĠØªØµ",
        -1.0
      ],
      [
        "ÙģÙĦÙĪÙĨ",
        -1.0
      ],
      [
        "ÙĪØªÙĩØ¯Ùģ",
        -1.0
      ],
      [
        "ĠÃľstÃ¼nlÃ¼k",
        -1.0
      ],
      [
        "ÐľÐµÐ¼Ð¾ÑĢÐ¸Ð°Ð»",
        -1.0
      ],
      [
        "zunguuka",
        -1.0
      ],
      [
        "ĠÐ·Ð°ÑĤÐµÑĢÑıÑĤÑĮÑģÑı",
        -1.0
      ],
      [
        "orta",
        -1.0
      ],
      [
        "Ġtech",
        -1.0
      ],
      [
        "ĠTrading",
        -1.0
      ],
      [
        "ĠÙĨØ®ÙĬÙĦ",
        -1.0
      ],
      [
        "Ġhisseder",
        -1.0
      ],
      [
        "Ġskippers",
        -1.0
      ],
      [
        "ĠØŃØ§ÙģØ¸",
        -1.0
      ],
      [
        "LIABLE",
        -1.0
      ],
      [
        "ĠÐ¶ÐµÐ»Ð°ÑİÑīÐ¸Ð¹",
        -1.0
      ],
      [
        "ĠÑģÐ¼ÐµÑĪÐ°Ð½Ð½ÑĭÐµ",
        -1.0
      ],
      [
        "Ġyama",
        -1.0
      ],
      [
        "ĠÙĪØ³Øª",
        -1.0
      ],
      [
        "ĠRoger",
        -1.0
      ],
      [
        "ĠPhys",
        -1.0
      ],
      [
        "ĠX",
        -1.0
      ],
      [
        "saÃ§",
        -1.0
      ],
      [
        "ĠKorku",
        -1.0
      ],
      [
        "ĠÙĥØŃØ§ÙĦØ©",
        -1.0
      ],
      [
        "âĢĻartiste",
        -1.0
      ],
      [
        "ĠØ¸Ø§ÙĩØ±ÙĩØ§",
        -1.0
      ],
      [
        "Ġmwenzako",
        -1.0
      ],
      [
        "ĠRapid",
        -1.0
      ],
      [
        "ÑĢÐ¾Ð²",
        -1.0
      ],
      [
        "ÐĴÐ¾Ð·",
        -1.0
      ],
      [
        "à¸±à¸ļà¸ģà¸²à¸£à¸ķ",
        -1.0
      ],
      [
        "ĠÙĩØ´Ø§Ø´Ø©",
        -1.0
      ],
      [
        "æĸ¹å¼ı",
        -1.0
      ],
      [
        "Ġwawili",
        -1.0
      ],
      [
        "å¹¼åĦ¿",
        -1.0
      ],
      [
        "à¤Ĥà¤µà¤¹à¤¨",
        -1.0
      ],
      [
        "ÑĦÐ°",
        -1.0
      ],
      [
        "åĽĽæĿ¡",
        -1.0
      ],
      [
        "à¹Īà¸ĩà¹ĥà¸Ī",
        -1.0
      ],
      [
        "å½ĵä½ľ",
        -1.0
      ],
      [
        "å¤§é¼łæ¨¡å¼ı",
        -1.0
      ],
      [
        "ĠÐ¼ÐµÑĢÐ¾Ð¿ÑĢÐ¸ÑıÑĤÐ¸Ð¹",
        -1.0
      ],
      [
        "ĠÐĿÐ¾Ð±ÐµÐ»ÐµÐ²ÑģÐºÐ¸Ð¹",
        -1.0
      ],
      [
        "ĠÙĪÙħÙĨØ²ÙĦ",
        -1.0
      ],
      [
        "ĠØ§ÙĦØªØ³Ø§Ø¨ÙĤ",
        -1.0
      ],
      [
        "ĠÑĥÐ½Ð¸",
        -1.0
      ],
      [
        "éĥ½",
        -1.0
      ],
      [
        "Ġmaddeler",
        -1.0
      ],
      [
        "ĠØ§ÙĦØ£ÙĤØ§Ø±Ø¨",
        -1.0
      ],
      [
        "ä¸ĩä¸Ģ",
        -1.0
      ],
      [
        "ĠÙħØ¹Ø¯ÙĪØ¯ÙĬÙĨ",
        -1.0
      ],
      [
        "Ġwanakutana",
        -1.0
      ],
      [
        "à¸´à¸Ļà¸ļà¸£",
        -1.0
      ],
      [
        "ï¼ĮæĳĦå½±å¸Ī",
        -1.0
      ],
      [
        "Ø¯ÙĪÙĦÙģ",
        -1.0
      ],
      [
        "ĠÙĦÙĦØ£ÙģØ±Ø§Ø¯",
        -1.0
      ],
      [
        "Ġè¨Ń",
        -1.0
      ],
      [
        "ĠÙĬØªØ¬ÙĨØ¨",
        -1.0
      ],
      [
        "Ġunaleta",
        -1.0
      ],
      [
        "ĠØªØ±Ø§Ø¬Ø¹Ø§",
        -1.0
      ],
      [
        "ÙıÙĪØ¸",
        -1.0
      ],
      [
        "HALI",
        -1.0
      ],
      [
        "Ġà¹ĥà¸Ļà¸ģà¸²à¸£à¸Ĺ",
        -1.0
      ],
      [
        "-subscription",
        -1.0
      ],
      [
        "Dolly",
        -1.0
      ],
      [
        "ï¼Įä¸»åĭķ",
        -1.0
      ],
      [
        "æ¹ĬåĪ°å°ĳå¥³èĢ³éĤĬ",
        -1.0
      ],
      [
        "ĠÐ¾Ð¿Ð¾ÑĢ",
        -1.0
      ],
      [
        "ĠØ§ÙĦÙĨÙĬØ§Ø¨ÙĬØ©",
        -1.0
      ],
      [
        "à¸±à¸Ļà¸¡à¸²à¹Ģà¸Ľ",
        -1.0
      ],
      [
        "à±Īà°¹",
        -1.0
      ],
      [
        "æĦ¿æľĽ",
        -1.0
      ],
      [
        "ĠØ³Ø¹ÙĬÙĩÙħ",
        -1.0
      ],
      [
        "å¤ĩæ¡Īåı·",
        -1.0
      ],
      [
        "ĠreprÃ©sentÃ©",
        -1.0
      ],
      [
        "à°°",
        -1.0
      ],
      [
        "à±įà°Łà°¡à°®",
        -1.0
      ],
      [
        "Ġà¹ģà¸¥à¸°à¹Ģà¸ŀ",
        -1.0
      ],
      [
        "à¥Ģ.",
        -1.0
      ],
      [
        "ÐµÑĪ",
        -1.0
      ],
      [
        "ĠØ§ÙĦØ§ÙĪØ±Ø¨ÙĬ",
        -1.0
      ],
      [
        "äº«åıĹçĶŁæ´»",
        -1.0
      ],
      [
        "Ġvacations",
        -1.0
      ],
      [
        "éĢ²åħ¥",
        -1.0
      ],
      [
        "Ġtests",
        -1.0
      ],
      [
        "ĠMyVideo",
        -1.0
      ],
      [
        "ĠØªÙĨØ¹ÙĥØ³",
        -1.0
      ],
      [
        "ĠÐºÑĢÐµÐ´Ð¸ÑĤÐ½ÑĭÐµ",
        -1.0
      ],
      [
        "Ġexceed",
        -1.0
      ],
      [
        "à¹Įà¸Ĭà¸Ļ",
        -1.0
      ],
      [
        "Ġadaleti",
        -1.0
      ],
      [
        "ĠÐºÐ¾Ð¶Ñĥ",
        -1.0
      ],
      [
        "Ġpuissant",
        -1.0
      ],
      [
        "ĠØ§ÙĦØ¨Ø¯ÙĪÙĬ",
        -1.0
      ],
      [
        "ĠØªØ¨Ø¹Ø§Øª",
        -1.0
      ],
      [
        "ä¸ĩç¾İéĩĳ",
        -1.0
      ],
      [
        "ĠÙĬØ¨",
        -1.0
      ],
      [
        "ĠØµÙĪØ¨",
        -1.0
      ],
      [
        "Ġmeydanlara",
        -1.0
      ],
      [
        "ĠØ§ÙħÙĥØ§ÙĨÙĬØ§ØªÙĩ",
        -1.0
      ],
      [
        "à°°à°¨",
        -1.0
      ],
      [
        "ä¸įéģ©åĲĪ",
        -1.0
      ],
      [
        "ĠRani",
        -1.0
      ],
      [
        "ĠDavis",
        -1.0
      ],
      [
        "ĠÙĥØªØ§Ø¨Ùĥ",
        -1.0
      ],
      [
        "ĠØ§ÙĦÙħØ²ÙĬÙģ",
        -1.0
      ],
      [
        "ĠiÅŁvereninde",
        -1.0
      ],
      [
        "ĠÙħØ¹Ø±ÙĥØªÙĩ",
        -1.0
      ],
      [
        "åľ£çģµçļĦ",
        -1.0
      ],
      [
        "Ø§Ø¨ÙĬØ±",
        -1.0
      ],
      [
        "ĠØ§ÙĦØ¹ØµØ¨ÙĬ",
        -1.0
      ],
      [
        "à±Ĩà°µà°²",
        -1.0
      ],
      [
        "Clothes",
        -1.0
      ],
      [
        "çļĦè·¯ä¸Ĭ",
        -1.0
      ],
      [
        "ç©ºèĻĽ",
        -1.0
      ],
      [
        "ĠgÃ¶revinde",
        -1.0
      ],
      [
        "ĠÙģÙĩÙĬØ§",
        -1.0
      ],
      [
        "å¹´åĪ°",
        -1.0
      ],
      [
        "ĠFriend",
        -1.0
      ],
      [
        "à¸¹à¸Ķà¸Ħ",
        -1.0
      ],
      [
        "ĠØ§Ø®ÙĪØ§ÙĨÙĨØ§",
        -1.0
      ],
      [
        "ĠÐ¿Ð»Ð°Ð½Ñĭ",
        -1.0
      ],
      [
        "à¸Ľà¸ĺà¸²à¸Ļ",
        -1.0
      ],
      [
        "æ¬ºè²ł",
        -1.0
      ],
      [
        "ĠØ§ÙĦÙħÙĬÙħ",
        -1.0
      ],
      [
        "ĠÙĨØªÙģÙĤ",
        -1.0
      ],
      [
        "ĠÐ¿Ð¾Ð²ÐµÑĢÐ½ÑĥÐ»Ð¸",
        -1.0
      ],
      [
        "à¸Ĥà¹Ĥà¸¡à¸¢",
        -1.0
      ],
      [
        "Ġkumzuia",
        -1.0
      ],
      [
        "ĠedebiyatÄ±nÄ±n",
        -1.0
      ],
      [
        "âĢĻamphithÃ©Ã¢tre",
        -1.0
      ],
      [
        "Bazen",
        -1.0
      ],
      [
        "éģŃåĪ°",
        -1.0
      ],
      [
        "Ġusing",
        -1.0
      ],
      [
        "Ġtamamlar",
        -1.0
      ],
      [
        "Ġkutishiwa",
        -1.0
      ],
      [
        "ĠbÃ¶lÃ¼n",
        -1.0
      ],
      [
        "Ġopposants",
        -1.0
      ],
      [
        "Ġudogo",
        -1.0
      ],
      [
        "à¸Ńà¹Ģà¸£",
        -1.0
      ],
      [
        "ĠCHU",
        -1.0
      ],
      [
        "à¹Īà¹ĥà¸Ŀ",
        -1.0
      ],
      [
        "å«©çļĦ",
        -1.0
      ],
      [
        ",ÅŁ",
        -1.0
      ],
      [
        "ĠBukoba",
        -1.0
      ],
      [
        "ĠRÃ¶nesans",
        -1.0
      ],
      [
        "ĠÑįÐ¿Ð¾ÑħÐ°",
        -1.0
      ],
      [
        "å¹´ä¹ĭå¾Į",
        -1.0
      ],
      [
        "ĠÐ°ÑĢÐµ",
        -1.0
      ],
      [
        "ĠTactical",
        -1.0
      ],
      [
        "ĠyÄ±llara",
        -1.0
      ],
      [
        "è½°",
        -1.0
      ],
      [
        "Ġåı¸",
        -1.0
      ],
      [
        "|Ø£",
        -1.0
      ],
      [
        "ĠShellExView",
        -1.0
      ],
      [
        "ĠEUR",
        -1.0
      ],
      [
        "ĠØ§ØŃØªØ§Ø±ÙĪØ§",
        -1.0
      ],
      [
        "arka",
        -1.0
      ],
      [
        "ĠÑģÑĢÐ¾ÐºÐµ",
        -1.0
      ],
      [
        "å¸¶åŃĲ",
        -1.0
      ],
      [
        "ĠÙĬØ±Ø³Ùħ",
        -1.0
      ],
      [
        "åİŁåĽłæĺ¯",
        -1.0
      ],
      [
        "ĠÙĪØ£ÙĪÙĦØ§Ø¯Ùĩ",
        -1.0
      ],
      [
        "Ġsheriff",
        -1.0
      ],
      [
        "ĠUHAKIKI",
        -1.0
      ],
      [
        "ĠÐ¿ÑĢÐ¾ÑĩÐ¸ÑĤÐ°Ð»Ð¸",
        -1.0
      ],
      [
        "à¹ĥà¸Ī",
        -1.0
      ],
      [
        "ĠArrÃªter",
        -1.0
      ],
      [
        "merhaba",
        -1.0
      ],
      [
        "Ġinazidi",
        -1.0
      ],
      [
        "Ġkibongo",
        -1.0
      ],
      [
        "Ùı}",
        -1.0
      ],
      [
        "Ġà°īà°¹",
        -1.0
      ],
      [
        "ĠÙĪÙĨÙĪØ§ÙĬØ§Ùĩ",
        -1.0
      ],
      [
        "çłģ",
        -1.0
      ],
      [
        "ĠUl",
        -1.0
      ],
      [
        "'allient",
        -1.0
      ],
      [
        "ä¸ĳ",
        -1.0
      ],
      [
        "Ġyoksulluk",
        -1.0
      ],
      [
        "Ġakishirikiana",
        -1.0
      ],
      [
        "ĠGras",
        -1.0
      ],
      [
        "UnutulmamasÄ±",
        -1.0
      ],
      [
        "Ġà°Ĩ",
        -1.0
      ],
      [
        "ĠØ´Ø±Ø§Ø¡",
        -1.0
      ],
      [
        "à°¿à°ľà°²",
        -1.0
      ],
      [
        "Ġreference",
        -1.0
      ],
      [
        "à¸µà¸Ńà¸³à¸Ļà¸²à¸Ī",
        -1.0
      ],
      [
        "(à°ĩ",
        -1.0
      ],
      [
        "à¹Ģà¸ľà¸²",
        -1.0
      ],
      [
        "à¤ªà¤°à¤®",
        -1.0
      ],
      [
        "hara",
        -1.0
      ],
      [
        "ÙĦÙĪÙĬØ©",
        -1.0
      ],
      [
        "Ġmisali",
        -1.0
      ],
      [
        "ĠÙĦØ±Ø¹Ø§ÙĬØ§",
        -1.0
      ],
      [
        "ijo",
        -1.0
      ],
      [
        "ĠÃ©criture",
        -1.0
      ],
      [
        "ĠØ§ÙĦØ®Ø³Ø§Ø±Ø©",
        -1.0
      ],
      [
        "ç»ĿæľĽ",
        -1.0
      ],
      [
        "ĠAubry",
        -1.0
      ],
      [
        "tuck",
        -1.0
      ],
      [
        "è¶ħè¿ĩ",
        -1.0
      ],
      [
        "ĠÑĤÑĢÐµÐ±",
        -1.0
      ],
      [
        "à¸¸à¸Ħà¸Ħà¸¥à¸¡",
        -1.0
      ],
      [
        "Ġseviyede",
        -1.0
      ],
      [
        "ï¼Įå¼·çĥĪ",
        -1.0
      ],
      [
        "ĠkarÅŁÄ±lÄ±ÄŁÄ±nÄ±",
        -1.0
      ],
      [
        "KiÅŁisel",
        -1.0
      ],
      [
        "çĻ¾å¤§å½±éŁ¿äººçī©",
        -1.0
      ],
      [
        "Ġgaf",
        -1.0
      ],
      [
        "åĪĿ",
        -1.0
      ],
      [
        "ĠUnguja",
        -1.0
      ],
      [
        "ĠbulunmanÄ±z",
        -1.0
      ],
      [
        "ĠKijerumani",
        -1.0
      ],
      [
        "è§ĴèĲ½",
        -1.0
      ],
      [
        "ĠÐ¾Ð¶Ð¸Ð²Ð»ÐµÐ½Ð½ÑĭÐ¹",
        -1.0
      ],
      [
        "ÙĪØ§ÙĦØªÙĬ",
        -1.0
      ],
      [
        "ĠQuelques",
        -1.0
      ],
      [
        "Ġspending",
        -1.0
      ],
      [
        "à¹Īà¹Ĥà¸ķ",
        -1.0
      ],
      [
        "åıĸåĩº",
        -1.0
      ],
      [
        "à±ĥà°µ",
        -1.0
      ],
      [
        "'entrer",
        -1.0
      ],
      [
        "à¸µà¸ķà¸²à¸¡",
        -1.0
      ],
      [
        "ĠyaÅŁadÄ±ktan",
        -1.0
      ],
      [
        "ĠÃ§iÄŁnem",
        -1.0
      ],
      [
        "à¸ĩà¸ĺ",
        -1.0
      ],
      [
        "à¸±à¸ĩà¸Ħà¸£",
        -1.0
      ],
      [
        "ĠÐ¼Ð½Ð¾Ð³Ð¾Ð³Ð¾",
        -1.0
      ],
      [
        "à¹īà¸Ļà¸¥",
        -1.0
      ],
      [
        "à°Ĩà°¦à°°",
        -1.0
      ],
      [
        "ÐŁÐłÐĲÐĴ",
        -1.0
      ],
      [
        "Ġkuvunjiwa",
        -1.0
      ],
      [
        "ĠÐ½Ð°Ð»Ð¾Ð³Ð¾Ð²ÑĭÐµ",
        -1.0
      ],
      [
        "ĠØ¬Ø§ÙĩØ²ÙĬÙĨ",
        -1.0
      ],
      [
        "å¹¶æıĲä¾Ľ",
        -1.0
      ],
      [
        "ï¼Įä¹Łå°±æĺ¯",
        -1.0
      ],
      [
        "ĠÙĦØ£Ø¹ÙħØ§ÙĦ",
        -1.0
      ],
      [
        "ĠaÃ§Ä±kladÄ±lar",
        -1.0
      ],
      [
        "ĠOverBlog",
        -1.0
      ],
      [
        "ÐķÐĻ",
        -1.0
      ],
      [
        "ĠpahasÄ±na",
        -1.0
      ],
      [
        "ĠÐ·Ð°Ð¿Ð»ÐµÑģÑĤÐ¸",
        -1.0
      ],
      [
        "ĠØ§ÙĦÚĨ",
        -1.0
      ],
      [
        "ĠØ£ÙĬ",
        -1.0
      ],
      [
        "Ġmaintenu",
        -1.0
      ],
      [
        "ĠÐµÐ´Ð¸Ð½ÑĥÑİ",
        -1.0
      ],
      [
        "à¸²à¸¡",
        -1.0
      ],
      [
        "à¸¹à¸łà¸²à¸ŀà¹Ĥà¸Ľ",
        -1.0
      ],
      [
        "ĠØ§ÙĦØªØ¬Ø§Ø±Ø¨",
        -1.0
      ],
      [
        "à¸´à¸Ķà¹ģà¸Ĺ",
        -1.0
      ],
      [
        "ÐºÐ»Ð°Ð´ÐºÐ¸",
        -1.0
      ],
      [
        "ĠtaÅŁtan",
        -1.0
      ],
      [
        "à±Ģà°¹",
        -1.0
      ],
      [
        "à¸¸à¸ĩà¹ģà¸ģ",
        -1.0
      ],
      [
        "ĠÐ²ÑĭÐ³Ð»ÑıÐ´Ð¸ÑĤ",
        -1.0
      ],
      [
        "à¥įà¤µà¤¤",
        -1.0
      ],
      [
        "èŃīå¯¦",
        -1.0
      ],
      [
        "dov",
        -1.0
      ],
      [
        "ĠMih",
        -1.0
      ],
      [
        "ĠHasara",
        -1.0
      ],
      [
        "Ø±Ø³Ùĩ",
        -1.0
      ],
      [
        "Ġkuulizwa",
        -1.0
      ],
      [
        "ĠhÄ±zÄ±na",
        -1.0
      ],
      [
        "ĠØ¨ÙĦÙĨØ¯ÙĨ",
        -1.0
      ],
      [
        "ĠØªÙĤØ±ÙĬØ±Ùĩ",
        -1.0
      ],
      [
        "çļĦçī¹çĤ¹",
        -1.0
      ],
      [
        "Ø§ÙĤØ¯ÙĬÙĨ",
        -1.0
      ],
      [
        "à±Įà°¡",
        -1.0
      ],
      [
        "ĠÙģÙĤØªÙĦ",
        -1.0
      ],
      [
        "ĠShawn",
        -1.0
      ],
      [
        "çļĦèįī",
        -1.0
      ],
      [
        "âĢĻempÃªche",
        -1.0
      ],
      [
        "ï¼Įå°ĳå¥³ç«ĭåį³",
        -1.0
      ],
      [
        "ĠcohÃ©rence",
        -1.0
      ],
      [
        "ĠØ´Ø±Ø¨ÙĩØ§",
        -1.0
      ],
      [
        "è«",
        -1.0
      ],
      [
        "ĠsÄ±nÄ±fta",
        -1.0
      ],
      [
        "ĠÐ±Ð¾ÐµÐ²Ð¸ÐºÐ¾Ð²",
        -1.0
      ],
      [
        "ĠÄ±zdÄ±rap",
        -1.0
      ],
      [
        "ĠÃ¼stÃ¼nÃ¼",
        -1.0
      ],
      [
        "ĠØ´Ø§Ø¦ÙĨØ§",
        -1.0
      ],
      [
        "i",
        -1.0
      ],
      [
        "Ġzinafanya",
        -1.0
      ],
      [
        "çľŁçļĦæ²Ĵ",
        -1.0
      ],
      [
        "Ð²ÐµÐ¹",
        -1.0
      ],
      [
        "ĠØ±Ø§Ø¯Ø¹",
        -1.0
      ],
      [
        "!Ċ",
        -1.0
      ],
      [
        "à¤¸à¤¤",
        -1.0
      ],
      [
        "Ġhutuba",
        -1.0
      ],
      [
        "åİ»è¯»",
        -1.0
      ],
      [
        "Ø§ÙĥØ©",
        -1.0
      ],
      [
        "ĠÙħÙĩØ§",
        -1.0
      ],
      [
        "ĠÐ³Ð»Ð°Ð²Ð½ÑĭÐ¹",
        -1.0
      ],
      [
        "à°¿!!Ċ",
        -1.0
      ],
      [
        "ÙĪÙħÙĨÙĩØ§",
        -1.0
      ],
      [
        "Ġmkopo",
        -1.0
      ],
      [
        "ĠÙĪØ§ÙĦØ±Ø³ÙĪÙĦ",
        -1.0
      ],
      [
        "ĠImplementation",
        -1.0
      ],
      [
        "æħĪåĸĦ",
        -1.0
      ],
      [
        "ĠØ¨Ø§ÙĦØŃÙĬÙĪÙĬØ©",
        -1.0
      ],
      [
        "ĠÐ¸Ð½ÑĤÐµÐ³ÑĢÐ°ÑĨÐ¸Ð¸",
        -1.0
      ],
      [
        "ĠÑĤÐ¸Ð¿",
        -1.0
      ],
      [
        "investment",
        -1.0
      ],
      [
        "à¸ĩà¸ģà¸²à¸£à¸Ľà¸£",
        -1.0
      ],
      [
        "Ġmerkezinde",
        -1.0
      ],
      [
        "ĠMdogo",
        -1.0
      ],
      [
        "ÐŀÐ±Ð»",
        -1.0
      ],
      [
        "ĠÐĳÐŀÐĵÐĲ",
        -1.0
      ],
      [
        "-Saint",
        -1.0
      ],
      [
        "à¹Ģà¸Ļ",
        -1.0
      ],
      [
        "èħ¿èĨĿéĹľç¯Ģ",
        -1.0
      ],
      [
        "çĶŁæ¶¯",
        -1.0
      ],
      [
        "ĠÐ¼ÐµÐ½",
        -1.0
      ],
      [
        "ĠØ¯ÙĪØ±ÙĬØ©",
        -1.0
      ],
      [
        "ĠØ®Ø§Ø±ÙĤØ§",
        -1.0
      ],
      [
        "Ġferroportine",
        -1.0
      ],
      [
        "ĠJE",
        -1.0
      ],
      [
        "ĠÙĪØ§ÙĦØ±Ùĥ",
        -1.0
      ],
      [
        "ĠÐ½Ð°Ð³",
        -1.0
      ],
      [
        "ĠPandora",
        -1.0
      ],
      [
        "oky",
        -1.0
      ],
      [
        "baÅŁÄ±",
        -1.0
      ],
      [
        "ĠÐĺÐĺÐ¥Ð¤",
        -1.0
      ],
      [
        "Ø·Ø§Øª",
        -1.0
      ],
      [
        "Ġà¸ŀà¸Ńà¸ģ",
        -1.0
      ],
      [
        "ĠkaÃ§a",
        -1.0
      ],
      [
        "ĠnotlarÄ±",
        -1.0
      ],
      [
        "ĠÐ°ÑģÐ¿ÐµÐºÑĤÐ°",
        -1.0
      ],
      [
        "ĠÐľÐ°Ð³Ð°ÑĢÐ°Ð¼Ð¾Ð²",
        -1.0
      ],
      [
        "ç¯Ģåº¦ä½¿",
        -1.0
      ],
      [
        "ĠØ§Ùĥ",
        -1.0
      ],
      [
        "worshipper",
        -1.0
      ],
      [
        "ç²¾åŃĲéĩıå°ĳ",
        -1.0
      ],
      [
        "Ġbadala",
        -1.0
      ],
      [
        "lings",
        -1.0
      ],
      [
        ".h",
        -1.0
      ],
      [
        "ĠÐ°ÑĤÐ°Ðº",
        -1.0
      ],
      [
        "Cheburaloid",
        -1.0
      ],
      [
        "Ġà¤¦à¤¶",
        -1.0
      ],
      [
        "oxen",
        -1.0
      ],
      [
        "à¹īà¸ªà¸¡",
        -1.0
      ],
      [
        "Ġlandmarks",
        -1.0
      ],
      [
        "ĠØ§ÙĦÙħØ§ÙħÙĬØ±ØªÙĬÙĨ",
        -1.0
      ],
      [
        "à±ĩà°Łà°µ",
        -1.0
      ],
      [
        "ĠØ§ÙĦÙħØ·Ø§ÙĦØ¨ÙĬÙĨ",
        -1.0
      ],
      [
        "ĠÙĦØ·Ø±ØŃ",
        -1.0
      ],
      [
        "Ġwazima",
        -1.0
      ],
      [
        "à¸ļà¸Ļà¸Ľ",
        -1.0
      ],
      [
        "ĠalmalarÄ±",
        -1.0
      ],
      [
        "sheni",
        -1.0
      ],
      [
        "å©´åĦ¿",
        -1.0
      ],
      [
        "Ġiliyotumika",
        -1.0
      ],
      [
        "Ġnothing",
        -1.0
      ],
      [
        "çĳ",
        -1.0
      ],
      [
        "ĠÙĪÙĥØ§Ø³ÙĬØ±ØªØ§",
        -1.0
      ],
      [
        "ĠÙĪØ§ÙĦÙĥØ±Ùħ",
        -1.0
      ],
      [
        "ĠdurumlarÄ±nda",
        -1.0
      ],
      [
        "å¤§å¸«",
        -1.0
      ],
      [
        "Ġfaveur",
        -1.0
      ],
      [
        "ĠÐ¿ÑĢÐ¸ÑħÐ¾Ð¶Ð°Ð½",
        -1.0
      ],
      [
        "Ġkutumbukia",
        -1.0
      ],
      [
        "ĠEmir",
        -1.0
      ],
      [
        "ĠÙħÙĤØ¨Ø±ØªÙĩ",
        -1.0
      ],
      [
        "æ³ģ",
        -1.0
      ],
      [
        "ĠÙĥØ³ÙĪÙģ",
        -1.0
      ],
      [
        "âĢĻopÃ¨re",
        -1.0
      ],
      [
        "hitajia",
        -1.0
      ],
      [
        "å°±ç®Ĺæĺ¯",
        -1.0
      ],
      [
        "à¹Īà¸²à¸Ħà¸Ļà¸Ń",
        -1.0
      ],
      [
        "ä¸Ģå®ļå¾Īä¹ıåĳ³",
        -1.0
      ],
      [
        "à¤¾à¤īà¤¸",
        -1.0
      ],
      [
        "ĠØ§ÙĦØ·ÙħØ«",
        -1.0
      ],
      [
        "ĠÙĦÙĦØ¹Ø¬ÙĪØ²",
        -1.0
      ],
      [
        "ä¸Ģå®¶",
        -1.0
      ],
      [
        ")).Ċ",
        -1.0
      ],
      [
        "ĠgeÃ§miÅŁti",
        -1.0
      ],
      [
        "bÃ¶brek",
        -1.0
      ],
      [
        "Ġà¸ĺà¸Ļ",
        -1.0
      ],
      [
        "åīĩ",
        -1.0
      ],
      [
        "ĠØ§ÙĦØ§ÙĤØµØ§Ø¡",
        -1.0
      ],
      [
        "à¸ļà¸Ļà¹Ĥà¸¥à¸ģ",
        -1.0
      ],
      [
        "-ÙħØ§ÙĩÙĪ",
        -1.0
      ],
      [
        "Ġkaburini",
        -1.0
      ],
      [
        "ĠØ§ÙĦÙħÙĪØ¶ØŃ",
        -1.0
      ],
      [
        "å®¢æĪ·",
        -1.0
      ],
      [
        "à°Ĥà°§à°¨à°²à°¨",
        -1.0
      ],
      [
        "ï¼Įè·¯æĹģ",
        -1.0
      ],
      [
        "ãĢīå¯«",
        -1.0
      ],
      [
        "Jackson",
        -1.0
      ],
      [
        "ĠØ§ÙĦØ¬ÙħØ³Ùī",
        -1.0
      ],
      [
        "laj",
        -1.0
      ],
      [
        "å¹ħçĶ»",
        -1.0
      ],
      [
        "Ø§ÙĦÙħØ³Ø§ÙģØ±ÙĪÙĨ",
        -1.0
      ],
      [
        "æ¸¥çĻ»ä¼¯æł¼åħ¬åĽŃ",
        -1.0
      ],
      [
        "Ġrastla",
        -1.0
      ],
      [
        "çĲĨå·¥",
        -1.0
      ],
      [
        "åįĥ",
        -1.0
      ],
      [
        "ĠHold",
        -1.0
      ],
      [
        "Ø§ÙĬØ¨",
        -1.0
      ],
      [
        "Ø®Ø¨ÙĬØ±",
        -1.0
      ],
      [
        "Ð½Ð¾ÑģÑĤÑĮ",
        -1.0
      ],
      [
        "rent",
        -1.0
      ],
      [
        "ï¼ĮçĦ¶åĲİå°±",
        -1.0
      ],
      [
        "å¤§ä¼ļä¸Ĭ",
        -1.0
      ],
      [
        "Ġeditors",
        -1.0
      ],
      [
        "krishna",
        -1.0
      ],
      [
        "azimwa",
        -1.0
      ],
      [
        "ĠØ¸ÙĨÙĪÙĨ",
        -1.0
      ],
      [
        "ØŃÙĦØ§ÙĦ",
        -1.0
      ],
      [
        "ÐºÐ°Ð½",
        -1.0
      ],
      [
        "ĠØ¨Ø§ÙĦÙħÙĨØµÙĪØ±Ø©",
        -1.0
      ],
      [
        "Õµ",
        -1.0
      ],
      [
        "ï¼Įä¹Łä¸įç®¡",
        -1.0
      ],
      [
        "ĠGetting",
        -1.0
      ],
      [
        "ÑģÐ¸Ð´",
        -1.0
      ],
      [
        "çļĦé»ĳ",
        -1.0
      ],
      [
        ".HiÃ§",
        -1.0
      ],
      [
        "ttÃ¼",
        -1.0
      ],
      [
        "ÐļÑĥÐ»",
        -1.0
      ],
      [
        "ĠØ§ÙĦØªÙĨØ§",
        -1.0
      ],
      [
        "ĠØ´ÙĬÙĪØ¹",
        -1.0
      ],
      [
        "ĠÙħØ¬ÙĦØ©",
        -1.0
      ],
      [
        "âĢĿçļĦç½ĳé¡µä¸Ĭ",
        -1.0
      ],
      [
        "Paris",
        -1.0
      ],
      [
        "ä¸įèĥ½åĨį",
        -1.0
      ],
      [
        "åĴĮæ°Ķ",
        -1.0
      ],
      [
        "ĠTASARIM",
        -1.0
      ],
      [
        "/EN",
        -1.0
      ],
      [
        "Ġquotas",
        -1.0
      ],
      [
        "æ³¨",
        -1.0
      ],
      [
        "ĠSUR",
        -1.0
      ],
      [
        "ĠØ§ÙĦØ¹Ø§Ø´ÙĤ",
        -1.0
      ],
      [
        "ĠÑĤÑĢÐ°ÐºÑĤÐ°",
        -1.0
      ],
      [
        "å¾Īå¤ļ",
        -1.0
      ],
      [
        "LX",
        -1.0
      ],
      [
        "à¹īà¸Ńà¸ªà¸ĩà¸ª",
        -1.0
      ],
      [
        "Ġentrepreneurship",
        -1.0
      ],
      [
        "ĠÙĪØ§ÙĦÙħÙĨØ§Ø¶ÙĦÙĬÙĨ",
        -1.0
      ],
      [
        "à¸«à¸¢",
        -1.0
      ],
      [
        "Ġgrat",
        -1.0
      ],
      [
        "olithique",
        -1.0
      ],
      [
        "ĠÙĪØ§ÙĦÙĤØ±Ø§Ø¡Ø©",
        -1.0
      ],
      [
        "ĠHep",
        -1.0
      ],
      [
        "à¹Īà¸²à¸ĩà¸Ĥà¸²",
        -1.0
      ],
      [
        "à¹īà¸¡à¸²à¸ģà¸¡à¸²à¸¢",
        -1.0
      ],
      [
        "ĠØ¨ØºØ²Ø§Ø±Ø©",
        -1.0
      ],
      [
        "ĠÙĪØ³Ø§Ùħ",
        -1.0
      ],
      [
        "ĠÙħØ³ØªÙĨØ¯Ø§Øª",
        -1.0
      ],
      [
        "ĠAdÄ±",
        -1.0
      ],
      [
        "Ġkufinya",
        -1.0
      ],
      [
        "ĠØ§ÙĦÙĤÙĦÙĤ",
        -1.0
      ],
      [
        "ĠÙĪØªÙĤÙĦÙĬØµ",
        -1.0
      ],
      [
        "Ġkonul",
        -1.0
      ],
      [
        "ĠÐĽÐ¸Ð¿ÐµÑĨÐºÐ¾Ð¹",
        -1.0
      ],
      [
        "ĠÅŁekil",
        -1.0
      ],
      [
        "ĠÐ¡Ð¾ÑĨÐ¸",
        -1.0
      ],
      [
        "PACIFIC",
        -1.0
      ],
      [
        "ĠPerformances",
        -1.0
      ],
      [
        "ÑĥÑĤÐ°",
        -1.0
      ],
      [
        "ĠÙħÙĪØ§Ø¹ÙĬØ¯",
        -1.0
      ],
      [
        "ĠSwawaiq",
        -1.0
      ],
      [
        "Ġnilikuwa",
        -1.0
      ],
      [
        "Ġkuwasaidia",
        -1.0
      ],
      [
        "à¤²à¤¤",
        -1.0
      ],
      [
        "Raymond",
        -1.0
      ],
      [
        "ĠØ£Ø¶Ø¹Ùģ",
        -1.0
      ],
      [
        "à¸ĩà¸«à¸¥à¸²à¸¢à¹Ģà¸¡",
        -1.0
      ],
      [
        "Ġmitindo",
        -1.0
      ],
      [
        "Now",
        -1.0
      ],
      [
        "æľīçº¿çĶµè§Ĩ",
        -1.0
      ],
      [
        "ĠbudgÃ©taire",
        -1.0
      ],
      [
        "ÅŀÄ°",
        -1.0
      ],
      [
        "à¸´à¸ģà¹Ħà¸Ľà¸Ĺ",
        -1.0
      ],
      [
        "iz",
        -1.0
      ],
      [
        "Ġfarz",
        -1.0
      ],
      [
        "Ġtushikamane",
        -1.0
      ],
      [
        "Ġtuvalet",
        -1.0
      ],
      [
        "Ġkufurahia",
        -1.0
      ],
      [
        "ĠÐ½Ð°ÑĪÐ¸Ð¼",
        -1.0
      ],
      [
        "Sababu",
        -1.0
      ],
      [
        "ï¼ĮæķĻ",
        -1.0
      ],
      [
        "à¤¿à¤ıà¤Ł",
        -1.0
      ],
      [
        "æķ¢ä¸įæķ¢",
        -1.0
      ],
      [
        "ĠÙĦÙĦØ§",
        -1.0
      ],
      [
        "à¹Ħà¸£à¸§",
        -1.0
      ],
      [
        "ĠKadÄ±kÃ¶y",
        -1.0
      ],
      [
        "ĠrangÃ©e",
        -1.0
      ],
      [
        "ĠÐ½Ð°ÑĪÐ»Ð¾ÑģÑĮ",
        -1.0
      ],
      [
        "Ġindispensable",
        -1.0
      ],
      [
        "ĠÑĤÑĢÐ°Ð½ÑģÐ¿Ð¾ÑĢÑĤÐ°",
        -1.0
      ],
      [
        "ĠAFFETME",
        -1.0
      ],
      [
        "à¹Īà¸£à¸Ńà¹ĥà¸«",
        -1.0
      ],
      [
        "è¦ıå®ļä¹ĭè¢«ä¿Ŀéļªäºº",
        -1.0
      ],
      [
        "ĠKelt",
        -1.0
      ],
      [
        "à¥ª",
        -1.0
      ],
      [
        "Product",
        -1.0
      ],
      [
        "Ġive",
        -1.0
      ],
      [
        "èµ°äºĨåĩºæĿ¥",
        -1.0
      ],
      [
        "è·ªè¶´çļĦå§¿åĭ¢",
        -1.0
      ],
      [
        "ĠÐ¤Ð¸",
        -1.0
      ],
      [
        "ĠÐĿÐµÐ´",
        -1.0
      ],
      [
        "ĠÑĦÐ»Ð°Ð³Ð¾Ð¼",
        -1.0
      ],
      [
        "à±ĭà°ļà°ķ",
        -1.0
      ],
      [
        "åŃŁåĬłæĭī",
        -1.0
      ],
      [
        "Ġmauti",
        -1.0
      ],
      [
        "ĠÐ²Ð·Ð»Ð¾Ð¼",
        -1.0
      ],
      [
        "à±ĥà°¸",
        -1.0
      ],
      [
        "ĠØ¨ØŃØ³ÙĨ",
        -1.0
      ],
      [
        "ĠRequire",
        -1.0
      ],
      [
        "ĠÐ¾Ð±Ð»Ð°ÑģÑĤÑıÑħ",
        -1.0
      ],
      [
        "Ġharbor",
        -1.0
      ],
      [
        "ĠØ³ÙĬØ±ÙĩØ§",
        -1.0
      ],
      [
        "ĠÙģØªØ§Ø±Ø©",
        -1.0
      ],
      [
        "âĢľé«ĺçº§ä¹ĭåĪĹ",
        -1.0
      ],
      [
        "ĠØ¨ÙħØªØ§Ø¨Ø¹Ø©",
        -1.0
      ],
      [
        "ĠÃ§alan",
        -1.0
      ],
      [
        "ĠØ§ØªØ¬Ø§ÙĩÙĬÙĨ",
        -1.0
      ],
      [
        "ĠÐ¸Ð·Ð»ÐµÑĩ",
        -1.0
      ],
      [
        "Ð¸ÑĤÐ°",
        -1.0
      ],
      [
        "Ġjumped",
        -1.0
      ],
      [
        "ĠØ¨Ø³Ùħ",
        -1.0
      ],
      [
        "ĠØ§ÙĦØ¢Ø®Ø±",
        -1.0
      ],
      [
        "Ø§ÙĬØ§ÙĩØ§",
        -1.0
      ],
      [
        "ĠÙĪÙĨÙģÙĪØ³",
        -1.0
      ],
      [
        "ĠÅŁeklindeki",
        -1.0
      ],
      [
        "Ġtutumie",
        -1.0
      ],
      [
        "Ġkira",
        -1.0
      ],
      [
        "ĠOysa",
        -1.0
      ],
      [
        "ĠÙĪØªØ³ÙħÙĬ",
        -1.0
      ],
      [
        "ĠHence",
        -1.0
      ],
      [
        "ĠØ±Ø§Ø¹",
        -1.0
      ],
      [
        "ĠÙģØ¥ÙĨÙĩÙħ",
        -1.0
      ],
      [
        "Ġà¹Ĥà¸Ĺà¸Ħ",
        -1.0
      ],
      [
        "ĠØ§ÙĦÙĥÙĨØ§Ø¦Ø³",
        -1.0
      ],
      [
        "à¥Ĥà¤Ī",
        -1.0
      ],
      [
        "Ġkoruyarak",
        -1.0
      ],
      [
        "ĠØ§ØŃÛĮØ§ÙĨØ§",
        -1.0
      ],
      [
        "Ġirre",
        -1.0
      ],
      [
        "ĠApart",
        -1.0
      ],
      [
        "Ġpsikolojik",
        -1.0
      ],
      [
        "ĠÙĪÙĨÙĥ",
        -1.0
      ],
      [
        "ĠØªØ´ÙĤÙĤØ§Øª",
        -1.0
      ],
      [
        "ĠCombination",
        -1.0
      ],
      [
        "ĠÙĥØ§ÙĦØµØ¯ÙĤØ©",
        -1.0
      ],
      [
        "çĽ¯",
        -1.0
      ],
      [
        "ĠÐ²ÐºÐ»",
        -1.0
      ],
      [
        "ĠÙĩÙħØ©",
        -1.0
      ],
      [
        "someka",
        -1.0
      ],
      [
        "çģĮè£ħéħĴ",
        -1.0
      ],
      [
        "à¹īà¹ģà¸¢à¸ģ",
        -1.0
      ],
      [
        "ifiye",
        -1.0
      ],
      [
        "à¸¨à¸ķà¸§à¸£à¸£à¸©",
        -1.0
      ],
      [
        "ï¼Įè¨ĺå¾Ĺ",
        -1.0
      ],
      [
        "Ð´Ð¸Ñİ",
        -1.0
      ],
      [
        "à¸Ľà¸£à¸²à¸ģà¸ıà¸Ĥ",
        -1.0
      ],
      [
        "ĠÙħÙĨØªØ¬",
        -1.0
      ],
      [
        "Ġnanofibres",
        -1.0
      ],
      [
        "ĠVAC",
        -1.0
      ],
      [
        "ĠÙĥÙĬÙĦÙĪÙħØªØ±Ø§",
        -1.0
      ],
      [
        "ĠÐ¾ÑĦÐ¸ÑģÐ°",
        -1.0
      ],
      [
        "Ġsey",
        -1.0
      ],
      [
        "æľįçļĦ",
        -1.0
      ],
      [
        "ĠCECAFA",
        -1.0
      ],
      [
        "åı³è¾¹",
        -1.0
      ],
      [
        "ĠYasir",
        -1.0
      ],
      [
        "à¸¸à¹Ī",
        -1.0
      ],
      [
        "Ä°ptal",
        -1.0
      ],
      [
        "ĠÐ´Ð¸ÐºÐ¸Ð¹",
        -1.0
      ],
      [
        "EQ",
        -1.0
      ],
      [
        "Ġà°°à°ļà°¨à°ķ",
        -1.0
      ],
      [
        "ĠHimalaya",
        -1.0
      ],
      [
        "åĨįæľī",
        -1.0
      ],
      [
        "ĠSPORTS",
        -1.0
      ],
      [
        "ĠØ§Ø²ÙĪØ§Ø¬ÙĩÙĨ",
        -1.0
      ],
      [
        "Ġmajukwaa",
        -1.0
      ],
      [
        "ĠÑĦÑĢÐ°Ð½ÐºÐ¾ÑĦÐ¾Ð½Ð¾Ð²",
        -1.0
      ],
      [
        "ĠCarnival",
        -1.0
      ],
      [
        "ç¨®ç¨®",
        -1.0
      ],
      [
        "ĠÙĪÙĦØ§",
        -1.0
      ],
      [
        "à¸±à¸ĩà¸ģà¸¤à¸©à¸ķ",
        -1.0
      ],
      [
        "Ġhandled",
        -1.0
      ],
      [
        "Coffee",
        -1.0
      ],
      [
        "ĠyapÄ±nÄ±z",
        -1.0
      ],
      [
        "ĠØªØ¤Ø®Ø°",
        -1.0
      ],
      [
        "ĠÙĦÙĦØ¹Ø¯Ø¯",
        -1.0
      ],
      [
        "ï¼Įåı£äº¤",
        -1.0
      ],
      [
        "Ġanaou",
        -1.0
      ],
      [
        "'A",
        -1.0
      ],
      [
        "çīł",
        -1.0
      ],
      [
        "å°ıèªª",
        -1.0
      ],
      [
        "çļĦå¥³äºº",
        -1.0
      ],
      [
        "à¸¸à¸Ķà¸ļà¸ģà¸ŀà¸£",
        -1.0
      ],
      [
        "çļĦåĨħåŃĺå®¹éĩı",
        -1.0
      ],
      [
        "à¹īà¸²à¸¡à¸Ĥ",
        -1.0
      ],
      [
        "ĠÐŃÐ»Ð²Ð¸Ñģ",
        -1.0
      ],
      [
        "ĠÙĬØ®Ø³Ø±",
        -1.0
      ],
      [
        "ĠSÃ¶zleÅŁme",
        -1.0
      ],
      [
        "Ġvictory",
        -1.0
      ],
      [
        "à¸±à¸Ĵà¸Ļà¸²à¹Ģà¸Ľ",
        -1.0
      ],
      [
        "ĠElazÄ±ÄŁ",
        -1.0
      ],
      [
        "orama",
        -1.0
      ],
      [
        "ĠfotoÄŁraflarÄ±nÄ±",
        -1.0
      ],
      [
        "æ¡ĲéĦīå¸Ĥ",
        -1.0
      ],
      [
        "à¸Īà¸²à¸ģà¸Ĭ",
        -1.0
      ],
      [
        "Ø´Ø·ÙĬÙĨ",
        -1.0
      ],
      [
        "ĠØºÙģÙĦØ©",
        -1.0
      ],
      [
        "Ġngali",
        -1.0
      ],
      [
        "ĠÐ³Ð¾ÑģÑĤÐµÐ²Ð¾Ð¹",
        -1.0
      ],
      [
        "Ġimpaired",
        -1.0
      ],
      [
        "Ġcareers",
        -1.0
      ],
      [
        "Ġlaisser",
        -1.0
      ],
      [
        "Ġâĸº",
        -1.0
      ],
      [
        "ĠØ³ÙĬØ§Ø¯ØªÙĥÙħ",
        -1.0
      ],
      [
        "ĠÙĪØ§Ø¹ÙĬØª",
        -1.0
      ],
      [
        "à¸¸à¸ĳà¸²à¸¡à¸²à¸¨",
        -1.0
      ],
      [
        "à¹īà¸Ľà¸ı",
        -1.0
      ],
      [
        "_",
        -1.0
      ],
      [
        "ĠÙĬØŃÙĪÙĬ",
        -1.0
      ],
      [
        "à±įà°¯à°Łà°®",
        -1.0
      ],
      [
        "åĲ³éĽ²éĽĢ",
        -1.0
      ],
      [
        "à¸´à¹Ģà¸©à¸ģ",
        -1.0
      ],
      [
        "bunu",
        -1.0
      ],
      [
        "Ġsubit",
        -1.0
      ],
      [
        "Mango",
        -1.0
      ],
      [
        "Ġinakadiriwa",
        -1.0
      ],
      [
        "à°¾à°Łà°ªà°Ł",
        -1.0
      ],
      [
        "Ġcolocalisation",
        -1.0
      ],
      [
        "ĠÐĴÐ¾Ð·ÑĮÐ¼Ð¸ÑĤÐµ",
        -1.0
      ],
      [
        "ĠØ´ÙĤÙĦØ§ÙĪØ§",
        -1.0
      ],
      [
        "ĠÐ¡ÑĢ",
        -1.0
      ],
      [
        "ÙħØ³Ø§Ø¨ÙĤØ©",
        -1.0
      ],
      [
        "ĠKuna",
        -1.0
      ],
      [
        "à°¨à°Ł",
        -1.0
      ],
      [
        "ĠÃ§alÄ±ÅŁacaÄŁÄ±z",
        -1.0
      ],
      [
        "ĠapprÃ©ciable",
        -1.0
      ],
      [
        "sormais",
        -1.0
      ],
      [
        "Ġsaatler",
        -1.0
      ],
      [
        "æī¾åĪ°äºĨ",
        -1.0
      ],
      [
        "ĠHighway",
        -1.0
      ],
      [
        "à¸µà¸Ħà¸ĵà¸°",
        -1.0
      ],
      [
        "ĠSadrists",
        -1.0
      ],
      [
        "ĠØ§ÙĦØ´ÙĪØ·",
        -1.0
      ],
      [
        "Ġwab",
        -1.0
      ],
      [
        "Ġwangeli",
        -1.0
      ],
      [
        "ĠÐ£Ð·Ð±ÐµÐºÐ¸ÑģÑĤÐ°Ð½Ðµ",
        -1.0
      ],
      [
        "ĠÙħÙĤØ§Ø±Ø¨Ø©",
        -1.0
      ],
      [
        "ĠÐ¿ÑĢÐ¸ÐºÐ»ÑİÑĩÐµÐ½Ð¸Ñı",
        -1.0
      ],
      [
        "(ÙħÙĨ",
        -1.0
      ],
      [
        "ĠÙĪØ§ÙĦØªØ¹Ø¨",
        -1.0
      ],
      [
        "ä¿Ŀéļªåħ¬åı¸æĪĸ",
        -1.0
      ],
      [
        "ĠdÃ¼kkanlar",
        -1.0
      ],
      [
        "à¸·à¸Ńà¸ģà¸²à¸£à¹ĥà¸Ĭ",
        -1.0
      ],
      [
        "ĠÐ±Ð°ÐºÑĤÐµÑĢÐ¸Ð¹",
        -1.0
      ],
      [
        "à¹Īà¸²à¸Ļà¹Ģà¸Ńà¸ĩ",
        -1.0
      ],
      [
        "ĠÑģÐ¾Ð¾Ð±ÑīÐ¸Ð»Ð¾",
        -1.0
      ],
      [
        "è¯´å¤¸å¤§çļĦè¯Ŀ",
        -1.0
      ],
      [
        "ĠtamamÄ±ndan",
        -1.0
      ],
      [
        "ĠÐ¼Ð°ÑıÐºÐ°",
        -1.0
      ],
      [
        "Ġcas",
        -1.0
      ],
      [
        "ĠØ³Ø¨ØªÙħØ¨Ø±",
        -1.0
      ],
      [
        "ĠÐ±ÑĭÑģÑĤÑĢÐµÐµ",
        -1.0
      ],
      [
        "ĠØªÙĨØ·ÙĦÙĬ",
        -1.0
      ],
      [
        "ĠÙĬØ¤Øª",
        -1.0
      ],
      [
        "åŃĺåħ¨",
        -1.0
      ],
      [
        "ĠÑģÐµÐºÑĤÐµ",
        -1.0
      ],
      [
        "ĠÐŃÐ¼Ð¸Ð»Ð¸",
        -1.0
      ],
      [
        "ä¾Ŀæ³ķ",
        -1.0
      ],
      [
        "ĠØ§ÙĦØ±ÙĪÙħØ§ÙĨ",
        -1.0
      ],
      [
        "ĠØ±ÙĪØ§Ø³Ø¨",
        -1.0
      ],
      [
        "èĨ£éģĵéĩĮ",
        -1.0
      ],
      [
        "Alhamdu",
        -1.0
      ],
      [
        "ĠÑĪÐ°Ð³Ð¸",
        -1.0
      ],
      [
        "ĠØ³ÙĬØ¨Ø±ÙĬØ§",
        -1.0
      ],
      [
        ".Tuttum",
        -1.0
      ],
      [
        "ĠØ§ÙĦÙħØ±Øª",
        -1.0
      ],
      [
        "DEM",
        -1.0
      ],
      [
        "Ġsuspendu",
        -1.0
      ],
      [
        "à¹ĩà¸Ļà¹Ģà¸ŀà¸¥à¸ĩà¸ŀ",
        -1.0
      ],
      [
        "ÙĤØµØ±",
        -1.0
      ],
      [
        "ĠØ§ÙĦØ«Ø±ÙĬ",
        -1.0
      ],
      [
        "ulÃ©",
        -1.0
      ],
      [
        "Ġfi",
        -1.0
      ],
      [
        "ĠMajanga",
        -1.0
      ],
      [
        "ĠØ§ÙĦØªÙĪÙĥÙĦ",
        -1.0
      ],
      [
        ".conf",
        -1.0
      ],
      [
        "ĠAmiru",
        -1.0
      ],
      [
        "Ġà¸Ńà¸ĩà¸ģ",
        -1.0
      ],
      [
        "ĠØ®Ø´Ø¨Ø©",
        -1.0
      ],
      [
        "Ġkorint",
        -1.0
      ],
      [
        "ĠÙĦØ¹Ø¨Ùĩ",
        -1.0
      ],
      [
        "ĠinkarcÄ±",
        -1.0
      ],
      [
        "Ġvolleyball",
        -1.0
      ],
      [
        "\":",
        -1.0
      ],
      [
        "Ġdefnedil",
        -1.0
      ],
      [
        "à¹Ĥà¸Ķà¸¢à¹ĥà¸Ĭ",
        -1.0
      ],
      [
        "ĠaccusÃ©",
        -1.0
      ],
      [
        "ĠÙĪØ§ÙĦÙĪØ²ÙĬØ±",
        -1.0
      ],
      [
        "ĠdÃ©livrÃ©",
        -1.0
      ],
      [
        "Ġrecyclable",
        -1.0
      ],
      [
        "ĠÐ²Ð¾Ð¿Ð¸",
        -1.0
      ],
      [
        "Ġmbinguni",
        -1.0
      ],
      [
        "ĠØ§ÙĦÙĥÙĨØ¹Ø§ÙĨÙĬ",
        -1.0
      ],
      [
        "ĠÐºÐ¾Ð½Ð´Ð¸ÑĨÐ¸Ð¾Ð½ÐµÑĢ",
        -1.0
      ],
      [
        "âĢĿ,âĢľ",
        -1.0
      ],
      [
        "Ġà¸Ĵ",
        -1.0
      ],
      [
        "iced",
        -1.0
      ],
      [
        "ĠÑĤÑĢÐ°Ð²Ð¼Ð°ÑĤ",
        -1.0
      ],
      [
        "ĠÄ°ÅŀTE",
        -1.0
      ],
      [
        "åĮĸäºĨ",
        -1.0
      ],
      [
        "tahadharisha",
        -1.0
      ],
      [
        "diktatÃ¶r",
        -1.0
      ],
      [
        "à¹ĩà¸Ļà¸£à¸°à¸ļà¸ļ",
        -1.0
      ],
      [
        "åģľä¸ĭäºĨ",
        -1.0
      ],
      [
        "Ġcezalar",
        -1.0
      ],
      [
        "ĠÙĪØªØŃØ¯ÙĬØ¯Ø§",
        -1.0
      ],
      [
        "Ġhabitent",
        -1.0
      ],
      [
        "å®¢åİħ",
        -1.0
      ],
      [
        "ĠÐłÐµÐ½",
        -1.0
      ],
      [
        "à¥ģà¤°à¤®à¤Ī",
        -1.0
      ],
      [
        "ĠkÄ±lÄ±f",
        -1.0
      ],
      [
        "ĠØ§ÙĦØ¨ÙĪØ²Ø¬Ø§ÙĨÙĬ",
        -1.0
      ],
      [
        "ĠØ§ÙĬØ¶Ø§ØŃ",
        -1.0
      ],
      [
        "à¸Ķà¸Ļ",
        -1.0
      ],
      [
        "ĠØ§ÙĦÙħØŃÙĦ",
        -1.0
      ],
      [
        "Ġmsemaji",
        -1.0
      ],
      [
        "pumzi",
        -1.0
      ],
      [
        "ĠÙĪØ§ÙĦØ£Ø±Ø¨Ø·Ø©",
        -1.0
      ],
      [
        "æĦĪ",
        -1.0
      ],
      [
        "ilebilir",
        -1.0
      ],
      [
        "ĠÐ¿ÑĢÐ¸Ð·Ð½Ð°ÐºÐ¸",
        -1.0
      ],
      [
        "ĠØ¨Ø§ÙĪØ±",
        -1.0
      ],
      [
        "à¹Īà¸²à¹Ģà¸ĭ",
        -1.0
      ],
      [
        "åľ¨çĹĩçĬ¶æģ¶åĮĸä¹ĭåīį",
        -1.0
      ],
      [
        "Ġconstantly",
        -1.0
      ],
      [
        "ĠbahÃ§elerde",
        -1.0
      ],
      [
        "ĠØªØŃØ±Ùĥ",
        -1.0
      ],
      [
        "ÐĹÐĲÐļÐĽÐ®Ð§ÐķÐĿÐĺÐķ",
        -1.0
      ],
      [
        "ĠÙĪÙĦØ¨",
        -1.0
      ],
      [
        "Ġwanatu",
        -1.0
      ],
      [
        "ĠÐ·Ð°ÑħÐ»Ð¾Ð¿",
        -1.0
      ],
      [
        "à¹īà¸Ĥà¸²à¸¢",
        -1.0
      ],
      [
        "à¸±à¸Ļà¹Ģà¸¢",
        -1.0
      ],
      [
        "Ð¾Ð±Ð°Ð»Ð´ÐµÐ²ÑĪÐµÐ¼Ñĥ",
        -1.0
      ],
      [
        "åİ»éĻ¤",
        -1.0
      ],
      [
        "ĠdeÄŁere",
        -1.0
      ],
      [
        "ĠVanessa",
        -1.0
      ],
      [
        "ä¸²éĢ£ä¸Ģ",
        -1.0
      ],
      [
        "ĠÑĥÐ´Ð¸Ð²Ð¸Ð»Ð¸",
        -1.0
      ],
      [
        "VÃ¼cudun",
        -1.0
      ],
      [
        "à¸Ńà¹Ģà¸¥",
        -1.0
      ],
      [
        "à¸¡à¸¥à¸Ķà¹Ģà¸ª",
        -1.0
      ],
      [
        "Ġparagraf",
        -1.0
      ],
      [
        "à¸ĩà¸«à¸¡à¸Ķà¸ĸ",
        -1.0
      ],
      [
        "ĠLogitech",
        -1.0
      ],
      [
        "Ø³Ø§Ø¹Ø¯",
        -1.0
      ],
      [
        "ĠÙħØªÙĥØ±Ø±",
        -1.0
      ],
      [
        "ĠSÃ¼reya",
        -1.0
      ],
      [
        "à¹Īà¸§à¸Ļà¹ĥà¸Ļ",
        -1.0
      ],
      [
        "Ä±ldÄ±ÄŁÄ±",
        -1.0
      ],
      [
        "ĠguÃ©ri",
        -1.0
      ],
      [
        "ĠØ§ÙĦÙħØ±Ø§ÙĥØ¨",
        -1.0
      ],
      [
        "æķ´åĲĪ",
        -1.0
      ],
      [
        "ĠShikamaneni",
        -1.0
      ],
      [
        "ĠÐ»Ð¸ÑĩÐ½Ð¾Ð¼Ñĥ",
        -1.0
      ],
      [
        "Ġstand",
        -1.0
      ],
      [
        "Ġjukumu",
        -1.0
      ],
      [
        "à¤¾à¤µà¤¶",
        -1.0
      ],
      [
        "à¹ĥà¸Ļà¸§à¸ĩà¸ģà¸§",
        -1.0
      ],
      [
        "à¸¹à¸įà¸īà¸ļ",
        -1.0
      ],
      [
        "å¹«åĬ©ç²¾åŃĲæĽ´",
        -1.0
      ],
      [
        "ĠbasladÄ±m",
        -1.0
      ],
      [
        "å°ĳå¥³åı£ä¸Ń",
        -1.0
      ],
      [
        "ĠØ«Ø±ÙĪØ©",
        -1.0
      ],
      [
        ".à°İà°¨",
        -1.0
      ],
      [
        "-Tirmidhi",
        -1.0
      ],
      [
        "Dar",
        -1.0
      ],
      [
        "ĠPier",
        -1.0
      ],
      [
        "ĠMgimwa",
        -1.0
      ],
      [
        "ÙĬØªÙĥÙĪÙĨ",
        -1.0
      ],
      [
        "Ġparagraph",
        -1.0
      ],
      [
        "ĠhaksÄ±z",
        -1.0
      ],
      [
        "ĠÐ¿Ð¸ÑģÐµÐ¼",
        -1.0
      ],
      [
        "ĠØªØªØ¯",
        -1.0
      ],
      [
        "ĠsÃ¶v",
        -1.0
      ],
      [
        "ĠÙģØ§ÙĦÙĤØªÙĦ",
        -1.0
      ],
      [
        "ç¤¾ä¼ļå®īåħ¨",
        -1.0
      ],
      [
        "ĠÐºÑĥÐ»ÑĮÑĤÑĥÑĢÐ½Ð¾",
        -1.0
      ],
      [
        "Ġcooler",
        -1.0
      ],
      [
        "Ġmahfili",
        -1.0
      ],
      [
        "ĠDOS",
        -1.0
      ],
      [
        "Ġalipowa",
        -1.0
      ],
      [
        "à¸´à¸¡à¸«",
        -1.0
      ],
      [
        "gÄ±mÄ±",
        -1.0
      ],
      [
        "Ġizinden",
        -1.0
      ],
      [
        "ÙĪØ§ÙĦÙĬÙĪÙħ",
        -1.0
      ],
      [
        "à¹Ĭà¸Īà¸°à¸Īà¸°",
        -1.0
      ],
      [
        "ĠØ§ÙĦØ³ÙħØ¨ÙĪØ³Ùĥ",
        -1.0
      ],
      [
        "ĠÐ³Ð¾ÑĢÐ¾Ð´ÑģÐºÐ¾Ð¹",
        -1.0
      ],
      [
        "ĠÐ¡ÐµÐ½",
        -1.0
      ],
      [
        "Ġà¸ľà¸¡à¸£",
        -1.0
      ],
      [
        "ĠÙĪØ§ÙĦÙĨØµØ§Ø¦ØŃ",
        -1.0
      ],
      [
        "à¸´à¸łà¸²à¸ŀà¹ĥà¸Ļà¸Ń",
        -1.0
      ],
      [
        "Ġadhimu",
        -1.0
      ],
      [
        "Takanoé£İæĻ¯è§ĦåĪĴ",
        -1.0
      ],
      [
        "Ġkeder",
        -1.0
      ],
      [
        "ĠØ§ÙĦÙħÙĨÙĤØ·Ø¹",
        -1.0
      ],
      [
        "ÙģØ§Ø¹ØªØ°Ø±Øª",
        -1.0
      ],
      [
        "à¸Ħà¸ĵà¸°à¸Ń",
        -1.0
      ],
      [
        "ÐºÑĨÐ¸Ñı",
        -1.0
      ],
      [
        "Ġufukara",
        -1.0
      ],
      [
        "Ġproprietary",
        -1.0
      ],
      [
        "à¸±à¸ĩà¹Ħà¸ĩ",
        -1.0
      ],
      [
        "dho",
        -1.0
      ],
      [
        "Ġarchery",
        -1.0
      ],
      [
        "Ġà¸ĺà¸£à¸£à¸¡à¸Ķà¸²",
        -1.0
      ],
      [
        "à¹īà¸²à¸Ļà¸ķà¸£à¸ĩà¸Ĥ",
        -1.0
      ],
      [
        "Âµcwiki",
        -1.0
      ],
      [
        "âĢĻaliments",
        -1.0
      ],
      [
        "èĪīæĿ¯",
        -1.0
      ],
      [
        "ĠHayyan",
        -1.0
      ],
      [
        "Ġlikawa",
        -1.0
      ],
      [
        "ĠconsultÃ©es",
        -1.0
      ],
      [
        "ĠØ§Ø¹ØªÙħØ§Ø¯Ø§",
        -1.0
      ],
      [
        "ĠÐŁÐµÑĤÐµÑĢÐ±ÑĥÑĢÐ³",
        -1.0
      ],
      [
        "Ġquartet",
        -1.0
      ],
      [
        "ä¸Ĭä¸ĭæĸĩ",
        -1.0
      ],
      [
        "ĠÙĪØ§ÙĦÙĤÙĦÙĤ",
        -1.0
      ],
      [
        "Ġkudunisha",
        -1.0
      ],
      [
        "ĠØ§ÙĦÙĤÙĨØ§Ø¹Ø©",
        -1.0
      ],
      [
        "åĳ¼å£°",
        -1.0
      ],
      [
        "ĠJuifs",
        -1.0
      ],
      [
        "ĠBuy",
        -1.0
      ],
      [
        "à¸°à¸ĺ",
        -1.0
      ],
      [
        "ĠSandal",
        -1.0
      ],
      [
        "Ġwazungu",
        -1.0
      ],
      [
        "ĠÐĺÑģÑħÐ¾Ð´Ñı",
        -1.0
      ],
      [
        "ĠyerleÅŁmiÅŁ",
        -1.0
      ],
      [
        "Ġemege",
        -1.0
      ],
      [
        "ĠØ£ØŃØ¯Ø§",
        -1.0
      ],
      [
        "çļĦéªĹåŃĲæıĲéĨĴ",
        -1.0
      ],
      [
        "æ³¢å£«é¡¿",
        -1.0
      ],
      [
        "à¹Įà¹Ģà¸«à¸Ļ",
        -1.0
      ],
      [
        "Ġantivirus",
        -1.0
      ],
      [
        "tica",
        -1.0
      ],
      [
        "à¥įà¤®à¤Ń",
        -1.0
      ],
      [
        "Ġmabasi",
        -1.0
      ],
      [
        "ĠrÃ©el",
        -1.0
      ],
      [
        ".à¸¢",
        -1.0
      ],
      [
        "ĠBro",
        -1.0
      ],
      [
        "ĠÙĪØ§Ø³Ø¹Ø©",
        -1.0
      ],
      [
        "ĠØ¨Ø£Ø³Ø¹Ø§Ø±",
        -1.0
      ],
      [
        "ĠÙĪØ§ÙĦÙĪÙģØ§Ø¡",
        -1.0
      ],
      [
        "ĠØ¥ÙĬØ¯ÙĬÙĨØ¬ØªÙĬÙĨ",
        -1.0
      ],
      [
        "ĠÙĦÙĦØ¬Ø¯ÙĦ",
        -1.0
      ],
      [
        "LT",
        -1.0
      ],
      [
        "Ġmizuri",
        -1.0
      ],
      [
        "åĳĨäºĨ",
        -1.0
      ],
      [
        "ĠÙĪØ¹Ø±Ø¶ÙĩØ§",
        -1.0
      ],
      [
        "à°¿à°¤à°°à°£",
        -1.0
      ],
      [
        "ĠØ¬Ø§ÙĨ",
        -1.0
      ],
      [
        "ĠØ£Ø¨Ø¹Ø§Ø¯",
        -1.0
      ],
      [
        "ĠtestÃ©",
        -1.0
      ],
      [
        "ĠØŃØªÙĬ",
        -1.0
      ],
      [
        "ĠÐ¿Ð°Ð²Ð¾Ð´ÐºÐ°",
        -1.0
      ],
      [
        "à°¾à°§",
        -1.0
      ],
      [
        "Ġkuhusishwa",
        -1.0
      ],
      [
        "ĠKiafrika",
        -1.0
      ],
      [
        "Alleghany",
        -1.0
      ],
      [
        "é¤ĬèĢģ",
        -1.0
      ],
      [
        "Ġspontan",
        -1.0
      ],
      [
        "ĠCharacter",
        -1.0
      ],
      [
        "å¹²éĥ¨",
        -1.0
      ],
      [
        "Ġkufika",
        -1.0
      ],
      [
        "Ġdaraja",
        -1.0
      ],
      [
        "hambulio",
        -1.0
      ],
      [
        "Ġlies",
        -1.0
      ],
      [
        "ĠÐ¿Ð¾ÐºÐ°Ð·ÑĭÐ²Ð°Ð»Ð¸",
        -1.0
      ],
      [
        "ĠPacific",
        -1.0
      ],
      [
        "à¸£à¸§à¸¡à¹Ħà¸Ľà¸ĸ",
        -1.0
      ],
      [
        "Ø¹Ø´",
        -1.0
      ],
      [
        "'excellence",
        -1.0
      ],
      [
        "KITI",
        -1.0
      ],
      [
        "Ġà¹ĥà¸Ļà¸Ńà¸ĩà¸Ħ",
        -1.0
      ],
      [
        "à¸Ħà¸§à¸£à¸Ħ",
        -1.0
      ],
      [
        "ç²¾å½©",
        -1.0
      ],
      [
        "Ġpeindre",
        -1.0
      ],
      [
        "Previous",
        -1.0
      ],
      [
        "âĢľå¿«ä¹Ĳ",
        -1.0
      ],
      [
        "Ġodnoklassniki",
        -1.0
      ],
      [
        "Ġtropical",
        -1.0
      ],
      [
        "LARI",
        -1.0
      ],
      [
        "çīĩæ®µ",
        -1.0
      ],
      [
        "é¢Ħæµĭä¸ĭä¸Ģåľº",
        -1.0
      ],
      [
        "wezi",
        -1.0
      ],
      [
        "åĭĥæ´Ľåħĭ",
        -1.0
      ],
      [
        "ĠbinanÄ±n",
        -1.0
      ],
      [
        "ĠØŃÙĥÙĬÙħØ©",
        -1.0
      ],
      [
        "ĠÐ°Ð±ÑģÑĥÑĢÐ´",
        -1.0
      ],
      [
        "ĠÑģÑĤÑĢÐ¾ÑĩÐºÐ¸",
        -1.0
      ],
      [
        "ĠÐ¡Ð±Ð¾ÑĢ",
        -1.0
      ],
      [
        "ĠØ±Ø¨ÙĬØ¹Ø©",
        -1.0
      ],
      [
        "Ġentertain",
        -1.0
      ],
      [
        "ĠÙĪÙħÙĦÙģØ§Øª",
        -1.0
      ],
      [
        "ĠÑĤÑĢÑĥÐ´Ð½Ð¾ÑģÑĤÑıÐ¼Ð¸",
        -1.0
      ],
      [
        "åĲ§æª¯",
        -1.0
      ],
      [
        "ĠustasÄ±",
        -1.0
      ],
      [
        "æľªä¾ĨçļĦ",
        -1.0
      ],
      [
        "èĢĮéĿŀ",
        -1.0
      ],
      [
        "Ġclasse",
        -1.0
      ],
      [
        "Ġzilizokuwa",
        -1.0
      ],
      [
        "éĽ¶äºĮæ°§åĮĸç¢³æİĴæĶ¾",
        -1.0
      ],
      [
        "Mie",
        -1.0
      ],
      [
        "Ġkiongozi",
        -1.0
      ],
      [
        "ĠÐ¿Ð¾Ð¸ÑģÐºÐ¾Ð²",
        -1.0
      ],
      [
        "à°¾à°§à°ªà°¡",
        -1.0
      ],
      [
        "SUR",
        -1.0
      ],
      [
        "ĠÃ§alÄ±ÅŁÄ±n",
        -1.0
      ],
      [
        "à¥ĩà¤Łà¤ķ",
        -1.0
      ],
      [
        "à¹Īà¸ªà¸¡",
        -1.0
      ],
      [
        "éĺ²çĽĹ",
        -1.0
      ],
      [
        "ĠKÃ¶yÃ¼",
        -1.0
      ],
      [
        "æµģå¤±",
        -1.0
      ],
      [
        "è·Ŀç¦»Fridhemsplan",
        -1.0
      ],
      [
        "erres",
        -1.0
      ],
      [
        "Mbinu",
        -1.0
      ],
      [
        "ĠØ§ÙĦØ£Ø¨ÙĨØ§Ø¡",
        -1.0
      ],
      [
        "Ø¹ÙĦÙĪØ§",
        -1.0
      ],
      [
        "\"à°®",
        -1.0
      ],
      [
        "GBS",
        -1.0
      ],
      [
        "Ø§ÙĦØ´Ø¹Ø¨",
        -1.0
      ],
      [
        "ĠÐ®ÑĢÐ¸Ð¹",
        -1.0
      ],
      [
        "ĠÐľÐ°Ð½",
        -1.0
      ],
      [
        "æĤħè±ªç²¾åĵģæĹħé¤¨",
        -1.0
      ],
      [
        "liness",
        -1.0
      ],
      [
        "ĠREO",
        -1.0
      ],
      [
        "Ġbainifu",
        -1.0
      ],
      [
        "Ġdisa",
        -1.0
      ],
      [
        "XOXO",
        -1.0
      ],
      [
        "ĠÑĤÑĥÑĢ",
        -1.0
      ],
      [
        "à±įà°¤à°µ",
        -1.0
      ],
      [
        "à¸´à¸¡à¸ķ",
        -1.0
      ],
      [
        "ĠÙģØªØ¹",
        -1.0
      ],
      [
        "ØŃÙĦÙħÙĬ",
        -1.0
      ],
      [
        "tilmiÅŁ",
        -1.0
      ],
      [
        "Ġsehpa",
        -1.0
      ],
      [
        "Ġäºĭ",
        -1.0
      ],
      [
        "Ġlung",
        -1.0
      ],
      [
        "Ġkuume",
        -1.0
      ],
      [
        "ÑĦÐ¾ÑĢÐ¼",
        -1.0
      ],
      [
        "Ġcabellos",
        -1.0
      ],
      [
        "ĠaÃ§Ä±klamÄ±ÅŁtÄ±r",
        -1.0
      ],
      [
        "ĠÙħØ¦Ø©",
        -1.0
      ],
      [
        "cons",
        -1.0
      ],
      [
        "ĠØ§ÙĦØ´ÙĪØ§Ø±Ø¹",
        -1.0
      ],
      [
        "ĠÃ¼retimin",
        -1.0
      ],
      [
        "ĠEntertainment",
        -1.0
      ],
      [
        "ĠIRB",
        -1.0
      ],
      [
        "ĠÐºÐ¾Ð½ÐºÑĢÐµÑĤÐ½Ð¾Ðµ",
        -1.0
      ],
      [
        "Ġchimbuko",
        -1.0
      ],
      [
        "ĠÐ²ÐºÐ»ÑİÑĩÐµÐ½Ð°",
        -1.0
      ],
      [
        "åĵĪåĵĪ",
        -1.0
      ],
      [
        "ĠdÃ©finies",
        -1.0
      ],
      [
        "æĥ³è¦ģéģ¿éĸĭ",
        -1.0
      ],
      [
        "ĠATL",
        -1.0
      ],
      [
        "æĭ±",
        -1.0
      ],
      [
        "ĠWanyamapori",
        -1.0
      ],
      [
        "HastalarÄ±n",
        -1.0
      ],
      [
        "Ġvia",
        -1.0
      ],
      [
        "ä½£äººä½ıçļĦ",
        -1.0
      ],
      [
        "æľ¬éĢ±",
        -1.0
      ],
      [
        "èªĩ",
        -1.0
      ],
      [
        "âĢĻÃ©toffe",
        -1.0
      ],
      [
        "ĠÙĪØ§ÙĦÙģÙĪØ±Ø§ÙĨ",
        -1.0
      ],
      [
        "Ġmgao",
        -1.0
      ],
      [
        "ĠâĢ¢",
        -1.0
      ],
      [
        "à¹ĩà¸Ļà¹Ģà¸¢",
        -1.0
      ],
      [
        "ĠÙĪØ§ÙĦØ£Ø´Ø®Ø§Øµ",
        -1.0
      ],
      [
        "ĠÑĤÑİÐ½",
        -1.0
      ],
      [
        "Ġanatarajia",
        -1.0
      ],
      [
        "uming",
        -1.0
      ],
      [
        "Yesterday",
        -1.0
      ],
      [
        "ela",
        -1.0
      ],
      [
        "éĢŁéĻįèħ³è¸ıè»Ĭ",
        -1.0
      ],
      [
        "ãĢĤè¯¥",
        -1.0
      ],
      [
        "à¸µà¸Ĩ",
        -1.0
      ],
      [
        "à¹Ģà¸ªà¹Ģà¸ŀà¸¥",
        -1.0
      ],
      [
        "hmi",
        -1.0
      ],
      [
        "Ġnitric",
        -1.0
      ],
      [
        "à±įà°§à°Ń",
        -1.0
      ],
      [
        "ĠsanÄ±lmaktadÄ±r",
        -1.0
      ],
      [
        "ĠkatÄ±lan",
        -1.0
      ],
      [
        "à¤¸à¤¬à¤¸",
        -1.0
      ],
      [
        "Ġassurons",
        -1.0
      ],
      [
        "Ġà¹Ĥà¸Ĭà¸Ħà¸Ķ",
        -1.0
      ],
      [
        "ĠkapsadÄ±ÄŁÄ±",
        -1.0
      ],
      [
        "ĠÐºÐ¾Ð»Ð»ÐµÐ´Ð¶",
        -1.0
      ],
      [
        "ÑĬÑıÑĢ",
        -1.0
      ],
      [
        "Ġkisichozidi",
        -1.0
      ],
      [
        "æĽ´ä½³",
        -1.0
      ],
      [
        "ĠÙĪØ¥Ø¨Ø¯Ø§Ø¡",
        -1.0
      ],
      [
        "æĸ¤è£ħçļĦ",
        -1.0
      ],
      [
        "à¸´à¸§à¹Ģà¸Ļ",
        -1.0
      ],
      [
        "ĠÐ½Ð°ÑģÑĤÐ°Ð»",
        -1.0
      ],
      [
        "ĠKate",
        -1.0
      ],
      [
        "åĲ«æĦı",
        -1.0
      ],
      [
        "ĠÐºÐ¾ÑĤ",
        -1.0
      ],
      [
        "Ġsuffi",
        -1.0
      ],
      [
        "ÑĢÐµÐ¹",
        -1.0
      ],
      [
        "à¸ŀà¸Īà¸Ļ",
        -1.0
      ],
      [
        "ãĢī",
        -1.0
      ],
      [
        "à¸ģà¹Ģà¸¥à¸¢",
        -1.0
      ],
      [
        "ĠÑģÐ¾ÑģÑĤÐ°ÑĢ",
        -1.0
      ],
      [
        "ĠÑĢÑĥÐºÐ°Ð¼Ð¸",
        -1.0
      ],
      [
        "Ġà°ħà°ķà°¡à°®",
        -1.0
      ],
      [
        "ĠÐ£Ð¸Ð»ÑĮÑıÐ¼Ñģ",
        -1.0
      ],
      [
        "ĠØ§ÙĦÙħØŃØ±ÙħÙĬÙĨ",
        -1.0
      ],
      [
        "Ġmaelezo",
        -1.0
      ],
      [
        "NakÄ±ÅŁ",
        -1.0
      ],
      [
        "å¥¥",
        -1.0
      ],
      [
        "Ð»ÐµÐ¹ÐºÐ¾ÑĨÐ¸ÑĤÐ¾Ð·",
        -1.0
      ],
      [
        "Ġfourteen",
        -1.0
      ],
      [
        "çļĦé£ŀè¡Įè½¨è¿¹",
        -1.0
      ],
      [
        "çļĦéĢ£èº«è£Ļ",
        -1.0
      ],
      [
        "ĠBelir",
        -1.0
      ],
      [
        "Ġkufuatana",
        -1.0
      ],
      [
        "Ġà°®à°£",
        -1.0
      ],
      [
        "Ġalipowasili",
        -1.0
      ],
      [
        "ĠStanley",
        -1.0
      ],
      [
        "Ġcopied",
        -1.0
      ],
      [
        "agiza",
        -1.0
      ],
      [
        "ĠÙĪÙĨØµØ±Ø®",
        -1.0
      ],
      [
        "ĠÐ¾Ð±Ð¸Ð»ÑĮÐ½ÑĭÐµ",
        -1.0
      ],
      [
        "à¥ĩà¤¹à¤¨",
        -1.0
      ],
      [
        "kuwa",
        -1.0
      ],
      [
        "ÃĬ",
        -1.0
      ],
      [
        "ĠÑĥÐ±Ð¸Ð»",
        -1.0
      ],
      [
        "Ġhelpless",
        -1.0
      ],
      [
        "ĠØ¨Ø±Ø¨ÙĩÙħ",
        -1.0
      ],
      [
        "ĠÙĪÙĥØ±ÙħÙĩ",
        -1.0
      ],
      [
        "Ġomzuna",
        -1.0
      ],
      [
        "umai",
        -1.0
      ],
      [
        "ongamano",
        -1.0
      ],
      [
        "ĠÙĦØ§ÙĬØ³ÙĦÙħ",
        -1.0
      ],
      [
        "Ġà¸Ļà¸²à¸ĭà¸²à¹Ħà¸Ķ",
        -1.0
      ],
      [
        "Ð´Ñģ",
        -1.0
      ],
      [
        "Ġavocat",
        -1.0
      ],
      [
        "ĠÙĦØ£ÙĨØ«Ùī",
        -1.0
      ],
      [
        "è¡¨æĺİ",
        -1.0
      ],
      [
        "ĠsÃ¶ylÃ¼yorum",
        -1.0
      ],
      [
        "à¤¿à¤ķà¤²à¤ķà¤°",
        -1.0
      ],
      [
        "ĠØŃØ³ÙĨØª",
        -1.0
      ],
      [
        "ç»ĻäºĪè¡ĮæĶ¿å¤ĦåĪĨ",
        -1.0
      ],
      [
        "à±ģà°°à°µ",
        -1.0
      ],
      [
        "ĠÙħÙĦØ²ÙħÙĬÙĨ",
        -1.0
      ],
      [
        "ĠÙĦØ¹Ø¨Ø¯",
        -1.0
      ],
      [
        "è¼ªè»Ĭ",
        -1.0
      ],
      [
        "ĠÙĦÙĦØ£ÙħÙĨ",
        -1.0
      ],
      [
        "Ġavangard",
        -1.0
      ],
      [
        "à¸¹à¹Ģà¸£à¸ķ",
        -1.0
      ],
      [
        "ĠarÄ±yÄ±",
        -1.0
      ],
      [
        "Ø§ÙĤØªØ±Ø§ØŃ",
        -1.0
      ],
      [
        "eleze",
        -1.0
      ],
      [
        "Ġnonobstant",
        -1.0
      ],
      [
        "oplar",
        -1.0
      ],
      [
        "Ġmpenzi",
        -1.0
      ],
      [
        "å¦¥",
        -1.0
      ],
      [
        "å¢ľ",
        -1.0
      ],
      [
        "ĠØ¨Ø§ÙĦØ¬ÙĨØ³",
        -1.0
      ],
      [
        "à¸ģà¸¡",
        -1.0
      ],
      [
        "ĠØ¬ÙĨØ§ØŃÙĬÙĩØ§",
        -1.0
      ],
      [
        "ĠbÃ¶lgelere",
        -1.0
      ],
      [
        "Ġgenerous",
        -1.0
      ],
      [
        "ĠÐ¿ÑĢÐ¾ÑĦÐ¸Ð»ÐµÐ¹",
        -1.0
      ],
      [
        "ĠØ§ÙĦØ¨ÙĦØ¨ÙĬØ³ÙĬ",
        -1.0
      ],
      [
        "æ´Ľæ¡ĳ",
        -1.0
      ],
      [
        "ĠÑģÐ¾Ð¾Ð±ÑīÐ¸Ð¼",
        -1.0
      ],
      [
        "ÙıÙĤ",
        -1.0
      ],
      [
        "æ°¯åĮĸ",
        -1.0
      ],
      [
        "à¹Īà¸²à¸£à¸ĸà¸ĸ",
        -1.0
      ],
      [
        "à°¸à°Ń",
        -1.0
      ],
      [
        "ĠØ±Ø§Ø¯ÙĬÙĪ",
        -1.0
      ],
      [
        "fy",
        -1.0
      ],
      [
        "ÐµÑģ",
        -1.0
      ],
      [
        "ĠÙĪØ§ÙĦÙħÙĦÙĥ",
        -1.0
      ],
      [
        "ĠMayi",
        -1.0
      ],
      [
        "Ġkunguru",
        -1.0
      ],
      [
        "ĠÙĩÙħØ²Ø©",
        -1.0
      ],
      [
        "çļĦç¶ĵæ¿Ł",
        -1.0
      ],
      [
        "ï¼ĮçĽ´",
        -1.0
      ],
      [
        "ĠMajority",
        -1.0
      ],
      [
        "ï¼Įæĺ¯ä½ł",
        -1.0
      ],
      [
        "RI",
        -1.0
      ],
      [
        "ĠprÃ©tend",
        -1.0
      ],
      [
        "ĠyÄ±kÄ±l",
        -1.0
      ],
      [
        "ÐĺÐĺ",
        -1.0
      ],
      [
        "æİ©é£¾",
        -1.0
      ],
      [
        "èĥ¡éĶ¦æ¶Ľ",
        -1.0
      ],
      [
        "ĠÐ¾Ð±ÑīÐµÐ¶Ð¸ÑĤÐ¸Ñı",
        -1.0
      ],
      [
        "à¸´à¸ļà¸Ķ",
        -1.0
      ],
      [
        "à¥įà¤ļ",
        -1.0
      ],
      [
        "Ġautres",
        -1.0
      ],
      [
        "Ð³Ð½Ð°Ð»",
        -1.0
      ],
      [
        "ĠAskeri",
        -1.0
      ],
      [
        "à±ģà°¬à°¯à°Ł",
        -1.0
      ],
      [
        "Ġrebe",
        -1.0
      ],
      [
        "ĠÙĪØ§ÙĦØ§ÙĨØªØµØ§Ø±",
        -1.0
      ],
      [
        "ĠartÄ±rma",
        -1.0
      ],
      [
        "ĠØ«ÙĤØ§ÙģØ§Øª",
        -1.0
      ],
      [
        "shadidi",
        -1.0
      ],
      [
        "ĠÐ±ÑĥÐ´ÑĥÑīÐµÐµ",
        -1.0
      ],
      [
        "à¸·à¸Ļà¸£",
        -1.0
      ],
      [
        "ĠÙħÙħØ±Ø¶Ø©",
        -1.0
      ],
      [
        "ĠÃĩevik",
        -1.0
      ],
      [
        "èĭĽ",
        -1.0
      ],
      [
        "ĠØ¨Ø¯ÙĨÙĬØ©",
        -1.0
      ],
      [
        "Ġseigneur",
        -1.0
      ],
      [
        "ĠØ§ÙĦØªØµÙģÙĬÙĤ",
        -1.0
      ],
      [
        "ĠÑģÑĩÐ°ÑģÑĤÐ»Ð¸Ð²ÑĭÐ¼Ð¸",
        -1.0
      ],
      [
        "Ġkullanan",
        -1.0
      ],
      [
        "ĠmystÃ¨re",
        -1.0
      ],
      [
        "ĠÙģÙĥØ«ÙĬØ±",
        -1.0
      ],
      [
        "à¹ĥà¸Ļà¸ķà¸³à¹ģà¸«à¸Ļ",
        -1.0
      ],
      [
        "ĠÐ¾ÑĤÐºÐ°Ð·Ð°Ð»Ð¸ÑģÑĮ",
        -1.0
      ],
      [
        "TEGEMEA",
        -1.0
      ],
      [
        "à¸¸à¸ĺà¸Ľ",
        -1.0
      ],
      [
        "ÙĢÙĢÙĢÙĢÙĢÙĢÙĢÙĢØ§",
        -1.0
      ],
      [
        "Ð¾Ð²Ð°Ð»Ð°",
        -1.0
      ],
      [
        "ĠEYLESÄ°N",
        -1.0
      ],
      [
        "ox",
        -1.0
      ],
      [
        "ĠolabileceÄŁi",
        -1.0
      ],
      [
        "ĠØ§ÙĦÙħØ«Ø§Ø±Ø©",
        -1.0
      ],
      [
        "Ġnazar",
        -1.0
      ],
      [
        "ĠistiyorsanÄ±z",
        -1.0
      ],
      [
        "Aya",
        -1.0
      ],
      [
        "Ø¶Ø§Ø¡",
        -1.0
      ],
      [
        "ĠihtiÅŁamlÄ±",
        -1.0
      ],
      [
        "ĠØŃØ±ÙħØªÙĩØ§",
        -1.0
      ],
      [
        "ÑīÐ¸ÐºÐ¾Ð²",
        -1.0
      ],
      [
        "ÐłÐ¾Ñģ",
        -1.0
      ],
      [
        "çļĦæķĻèĤ²",
        -1.0
      ],
      [
        "ĠÙĦÙĦØªØºÙĬÙĬØ±",
        -1.0
      ],
      [
        "ï¼Īè´£ä»»ç¼ĸè¾ĳ",
        -1.0
      ],
      [
        "à±įà°£",
        -1.0
      ],
      [
        "éĺ²éĬ¹æĢ§èĥ½",
        -1.0
      ],
      [
        "Ġacceptance",
        -1.0
      ],
      [
        "angamia",
        -1.0
      ],
      [
        "Ġcommonwealth",
        -1.0
      ],
      [
        "ĠMÃ¼zisyenler",
        -1.0
      ],
      [
        "Ġà¸¥à¸ģ",
        -1.0
      ],
      [
        "ĠÐºÐ°ÑĦÐµÐ´ÑĢÑĭ",
        -1.0
      ],
      [
        "é£ŀè¡ĮåĮºçŃīçº§",
        -1.0
      ],
      [
        "ĠÙĬÙĤØªÙĦ",
        -1.0
      ],
      [
        "UyuÅŁturucu",
        -1.0
      ],
      [
        "ĠÑĥÑģÐ»ÑĥÐ³Ð°Ð¼",
        -1.0
      ],
      [
        "ĠÙĪØªØ³Ø®ÙĬØ±",
        -1.0
      ],
      [
        "æĭĸçĿĢä¸Ģå¯¹",
        -1.0
      ],
      [
        "ĠCNS",
        -1.0
      ],
      [
        "Ġanormal",
        -1.0
      ],
      [
        "ä¸ĢçĽ´éĥ½",
        -1.0
      ],
      [
        "Ø¸Ø±Ø©",
        -1.0
      ],
      [
        "ĠÙħØ³ØªÙĤÙĬÙħÙĬÙĨ",
        -1.0
      ],
      [
        "ĠÙħÙģØµÙĦØ©",
        -1.0
      ],
      [
        "à¸±à¸Ļà¸£à¸°à¸«à¸§",
        -1.0
      ],
      [
        "ĠÐŁÐķÐłÐķÐĽÐŀÐľÐĲÐľÐĺ",
        -1.0
      ],
      [
        "æł·",
        -1.0
      ],
      [
        "à¸´à¹ĥà¸Ļà¸ŀ",
        -1.0
      ],
      [
        "ĠArludik",
        -1.0
      ],
      [
        "ĠÐ¿ÑĢÐ¸Ð´Ð°ÐµÑĤ",
        -1.0
      ],
      [
        "ombe",
        -1.0
      ],
      [
        "ĠØ§ÙĦØŃÙħØ±Ø§Ø¡",
        -1.0
      ],
      [
        "CUF",
        -1.0
      ],
      [
        "ĠÃ¶zdeÅŁ",
        -1.0
      ],
      [
        "ĠØ¯ÙĬÙģÙĬ",
        -1.0
      ],
      [
        "éĺ²æĬ¤",
        -1.0
      ],
      [
        "Ġseminar",
        -1.0
      ],
      [
        "ÙĥÙĩØ§ÙĬÙħ",
        -1.0
      ],
      [
        "ĠÃīchos",
        -1.0
      ],
      [
        "content",
        -1.0
      ],
      [
        "ä¸ªå¤´",
        -1.0
      ],
      [
        "ĠÐŃÑĤ",
        -1.0
      ],
      [
        "Ġpink",
        -1.0
      ],
      [
        "ï¼Įä¿º",
        -1.0
      ],
      [
        "ØªØ·ÙĪÙĬØ±",
        -1.0
      ],
      [
        "âĢĻhydrogÃ¨ne",
        -1.0
      ],
      [
        "ĠDocumentation",
        -1.0
      ],
      [
        "à¤¿à¤®à¤¨",
        -1.0
      ],
      [
        "ĠØ§ÙĦÙħÙĬØª",
        -1.0
      ],
      [
        "à¸Ńà¸ķà¸Ńà¸Ļ",
        -1.0
      ],
      [
        "Ġdokta",
        -1.0
      ],
      [
        "ãĢĤä½łåı¯ä»¥",
        -1.0
      ],
      [
        "ĠåŃ¸éĻ¢çļĦ",
        -1.0
      ],
      [
        "Tegal",
        -1.0
      ],
      [
        "Ġcercles",
        -1.0
      ],
      [
        "åĴĮä¹ĻåŀĭèĤĿçĤİ",
        -1.0
      ],
      [
        "ĠSivas",
        -1.0
      ],
      [
        "ĠØ£ØµÙĬØ¨Ø¹Ø©",
        -1.0
      ],
      [
        "ĠÙģÙĦÙĥÙħ",
        -1.0
      ],
      [
        "à¹ĩà¸Ļà¹ĥà¸Ļ",
        -1.0
      ],
      [
        "ĠÐºÐ¾ÑĢÐ½ÐµÐ¿Ð»Ð¾Ð´",
        -1.0
      ],
      [
        "ĠÙĪÙĤÙĬÙħØ©",
        -1.0
      ],
      [
        "ĠÐ¾ÑĤÑĤÐµÐ½ÐºÐ¾Ð²",
        -1.0
      ],
      [
        "è´Łè´£ä»»",
        -1.0
      ],
      [
        "æĻ¯è±¡",
        -1.0
      ],
      [
        "ĠØ§ÙĦØ¹ÙĨØ§ØµØ±",
        -1.0
      ],
      [
        "ĠinÅŁllh",
        -1.0
      ],
      [
        "iver",
        -1.0
      ],
      [
        "ĠØ·Ø§Ø¦ÙĦØ©",
        -1.0
      ],
      [
        "Ġmix",
        -1.0
      ],
      [
        "à¹ģà¸Ķà¸Ļà¸ĭ",
        -1.0
      ],
      [
        "å®¤å¤ĸæ³³æ±ł",
        -1.0
      ],
      [
        "Ġgidiyorduk",
        -1.0
      ],
      [
        "Ġelewa",
        -1.0
      ],
      [
        "åį³æĹ¶",
        -1.0
      ],
      [
        "ĠÙĪØ³Ø·",
        -1.0
      ],
      [
        "Ġkuwalazimisha",
        -1.0
      ],
      [
        "à¸©",
        -1.0
      ],
      [
        "ĠÑĢÐ°Ð·Ð²ÐµÑıÑĤÑĮ",
        -1.0
      ],
      [
        "è¦ģçļĦ",
        -1.0
      ],
      [
        "ĠØ§ÙĦØ§ÙħÙĪØ§ÙĦ",
        -1.0
      ],
      [
        "kubaliki",
        -1.0
      ],
      [
        "æĸ°åŃ¦",
        -1.0
      ],
      [
        "Ġhawajapata",
        -1.0
      ],
      [
        "ĠbaktÄ±ÄŁÄ±mda",
        -1.0
      ],
      [
        "Ġavukat",
        -1.0
      ],
      [
        "å°½æĶ¶çľ¼åºķ",
        -1.0
      ],
      [
        "ĠØŃÙĬØ²",
        -1.0
      ],
      [
        "à¸ļà¸Ļà¸ĸà¸Ļà¸Ļ",
        -1.0
      ],
      [
        "ï¼īæĤ¨çļĦçłĶç©¶",
        -1.0
      ],
      [
        "ĠÐĿÑĥÐ¶Ð½Ð¾",
        -1.0
      ],
      [
        "åĤ³åĩº",
        -1.0
      ],
      [
        "Ġmaddelere",
        -1.0
      ],
      [
        "ĠeÅŁinin",
        -1.0
      ],
      [
        "Ameni",
        -1.0
      ],
      [
        "ç¡ħæĸĻä»·",
        -1.0
      ],
      [
        "à±§",
        -1.0
      ],
      [
        "ĠÙĪÙĤØªÙĥ",
        -1.0
      ],
      [
        "ĠÄ°nsanlara",
        -1.0
      ],
      [
        "åıĥåĬłWOC",
        -1.0
      ],
      [
        "ĠÙħØ¢Ø±Ø¨",
        -1.0
      ],
      [
        "ĠvÃ¼c",
        -1.0
      ],
      [
        "Ġà¤ħà¤µà¤ķ",
        -1.0
      ],
      [
        "æĪĳæĬĬ",
        -1.0
      ],
      [
        "Ġtrends",
        -1.0
      ],
      [
        "ĠIrmaÄŁÄ±",
        -1.0
      ],
      [
        "ĠØ¬Ø³Ø¯ÙĬØ©",
        -1.0
      ],
      [
        "ĠØ§Ø¯Ø¹Ø§Ø¡",
        -1.0
      ],
      [
        "ĠÐĺÐºÑģ",
        -1.0
      ],
      [
        "ĠÙĪØ§Ø³ØªØ±",
        -1.0
      ],
      [
        "Ġsuffisante",
        -1.0
      ],
      [
        "Ġkaunti",
        -1.0
      ],
      [
        "Ġiliyopokelewa",
        -1.0
      ],
      [
        "å¹´åĨħéĿ¢å¸Ĥ",
        -1.0
      ],
      [
        "ÙħØ¹ÙĬÙĨ",
        -1.0
      ],
      [
        "ĠÙħØŃØ³ÙĪØ¨",
        -1.0
      ],
      [
        "ĠÐ¸Ð½ÑĤÑĥÐ¸",
        -1.0
      ],
      [
        "Ġmwitu",
        -1.0
      ],
      [
        "ĠØ¸",
        -1.0
      ],
      [
        "Ġoverly",
        -1.0
      ],
      [
        "Mungu",
        -1.0
      ],
      [
        "åŃ¦éĹ®",
        -1.0
      ],
      [
        "ĠPot",
        -1.0
      ],
      [
        "Ġpasif",
        -1.0
      ],
      [
        "ĠØ´Ø¬Ø¹Øª",
        -1.0
      ],
      [
        "ĠØ§ÙĦØµÙĬÙģÙĬØ©",
        -1.0
      ],
      [
        "ĠÑĥÐ´ÑĢÑĥÑĩ",
        -1.0
      ],
      [
        "çķľç¦½åħ»æ®ĸ",
        -1.0
      ],
      [
        "ĠETC",
        -1.0
      ],
      [
        "ĠGuaranty",
        -1.0
      ],
      [
        "ĠMwigulu",
        -1.0
      ],
      [
        "ĠÙĦÙħÙĤØª",
        -1.0
      ],
      [
        "à¹ĩà¸Ļà¹Ģà¸ŀà¸¥à¸ĩ",
        -1.0
      ],
      [
        "Ġà¤Ĩà¤«",
        -1.0
      ],
      [
        "Ø¨Ø§ØŃ",
        -1.0
      ],
      [
        "Ġoutlined",
        -1.0
      ],
      [
        "osteoporoz",
        -1.0
      ],
      [
        "Ġquestion",
        -1.0
      ],
      [
        "ĠØŃØ¨ÙĬØ¨",
        -1.0
      ],
      [
        "Ð»Ð°Ð¹",
        -1.0
      ],
      [
        "æ½¤",
        -1.0
      ],
      [
        "èĵ¬",
        -1.0
      ],
      [
        "æľĪä¹ĿæĹ¥",
        -1.0
      ],
      [
        "ĠÐ½Ð¾Ð²Ð¾ÑģÑĤÐ¸",
        -1.0
      ],
      [
        "ĠØ§ÙĦÙĦÙĪÙĦØ¨",
        -1.0
      ],
      [
        "Brewer",
        -1.0
      ],
      [
        "ĠolduÄŁumu",
        -1.0
      ],
      [
        "ĠÙħØ´Ø§Ø±ÙĤ",
        -1.0
      ],
      [
        "ĠAgosti",
        -1.0
      ],
      [
        "Choisissez",
        -1.0
      ],
      [
        "éĢļå¸¸åľ¨",
        -1.0
      ],
      [
        "ĠÑĤÑĢÐ°Ð²ÐµÑĢÐ·Ðµ",
        -1.0
      ],
      [
        "Ð¡ÐŁÐķÐļÐ¢",
        -1.0
      ],
      [
        "Ġelectrospun",
        -1.0
      ],
      [
        "Pictures",
        -1.0
      ],
      [
        "ĠÙĪÙĬÙģØª",
        -1.0
      ],
      [
        "ĠMain",
        -1.0
      ],
      [
        "ĠÙĪØ¹Ø¸ÙħØ©",
        -1.0
      ],
      [
        "ĠkremalÄ±",
        -1.0
      ],
      [
        "ÙĩØª",
        -1.0
      ],
      [
        "ĠBajada",
        -1.0
      ],
      [
        "Ġruled",
        -1.0
      ],
      [
        "Ø£Ø±Ø§Ø¯",
        -1.0
      ],
      [
        "Ġfiqhi",
        -1.0
      ],
      [
        "å¥½åĥıä¹Ł",
        -1.0
      ],
      [
        "ĠØ§ÙĦØ¥Ø¨ØªÙĥØ§Ø±ÙĬ",
        -1.0
      ],
      [
        "ĠAnnan",
        -1.0
      ],
      [
        "à¸´à¸ģà¸Ĥ",
        -1.0
      ],
      [
        "-bit",
        -1.0
      ],
      [
        "ĠaÅŁkÄ±na",
        -1.0
      ],
      [
        "ĠtÃ¼re",
        -1.0
      ],
      [
        "ĠetmiÅŁlerdir",
        -1.0
      ],
      [
        "ĠØ§ÙĦÙģØ¶ÙĬÙĦ",
        -1.0
      ],
      [
        "|OCLC",
        -1.0
      ],
      [
        "HayatÄ±m",
        -1.0
      ],
      [
        "æµĳ",
        -1.0
      ],
      [
        "ÐºÑĥÑĢÑģ",
        -1.0
      ],
      [
        "ĠØ´Ø¨ÙĩØ©",
        -1.0
      ],
      [
        "æķĪæŀľ",
        -1.0
      ],
      [
        "Ġvitisho",
        -1.0
      ],
      [
        "çĻ¾åº¦",
        -1.0
      ],
      [
        "æľĢéľĢè¦ģçļĦ",
        -1.0
      ],
      [
        "ĠyÃ¶neticileri",
        -1.0
      ],
      [
        "ĠcomÃ©dien",
        -1.0
      ],
      [
        "ĠmÃ¼mkÃ¼n",
        -1.0
      ],
      [
        "Ġvivid",
        -1.0
      ],
      [
        "ĠØ¨Ø§Ø¹Ø·Ø§Ø¦ÙĨØ§",
        -1.0
      ],
      [
        "Ð»Ð¸ÑĩÐ½Ð¾",
        -1.0
      ],
      [
        "åĪĨæ³Į",
        -1.0
      ],
      [
        "à°Ĵà°ķà°¨",
        -1.0
      ],
      [
        "Ġsooner",
        -1.0
      ],
      [
        "ahihayni",
        -1.0
      ],
      [
        "à¸±à¸Ļà¸Ķà¸²à¸Ļ",
        -1.0
      ],
      [
        "ä¸ĸçķĮåĲĦåľ°",
        -1.0
      ],
      [
        "à¸´à¸ģà¸²à¸£à¸Ļà¸§à¸Ķ",
        -1.0
      ],
      [
        "ÑģÐ»Ð°Ð±Ð¾ÑĥÐ¼Ð¸Ðµ",
        -1.0
      ],
      [
        "Ġmchapa",
        -1.0
      ],
      [
        "ĠTOU",
        -1.0
      ],
      [
        "Ð¸Ð»ÑĮÐ½Ð¾",
        -1.0
      ],
      [
        "ĠTopaz",
        -1.0
      ],
      [
        "ĠäºĮæīĭæīĭæľº",
        -1.0
      ],
      [
        "æĪ°è¡ĵ",
        -1.0
      ],
      [
        "ĠÙģØ§ÙĬØ¯ÙĦÙĬÙĨØº",
        -1.0
      ],
      [
        "...ØĮ",
        -1.0
      ],
      [
        "ĠÐ¿Ð¾ÑģÐ¿ÐµÑĪÐ½Ð¾",
        -1.0
      ],
      [
        "ĠÑĢÐµÑĨÐµÐ¿ÑĤÐ°Ð¼",
        -1.0
      ],
      [
        "ĠETTÄ°ÄŀÄ°",
        -1.0
      ],
      [
        "ĠÙĨÙĪØ¹ÙĬØ§",
        -1.0
      ],
      [
        "ĠØ§ÙĦØ¥Ø¬Ø±Ø§Ø¡",
        -1.0
      ],
      [
        "à¸Ńà¸Ļà¸¢",
        -1.0
      ],
      [
        "ĠØ¨ØªØ£ÙĥÙĬØ¯",
        -1.0
      ],
      [
        "à±Ĥ..Ċ",
        -1.0
      ],
      [
        "à¹īà¹ĥà¸Īà¹Ħà¸Ķ",
        -1.0
      ],
      [
        "à¹īà¸ŀà¸¢à¸²à¸¢à¸²à¸¡",
        -1.0
      ],
      [
        "ĠStraÃŁe",
        -1.0
      ],
      [
        "ï¼ĮéĿĴ",
        -1.0
      ],
      [
        "Ġyedikten",
        -1.0
      ],
      [
        "Ġbattues",
        -1.0
      ],
      [
        "ĠØ§ÙĦØªØ±ÙĥÙĬ",
        -1.0
      ],
      [
        "à¹Īà¸²à¸ĩà¹Ĩà¹ĥà¸«",
        -1.0
      ],
      [
        "à¸Ļà¸ŀà¸£à¸°à¸Ĭà¸Ļà¸¡",
        -1.0
      ],
      [
        "æīĢèĻķçļĦ",
        -1.0
      ],
      [
        "ĠÙĪØ³ÙĬØª",
        -1.0
      ],
      [
        "à¥ģà¤²à¤¤",
        -1.0
      ],
      [
        "Ã¼m",
        -1.0
      ],
      [
        "ĠÙĪÙħÙĤ",
        -1.0
      ],
      [
        "à°¾à°ĺà°µà°ª",
        -1.0
      ],
      [
        "ĠÃ¼niversiteden",
        -1.0
      ],
      [
        "ãĢģãĢģãĢģ",
        -1.0
      ],
      [
        "ç¦½",
        -1.0
      ],
      [
        "SoÄŁuk",
        -1.0
      ],
      [
        "à¹Īà¸²à¸¢à¹ĥà¸Ļà¸Ĭ",
        -1.0
      ],
      [
        "ĠÐ½Ð°ÑģÐºÐ¾Ð»ÑĮÐºÐ¾",
        -1.0
      ],
      [
        "à¸Īà¸°à¹ģà¸ªà¸Ķà¸ĩ",
        -1.0
      ],
      [
        "Ð¡Ð²Ð¾Ð¸Ð¼",
        -1.0
      ],
      [
        "(ç¬¬äºĮå±Ĥ",
        -1.0
      ],
      [
        "çĶµèĦĳå¾®æĻ¶çīĩ",
        -1.0
      ],
      [
        "Ġbandana",
        -1.0
      ],
      [
        "ĠÐ²ÑĭÑģÐ¾ÑĤÑĭ",
        -1.0
      ],
      [
        "ä¸Ģæł·",
        -1.0
      ],
      [
        "|Businesses",
        -1.0
      ],
      [
        "ÙħØ²Ø©",
        -1.0
      ],
      [
        "Ġkukos",
        -1.0
      ],
      [
        "suta",
        -1.0
      ],
      [
        "RAZR",
        -1.0
      ],
      [
        "ĠKullanÄ±m",
        -1.0
      ],
      [
        "ĠØ¨Ø§ÙĦØ®ÙĦÙĤ",
        -1.0
      ],
      [
        "à±į/",
        -1.0
      ],
      [
        "isipokuwa",
        -1.0
      ],
      [
        "à±ģ''",
        -1.0
      ],
      [
        "ĠØ¨Ø§ÙĦÙĦÙĩ",
        -1.0
      ],
      [
        "è´¹å°ĶèĴĻ",
        -1.0
      ],
      [
        "Ġduymadan",
        -1.0
      ],
      [
        "ĠÐ¿Ð¾ÑĩÐµÑģÑĤÐ¸",
        -1.0
      ],
      [
        "à¸±à¸ķà¹Ĥà¸ķ",
        -1.0
      ],
      [
        "Åŀe",
        -1.0
      ],
      [
        "Ġdecisively",
        -1.0
      ],
      [
        "à¸·à¸Ńà¸Ļà¸¥",
        -1.0
      ],
      [
        "Ġbilling",
        -1.0
      ],
      [
        ".I",
        -1.0
      ],
      [
        "ĠnakÅŁed",
        -1.0
      ],
      [
        "ä½łèĩªå·±",
        -1.0
      ],
      [
        "ĠÐ¼ÑĥÐ¶Ðµ",
        -1.0
      ],
      [
        "ĠØ§Ø¹ØªØ¨Ø±Øª",
        -1.0
      ],
      [
        "Sikusudii",
        -1.0
      ],
      [
        "Ġsoigne",
        -1.0
      ],
      [
        "Ġlogiquement",
        -1.0
      ],
      [
        "Ġyontul",
        -1.0
      ],
      [
        "ĠdostÃ§a",
        -1.0
      ],
      [
        "ĠÐ¡Ðĳ",
        -1.0
      ],
      [
        "éłĲç®ĹæľīéĻĲ",
        -1.0
      ],
      [
        "ĠÙĪØ§Ø³ØªØ®ÙģØ§Ùģ",
        -1.0
      ],
      [
        "ĠÑģÑĤÑĢÐ°Ð½Ð½Ð¾Ð¹",
        -1.0
      ],
      [
        "Ġteleskop",
        -1.0
      ],
      [
        "ĠDiyabet",
        -1.0
      ],
      [
        "Ġresimden",
        -1.0
      ],
      [
        "ÐļÐ¾Ð¼Ð¿Ð°Ð½Ð¸Ñı",
        -1.0
      ],
      [
        "'oul",
        -1.0
      ],
      [
        "Ġgag",
        -1.0
      ],
      [
        "ĠÃ©changes",
        -1.0
      ],
      [
        "à¥ģ)",
        -1.0
      ],
      [
        "Ġelin",
        -1.0
      ],
      [
        "ĠÙĦÙĬØ´Ø¹Ø±",
        -1.0
      ],
      [
        "Ð¿Ð¸ÑĤÑĮ",
        -1.0
      ],
      [
        "ĠØªÙĨØ´ÙĬØ·",
        -1.0
      ],
      [
        "ä¸įå¹³è¡¡",
        -1.0
      ],
      [
        "ĠØ§ÙĦØ±ØºØ¨Ø©",
        -1.0
      ],
      [
        "à°Ĥà°¡à°°à°¨",
        -1.0
      ],
      [
        "Hata",
        -1.0
      ],
      [
        "server",
        -1.0
      ],
      [
        "æĩīè©²",
        -1.0
      ],
      [
        "Ġenclin",
        -1.0
      ],
      [
        "ĠyÃ¶netimine",
        -1.0
      ],
      [
        "ĠÐºÐ¾ÑģÐ²ÐµÐ½Ð½Ð¾",
        -1.0
      ],
      [
        "TaskPanel",
        -1.0
      ],
      [
        "ĠaÄŁzÄ±",
        -1.0
      ],
      [
        "à±ģà°ķà°Ń",
        -1.0
      ],
      [
        "ĠÙĪØ§Ø¬ÙĩØ©",
        -1.0
      ],
      [
        "ĠNah",
        -1.0
      ],
      [
        "ĠamitiÃ©",
        -1.0
      ],
      [
        "ŀçļĦ",
        -1.0
      ],
      [
        "ĠÐºÐ¾Ð¼Ð½Ð°ÑĤÐ°Ñħ",
        -1.0
      ],
      [
        "CrÃ©ez",
        -1.0
      ],
      [
        "ĠSÄ±ndÄ±rgÄ±",
        -1.0
      ],
      [
        "Ġwakicheza",
        -1.0
      ],
      [
        "Ġstrata",
        -1.0
      ],
      [
        "æĪĳä»¬çļĦ",
        -1.0
      ],
      [
        "ĠØ¹ÙĦÙħÙĥ",
        -1.0
      ],
      [
        "Ð¸Ð²Ð°ÐµÑĤÑģÑı",
        -1.0
      ],
      [
        "ĠÑģÐ¾ÑĥÑģÐ¾Ð¼",
        -1.0
      ],
      [
        "ĠØ¥ÙĤÙĦÙĬØ¯Ø³",
        -1.0
      ],
      [
        "æıŃéľ²",
        -1.0
      ],
      [
        "à±įà°¦à°®à°µ",
        -1.0
      ],
      [
        "ĠÐ¼Ð¾Ð»Ð¸ÑĤÐ²",
        -1.0
      ],
      [
        "ĠØ³ÙĬÙģØ¹ÙĦ",
        -1.0
      ],
      [
        "à¸´à¸Ķà¸ģà¸²à¸£à¸Ħ",
        -1.0
      ],
      [
        "Ġmainly",
        -1.0
      ],
      [
        "ĠØ§ÙĦØ¹Ø·ÙĪÙģ",
        -1.0
      ],
      [
        "ĠÐ²ÐºÑĥÑģÐ½Ð¾Ð¹",
        -1.0
      ],
      [
        "ĠÙĦÙĦØŃÙħØ§ÙĬØ©",
        -1.0
      ],
      [
        "çģ¯åħī",
        -1.0
      ],
      [
        "ĠStrike",
        -1.0
      ],
      [
        "åŃĲåħ¬åı¸åĳĪåł±",
        -1.0
      ],
      [
        "ĠsituÃ©es",
        -1.0
      ],
      [
        "-sync",
        -1.0
      ],
      [
        "éļ¨èĳĹé«ĺæ½®æ¹§åĩº",
        -1.0
      ],
      [
        "-Jarrah",
        -1.0
      ],
      [
        "èĤĿèĦıä¸»åĬ¨èĦī",
        -1.0
      ],
      [
        "ĠTesadÃ¼fen",
        -1.0
      ],
      [
        "ï¼Įè¿ĽèĢĮ",
        -1.0
      ],
      [
        "ĠÐ¼ÑĥÐ»ÑĮÑĤÐ¸",
        -1.0
      ],
      [
        "holz",
        -1.0
      ],
      [
        "åı¬å¼ĢçļĦ",
        -1.0
      ],
      [
        "ĠÐ¿Ð¾ÑĢÑıÐ´",
        -1.0
      ],
      [
        "ĠØ§ÙĦØ·ÙĬØ±Ø§ÙĨ",
        -1.0
      ],
      [
        "ĠÐ¾Ð¶Ð¸Ð»",
        -1.0
      ],
      [
        "Ð¾ÑĩÐ½Ð¾Ð¹",
        -1.0
      ],
      [
        "Ø¬Ø²Ø¡",
        -1.0
      ],
      [
        "à¸´à¹Ģà¸Ń",
        -1.0
      ],
      [
        "ĠMTU",
        -1.0
      ],
      [
        "à°Ĥà°ķà°°à°®",
        -1.0
      ],
      [
        "ĠÑįÐ¿Ð¸Ð·Ð¾Ð´Ñĭ",
        -1.0
      ],
      [
        "ĠGUZEL",
        -1.0
      ],
      [
        "/depth",
        -1.0
      ],
      [
        "culÃ©",
        -1.0
      ],
      [
        "éģµ",
        -1.0
      ],
      [
        "Ġvoient",
        -1.0
      ],
      [
        "Ġkutofaulu",
        -1.0
      ],
      [
        "à¹īà¸²à¸Ļà¸¡",
        -1.0
      ],
      [
        "à¹īà¸²à¸Ĥà¸²",
        -1.0
      ],
      [
        "ĠØŃÙĪÙĦÙĥ",
        -1.0
      ],
      [
        "ÙĳÙĦØ©",
        -1.0
      ],
      [
        "Ġrecruiting",
        -1.0
      ],
      [
        "RSTINE",
        -1.0
      ],
      [
        "Kompakt",
        -1.0
      ],
      [
        "ĠØ¨ÙĨÙĬØ§Øª",
        -1.0
      ],
      [
        "è®¤åĩº",
        -1.0
      ],
      [
        "è±Ķ",
        -1.0
      ],
      [
        "IMI",
        -1.0
      ],
      [
        "ĠØ§ÙĦØ·ÙĬÙĨ",
        -1.0
      ],
      [
        "ĠÙĦÙĦÙħÙĪØ§Ø¯",
        -1.0
      ],
      [
        "à¸Ľà¸¥à¸Ķà¸Ľà¸¥",
        -1.0
      ],
      [
        "ĠÑıÑĢÐºÐ¾ÑģÑĤÐ¸",
        -1.0
      ],
      [
        "ĠemmenÃ©",
        -1.0
      ],
      [
        "ĠkasnaÄŁa",
        -1.0
      ],
      [
        "è·¯éĢıç¤¾",
        -1.0
      ],
      [
        "Ġtimeline",
        -1.0
      ],
      [
        "adhili",
        -1.0
      ],
      [
        "à¸¸à¸Ľà¸£à¸°à¸¡à¸²à¸ĵ",
        -1.0
      ],
      [
        "During",
        -1.0
      ],
      [
        "ç³»çµ±åıĬ",
        -1.0
      ],
      [
        "éĢĽ",
        -1.0
      ],
      [
        "åħĥçļĦ",
        -1.0
      ],
      [
        "Ġkanser",
        -1.0
      ],
      [
        "ĠPoky",
        -1.0
      ],
      [
        "Ġdarshan",
        -1.0
      ],
      [
        "Ġhelikopta",
        -1.0
      ],
      [
        "ĠÙĬØ£ÙħØ±Ùĩ",
        -1.0
      ],
      [
        "Ġphotographiques",
        -1.0
      ],
      [
        "ĠÐ¿Ð¾ÑģÐ»ÐµÐ´ÑĥÐµÑĤ",
        -1.0
      ],
      [
        "ĠÐ¿ÑĢÐ¾ÑģÑĮÐ±Ð°",
        -1.0
      ],
      [
        "Ø¬ÙħÙĬÙĦ",
        -1.0
      ],
      [
        "tenue",
        -1.0
      ],
      [
        "ĠØ§ÙĦØ²ÙĪØ¨Ø¹Ø©",
        -1.0
      ],
      [
        "à¥įà¤°à¤®à¤°à¤¹",
        -1.0
      ],
      [
        "ĠGRADE",
        -1.0
      ],
      [
        "ĠâĢĶ",
        -1.0
      ],
      [
        "ĠØ§ÙĦØ§Ø³ØªØºÙģØ§Ø±",
        -1.0
      ],
      [
        "jeshi",
        -1.0
      ],
      [
        "åĲİå¤ĩ",
        -1.0
      ],
      [
        "Ġprofil",
        -1.0
      ],
      [
        "ĠÙĪØ¸ÙĬÙģÙĬ",
        -1.0
      ],
      [
        "ĠÙĦØŃÙĬ",
        -1.0
      ],
      [
        "Ð²ÑĪÑĥÑİ",
        -1.0
      ],
      [
        "Ġliberties",
        -1.0
      ],
      [
        "hofia",
        -1.0
      ],
      [
        "à¸Īà¸°à¸Ľà¸ı",
        -1.0
      ],
      [
        "ĠMkambala",
        -1.0
      ],
      [
        "Ġlightly",
        -1.0
      ],
      [
        "Ġbenzinli",
        -1.0
      ],
      [
        "à¹īà¸Ļà¸Ĺà¸°à¹Ģà¸¥",
        -1.0
      ],
      [
        "aslÄ±",
        -1.0
      ],
      [
        "ĠÙģØ±Ø¯ÙĬØ©",
        -1.0
      ],
      [
        "-Askari",
        -1.0
      ],
      [
        "åŁºç¡Ģä¸Ĭ",
        -1.0
      ],
      [
        "à¸±à¸Ļà¹Ģà¸ģ",
        -1.0
      ],
      [
        "Ġcheap",
        -1.0
      ],
      [
        "à¹īà¸²à¸ĩà¸Ī",
        -1.0
      ],
      [
        "Ġiletmek",
        -1.0
      ],
      [
        "ĠÙĦØ¶ÙħØ§ÙĨ",
        -1.0
      ],
      [
        "à¹Įà¸ªà¸³à¸Ħ",
        -1.0
      ],
      [
        "Ġà¤ĺà¤Łà¤¨",
        -1.0
      ],
      [
        "Ġà¤¹à¤Łà¤ķà¤°",
        -1.0
      ],
      [
        "/Madhok",
        -1.0
      ],
      [
        "ĠRejea",
        -1.0
      ],
      [
        "-you",
        -1.0
      ],
      [
        "ÐŁÑĢÐ¾ÐµÐºÑĤ",
        -1.0
      ],
      [
        "ĠØ³ÙĨØªØ§ÙĨ",
        -1.0
      ],
      [
        "comb",
        -1.0
      ],
      [
        "ĠÙĨØµØ±ØªÙĩ",
        -1.0
      ],
      [
        "å»ºæĸ¼",
        -1.0
      ],
      [
        "ĠDokunmatik",
        -1.0
      ],
      [
        "Ġsubstituer",
        -1.0
      ],
      [
        "ĠÙĬØ¹ÙĤØ¯ÙĩØ§",
        -1.0
      ],
      [
        "Ð½Ð°Ð¿ÑĢÐ¸Ð¼ÐµÑĢ",
        -1.0
      ],
      [
        "à¸Ńà¸Ńà¸ģà¹Ģà¸Ľ",
        -1.0
      ],
      [
        "David",
        -1.0
      ],
      [
        "å½±éŁ³",
        -1.0
      ],
      [
        "æĶ»åħ¥",
        -1.0
      ],
      [
        "Ġkupungua",
        -1.0
      ],
      [
        "ĠanlayÄ±ÅŁÄ±nÄ±n",
        -1.0
      ],
      [
        "ococcus",
        -1.0
      ],
      [
        "ĠØ§Ø·ÙĦØ§ÙĤÙĩØ§",
        -1.0
      ],
      [
        "à¸µà¸Ńà¸²à¸ģà¸²à¸£à¸Ń",
        -1.0
      ],
      [
        "Ġkonusundaki",
        -1.0
      ],
      [
        "ĠosmanlÄ±",
        -1.0
      ],
      [
        "ĠdÃ¶nmÃ¼ÅŁ",
        -1.0
      ],
      [
        "ĠUfeministi",
        -1.0
      ],
      [
        "ĠReprÃ©sentant",
        -1.0
      ],
      [
        "ĠOccident",
        -1.0
      ],
      [
        "ĠÙģØªØ±Ùī",
        -1.0
      ],
      [
        "ĠÃ©volution",
        -1.0
      ],
      [
        "å¾ĹåĪ°æ»¿æĦıçļĦæľįåĭĻ",
        -1.0
      ],
      [
        "æĺ¯çļĦ",
        -1.0
      ],
      [
        "Ġäºĳä½ķçŁ¥",
        -1.0
      ],
      [
        "ÙĥØ³Øª",
        -1.0
      ],
      [
        "ĠdÃ©cimales",
        -1.0
      ],
      [
        "ĠÃ¼niteli",
        -1.0
      ],
      [
        ",à¸Ķà¸Ļà¸ķà¸£",
        -1.0
      ],
      [
        "ĠÙĪØ£Ø¯Ø¨Ø§",
        -1.0
      ],
      [
        "ĠÐ²ÑģÑĤÑĢÐ¾ÐµÐ½",
        -1.0
      ],
      [
        "ĠÐ¶ÐµÐ»ÐµÐ·Ð½ÑĭÐµ",
        -1.0
      ],
      [
        "changanywa",
        -1.0
      ],
      [
        "Ġfeminism",
        -1.0
      ],
      [
        "roperty",
        -1.0
      ],
      [
        "çİ©éģİ",
        -1.0
      ],
      [
        "Ġetraf",
        -1.0
      ],
      [
        "ĠÐ¿Ð¾Ð»ÑĥÑĩÐ°Ð¹ÑĤÐµ",
        -1.0
      ],
      [
        "sometimes",
        -1.0
      ],
      [
        "âĢĻest",
        -1.0
      ],
      [
        "Ġà¤¯à¤¥",
        -1.0
      ],
      [
        "ĠKasi",
        -1.0
      ],
      [
        "Ġce",
        -1.0
      ],
      [
        "ĠÙĦÙĬÙħØ«ÙĦ",
        -1.0
      ],
      [
        "'atmosphÃ¨re",
        -1.0
      ],
      [
        "ĠÙĪØ§Ø±Ø²ÙĤÙĨÙĬ",
        -1.0
      ],
      [
        "åįĩåĢ¼",
        -1.0
      ],
      [
        "ĠAbraham",
        -1.0
      ],
      [
        "Ġà¸ŀà¸£à¸°à¸£à¸²à¸Ĭà¸ŀ",
        -1.0
      ],
      [
        ".mi",
        -1.0
      ],
      [
        "ĠFCP",
        -1.0
      ],
      [
        "ĠÐ·Ð°Ð¿Ð¾",
        -1.0
      ],
      [
        "ĠÙģØªØ±Ùĥ",
        -1.0
      ],
      [
        "ĠÐ¼ÑĭÑĪÐ¸",
        -1.0
      ],
      [
        "ĠÙĪÙħÙĨØ´",
        -1.0
      ],
      [
        "Ġserotonin",
        -1.0
      ],
      [
        "ĠÐ¼ÑĥÐ·ÑĭÐºÐ°Ð½ÑĤÐ¾Ð²",
        -1.0
      ],
      [
        "ĠÙĪØ§ÙĨØªÙĩØ§Ø¡",
        -1.0
      ],
      [
        "Ġmisleading",
        -1.0
      ],
      [
        "imdb",
        -1.0
      ],
      [
        "Ð¢ÐĲ",
        -1.0
      ],
      [
        "ĠuygulayÄ±nÄ±z",
        -1.0
      ],
      [
        "ĠHellenistik",
        -1.0
      ],
      [
        "ĠÙĤØªÙĬÙĦ",
        -1.0
      ],
      [
        "ĠtransformÃ©e",
        -1.0
      ],
      [
        "Character",
        -1.0
      ],
      [
        "à¸¡à¸«à¸²à¸ģà¸²à¸¬",
        -1.0
      ],
      [
        "à¸¥à¸²à¸Ķà¸ģà¸£à¸°à¸ļ",
        -1.0
      ],
      [
        "ØªØµÙĨÙĬÙģ",
        -1.0
      ],
      [
        "ĠÐ²Ð¾Ð·Ð½Ð°Ð³ÑĢÐ°Ð¶Ð´",
        -1.0
      ],
      [
        "ĠÐ¡Ð½ÐµÐ¶Ð½",
        -1.0
      ],
      [
        "çĽ¸å°į",
        -1.0
      ],
      [
        "okoe",
        -1.0
      ],
      [
        "ï¼ĪãĤ¢ãĥ",
        -1.0
      ],
      [
        "\\RODSMITH",
        -1.0
      ],
      [
        "Ġkamerali",
        -1.0
      ],
      [
        "à¹Īà¸Ńà¸Ń",
        -1.0
      ],
      [
        "/fonon",
        -1.0
      ],
      [
        "Ġintervient",
        -1.0
      ],
      [
        "ĠÐĵÑĢ",
        -1.0
      ],
      [
        "à¹Ĥà¸Ķà¸¡",
        -1.0
      ],
      [
        "Ġtuendelee",
        -1.0
      ],
      [
        "ĠØªÙĪÙģÙĬØ±ÙĩØ§",
        -1.0
      ],
      [
        "ĠAbdul",
        -1.0
      ],
      [
        "tmak",
        -1.0
      ],
      [
        "COL",
        -1.0
      ],
      [
        "à¸ªà¸²à¸Ļ",
        -1.0
      ],
      [
        "bÃ¼yÃ¼me",
        -1.0
      ],
      [
        "Ġruban",
        -1.0
      ],
      [
        "Ø§ÙĨØªØ¸Ø§Ø±",
        -1.0
      ],
      [
        "Õ£Õ¸Õ²Õ«",
        -1.0
      ],
      [
        "à¹Īà¸²à¸§à¸§",
        -1.0
      ],
      [
        "Ġmonte",
        -1.0
      ],
      [
        "Ġvifungu",
        -1.0
      ],
      [
        "ĠÙĪÙĩÙĬØ¦Ø§Øª",
        -1.0
      ],
      [
        "Ġane",
        -1.0
      ],
      [
        "à°ĸà°®",
        -1.0
      ],
      [
        "ĠtÃ¼ket",
        -1.0
      ],
      [
        "ĠÙĦØ§ÙĨØªÙĤØ§Ø¡",
        -1.0
      ],
      [
        "à¸µà¸¢à¸ĩà¹ģà¸ģ",
        -1.0
      ],
      [
        "Ġnavy",
        -1.0
      ],
      [
        "Ġliberal",
        -1.0
      ],
      [
        "ĠÙħÙĩØ§Ø±Ø§Øª",
        -1.0
      ],
      [
        "à¹īà¸²à¸Ļà¸ģà¸²à¸£à¸¨",
        -1.0
      ],
      [
        "èµ·åĪ°",
        -1.0
      ],
      [
        "æľīå¯¹ç«ĭæĦıè§ģ",
        -1.0
      ],
      [
        "à¹Ģà¸«à¸£à¸Ńà¸Ħà¸£",
        -1.0
      ],
      [
        "à¥įà¤¸à¤Īà¤ıà¤¨",
        -1.0
      ],
      [
        "ĠØ¥ØªÙħØ§ÙħÙĩØ§",
        -1.0
      ],
      [
        "Ġengouement",
        -1.0
      ],
      [
        "ĠTanrÄ±",
        -1.0
      ],
      [
        "ĠgÃ¶sterilmesi",
        -1.0
      ],
      [
        "ĠâĢºĊ",
        -1.0
      ],
      [
        "'Europe",
        -1.0
      ],
      [
        ",ÅŁimdi",
        -1.0
      ],
      [
        "ĠØªØ¹ÙĦÙĬÙħØ©",
        -1.0
      ],
      [
        "ĠÐ¼ÐµÑĩÑĤÐ°ÑİÑĤ",
        -1.0
      ],
      [
        "ĠÙħØ¬ÙħÙĪØ¹",
        -1.0
      ],
      [
        "sme",
        -1.0
      ],
      [
        "ÐĿÐĺÐķ",
        -1.0
      ],
      [
        "ãĢĲ",
        -1.0
      ],
      [
        "ĠØ®Ø·ÙĬØ©",
        -1.0
      ],
      [
        "ĠgÃ¶bek",
        -1.0
      ],
      [
        "èĨ¨èĥĢ",
        -1.0
      ],
      [
        "ĠÐ¾Ð±Ñĥ",
        -1.0
      ],
      [
        "ĠØ¹Ø±ÙĬØ§ÙĨØ§",
        -1.0
      ],
      [
        "Ġvole",
        -1.0
      ],
      [
        "ĠdÃ¼nyaca",
        -1.0
      ],
      [
        "ĠÙħØ¹Ø§Ø±Ø¶Ø§",
        -1.0
      ],
      [
        "Ġkuenea",
        -1.0
      ],
      [
        "ä¸įå¤ļ",
        -1.0
      ],
      [
        "ĠTitle",
        -1.0
      ],
      [
        "Ġà¸Ĥà¸Ńà¸ĩà¸ī",
        -1.0
      ],
      [
        "à°ħà°§",
        -1.0
      ],
      [
        "ĠbacaklarÄ±mÄ±",
        -1.0
      ],
      [
        "éĥ½ä¸Ĭ",
        -1.0
      ],
      [
        "ĠFamous",
        -1.0
      ],
      [
        "-ch",
        -1.0
      ],
      [
        "ä»Ĭå¾Į",
        -1.0
      ],
      [
        "ãĢģç»³ç´¢",
        -1.0
      ],
      [
        "ĠÐºÐ¾Ð»ÐµÑģ",
        -1.0
      ],
      [
        "ĠØ§ÙĦØ§ÙĤØ·Ø§Ø¨",
        -1.0
      ],
      [
        "ĠØ§ÙĦÙħÙĬÙĥØ§ÙĨÙĬÙĥÙĬØ©",
        -1.0
      ],
      [
        "èĻ½",
        -1.0
      ],
      [
        "your",
        -1.0
      ],
      [
        "ĠØŃÙĦØ©",
        -1.0
      ],
      [
        "ĠAA",
        -1.0
      ],
      [
        "ĠESPN",
        -1.0
      ],
      [
        "inÃ©e",
        -1.0
      ],
      [
        "ĠÐºÐ°Ð±",
        -1.0
      ],
      [
        "Ġorigin",
        -1.0
      ],
      [
        "ĠÐ¼Ð°Ð³Ð¸ÑĩÐµÑģÐºÐ¸Ñħ",
        -1.0
      ],
      [
        "ĠÙĦØ´Ø®Øµ",
        -1.0
      ],
      [
        "tÃ¼m",
        -1.0
      ],
      [
        "à±ĭà°°à°ķ",
        -1.0
      ],
      [
        "BakÄ±m",
        -1.0
      ],
      [
        "à¹īà¸Ńà¸ĩà¹ģà¸ķ",
        -1.0
      ],
      [
        "ÑĨÐµ",
        -1.0
      ],
      [
        "ĠNone",
        -1.0
      ],
      [
        "ĠÙĥØ§ÙĦØ³",
        -1.0
      ],
      [
        "Ġà°ħà°¨à°Ĺ",
        -1.0
      ],
      [
        "ĠÃ¶ÄŁelerin",
        -1.0
      ],
      [
        "Ġmuhusika",
        -1.0
      ],
      [
        "ĠtrophÃ©e",
        -1.0
      ],
      [
        "ĠulaÅŁÄ±ma",
        -1.0
      ],
      [
        "-Unis",
        -1.0
      ],
      [
        "Ð²Ð¾Ð»ÑĮ",
        -1.0
      ],
      [
        "ĠØ§ÙĦØ¥ÙĤÙĦÙĬÙħ",
        -1.0
      ],
      [
        "ĠBakÄ±m",
        -1.0
      ],
      [
        "ĠKakobe",
        -1.0
      ],
      [
        "å¾ģç¼´è´¹çĶ¨",
        -1.0
      ],
      [
        "Ġmawe",
        -1.0
      ],
      [
        "à¸±à¸ĩà¸ģà¸²",
        -1.0
      ],
      [
        "à¹ģà¸®à¸Ľà¸Ľ",
        -1.0
      ],
      [
        "ÐŁÐµÑĢÐ²Ð¾Ðµ",
        -1.0
      ],
      [
        "ĠÃ¶nÃ¼nden",
        -1.0
      ],
      [
        "ĠÐ¡Ð¡Ðł",
        -1.0
      ],
      [
        "ĠÑģÐµÑĤÐ¾Ðº",
        -1.0
      ],
      [
        "åĪ«æĹłéĢīæĭ©",
        -1.0
      ],
      [
        "moto",
        -1.0
      ],
      [
        "à¸µà¸ŀà¸Ĺ",
        -1.0
      ],
      [
        "Ġhuelezea",
        -1.0
      ],
      [
        "Ġlean",
        -1.0
      ],
      [
        "pokuwa",
        -1.0
      ],
      [
        "ĠÐļÐ°",
        -1.0
      ],
      [
        "ĠyakÄ±ndaki",
        -1.0
      ],
      [
        "ĠÐ²ÑĭÑĤÐµÑĢÐ¿ÐµÑĤÑĮ",
        -1.0
      ],
      [
        "ĠRoumanie",
        -1.0
      ],
      [
        "è²Į",
        -1.0
      ],
      [
        "ĠAlego",
        -1.0
      ],
      [
        "Ġà¸Ńà¸¢",
        -1.0
      ],
      [
        "âĢĻchose",
        -1.0
      ],
      [
        "ĠRating",
        -1.0
      ],
      [
        "à¤Ĥà¤ļà¤¨",
        -1.0
      ],
      [
        "ĠpaketÃ§iÄŁi",
        -1.0
      ],
      [
        "æĪĳåĢĳåľ¨",
        -1.0
      ],
      [
        "ä¸īé¡¹",
        -1.0
      ],
      [
        "ĠbahÃ§eler",
        -1.0
      ],
      [
        "ÐŁÐ°ÑģÑħÐ°",
        -1.0
      ],
      [
        "Ġchanging",
        -1.0
      ],
      [
        "à¹Īà¸Ńà¸Ħà¸Ļà¸Ń",
        -1.0
      ],
      [
        "æ¦Ĥå¿µ",
        -1.0
      ],
      [
        "å¹³åı°",
        -1.0
      ],
      [
        "Lit",
        -1.0
      ],
      [
        "à¥ĩà¤ĸà¤¨",
        -1.0
      ],
      [
        "Ø§ÙĦÙħØ§ØºÙĨÙĬØ²ÙĬÙĪÙħ",
        -1.0
      ],
      [
        "ãĢģæ¸¯åįĹ",
        -1.0
      ],
      [
        "Su",
        -1.0
      ],
      [
        "ÙĦØ§ØŃØ¸",
        -1.0
      ],
      [
        "Ġunaelekea",
        -1.0
      ],
      [
        "ĠÐ·Ð°ÑĦÐ¸ÐºÑģ",
        -1.0
      ],
      [
        "ĠÐ·Ð°ÑģÑĤ",
        -1.0
      ],
      [
        "ĠfaÅŁist",
        -1.0
      ],
      [
        "å¼Ĭ",
        -1.0
      ],
      [
        "æ³ķéĻ¢",
        -1.0
      ],
      [
        "ĠØ¨ÙĤÙĨØ§Ø¹",
        -1.0
      ],
      [
        "degradation",
        -1.0
      ],
      [
        "ĠØ§ÙĦØ§Ø®ÙĬØ±",
        -1.0
      ],
      [
        "ĠÙĦÙĩØ¯Ùģ",
        -1.0
      ],
      [
        "âĢľæĽ²éĿ¢çī¹æĢ§",
        -1.0
      ],
      [
        "ĠØ§ÙĦØºØ°Ø§Ø¦ÙĬ",
        -1.0
      ],
      [
        "Ġkuripoti",
        -1.0
      ],
      [
        "Ġamepata",
        -1.0
      ],
      [
        "ĠSadece",
        -1.0
      ],
      [
        "Ġmkinzani",
        -1.0
      ],
      [
        "ĠÙĪØ§Ø¦ÙĦ",
        -1.0
      ],
      [
        "è£½ä½ľäººçİĭçı®èı¯",
        -1.0
      ],
      [
        "KIS",
        -1.0
      ],
      [
        "à¸´à¸Īà¸²à¸Ħà¸Ĺ",
        -1.0
      ],
      [
        "ĠØ§ÙĦØ¥Ø¹ÙĦØ§Ùħ",
        -1.0
      ],
      [
        "ĠØµÙĦØ¨",
        -1.0
      ],
      [
        "ĠÐ¢ÑĢÐ¸ÑĥÐ¼ÑĦ",
        -1.0
      ],
      [
        "ĠÙĬØŃØ§Ø³Ø¨",
        -1.0
      ],
      [
        "éĩįæĸ°çĶŁæĪĲ",
        -1.0
      ],
      [
        "æıĴäºĨ",
        -1.0
      ],
      [
        "ĠÐ¸ÑģÑĤÐ¾ÑĩÐ½Ð¸ÐºÐ°",
        -1.0
      ],
      [
        "ĠRehberimiz",
        -1.0
      ],
      [
        "à°¿à°¨à°µà°ļ",
        -1.0
      ],
      [
        "à¹Ħà¸§à¸Ĺ",
        -1.0
      ],
      [
        "æ¸¬",
        -1.0
      ],
      [
        "second",
        -1.0
      ],
      [
        "ĠÙĪÙħÙĪØ¶ÙĪØ¹",
        -1.0
      ],
      [
        "ĠkonuÅŁuyorlar",
        -1.0
      ],
      [
        "ä¼Łå¤§çļĦ",
        -1.0
      ],
      [
        "ĠOU",
        -1.0
      ],
      [
        "Ġace",
        -1.0
      ],
      [
        "ĠNchi",
        -1.0
      ],
      [
        "éĩįæĸ°åķŁåĭķ",
        -1.0
      ],
      [
        "ĠØªØµØ§ÙĪÙĬØ±ÙĩØ§",
        -1.0
      ],
      [
        "ĠØ±Ø®ÙĬØµ",
        -1.0
      ],
      [
        "ĠÐ±ÐµÐ·Ð¾Ð¿Ð°ÑģÐ½ÐµÐµ",
        -1.0
      ],
      [
        "ĠØ²Ø§ÙħÙĪØ±Ø§",
        -1.0
      ],
      [
        "ĠÙĪØ¥ØµØ§Ø¨Ø©",
        -1.0
      ],
      [
        "Ø³Ø§ÙĦ",
        -1.0
      ],
      [
        "Ġsigorta",
        -1.0
      ],
      [
        "-autism",
        -1.0
      ],
      [
        "ĠdoÄŁar",
        -1.0
      ],
      [
        "ĠØªØ¹Ø§",
        -1.0
      ],
      [
        "ĠMasaood",
        -1.0
      ],
      [
        "pendekezwa",
        -1.0
      ],
      [
        "ĠØ§ÙĦÙģØŃØ´",
        -1.0
      ],
      [
        "à¸Ķà¸²à¸£à¸²",
        -1.0
      ],
      [
        "ĠÐ¢ÑĢÑĥÐ´",
        -1.0
      ],
      [
        "ĠÙĬØªØ§ØŃ",
        -1.0
      ],
      [
        "ĠØ®ÙĬØ§ÙĦÙĬØ©",
        -1.0
      ],
      [
        "æķĻåŃ¦é¦ĸéķ¿",
        -1.0
      ],
      [
        "ĠÐ²Ð¾Ð·Ð´ÑĥÑĪÐ½Ð¾Ð¼",
        -1.0
      ],
      [
        "ĠÙĩÙħØ§",
        -1.0
      ],
      [
        "ĠÙĪØ³ÙĦÙĪÙĥÙĩ",
        -1.0
      ],
      [
        "Ġbenimle",
        -1.0
      ],
      [
        "ĠÐ¿Ð¾ÑĤÐµÑĢÐµÐ¹",
        -1.0
      ],
      [
        "ĠMinnette",
        -1.0
      ],
      [
        "à¹ĩà¸Ļà¹Ģà¸§à¸¥à¸²à¸Ĺ",
        -1.0
      ],
      [
        "æŀķéłŃ",
        -1.0
      ],
      [
        "ĠÐ´Ð¸Ð·Ð°Ð¹Ð½ÐµÑĢÐ°",
        -1.0
      ],
      [
        "ĠÑģÑĤÐ°Ð½Ð¾Ð²Ð¸ÑĤÑĮÑģÑı",
        -1.0
      ],
      [
        "ĠÃĥÃ³Ã",
        -1.0
      ],
      [
        "SG",
        -1.0
      ],
      [
        "Ġirade",
        -1.0
      ],
      [
        "Ġjerricans",
        -1.0
      ],
      [
        "ĠÄ°zmit",
        -1.0
      ],
      [
        "ĠBoil",
        -1.0
      ],
      [
        "Ġnauli",
        -1.0
      ],
      [
        "æ²¡æľīå¾ĹåĪ°",
        -1.0
      ],
      [
        "åĨħåµĮ",
        -1.0
      ],
      [
        "ĠWell",
        -1.0
      ],
      [
        "rmenia",
        -1.0
      ],
      [
        "à¥įà¤£à¤¤",
        -1.0
      ],
      [
        "Ð¿ÑĢÐ¾Ð´ÑĥÐº",
        -1.0
      ],
      [
        "ĠÐĵÑĢÐ¾Ð·Ð½Ð¾Ð¼Ñĥ",
        -1.0
      ],
      [
        "ĠbientÃ´t",
        -1.0
      ],
      [
        "ĠÙĨØ¨ÙĬÙĨØ§",
        -1.0
      ],
      [
        "Ġrestoration",
        -1.0
      ],
      [
        "à¸¡à¸£à¸£à¸Ħà¸ģ",
        -1.0
      ],
      [
        "Ġcenturies",
        -1.0
      ],
      [
        "åľ¨é¡¯å¾®éı¡ä¸ĭ",
        -1.0
      ],
      [
        "Ø£Ø±Ø³ÙĦØª",
        -1.0
      ],
      [
        "ĠSimply",
        -1.0
      ],
      [
        "ĠormanÄ±",
        -1.0
      ],
      [
        "ĠØ§ÙĦÙħØºØ§ÙĦØ·Ø©",
        -1.0
      ],
      [
        "ĠÐ·Ð°ÐºÑĢÑĭÐ²Ð°ÐµÑĤÐµ",
        -1.0
      ],
      [
        "ĠAbbas",
        -1.0
      ],
      [
        "ĠÐ¿Ð¾Ð´Ð°ÐµÑĤ",
        -1.0
      ],
      [
        "æĿ¾åĭķ",
        -1.0
      ],
      [
        "ĠØ£Ø«ÙĨØ§Ø³ÙĬØ§",
        -1.0
      ],
      [
        "æĽ²çº¿",
        -1.0
      ],
      [
        "ĠÐ²ÑģÐµÐ¹",
        -1.0
      ],
      [
        "äº§éĩı",
        -1.0
      ],
      [
        "_ben",
        -1.0
      ],
      [
        "ĠKosova",
        -1.0
      ],
      [
        "ĠØ§ÙĦØªØ´Ø±ÙĬØ¹ÙĬ",
        -1.0
      ],
      [
        "ĠÐ³Ð»ÑİÐºÐ¾Ð·Ð¾",
        -1.0
      ],
      [
        "Ġsistemlerde",
        -1.0
      ],
      [
        "Mut",
        -1.0
      ],
      [
        "ĠMÃľJDE",
        -1.0
      ],
      [
        "à¸Ļà¸Ń",
        -1.0
      ],
      [
        "Ä±yorlar",
        -1.0
      ],
      [
        "à¹Īà¸²à¸Ľ",
        -1.0
      ],
      [
        "ĠFarms",
        -1.0
      ],
      [
        "ĠCu",
        -1.0
      ],
      [
        "Ġå¾Ĳ",
        -1.0
      ],
      [
        "âĢķâĢķâĢĿ",
        -1.0
      ],
      [
        "ĠbÄ±raktÄ±ÄŁÄ±nÄ±z",
        -1.0
      ],
      [
        "èĥĮéĥ¨",
        -1.0
      ],
      [
        "ÙĨØ¹ÙħØ©",
        -1.0
      ],
      [
        "à±ģâĢ¦âĢĿ",
        -1.0
      ],
      [
        "ĠÙĪÙħØµÙĨÙģØ§Øª",
        -1.0
      ],
      [
        "ĠÙĪØ§ÙĦØªØ³ÙĩÙĬÙĦØ§Øª",
        -1.0
      ],
      [
        "à¹ĥà¸Ļà¸¤à¸Ķ",
        -1.0
      ],
      [
        "ĠALLA",
        -1.0
      ],
      [
        "ĠØºØ§ÙĬØªÙĩØ§",
        -1.0
      ],
      [
        "è½¯",
        -1.0
      ],
      [
        "Ġcorbe",
        -1.0
      ],
      [
        "ä¸Ģæ¨£å±ķçı¾è¶ħäººæ°£",
        -1.0
      ],
      [
        "ma",
        -1.0
      ],
      [
        "ĠØªØ¯ÙĪÙĬØ±",
        -1.0
      ],
      [
        "Mashambulio",
        -1.0
      ],
      [
        "à¹īà¸³à¸ĭ",
        -1.0
      ],
      [
        "ĠÐ½Ð°ÑĪÐµÐ¹",
        -1.0
      ],
      [
        "ĠØ§ÙĦØ´ÙģØªÙĬÙĨ",
        -1.0
      ],
      [
        "Ġfoodservice",
        -1.0
      ],
      [
        "à¹īà¸Ľà¸²à¸£",
        -1.0
      ],
      [
        "à¤īà¤¸à¤¨",
        -1.0
      ],
      [
        "ĠØ§ÙĦØ¬ÙĨÙĪØ¨",
        -1.0
      ],
      [
        "Ġmtoa",
        -1.0
      ],
      [
        "desturi",
        -1.0
      ],
      [
        "ĠBlair",
        -1.0
      ],
      [
        "ĠÑģÑĤÐµÐ»Ð»Ð°Ð¶Ð¸",
        -1.0
      ],
      [
        "ÐµÑĩÐ½ÑĭÐµ",
        -1.0
      ],
      [
        "ĠAgostin",
        -1.0
      ],
      [
        "ĠÙĨØ§ÙĦ",
        -1.0
      ],
      [
        "ĠØ§ÙĦØªÙħØ±Ø¯",
        -1.0
      ],
      [
        "æĴĴä½Ĩ",
        -1.0
      ],
      [
        "à¸¥à¸ĩà¸«à¸£",
        -1.0
      ],
      [
        "rusha",
        -1.0
      ],
      [
        "Mufazzal",
        -1.0
      ],
      [
        "èĲ½å¾Ĺ",
        -1.0
      ],
      [
        "ØªØ¹Ø§Ø¸Ùħ",
        -1.0
      ],
      [
        ")--",
        -1.0
      ],
      [
        "âĢĻAFP",
        -1.0
      ],
      [
        "à±Įà°·",
        -1.0
      ],
      [
        "-Hydro",
        -1.0
      ],
      [
        "ĠÙĪØ¥Ø±Ø´Ø§Ø¯ÙĬØ©",
        -1.0
      ],
      [
        "ĠDyno",
        -1.0
      ],
      [
        "åĩıè½»",
        -1.0
      ],
      [
        "çļĦçĶŁåĳ½éĢ±æľŁ",
        -1.0
      ],
      [
        "ĠGÃ¼ndÃ¼z",
        -1.0
      ],
      [
        "ĠÑĥÐ´Ð¸Ð²Ð»ÐµÐ½Ñĭ",
        -1.0
      ],
      [
        "ĠéĬ·",
        -1.0
      ],
      [
        "åįķèĸĦ",
        -1.0
      ],
      [
        "Ø³ÙĬ",
        -1.0
      ],
      [
        "ĠÐŀÐĸÐ¡Ð¡",
        -1.0
      ],
      [
        "à¹Ģà¸ŀà¸¥à¸ĩ",
        -1.0
      ],
      [
        "ĠÙĪØ£ÙĩÙĦÙĩØ§",
        -1.0
      ],
      [
        "ĠØªØ´Ø±ÙĬØ¹",
        -1.0
      ],
      [
        "ĠÙĬØªØ¬Ø±Ø£",
        -1.0
      ],
      [
        "ĠiliÅŁkisinde",
        -1.0
      ],
      [
        "ÐĴÐµÑĢÑģÐ¸Ñı",
        -1.0
      ],
      [
        "Ġà¤Ĩà¤¦à¤°à¤¸",
        -1.0
      ],
      [
        "æĬ¥å¤į",
        -1.0
      ],
      [
        "Ġeksi",
        -1.0
      ],
      [
        "Ġdiviser",
        -1.0
      ],
      [
        "rÃ¨glement",
        -1.0
      ],
      [
        "ĠWinter",
        -1.0
      ],
      [
        "Ġseventy",
        -1.0
      ],
      [
        "ĠalÄ±nÄ±r",
        -1.0
      ],
      [
        "ĠvÃ¼cudun",
        -1.0
      ],
      [
        "Ø¥ÙĬÙħØ§ÙĨ",
        -1.0
      ],
      [
        "ÑıÑīÑĥÑİ",
        -1.0
      ],
      [
        "ĠÙĪØ¥ØŃØ±Ø§",
        -1.0
      ],
      [
        "à±įà°®à°²à°¨",
        -1.0
      ],
      [
        "à¸µà¸¢à¸§à¸ĸ",
        -1.0
      ],
      [
        "ĠÙĪÙĩØ§Ø±ÙĪÙĨ",
        -1.0
      ],
      [
        "à¸±à¸Łà¹Ģà¸§à¸Ńà¸£",
        -1.0
      ],
      [
        "premacy",
        -1.0
      ],
      [
        "ti",
        -1.0
      ],
      [
        "ĠyaratÄ±cÄ±",
        -1.0
      ],
      [
        "ilmemeli",
        -1.0
      ],
      [
        "Ġscorching",
        -1.0
      ],
      [
        "ÐºÐ¸Ð½",
        -1.0
      ],
      [
        "¢",
        -1.0
      ],
      [
        "ĠdÃ©cris",
        -1.0
      ],
      [
        "Ġseed",
        -1.0
      ],
      [
        "éĢļä¿¡",
        -1.0
      ],
      [
        "Ġentame",
        -1.0
      ],
      [
        "Ġyalio",
        -1.0
      ],
      [
        "Ġpromesses",
        -1.0
      ],
      [
        "ĠØ§ÙĦØŃØ§Ø±Ø«",
        -1.0
      ],
      [
        "kum",
        -1.0
      ],
      [
        "ï¼Įçľĭçľĭ",
        -1.0
      ],
      [
        "Ġkufi",
        -1.0
      ],
      [
        "Ø¢Ø®Ø±",
        -1.0
      ],
      [
        "Ð¾ÑĤÐ¸",
        -1.0
      ],
      [
        "ä¿¡æľį",
        -1.0
      ],
      [
        "ĠAnan",
        -1.0
      ],
      [
        "æľĪèĩ³",
        -1.0
      ],
      [
        "ÐŀÐ±ÑģÑĥÐ´Ð¸ÑĤÑĮ",
        -1.0
      ],
      [
        "ĠCOMP",
        -1.0
      ],
      [
        "å°ıç©´åı£",
        -1.0
      ],
      [
        "ĠexÃ©cuter",
        -1.0
      ],
      [
        "ĠTarime",
        -1.0
      ],
      [
        "ĠØ·ÙĦØ§Ø¦Ø¹",
        -1.0
      ],
      [
        "Ġkumuendea",
        -1.0
      ],
      [
        "ï¼ĮåĽłä¸ºä½ł",
        -1.0
      ],
      [
        "à¤¼à¥ĩà¤Ĥ-Ċ",
        -1.0
      ],
      [
        "à¸¹à¸¥à¸ķ",
        -1.0
      ],
      [
        "ĠØ§ÙĦÙħØ£ØªÙĬ",
        -1.0
      ],
      [
        "åıįæĬĹ",
        -1.0
      ],
      [
        "ÐĳÑĥÐºÐ»Ñı",
        -1.0
      ],
      [
        "Ø´Ø§ÙĩØ¯",
        -1.0
      ],
      [
        "ĠDB",
        -1.0
      ],
      [
        "ĠNeuroanatomy",
        -1.0
      ],
      [
        "ReÃ§ete",
        -1.0
      ],
      [
        "ĠÑįÐ³Ð¸Ð´Ð¾Ð¹",
        -1.0
      ],
      [
        "ĠØ§ÙĦØ¹ØµØ¨",
        -1.0
      ],
      [
        "ĠkullandÄ±m",
        -1.0
      ],
      [
        "Ġhotswap",
        -1.0
      ],
      [
        "ĠDPC",
        -1.0
      ],
      [
        "éįĽç·´",
        -1.0
      ],
      [
        "ĠRenzo",
        -1.0
      ],
      [
        "|Idadi",
        -1.0
      ],
      [
        "Ġtribes",
        -1.0
      ],
      [
        "ĠÑģÐ¼Ð¾Ð¶ÐµÐ¼",
        -1.0
      ],
      [
        "à¸´à¸Ļà¸Ĺ",
        -1.0
      ],
      [
        "ĠØªØ¹ÙĤÙĬØ¯Ø§",
        -1.0
      ],
      [
        "à¹ĩà¸Ļà¸Ħà¸³à¸ª",
        -1.0
      ],
      [
        "usembislamabad",
        -1.0
      ],
      [
        "à°¦à°¶à°²",
        -1.0
      ],
      [
        "ĠÐ·Ð°Ð¿ÑĢÐ¾ÑģÐ¸Ð»",
        -1.0
      ],
      [
        "à±Ģà°¤",
        -1.0
      ],
      [
        "Ġà¸Ĺà¸²à¸ĩà¸Ĺ",
        -1.0
      ],
      [
        "ĠØ§ÙĦÙħØ¨Ø°ÙĪÙĦØ©",
        -1.0
      ],
      [
        "à°¿à°Ĳ",
        -1.0
      ],
      [
        "åĮ»åŃ¦",
        -1.0
      ],
      [
        "ĠÑıÐ²Ð»ÑıÐµÑĤÐµÑģÑĮ",
        -1.0
      ],
      [
        "æ¯ıä¸ªäºº",
        -1.0
      ],
      [
        "à±ģ!\"",
        -1.0
      ],
      [
        "ï¼ĮæĮĩåĩº",
        -1.0
      ],
      [
        "ĠÑģÐ¼ÑĥÑī",
        -1.0
      ],
      [
        "à¸¥à¸°à¸¡",
        -1.0
      ],
      [
        "à¹Įà¹ģà¸§à¸£",
        -1.0
      ],
      [
        "ĠHang",
        -1.0
      ],
      [
        "Ġpassa",
        -1.0
      ],
      [
        "ĠØ§ÙĦØªÙĤÙĬÙĬØ¯",
        -1.0
      ],
      [
        "ĠØ§ÙĦÙģÙĦØ§ÙĨÙĬØ©",
        -1.0
      ],
      [
        "Ã©tiques",
        -1.0
      ],
      [
        "ĠÙħÙĬØ¯Ø§ÙĨÙĬØ§",
        -1.0
      ],
      [
        "æ¥Ńç¸¾",
        -1.0
      ],
      [
        "Holocaust",
        -1.0
      ],
      [
        "ĠKhao",
        -1.0
      ],
      [
        "ĠbaÅŁlamamÄ±ÅŁ",
        -1.0
      ],
      [
        "ĠÙĪØ®Ø§",
        -1.0
      ],
      [
        "bling",
        -1.0
      ],
      [
        "Ø°Ø§ÙĥØ±Ø©",
        -1.0
      ],
      [
        "ï¼ĮæĻĤèĢĮ",
        -1.0
      ],
      [
        "à¹Ģà¸ĭà¸¥à¸¥",
        -1.0
      ],
      [
        "ĠArce",
        -1.0
      ],
      [
        "ĠÐĽÑĥÐ¸",
        -1.0
      ],
      [
        "kuhusu",
        -1.0
      ],
      [
        "Ġiklim",
        -1.0
      ],
      [
        "Ġweigh",
        -1.0
      ],
      [
        "ĠÙĦÙĦØ£ÙĦ",
        -1.0
      ],
      [
        "-Ø§ÙĦØª",
        -1.0
      ],
      [
        "ĠØ§ÙĦÙħØ±Ø¯ÙĪØ¯ÙĬØ©",
        -1.0
      ],
      [
        "ĠØ§ÙĦØ¢ØŃØ§Ø¯",
        -1.0
      ],
      [
        "ĠÙĦÙĦÙħÙĨØ²ÙĦ",
        -1.0
      ],
      [
        "ĠÙĤØªÙĦØ©",
        -1.0
      ],
      [
        "Ġcontrairement",
        -1.0
      ],
      [
        "ĠÙĦÙĨÙĤÙĦ",
        -1.0
      ],
      [
        "à°¿à°Ĺà°¤",
        -1.0
      ],
      [
        "ĠÐµÐ²ÑĢÐµÐ¹ÑģÐºÐ¾Ðµ",
        -1.0
      ],
      [
        "ç¬¬ä¸Ģæ¬¡",
        -1.0
      ],
      [
        "Ġmango",
        -1.0
      ],
      [
        "ï¼ĮæĪĳè¦ģ",
        -1.0
      ],
      [
        "ĠØ§ÙĦÙħØ¶ÙĬ",
        -1.0
      ],
      [
        "à±įà°°à°Ńà°²",
        -1.0
      ],
      [
        "Broadcasting",
        -1.0
      ],
      [
        "à¸ľà¸§à¸²",
        -1.0
      ],
      [
        "æĪĳåĴĮåĬłåįİ",
        -1.0
      ],
      [
        "ĠØ§ÙĦÙħØ¬ØªÙĩØ¯",
        -1.0
      ],
      [
        "ĠØ³ÙĬØ¦Ø§",
        -1.0
      ],
      [
        "ĠGARSON",
        -1.0
      ],
      [
        "Ġboyutta",
        -1.0
      ],
      [
        "æ¬§æ´²è®®ä¼ļ",
        -1.0
      ],
      [
        "à¸¡à¸ĭà¸²à¸§à¸Ļà¸Ķ",
        -1.0
      ],
      [
        "ĠØ§ÙĦÙĤØ±Ø§Ø¨ÙĬÙĨ",
        -1.0
      ],
      [
        "Ð¼ÐµÐ´",
        -1.0
      ],
      [
        "'exprime",
        -1.0
      ],
      [
        "ĠÐ¿ÐµÑĢÐµÐ²Ð¾Ð´",
        -1.0
      ],
      [
        "ĠSpring",
        -1.0
      ],
      [
        "éĽ¢",
        -1.0
      ],
      [
        "Ġrenforce",
        -1.0
      ],
      [
        "ĠÐ½Ð°ÐºÐ¾Ð½ÐµÑĨ",
        -1.0
      ],
      [
        "çļĦè¡ĢæīĢç«ĭçļĦæĸ°çº¦",
        -1.0
      ],
      [
        "Ġtransformation",
        -1.0
      ],
      [
        "Ġlose",
        -1.0
      ],
      [
        "Ġenvanter",
        -1.0
      ],
      [
        "à±ĭà°®à°¸",
        -1.0
      ],
      [
        "ï¼Įå¥½åĥı",
        -1.0
      ],
      [
        "ĠÐ·Ð½Ð°Ñı",
        -1.0
      ],
      [
        "Ġtoplamak",
        -1.0
      ],
      [
        "à±Ģà°µà°¨à°¶",
        -1.0
      ],
      [
        "ĠÑĪÐµÑģÑĤÑĮÐ´ÐµÑģÑıÑĤ",
        -1.0
      ],
      [
        "Ġzinazoonesha",
        -1.0
      ],
      [
        "ĠbÃ¶yledir",
        -1.0
      ],
      [
        "ï¼Įä¸Ģçīĩ",
        -1.0
      ],
      [
        "Ø§Ø·ÙĬÙĨ",
        -1.0
      ],
      [
        "ĠÐĺÐ·ÑĢÐ°Ð¸Ð»ÐµÐ²Ñĭ",
        -1.0
      ],
      [
        "ĠÙģØ¦Ø©",
        -1.0
      ],
      [
        "ĠØ§ÙĦØŃÙĥÙħ",
        -1.0
      ],
      [
        "æĬĹé«ĶçļĦçĶ¢çĶŁ",
        -1.0
      ],
      [
        "ĠolmadÄ±ÄŁÄ±ndan",
        -1.0
      ],
      [
        "Ġsurprising",
        -1.0
      ],
      [
        "ĠÑĢÐ°Ð·Ð¼ÐµÑīÐµÐ½Ð¸Ñı",
        -1.0
      ],
      [
        "å®ľ",
        -1.0
      ],
      [
        "ĠÙħØ³ÙħÙī",
        -1.0
      ],
      [
        "ä¾¿æį·çļĦ",
        -1.0
      ],
      [
        "çĦ¡çĸĳæĺ¯",
        -1.0
      ],
      [
        "à¸łà¸²à¸¢à¸Ļà¸Ńà¸ģ",
        -1.0
      ],
      [
        "Ġaliyetoa",
        -1.0
      ],
      [
        "à¹Īà¸Ļà¹ĥà¸Ļà¸Ĭ",
        -1.0
      ],
      [
        "ĠÙĦÙĦØªÙĪØªØ±",
        -1.0
      ],
      [
        "æ¯Ľæ³½ä¸ľ",
        -1.0
      ],
      [
        "Walisema",
        -1.0
      ],
      [
        "Ġalive",
        -1.0
      ],
      [
        "ĠCommission",
        -1.0
      ],
      [
        "ĠdÃ©livrance",
        -1.0
      ],
      [
        "ĠrÃ©ception",
        -1.0
      ],
      [
        "ĠrakÄ±",
        -1.0
      ],
      [
        "ĠyanÄ±lgÄ±sÄ±",
        -1.0
      ],
      [
        "ĠCap",
        -1.0
      ],
      [
        "Ġà¸Ńà¸¢à¸²à¸ģà¸¡",
        -1.0
      ],
      [
        "èĲ¥åħ»",
        -1.0
      ],
      [
        "ĠÐ²Ð·ÑıÑĤ",
        -1.0
      ],
      [
        "ĠPreservation",
        -1.0
      ],
      [
        "ĠFaithful",
        -1.0
      ],
      [
        "Ġolmak",
        -1.0
      ],
      [
        "à¥Ģà¤ķà¤°à¤£",
        -1.0
      ],
      [
        "à¸´à¸Ķà¸ģà¸¥",
        -1.0
      ],
      [
        "ĠØ£ÙĨØ¸ÙħØ©",
        -1.0
      ],
      [
        "-mail",
        -1.0
      ],
      [
        "ĠKnights",
        -1.0
      ],
      [
        "åı£éŁ³",
        -1.0
      ],
      [
        "hili",
        -1.0
      ],
      [
        "Ġintestinal",
        -1.0
      ],
      [
        "Ġanayeingia",
        -1.0
      ],
      [
        "èĩªç§°",
        -1.0
      ],
      [
        "Ġyote",
        -1.0
      ],
      [
        "ĠØ§ÙĦÙģÙĦÙĤ",
        -1.0
      ],
      [
        "ĠÙħØªÙĪÙģØ±Ø§",
        -1.0
      ],
      [
        "ĠÑĦÐ¾ÑĢÐ¼ÑĥÐ»Ðµ",
        -1.0
      ],
      [
        "î",
        -1.0
      ],
      [
        "Ġreferrals",
        -1.0
      ],
      [
        "Ġà¸łà¸²à¸Ħ",
        -1.0
      ],
      [
        "yanlar",
        -1.0
      ],
      [
        "ĠYÃĸNETÄ°MÄ°",
        -1.0
      ],
      [
        "ĠÐĲÐ³Ð°ÑĤÐ°Ð½Ð³ÐµÐ»Ð¾Ñģ",
        -1.0
      ],
      [
        "ĠØ¹Ø§ÙĨØ³Ø§",
        -1.0
      ],
      [
        "Ø°ÙĩØ§",
        -1.0
      ],
      [
        "Ð¼",
        -1.0
      ],
      [
        "jar",
        -1.0
      ],
      [
        "Ġuhusiano",
        -1.0
      ],
      [
        "ĠÑģÐµÑĢÐ²Ð°Ð½ÑĤÐ¾Ð²",
        -1.0
      ],
      [
        "Os",
        -1.0
      ],
      [
        "ĠAina",
        -1.0
      ],
      [
        "ĠÐľÑĥÑĪÐºÐ¸Ð½",
        -1.0
      ],
      [
        "ÐļÐ°ÑĢÐ»Ð°",
        -1.0
      ],
      [
        "ĠkulaklarÄ±",
        -1.0
      ],
      [
        "ÑıÑĤ",
        -1.0
      ],
      [
        "stle",
        -1.0
      ],
      [
        "(à°¡",
        -1.0
      ],
      [
        "Ġaccorde",
        -1.0
      ],
      [
        "ĠPeygamber",
        -1.0
      ],
      [
        "éĩĳé¡¹éĵ¾",
        -1.0
      ],
      [
        "ĠÐļÐ°Ð²ÐºÐ°Ð·",
        -1.0
      ],
      [
        "ĠÙĥØªØ¨Ø§",
        -1.0
      ],
      [
        "ĠEisenb",
        -1.0
      ],
      [
        "locked",
        -1.0
      ],
      [
        "Ġcro",
        -1.0
      ],
      [
        "ĠÙĦØªÙģØ±ÙĬØº",
        -1.0
      ],
      [
        "Ġtasin",
        -1.0
      ],
      [
        "åı¯ä»¥çĽ´æİ¥",
        -1.0
      ],
      [
        "ĠÐ¿ÑĥÑĩÐºÐ¾Ð²",
        -1.0
      ],
      [
        "à¥Ĥà¤ķà¤¨",
        -1.0
      ],
      [
        "ÙĤØ·Ø¹",
        -1.0
      ],
      [
        "ancÄ±",
        -1.0
      ],
      [
        "à¹īà¸ķà¸£à¸ĩà¸ģ",
        -1.0
      ],
      [
        "ĠÙĪÙħØ¯ÙĬØ±",
        -1.0
      ],
      [
        "å¾¹åºķ",
        -1.0
      ],
      [
        "à¸¢à¸²à¸ĩà¸ŀà¸²à¸£à¸²",
        -1.0
      ],
      [
        "ĠØ§ÙĦØ¹ÙĪØ¯",
        -1.0
      ],
      [
        "ĠØ£ØºÙĦØ¨ÙĬØ©",
        -1.0
      ],
      [
        "Ġpeluche",
        -1.0
      ],
      [
        "Ġdurumu",
        -1.0
      ],
      [
        "à¸±à¸ģà¸¡à¸²à¸ģà¸ģà¸§",
        -1.0
      ],
      [
        "à¹Īà¸«à¸¡à¸Ķ",
        -1.0
      ],
      [
        "ĠÙĦÙĩÙĬØ¨",
        -1.0
      ],
      [
        "à¹ĥà¸Īà¹Ģà¸Ĺ",
        -1.0
      ],
      [
        "prising",
        -1.0
      ],
      [
        "ĠØ§ÙĦÙħØ³ØªÙĩÙĦÙĥØ©",
        -1.0
      ],
      [
        "spi",
        -1.0
      ],
      [
        "æĭīæī¯",
        -1.0
      ],
      [
        "ãĢĤåĲĮæĻĤ",
        -1.0
      ],
      [
        "æĻ®é©¬åħ°åĬł",
        -1.0
      ],
      [
        "ĠØ±Ø¬Ø§ÙĦØ§Øª",
        -1.0
      ],
      [
        "Kitu",
        -1.0
      ],
      [
        "Ġà°İà°°à°Ĺà°¨",
        -1.0
      ],
      [
        "ĠOeuvre",
        -1.0
      ],
      [
        "ÙħØ³ØªØ´ÙģÙī",
        -1.0
      ],
      [
        "yacaktÄ±r",
        -1.0
      ],
      [
        "ĠÙħÙĦÙĦ",
        -1.0
      ],
      [
        "à¸ŀà¸£à¸°à¸Ļà¸²à¸¡",
        -1.0
      ],
      [
        "ĠHÃ¶hl",
        -1.0
      ],
      [
        "ĠCrÃ©merie",
        -1.0
      ],
      [
        "Ġkuwalinda",
        -1.0
      ],
      [
        "Ed",
        -1.0
      ],
      [
        "à¹Įà¸Ńà¸¢",
        -1.0
      ],
      [
        "Ġmfadhaiko",
        -1.0
      ],
      [
        "ä¹ŁçĦ¡æ³ķ",
        -1.0
      ],
      [
        "=office",
        -1.0
      ],
      [
        "ĠÃ©lÃ¨ve",
        -1.0
      ],
      [
        "à¸«à¸¡",
        -1.0
      ],
      [
        "ĠÐºÑĢÐ°ÑģÐ¸ÑĤÐµÐ»ÑĮ",
        -1.0
      ],
      [
        "åĲīæĻ®å£«",
        -1.0
      ],
      [
        "ÙĤÙģØ§ÙĦ",
        -1.0
      ],
      [
        "ĠÙĦØŃØ¯ÙĬØ«",
        -1.0
      ],
      [
        "å¯¿åĳ½",
        -1.0
      ],
      [
        "Ġzielekezwe",
        -1.0
      ],
      [
        "çļĦåĬĽ",
        -1.0
      ],
      [
        "lÄ±ÄŁÄ±",
        -1.0
      ],
      [
        "Ġmelt",
        -1.0
      ],
      [
        "ĠattÄ±r",
        -1.0
      ],
      [
        "ĠØ¯ÙĩØ´",
        -1.0
      ],
      [
        "Ġindirebilirsiniz",
        -1.0
      ],
      [
        "naval",
        -1.0
      ],
      [
        "à¸¸à¸ŀà¸£à¸°à¸Ńà¸£à¸«",
        -1.0
      ],
      [
        "ĠÑħÐ¾Ð·ÑıÐ¹",
        -1.0
      ],
      [
        "ĠØ§ÙĦØªØŃØ¯",
        -1.0
      ],
      [
        "Ġvineyard",
        -1.0
      ],
      [
        "ĠåĬĩ",
        -1.0
      ],
      [
        "ĠÙĪØªØ£ØªÙĬ",
        -1.0
      ],
      [
        "ĠÙĬÙģØªØ±Ø¶",
        -1.0
      ],
      [
        "ĠÙĪÙĬØ¬ØªØ§Ø²ÙĩØ§",
        -1.0
      ],
      [
        "ĠÐ¼Ð°ÑģÑģÐ°Ð¶",
        -1.0
      ],
      [
        "à°¿.(",
        -1.0
      ],
      [
        "à¸µà¸£à¸ķ",
        -1.0
      ],
      [
        "à°Ĥà°ĺà°Ł",
        -1.0
      ],
      [
        "Ġventure",
        -1.0
      ],
      [
        "à¸ĸà¸²",
        -1.0
      ],
      [
        "ĠÙĪØ§ÙĦØ§ÙħØ§ÙĥÙĨ",
        -1.0
      ],
      [
        "ãĢģçĶŁæ´»",
        -1.0
      ],
      [
        "ĠÙĦÙĨØµ",
        -1.0
      ],
      [
        "Ø§ÙĦØ£ÙĪØ±ÙĪØ¨ÙĬ",
        -1.0
      ],
      [
        "ĠØ¯Ø±ÙĬÚ¤ÙĪØ³",
        -1.0
      ],
      [
        "ĠØ¨ÙĩØ§Ø±Ø§Øª",
        -1.0
      ],
      [
        "çļĦéĩįè¦ģåĨħå®¹",
        -1.0
      ],
      [
        "ĠSengaloun",
        -1.0
      ],
      [
        "à°¾à°¸à°¨à°®",
        -1.0
      ],
      [
        "à¸Ńà¸ĩà¹Ģà¸Ĺ",
        -1.0
      ],
      [
        "ĠspÃ©cialisÃ©",
        -1.0
      ],
      [
        "Ġà¸ĩà¸²à¸Ļà¸Ļ",
        -1.0
      ],
      [
        "ĠMon",
        -1.0
      ],
      [
        "ç»Ļå¥¹",
        -1.0
      ],
      [
        "Ġziweze",
        -1.0
      ],
      [
        "à¹īà¸Ħà¸Ļà¸Ĺ",
        -1.0
      ],
      [
        "åı£å¤´",
        -1.0
      ],
      [
        "ĠÙĬÙĨØ³Ùī",
        -1.0
      ],
      [
        "TÃ©moignage",
        -1.0
      ],
      [
        "à¸µà¸¢à¸§à¹ģà¸¥",
        -1.0
      ],
      [
        "ĠØ£ÙĪØªÙĬ",
        -1.0
      ],
      [
        "åıĳæĶ¹å§Ķ",
        -1.0
      ],
      [
        "Ġà¹ģà¸¥à¸°à¸ªà¸Ļ",
        -1.0
      ],
      [
        "ĠÐ¿ÑĢÐµÐ´Ð»Ð°Ð³Ð°ÑĤÑĮ",
        -1.0
      ],
      [
        "Ø§ÙħØ¯",
        -1.0
      ],
      [
        "Ġnyekundu",
        -1.0
      ],
      [
        "GerÃ§ek",
        -1.0
      ],
      [
        "ĠNirvana",
        -1.0
      ],
      [
        "ĠÐļÐ°ÐºÐ¸Ðµ",
        -1.0
      ],
      [
        "Ġenzymes",
        -1.0
      ],
      [
        "ĠÐ½Ð°ÑĩÐ¾",
        -1.0
      ],
      [
        "ç¥ŀç¶ĵ",
        -1.0
      ],
      [
        "ĠZiraat",
        -1.0
      ],
      [
        "è¤²",
        -1.0
      ],
      [
        "ĠØ§ÙĦÙħØ¶Ø¨ÙĪØ·Ø©",
        -1.0
      ],
      [
        "Ġibrahim",
        -1.0
      ],
      [
        "ĠÐ¿ÐµÑĢÐ²Ð¸ÑĩÐ½Ð¾Ð¹",
        -1.0
      ],
      [
        "ĠKlasisi",
        -1.0
      ],
      [
        "åħ¬ä½Ī",
        -1.0
      ],
      [
        "ĠØ§ÙĦØªØ¶Ø§ÙħÙĨ",
        -1.0
      ],
      [
        "à¤Ĥà¤µà¤²",
        -1.0
      ],
      [
        "ĠÐ¿ÑĢÐµÐ´Ð¼ÐµÑĤ",
        -1.0
      ],
      [
        "store",
        -1.0
      ],
      [
        "ĠØ¹ÙĨÙĤÙĩ",
        -1.0
      ],
      [
        "Ġprecursor",
        -1.0
      ],
      [
        "à¹īà¸§à¸ľ",
        -1.0
      ],
      [
        "ĠÐ½Ð°ÐºÑĢÑĭÑĤÑĮ",
        -1.0
      ],
      [
        "ĠHana",
        -1.0
      ],
      [
        "Ġpennies",
        -1.0
      ],
      [
        "Ġimekanusha",
        -1.0
      ],
      [
        "ĠÑĢÐ¸Ð¼Ð»ÑıÐ½",
        -1.0
      ],
      [
        "æľĥè¢«çľĭè¦ĭçļĦ",
        -1.0
      ],
      [
        "ĠØ¹Ø±ÙģØªÙĩØ§",
        -1.0
      ],
      [
        "ĠÙĪØ²Ø¹ÙĬ",
        -1.0
      ],
      [
        "ĠÐ¾ÑĤÐ´Ð°Ð»Ð¸",
        -1.0
      ],
      [
        "ĠbilinÃ§altlarÄ±",
        -1.0
      ],
      [
        "Ġdrawn",
        -1.0
      ],
      [
        "ĠÐłÐ°Ð±Ð¾ÑĤÐ°",
        -1.0
      ],
      [
        "ĠÙª",
        -1.0
      ],
      [
        "ï¼Įå¥¹åľ¨",
        -1.0
      ],
      [
        "Ð·",
        -1.0
      ],
      [
        "ĠØ£ÙĪÙĦÙĩÙħØ§",
        -1.0
      ],
      [
        "ĠÙ±Ø³",
        -1.0
      ],
      [
        "Ġprocurant",
        -1.0
      ],
      [
        "Git",
        -1.0
      ],
      [
        "ĠniÃ§in",
        -1.0
      ],
      [
        "Ð¼Ð¾Ð½Ð°",
        -1.0
      ],
      [
        "Ù",
        -1.0
      ],
      [
        "Ġbra",
        -1.0
      ],
      [
        "Ġsabret",
        -1.0
      ],
      [
        "ĠÙĦÙĦÙĤÙĬÙħ",
        -1.0
      ],
      [
        "çĽ¡æĥħåľ°äº«åıĹ",
        -1.0
      ],
      [
        "Ġbarajlara",
        -1.0
      ],
      [
        "ĠMladenov",
        -1.0
      ],
      [
        "Ġmurat",
        -1.0
      ],
      [
        "Ġyaliyoletwa",
        -1.0
      ],
      [
        "ĠUSB",
        -1.0
      ],
      [
        "à¹ĩà¸Ļà¸Īà¸£",
        -1.0
      ],
      [
        "Ġregime",
        -1.0
      ],
      [
        "ĠÐ´Ð¾Ð¶Ð´Ð°ÑĤÑĮÑģÑı",
        -1.0
      ],
      [
        "ĠGoTab",
        -1.0
      ],
      [
        "ĠKÃ¼rdistan",
        -1.0
      ],
      [
        "à°¾à°¸à°¨à°¨",
        -1.0
      ],
      [
        "ĠÐ½Ð°ÑģÑĤÐµÐ½Ð½ÑĭÐµ",
        -1.0
      ],
      [
        "ĠÐºÐ¾Ð²ÑĢÑĭ",
        -1.0
      ],
      [
        "ĠLagos",
        -1.0
      ],
      [
        "Ð¿ÑĥÑģÑĤÐ¸Ð»",
        -1.0
      ],
      [
        "ĠPremiÃ¨res",
        -1.0
      ],
      [
        "ÐłÐ¾",
        -1.0
      ],
      [
        "ĠÐ´ÐµÐ»Ð°ÐµÑĤ",
        -1.0
      ],
      [
        "ĠÙĪØ°Ø±ÙĬØªÙĩ",
        -1.0
      ],
      [
        "ĠØªØ¶Ùħ",
        -1.0
      ],
      [
        "Ġnationally",
        -1.0
      ],
      [
        "ĠÐºÐ¾Ð²ÐµÑĢ",
        -1.0
      ],
      [
        "ĠÐ½Ð°Ð¿ÑĢÐ°Ð²Ð¸Ð»ÑģÑı",
        -1.0
      ],
      [
        "ĠPrince",
        -1.0
      ],
      [
        "Ġslammed",
        -1.0
      ],
      [
        "aleksandr",
        -1.0
      ],
      [
        "ĠØªÙħØ±",
        -1.0
      ],
      [
        "BuzdolabÄ±",
        -1.0
      ],
      [
        "à±ĩâĢ¦Ċ",
        -1.0
      ],
      [
        "å·¡",
        -1.0
      ],
      [
        "à¸µà¸¢à¸Ļà¹ģà¸Ķà¸ĩ",
        -1.0
      ],
      [
        "Ġkonforlu",
        -1.0
      ],
      [
        "ĠÙĬØ¯Ø±ÙĪÙĨ",
        -1.0
      ],
      [
        "ĠyaÅŁananlarÄ±",
        -1.0
      ],
      [
        "ĠØ§ÙĦØ§ÙĪØ¶Ø§Ø¹",
        -1.0
      ],
      [
        "äº¤æį¢æĦıè§ģ",
        -1.0
      ],
      [
        "à¥Ģà¤¼",
        -1.0
      ],
      [
        "ĠNeptune",
        -1.0
      ],
      [
        "Ġayetler",
        -1.0
      ],
      [
        "à¸±à¸Ļà¹Ħà¸§",
        -1.0
      ],
      [
        "gÃ¼zeL",
        -1.0
      ],
      [
        "Zaten",
        -1.0
      ],
      [
        "ĠÐ¾Ð±Ð¾ÑĪÐµÐ»",
        -1.0
      ],
      [
        "à±įà°£à°¶",
        -1.0
      ],
      [
        "ĠÐ²ÑĭÐ±Ð¾ÑĢÐ¾Ð¼",
        -1.0
      ],
      [
        "ĠÐ·Ð°Ð¿ÑıÑģÑĤÑĮÐµ",
        -1.0
      ],
      [
        "éĺ²æ²»æ±¡æŁĵè®¾æĸ½",
        -1.0
      ],
      [
        "à¤¿à¤Ĺà¤®",
        -1.0
      ],
      [
        "ÙĤÙĪØ´",
        -1.0
      ],
      [
        "ĠcomparÃ©",
        -1.0
      ],
      [
        "ĠÐ´Ð¾Ð¼Ðµ",
        -1.0
      ],
      [
        "ç¥ŀç»ıåıįé¦Ī",
        -1.0
      ],
      [
        "æ°¸è¿ľ",
        -1.0
      ],
      [
        "åĵĢèĻŁ",
        -1.0
      ],
      [
        "åĲ¯",
        -1.0
      ],
      [
        "Ġsourire",
        -1.0
      ],
      [
        "ĠOperations",
        -1.0
      ],
      [
        "lumun",
        -1.0
      ],
      [
        "Ġà°®à°Ĺà°¤à°¨",
        -1.0
      ],
      [
        "Ġizleye",
        -1.0
      ],
      [
        "ÙĪØ¹Ø©",
        -1.0
      ],
      [
        "Ġwriters",
        -1.0
      ],
      [
        ".kcenergy",
        -1.0
      ],
      [
        "à°İà°°",
        -1.0
      ],
      [
        "à¸±à¸ĩà¸Ĺ",
        -1.0
      ],
      [
        "Ġteklisi",
        -1.0
      ],
      [
        "Ġanticipated",
        -1.0
      ],
      [
        "Konferans",
        -1.0
      ],
      [
        "ĠMatumizi",
        -1.0
      ],
      [
        "ÑĤÐ¾",
        -1.0
      ],
      [
        "å°±è¦ģéĸĭå§ĭ",
        -1.0
      ],
      [
        "ĠÐĿÐµÐ±ÐµÑģÐ½ÑĭÐ¼",
        -1.0
      ],
      [
        "MO",
        -1.0
      ],
      [
        "ech",
        -1.0
      ],
      [
        "Ġburger",
        -1.0
      ],
      [
        "Ġufki",
        -1.0
      ],
      [
        "ĠGÃ¼rsel",
        -1.0
      ],
      [
        "ĠØ£Ø¹ÙħØ§ÙĤ",
        -1.0
      ],
      [
        "dÄ±ÄŁÄ±m",
        -1.0
      ],
      [
        "Ùı}Ċ",
        -1.0
      ],
      [
        "ĠBilgiler",
        -1.0
      ],
      [
        "Ġentitled",
        -1.0
      ],
      [
        "åįıåķĨ",
        -1.0
      ],
      [
        "ĠqualitÃ©s",
        -1.0
      ],
      [
        "à¸±à¸Ķà¸Ĺà¸³à¹Ĥà¸Ķà¸¢",
        -1.0
      ],
      [
        "ĠÐ¿Ð¾Ð´Ð²ÐµÑĢÐ³Ð»Ð¸ÑģÑĮ",
        -1.0
      ],
      [
        "Ġnaye",
        -1.0
      ],
      [
        "Tallahassee",
        -1.0
      ],
      [
        "à¥Ĥà¤ĤĊ",
        -1.0
      ],
      [
        "ĠÙĪØ§ÙĦØ£Ø³ÙĩÙħ",
        -1.0
      ],
      [
        "à¹īà¹Ħà¸Ķ",
        -1.0
      ],
      [
        "KÄ°ÅŀÄ°SEL",
        -1.0
      ],
      [
        "ĠÑĤÑĢÐ°Ð½ÑĪÐµÑİ",
        -1.0
      ],
      [
        "ä¸īåĲį",
        -1.0
      ],
      [
        "ĠÐ¾ÐºÐ°Ð·ÑĭÐ²Ð°ÑİÑĤÑģÑı",
        -1.0
      ],
      [
        "Ġvandal",
        -1.0
      ],
      [
        "ĠSure",
        -1.0
      ],
      [
        "ĠØ¬Ø§Ø¯",
        -1.0
      ],
      [
        "çļĦåľ°çĽĺ",
        -1.0
      ],
      [
        "Ġà¸Ńà¸Ńà¸£",
        -1.0
      ],
      [
        "à±įà°¦à°Ł",
        -1.0
      ],
      [
        "ä¸įåĪ°ä¸¤",
        -1.0
      ],
      [
        "MÄ°Åŀ",
        -1.0
      ],
      [
        "Ġà¸ģà¸Ńà¸ĩ",
        -1.0
      ],
      [
        "Ġtoughest",
        -1.0
      ],
      [
        "âĢľæĹłPINæĭ¨åı·",
        -1.0
      ],
      [
        "ĠÙĬØŃØ¯Ø¯ÙĪÙĨ",
        -1.0
      ],
      [
        "èĥ½ä»İåĸĦå¦Ĥæµģ",
        -1.0
      ],
      [
        "à°¬à°¶",
        -1.0
      ],
      [
        "à¸±à¸Ķà¹ģà¸ķ",
        -1.0
      ],
      [
        "ĠÙĦØºØ©",
        -1.0
      ],
      [
        "ĠÙĦÙĦØªÙĪØ³Ø¹",
        -1.0
      ],
      [
        "Ġà¤Ľà¤ķ",
        -1.0
      ],
      [
        "ĠØ³ÙĪØ§Ø¯",
        -1.0
      ],
      [
        "ĠÙĦÙĦØªØ£Ø«ÙĬØ±",
        -1.0
      ],
      [
        "ÙĪØ¨Ø§ÙĨ",
        -1.0
      ],
      [
        "ĠØ§Ø±ÙĤØ¯ÙĪØ§",
        -1.0
      ],
      [
        "à¹Ħà¸ĩ",
        -1.0
      ],
      [
        "ĠedebiyatÄ±nda",
        -1.0
      ],
      [
        "ĠÐ¡Ð¸Ð±Ð»Ð¸",
        -1.0
      ],
      [
        "ÐŁÐ¾",
        -1.0
      ],
      [
        "ãĢģæľī",
        -1.0
      ],
      [
        "ĠÑģÑĤÐ°ÑĢÑĤÐ¾Ð²ÑĭÐ¹",
        -1.0
      ],
      [
        "ĠÙģØ®ÙĦÙĤ",
        -1.0
      ],
      [
        "ĠØ¶ÙħÙĨÙĩØ§",
        -1.0
      ],
      [
        ".ap",
        -1.0
      ],
      [
        "ĠØ§ÙĦÙĨØ®ÙĬØ¨",
        -1.0
      ],
      [
        "ĠgeÃ§irilmesi",
        -1.0
      ],
      [
        "eee",
        -1.0
      ],
      [
        "åĪ°å°ı",
        -1.0
      ],
      [
        "ĠØ¨Ø¬ÙĪØ§ÙĨØ¨",
        -1.0
      ],
      [
        "ĠHE",
        -1.0
      ],
      [
        "ĠØ§ÙĦÙĥÙĬÙħÙĬØ§Ø¦ÙĬØ©",
        -1.0
      ],
      [
        "ĠÐ²Ð½Ð¾Ð²ÑĮ",
        -1.0
      ],
      [
        "ĠÅŀuanki",
        -1.0
      ],
      [
        "äºĨä¸ĢæĶ¯",
        -1.0
      ],
      [
        "Ġvaincre",
        -1.0
      ],
      [
        "à¹ģà¸Ļà¸§à¸Ĺ",
        -1.0
      ],
      [
        "ãĢķ",
        -1.0
      ],
      [
        "SÄ°YON",
        -1.0
      ],
      [
        "à¸µà¸Ńà¸²à¸įà¸²",
        -1.0
      ],
      [
        "åĪ¶éĢłçļĦ",
        -1.0
      ],
      [
        ".microsoft",
        -1.0
      ],
      [
        "sar",
        -1.0
      ],
      [
        "à¹Īà¹Ħà¸«à¸¡à¸Ħà¸£",
        -1.0
      ],
      [
        "ĠÃľst",
        -1.0
      ],
      [
        "ĠØ§Ø³Ø¦ÙĦØ©",
        -1.0
      ],
      [
        "æİ¨",
        -1.0
      ],
      [
        "Ġmadhumuni",
        -1.0
      ],
      [
        "à¸µà¸¢à¸ĩà¸ŀà¸Ń",
        -1.0
      ],
      [
        "éĩĳåŃĹå¡Ķ",
        -1.0
      ],
      [
        "Ġà¸Ļà¸²à¸ĩ",
        -1.0
      ],
      [
        "ĠStation",
        -1.0
      ],
      [
        "ĠØ§ÙĦØ¹Ø§Ø¯ÙĬØ©",
        -1.0
      ],
      [
        "ĠØ§ÙĦØŃÙĥÙĪÙħÙĬ",
        -1.0
      ],
      [
        "ĠÙĦØ¬ÙĬØ´",
        -1.0
      ],
      [
        "ä½ľæĸĩ",
        -1.0
      ],
      [
        "Ġemporter",
        -1.0
      ],
      [
        "à¥ĩ?",
        -1.0
      ],
      [
        "à¸Ĺà¸²à¸ĩà¸ªà¸ĸ",
        -1.0
      ],
      [
        "å¾µ",
        -1.0
      ],
      [
        "ĠChurches",
        -1.0
      ],
      [
        "Ġmatofali",
        -1.0
      ],
      [
        "éĽĻ",
        -1.0
      ],
      [
        "'à°¸",
        -1.0
      ],
      [
        "à±įà°§à°®à°¯",
        -1.0
      ],
      [
        "æīĢéĩĩçĶ¨",
        -1.0
      ],
      [
        "Ġtaslakta",
        -1.0
      ],
      [
        "ĠparamÃ¨tres",
        -1.0
      ],
      [
        "à¹Įà¸ģà¸³à¸¥",
        -1.0
      ],
      [
        "ĠÙĨØ´Ø·Øª",
        -1.0
      ],
      [
        "ĠÙĪØ¨ÙĨÙī",
        -1.0
      ],
      [
        "ĠImage",
        -1.0
      ],
      [
        "Ġbelirtilere",
        -1.0
      ],
      [
        "Ġharder",
        -1.0
      ],
      [
        "Ġnitumie",
        -1.0
      ],
      [
        "ä¸ŃæĸĩçļĦ",
        -1.0
      ],
      [
        "Ð¾ÑĢÐ¸Ð³Ð¸Ð½Ð°Ð»",
        -1.0
      ],
      [
        "lls",
        -1.0
      ],
      [
        "à¸±à¸ķà¸ķà¸°",
        -1.0
      ],
      [
        "Ġnedenlerle",
        -1.0
      ],
      [
        "ĠÑĢÐµÐ°Ð»Ð¸Ð·Ð°ÑĨÐ¸Ñı",
        -1.0
      ],
      [
        "ĠsokaklarÄ±nda",
        -1.0
      ],
      [
        "Ġpulling",
        -1.0
      ],
      [
        "ĠÐ½ÐµÐ±Ð¾Ð»ÑĮÑĪÐ¸Ð¼",
        -1.0
      ],
      [
        "Ġbezi",
        -1.0
      ],
      [
        "ĠÙĪÙĬØ³Øª",
        -1.0
      ],
      [
        "Ġkuwashughulikia",
        -1.0
      ],
      [
        "à¸´à¸Ļà¹ģà¸¡",
        -1.0
      ],
      [
        "Ġbarbecue",
        -1.0
      ],
      [
        "ĠÐļÐ°Ð¼",
        -1.0
      ],
      [
        "/KÄ±ÅŁ",
        -1.0
      ],
      [
        "kulingana",
        -1.0
      ],
      [
        "Ġà¤ĳà¤¬",
        -1.0
      ],
      [
        "ĠÐĳÐ¾Ð³",
        -1.0
      ],
      [
        "ĠÐ¾ÑĢÑĦÐ¾Ð³ÑĢÐ°ÑĦÐ¸Ñı",
        -1.0
      ],
      [
        "Ġà¹Ģà¸Ľà¸£",
        -1.0
      ],
      [
        "ĠInner",
        -1.0
      ],
      [
        "ä¸ĩä½Ļåħĥ",
        -1.0
      ],
      [
        "ØŁâĢĿ.Ċ",
        -1.0
      ],
      [
        "Ġaliyoitoa",
        -1.0
      ],
      [
        "à°®à°¤",
        -1.0
      ],
      [
        "ä¸įæİĴéĻ¤",
        -1.0
      ],
      [
        "æĺİæ¸ħåħ©ä»£",
        -1.0
      ],
      [
        "æ¯įçº¿",
        -1.0
      ],
      [
        "ĠØ§ÙĦØŃØ¶ÙĪØ±",
        -1.0
      ],
      [
        "Ġdonat",
        -1.0
      ],
      [
        "à¸±à¸ģà¸©à¸²à¸£",
        -1.0
      ],
      [
        "Ġpour",
        -1.0
      ],
      [
        "Ġameitoa",
        -1.0
      ],
      [
        "ĠÙĪØ§ÙĦÙĬØ³",
        -1.0
      ],
      [
        "ĠØŃØ§ÙĦØ§ØªÙĩÙħ",
        -1.0
      ],
      [
        "à±įà°·à°ķ",
        -1.0
      ],
      [
        "ĠÐĲÑĢÑĤÐ°Ð±Ð°Ð½Ð°",
        -1.0
      ],
      [
        "ĠBerman",
        -1.0
      ],
      [
        "ĠAvukat",
        -1.0
      ],
      [
        "Ġà¤ľà¤Ł",
        -1.0
      ],
      [
        "à¹Īà¸Ļà¹Ģà¸Ħà¸£",
        -1.0
      ],
      [
        "Ø¢ÙĦÙĥ",
        -1.0
      ],
      [
        "ĠÐ¼ÐµÑĪÐ°Ð»Ð¾",
        -1.0
      ],
      [
        "ÑĭÐ¹",
        -1.0
      ],
      [
        "ĠÑģÐ¸ÑģÑĤÐµÐ¼Ð½ÑĭÐ¹",
        -1.0
      ],
      [
        "ĠÐ°ÐºÑĤÐ¸Ð²Ð½Ð¾ÑģÑĤÑĮÑİ",
        -1.0
      ],
      [
        "crites",
        -1.0
      ],
      [
        "åıªçŁ¥éģĵ",
        -1.0
      ],
      [
        "ĠÙĬØªÙĨØ§ÙĤØ¶",
        -1.0
      ],
      [
        "NGK",
        -1.0
      ],
      [
        "ĠDÃĸSÄ°AD",
        -1.0
      ],
      [
        "ĠØ§ÙĦØ§ÙĥØ±Ø§Ø¯",
        -1.0
      ],
      [
        "ĠÙĪØ§Ø¹ØªØ°Ø§Ø±ÙĬ",
        -1.0
      ],
      [
        "ØŃÙħØ©",
        -1.0
      ],
      [
        "à¸´à¸Ķà¸Ŀ",
        -1.0
      ],
      [
        "ĠWahakiki",
        -1.0
      ],
      [
        "ĠÃ§Ã¶zmeye",
        -1.0
      ],
      [
        "ĠKendisine",
        -1.0
      ],
      [
        "Raisi",
        -1.0
      ],
      [
        "Ġkuzingatiwa",
        -1.0
      ],
      [
        "ĠØ§ÙĦÙħØ³Ø¨Ø¨",
        -1.0
      ],
      [
        "kata",
        -1.0
      ],
      [
        "ï¼Įèī¾æľªæľªæĺ¯",
        -1.0
      ],
      [
        "çļĦåķ¦",
        -1.0
      ],
      [
        "ias",
        -1.0
      ],
      [
        "Ð¸ÑĢÑĥÑİÑĤÑģÑı",
        -1.0
      ],
      [
        "ĠnamazÄ±",
        -1.0
      ],
      [
        "ĠÙħÙĤØªÙĦÙĩ",
        -1.0
      ],
      [
        "ĠØ§ÙĦÙħÙĥØ±Ø±",
        -1.0
      ],
      [
        "Ġway",
        -1.0
      ],
      [
        "ĠAlvin",
        -1.0
      ],
      [
        "ĠØŃÙħÙĦ",
        -1.0
      ],
      [
        "dre",
        -1.0
      ],
      [
        "à¹Īà¸²à¸Īà¸°à¸ª",
        -1.0
      ],
      [
        "éģ¿åŃķ",
        -1.0
      ],
      [
        "anapo",
        -1.0
      ],
      [
        "ĠAnomalous",
        -1.0
      ],
      [
        "ĠØ¥ÙĤØŃØ§Ùħ",
        -1.0
      ],
      [
        "Ø§ÙĦØ³ÙĨØ©",
        -1.0
      ],
      [
        "ĠÐ°ÑĨÐµÑĤÐ°ÑĤÐ°",
        -1.0
      ],
      [
        "ÑģÐºÐ°ÑĤÑĮ",
        -1.0
      ],
      [
        "ĠsiÃ©ger",
        -1.0
      ],
      [
        "Ġà¸Ķà¸²à¸ļ",
        -1.0
      ],
      [
        "à¸·à¸Ńà¸ļà¹Ģà¸Ĺ",
        -1.0
      ],
      [
        "ĠÐ¾Ð¿Ð°ÑģÐµÐ½Ð¸Ñı",
        -1.0
      ],
      [
        "ĠÙĪØ§ÙĦÙħØµØ§Ø¯Ø±",
        -1.0
      ],
      [
        "ĠSomalis",
        -1.0
      ],
      [
        "å°ıç¯Ģ",
        -1.0
      ],
      [
        "jiuzulu",
        -1.0
      ],
      [
        "aun",
        -1.0
      ],
      [
        "ĠÙĬØ±ÙĪÙħ",
        -1.0
      ],
      [
        "ĠØªØªØ£ÙĦÙģ",
        -1.0
      ],
      [
        "Ġileriye",
        -1.0
      ],
      [
        "Ġvitushi",
        -1.0
      ],
      [
        "è¸ıåĭķèħ³è¸ı",
        -1.0
      ],
      [
        "å¥ĸ",
        -1.0
      ],
      [
        "à¥Īà¤Ĥ.\"Ċ",
        -1.0
      ],
      [
        "ĠGÄ°",
        -1.0
      ],
      [
        "à¥įà¤¸à¤¨à¤²",
        -1.0
      ],
      [
        "ĠÙħØ¹ØªØ¨Ø±Ø§",
        -1.0
      ],
      [
        "à¸µà¸¢à¸Ķà¹Ħà¸Ķ",
        -1.0
      ],
      [
        "ĠÑĨÐµÐ»Ð¸ÐºÐ¾Ð¼",
        -1.0
      ],
      [
        "Ġridiculously",
        -1.0
      ],
      [
        "non",
        -1.0
      ],
      [
        "Ø§Ø¦Ø±Ø©",
        -1.0
      ],
      [
        "ĠØ¹Ø¬ÙĬÙĨØ©",
        -1.0
      ],
      [
        "\"Nili",
        -1.0
      ],
      [
        "ĠÐ¾Ð±ÑīÐ¸Ñħ",
        -1.0
      ],
      [
        "aramu",
        -1.0
      ],
      [
        "åĲįçīĩ",
        -1.0
      ],
      [
        "èµĺ",
        -1.0
      ],
      [
        "xxxsex",
        -1.0
      ],
      [
        "à¸·à¸Ńà¸Ķà¸ª",
        -1.0
      ],
      [
        "ĠCongressional",
        -1.0
      ],
      [
        "Ġlabirent",
        -1.0
      ],
      [
        "ĠÑĤÐ°ÐºÐ¾Ð²ÑĭÑħ",
        -1.0
      ],
      [
        "ĠÑģÐ¾ÑģÑĤÐ¾Ð¸ÑĤÑģÑı",
        -1.0
      ],
      [
        "ĠÙĦÙģØ±",
        -1.0
      ],
      [
        "à¥įà¤¨à¤¤",
        -1.0
      ],
      [
        "Ġaki",
        -1.0
      ],
      [
        "ĠkaÅŁÄ±ÄŁÄ±",
        -1.0
      ],
      [
        "ĠØ§ÙĦÙĬÙħÙĨÙĬ",
        -1.0
      ],
      [
        "ĠÑĢÐ°Ð·Ð´ÑĢÐ°Ð¶ÐµÐ½Ð¸Ðµ",
        -1.0
      ],
      [
        "ĠphÃ©nomÃ¨nes",
        -1.0
      ],
      [
        "è¿Ľåħ¥å¸Ĥåľº",
        -1.0
      ],
      [
        "ĠPerry",
        -1.0
      ],
      [
        "Ð±ÑĮÑİ",
        -1.0
      ],
      [
        "ï¼ĮåİŁåĽł",
        -1.0
      ],
      [
        "ĠSIKUKUU",
        -1.0
      ],
      [
        "à¸£à¸ĸà¹Ģà¸¡à¸¥",
        -1.0
      ],
      [
        "ĠÙħØŃÙħØ¯",
        -1.0
      ],
      [
        "à¸´à¹Ģà¸§",
        -1.0
      ],
      [
        "ĠeditÃ¶r",
        -1.0
      ],
      [
        "ĠÐ¾Ð±ÑĢÐµÐ»Ð°",
        -1.0
      ],
      [
        "Properties",
        -1.0
      ],
      [
        "åħ¸åŀĭçļĦ",
        -1.0
      ],
      [
        "ĠSTATIONARY",
        -1.0
      ],
      [
        "ÐŁÑĢÐ¸ÑĩÐ¸Ð½Ñĭ",
        -1.0
      ],
      [
        "à¸£à¸Ńà¸ļà¸Ħà¸Ńà¸ļ",
        -1.0
      ],
      [
        "à¸±à¸§à¹Ģà¸Ńà¸ĩà¸Ĺ",
        -1.0
      ],
      [
        "ĠÑĨÐµÐ¿Ð¿ÐµÐ»Ð¸Ð½Ñĭ",
        -1.0
      ],
      [
        "Ġà¸Ľà¸£à¸°à¸ķ",
        -1.0
      ],
      [
        "Ġevlerinden",
        -1.0
      ],
      [
        "ĠbaÅŁladÄ±ÄŁÄ±nÄ±",
        -1.0
      ],
      [
        "Ġmadogo",
        -1.0
      ],
      [
        "à¸Ĭà¸Ńà¸ļ",
        -1.0
      ],
      [
        "ĠØ¨Ø£ÙħØ±Ùĩ",
        -1.0
      ],
      [
        "ĠyÃ¼rÃ¼yÃ¼ÅŁ",
        -1.0
      ],
      [
        "ĠAlthough",
        -1.0
      ],
      [
        "ÑģÐµÐ¼ÑĮ",
        -1.0
      ],
      [
        "à¹Īà¸¡à¸²à¹ĥà¸«",
        -1.0
      ],
      [
        "æľªä¾Ĩ",
        -1.0
      ],
      [
        "Ġwenza",
        -1.0
      ],
      [
        "ĠÑģÑĢÐ°Ð·Ñĥ",
        -1.0
      ],
      [
        "ĠIls",
        -1.0
      ],
      [
        "ĠÙĦÙĩØ§",
        -1.0
      ],
      [
        "ĠÐĴÐ¸ÐºÑĤÐ¾ÑĢ",
        -1.0
      ],
      [
        "è³ŀå¤ľæ¡Ĳ",
        -1.0
      ],
      [
        "ĠØ¥ÙĨØªØ§Ø¬ÙĬØ©",
        -1.0
      ],
      [
        "åĪ¥äººçļĦ",
        -1.0
      ],
      [
        "çłĮæĪĲ",
        -1.0
      ],
      [
        "ĠØ¨Ø§ÙĦØ¬Ø§ÙħØ¹Ø©",
        -1.0
      ],
      [
        "Ġtomber",
        -1.0
      ],
      [
        "Ġkub",
        -1.0
      ],
      [
        "ĠÐ·Ð²ÐµÐ·Ð´Ñĭ",
        -1.0
      ],
      [
        "Kurt",
        -1.0
      ],
      [
        "ĠGirls",
        -1.0
      ],
      [
        "åħģè®¸",
        -1.0
      ],
      [
        "ĠÐĵÐ¾Ð²Ð¾ÑĢÑİ",
        -1.0
      ],
      [
        "à¸±à¸ŀà¸ŀà¸°",
        -1.0
      ],
      [
        "ÐµÐ²Ð°Ð»",
        -1.0
      ],
      [
        "ĠÑĥÑĩÐ°ÑģÑĤÐ½Ð¸ÐºÐ¾Ð¼",
        -1.0
      ],
      [
        "Ġ<<",
        -1.0
      ],
      [
        "ĠgerÃ§ekleÅŁmesi",
        -1.0
      ],
      [
        "à¸Ħà¸§à¸¢à¸ŀ",
        -1.0
      ],
      [
        "Ġhighest",
        -1.0
      ],
      [
        "Ġutaratibu",
        -1.0
      ],
      [
        "Ġakidhani",
        -1.0
      ],
      [
        "-Majlisi",
        -1.0
      ],
      [
        "à¸¹à¹ĥà¸Ļ",
        -1.0
      ],
      [
        "à±ĩà°¨à°²",
        -1.0
      ],
      [
        "Ø¶Ø§Ø©",
        -1.0
      ],
      [
        "ä¸ĢçĶŁä¸Ń",
        -1.0
      ],
      [
        "Ġopsiyonunu",
        -1.0
      ],
      [
        "à¸¶à¸ĩà¸Ħà¸§à¸²à¸¡à¸ª",
        -1.0
      ],
      [
        "à±įà°¤à°ª",
        -1.0
      ],
      [
        "ONGOZI",
        -1.0
      ],
      [
        "Johnson",
        -1.0
      ],
      [
        "Ġubadili",
        -1.0
      ],
      [
        "ÙĩØ©",
        -1.0
      ],
      [
        "Ġà°²à°µà°¡",
        -1.0
      ],
      [
        "Ġarabalar",
        -1.0
      ],
      [
        "ä¸Ģå¸Ĩé£İé¡º",
        -1.0
      ],
      [
        "à¸ģà¸²à¸£à¹ģà¸Ĥ",
        -1.0
      ],
      [
        "caire",
        -1.0
      ],
      [
        "çĶ«",
        -1.0
      ],
      [
        "ĠÙħÙĨØªØ³Ø¨",
        -1.0
      ],
      [
        "ĠØ§ÙĦØ£ØªÙĬ",
        -1.0
      ],
      [
        "Ġismine",
        -1.0
      ],
      [
        "ĠFolk",
        -1.0
      ],
      [
        "ĠSputnik",
        -1.0
      ],
      [
        "à¥įà¤Łà¤¤",
        -1.0
      ],
      [
        "åīįåĲİè¼ª",
        -1.0
      ],
      [
        "Ġplairont",
        -1.0
      ],
      [
        "ĠÙĪÙģØ¶ÙĦÙĩ",
        -1.0
      ],
      [
        "pang",
        -1.0
      ],
      [
        "Ġanajibu",
        -1.0
      ],
      [
        "ĠØ£Ø±ÙĥØ§Ø¯ÙĬÙĦ",
        -1.0
      ],
      [
        "åī©",
        -1.0
      ],
      [
        "éĥ¨éķ¿",
        -1.0
      ],
      [
        "Ġujumla",
        -1.0
      ],
      [
        "swahili",
        -1.0
      ],
      [
        "Ð°ÑİÑīÐµÐµ",
        -1.0
      ],
      [
        "ĠÙĪØ·ÙħØ£ÙĨ",
        -1.0
      ],
      [
        "ĠaralarÄ±na",
        -1.0
      ],
      [
        "focus",
        -1.0
      ],
      [
        "Ġelbiseye",
        -1.0
      ],
      [
        "ĠØŃÙĬØ§ØªÙĩÙħ",
        -1.0
      ],
      [
        "Ġà¹ĥà¸ļà¹Ģà¸Ķ",
        -1.0
      ],
      [
        "å¤©ä¸ĭ",
        -1.0
      ],
      [
        "ĠÙĪØ§ØµØ¨ØŃØª",
        -1.0
      ],
      [
        "Ġcouple",
        -1.0
      ],
      [
        "ĠNiÃ§in",
        -1.0
      ],
      [
        "ropriÃ©tÃ©",
        -1.0
      ],
      [
        "åħ¬åħ±åį«çĶŁåŃ¦éĻ¢",
        -1.0
      ],
      [
        "à¹Ģà¸Ĺà¸Ńà¸įà¸¯",
        -1.0
      ],
      [
        "Ġå¯Ĩç¢¼",
        -1.0
      ],
      [
        "ĠhaftalÄ±k",
        -1.0
      ],
      [
        "æľĥéĢłæĪĲèĥ¸èħº",
        -1.0
      ],
      [
        "ĠÐ¶ÐµÑĢÑĤÐ²Ð°Ð¼Ð¸",
        -1.0
      ],
      [
        "à¸´à¸¡",
        -1.0
      ],
      [
        "ĠÑĤÐ¾ÑĢÐ³Ð¾Ð²ÑĭÐ¼",
        -1.0
      ],
      [
        "ĠÙĬØ³Ø¯ÙĪÙĨ",
        -1.0
      ],
      [
        "ĠØ§ÙĦØ°ÙĩØ§Ø¨",
        -1.0
      ],
      [
        "Ġvimeumbwa",
        -1.0
      ],
      [
        "Ġsoguk",
        -1.0
      ],
      [
        "ĠØ§ÙĦØ¹Ø¨Ø§Ø¯",
        -1.0
      ],
      [
        "ĠRecently",
        -1.0
      ],
      [
        "æľ¬ä¾Ĩ",
        -1.0
      ],
      [
        "ĠÙĬÙĨØ§Ø³Ø¨ÙĩØ§",
        -1.0
      ],
      [
        "ĠéĿŀå¸¸æ¦®å¹¸èĥ½èĪĩ",
        -1.0
      ],
      [
        "à¸·à¸Ńà¸ģà¸ķ",
        -1.0
      ],
      [
        "çĽ¸åºĶ",
        -1.0
      ],
      [
        "Ġetmesini",
        -1.0
      ],
      [
        "ĠØªÙħØ¶ÙĬ",
        -1.0
      ],
      [
        "ĠkafayÄ±",
        -1.0
      ],
      [
        "Ġrepos",
        -1.0
      ],
      [
        "Tour",
        -1.0
      ],
      [
        "à¸ªà¸²à¸Ĥà¸²",
        -1.0
      ],
      [
        "à¸´à¸ģà¸²à¸£à¹Ħà¸¡",
        -1.0
      ],
      [
        "æĶ¹éĿ©æĸ¹æ¡ĪçļĦ",
        -1.0
      ],
      [
        "åıĪæľī",
        -1.0
      ],
      [
        "ĠrÃ©sidences",
        -1.0
      ],
      [
        "à¸²à¸°à¸Ĺ",
        -1.0
      ],
      [
        "ĠRecensement",
        -1.0
      ],
      [
        "ĠÙħÙĬÙĥØ±ÙĪØ¨Ø§Øª",
        -1.0
      ],
      [
        "ĠØ§Ø´ØªØ±Ùī",
        -1.0
      ],
      [
        "à¸Ļà¹Ģà¸Ĥ",
        -1.0
      ],
      [
        "ÙıØ±Ø¬Ø¹",
        -1.0
      ],
      [
        "Th",
        -1.0
      ],
      [
        "à¸±à¸§à¹Ģà¸¥à¸Ĥà¸Ĺ",
        -1.0
      ],
      [
        "ĠØ§ÙĦÙħØ¹ÙĩÙĪØ¯",
        -1.0
      ],
      [
        "Ġselling",
        -1.0
      ],
      [
        "æľŁæľªæĶ¹",
        -1.0
      ],
      [
        "Ġkush",
        -1.0
      ],
      [
        "ĠÐľÐµÑĩ",
        -1.0
      ],
      [
        "é»ĦçŁ³",
        -1.0
      ],
      [
        "Ġhamm",
        -1.0
      ],
      [
        "à¹Īà¸²à¹Ĥà¸Ńà¸£",
        -1.0
      ],
      [
        "Ø§ÙĦØªÙĨ",
        -1.0
      ],
      [
        "Ð¸Ð·Ð¼Ð¾Ð¼",
        -1.0
      ],
      [
        "ĠÐºÐ°ÑĢÐ´Ð¸",
        -1.0
      ],
      [
        "à¸£à¸ª",
        -1.0
      ],
      [
        "ä¸°çĽĽ",
        -1.0
      ],
      [
        "Ġkur",
        -1.0
      ],
      [
        "Ġjustes",
        -1.0
      ],
      [
        "èĦ«äºĨ",
        -1.0
      ],
      [
        "ÐĴÐ»",
        -1.0
      ],
      [
        "ĠØ§ÙĦØ³Ø§Ø¨Ø¹",
        -1.0
      ],
      [
        "ĠÙħØ³ØªÙģØ¹ÙĦÙĨ",
        -1.0
      ],
      [
        "ĠØ§ÙĦÙħØ®",
        -1.0
      ],
      [
        "åĦªçķ°çļĦ",
        -1.0
      ],
      [
        "Ġspecification",
        -1.0
      ],
      [
        "ĠÑĤÑĢÐµÐ²Ð¾Ð³Ð¸",
        -1.0
      ],
      [
        "graphs",
        -1.0
      ],
      [
        "à¹īà¸²à¹ģà¸¥à¸°à¸¥",
        -1.0
      ],
      [
        "à¸µà¸Ĺà¸³",
        -1.0
      ],
      [
        "Ġkuvuruga",
        -1.0
      ],
      [
        "ĠØŃØ³Ø¨ÙħØ§",
        -1.0
      ],
      [
        "ĠÐ³ÑĢÑĥÐ¿Ð¿Ð°",
        -1.0
      ],
      [
        "ĠÙĪØªØŃÙĪÙĬÙĦÙĩØ§",
        -1.0
      ],
      [
        "ĠWaq",
        -1.0
      ],
      [
        "à¸´à¸įà¸ª",
        -1.0
      ],
      [
        "Ġkujiendeshea",
        -1.0
      ],
      [
        "ĠÐ¥ÑĥÐ¼ÐµÐ¹Ð´",
        -1.0
      ],
      [
        "ĠÐ¿Ð°ÑĢÐ»Ð°Ð¼ÐµÐ½ÑĤÐ°",
        -1.0
      ],
      [
        "/mutfak",
        -1.0
      ],
      [
        "ĠØ¥Ø±Ø´Ø§Ø¯",
        -1.0
      ],
      [
        "qui",
        -1.0
      ],
      [
        "à¤¿à¤ľà¤®",
        -1.0
      ],
      [
        "Ri",
        -1.0
      ],
      [
        "ĠÐ¼ÐµÑģÑĤÐ¸",
        -1.0
      ],
      [
        "ĠHCV",
        -1.0
      ],
      [
        "ĠCNR",
        -1.0
      ],
      [
        "Ġkuyo",
        -1.0
      ],
      [
        "å®Įä¹ĭå¾Į",
        -1.0
      ],
      [
        "à¹Īà¸§à¸ĩà¸ģ",
        -1.0
      ],
      [
        "ĠXBLA",
        -1.0
      ],
      [
        "åľŁåľ°åħ¬åħ¬",
        -1.0
      ],
      [
        "äºĨåįģ",
        -1.0
      ],
      [
        "Ġà¸Ļà¸£",
        -1.0
      ],
      [
        "Ġtravailleurs",
        -1.0
      ],
      [
        "ĠØ§ÙĦØªÙĪÙĨØ³ÙĬ",
        -1.0
      ],
      [
        "Ġcantilevers",
        -1.0
      ],
      [
        "twaliwa",
        -1.0
      ],
      [
        "ĠØ¨Ø¶Ø¹Ùģ",
        -1.0
      ],
      [
        "ĠÐ·Ð°ÑģÑĤÐ°Ð²ÐºÐ¸",
        -1.0
      ],
      [
        "ĠÅŀair",
        -1.0
      ],
      [
        "Ġmku",
        -1.0
      ],
      [
        "Ġtendons",
        -1.0
      ],
      [
        "ĠÐłÐ¸ÐºÐ¾ÑĢÐ´Ð°",
        -1.0
      ],
      [
        "à±ģà°°à°¹",
        -1.0
      ],
      [
        "ĠLÃ©onard",
        -1.0
      ],
      [
        "Ġè®¨è®º",
        -1.0
      ],
      [
        "ä¸įçŁ¥ä¸įè¦º",
        -1.0
      ],
      [
        "å°ģè£ħ",
        -1.0
      ],
      [
        "Ġà¹Ĥà¸Ńà¸ĭà¸²à¸§",
        -1.0
      ],
      [
        "ĠÑģÐ²Ð°ÑĤÐ¾Ð²ÑģÑĤÐ²Ð¾",
        -1.0
      ],
      [
        "Ġà¸Ħà¸Ļà¸Ĥ",
        -1.0
      ],
      [
        "ĠKitap",
        -1.0
      ],
      [
        "Ġkugongana",
        -1.0
      ],
      [
        "ĠÑħÐ¾Ð·ÑıÐ¸Ð½Ð°",
        -1.0
      ],
      [
        "Ġcomprehension",
        -1.0
      ],
      [
        "ĠÙĦØ¥Ø´Ø¹Ø§ÙĦ",
        -1.0
      ],
      [
        "Ġmembership",
        -1.0
      ],
      [
        "ĠÙĦØªØ¹",
        -1.0
      ],
      [
        "à¥ĭà¤ıà¤¡",
        -1.0
      ],
      [
        ".è¨Īçķ«åįĢåħ§",
        -1.0
      ],
      [
        "ecekleri",
        -1.0
      ],
      [
        "ĠØŃÙħÙĪØ¯",
        -1.0
      ],
      [
        "æŁĵ",
        -1.0
      ],
      [
        "å»£åĳĬé¡ıæĸĻ",
        -1.0
      ],
      [
        "ĠÐ¡Ð¿Ð¸ÑģÐ¾Ðº",
        -1.0
      ],
      [
        "è·¯çº¿",
        -1.0
      ],
      [
        "à¸¥à¸¥",
        -1.0
      ],
      [
        "ĠÙĪØ§ÙĦÙģÙĩÙħ",
        -1.0
      ],
      [
        "ĠÐ¼ÐµÑĤÐ¾Ð´Ð¸ÐºÑĥ",
        -1.0
      ],
      [
        "was",
        -1.0
      ],
      [
        "ĠÙĦØ¬ÙĩØ©",
        -1.0
      ],
      [
        "ãĢĤæĪĳåĴĮ",
        -1.0
      ],
      [
        "ĠAssessment",
        -1.0
      ],
      [
        "ĠØ§ÙĦØ«ÙĦØ§Ø«ÙĬÙĨ",
        -1.0
      ],
      [
        "ĠÑıÐ²Ð»ÑıÑİÑīÐµÐ³Ð¾ÑģÑı",
        -1.0
      ],
      [
        "ĠÐŁÐ¾ÑĤÐµ",
        -1.0
      ],
      [
        "å»ºç½®",
        -1.0
      ],
      [
        "ĠØ§Ø¬Ø±",
        -1.0
      ],
      [
        "Ð¾ÑĤÐµÑĢÐ°Ð¿Ð¸Ð¸",
        -1.0
      ],
      [
        "spektif",
        -1.0
      ],
      [
        "à¹īà¸³à¸Ļ",
        -1.0
      ],
      [
        "ĠÃ©ventuellement",
        -1.0
      ],
      [
        "è³ª",
        -1.0
      ],
      [
        "ĠÙĦÙĦØ¨ÙĨÙĥ",
        -1.0
      ],
      [
        "à¸±à¸Ļà¸Īà¸°à¸ĸ",
        -1.0
      ],
      [
        "ĠiCloud",
        -1.0
      ],
      [
        "ĠAbi",
        -1.0
      ],
      [
        "à¹īà¹ĥà¸Ļà¹Ģà¸£",
        -1.0
      ],
      [
        "ĠØ§ÙĦÙħÙĬØ§Ø¯ÙĬÙĨ",
        -1.0
      ],
      [
        "ĠYEAR",
        -1.0
      ],
      [
        "ĠprotÃ©gÃ©e",
        -1.0
      ],
      [
        "ÑĢÐ¾Ð³",
        -1.0
      ],
      [
        "Ġnk",
        -1.0
      ],
      [
        "åľĸçīĩ",
        -1.0
      ],
      [
        "ĠÐºÐ¾Ð½ÑĦÐ»ÑİÐµÐ½",
        -1.0
      ],
      [
        "à¸±à¸ģà¸ģà¸²à¸£à¸£",
        -1.0
      ],
      [
        "ĠKarras",
        -1.0
      ],
      [
        "Ġakil",
        -1.0
      ],
      [
        "ĠØ·ÙĪÙĦÙĩ",
        -1.0
      ],
      [
        "Ġà¸²à¸¡à¸²à¸£à¸ĸà¹ĥà¸Ĭ",
        -1.0
      ],
      [
        "ĠTITANèĥ½",
        -1.0
      ],
      [
        "-out",
        -1.0
      ],
      [
        "Ġkuhodhi",
        -1.0
      ],
      [
        "Ġambulan",
        -1.0
      ],
      [
        "ĠDnipropetrovsk",
        -1.0
      ],
      [
        "à¸¢à¹Ĩ",
        -1.0
      ],
      [
        "ĠTrakya",
        -1.0
      ],
      [
        "åľ°åĽ¾",
        -1.0
      ],
      [
        "ĠÑĥÑģÐ¿ÐµÑħ",
        -1.0
      ],
      [
        "Ġà¤Ĺà¤¨",
        -1.0
      ],
      [
        "ĠSorularÄ±",
        -1.0
      ],
      [
        "ĠkazandÄ±racaktÄ±r",
        -1.0
      ],
      [
        "Ġlilifanya",
        -1.0
      ],
      [
        "ĠÐ¿ÑĢÐ¾ÑħÐ¾Ð´Ð¸ÑĤ",
        -1.0
      ],
      [
        "ĠÙĦØ¨",
        -1.0
      ],
      [
        "ĠÐ»ÑİÐ±Ð¾Ðµ",
        -1.0
      ],
      [
        "ĠaccordÃ©",
        -1.0
      ],
      [
        "ĠFr",
        -1.0
      ],
      [
        "ÑĢÐ²",
        -1.0
      ],
      [
        "ĠÑĤÐ¾Ð»Ð¿Ð¾Ð¹",
        -1.0
      ],
      [
        "æĶ¿",
        -1.0
      ],
      [
        "ĠayÄ±na",
        -1.0
      ],
      [
        "ĠØ£Ø´Ø®Ø§ØµØ§",
        -1.0
      ],
      [
        "ÑıÐº",
        -1.0
      ],
      [
        "Ġwavuwi",
        -1.0
      ],
      [
        "Ø³ØªØ§ÙĨ",
        -1.0
      ],
      [
        "Ġinflux",
        -1.0
      ],
      [
        "åĬŁçİĩ",
        -1.0
      ],
      [
        "Ġproclaim",
        -1.0
      ],
      [
        "ĠinanÄ±yoruz",
        -1.0
      ],
      [
        "ĠÙĦØªÙĨØ³ÙĬÙĤ",
        -1.0
      ],
      [
        "ĠNDIO",
        -1.0
      ],
      [
        "ÐĽÐµÑģ",
        -1.0
      ],
      [
        "ĠØ¹Ø§ÙĩØ©",
        -1.0
      ],
      [
        "Ġà¹Ģà¸Ń",
        -1.0
      ],
      [
        "æł¹æį®æĤ¨",
        -1.0
      ],
      [
        "ĠÙĨØµÙģÙĬÙĨ",
        -1.0
      ],
      [
        "æĤ¨çļĦäº§åĵģ",
        -1.0
      ],
      [
        "Ġyaygin",
        -1.0
      ],
      [
        "ede",
        -1.0
      ],
      [
        "Ġuungwana",
        -1.0
      ],
      [
        "Ð²Ð¸Ð²",
        -1.0
      ],
      [
        "Ġyaratan",
        -1.0
      ],
      [
        "ĠÐ¿ÑĢÐ¸ÐµÐ¼Ð¾Ð²",
        -1.0
      ],
      [
        "Ġnyimbo",
        -1.0
      ],
      [
        "ĠBeatles",
        -1.0
      ],
      [
        "Ġbitirdi",
        -1.0
      ],
      [
        "åĲĪæĥħåĲĪçĲĨ",
        -1.0
      ],
      [
        "illo",
        -1.0
      ],
      [
        "-ÐºÐ»ÐµÑĤ",
        -1.0
      ],
      [
        "ĠnÃ¶betÃ§i",
        -1.0
      ],
      [
        "à¸±à¸ļà¹Ģà¸ŀà¸¥à¸ĩ",
        -1.0
      ],
      [
        "ä¸Ģå®ļèĥ½",
        -1.0
      ],
      [
        "à±įà°¦à°²à°ķ",
        -1.0
      ],
      [
        "ĠrÃ©seaux",
        -1.0
      ],
      [
        "ĠÑģÐµÑĢÑĮÐµÐ·Ð½ÑĭÐ¼",
        -1.0
      ],
      [
        "ÐºÐ¾ÑĢÑĢÐµÐºÑĤ",
        -1.0
      ],
      [
        "à°ģ",
        -1.0
      ],
      [
        "ãĢĤå¦»åŃĲåĪĺå¥³å£«",
        -1.0
      ],
      [
        "Ġkuosha",
        -1.0
      ],
      [
        "Ġappartements",
        -1.0
      ],
      [
        "æŃ£åĢ¼",
        -1.0
      ],
      [
        "Ġpudding",
        -1.0
      ],
      [
        "è³Ģåį¡",
        -1.0
      ],
      [
        "çĪĨçĻ¼",
        -1.0
      ],
      [
        ".la",
        -1.0
      ],
      [
        "Ġparlait",
        -1.0
      ],
      [
        "Ġgeometry",
        -1.0
      ],
      [
        "Ġnarthex",
        -1.0
      ],
      [
        "è¿Ĳè¾ĵçļĦ",
        -1.0
      ],
      [
        "-ÑıÐ¿Ð¾",
        -1.0
      ],
      [
        "ä¸įåºĶ",
        -1.0
      ],
      [
        "à¤¾à¤¤à¤ļ",
        -1.0
      ],
      [
        "Ġultra",
        -1.0
      ],
      [
        "Ġremplie",
        -1.0
      ],
      [
        "Ã©ro",
        -1.0
      ],
      [
        "à¤°à¤¤",
        -1.0
      ],
      [
        "Ġkupona",
        -1.0
      ],
      [
        "ĠÙĬÙĦØªÙģ",
        -1.0
      ],
      [
        "Ġkadro",
        -1.0
      ],
      [
        "Ġalijibu",
        -1.0
      ],
      [
        "Ġtepkileri",
        -1.0
      ],
      [
        "ĠCaldecott",
        -1.0
      ],
      [
        "åİĭæł¹åĦ¿",
        -1.0
      ],
      [
        "ĠKolumbus",
        -1.0
      ],
      [
        "ĠÙĬØŃØ¨ÙĨÙĬ",
        -1.0
      ],
      [
        "çĶļèĩ³æĺ¯",
        -1.0
      ],
      [
        "Ġcanon",
        -1.0
      ],
      [
        "ĠÐ½ÐµÐ¼Ð°Ð»",
        -1.0
      ],
      [
        "ĠÙĤØ·Ø§Ø¹",
        -1.0
      ],
      [
        "ĠShu",
        -1.0
      ],
      [
        "ĠÂ»).Ċ",
        -1.0
      ],
      [
        "Mandatory",
        -1.0
      ],
      [
        "Ð¸Ð²Ð°Ð½Ð¸Ð¸",
        -1.0
      ],
      [
        "ÐĹÐĿÐĲ",
        -1.0
      ],
      [
        "èīºæľ¯åĵģ",
        -1.0
      ],
      [
        "Ġbranches",
        -1.0
      ],
      [
        "ĠgÃ¶revlendirmeleri",
        -1.0
      ],
      [
        "ĠdaÄŁda",
        -1.0
      ],
      [
        "Ð±ÑĢÐ¸",
        -1.0
      ],
      [
        "ĠÑģÐºÐ¾ÑĤÐ°",
        -1.0
      ],
      [
        "uÃ§",
        -1.0
      ],
      [
        "åĮ»æĬ¤äººåĳĺ",
        -1.0
      ],
      [
        "à¸´à¸Ķà¸§",
        -1.0
      ],
      [
        "ladÄ±ÄŁÄ±nÄ±z",
        -1.0
      ],
      [
        "ĠmutfaÄŁa",
        -1.0
      ],
      [
        "Ġbancaire",
        -1.0
      ],
      [
        "ĠÑĢÐ°Ð·Ð½ÑĭÐ¼Ð¸",
        -1.0
      ],
      [
        "ĠØ§ÙĦØ±Ø·ÙĪØ¨Ø©",
        -1.0
      ],
      [
        "ilmiyor",
        -1.0
      ],
      [
        "à¸°à¸ŀ",
        -1.0
      ],
      [
        "à¤Ĥà¤¤à¤¤",
        -1.0
      ],
      [
        "ĠØ§ÙģØªØªØŃØª",
        -1.0
      ],
      [
        "ĠgeÃ§irmiÅŁtir",
        -1.0
      ],
      [
        "Ġsibele",
        -1.0
      ],
      [
        "Ġegzama",
        -1.0
      ],
      [
        "Ġåº¦",
        -1.0
      ],
      [
        "lilerden",
        -1.0
      ],
      [
        "à¹Ħà¸«à¸Ļà¸Ķ",
        -1.0
      ],
      [
        "å¾®é¢¨è¼ķ",
        -1.0
      ],
      [
        "ĠINTERNET",
        -1.0
      ],
      [
        "Ãľlkemizde",
        -1.0
      ],
      [
        "à¹ģà¸¥à¸°à¸ľà¸¥",
        -1.0
      ],
      [
        "ĠDoctissimo",
        -1.0
      ],
      [
        "åħ³å¿ĥåĴĮ",
        -1.0
      ],
      [
        "èĭ¹æŀľåħ¬åı¸",
        -1.0
      ],
      [
        "ĠÐ¿ÐµÑĢÐµÐ¼ÐµÑīÐµÐ½Ð¸Ñı",
        -1.0
      ],
      [
        "ç¹ŀèĳĹ",
        -1.0
      ],
      [
        "ÐļÑĥÐ¸Ð½",
        -1.0
      ],
      [
        "åĬ¿åĬĽ",
        -1.0
      ],
      [
        "lerin",
        -1.0
      ],
      [
        "Ġalbums",
        -1.0
      ],
      [
        "ĠØ§ÙĦÙģÙĦÙĥÙĬØ©",
        -1.0
      ],
      [
        "ĠÐ¾Ð¿ÑĥÑģÑĤÐ¸ÑĤÑģÑı",
        -1.0
      ],
      [
        "shwaji",
        -1.0
      ],
      [
        "Ġsalvaged",
        -1.0
      ],
      [
        "ĠÙĦÙĦØ¹ÙħØ§ÙĦ",
        -1.0
      ],
      [
        "mbie",
        -1.0
      ],
      [
        "ĠØ³ÙĤÙĪØ·Ø§",
        -1.0
      ],
      [
        "Ġteknolojileri",
        -1.0
      ],
      [
        "çĩĴéĮĦè»Łé«Ķ",
        -1.0
      ],
      [
        "ĠÐ¾Ð±ÑĬÐµÐ´Ð¸Ð½",
        -1.0
      ],
      [
        "Ġmta",
        -1.0
      ],
      [
        "ĠÑįÐ¿Ð¸ÑĦÐ¸Ð·",
        -1.0
      ],
      [
        "ĠÑģÐ»ÑĥÑĩÐ°Ð¹",
        -1.0
      ],
      [
        "Ġbrutal",
        -1.0
      ],
      [
        "Game",
        -1.0
      ],
      [
        "ĠÐ¾ÑĤÐºÑĢÐ¾ÐµÑĤÑģÑı",
        -1.0
      ],
      [
        "Charismatic",
        -1.0
      ],
      [
        "Ġdecor",
        -1.0
      ],
      [
        "å°½å¿«",
        -1.0
      ],
      [
        "ĠÙĪØ§Ø±ÙģØ¹",
        -1.0
      ],
      [
        "Ġà¸Ħà¸£à¸²à¸§à¸Ļ",
        -1.0
      ],
      [
        "ä¸īåįģ",
        -1.0
      ],
      [
        "Ġardhini",
        -1.0
      ],
      [
        "à±Ĥà°¦à°¨",
        -1.0
      ],
      [
        "ĠpuanÄ±na",
        -1.0
      ],
      [
        "Ġplutot",
        -1.0
      ],
      [
        "ĠÐ·Ð°Ð´Ð°ÑĤÑĮ",
        -1.0
      ],
      [
        "ĠÐĿÐ°Ð¾Ð±Ð¾ÑĢÐ¾ÑĤ",
        -1.0
      ],
      [
        "à¸±à¸ļà¹ģà¸Ń",
        -1.0
      ],
      [
        "ÐµÐ³Ð°",
        -1.0
      ],
      [
        "ĠéĤĦæĺ¯",
        -1.0
      ],
      [
        "ĠGaza",
        -1.0
      ],
      [
        "ĠFame",
        -1.0
      ],
      [
        "ĠÙĪØ§ÙĦØ¬Ø§ÙħØ¹Ø©",
        -1.0
      ],
      [
        "æł¼çº³çļĦ",
        -1.0
      ],
      [
        "Putperest",
        -1.0
      ],
      [
        "Ġtechnique",
        -1.0
      ],
      [
        "AÅŁaÄŁÄ±da",
        -1.0
      ],
      [
        "ĠØ¨Ø¨ÙĦØ§Ø·",
        -1.0
      ],
      [
        "Ġà¹ĥà¸Ļà¹ģà¸Ĺ",
        -1.0
      ],
      [
        "çļĦèĩ¨çķĮ",
        -1.0
      ],
      [
        "Ġexemplaires",
        -1.0
      ],
      [
        "ĠÙħÙĨÙĬØ¹Ø§",
        -1.0
      ],
      [
        "ÙĦÙĬÙĩÙħ",
        -1.0
      ],
      [
        "Ġwaandamanaji",
        -1.0
      ],
      [
        "ĠÑĩÐµÑĢÐµ",
        -1.0
      ],
      [
        "ĠÐ²ÑĭÐ´ÐµÑĢÐ¶Ð¸ÑĤ",
        -1.0
      ],
      [
        "-Ð¼Ð°Ð³Ð°Ð·Ð¸Ð½Ð°",
        -1.0
      ],
      [
        "âĢľç»ıåħ¸ä¼ļè®®",
        -1.0
      ],
      [
        "historic",
        -1.0
      ],
      [
        "Ġprensip",
        -1.0
      ],
      [
        "Ġcomedian",
        -1.0
      ],
      [
        "ĠÙĦÙĦØ§ÙĩØ¯Ø§Ùģ",
        -1.0
      ],
      [
        "ĠØ§ÙĦÙħÙĪØ¬ÙĪØ¯",
        -1.0
      ],
      [
        "èĦĳçĶµåĽ¾",
        -1.0
      ],
      [
        "à±ĥà°ª",
        -1.0
      ],
      [
        "ĠrÃ¼zgÃ¢r",
        -1.0
      ],
      [
        "ĠdamÄ±n",
        -1.0
      ],
      [
        "åĻ´åĩº",
        -1.0
      ],
      [
        "Ø±Ø¬ØŃ",
        -1.0
      ],
      [
        "Ġdevrais",
        -1.0
      ],
      [
        "ĠobligÃ©s",
        -1.0
      ],
      [
        "Ġitasaidia",
        -1.0
      ],
      [
        "Ġà¸Ļà¸°à¸Ńà¸°à¸ģà¸°à¸Ń",
        -1.0
      ],
      [
        "ĠÐºÐ¾Ð»Ð¸ÑĩÐµÑģÑĤÐ²Ð¾",
        -1.0
      ],
      [
        "ĠplacÃ©e",
        -1.0
      ],
      [
        "eske",
        -1.0
      ],
      [
        "à¸µà¸ķà¹Ģà¸Ľ",
        -1.0
      ],
      [
        "ĠkarÅŁÄ±mÄ±zda",
        -1.0
      ],
      [
        "BAR",
        -1.0
      ],
      [
        "Ġmevsiminin",
        -1.0
      ],
      [
        "Ġdisposition",
        -1.0
      ],
      [
        "ĠÐ³Ð¸ÑĤÐ°ÑĢ",
        -1.0
      ],
      [
        "å¤©çľŁ",
        -1.0
      ],
      [
        "åīįå¤«",
        -1.0
      ],
      [
        "à¤¾à¤ĩà¤¶",
        -1.0
      ],
      [
        "Ġreferenced",
        -1.0
      ],
      [
        "à°Ĥà°ļà°²à°®",
        -1.0
      ],
      [
        "ath",
        -1.0
      ],
      [
        "åŀ«æ±Łåİ¿",
        -1.0
      ],
      [
        "ĠØ§ÙĦØ¥Ø¹Ø¯Ø§Ø¯",
        -1.0
      ],
      [
        "ĠÐ²ÐµÑĢÐ½ÑĥÐ»Ð¸ÑģÑĮ",
        -1.0
      ],
      [
        "à¸±à¸ķ",
        -1.0
      ],
      [
        "è´Īç¦®æĸ¹å¼ı",
        -1.0
      ],
      [
        "ĠÐ¶Ð¸Ð·Ð½ÐµÐ½Ð½ÑĭÑħ",
        -1.0
      ],
      [
        "Ġalerjik",
        -1.0
      ],
      [
        "Ġbulunarak",
        -1.0
      ],
      [
        "Ġà¸£à¸°à¸¢à¸°",
        -1.0
      ],
      [
        "Ġall",
        -1.0
      ],
      [
        "ç®Ĺ",
        -1.0
      ],
      [
        "ĠRuzuku",
        -1.0
      ],
      [
        "Ġvirtual",
        -1.0
      ],
      [
        "çĢĳå¸ĥ",
        -1.0
      ],
      [
        "èļĬèĻ«",
        -1.0
      ],
      [
        "Ġtutakuwa",
        -1.0
      ],
      [
        "ĠØ®ØµØ§Ø¦ØµÙĩ",
        -1.0
      ],
      [
        "AÃ§Ä±lÄ±ÅŁ",
        -1.0
      ],
      [
        "éĥµä»¶ä¼ºæľįåĻ¨",
        -1.0
      ],
      [
        "ĠØ§ÙĦØ§Ø·Ø¨Ø§Ø¡",
        -1.0
      ],
      [
        "ĠÙĪØ§ÙĦÙĪÙĥØ§ÙĦØ§Øª",
        -1.0
      ],
      [
        "Ġkubbe",
        -1.0
      ],
      [
        "à¸Ńà¸Ħà¸§à¸²à¸¡à¸ªà¸Ļ",
        -1.0
      ],
      [
        "ÑĭÐ»Ð¸",
        -1.0
      ],
      [
        "pari",
        -1.0
      ],
      [
        "Ð²ÐµÐ·Ð»Ð¸",
        -1.0
      ],
      [
        "Ġpeki",
        -1.0
      ],
      [
        "ĠØ§ÙĦØªØ£ÙħÙĬÙĨ",
        -1.0
      ],
      [
        "opinion",
        -1.0
      ],
      [
        "hutba",
        -1.0
      ],
      [
        "Ġmijadala",
        -1.0
      ],
      [
        "ÙĪØ§Ùģ",
        -1.0
      ],
      [
        "é»Ħåĩ¯",
        -1.0
      ],
      [
        "ĠIdara",
        -1.0
      ],
      [
        "Ġfarm",
        -1.0
      ],
      [
        "Ġinavyotakiwa",
        -1.0
      ],
      [
        "ĠKoagÃ¼lasyon",
        -1.0
      ],
      [
        "-Auban",
        -1.0
      ],
      [
        "ĠÐ¸Ð·Ð»ÑĥÑĩÐ°ÑĤÑĮ",
        -1.0
      ],
      [
        "ĠÐ¼ÐµÑĩÑĤÑĭ",
        -1.0
      ],
      [
        "ĠÐ¾ÐºÐ°Ð·ÑĭÐ²Ð°ÑİÑĤ",
        -1.0
      ],
      [
        "à°®à°°à°£",
        -1.0
      ],
      [
        "à¸ĩà¸ªà¸²à¸¡à¸²à¸£à¸ĸ",
        -1.0
      ],
      [
        "ĠADC",
        -1.0
      ],
      [
        "ĠØ¨Ø·ÙĦØ¨",
        -1.0
      ],
      [
        "å¤´èĦĳ",
        -1.0
      ],
      [
        "ÐŁÑĢÐ¸Ð½ÑĨÐµÑģÑģ",
        -1.0
      ],
      [
        "-Ð°ÑĢ",
        -1.0
      ],
      [
        "ĠÐ»ÑĥÑĩ",
        -1.0
      ],
      [
        "Ġonayla",
        -1.0
      ],
      [
        "èĥ¸èħºåıĬ",
        -1.0
      ],
      [
        "å¨ģ",
        -1.0
      ],
      [
        "Ġpeek",
        -1.0
      ],
      [
        "ĠÙĪÙĬØ¬Ø¹ÙĦÙĩØ§",
        -1.0
      ],
      [
        "ĠÑģÐ¿",
        -1.0
      ],
      [
        "è¶ħéģİ",
        -1.0
      ],
      [
        "à°¾à°Ĺà°Ł",
        -1.0
      ],
      [
        "ĠGalungan",
        -1.0
      ],
      [
        "ĠGMS",
        -1.0
      ],
      [
        "Ġfau",
        -1.0
      ],
      [
        "ĠØ¯ÙĦØ§ÙĦØªÙĩ",
        -1.0
      ],
      [
        "à¹ģà¸¡",
        -1.0
      ],
      [
        "å®īæ°ĳçļĦ",
        -1.0
      ],
      [
        "ĠÙĥØ±ÙĩØ§",
        -1.0
      ],
      [
        "Ġimmobilier",
        -1.0
      ],
      [
        "ĠÙĪØ¥Ø·ÙĦØ§ÙĤ",
        -1.0
      ],
      [
        "ĠÙĪÙħØ§ÙĦÙĬ",
        -1.0
      ],
      [
        "ĠKazasÄ±",
        -1.0
      ],
      [
        "ecdote",
        -1.0
      ],
      [
        "ĠoluÅŁurken",
        -1.0
      ],
      [
        "ĠØ§ÙĦÙħÙĨØ¬Ø²Ø§Øª",
        -1.0
      ],
      [
        "æľīæĿ¡",
        -1.0
      ],
      [
        "ĠÐ¿ÑĢÐ¾ÑģÐ»Ð°Ð²",
        -1.0
      ],
      [
        "à±Ģà°°à°µ",
        -1.0
      ],
      [
        "code",
        -1.0
      ],
      [
        "à¥ĩà¤ĤĊ",
        -1.0
      ],
      [
        "Ġreproduc",
        -1.0
      ],
      [
        "ricinfo",
        -1.0
      ],
      [
        "ĠÑģÐ°Ð¼Ð¾Ð¾ÑĨÐµÐ½ÐºÐ°",
        -1.0
      ],
      [
        "ĠÐ²ÑĭÑģÑĤÑĥÐ¿Ð»ÐµÐ½Ð¸Ñı",
        -1.0
      ],
      [
        "à¹īà¸Ħ",
        -1.0
      ],
      [
        "ĠØªØ³Ø§ÙĩÙħ",
        -1.0
      ],
      [
        "ĠÐŁÐ¾Ð´Ð³Ð¾ÑĤ",
        -1.0
      ],
      [
        "åıĬä¸ĭæĸĩ",
        -1.0
      ],
      [
        "ĠoctroyÃ©",
        -1.0
      ],
      [
        "lÃ½",
        -1.0
      ],
      [
        "Ġrouter",
        -1.0
      ],
      [
        "Ġservir",
        -1.0
      ],
      [
        "à¥įà¤Łà¤®",
        -1.0
      ],
      [
        "å°±çĶ±",
        -1.0
      ],
      [
        "ï¼Įä»ĸåıª",
        -1.0
      ],
      [
        "ĠØªØŃØ±ÙĬÙĥ",
        -1.0
      ],
      [
        "ĠÐ¾ÑĤÑĢÐ°Ð¶Ð°ÐµÑĤ",
        -1.0
      ],
      [
        "Ġtuenende",
        -1.0
      ],
      [
        "Ġterroirs",
        -1.0
      ],
      [
        "ï¼ĮçĶ·äºº",
        -1.0
      ],
      [
        "ï¼Įå¤§",
        -1.0
      ],
      [
        "ĠØªØ´ÙĬÙĬØ¹",
        -1.0
      ],
      [
        "à¥ģà¤¦à¤ķ",
        -1.0
      ],
      [
        "æ¿Ģæĥħ",
        -1.0
      ],
      [
        "ĠØŃÙĤÙĪÙĤ",
        -1.0
      ],
      [
        "ÑģÑĤÐ°Ð»Ð¾",
        -1.0
      ],
      [
        "è£½æĪĲ",
        -1.0
      ],
      [
        "è¿·éĽ¢",
        -1.0
      ],
      [
        "Ð¾Ð²ÑģÐºÐ¾Ð¹",
        -1.0
      ],
      [
        "Ġkuwashirikisha",
        -1.0
      ],
      [
        "ÙĪÙĬØ¬ÙĪØ²",
        -1.0
      ],
      [
        "-Ð¿Ð¾Ð»",
        -1.0
      ],
      [
        "ĠGuellner",
        -1.0
      ],
      [
        "Ġmercredi",
        -1.0
      ],
      [
        "èģļä¼ļä¸Ń",
        -1.0
      ],
      [
        "ĠÐ½ÐµÐ¾Ð±ÑħÐ¾Ð´Ð¸Ð¼",
        -1.0
      ],
      [
        "-Ä°slam",
        -1.0
      ],
      [
        "ĠgÃ¶revlerine",
        -1.0
      ],
      [
        "ĠgÃ¶steriyordu",
        -1.0
      ],
      [
        "à¸Ħà¸Ļà¹Ħà¸¡",
        -1.0
      ],
      [
        "Ġkuwaokoa",
        -1.0
      ],
      [
        "ĠFrontenac",
        -1.0
      ],
      [
        "åħ¬åĽŃ",
        -1.0
      ],
      [
        "Ġhutoa",
        -1.0
      ],
      [
        "åħħä»½",
        -1.0
      ],
      [
        "ĠØ¹Ø¨Ø¯Ùĥ",
        -1.0
      ],
      [
        "ĠØ§ÙĦØ´Ø¹Ø¨",
        -1.0
      ],
      [
        "åĪĹå®ģæł¼åĭĴ",
        -1.0
      ],
      [
        "ĠØ§ÙĦÙħÙĨØ¬Ø¯",
        -1.0
      ],
      [
        "ĠÄ°ng",
        -1.0
      ],
      [
        "ĠÐ¾Ð±ÑĢÐ°Ð·Ð¾Ð²Ð°Ð½Ð¸Ð¸",
        -1.0
      ],
      [
        "Ã§a",
        -1.0
      ],
      [
        "ĠMbuga",
        -1.0
      ],
      [
        "\",",
        -1.0
      ],
      [
        "ĠÐ¾ÑģÑĤÑĢÐ¸ÑĨ",
        -1.0
      ],
      [
        "Ø±Ø§ÙħØ©",
        -1.0
      ],
      [
        "/sor",
        -1.0
      ],
      [
        "à¸±à¸Ļà¸Ĺà¸³à¹ĥà¸«",
        -1.0
      ],
      [
        "ĠexpÃ©rimentale",
        -1.0
      ],
      [
        "-o",
        -1.0
      ],
      [
        "à¹Īà¸²à¸Īà¸°à¹Ħà¸Ķ",
        -1.0
      ],
      [
        "åĽºçĦ¶",
        -1.0
      ],
      [
        "ĠÃ¼stÃ¼ndeki",
        -1.0
      ],
      [
        "à¤¿à¤¶à¤¨à¤°",
        -1.0
      ],
      [
        "ÙħØ¹ÙĩØ§",
        -1.0
      ],
      [
        "ĠburasÄ±",
        -1.0
      ],
      [
        "ĠKelimesi",
        -1.0
      ],
      [
        "Ð·Ð²Ðµ",
        -1.0
      ],
      [
        "ä¸ĭå®ļæ±ºå¿ĥ",
        -1.0
      ],
      [
        "ĠÙĨØ§Ø¦Ø¨Ø©",
        -1.0
      ],
      [
        "å°Ĩå¸¦ç»ĻæĤ¨",
        -1.0
      ],
      [
        "Ġà¤ıà¤¨à¤ª",
        -1.0
      ],
      [
        "à°¾à°¯à°£à°®",
        -1.0
      ],
      [
        "ĠÙĬØµÙĨÙģ",
        -1.0
      ],
      [
        ":Ø£ÙĨ",
        -1.0
      ],
      [
        "æľĢåĢ¼å¾Ĺ",
        -1.0
      ],
      [
        "ĠÑģÐ¼ÐµÐ»ÑĭÐ¼",
        -1.0
      ],
      [
        "ĠÐ½Ð°Ð·ÑĭÐ²Ð°ÐµÐ¼Ð¾Ð³Ð¾",
        -1.0
      ],
      [
        "ĠÃ§aba",
        -1.0
      ],
      [
        "Higuain",
        -1.0
      ],
      [
        "ĠÙĪØ§ÙĦÙĥÙĩØ±Ø¨Ø§Ø¦ÙĬØ©",
        -1.0
      ],
      [
        "ĠØ§ÙĦÙħÙĤØ§Ø·Ø¹Ø©",
        -1.0
      ],
      [
        "Ð°Ð²Ð°ÑĢÐ¸Ð¹Ð½Ð¾Ð¹",
        -1.0
      ],
      [
        "ĠÙģØ±Ø¯Ø§",
        -1.0
      ],
      [
        "ç©¿èµ·ä¾Ĩ",
        -1.0
      ],
      [
        "ĠÙĪØ§Ø³ØªÙĥØ¨Ø§Ø±Ø§",
        -1.0
      ],
      [
        "æľīæīĢé¡¾å¿Į",
        -1.0
      ],
      [
        "à¸µà¸łà¸²à¸£à¸ģ",
        -1.0
      ],
      [
        "ĠÐ¿Ð¾Ð»Ð¸ÑĤÐ¸ÐºÐ¾Ð²",
        -1.0
      ],
      [
        "ĠÐ»ÐµÐ²Ð¾Ð¹",
        -1.0
      ],
      [
        "Ġowns",
        -1.0
      ],
      [
        "invest",
        -1.0
      ],
      [
        "ĠÙĪÙĬØ±ÙĬØ¯ÙĪÙĨ",
        -1.0
      ],
      [
        "Ġkonunun",
        -1.0
      ],
      [
        "ĠAndroÃ¯d",
        -1.0
      ],
      [
        "ĠÙħÙģØ±Ø¯Ø©",
        -1.0
      ],
      [
        "Ġptozis",
        -1.0
      ],
      [
        "ä¼ļèĢĥèĻĳ",
        -1.0
      ],
      [
        "ĠÃ©volutions",
        -1.0
      ],
      [
        "à°Ĥà°Ĺà°ª",
        -1.0
      ],
      [
        "ĠÙĪØ§ÙĦØ®Ø§Ø±Ø¬ÙĬ",
        -1.0
      ],
      [
        "Ġà¸ĸà¸²à¸¡",
        -1.0
      ],
      [
        "à¤¿à¤¯à¤²à¤Ł",
        -1.0
      ],
      [
        "theon",
        -1.0
      ],
      [
        "Ġmaamrisho",
        -1.0
      ],
      [
        "Ġmbeya",
        -1.0
      ],
      [
        "åı£åĳ³",
        -1.0
      ],
      [
        "ĠkapsamÄ±ndaki",
        -1.0
      ],
      [
        "æİ¥çĲĥ",
        -1.0
      ],
      [
        "à¹Į/",
        -1.0
      ],
      [
        "æ¬ºåĩĮ",
        -1.0
      ],
      [
        "à±Ģà°ľà°°",
        -1.0
      ],
      [
        "ĠfraÃ®che",
        -1.0
      ],
      [
        "à¸Īà¸Ļ",
        -1.0
      ],
      [
        "Ġlinalosaidia",
        -1.0
      ],
      [
        "Debian",
        -1.0
      ],
      [
        "åİ»èĻķ",
        -1.0
      ],
      [
        "Ġyerlisini",
        -1.0
      ],
      [
        "ç±»çļĦ",
        -1.0
      ],
      [
        "ÙĪØºÙĬØ±ÙĩØ§",
        -1.0
      ],
      [
        "Baadhi",
        -1.0
      ],
      [
        "æĹłåħ³",
        -1.0
      ],
      [
        "à¸±à¸ĩà¹Ģà¸Ĺ",
        -1.0
      ],
      [
        "ĠØªÙĨ",
        -1.0
      ],
      [
        "Ġgoulag",
        -1.0
      ],
      [
        "æĭīå±İ",
        -1.0
      ],
      [
        "ĠAfaria",
        -1.0
      ],
      [
        "ÑĥÑĤÐ¾",
        -1.0
      ],
      [
        "ĠÐ½Ð°Ð³ÑĢÑĥÐ·ÐºÑĥ",
        -1.0
      ],
      [
        "Ġfee",
        -1.0
      ],
      [
        "ĠØªØ¹ÙĦÙĬÙħÙĩØ§",
        -1.0
      ],
      [
        "ĠÙĪØ§ÙĦØ£ÙĨØ«Ùī",
        -1.0
      ],
      [
        "Lippincott",
        -1.0
      ],
      [
        "à¥Ģà¤Ĺà¤°",
        -1.0
      ],
      [
        "ĠMUHIMU",
        -1.0
      ],
      [
        "ĠÐ·Ð°Ð¹ÑĤÐ¸",
        -1.0
      ],
      [
        "ĠgeÃ§ersiz",
        -1.0
      ],
      [
        "âĢĻexploiter",
        -1.0
      ],
      [
        "Ġedip",
        -1.0
      ],
      [
        "ãĢĤæ²¿çĿĢ",
        -1.0
      ],
      [
        "à¹Īà¸§à¸¢à¹ģà¸Ī",
        -1.0
      ],
      [
        "ĠWalters",
        -1.0
      ],
      [
        "ET",
        -1.0
      ],
      [
        "ĠÙħÙĬØ±ÙĥÙĦ",
        -1.0
      ],
      [
        "Ġunaonekana",
        -1.0
      ],
      [
        "ĠParliament",
        -1.0
      ],
      [
        "Ġpubliquement",
        -1.0
      ],
      [
        "Ġimeanzisha",
        -1.0
      ],
      [
        "Ġà¸Ĺà¸³à¹Ģà¸«à¸¡",
        -1.0
      ],
      [
        "ĠÙģØ§ÙĤØªØ±ØŃ",
        -1.0
      ],
      [
        "ĠÐºÐ¾Ð»Ð¿Ð°ÐºÐ¾Ð¼",
        -1.0
      ],
      [
        "à¸¢à¸§à¹Ģà¸Ń",
        -1.0
      ],
      [
        "Ġà¤ĵà¤¡",
        -1.0
      ],
      [
        "à¹ĩà¸Ńà¸ģà¸Ń",
        -1.0
      ],
      [
        "ĠØ§ÙĦÙħØ·Ø±Ø¨",
        -1.0
      ],
      [
        "Ġdeployments",
        -1.0
      ],
      [
        "ĠÐ¸Ð·ÑİÐ¼",
        -1.0
      ],
      [
        "å¤Ħå¤Ħ",
        -1.0
      ],
      [
        "ÑĮÐµÑĪÑĮ",
        -1.0
      ],
      [
        "èµ°äºĨè¿Ľåİ»",
        -1.0
      ],
      [
        "ĠÙĨØ§ÙĨØ³ÙĬ",
        -1.0
      ],
      [
        "à¹Ĥà¸¡à¹Ĥà¸«",
        -1.0
      ],
      [
        "ĠÑģÐ´ÐµÐ»Ð°ÐµÑĪÑĮ",
        -1.0
      ],
      [
        "Ġvoulaient",
        -1.0
      ],
      [
        "ĠWakikuyu",
        -1.0
      ],
      [
        "'immatriculation",
        -1.0
      ],
      [
        "çµķå°į",
        -1.0
      ],
      [
        "æĽ´åħ·",
        -1.0
      ],
      [
        "ĠÙĥØ«Ø±Ø©",
        -1.0
      ],
      [
        "ĠÐ³ÑĢÐ¸Ð±Ð½Ð¾Ð¹",
        -1.0
      ],
      [
        "å¾®",
        -1.0
      ],
      [
        "ĠÐ»Ð¾Ð²",
        -1.0
      ],
      [
        "ĠrÃ©dacteur",
        -1.0
      ],
      [
        "ĠØ§ÙĦØ¨Ø§Ø¨Ø§",
        -1.0
      ],
      [
        "ĠAnatolien",
        -1.0
      ],
      [
        "à¹Īà¸Īà¸£",
        -1.0
      ],
      [
        "erlik",
        -1.0
      ],
      [
        "Ġguarding",
        -1.0
      ],
      [
        "åľ¨å°ı",
        -1.0
      ],
      [
        "ĠtaÅŁÄ±",
        -1.0
      ],
      [
        "tÄ±k",
        -1.0
      ],
      [
        "Ð¡ÑĨÐµÐ½Ð°ÑĢÐ¸Ð¹",
        -1.0
      ],
      [
        "ĠÐ²ÑĢÐ°Ð³Ð¾Ð²",
        -1.0
      ],
      [
        "ke",
        -1.0
      ],
      [
        "Ð¡ÐľÐĺ",
        -1.0
      ],
      [
        "à°¿à°ķà°ķ",
        -1.0
      ],
      [
        "Ġkia",
        -1.0
      ],
      [
        "ĠØªÙĩÙĦÙĥ",
        -1.0
      ],
      [
        "ĠØ§ÙĦÙħÙĦØ¹Ø¨",
        -1.0
      ],
      [
        "ĠayrÄ±ntÄ±larÄ±",
        -1.0
      ],
      [
        "ĠÙĪØ§ÙĦÙħØ¹ÙĨÙĬ",
        -1.0
      ],
      [
        "à¸ĩà¸Ľà¸§à¸ĩà¹Ģà¸Ľ",
        -1.0
      ],
      [
        "ĠAÃ§Ä±k",
        -1.0
      ],
      [
        "Ġengelleri",
        -1.0
      ],
      [
        "à¸¶à¸ģà¸Ńà¸ļà¸£à¸¡",
        -1.0
      ],
      [
        "Ġpenne",
        -1.0
      ],
      [
        "ÑĢÐ°Ð±Ð¾",
        -1.0
      ],
      [
        "ãĢĤåħ¶",
        -1.0
      ],
      [
        "ĠØ§ÙĦØªØŃÙĪÙĬØ±Ø§Øª",
        -1.0
      ],
      [
        "'ajout",
        -1.0
      ],
      [
        "Ø¹Ø±Ø¬",
        -1.0
      ],
      [
        "Ġgeneli",
        -1.0
      ],
      [
        "åį»çĦ¡æ³ķ",
        -1.0
      ],
      [
        "çİ°åľ¨åĽŀæĥ³èµ·æĿ¥",
        -1.0
      ],
      [
        "Ġmitigation",
        -1.0
      ],
      [
        "ĠPhalamulu",
        -1.0
      ],
      [
        "Squ",
        -1.0
      ],
      [
        "Ġvoulu",
        -1.0
      ],
      [
        "à¤¾à¤®à¤°",
        -1.0
      ],
      [
        "jean",
        -1.0
      ],
      [
        "ĠØ¨Ø§ÙĦØ£Ø³Ø§Ø³",
        -1.0
      ],
      [
        "Ġee",
        -1.0
      ],
      [
        "èªªéĢĻæĺ¯",
        -1.0
      ],
      [
        "åĵģçīĮ",
        -1.0
      ],
      [
        "Ġkalmayacak",
        -1.0
      ],
      [
        "ĠrÃ©soudre",
        -1.0
      ],
      [
        "à¹Įà¸Ħà¸Ńà¸£",
        -1.0
      ],
      [
        "Ġcra",
        -1.0
      ],
      [
        "à¹īà¸Ĥ",
        -1.0
      ],
      [
        "ĠItalie",
        -1.0
      ],
      [
        "ĠyararlanÄ±lmaktadÄ±r",
        -1.0
      ],
      [
        "ĠØ¥ÙĨØ²Ø§ÙĦ",
        -1.0
      ],
      [
        "ĠÙĬØ®Ø±Ø¬ÙĪÙĨ",
        -1.0
      ],
      [
        "ĠÃĩukurova",
        -1.0
      ],
      [
        "à±Īà°¨à°µ",
        -1.0
      ],
      [
        "Ġà¤Ĩà¤ĩà¤ª",
        -1.0
      ],
      [
        "ĠsavunmaktadÄ±r",
        -1.0
      ],
      [
        "-à¤ħà¤ª",
        -1.0
      ],
      [
        "Ð¡Ð¢ÐłÐŀ",
        -1.0
      ],
      [
        "ĠÑıÐ·ÑĭÐºÐ°Ñħ",
        -1.0
      ],
      [
        "åı¦",
        -1.0
      ],
      [
        "à±ĭà°¡à°²",
        -1.0
      ],
      [
        "Ġukarabati",
        -1.0
      ],
      [
        "çİ©æ¨Ĥ",
        -1.0
      ],
      [
        "è£Ŀéħį",
        -1.0
      ],
      [
        "Ø¤Ø«Ø±",
        -1.0
      ],
      [
        "ĠØ§ØªØµÙĦ",
        -1.0
      ],
      [
        "å¼Ĥé¢ĳéĽ·è¾¾æĶ¶åıĳåĻ¨",
        -1.0
      ],
      [
        "Ġseksi",
        -1.0
      ],
      [
        "Ġblessing",
        -1.0
      ],
      [
        "ĠØªØ¹Ø·ÙĬÙĦ",
        -1.0
      ],
      [
        "ĠØ¨Ø¶ÙĪØ§Ø¨Ø·",
        -1.0
      ],
      [
        "à¸Ĥà¸Ńà¸Ļà¹ģà¸ģ",
        -1.0
      ],
      [
        "temps",
        -1.0
      ],
      [
        "ĠØ§ÙĦØ«Ø§ÙĨÙī",
        -1.0
      ],
      [
        "ï¼Įä¼Łåĵ¥",
        -1.0
      ],
      [
        "ĠÐĿÐ¸Ð½Ð°",
        -1.0
      ],
      [
        "ä¹Łå¦Ĥ",
        -1.0
      ],
      [
        "ĠgeÃ§erek",
        -1.0
      ],
      [
        "Ġà¤ĩà¤ļ",
        -1.0
      ],
      [
        "æļ´éľ²äºİç´«å¤ĸçº¿",
        -1.0
      ],
      [
        "à¸Ńà¸ĩà¸£",
        -1.0
      ],
      [
        "Any",
        -1.0
      ],
      [
        "ĠTÃľ",
        -1.0
      ],
      [
        "ĠØ³ÙĬØ´",
        -1.0
      ],
      [
        "Ø§ÙĦÙĬØ§Øª",
        -1.0
      ],
      [
        "IKA",
        -1.0
      ],
      [
        "ÙĨØºÙħØ§Øª",
        -1.0
      ],
      [
        "ĠÃ§evresine",
        -1.0
      ],
      [
        "ĠGilligan",
        -1.0
      ],
      [
        "à¤¿à¤¯",
        -1.0
      ],
      [
        "è¨Ģè¯Ń",
        -1.0
      ],
      [
        ".ÙĬ",
        -1.0
      ],
      [
        "å·²ä¸į",
        -1.0
      ],
      [
        "ĠØ§ÙĦØ¶Ø±ÙĪØ±ÙĬ",
        -1.0
      ],
      [
        "ĠAML",
        -1.0
      ],
      [
        "ĠBAHÃĩE",
        -1.0
      ],
      [
        "à¸µà¸¢à¸ģà¹Ģà¸ª",
        -1.0
      ],
      [
        "ĠGus",
        -1.0
      ],
      [
        "ĠÐºÐ»Ð°Ð´Ð±Ð¸ÑīÐµ",
        -1.0
      ],
      [
        "Ġà¸«à¸²à¸ģà¸ŀà¸ļà¸§",
        -1.0
      ],
      [
        "ĠÙĦØªØ£ÙĦÙĬÙģ",
        -1.0
      ],
      [
        "æĺ¯åĨĻ",
        -1.0
      ],
      [
        "è¾¦åħ¬æĹ¥æĽĨè¡¨",
        -1.0
      ],
      [
        "ĠÐµÑīÑĳ",
        -1.0
      ],
      [
        "ĠÑĥÐ´Ð°Ð»ÐµÐ½Ð¸ÐµÐ¼",
        -1.0
      ],
      [
        "æı¡æīĭ",
        -1.0
      ],
      [
        "ÐĳÐ¸Ð»ÐµÑĤÑĭ",
        -1.0
      ],
      [
        "ĠÙģÙħØ±",
        -1.0
      ],
      [
        "-à¤ıà¤ķ",
        -1.0
      ],
      [
        "ĠJdeveloper",
        -1.0
      ],
      [
        "ĠØ§ÙĦÙģÙĪØ§Ø¦Ø¯",
        -1.0
      ],
      [
        "ĠÑģÐ°ÑĤÐ°Ð½",
        -1.0
      ],
      [
        "ĠÙĬØªÙĦØ£ÙĦØ£",
        -1.0
      ],
      [
        "ĠaklÄ±nda",
        -1.0
      ],
      [
        "ĠÐĽÐµÑģ",
        -1.0
      ],
      [
        "Ð°Ð³ÐµÐ½ÑĤ",
        -1.0
      ],
      [
        "Ġorganizations",
        -1.0
      ],
      [
        "ĠÐºÐ¾Ð»Ð¸ÑĩÐµÑģÑĤÐ²Ð°Ñħ",
        -1.0
      ],
      [
        "à°Ķà°Ł",
        -1.0
      ],
      [
        "à¸¸à¹ī",
        -1.0
      ],
      [
        "ĠÙĬØ®ØªÙĦÙģØ§ÙĨ",
        -1.0
      ],
      [
        "ĠÙĦÙĦÙħÙĤØ§Ø±ÙĨØ©",
        -1.0
      ],
      [
        "ĠÑģÐ°Ð¹ÑĤÐ¾Ð¼",
        -1.0
      ],
      [
        "tahriif",
        -1.0
      ],
      [
        "å¼łæĤŁæľ¬",
        -1.0
      ],
      [
        "ĠINTERNATIONAL",
        -1.0
      ],
      [
        "ĠØ§ÙĦØ§Ø¨ØªØ¯Ø§Ø¦ÙĬ",
        -1.0
      ],
      [
        "/science",
        -1.0
      ],
      [
        "ĠØ§ÙĦÙģØ³ÙģØ§Ø·",
        -1.0
      ],
      [
        "ĠÙĪØ§ÙĦÙĩÙĬØ¦Ø§Øª",
        -1.0
      ],
      [
        "åĸ®",
        -1.0
      ],
      [
        "éĤĦOK",
        -1.0
      ],
      [
        "ĠØ¨Ø³Ø±",
        -1.0
      ],
      [
        "ÙıØ³ÙħÙī",
        -1.0
      ],
      [
        "ĠÑĥÐ·ÐºÐ¾",
        -1.0
      ],
      [
        "Ð°Ð½",
        -1.0
      ],
      [
        "à¸µâĢĿ",
        -1.0
      ],
      [
        "ĠSafira",
        -1.0
      ],
      [
        "æŀģèĩ´",
        -1.0
      ],
      [
        "ÐĹÐ¾Ð»Ð¾ÑĤ",
        -1.0
      ],
      [
        "Ġexpliquer",
        -1.0
      ],
      [
        "ĠÐ¼Ð»Ð°Ð´ÐµÐ½ÐµÑĨ",
        -1.0
      ],
      [
        "ĠÐ¾ÑĤÐºÑĢÑĭÑĤÐ¸Ð¸",
        -1.0
      ],
      [
        "Ġunusual",
        -1.0
      ],
      [
        "ÙĥØ§Ø¯",
        -1.0
      ],
      [
        "Ġchips",
        -1.0
      ],
      [
        "Ġdelay",
        -1.0
      ],
      [
        "ĠØ£ÙĨØ¯Ø±ÙĪÙĨÙĬÙĥÙĪØ³",
        -1.0
      ],
      [
        "à¸²à¸¢à¸¥",
        -1.0
      ],
      [
        "wale",
        -1.0
      ],
      [
        "-Ð´ÐµÐ¼Ð¾ÐºÑĢÐ°ÑĤ",
        -1.0
      ],
      [
        "ĠÃľLKE",
        -1.0
      ],
      [
        "à¸¸à¸¥à¸¢",
        -1.0
      ],
      [
        "Ġrefrain",
        -1.0
      ],
      [
        "ÐĺÐ¢ÐķÐ¡Ð¬",
        -1.0
      ],
      [
        "éĿ",
        -1.0
      ],
      [
        "Ġhamta",
        -1.0
      ],
      [
        "à¤¬à¤°",
        -1.0
      ],
      [
        "ĠÐºÐ¾Ð¼Ð¼ÐµÑĢ",
        -1.0
      ],
      [
        "Ġpamuk",
        -1.0
      ],
      [
        "-Nature",
        -1.0
      ],
      [
        "llos",
        -1.0
      ],
      [
        "ĠØ§Ø³ØªØ·Ø§ÙĦØ©",
        -1.0
      ],
      [
        "éĩįè¦ĸ",
        -1.0
      ],
      [
        "à¹Īà¸²à¸ĩà¸£à¸°à¸«à¸§",
        -1.0
      ],
      [
        "ĠÙĪØ«ÙĬÙĤ",
        -1.0
      ],
      [
        "ĠÃ¶nderi",
        -1.0
      ],
      [
        "SprayçļĦ",
        -1.0
      ],
      [
        "ĠKAMP",
        -1.0
      ],
      [
        "èĲ¬çī©æľīéĿĪè«ĸ",
        -1.0
      ],
      [
        "ä¿¡éĿłåĴĮçıį",
        -1.0
      ],
      [
        "ĠØµØ§Ø¯ÙĤØ©",
        -1.0
      ],
      [
        "run",
        -1.0
      ],
      [
        "ĠØ¸ÙĪØ§ÙĩØ±",
        -1.0
      ],
      [
        "atre",
        -1.0
      ],
      [
        "à°Ĥà°ļà°¯",
        -1.0
      ],
      [
        "ĠÑĦÐ¸Ð»ÑĮÑĤÑĢÐ°",
        -1.0
      ],
      [
        "ĠdanÃ½Ã¾manlÃ½k",
        -1.0
      ],
      [
        "ribi",
        -1.0
      ],
      [
        "Ġflavour",
        -1.0
      ],
      [
        "à¸Īà¸°à¹Ģà¸¥",
        -1.0
      ],
      [
        "ç´ħçļĦæľ¨çĤŃ",
        -1.0
      ],
      [
        "laki",
        -1.0
      ],
      [
        "à¸Ńà¸²à¸Īà¸¡",
        -1.0
      ],
      [
        "å°ĳå¥³éĽĻèħ¿",
        -1.0
      ],
      [
        "å¤ľå¸Ĥ",
        -1.0
      ],
      [
        "ĠØªØ°ÙĦÙĬÙĦ",
        -1.0
      ],
      [
        "Ġwalioshikwa",
        -1.0
      ],
      [
        "ĠFletcher",
        -1.0
      ],
      [
        "-for",
        -1.0
      ],
      [
        "ĠÙĤÙĬØ±Ø§Ø·ÙĬÙĨ",
        -1.0
      ],
      [
        "mamÄ±ÅŁtÄ±r",
        -1.0
      ],
      [
        "ĠØ§Ø¯Ø¹Ùī",
        -1.0
      ],
      [
        "ĠÙģØ§Ø±ØºØ©",
        -1.0
      ],
      [
        "hana",
        -1.0
      ],
      [
        "ĠRafiki",
        -1.0
      ],
      [
        "ĠÐ¡Ð¾Ð»ÑĤ",
        -1.0
      ],
      [
        "ĠDee",
        -1.0
      ],
      [
        ".à¹Ģà¸¡",
        -1.0
      ],
      [
        "ĠÙĦØ£Ø±Ø³Ø·ÙĪ",
        -1.0
      ],
      [
        "ĠÐºÐ°Ð¼ÐµÐ½ÑĮ",
        -1.0
      ],
      [
        "ĠÐ²Ð¾ÑģÑģÐµÑģÑĤÑĮ",
        -1.0
      ],
      [
        "ĠÙĦØŃØ¸Ø©",
        -1.0
      ],
      [
        "ĠTopÃ§u",
        -1.0
      ],
      [
        "âĢĻadoption",
        -1.0
      ],
      [
        "angamizwa",
        -1.0
      ],
      [
        "ĠÙĪØ§ÙĦØªØ§Ø±ÙĬØ®ÙĬØ©",
        -1.0
      ],
      [
        "è§ĨåĬĽ",
        -1.0
      ],
      [
        "bebek",
        -1.0
      ],
      [
        "à¸±à¸Ļà¹ģà¸£à¸ģ",
        -1.0
      ],
      [
        "ĠØºØ¨Ø§Ø¦Ùĩ",
        -1.0
      ],
      [
        "ĠÙħØ´Ø±ÙĪØ¹Ø§Øª",
        -1.0
      ],
      [
        "Ġà¸ŀà¸¤à¸©à¸ł",
        -1.0
      ],
      [
        "ĠØ§ÙĦØµÙĬÙĨÙĬ",
        -1.0
      ],
      [
        "ulimwengu",
        -1.0
      ],
      [
        "åĪĽåĬŀ",
        -1.0
      ],
      [
        "æ¯Ķåĸ»",
        -1.0
      ],
      [
        "rdÄ±m",
        -1.0
      ],
      [
        "kumbukeni",
        -1.0
      ],
      [
        "ĠÐ½Ð°ÑħÐ¾Ð´Ð¸Ð¼",
        -1.0
      ],
      [
        "ĠSilk",
        -1.0
      ],
      [
        "Ġrefleks",
        -1.0
      ],
      [
        "Ġà¤ĸà¤¤à¤°à¤¨",
        -1.0
      ],
      [
        "ÙĪØ¬Ø§",
        -1.0
      ],
      [
        "Ġsekreterlik",
        -1.0
      ],
      [
        "ĠpÃ©pin",
        -1.0
      ],
      [
        "à¤¾à¥ĩà¤¼à¤Ĥ",
        -1.0
      ],
      [
        "Ġwanufa",
        -1.0
      ],
      [
        "Ġå¸Ŀåļ³",
        -1.0
      ],
      [
        "ĠÐ²ÑĭÐµÐ·Ð´Ð°",
        -1.0
      ],
      [
        "tage",
        -1.0
      ],
      [
        "à¹Īà¸²à¸ĩà¸ģà¸²à¸¢à¸ģ",
        -1.0
      ],
      [
        "ĠÂ»Ċ",
        -1.0
      ],
      [
        "ĠFlow",
        -1.0
      ],
      [
        "ntentional",
        -1.0
      ],
      [
        "à±ģ)|Ċ",
        -1.0
      ],
      [
        "ĠWilderness",
        -1.0
      ],
      [
        "ĠÙħØ´ÙĥÙĦØ§ØªÙĩÙħ",
        -1.0
      ],
      [
        "Ð¡ÑĥÑīÐµÑģÑĤÐ²ÑĥÑİÑĤ",
        -1.0
      ],
      [
        "sti",
        -1.0
      ],
      [
        "ÙĥÙĪÙĦ",
        -1.0
      ],
      [
        "ĠaldanmayÄ±n",
        -1.0
      ],
      [
        "ĠÙĥØ´ÙģÙĨØ§",
        -1.0
      ],
      [
        "ĠÐºÑĢÑĥÐ¿Ð½Ð¾Ðµ",
        -1.0
      ],
      [
        "ĠÙĨÙĤØ§Ø±ÙĨ",
        -1.0
      ],
      [
        "æĿ¥åıĤåĬł",
        -1.0
      ],
      [
        "ĠJackman",
        -1.0
      ],
      [
        "ä¹ĭåīįåħĪ",
        -1.0
      ],
      [
        "JabRef",
        -1.0
      ],
      [
        "ĠÐ§ÐµÐ»ÑıÐ±Ð¸Ð½ÑģÐºÐ¾Ð¹",
        -1.0
      ],
      [
        "Ġinceleyelim",
        -1.0
      ],
      [
        "Ġà¸¡à¸ĩà¸Ħà¸¥",
        -1.0
      ],
      [
        "ï¼ĮæĹģéĤĬæľī",
        -1.0
      ],
      [
        "ĠØ«Ø§ÙĨÙĪÙĬØ©",
        -1.0
      ],
      [
        "äºĨä¸Ģ",
        -1.0
      ],
      [
        "ï¼ĮéĢĻäºĽ",
        -1.0
      ],
      [
        "ĠÐ°ÐºÑĤÐµÑĢÐ¾Ð²",
        -1.0
      ],
      [
        "ÙħØ±Ø§Øª",
        -1.0
      ],
      [
        "ĠaldattÄ±gÄ±nÄ±",
        -1.0
      ],
      [
        "ĠÐ¾Ð·Ð°Ð´Ð°Ñĩ",
        -1.0
      ],
      [
        "ĠØ¨Ø·ÙģÙĦÙĥ",
        -1.0
      ],
      [
        "Ġtuko",
        -1.0
      ],
      [
        "fasihi",
        -1.0
      ],
      [
        "Ġmabonde",
        -1.0
      ],
      [
        "ĠLoan",
        -1.0
      ],
      [
        "æľ¬æĿ¥ä¹Ł",
        -1.0
      ],
      [
        "ĠØ§ÙĦØªØ¯Ø±ÙĬØ¨ÙĬØ©",
        -1.0
      ],
      [
        "Ġmaalum",
        -1.0
      ],
      [
        "Ġurembo",
        -1.0
      ],
      [
        "ĠÙĪØ§Ø³Ø·Ø©",
        -1.0
      ],
      [
        "ĠÙĦØªØ±Ø¬ÙĬØŃ",
        -1.0
      ],
      [
        "à°¾à°¨à°¯",
        -1.0
      ],
      [
        "Ġà¸Ńà¹Ģà¸¥",
        -1.0
      ],
      [
        "ĠØ§ÙĨØŃ",
        -1.0
      ],
      [
        "ï¼Įå·®ä¸įå¤ļ",
        -1.0
      ],
      [
        "ĠÐ±ÑĢÐµ",
        -1.0
      ],
      [
        "ĠKlas",
        -1.0
      ],
      [
        "à¹Īà¸Ńà¸Ķ",
        -1.0
      ],
      [
        "Ġà¹Ĥà¸ķà¹Ĥà¸¢à¸ķ",
        -1.0
      ],
      [
        "ĠØ¨Ø§ÙĦØ§Ø³ØªÙĨØ§Ø¯",
        -1.0
      ],
      [
        "Ġplates",
        -1.0
      ],
      [
        "à¹ĩà¸Ļà¸¡",
        -1.0
      ],
      [
        "ĠkadÄ±nÄ±nÄ±",
        -1.0
      ],
      [
        "æµ·æ´ĭçĶŁçī©æĻ®æŁ¥",
        -1.0
      ],
      [
        "ĠSCFP",
        -1.0
      ],
      [
        "Ġaokolewe",
        -1.0
      ],
      [
        "ĠÙħØªØµÙĦØ§",
        -1.0
      ],
      [
        "ĠsÃ¼slenmiÅŁ",
        -1.0
      ],
      [
        "Ġà¸ŀà¸Ńà¸Ħ",
        -1.0
      ],
      [
        "ĠÑģÑĨÐµÐ½Ð°ÑĢÐ¸Ð¸",
        -1.0
      ],
      [
        "à±ĩà°ªà°²",
        -1.0
      ],
      [
        "ÑĪÐ¼",
        -1.0
      ],
      [
        "å¤§ä¸ŃåŀĭçĶµæľº",
        -1.0
      ],
      [
        "ĠdextÃ©ritÃ©",
        -1.0
      ],
      [
        "Ġyaliyofanywa",
        -1.0
      ],
      [
        "'ins",
        -1.0
      ],
      [
        "ĠÐ²ÐµÑĪ",
        -1.0
      ],
      [
        "ombo",
        -1.0
      ],
      [
        "à¸ĵà¸°à¸Ĺà¸³à¸ĩà¸²à¸Ļ",
        -1.0
      ],
      [
        "vividcolor",
        -1.0
      ],
      [
        "æĻ®éĽ·åĽ¾",
        -1.0
      ],
      [
        "ĠoranÄ±nÄ±n",
        -1.0
      ],
      [
        "ĠØ³ÙĬØ§",
        -1.0
      ],
      [
        "Ð¤Ð°ÑĤÐ¸Ð¼Ð°",
        -1.0
      ],
      [
        "à±Įà°ķà°²",
        -1.0
      ],
      [
        "Ã§orap",
        -1.0
      ],
      [
        "lants",
        -1.0
      ],
      [
        "ebilen",
        -1.0
      ],
      [
        "ĠÐ¶ÐµÐ½ÑīÐ¸Ð½Ñĥ",
        -1.0
      ],
      [
        "à¸¶à¸ģà¹Ģà¸«",
        -1.0
      ],
      [
        "ä½łä¸įæĺ¯",
        -1.0
      ],
      [
        "Ġmaofisa",
        -1.0
      ],
      [
        "ĠÐ²Ð´Ð°Ð»Ð¸",
        -1.0
      ],
      [
        "geugeu",
        -1.0
      ],
      [
        "mant",
        -1.0
      ],
      [
        "ĠÙĪØºØ§ÙĬØ©",
        -1.0
      ],
      [
        "ĠStatBar",
        -1.0
      ],
      [
        "ĠÐ¿ÑĢÐµÐºÑĢÐ°ÑģÐ½ÑĭÐµ",
        -1.0
      ],
      [
        "ĠbaÅŁlama",
        -1.0
      ],
      [
        "/Ø£ØºØ³Ø·Ø³",
        -1.0
      ],
      [
        "à°¿à°®à°Ł",
        -1.0
      ],
      [
        "Ġetkileyici",
        -1.0
      ],
      [
        "Ð¹Ð´Ñı",
        -1.0
      ],
      [
        "ĠØ¨ØµÙĬØ§ØºØ©",
        -1.0
      ],
      [
        "ĠPROPERTY",
        -1.0
      ],
      [
        "ĠØ¨Ø³ÙħØ§Ø¹Ùĩ",
        -1.0
      ],
      [
        "Ġ)",
        -1.0
      ],
      [
        "ĠPlace",
        -1.0
      ],
      [
        "Ġ[[",
        -1.0
      ],
      [
        "Ġfroide",
        -1.0
      ],
      [
        "ĠØ¥ÙĨØªÙĩÙī",
        -1.0
      ],
      [
        "Ġmishumaa",
        -1.0
      ],
      [
        "ç³»çļĦ",
        -1.0
      ],
      [
        "à¸´à¸ķà¹ĥà¸Īà¸¡",
        -1.0
      ],
      [
        "ĠacÄ±k",
        -1.0
      ],
      [
        "à¸¶à¸ģà¸Ĥ",
        -1.0
      ],
      [
        "ĠBeauty",
        -1.0
      ],
      [
        "à¹Ģà¸£à¸Ĥà¸¨",
        -1.0
      ],
      [
        "Ġexplore",
        -1.0
      ],
      [
        "ĠÐ°ÑįÑĢÐ¾",
        -1.0
      ],
      [
        "ĠÃ¶denerek",
        -1.0
      ],
      [
        "ĠÑģÑĥÐ´ÑĮÑİ",
        -1.0
      ],
      [
        "Ø¨Ø§Ø¦ÙĦ",
        -1.0
      ],
      [
        "ĠØ§ÙĦÙĪØ±Ø¹",
        -1.0
      ],
      [
        "ĠÙĪØ§ÙĦÙħØµØ·ÙĦØŃØ§Øª",
        -1.0
      ],
      [
        "ĠØ§ÙĦØ¹ÙĪØ§Ø·Ùģ",
        -1.0
      ],
      [
        "ĠØ§ÙĦØªÙĩÙĨØ¦Ø©",
        -1.0
      ],
      [
        "ĠColon",
        -1.0
      ],
      [
        "ĠÐ½Ð°Ð³Ð¾",
        -1.0
      ],
      [
        "Ġà°ĩà°ķà°®",
        -1.0
      ],
      [
        "æ±ºçŃĸ",
        -1.0
      ],
      [
        "ĠØ§ÙĦØ·Ø§Ø¹Ø©",
        -1.0
      ],
      [
        "à¹ģà¸ļà¸ļà¸Ħ",
        -1.0
      ],
      [
        "à¸±à¸ģà¸ģà¸²à¸£à¸ļ",
        -1.0
      ],
      [
        "ĠØ§ÙĦÙĥØ¨ÙĬØ±Ùĩ",
        -1.0
      ],
      [
        "ĠÐŁÐµÑĢÑģÐ¸Ñİ",
        -1.0
      ],
      [
        "ĠØ¨ÙħÙĨØ¸ÙħØ©",
        -1.0
      ],
      [
        "Ġfeatured",
        -1.0
      ],
      [
        "ÙĬØ¯Ø©",
        -1.0
      ],
      [
        "04",
        -1.0
      ],
      [
        "åħ©åĢį",
        -1.0
      ],
      [
        "ĠiltihabÄ±dÄ±r",
        -1.0
      ],
      [
        "à¤ıà¤¸",
        -1.0
      ],
      [
        "ĠÐ¶ÐµÐ»Ð°Ð½Ð¸Ñı",
        -1.0
      ],
      [
        "ĠKamba",
        -1.0
      ],
      [
        "à¹Īà¸§à¸ĩà¸«à¸£",
        -1.0
      ],
      [
        ".ÃĩÃ¼nkÃ¼",
        -1.0
      ],
      [
        "AllahÄ±m",
        -1.0
      ],
      [
        "Ġampl",
        -1.0
      ],
      [
        "ĠÑĢÐµÑĪÐ¸Ð»",
        -1.0
[...]
