{
  "version": "1.0",
  "truncation": null,
  "padding": null,
  "added_tokens": [
    {
      "id": 0,
      "content": "<|bos|>",
      "single_word": false,
      "lstrip": false,
      "rstrip": false,
      "normalized": false,
      "special": true
    },
    {
      "id": 1,
      "content": "<|user_start|>",
      "single_word": false,
      "lstrip": false,
      "rstrip": false,
      "normalized": false,
      "special": true
    },
    {
      "id": 2,
      "content": "<|user_end|>",
      "single_word": false,
      "lstrip": false,
      "rstrip": false,
      "normalized": false,
      "special": true
    },
    {
      "id": 3,
      "content": "<|assistant_start|>",
      "single_word": false,
      "lstrip": false,
      "rstrip": false,
      "normalized": false,
      "special": true
    },
    {
      "id": 4,
      "content": "<|assistant_end|>",
      "single_word": false,
      "lstrip": false,
      "rstrip": false,
      "normalized": false,
      "special": true
    },
    {
      "id": 5,
      "content": "<|python_start|>",
      "single_word": false,
      "lstrip": false,
      "rstrip": false,
      "normalized": false,
      "special": true
    },
    {
      "id": 6,
      "content": "<|python_end|>",
      "single_word": false,
      "lstrip": false,
      "rstrip": false,
      "normalized": false,
      "special": true
    },
    {
      "id": 7,
      "content": "<|output_start|>",
      "single_word": false,
      "lstrip": false,
      "rstrip": false,
      "normalized": false,
      "special": true
    },
    {
      "id": 8,
      "content": "<|output_end|>",
      "single_word": false,
      "lstrip": false,
      "rstrip": false,
      "normalized": false,
      "special": true
    },
    {
      "id": 9,
      "content": "<|unk|>",
      "single_word": false,
      "lstrip": false,
      "rstrip": false,
      "normalized": false,
      "special": true
    }
  ],
  "normalizer": null,
  "pre_tokenizer": {
    "type": "Sequence",
    "pretokenizers": [
      {
        "type": "Split",
        "pattern": {
          "Regex": "'(?i:[sdmt]|ll|ve|re)|[^\\r\\n\\p{L}\\p{N}]?+\\p{L}+|\\p{N}{1,2}| ?[^\\s\\p{L}\\p{N}]++[\\r\\n]*|\\s*[\\r\\n]|\\s+(?!\\S)|\\s+"
        },
        "behavior": "Isolated",
        "invert": false
      },
      {
        "type": "ByteLevel",
        "add_prefix_space": false,
        "trim_offsets": true,
        "use_regex": false
      }
    ]
  },
  "post_processor": {
    "type": "TemplateProcessing",
    "single": [
      {
        "Sequence": {
          "id": "A",
          "type_id": 0
        }
      }
    ],
    "pair": [
      {
        "Sequence": {
          "id": "A",
          "type_id": 0
        }
      },
      {
        "Sequence": {
          "id": "B",
          "type_id": 1
        }
      }
    ],
    "special_tokens": {}
  },
  "decoder": null,
  "model": {
    "type": "BPE",
    "dropout": null,
    "unk_token": "<|unk|>",
    "continuing_subword_prefix": null,
    "end_of_word_suffix": null,
    "fuse_unk": false,
    "byte_fallback": false,
    "ignore_merges": false,
    "vocab": {
      "<|bos|>": 0,
      "<|user_start|>": 1,
      "<|user_end|>": 2,
      "<|assistant_start|>": 3,
      "<|assistant_end|>": 4,
      "<|python_start|>": 5,
      "<|python_end|>": 6,
      "<|output_start|>": 7,
      "<|output_end|>": 8,
      "<|unk|>": 9,
      "!": 10,
      "\"": 11,
      "#": 12,
      "$": 13,
      "%": 14,
      "&": 15,
      "'": 16,
      "(": 17,
      ")": 18,
      "*": 19,
      "+": 20,
      ",": 21,
      "-": 22,
      ".": 23,
      "/": 24,
      "0": 25,
      "1": 26,
      "2": 27,
      "3": 28,
      "4": 29,
      "5": 30,
      "6": 31,
      "7": 32,
      "8": 33,
      "9": 34,
      ":": 35,
      ";": 36,
      "<": 37,
      "=": 38,
      ">": 39,
      "?": 40,
      "@": 41,
      "A": 42,
      "B": 43,
      "C": 44,
      "D": 45,
      "E": 46,
      "F": 47,
      "G": 48,
      "H": 49,
      "I": 50,
      "J": 51,
      "K": 52,
      "L": 53,
      "M": 54,
      "N": 55,
      "O": 56,
      "P": 57,
      "Q": 58,
      "R": 59,
      "S": 60,
      "T": 61,
      "U": 62,
      "V": 63,
      "W": 64,
      "X": 65,
      "Y": 66,
      "Z": 67,
      "[": 68,
      "\\": 69,
      "]": 70,
      "^": 71,
      "_": 72,
      "`": 73,
      "a": 74,
      "b": 75,
      "c": 76,
      "d": 77,
      "e": 78,
      "f": 79,
      "g": 80,
      "h": 81,
      "i": 82,
      "j": 83,
      "k": 84,
      "l": 85,
      "m": 86,
      "n": 87,
      "o": 88,
      "p": 89,
      "q": 90,
      "r": 91,
      "s": 92,
      "t": 93,
      "u": 94,
      "v": 95,
      "w": 96,
      "x": 97,
      "y": 98,
      "z": 99,
      "{": 100,
      "|": 101,
      "}": 102,
      "~": 103,
      "¡": 104,
      "¢": 105,
      "£": 106,
      "¤": 107,
      "¥": 108,
      "¦": 109,
      "§": 110,
      "¨": 111,
      "©": 112,
      "ª": 113,
      "«": 114,
      "¬": 115,
      "®": 116,
      "¯": 117,
      "°": 118,
      "±": 119,
      "²": 120,
      "³": 121,
      "´": 122,
      "µ": 123,
      "¶": 124,
      "·": 125,
      "¸": 126,
      "¹": 127,
      "º": 128,
      "»": 129,
      "¼": 130,
      "½": 131,
      "¾": 132,
      "¿": 133,
      "À": 134,
      "Á": 135,
      "Â": 136,
      "Ã": 137,
      "Ä": 138,
      "Å": 139,
      "Æ": 140,
      "Ç": 141,
      "È": 142,
      "É": 143,
      "Ê": 144,
      "Ë": 145,
      "Ì": 146,
      "Í": 147,
      "Î": 148,
      "Ï": 149,
      "Ð": 150,
      "Ñ": 151,
      "Ò": 152,
      "Ó": 153,
      "Ô": 154,
      "Õ": 155,
      "Ö": 156,
      "×": 157,
      "Ø": 158,
      "Ù": 159,
      "Ú": 160,
      "Û": 161,
      "Ü": 162,
      "Ý": 163,
      "Þ": 164,
      "ß": 165,
      "à": 166,
      "á": 167,
      "â": 168,
      "ã": 169,
      "ä": 170,
      "å": 171,
      "æ": 172,
      "ç": 173,
      "è": 174,
      "é": 175,
      "ê": 176,
      "ë": 177,
      "ì": 178,
      "í": 179,
      "î": 180,
      "ï": 181,
      "ð": 182,
      "ñ": 183,
      "ò": 184,
      "ó": 185,
      "ô": 186,
      "õ": 187,
      "ö": 188,
      "÷": 189,
      "ø": 190,
      "ù": 191,
      "ú": 192,
      "û": 193,
      "ü": 194,
      "ý": 195,
      "þ": 196,
      "ÿ": 197,
      "Ā": 198,
      "ā": 199,
      "Ă": 200,
      "ă": 201,
      "Ą": 202,
      "ą": 203,
      "Ć": 204,
      "ć": 205,
      "Ĉ": 206,
      "ĉ": 207,
      "Ċ": 208,
      "ċ": 209,
      "Č": 210,
      "č": 211,
      "Ď": 212,
      "ď": 213,
      "Đ": 214,
      "đ": 215,
      "Ē": 216,
      "ē": 217,
      "Ĕ": 218,
      "ĕ": 219,
      "Ė": 220,
      "ė": 221,
      "Ę": 222,
      "ę": 223,
      "Ě": 224,
      "ě": 225,
      "Ĝ": 226,
      "ĝ": 227,
      "Ğ": 228,
      "ğ": 229,
      "Ġ": 230,
      "ġ": 231,
      "Ģ": 232,
      "ģ": 233,
      "Ĥ": 234,
      "ĥ": 235,
      "Ħ": 236,
      "ħ": 237,
      "Ĩ": 238,
      "ĩ": 239,
      "Ī": 240,
      "ī": 241,
      "Ĭ": 242,
      "ĭ": 243,
      "Į": 244,
      "į": 245,
      "İ": 246,
      "ı": 247,
      "Ĳ": 248,
      "ĳ": 249,
      "Ĵ": 250,
      "ĵ": 251,
      "Ķ": 252,
      "ķ": 253,
      "ĸ": 254,
      "Ĺ": 255,
      "ĺ": 256,
      "Ļ": 257,
      "ļ": 258,
      "Ľ": 259,
      "ľ": 260,
      "Ŀ": 261,
      "ŀ": 262,
      "Ł": 263,
      "ł": 264,
      "Ń": 265,
      "Ġt": 266,
      "Ġa": 267,
      "in": 268,
      "he": 269,
      "re": 270,
      "on": 271,
      "Ġthe": 272,
      "er": 273,
      "Ġs": 274,
      "at": 275,
      "Ġc": 276,
      "Ġo": 277,
      "es": 278,
      "en": 279,
      "Ġw": 280,
      "nd": 281,
      "it": 282,
      "is": 283,
      "ing": 284,
      "Ġp": 285,
      "Ġf": 286,
      "Ġb": 287,
      "or": 288,
      "al": 289,
      "ou": 290,
      "an": 291,
      "Ġm": 292,
      "ed": 293,
      "Ġto": 294,
      "Ġin": 295,
      "Ġof": 296,
      "ar": 297,
      "Ġand": 298,
      "Ġd": 299,
      "ic": 300,
      "ion": 301,
      "le": 302,
      "ro": 303,
      "as": 304,
      "Ġth": 305,
      "Ġh": 306,
      "ent": 307,
      "ct": 308,
      "Ġe": 309,
      "Ġl": 310,
      "il": 311,
      "ve": 312,
      "Ġre": 313,
      "om": 314,
      "us": 315,
      "Ġis": 316,
      ".Ċ": 317,
      "Ġn": 318,
      "et": 319,
      "Ġy": 320,
      "ly": 321,
      "Ġg": 322,
      "Ġyou": 323,
      "Ġbe": 324,
      "ow": 325,
      "ut": 326,
      "ot": 327,
      "im": 328,
      "ĠT": 329,
      "st": 330,
      "id": 331,
      "ol": 332,
      "ce": 333,
      "Ġfor": 334,
      "ig": 335,
      "ra": 336,
      "ur": 337,
      "ation": 338,
      "ch": 339,
      "ĠA": 340,
      "Ġst": 341,
      "Ġon": 342,
      "Ġthat": 343,
      "ĠI": 344,
      "ir": 345,
      "ver": 346,
      "el": 347,
      "ith": 348,
      "ul": 349,
      "Ġare": 350,
      "ay": 351,
      "Ġit": 352,
      "Ġpro": 353,
      "se": 354,
      "Ġwith": 355,
      "if": 356,
      "Ġan": 357,
      "ĠS": 358,
      "am": 359,
      "Ġor": 360,
      "Ġcon": 361,
      ".ĊĊ": 362,
      "est": 363,
      "Ġas": 364,
      "Ġal": 365,
      "od": 366,
      "ad": 367,
      "ĊĊ": 368,
      "her": 369,
      "ĠC": 370,
      "ter": 371,
      "un": 372,
      "Ġwh": 373,
      "Ġcan": 374,
      "ure": 375,
      "ge": 376,
      "ate": 377,
      "ke": 378,
      "ĠThe": 379,
      "ess": 380,
      "ab": 381,
      "ill": 382,
      "um": 383,
      "Ġcom": 384,
      "ers": 385,
      "Ġha": 386,
      "ant": 387,
      "Ġhe": 388,
      "Ġex": 389,
      "pe": 390,
      "qu": 391,
      "ĠW": 392,
      "th": 393,
      "ore": 394,
      "ment": 395,
      "ive": 396,
      "igh": 397,
      "'s": 398,
      "Ġus": 399,
      "Ġyour": 400,
      "ies": 401,
      "Ġde": 402,
      "op": 403,
      "Ġv": 404,
      "ac": 405,
      "Ġwe": 406,
      "os": 407,
      "ity": 408,
      "ain": 409,
      "rom": 410,
      "ĠM": 411,
      "em": 412,
      "Ġ(": 413,
      "ist": 414,
      "ĠP": 415,
      "ld": 416,
      "ect": 417,
      "Ġr": 418,
      "Ġne": 419,
      "ĠB": 420,
      "Ġsu": 421,
      "pp": 422,
      "Ġen": 423,
      "Ġch": 424,
      "Ġat": 425,
      "Ġse": 426,
      "iv": 427,
      "Ġfrom": 428,
      "ial": 429,
      "Ġsh": 430,
      "Ġle": 431,
      "Ġhave": 432,
      "ort": 433,
      "ight": 434,
      "nt": 435,
      "Ġby": 436,
      "oc": 437,
      "Ġpl": 438,
      "res": 439,
      "og": 440,
      "ĠD": 441,
      "ĠH": 442,
      "and": 443,
      "Ġnot": 444,
      "art": 445,
      "ĠF": 446,
      "ust": 447,
      "ud": 448,
      "all": 449,
      "ical": 450,
      "per": 451,
      "ri": 452,
      "ome": 453,
      "Ġthis": 454,
      "rou": 455,
      "ide": 456,
      "Ġab": 457,
      "pt": 458,
      "Ġu": 459,
      "ould": 460,
      "out": 461,
      "ĠE": 462,
      "ard": 463,
      "ns": 464,
      "ine": 465,
      "act": 466,
      "Ġma": 467,
      "Ġim": 468,
      "ost": 469,
      "red": 470,
      "du": 471,
      "ich": 472,
      "ĠR": 473,
      "ell": 474,
      "ff": 475,
      "Ġcomp": 476,
      "iz": 477,
      "Ġwill": 478,
      "ast": 479,
      "ions": 480,
      "Ġdo": 481,
      "Ġwhe": 482,
      "Ġk": 483,
      "Ġint": 484,
      "Ġtheir": 485,
      "our": 486,
      "âĢ": 487,
      "ĠN": 488,
      "Ġad": 489,
      "ood": 490,
      "gh": 491,
      "Ġwor": 492,
      "Ġthey": 493,
      "age": 494,
      "ater": 495,
      "The": 496,
      "pl": 497,
      "ther": 498,
      "king": 499,
      "ag": 500,
      "able": 501,
      "ĠL": 502,
      "Ġwas": 503,
      "ated": 504,
      "end": 505,
      "ĠG": 506,
      "Ġcont": 507,
      "Ġall": 508,
      "ult": 509,
      "Ġmore": 510,
      "ks": 511,
      "Ġbut": 512,
      "Ġso": 513,
      "ere": 514,
      "hat": 515,
      "ally": 516,
      "oo": 517,
      "wer": 518,
      "ans": 519,
      "ous": 520,
      "Ġinc": 521,
      "so": 522,
      "are": 523,
      "ip": 524,
      "estion": 525,
      "orm": 526,
      "Ġte": 527,
      "ĠO": 528,
      "Ġme": 529,
      "ib": 530,
      "cc": 531,
      "Qu": 532,
      "ong": 533,
      "ep": 534,
      "Ġhas": 535,
      "Ġcl": 536,
      "ind": 537,
      "Ġres": 538,
      "Ġdis": 539,
      "ance": 540,
      "Ġwhich": 541,
      "Ġj": 542,
      "ru": 543,
      "Ġsp": 544,
      "Ġ\"": 545,
      "ike": 546,
      "ry": 547,
      "vel": 548,
      "Ġout": 549,
      "Ġun": 550,
      "Ġimp": 551,
      "ear": 552,
      "ations": 553,
      "nswer": 554,
      "20": 555,
      "Question": 556,
      "Ġalso": 557,
      "one": 558,
      "reat": 559,
      "ie": 560,
      "aus": 561,
      "Ġman": 562,
      "ens": 563,
      "his": 564,
      "very": 565,
      "ĠAnswer": 566,
      "Ġother": 567,
      "ase": 568,
      "ents": 569,
      "ace": 570,
      "av": 571,
      "ice": 572,
      "ack": 573,
      "Ġone": 574,
      "ign": 575,
      "'t": 576,
      "Ġper": 577,
      "ction": 578,
      "Ġfe": 579,
      "ĠIn": 580,
      "ĠU": 581,
      "ition": 582,
      "Ġtim": 583,
      "ap": 584,
      "ach": 585,
      "Ġspe": 586,
      "ary": 587,
      "ass": 588,
      "Ġabout": 589,
      "Ġthem": 590,
      "ence": 591,
      "ors": 592,
      "Ġpre": 593,
      "ĠIt": 594,
      "ue": 595,
      "ress": 596,
      "Ġup": 597,
      "low": 598,
      "Ġlike": 599,
      "Ġqu": 600,
      "Ġsc": 601,
      "ia": 602,
      "ild": 603,
      "ite": 604,
      "ire": 605,
      "Ġsy": 606,
      "Ġev": 607,
      "Ġro": 608,
      "iff": 609,
      "ile": 610,
      "Ġwhen": 611,
      "Ġsome": 612,
      "now": 613,
      "ound": 614,
      "Ġif": 615,
      "Ġmay": 616,
      "ber": 617,
      "ose": 618,
      "Ġinto": 619,
      "Ġpart": 620,
      "Ġbl": 621,
      "ces": 622,
      "form": 623,
      "Ġhow": 624,
      "Ġneed": 625,
      "row": 626,
      "ak": 627,
      "Ġuse": 628,
      "Ġcol": 629,
      "ĠThis": 630,
      "Ġits": 631,
      "Ġdiff": 632,
      "Ġthan": 633,
      "ree": 634,
      "Ġapp": 635,
      "ays": 636,
      "Ġtime": 637,
      "ail": 638,
      "ĠY": 639,
      "ric": 640,
      "Ġover": 641,
      "Ġany": 642,
      "ings": 643,
      "ame": 644,
      "ause": 645,
      "Ġpe": 646,
      "als": 647,
      "Ġthere": 648,
      "Ġbec": 649,
      "ish": 650,
      "ĠWhat": 651,
      "ific": 652,
      "Ġrec": 653,
      "Ġbet": 654,
      "Ġtra": 655,
      "we": 656,
      "Ġar": 657,
      "Ġcons": 658,
      "Ġhel": 659,
      "Ġthese": 660,
      "Ġcomm": 661,
      "ll": 662,
      "..": 663,
      "ove": 664,
      "lect": 665,
      "ature": 666,
      "ang": 667,
      "ating": 668,
      "les": 669,
      "stem": 670,
      "nder": 671,
      "cess": 672,
      "Ġknow": 673,
      "Ġspec": 674,
      "Ġhelp": 675,
      "ord": 676,
      "Ġwater": 677,
      "ari": 678,
      "Ġtr": 679,
      "int": 680,
      "ough": 681,
      "Ġstud": 682,
      "Ġph": 683,
      "olog": 684,
      "ĠâĢ": 685,
      "Ġind": 686,
      "Ġco": 687,
      "Ġour": 688,
      "ub": 689,
      "Ġdes": 690,
      "ount": 691,
      "Ġgo": 692,
      "Ġused": 693,
      "Ġra": 694,
      "Ġwhat": 695,
      "Ġget": 696,
      "rough": 697,
      "ond": 698,
      "te": 699,
      "ys": 700,
      "ook": 701,
      "ffect": 702,
      "Ġact": 703,
      "ick": 704,
      "ons": 705,
      "Ġsa": 706,
      "Ġgen": 707,
      "round": 708,
      "ular": 709,
      "Ġfl": 710,
      "ph": 711,
      "ms": 712,
      "ake": 713,
      "alth": 714,
      "Ġprov": 715,
      "Ġyear": 716,
      "vers": 717,
      "Ġprodu": 718,
      "Ġag": 719,
      "ĠJ": 720,
      "ople": 721,
      "Ġmost": 722,
      "Ġsuch": 723,
      "lud": 724,
      "ning": 725,
      "ory": 726,
      "Ġoff": 727,
      "ck": 728,
      "ne": 729,
      "ates": 730,
      "Ġdiffere": 731,
      "Ġacc": 732,
      "Ġam": 733,
      "oth": 734,
      "ient": 735,
      "Ġsm": 736,
      "ting": 737,
      "Ġwere": 738,
      "Ġwho": 739,
      "Ġunder": 740,
      "ject": 741,
      "Ġnew": 742,
      "ĠSt": 743,
      "ments": 744,
      "ple": 745,
      "erv": 746,
      "Ġbeen": 747,
      "Ġtw": 748,
      "Ġadd": 749,
      "10": 750,
      "Ġmake": 751,
      "Ġsystem": 752,
      "eth": 753,
      "ful": 754,
      "ange": 755,
      "Ġpeople": 756,
      "Ġem": 757,
      "Ġdi": 758,
      "Ġshould": 759,
      "xt": 760,
      "uring": 761,
      "its": 762,
      "Ġinclud": 763,
      "Ġwould": 764,
      "irst": 765,
      "Ġpr": 766,
      "ise": 767,
      "Ġno": 768,
      "19": 769,
      "Ġonly": 770,
      "Ġthrough": 771,
      "ten": 772,
      "oss": 773,
      "Ġjust": 774,
      "ble": 775,
      "hes": 776,
      "ility": 777,
      "erg": 778,
      "ities": 779,
      "Ġsur": 780,
      "ics": 781,
      "Ġplant": 782,
      "Ġcar": 783,
      "ark": 784,
      "Ġty": 785,
      "ower": 786,
      "ced": 787,
      "ative": 788,
      "Ġinter": 789,
      "ram": 790,
      "arm": 791,
      "Ġreg": 792,
      "ĠK": 793,
      "Ġhigh": 794,
      "Ġmany": 795,
      "Ġbu": 796,
      "Ġhealth": 797,
      "ert": 798,
      "ual": 799,
      "ov": 800,
      "Ġwork": 801,
      "Ġke": 802,
      "own": 803,
      "Ġrel": 804,
      "Ġpo": 805,
      "velop": 806,
      "old": 807,
      "Ġtwo": 808,
      "ob": 809,
      "chn": 810,
      "Ġrem": 811,
      "Ġche": 812,
      "ween": 813,
      "Ġwell": 814,
      "ef": 815,
      "fter": 816,
      "lic": 817,
      "Ġdoes": 818,
      "ract": 819,
      "ased": 820,
      "ible": 821,
      "ink": 822,
      "ĠV": 823,
      "hen": 824,
      "ren": 825,
      "Ġfirst": 826,
      "Ġmy": 827,
      "ft": 828,
      "Ġmod": 829,
      "Ġbetween": 830,
      "Ġdifferent": 831,
      "Ġac": 832,
      "ize": 833,
      "Ġwhere": 834,
      "Ġexper": 835,
      "Ġvari": 836,
      "cy": 837,
      "Ġlong": 838,
      "uch": 839,
      "Ġtrans": 840,
      "Ġdec": 841,
      "gan": 842,
      "hed": 843,
      "ade": 844,
      "iron": 845,
      "Ġob": 846,
      "ife": 847,
      "get": 848,
      "Ġrep": 849,
      "Ġcould": 850,
      "Ġimport": 851,
      "Ġcre": 852,
      "Ġway": 853,
      "Ġdevelop": 854,
      "ĠCh": 855,
      "ience": 856,
      "ually": 857,
      "ential": 858,
      "Ġ-": 859,
      "Ġsupp": 860,
      "iss": 861,
      "Ġprocess": 862,
      "fore": 863,
      "Ġgrow": 864,
      "Ġsim": 865,
      "Ġevery": 866,
      "?Ċ": 867,
      "ious": 868,
      "Ġusing": 869,
      "Ġinv": 870,
      "In": 871,
      "Ġpat": 872,
      "Ġinf": 873,
      "ĠIf": 874,
      "Ġbecause": 875,
      "Ġdet": 876,
      "ĠHow": 877,
      "Ġsk": 878,
      "Ġass": 879,
      "ĠThey": 880,
      "Ġatt": 881,
      "Ġfood": 882,
      "ural": 883,
      "ever": 884,
      "ts": 885,
      "Ġmain": 886,
      "rit": 887,
      "ically": 888,
      "Ġeven": 889,
      "Ġvery": 890,
      ").": 891,
      "Ġthen": 892,
      "ĠWh": 893,
      "erm": 894,
      "rib": 895,
      "Ġtechn": 896,
      "Ġnum": 897,
      "Ġeffect": 898,
      "Ġform": 899,
      "iqu": 900,
      "rop": 901,
      "Ġinst": 902,
      "Ġrequ": 903,
      "wn": 904,
      "Ġlar": 905,
      "uc": 906,
      "Ġmin": 907,
      "ata": 908,
      "ian": 909,
      "Ġext": 910,
      "arch": 911,
      "ily": 912,
      "pect": 913,
      "vent": 914,
      "Ġrese": 915,
      "00": 916,
      "Ġmuch": 917,
      "Ġsub": 918,
      "ody": 919,
      "Ġchild": 920,
      "ins": 921,
      "ures": 922,
      "Ġsee": 923,
      "ont": 924,
      "ĠYou": 925,
      "Ġins": 926,
      "Ġlear": 927,
      "Ġsign": 928,
      "Ġpers": 929,
      "ool": 930,
      "ution": 931,
      "Ġback": 932,
      "viron": 933,
      "'re": 934,
      "ines": 935,
      "gg": 936,
      "cial": 937,
      "ness": 938,
      "Ġyears": 939,
      "Ġexam": 940,
      "Ġhad": 941,
      "Ġincre": 942,
      "Ġwant": 943,
      "Ġgood": 944,
      "Ġimportant": 945,
      "ology": 946,
      "Ġdisc": 947,
      "Ġset": 948,
      "ĠâĢĵ": 949,
      "Ġgener": 950,
      "mer": 951,
      "Ġsmall": 952,
      "Ġgl": 953,
      "Ġgra": 954,
      "Ġfound": 955,
      "ues": 956,
      "ational": 957,
      "Ġcur": 958,
      "elf": 959,
      "?ĊĊ": 960,
      "Ġav": 961,
      "ec": 962,
      "Ġbre": 963,
      "ality": 964,
      "Ġfun": 965,
      "ption": 966,
      "ollow": 967,
      "Ġve": 968,
      "Ġafter": 969,
      "Ġeach": 970,
      "Ġfind": 971,
      "Ġhis": 972,
      "Ġsol": 973,
      "Ġear": 974,
      "Ġexp": 975,
      "Ġpres": 976,
      "),": 977,
      "Ġbo": 978,
      "ergy": 979,
      "Ġhum": 980,
      "Ġcle": 981,
      "Ġwhile": 982,
      "urn": 983,
      "ety": 984,
      "Ġloc": 985,
      "Ġresult": 986,
      "eld": 987,
      "Ġfact": 988,
      "ases": 989,
      "ruct": 990,
      "stand": 991,
      "Ġstart": 992,
      "ĠUn": 993,
      "ied": 994,
      "Ġdog": 995,
      "ĠAs": 996,
      "Ġprog": 997,
      "Ġmed": 998,
      "Ġlight": 999,
      "Ġdesign": 1000,
      "Ġaround": 1001,
      "formation": 1002,
      "Ġval": 1003,
      "ros": 1004,
      "Ġlevel": 1005,
      "Ġref": 1006,
      "Ġdep": 1007,
      "ages": 1008,
      "vironment": 1009,
      "ices": 1010,
      "aterial": 1011,
      "Ġworld": 1012,
      "ized": 1013,
      "ĠWe": 1014,
      "Ġmon": 1015,
      "oy": 1016,
      "Ġbr": 1017,
      "Ġdon": 1018,
      "Ġtake": 1019,
      "Ġdist": 1020,
      "nce": 1021,
      "Ġelect": 1022,
      "Ġanim": 1023,
      "ward": 1024,
      "Ġbeing": 1025,
      "Ġcor": 1026,
      "ists": 1027,
      "ives": 1028,
      "ps": 1029,
      "Ġdown": 1030,
      "Ġdata": 1031,
      "other": 1032,
      "Ġproble": 1033,
      "Ġredu": 1034,
      "Ġsame": 1035,
      "eg": 1036,
      "Ġfollow": 1037,
      "Ġbefore": 1038,
      "Ġstr": 1039,
      "ield": 1040,
      "Ġoften": 1041,
      "Ġpot": 1042,
      "Ġpartic": 1043,
      "Ġher": 1044,
      "Ġcell": 1045,
      "Ġsec": 1046,
      "dition": 1047,
      "Ġthose": 1048,
      "Ġlife": 1049,
      "ix": 1050,
      "Ġart": 1051,
      "Ġend": 1052,
      "omm": 1053,
      "Ġhand": 1054,
      "ock": 1055,
      "ath": 1056,
      "ather": 1057,
      "atter": 1058,
      "Ġcomple": 1059,
      "Ġduring": 1060,
      "els": 1061,
      "Ġcall": 1062,
      "Ġboth": 1063,
      "Ġaut": 1064,
      "ider": 1065,
      "Ġcontro": 1066,
      "Ġown": 1067,
      "Ġtem": 1068,
      "Ġed": 1069,
      "Ġexpl": 1070,
      "aw": 1071,
      "Ġmaterial": 1072,
      "Ġeas": 1073,
      ".\"": 1074,
      "tern": 1075,
      "Ġtyp": 1076,
      "tle": 1077,
      "Ġlead": 1078,
      "Ġshow": 1079,
      "Ġallow": 1080,
      "cer": 1081,
      "Ġright": 1082,
      "Ġperson": 1083,
      "Ġshe": 1084,
      "ale": 1085,
      "Ġorgan": 1086,
      "Ġmet": 1087,
      "ides": 1088,
      "Ġbody": 1089,
      "Ġair": 1090,
      "io": 1091,
      "chool": 1092,
      "Ġent": 1093,
      "ict": 1094,
      "Ġenergy": 1095,
      "ets": 1096,
      "ident": 1097,
      ":Ċ": 1098,
      "Ġvis": 1099,
      "cl": 1100,
      "ivers": 1101,
      "Ġmade": 1102,
      "ew": 1103,
      "Ġread": 1104,
      "ird": 1105,
      "Ġkeep": 1106,
      "reen": 1107,
      "ng": 1108,
      "Ġplay": 1109,
      "Ġtoo": 1110,
      "Ġ'": 1111,
      "ull": 1112,
      "Ġdr": 1113,
      "Ġcommon": 1114,
      "ection": 1115,
      "iving": 1116,
      "Ġcare": 1117,
      "ien": 1118,
      "Ġenvironment": 1119,
      "eng": 1120,
      "Ġinformation": 1121,
      "ĠHe": 1122,
      "rent": 1123,
      "Ġpower": 1124,
      "Ġprot": 1125,
      "Ġequ": 1126,
      "Ġless": 1127,
      "Ġpop": 1128,
      "air": 1129,
      "Ġbest": 1130,
      "Ġtest": 1131,
      "ining": 1132,
      "ars": 1133,
      "Ġcat": 1134,
      "Ġtreat": 1135,
      "Ġgu": 1136,
      "Ġnumber": 1137,
      "Ġposs": 1138,
      "read": 1139,
      "ĠFor": 1140,
      "What": 1141,
      "cent": 1142,
      "Ġproduct": 1143,
      "imate": 1144,
      "iew": 1145,
      "ited": 1146,
      "Ġchar": 1147,
      "ium": 1148,
      "ving": 1149,
      "ivid": 1150,
      "ffic": 1151,
      "Ġcommun": 1152,
      "oci": 1153,
      "ves": 1154,
      "Ġdef": 1155,
      "Ġprovide": 1156,
      "ason": 1157,
      "ave": 1158,
      "ash": 1159,
      "cept": 1160,
      "ĠPro": 1161,
      "ty": 1162,
      "aking": 1163,
      "way": 1164,
      "Ġplan": 1165,
      "Ġunderstand": 1166,
      "12": 1167,
      "Ġris": 1168,
      "Ġadv": 1169,
      "ute": 1170,
      "cing": 1171,
      "ven": 1172,
      "Ġben": 1173,
      "Ġactiv": 1174,
      "Ġday": 1175,
      "ulation": 1176,
      "the": 1177,
      "ands": 1178,
      "Ġsom": 1179,
      "Ġeng": 1180,
      "Ġfam": 1181,
      "Ġlit": 1182,
      "-b": 1183,
      "Ġpoint": 1184,
      "ional": 1185,
      "Ġresp": 1186,
      "-s": 1187,
      "Ġens": 1188,
      "Ġdise": 1189,
      "up": 1190,
      "-f": 1191,
      "Ġsaid": 1192,
      "Ġresearch": 1193,
      "ier": 1194,
      "ger": 1195,
      "tain": 1196,
      "¿½": 1197,
      "ï¿½": 1198,
      "ĠAl": 1199,
      "ined": 1200,
      "ved": 1201,
      "ĠThese": 1202,
      "Ġpol": 1203,
      "Ġmight": 1204,
      "Ġnow": 1205,
      "Ġspecies": 1206,
      "led": 1207,
      "Ġplants": 1208,
      "der": 1209,
      "ted": 1210,
      "Ġstudy": 1211,
      "Ġserv": 1212,
      "Ġimpro": 1213,
      "Ġmeth": 1214,
      "acter": 1215,
      "Ġdire": 1216,
      "Ġcent": 1217,
      "ron": 1218,
      "Ġey": 1219,
      "Ġap": 1220,
      "hip": 1221,
      "Ġproper": 1222,
      "How": 1223,
      "Ġpur": 1224,
      "Ġdid": 1225,
      "Ġsupport": 1226,
      "ĠAn": 1227,
      "any": 1228,
      "Ġbetter": 1229,
      "Ġstill": 1230,
      "Ġop": 1231,
      "Ġgreat": 1232,
      "ots": 1233,
      "Ġlarge": 1234,
      "Ġpos": 1235,
      "Ġlook": 1236,
      "atural": 1237,
      "Ġhome": 1238,
      "Ġwithout": 1239,
      "Ġstate": 1240,
      "Ġclass": 1241,
      "Ġcreat": 1242,
      "perature": 1243,
      "ired": 1244,
      "ince": 1245,
      "ĠThere": 1246,
      "put": 1247,
      "Ġcreate": 1248,
      "ants": 1249,
      "ank": 1250,
      "Ġincluding": 1251,
      "kes": 1252,
      ",\"": 1253,
      "itions": 1254,
      "Ġprof": 1255,
      "ways": 1256,
      "itive": 1257,
      "Ġstudents": 1258,
      "ĠTh": 1259,
      "Ġsaf": 1260,
      "Ġmeas": 1261,
      "day": 1262,
      "line": 1263,
      "Ġcal": 1264,
      "ware": 1265,
      "Ġmus": 1266,
      "Ġocc": 1267,
      "Ġcaus": 1268,
      "co": 1269,
      "inal": 1270,
      "Ġopt": 1271,
      "ĠTo": 1272,
      "âĢĻ": 1273,
      "Ġbenef": 1274,
      "ĠBut": 1275,
      "Ġcontrol": 1276,
      "Ġbeh": 1277,
      "Ġcontain": 1278,
      "Ġdra": 1279,
      "Ġbra": 1280,
      "ared": 1281,
      "Ġexample": 1282,
      "und": 1283,
      "oid": 1284,
      "Ġiss": 1285,
      "Ġmethod": 1286,
      "15": 1287,
      "gen": 1288,
      "less": 1289,
      "ork": 1290,
      "Ġchang": 1291,
      "This": 1292,
      "Ġagain": 1293,
      "ead": 1294,
      "Ġchange": 1295,
      "...": 1296,
      "Ġknown": 1297,
      "Ġhapp": 1298,
      "ner": 1299,
      "ax": 1300,
      "Ġsw": 1301,
      "Ġbuild": 1302,
      "Ġcause": 1303,
      "Ġfew": 1304,
      "ital": 1305,
      "Ġflow": 1306,
      "--": 1307,
      "Ġmaking": 1308,
      "bs": 1309,
      "Ġsl": 1310,
      "ention": 1311,
      "Ġtemperature": 1312,
      "oms": 1313,
      "Ġcount": 1314,
      "It": 1315,
      "Ġdev": 1316,
      "Ġindivid": 1317,
      "Ġcurrent": 1318,
      "Ġhuman": 1319,
      ":ĊĊ": 1320,
      "Ġchildren": 1321,
      "Ġide": 1322,
      "ering": 1323,
      "Ġsurf": 1324,
      "Ġrun": 1325,
      "Ġthink": 1326,
      "ral": 1327,
      "ĠHowever": 1328,
      "ism": 1329,
      "Ġtop": 1330,
      "30": 1331,
      "Ġet": 1332,
      "Ġsoil": 1333,
      "iness": 1334,
      "If": 1335,
      "Ġbel": 1336,
      "Ġpotential": 1337,
      "ĠAd": 1338,
      "Ġgrou": 1339,
      "Ġtext": 1340,
      "Ġprevent": 1341,
      "Ġele": 1342,
      "Ġlow": 1343,
      "Ġproject": 1344,
      "iod": 1345,
      "Ġret": 1346,
      "iversity": 1347,
      "Ġpub": 1348,
      "etic": 1349,
      "Ġpain": 1350,
      "hers": 1351,
      "ability": 1352,
      "ify": 1353,
      "Ġcontin": 1354,
      "ex": 1355,
      "Ġpract": 1356,
      "ording": 1357,
      "50": 1358,
      "Ġhard": 1359,
      "ĠAnd": 1360,
      "ration": 1361,
      "Ġmem": 1362,
      "Ġmust": 1363,
      "Ġconst": 1364,
      "ape": 1365,
      "ique": 1366,
      "Ġplace": 1367,
      "Ġser": 1368,
      "ross": 1369,
      "18": 1370,
      "here": 1371,
      "ush": 1372,
      "ters": 1373,
      "ior": 1374,
      "Ġhy": 1375,
      "Ġtype": 1376,
      "ator": 1377,
      "Ġthree": 1378,
      "ertain": 1379,
      "Ġphys": 1380,
      "Ġperform": 1381,
      "-c": 1382,
      "erest": 1383,
      "irc": 1384,
      "Ġappro": 1385,
      "pr": 1386,
      "Ġconf": 1387,
      "Ġthough": 1388,
      "Ġwee": 1389,
      "Ġfish": 1390,
      "ered": 1391,
      "Ġdam": 1392,
      "'ll": 1393,
      "Ġtre": 1394,
      "ats": 1395,
      "ental": 1396,
      "Ġfunction": 1397,
      "Ġsure": 1398,
      "Ġwithin": 1399,
      "ug": 1400,
      "ĠSo": 1401,
      "Ġarea": 1402,
      "Ġmark": 1403,
      "ern": 1404,
      "ids": 1405,
      "ouse": 1406,
      "hy": 1407,
      "Ġdel": 1408,
      "ense": 1409,
      "rodu": 1410,
      "Ġblood": 1411,
      "Ġnatural": 1412,
      "Ġdue": 1413,
      "iven": 1414,
      "Ġfeel": 1415,
      "me": 1416,
      "Ġpress": 1417,
      "Ġlearn": 1418,
      "Ġprogram": 1419,
      "Ġess": 1420,
      "gn": 1421,
      "ane": 1422,
      "ĠPl": 1423,
      "port": 1424,
      "icle": 1425,
      "ĠWhen": 1426,
      "ination": 1427,
      "Ġphot": 1428,
      "Ġwhy": 1429,
      "to": 1430,
      "atch": 1431,
      "Ġnut": 1432,
      "Ġfree": 1433,
      "11": 1434,
      "Ġsignific": 1435,
      "Ġbas": 1436,
      "ooking": 1437,
      "Ġspecific": 1438,
      "Ġavail": 1439,
      "Ġcost": 1440,
      "Ġthings": 1441,
      "Ġmove": 1442,
      "meric": 1443,
      "ization": 1444,
      "rap": 1445,
      "iver": 1446,
      "eds": 1447,
      "Ġreal": 1448,
      "Ġvarious": 1449,
      "oot": 1450,
      "ole": 1451,
      "Ġfield": 1452,
      "Ġaddition": 1453,
      "Ġgr": 1454,
      "Ġaffect": 1455,
      "apt": 1456,
      "br": 1457,
      "Ġinclude": 1458,
      "Ġcalled": 1459,
      "Ġsour": 1460,
      "Ġsit": 1461,
      "Ġschool": 1462,
      "osed": 1463,
      "akes": 1464,
      "aring": 1465,
      "Ġclean": 1466,
      "Ġconn": 1467,
      "Ġreally": 1468,
      "ĠSc": 1469,
      "orn": 1470,
      "Ġconsider": 1471,
      "land": 1472,
      "ocus": 1473,
      "St": 1474,
      "Ġident": 1475,
      "Ġec": 1476,
      "Ġdirect": 1477,
      "Ġfil": 1478,
      "ills": 1479,
      "thing": 1480,
      "Ġamount": 1481,
      "Ġopen": 1482,
      "Ġimpact": 1483,
      "ries": 1484,
      "Ġstand": 1485,
      "ccess": 1486,
      "bers": 1487,
      "Ġrisk": 1488,
      "uss": 1489,
      "Ġest": 1490,
      "Ġbecome": 1491,
      "Ġcour": 1492,
      "'ve": 1493,
      "ients": 1494,
      "Ġcome": 1495,
      "Ġpar": 1496,
      "Ġable": 1497,
      "Ġmeans": 1498,
      "ething": 1499,
      "Ġ$": 1500,
      "Ġexperience": 1501,
      "Ġprom": 1502,
      "oad": 1503,
      "ĠIs": 1504,
      "ones": 1505,
      "Ġhere": 1506,
      "Ġfollowing": 1507,
      "arden": 1508,
      "Ġlay": 1509,
      "Ġneeds": 1510,
      "ently": 1511,
      "Ġtry": 1512,
      "Ġstep": 1513,
      "Ġteam": 1514,
      "Ġpossible": 1515,
      "Ġcells": 1516,
      "Ġhig": 1517,
      "Ġunt": 1518,
      "Ġanother": 1519,
      "Ġcond": 1520,
      "Ġinterest": 1521,
      "__": 1522,
      "ling": 1523,
      "Ġgoing": 1524,
      "riend": 1525,
      "Ġlet": 1526,
      "Ġappe": 1527,
      "Ġrest": 1528,
      "Ġsym": 1529,
      "âĢĶ": 1530,
      "Ġel": 1531,
      "omes": 1532,
      "Ġcomput": 1533,
      "ime": 1534,
      "Ġspace": 1535,
      "Ġsens": 1536,
      "aces": 1537,
      "aves": 1538,
      "Ġrequire": 1539,
      "arent": 1540,
      "Ġanal": 1541,
      "Ġhead": 1542,
      "Ġdisease": 1543,
      "ĠAmeric": 1544,
      "Ġcap": 1545,
      "Ġoil": 1546,
      "Ġlot": 1547,
      "Ġsize": 1548,
      "Ġtool": 1549,
      "Ġput": 1550,
      "Ġobject": 1551,
      "Ġes": 1552,
      "Ġsever": 1553,
      "Ġlearning": 1554,
      "of": 1555,
      "ished": 1556,
      "Ġcolor": 1557,
      "Ġsystems": 1558,
      "Ġsomething": 1559,
      "Ġsignificant": 1560,
      "Ġmean": 1561,
      "Ġalways": 1562,
      "Ġbus": 1563,
      "ee": 1564,
      "Ġinvol": 1565,
      "ton": 1566,
      "ateg": 1567,
      "Ġbi": 1568,
      "outh": 1569,
      "Ġvol": 1570,
      "omen": 1571,
      "over": 1572,
      "Ġsay": 1573,
      "Ġprovid": 1574,
      "Ġsecond": 1575,
      "Ġmult": 1576,
      "Ġcirc": 1577,
      "Ġstruct": 1578,
      "Ġprotect": 1579,
      "Ġcomb": 1580,
      "Ġcr": 1581,
      "pecial": 1582,
      "oes": 1583,
      "ring": 1584,
      "Ġlim": 1585,
      "Ġlittle": 1586,
      "raph": 1587,
      "ified": 1588,
      "Ġproblem": 1589,
      "ode": 1590,
      "Ġmonth": 1591,
      "Ġlast": 1592,
      "Ġmakes": 1593,
      "Ġfeature": 1594,
      "de": 1595,
      "Ġcy": 1596,
      "Ġfore": 1597,
      "Ġusually": 1598,
      "Ġavailable": 1599,
      "Ġfocus": 1600,
      "ĠSh": 1601,
      "Ġold": 1602,
      "Ġconsum": 1603,
      "Ġdig": 1604,
      "Ġant": 1605,
      "Ġbased": 1606,
      "ieve": 1607,
      "Ġoper": 1608,
      "Ġprofess": 1609,
      "Ġrange": 1610,
      "Ġbeg": 1611,
      "aste": 1612,
      "cle": 1613,
      "ĠWhich": 1614,
      "ards": 1615,
      "Ġsurface": 1616,
      "Ġeduc": 1617,
      "ending": 1618,
      "ables": 1619,
      "Ġ=": 1620,
      "ilar": 1621,
      "af": 1622,
      "Ġchem": 1623,
      "Ġdeterm": 1624,
      "Ġcut": 1625,
      "Ġcheck": 1626,
      "Ġdevelopment": 1627,
      "Ġoccur": 1628,
      "Ġscient": 1629,
      "aper": 1630,
      "ote": 1631,
      "Ġmaterials": 1632,
      "ems": 1633,
      "Ġlevels": 1634,
      "Ġmill": 1635,
      "ended": 1636,
      "Ġtimes": 1637,
      "ĠBl": 1638,
      "Ġaccess": 1639,
      "ories": 1640,
      "Ġline": 1641,
      "alk": 1642,
      "Ġensure": 1643,
      "Ġmot": 1644,
      "Ġanimals": 1645,
      "Ġapplic": 1646,
      "Ġbird": 1647,
      "Ġessential": 1648,
      "Ġmic": 1649,
      "Ġheat": 1650,
      "Ġimm": 1651,
      "14": 1652,
      "Ġnear": 1653,
      "Ġpresent": 1654,
      "ances": 1655,
      "Ġcam": 1656,
      "Ġcertain": 1657,
      "Ġdem": 1658,
      "Ġareas": 1659,
      "Ġtypes": 1660,
      "Ġuntil": 1661,
      "az": 1662,
      "Ġkey": 1663,
      "Ġquality": 1664,
      "Ġtechnology": 1665,
      "Ġseveral": 1666,
      "aut": 1667,
      "Ġnon": 1668,
      "Ġeffective": 1669,
      "We": 1670,
      "oose": 1671,
      "Ġconditions": 1672,
      "ĠAr": 1673,
      "ples": 1674,
      "Ġindust": 1675,
      "ĠUniversity": 1676,
      "ably": 1677,
      "par": 1678,
      "fort": 1679,
      "Ġspecial": 1680,
      "Ġpost": 1681,
      "Ġbig": 1682,
      "ours": 1683,
      "Ġfeed": 1684,
      "Ġorder": 1685,
      "ological": 1686,
      "Ġrad": 1687,
      "Ġsuccess": 1688,
      "-p": 1689,
      "Ġfin": 1690,
      "Ġlist": 1691,
      "ĠPh": 1692,
      "16": 1693,
      "Ġenough": 1694,
      "Ġparticular": 1695,
      "Ġopp": 1696,
      "Ġimprove": 1697,
      "oor": 1698,
      "ĠInd": 1699,
      "Ġreport": 1700,
      "Ġpass": 1701,
      "Ġside": 1702,
      "ury": 1703,
      "Ġleg": 1704,
      "be": 1705,
      "asing": 1706,
      "ency": 1707,
      "ains": 1708,
      "'m": 1709,
      "Ġgive": 1710,
      "Ġperiod": 1711,
      "ision": 1712,
      "arc": 1713,
      "au": 1714,
      "Ġmil": 1715,
      "ĠEx": 1716,
      "Ġfre": 1717,
      "Ġrece": 1718,
      "atic": 1719,
      "Ġgrowth": 1720,
      "-d": 1721,
      "crib": 1722,
      "As": 1723,
      "ox": 1724,
      "Ġz": 1725,
      "Ġinfl": 1726,
      "ĠRe": 1727,
      "Ġsal": 1728,
      "aster": 1729,
      "Ġproblems": 1730,
      "ately": 1731,
      "Ġfamily": 1732,
      "ĠCl": 1733,
      "Ġmeasure": 1734,
      "-l": 1735,
      "Ġmar": 1736,
      "Ġdays": 1737,
      "ĠNew": 1738,
      "Ġhist": 1739,
      "ĠBy": 1740,
      "ips": 1741,
      "hor": 1742,
      "Ġwind": 1743,
      "ication": 1744,
      "uture": 1745,
      "Ġsugg": 1746,
      ",Ċ": 1747,
      "13": 1748,
      "view": 1749,
      "ocial": 1750,
      "Ġgroup": 1751,
      "Ġbal": 1752,
      "inc": 1753,
      "ret": 1754,
      "urther": 1755,
      "omp": 1756,
      "Ġnorm": 1757,
      "ustom": 1758,
      "Ġsince": 1759,
      "iting": 1760,
      "let": 1761,
      "light": 1762,
      "ĠWith": 1763,
      "Ġearly": 1764,
      "Ġgarden": 1765,
      "Ġaway": 1766,
      "Ġalong": 1767,
      "Ġter": 1768,
      "Ġrele": 1769,
      "-m": 1770,
      "ĠCan": 1771,
      "ĠRes": 1772,
      "oney": 1773,
      "Ġmaintain": 1774,
      "Ġpressure": 1775,
      "Ġrecomm": 1776,
      "Ġsuggest": 1777,
      "Ġcomes": 1778,
      "utes": 1779,
      "jor": 1780,
      "Ġchanges": 1781,
      "onom": 1782,
      "ĠSe": 1783,
      "Ġsoft": 1784,
      "por": 1785,
      ".,": 1786,
      "Ġcho": 1787,
      "Ġresults": 1788,
      "Ġstrong": 1789,
      "pecially": 1790,
      "Ġ&": 1791,
      "Ġname": 1792,
      "Ġmanage": 1793,
      "ored": 1794,
      "oring": 1795,
      "Ġprim": 1796,
      "Ġhigher": 1797,
      "Ġshort": 1798,
      "Ġfarm": 1799,
      "ither": 1800,
      "Ġweight": 1801,
      "Ġworking": 1802,
      "Ġworks": 1803,
      "ustain": 1804,
      "17": 1805,
      "Ġorig": 1806,
      "Ġnature": 1807,
      "ĠThat": 1808,
      "Ġquick": 1809,
      "Ġlocal": 1810,
      "Ġengine": 1811,
      "Ġcult": 1812,
      ")Ċ": 1813,
      "Ġincrease": 1814,
      "Ġcase": 1815,
      "âĢĻs": 1816,
      "When": 1817,
      "You": 1818,
      "Ġpublic": 1819,
      "Ġer": 1820,
      "icult": 1821,
      "olution": 1822,
      "Ġbusiness": 1823,
      "Ġenc": 1824,
      "Ġgas": 1825,
      "Ġconnect": 1826,
      "Ġeffic": 1827,
      "Ġsun": 1828,
      "ounds": 1829,
      "Ġtoget": 1830,
      "ogn": 1831,
      "Ġcomplete": 1832,
      "Ġtogether": 1833,
      "ump": 1834,
      "astic": 1835,
      "Ġtreatment": 1836,
      "Ġground": 1837,
      "agn": 1838,
      "chan": 1839,
      "Ġste": 1840,
      "There": 1841,
      "Ġmodel": 1842,
      "Ġword": 1843,
      "ember": 1844,
      "ograph": 1845,
      "work": 1846,
      "ches": 1847,
      "Ġloss": 1848,
      "Ġothers": 1849,
      "bon": 1850,
      "ĠTe": 1851,
      "Ġchall": 1852,
      "verage": 1853,
      "Ġheart": 1854,
      "Ġlower": 1855,
      "Ġlikely": 1856,
      "Ġproducts": 1857,
      "inter": 1858,
      "Ġsimilar": 1859,
      "Ġunique": 1860,
      "atory": 1861,
      "not": 1862,
      "Ġpast": 1863,
      "ires": 1864,
      "Ġsing": 1865,
      "ised": 1866,
      "Ġfac": 1867,
      "An": 1868,
      "fact": 1869,
      "ler": 1870,
      "Ġbro": 1871,
      "Ġdiet": 1872,
      "Ġhealthy": 1873,
      "Ġbehav": 1874,
      "Ġfuture": 1875,
      "Ġgreen": 1876,
      "Ġnext": 1877,
      "40": 1878,
      "Ġfactors": 1879,
      "Ġeye": 1880,
      "fect": 1881,
      "25": 1882,
      "Ġnecess": 1883,
      "resh": 1884,
      "Ġreduce": 1885,
      "Ġpet": 1886,
      "Ġhim": 1887,
      "Ġmarket": 1888,
      "Ġmajor": 1889,
      "Ġactually": 1890,
      "ream": 1891,
      "Ġprob": 1892,
      "osp": 1893,
      "Ġcourse": 1894,
      "Ġeasy": 1895,
      "Ġi": 1896,
      "Ġissues": 1897,
      "cul": 1898,
      "Ġage": 1899,
      "ived": 1900,
      "Ġassoci": 1901,
      "Ġdogs": 1902,
      "Ġmov": 1903,
      "fer": 1904,
      "Ġsimple": 1905,
      "Ġvalue": 1906,
      "Ġkind": 1907,
      "Ġwarm": 1908,
      "Ġstra": 1909,
      "Ġpercent": 1910,
      "Ġrepl": 1911,
      "izing": 1912,
      "oun": 1913,
      "ĠAt": 1914,
      "Ġhaving": 1915,
      "Ġclose": 1916,
      "Ġpred": 1917,
      "orth": 1918,
      "Ġgre": 1919,
      "NA": 1920,
      "Ġfull": 1921,
      "uals": 1922,
      "Ġmind": 1923,
      "imes": 1924,
      "ooks": 1925,
      "most": 1926,
      "Ġanimal": 1927,
      "Ġans": 1928,
      "duct": 1929,
      "Ġclear": 1930,
      ")ĊĊ": 1931,
      "vious": 1932,
      "une": 1933,
      "Ġsum": 1934,
      "uro": 1935,
      "ym": 1936,
      "though": 1937,
      "ators": 1938,
      "-t": 1939,
      "Ġcustom": 1940,
      "Ġfriend": 1941,
      "Ġsmo": 1942,
      "Ġespecially": 1943,
      "rect": 1944,
      "Ġsays": 1945,
      "aging": 1946,
      "Ġdoesn": 1947,
      "ah": 1948,
      "oint": 1949,
      "erc": 1950,
      "Ġagainst": 1951,
      "self": 1952,
      "Ġintern": 1953,
      "Ġturn": 1954,
      "ĠDe": 1955,
      "ĠYour": 1956,
      "Ġchemical": 1957,
      "Ġnever": 1958,
      "Ġeffects": 1959,
      "Ġways": 1960,
      "Ġreason": 1961,
      "Ġregular": 1962,
      "Ġinvest": 1963,
      "Ġpie": 1964,
      "Ġbegin": 1965,
      "Ġcharacter": 1966,
      "Ġlab": 1967,
      "Ġdifficult": 1968,
      "man": 1969,
      "Ġdeg": 1970,
      "Ġdry": 1971,
      "ott": 1972,
      "ĠSp": 1973,
      "ensive": 1974,
      "Ġach": 1975,
      "Ġthing": 1976,
      "Ġblack": 1977,
      "Ġabove": 1978,
      "Ġlive": 1979,
      "Ġfar": 1980,
      "ystem": 1981,
      "ilities": 1982,
      "anced": 1983,
      "Ġresour": 1984,
      "Ġavoid": 1985,
      "ipp": 1986,
      "Ġcra": 1987,
      "ression": 1988,
      "ivity": 1989,
      "Ġmagn": 1990,
      "Ġred": 1991,
      "Ġmach": 1992,
      "Ġacross": 1993,
      "ĠZ": 1994,
      "Ġsocial": 1995,
      "Ġeat": 1996,
      "Ġfrequ": 1997,
      "Ġskin": 1998,
      "Ġfour": 1999,
      "iple": 2000,
      "Ġproduction": 2001,
      "Ġtru": 2002,
      "Ġbatter": 2003,
      "ĠCon": 2004,
      "ission": 2005,
      "omet": 2006,
      "Ġexce": 2007,
      "Ġbit": 2008,
      "Ġnet": 2009,
      "idence": 2010,
      "Ġyoung": 2011,
      "Ġstress": 2012,
      "ĠUS": 2013,
      "Ġrole": 2014,
      "Ġland": 2015,
      "Ġgiven": 2016,
      "Ġleast": 2017,
      "Ġveget": 2018,
      "Ġvir": 2019,
      "Ġbuy": 2020,
      "Ġrespons": 2021,
      "Ġox": 2022,
      "hem": 2023,
      "Ġmatter": 2024,
      "usion": 2025,
      "Ġleft": 2026,
      "lish": 2027,
      "ledge": 2028,
      "ĠSome": 2029,
      "Ġwide": 2030,
      "wards": 2031,
      "ibility": 2032,
      "Ġdamage": 2033,
      "pos": 2034,
      "ĠBe": 2035,
      "Ġweek": 2036,
      "for": 2037,
      "ĠCol": 2038,
      "Ġfit": 2039,
      "Ġcondition": 2040,
      "Ġcancer": 2041,
      "ptoms": 2042,
      "Ġdone": 2043,
      "ĠEn": 2044,
      "Ġdiscuss": 2045,
      "Ġsustain": 2046,
      "amm": 2047,
      "Ġbenefits": 2048,
      "ification": 2049,
      "Ġpaper": 2050,
      "igns": 2051,
      "Ġvide": 2052,
      "Ġquestion": 2053,
      "Ġobs": 2054,
      "ĠInst": 2055,
      "Ġpersonal": 2056,
      "side": 2057,
      "Ġprote": 2058,
      "Ġamong": 2059,
      "Ġdesigned": 2060,
      "Ġwrit": 2061,
      "Ġrepres": 2062,
      "Ġaccording": 2063,
      "Ġfr": 2064,
      "Ġprovides": 2065,
      "Ġmass": 2066,
      "lement": 2067,
      "Ġdetail": 2068,
      "Ġsingle": 2069,
      "ising": 2070,
      "Ġsafe": 2071,
      "gar": 2072,
      "Ġtur": 2073,
      "eral": 2074,
      "joy": 2075,
      "Ġsn": 2076,
      "ales": 2077,
      "Ġoffer": 2078,
      "Ġphysical": 2079,
      "Ġ[": 2080,
      "use": 2081,
      "Ġmechan": 2082,
      "Ġclimate": 2083,
      "Ġevent": 2084,
      "Ġcru": 2085,
      "Ġcontrib": 2086,
      "yle": 2087,
      "Ġhab": 2088,
      "ĠâĢĶ": 2089,
      "ĠĠ": 2090,
      "Ġwhite": 2091,
      "IN": 2092,
      "mit": 2093,
      "24": 2094,
      "Ġcoll": 2095,
      "!Ċ": 2096,
      "Ġthin": 2097,
      "imal": 2098,
      "ĠOr": 2099,
      "Ġstop": 2100,
      "Ġcompon": 2101,
      "Ġemb": 2102,
      "Ġsubst": 2103,
      "Ġactivity": 2104,
      "Ġeither": 2105,
      "Ġindic": 2106,
      "Ġglob": 2107,
      "Ġbook": 2108,
      "Ġresearc": 2109,
      "ufact": 2110,
      "!ĊĊ": 2111,
      "Ġparent": 2112,
      "ames": 2113,
      "Ġrecord": 2114,
      "Ġ.": 2115,
      "Ġhelps": 2116,
      "Ġpopular": 2117,
      "cri": 2118,
      "Ġsource": 2119,
      "Ġrate": 2120,
      "ried": 2121,
      "Ġcool": 2122,
      "angu": 2123,
      "Ġfall": 2124,
      "ER": 2125,
      "Ġvers": 2126,
      "Ġtoday": 2127,
      "Ġonline": 2128,
      "ĠEar": 2129,
      "Ġparts": 2130,
      "Ġwomen": 2131,
      "Ġflu": 2132,
      "Ġdifference": 2133,
      "ges": 2134,
      "Ġlooking": 2135,
      "Ġscience": 2136,
      "estions": 2137,
      "avor": 2138,
      "Ġwild": 2139,
      "Ġlif": 2140,
      "ae": 2141,
      "Ġvariety": 2142,
      "Ġunderstanding": 2143,
      "Ġpay": 2144,
      "Ġwr": 2145,
      "Ġhouse": 2146,
      "ured": 2147,
      "Ġabs": 2148,
      "Ġauthor": 2149,
      "Ġterm": 2150,
      "alf": 2151,
      "ibr": 2152,
      "Ġtraining": 2153,
      "For": 2154,
      "lished": 2155,
      "ening": 2156,
      "iment": 2157,
      "orts": 2158,
      "ĠOn": 2159,
      "Ġneeded": 2160,
      "com": 2161,
      "ned": 2162,
      "Ġskills": 2163,
      "Ġindividuals": 2164,
      "ores": 2165,
      "ina": 2166,
      "vert": 2167,
      "ï¿½ï¿½": 2168,
      "21": 2169,
      "Ġinit": 2170,
      "Ġimage": 2171,
      "Ġcontact": 2172,
      "ploy": 2173,
      "ysis": 2174,
      "ik": 2175,
      "Ġtend": 2176,
      "ĠCent": 2177,
      "âĢ¦": 2178,
      "Ġcontent": 2179,
      "Ġonce": 2180,
      "Ġview": 2181,
      "ming": 2182,
      "Ġexpect": 2183,
      "Ġpath": 2184,
      "Ġbab": 2185,
      "Ġrequired": 2186,
      "ope": 2187,
      "Ġability": 2188,
      "aling": 2189,
      "Ch": 2190,
      "ength": 2191,
      "just": 2192,
      "To": 2193,
      "Ġmonths": 2194,
      "ĠIm": 2195,
      "Ġwhether": 2196,
      "Ġfurther": 2197,
      "elves": 2198,
      "Ġveh": 2199,
      "Ġdescrib": 2200,
      "Ġelectric": 2201,
      "Ġindividual": 2202,
      "Ġself": 2203,
      "Ġselect": 2204,
      "ĠNo": 2205,
      "ruction": 2206,
      "Ġmoney": 2207,
      "Ġsuper": 2208,
      "ortun": 2209,
      "erence": 2210,
      "ask": 2211,
      "Ġactivities": 2212,
      "Wh": 2213,
      "rel": 2214,
      "Ġfat": 2215,
      "Ġever": 2216,
      "Ġnecessary": 2217,
      "Ġdoing": 2218,
      "aching": 2219,
      "Ġfru": 2220,
      "selves": 2221,
      "lection": 2222,
      "Ġcarbon": 2223,
      "Ġfu": 2224,
      "Ġenjoy": 2225,
      "Ġcommunity": 2226,
      "Ġcomputer": 2227,
      "aps": 2228,
      "rate": 2229,
      "Ġcomplex": 2230,
      "by": 2231,
      "overed": 2232,
      "Ġneg": 2233,
      "ery": 2234,
      "Ġstrateg": 2235,
      "Ġreact": 2236,
      "ĠEng": 2237,
      "Ġsymptoms": 2238,
      "ilt": 2239,
      "idd": 2240,
      "Ġpositive": 2241,
      "Ġliving": 2242,
      "ows": 2243,
      "ready": 2244,
      "Ġinput": 2245,
      "Ġprint": 2246,
      "ese": 2247,
      "22": 2248,
      "ume": 2249,
      "Ġhold": 2250,
      "lex": 2251,
      "Ġmillion": 2252,
      "rams": 2253,
      "Ġproduce": 2254,
      "Ġexperien": 2255,
      "Ġgame": 2256,
      "nam": 2257,
      "Ġur": 2258,
      "edi": 2259,
      "Ġleaves": 2260,
      "aily": 2261,
      "Ġbreak": 2262,
      "ura": 2263,
      "Ġgetting": 2264,
      "ging": 2265,
      "Ġtell": 2266,
      "ites": 2267,
      "Ġorganic": 2268,
      "Ġdraw": 2269,
      ").Ċ": 2270,
      "Ġask": 2271,
      "ĠOne": 2272,
      "hing": 2273,
      "utions": 2274,
      "Ġseason": 2275,
      "Ġnormal": 2276,
      "app": 2277,
      "Ġegg": 2278,
      "Ġbreed": 2279,
      "inary": 2280,
      "room": 2281,
      "ditional": 2282,
      "Ġposition": 2283,
      "cks": 2284,
      "Ġenh": 2285,
      "Ġinside": 2286,
      "Ġbalance": 2287,
      "gs": 2288,
      "Ġcases": 2289,
      "ival": 2290,
      "Ġtools": 2291,
      "Ġmention": 2292,
      "Ġarticle": 2293,
      "Ġmanufact": 2294,
      "Ġill": 2295,
      "Ġtot": 2296,
      "Ġlove": 2297,
      "sect": 2298,
      "Ġseen": 2299,
      "idered": 2300,
      "Ġinteract": 2301,
      "imum": 2302,
      "istic": 2303,
      "aken": 2304,
      "Ġknowledge": 2305,
      "Ġtypically": 2306,
      "Ġbelow": 2307,
      "Ġindustry": 2308,
      "illed": 2309,
      "Ġfeatures": 2310,
      "Ġaverage": 2311,
      "Ġlaw": 2312,
      "Ġenvironmental": 2313,
      "ply": 2314,
      "Ġsle": 2315,
      "Ġball": 2316,
      "uff": 2317,
      "Ġadult": 2318,
      "Ġdepend": 2319,
      "Al": 2320,
      "Ġperformance": 2321,
      "itch": 2322,
      "oura": 2323,
      "Ġeconom": 2324,
      "Ġresist": 2325,
      "rown": 2326,
      "ney": 2327,
      "urs": 2328,
      "Ġalready": 2329,
      "Ġexist": 2330,
      "Ġbuilding": 2331,
      "Ġappear": 2332,
      "ĠX": 2333,
      "Ġcrop": 2334,
      "Ġpopulation": 2335,
      "Ġbrain": 2336,
      "So": 2337,
      "Ġperfect": 2338,
      "Ġprep": 2339,
      "ricult": 2340,
      "Ġcrit": 2341,
      "Ġpest": 2342,
      "Ġmicro": 2343,
      "Ġinflu": 2344,
      "Ġhistory": 2345,
      "Ġfoot": 2346,
      "fully": 2347,
      "Ġservice": 2348,
      "Ġbacter": 2349,
      "Ġhours": 2350,
      "Ġaddress": 2351,
      "Ġlonger": 2352,
      "iques": 2353,
      "Ġmedical": 2354,
      "oon": 2355,
      "oll": 2356,
      "verse": 2357,
      "aving": 2358,
      "Ġforce": 2359,
      "amp": 2360,
      "osing": 2361,
      "Ġsqu": 2362,
      "Ġassociated": 2363,
      "Ġut": 2364,
      "Ġconsidered": 2365,
      "Ġallows": 2366,
      "cies": 2367,
      "Ġconcer": 2368,
      "Ġroom": 2369,
      "60": 2370,
      "amin": 2371,
      "aches": 2372,
      "Ġmethods": 2373,
      "Ġapproach": 2374,
      "Ġharm": 2375,
      "Ġjour": 2376,
      "Ġentire": 2377,
      "Ġeff": 2378,
      "lying": 2379,
      "Ġbeaut": 2380,
      "Th": 2381,
      "aged": 2382,
      "Ġremov": 2383,
      "pose": 2384,
      "Ġing": 2385,
      "Ġcover": 2386,
      "Ġopportun": 2387,
      "Ġresearchers": 2388,
      "Ġfund": 2389,
      "Ġchalleng": 2390,
      "book": 2391,
      "Ġslow": 2392,
      "Ġmanagement": 2393,
      "Ġwood": 2394,
      "itud": 2395,
      "Ġmix": 2396,
      "ument": 2397,
      "Ġsam": 2398,
      "ann": 2399,
      "ctor": 2400,
      "Ġcompany": 2401,
      "Ġdevice": 2402,
      "Ġlangu": 2403,
      "aced": 2404,
      "Ġrelations": 2405,
      "Ġnutri": 2406,
      "Ġsitu": 2407,
      "Ġcrucial": 2408,
      "pro": 2409,
      "Ġcold": 2410,
      "Ġeyes": 2411,
      "Ġcreating": 2412,
      "Ġoverall": 2413,
      "Ġcorrect": 2414,
      "Ġparticip": 2415,
      "Ġhyd": 2416,
      "min": 2417,
      "uit": 2418,
      "ule": 2419,
      "Ġsolution": 2420,
      "rogen": 2421,
      "Ġanswer": 2422,
      "SA": 2423,
      "Ġisn": 2424,
      "ĠQu": 2425,
      "erve": 2426,
      "ison": 2427,
      ".\"Ċ": 2428,
      "ĠNe": 2429,
      "Ġspeed": 2430,
      "Ġbring": 2431,
      "Ġthought": 2432,
      "ĠAll": 2433,
      "ipment": 2434,
      "reng": 2435,
      ".\"ĊĊ": 2436,
      "ĠAmerican": 2437,
      "Ġtaking": 2438,
      "iation": 2439,
      "tic": 2440,
      "Ġappl": 2441,
      "Ġlayer": 2442,
      "Ġsafety": 2443,
      "Ġincreased": 2444,
      "Ġpoll": 2445,
      "Ġbar": 2446,
      "osis": 2447,
      "ray": 2448,
      "Ġquickly": 2449,
      "reme": 2450,
      "ĠLe": 2451,
      "Ġgeneral": 2452,
      "Ġoptions": 2453,
      "Ġrecogn": 2454,
      "eter": 2455,
      "Ġgrowing": 2456,
      "Ġidea": 2457,
      "uck": 2458,
      "Ġmeet": 2459,
      "onst": 2460,
      "Ġdeep": 2461,
      "Ġremain": 2462,
      "Ġpack": 2463,
      "Ġla": 2464,
      "Ġeducation": 2465,
      ".S": 2466,
      "erous": 2467,
      "Ġforest": 2468,
      "Ġsound": 2469,
      "ises": 2470,
      "ley": 2471,
      "Ġextra": 2472,
      "80": 2473,
      "Ġsea": 2474,
      "Ġelements": 2475,
      "hol": 2476,
      "rated": 2477,
      "Ġgot": 2478,
      "Ġwall": 2479,
      "ĠFl": 2480,
      "Ġminutes": 2481,
      "Ġconduct": 2482,
      "Ġthroughout": 2483,
      "Ġeasily": 2484,
      "val": 2485,
      "Ġcomfort": 2486,
      "Ġexc": 2487,
      "âĢĵ": 2488,
      "Ġwar": 2489,
      "earch": 2490,
      "Ġrelated": 2491,
      "Ġetc": 2492,
      "Ġuser": 2493,
      "Ġintrodu": 2494,
      "ened": 2495,
      "Ġbad": 2496,
      "Ġprec": 2497,
      "urope": 2498,
      "Ġfram": 2499,
      "Ġprop": 2500,
      "Ġuses": 2501,
      "Ġsubject": 2502,
      "Ġsense": 2503,
      "Ġsomeone": 2504,
      "Ġcollect": 2505,
      "Ġquestions": 2506,
      "Ġlater": 2507,
      "Ġwhole": 2508,
      "Ġglass": 2509,
      "Ġwebs": 2510,
      "Ġsepar": 2511,
      "Ġmonit": 2512,
      "Ġinstall": 2513,
      "Ġstructure": 2514,
      "mb": 2515,
      "apan": 2516,
      "Ġsugar": 2517,
      "ĠWhile": 2518,
      "Ġtechniques": 2519,
      "Ġresources": 2520,
      "Ġcook": 2521,
      "ĠComm": 2522,
      "Ġrather": 2523,
      "Ġchoose": 2524,
      "Ġbirds": 2525,
      "Ġport": 2526,
      "Ġhot": 2527,
      "ervation": 2528,
      "Ġbox": 2529,
      "Ġsat": 2530,
      "Ġheav": 2531,
      "Ġprofessional": 2532,
      "rict": 2533,
      "oration": 2534,
      "cean": 2535,
      "Ġyourself": 2536,
      "ĠDo": 2537,
      "play": 2538,
      "Ġmodern": 2539,
      "Ġstreng": 2540,
      "Ġmultiple": 2541,
      "Ġrepresent": 2542,
      "Ġcompan": 2543,
      "Ġcaused": 2544,
      "Ġweeks": 2545,
      "Pro": 2546,
      "nov": 2547,
      "Ġann": 2548,
      "Ġautom": 2549,
      "----": 2550,
      "upp": 2551,
      "Ġlo": 2552,
      "Ġactive": 2553,
      "Ġhor": 2554,
      "âĢĿ": 2555,
      "rans": 2556,
      "Ġmat": 2557,
      "acks": 2558,
      "Ġmetal": 2559,
      "Ġdevices": 2560,
      "Ġinteg": 2561,
      "Ġrelationship": 2562,
      "Ġgover": 2563,
      "ES": 2564,
      "ĠWor": 2565,
      "ĠDr": 2566,
      "Ġissue": 2567,
      "Ġtrees": 2568,
      "Ġtravel": 2569,
      "ropri": 2570,
      "iency": 2571,
      "dd": 2572,
      "iot": 2573,
      "era": 2574,
      "Ġstat": 2575,
      "Ġcompet": 2576,
      "Ġoutside": 2577,
      "Ġelectr": 2578,
      "Ġprimary": 2579,
      "ellow": 2580,
      "Ġemploy": 2581,
      "ners": 2582,
      "ancy": 2583,
      "rad": 2584,
      "Ġcannot": 2585,
      "Ġspread": 2586,
      "Ġconsist": 2587,
      "Ġsoftware": 2588,
      "urity": 2589,
      "Ġtar": 2590,
      "ĠShe": 2591,
      "-based": 2592,
      "Ġtakes": 2593,
      "Ġfresh": 2594,
      "Ġincreasing": 2595,
      "nces": 2596,
      "Ġface": 2597,
      "Ġcreated": 2598,
      "Ġcauses": 2599,
      "ĠHere": 2600,
      "Ġjob": 2601,
      "Ġglobal": 2602,
      "AR": 2603,
      "Ġwinter": 2604,
      "Ġdaily": 2605,
      "Ġdeveloped": 2606,
      "Ġeverything": 2607,
      "yl": 2608,
      "Ġtree": 2609,
      "oud": 2610,
      "ift": 2611,
      "Ġexerc": 2612,
      "ED": 2613,
      "icial": 2614,
      "Ġstay": 2615,
      "ĠEarth": 2616,
      "Ġbase": 2617,
      "oph": 2618,
      "ouch": 2619,
      "Ġcountry": 2620,
      "Ġvideo": 2621,
      "OT": 2622,
      "Ġmen": 2623,
      "Ġquant": 2624,
      "Ġhowever": 2625,
      "ĠUnited": 2626,
      "ched": 2627,
      "23": 2628,
      "elling": 2629,
      "Ġpatients": 2630,
      "ged": 2631,
      "Ġfem": 2632,
      "ĠCons": 2633,
      "ĠCont": 2634,
      "ĠEurope": 2635,
      "Ġfeet": 2636,
      "ON": 2637,
      "ils": 2638,
      "ulations": 2639,
      "ĠMed": 2640,
      "Ġrelative": 2641,
      "istics": 2642,
      "Ġcompared": 2643,
      "Ġhumans": 2644,
      "Ġhabit": 2645,
      "Ġang": 2646,
      "Ġadjust": 2647,
      "ties": 2648,
      "Ġpict": 2649,
      "augh": 2650,
      "Ġlength": 2651,
      "Ġremove": 2652,
      "Ġequipment": 2653,
      "Ġbattery": 2654,
      "ze": 2655,
      "Ġice": 2656,
      "lease": 2657,
      "ians": 2658,
      "Ġalmost": 2659,
      "Ġvac": 2660,
      "Ġthemselves": 2661,
      "Ġtraditional": 2662,
      "Ġsimply": 2663,
      "Ġfamil": 2664,
      "inct": 2665,
      "Ġsil": 2666,
      "Ġoffers": 2667,
      "Ġswe": 2668,
      "izes": 2669,
      "ĠNational": 2670,
      "bo": 2671,
      "Ġcop": 2672,
      "Ġweather": 2673,
      "Ġwa": 2674,
      "Ġstudies": 2675,
      "Ġprobably": 2676,
      "Ġlarger": 2677,
      "Ġshown": 2678,
      "rip": 2679,
      "Ġinj": 2680,
      "Ġload": 2681,
      "igure": 2682,
      "ĠCar": 2683,
      "Ġdetermine": 2684,
      "Ġscientists": 2685,
      "Ġtotal": 2686,
      "TI": 2687,
      "Ġacid": 2688,
      "Ġattention": 2689,
      "rition": 2690,
      "Ġaltern": 2691,
      "Ġbehavior": 2692,
      "-in": 2693,
      "aim": 2694,
      "Ġoption": 2695,
      "Ġfire": 2696,
      "Ġaccount": 2697,
      ").ĊĊ": 2698,
      "Ġconcept": 2699,
      "Ġinstead": 2700,
      "Ġmilk": 2701,
      "Ġextreme": 2702,
      "ecause": 2703,
      "Ġfast": 2704,
      "Ġsleep": 2705,
      "rior": 2706,
      "ertil": 2707,
      "ditionally": 2708,
      "Ġanalysis": 2709,
      "Ġfuel": 2710,
      "ino": 2711,
      "Ġyet": 2712,
      "Ġplastic": 2713,
      "ronic": 2714,
      "Ġbehind": 2715,
      "Ġtiss": 2716,
      "Ġshape": 2717,
      "Ġprevious": 2718,
      "imately": 2719,
      "Ġidentify": 2720,
      "Ġpan": 2721,
      "Ġservices": 2722,
      "Ġcontinu": 2723,
      "Ġdigital": 2724,
      "aff": 2725,
      "Ġproviding": 2726,
      "Ġexplain": 2727,
      "Ġbrand": 2728,
      "Ġbaby": 2729,
      "Ġmax": 2730,
      "Ġanything": 2731,
      "ĠJapan": 2732,
      "Ġincludes": 2733,
      "Ġmentioned": 2734,
      "Ġhalf": 2735,
      "Ġir": 2736,
      "oles": 2737,
      "Ġsurv": 2738,
      "Ġaud": 2739,
      "Ġfive": 2740,
      "Ġquite": 2741,
      "Ġsomet": 2742,
      "Ġsite": 2743,
      "Ġfib": 2744,
      "tenance": 2745,
      "nment": 2746,
      "Ġregion": 2747,
      "Ġdiseases": 2748,
      "Ġtable": 2749,
      "Ġmo": 2750,
      "Ġinsect": 2751,
      "Ġprotein": 2752,
      "Why": 2753,
      "gest": 2754,
      "Ġoutput": 2755,
      "Ġarr": 2756,
      "Ġestab": 2757,
      "Ġbur": 2758,
      "Ġteeth": 2759,
      "rapy": 2760,
      "where": 2761,
      "ĠCal": 2762,
      "Ġwaste": 2763,
      "umb": 2764,
      "Ġblue": 2765,
      "Ġregard": 2766,
      "rig": 2767,
      "ociety": 2768,
      "-w": 2769,
      "Ġmole": 2770,
      "Ġitself": 2771,
      "Ġnumbers": 2772,
      "____": 2773,
      "ĠAI": 2774,
      "Ġexact": 2775,
      "ension": 2776,
      "Ġfoods": 2777,
      "Ġtaken": 2778,
      "hern": 2779,
      "Ġassess": 2780,
      "Ġgenerally": 2781,
      "Ġmom": 2782,
      "Ġconcent": 2783,
      "Ġshare": 2784,
      "ĠUs": 2785,
      "Ġago": 2786,
      "Ġshows": 2787,
      "Ġstandard": 2788,
      "Ġapplications": 2789,
      "isc": 2790,
      "Ġfail": 2791,
      "asons": 2792,
      "Ġpractice": 2793,
      "Ġlands": 2794,
      "Ġleading": 2795,
      "Ġadvant": 2796,
      "Ġingred": 2797,
      "Ġwond": 2798,
      "Ġlog": 2799,
      "Ġinfect": 2800,
      "cohol": 2801,
      "Ġbott": 2802,
      "Ġvit": 2803,
      "ĠStates": 2804,
      "ext": 2805,
      "mon": 2806,
      "onse": 2807,
      "Ġnight": 2808,
      "Ġmedic": 2809,
      "Ġmembers": 2810,
      "Ġseem": 2811,
      "Ġmess": 2812,
      "ades": 2813,
      "Ġrob": 2814,
      "70": 2815,
      "Ġachieve": 2816,
      "ĠAfter": 2817,
      "iring": 2818,
      "ground": 2819,
      "Ġdetect": 2820,
      "Ġlanguage": 2821,
      "ipe": 2822,
      "Ġappropri": 2823,
      "Ġhighly": 2824,
      "Ġdefin": 2825,
      "Ġsummer": 2826,
      "cription": 2827,
      "90": 2828,
      "icy": 2829,
      "abet": 2830,
      "Ġimplement": 2831,
      "Ġparticularly": 2832,
      "Sh": 2833,
      "Ġpurch": 2834,
      "Ġsometimes": 2835,
      "**": 2836,
      "go": 2837,
      "alking": 2838,
      "ccording": 2839,
      "Ġsmaller": 2840,
      "aries": 2841,
      "Ġ+": 2842,
      "Ġliqu": 2843,
      "ĠCo": 2844,
      "ĠHealth": 2845,
      "Ġaction": 2846,
      "Ġdecre": 2847,
      "issions": 2848,
      "Ġstatement": 2849,
      "Ġadditional": 2850,
      "Ġaware": 2851,
      "Ġcontinue": 2852,
      "Ġnegative": 2853,
      "Ġtarget": 2854,
      "isms": 2855,
      "Ġbelieve": 2856,
      "Ġwords": 2857,
      "Ġparents": 2858,
      "Ex": 2859,
      "Ġgain": 2860,
      "Ġterms": 2861,
      "hib": 2862,
      "Ġcapt": 2863,
      "ences": 2864,
      "Ġstudent": 2865,
      "oh": 2866,
      "hel": 2867,
      "ada": 2868,
      "Ġevents": 2869,
      "Ġcountries": 2870,
      "Ġsustainable": 2871,
      "Ġlives": 2872,
      "Ġpurpose": 2873,
      "cape": 2874,
      "Ġcou": 2875,
      "Ġwon": 2876,
      "ĠâĢľ": 2877,
      "Ġefficient": 2878,
      "One": 2879,
      "rec": 2880,
      "icles": 2881,
      "ĠApp": 2882,
      "Ġprovided": 2883,
      "-h": 2884,
      "ĠAf": 2885,
      "ls": 2886,
      "orpor": 2887,
      "Ġiron": 2888,
      "Ġdom": 2889,
      "ĠAust": 2890,
      "Ġchoice": 2891,
      "'d": 2892,
      "ĠCom": 2893,
      "Ġvisit": 2894,
      "Ġtrying": 2895,
      "Ġcomponents": 2896,
      "Ġsuit": 2897,
      "Ġreading": 2898,
      "sh": 2899,
      "Ġhar": 2900,
      "Ġseed": 2901,
      "Ġce": 2902,
      "Ġprograms": 2903,
      "cular": 2904,
      "ene": 2905,
      "Ġreach": 2906,
      "Ġexplore": 2907,
      "Ġencoura": 2908,
      "sy": 2909,
      "arily": 2910,
      "ctions": 2911,
      "Ġadapt": 2912,
      "Ġsent": 2913,
      "Ġnit": 2914,
      "Ġobserv": 2915,
      "pid": 2916,
      "atives": 2917,
      "Ġcode": 2918,
      "Ġdy": 2919,
      "ĠAm": 2920,
      "Ġmodels": 2921,
      "fl": 2922,
      "vere": 2923,
      "Ġrecommend": 2924,
      "Ġdest": 2925,
      "Ġfront": 2926,
      "Ġvehicle": 2927,
      "ules": 2928,
      "ĠGu": 2929,
      "Ġadded": 2930,
      "Ġtrue": 2931,
      "Ġlink": 2932,
      "Ġpatient": 2933,
      "Ġdidn": 2934,
      "ping": 2935,
      "ĠGo": 2936,
      "EN": 2937,
      "Ġteac": 2938,
      "Ġscreen": 2939,
      "itude": 2940,
      "cles": 2941,
      "terns": 2942,
      "Ġrecommended": 2943,
      "na": 2944,
      "ĠFe": 2945,
      "ĠNorth": 2946,
      "Ġones": 2947,
      "alu": 2948,
      "Ġdistrib": 2949,
      "Ġflowers": 2950,
      "Ġconstant": 2951,
      "Ġsmooth": 2952,
      "ulate": 2953,
      "Ġkids": 2954,
      "Ġcolors": 2955,
      "Ġstory": 2956,
      "Ġrout": 2957,
      "Ġrice": 2958,
      "Ġrot": 2959,
      "Ġproduced": 2960,
      "Ġrequires": 2961,
      "Ġstarted": 2962,
      "Ġvalues": 2963,
      "cient": 2964,
      "Ġdark": 2965,
      "anks": 2966,
      "ĠMore": 2967,
      "-st": 2968,
      "esp": 2969,
      "ĠMe": 2970,
      "ĠMan": 2971,
      "Ġrecent": 2972,
      "Ġprocesses": 2973,
      "Ġsources": 2974,
      "like": 2975,
      "Ġge": 2976,
      "Ġmusic": 2977,
      "water": 2978,
      "Ġreview": 2979,
      "Ġcarry": 2980,
      "Ġapplication": 2981,
      "ygen": 2982,
      "Ġtin": 2983,
      "Ġdru": 2984,
      "Ġeveryone": 2985,
      "Ġsolar": 2986,
      "Ġbacteria": 2987,
      "Ġfix": 2988,
      "ung": 2989,
      "ĠAfric": 2990,
      "imin": 2991,
      "irm": 2992,
      "sequ": 2993,
      "wh": 2994,
      "ĠTra": 2995,
      "artment": 2996,
      "ĠOf": 2997,
      "oe": 2998,
      "rist": 2999,
      "vest": 3000,
      "Ġdiagn": 3001,
      "Ġinfection": 3002,
      "Ġresponse": 3003,
      "Ġreturn": 3004,
      "Ġserious": 3005,
      "Ġmachine": 3006,
      "uted": 3007,
      "rees": 3008,
      "ĠDNA": 3009,
      "ĠGen": 3010,
      "Ġeggs": 3011,
      "35": 3012,
      "But": 3013,
      "load": 3014,
      "nal": 3015,
      "Ġsignal": 3016,
      "Ġimpl": 3017,
      "Ġspring": 3018,
      "Ġprice": 3019,
      "Ġtowards": 3020,
      "Ġbasic": 3021,
      "unch": 3022,
      "ĠYes": 3023,
      "Ġpoints": 3024,
      "Ġproperly": 3025,
      "rehe": 3026,
      "osure": 3027,
      "ĠAb": 3028,
      "Ġearth": 3029,
      "Ġrunning": 3030,
      "come": 3031,
      "Ġful": 3032,
      "Ġdang": 3033,
      "ĠSouth": 3034,
      "Ġcontains": 3035,
      "zz": 3036,
      "Â°": 3037,
      "ively": 3038,
      "ensity": 3039,
      "ror": 3040,
      "Ġthreat": 3041,
      "aker": 3042,
      "Ġgenetic": 3043,
      "rs": 3044,
      "itute": 3045,
      "Ġdoc": 3046,
      "iddle": 3047,
      "Ġbank": 3048,
      "Ġdou": 3049,
      "irth": 3050,
      "Ġpatterns": 3051,
      "Ġwebsite": 3052,
      "fish": 3053,
      "Ġfile": 3054,
      "term": 3055,
      "Ġrespect": 3056,
      "Ġarch": 3057,
      "Ġgoes": 3058,
      "ĠKe": 3059,
      "Ġcompletely": 3060,
      "cre": 3061,
      "illing": 3062,
      "ops": 3063,
      "Ġcats": 3064,
      "Ġbenefit": 3065,
      "Ġbelie": 3066,
      "Ġcard": 3067,
      "orage": 3068,
      "Ġitems": 3069,
      "Ġaspect": 3070,
      "Ġevidence": 3071,
      "Ġelse": 3072,
      "Ġmeaning": 3073,
      "Can": 3074,
      "Ġphase": 3075,
      "ĠAss": 3076,
      "Ġgroups": 3077,
      "ID": 3078,
      "Ġaim": 3079,
      "att": 3080,
      "Ġfertil": 3081,
      "Ġdeal": 3082,
      "ĠIntern": 3083,
      "Ġbag": 3084,
      "raft": 3085,
      "Ġsteps": 3086,
      "abetes": 3087,
      "oming": 3088,
      "Ġbuilt": 3089,
      "ĠCO": 3090,
      "ĠNot": 3091,
      "epend": 3092,
      "Ġguide": 3093,
      "Ġtemperatures": 3094,
      "Ġmovement": 3095,
      "Cl": 3096,
      "Ġprior": 3097,
      "Ġmor": 3098,
      "elt": 3099,
      "Ġseems": 3100,
      "Ġnoise": 3101,
      "Ġmotor": 3102,
      "Ġreplace": 3103,
      "eration": 3104,
      "Ġeating": 3105,
      "Ġlines": 3106,
      "Ġproperties": 3107,
      "Ġhost": 3108,
      "emic": 3109,
      "Ġleave": 3110,
      "Ġpret": 3111,
      "Ġstrength": 3112,
      "Ġmoist": 3113,
      "acy": 3114,
      "clusion": 3115,
      "ights": 3116,
      "Ġoriginal": 3117,
      "ony": 3118,
      "Ġpull": 3119,
      "ĠFr": 3120,
      "Ġagricult": 3121,
      "Ġinitial": 3122,
      "Ġfruit": 3123,
      "Ġprinc": 3124,
      "Ġcalcul": 3125,
      "Ġinnov": 3126,
      "Ġkit": 3127,
      "Ġnews": 3128,
      "Ġguid": 3129,
      "Ġpredict": 3130,
      "Ġgreater": 3131,
      "Ġnetwork": 3132,
      "Ġsand": 3133,
      "Ġappropriate": 3134,
      "iate": 3135,
      "Ġsus": 3136,
      "ĠPre": 3137,
      "back": 3138,
      "enn": 3139,
      "irt": 3140,
      "ĠPer": 3141,
      "Ġcontroll": 3142,
      "Ġvision": 3143,
      "\",": 3144,
      "iles": 3145,
      "ĠMay": 3146,
      "Ġsuff": 3147,
      "Ġgrass": 3148,
      "new": 3149,
      "Ġreflect": 3150,
      "ulated": 3151,
      "Ġgets": 3152,
      "Ġvisual": 3153,
      "fficient": 3154,
      "AC": 3155,
      "Ġlocation": 3156,
      "-e": 3157,
      "Ġstyle": 3158,
      "ĠFrom": 3159,
      "Ġtesting": 3160,
      "Ġdemonst": 3161,
      "Is": 3162,
      "ai": 3163,
      "rial": 3164,
      "ĠResearch": 3165,
      "Ġvegetables": 3166,
      "atur": 3167,
      "Ġclaim": 3168,
      "Ġdirectly": 3169,
      "Ġdeath": 3170,
      "ĠDi": 3171,
      "Ġthick": 3172,
      "pper": 3173,
      "Ġchick": 3174,
      "Ġtransport": 3175,
      "Ġpromot": 3176,
      "OR": 3177,
      "overy": 3178,
      "Ġsigns": 3179,
      "Ġgold": 3180,
      "Ġalcohol": 3181,
      "Ġcamera": 3182,
      "Ġorigin": 3183,
      "Ġliquid": 3184,
      "01": 3185,
      "AN": 3186,
      "idge": 3187,
      "Ġimportance": 3188,
      "Ġsupply": 3189,
      "Ġinvolved": 3190,
      "vant": 3191,
      "yond": 3192,
      "head": 3193,
      "itis": 3194,
      "ĠPe": 3195,
      "Ġemerg": 3196,
      "Ġmedia": 3197,
      "Ġcommonly": 3198,
      "ĠAustral": 3199,
      "ĠAre": 3200,
      "ached": 3201,
      "ĠMost": 3202,
      "order": 3203,
      "ounter": 3204,
      "26": 3205,
      "uge": 3206,
      "Ġfavor": 3207,
      "lege": 3208,
      "iful": 3209,
      "Ġpoor": 3210,
      "Ġpiece": 3211,
      "Ġtouch": 3212,
      "Ġsix": 3213,
      "ender": 3214,
      "Ġfine": 3215,
      "ĠInt": 3216,
      "ĠMany": 3217,
      "Ġdisplay": 3218,
      "Ġroot": 3219,
      "Ġpriv": 3220,
      "Ġmuscle": 3221,
      "Ġexcell": 3222,
      "Ġcompanies": 3223,
      "-to": 3224,
      "With": 3225,
      "Ġforms": 3226,
      "odes": 3227,
      "Ġsurround": 3228,
      "Ġcenter": 3229,
      "Ġslight": 3230,
      "Ġrequirements": 3231,
      "cking": 3232,
      "ma": 3233,
      "reg": 3234,
      "Ġassist": 3235,
      "Ġrefer": 3236,
      "Ġdepending": 3237,
      "Ġimmedi": 3238,
      "Ġgovernment": 3239,
      "Ġwalk": 3240,
      "Ġalg": 3241,
      "Ġhair": 3242,
      "Ġwear": 3243,
      "Ġuseful": 3244,
      "ĠStud": 3245,
      "Ġnutrition": 3246,
      "Ġ,": 3247,
      "Ġaff": 3248,
      "ĠMy": 3249,
      "Ġrain": 3250,
      "Ġobjects": 3251,
      "Ġlimited": 3252,
      "09": 3253,
      "mber": 3254,
      "Ġast": 3255,
      "Ġmaintenance": 3256,
      "Ġensuring": 3257,
      "ĠDep": 3258,
      "arian": 3259,
      "-g": 3260,
      "Ġtalk": 3261,
      "Ġgives": 3262,
      "olar": 3263,
      "Ġblock": 3264,
      "ĠAmerica": 3265,
      "Ġelectrical": 3266,
      "tings": 3267,
      "Ġther": 3268,
      "Ġcosts": 3269,
      "Ġfarming": 3270,
      "Ġfriends": 3271,
      "Ġoxygen": 3272,
      "more": 3273,
      "vey": 3274,
      "Ġstage": 3275,
      "Ġreducing": 3276,
      "Ġhands": 3277,
      "Ġideas": 3278,
      "Ġvirus": 3279,
      "AS": 3280,
      "ding": 3281,
      "Ġ/": 3282,
      "Ġstore": 3283,
      "Ġexcess": 3284,
      "Ġdirection": 3285,
      "Ġscientific": 3286,
      "life": 3287,
      "Ġtips": 3288,
      "Ġaccur": 3289,
      "Con": 3290,
      "ĠTheir": 3291,
      "Ġusers": 3292,
      "Ġcommunication": 3293,
      "Ġinteresting": 3294,
      "ĠCenter": 3295,
      "ux": 3296,
      "key": 3297,
      "Ġvary": 3298,
      "ĠPr": 3299,
      "Ġdrive": 3300,
      "Ġconsumption": 3301,
      "Ġmoving": 3302,
      "While": 3303,
      "rast": 3304,
      "osition": 3305,
      "Ġgoal": 3306,
      "Ġsave": 3307,
      "Ph": 3308,
      "Ġbreat": 3309,
      "Ġimages": 3310,
      "Ġroad": 3311,
      "Ġeasier": 3312,
      "Ġpractices": 3313,
      "He": 3314,
      "ĠSchool": 3315,
      "ĠNow": 3316,
      "Ġocean": 3317,
      "rol": 3318,
      "Ġunit": 3319,
      "Ġevalu": 3320,
      "Ġhappens": 3321,
      "AD": 3322,
      "hest": 3323,
      "ĠUse": 3324,
      "Ġrock": 3325,
      "Ġtransform": 3326,
      "Ġcapac": 3327,
      "inking": 3328,
      "onal": 3329,
      "itation": 3330,
      "Ġfa": 3331,
      "ucle": 3332,
      "Ġphotograph": 3333,
      "Ġanaly": 3334,
      "Ġcry": 3335,
      "45": 3336,
      "wor": 3337,
      "ocks": 3338,
      "Ġallowing": 3339,
      "icate": 3340,
      "ologies": 3341,
      "Ġelement": 3342,
      "ĠWorld": 3343,
      "Ġreasons": 3344,
      "Ġfactor": 3345,
      "Ġchallenges": 3346,
      "ok": 3347,
      "ype": 3348,
      "Ġcity": 3349,
      "Ġevolution": 3350,
      "ĠWhy": 3351,
      "Ad": 3352,
      "zy": 3353,
      "Ġbed": 3354,
      "Ġrat": 3355,
      "Ġseeds": 3356,
      "ressed": 3357,
      "...ĊĊ": 3358,
      "Ġdeveloping": 3359,
      "Ġsetting": 3360,
      "Ġboard": 3361,
      "rum": 3362,
      "ĠSm": 3363,
      "Ġenhance": 3364,
      "sych": 3365,
      "Ġver": 3366,
      "eding": 3367,
      "roll": 3368,
      "Ġlens": 3369,
      "Ġproced": 3370,
      "Ġinvolves": 3371,
      "Ġnutrients": 3372,
      "set": 3373,
      "Ġmental": 3374,
      "ĠReg": 3375,
      "Ġheavy": 3376,
      "\".": 3377,
      "Ġbul": 3378,
      "Ġsevere": 3379,
      "Ġexercise": 3380,
      "Ġbottom": 3381,
      "Im": 3382,
      "Ġstates": 3383,
      "Ġcomprehe": 3384,
      "ĠScience": 3385,
      "-term": 3386,
      "aks": 3387,
      "mat": 3388,
      "yp": 3389,
      "Ġideal": 3390,
      "Ġsignificantly": 3391,
      "Ġcircuit": 3392,
      "Ġbroad": 3393,
      "Ġapplied": 3394,
      "mosp": 3395,
      "onic": 3396,
      "istry": 3397,
      "Ġsolutions": 3398,
      "Ġdistance": 3399,
      "Ġx": 3400,
      "ĠMar": 3401,
      "Ġoutd": 3402,
      "Ġpregn": 3403,
      "Ġemot": 3404,
      "Ġutil": 3405,
      "Ġlate": 3406,
      "osystem": 3407,
      "ĠGe": 3408,
      "Ġupon": 3409,
      "ube": 3410,
      "Ġreceive": 3411,
      "ĠThen": 3412,
      "On": 3413,
      "inks": 3414,
      "Ġfra": 3415,
      "Ġbath": 3416,
      "Ġpow": 3417,
      "Ġsearch": 3418,
      "airs": 3419,
      "Ġpublished": 3420,
      "Ġpretty": 3421,
      "bit": 3422,
      "icks": 3423,
      "Ġarg": 3424,
      "othing": 3425,
      "ĠWho": 3426,
      "Ġingredients": 3427,
      "li": 3428,
      "Ġbecomes": 3429,
      "And": 3430,
      "By": 3431,
      "ky": 3432,
      "Ġtheory": 3433,
      "ĠAut": 3434,
      "Ġcoast": 3435,
      "minist": 3436,
      "Ġpick": 3437,
      "Ġbill": 3438,
      "ĠGl": 3439,
      "Ġaccept": 3440,
      "Ġtissue": 3441,
      "Ġhun": 3442,
      "oli": 3443,
      "ĠOur": 3444,
      "Ġinstruct": 3445,
      "Ġexamples": 3446,
      "ĠLet": 3447,
      "Ġinterf": 3448,
      "Ġgradu": 3449,
      "Ġswim": 3450,
      "Ġresistance": 3451,
      "iable": 3452,
      "oma": 3453,
      "pping": 3454,
      "ellig": 3455,
      "Ġbutter": 3456,
      "Ġready": 3457,
      "Ġstrategies": 3458,
      "Ġcritical": 3459,
      "Ġwatch": 3460,
      "Ġplat": 3461,
      "ĠAdditionally": 3462,
      "27": 3463,
      "iding": 3464,
      "Ġstorage": 3465,
      "Ġsequ": 3466,
      "Ġnothing": 3467,
      "Ġstarting": 3468,
      "Ġresponsible": 3469,
      "Ġtank": 3470,
      "Ġcame": 3471,
      "Ġhope": 3472,
      "Ġrub": 3473,
      "Ġprotection": 3474,
      "hold": 3475,
      "Ġsection": 3476,
      "Ġvalu": 3477,
      "Ġinvestig": 3478,
      "At": 3479,
      "IS": 3480,
      "Ġprefer": 3481,
      "Ġprocessing": 3482,
      "Ġcausing": 3483,
      "Ġcross": 3484,
      "Ġattract": 3485,
      "Ġhearing": 3486,
      "Ġplanet": 3487,
      "Ġhappen": 3488,
      "Ġexcellent": 3489,
      "Ġyellow": 3490,
      "Ġconstruction": 3491,
      "Ġpad": 3492,
      "Ġlack": 3493,
      "ĠComp": 3494,
      "duc": 3495,
      "Ġincorpor": 3496,
      "ashion": 3497,
      "Ġseries": 3498,
      "Ġoccurs": 3499,
      "Ġefficiency": 3500,
      "hood": 3501,
      "aly": 3502,
      "ĠAc": 3503,
      "Ġrich": 3504,
      "Ġmeat": 3505,
      "Ġrare": 3506,
      "Ġtransfer": 3507,
      "ero": 3508,
      "Ġled": 3509,
      "Ġadop": 3510,
      "Ġsoon": 3511,
      "Ġvolt": 3512,
      "Ġabsor": 3513,
      "08": 3514,
      "Pl": 3515,
      "ula": 3516,
      "Ġ--": 3517,
      "Ġmeasures": 3518,
      "con": 3519,
      "hetic": 3520,
      "apes": 3521,
      "Ġmiss": 3522,
      "Ġlat": 3523,
      "Ġadding": 3524,
      "Ġobtain": 3525,
      "Ġaffected": 3526,
      "AT": 3527,
      "Ġmount": 3528,
      "Ġrev": 3529,
      "amb": 3530,
      "ĠDes": 3531,
      "Ġimag": 3532,
      "ĠRem": 3533,
      "These": 3534,
      "Ġresid": 3535,
      "ĠAlso": 3536,
      "Ġprojects": 3537,
      "07": 3538,
      "que": 3539,
      "Ġtook": 3540,
      "Ġestim": 3541,
      "Ġsteel": 3542,
      "Ġwrong": 3543,
      "abor": 3544,
      "Ġatmosp": 3545,
      "ressive": 3546,
      "Ġemissions": 3547,
      "Ġtrend": 3548,
      "Ġwriting": 3549,
      "Ġbeautiful": 3550,
      "asks": 3551,
      "Ġdegrees": 3552,
      "Ġmanufacture": 3553,
      "Ġmoment": 3554,
      "Ġign": 3555,
      "Ġaren": 3556,
      "raw": 3557,
      "rought": 3558,
      "ball": 3559,
      "Ġtaste": 3560,
      "Ġflex": 3561,
      "amed": 3562,
      "Ġremains": 3563,
      "Ġdistinct": 3564,
      "05": 3565,
      "Ġdri": 3566,
      "imize": 3567,
      "empt": 3568,
      "Ġanyone": 3569,
      "ifically": 3570,
      "ĠBecause": 3571,
      "Ġclim": 3572,
      "Ġcurrently": 3573,
      "Ġpieces": 3574,
      "vity": 3575,
      "wise": 3576,
      "Ġult": 3577,
      "Ġbirth": 3578,
      "arr": 3579,
      "Ġgiving": 3580,
      "Ġcommer": 3581,
      "ixt": 3582,
      "Ġplaces": 3583,
      "izations": 3584,
      "Ġinform": 3585,
      "Ġdrop": 3586,
      "Ġreve": 3587,
      "acing": 3588,
      "Ġreduced": 3589,
      "ĠBlack": 3590,
      "Ġmagnetic": 3591,
      "RE": 3592,
      "Ġpump": 3593,
      "Ġfurn": 3594,
      "Ġlost": 3595,
      "Ġdoctor": 3596,
      "Ġtechnique": 3597,
      "gery": 3598,
      "Ġforward": 3599,
      "ĠMin": 3600,
      "ogen": 3601,
      "Ġfully": 3602,
      "aur": 3603,
      "gram": 3604,
      "oice": 3605,
      "Ġwet": 3606,
      "Ġfab": 3607,
      "oman": 3608,
      "Ġtit": 3609,
      "Ġmouth": 3610,
      "ĠSystem": 3611,
      "Ġnotice": 3612,
      "Ġspir": 3613,
      "standing": 3614,
      "Ġsweet": 3615,
      "Ġ#": 3616,
      "Ġcooking": 3617,
      "org": 3618,
      "odies": 3619,
      "ocol": 3620,
      "Ġfields": 3621,
      "cast": 3622,
      "Ġ...": 3623,
      "Ġcateg": 3624,
      "ĠAg": 3625,
      "Ġleaf": 3626,
      "Ġrapid": 3627,
      "Ġexposure": 3628,
      "Ġeffectively": 3629,
      "ĠTechn": 3630,
      "Ġsolid": 3631,
      "Ġlimit": 3632,
      "Ġvacc": 3633,
      "Ġthous": 3634,
      "Ġlooks": 3635,
      "Ġspot": 3636,
      "Ġgenes": 3637,
      "Ġjourney": 3638,
      "28": 3639,
      "ĠNOT": 3640,
      "Ġgraph": 3641,
      "AM": 3642,
      "They": 3643,
      "Ġdiabetes": 3644,
      "Ġsecurity": 3645,
      "Ġkeeping": 3646,
      "Ġcommunities": 3647,
      "Ġcombination": 3648,
      "Ġmaximum": 3649,
      "Ġfaster": 3650,
      "Ġthird": 3651,
      "Ġremember": 3652,
      "Ġecosystem": 3653,
      "uary": 3654,
      "eters": 3655,
      "Ġstraight": 3656,
      "Ġrelatively": 3657,
      "Ġpage": 3658,
      "arge": 3659,
      "Ġdiv": 3660,
      "celer": 3661,
      "Ġund": 3662,
      "Ġworth": 3663,
      "Ġtrig": 3664,
      "Ġcentury": 3665,
      "Ġcleaning": 3666,
      "Ġsuccessful": 3667,
      "Ġcomprehens": 3668,
      "hop": 3669,
      "Ġpowerful": 3670,
      "Ġexactly": 3671,
      "Ġinches": 3672,
      "ĠOther": 3673,
      "ibly": 3674,
      "Ġfloor": 3675,
      "Ġthr": 3676,
      "urt": 3677,
      "Ġapprox": 3678,
      "Ġreported": 3679,
      "Ġsuitable": 3680,
      "Ġ|": 3681,
      "arts": 3682,
      "ĠRec": 3683,
      "Ġapply": 3684,
      "Ġlocated": 3685,
      "Ġbehavi": 3686,
      "Ġfemale": 3687,
      "Ġfamilies": 3688,
      "iar": 3689,
      "Ġstim": 3690,
      "Ġweb": 3691,
      "Ġcontext": 3692,
      "Ġtox": 3693,
      "ĠOver": 3694,
      "Ġpresence": 3695,
      "Ġadults": 3696,
      "36": 3697,
      "mp": 3698,
      "Ġwire": 3699,
      "Ġtooth": 3700,
      "Ġplatform": 3701,
      "Ġfro": 3702,
      "Ġbud": 3703,
      "Ġkn": 3704,
      "Ġinsp": 3705,
      "Ġfrequency": 3706,
      "Ġdetails": 3707,
      "Ġsituation": 3708,
      "Re": 3709,
      "Ġchance": 3710,
      "ĠâĢ¦": 3711,
      "Un": 3712,
      "Ġpen": 3713,
      "Ġhuge": 3714,
      "Ġgar": 3715,
      "ously": 3716,
      "Ġjoint": 3717,
      "Some": 3718,
      "lands": 3719,
      "Ġsaw": 3720,
      "Ġincluded": 3721,
      "mission": 3722,
      "Ġfinal": 3723,
      "ana": 3724,
      "Ġthus": 3725,
      "pped": 3726,
      "Ġexperiment": 3727,
      "Ġexpensive": 3728,
      "Ġowners": 3729,
      "ĠPhot": 3730,
      "02": 3731,
      "AL": 3732,
      "heck": 3733,
      "Ġbeyond": 3734,
      "Ġstream": 3735,
      "ĠWater": 3736,
      "Ġflat": 3737,
      "Ġopportunity": 3738,
      "tes": 3739,
      "unk": 3740,
      "Ġswitch": 3741,
      "Ġvolume": 3742,
      "Ġcamp": 3743,
      "inger": 3744,
      "Ġheight": 3745,
      "ffee": 3746,
      "ĠGra": 3747,
      "ĠOnce": 3748,
      "Ġsmart": 3749,
      "ĠIndia": 3750,
      "Ġthinking": 3751,
      "Ġreaction": 3752,
      "Ġbrown": 3753,
      "ica": 3754,
      "Ġsex": 3755,
      "ĠState": 3756,
      "Ġpool": 3757,
      "Ġeffort": 3758,
      "Ġalternative": 3759,
      "bol": 3760,
      "rew": 3761,
      "Ġfair": 3762,
      "ĠAct": 3763,
      "Ġexpert": 3764,
      "ĠInstitute": 3765,
      "Ġinsects": 3766,
      "-y": 3767,
      "ET": 3768,
      "efore": 3769,
      "Ġresulting": 3770,
      "Ġcharacteristics": 3771,
      "Ġdescribed": 3772,
      "Now": 3773,
      "craft": 3774,
      "iet": 3775,
      "sc": 3776,
      "Ġbone": 3777,
      "semb": 3778,
      "estern": 3779,
      "Ġvia": 3780,
      "ushing": 3781,
      "Ġprofession": 3782,
      "Ġrelease": 3783,
      "Ġfabric": 3784,
      "EM": 3785,
      "Ġsociety": 3786,
      "ĠSim": 3787,
      "Ġrespond": 3788,
      "Ġconnection": 3789,
      "Step": 3790,
      "Ġexpected": 3791,
      "enge": 3792,
      "Ġunc": 3793,
      "ails": 3794,
      "Ġpicture": 3795,
      "Ġslightly": 3796,
      "hether": 3797,
      "Ġstem": 3798,
      "Ġagg": 3799,
      "Ġadvanced": 3800,
      "Ġsites": 3801,
      "right": 3802,
      "ester": 3803,
      "ĠMod": 3804,
      "Ġtrack": 3805,
      "Ġliter": 3806,
      "Ġstructures": 3807,
      "Ġcapacity": 3808,
      "Ġcommercial": 3809,
      "erals": 3810,
      "elp": 3811,
      "Ġjo": 3812,
      "Ġindepend": 3813,
      "Ġdiscovered": 3814,
      "ternal": 3815,
      "Ġparam": 3816,
      "Ġmarine": 3817,
      "32": 3818,
      "Ġï¿½": 3819,
      "Ġphone": 3820,
      "ĠJust": 3821,
      "Ġplanning": 3822,
      "Ġachie": 3823,
      "IC": 3824,
      "IT": 3825,
      "haps": 3826,
      "ober": 3827,
      "Ġalthough": 3828,
      "Ġupd": 3829,
      "Ġparticles": 3830,
      "ĠAlthough": 3831,
      "Ġimmune": 3832,
      "ying": 3833,
      "iforn": 3834,
      "Ġplaced": 3835,
      "roup": 3836,
      "Ġacceler": 3837,
      "Ġincreases": 3838,
      "-sh": 3839,
      "Ġculture": 3840,
      "Ġversion": 3841,
      "Ġrepe": 3842,
      "Ġstick": 3843,
      "Ġtherefore": 3844,
      "Ġdiam": 3845,
      "Ġdemand": 3846,
      "Ġradio": 3847,
      "Ġextremely": 3848,
      "Ġwat": 3849,
      "aled": 3850,
      "Ġcommit": 3851,
      "Ġdecision": 3852,
      "Ġprogress": 3853,
      "erate": 3854,
      "rier": 3855,
      "ĠLear": 3856,
      "Ġroll": 3857,
      "iction": 3858,
      "Ġengage": 3859,
      "Ġtherm": 3860,
      "75": 3861,
      "PS": 3862,
      "cop": 3863,
      "zing": 3864,
      "Ġpsych": 3865,
      "Ġdead": 3866,
      "Ġmag": 3867,
      "ificial": 3868,
      "Ġrecently": 3869,
      "ups": 3870,
      "Ġtask": 3871,
      "Ġmut": 3872,
      "ĠAir": 3873,
      "Ġalone": 3874,
      "Ġkil": 3875,
      "Ġgenerate": 3876,
      "care": 3877,
      "Ġfashion": 3878,
      "Ġnucle": 3879,
      "Ġcoming": 3880,
      "ĠEl": 3881,
      "Ġbran": 3882,
      "ban": 3883,
      "asc": 3884,
      "Ġgames": 3885,
      "uration": 3886,
      "ĠAccording": 3887,
      "ĠBrit": 3888,
      "vention": 3889,
      "-free": 3890,
      ".com": 3891,
      "29": 3892,
      "Ġwin": 3893,
      "ancial": 3894,
      "Ġphotos": 3895,
      "Ġ*": 3896,
      "iments": 3897,
      "ida": 3898,
      "agram": 3899,
      "Ġfunctions": 3900,
      "Ġhandle": 3901,
      "Ġopportunities": 3902,
      "bing": 3903,
      "ycl": 3904,
      "orith": 3905,
      "imens": 3906,
      "acking": 3907,
      "place": 3908,
      "Ġplayers": 3909,
      "can": 3910,
      "eing": 3911,
      "ĠQ": 3912,
      "Ġtherapy": 3913,
      "ister": 3914,
      "ĠMon": 3915,
      "Ġtechnologies": 3916,
      "Ġcycle": 3917,
      "Do": 3918,
      "lor": 3919,
      "Ġaqu": 3920,
      "Ġspl": 3921,
      "Ġnational": 3922,
      "ided": 3923,
      "Ġstaff": 3924,
      "Ġcharge": 3925,
      "Ġcalc": 3926,
      "ifornia": 3927,
      "Ġcred": 3928,
      "Ġlargest": 3929,
      "Ġschools": 3930,
      "Ġdynam": 3931,
      "cil": 3932,
      "ĠSpe": 3933,
      "Ġround": 3934,
      "Ġrise": 3935,
      "Ġchanging": 3936,
      "pril": 3937,
      "know": 3938,
      "ĠEach": 3939,
      "rupt": 3940,
      "Ġsynt": 3941,
      "Ġgene": 3942,
      "Ġattempt": 3943,
      "Ġdegree": 3944,
      "Ġframe": 3945,
      "Ġsold": 3946,
      "ancing": 3947,
      "Ġrates": 3948,
      "Ġconnected": 3949,
      "ST": 3950,
      "Ġmale": 3951,
      "Ġmiddle": 3952,
      "ĠSw": 3953,
      "ament": 3954,
      "Ġdocument": 3955,
      "lier": 3956,
      "encies": 3957,
      "Ġstuff": 3958,
      "Ġcompar": 3959,
      "Ġolder": 3960,
      "Ġmotion": 3961,
      "Ġvaluable": 3962,
      "Ġnote": 3963,
      "avig": 3964,
      "...Ċ": 3965,
      "Ġpaint": 3966,
      "Ġpractical": 3967,
      "Ġtiny": 3968,
      "ha": 3969,
      "Ġmob": 3970,
      "Ġflight": 3971,
      "Our": 3972,
      "bed": 3973,
      "oom": 3974,
      "uce": 3975,
      "itect": 3976,
      "isions": 3977,
      "ishes": 3978,
      "Ġinstance": 3979,
      "Ġfinding": 3980,
      "Ġphoto": 3981,
      "Ġfilm": 3982,
      "Ġnearly": 3983,
      "Ġsample": 3984,
      "Ġtasks": 3985,
      "organ": 3986,
      "Ġep": 3987,
      "unction": 3988,
      "ĠEduc": 3989,
      "Ġarm": 3990,
      "Ġactual": 3991,
      "Ġproperty": 3992,
      "Ġlandscape": 3993,
      "Ġhomes": 3994,
      "izer": 3995,
      "ends": 3996,
      "Ġclos": 3997,
      "anging": 3998,
      "Ġcoat": 3999,
      "iences": 4000,
      "Ġexperiences": 4001,
      "03": 4002,
      "bal": 4003,
      "enty": 4004,
      "Ġclin": 4005,
      "Ġdivers": 4006,
      "hesis": 4007,
      "Ġexpand": 4008,
      "Ġmoisture": 4009,
      ".g": 4010,
      "Ġbooks": 4011,
      "Ġmold": 4012,
      "Ġwanted": 4013,
      "Ġallowed": 4014,
      "Ġplayer": 4015,
      "ashing": 4016,
      "However": 4017,
      "Ġanti": 4018,
      "Ġsalt": 4019,
      "-like": 4020,
      "ipped": 4021,
      "04": 4022,
      "ipes": 4023,
      "rench": 4024,
      "Ġserve": 4025,
      "Ġefforts": 4026,
      "ira": 4027,
      "Ġhit": 4028,
      "ams": 4029,
      "Ġcheckbook": 4030,
      "Bl": 4031,
      "Ġmist": 4032,
      "arp": 4033,
      "Ġder": 4034,
      "Ġhorm": 4035,
      "used": 4036,
      "ĠTw": 4037,
      "ĠBra": 4038,
      "Ġintellig": 4039,
      "Ġscale": 4040,
      "Ġtrust": 4041,
      "Ġbackground": 4042,
      "vironments": 4043,
      "Ġdriving": 4044,
      "Ġinternational": 4045,
      "Ġsect": 4046,
      "Ġmis": 4047,
      "ications": 4048,
      "Ġconvers": 4049,
      "Ġteaching": 4050,
      "ĠIts": 4051,
      "Ġmemory": 4052,
      "roduction": 4053,
      "Ġfeeding": 4054,
      "oors": 4055,
      "ado": 4056,
      "ĠBr": 4057,
      "resp": 4058,
      "Ġidentified": 4059,
      "Ġregularly": 4060,
      "Ġeconomic": 4061,
      "Ġvoltage": 4062,
      "off": 4063,
      "za": 4064,
      "ðŁ": 4065,
      "Ġdate": 4066,
      "Ġstri": 4067,
      "ĠSu": 4068,
      "Ġpref": 4069,
      "Ġbecoming": 4070,
      "....": 4071,
      "ĠâĢ¢": 4072,
      "Ġmuscles": 4073,
      "Ġcrops": 4074,
      "Ġharmful": 4075,
      "ĠCalifornia": 4076,
      "Ġcele": 4077,
      "kin": 4078,
      "Ġtrou": 4079,
      "Ġmatch": 4080,
      "uries": 4081,
      "Ġstar": 4082,
      "osph": 4083,
      "ĠPark": 4084,
      "Ġadminist": 4085,
      "erences": 4086,
      "ĠChrist": 4087,
      "Ġshowed": 4088,
      "Ġimproved": 4089,
      "Ġinfluence": 4090,
      "aught": 4091,
      "Ġimmediately": 4092,
      "My": 4093,
      "Ġpets": 4094,
      "orial": 4095,
      "Ġmal": 4096,
      "icro": 4097,
      "icated": 4098,
      "Ġdeb": 4099,
      "ĠRed": 4100,
      "Ġapprec": 4101,
      "Ġdifferences": 4102,
      "Ġcentral": 4103,
      "Ġfilter": 4104,
      "Ġhabitat": 4105,
      "Ġwonder": 4106,
      "Ġfavorite": 4107,
      "ĠHigh": 4108,
      "Ġsche": 4109,
      "Ġspecifically": 4110,
      "Ġcars": 4111,
      "riendly": 4112,
      "Ġlegal": 4113,
      "Ġcontribute": 4114,
      "ius": 4115,
      "Ġwent": 4116,
      "lean": 4117,
      "rome": 4118,
      "ĠPar": 4119,
      "Ġrisks": 4120,
      "Ġpromote": 4121,
      "Ġdigest": 4122,
      "Ġlabor": 4123,
      "Ġpric": 4124,
      "Ġbond": 4125,
      "Ġeth": 4126,
      "Ġbegan": 4127,
      "abol": 4128,
      "Ġhear": 4129,
      "ĠDon": 4130,
      "Ġsurgery": 4131,
      "Ġbasis": 4132,
      "Ġwrite": 4133,
      "eed": 4134,
      "ĠRep": 4135,
      "ĠGerm": 4136,
      "Ġcloud": 4137,
      "Ġsurpr": 4138,
      "arming": 4139,
      "ĠTherefore": 4140,
      "ĠAfrica": 4141,
      "ĠAustralia": 4142,
      "Ġalgorith": 4143,
      "wers": 4144,
      "rows": 4145,
      "Ġbecame": 4146,
      "Ġmedium": 4147,
      "Ġsuggests": 4148,
      "met": 4149,
      "otic": 4150,
      "ĠDis": 4151,
      "Ġpattern": 4152,
      "Ġequal": 4153,
      "ek": 4154,
      "Ġtri": 4155,
      "Ġkid": 4156,
      "ource": 4157,
      "inding": 4158,
      "Ġconservation": 4159,
      "Ġchicken": 4160,
      "-up": 4161,
      "house": 4162,
      "ses": 4163,
      "Ġvibr": 4164,
      "Ġfinancial": 4165,
      "Ġhistor": 4166,
      "Ġdangerous": 4167,
      "PT": 4168,
      "Ġsounds": 4169,
      "Ġfight": 4170,
      "ĠFirst": 4171,
      "Ġperce": 4172,
      "Ġcutting": 4173,
      "Ġsatis": 4174,
      "Ġcert": 4175,
      "Ġfed": 4176,
      "ĠSince": 4177,
      "Ġclick": 4178,
      "Ġconsult": 4179,
      "Ġpoly": 4180,
      "ĠChar": 4181,
      "ING": 4182,
      "Ġobserved": 4183,
      "Ġsort": 4184,
      "Ġdental": 4185,
      "iling": 4186,
      "Ġneut": 4187,
      "Ġscen": 4188,
      "Ġattack": 4189,
      "board": 4190,
      "Ġyield": 4191,
      "Ġkne": 4192,
      "Ġroots": 4193,
      "arium": 4194,
      "ublic": 4195,
      "Ġgoals": 4196,
      "Ġcomponent": 4197,
      "Ġbeauty": 4198,
      "Ġcomfortable": 4199,
      "Ġtum": 4200,
      "Ġplease": 4201,
      "ĠTrans": 4202,
      "Ġconc": 4203,
      "Ġgeneration": 4204,
      "Ġpopulations": 4205,
      "Ġfarmers": 4206,
      "ĠEnglish": 4207,
      "Ġaspects": 4208,
      "-n": 4209,
      "bl": 4210,
      "Ġfoss": 4211,
      "ĠTr": 4212,
      "umber": 4213,
      "Ġexhib": 4214,
      "ĠFood": 4215,
      "ĠEvery": 4216,
      "âĢ¢": 4217,
      "Ġhighlight": 4218,
      "Ġdepth": 4219,
      "Ġelectro": 4220,
      "Ġchallenge": 4221,
      "Ġcustomers": 4222,
      "Ġvirt": 4223,
      "Ġasked": 4224,
      "Ġaccurate": 4225,
      "iant": 4226,
      "Ġdie": 4227,
      "Ġhour": 4228,
      "Ġonto": 4229,
      "Ġagree": 4230,
      "Ġemp": 4231,
      "Ġminerals": 4232,
      "Ġbeneficial": 4233,
      "ĠDepartment": 4234,
      "-qu": 4235,
      "hab": 4236,
      "Ġtax": 4237,
      "Ġcomplic": 4238,
      "ager": 4239,
      "Ġcontract": 4240,
      "Ġdiscover": 4241,
      "Ġtreatments": 4242,
      "Ġpolit": 4243,
      "Ġsurfaces": 4244,
      "Ġelimin": 4245,
      "99": 4246,
      "dy": 4247,
      "pre": 4248,
      "iter": 4249,
      "Ġmig": 4250,
      "Ġded": 4251,
      "Ġenvironments": 4252,
      "Ġcream": 4253,
      "Ġbright": 4254,
      "azing": 4255,
      "Ġmaintaining": 4256,
      "ĠEven": 4257,
      "Ġdoor": 4258,
      "tered": 4259,
      "Ġtests": 4260,
      "related": 4261,
      "Ġatmosphere": 4262,
      "eties": 4263,
      "Ġheating": 4264,
      "Ġvital": 4265,
      "ocal": 4266,
      "ĠNature": 4267,
      "uk": 4268,
      "ĠÂ": 4269,
      "Ġath": 4270,
      "Ġmother": 4271,
      "ĠBi": 4272,
      "Ġextract": 4273,
      "Ġwidely": 4274,
      "Ġelectricity": 4275,
      "ken": 4276,
      "Ġfigure": 4277,
      "icious": 4278,
      "ĠWar": 4279,
      "orms": 4280,
      "Ġstandards": 4281,
      "Ġsymbol": 4282,
      "Ġhorse": 4283,
      "Ġinjury": 4284,
      "En": 4285,
      "Here": 4286,
      "equ": 4287,
      "Ã©": 4288,
      "Ġbow": 4289,
      "Ġstru": 4290,
      "ests": 4291,
      "Ġexternal": 4292,
      "Ġchann": 4293,
      "Ġmaybe": 4294,
      "ĠChina": 4295,
      "Ġantib": 4296,
      "Ġinternal": 4297,
      "Ġdepends": 4298,
      "Ġsquare": 4299,
      "Ġadvantage": 4300,
      "ixture": 4301,
      "48": 4302,
      "Ab": 4303,
      "Ġphen": 4304,
      "ching": 4305,
      "change": 4306,
      "atever": 4307,
      "inder": 4308,
      "ĠUK": 4309,
      "Ġcorn": 4310,
      "Ġshel": 4311,
      "ĠProgram": 4312,
      "Ġhappy": 4313,
      "Ġmechanism": 4314,
      "Ġfluid": 4315,
      "Ġpollution": 4316,
      "Ġstatus": 4317,
      "Ġregarding": 4318,
      "Answer": 4319,
      "atically": 4320,
      "ilit": 4321,
      "ille": 4322,
      "ĠSec": 4323,
      "Ġconven": 4324,
      "Ġbutton": 4325,
      "Ġcoffee": 4326,
      "phas": 4327,
      "Ġdiverse": 4328,
      "Ġestablished": 4329,
      "Ġharvest": 4330,
      "Ġteachers": 4331,
      "95": 4332,
      "Ġble": 4333,
      "Ġdro": 4334,
      "abilities": 4335,
      "ĠMake": 4336,
      "ief": 4337,
      "Ġinsulation": 4338,
      "Ġhighest": 4339,
      "Ġmiles": 4340,
      "Ġbeginning": 4341,
      "ĠUsing": 4342,
      "Ġcomprehensive": 4343,
      "Ġtail": 4344,
      "Ġpig": 4345,
      "Ġnan": 4346,
      "ĠAnt": 4347,
      "ifying": 4348,
      "Ġmember": 4349,
      "ĠĠĠĠ": 4350,
      "ees": 4351,
      "fess": 4352,
      "Ġpair": 4353,
      "ster": 4354,
      "ĠBet": 4355,
      "ĠGreen": 4356,
      "aped": 4357,
      "Ġevol": 4358,
      "Ġblog": 4359,
      "ought": 4360,
      "Ġformed": 4361,
      "inese": 4362,
      "Ġoptimal": 4363,
      "Ġamounts": 4364,
      "-year": 4365,
      "Ġpil": 4366,
      "Ġbones": 4367,
      "Ġmid": 4368,
      "icip": 4369,
      "lev": 4370,
      "Ġcolour": 4371,
      "Ġhelpful": 4372,
      "Ġperspect": 4373,
      "Ġremoved": 4374,
      "Ġnitrogen": 4375,
      "ĠPers": 4376,
      "Ġorganization": 4377,
      "Ġpolicy": 4378,
      "Ġcontainer": 4379,
      "Ġhyp": 4380,
      "Ġengineering": 4381,
      "Ġprepared": 4382,
      "Ġagriculture": 4383,
      "aturally": 4384,
      "Ġprofessionals": 4385,
      "Ġtight": 4386,
      "uth": 4387,
      "umn": 4388,
      "Ġrules": 4389,
      "Ġshop": 4390,
      "Ġspin": 4391,
      "Ġcollection": 4392,
      "Ġedge": 4393,
      "Ġpotentially": 4394,
      "Ġfeeling": 4395,
      "Res": 4396,
      "body": 4397,
      "outhern": 4398,
      "Ġcoord": 4399,
      "Ġsecure": 4400,
      "Ġcreative": 4401,
      "Ġiniti": 4402,
      "-M": 4403,
      "06": 4404,
      "mm": 4405,
      "ss": 4406,
      "elines": 4407,
      "Ġanx": 4408,
      "ighb": 4409,
      "Ġsports": 4410,
      "Ġveter": 4411,
      "Ġchemicals": 4412,
      "--------": 4413,
      "Ġcopy": 4414,
      "eline": 4415,
      "Ġselection": 4416,
      "Ġunits": 4417,
      "Ġspect": 4418,
      "ĠJoh": 4419,
      "Ġgrown": 4420,
      "Ġfindings": 4421,
      "Ġlights": 4422,
      "Ġsensor": 4423,
      "poses": 4424,
      "Ġspirit": 4425,
      "time": 4426,
      "yn": 4427,
      "isp": 4428,
      "Ġlots": 4429,
      "Ġnative": 4430,
      "orthern": 4431,
      "ishing": 4432,
      "Ġconstruct": 4433,
      "Ġcustomer": 4434,
      "force": 4435,
      "Ġexperienced": 4436,
      "Ġdrawing": 4437,
      "Ġseparate": 4438,
      "iotics": 4439,
      "Ġquantum": 4440,
      "Ġcouple": 4441,
      "55": 4442,
      "CO": 4443,
      "iety": 4444,
      "nect": 4445,
      "Ġassemb": 4446,
      "allow": 4447,
      "Ġju": 4448,
      "Ġspaces": 4449,
      "orders": 4450,
      "ĠChild": 4451,
      "print": 4452,
      "Ke": 4453,
      "Ġten": 4454,
      "Ġpul": 4455,
      "Ġbodies": 4456,
      "olute": 4457,
      "Ġvoice": 4458,
      "ĠDuring": 4459,
      "Ġdish": 4460,
      "Ġtransmit": 4461,
      "Ġtypical": 4462,
      "Ġadvice": 4463,
      "Ġeducational": 4464,
      "Ġappearance": 4465,
      "Ġapproximately": 4466,
      "DA": 4467,
      "RO": 4468,
      "Ġsess": 4469,
      "Ġdura": 4470,
      "iced": 4471,
      "oses": 4472,
      "Ġuns": 4473,
      "ĠInternational": 4474,
      "Ġsed": 4475,
      "usive": 4476,
      "Ġconsequ": 4477,
      "Ġofficial": 4478,
      "Ġworked": 4479,
      "ropical": 4480,
      "Ġboost": 4481,
      "Ġplaying": 4482,
      "Ġadvance": 4483,
      "Ġangle": 4484,
      "Ġconcentration": 4485,
      "That": 4486,
      "inally": 4487,
      "roid": 4488,
      "Ġperformed": 4489,
      "Ġlegs": 4490,
      "Ġcovered": 4491,
      "Ġwaves": 4492,
      "Ġtoward": 4493,
      "ĠApril": 4494,
      "umin": 4495,
      "ĠPart": 4496,
      "ĠGree": 4497,
      "asses": 4498,
      "Ġformat": 4499,
      "Ġbread": 4500,
      "Ġchanged": 4501,
      "ĠAdd": 4502,
      "Ġinterested": 4503,
      "Ġreceived": 4504,
      ".e": 4505,
      "After": 4506,
      "sp": 4507,
      "Ġbound": 4508,
      "ĠST": 4509,
      "ĠHum": 4510,
      "Ġsimpl": 4511,
      "Ġbreeding": 4512,
      "Ġinfluen": 4513,
      "Ġmonitoring": 4514,
      "?\"": 4515,
      "iples": 4516,
      "mary": 4517,
      "oly": 4518,
      "ulating": 4519,
      "Ġconver": 4520,
      "ĠEd": 4521,
      "Ġstarts": 4522,
      "iveness": 4523,
      "ares": 4524,
      "field": 4525,
      "Ġnavig": 4526,
      "ĠBo": 4527,
      "Ġdesired": 4528,
      "Ġrepair": 4529,
      "Ġoperation": 4530,
      "31": 4531,
      "II": 4532,
      "Ġcm": 4533,
      "Ġmel": 4534,
      "Ġthor": 4535,
      "Ġclothing": 4536,
      "Ġpartners": 4537,
      "Ġrecycl": 4538,
      "ĠStep": 4539,
      "Ġartificial": 4540,
      "Ġfrequently": 4541,
      "Ġindicate": 4542,
      "Ġloop": 4543,
      "Ġadvantages": 4544,
      "Ġvitamin": 4545,
      "Ġdistribution": 4546,
      "Ġfear": 4547,
      "Ġweigh": 4548,
      "ĠMarch": 4549,
      "ĠUnder": 4550,
      "Ġqual": 4551,
      "itely": 4552,
      "Ġleads": 4553,
      "Ġoccas": 4554,
      "Ġillust": 4555,
      "Ġestablish": 4556,
      "Ġpregnancy": 4557,
      "Us": 4558,
      "Ġvel": 4559,
      "ĠSur": 4560,
      "Ġheld": 4561,
      "Ġvess": 4562,
      "Ġchrom": 4563,
      "Ġkill": 4564,
      "irect": 4565,
      "Ġactions": 4566,
      "Ġdefined": 4567,
      "Ġparas": 4568,
      "Ġprimarily": 4569,
      "Ġprinting": 4570,
      "rates": 4571,
      "Ġsav": 4572,
      "alse": 4573,
      "Ġhosp": 4574,
      "Ġupper": 4575,
      "Ġcompost": 4576,
      "ague": 4577,
      "Ġenter": 4578,
      "oxide": 4579,
      "Ġnormally": 4580,
      "Ġencourage": 4581,
      "known": 4582,
      "/or": 4583,
      "lt": 4584,
      "ny": 4585,
      "||": 4586,
      "Ġcore": 4587,
      "Ġmild": 4588,
      "Ġancient": 4589,
      "undred": 4590,
      "Ġlearned": 4591,
      "Ġradiation": 4592,
      "Ġexisting": 4593,
      "Ġnutrient": 4594,
      "Ġmessage": 4595,
      "Ġarchitect": 4596,
      "Ġprivate": 4597,
      "ped": 4598,
      "rations": 4599,
      "uild": 4600,
      "Ġflavor": 4601,
      "Ġexperts": 4602,
      "Ġorganizations": 4603,
      "Ġmetabol": 4604,
      "Ġsnow": 4605,
      "Ġfill": 4606,
      "Ġplays": 4607,
      "rick": 4608,
      "Ġrace": 4609,
      "Ġemphas": 4610,
      "Ġregions": 4611,
      "Ġdecor": 4612,
      "Ġtopic": 4613,
      "Ġreleased": 4614,
      "cript": 4615,
      "Ġfruits": 4616,
      "Ġinstructions": 4617,
      "het": 4618,
      "Ġtrain": 4619,
      "-friendly": 4620,
      "Ġerror": 4621,
      "Ġwritten": 4622,
      "Ġeventually": 4623,
      "Ġoutdoor": 4624,
      "respond": 4625,
      "HE": 4626,
      "Ġmeal": 4627,
      "Ġrelax": 4628,
      "iverse": 4629,
      "Ġteams": 4630,
      "Ġcomputers": 4631,
      "Ġrelationships": 4632,
      "33": 4633,
      "RI": 4634,
      "Se": 4635,
      "yth": 4636,
      "Ġhom": 4637,
      "Ġhole": 4638,
      "ĠServ": 4639,
      "dule": 4640,
      "ventional": 4641,
      "Ġoptim": 4642,
      "Ġfiles": 4643,
      "Ġlayers": 4644,
      "Ġproteins": 4645,
      "Ġratio": 4646,
      "Ġsizes": 4647,
      "Ġcounter": 4648,
      "Ġbat": 4649,
      "Ġburn": 4650,
      "Ġborn": 4651,
      "ara": 4652,
      "Ġlov": 4653,
      "Ġlibr": 4654,
      "iders": 4655,
      "Ġweak": 4656,
      "ĠBar": 4657,
      "Ġelev": 4658,
      "Ġmulti": 4659,
      "Ġperiods": 4660,
      "Ġwindow": 4661,
      "Ġmonitor": 4662,
      "-le": 4663,
      "hors": 4664,
      "Ġrein": 4665,
      "opl": 4666,
      "Ġgenome": 4667,
      "Ġmode": 4668,
      "Ġrefers": 4669,
      "Ġcarefully": 4670,
      "-quality": 4671,
      "42": 4672,
      "OS": 4673,
      "cers": 4674,
      "Ġnerv": 4675,
      "ĠHer": 4676,
      "Ġadvent": 4677,
      "ĠLED": 4678,
      "Ġhelping": 4679,
      "ĠJan": 4680,
      "Ġdrain": 4681,
      "Ġsaying": 4682,
      "ĠSept": 4683,
      "ĠFlor": 4684,
      "aid": 4685,
      "Ġfly": 4686,
      "ĠDay": 4687,
      "Ġinflamm": 4688,
      "Ġbusinesses": 4689,
      "ĠEnvironment": 4690,
      "ĠEuropean": 4691,
      "Ġinfections": 4692,
      "No": 4693,
      "zen": 4694,
      "Ġvert": 4695,
      "Ġtalking": 4696,
      "Ġcere": 4697,
      "itor": 4698,
      "Ġlose": 4699,
      "omy": 4700,
      "oday": 4701,
      "ĠWhether": 4702,
      "Ġshoot": 4703,
      "ĠElect": 4704,
      "Ġflav": 4705,
      "Ġsubs": 4706,
      "Ġdescribe": 4707,
      "Ġconcerns": 4708,
      "34": 4709,
      "with": 4710,
      "aser": 4711,
      "Ġgear": 4712,
      "Ġvul": 4713,
      "Ġflour": 4714,
      "Ġmostly": 4715,
      "ĠChinese": 4716,
      "Ġnumerous": 4717,
      "Ġapart": 4718,
      "Ġvehicles": 4719,
      "Ġdouble": 4720,
      "bre": 4721,
      "chen": 4722,
      "och": 4723,
      "rite": 4724,
      "lets": 4725,
      "Ġnamed": 4726,
      "ĠAM": 4727,
      "ĠAug": 4728,
      "Ġelectron": 4729,
      "Ġdrinking": 4730,
      "Ġfunctional": 4731,
      "Ġcultural": 4732,
      "Another": 4733,
      "Ġdrug": 4734,
      "iol": 4735,
      "asp": 4736,
      "Ġneighb": 4737,
      "Ġplans": 4738,
      "ĠGet": 4739,
      "Ġroof": 4740,
      "Ġtraffic": 4741,
      "Ġbiological": 4742,
      "Ġwildlife": 4743,
      "Ġthousands": 4744,
      "Ġtold": 4745,
      "Ġstages": 4746,
      "ords": 4747,
      "Ġsignals": 4748,
      "Ġclasses": 4749,
      "Ġfocused": 4750,
      "ĠDevelop": 4751,
      "Ġsurrounding": 4752,
      "works": 4753,
      "Ġlatest": 4754,
      "chers": 4755,
      "ech": 4756,
      "wide": 4757,
      "Ġsty": 4758,
      "Ġteach": 4759,
      "Ġdrink": 4760,
      "Ġresource": 4761,
      "Ġforests": 4762,
      "Ġpurchase": 4763,
      "Ġawareness": 4764,
      "Ġprocedure": 4765,
      "Ġestimated": 4766,
      "mar": 4767,
      "ran": 4768,
      "iture": 4769,
      "Ġfo": 4770,
      "Ġnaturally": 4771,
      "ĠTex": 4772,
      "ĠSan": 4773,
      "Ġworry": 4774,
      "ĠGod": 4775,
      "ĠOct": 4776,
      "apter": 4777,
      "anges": 4778,
      "Ġobvious": 4779,
      "65": 4780,
      "All": 4781,
      "LE": 4782,
      "ND": 4783,
      "rich": 4784,
      "Ġsell": 4785,
      "Ġfer": 4786,
      "Ġmixture": 4787,
      "ctors": 4788,
      "Ġnorth": 4789,
      "ĠAC": 4790,
      "ĠAv": 4791,
      "sec": 4792,
      "Ġwhose": 4793,
      "that": 4794,
      "roduct": 4795,
      "Ġillness": 4796,
      "Ġafford": 4797,
      "ĠEducation": 4798,
      "64": 4799,
      "Are": 4800,
      "Be": 4801,
      "inate": 4802,
      "Ġpin": 4803,
      "icking": 4804,
      "ste": 4805,
      "Ġshoes": 4806,
      "ĠHar": 4807,
      "Ġdesigns": 4808,
      "Ġraw": 4809,
      "Ġmineral": 4810,
      "hips": 4811,
      "Ġaffects": 4812,
      "Ġinvolve": 4813,
      "Ġmeasurement": 4814,
      "Ġsunlight": 4815,
      "ĠAssoci": 4816,
      "37": 4817,
      "bi": 4818,
      "Ġbrought": 4819,
      "Ġisol": 4820,
      "Ġord": 4821,
      "Ġmajority": 4822,
      "cules": 4823,
      "Ġintroduced": 4824,
      "Ġdrugs": 4825,
      "Ar": 4826,
      "Ġban": 4827,
      "alt": 4828,
      "ĠDoes": 4829,
      "ĠYork": 4830,
      "oughly": 4831,
      "Ġsets": 4832,
      "Ġcorrespond": 4833,
      "Ġshowing": 4834,
      "Ġpurposes": 4835,
      "Ġappears": 4836,
      "Ġcultiv": 4837,
      "Ġdiversity": 4838,
      "cious": 4839,
      "Ġâ": 4840,
      "rest": 4841,
      "Ġore": 4842,
      "ĠCare": 4843,
      "unity": 4844,
      "ogle": 4845,
      "ĠDog": 4846,
      "Ġdisorder": 4847,
      "Ġoffering": 4848,
      "Ġemail": 4849,
      "Ġmainly": 4850,
      "ĠCanada": 4851,
      "Ġaudio": 4852,
      "ĠKeep": 4853,
      "44": 4854,
      "what": 4855,
      "Ðµ": 4856,
      "Ð¾": 4857,
      "inated": 4858,
      "Ġtomat": 4859,
      "rote": 4860,
      "Ġholes": 4861,
      "Ġnice": 4862,
      "Ġperhaps": 4863,
      "aping": 4864,
      "Ġbreast": 4865,
      "Ġdetermined": 4866,
      "Ġwarming": 4867,
      "Ġsamples": 4868,
      "Ġconducted": 4869,
      "Ġannual": 4870,
      "Ġmorning": 4871,
      "PA": 4872,
      "mark": 4873,
      "Ġcand": 4874,
      "ingu": 4875,
      "Ġpal": 4876,
      "ĠWill": 4877,
      "Ġearlier": 4878,
      "Ġelectronic": 4879,
      "Ġtexture": 4880,
      "Ġsituations": 4881,
      "Ġtoxic": 4882,
      "ye": 4883,
      "Ġwave": 4884,
      "Ġbiod": 4885,
      "Ġdin": 4886,
      "icides": 4887,
      "urance": 4888,
      "Ġstories": 4889,
      "uments": 4890,
      "ĠWell": 4891,
      "Ġvent": 4892,
      "Ġallerg": 4893,
      "ĠInc": 4894,
      "Ġcollege": 4895,
      "hyd": 4896,
      "ography": 4897,
      "hemical": 4898,
      "Ġmechanical": 4899,
      "Ġjournal": 4900,
      "med": 4901,
      "Ġsend": 4902,
      "Ġfilled": 4903,
      "Ġmamm": 4904,
      "Ġgum": 4905,
      "urrent": 4906,
      "aked": 4907,
      "Ġskates": 4908,
      "ĠIndian": 4909,
      "Ġmachines": 4910,
      "Ġoxid": 4911,
      "Ġselected": 4912,
      "Ġlaws": 4913,
      "Ġprepare": 4914,
      "Ġparticipants": 4915,
      "US": 4916,
      "Ġtun": 4917,
      "Ġtrip": 4918,
      "Ġcup": 4919,
      "alks": 4920,
      "Ġdat": 4921,
      "Ġhundred": 4922,
      "Ġreality": 4923,
      "Ġstock": 4924,
      "ĠSte": 4925,
      "ods": 4926,
      "ĠCount": 4927,
      "ĠFurther": 4928,
      "active": 4929,
      "izers": 4930,
      "ologist": 4931,
      "Ġflood": 4932,
      "Ġformation": 4933,
      "ĠAsia": 4934,
      "Ġsuggested": 4935,
      "Ġmanufacturing": 4936,
      "Ġdecrease": 4937,
      "Ġbillion": 4938,
      "fly": 4939,
      "fall": 4940,
      "Ġsong": 4941,
      "Ġsouth": 4942,
      "Ġstone": 4943,
      "ĠCity": 4944,
      "anted": 4945,
      "ivil": 4946,
      "ormal": 4947,
      "Ġassum": 4948,
      "Ġtreated": 4949,
      "Ġrelevant": 4950,
      "Ġpercentage": 4951,
      "Ġinternet": 4952,
      "Ġstrategy": 4953,
      "Ġhoriz": 4954,
      "Ġfiber": 4955,
      "-S": 4956,
      "Int": 4957,
      "ded": 4958,
      "dom": 4959,
      "ta": 4960,
      "Ġsem": 4961,
      "uting": 4962,
      "rade": 4963,
      "ulum": 4964,
      "ĠSun": 4965,
      "Ġincred": 4966,
      "ovember": 4967,
      "Ġhealthcare": 4968,
      "Ġexposed": 4969,
      "Ġcontinues": 4970,
      "Ġchoosing": 4971,
      "Ġwalls": 4972,
      "Ġexcessive": 4973,
      "!!": 4974,
      "):": 4975,
      "Ġmit": 4976,
      "Ġmaster": 4977,
      "Ġdensity": 4978,
      "rain": 4979,
      "see": 4980,
      "Ġsport": 4981,
      "Ġreliable": 4982,
      "Ġsettings": 4983,
      "Ġdepos": 4984,
      "Ġaircraft": 4985,
      "Ġcareer": 4986,
      "Ġcreates": 4987,
      "Ġdamaged": 4988,
      "Ġsensitive": 4989,
      "Ġzero": 4990,
      "Ġdetailed": 4991,
      "Ġcelebr": 4992,
      ".)": 4993,
      "Ġaid": 4994,
      "Ġbot": 4995,
      "Ġdivid": 4996,
      "roph": 4997,
      "Ġstable": 4998,
      "acific": 4999,
      "ials": 5000,
      "Ġplate": 5001,
      "Ġkept": 5002,
      "Ġdecl": 5003,
      "Ġwants": 5004,
      "Ġdepression": 5005,
      "ĠArt": 5006,
      "Ġmeasured": 5007,
      "uracy": 5008,
      "Ġroutine": 5009,
      "Ġcontrolled": 5010,
      "-C": 5011,
      "lings": 5012,
      "nit": 5013,
      "pers": 5014,
      "rim": 5015,
      "rors": 5016,
      "Ġ:": 5017,
      "Ġsou": 5018,
      "estyle": 5019,
      "osa": 5020,
      "asting": 5021,
      "ĠStart": 5022,
      "ĠAny": 5023,
      "Ġconsumers": 5024,
      "Ġbegins": 5025,
      "fortun": 5026,
      "Ġchallenging": 5027,
      "ĠJapanese": 5028,
      "Ġprinciples": 5029,
      "omach": 5030,
      "Ġbees": 5031,
      "pert": 5032,
      "Ġcompound": 5033,
      "Ġacad": 5034,
      "Ġopin": 5035,
      "âĢĻt": 5036,
      "Ġimpacts": 5037,
      "Ġwait": 5038,
      "going": 5039,
      "-re": 5040,
      "-related": 5041,
      "ued": 5042,
      "Ġtall": 5043,
      "Ġband": 5044,
      "roke": 5045,
      "Ġoral": 5046,
      "Ġremote": 5047,
      "Ġtransition": 5048,
      "Ġdecisions": 5049,
      "Ġminimum": 5050,
      "Ġseeing": 5051,
      "ĠPlan": 5052,
      "Ġtruly": 5053,
      "ometimes": 5054,
      "hemat": 5055,
      "Your": 5056,
      "lies": 5057,
      "Ġ)": 5058,
      "stract": 5059,
      "Ġstret": 5060,
      "osite": 5061,
      "Ġatom": 5062,
      "Ġcomposition": 5063,
      "Ġspend": 5064,
      "weight": 5065,
      "Ġtwice": 5066,
      "Ġpreviously": 5067,
      "ĠPeople": 5068,
      "Ġstrugg": 5069,
      "gers": 5070,
      "ios": 5071,
      "la": 5072,
      "Ġpounds": 5073,
      "Ġrule": 5074,
      "Ġrocks": 5075,
      "Ġtransl": 5076,
      "Ġattrib": 5077,
      "Ġfung": 5078,
      "Ġfishing": 5079,
      "Ġcapable": 5080,
      "Ġmarketing": 5081,
      "Ġcooling": 5082,
      "Ġdestro": 5083,
      "Ġfixed": 5084,
      "Ġcryst": 5085,
      "43": 5086,
      "Many": 5087,
      "my": 5088,
      "nes": 5089,
      "Ġtried": 5090,
      "Ġpupp": 5091,
      "omb": 5092,
      "Ġstored": 5093,
      "Ġheard": 5094,
      "Ġincl": 5095,
      "apor": 5096,
      "Ġcreation": 5097,
      "Ġensures": 5098,
      "Ġimproving": 5099,
      "Ġbuildings": 5100,
      "Ġversat": 5101,
      "Ġsurvival": 5102,
      "47": 5103,
      "98": 5104,
      "gment": 5105,
      "Ġaer": 5106,
      "itary": 5107,
      "aming": 5108,
      "Ġchronic": 5109,
      "Ġplenty": 5110,
      "ograp": 5111,
      "ĠRead": 5112,
      "exic": 5113,
      "Ġconfirm": 5114,
      "Ġindustrial": 5115,
      "ĠPhys": 5116,
      "Ġexception": 5117,
      "Ġhousehold": 5118,
      "Ġurban": 5119,
      "which": 5120,
      "41": 5121,
      "Most": 5122,
      "Ġnest": 5123,
      "Ġprem": 5124,
      "rowing": 5125,
      "Ġvarieties": 5126,
      "Ġcombined": 5127,
      "Ġeconomy": 5128,
      "38": 5129,
      "flow": 5130,
      "Ġwhatever": 5131,
      "erent": 5132,
      "Ġsyn": 5133,
      "Ġboat": 5134,
      "Ġclosely": 5135,
      "Ġteacher": 5136,
      ");": 5137,
      "pen": 5138,
      "iday": 5139,
      "ĠIns": 5140,
      "ĠSch": 5141,
      "ĠPC": 5142,
      "Ġmap": 5143,
      "ags": 5144,
      "Ġcontrast": 5145,
      "Ġblur": 5146,
      "ologists": 5147,
      "Ġamazing": 5148,
      "Ġplanting": 5149,
      "Ġprogramming": 5150,
      "Ġcertainly": 5151,
      "ĠInstead": 5152,
      "Ġpests": 5153,
      "UR": 5154,
      "gin": 5155,
      "Ġeight": 5156,
      "Ġvs": 5157,
      "Ġsufficient": 5158,
      "astics": 5159,
      "ĠLife": 5160,
      "akers": 5161,
      "Ġdesp": 5162,
      "Ġtechnical": 5163,
      "Ġextensive": 5164,
      "-being": 5165,
      "Ġprompt": 5166,
      "Ġcycl": 5167,
      "Ġbuying": 5168,
      "Ġpictures": 5169,
      "Ġfamiliar": 5170,
      "TION": 5171,
      "Ġrubber": 5172,
      "Ġbudget": 5173,
      "Once": 5174,
      "Ġax": 5175,
      "Ġoven": 5176,
      "Ġpark": 5177,
      "Ġfold": 5178,
      "Ġhon": 5179,
      "cell": 5180,
      "amins": 5181,
      "oper": 5182,
      "Ġshot": 5183,
      "Ġkg": 5184,
      "Ġdiss": 5185,
      "Ġphosph": 5186,
      "Ġphysic": 5187,
      "Ġchoices": 5188,
      "ris": 5189,
      "Ġple": 5190,
      "anes": 5191,
      "ctic": 5192,
      "Ġstomach": 5193,
      "ĠPres": 5194,
      "Ġshared": 5195,
      "Ġleaving": 5196,
      "ardens": 5197,
      "ĠRiver": 5198,
      "Ġcompounds": 5199,
      "ĠGreat": 5200,
      "ĠInter": 5201,
      "Ġsurvey": 5202,
      "Ġvariable": 5203,
      "Ġlighting": 5204,
      "iotic": 5205,
      "ĠTexas": 5206,
      "col": 5207,
      "wing": 5208,
      "Ġcit": 5209,
      "Ġgir": 5210,
      "Ġbear": 5211,
      "Ġexec": 5212,
      "emy": 5213,
      "ĠEm": 5214,
      "Ġvalve": 5215,
      "Ġreference": 5216,
      "Ġfollowed": 5217,
      "Ġpossess": 5218,
      "ĠSea": 5219,
      "Ġabsolute": 5220,
      "Ġmolecules": 5221,
      "ĠDesign": 5222,
      "ĠFlorida": 5223,
      "66": 5224,
      "comes": 5225,
      "eper": 5226,
      "iers": 5227,
      "uly": 5228,
      "Ġsides": 5229,
      "Ġcable": 5230,
      "ĠSy": 5231,
      "Ġspray": 5232,
      "Ġbreeds": 5233,
      "Ġdownload": 5234,
      "athers": 5235,
      "Ġdeliver": 5236,
      "Ġclearly": 5237,
      "Ġdoub": 5238,
      "ocolate": 5239,
      "Dr": 5240,
      "Yes": 5241,
      "ii": 5242,
      "wood": 5243,
      "eria": 5244,
      "itches": 5245,
      "Ġnurs": 5246,
      "ĠTake": 5247,
      "ulf": 5248,
      "ĠSk": 5249,
      "ĠMexic": 5250,
      "ĠBoth": 5251,
      "Ġchain": 5252,
      "ĠHist": 5253,
      "Ġinstit": 5254,
      "Ġexpress": 5255,
      "Ġauthors": 5256,
      "Ġowner": 5257,
      "Ġmedicine": 5258,
      "ĠAbout": 5259,
      "Ġcalcium": 5260,
      "56": 5261,
      "Get": 5262,
      "Ġahead": 5263,
      "arant": 5264,
      "Ġdoll": 5265,
      "ether": 5266,
      "Ġitem": 5267,
      "amental": 5268,
      "ĠOut": 5269,
      "Ġspeaker": 5270,
      "Ġbigger": 5271,
      "Ġembra": 5272,
      "Ġconcern": 5273,
      "Ġconsistent": 5274,
      "Ġindependent": 5275,
      "Ġanxiety": 5276,
      "-on": 5277,
      "tion": 5278,
      "inating": 5279,
      "orous": 5280,
      "ĠTE": 5281,
      "Ġconclusion": 5282,
      "Ġhaz": 5283,
      "pec": 5284,
      "ĠGood": 5285,
      "phone": 5286,
      "Ġacqu": 5287,
      "Ġassign": 5288,
      "Ġbelong": 5289,
      "Ġconcepts": 5290,
      "Ġvulner": 5291,
      "85": 5292,
      "Cons": 5293,
      "Ġthread": 5294,
      "Ġplug": 5295,
      "Ġdecades": 5296,
      "Ġgravity": 5297,
      "Ġsurvive": 5298,
      "Ġschedule": 5299,
      "Ġscenari": 5300,
      "Ġphenomen": 5301,
      "51": 5302,
      "IL": 5303,
      "ait": 5304,
      "itting": 5305,
      "Ġtoler": 5306,
      "ilos": 5307,
      "ĠWind": 5308,
      "Ġenable": 5309,
      "Ġabund": 5310,
      "soft": 5311,
      "Ġhappened": 5312,
      "Ġbalanced": 5313,
      "Ġmixed": 5314,
      "Ġprecise": 5315,
      "Ġproposed": 5316,
      "uits": 5317,
      "Ġwings": 5318,
      "otes": 5319,
      "Ġstre": 5320,
      "Ġconventional": 5321,
      "Ġaccuracy": 5322,
      "pected": 5323,
      "Ġgrade": 5324,
      "Ġemotional": 5325,
      "ĠðŁ": 5326,
      "Ġcab": 5327,
      "Ġinject": 5328,
      "Ġanten": 5329,
      "Ġwheel": 5330,
      "Ġequival": 5331,
      "Ġcalories": 5332,
      "Ġconfig": 5333,
      "Ġfriendly": 5334,
      "Des": 5335,
      "ras": 5336,
      "rating": 5337,
      "Ġtire": 5338,
      "Ġcav": 5339,
      "Ġpure": 5340,
      "Ġpup": 5341,
      "ophy": 5342,
      "Ġsharp": 5343,
      "Ġproducing": 5344,
      "ĠJune": 5345,
      "Ġampl": 5346,
      "Ġcarried": 5347,
      "Ġcreativity": 5348,
      "Ġkinds": 5349,
      "ipping": 5350,
      "ython": 5351,
      "ĠSeptember": 5352,
      "-F": 5353,
      "Cont": 5354,
      "Rec": 5355,
      "een": 5356,
      "requ": 5357,
      "ette": 5358,
      "ĠPower": 5359,
      "ocity": 5360,
      "athy": 5361,
      "Ġcatch": 5362,
      "-time": 5363,
      "Ġbatteries": 5364,
      "Ġvideos": 5365,
      "ĠEngine": 5366,
      "-th": 5367,
      "Ġfasc": 5368,
      "alle": 5369,
      "iration": 5370,
      "acc": 5371,
      "Ġcheese": 5372,
      "Ġrequest": 5373,
      "Ġvalid": 5374,
      "ĠIsland": 5375,
      "Ġhabits": 5376,
      "Ġcollabor": 5377,
      "Ġmedications": 5378,
      "Ġsatisf": 5379,
      "-of": 5380,
      "39": 5381,
      "ugg": 5382,
      "Ġpush": 5383,
      "rot": 5384,
      "Ġrenew": 5385,
      "umps": 5386,
      "ĠLa": 5387,
      "Ġseek": 5388,
      "Ġreduction": 5389,
      "Ġreduces": 5390,
      "Ġmeters": 5391,
      "Ġsensors": 5392,
      "Ġslowly": 5393,
      "ĠConsider": 5394,
      "Ġmolecular": 5395,
      "Ġdefinitely": 5396,
      "espan": 5397,
      "Ġreferred": 5398,
      "46": 5399,
      "According": 5400,
      "che": 5401,
      "Ġtub": 5402,
      "Ġwalking": 5403,
      "Ġpond": 5404,
      "Ġgall": 5405,
      "Ġshapes": 5406,
      "Ġwasn": 5407,
      "ĠGr": 5408,
      "Ġspent": 5409,
      "Ġconsists": 5410,
      "Ġoffice": 5411,
      "Ġdiscovery": 5412,
      "Ġvisible": 5413,
      "brane": 5414,
      "Ġvolun": 5415,
      "Ġoperations": 5416,
      "Ġoperating": 5417,
      "Ġcraft": 5418,
      "ashington": 5419,
      "Ġperspective": 5420,
      "53": 5421,
      "enef": 5422,
      "Ġgun": 5423,
      "Ġyouth": 5424,
      "othes": 5425,
      "ĠSociety": 5426,
      "osen": 5427,
      "ĠFore": 5428,
      "Ġraise": 5429,
      "Ġcalls": 5430,
      "Ġorganisms": 5431,
      "cope": 5432,
      "Ġdrag": 5433,
      "ĠPlant": 5434,
      "Ġconsidering": 5435,
      "Ġgreenhouse": 5436,
      "Ġrepresents": 5437,
      "ĠOrgan": 5438,
      "Ġdefinition": 5439,
      "Conclusion": 5440,
      "ĠBritish": 5441,
      "ĠAugust": 5442,
      "49": 5443,
      "More": 5444,
      "Sp": 5445,
      "Ġfig": 5446,
      "Ġdys": 5447,
      "Ġstation": 5448,
      "ĠCor": 5449,
      "Ġshut": 5450,
      "Ġship": 5451,
      "ĠFrench": 5452,
      "Ġaccum": 5453,
      "Ġdecline": 5454,
      "Ġmotiv": 5455,
      "ĠEnergy": 5456,
      "Ġhydrogen": 5457,
      "Ġguidelines": 5458,
      "fortunately": 5459,
      "ented": 5460,
      "ĠWhere": 5461,
      "Ġriver": 5462,
      "ĠGarden": 5463,
      "Ġwouldn": 5464,
      "Ġedges": 5465,
      "Ġseconds": 5466,
      "Ġpresented": 5467,
      "Ġcooked": 5468,
      "Ġconstantly": 5469,
      "Ġtitle": 5470,
      "ĠPhotos": 5471,
      "Pre": 5472,
      "dent": 5473,
      "Ġsick": 5474,
      "ndom": 5475,
      "ĠpH": 5476,
      "Ġtow": 5477,
      "ighter": 5478,
      "ĠMus": 5479,
      "ibilities": 5480,
      "Ġrecovery": 5481,
      "Ġgenerated": 5482,
      "Ġboil": 5483,
      "ructure": 5484,
      "Ġleaders": 5485,
      "Ġguess": 5486,
      "paration": 5487,
      "Ġbroken": 5488,
      "Ġlabel": 5489,
      "Ġinnovative": 5490,
      "97": 5491,
      "ault": 5492,
      "inations": 5493,
      "eras": 5494,
      "Ġhol": 5495,
      "Ġforget": 5496,
      "Ġstores": 5497,
      "Ġproport": 5498,
      "ĠMc": 5499,
      "ĠMark": 5500,
      "Ġintake": 5501,
      "Ġjump": 5502,
      "Ġsmell": 5503,
      "Ġdecided": 5504,
      "Ġminimal": 5505,
      "Ġfollows": 5506,
      "Ġflower": 5507,
      "Ġindustries": 5508,
      "Ġportion": 5509,
      "espite": 5510,
      "Ġparameters": 5511,
      "IM": 5512,
      "Ġnerve": 5513,
      "ĠSaf": 5514,
      "irds": 5515,
      "ĠProfess": 5516,
      "Ġtopics": 5517,
      "ymph": 5518,
      "Ġcontinued": 5519,
      "Ġreplacement": 5520,
      "Ġfossil": 5521,
      "Pe": 5522,
      "TS": 5523,
      "gans": 5524,
      "ndrome": 5525,
      "Ġlun": 5526,
      "idth": 5527,
      "ĠPat": 5528,
      "rie": 5529,
      "Ġintended": 5530,
      "Ġjud": 5531,
      "Ġcontaining": 5532,
      "agnetic": 5533,
      "Ġcorrectly": 5534,
      "Ġrecognize": 5535,
      "________": 5536,
      "crete": 5537,
      "Ġwaters": 5538,
      "\"Ċ": 5539,
      "Over": 5540,
      "cont": 5541,
      "des": 5542,
      "from": 5543,
      "ipl": 5544,
      "Ġcart": 5545,
      "isher": 5546,
      "ĠSet": 5547,
      "Ġrig": 5548,
      "Ġunless": 5549,
      "ava": 5550,
      "Ġvariables": 5551,
      "Ġrights": 5552,
      "Ġgreatly": 5553,
      "Ġinstalled": 5554,
      "Ġkitchen": 5555,
      "PI": 5556,
      "].": 5557,
      "auc": 5558,
      "Ġmission": 5559,
      "stone": 5560,
      "osion": 5561,
      "aint": 5562,
      "Ġspots": 5563,
      "Ġraised": 5564,
      "Ġages": 5565,
      "Ġoffered": 5566,
      "Ġshell": 5567,
      "Ġpolic": 5568,
      "Ġprotective": 5569,
      "Ġprofessor": 5570,
      "porary": 5571,
      "Ġachieved": 5572,
      "EC": 5573,
      "OL": 5574,
      "Ġfur": 5575,
      "Ġhous": 5576,
      "Ġrecept": 5577,
      "Ġrid": 5578,
      "ĠHy": 5579,
      "Ġadequ": 5580,
      "ĠUp": 5581,
      "ifferent": 5582,
      "Ġexpression": 5583,
      "Ġdefic": 5584,
      "Ġoccup": 5585,
      "Ġphysics": 5586,
      "pring": 5587,
      "Ġturning": 5588,
      "Ġinteraction": 5589,
      "Ġcapture": 5590,
      "Ġfurniture": 5591,
      "91": 5592,
      "lim": 5593,
      "Ġconvert": 5594,
      "Ġexcept": 5595,
      "Ġsudd": 5596,
      "Ġoverl": 5597,
      "Ġknowing": 5598,
      "Ġproduces": 5599,
      "Ġplane": 5600,
      "Ġdietary": 5601,
      "Ġanswers": 5602,
      "Ġturns": 5603,
      "ĠTechnology": 5604,
      "Ġathlet": 5605,
      "Ġsudden": 5606,
      "bage": 5607,
      "gy": 5608,
      "iated": 5609,
      "xid": 5610,
      "ïĤ": 5611,
      "reate": 5612,
      "Ġsod": 5613,
      "Ġfirm": 5614,
      "Ġmort": 5615,
      "Ġliver": 5616,
      "ĠDec": 5617,
      "Ġotherwise": 5618,
      "Ġperman": 5619,
      "rence": 5620,
      "Ġminim": 5621,
      "Ġclassroom": 5622,
      "Ġstructural": 5623,
      "Ġprotected": 5624,
      "ĠExpl": 5625,
      "Ġfundamental": 5626,
      "Ġfault": 5627,
      "Ġvertical": 5628,
      "Ġdespite": 5629,
      "54": 5630,
      "bru": 5631,
      "pret": 5632,
      "ĠÐ": 5633,
      "Ġtour": 5634,
      "Ġindu": 5635,
      "icing": 5636,
      "cember": 5637,
      "ads": 5638,
      "Ġvast": 5639,
      "Ġnotes": 5640,
      "ĠEast": 5641,
      "Ġlifestyle": 5642,
      "Ġvitamins": 5643,
      "Ġrobot": 5644,
      "ĠJanuary": 5645,
      "EL": 5646,
      "Te": 5647,
      "ker": 5648,
      "Ġ{": 5649,
      "Ġtut": 5650,
      "atin": 5651,
      "anish": 5652,
      "edia": 5653,
      "Ġdent": 5654,
      "ĠSee": 5655,
      "ĠWild": 5656,
      "ĠPacific": 5657,
      "rief": 5658,
      "ĠEv": 5659,
      "Ġcompare": 5660,
      "Ġoutcomes": 5661,
      "ondon": 5662,
      "Ġplayed": 5663,
      "Ġsupports": 5664,
      "Ġdiscussion": 5665,
      "Or": 5666,
      "Ġtherap": 5667,
      "Ġinner": 5668,
      "arter": 5669,
      "olf": 5670,
      "cel": 5671,
      "charge": 5672,
      "iform": 5673,
      "ĠSub": 5674,
      "Ġcomment": 5675,
      "ocy": 5676,
      "ĠEM": 5677,
      "asts": 5678,
      "Ġuniverse": 5679,
      "âĢĶâĢĶ": 5680,
      "Ġrecorded": 5681,
      "Ġlinked": 5682,
      "ypes": 5683,
      "ĠOctober": 5684,
      "96": 5685,
      "Ġpink": 5686,
      "Ġden": 5687,
      "Ġgather": 5688,
      "ĠCheck": 5689,
      "antic": 5690,
      "ĠWest": 5691,
      "Ġvict": 5692,
      "Ġviol": 5693,
      "Ġlooked": 5694,
      "Ġidentity": 5695,
      "ï¿½ï¿½ï¿½ï¿½": 5696,
      "Ġvelocity": 5697,
      "\"The": 5698,
      "-D": 5699,
      "Fe": 5700,
      "Use": 5701,
      "Ġaw": 5702,
      "Ġdress": 5703,
      "icon": 5704,
      "Ġnar": 5705,
      "etal": 5706,
      "ceed": 5707,
      "urric": 5708,
      "Ġalign": 5709,
      "antly": 5710,
      "ĠWashington": 5711,
      "Ġusage": 5712,
      "ĠMicro": 5713,
      "earchers": 5714,
      "Ġpoison": 5715,
      "Ġhardware": 5716,
      "Ġmovements": 5717,
      "ognitive": 5718,
      "Ġturned": 5719,
      "ĠCollege": 5720,
      "Ġdiagnosis": 5721,
      "ĠRemember": 5722,
      "Ġintelligence": 5723,
      "anc": 5724,
      "Ġdust": 5725,
      "ompl": 5726,
      "ĠType": 5727,
      "ĠOk": 5728,
      "Ġdisorders": 5729,
      "Ġpeace": 5730,
      "Ġrecipe": 5731,
      "Ġrab": 5732,
      "Ġgrows": 5733,
      "Ġskill": 5734,
      "Ġexploring": 5735,
      "ĠAtl": 5736,
      "Ġsubstances": 5737,
      "Although": 5738,
      "Ġbags": 5739,
      "Ġsequence": 5740,
      "Ġcloser": 5741,
      "iance": 5742,
      "part": 5743,
      "Ġcul": 5744,
      "Ġdu": 5745,
      "sts": 5746,
      "Ġorange": 5747,
      "ĠCat": 5748,
      "ache": 5749,
      "ĠMain": 5750,
      "Ġenab": 5751,
      "pling": 5752,
      "Ġdecide": 5753,
      "Ġsupported": 5754,
      "Ġdelicious": 5755,
      "Ġfeedback": 5756,
      "ĠGoogle": 5757,
      "Ġbreath": 5758,
      "Ġswimming": 5759,
      "52": 5760,
      "Ġ`": 5761,
      "heet": 5762,
      "Ġfost": 5763,
      "Ġforces": 5764,
      "ĠAng": 5765,
      "ĠSum": 5766,
      "aboration": 5767,
      "Ġchocolate": 5768,
      "ĠOff": 5769,
      "Ġinsights": 5770,
      "ĠThrough": 5771,
      "Ġmicros": 5772,
      "Ġfacilities": 5773,
      "Ġfacilit": 5774,
      "ĠColor": 5775,
      "Ġrapidly": 5776,
      "Ġbehaviors": 5777,
      "Ġmobile": 5778,
      "bruary": 5779,
      "Let": 5780,
      "SI": 5781,
      "iest": 5782,
      "tt": 5783,
      "ÂŃ": 5784,
      "Ġcas": 5785,
      "icine": 5786,
      "Ġlux": 5787,
      "etics": 5788,
      "ĠAqu": 5789,
      "illage": 5790,
      "Ġplus": 5791,
      "Ġknows": 5792,
      "ossible": 5793,
      "Ġregul": 5794,
      "Ġmedication": 5795,
      "Ġmillions": 5796,
      "Ġsubstance": 5797,
      "Ġbrands": 5798,
      "Ġcomparison": 5799,
      "Ġvirtual": 5800,
      "Ġchromos": 5801,
      "-B": 5802,
      "New": 5803,
      "Under": 5804,
      "ked": 5805,
      "vis": 5806,
      "orter": 5807,
      "Ġgardens": 5808,
      "ĠHave": 5809,
      "ĠRob": 5810,
      "Ġworse": 5811,
      "angered": 5812,
      "Ġletter": 5813,
      "Ġremaining": 5814,
      "Ġlawn": 5815,
      "Ġjobs": 5816,
      "Ġinformed": 5817,
      "Ġment": 5818,
      "ĠdB": 5819,
      "ĠSil": 5820,
      "Ġcompr": 5821,
      "Ġunw": 5822,
      "ifications": 5823,
      "ĠJuly": 5824,
      "Ġacids": 5825,
      "Ġminor": 5826,
      "Ġmeasuring": 5827,
      "Ġretur": 5828,
      "Ġcourses": 5829,
      "Ġcompetition": 5830,
      "Ġarrange": 5831,
      "Ġpowder": 5832,
      "Ġclinical": 5833,
      "Ġinflammation": 5834,
      ".[": 5835,
      "]ĊĊ": 5836,
      "Ġion": 5837,
      "Ġtropical": 5838,
      "Ġov": 5839,
      "Ġlinks": 5840,
      "idents": 5841,
      "raction": 5842,
      "ifies": 5843,
      "ĠBay": 5844,
      "ĠLike": 5845,
      "Ġcommand": 5846,
      "Ġrandom": 5847,
      "ffective": 5848,
      "Ġaccident": 5849,
      "Ġamb": 5850,
      "Ġattached": 5851,
      "Ġlarv": 5852,
      "ucks": 5853,
      "Ġworldwide": 5854,
      "Ġpassed": 5855,
      "Ġfemales": 5856,
      "Ġagricultural": 5857,
      "Ġcredit": 5858,
      "ĠJohn": 5859,
      "ĠPhotoshop": 5860,
      "MS": 5861,
      "Not": 5862,
      "Ġtube": 5863,
      "urb": 5864,
      "Ġstorm": 5865,
      "eles": 5866,
      "Ġhealing": 5867,
      "Ġshift": 5868,
      "ĠOcean": 5869,
      "Ġdispos": 5870,
      "Ġadds": 5871,
      "ĠVal": 5872,
      "Ġtransp": 5873,
      "Ġrestaur": 5874,
      "Ġputting": 5875,
      "Ġhydro": 5876,
      "Ġinfected": 5877,
      "Ġimagine": 5878,
      "Ġmanufacturers": 5879,
      "Ġknee": 5880,
      "Ġpilot": 5881,
      "88": 5882,
      "92": 5883,
      "Hz": 5884,
      "using": 5885,
      "urg": 5886,
      "Ġstands": 5887,
      "Ġorgans": 5888,
      "ĠRuss": 5889,
      "Ġtrained": 5890,
      "Ġmining": 5891,
      "Ġfoundation": 5892,
      "Ġends": 5893,
      "Ġengaging": 5894,
      "Ġphotograp": 5895,
      "Ġaccessible": 5896,
      "Ġsuccessfully": 5897,
      "Ġexciting": 5898,
      "Ġemployees": 5899,
      "Ġinjuries": 5900,
      "ĠGuide": 5901,
      "Ġecosystems": 5902,
      "ĠLearning": 5903,
      "ĠAssociation": 5904,
      "ivery": 5905,
      "¤į": 5906,
      "Ġtick": 5907,
      "Ġdream": 5908,
      "Ġloose": 5909,
      "othe": 5910,
      "Ġexchange": 5911,
      "ĠMach": 5912,
      "ĠDise": 5913,
      "ĠFound": 5914,
      "ĠExt": 5915,
      "Ġmeals": 5916,
      "Ġclosed": 5917,
      "Ġmanip": 5918,
      "Ġprey": 5919,
      "ontal": 5920,
      "Ġpotat": 5921,
      "Ġsecret": 5922,
      "aws": 5923,
      "Ġprevention": 5924,
      "Ġfinish": 5925,
      "Ġnetworks": 5926,
      "Ġentirely": 5927,
      "Ġremoving": 5928,
      "ĠAfrican": 5929,
      "Ġbelief": 5930,
      "Ġemergency": 5931,
      "Ġdigestive": 5932,
      "Ġequivalent": 5933,
      "aired": 5934,
      "oke": 5935,
      "win": 5936,
      "yroid": 5937,
      "ushed": 5938,
      "ially": 5939,
      "Ġcovers": 5940,
      "Ġrelig": 5941,
      "Ġsolve": 5942,
      "oyal": 5943,
      "Ġkeeps": 5944,
      "Ġpossibly": 5945,
      "Ġserves": 5946,
      "ĠThus": 5947,
      "brid": 5948,
      "Ġbiggest": 5949,
      "Ġmoves": 5950,
      "Ġvegetable": 5951,
      "Ġfailure": 5952,
      "Ġinterface": 5953,
      "Ġacademic": 5954,
      "72": 5955,
      "Me": 5956,
      "NS": 5957,
      "zer": 5958,
      "Ġaest": 5959,
      "Ġfle": 5960,
      "Ġfelt": 5961,
      "asure": 5962,
      "Ġhoney": 5963,
      "elcome": 5964,
      "Ġpros": 5965,
      "ĠLondon": 5966,
      "Ġresil": 5967,
      "Ġfewer": 5968,
      "Ġflo": 5969,
      "ĠVol": 5970,
      "riculture": 5971,
      "upport": 5972,
      "Ġcoastal": 5973,
      "ĠFurthermore": 5974,
      "aj": 5975,
      "bles": 5976,
      "under": 5977,
      "Ġ\\": 5978,
      "Ġfinger": 5979,
      "lements": 5980,
      "rooms": 5981,
      "ĠII": 5982,
      "eless": 5983,
      "ĠCy": 5984,
      "acters": 5985,
      "orses": 5986,
      "Ġtrade": 5987,
      "Ġpreventing": 5988,
      "CH": 5989,
      "Rem": 5990,
      "vit": 5991,
      "ws": 5992,
      "isation": 5993,
      "Ġmes": 5994,
      "ĠSer": 5995,
      "Ġwearing": 5996,
      "ĠHis": 5997,
      "Ġkm": 5998,
      "Ġprev": 5999,
      "Ġscr": 6000,
      "Ġphilos": 6001,
      "Ġaging": 6002,
      "Ġsky": 6003,
      "Ġformer": 6004,
      "Ġminimize": 6005,
      "ĠProt": 6006,
      "Ġpainting": 6007,
      "Ġnearby": 6008,
      "Ġmeeting": 6009,
      "Ġastron": 6010,
      "Ġadministration": 6011,
      "Ġdedicated": 6012,
      "',": 6013,
      "Com": 6014,
      "SP": 6015,
      "ui": 6016,
      "Ġbio": 6017,
      "Ġdram": 6018,
      "Ġhop": 6019,
      "rag": 6020,
      "ĠNet": 6021,
      "berry": 6022,
      "Ġbasically": 6023,
      "Ġreports": 6024,
      "Ġmassive": 6025,
      "Ġholds": 6026,
      "Ġcollected": 6027,
      "Ġirrit": 6028,
      "Ġmissing": 6029,
      "Ġpolitical": 6030,
      "Ġhospital": 6031,
      "Ġnervous": 6032,
      "From": 6033,
      "Ind": 6034,
      "Sc": 6035,
      "ford": 6036,
      "how": 6037,
      "Ġske": 6038,
      "Ġcities": 6039,
      "Ġwoman": 6040,
      "ĠMal": 6041,
      "Ġtele": 6042,
      "Ġunivers": 6043,
      "Ġbrings": 6044,
      "ĠAnother": 6045,
      "Ġfitness": 6046,
      "Ġbabies": 6047,
      "Ġincreasingly": 6048,
      "Ġhabitats": 6049,
      "Ġexplained": 6050,
      "Ġdiameter": 6051,
      "Ġthermal": 6052,
      "Ġmac": 6053,
      "illa": 6054,
      "Ġneck": 6055,
      "ĠRet": 6056,
      "Ġmanaged": 6057,
      "appe": 6058,
      "Ġparty": 6059,
      "Ġremark": 6060,
      "Ġexperiments": 6061,
      "Ġtested": 6062,
      "Ġfinally": 6063,
      "Ġerrors": 6064,
      "idden": 6065,
      "riction": 6066,
      "Ġtissues": 6067,
      "Ġpanel": 6068,
      "ĠAcad": 6069,
      "Ġmountain": 6070,
      "Ġexpertise": 6071,
      "Ġvibrant": 6072,
      "Ġconsequences": 6073,
      "Ġlibrary": 6074,
      "AB": 6075,
      "Reg": 6076,
      "but": 6077,
      "uing": 6078,
      "Ġmm": 6079,
      "Ġmol": 6080,
      "ĠEc": 6081,
      "ĠNovember": 6082,
      "erved": 6083,
      "Ġbuff": 6084,
      "Ġtreats": 6085,
      "ĠProject": 6086,
      "Ġpurs": 6087,
      "Ġruns": 6088,
      "Ġavailability": 6089,
      "Ġinvestment": 6090,
      "Ġassessment": 6091,
      "Ġinnovation": 6092,
      "Ġhunting": 6093,
      "Ġdestroy": 6094,
      "bra": 6095,
      "lines": 6096,
      "uzz": 6097,
      "imental": 6098,
      "idity": 6099,
      "ĠMount": 6100,
      "Ġneuro": 6101,
      "alled": 6102,
      "Ġincome": 6103,
      "Ġunlike": 6104,
      "Ġcolle": 6105,
      "Ġbrush": 6106,
      "Ġexplains": 6107,
      "ioxid": 6108,
      "Ġlessons": 6109,
      "Ġstudying": 6110,
      "bris": 6111,
      "Ġopposite": 6112,
      "ĠEngland": 6113,
      "Ġnutritional": 6114,
      "Ġrevolution": 6115,
      ",ĊĊ": 6116,
      "uum": 6117,
      "you": 6118,
      "Ġ>": 6119,
      "Ġsight": 6120,
      "Ġbeans": 6121,
      "stream": 6122,
      "Ġseven": 6123,
      "ĠHome": 6124,
      "Ġdishes": 6125,
      "Ġtransmission": 6126,
      "Ġcouldn": 6127,
      "Ġexplan": 6128,
      "Ġmeasurements": 6129,
      "ouncil": 6130,
      "Ġdiscussed": 6131,
      "Ġinteractions": 6132,
      "ĠInternet": 6133,
      "Ġlenses": 6134,
      "Ġvessels": 6135,
      "??": 6136,
      "Before": 6137,
      "VID": 6138,
      "esity": 6139,
      "Ġfol": 6140,
      "Ġmath": 6141,
      "Ġlic": 6142,
      "estic": 6143,
      "Ġshif": 6144,
      "ĠDav": 6145,
      "Ġmanner": 6146,
      "Ġoverw": 6147,
      "Ġears": 6148,
      "Ġcreatures": 6149,
      "Ġconfidence": 6150,
      "Ġopening": 6151,
      "Ġlisted": 6152,
      "Ġsubstant": 6153,
      "Ġfertilizer": 6154,
      "Ġflexibility": 6155,
      "FA": 6156,
      "UV": 6157,
      "normal": 6158,
      "rink": 6159,
      "Ġsac": 6160,
      "Ġdeeper": 6161,
      "ogram": 6162,
      "Ġrod": 6163,
      "Ġaccompl": 6164,
      "Ġdied": 6165,
      "Ġlocations": 6166,
      "Ġcompleted": 6167,
      "arsh": 6168,
      "Ġguarant": 6169,
      "Ġwindows": 6170,
      "Ġsustainability": 6171,
      "Ġobtained": 6172,
      "Ġferment": 6173,
      "-A": 6174,
      "57": 6175,
      "ener": 6176,
      "Ġalert": 6177,
      "unning": 6178,
      "Ġsharing": 6179,
      "ĠFace": 6180,
      "rium": 6181,
      "eping": 6182,
      "Ġpreparation": 6183,
      "Ġanywhere": 6184,
      "Ġhelped": 6185,
      "Ġdioxide": 6186,
      "Ġregulations": 6187,
      "ĠKnow": 6188,
      "Ġobst": 6189,
      "ocket": 6190,
      "-sc": 6191,
      "Ġcalm": 6192,
      "Ġresponses": 6193,
      "Ġmechanisms": 6194,
      "Ġconcerned": 6195,
      "Ġsatell": 6196,
      "Ġsuffer": 6197,
      "-the": 6198,
      "Le": 6199,
      "ĠÎ": 6200,
      "onge": 6201,
      "Ġcoc": 6202,
      "Ġwish": 6203,
      "Ġgro": 6204,
      "ama": 6205,
      "ĠBro": 6206,
      "Ġatoms": 6207,
      "Ġshad": 6208,
      "Ġcoal": 6209,
      "Ġextended": 6210,
      "Ġequation": 6211,
      "Ġsupporting": 6212,
      "Ġbelt": 6213,
      "Ġretail": 6214,
      "Ġcircum": 6215,
      "Ġimprovement": 6216,
      "ĠClass": 6217,
      "ĠNews": 6218,
      "ĠDecember": 6219,
      "ĠSpace": 6220,
      "Ġdynamic": 6221,
      "Ġvolunte": 6222,
      "Ġpolicies": 6223,
      ";Ċ": 6224,
      "De": 6225,
      "fit": 6226,
      "gl": 6227,
      "Ġ%": 6228,
      "Ġsan": 6229,
      "Ġcater": 6230,
      "itan": 6231,
      "asive": 6232,
      "Ġreward": 6233,
      "otton": 6234,
      "ifier": 6235,
      "Ġhaven": 6236,
      "ĠMich": 6237,
      "ockey": 6238,
      "agement": 6239,
      "Ġeffectiveness": 6240,
      "Ġdistingu": 6241,
      "Ġapproaches": 6242,
      "Ġfacing": 6243,
      "Ġmagnet": 6244,
      "Ġballs": 6245,
      "ĠControl": 6246,
      "Â°C": 6247,
      "Ġpromoting": 6248,
      "Ġpreferences": 6249,
      "Ġconvenient": 6250,
      "-P": 6251,
      "Since": 6252,
      "down": 6253,
      "Ġmul": 6254,
      "Ġgases": 6255,
      "Ġstain": 6256,
      "oding": 6257,
      "Ġneur": 6258,
      "ĠDI": 6259,
      "rue": 6260,
      "Ġunus": 6261,
      "Ġplanted": 6262,
      "ĠKing": 6263,
      "Ġpersist": 6264,
      "Ġbiology": 6265,
      "Ġspecialized": 6266,
      "coming": 6267,
      "Ġtrouble": 6268,
      "forcement": 6269,
      "Ġbiodiversity": 6270,
      "Ġdivided": 6271,
      "-E": 6272,
      "Â·": 6273,
      "Ġmales": 6274,
      "Ġdial": 6275,
      "astern": 6276,
      "Ġli": 6277,
      "uses": 6278,
      "ĠTime": 6279,
      "ĠToday": 6280,
      "Ġstability": 6281,
      "Ġstroke": 6282,
      "Ġasking": 6283,
      "ocking": 6284,
      "ĠFarming": 6285,
      "ĠLight": 6286,
      "aret": 6287,
      "ĠYear": 6288,
      "Ġindoor": 6289,
      "yself": 6290,
      "Ġunderlying": 6291,
      "Ġnovel": 6292,
      "Ġlitter": 6293,
      "Ġcontainers": 6294,
      "Ġselecting": 6295,
      "Ġbreathing": 6296,
      "ĠGerman": 6297,
      "Ġneutral": 6298,
      "CD": 6299,
      "erior": 6300,
      "Ġcivil": 6301,
      "arn": 6302,
      "Ġlies": 6303,
      "Ġsug": 6304,
      "Ġshall": 6305,
      "ĠLow": 6306,
      "Ġpeak": 6307,
      "Ġsauce": 6308,
      "Ġregist": 6309,
      "Ġextent": 6310,
      "Ġextend": 6311,
      "Ġmetals": 6312,
      "Ġcollaboration": 6313,
      "Ġfunding": 6314,
      "Ġmathemat": 6315,
      "Ġcontinuous": 6316,
      "Ġsuscept": 6317,
      "ĠChildren": 6318,
      "¤įĊ": 6319,
      "\"We": 6320,
      "/s": 6321,
      "93": 6322,
      "Add": 6323,
      "gr": 6324,
      "alysis": 6325,
      "Ġreb": 6326,
      "Ġnation": 6327,
      "Ġnames": 6328,
      "Ġgal": 6329,
      "Ġconcrete": 6330,
      "ĠClean": 6331,
      "ĠMiss": 6332,
      "ĠDef": 6333,
      "izza": 6334,
      "Ġspeaking": 6335,
      "Ġtruth": 6336,
      "Ġinterior": 6337,
      "Ġeveryday": 6338,
      "Ġinstruction": 6339,
      "Ġcurric": 6340,
      "Ġoperate": 6341,
      "Ġreplaced": 6342,
      "Ġlifespan": 6343,
      "ĠMedical": 6344,
      "ĠRegular": 6345,
      "orgia": 6346,
      "Ġhistorical": 6347,
      "Ġoxidation": 6348,
      "nitus": 6349,
      "ĠMexico": 6350,
      "58": 6351,
      "First": 6352,
      "RSA": 6353,
      "bow": 6354,
      "entle": 6355,
      "char": 6356,
      "eling": 6357,
      "ĠPlease": 6358,
      "rix": 6359,
      "Ġintense": 6360,
      "Ġblade": 6361,
      "Ġcolon": 6362,
      "Ġstudied": 6363,
      "Ġworkers": 6364,
      "Ġattacks": 6365,
      "Ġreaders": 6366,
      "Ġcareful": 6367,
      "airy": 6368,
      "Ġcharacters": 6369,
      "Ġcommunicate": 6370,
      "Ġcameras": 6371,
      "Ġhimself": 6372,
      "Ġinstallation": 6373,
      "ĠWindows": 6374,
      ".m": 6375,
      "77": 6376,
      "bor": 6377,
      "Ġtor": 6378,
      "Ġmir": 6379,
      "Ġmyself": 6380,
      "otype": 6381,
      "ĠTur": 6382,
      "ĠWood": 6383,
      "Ġleak": 6384,
      "Ġnoted": 6385,
      "Ġthanks": 6386,
      "Ġinterpret": 6387,
      "Ġreput": 6388,
      "ĠWeb": 6389,
      "Ġcyber": 6390,
      "Ġdetermining": 6391,
      "ĠExam": 6392,
      "Ġconnections": 6393,
      "reshold": 6394,
      "Ġlaunch": 6395,
      "Ġphotography": 6396,
      "Ġtrends": 6397,
      "Ġopinion": 6398,
      "AP": 6399,
      "GB": 6400,
      "ias": 6401,
      "iam": 6402,
      "oz": 6403,
      "rical": 6404,
      "Ġped": 6405,
      "Ġbike": 6406,
      "ĠMac": 6407,
      "ĠBre": 6408,
      "ĠBel": 6409,
      "alls": 6410,
      "Ġcomposed": 6411,
      "ources": 6412,
      "ĠNatural": 6413,
      "Ġteen": 6414,
      "Ġrefrig": 6415,
      "Ġlesson": 6416,
      "Ġfeelings": 6417,
      "Ġstanding": 6418,
      "ometer": 6419,
      "Ġguidance": 6420,
      "Ġprocedures": 6421,
      "Ġbutterfly": 6422,
      "LA": 6423,
      "fra": 6424,
      "Ġwrote": 6425,
      "Ġbaking": 6426,
      "Ġeco": 6427,
      "Ġreached": 6428,
      "olve": 6429,
      "igue": 6430,
      "igital": 6431,
      "irts": 6432,
      "Ġalter": 6433,
      "Ġring": 6434,
      "ella": 6435,
      "Ġblend": 6436,
      "Ġblind": 6437,
      "Ġseeking": 6438,
      "Ġinsul": 6439,
      "Ġinsert": 6440,
      "Ġcorner": 6441,
      "Ġenth": 6442,
      "Ġstrain": 6443,
      "ounced": 6444,
      "Ġindicates": 6445,
      "Ġreactions": 6446,
      "Ġresistant": 6447,
      "Ġdriver": 6448,
      "Ġalgorithm": 6449,
      "ĠService": 6450,
      "Ġversatile": 6451,
      "enefits": 6452,
      "HO": 6453,
      "bility": 6454,
      "cher": 6455,
      "gal": 6456,
      "no": 6457,
      "Ġ@": 6458,
      "hent": 6459,
      "Ġfing": 6460,
      "ĠTer": 6461,
      "ĠIS": 6462,
      "Ġconv": 6463,
      "quit": 6464,
      "Ġdebris": 6465,
      "ĠMuse": 6466,
      "ĠPen": 6467,
      "Ġseal": 6468,
      "ĠDist": 6469,
      "Ġabilities": 6470,
      "ournal": 6471,
      "ĠLook": 6472,
      "Ġcontamin": 6473,
      "Ġmeant": 6474,
      "Ġhealthier": 6475,
      "Ġtransact": 6476,
      "Ġinspect": 6477,
      "Ġembry": 6478,
      "Ġglasses": 6479,
      "Ġexercises": 6480,
      "Ġbelieved": 6481,
      "Ġoccasion": 6482,
      "</": 6483,
      "EO": 6484,
      "uous": 6485,
      "Ð¸": 6486,
      "heets": 6487,
      "reens": 6488,
      "Ġsen": 6489,
      "Ġwax": 6490,
      "Ġpaid": 6491,
      "ani": 6492,
      "Ġhorses": 6493,
      "Ġisland": 6494,
      "Ġgender": 6495,
      "ĠPet": 6496,
      "ĠRich": 6497,
      "ĠGold": 6498,
      "Ġmanual": 6499,
      "Ġtrail": 6500,
      "ubs": 6501,
      "Ġformula": 6502,
      "Ġcorpor": 6503,
      "Ġherb": 6504,
      "Ġpossibility": 6505,
      "Ġserved": 6506,
      "Ġthoughts": 6507,
      "Ġcomputing": 6508,
      "Ġsales": 6509,
      "Ġstronger": 6510,
      "Ġcardi": 6511,
      "Ġcategory": 6512,
      "Ġtrigger": 6513,
      "ĠTwo": 6514,
      "Ġprices": 6515,
      "##": 6516,
      "63": 6517,
      "CC": 6518,
      "ront": 6519,
      "Ġcast": 6520,
      "Ġcards": 6521,
      "owered": 6522,
      "ĠTV": 6523,
      "iratory": 6524,
      "riers": 6525,
      "Ġcolumn": 6526,
      "Ġarticles": 6527,
      "Ġpersonality": 6528,
      "Ġdelivery": 6529,
      "Ġpesticides": 6530,
      "Ġsubjects": 6531,
      "Ġautomatically": 6532,
      "Ġlandsc": 6533,
      "while": 6534,
      "rastructure": 6535,
      "Ġultimately": 6536,
      "imensional": 6537,
      "Ġchannel": 6538,
      "Ġassembly": 6539,
      "94": 6540,
      "cest": 6541,
      "Ð°": 6542,
      "Ġtip": 6543,
      "itivity": 6544,
      "Ġreef": 6545,
      "Ġbee": 6546,
      "elly": 6547,
      "osquit": 6548,
      "ĠOb": 6549,
      "Ġclothes": 6550,
      "tebr": 6551,
      "Ġproven": 6552,
      "Ġfamous": 6553,
      "Ġfunctionality": 6554,
      "Ġzone": 6555,
      "Ġhearts": 6556,
      "ĠCommon": 6557,
      "aughter": 6558,
      "haust": 6559,
      "ĠSuper": 6560,
      "Ġappreciate": 6561,
      "Ġsediment": 6562,
      "Ġvulnerable": 6563,
      "Rel": 6564,
      "then": 6565,
      "Ġluck": 6566,
      "Ġlaser": 6567,
      "ĠSal": 6568,
      "Ġdealing": 6569,
      "ria": 6570,
      "atching": 6571,
      "Ġconsume": 6572,
      "Ġsentence": 6573,
      "Ġtransportation": 6574,
      "Ġbathroom": 6575,
      "scill": 6576,
      "Ġbranches": 6577,
      "Ġderived": 6578,
      "Ġconclud": 6579,
      "-level": 6580,
      "Ġlungs": 6581,
      "(s": 6582,
      "Ref": 6583,
      "oons": 6584,
      "uis": 6585,
      "zym": 6586,
      "Ġmere": 6587,
      "Ġyes": 6588,
      "ĠSpecial": 6589,
      "ĠPol": 6590,
      "ĠBack": 6591,
      "agues": 6592,
      "ĠâĢĺ": 6593,
      "Ġindex": 6594,
      "ĠStand": 6595,
      "Ġvet": 6596,
      "Ġartists": 6597,
      "Ġsecondary": 6598,
      "Ġmoved": 6599,
      "Don": 6600,
      "Tra": 6601,
      "ham": 6602,
      "lin": 6603,
      "well": 6604,
      "Â¬": 6605,
      "ÃĿ": 6606,
      "Ġtaught": 6607,
      "Ġselling": 6608,
      "Ġpages": 6609,
      "Ġmood": 6610,
      "Ġinch": 6611,
      "Ġthreshold": 6612,
      "Ġye": 6613,
      "Ġgone": 6614,
      "Ġweeds": 6615,
      "ĠPort": 6616,
      "Ġchol": 6617,
      "plant": 6618,
      "Ġclar": 6619,
      "Ġspeak": 6620,
      "Ġspeech": 6621,
      "Ġsyndrome": 6622,
      "Ġdiagram": 6623,
      "Ġinterview": 6624,
      "Ġexploration": 6625,
      "Ġmeter": 6626,
      "Ġmicrob": 6627,
      "ĠStudents": 6628,
      "Ġcampa": 6629,
      "Ġveterin": 6630,
      "Using": 6631,
      "Ġmammals": 6632,
      ".C": 6633,
      "86": 6634,
      "AA": 6635,
      "App": 6636,
      "band": 6637,
      "men": 6638,
      "point": 6639,
      "Ġson": 6640,
      "Ġsouthern": 6641,
      "Ġow": 6642,
      "Ġpun": 6643,
      "Ġlymph": 6644,
      "Ġretain": 6645,
      "Ġnose": 6646,
      "ogy": 6647,
      "acts": 6648,
      "Ġkelp": 6649,
      "agers": 6650,
      "ulture": 6651,
      "enses": 6652,
      "Ġsched": 6653,
      "berries": 6654,
      "Ġtrad": 6655,
      "Ġassume": 6656,
      "Ġattend": 6657,
      "Ġbreaking": 6658,
      "Ġfacts": 6659,
      "ĠAmericans": 6660,
      "Ġsteam": 6661,
      "Ġgrey": 6662,
      "Ġfrequent": 6663,
      "Ġintegrated": 6664,
      "Ġgradually": 6665,
      "Ġdistinctive": 6666,
      "Ġdiamond": 6667,
      "Ġbowl": 6668,
      "allel": 6669,
      "Â¬ÃĿ": 6670,
      "Read": 6671,
      "aul": 6672,
      "oil": 6673,
      "Ġtast": 6674,
      "inction": 6675,
      "ora": 6676,
      "Ġtoys": 6677,
      "ĠIN": 6678,
      "ĠPython": 6679,
      "ĠBas": 6680,
      "ĠBefore": 6681,
      "rian": 6682,
      "ĠNA": 6683,
      "Ġroles": 6684,
      "Ġtraits": 6685,
      "Ġourselves": 6686,
      "Ġhandling": 6687,
      "Ġcomplement": 6688,
      "Ġoils": 6689,
      "ĠExper": 6690,
      "Ġsmoke": 6691,
      "Ġresponsibility": 6692,
      "Ġparticipate": 6693,
      "ĠMedicine": 6694,
      "ĠMoreover": 6695,
      "Ġprinciple": 6696,
      "Ġdemonstrated": 6697,
      "Ġincorporating": 6698,
      "uilding": 6699,
      "ĠCounty": 6700,
      "/a": 6701,
      "62": 6702,
      "Every": 6703,
      "Ġsch": 6704,
      "Ġpit": 6705,
      "Ġpand": 6706,
      "Ġflying": 6707,
      "ĠChe": 6708,
      "opy": 6709,
      "ĠMot": 6710,
      "ĠPost": 6711,
      "ĠDel": 6712,
      "Ġnoticed": 6713,
      "Ġouter": 6714,
      "Ġimpossible": 6715,
      "Ġgrand": 6716,
      "Ġcurve": 6717,
      "Ġequipped": 6718,
      "exp": 6719,
      "Ġecological": 6720,
      "-shaped": 6721,
      "Ġfederal": 6722,
      "pecific": 6723,
      "Ġpermanent": 6724,
      "ĠFoundation": 6725,
      "Because": 6726,
      "nel": 6727,
      "Ġid": 6728,
      "Ġpipe": 6729,
      "Ġrect": 6730,
      "Ġreaches": 6731,
      "Ġgentle": 6732,
      "ĠTop": 6733,
      "ĠAD": 6734,
      "uled": 6735,
      "ĠSometimes": 6736,
      "adder": 6737,
      "Ġcompl": 6738,
      "Ġintensity": 6739,
      "Ġtea": 6740,
      "reatment": 6741,
      "Ġmanaging": 6742,
      "Ġflash": 6743,
      "Ġsupposed": 6744,
      "ĠPlay": 6745,
      "Ġcapabilities": 6746,
      "Ġantioxid": 6747,
      "Ġoccurred": 6748,
      "ĠOnly": 6749,
      "Ġvacuum": 6750,
      "Ġcopper": 6751,
      "Ġwaiting": 6752,
      "Ġaudience": 6753,
      "Ġdrivers": 6754,
      "Ġlaboratory": 6755,
      "Ġeliminate": 6756,
      "'.": 6757,
      "ĠTHE": 6758,
      "olving": 6759,
      "ĠIP": 6760,
      "irty": 6761,
      "amic": 6762,
      "ĠCell": 6763,
      "ĠMary": 6764,
      "Ġrural": 6765,
      "ĠHouse": 6766,
      "ander": 6767,
      "Ġcompact": 6768,
      "Ġfeels": 6769,
      "Ġphr": 6770,
      "Ġrising": 6771,
      "Ġpolar": 6772,
      "Ġdirector": 6773,
      "Ġdifficulty": 6774,
      "Ġthrive": 6775,
      "Ġaggressive": 6776,
      "Ġstyles": 6777,
      "aucoma": 6778,
      "Ġadequate": 6779,
      "Ġcurriculum": 6780,
      "74": 6781,
      "gien": 6782,
      "rem": 6783,
      "itors": 6784,
      "Ġbrief": 6785,
      "orph": 6786,
      "Ġnorthern": 6787,
      "Ġgave": 6788,
      "oto": 6789,
      "ĠIB": 6790,
      "Ġancest": 6791,
      "ums": 6792,
      "ĠDraw": 6793,
      "Ġcomprom": 6794,
      "Ġintric": 6795,
      "Ġresolution": 6796,
      "Ġappoint": 6797,
      "Ġdiets": 6798,
      "Ġgrain": 6799,
      "Ġprotecting": 6800,
      "Ġforeign": 6801,
      "Ġlisten": 6802,
      "Ġfreed": 6803,
      "Ġbringing": 6804,
      "Ġfibers": 6805,
      "Ġincorporate": 6806,
      "Ġdurable": 6807,
      "ĠDevelopment": 6808,
      "89": 6809,
      "Ne": 6810,
      "cue": 6811,
      "tles": 6812,
      "reated": 6813,
      "Ġbought": 6814,
      "icide": 6815,
      "omfort": 6816,
      "Ġongoing": 6817,
      "Ġalt": 6818,
      "abil": 6819,
      "Ġweed": 6820,
      "Ġran": 6821,
      "Ġranges": 6822,
      "Ġchosen": 6823,
      "obal": 6824,
      "Ġexamine": 6825,
      "Ġengines": 6826,
      "cover": 6827,
      "Ġsitting": 6828,
      "ĠCentral": 6829,
      "Ġexperiencing": 6830,
      "Ġdecreased": 6831,
      "Ġfrozen": 6832,
      "Ġsexual": 6833,
      "ĠEnvironmental": 6834,
      "Ġcitiz": 6835,
      "Ġantenna": 6836,
      "Ġnarrow": 6837,
      "-cl": 6838,
      "59": 6839,
      "87": 6840,
      "aque": 6841,
      "fe": 6842,
      "Ġtough": 6843,
      "Ġtables": 6844,
      "Ġok": 6845,
      "Ġol": 6846,
      "Ġblow": 6847,
      "aria": 6848,
      "Ġdow": 6849,
      "Ġgel": 6850,
      "ception": 6851,
      "igaret": 6852,
      "uls": 6853,
      "Ġusual": 6854,
      "ogether": 6855,
      "ĠOpt": 6856,
      "earing": 6857,
      "reating": 6858,
      "Ġunderst": 6859,
      "ools": 6860,
      "Ġproviders": 6861,
      "ĠArctic": 6862,
      "Ġpassion": 6863,
      "Ġrecords": 6864,
      "Also": 6865,
      "itudes": 6866,
      "zyme": 6867,
      "Ġalgorithms": 6868,
      "ĠMuseum": 6869,
      "78": 6870,
      "]Ċ": 6871,
      "box": 6872,
      "top": 6873,
      "west": 6874,
      "Ġton": 6875,
      "Ġtal": 6876,
      "Ġtown": 6877,
      "Ġrely": 6878,
      "urch": 6879,
      "Ġshorter": 6880,
      "arded": 6881,
      "ĠRel": 6882,
      "âĢĭ": 6883,
      "Ġdisrupt": 6884,
      "Ġscan": 6885,
      "Ġapparent": 6886,
      "Ġsupplement": 6887,
      "Ġdetection": 6888,
      "Ġprescrib": 6889,
      "Ġgreatest": 6890,
      "lessly": 6891,
      "Ġhappening": 6892,
      "Ġsoils": 6893,
      "Ġconflic": 6894,
      "Ġcircular": 6895,
      "Ġfinished": 6896,
      "mitted": 6897,
      "Ġlaun": 6898,
      "Ġingredient": 6899,
      "Ġrespectively": 6900,
      "Ġmanufacturer": 6901,
      "Ġvaccine": 6902,
      "Ġrepeated": 6903,
      "Ġwonderful": 6904,
      "Ġvictim": 6905,
      "Ġenthus": 6906,
      ",âĢĿ": 6907,
      ".The": 6908,
      ".org": 6909,
      "67": 6910,
      "==": 6911,
      "Comp": 6912,
      "Ġdense": 6913,
      "Ġdirt": 6914,
      "Ġduration": 6915,
      "ascular": 6916,
      "Ġham": 6917,
      "Ġreverse": 6918,
      "otal": 6919,
      "amily": 6920,
      "abs": 6921,
      "Ġexhaust": 6922,
      "Ġchlor": 6923,
      "ĠData": 6924,
      "ĠNor": 6925,
      "Ġadvert": 6926,
      "Ġfever": 6927,
      "Ġpreval": 6928,
      "Ġapplying": 6929,
      "luding": 6930,
      "Ġmodule": 6931,
      "Ġwhereas": 6932,
      "Ġdiscomfort": 6933,
      "Ġendangered": 6934,
      "Ġsignificance": 6935,
      "Ġerosion": 6936,
      "Ġpasta": 6937,
      "Ġrecognized": 6938,
      "Ġquantity": 6939,
      "Ġflexible": 6940,
      "Ġrevealed": 6941,
      "Ġjoin": 6942,
      "Ġbleeding": 6943,
      "81": 6944,
      "Comm": 6945,
      "Even": 6946,
      "IR": 6947,
      "Make": 6948,
      "Other": 6949,
      "TR": 6950,
      "cal": 6951,
      "zed": 6952,
      "Ġdim": 6953,
      "ĠAND": 6954,
      "Ġprol": 6955,
      "ĠMet": 6956,
      "Ġabuse": 6957,
      "Ġwheat": 6958,
      "Ġknew": 6959,
      "agine": 6960,
      "Ġfeathers": 6961,
      "rowave": 6962,
      "Ġcheap": 6963,
      "ĠChoose": 6964,
      "Ġdefine": 6965,
      "ĠSciences": 6966,
      "arents": 6967,
      "Ġconsumer": 6968,
      "ĠArch": 6969,
      "Ġmilitary": 6970,
      "ographic": 6971,
      "Ġperfectly": 6972,
      "proof": 6973,
      "Ġclaims": 6974,
      "Ġargument": 6975,
      "Ġsessions": 6976,
      "ĠGreek": 6977,
      "ĠHistory": 6978,
      "Figure": 6979,
      "ka": 6980,
      "mond": 6981,
      "esides": 6982,
      "itage": 6983,
      "ĠPublic": 6984,
      "Ġchances": 6985,
      "Ġwilling": 6986,
      "ourse": 6987,
      "ĠLaw": 6988,
      "ĠGPT": 6989,
      "ĠOF": 6990,
      "rub": 6991,
      "Ġtraum": 6992,
      "Ġtrim": 6993,
      "Ġbugs": 6994,
      "Ġchest": 6995,
      "Ġexpans": 6996,
      "Ġsheet": 6997,
      "clus": 6998,
      "Ġprofit": 6999,
      "Ġcyl": 7000,
      "-pro": 7001,
      "Ġreceiving": 7002,
      "Ġcharacterized": 7003,
      "Ġcrack": 7004,
      "Ġurine": 7005,
      "Ġprecision": 7006,
      "Ġtumor": 7007,
      "ĠðŁ¤įĊ": 7008,
      "Ġrenewable": 7009,
      "zymes": 7010,
      "82": 7011,
      "BC": 7012,
      "IP": 7013,
      "iology": 7014,
      "list": 7015,
      "wo": 7016,
      "Ġcognitive": 7017,
      "Ġbrows": 7018,
      "Ġmice": 7019,
      "ilib": 7020,
      "Ġyog": 7021,
      "ĠTem": 7022,
      "igen": 7023,
      "Ġstated": 7024,
      "Ġstations": 7025,
      "ading": 7026,
      "umes": 7027,
      "acent": 7028,
      "ĠNut": 7029,
      "Ġclients": 7030,
      "Ġoutcome": 7031,
      "Ġunf": 7032,
      "Ġunable": 7033,
      "Ġunex": 7034,
      "Ġacts": 7035,
      "Ġsubsequ": 7036,
      "Ġexpressed": 7037,
      "Ġstring": 7038,
      "ommod": 7039,
      "ĠPhil": 7040,
      "Ġterrit": 7041,
      "Ġremoval": 7042,
      "Ġobservations": 7043,
      "ĠFebruary": 7044,
      "Ġcarrying": 7045,
      "Ġaccurately": 7046,
      "ĠHuman": 7047,
      "Ġgirls": 7048,
      "ĠAcademy": 7049,
      "eal": 7050,
      "mic": 7051,
      "à¤": 7052,
      "Ġod": 7053,
      "Ġmer": 7054,
      "Ġinhib": 7055,
      "arks": 7056,
      "Ġreaching": 7057,
      "Ġbeach": 7058,
      "olved": 7059,
      "Ġstems": 7060,
      "Ġorbit": 7061,
      "Ġdoctors": 7062,
      "Ġobesity": 7063,
      "Ġgenerations": 7064,
      "Ġentertain": 7065,
      "ĠPlants": 7066,
      "ports": 7067,
      "Ġconsideration": 7068,
      "Ġintroduce": 7069,
      "Ġdetected": 7070,
      "Ġfertilizers": 7071,
      "Ġhormone": 7072,
      "Ġcomplicated": 7073,
      "Ġhundreds": 7074,
      "-old": 7075,
      ".âĢĿ": 7076,
      "SS": 7077,
      "van": 7078,
      "Ġaward": 7079,
      "Ġcow": 7080,
      "Ġoscill": 7081,
      "Ġlip": 7082,
      "Ġlapt": 7083,
      "Ġstir": 7084,
      "ĠSing": 7085,
      "Ġdeer": 7086,
      "ĠPract": 7087,
      "udd": 7088,
      "Ġwash": 7089,
      "Ġclient": 7090,
      "Ġdisappe": 7091,
      "Ġquiet": 7092,
      "Ġblades": 7093,
      "Ġanimation": 7094,
      "ĠProv": 7095,
      "Ġrespiratory": 7096,
      "Ġinterests": 7097,
      "Ġlinear": 7098,
      "auge": 7099,
      "Ġyounger": 7100,
      "Ġcontributing": 7101,
      "apping": 7102,
      "Ġpropag": 7103,
      "Ġburning": 7104,
      "Ġmessages": 7105,
      "ĠComput": 7106,
      "Ġoriginally": 7107,
      "Ġarchitecture": 7108,
      "Ġcorresponding": 7109,
      "-res": 7110,
      "do": 7111,
      "such": 7112,
      "Ġ...Ċ": 7113,
      "Ġtag": 7114,
      "Ġtack": 7115,
      "inity": 7116,
      "Ġsale": 7117,
      "Ġcos": 7118,
      "Ġthrow": 7119,
      "ctu": 7120,
      "Ġyard": 7121,
      "erson": 7122,
      "lder": 7123,
      "Ġenables": 7124,
      "ĠDet": 7125,
      "ĠFind": 7126,
      "ĠUV": 7127,
      "Ġrecipes": 7128,
      "Ġarms": 7129,
      "Ġwatering": 7130,
      "Ġminute": 7131,
      "Ġshowc": 7132,
      "ĠThose": 7133,
      "Ġdelay": 7134,
      "Ġinvolving": 7135,
      "Ġwinds": 7136,
      "Ġlanguages": 7137,
      "Ġseparation": 7138,
      "Ġcompetitive": 7139,
      "Ġidentifying": 7140,
      "Ġcalculate": 7141,
      "Ġsusp": 7142,
      "Ġcategories": 7143,
      "Ġaquarium": 7144,
      "Ġshooting": 7145,
      "Ġflavors": 7146,
      "ĠNASA": 7147,
      "Ġcord": 7148,
      "itter": 7149,
      "Ġfence": 7150,
      "asy": 7151,
      "usiness": 7152,
      "Ġconvey": 7153,
      "Ġrivers": 7154,
      "Ġenerg": 7155,
      "Ġlect": 7156,
      "ĠOpen": 7157,
      "Ġconscious": 7158,
      "althy": 7159,
      "Ġinfrastructure": 7160,
      "Ġadvoc": 7161,
      "ĠAnim": 7162,
      "Ġrealize": 7163,
      "Stud": 7164,
      "Ġlimits": 7165,
      "ĠShould": 7166,
      "Ġscientist": 7167,
      "Ġpredators": 7168,
      "Ġpackaging": 7169,
      "Ġboxes": 7170,
      "Ġelectrons": 7171,
      "Ġsleeping": 7172,
      "Ġregardless": 7173,
      "ĠAgriculture": 7174,
      "Ġbehaviour": 7175,
      "ĠLearn": 7176,
      "Ġexhibit": 7177,
      "Ġtutorial": 7178,
      "Ġunusual": 7179,
      "PD": 7180,
      "ael": 7181,
      "fu": 7182,
      "mas": 7183,
      "nut": 7184,
      "ona": 7185,
      "orge": 7186,
      "Ġcham": 7187,
      "Ġclock": 7188,
      "apers": 7189,
      "Ġscrew": 7190,
      "Ġregional": 7191,
      "Ġprocessed": 7192,
      "Ġpreschool": 7193,
      "Ġorganized": 7194,
      "Ġproductivity": 7195,
      "Ġhyper": 7196,
      "Ġletters": 7197,
      "Ġengineers": 7198,
      "ĠConf": 7199,
      "Ġrobots": 7200,
      "Ġplatforms": 7201,
      "Ġacceleration": 7202,
      "Ġcommitment": 7203,
      "About": 7204,
      "Ġlarvae": 7205,
      "-and": 7206,
      "Lear": 7207,
      "Main": 7208,
      "Of": 7209,
      "UT": 7210,
      "Where": 7211,
      "night": 7212,
      "Ġtric": 7213,
      "Ġtape": 7214,
      "atric": 7215,
      "Ġcotton": 7216,
      "Ġmosquit": 7217,
      "Ġgerm": 7218,
      "Ġgiant": 7219,
      "uten": 7220,
      "ĠCD": 7221,
      "Ġrust": 7222,
      "Ġabnormal": 7223,
      "Ġkin": 7224,
      "kings": 7225,
      "Ġsoy": 7226,
      "Ġspat": 7227,
      "Ġscene": 7228,
      "erving": 7229,
      "Ġvariations": 7230,
      "everal": 7231,
      "aterials": 7232,
      "Ġclassic": 7233,
      "-cont": 7234,
      "Ġcrust": 7235,
      "azon": 7236,
      "Ġstrongly": 7237,
      "Ġencounter": 7238,
      "Ġsnake": 7239,
      "Ġholding": 7240,
      "Ġexistence": 7241,
      "Ġframew": 7242,
      "Ġthickness": 7243,
      "ĠFacebook": 7244,
      "awn": 7245,
      "bits": 7246,
      "zil": 7247,
      "Ġwestern": 7248,
      "Ġpale": 7249,
      "Ġbite": 7250,
      "Ġease": 7251,
      "Ġloud": 7252,
      "ĠAud": 7253,
      "estation": 7254,
      "aby": 7255,
      "ĠWestern": 7256,
      "oret": 7257,
      "ĠMax": 7258,
      "ĠBal": 7259,
      "ocation": 7260,
      "ogens": 7261,
      "ĠFree": 7262,
      "Ġblocks": 7263,
      "Ġaccommod": 7264,
      "oves": 7265,
      "ĠWhite": 7266,
      "Ġinsurance": 7267,
      "Ġglaucoma": 7268,
      "Ġcharging": 7269,
      "Ġserver": 7270,
      "ĠBlue": 7271,
      "Ġdegrad": 7272,
      "Ġdrying": 7273,
      "Ġdependent": 7274,
      "Ġbacterial": 7275,
      "Share": 7276,
      "Ġrotation": 7277,
      "Ġsuffering": 7278,
      "Ġbulb": 7279,
      "Ġengagement": 7280,
      "Ġaffordable": 7281,
      "Ġphenomenon": 7282,
      "Ġluxury": 7283,
      "-day": 7284,
      "AG": 7285,
      "FT": 7286,
      "pill": 7287,
      "ĠÃ": 7288,
      "Ġshed": 7289,
      "Ġcaught": 7290,
      "Ġbare": 7291,
      "icity": 7292,
      "ĠCP": 7293,
      "ĠMont": 7294,
      "ĠFig": 7295,
      "rous": 7296,
      "ĠRh": 7297,
      "ĠGroup": 7298,
      "Ġsoap": 7299,
      "ibration": 7300,
      "Ġuniform": 7301,
      "Ġsomewhat": 7302,
      "cknow": 7303,
      "Ġgrains": 7304,
      "Ġlock": 7305,
      "Ġartist": 7306,
      "Ġlargely": 7307,
      "Ġhygien": 7308,
      "Ġgardening": 7309,
      "ĠConservation": 7310,
      "Ġreturned": 7311,
      "ĠKey": 7312,
      "Ġaims": 7313,
      "Ġbranch": 7314,
      "Ġsector": 7315,
      "Ġremarkable": 7316,
      "ilibrium": 7317,
      "83": 7318,
      "IG": 7319,
      "Just": 7320,
      "Well": 7321,
      "Î·": 7322,
      "Ġcrow": 7323,
      "Ġwast": 7324,
      "orrect": 7325,
      "Ġhidden": 7326,
      "Ġlived": 7327,
      "ĠAT": 7328,
      "amps": 7329,
      "Ġcomments": 7330,
      "thrit": 7331,
      "Ġvapor": 7332,
      "ĠMill": 7333,
      "Ġsegment": 7334,
      "Ġshade": 7335,
      "Ġplastics": 7336,
      "ĠHaw": 7337,
      "ĠForm": 7338,
      "outs": 7339,
      "Ġupg": 7340,
      "neys": 7341,
      "ĠVis": 7342,
      "Ġherbs": 7343,
      "Ġchemistry": 7344,
      "Ġlistening": 7345,
      "INE": 7346,
      "Which": 7347,
      "Ġimplementation": 7348,
      "Ġrecommendations": 7349,
      "Ġimmediate": 7350,
      "ĠGeorgia": 7351,
      "Ġfairly": 7352,
      "Ġperception": 7353,
      "Ġshopping": 7354,
      "ongevity": 7355,
      "Ġcircumst": 7356,
      "\"ĊĊ": 7357,
      "$\\": 7358,
      "iability": 7359,
      "heat": 7360,
      "Ġpitch": 7361,
      "lete": 7362,
      "Ġhang": 7363,
      "rape": 7364,
      "Ġstrip": 7365,
      "ĠIce": 7366,
      "pection": 7367,
      "ĠMat": 7368,
      "Ġenzyme": 7369,
      "Ġchapter": 7370,
      "ĠDown": 7371,
      "Ġsole": 7372,
      "Ġspeeds": 7373,
      "Ġscar": 7374,
      "Ġdescription": 7375,
      "Ġtwist": 7376,
      "Ġexperimental": 7377,
      "Ġsupplies": 7378,
      "Ġcontrols": 7379,
      "Ġaffecting": 7380,
      "ĠUSA": 7381,
      "Ġlogic": 7382,
      "Ġfraction": 7383,
      "Ġlimitations": 7384,
      "Ġstimul": 7385,
      "ĠSimilar": 7386,
      "Ġevolved": 7387,
      "People": 7388,
      "ĠWildlife": 7389,
      "ĠAquarium": 7390,
      ";ĊĊ": 7391,
      "During": 7392,
      "OD": 7393,
      "rane": 7394,
      "Ġille": 7395,
      "herent": 7396,
      "Ġodd": 7397,
      "itness": 7398,
      "Ġfilling": 7399,
      "Ġdive": 7400,
      "Ġgram": 7401,
      "ĠSand": 7402,
      "unt": 7403,
      "Ġenzymes": 7404,
      "ĠLong": 7405,
      "ĠInformation": 7406,
      "weet": 7407,
      "ucose": 7408,
      "Ġchildhood": 7409,
      "rosion": 7410,
      "Ġserving": 7411,
      "Ġpositions": 7412,
      "oids": 7413,
      "Ġparallel": 7414,
      "Ġpassing": 7415,
      "Any": 7416,
      "hemistry": 7417,
      "Ġaddressing": 7418,
      "Ġwebsites": 7419,
      "Ġintegr": 7420,
      "ĠWorks": 7421,
      "Ġalternatives": 7422,
      "Ġefficiently": 7423,
      "Ġcalculated": 7424,
      "Ġevaluation": 7425,
      "Ġemotions": 7426,
      "Ġcomplications": 7427,
      "Ġbottle": 7428,
      "-H": 7429,
      "76": 7430,
      "Col": 7431,
      "ynt": 7432,
      "Ġ...ĊĊ": 7433,
      "onia": 7434,
      "atus": 7435,
      "Ġthyroid": 7436,
      "Ġgate": 7437,
      "ĠTry": 7438,
      "ĠIll": 7439,
      "adian": 7440,
      "ĠWork": 7441,
      "ĠMa": 7442,
      "ĠGover": 7443,
      "Ġtear": 7444,
      "ĠOh": 7445,
      "Ġspark": 7446,
      "Ġrecording": 7447,
      "anged": 7448,
      "Ġempt": 7449,
      "cycl": 7450,
      "Ġmini": 7451,
      "Ġdefense": 7452,
      "-by": 7453,
      "ĠThanks": 7454,
      "Ġharder": 7455,
      "aneously": 7456,
      "ĠScient": 7457,
      "Ġestimate": 7458,
      "Ġfocuses": 7459,
      "Ġsmoking": 7460,
      "Ġfatigue": 7461,
      "Ġstatist": 7462,
      "Ġevaluate": 7463,
      "Ġsynthetic": 7464,
      "Ġfascinating": 7465,
      "LC": 7466,
      "paper": 7467,
      "rus": 7468,
      "Ġtorn": 7469,
      "esla": 7470,
      "Ġfract": 7471,
      "omer": 7472,
      "anta": 7473,
      "Ġchip": 7474,
      "Ġseam": 7475,
      "ĠFalse": 7476,
      "Ġworms": 7477,
      "Ġpartner": 7478,
      "Ġdesire": 7479,
      "Ġshouldn": 7480,
      "Ġdecay": 7481,
      "Ġattach": 7482,
      "Ġauthent": 7483,
      "Ġswelling": 7484,
      "Ġpresentation": 7485,
      "Ġrecognition": 7486,
      "Ġsilver": 7487,
      "ĠCOVID": 7488,
      "copic": 7489,
      "Ġchannels": 7490,
      "ĠSecond": 7491,
      "Ġsession": 7492,
      "Ġadventure": 7493,
      "Ġrefriger": 7494,
      ".D": 7495,
      "Table": 7496,
      "Water": 7497,
      "cm": 7498,
      "cule": 7499,
      "gent": 7500,
      "iÃ": 7501,
      "kers": 7502,
      "rin": 7503,
      "heast": 7504,
      "Ġcash": 7505,
      "Ġbin": 7506,
      "Ġbull": 7507,
      "orld": 7508,
      "uto": 7509,
      "imm": 7510,
      "ceans": 7511,
      "ĠSl": 7512,
      "Ġjew": 7513,
      "Ġscreens": 7514,
      "ĠStr": 7515,
      "Ġsurve": 7516,
      "ĠVir": 7517,
      "Ġmarked": 7518,
      "Ġfilters": 7519,
      "Ġcapital": 7520,
      "Ġsummary": 7521,
      "Ġeaten": 7522,
      "Ġactively": 7523,
      "Ġrobust": 7524,
      "ĠCoast": 7525,
      "Ġpriority": 7526,
      "Ġwatching": 7527,
      "amboo": 7528,
      "Ġepis": 7529,
      "ĠProfessor": 7530,
      "ĠOkada": 7531,
      "otherapy": 7532,
      "Ġprevents": 7533,
      "IF": 7534,
      "face": 7535,
      "green": 7536,
      "rant": 7537,
      "son": 7538,
      "Ġions": 7539,
      "uning": 7540,
      "Ġvaries": 7541,
      "istor": 7542,
      "ĠFed": 7543,
      "ĠNote": 7544,
      "Ġtheme": 7545,
      "Ġrelation": 7546,
      "ĠVit": 7547,
      "Ġcombine": 7548,
      "Ġnecessarily": 7549,
      "Ġsafely": 7550,
      "Ġgovern": 7551,
      "Ġpanels": 7552,
      "Ġdistributed": 7553,
      "Ġpregnant": 7554,
      "Ġdurability": 7555,
      "Ġtomatoes": 7556,
      "Ġpuppy": 7557,
      "Ġinstitutions": 7558,
      "ĠDisease": 7559,
      "Ġresilience": 7560,
      "thritis": 7561,
      "car": 7562,
      "ki": 7563,
      "tr": 7564,
      "Ġtap": 7565,
      "Ġpipes": 7566,
      "omas": 7567,
      "Ġnodes": 7568,
      "ĠTest": 7569,
      "ĠTips": 7570,
      "Ġstones": 7571,
      "ĠSam": 7572,
      "eren": 7573,
      "Ġprovider": 7574,
      "Ġinstrum": 7575,
      "Ġleader": 7576,
      "Ġnuts": 7577,
      "Ġsalmon": 7578,
      "ĠSpanish": 7579,
      "Ġpopularity": 7580,
      "Ġroute": 7581,
      "Ġreviews": 7582,
      "Ġviruses": 7583,
      "Ġphotographs": 7584,
      "ĠGermany": 7585,
      "uminum": 7586,
      "Ġnavigate": 7587,
      "Ġrecycling": 7588,
      "Ġabsolutely": 7589,
      "\"I": 7590,
      "Each": 7591,
      "Fl": 7592,
      "hav": 7593,
      "ÑĤ": 7594,
      "ini": 7595,
      "hene": 7596,
      "itution": 7597,
      "Ġdough": 7598,
      "Ġhockey": 7599,
      "Ġeast": 7600,
      "Ġgast": 7601,
      "ĠAge": 7602,
      "amil": 7603,
      "amine": 7604,
      "Ġalive": 7605,
      "advant": 7606,
      "ĠCam": 7607,
      "rizz": 7608,
      "Ġworn": 7609,
      "avy": 7610,
      "berg": 7611,
      "Ġovercome": 7612,
      "Ġtracks": 7613,
      "Ġpharm": 7614,
      "Ġchecking": 7615,
      "Ġmoderate": 7616,
      "Ġformal": 7617,
      "Ġfunctioning": 7618,
      "Ġsensory": 7619,
      "Ġanalys": 7620,
      "onomic": 7621,
      "ercury": 7622,
      "rooming": 7623,
      "Ġfootprint": 7624,
      "Ġbarrier": 7625,
      "Ġpackage": 7626,
      "Ġstatistics": 7627,
      "Ġpurchasing": 7628,
      "Ġliterature": 7629,
      "Ġrepeat": 7630,
      "ĠBrazil": 7631,
      "Ġsections": 7632,
      "ĠUnderstanding": 7633,
      "ĠMarket": 7634,
      "Ġsusceptible": 7635,
      "Ġfingers": 7636,
      "ds": 7637,
      "fast": 7638,
      "lers": 7639,
      "pet": 7640,
      "hea": 7641,
      "reed": 7642,
      "Ġfant": 7643,
      "ounce": 7644,
      "anol": 7645,
      "Ġlin": 7646,
      "Ġnor": 7647,
      "Ġbeet": 7648,
      "Ġpropos": 7649,
      "ĠCra": 7650,
      "ĠFinally": 7651,
      "ĠRight": 7652,
      "ĠRef": 7653,
      "agen": 7654,
      "endar": 7655,
      "Ġuniversity": 7656,
      "Ġarray": 7657,
      "rame": 7658,
      "chnology": 7659,
      "Ġvariation": 7660,
      "Ġparticle": 7661,
      "Ġauto": 7662,
      "Ġhybrid": 7663,
      "Ġcourt": 7664,
      "Ġheads": 7665,
      "Ġvolcan": 7666,
      "Ġfalls": 7667,
      "Ġsuperior": 7668,
      "Ġemployed": 7669,
      "Ġdemonstrate": 7670,
      "Ġoutdoors": 7671,
      "Ġattractive": 7672,
      "Ġdynamics": 7673,
      "Ġscenario": 7674,
      "Ġreturns": 7675,
      "Ġoverwhel": 7676,
      "-scale": 7677,
      "Ġunderstood": 7678,
      "79": 7679,
      "df": 7680,
      "|Ċ": 7681,
      "Ġsad": 7682,
      "Ġfav": 7683,
      "Ġfather": 7684,
      "orrow": 7685,
      "lear": 7686,
      "asters": 7687,
      "omal": 7688,
      "utch": 7689,
      "ĠTO": 7690,
      "ĠSn": 7691,
      "terior": 7692,
      "ĠEnd": 7693,
      "Ġkilled": 7694,
      "pled": 7695,
      "Ġreson": 7696,
      "Ġdispl": 7697,
      "ints": 7698,
      "pha": 7699,
      "ĠJournal": 7700,
      "Ġforming": 7701,
      "Ġextension": 7702,
      "ega": 7703,
      "Ġpossibilities": 7704,
      "venue": 7705,
      "Ġmembrane": 7706,
      "Ġessay": 7707,
      "Ġessentially": 7708,
      "Ġobserve": 7709,
      "Ġviews": 7710,
      "Ġimplementing": 7711,
      "Ġimplications": 7712,
      "Ġvarying": 7713,
      "Ġadopted": 7714,
      "Ġresidents": 7715,
      "Ġnuclear": 7716,
      "Ġinitiative": 7717,
      "Ġjuice": 7718,
      "Ġboundaries": 7719,
      "Ġloved": 7720,
      "security": 7721,
      "Ġdoubt": 7722,
      "Ġphilosophy": 7723,
      "Ġcolleagues": 7724,
      "-end": 7725,
      "AV": 7726,
      "pm": 7727,
      "sm": 7728,
      "worm": 7729,
      "hered": 7730,
      "Ġlik": 7731,
      "Ġrender": 7732,
      "Ġrehab": 7733,
      "lymp": 7734,
      "amination": 7735,
      "Ġrhy": 7736,
      "Ġseat": 7737,
      "Ġdose": 7738,
      "Ġblo": 7739,
      "Ġagent": 7740,
      "ĠVe": 7741,
      "Ġtechnological": 7742,
      "Ġgoods": 7743,
      "Ġprescription": 7744,
      "Ġbridge": 7745,
      "Ġcenters": 7746,
      "Ġclassified": 7747,
      "ĠThough": 7748,
      "Ġsensing": 7749,
      "afe": 7750,
      "Ġembod": 7751,
      "ĠEarly": 7752,
      "Ġprinted": 7753,
      "ourage": 7754,
      "Ġinitially": 7755,
      "Ġthousand": 7756,
      "Ġkidney": 7757,
      "Ġexplanation": 7758,
      "Ġfreedom": 7759,
      "CA": 7760,
      "Have": 7761,
      "math": 7762,
      "Ġ<": 7763,
      "inent": 7764,
      "Ġfest": 7765,
      "Ġdairy": 7766,
      "rots": 7767,
      "Ġlongevity": 7768,
      "omin": 7769,
      "omic": 7770,
      "ĠTrue": 7771,
      "Ġster": 7772,
      "Ġstead": 7773,
      "ĠID": 7774,
      "ĠMem": 7775,
      "plate": 7776,
      "ĠLab": 7777,
      "iber": 7778,
      "Ġclay": 7779,
      "Ġrooms": 7780,
      "Ġrecover": 7781,
      "ooked": 7782,
      "Ġaccomp": 7783,
      "Ġintervention": 7784,
      "Ġdecade": 7785,
      "Ġcrew": 7786,
      "Ġinvent": 7787,
      "Ġdriven": 7788,
      "Ġequally": 7789,
      "Ġconsumed": 7790,
      "Ġsnakes": 7791,
      "Ġfatty": 7792,
      "Ġrepresentation": 7793,
      "Ġspreading": 7794,
      "Ġmenu": 7795,
      "ĠGoPro": 7796,
      "ĠFrance": 7797,
      "ĠAustralian": 7798,
      "Ġabsorb": 7799,
      "ĠSystems": 7800,
      "Ġhorizontal": 7801,
      "Ġmitig": 7802,
      "Ġathletes": 7803,
      "Ġcampaign": 7804,
      "Ġveterinarian": 7805,
      "73": 7806,
      "MA": 7807,
      "lock": 7808,
      "oop": 7809,
      "pread": 7810,
      "was": 7811,
      "Ġ**": 7812,
      "Ġcub": 7813,
      "Ġpizza": 7814,
      "ione": 7815,
      "Ġlact": 7816,
      "Ġnic": 7817,
      "oline": 7818,
      "ĠIde": 7819,
      "ĠSuch": 7820,
      "Ġweap": 7821,
      "romagnetic": 7822,
      "Ġru": 7823,
      "Ġshock": 7824,
      "Ġplacing": 7825,
      "ĠFil": 7826,
      "ptic": 7827,
      "ĠRad": 7828,
      "ĠRNA": 7829,
      "Ġcompens": 7830,
      "Ġjoy": 7831,
      "Ġrose": 7832,
      "atures": 7833,
      "Ġflag": 7834,
      "plete": 7835,
      "Ġtransformation": 7836,
      "Ġglucose": 7837,
      "Ġcellular": 7838,
      "Ġguy": 7839,
      "gency": 7840,
      "portant": 7841,
      "ĠIndust": 7842,
      "Ġcultures": 7843,
      "Ġfacility": 7844,
      "Ġcookies": 7845,
      "ĠContact": 7846,
      "ĠAmazon": 7847,
      "flamm": 7848,
      "Ġdivision": 7849,
      "Ġfoam": 7850,
      "Ġincredible": 7851,
      "Ġproportion": 7852,
      "ĠSafety": 7853,
      "ĠDIY": 7854,
      "Ġcitizens": 7855,
      "-T": 7856,
      "CR": 7857,
      "EE": 7858,
      "Ear": 7859,
      "Source": 7860,
      "inn": 7861,
      "Ġwal": 7862,
      "Ġbub": 7863,
      "Ġmine": 7864,
      "Ġine": 7865,
      "Ġdating": 7866,
      "Ġdried": 7867,
      "rox": 7868,
      "oted": 7869,
      "ĠAR": 7870,
      "ĠAlex": 7871,
      "sey": 7872,
      "Ġrib": 7873,
      "Ġintest": 7874,
      "Ġworst": 7875,
      "Ġwashing": 7876,
      "ults": 7877,
      "Ġdischarge": 7878,
      "Ġunknown": 7879,
      "Ġblank": 7880,
      "lectric": 7881,
      "Ġraising": 7882,
      "Ġorganism": 7883,
      "Ġconfident": 7884,
      "Ġdelight": 7885,
      "Ġopened": 7886,
      "-making": 7887,
      "Ġera": 7888,
      "Ġwarmer": 7889,
      "Ġlift": 7890,
      "Ġintroduction": 7891,
      "Ġframes": 7892,
      "Ġirrig": 7893,
      "Ġimplemented": 7894,
      "Ġimplant": 7895,
      "ĠAutom": 7896,
      "Ġfurnace": 7897,
      "Ġcasual": 7898,
      "Ġenthusi": 7899,
      "bur": 7900,
      "lig": 7901,
      "pan": 7902,
      "ÑĢ": 7903,
      "Ġpairs": 7904,
      "ilation": 7905,
      "ĠIC": 7906,
      "Ġproof": 7907,
      "ĠSol": 7908,
      "ested": 7909,
      "Ġheater": 7910,
      "Ġexists": 7911,
      "this": 7912,
      "ĠPal": 7913,
      "angle": 7914,
      "necess": 7915,
      "Ġaccidents": 7916,
      "Ġcurious": 7917,
      "Ġbreaks": 7918,
      "Ġboards": 7919,
      "Ġcoral": 7920,
      "Ġcataly": 7921,
      "-sized": 7922,
      "Ġmush": 7923,
      "Ġflows": 7924,
      "ĠScott": 7925,
      "Ġbiom": 7926,
      "Ġmovie": 7927,
      "ĠAtt": 7928,
      "Ġinteractive": 7929,
      "Ġdomin": 7930,
      "Ġseedlings": 7931,
      "Ġsuspect": 7932,
      "Ġpromotes": 7933,
      "Ġrarely": 7934,
      "Ġethical": 7935,
      "ĠBetween": 7936,
      "Ġspectrum": 7937,
      "Ġintricate": 7938,
      "Ġhygiene": 7939,
      "\".Ċ": 7940,
      "-L": 7941,
      "61": 7942,
      "Am": 7943,
      "Scient": 7944,
      "mble": 7945,
      "rument": 7946,
      "Â®": 7947,
      "Ġca": 7948,
      "Ġwest": 7949,
      "Ġbills": 7950,
      "Ġmouse": 7951,
      "Ġgently": 7952,
      "Ġforced": 7953,
      "ĠAS": 7954,
      "Ġstars": 7955,
      "Ġstrict": 7956,
      "ĠSym": 7957,
      "ĠSolar": 7958,
      "ude": 7959,
      "arding": 7960,
      "Ġcomparing": 7961,
      "Ġsof": 7962,
      "Ġjack": 7963,
      "apse": 7964,
      "Ġmyth": 7965,
      "ĠDev": 7966,
      "ĠImp": 7967,
      "Ġdescribes": 7968,
      "ediate": 7969,
      "Ġpreparing": 7970,
      "ENT": 7971,
      "ĠTraining": 7972,
      "ĠGener": 7973,
      "Ġdanger": 7974,
      "Ġpriorit": 7975,
      "Ġdeaths": 7976,
      "Ġrainfall": 7977,
      "Ġaccepted": 7978,
      "Ġrecycled": 7979,
      "Ġcavity": 7980,
      "Understanding": 7981,
      "Ġsatellite": 7982,
      "Ġlaunched": 7983,
      "Ġunexpected": 7984,
      "69": 7985,
      "Pr": 7986,
      "oise": 7987,
      "uy": 7988,
      "Ġsoci": 7989,
      "Ġfan": 7990,
      "Ġdrought": 7991,
      "Ġgift": 7992,
      "rained": 7993,
      "ĠAp": 7994,
      "Ġash": 7995,
      "ĠMag": 7996,
      "istant": 7997,
      "ĠDire": 7998,
      "ĠEqu": 7999,
      "ĠRE": 8000,
      "ĠRober": 8001,
      "ĠLead": 8002,
      "ĠUN": 8003,
      "Ġcoating": 8004,
      "Ġagency": 8005,
      "Ġremed": 8006,
      "Ġsetup": 8007,
      "Ġgray": 8008,
      "Ġdistances": 8009,
      "Ġtreating": 8010,
      "Ġrestore": 8011,
      "Ġobjective": 8012,
      "Ġforecast": 8013,
      "Ġpasseng": 8014,
      "Ġtells": 8015,
      "Ġvisitors": 8016,
      "Ġdocuments": 8017,
      "Ġpreferred": 8018,
      "ĠAvoid": 8019,
      "ĠDogs": 8020,
      "Ġtubes": 8021,
      "Related": 8022,
      "68": 8023,
      "Per": 8024,
      "Sm": 8025,
      "],": 8026,
      "uel": 8027,
      "Ġaids": 8028,
      "Ġsail": 8029,
      "Ġcro": 8030,
      "Ġfalse": 8031,
      "Ġfisher": 8032,
      "oral": 8033,
      "aning": 8034,
      "Ġmoon": 8035,
      "olt": 8036,
      "Ġstiff": 8037,
      "Ġasp": 8038,
      "Ġroughly": 8039,
      "Ġshield": 8040,
      "aren": 8041,
      "Ġdisp": 8042,
      "Ġthank": 8043,
      "ĠYet": 8044,
      "Ġdesk": 8045,
      "Ġagents": 8046,
      "Ġsurge": 8047,
      "Ġbuck": 8048,
      "Ġrelief": 8049,
      "Ġequilibrium": 8050,
      "ĠAnimal": 8051,
      "Ġphysically": 8052,
      "Ġcuts": 8053,
      "Ġmicrowave": 8054,
      "azine": 8055,
      "Ġspecialist": 8056,
      "Ġmindful": 8057,
      "Ġwooden": 8058,
      "ĠCommunity": 8059,
      "Ġadjustments": 8060,
      "Ġnitrate": 8061,
      "Ġalgae": 8062,
      "esterol": 8063,
      "Ġspiritual": 8064,
      "Ġinfluenced": 8065,
      "Ġparasites": 8066,
      "Ġsuddenly": 8067,
      "Ġpotatoes": 8068,
      "Does": 8069,
      "Gen": 8070,
      "Sim": 8071,
      "mers": 8072,
      "oa": 8073,
      "Ġticks": 8074,
      "encing": 8075,
      "Ġfaces": 8076,
      "leep": 8077,
      "Ġrent": 8078,
      "heric": 8079,
      "ĠCouncil": 8080,
      "una": 8081,
      "ĠWiring": 8082,
      "ĠMass": 8083,
      "Ġshower": 8084,
      "ocr": 8085,
      "ogs": 8086,
      "ĠHel": 8087,
      "ĠHelp": 8088,
      "ĠFigure": 8089,
      "riz": 8090,
      "ptom": 8091,
      "ĠNep": 8092,
      "ĠNumber": 8093,
      "Ġadverse": 8094,
      "Ġcontem": 8095,
      "Ġscales": 8096,
      "Ġsimult": 8097,
      "Ġdesigning": 8098,
      "Ġdefect": 8099,
      "ĠProper": 8100,
      "Ġcris": 8101,
      "Ġoccurring": 8102,
      "Ġstraw": 8103,
      "Ġpersonalized": 8104,
      "Ġpaying": 8105,
      "Ġenhancing": 8106,
      "Ġintegration": 8107,
      "bohyd": 8108,
      "ĠCarol": 8109,
      "ĠManagement": 8110,
      "Ġthreatened": 8111,
      "Ġassistance": 8112,
      "Ġclimbing": 8113,
      "Ġconversion": 8114,
      "Ġsavings": 8115,
      "roductive": 8116,
      "Ġisolated": 8117,
      "ĠEngineering": 8118,
      "ĠAtlantic": 8119,
      "Ġintegrity": 8120,
      "-se": 8121,
      "71": 8122,
      "Med": 8123,
      "Nature": 8124,
      "Trans": 8125,
      "kg": 8126,
      "lied": 8127,
      "oir": 8128,
      "Ġtons": 8129,
      "Ġsne": 8130,
      "aters": 8131,
      "Ġber": 8132,
      "Ġinhab": 8133,
      "Ġducks": 8134,
      "Ġthro": 8135,
      "Ġnode": 8136,
      "etite": 8137,
      "Ġgut": 8138,
      "ĠIdent": 8139,
      "ĠWed": 8140,
      "Ġranging": 8141,
      "ĠBest": 8142,
      "Ġencl": 8143,
      "Ġdoors": 8144,
      "ĠNO": 8145,
      "ĠNorthern": 8146,
      "ago": 8147,
      "Ġspinal": 8148,
      "Ġsomewhere": 8149,
      "Ġregister": 8150,
      "Ġdecomp": 8151,
      "Inst": 8152,
      "Ġvector": 8153,
      "Ġcharged": 8154,
      "ushi": 8155,
      "Ġappeal": 8156,
      "ĠNeed": 8157,
      "Ġexcited": 8158,
      "ĠCommun": 8159,
      "Ġconcentrations": 8160,
      "Phys": 8161,
      "working": 8162,
      "Ġpowered": 8163,
      "ĠGlobal": 8164,
      "Ġsplit": 8165,
      "Ġthoroughly": 8166,
      "Ġmetabolic": 8167,
      "Ġtomato": 8168,
      "Ġincredibly": 8169,
      "Ġhouses": 8170,
      "Ġrestaurant": 8171,
      "Ġsubstantial": 8172,
      "Ġcircumstances": 8173,
      "/m": 8174,
      "range": 8175,
      "word": 8176,
      "Ġacknow": 8177,
      "esium": 8178,
      "ena": 8179,
      "eness": 8180,
      "Ġwides": 8181,
      "ingly": 8182,
      "Ġpaste": 8183,
      "Ġbits": 8184,
      "iled": 8185,
      "etime": 8186,
      "unks": 8187,
      "ĠWomen": 8188,
      "opia": 8189,
      "Ġvine": 8190,
      "ĠMad": 8191
    },
    "merges": [
      [
        "Ġ",
        "t"
      ],
      [
        "Ġ",
        "a"
      ],
      [
        "i",
        "n"
      ],
      [
        "h",
        "e"
      ],
      [
        "r",
        "e"
      ],
      [
        "o",
        "n"
      ],
      [
        "Ġt",
        "he"
      ],
      [
        "e",
        "r"
      ],
      [
        "Ġ",
        "s"
      ],
      [
        "a",
        "t"
      ],
      [
        "Ġ",
        "c"
      ],
      [
        "Ġ",
        "o"
      ],
      [
        "e",
        "s"
      ],
      [
        "e",
        "n"
      ],
      [
        "Ġ",
        "w"
      ],
      [
        "n",
        "d"
      ],
      [
        "i",
        "t"
      ],
      [
        "i",
        "s"
      ],
      [
        "in",
        "g"
      ],
      [
        "Ġ",
        "p"
      ],
      [
        "Ġ",
        "f"
      ],
      [
        "Ġ",
        "b"
      ],
      [
        "o",
        "r"
      ],
      [
        "a",
        "l"
      ],
      [
        "o",
        "u"
      ],
      [
        "a",
        "n"
      ],
      [
        "Ġ",
        "m"
      ],
      [
        "e",
        "d"
      ],
      [
        "Ġt",
        "o"
      ],
      [
        "Ġ",
        "in"
      ],
      [
        "Ġo",
        "f"
      ],
      [
        "a",
        "r"
      ],
      [
        "Ġa",
        "nd"
      ],
      [
        "Ġ",
        "d"
      ],
      [
        "i",
        "c"
      ],
      [
        "i",
        "on"
      ],
      [
        "l",
        "e"
      ],
      [
        "r",
        "o"
      ],
      [
        "a",
        "s"
      ],
      [
        "Ġt",
        "h"
      ],
      [
        "Ġ",
        "h"
      ],
      [
        "en",
        "t"
      ],
      [
        "c",
        "t"
      ],
      [
        "Ġ",
        "e"
      ],
      [
        "Ġ",
        "l"
      ],
      [
        "i",
        "l"
      ],
      [
        "v",
        "e"
      ],
      [
        "Ġ",
        "re"
      ],
      [
        "o",
        "m"
      ],
      [
        "u",
        "s"
      ],
      [
        "Ġ",
        "is"
      ],
      [
        ".",
        "Ċ"
      ],
      [
        "Ġ",
        "n"
      ],
      [
        "e",
        "t"
      ],
      [
        "Ġ",
        "y"
      ],
      [
        "l",
        "y"
      ],
      [
        "Ġ",
        "g"
      ],
      [
        "Ġy",
        "ou"
      ],
      [
        "Ġb",
        "e"
      ],
      [
        "o",
        "w"
      ],
      [
        "u",
        "t"
      ],
      [
        "o",
        "t"
      ],
      [
        "i",
        "m"
      ],
      [
        "Ġ",
        "T"
      ],
      [
        "s",
        "t"
      ],
      [
        "i",
        "d"
      ],
      [
        "o",
        "l"
      ],
      [
        "c",
        "e"
      ],
      [
        "Ġf",
        "or"
      ],
      [
        "i",
        "g"
      ],
      [
        "r",
        "a"
      ],
      [
        "u",
        "r"
      ],
      [
        "at",
        "ion"
      ],
      [
        "c",
        "h"
      ],
      [
        "Ġ",
        "A"
      ],
      [
        "Ġs",
        "t"
      ],
      [
        "Ġ",
        "on"
      ],
      [
        "Ġth",
        "at"
      ],
      [
        "Ġ",
        "I"
      ],
      [
        "i",
        "r"
      ],
      [
        "v",
        "er"
      ],
      [
        "e",
        "l"
      ],
      [
        "it",
        "h"
      ],
      [
        "u",
        "l"
      ],
      [
        "Ġa",
        "re"
      ],
      [
        "a",
        "y"
      ],
      [
        "Ġ",
        "it"
      ],
      [
        "Ġp",
        "ro"
      ],
      [
        "s",
        "e"
      ],
      [
        "Ġw",
        "ith"
      ],
      [
        "i",
        "f"
      ],
      [
        "Ġa",
        "n"
      ],
      [
        "Ġ",
        "S"
      ],
      [
        "a",
        "m"
      ],
      [
        "Ġo",
        "r"
      ],
      [
        "Ġc",
        "on"
      ],
      [
        ".Ċ",
        "Ċ"
      ],
      [
        "es",
        "t"
      ],
      [
        "Ġa",
        "s"
      ],
      [
        "Ġa",
        "l"
      ],
      [
        "o",
        "d"
      ],
      [
        "a",
        "d"
      ],
      [
        "Ċ",
        "Ċ"
      ],
      [
        "he",
        "r"
      ],
      [
        "Ġ",
        "C"
      ],
      [
        "t",
        "er"
      ],
      [
        "u",
        "n"
      ],
      [
        "Ġw",
        "h"
      ],
      [
        "Ġc",
        "an"
      ],
      [
        "u",
        "re"
      ],
      [
        "g",
        "e"
      ],
      [
        "at",
        "e"
      ],
      [
        "k",
        "e"
      ],
      [
        "ĠT",
        "he"
      ],
      [
        "es",
        "s"
      ],
      [
        "a",
        "b"
      ],
      [
        "il",
        "l"
      ],
      [
        "u",
        "m"
      ],
      [
        "Ġc",
        "om"
      ],
      [
        "er",
        "s"
      ],
      [
        "Ġh",
        "a"
      ],
      [
        "an",
        "t"
      ],
      [
        "Ġ",
        "he"
      ],
      [
        "Ġe",
        "x"
      ],
      [
        "p",
        "e"
      ],
      [
        "q",
        "u"
      ],
      [
        "Ġ",
        "W"
      ],
      [
        "t",
        "h"
      ],
      [
        "o",
        "re"
      ],
      [
        "m",
        "ent"
      ],
      [
        "i",
        "ve"
      ],
      [
        "ig",
        "h"
      ],
      [
        "'",
        "s"
      ],
      [
        "Ġ",
        "us"
      ],
      [
        "Ġyou",
        "r"
      ],
      [
        "i",
        "es"
      ],
      [
        "Ġd",
        "e"
      ],
      [
        "o",
        "p"
      ],
      [
        "Ġ",
        "v"
      ],
      [
        "a",
        "c"
      ],
      [
        "Ġw",
        "e"
      ],
      [
        "o",
        "s"
      ],
      [
        "it",
        "y"
      ],
      [
        "a",
        "in"
      ],
      [
        "ro",
        "m"
      ],
      [
        "Ġ",
        "M"
      ],
      [
        "e",
        "m"
      ],
      [
        "Ġ",
        "("
      ],
      [
        "is",
        "t"
      ],
      [
        "Ġ",
        "P"
      ],
      [
        "l",
        "d"
      ],
      [
        "e",
        "ct"
      ],
      [
        "Ġ",
        "r"
      ],
      [
        "Ġn",
        "e"
      ],
      [
        "Ġ",
        "B"
      ],
      [
        "Ġs",
        "u"
      ],
      [
        "p",
        "p"
      ],
      [
        "Ġ",
        "en"
      ],
      [
        "Ġc",
        "h"
      ],
      [
        "Ġa",
        "t"
      ],
      [
        "Ġs",
        "e"
      ],
      [
        "i",
        "v"
      ],
      [
        "Ġf",
        "rom"
      ],
      [
        "i",
        "al"
      ],
      [
        "Ġs",
        "h"
      ],
      [
        "Ġ",
        "le"
      ],
      [
        "Ġha",
        "ve"
      ],
      [
        "or",
        "t"
      ],
      [
        "igh",
        "t"
      ],
      [
        "n",
        "t"
      ],
      [
        "Ġb",
        "y"
      ],
      [
        "o",
        "c"
      ],
      [
        "Ġp",
        "l"
      ],
      [
        "re",
        "s"
      ],
      [
        "o",
        "g"
      ],
      [
        "Ġ",
        "D"
      ],
      [
        "Ġ",
        "H"
      ],
      [
        "a",
        "nd"
      ],
      [
        "Ġn",
        "ot"
      ],
      [
        "ar",
        "t"
      ],
      [
        "Ġ",
        "F"
      ],
      [
        "us",
        "t"
      ],
      [
        "u",
        "d"
      ],
      [
        "al",
        "l"
      ],
      [
        "ic",
        "al"
      ],
      [
        "p",
        "er"
      ],
      [
        "r",
        "i"
      ],
      [
        "om",
        "e"
      ],
      [
        "Ġth",
        "is"
      ],
      [
        "r",
        "ou"
      ],
      [
        "id",
        "e"
      ],
      [
        "Ġa",
        "b"
      ],
      [
        "p",
        "t"
      ],
      [
        "Ġ",
        "u"
      ],
      [
        "ou",
        "ld"
      ],
      [
        "ou",
        "t"
      ],
      [
        "Ġ",
        "E"
      ],
      [
        "ar",
        "d"
      ],
      [
        "n",
        "s"
      ],
      [
        "in",
        "e"
      ],
      [
        "a",
        "ct"
      ],
      [
        "Ġm",
        "a"
      ],
      [
        "Ġ",
        "im"
      ],
      [
        "o",
        "st"
      ],
      [
        "re",
        "d"
      ],
      [
        "d",
        "u"
      ],
      [
        "ic",
        "h"
      ],
      [
        "Ġ",
        "R"
      ],
      [
        "el",
        "l"
      ],
      [
        "f",
        "f"
      ],
      [
        "Ġcom",
        "p"
      ],
      [
        "i",
        "z"
      ],
      [
        "Ġw",
        "ill"
      ],
      [
        "as",
        "t"
      ],
      [
        "ion",
        "s"
      ],
      [
        "Ġd",
        "o"
      ],
      [
        "Ġw",
        "he"
      ],
      [
        "Ġ",
        "k"
      ],
      [
        "Ġin",
        "t"
      ],
      [
        "Ġthe",
        "ir"
      ],
      [
        "ou",
        "r"
      ],
      [
        "â",
        "Ģ"
      ],
      [
        "Ġ",
        "N"
      ],
      [
        "Ġa",
        "d"
      ],
      [
        "o",
        "od"
      ],
      [
        "g",
        "h"
      ],
      [
        "Ġw",
        "or"
      ],
      [
        "Ġthe",
        "y"
      ],
      [
        "a",
        "ge"
      ],
      [
        "at",
        "er"
      ],
      [
        "T",
        "he"
      ],
      [
        "p",
        "l"
      ],
      [
        "t",
        "her"
      ],
      [
        "k",
        "ing"
      ],
      [
        "a",
        "g"
      ],
      [
        "ab",
        "le"
      ],
      [
        "Ġ",
        "L"
      ],
      [
        "Ġw",
        "as"
      ],
      [
        "at",
        "ed"
      ],
      [
        "en",
        "d"
      ],
      [
        "Ġ",
        "G"
      ],
      [
        "Ġcon",
        "t"
      ],
      [
        "Ġal",
        "l"
      ],
      [
        "ul",
        "t"
      ],
      [
        "Ġm",
        "ore"
      ],
      [
        "k",
        "s"
      ],
      [
        "Ġb",
        "ut"
      ],
      [
        "Ġs",
        "o"
      ],
      [
        "e",
        "re"
      ],
      [
        "h",
        "at"
      ],
      [
        "al",
        "ly"
      ],
      [
        "o",
        "o"
      ],
      [
        "w",
        "er"
      ],
      [
        "an",
        "s"
      ],
      [
        "ou",
        "s"
      ],
      [
        "Ġin",
        "c"
      ],
      [
        "s",
        "o"
      ],
      [
        "a",
        "re"
      ],
      [
        "i",
        "p"
      ],
      [
        "est",
        "ion"
      ],
      [
        "or",
        "m"
      ],
      [
        "Ġt",
        "e"
      ],
      [
        "Ġ",
        "O"
      ],
      [
        "Ġm",
        "e"
      ],
      [
        "i",
        "b"
      ],
      [
        "c",
        "c"
      ],
      [
        "Q",
        "u"
      ],
      [
        "on",
        "g"
      ],
      [
        "e",
        "p"
      ],
      [
        "Ġh",
        "as"
      ],
      [
        "Ġc",
        "l"
      ],
      [
        "in",
        "d"
      ],
      [
        "Ġre",
        "s"
      ],
      [
        "Ġd",
        "is"
      ],
      [
        "an",
        "ce"
      ],
      [
        "Ġwh",
        "ich"
      ],
      [
        "Ġ",
        "j"
      ],
      [
        "r",
        "u"
      ],
      [
        "Ġs",
        "p"
      ],
      [
        "Ġ",
        "\""
      ],
      [
        "i",
        "ke"
      ],
      [
        "r",
        "y"
      ],
      [
        "ve",
        "l"
      ],
      [
        "Ġo",
        "ut"
      ],
      [
        "Ġ",
        "un"
      ],
      [
        "Ġim",
        "p"
      ],
      [
        "e",
        "ar"
      ],
      [
        "ation",
        "s"
      ],
      [
        "ns",
        "wer"
      ],
      [
        "2",
        "0"
      ],
      [
        "Qu",
        "estion"
      ],
      [
        "Ġal",
        "so"
      ],
      [
        "on",
        "e"
      ],
      [
        "re",
        "at"
      ],
      [
        "i",
        "e"
      ],
      [
        "a",
        "us"
      ],
      [
        "Ġm",
        "an"
      ],
      [
        "en",
        "s"
      ],
      [
        "h",
        "is"
      ],
      [
        "ver",
        "y"
      ],
      [
        "ĠA",
        "nswer"
      ],
      [
        "Ġo",
        "ther"
      ],
      [
        "as",
        "e"
      ],
      [
        "ent",
        "s"
      ],
      [
        "a",
        "ce"
      ],
      [
        "a",
        "v"
      ],
      [
        "ic",
        "e"
      ],
      [
        "ac",
        "k"
      ],
      [
        "Ġon",
        "e"
      ],
      [
        "ig",
        "n"
      ],
      [
        "'",
        "t"
      ],
      [
        "Ġp",
        "er"
      ],
      [
        "ct",
        "ion"
      ],
      [
        "Ġf",
        "e"
      ],
      [
        "ĠI",
        "n"
      ],
      [
        "Ġ",
        "U"
      ],
      [
        "it",
        "ion"
      ],
      [
        "Ġt",
        "im"
      ],
      [
        "a",
        "p"
      ],
      [
        "a",
        "ch"
      ],
      [
        "Ġs",
        "pe"
      ],
      [
        "ar",
        "y"
      ],
      [
        "as",
        "s"
      ],
      [
        "Ġab",
        "out"
      ],
      [
        "Ġthe",
        "m"
      ],
      [
        "en",
        "ce"
      ],
      [
        "or",
        "s"
      ],
      [
        "Ġp",
        "re"
      ],
      [
        "ĠI",
        "t"
      ],
      [
        "u",
        "e"
      ],
      [
        "res",
        "s"
      ],
      [
        "Ġu",
        "p"
      ],
      [
        "l",
        "ow"
      ],
      [
        "Ġl",
        "ike"
      ],
      [
        "Ġ",
        "qu"
      ],
      [
        "Ġs",
        "c"
      ],
      [
        "i",
        "a"
      ],
      [
        "il",
        "d"
      ],
      [
        "it",
        "e"
      ],
      [
        "i",
        "re"
      ],
      [
        "Ġs",
        "y"
      ],
      [
        "Ġe",
        "v"
      ],
      [
        "Ġ",
        "ro"
      ],
      [
        "if",
        "f"
      ],
      [
        "i",
        "le"
      ],
      [
        "Ġwhe",
        "n"
      ],
      [
        "Ġs",
        "ome"
      ],
      [
        "n",
        "ow"
      ],
      [
        "ou",
        "nd"
      ],
      [
        "Ġ",
        "if"
      ],
      [
        "Ġm",
        "ay"
      ],
      [
        "b",
        "er"
      ],
      [
        "o",
        "se"
      ],
      [
        "Ġint",
        "o"
      ],
      [
        "Ġp",
        "art"
      ],
      [
        "Ġb",
        "l"
      ],
      [
        "c",
        "es"
      ],
      [
        "f",
        "orm"
      ],
      [
        "Ġh",
        "ow"
      ],
      [
        "Ġne",
        "ed"
      ],
      [
        "ro",
        "w"
      ],
      [
        "a",
        "k"
      ],
      [
        "Ġus",
        "e"
      ],
      [
        "Ġc",
        "ol"
      ],
      [
        "ĠT",
        "his"
      ],
      [
        "Ġit",
        "s"
      ],
      [
        "Ġd",
        "iff"
      ],
      [
        "Ġth",
        "an"
      ],
      [
        "re",
        "e"
      ],
      [
        "Ġa",
        "pp"
      ],
      [
        "ay",
        "s"
      ],
      [
        "Ġtim",
        "e"
      ],
      [
        "a",
        "il"
      ],
      [
        "Ġ",
        "Y"
      ],
      [
        "r",
        "ic"
      ],
      [
        "Ġo",
        "ver"
      ],
      [
        "Ġan",
        "y"
      ],
      [
        "ing",
        "s"
      ],
      [
        "am",
        "e"
      ],
      [
        "aus",
        "e"
      ],
      [
        "Ġp",
        "e"
      ],
      [
        "al",
        "s"
      ],
      [
        "Ġthe",
        "re"
      ],
      [
        "Ġbe",
        "c"
      ],
      [
        "is",
        "h"
      ],
      [
        "ĠW",
        "hat"
      ],
      [
        "if",
        "ic"
      ],
      [
        "Ġre",
        "c"
      ],
      [
        "Ġb",
        "et"
      ],
      [
        "Ġt",
        "ra"
      ],
      [
        "w",
        "e"
      ],
      [
        "Ġa",
        "r"
      ],
      [
        "Ġcon",
        "s"
      ],
      [
        "Ġhe",
        "l"
      ],
      [
        "Ġthe",
        "se"
      ],
      [
        "Ġcom",
        "m"
      ],
      [
        "l",
        "l"
      ],
      [
        ".",
        "."
      ],
      [
        "o",
        "ve"
      ],
      [
        "le",
        "ct"
      ],
      [
        "at",
        "ure"
      ],
      [
        "an",
        "g"
      ],
      [
        "at",
        "ing"
      ],
      [
        "l",
        "es"
      ],
      [
        "st",
        "em"
      ],
      [
        "nd",
        "er"
      ],
      [
        "c",
        "ess"
      ],
      [
        "Ġk",
        "now"
      ],
      [
        "Ġspe",
        "c"
      ],
      [
        "Ġhel",
        "p"
      ],
      [
        "or",
        "d"
      ],
      [
        "Ġw",
        "ater"
      ],
      [
        "ar",
        "i"
      ],
      [
        "Ġt",
        "r"
      ],
      [
        "in",
        "t"
      ],
      [
        "ou",
        "gh"
      ],
      [
        "Ġst",
        "ud"
      ],
      [
        "Ġp",
        "h"
      ],
      [
        "ol",
        "og"
      ],
      [
        "Ġ",
        "âĢ"
      ],
      [
        "Ġin",
        "d"
      ],
      [
        "Ġc",
        "o"
      ],
      [
        "Ġo",
        "ur"
      ],
      [
        "u",
        "b"
      ],
      [
        "Ġd",
        "es"
      ],
      [
        "ou",
        "nt"
      ],
      [
        "Ġg",
        "o"
      ],
      [
        "Ġus",
        "ed"
      ],
      [
        "Ġ",
        "ra"
      ],
      [
        "Ġwh",
        "at"
      ],
      [
        "Ġg",
        "et"
      ],
      [
        "rou",
        "gh"
      ],
      [
        "on",
        "d"
      ],
      [
        "t",
        "e"
      ],
      [
        "y",
        "s"
      ],
      [
        "oo",
        "k"
      ],
      [
        "ff",
        "ect"
      ],
      [
        "Ġa",
        "ct"
      ],
      [
        "ic",
        "k"
      ],
      [
        "on",
        "s"
      ],
      [
        "Ġs",
        "a"
      ],
      [
        "Ġg",
        "en"
      ],
      [
        "rou",
        "nd"
      ],
      [
        "ul",
        "ar"
      ],
      [
        "Ġf",
        "l"
      ],
      [
        "p",
        "h"
      ],
      [
        "m",
        "s"
      ],
      [
        "a",
        "ke"
      ],
      [
        "al",
        "th"
      ],
      [
        "Ġpro",
        "v"
      ],
      [
        "Ġy",
        "ear"
      ],
      [
        "ver",
        "s"
      ],
      [
        "Ġpro",
        "du"
      ],
      [
        "Ġa",
        "g"
      ],
      [
        "Ġ",
        "J"
      ],
      [
        "op",
        "le"
      ],
      [
        "Ġm",
        "ost"
      ],
      [
        "Ġsu",
        "ch"
      ],
      [
        "l",
        "ud"
      ],
      [
        "n",
        "ing"
      ],
      [
        "or",
        "y"
      ],
      [
        "Ġof",
        "f"
      ],
      [
        "c",
        "k"
      ],
      [
        "n",
        "e"
      ],
      [
        "at",
        "es"
      ],
      [
        "Ġdiff",
        "ere"
      ],
      [
        "Ġa",
        "cc"
      ],
      [
        "Ġa",
        "m"
      ],
      [
        "ot",
        "h"
      ],
      [
        "i",
        "ent"
      ],
      [
        "Ġs",
        "m"
      ],
      [
        "t",
        "ing"
      ],
      [
        "Ġwe",
        "re"
      ],
      [
        "Ġwh",
        "o"
      ],
      [
        "Ġu",
        "nder"
      ],
      [
        "j",
        "ect"
      ],
      [
        "Ġne",
        "w"
      ],
      [
        "ĠS",
        "t"
      ],
      [
        "ment",
        "s"
      ],
      [
        "p",
        "le"
      ],
      [
        "er",
        "v"
      ],
      [
        "Ġbe",
        "en"
      ],
      [
        "Ġt",
        "w"
      ],
      [
        "Ġad",
        "d"
      ],
      [
        "1",
        "0"
      ],
      [
        "Ġma",
        "ke"
      ],
      [
        "Ġsy",
        "stem"
      ],
      [
        "et",
        "h"
      ],
      [
        "f",
        "ul"
      ],
      [
        "an",
        "ge"
      ],
      [
        "Ġpe",
        "ople"
      ],
      [
        "Ġe",
        "m"
      ],
      [
        "Ġd",
        "i"
      ],
      [
        "Ġsh",
        "ould"
      ],
      [
        "x",
        "t"
      ],
      [
        "ur",
        "ing"
      ],
      [
        "it",
        "s"
      ],
[...]
