{
  "version": "1.0",
  "truncation": null,
  "padding": null,
  "added_tokens": [
    {
      "id": 8186,
      "content": "UNKtokenbehere",
      "single_word": false,
      "lstrip": false,
      "rstrip": false,
      "normalized": false,
      "special": true
    },
    {
      "id": 8187,
      "content": "EOStokenbehere",
      "single_word": false,
      "lstrip": false,
      "rstrip": false,
      "normalized": false,
      "special": true
    },
    {
      "id": 8188,
      "content": "PADtokenbehere",
      "single_word": false,
      "lstrip": false,
      "rstrip": false,
      "normalized": false,
      "special": true
    },
    {
      "id": 8189,
      "content": "CLStokenbehere",
      "single_word": false,
      "lstrip": false,
      "rstrip": false,
      "normalized": false,
      "special": true
    },
    {
      "id": 8190,
      "content": "SEPtokenbehere",
      "single_word": false,
      "lstrip": false,
      "rstrip": false,
      "normalized": false,
      "special": true
    },
    {
      "id": 8191,
      "content": "MASKtokenbehere",
      "single_word": false,
      "lstrip": false,
      "rstrip": false,
      "normalized": false,
      "special": true
    }
  ],
  "normalizer": null,
  "pre_tokenizer": {
    "type": "ByteLevel",
    "add_prefix_space": false,
    "trim_offsets": true,
    "use_regex": true
  },
  "post_processor": null,
  "decoder": null,
  "model": {
    "type": "Unigram",
    "unk_id": null,
    "vocab": [
      [
        "ification",
        -1.0
      ],
      [
        "war",
        -1.0
      ],
      [
        "Ġmeasure",
        -1.0
      ],
      [
        "Ġsort",
        -1.0
      ],
      [
        "Ġcrisis",
        -1.0
      ],
      [
        "Ġadvice",
        -1.0
      ],
      [
        "Fo",
        -1.0
      ],
      [
        "Ġgenerate",
        -1.0
      ],
      [
        "Ġessentially",
        -1.0
      ],
      [
        "ĠFebruary",
        -1.0
      ],
      [
        "Fr",
        -1.0
      ],
      [
        "Ġbatteries",
        -1.0
      ],
      [
        "ĠForeign",
        -1.0
      ],
      [
        "Ġobvious",
        -1.0
      ],
      [
        "Ġmaking",
        -1.0
      ],
      [
        "Ġcosts",
        -1.0
      ],
      [
        "elling",
        -1.0
      ],
      [
        "IV",
        -1.0
      ],
      [
        "79",
        -1.0
      ],
      [
        "serving",
        -1.0
      ],
      [
        "ĠDan",
        -1.0
      ],
      [
        "xt",
        -1.0
      ],
      [
        "Ġdiff",
        -1.0
      ],
      [
        "ĠIN",
        -1.0
      ],
      [
        "Ġavailability",
        -1.0
      ],
      [
        "ĠTom",
        -1.0
      ],
      [
        "Ġtiny",
        -1.0
      ],
      [
        "Ġcross",
        -1.0
      ],
      [
        "Ġaccessible",
        -1.0
      ],
      [
        "gle",
        -1.0
      ],
      [
        "Last",
        -1.0
      ],
      [
        "Ġmoon",
        -1.0
      ],
      [
        "igious",
        -1.0
      ],
      [
        "ating",
        -1.0
      ],
      [
        "ĠAre",
        -1.0
      ],
      [
        "Ġsensitivity",
        -1.0
      ],
      [
        "ĠLitera",
        -1.0
      ],
      [
        "IA",
        -1.0
      ],
      [
        "Ġmanagement",
        -1.0
      ],
      [
        "ĠGroup",
        -1.0
      ],
      [
        "Ġpsych",
        -1.0
      ],
      [
        "Ġimagine",
        -1.0
      ],
      [
        "Ġterm",
        -1.0
      ],
      [
        "Ġanaly",
        -1.0
      ],
      [
        "Ġminimal",
        -1.0
      ],
      [
        "Ġdifficulties",
        -1.0
      ],
      [
        "Ġchallenges",
        -1.0
      ],
      [
        "ĠNations",
        -1.0
      ],
      [
        "Ġproximity",
        -1.0
      ],
      [
        "Ġo",
        -1.0
      ],
      [
        "ĠPark",
        -1.0
      ],
      [
        "ĠChange",
        -1.0
      ],
      [
        "Ġac",
        -1.0
      ],
      [
        "91",
        -1.0
      ],
      [
        "Ġmosquito",
        -1.0
      ],
      [
        "Ġfascinating",
        -1.0
      ],
      [
        "Ġsl",
        -1.0
      ],
      [
        "ĠCe",
        -1.0
      ],
      [
        "Ġfell",
        -1.0
      ],
      [
        "ĠIslam",
        -1.0
      ],
      [
        "ĠMO",
        -1.0
      ],
      [
        "Ġphysics",
        -1.0
      ],
      [
        "ore",
        -1.0
      ],
      [
        "lementary",
        -1.0
      ],
      [
        "Ġhave",
        -1.0
      ],
      [
        "ĠPrevention",
        -1.0
      ],
      [
        "Ġubiquitous",
        -1.0
      ],
      [
        "Ġinfections",
        -1.0
      ],
      [
        "Ġformula",
        -1.0
      ],
      [
        "ĠWeek",
        -1.0
      ],
      [
        "ĠTru",
        -1.0
      ],
      [
        "ri",
        -1.0
      ],
      [
        "Ġroof",
        -1.0
      ],
      [
        "government",
        -1.0
      ],
      [
        "01",
        -1.0
      ],
      [
        "Ġsmart",
        -1.0
      ],
      [
        "Ġlocation",
        -1.0
      ],
      [
        "Ġ#",
        -1.0
      ],
      [
        "Ġdust",
        -1.0
      ],
      [
        "Ġspecimen",
        -1.0
      ],
      [
        "Ġ1987",
        -1.0
      ],
      [
        "ĠApril",
        -1.0
      ],
      [
        "Ġentire",
        -1.0
      ],
      [
        "ĠYu",
        -1.0
      ],
      [
        "Ġdemocracy",
        -1.0
      ],
      [
        "60",
        -1.0
      ],
      [
        "Ġanalog",
        -1.0
      ],
      [
        "Ġphysical",
        -1.0
      ],
      [
        "ľ",
        -1.0
      ],
      [
        "Ġschizophrenia",
        -1.0
      ],
      [
        "Ġlaboratory",
        -1.0
      ],
      [
        "Ġpoliticians",
        -1.0
      ],
      [
        "Ġtarget",
        -1.0
      ],
      [
        "Ġmakes",
        -1.0
      ],
      [
        "gging",
        -1.0
      ],
      [
        "Ġlayer",
        -1.0
      ],
      [
        "Ġdisproportionate",
        -1.0
      ],
      [
        "Ġsculpt",
        -1.0
      ],
      [
        "Ġhold",
        -1.0
      ],
      [
        "Ġlogic",
        -1.0
      ],
      [
        "ĠOn",
        -1.0
      ],
      [
        "Ġas",
        -1.0
      ],
      [
        "Ġkept",
        -1.0
      ],
      [
        "self",
        -1.0
      ],
      [
        "Ġhappens",
        -1.0
      ],
      [
        "ĠStanford",
        -1.0
      ],
      [
        "Ġmechanical",
        -1.0
      ],
      [
        "Ġreproductive",
        -1.0
      ],
      [
        "ation",
        -1.0
      ],
      [
        "Ġexpansion",
        -1.0
      ],
      [
        "Ġbest",
        -1.0
      ],
      [
        "Ġgrid",
        -1.0
      ],
      [
        "Ġreceiving",
        -1.0
      ],
      [
        "Ġrequired",
        -1.0
      ],
      [
        ".'",
        -1.0
      ],
      [
        "Ġmachine",
        -1.0
      ],
      [
        "ph",
        -1.0
      ],
      [
        "Ġ1995",
        -1.0
      ],
      [
        "Ġinput",
        -1.0
      ],
      [
        "ws",
        -1.0
      ],
      [
        "Ġhonor",
        -1.0
      ],
      [
        "Ġcompanies",
        -1.0
      ],
      [
        "Con",
        -1.0
      ],
      [
        "table",
        -1.0
      ],
      [
        "Ġmechanisms",
        -1.0
      ],
      [
        "Ġcontrolled",
        -1.0
      ],
      [
        "Ġarrive",
        -1.0
      ],
      [
        "Ġcouncil",
        -1.0
      ],
      [
        "ought",
        -1.0
      ],
      [
        "Ġparticipate",
        -1.0
      ],
      [
        "Ġprayer",
        -1.0
      ],
      [
        "Ġcrew",
        -1.0
      ],
      [
        "Ġorganized",
        -1.0
      ],
      [
        "Ġradical",
        -1.0
      ],
      [
        "Ġmusical",
        -1.0
      ],
      [
        "ĠNov",
        -1.0
      ],
      [
        "000",
        -1.0
      ],
      [
        "Ġrepresentative",
        -1.0
      ],
      [
        "ĠMars",
        -1.0
      ],
      [
        "bor",
        -1.0
      ],
      [
        "Ġreported",
        -1.0
      ],
      [
        "Ġreason",
        -1.0
      ],
      [
        "ese",
        -1.0
      ],
      [
        "ins",
        -1.0
      ],
      [
        "Ġchain",
        -1.0
      ],
      [
        "Ġrepresent",
        -1.0
      ],
      [
        "Ġz",
        -1.0
      ],
      [
        "ber",
        -1.0
      ],
      [
        "ood",
        -1.0
      ],
      [
        "Ġmain",
        -1.0
      ],
      [
        "ĠAny",
        -1.0
      ],
      [
        "Ġthey",
        -1.0
      ],
      [
        "Ġresource",
        -1.0
      ],
      [
        "Ġflavor",
        -1.0
      ],
      [
        "rus",
        -1.0
      ],
      [
        "ient",
        -1.0
      ],
      [
        "F",
        -1.0
      ],
      [
        "OT",
        -1.0
      ],
      [
        "Ġlargely",
        -1.0
      ],
      [
        "'m",
        -1.0
      ],
      [
        "Ġdocument",
        -1.0
      ],
      [
        "Ġcomprehen",
        -1.0
      ],
      [
        "Ġreplacement",
        -1.0
      ],
      [
        "ĠNS",
        -1.0
      ],
      [
        "Ġtechnique",
        -1.0
      ],
      [
        "Ġcarefully",
        -1.0
      ],
      [
        "Ġself",
        -1.0
      ],
      [
        "mit",
        -1.0
      ],
      [
        "ĠFrom",
        -1.0
      ],
      [
        "ĠTr",
        -1.0
      ],
      [
        "Ġmainly",
        -1.0
      ],
      [
        "Ġeventually",
        -1.0
      ],
      [
        "Ġfound",
        -1.0
      ],
      [
        "Ġnewspaper",
        -1.0
      ],
      [
        "IS",
        -1.0
      ],
      [
        "Ex",
        -1.0
      ],
      [
        "Ġdocuments",
        -1.0
      ],
      [
        "Ġnutrient",
        -1.0
      ],
      [
        "Ġanyone",
        -1.0
      ],
      [
        "tro",
        -1.0
      ],
      [
        "ĠSafety",
        -1.0
      ],
      [
        "Ġpipe",
        -1.0
      ],
      [
        "Ġover",
        -1.0
      ],
      [
        "lation",
        -1.0
      ],
      [
        "Ġregular",
        -1.0
      ],
      [
        "Ġfive",
        -1.0
      ],
      [
        "Ġsqu",
        -1.0
      ],
      [
        "ĠStrateg",
        -1.0
      ],
      [
        "Ġlandscape",
        -1.0
      ],
      [
        "Ġcortex",
        -1.0
      ],
      [
        "rel",
        -1.0
      ],
      [
        "But",
        -1.0
      ],
      [
        "Ġnearby",
        -1.0
      ],
      [
        "Ġroom",
        -1.0
      ],
      [
        "Ġboys",
        -1.0
      ],
      [
        "ĠCri",
        -1.0
      ],
      [
        "Ġadopt",
        -1.0
      ],
      [
        "ĠRoman",
        -1.0
      ],
      [
        "Ġseven",
        -1.0
      ],
      [
        "ĠRA",
        -1.0
      ],
      [
        "Ġgraph",
        -1.0
      ],
      [
        "Ġfinally",
        -1.0
      ],
      [
        "55",
        -1.0
      ],
      [
        "Ġstations",
        -1.0
      ],
      [
        "Ġworldwide",
        -1.0
      ],
      [
        "Ġstorm",
        -1.0
      ],
      [
        "Ġconstrain",
        -1.0
      ],
      [
        "ather",
        -1.0
      ],
      [
        "care",
        -1.0
      ],
      [
        "Ġstatistical",
        -1.0
      ],
      [
        "Ġbar",
        -1.0
      ],
      [
        "23",
        -1.0
      ],
      [
        "Ġbanks",
        -1.0
      ],
      [
        "Ġthem",
        -1.0
      ],
      [
        "Ġsha",
        -1.0
      ],
      [
        "Ġcerebral",
        -1.0
      ],
      [
        "Ġfollowing",
        -1.0
      ],
      [
        "ĠSte",
        -1.0
      ],
      [
        "Ġexists",
        -1.0
      ],
      [
        "Ġprinciple",
        -1.0
      ],
      [
        "Ġdisabled",
        -1.0
      ],
      [
        "Ġ6",
        -1.0
      ],
      [
        "Ġmaxim",
        -1.0
      ],
      [
        "Ġemotions",
        -1.0
      ],
      [
        "Ġsalt",
        -1.0
      ],
      [
        "Ġsignificance",
        -1.0
      ],
      [
        "Ġpoet",
        -1.0
      ],
      [
        "field",
        -1.0
      ],
      [
        "ĠADHD",
        -1.0
      ],
      [
        "Ġsusceptible",
        -1.0
      ],
      [
        "Ġaluminum",
        -1.0
      ],
      [
        "Ġtopics",
        -1.0
      ],
      [
        "Ġdemand",
        -1.0
      ],
      [
        "Ġwoman",
        -1.0
      ],
      [
        "ĠEx",
        -1.0
      ],
      [
        "ĠAP",
        -1.0
      ],
      [
        "Ġbound",
        -1.0
      ],
      [
        "Ġinitially",
        -1.0
      ],
      [
        "Ġtransmission",
        -1.0
      ],
      [
        "Ġj",
        -1.0
      ],
      [
        "Ġequivalent",
        -1.0
      ],
      [
        "Ġclimate",
        -1.0
      ],
      [
        "Ġsent",
        -1.0
      ],
      [
        "ĠReg",
        -1.0
      ],
      [
        "Ġwidespread",
        -1.0
      ],
      [
        "Ġprogramme",
        -1.0
      ],
      [
        "Ġfaculty",
        -1.0
      ],
      [
        "Ġlines",
        -1.0
      ],
      [
        "izes",
        -1.0
      ],
      [
        "Ġhistory",
        -1.0
      ],
      [
        "oking",
        -1.0
      ],
      [
        "Ġresolve",
        -1.0
      ],
      [
        "Ġhypothesis",
        -1.0
      ],
      [
        "ĠScripture",
        -1.0
      ],
      [
        "ĠRegi",
        -1.0
      ],
      [
        "piece",
        -1.0
      ],
      [
        "ĠPass",
        -1.0
      ],
      [
        "Ġso",
        -1.0
      ],
      [
        "dge",
        -1.0
      ],
      [
        "lim",
        -1.0
      ],
      [
        "clear",
        -1.0
      ],
      [
        "science",
        -1.0
      ],
      [
        "ae",
        -1.0
      ],
      [
        "Ġlegal",
        -1.0
      ],
      [
        "oe",
        -1.0
      ],
      [
        "Ġnuclear",
        -1.0
      ],
      [
        "ĠRobert",
        -1.0
      ],
      [
        "bon",
        -1.0
      ],
      [
        "Ġpop",
        -1.0
      ],
      [
        "ĠSpain",
        -1.0
      ],
      [
        "Ġdevices",
        -1.0
      ],
      [
        "Ġvarieties",
        -1.0
      ],
      [
        "ĠWikipedia",
        -1.0
      ],
      [
        "RN",
        -1.0
      ],
      [
        "Ġdeliver",
        -1.0
      ],
      [
        "ĠTeacher",
        -1.0
      ],
      [
        "Ġartificial",
        -1.0
      ],
      [
        "Ġsociety",
        -1.0
      ],
      [
        ".]",
        -1.0
      ],
      [
        "RO",
        -1.0
      ],
      [
        "courage",
        -1.0
      ],
      [
        "ĠPeter",
        -1.0
      ],
      [
        "Ġor",
        -1.0
      ],
      [
        "ĠRh",
        -1.0
      ],
      [
        "Ġperfect",
        -1.0
      ],
      [
        "ical",
        -1.0
      ],
      [
        "ĠColorado",
        -1.0
      ],
      [
        "Ġspirit",
        -1.0
      ],
      [
        "ĠKashmir",
        -1.0
      ],
      [
        "Ġtumor",
        -1.0
      ],
      [
        "pan",
        -1.0
      ],
      [
        "First",
        -1.0
      ],
      [
        "Ġentirely",
        -1.0
      ],
      [
        "ĠThree",
        -1.0
      ],
      [
        "ĠMagazine",
        -1.0
      ],
      [
        "Ġsimilar",
        -1.0
      ],
      [
        "Ġpackage",
        -1.0
      ],
      [
        "Ġindicator",
        -1.0
      ],
      [
        "April",
        -1.0
      ],
      [
        "Ġlead",
        -1.0
      ],
      [
        "bin",
        -1.0
      ],
      [
        "Ġconstructed",
        -1.0
      ],
      [
        "ĠClin",
        -1.0
      ],
      [
        "08",
        -1.0
      ],
      [
        "Ġindustry",
        -1.0
      ],
      [
        "ĠAv",
        -1.0
      ],
      [
        "Ġtraditional",
        -1.0
      ],
      [
        "Ġlearned",
        -1.0
      ],
      [
        "Ġenough",
        -1.0
      ],
      [
        "Ġmill",
        -1.0
      ],
      [
        "Ġconsumed",
        -1.0
      ],
      [
        "Ġcoffee",
        -1.0
      ],
      [
        "Ġcommission",
        -1.0
      ],
      [
        "Ġcorrect",
        -1.0
      ],
      [
        "Ġresponsible",
        -1.0
      ],
      [
        "Ġba",
        -1.0
      ],
      [
        "Ġcapt",
        -1.0
      ],
      [
        "ĠSciences",
        -1.0
      ],
      [
        "ĠBi",
        -1.0
      ],
      [
        "ĠNC",
        -1.0
      ],
      [
        "Ġhence",
        -1.0
      ],
      [
        "'s",
        -1.0
      ],
      [
        "Ġintention",
        -1.0
      ],
      [
        "Ġinv",
        -1.0
      ],
      [
        "ĠRev",
        -1.0
      ],
      [
        "Pe",
        -1.0
      ],
      [
        "Ġincome",
        -1.0
      ],
      [
        "Ġcontamination",
        -1.0
      ],
      [
        "BI",
        -1.0
      ],
      [
        "Ġearthquake",
        -1.0
      ],
      [
        "ort",
        -1.0
      ],
      [
        "Ġsize",
        -1.0
      ],
      [
        "Ġodd",
        -1.0
      ],
      [
        "Ġmer",
        -1.0
      ],
      [
        "Ġcontact",
        -1.0
      ],
      [
        "ĠBook",
        -1.0
      ],
      [
        "Ġpediatric",
        -1.0
      ],
      [
        "Ġhabitat",
        -1.0
      ],
      [
        "ĠSar",
        -1.0
      ],
      [
        "Ġartillery",
        -1.0
      ],
      [
        "Ġenhance",
        -1.0
      ],
      [
        "Ġoperate",
        -1.0
      ],
      [
        "Ġextended",
        -1.0
      ],
      [
        "Of",
        -1.0
      ],
      [
        "Ġpuzzle",
        -1.0
      ],
      [
        "Ġcorporate",
        -1.0
      ],
      [
        "Ġphotographs",
        -1.0
      ],
      [
        "Ġcontext",
        -1.0
      ],
      [
        "Ġvital",
        -1.0
      ],
      [
        "Ġchanges",
        -1.0
      ],
      [
        "teenth",
        -1.0
      ],
      [
        "tant",
        -1.0
      ],
      [
        "Ġdepending",
        -1.0
      ],
      [
        "Ġmechanism",
        -1.0
      ],
      [
        "Ġgirls",
        -1.0
      ],
      [
        "uch",
        -1.0
      ],
      [
        "Ġsuggests",
        -1.0
      ],
      [
        "ĠIUCN",
        -1.0
      ],
      [
        "Ġanim",
        -1.0
      ],
      [
        ".)",
        -1.0
      ],
      [
        "81",
        -1.0
      ],
      [
        "14",
        -1.0
      ],
      [
        "cent",
        -1.0
      ],
      [
        "Ġplenty",
        -1.0
      ],
      [
        "Ġmobile",
        -1.0
      ],
      [
        "shes",
        -1.0
      ],
      [
        "ĠCross",
        -1.0
      ],
      [
        "Ġminutes",
        -1.0
      ],
      [
        "Ġinsurance",
        -1.0
      ],
      [
        "ĠJer",
        -1.0
      ],
      [
        "Ġincreases",
        -1.0
      ],
      [
        "Ġadmi",
        -1.0
      ],
      [
        "Ġlost",
        -1.0
      ],
      [
        "Ġrole",
        -1.0
      ],
      [
        "ĠWilliams",
        -1.0
      ],
      [
        "ĠUs",
        -1.0
      ],
      [
        "Ġproduct",
        -1.0
      ],
      [
        "ĠIndex",
        -1.0
      ],
      [
        "Ġblue",
        -1.0
      ],
      [
        "Ġcount",
        -1.0
      ],
      [
        "uts",
        -1.0
      ],
      [
        "Ġresearch",
        -1.0
      ],
      [
        "Ġcardiac",
        -1.0
      ],
      [
        "Ġ+",
        -1.0
      ],
      [
        "ĠMuhammad",
        -1.0
      ],
      [
        "ode",
        -1.0
      ],
      [
        "Ġshould",
        -1.0
      ],
      [
        "iation",
        -1.0
      ],
      [
        "ĠDyna",
        -1.0
      ],
      [
        "ĠPeople",
        -1.0
      ],
      [
        "%)",
        -1.0
      ],
      [
        "Ġha",
        -1.0
      ],
      [
        "rin",
        -1.0
      ],
      [
        "Ġcharged",
        -1.0
      ],
      [
        "Ġinvent",
        -1.0
      ],
      [
        "Ġcarried",
        -1.0
      ],
      [
        "_",
        -1.0
      ],
      [
        "ĠAR",
        -1.0
      ],
      [
        "ga",
        -1.0
      ],
      [
        "Ġmanaged",
        -1.0
      ],
      [
        "ĠDepartment",
        -1.0
      ],
      [
        "Ġexceed",
        -1.0
      ],
      [
        "Ġar",
        -1.0
      ],
      [
        "Ġprocesses",
        -1.0
      ],
      [
        "Ġairplane",
        -1.0
      ],
      [
        "Ċ",
        -1.0
      ],
      [
        "Ġtuberculosis",
        -1.0
      ],
      [
        "ĠMoon",
        -1.0
      ],
      [
        "Ġcha",
        -1.0
      ],
      [
        "Ġheight",
        -1.0
      ],
      [
        "TP",
        -1.0
      ],
      [
        "Ġliterature",
        -1.0
      ],
      [
        "Ġcriteria",
        -1.0
      ],
      [
        "ĠConstitution",
        -1.0
      ],
      [
        "ibly",
        -1.0
      ],
      [
        "nic",
        -1.0
      ],
      [
        "Ġcultiv",
        -1.0
      ],
      [
        "ĠGreen",
        -1.0
      ],
      [
        "Ġfaced",
        -1.0
      ],
      [
        "ĠIntroduction",
        -1.0
      ],
      [
        "Ġsacred",
        -1.0
      ],
      [
        "os",
        -1.0
      ],
      [
        "Ġhelped",
        -1.0
      ],
      [
        "based",
        -1.0
      ],
      [
        "Ġreference",
        -1.0
      ],
      [
        "Ġsyndrome",
        -1.0
      ],
      [
        "Ġcultural",
        -1.0
      ],
      [
        "Ġpen",
        -1.0
      ],
      [
        "ffe",
        -1.0
      ],
      [
        "ĠGovernor",
        -1.0
      ],
      [
        "Ġoutside",
        -1.0
      ],
      [
        "ļ",
        -1.0
      ],
      [
        "ĠColumbus",
        -1.0
      ],
      [
        "He",
        -1.0
      ],
      [
        "Ġinterior",
        -1.0
      ],
      [
        "Ġdown",
        -1.0
      ],
      [
        "Ġliving",
        -1.0
      ],
      [
        "Ġclassic",
        -1.0
      ],
      [
        "ĠLu",
        -1.0
      ],
      [
        "ĠLater",
        -1.0
      ],
      [
        "Ġended",
        -1.0
      ],
      [
        "ett",
        -1.0
      ],
      [
        "oy",
        -1.0
      ],
      [
        "Ġpossibilities",
        -1.0
      ],
      [
        "Ġft",
        -1.0
      ],
      [
        "ec",
        -1.0
      ],
      [
        "Ġthere",
        -1.0
      ],
      [
        "Ġcomputer",
        -1.0
      ],
      [
        "ĠAlthough",
        -1.0
      ],
      [
        "Ġdoctrine",
        -1.0
      ],
      [
        "Ġcarry",
        -1.0
      ],
      [
        "Ġfiber",
        -1.0
      ],
      [
        "Ġtropical",
        -1.0
      ],
      [
        "Ġenemy",
        -1.0
      ],
      [
        "About",
        -1.0
      ],
      [
        "Ġraw",
        -1.0
      ],
      [
        "Ġlayers",
        -1.0
      ],
      [
        "ul",
        -1.0
      ],
      [
        "Ġnomin",
        -1.0
      ],
      [
        "Ġobstacle",
        -1.0
      ],
      [
        "Ġfurniture",
        -1.0
      ],
      [
        "Â·",
        -1.0
      ],
      [
        "ĠBoston",
        -1.0
      ],
      [
        "Ġwrong",
        -1.0
      ],
      [
        "less",
        -1.0
      ],
      [
        "spons",
        -1.0
      ],
      [
        "EM",
        -1.0
      ],
      [
        "Ġvaluable",
        -1.0
      ],
      [
        "Ġmultiple",
        -1.0
      ],
      [
        "tors",
        -1.0
      ],
      [
        "Ġrestaurant",
        -1.0
      ],
      [
        "state",
        -1.0
      ],
      [
        "ĠShakespeare",
        -1.0
      ],
      [
        "vis",
        -1.0
      ],
      [
        "ry",
        -1.0
      ],
      [
        "II",
        -1.0
      ],
      [
        "54",
        -1.0
      ],
      [
        "Ġapproval",
        -1.0
      ],
      [
        "Ġfilm",
        -1.0
      ],
      [
        "Ġaimed",
        -1.0
      ],
      [
        "Ġfunded",
        -1.0
      ],
      [
        "Ġcharge",
        -1.0
      ],
      [
        "Ġfigure",
        -1.0
      ],
      [
        "ĠBio",
        -1.0
      ],
      [
        "igorous",
        -1.0
      ],
      [
        "Ġme",
        -1.0
      ],
      [
        "Ġchose",
        -1.0
      ],
      [
        "±",
        -1.0
      ],
      [
        "Ġ1940",
        -1.0
      ],
      [
        "Ġcharacters",
        -1.0
      ],
      [
        "Ġachievement",
        -1.0
      ],
      [
        "ĠPMID",
        -1.0
      ],
      [
        "itation",
        -1.0
      ],
      [
        "Ġstatements",
        -1.0
      ],
      [
        "Ġcraft",
        -1.0
      ],
      [
        "ries",
        -1.0
      ],
      [
        "ĠAnd",
        -1.0
      ],
      [
        "Ġvocabulary",
        -1.0
      ],
      [
        "Ġignor",
        -1.0
      ],
      [
        "Ġships",
        -1.0
      ],
      [
        "ĠPlan",
        -1.0
      ],
      [
        "bury",
        -1.0
      ],
      [
        "Ġhaving",
        -1.0
      ],
      [
        "Ġiron",
        -1.0
      ],
      [
        "Ġminority",
        -1.0
      ],
      [
        "Ġacids",
        -1.0
      ],
      [
        "eu",
        -1.0
      ],
      [
        "rms",
        -1.0
      ],
      [
        "posed",
        -1.0
      ],
      [
        "Ġentry",
        -1.0
      ],
      [
        "ĠPh",
        -1.0
      ],
      [
        "ural",
        -1.0
      ],
      [
        "Ġtongue",
        -1.0
      ],
      [
        "Ġiniti",
        -1.0
      ],
      [
        "istic",
        -1.0
      ],
      [
        "Ġscientific",
        -1.0
      ],
      [
        "ss",
        -1.0
      ],
      [
        "ĠCensus",
        -1.0
      ],
      [
        "ital",
        -1.0
      ],
      [
        "Ý",
        -1.0
      ],
      [
        "Ġthink",
        -1.0
      ],
      [
        "Ġdomain",
        -1.0
      ],
      [
        "Ġlists",
        -1.0
      ],
      [
        "Ġsex",
        -1.0
      ],
      [
        "ized",
        -1.0
      ],
      [
        "Ġglobal",
        -1.0
      ],
      [
        "lid",
        -1.0
      ],
      [
        "Ġcases",
        -1.0
      ],
      [
        "Im",
        -1.0
      ],
      [
        "Ġcancer",
        -1.0
      ],
      [
        "gro",
        -1.0
      ],
      [
        "irs",
        -1.0
      ],
      [
        "Ġroyal",
        -1.0
      ],
      [
        "OD",
        -1.0
      ],
      [
        "about",
        -1.0
      ],
      [
        "ĠMil",
        -1.0
      ],
      [
        "Ġhost",
        -1.0
      ],
      [
        "Ġsna",
        -1.0
      ],
      [
        "Ġstreet",
        -1.0
      ],
      [
        "Ġfigures",
        -1.0
      ],
      [
        "Ġadvent",
        -1.0
      ],
      [
        "Ġeggs",
        -1.0
      ],
      [
        "as",
        -1.0
      ],
      [
        "IT",
        -1.0
      ],
      [
        "Ġmethod",
        -1.0
      ],
      [
        "Ġworst",
        -1.0
      ],
      [
        "Ġimprovements",
        -1.0
      ],
      [
        "Ġcool",
        -1.0
      ],
      [
        "ok",
        -1.0
      ],
      [
        "Copyright",
        -1.0
      ],
      [
        "Ġmarriage",
        -1.0
      ],
      [
        "Ġmeasuring",
        -1.0
      ],
      [
        "Ġdrinking",
        -1.0
      ],
      [
        "Ġinnovative",
        -1.0
      ],
      [
        "yers",
        -1.0
      ],
      [
        "Ġowner",
        -1.0
      ],
      [
        "Ġholding",
        -1.0
      ],
      [
        "Ġpositions",
        -1.0
      ],
      [
        "Ġ35",
        -1.0
      ],
      [
        "ĠInformation",
        -1.0
      ],
      [
        "range",
        -1.0
      ],
      [
        "Ġcontributions",
        -1.0
      ],
      [
        "Ġdiscovered",
        -1.0
      ],
      [
        "ei",
        -1.0
      ],
      [
        "ĠThere",
        -1.0
      ],
      [
        "Ġhorizon",
        -1.0
      ],
      [
        "Ġof",
        -1.0
      ],
      [
        "sphere",
        -1.0
      ],
      [
        "ĠGovernment",
        -1.0
      ],
      [
        "ĠRepublic",
        -1.0
      ],
      [
        "Ġexactly",
        -1.0
      ],
      [
        "Ġunit",
        -1.0
      ],
      [
        "front",
        -1.0
      ],
      [
        "Ġspatial",
        -1.0
      ],
      [
        "Ġsyn",
        -1.0
      ],
      [
        "Ġmothers",
        -1.0
      ],
      [
        "Ġfifty",
        -1.0
      ],
      [
        "Ġeth",
        -1.0
      ],
      [
        "ĠWest",
        -1.0
      ],
      [
        "ean",
        -1.0
      ],
      [
        "Ġpounds",
        -1.0
      ],
      [
        "acter",
        -1.0
      ],
      [
        "Ġsharing",
        -1.0
      ],
      [
        "Ġelements",
        -1.0
      ],
      [
        "ĠAllah",
        -1.0
      ],
      [
        "tical",
        -1.0
      ],
      [
        "ĠIreland",
        -1.0
      ],
      [
        "ĠPacific",
        -1.0
      ],
      [
        "\".",
        -1.0
      ],
      [
        "Ġrather",
        -1.0
      ],
      [
        "load",
        -1.0
      ],
      [
        "Ġpresentation",
        -1.0
      ],
      [
        "just",
        -1.0
      ],
      [
        "ttle",
        -1.0
      ],
      [
        "Ġthree",
        -1.0
      ],
      [
        "ĠScientific",
        -1.0
      ],
      [
        "26",
        -1.0
      ],
      [
        "ID",
        -1.0
      ],
      [
        "ination",
        -1.0
      ],
      [
        "en",
        -1.0
      ],
      [
        "mps",
        -1.0
      ],
      [
        "ĠCl",
        -1.0
      ],
      [
        "ĠAfrica",
        -1.0
      ],
      [
        "ĠNE",
        -1.0
      ],
      [
        "tor",
        -1.0
      ],
      [
        "Ġinteresting",
        -1.0
      ],
      [
        "Ġconcentrations",
        -1.0
      ],
      [
        "Ġalways",
        -1.0
      ],
      [
        "Ġcenturies",
        -1.0
      ],
      [
        "Ġinner",
        -1.0
      ],
      [
        "OS",
        -1.0
      ],
      [
        "oph",
        -1.0
      ],
      [
        "ĠCo",
        -1.0
      ],
      [
        "NC",
        -1.0
      ],
      [
        "Ġlevels",
        -1.0
      ],
      [
        "Ġshowing",
        -1.0
      ],
      [
        "ST",
        -1.0
      ],
      [
        "Ġwood",
        -1.0
      ],
      [
        "Ġeducators",
        -1.0
      ],
      [
        "tta",
        -1.0
      ],
      [
        "Ġdes",
        -1.0
      ],
      [
        "Ġwithdraw",
        -1.0
      ],
      [
        "Ġextract",
        -1.0
      ],
      [
        "ĠDo",
        -1.0
      ],
      [
        "Bo",
        -1.0
      ],
      [
        "rgy",
        -1.0
      ],
      [
        "ĠBl",
        -1.0
      ],
      [
        "Ġsacrifice",
        -1.0
      ],
      [
        "Ġwant",
        -1.0
      ],
      [
        "Ġbecome",
        -1.0
      ],
      [
        "Ġperhaps",
        -1.0
      ],
      [
        "Ġevolve",
        -1.0
      ],
      [
        "Ġleads",
        -1.0
      ],
      [
        "ĠSunday",
        -1.0
      ],
      [
        "Ġsubsequent",
        -1.0
      ],
      [
        "struction",
        -1.0
      ],
      [
        "Ġsu",
        -1.0
      ],
      [
        "Ġcomputers",
        -1.0
      ],
      [
        "Ġbelow",
        -1.0
      ],
      [
        "Ġissued",
        -1.0
      ],
      [
        "Ġ2002",
        -1.0
      ],
      [
        "Ph",
        -1.0
      ],
      [
        "Ġcoming",
        -1.0
      ],
      [
        "Ġstand",
        -1.0
      ],
      [
        "ĠChristian",
        -1.0
      ],
      [
        "Ġrapid",
        -1.0
      ],
      [
        "Ġsleep",
        -1.0
      ],
      [
        "ĠDakota",
        -1.0
      ],
      [
        "Ġprobability",
        -1.0
      ],
      [
        "Ġloss",
        -1.0
      ],
      [
        "Ġcircum",
        -1.0
      ],
      [
        "Ġ38",
        -1.0
      ],
      [
        "gress",
        -1.0
      ],
      [
        "ĠGlobal",
        -1.0
      ],
      [
        "ii",
        -1.0
      ],
      [
        "Here",
        -1.0
      ],
      [
        "yo",
        -1.0
      ],
      [
        "Ġoffspring",
        -1.0
      ],
      [
        "Ġspent",
        -1.0
      ],
      [
        "ß",
        -1.0
      ],
      [
        "cess",
        -1.0
      ],
      [
        "lves",
        -1.0
      ],
      [
        "Ġrespect",
        -1.0
      ],
      [
        "Ġassumed",
        -1.0
      ],
      [
        "ief",
        -1.0
      ],
      [
        "Ġgl",
        -1.0
      ],
      [
        "qui",
        -1.0
      ],
      [
        "Second",
        -1.0
      ],
      [
        "ations",
        -1.0
      ],
      [
        "ĠControl",
        -1.0
      ],
      [
        "Ġaim",
        -1.0
      ],
      [
        "od",
        -1.0
      ],
      [
        "Ġstreams",
        -1.0
      ],
      [
        "Ġmg",
        -1.0
      ],
      [
        "Bu",
        -1.0
      ],
      [
        "Ġfavour",
        -1.0
      ],
      [
        "w",
        -1.0
      ],
      [
        "í",
        -1.0
      ],
      [
        "Ġcertainly",
        -1.0
      ],
      [
        "AG",
        -1.0
      ],
      [
        "Ġcounterparts",
        -1.0
      ],
      [
        "Ġbecause",
        -1.0
      ],
      [
        "IM",
        -1.0
      ],
      [
        "inal",
        -1.0
      ],
      [
        "Ġpin",
        -1.0
      ],
      [
        "ĠEnergy",
        -1.0
      ],
      [
        "Ġconf",
        -1.0
      ],
      [
        "Ġinterview",
        -1.0
      ],
      [
        "Ġunnecessary",
        -1.0
      ],
      [
        "ĠAmong",
        -1.0
      ],
      [
        "ĠHome",
        -1.0
      ],
      [
        "ĠSupreme",
        -1.0
      ],
      [
        "Ġsensitive",
        -1.0
      ],
      [
        "cation",
        -1.0
      ],
      [
        "ĠShi",
        -1.0
      ],
      [
        "ĠMed",
        -1.0
      ],
      [
        "Ġterms",
        -1.0
      ],
      [
        "Lo",
        -1.0
      ],
      [
        "Ġaudio",
        -1.0
      ],
      [
        "PS",
        -1.0
      ],
      [
        "ĠRussia",
        -1.0
      ],
      [
        "ologic",
        -1.0
      ],
      [
        "Ġsurge",
        -1.0
      ],
      [
        "ening",
        -1.0
      ],
      [
        "ĠManhattan",
        -1.0
      ],
      [
        "books",
        -1.0
      ],
      [
        "WA",
        -1.0
      ],
      [
        "Ġfriends",
        -1.0
      ],
      [
        "ature",
        -1.0
      ],
      [
        "Ġafraid",
        -1.0
      ],
      [
        "Ġwise",
        -1.0
      ],
      [
        "tension",
        -1.0
      ],
      [
        "Ġpublished",
        -1.0
      ],
      [
        "Ġexplained",
        -1.0
      ],
      [
        "Ġrecreation",
        -1.0
      ],
      [
        "Ġfavorite",
        -1.0
      ],
      [
        "Ġtwentieth",
        -1.0
      ],
      [
        "ĠMajor",
        -1.0
      ],
      [
        "ĠPaul",
        -1.0
      ],
      [
        "NA",
        -1.0
      ],
      [
        "Ð¸",
        -1.0
      ],
      [
        "Ġadjust",
        -1.0
      ],
      [
        "ĠState",
        -1.0
      ],
      [
        "turn",
        -1.0
      ],
      [
        "Ġparticles",
        -1.0
      ],
      [
        "Ġchance",
        -1.0
      ],
      [
        "Ġforests",
        -1.0
      ],
      [
        "Ġbehavior",
        -1.0
      ],
      [
        "osis",
        -1.0
      ],
      [
        "ĠFA",
        -1.0
      ],
      [
        "ot",
        -1.0
      ],
      [
        "Ġgalaxies",
        -1.0
      ],
      [
        "ĠCar",
        -1.0
      ],
      [
        "Ġbreed",
        -1.0
      ],
      [
        "ĠPrincip",
        -1.0
      ],
      [
        "ĠAdditionally",
        -1.0
      ],
      [
        "Ġessay",
        -1.0
      ],
      [
        ").",
        -1.0
      ],
      [
        "Ġhybrid",
        -1.0
      ],
      [
        "Many",
        -1.0
      ],
      [
        "į",
        -1.0
      ],
      [
        "Ġreport",
        -1.0
      ],
      [
        "Ġstakeholders",
        -1.0
      ],
      [
        "rious",
        -1.0
      ],
      [
        "Ġmeat",
        -1.0
      ],
      [
        "Ġsmoke",
        -1.0
      ],
      [
        "Ġnarrow",
        -1.0
      ],
      [
        "90",
        -1.0
      ],
      [
        "Cs",
        -1.0
      ],
      [
        "Ġgeneral",
        -1.0
      ],
      [
        "ung",
        -1.0
      ],
      [
        "Ġsan",
        -1.0
      ],
      [
        "part",
        -1.0
      ],
      [
        "Ġempire",
        -1.0
      ],
      [
        "nel",
        -1.0
      ],
      [
        "ĠDNA",
        -1.0
      ],
      [
        "ĠSenate",
        -1.0
      ],
      [
        "Ġstream",
        -1.0
      ],
      [
        "an",
        -1.0
      ],
      [
        "develop",
        -1.0
      ],
      [
        "ĠLab",
        -1.0
      ],
      [
        "IO",
        -1.0
      ],
      [
        "Ġlegend",
        -1.0
      ],
      [
        "Ġfi",
        -1.0
      ],
      [
        "Ġmotor",
        -1.0
      ],
      [
        "ĠAnimal",
        -1.0
      ],
      [
        "Ġessence",
        -1.0
      ],
      [
        "ad",
        -1.0
      ],
      [
        "Ġthough",
        -1.0
      ],
      [
        ")||",
        -1.0
      ],
      [
        "Ġastronom",
        -1.0
      ],
      [
        "Ġimpe",
        -1.0
      ],
      [
        "ĠOr",
        -1.0
      ],
      [
        "HE",
        -1.0
      ],
      [
        "Ġattack",
        -1.0
      ],
      [
        "vers",
        -1.0
      ],
      [
        "Ġk",
        -1.0
      ],
      [
        "ĠPolicy",
        -1.0
      ],
      [
        "Ġgenome",
        -1.0
      ],
      [
        "Ķ",
        -1.0
      ],
      [
        "Ġweeks",
        -1.0
      ],
      [
        "ĠSan",
        -1.0
      ],
      [
        "profit",
        -1.0
      ],
      [
        "ĠMy",
        -1.0
      ],
      [
        "ĠDictionary",
        -1.0
      ],
      [
        "wan",
        -1.0
      ],
      [
        "sta",
        -1.0
      ],
      [
        "Ġfrequency",
        -1.0
      ],
      [
        "ĠYour",
        -1.0
      ],
      [
        "At",
        -1.0
      ],
      [
        "Ġexposed",
        -1.0
      ],
      [
        "ows",
        -1.0
      ],
      [
        "Ġarm",
        -1.0
      ],
      [
        "Ġfighting",
        -1.0
      ],
      [
        "Ġfocuses",
        -1.0
      ],
      [
        "40",
        -1.0
      ],
      [
        "Ġlived",
        -1.0
      ],
      [
        "Ġav",
        -1.0
      ],
      [
        "ĠPsych",
        -1.0
      ],
      [
        "Ġobjects",
        -1.0
      ],
      [
        "ĠNutrition",
        -1.0
      ],
      [
        "mi",
        -1.0
      ],
      [
        "Ġvariety",
        -1.0
      ],
      [
        "ĠHamilton",
        -1.0
      ],
      [
        "org",
        -1.0
      ],
      [
        "ce",
        -1.0
      ],
      [
        "Ġpicture",
        -1.0
      ],
      [
        "Ġimpossible",
        -1.0
      ],
      [
        "ĠTheir",
        -1.0
      ],
      [
        "Ġaid",
        -1.0
      ],
      [
        "ids",
        -1.0
      ],
      [
        "view",
        -1.0
      ],
      [
        "Ġdetermine",
        -1.0
      ],
      [
        "Ġsh",
        -1.0
      ],
      [
        "uv",
        -1.0
      ],
      [
        "ĠJo",
        -1.0
      ],
      [
        "Ġradi",
        -1.0
      ],
      [
        "ĠScotland",
        -1.0
      ],
      [
        "Ġdivided",
        -1.0
      ],
      [
        "Ġtechnological",
        -1.0
      ],
      [
        "ta",
        -1.0
      ],
      [
        "sk",
        -1.0
      ],
      [
        "Ġcitizens",
        -1.0
      ],
      [
        "Ġextremely",
        -1.0
      ],
      [
        "Ġstored",
        -1.0
      ],
      [
        "Ġrural",
        -1.0
      ],
      [
        "Ġutil",
        -1.0
      ],
      [
        "Ġstock",
        -1.0
      ],
      [
        "Ġcarcino",
        -1.0
      ],
      [
        "Ġdrought",
        -1.0
      ],
      [
        "Ġsurviv",
        -1.0
      ],
      [
        "Ġseizure",
        -1.0
      ],
      [
        "lis",
        -1.0
      ],
      [
        "Ġdress",
        -1.0
      ],
      [
        "Ġconstruct",
        -1.0
      ],
      [
        "ĠScott",
        -1.0
      ],
      [
        "ĠGu",
        -1.0
      ],
      [
        "nks",
        -1.0
      ],
      [
        "Ġnotes",
        -1.0
      ],
      [
        "ĠCatholic",
        -1.0
      ],
      [
        "ĠLord",
        -1.0
      ],
      [
        "el",
        -1.0
      ],
      [
        "ĠRel",
        -1.0
      ],
      [
        "Ġgame",
        -1.0
      ],
      [
        "ĠGene",
        -1.0
      ],
      [
        "ô",
        -1.0
      ],
      [
        "Ġrailroad",
        -1.0
      ],
      [
        "Ġobserve",
        -1.0
      ],
      [
        "Ġmulti",
        -1.0
      ],
      [
        "Ġcomponents",
        -1.0
      ],
      [
        "ĠNevada",
        -1.0
      ],
      [
        "Ú",
        -1.0
      ],
      [
        "SU",
        -1.0
      ],
      [
        "ĠNovember",
        -1.0
      ],
      [
        "Ġhonour",
        -1.0
      ],
      [
        "Ra",
        -1.0
      ],
      [
        "Ġton",
        -1.0
      ],
      [
        "Ġpolitical",
        -1.0
      ],
      [
        "Ġrecall",
        -1.0
      ],
      [
        "Ġachieving",
        -1.0
      ],
      [
        "ĠFukushima",
        -1.0
      ],
      [
        "Ġelectric",
        -1.0
      ],
      [
        "Ġaction",
        -1.0
      ],
      [
        "Ġ&",
        -1.0
      ],
      [
        "nd",
        -1.0
      ],
      [
        "Ġdecay",
        -1.0
      ],
      [
        "ĠNow",
        -1.0
      ],
      [
        "<",
        -1.0
      ],
      [
        "Ġemerging",
        -1.0
      ],
      [
        "Ġglass",
        -1.0
      ],
      [
        "ĠKa",
        -1.0
      ],
      [
        "Ġcardiovascular",
        -1.0
      ],
      [
        "ĠBabylon",
        -1.0
      ],
      [
        "aw",
        -1.0
      ],
      [
        "organ",
        -1.0
      ],
      [
        "34",
        -1.0
      ],
      [
        "Ġbreathing",
        -1.0
      ],
      [
        "Ġexist",
        -1.0
      ],
      [
        "ĠRussian",
        -1.0
      ],
      [
        "Ġblind",
        -1.0
      ],
      [
        "yon",
        -1.0
      ],
      [
        "ckle",
        -1.0
      ],
      [
        "for",
        -1.0
      ],
      [
        "Ġmeal",
        -1.0
      ],
      [
        "Ġvisual",
        -1.0
      ],
      [
        "ES",
        -1.0
      ],
      [
        "Ġassault",
        -1.0
      ],
      [
        "ĠWorld",
        -1.0
      ],
      [
        "Ġritual",
        -1.0
      ],
      [
        "Po",
        -1.0
      ],
      [
        "cket",
        -1.0
      ],
      [
        "Ġvegetables",
        -1.0
      ],
      [
        "Ġtreatment",
        -1.0
      ],
      [
        "Ġessential",
        -1.0
      ],
      [
        "Ġmerely",
        -1.0
      ],
      [
        "Ġoccasionally",
        -1.0
      ],
      [
        "Ġassociated",
        -1.0
      ],
      [
        "Ġproof",
        -1.0
      ],
      [
        "Ġsome",
        -1.0
      ],
      [
        "but",
        -1.0
      ],
      [
        "Ġkingdom",
        -1.0
      ],
      [
        "ĠOne",
        -1.0
      ],
      [
        "Ġsupporting",
        -1.0
      ],
      [
        "Ġmild",
        -1.0
      ],
      [
        "ĠStandard",
        -1.0
      ],
      [
        "ological",
        -1.0
      ],
      [
        "pi",
        -1.0
      ],
      [
        "Ġconversion",
        -1.0
      ],
      [
        "fi",
        -1.0
      ],
      [
        "Ġ14",
        -1.0
      ],
      [
        "Ġtechniques",
        -1.0
      ],
      [
        "Ġartists",
        -1.0
      ],
      [
        "Ġarrived",
        -1.0
      ],
      [
        "Ġscra",
        -1.0
      ],
      [
        "stitution",
        -1.0
      ],
      [
        "Ġweakness",
        -1.0
      ],
      [
        "Ġeach",
        -1.0
      ],
      [
        "ants",
        -1.0
      ],
      [
        "Ġammunition",
        -1.0
      ],
      [
        "Ġcre",
        -1.0
      ],
      [
        "Â®",
        -1.0
      ],
      [
        "hl",
        -1.0
      ],
      [
        "au",
        -1.0
      ],
      [
        "Ġcomes",
        -1.0
      ],
      [
        "wed",
        -1.0
      ],
      [
        "Ġvisitors",
        -1.0
      ],
      [
        "Se",
        -1.0
      ],
      [
        "PI",
        -1.0
      ],
      [
        "Ġtoo",
        -1.0
      ],
      [
        "Ġc",
        -1.0
      ],
      [
        "Ġeconom",
        -1.0
      ],
      [
        "Ġcountry",
        -1.0
      ],
      [
        "Ġsemi",
        -1.0
      ],
      [
        "Ġdominant",
        -1.0
      ],
      [
        "ĠCancer",
        -1.0
      ],
      [
        "Ġfibr",
        -1.0
      ],
      [
        "Ġwestern",
        -1.0
      ],
      [
        "Ġspring",
        -1.0
      ],
      [
        "Ġdevastating",
        -1.0
      ],
      [
        "Ġkinds",
        -1.0
      ],
      [
        "Ġislands",
        -1.0
      ],
      [
        "dia",
        -1.0
      ],
      [
        "Ġpreparation",
        -1.0
      ],
      [
        "13",
        -1.0
      ],
      [
        "Ġwhich",
        -1.0
      ],
      [
        "ĠJordan",
        -1.0
      ],
      [
        "Ġafford",
        -1.0
      ],
      [
        "Ġspoken",
        -1.0
      ],
      [
        "Ġbiomass",
        -1.0
      ],
      [
        "www",
        -1.0
      ],
      [
        "eg",
        -1.0
      ],
      [
        "Ġrespiratory",
        -1.0
      ],
      [
        "ĠAfrican",
        -1.0
      ],
      [
        "Ġadjacent",
        -1.0
      ],
      [
        "Ġstatistics",
        -1.0
      ],
      [
        "Ġscholars",
        -1.0
      ],
      [
        "Ġworth",
        -1.0
      ],
      [
        "Ġbiodiversity",
        -1.0
      ],
      [
        "ĠVol",
        -1.0
      ],
      [
        "Ġtrigger",
        -1.0
      ],
      [
        "Ġirregular",
        -1.0
      ],
      [
        "being",
        -1.0
      ],
      [
        "Ġenzyme",
        -1.0
      ],
      [
        "Ġincidence",
        -1.0
      ],
      [
        "Ġ26",
        -1.0
      ],
      [
        "Ġestimates",
        -1.0
      ],
      [
        "Ġspontaneous",
        -1.0
      ],
      [
        "Ġsought",
        -1.0
      ],
      [
        "Ġconsumers",
        -1.0
      ],
      [
        "\"",
        -1.0
      ],
      [
        "Ġchest",
        -1.0
      ],
      [
        "Ġdiscussions",
        -1.0
      ],
      [
        "ĠNebraska",
        -1.0
      ],
      [
        "Ġtherapies",
        -1.0
      ],
      [
        "Ġmillions",
        -1.0
      ],
      [
        "EO",
        -1.0
      ],
      [
        "Ġmetal",
        -1.0
      ],
      [
        "Ġimplications",
        -1.0
      ],
      [
        "Te",
        -1.0
      ],
      [
        "sca",
        -1.0
      ],
      [
        "ME",
        -1.0
      ],
      [
        "nnel",
        -1.0
      ],
      [
        "Ġsurvive",
        -1.0
      ],
      [
        "Ġweek",
        -1.0
      ],
      [
        "Ġcloud",
        -1.0
      ],
      [
        "Ġliver",
        -1.0
      ],
      [
        "Ġmysterious",
        -1.0
      ],
      [
        "onal",
        -1.0
      ],
      [
        "Ġaccident",
        -1.0
      ],
      [
        "Ġimp",
        -1.0
      ],
      [
        "Ġshow",
        -1.0
      ],
      [
        "Ġimplement",
        -1.0
      ],
      [
        "Health",
        -1.0
      ],
      [
        "Ġdelivery",
        -1.0
      ],
      [
        "ĠIS",
        -1.0
      ],
      [
        "ll",
        -1.0
      ],
      [
        "ĠMaryland",
        -1.0
      ],
      [
        "Ġagain",
        -1.0
      ],
      [
        "ĠHebrew",
        -1.0
      ],
      [
        "Ġplay",
        -1.0
      ],
      [
        "Ġtheories",
        -1.0
      ],
      [
        "Ġhopes",
        -1.0
      ],
      [
        "Ġ(",
        -1.0
      ],
      [
        "Ġv",
        -1.0
      ],
      [
        "Ġdanger",
        -1.0
      ],
      [
        "Ġ45",
        -1.0
      ],
      [
        "Ġdollars",
        -1.0
      ],
      [
        "Ġanalysis",
        -1.0
      ],
      [
        "dding",
        -1.0
      ],
      [
        "Ġhuman",
        -1.0
      ],
      [
        "ĠUnder",
        -1.0
      ],
      [
        "ĠPeninsula",
        -1.0
      ],
      [
        ".||",
        -1.0
      ],
      [
        "Ġbrilliant",
        -1.0
      ],
      [
        "Ġ:",
        -1.0
      ],
      [
        "ĠChild",
        -1.0
      ],
      [
        "ents",
        -1.0
      ],
      [
        "She",
        -1.0
      ],
      [
        "Ġdesirable",
        -1.0
      ],
      [
        "ENT",
        -1.0
      ],
      [
        "han",
        -1.0
      ],
      [
        "Ġsituated",
        -1.0
      ],
      [
        "Ġtoward",
        -1.0
      ],
      [
        "Ġfuels",
        -1.0
      ],
      [
        "Ġcore",
        -1.0
      ],
      [
        "rely",
        -1.0
      ],
      [
        "Ġhealth",
        -1.0
      ],
      [
        "Ġt",
        -1.0
      ],
      [
        "ĠSta",
        -1.0
      ],
      [
        "Ġinstruction",
        -1.0
      ],
      [
        "Ġindependent",
        -1.0
      ],
      [
        "Ġthird",
        -1.0
      ],
      [
        "Ġliquid",
        -1.0
      ],
      [
        "Ġbegin",
        -1.0
      ],
      [
        "ĠAct",
        -1.0
      ],
      [
        "Ġpolice",
        -1.0
      ],
      [
        "Hu",
        -1.0
      ],
      [
        "Ġtelling",
        -1.0
      ],
      [
        "itor",
        -1.0
      ],
      [
        "car",
        -1.0
      ],
      [
        "Ġinquiry",
        -1.0
      ],
      [
        "Wo",
        -1.0
      ],
      [
        "Can",
        -1.0
      ],
      [
        "Ġinvisible",
        -1.0
      ],
      [
        "ĠCouncil",
        -1.0
      ],
      [
        "izing",
        -1.0
      ],
      [
        "Ġcooking",
        -1.0
      ],
      [
        "Ġblocks",
        -1.0
      ],
      [
        "Ġarthritis",
        -1.0
      ],
      [
        "Ġgather",
        -1.0
      ],
      [
        "metric",
        -1.0
      ],
      [
        "Ġcomp",
        -1.0
      ],
      [
        "ĠISBN",
        -1.0
      ],
      [
        "Ġfault",
        -1.0
      ],
      [
        "yl",
        -1.0
      ],
      [
        "DA",
        -1.0
      ],
      [
        "Ġentitled",
        -1.0
      ],
      [
        "Ġparticipation",
        -1.0
      ],
      [
        "Ġexcessive",
        -1.0
      ],
      [
        "ots",
        -1.0
      ],
      [
        "Ġprotecting",
        -1.0
      ],
      [
        "ĠTestament",
        -1.0
      ],
      [
        "Ġstate",
        -1.0
      ],
      [
        "ily",
        -1.0
      ],
      [
        "Ġchemicals",
        -1.0
      ],
      [
        "Ġspiritual",
        -1.0
      ],
      [
        "Ġnovel",
        -1.0
      ],
      [
        "Ġdeci",
        -1.0
      ],
      [
        "Ġpharmaceutical",
        -1.0
      ],
      [
        "Our",
        -1.0
      ],
      [
        "Ġvelocity",
        -1.0
      ],
      [
        "Ġmuseum",
        -1.0
      ],
      [
        "TA",
        -1.0
      ],
      [
        "Z",
        -1.0
      ],
      [
        "Ġfacts",
        -1.0
      ],
      [
        "Ġdi",
        -1.0
      ],
      [
        "Ġid",
        -1.0
      ],
      [
        "Ġgenes",
        -1.0
      ],
      [
        "Ġe",
        -1.0
      ],
      [
        "ler",
        -1.0
      ],
      [
        "ĠJews",
        -1.0
      ],
      [
        "Ġfinger",
        -1.0
      ],
      [
        "Ġmaybe",
        -1.0
      ],
      [
        "Ġho",
        -1.0
      ],
      [
        "Figure",
        -1.0
      ],
      [
        "ĠWhile",
        -1.0
      ],
      [
        "Ġdivide",
        -1.0
      ],
      [
        "Ġveter",
        -1.0
      ],
      [
        "ech",
        -1.0
      ],
      [
        "Ġresponses",
        -1.0
      ],
      [
        "Ġ80",
        -1.0
      ],
      [
        "ł",
        -1.0
      ],
      [
        "Ġse",
        -1.0
      ],
      [
        "Ġexperimental",
        -1.0
      ],
      [
        "Ġacute",
        -1.0
      ],
      [
        "ĠWeb",
        -1.0
      ],
      [
        "Ġtool",
        -1.0
      ],
      [
        "Ġbill",
        -1.0
      ],
      [
        "Ġpoison",
        -1.0
      ],
      [
        "Ġsister",
        -1.0
      ],
      [
        "Ġgrade",
        -1.0
      ],
      [
        "Over",
        -1.0
      ],
      [
        "sters",
        -1.0
      ],
      [
        "Ġexception",
        -1.0
      ],
      [
        "ĠDivision",
        -1.0
      ],
      [
        "Ġdys",
        -1.0
      ],
      [
        "Ġsubjects",
        -1.0
      ],
      [
        "Ġcorporation",
        -1.0
      ],
      [
        "Ġglu",
        -1.0
      ],
      [
        "ulated",
        -1.0
      ],
      [
        "Ë",
        -1.0
      ],
      [
        "Ġsupplies",
        -1.0
      ],
      [
        "Ġecological",
        -1.0
      ],
      [
        "ĠChinese",
        -1.0
      ],
      [
        "biotic",
        -1.0
      ],
      [
        "Ġheating",
        -1.0
      ],
      [
        "Ġdinosaur",
        -1.0
      ],
      [
        "wl",
        -1.0
      ],
      [
        "Ġforth",
        -1.0
      ],
      [
        "SA",
        -1.0
      ],
      [
        "ĠPan",
        -1.0
      ],
      [
        "Ġshort",
        -1.0
      ],
      [
        "Ġheard",
        -1.0
      ],
      [
        "Ġeffectiveness",
        -1.0
      ],
      [
        "Ġannually",
        -1.0
      ],
      [
        "ĠToronto",
        -1.0
      ],
      [
        "ue",
        -1.0
      ],
      [
        "ĠLabor",
        -1.0
      ],
      [
        "rous",
        -1.0
      ],
      [
        "ĠWhat",
        -1.0
      ],
      [
        "Ġassociation",
        -1.0
      ],
      [
        "ĠExecutive",
        -1.0
      ],
      [
        "ĠGal",
        -1.0
      ],
      [
        "Ġgrass",
        -1.0
      ],
      [
        "Ġexcellent",
        -1.0
      ],
      [
        "nch",
        -1.0
      ],
      [
        "Ġplasma",
        -1.0
      ],
      [
        "Ġdeath",
        -1.0
      ],
      [
        "Ġcluster",
        -1.0
      ],
      [
        "Ġfederal",
        -1.0
      ],
      [
        "Ġextent",
        -1.0
      ],
      [
        "ging",
        -1.0
      ],
      [
        "vision",
        -1.0
      ],
      [
        "Ġmarch",
        -1.0
      ],
      [
        "Ò",
        -1.0
      ],
      [
        "gon",
        -1.0
      ],
      [
        "ir",
        -1.0
      ],
      [
        "Bl",
        -1.0
      ],
      [
        "Ġprinted",
        -1.0
      ],
      [
        "ĠPhoto",
        -1.0
      ],
      [
        "Ġreserves",
        -1.0
      ],
      [
        "ĠAntarctic",
        -1.0
      ],
      [
        "ĠTemple",
        -1.0
      ],
      [
        "ind",
        -1.0
      ],
      [
        "tts",
        -1.0
      ],
      [
        "Ġmagnetic",
        -1.0
      ],
      [
        "Ġirrigation",
        -1.0
      ],
      [
        "ĠWill",
        -1.0
      ],
      [
        "ĠSpecies",
        -1.0
      ],
      [
        "Ġoperation",
        -1.0
      ],
      [
        "ĠOrthodox",
        -1.0
      ],
      [
        "Ġlonger",
        -1.0
      ],
      [
        "formation",
        -1.0
      ],
      [
        "Ġaffected",
        -1.0
      ],
      [
        "ĠÂ",
        -1.0
      ],
      [
        "ĠJewish",
        -1.0
      ],
      [
        "Ġtwo",
        -1.0
      ],
      [
        "Ġtomato",
        -1.0
      ],
      [
        "Ġremove",
        -1.0
      ],
      [
        "Ġsounds",
        -1.0
      ],
      [
        "¾",
        -1.0
      ],
      [
        "ies",
        -1.0
      ],
      [
        "Ġjump",
        -1.0
      ],
      [
        "Ġadded",
        -1.0
      ],
      [
        "emperature",
        -1.0
      ],
      [
        "Ġdatabase",
        -1.0
      ],
      [
        "Ġcollections",
        -1.0
      ],
      [
        "Ġeastern",
        -1.0
      ],
      [
        "SR",
        -1.0
      ],
      [
        "Ġcivilization",
        -1.0
      ],
      [
        "ĠFrench",
        -1.0
      ],
      [
        "Ġsoftware",
        -1.0
      ],
      [
        "called",
        -1.0
      ],
      [
        "Pre",
        -1.0
      ],
      [
        "mas",
        -1.0
      ],
      [
        "Ġoften",
        -1.0
      ],
      [
        "Ġincentive",
        -1.0
      ],
      [
        "Ġexplo",
        -1.0
      ],
      [
        "Ġrecognition",
        -1.0
      ],
      [
        "By",
        -1.0
      ],
      [
        "Ġongoing",
        -1.0
      ],
      [
        "Ġabolition",
        -1.0
      ],
      [
        "Ġmajority",
        -1.0
      ],
      [
        "Ġnose",
        -1.0
      ],
      [
        "Ġend",
        -1.0
      ],
      [
        "san",
        -1.0
      ],
      [
        "Ġhemisphere",
        -1.0
      ],
      [
        "Ġpreventing",
        -1.0
      ],
      [
        "Ġprovides",
        -1.0
      ],
      [
        "Ġhabits",
        -1.0
      ],
      [
        "Ġclothing",
        -1.0
      ],
      [
        "system",
        -1.0
      ],
      [
        "original",
        -1.0
      ],
      [
        "ĠLea",
        -1.0
      ],
      [
        "Ġstra",
        -1.0
      ],
      [
        "Wa",
        -1.0
      ],
      [
        "AIDS",
        -1.0
      ],
      [
        "ĠNOAA",
        -1.0
      ],
      [
        "ping",
        -1.0
      ],
      [
        "Ġweight",
        -1.0
      ],
      [
        "Ġtheme",
        -1.0
      ],
      [
        "ĠCommission",
        -1.0
      ],
      [
        "med",
        -1.0
      ],
      [
        "Ġad",
        -1.0
      ],
      [
        "if",
        -1.0
      ],
      [
        "Ġcat",
        -1.0
      ],
      [
        "Ġselected",
        -1.0
      ],
      [
        "Ġexplains",
        -1.0
      ],
      [
        "ĠWith",
        -1.0
      ],
      [
        "ĠÄĢá¹ŃmÄģ",
        -1.0
      ],
      [
        "Ġelse",
        -1.0
      ],
      [
        "ĠAndrew",
        -1.0
      ],
      [
        "Ġaccompan",
        -1.0
      ],
      [
        "Ġyou",
        -1.0
      ],
      [
        "g",
        -1.0
      ],
      [
        "Ġdomestic",
        -1.0
      ],
      [
        "Ġviewed",
        -1.0
      ],
      [
        "Ġreligious",
        -1.0
      ],
      [
        "Ġrobust",
        -1.0
      ],
      [
        "eds",
        -1.0
      ],
      [
        "Ġdigital",
        -1.0
      ],
      [
        "meter",
        -1.0
      ],
      [
        "Ġquarter",
        -1.0
      ],
      [
        "ĠEuropean",
        -1.0
      ],
      [
        "Ġdecreased",
        -1.0
      ],
      [
        "Ġcontents",
        -1.0
      ],
      [
        "Ġways",
        -1.0
      ],
      [
        "ĠThursday",
        -1.0
      ],
      [
        "ters",
        -1.0
      ],
      [
        "Ġsame",
        -1.0
      ],
      [
        "sm",
        -1.0
      ],
      [
        "Ġexamined",
        -1.0
      ],
      [
        "Ġax",
        -1.0
      ],
      [
        "ĳ",
        -1.0
      ],
      [
        "ĠDa",
        -1.0
      ],
      [
        "Ġintermediate",
        -1.0
      ],
      [
        "Ġeasily",
        -1.0
      ],
      [
        "Ġsees",
        -1.0
      ],
      [
        "Ġlooked",
        -1.0
      ],
      [
        "http",
        -1.0
      ],
      [
        "Ġbones",
        -1.0
      ],
      [
        "--",
        -1.0
      ],
      [
        "Ġcru",
        -1.0
      ],
      [
        "Ġjudicial",
        -1.0
      ],
      [
        "Ġancient",
        -1.0
      ],
      [
        "ĠThough",
        -1.0
      ],
      [
        "itive",
        -1.0
      ],
      [
        "ching",
        -1.0
      ],
      [
        "ĠDouglas",
        -1.0
      ],
      [
        "PO",
        -1.0
      ],
      [
        "ĠHospital",
        -1.0
      ],
      [
        "Ġevening",
        -1.0
      ],
      [
        "ĠRepresentatives",
        -1.0
      ],
      [
        "ged",
        -1.0
      ],
      [
        "Ġbring",
        -1.0
      ],
      [
        "Ġapplications",
        -1.0
      ],
      [
        "erial",
        -1.0
      ],
      [
        "Ġle",
        -1.0
      ],
      [
        "Ġallergies",
        -1.0
      ],
      [
        "ĠCarolina",
        -1.0
      ],
      [
        "ĠHy",
        -1.0
      ],
      [
        "Ġconfiguration",
        -1.0
      ],
      [
        "la",
        -1.0
      ],
      [
        "Ġspeak",
        -1.0
      ],
      [
        "Ġgun",
        -1.0
      ],
      [
        "tribute",
        -1.0
      ],
      [
        "Ġstone",
        -1.0
      ],
      [
        "Ġcause",
        -1.0
      ],
      [
        "Ġsecondary",
        -1.0
      ],
      [
        "ĠOttoman",
        -1.0
      ],
      [
        "Ġcompos",
        -1.0
      ],
      [
        "Ġdisturb",
        -1.0
      ],
      [
        "Ġheads",
        -1.0
      ],
      [
        "Ġrelatively",
        -1.0
      ],
      [
        "ĠAM",
        -1.0
      ],
      [
        "ĠVictoria",
        -1.0
      ],
      [
        "pped",
        -1.0
      ],
      [
        "ĠThis",
        -1.0
      ],
      [
        "der",
        -1.0
      ],
      [
        "Why",
        -1.0
      ],
      [
        "Ġcaused",
        -1.0
      ],
      [
        "ny",
        -1.0
      ],
      [
        "Ġfalse",
        -1.0
      ],
      [
        "Ġstu",
        -1.0
      ],
      [
        "rence",
        -1.0
      ],
      [
        "Ġoffers",
        -1.0
      ],
      [
        "Ġemployees",
        -1.0
      ],
      [
        "ĠHam",
        -1.0
      ],
      [
        "63",
        -1.0
      ],
      [
        "itable",
        -1.0
      ],
      [
        "Ġfailure",
        -1.0
      ],
      [
        "Ġgall",
        -1.0
      ],
      [
        "ĠOpera",
        -1.0
      ],
      [
        "Ġhelpful",
        -1.0
      ],
      [
        "ĠVis",
        -1.0
      ],
      [
        "Ġevents",
        -1.0
      ],
      [
        "Ġfamily",
        -1.0
      ],
      [
        "My",
        -1.0
      ],
      [
        "Ġresults",
        -1.0
      ],
      [
        "Ġimportant",
        -1.0
      ],
      [
        "Ġfiscal",
        -1.0
      ],
      [
        "ĠEqu",
        -1.0
      ],
      [
        "Ġeverything",
        -1.0
      ],
      [
        "Ġproper",
        -1.0
      ],
      [
        "Ġnutrition",
        -1.0
      ],
      [
        "Ġacres",
        -1.0
      ],
      [
        "ĠData",
        -1.0
      ],
      [
        "Ġspread",
        -1.0
      ],
      [
        "Ġleaving",
        -1.0
      ],
      [
        "Ġinsect",
        -1.0
      ],
      [
        "Ġtopic",
        -1.0
      ],
      [
        "ically",
        -1.0
      ],
      [
        "ĠNA",
        -1.0
      ],
      [
        "Ġsatisf",
        -1.0
      ],
      [
        "Ġflash",
        -1.0
      ],
      [
        "ĠEvidence",
        -1.0
      ],
      [
        "ĠPlease",
        -1.0
      ],
      [
        "Ļ",
        -1.0
      ],
      [
        "grams",
        -1.0
      ],
      [
        "ĠAugust",
        -1.0
      ],
      [
        "Ġcontinu",
        -1.0
      ],
      [
        "ur",
        -1.0
      ],
      [
        "rm",
        -1.0
      ],
      [
        "Ġstimul",
        -1.0
      ],
      [
        "Ġdefinitely",
        -1.0
      ],
      [
        "ĠResources",
        -1.0
      ],
      [
        "Ġproperly",
        -1.0
      ],
      [
        "Ġpilot",
        -1.0
      ],
      [
        "Ġbio",
        -1.0
      ],
      [
        "Ġtransport",
        -1.0
      ],
      [
        "Ġvoice",
        -1.0
      ],
      [
        "Ġbased",
        -1.0
      ],
      [
        "ĠHe",
        -1.0
      ],
      [
        "ĠTherefore",
        -1.0
      ],
      [
        "Ġoperated",
        -1.0
      ],
      [
        "Ġlargest",
        -1.0
      ],
      [
        "ĠNY",
        -1.0
      ],
      [
        "Ġprefer",
        -1.0
      ],
      [
        "Ġremarkable",
        -1.0
      ],
      [
        "hr",
        -1.0
      ],
      [
        "Ġinfrastructure",
        -1.0
      ],
      [
        "pur",
        -1.0
      ],
      [
        "Ġirr",
        -1.0
      ],
      [
        "Ġlimited",
        -1.0
      ],
      [
        "Ġreferred",
        -1.0
      ],
      [
        "Ġruns",
        -1.0
      ],
      [
        "ĠBe",
        -1.0
      ],
      [
        "Ġcomments",
        -1.0
      ],
      [
        "house",
        -1.0
      ],
      [
        "eous",
        -1.0
      ],
      [
        "tte",
        -1.0
      ],
      [
        "Ġsymbol",
        -1.0
      ],
      [
        "á¸į",
        -1.0
      ],
      [
        "itative",
        -1.0
      ],
      [
        "ĠEast",
        -1.0
      ],
      [
        "ĠPM",
        -1.0
      ],
      [
        "lor",
        -1.0
      ],
      [
        "ĠRiver",
        -1.0
      ],
      [
        "Ġcolonies",
        -1.0
      ],
      [
        "Ġ75",
        -1.0
      ],
      [
        "ĠAd",
        -1.0
      ],
      [
        "Ġstronger",
        -1.0
      ],
      [
        "Ġprovision",
        -1.0
      ],
      [
        "Ġletter",
        -1.0
      ],
      [
        "Ġmanager",
        -1.0
      ],
      [
        "Ġquantity",
        -1.0
      ],
      [
        "Ġcertain",
        -1.0
      ],
      [
        "ĠJapan",
        -1.0
      ],
      [
        "Ġtests",
        -1.0
      ],
      [
        "Ġpositive",
        -1.0
      ],
      [
        "Ġdiagnosis",
        -1.0
      ],
      [
        "Ġvaccine",
        -1.0
      ],
      [
        "Ġactually",
        -1.0
      ],
      [
        "Ġfollows",
        -1.0
      ],
      [
        "ĠPublish",
        -1.0
      ],
      [
        "mark",
        -1.0
      ],
      [
        "su",
        -1.0
      ],
      [
        "Ġoutput",
        -1.0
      ],
      [
        "Ġindustrial",
        -1.0
      ],
      [
        "Ġtru",
        -1.0
      ],
      [
        "ĠOklahoma",
        -1.0
      ],
      [
        "Ġtu",
        -1.0
      ],
      [
        "Ġli",
        -1.0
      ],
      [
        "Ġgetting",
        -1.0
      ],
      [
        "Ġorigins",
        -1.0
      ],
      [
        "Ġmeters",
        -1.0
      ],
      [
        "Ġfle",
        -1.0
      ],
      [
        "Qu",
        -1.0
      ],
      [
        "Ġband",
        -1.0
      ],
      [
        "scale",
        -1.0
      ],
      [
        "Ke",
        -1.0
      ],
      [
        "Ġ^",
        -1.0
      ],
      [
        "ford",
        -1.0
      ],
      [
        "ĠTo",
        -1.0
      ],
      [
        "Ġchemotherapy",
        -1.0
      ],
      [
        "Ġrelated",
        -1.0
      ],
      [
        "Ġdra",
        -1.0
      ],
      [
        "Ġunits",
        -1.0
      ],
      [
        "arl",
        -1.0
      ],
      [
        "Ġreinforce",
        -1.0
      ],
      [
        "Ġfew",
        -1.0
      ],
      [
        "Ġmostly",
        -1.0
      ],
      [
        "cture",
        -1.0
      ],
      [
        "Ġillegal",
        -1.0
      ],
      [
        "Ġfires",
        -1.0
      ],
      [
        "25",
        -1.0
      ],
      [
        "no",
        -1.0
      ],
      [
        "ctor",
        -1.0
      ],
      [
        "ald",
        -1.0
      ],
      [
        "Ġcourse",
        -1.0
      ],
      [
        "Ġozone",
        -1.0
      ],
      [
        "Ġpeoples",
        -1.0
      ],
      [
        "ser",
        -1.0
      ],
      [
        "html",
        -1.0
      ],
      [
        "ulous",
        -1.0
      ],
      [
        "Ġefficiency",
        -1.0
      ],
      [
        "Ġhelicopter",
        -1.0
      ],
      [
        "ĠMexican",
        -1.0
      ],
      [
        "Ġhierarch",
        -1.0
      ],
      [
        "Ġinfinite",
        -1.0
      ],
      [
        ",âĢĿ",
        -1.0
      ],
      [
        "Ġapproximately",
        -1.0
      ],
      [
        "Ġasthma",
        -1.0
      ],
      [
        "ckets",
        -1.0
      ],
      [
        "Ġinfection",
        -1.0
      ],
      [
        "Ġattributes",
        -1.0
      ],
      [
        "Ġundergraduate",
        -1.0
      ],
      [
        "ders",
        -1.0
      ],
      [
        "ĠNa",
        -1.0
      ],
      [
        "Ġcontrast",
        -1.0
      ],
      [
        "Ġanother",
        -1.0
      ],
      [
        "Ġterror",
        -1.0
      ],
      [
        "Ġarranged",
        -1.0
      ],
      [
        "mer",
        -1.0
      ],
      [
        "Ġaims",
        -1.0
      ],
      [
        "pre",
        -1.0
      ],
      [
        "Ġcandidate",
        -1.0
      ],
      [
        "rupt",
        -1.0
      ],
      [
        "tt",
        -1.0
      ],
      [
        "Ġcells",
        -1.0
      ],
      [
        "Ġglo",
        -1.0
      ],
      [
        "Ġmolecular",
        -1.0
      ],
      [
        "Ġarticle",
        -1.0
      ],
      [
        "Ġspoke",
        -1.0
      ],
      [
        "Ġanswer",
        -1.0
      ],
      [
        "Ġvalues",
        -1.0
      ],
      [
        "Ġhydrogen",
        -1.0
      ],
      [
        "Ġbutton",
        -1.0
      ],
      [
        "ĠUS",
        -1.0
      ],
      [
        "ats",
        -1.0
      ],
      [
        "ponents",
        -1.0
      ],
      [
        "Ġthreatened",
        -1.0
      ],
      [
        "Ġproject",
        -1.0
      ],
      [
        "Ġprairie",
        -1.0
      ],
      [
        "Ġalready",
        -1.0
      ],
      [
        "Ġunder",
        -1.0
      ],
      [
        "Ġre",
        -1.0
      ],
      [
        "ĠPalestinian",
        -1.0
      ],
      [
        "ĠGuide",
        -1.0
      ],
      [
        "Ġgen",
        -1.0
      ],
      [
        "Ġrepresented",
        -1.0
      ],
      [
        "hy",
        -1.0
      ],
      [
        "SI",
        -1.0
      ],
      [
        "ols",
        -1.0
      ],
      [
        "||",
        -1.0
      ],
      [
        "Ġofficial",
        -1.0
      ],
      [
        "Ġmeeting",
        -1.0
      ],
      [
        "Ġvast",
        -1.0
      ],
      [
        "Ġvalid",
        -1.0
      ],
      [
        "Ġbeneath",
        -1.0
      ],
      [
        "yan",
        -1.0
      ],
      [
        "ĠAssembly",
        -1.0
      ],
      [
        "ĠID",
        -1.0
      ],
      [
        "Ġaware",
        -1.0
      ],
      [
        "ĠGeneral",
        -1.0
      ],
      [
        "ises",
        -1.0
      ],
      [
        "ĠDeclaration",
        -1.0
      ],
      [
        "ĉ",
        -1.0
      ],
      [
        "ĠHall",
        -1.0
      ],
      [
        "Ġconclude",
        -1.0
      ],
      [
        "Ġevent",
        -1.0
      ],
      [
        "Ġdid",
        -1.0
      ],
      [
        "Ġplants",
        -1.0
      ],
      [
        "sign",
        -1.0
      ],
      [
        "tra",
        -1.0
      ],
      [
        "âĢľ",
        -1.0
      ],
      [
        "thing",
        -1.0
      ],
      [
        "nity",
        -1.0
      ],
      [
        "ĠWin",
        -1.0
      ],
      [
        "Ġ48",
        -1.0
      ],
      [
        "L",
        -1.0
      ],
      [
        "Ġmouse",
        -1.0
      ],
      [
        "É",
        -1.0
      ],
      [
        "Ġexcess",
        -1.0
      ],
      [
        "ults",
        -1.0
      ],
      [
        "ĠUN",
        -1.0
      ],
      [
        "Ġidea",
        -1.0
      ],
      [
        "outs",
        -1.0
      ],
      [
        "burg",
        -1.0
      ],
      [
        "ĠQuebec",
        -1.0
      ],
      [
        "force",
        -1.0
      ],
      [
        "2006",
        -1.0
      ],
      [
        "Ã±",
        -1.0
      ],
      [
        "Ġ978",
        -1.0
      ],
      [
        "Ġanimal",
        -1.0
      ],
      [
        "Ġbrought",
        -1.0
      ],
      [
        "ĠYoung",
        -1.0
      ],
      [
        "Ġgeneration",
        -1.0
      ],
      [
        "Ġprime",
        -1.0
      ],
      [
        "Ġstages",
        -1.0
      ],
      [
        "claim",
        -1.0
      ],
      [
        "ĠJames",
        -1.0
      ],
      [
        "Ġfloor",
        -1.0
      ],
      [
        "Ġcollected",
        -1.0
      ],
      [
        "ĠCollege",
        -1.0
      ],
      [
        "Ġinteractions",
        -1.0
      ],
      [
        "Ġcrop",
        -1.0
      ],
      [
        "Ġborder",
        -1.0
      ],
      [
        "Ġbig",
        -1.0
      ],
      [
        "Ġseries",
        -1.0
      ],
      [
        "Ġbuild",
        -1.0
      ],
      [
        "Ġ44",
        -1.0
      ],
      [
        "Ġslavery",
        -1.0
      ],
      [
        "Ġrequires",
        -1.0
      ],
      [
        "ĠRes",
        -1.0
      ],
      [
        "iled",
        -1.0
      ],
      [
        "Ġenormous",
        -1.0
      ],
      [
        "ĠBru",
        -1.0
      ],
      [
        "Ġsections",
        -1.0
      ],
      [
        "Ġreactions",
        -1.0
      ],
      [
        "Ġpointed",
        -1.0
      ],
      [
        "Ġexpenditure",
        -1.0
      ],
      [
        "ĠSuper",
        -1.0
      ],
      [
        "Ġpara",
        -1.0
      ],
      [
        "Ġdiagnosed",
        -1.0
      ],
      [
        "tle",
        -1.0
      ],
      [
        "Ġstudy",
        -1.0
      ],
      [
        "uous",
        -1.0
      ],
      [
        "ment",
        -1.0
      ],
      [
        "og",
        -1.0
      ],
      [
        "s",
        -1.0
      ],
      [
        "Ġrisks",
        -1.0
      ],
      [
        "ĠDemocra",
        -1.0
      ],
      [
        "Ġstands",
        -1.0
      ],
      [
        "ĠImp",
        -1.0
      ],
      [
        "work",
        -1.0
      ],
      [
        "ĠSchool",
        -1.0
      ],
      [
        "iness",
        -1.0
      ],
      [
        "ded",
        -1.0
      ],
      [
        "Ġfunding",
        -1.0
      ],
      [
        "Ġdrugs",
        -1.0
      ],
      [
        "Ġaffect",
        -1.0
      ],
      [
        "Ġlessons",
        -1.0
      ],
      [
        "ĠHistorical",
        -1.0
      ],
      [
        "tains",
        -1.0
      ],
      [
        "mor",
        -1.0
      ],
      [
        "Ġsens",
        -1.0
      ],
      [
        "century",
        -1.0
      ],
      [
        "ĠArea",
        -1.0
      ],
      [
        "Ġthorough",
        -1.0
      ],
      [
        "Ġway",
        -1.0
      ],
      [
        "uted",
        -1.0
      ],
      [
        "ibility",
        -1.0
      ],
      [
        "Dr",
        -1.0
      ],
      [
        "59",
        -1.0
      ],
      [
        "!",
        -1.0
      ],
      [
        "ally",
        -1.0
      ],
      [
        "tory",
        -1.0
      ],
      [
        "br",
        -1.0
      ],
      [
        "Ġboat",
        -1.0
      ],
      [
        "Ġrequiring",
        -1.0
      ],
      [
        "Ġdirt",
        -1.0
      ],
      [
        "sal",
        -1.0
      ],
      [
        "Ġbackground",
        -1.0
      ],
      [
        "Ì",
        -1.0
      ],
      [
        "Ġbranch",
        -1.0
      ],
      [
        "phone",
        -1.0
      ],
      [
        "Ġcauses",
        -1.0
      ],
      [
        "ĠEss",
        -1.0
      ],
      [
        "Ġhttp",
        -1.0
      ],
      [
        "December",
        -1.0
      ],
      [
        "Ġboard",
        -1.0
      ],
      [
        "gy",
        -1.0
      ],
      [
        "Ġrice",
        -1.0
      ],
      [
        "Ġresponse",
        -1.0
      ],
      [
        "á¹Ń",
        -1.0
      ],
      [
        "Ġtransfer",
        -1.0
      ],
      [
        "è",
        -1.0
      ],
      [
        "ists",
        -1.0
      ],
      [
        "2",
        -1.0
      ],
      [
        "$",
        -1.0
      ],
      [
        "DI",
        -1.0
      ],
      [
        "Ġinstruct",
        -1.0
      ],
      [
        "Ġinformation",
        -1.0
      ],
      [
        "Ġknown",
        -1.0
      ],
      [
        "Ġsil",
        -1.0
      ],
      [
        "ĠWilson",
        -1.0
      ],
      [
        "ĠCommonwealth",
        -1.0
      ],
      [
        "Ġstuff",
        -1.0
      ],
      [
        "gic",
        -1.0
      ],
      [
        "Na",
        -1.0
      ],
      [
        "Ġaren",
        -1.0
      ],
      [
        "ĠConservation",
        -1.0
      ],
      [
        "Ġfields",
        -1.0
      ],
      [
        "ier",
        -1.0
      ],
      [
        "Ġemployment",
        -1.0
      ],
      [
        "Ġfunctional",
        -1.0
      ],
      [
        "ŀ",
        -1.0
      ],
      [
        "Ġwithout",
        -1.0
      ],
      [
        "61",
        -1.0
      ],
      [
        "ĠAustralia",
        -1.0
      ],
      [
        "Ġreports",
        -1.0
      ],
      [
        "Ġlikelihood",
        -1.0
      ],
      [
        "Ã¤",
        -1.0
      ],
      [
        "Ġon",
        -1.0
      ],
      [
        "Ġappointment",
        -1.0
      ],
      [
        "Ġbra",
        -1.0
      ],
      [
        "Ġantenna",
        -1.0
      ],
      [
        "Ġ1991",
        -1.0
      ],
      [
        "Ġworry",
        -1.0
      ],
      [
        "other",
        -1.0
      ],
      [
        "bles",
        -1.0
      ],
      [
        "ister",
        -1.0
      ],
      [
        "ray",
        -1.0
      ],
      [
        "Ġcausing",
        -1.0
      ],
      [
        "Ġsimply",
        -1.0
      ],
      [
        "Ġviews",
        -1.0
      ],
      [
        "Ġlocations",
        -1.0
      ],
      [
        "se",
        -1.0
      ],
      [
        "&",
        -1.0
      ],
      [
        "Ġconsist",
        -1.0
      ],
      [
        "SD",
        -1.0
      ],
      [
        "Ġseen",
        -1.0
      ],
      [
        "Ġdo",
        -1.0
      ],
      [
        "bra",
        -1.0
      ],
      [
        "Ġstrategic",
        -1.0
      ],
      [
        "35",
        -1.0
      ],
      [
        "Ġgreat",
        -1.0
      ],
      [
        "who",
        -1.0
      ],
      [
        "Ġaspect",
        -1.0
      ],
      [
        "Ġbone",
        -1.0
      ],
      [
        "Ġscholar",
        -1.0
      ],
      [
        "ĠKenya",
        -1.0
      ],
      [
        "Ġtons",
        -1.0
      ],
      [
        "ĠWell",
        -1.0
      ],
      [
        "ĠPi",
        -1.0
      ],
      [
        "Ġcavity",
        -1.0
      ],
      [
        "Ġconnection",
        -1.0
      ],
      [
        "Ġplane",
        -1.0
      ],
      [
        "Ġaffecting",
        -1.0
      ],
      [
        "Ġgoes",
        -1.0
      ],
      [
        "HD",
        -1.0
      ],
      [
        "Ġstrongly",
        -1.0
      ],
      [
        "arily",
        -1.0
      ],
      [
        "round",
        -1.0
      ],
      [
        "sty",
        -1.0
      ],
      [
        "ĠAN",
        -1.0
      ],
      [
        "rman",
        -1.0
      ],
      [
        "Ġthinking",
        -1.0
      ],
      [
        "nning",
        -1.0
      ],
      [
        "Ġabove",
        -1.0
      ],
      [
        "Ġfirst",
        -1.0
      ],
      [
        "level",
        -1.0
      ],
      [
        "Ġempty",
        -1.0
      ],
      [
        "ĠBo",
        -1.0
      ],
      [
        "ĠDis",
        -1.0
      ],
      [
        "Ġlibrary",
        -1.0
      ],
      [
        "Ġreal",
        -1.0
      ],
      [
        "Ġsure",
        -1.0
      ],
      [
        "ĠYe",
        -1.0
      ],
      [
        "Ġdoubt",
        -1.0
      ],
      [
        "Ġoperating",
        -1.0
      ],
      [
        "ĠOffice",
        -1.0
      ],
      [
        "Ġfoundation",
        -1.0
      ],
      [
        "Ġfarmers",
        -1.0
      ],
      [
        "Ġactivity",
        -1.0
      ],
      [
        "Ġ27",
        -1.0
      ],
      [
        "Ġduring",
        -1.0
      ],
      [
        "Ġassert",
        -1.0
      ],
      [
        "re",
        -1.0
      ],
      [
        "Ġblock",
        -1.0
      ],
      [
        "sting",
        -1.0
      ],
      [
        "Ġ0",
        -1.0
      ],
      [
        "servation",
        -1.0
      ],
      [
        "SE",
        -1.0
      ],
      [
        "VA",
        -1.0
      ],
      [
        "Ġ7",
        -1.0
      ],
      [
        "ived",
        -1.0
      ],
      [
        "Ġeffects",
        -1.0
      ],
      [
        "Ġcar",
        -1.0
      ],
      [
        "Ġawa",
        -1.0
      ],
      [
        "ĠBM",
        -1.0
      ],
      [
        "nn",
        -1.0
      ],
      [
        "ar",
        -1.0
      ],
      [
        "ony",
        -1.0
      ],
      [
        "Ġpup",
        -1.0
      ],
      [
        "Ġencounter",
        -1.0
      ],
      [
        "Ġprocessing",
        -1.0
      ],
      [
        "Ġ2007",
        -1.0
      ],
      [
        "di",
        -1.0
      ],
      [
        "Ġapplied",
        -1.0
      ],
      [
        "Ġback",
        -1.0
      ],
      [
        "Ġcoast",
        -1.0
      ],
      [
        "Ġsurprise",
        -1.0
      ],
      [
        "45",
        -1.0
      ],
      [
        "Ġsmell",
        -1.0
      ],
      [
        "Ġseeing",
        -1.0
      ],
      [
        "2000",
        -1.0
      ],
      [
        "Ġconsists",
        -1.0
      ],
      [
        "Ġlate",
        -1.0
      ],
      [
        "Ġhydraulic",
        -1.0
      ],
      [
        "cy",
        -1.0
      ],
      [
        "Ġcommon",
        -1.0
      ],
      [
        "specific",
        -1.0
      ],
      [
        "Ġorgan",
        -1.0
      ],
      [
        "Ġpsychology",
        -1.0
      ],
      [
        "Ġdis",
        -1.0
      ],
      [
        "Ġwet",
        -1.0
      ],
      [
        "Ġtrack",
        -1.0
      ],
      [
        "Ġpurpose",
        -1.0
      ],
      [
        "Ġcomponent",
        -1.0
      ],
      [
        "Ġlike",
        -1.0
      ],
      [
        "Ġfra",
        -1.0
      ],
      [
        "ĠIndia",
        -1.0
      ],
      [
        "ĠBenjamin",
        -1.0
      ],
      [
        "ĠIowa",
        -1.0
      ],
      [
        "mon",
        -1.0
      ],
      [
        "ola",
        -1.0
      ],
      [
        "Ġarmy",
        -1.0
      ],
      [
        "Ġabsorb",
        -1.0
      ],
      [
        "Ġsteel",
        -1.0
      ],
      [
        "ê",
        -1.0
      ],
      [
        "Ġideas",
        -1.0
      ],
      [
        "Back",
        -1.0
      ],
      [
        "ject",
        -1.0
      ],
      [
        "Ġinfluenced",
        -1.0
      ],
      [
        "Ġlots",
        -1.0
      ],
      [
        "ches",
        -1.0
      ],
      [
        "Ġstatu",
        -1.0
      ],
      [
        "Ġelaborate",
        -1.0
      ],
      [
        "ĠAng",
        -1.0
      ],
      [
        "cre",
        -1.0
      ],
      [
        "Ġwanted",
        -1.0
      ],
      [
        "ĠTh",
        -1.0
      ],
      [
        "Ġdeveloped",
        -1.0
      ],
      [
        "Ġoffered",
        -1.0
      ],
      [
        "Today",
        -1.0
      ],
      [
        "So",
        -1.0
      ],
      [
        "Ġthy",
        -1.0
      ],
      [
        "health",
        -1.0
      ],
      [
        "Ġoutdoor",
        -1.0
      ],
      [
        "Ġtrend",
        -1.0
      ],
      [
        "escent",
        -1.0
      ],
      [
        "TE",
        -1.0
      ],
      [
        "Ġwheat",
        -1.0
      ],
      [
        "Ġsurprising",
        -1.0
      ],
      [
        "ney",
        -1.0
      ],
      [
        "Ġalarm",
        -1.0
      ],
      [
        "yn",
        -1.0
      ],
      [
        "Ne",
        -1.0
      ],
      [
        "Ġobtained",
        -1.0
      ],
      [
        "arch",
        -1.0
      ],
      [
        "rry",
        -1.0
      ],
      [
        "ĠThat",
        -1.0
      ],
      [
        "Ġmovements",
        -1.0
      ],
      [
        "Ġprolonged",
        -1.0
      ],
      [
        "âĢ",
        -1.0
      ],
      [
        "Ġspending",
        -1.0
      ],
      [
        "Ġreducing",
        -1.0
      ],
      [
        "Ġcolumn",
        -1.0
      ],
      [
        "Ġhome",
        -1.0
      ],
      [
        "Ġdinner",
        -1.0
      ],
      [
        "HI",
        -1.0
      ],
      [
        "Ġorange",
        -1.0
      ],
      [
        "Ġtemp",
        -1.0
      ],
      [
        "Ġall",
        -1.0
      ],
      [
        "Ġminimum",
        -1.0
      ],
      [
        "Ġplanning",
        -1.0
      ],
      [
        "ĠPage",
        -1.0
      ],
      [
        "Ġnecessary",
        -1.0
      ],
      [
        "nds",
        -1.0
      ],
      [
        "Ġtypical",
        -1.0
      ],
      [
        "Ġpapers",
        -1.0
      ],
      [
        "Ġfashion",
        -1.0
      ],
      [
        "Ġreturned",
        -1.0
      ],
      [
        "Ġsides",
        -1.0
      ],
      [
        "ĠâĢĵ",
        -1.0
      ],
      [
        "ĠN",
        -1.0
      ],
      [
        "Ġstarted",
        -1.0
      ],
      [
        "Ġstructures",
        -1.0
      ],
      [
        "Ġpul",
        -1.0
      ],
      [
        "Ġcigarette",
        -1.0
      ],
      [
        "ĠWood",
        -1.0
      ],
      [
        "Ġconcern",
        -1.0
      ],
      [
        "Ġmar",
        -1.0
      ],
      [
        "Ġmile",
        -1.0
      ],
      [
        "ĠLo",
        -1.0
      ],
      [
        "Ġassumption",
        -1.0
      ],
      [
        "board",
        -1.0
      ],
      [
        "¿",
        -1.0
      ],
      [
        "b",
        -1.0
      ],
      [
        "Ġmagazine",
        -1.0
      ],
      [
        "Ġvictims",
        -1.0
      ],
      [
        "Ġspacecraft",
        -1.0
      ],
      [
        "Ġsales",
        -1.0
      ],
      [
        "Ġwhy",
        -1.0
      ],
      [
        "Symptoms",
        -1.0
      ],
      [
        "Ġlowest",
        -1.0
      ],
      [
        "ĠProfessor",
        -1.0
      ],
      [
        "Ġbed",
        -1.0
      ],
      [
        "Ġdiminish",
        -1.0
      ],
      [
        "Ġbiological",
        -1.0
      ],
      [
        "back",
        -1.0
      ],
      [
        "ĠSa",
        -1.0
      ],
      [
        "related",
        -1.0
      ],
      [
        "Ġres",
        -1.0
      ],
      [
        "vid",
        -1.0
      ],
      [
        "Ġsea",
        -1.0
      ],
      [
        "atory",
        -1.0
      ],
      [
        "Ġresolution",
        -1.0
      ],
      [
        "Ġphrase",
        -1.0
      ],
      [
        "ĠJohn",
        -1.0
      ],
      [
        "ĠInvestiga",
        -1.0
      ],
      [
        "Ġkilling",
        -1.0
      ],
      [
        "Ġsli",
        -1.0
      ],
      [
        "Ġtrees",
        -1.0
      ],
      [
        "Ġattract",
        -1.0
      ],
      [
        "Ġeyes",
        -1.0
      ],
      [
        "ĠOhio",
        -1.0
      ],
      [
        "nner",
        -1.0
      ],
      [
        "Ġsetting",
        -1.0
      ],
      [
        "Ġdementia",
        -1.0
      ],
      [
        "Ġthose",
        -1.0
      ],
      [
        "William",
        -1.0
      ],
      [
        "OO",
        -1.0
      ],
      [
        "graph",
        -1.0
      ],
      [
        "ĠHitler",
        -1.0
      ],
      [
        "Ġ31",
        -1.0
      ],
      [
        "/",
        -1.0
      ],
      [
        "Ġhidden",
        -1.0
      ],
      [
        "Ġemotional",
        -1.0
      ],
      [
        "ip",
        -1.0
      ],
      [
        "dic",
        -1.0
      ],
      [
        "58",
        -1.0
      ],
      [
        "Ġlens",
        -1.0
      ],
      [
        "Ġremoving",
        -1.0
      ],
      [
        "Ġgrowth",
        -1.0
      ],
      [
        "most",
        -1.0
      ],
      [
        "Ġinvestigation",
        -1.0
      ],
      [
        "Ġserver",
        -1.0
      ],
      [
        "Ġlong",
        -1.0
      ],
      [
        "ë",
        -1.0
      ],
      [
        "ī",
        -1.0
      ],
      [
        "pes",
        -1.0
      ],
      [
        "Ġlimit",
        -1.0
      ],
      [
        "Ġwith",
        -1.0
      ],
      [
        "you",
        -1.0
      ],
      [
        "RT",
        -1.0
      ],
      [
        "ended",
        -1.0
      ],
      [
        "ĠObservatory",
        -1.0
      ],
      [
        "Ġforeign",
        -1.0
      ],
      [
        "ĠNor",
        -1.0
      ],
      [
        "Ġoccup",
        -1.0
      ],
      [
        "OR",
        -1.0
      ],
      [
        "Ġmarket",
        -1.0
      ],
      [
        "stream",
        -1.0
      ],
      [
        "Ġtreat",
        -1.0
      ],
      [
        "ergy",
        -1.0
      ],
      [
        "ĵ",
        -1.0
      ],
      [
        "Ġsad",
        -1.0
      ],
      [
        "ĠChrist",
        -1.0
      ],
      [
        "Ġdestroyed",
        -1.0
      ],
      [
        "verse",
        -1.0
      ],
      [
        "ĠToday",
        -1.0
      ],
      [
        "ĠIII",
        -1.0
      ],
      [
        "tion",
        -1.0
      ],
      [
        "Ġgenerally",
        -1.0
      ],
      [
        "Ġcame",
        -1.0
      ],
      [
        "ĠDuring",
        -1.0
      ],
      [
        "Ġapproved",
        -1.0
      ],
      [
        "Ġproportion",
        -1.0
      ],
      [
        "Ġhum",
        -1.0
      ],
      [
        "Ġcave",
        -1.0
      ],
      [
        "C",
        -1.0
      ],
      [
        "don",
        -1.0
      ],
      [
        "Ed",
        -1.0
      ],
      [
        "dle",
        -1.0
      ],
      [
        "Ġexternal",
        -1.0
      ],
      [
        "ank",
        -1.0
      ],
      [
        "Ġvehicles",
        -1.0
      ],
      [
        "Ġrare",
        -1.0
      ],
      [
        "Ġbacteria",
        -1.0
      ],
      [
        "dynamic",
        -1.0
      ],
      [
        "ĠOctober",
        -1.0
      ],
      [
        "dis",
        -1.0
      ],
      [
        "ĠHealth",
        -1.0
      ],
      [
        "Ġmoisture",
        -1.0
      ],
      [
        "Ġbroadcast",
        -1.0
      ],
      [
        "ĠCas",
        -1.0
      ],
      [
        "ĠArgentina",
        -1.0
      ],
      [
        "dated",
        -1.0
      ],
      [
        "ĠVa",
        -1.0
      ],
      [
        "Ġparty",
        -1.0
      ],
      [
        "via",
        -1.0
      ],
      [
        "Ġaircraft",
        -1.0
      ],
      [
        "Ġstrike",
        -1.0
      ],
      [
        "Ġfar",
        -1.0
      ],
      [
        "scular",
        -1.0
      ],
      [
        "Ġpump",
        -1.0
      ],
      [
        "active",
        -1.0
      ],
      [
        "Ġpoverty",
        -1.0
      ],
      [
        "ĠS",
        -1.0
      ],
      [
        "ĠNorthern",
        -1.0
      ],
      [
        "Ġusually",
        -1.0
      ],
      [
        "Ġtowns",
        -1.0
      ],
      [
        "Ġpoetry",
        -1.0
      ],
      [
        "Ġexperiments",
        -1.0
      ],
      [
        "Ġmedications",
        -1.0
      ],
      [
        "Ġclassroom",
        -1.0
      ],
      [
        "Ġflowers",
        -1.0
      ],
      [
        "Ġlunar",
        -1.0
      ],
      [
        "ch",
        -1.0
      ],
      [
        "Ġhepatitis",
        -1.0
      ],
      [
        "Ġinstitution",
        -1.0
      ],
      [
        "ĠMore",
        -1.0
      ],
      [
        "ĠCommunity",
        -1.0
      ],
      [
        "tus",
        -1.0
      ],
      [
        "Ġel",
        -1.0
      ],
      [
        "abilities",
        -1.0
      ],
      [
        "ora",
        -1.0
      ],
      [
        "lex",
        -1.0
      ],
      [
        "Ġproduces",
        -1.0
      ],
      [
        "ses",
        -1.0
      ],
      [
        "Ġfalls",
        -1.0
      ],
      [
        "Ġhole",
        -1.0
      ],
      [
        "ene",
        -1.0
      ],
      [
        "wh",
        -1.0
      ],
      [
        "Ġflu",
        -1.0
      ],
      [
        "o",
        -1.0
      ],
      [
        "ĠItalian",
        -1.0
      ],
      [
        "Ġtoday",
        -1.0
      ],
      [
        "Ġpercent",
        -1.0
      ],
      [
        "Ġmi",
        -1.0
      ],
      [
        "CP",
        -1.0
      ],
      [
        "09",
        -1.0
      ],
      [
        "Ġpetroleum",
        -1.0
      ],
      [
        "Ġpath",
        -1.0
      ],
      [
        "ric",
        -1.0
      ],
      [
        "Ġextensive",
        -1.0
      ],
      [
        "at",
        -1.0
      ],
      [
        "ĠPresident",
        -1.0
      ],
      [
        "Ġ2000",
        -1.0
      ],
      [
        "Ġneglect",
        -1.0
      ],
      [
        "usion",
        -1.0
      ],
      [
        "id",
        -1.0
      ],
      [
        "Among",
        -1.0
      ],
      [
        "ib",
        -1.0
      ],
      [
        "Ġconstruction",
        -1.0
      ],
      [
        "iers",
        -1.0
      ],
      [
        "Ġdue",
        -1.0
      ],
      [
        "van",
        -1.0
      ],
      [
        "Ġsuffered",
        -1.0
      ],
      [
        "Ġcarbohydrate",
        -1.0
      ],
      [
        "Ġattention",
        -1.0
      ],
      [
        "ĠBritish",
        -1.0
      ],
      [
        "iding",
        -1.0
      ],
      [
        "Several",
        -1.0
      ],
      [
        "ĠCE",
        -1.0
      ],
      [
        "ĠTuesday",
        -1.0
      ],
      [
        "tty",
        -1.0
      ],
      [
        "cl",
        -1.0
      ],
      [
        "Ġconservative",
        -1.0
      ],
      [
        "Ġ(\"",
        -1.0
      ],
      [
        "Ġanniversary",
        -1.0
      ],
      [
        "lf",
        -1.0
      ],
      [
        "ĠAC",
        -1.0
      ],
      [
        "Ġholiday",
        -1.0
      ],
      [
        "Ġhis",
        -1.0
      ],
      [
        "The",
        -1.0
      ],
      [
        "Ġviolence",
        -1.0
      ],
      [
        "Ġavailable",
        -1.0
      ],
      [
        "Ġgenerations",
        -1.0
      ],
      [
        "Ġdefici",
        -1.0
      ],
      [
        "A",
        -1.0
      ],
      [
        "Ġdrawn",
        -1.0
      ],
      [
        "ke",
        -1.0
      ],
      [
        "Ġmethods",
        -1.0
      ],
      [
        "Ġforward",
        -1.0
      ],
      [
        "Ġlanding",
        -1.0
      ],
      [
        "ĠMag",
        -1.0
      ],
      [
        "Ġinsight",
        -1.0
      ],
      [
        "ag",
        -1.0
      ],
      [
        "ĠSer",
        -1.0
      ],
      [
        "Ġfull",
        -1.0
      ],
      [
        "llo",
        -1.0
      ],
      [
        "Ġactive",
        -1.0
      ],
      [
        "Ġscience",
        -1.0
      ],
      [
        "ĠDefense",
        -1.0
      ],
      [
        "com",
        -1.0
      ],
      [
        "ĠFu",
        -1.0
      ],
      [
        "jo",
        -1.0
      ],
      [
        "sa",
        -1.0
      ],
      [
        "Ġlaboratories",
        -1.0
      ],
      [
        "Ġscientist",
        -1.0
      ],
      [
        "ĠEven",
        -1.0
      ],
      [
        "Ġlarger",
        -1.0
      ],
      [
        "Ġcard",
        -1.0
      ],
      [
        "ĠMarch",
        -1.0
      ],
      [
        "Ġcomparison",
        -1.0
      ],
      [
        "Ġheaven",
        -1.0
      ],
      [
        "Ġexpand",
        -1.0
      ],
      [
        "ĠSi",
        -1.0
      ],
      [
        "Ġinform",
        -1.0
      ],
      [
        "G",
        -1.0
      ],
      [
        "off",
        -1.0
      ],
      [
        "ons",
        -1.0
      ],
      [
        "Ġrecon",
        -1.0
      ],
      [
        "ĠPro",
        -1.0
      ],
      [
        "fl",
        -1.0
      ],
      [
        "hold",
        -1.0
      ],
      [
        "ised",
        -1.0
      ],
      [
        "ĠIslamic",
        -1.0
      ],
      [
        "Ġaccess",
        -1.0
      ],
      [
        "inking",
        -1.0
      ],
      [
        "Ġsovereign",
        -1.0
      ],
      [
        "Ġsmooth",
        -1.0
      ],
      [
        "isms",
        -1.0
      ],
      [
        "Ġscenario",
        -1.0
      ],
      [
        "Ġstructure",
        -1.0
      ],
      [
        "Ġpp",
        -1.0
      ],
      [
        "Mi",
        -1.0
      ],
      [
        "ĠAlzheimer",
        -1.0
      ],
      [
        "ĠTennessee",
        -1.0
      ],
      [
        "Ġ1992",
        -1.0
      ],
      [
        "ack",
        -1.0
      ],
      [
        "Ge",
        -1.0
      ],
      [
        "Ġentrepreneur",
        -1.0
      ],
      [
        "fo",
        -1.0
      ],
      [
        "Ġmillion",
        -1.0
      ],
      [
        "Fi",
        -1.0
      ],
      [
        "Ġrigid",
        -1.0
      ],
      [
        "âĤ¬",
        -1.0
      ],
      [
        "Ġdiarrhea",
        -1.0
      ],
      [
        "Ġonce",
        -1.0
      ],
      [
        "Ġreplacing",
        -1.0
      ],
      [
        "Ġshut",
        -1.0
      ],
      [
        "Ġhelp",
        -1.0
      ],
      [
        "quisition",
        -1.0
      ],
      [
        "Despite",
        -1.0
      ],
      [
        "ĠX",
        -1.0
      ],
      [
        "Ġguarantee",
        -1.0
      ],
      [
        "function",
        -1.0
      ],
      [
        "ĠValley",
        -1.0
      ],
      [
        "Read",
        -1.0
      ],
      [
        "Ġdisappoint",
        -1.0
      ],
      [
        "Ġprior",
        -1.0
      ],
      [
        "ities",
        -1.0
      ],
      [
        "¼",
        -1.0
      ],
      [
        "ĠHopkins",
        -1.0
      ],
      [
        "ditional",
        -1.0
      ],
      [
        "tel",
        -1.0
      ],
      [
        "Ġsin",
        -1.0
      ],
      [
        "Ġ16",
        -1.0
      ],
      [
        "Ġfacilities",
        -1.0
      ],
      [
        "Ġsunlight",
        -1.0
      ],
      [
        "Û",
        -1.0
      ],
      [
        "Ġbladder",
        -1.0
      ],
      [
        "ĠMr",
        -1.0
      ],
      [
        "tain",
        -1.0
      ],
      [
        "Ġuniversities",
        -1.0
      ],
      [
        "Ġultimate",
        -1.0
      ],
      [
        "ĠFl",
        -1.0
      ],
      [
        "ĠTake",
        -1.0
      ],
      [
        "ĠEc",
        -1.0
      ],
      [
        "Ġplu",
        -1.0
      ],
      [
        "ina",
        -1.0
      ],
      [
        "Ġsquare",
        -1.0
      ],
      [
        "Ġbattery",
        -1.0
      ],
      [
        "ĠKu",
        -1.0
      ],
      [
        "ĠFa",
        -1.0
      ],
      [
        "Ġhospitals",
        -1.0
      ],
      [
        "Ġhero",
        -1.0
      ],
      [
        "Ġclinic",
        -1.0
      ],
      [
        "lia",
        -1.0
      ],
      [
        "ns",
        -1.0
      ],
      [
        "Ġfossil",
        -1.0
      ],
      [
        "Ġcontrary",
        -1.0
      ],
      [
        "Ġdaily",
        -1.0
      ],
      [
        "Ġang",
        -1.0
      ],
      [
        "Ġfan",
        -1.0
      ],
      [
        "Ġjoin",
        -1.0
      ],
      [
        "Ġinexpensive",
        -1.0
      ],
      [
        "ced",
        -1.0
      ],
      [
        "Ġfort",
        -1.0
      ],
      [
        "especially",
        -1.0
      ],
      [
        "ential",
        -1.0
      ],
      [
        "Ġcycl",
        -1.0
      ],
      [
        "[",
        -1.0
      ],
      [
        "Ġago",
        -1.0
      ],
      [
        "Ġlabel",
        -1.0
      ],
      [
        "Ġepi",
        -1.0
      ],
      [
        "Ġworkshop",
        -1.0
      ],
      [
        "clamation",
        -1.0
      ],
      [
        "equ",
        -1.0
      ],
      [
        "ĠLGBT",
        -1.0
      ],
      [
        "Ġmiddle",
        -1.0
      ],
      [
        "Ġmigra",
        -1.0
      ],
      [
        "Ġappears",
        -1.0
      ],
      [
        "Ġwhatever",
        -1.0
      ],
      [
        "Ġradiation",
        -1.0
      ],
      [
        "Ġmoment",
        -1.0
      ],
      [
        "ĠReport",
        -1.0
      ],
      [
        "Ġpractical",
        -1.0
      ],
      [
        "NG",
        -1.0
      ],
      [
        "Ġ9",
        -1.0
      ],
      [
        "see",
        -1.0
      ],
      [
        "ĠWhere",
        -1.0
      ],
      [
        "See",
        -1.0
      ],
      [
        "Ġpu",
        -1.0
      ],
      [
        "ĠLight",
        -1.0
      ],
      [
        "Every",
        -1.0
      ],
      [
        "Ġtemporarily",
        -1.0
      ],
      [
        "ĠTreatment",
        -1.0
      ],
      [
        "89",
        -1.0
      ],
      [
        "Ġpesticide",
        -1.0
      ],
      [
        "ĠAfter",
        -1.0
      ],
      [
        "ĠMaterials",
        -1.0
      ],
      [
        "Science",
        -1.0
      ],
      [
        "Ġlink",
        -1.0
      ],
      [
        "titude",
        -1.0
      ],
      [
        "ĠKe",
        -1.0
      ],
      [
        "Ġgeo",
        -1.0
      ],
      [
        "wn",
        -1.0
      ],
      [
        "Ġdef",
        -1.0
      ],
      [
        "mail",
        -1.0
      ],
      [
        "ĠHawaii",
        -1.0
      ],
      [
        "ĠCanadian",
        -1.0
      ],
      [
        "Ġvoluntary",
        -1.0
      ],
      [
        "ops",
        -1.0
      ],
      [
        "Ġoffice",
        -1.0
      ],
      [
        "ury",
        -1.0
      ],
      [
        "Ġknowledge",
        -1.0
      ],
      [
        "ĠProfessional",
        -1.0
      ],
      [
        "ĠSystems",
        -1.0
      ],
      [
        "ĠCode",
        -1.0
      ],
      [
        "Ġhow",
        -1.0
      ],
      [
        "ĠMo",
        -1.0
      ],
      [
        "Ġtrue",
        -1.0
      ],
      [
        "Ġapparently",
        -1.0
      ],
      [
        "Ġfamilies",
        -1.0
      ],
      [
        "Ġmoving",
        -1.0
      ],
      [
        "Ġtissues",
        -1.0
      ],
      [
        "Ġtreated",
        -1.0
      ],
      [
        "Ġcontain",
        -1.0
      ],
      [
        "Ġthick",
        -1.0
      ],
      [
        ",\"",
        -1.0
      ],
      [
        "ĠPR",
        -1.0
      ],
      [
        "ĠClimate",
        -1.0
      ],
      [
        "Ġscreening",
        -1.0
      ],
      [
        "ĠClo",
        -1.0
      ],
      [
        "Ġexperiences",
        -1.0
      ],
      [
        "Ġfactor",
        -1.0
      ],
      [
        "Ġevery",
        -1.0
      ],
      [
        "Ġuncommon",
        -1.0
      ],
      [
        "Ġvulnerability",
        -1.0
      ],
      [
        "Ġinject",
        -1.0
      ],
      [
        "ĠJ",
        -1.0
      ],
      [
        "Ġfield",
        -1.0
      ],
      [
        "Ġgar",
        -1.0
      ],
      [
        "Ġhouses",
        -1.0
      ],
      [
        "Ġdesign",
        -1.0
      ],
      [
        "Ġsheet",
        -1.0
      ],
      [
        "ĠOb",
        -1.0
      ],
      [
        "Ġexercises",
        -1.0
      ],
      [
        "Ġheadache",
        -1.0
      ],
      [
        "ĠAir",
        -1.0
      ],
      [
        "Ġfluor",
        -1.0
      ],
      [
        "ĠJanuary",
        -1.0
      ],
      [
        "Ġcopy",
        -1.0
      ],
      [
        "Ġcovers",
        -1.0
      ],
      [
        "Ġpresident",
        -1.0
      ],
      [
        "Ġun",
        -1.0
      ],
      [
        "ĠAsian",
        -1.0
      ],
      [
        "Ġtriumph",
        -1.0
      ],
      [
        "ĠNative",
        -1.0
      ],
      [
        "Ġsystematic",
        -1.0
      ],
      [
        "Ġhumidity",
        -1.0
      ],
      [
        "Ġspend",
        -1.0
      ],
      [
        "ually",
        -1.0
      ],
      [
        "Ġdoctor",
        -1.0
      ],
      [
        "Ġcomment",
        -1.0
      ],
      [
        "Ġbasic",
        -1.0
      ],
      [
        "Ġmathematics",
        -1.0
      ],
      [
        "Ġimmune",
        -1.0
      ],
      [
        "×",
        -1.0
      ],
      [
        "â",
        -1.0
      ],
      [
        "..",
        -1.0
      ],
      [
        "Ġbreath",
        -1.0
      ],
      [
        "Ġmake",
        -1.0
      ],
      [
        "ĠTechn",
        -1.0
      ],
      [
        "DS",
        -1.0
      ],
      [
        "Ġobjective",
        -1.0
      ],
      [
        "PL",
        -1.0
      ],
      [
        "Ġasking",
        -1.0
      ],
      [
        "Ġmemory",
        -1.0
      ],
      [
        "In",
        -1.0
      ],
      [
        "Ġabstract",
        -1.0
      ],
      [
        "Ġillness",
        -1.0
      ],
      [
        "Ġentered",
        -1.0
      ],
      [
        "ĠWithout",
        -1.0
      ],
      [
        "Ġwill",
        -1.0
      ],
      [
        "gregation",
        -1.0
      ],
      [
        "ĠAvoid",
        -1.0
      ],
      [
        "j",
        -1.0
      ],
      [
        "Ġestimated",
        -1.0
      ],
      [
        "ĠH",
        -1.0
      ],
      [
        "Ġorder",
        -1.0
      ],
      [
        "Ġpopular",
        -1.0
      ],
      [
        "Ġsuperior",
        -1.0
      ],
      [
        "Ġdeveloping",
        -1.0
      ],
      [
        "Ġcattle",
        -1.0
      ],
      [
        "Ġapplication",
        -1.0
      ],
      [
        "Ġtemperatures",
        -1.0
      ],
      [
        "04",
        -1.0
      ],
      [
        "ult",
        -1.0
      ],
      [
        "Ġnursing",
        -1.0
      ],
      [
        "Ġasteroid",
        -1.0
      ],
      [
        "Ġna",
        -1.0
      ],
      [
        "lar",
        -1.0
      ],
      [
        "Ġshell",
        -1.0
      ],
      [
        "Ġinterface",
        -1.0
      ],
      [
        "Ġperception",
        -1.0
      ],
      [
        "Ġelderly",
        -1.0
      ],
      [
        "eb",
        -1.0
      ],
      [
        "Ġlegislation",
        -1.0
      ],
      [
        "Ġdistinguish",
        -1.0
      ],
      [
        "ĠCounty",
        -1.0
      ],
      [
        "ound",
        -1.0
      ],
      [
        "ĠMicrosoft",
        -1.0
      ],
      [
        "Ġder",
        -1.0
      ],
      [
        "Ġinhabit",
        -1.0
      ],
      [
        "Ġresources",
        -1.0
      ],
      [
        "Ġexisted",
        -1.0
      ],
      [
        "bar",
        -1.0
      ],
      [
        "Ġcompassion",
        -1.0
      ],
      [
        "Ġperiod",
        -1.0
      ],
      [
        "Ġaspects",
        -1.0
      ],
      [
        "Ġdoing",
        -1.0
      ],
      [
        "ĠParliament",
        -1.0
      ],
      [
        "Ġapply",
        -1.0
      ],
      [
        "ĠFor",
        -1.0
      ],
      [
        "bu",
        -1.0
      ],
      [
        "Ġcloser",
        -1.0
      ],
      [
        "ĠVan",
        -1.0
      ],
      [
        "Ġmagnitude",
        -1.0
      ],
      [
        "Ġillustr",
        -1.0
      ],
      [
        "ĠOther",
        -1.0
      ],
      [
        "world",
        -1.0
      ],
      [
        "Ġdone",
        -1.0
      ],
      [
        "Ġunfortunate",
        -1.0
      ],
      [
        "Ġenvironmental",
        -1.0
      ],
      [
        "cil",
        -1.0
      ],
      [
        "Ġco",
        -1.0
      ],
      [
        "Ġphilosophy",
        -1.0
      ],
      [
        "Ġstarts",
        -1.0
      ],
      [
        "is",
        -1.0
      ],
      [
        "Ġexpress",
        -1.0
      ],
      [
        "ĠMoreover",
        -1.0
      ],
      [
        "te",
        -1.0
      ],
      [
        "Ġenterprise",
        -1.0
      ],
      [
        "PA",
        -1.0
      ],
      [
        "year",
        -1.0
      ],
      [
        "Ġneeds",
        -1.0
      ],
      [
        "Ġthermal",
        -1.0
      ],
      [
        "Ç",
        -1.0
      ],
      [
        "Ġnegative",
        -1.0
      ],
      [
        "Ho",
        -1.0
      ],
      [
        "line",
        -1.0
      ],
      [
        "ĠJuda",
        -1.0
      ],
      [
        "Ġpredecessor",
        -1.0
      ],
      [
        "Le",
        -1.0
      ],
      [
        "Ġgathered",
        -1.0
      ],
      [
        "Ġfocus",
        -1.0
      ],
      [
        "Ġgenerated",
        -1.0
      ],
      [
        "Ġassistance",
        -1.0
      ],
      [
        "Ġsupposed",
        -1.0
      ],
      [
        "Ġsucceed",
        -1.0
      ],
      [
        "ess",
        -1.0
      ],
      [
        "10",
        -1.0
      ],
      [
        "Ġcreates",
        -1.0
      ],
      [
        "Ġmonitor",
        -1.0
      ],
      [
        "Ġdesired",
        -1.0
      ],
      [
        "ĠCzech",
        -1.0
      ],
      [
        "ĠPhysi",
        -1.0
      ],
      [
        "ana",
        -1.0
      ],
      [
        "Ġboth",
        -1.0
      ],
      [
        "Ġclinical",
        -1.0
      ],
      [
        "NN",
        -1.0
      ],
      [
        "Ġrecords",
        -1.0
      ],
      [
        "Ġfundamental",
        -1.0
      ],
      [
        "Ġve",
        -1.0
      ],
      [
        "Ġown",
        -1.0
      ],
      [
        "Ġgrammar",
        -1.0
      ],
      [
        "Ġrefer",
        -1.0
      ],
      [
        "ators",
        -1.0
      ],
      [
        "rth",
        -1.0
      ],
      [
        "ĠBal",
        -1.0
      ],
      [
        "Ġfrequently",
        -1.0
      ],
      [
        "ĠJones",
        -1.0
      ],
      [
        "iversity",
        -1.0
      ],
      [
        "ĠGr",
        -1.0
      ],
      [
        "Ġprivilege",
        -1.0
      ],
      [
        "Ġinfluential",
        -1.0
      ],
      [
        "Ġratio",
        -1.0
      ],
      [
        "ĠInfantry",
        -1.0
      ],
      [
        "day",
        -1.0
      ],
      [
        "Ġproduce",
        -1.0
      ],
      [
        "Ġbusiness",
        -1.0
      ],
      [
        "Ġrecover",
        -1.0
      ],
      [
        "Ġanalyze",
        -1.0
      ],
      [
        "Ġlay",
        -1.0
      ],
      [
        "Ġtur",
        -1.0
      ],
      [
        "È",
        -1.0
      ],
      [
        ")",
        -1.0
      ],
      [
        "ĠUn",
        -1.0
      ],
      [
        "ĠRoad",
        -1.0
      ],
      [
        "course",
        -1.0
      ],
      [
        "ĠRabbi",
        -1.0
      ],
      [
        "own",
        -1.0
      ],
      [
        "lph",
        -1.0
      ],
      [
        "ĠBig",
        -1.0
      ],
      [
        "Ġ24",
        -1.0
      ],
      [
        "Ġindoor",
        -1.0
      ],
      [
        "Ġwould",
        -1.0
      ],
      [
        "Ġawareness",
        -1.0
      ],
      [
        "Ġwhite",
        -1.0
      ],
      [
        "ĠFederation",
        -1.0
      ],
      [
        "Ġtissue",
        -1.0
      ],
      [
        "Ġresponsibilities",
        -1.0
      ],
      [
        "Ġsym",
        -1.0
      ],
      [
        "ĠAssociation",
        -1.0
      ],
      [
        "ĠFacebook",
        -1.0
      ],
      [
        "ĠIf",
        -1.0
      ],
      [
        "Ġshare",
        -1.0
      ],
      [
        "low",
        -1.0
      ],
      [
        "Ġstruggle",
        -1.0
      ],
      [
        "Ġburied",
        -1.0
      ],
      [
        "ĠCre",
        -1.0
      ],
      [
        "Ġbrown",
        -1.0
      ],
      [
        "gu",
        -1.0
      ],
      [
        "Ġpatterns",
        -1.0
      ],
      [
        "etic",
        -1.0
      ],
      [
        "Ġnone",
        -1.0
      ],
      [
        "Ġpaint",
        -1.0
      ],
      [
        "Ġcircuit",
        -1.0
      ],
      [
        "Ġgalaxy",
        -1.0
      ],
      [
        "Ġthread",
        -1.0
      ],
      [
        "i",
        -1.0
      ],
      [
        "Ġconnect",
        -1.0
      ],
      [
        "known",
        -1.0
      ],
      [
        "Ġplayed",
        -1.0
      ],
      [
        "Ġkind",
        -1.0
      ],
      [
        "shed",
        -1.0
      ],
      [
        "=",
        -1.0
      ],
      [
        "ĠInitiative",
        -1.0
      ],
      [
        "ı",
        -1.0
      ],
      [
        "Ġplot",
        -1.0
      ],
      [
        "Ġastronaut",
        -1.0
      ],
      [
        "Ds",
        -1.0
      ],
      [
        "ĠGen",
        -1.0
      ],
      [
        "Ġphotograph",
        -1.0
      ],
      [
        "people",
        -1.0
      ],
      [
        "ĠLee",
        -1.0
      ],
      [
        "ham",
        -1.0
      ],
      [
        "?âĢĿ",
        -1.0
      ],
      [
        "ĠÎ",
        -1.0
      ],
      [
        "Fa",
        -1.0
      ],
      [
        "Ġcombined",
        -1.0
      ],
      [
        "Ġet",
        -1.0
      ],
      [
        "ens",
        -1.0
      ],
      [
        "count",
        -1.0
      ],
      [
        "Ġgod",
        -1.0
      ],
      [
        "ĠPa",
        -1.0
      ],
      [
        "Ġshift",
        -1.0
      ],
      [
        "ra",
        -1.0
      ],
      [
        "Ġborrow",
        -1.0
      ],
      [
        "ographic",
        -1.0
      ],
      [
        "ĠFrank",
        -1.0
      ],
      [
        "va",
        -1.0
      ],
      [
        "Ġwine",
        -1.0
      ],
      [
        "Ġinva",
        -1.0
      ],
      [
        "ĠNi",
        -1.0
      ],
      [
        "Ġmini",
        -1.0
      ],
      [
        "Ġdespite",
        -1.0
      ],
      [
        "Ġarticles",
        -1.0
      ],
      [
        "Ġconnections",
        -1.0
      ],
      [
        "ink",
        -1.0
      ],
      [
        "64",
        -1.0
      ],
      [
        "Ġmedication",
        -1.0
      ],
      [
        "ĠLearning",
        -1.0
      ],
      [
        "Ġvariations",
        -1.0
      ],
      [
        "Ġprosecut",
        -1.0
      ],
      [
        "Ġwindow",
        -1.0
      ],
      [
        "nia",
        -1.0
      ],
      [
        "Source",
        -1.0
      ],
      [
        "Ġspa",
        -1.0
      ],
      [
        "Ġhighlight",
        -1.0
      ],
      [
        "Ġgreatly",
        -1.0
      ],
      [
        "Ġstudent",
        -1.0
      ],
      [
        "Ġwildlife",
        -1.0
      ],
      [
        "Ġtrust",
        -1.0
      ],
      [
        "ĠGrand",
        -1.0
      ],
      [
        "Ġpartial",
        -1.0
      ],
      [
        "ory",
        -1.0
      ],
      [
        "Ġrecognize",
        -1.0
      ],
      [
        "ĠIndonesia",
        -1.0
      ],
      [
        "sts",
        -1.0
      ],
      [
        "Ġsouth",
        -1.0
      ],
      [
        "Ġultimately",
        -1.0
      ],
      [
        "ĠMid",
        -1.0
      ],
      [
        "chan",
        -1.0
      ],
      [
        "Ġready",
        -1.0
      ],
      [
        "Ġget",
        -1.0
      ],
      [
        "Not",
        -1.0
      ],
      [
        "Ġdescribes",
        -1.0
      ],
      [
        "Ġimages",
        -1.0
      ],
      [
        "ĠCurrent",
        -1.0
      ],
      [
        "ĠGulf",
        -1.0
      ],
      [
        "Ġmicro",
        -1.0
      ],
      [
        "Ġprogramming",
        -1.0
      ],
      [
        "Ġdog",
        -1.0
      ],
      [
        "Ġsuggested",
        -1.0
      ],
      [
        "ĠLand",
        -1.0
      ],
      [
        "ĠComp",
        -1.0
      ],
      [
        "ĠAT",
        -1.0
      ],
      [
        "Ġresponsibility",
        -1.0
      ],
      [
        "ĠFort",
        -1.0
      ],
      [
        "Ġdecline",
        -1.0
      ],
      [
        "Ġcrowd",
        -1.0
      ],
      [
        "ab",
        -1.0
      ],
      [
        "inity",
        -1.0
      ],
      [
        "ĠOntario",
        -1.0
      ],
      [
        "Ü",
        -1.0
      ],
      [
        "GE",
        -1.0
      ],
      [
        "Ġthrough",
        -1.0
      ],
      [
        "ĠThose",
        -1.0
      ],
      [
        "ĠMD",
        -1.0
      ],
      [
        "52",
        -1.0
      ],
      [
        "Ġmuscles",
        -1.0
      ],
      [
        "ĠUnion",
        -1.0
      ],
      [
        "BA",
        -1.0
      ],
      [
        "Ġ11",
        -1.0
      ],
      [
        "ddle",
        -1.0
      ],
      [
        "Ġpred",
        -1.0
      ],
      [
        "Through",
        -1.0
      ],
      [
        "ĠOver",
        -1.0
      ],
      [
        "Ġmolecules",
        -1.0
      ],
      [
        "ci",
        -1.0
      ],
      [
        "Ġmod",
        -1.0
      ],
      [
        "Ġ1997",
        -1.0
      ],
      [
        "ino",
        -1.0
      ],
      [
        "Ġcurrently",
        -1.0
      ],
      [
        "Ġinadequate",
        -1.0
      ],
      [
        "Ġoutl",
        -1.0
      ],
      [
        "ĠAp",
        -1.0
      ],
      [
        "Ġcold",
        -1.0
      ],
      [
        "duction",
        -1.0
      ],
      [
        "generation",
        -1.0
      ],
      [
        "ĠST",
        -1.0
      ],
      [
        "ĠâĢ¦",
        -1.0
      ],
      [
        "ĠEnvironment",
        -1.0
      ],
      [
        "Ġtake",
        -1.0
      ],
      [
        "Ġspeech",
        -1.0
      ],
      [
        "ume",
        -1.0
      ],
      [
        "Ġreleased",
        -1.0
      ],
      [
        "'ve",
        -1.0
      ],
      [
        "Ġrequire",
        -1.0
      ],
      [
        "November",
        -1.0
      ],
      [
        "American",
        -1.0
      ],
      [
        "Ġstriking",
        -1.0
      ],
      [
        "ild",
        -1.0
      ],
      [
        "Ġtragedy",
        -1.0
      ],
      [
        "Ġmedium",
        -1.0
      ],
      [
        "Ġdeemed",
        -1.0
      ],
      [
        "Ġflat",
        -1.0
      ],
      [
        "sse",
        -1.0
      ],
      [
        "Ġtowards",
        -1.0
      ],
      [
        "ĠEngineering",
        -1.0
      ],
      [
        "SP",
        -1.0
      ],
      [
        "Ġfeeding",
        -1.0
      ],
      [
        "air",
        -1.0
      ],
      [
        "Ġadd",
        -1.0
      ],
      [
        "Ġtypically",
        -1.0
      ],
      [
        "ates",
        -1.0
      ],
      [
        "Ġregard",
        -1.0
      ],
      [
        "ĠMinistry",
        -1.0
      ],
      [
        "Ġideal",
        -1.0
      ],
      [
        "Ġcharacteristics",
        -1.0
      ],
      [
        "Ġhunt",
        -1.0
      ],
      [
        "ĠV",
        -1.0
      ],
      [
        "D",
        -1.0
      ],
      [
        "Ġbeautiful",
        -1.0
      ],
      [
        "ĠFish",
        -1.0
      ],
      [
        "Ġflour",
        -1.0
      ],
      [
        "Ġhappiness",
        -1.0
      ],
      [
        "Ġcars",
        -1.0
      ],
      [
        "Ġcough",
        -1.0
      ],
      [
        "If",
        -1.0
      ],
      [
        "ĠDutch",
        -1.0
      ],
      [
        "Ġgave",
        -1.0
      ],
      [
        "Ġhealthy",
        -1.0
      ],
      [
        "Ġprotein",
        -1.0
      ],
      [
        "feeding",
        -1.0
      ],
      [
        "x",
        -1.0
      ],
      [
        "Ġmagn",
        -1.0
      ],
      [
        "ĠIP",
        -1.0
      ],
      [
        "ĠBas",
        -1.0
      ],
      [
        "mes",
        -1.0
      ],
      [
        "Ġstart",
        -1.0
      ],
      [
        "ering",
        -1.0
      ],
      [
        "Ġrunning",
        -1.0
      ],
      [
        "3",
        -1.0
      ],
      [
        "ships",
        -1.0
      ],
      [
        "ĠSaint",
        -1.0
      ],
      [
        "fu",
        -1.0
      ],
      [
        "Ġmedical",
        -1.0
      ],
      [
        "EA",
        -1.0
      ],
      [
        "ĠOct",
        -1.0
      ],
      [
        "ĠTHE",
        -1.0
      ],
      [
        "och",
        -1.0
      ],
      [
        "ered",
        -1.0
      ],
      [
        "Ġ28",
        -1.0
      ],
      [
        "ĠHave",
        -1.0
      ],
      [
        "Ġcr",
        -1.0
      ],
      [
        "Ġfrequencies",
        -1.0
      ],
      [
        "Ġsto",
        -1.0
      ],
      [
        "Ġinterested",
        -1.0
      ],
      [
        "Ġnorth",
        -1.0
      ],
      [
        "ĠChristianity",
        -1.0
      ],
      [
        "pha",
        -1.0
      ],
      [
        "Ġbuilding",
        -1.0
      ],
      [
        "ĠMalaysia",
        -1.0
      ],
      [
        "lt",
        -1.0
      ],
      [
        "Ġambi",
        -1.0
      ],
      [
        "Ġ1996",
        -1.0
      ],
      [
        "bble",
        -1.0
      ],
      [
        "Ġlimestone",
        -1.0
      ],
      [
        "rn",
        -1.0
      ],
      [
        "Bi",
        -1.0
      ],
      [
        "ĠSy",
        -1.0
      ],
      [
        "Ġorganic",
        -1.0
      ],
      [
        "ĠAlbert",
        -1.0
      ],
      [
        "However",
        -1.0
      ],
      [
        "Ġconditions",
        -1.0
      ],
      [
        "Ġfacilitate",
        -1.0
      ],
      [
        "Ġgrowing",
        -1.0
      ],
      [
        "Ġconcerned",
        -1.0
      ],
      [
        "Ġthen",
        -1.0
      ],
      [
        "Ġshoot",
        -1.0
      ],
      [
        "Ġdisk",
        -1.0
      ],
      [
        "pose",
        -1.0
      ],
      [
        "tein",
        -1.0
      ],
      [
        "Ġfunctions",
        -1.0
      ],
      [
        "Ġwhen",
        -1.0
      ],
      [
        "á¹",
        -1.0
      ],
      [
        "ths",
        -1.0
      ],
      [
        "Ġemergency",
        -1.0
      ],
      [
        "ĠPr",
        -1.0
      ],
      [
        "Ġin",
        -1.0
      ],
      [
        "Ġneither",
        -1.0
      ],
      [
        "Ġautoimmune",
        -1.0
      ],
      [
        "Ġkilometers",
        -1.0
      ],
      [
        "Ġhand",
        -1.0
      ],
      [
        "Ġdirections",
        -1.0
      ],
      [
        "Ġprivate",
        -1.0
      ],
      [
        ".|",
        -1.0
      ],
      [
        "Ġhorses",
        -1.0
      ],
      [
        "Earth",
        -1.0
      ],
      [
        "ĠCamp",
        -1.0
      ],
      [
        "Ġem",
        -1.0
      ],
      [
        "his",
        -1.0
      ],
      [
        "ĠSur",
        -1.0
      ],
      [
        "ĠBrooklyn",
        -1.0
      ],
      [
        "Ġrely",
        -1.0
      ],
      [
        "Ġsecond",
        -1.0
      ],
      [
        "son",
        -1.0
      ],
      [
        "ĠAdministration",
        -1.0
      ],
      [
        "Ġconcerning",
        -1.0
      ],
      [
        "Ġteam",
        -1.0
      ],
      [
        "Ġclock",
        -1.0
      ],
      [
        "Ġload",
        -1.0
      ],
      [
        "ĠKansas",
        -1.0
      ],
      [
        "Ġchosen",
        -1.0
      ],
      [
        "ug",
        -1.0
      ],
      [
        "Ġski",
        -1.0
      ],
      [
        "Ġhousehold",
        -1.0
      ],
      [
        "ncing",
        -1.0
      ],
      [
        "Ġstr",
        -1.0
      ],
      [
        "Ġextra",
        -1.0
      ],
      [
        "Ġeveryone",
        -1.0
      ],
      [
        "Ġur",
        -1.0
      ],
      [
        "PR",
        -1.0
      ],
      [
        "Ġunlikely",
        -1.0
      ],
      [
        "Ġleg",
        -1.0
      ],
      [
        "ĠDon",
        -1.0
      ],
      [
        "Ġhu",
        -1.0
      ],
      [
        "il",
        -1.0
      ],
      [
        "Ġflight",
        -1.0
      ],
      [
        "Ġcommun",
        -1.0
      ],
      [
        "ĠBoard",
        -1.0
      ],
      [
        "ĠVi",
        -1.0
      ],
      [
        "Ġtechnologies",
        -1.0
      ],
      [
        "BS",
        -1.0
      ],
      [
        "Ġcontribute",
        -1.0
      ],
      [
        "Ġwithin",
        -1.0
      ],
      [
        "Į",
        -1.0
      ],
      [
        "Ġboost",
        -1.0
      ],
      [
        "ĠJerusalem",
        -1.0
      ],
      [
        "Ġoral",
        -1.0
      ],
      [
        "Ġvalley",
        -1.0
      ],
      [
        "u",
        -1.0
      ],
      [
        "rative",
        -1.0
      ],
      [
        "ĠEconomic",
        -1.0
      ],
      [
        "Ġpromising",
        -1.0
      ],
      [
        "ĠVirginia",
        -1.0
      ],
      [
        "ĭ",
        -1.0
      ],
      [
        "Ġadopted",
        -1.0
      ],
      [
        "wood",
        -1.0
      ],
      [
        "es",
        -1.0
      ],
      [
        "inflammatory",
        -1.0
      ],
      [
        "ĠCol",
        -1.0
      ],
      [
        "ĠRights",
        -1.0
      ],
      [
        "Ĥ",
        -1.0
      ],
      [
        "ĠAdam",
        -1.0
      ],
      [
        "ĠFamily",
        -1.0
      ],
      [
        "ĠLouis",
        -1.0
      ],
      [
        "Ġoutbreak",
        -1.0
      ],
      [
        "Ġforgotten",
        -1.0
      ],
      [
        "Ġfront",
        -1.0
      ],
      [
        "Ġreturn",
        -1.0
      ],
      [
        "Ġidentification",
        -1.0
      ],
      [
        "ĠNature",
        -1.0
      ],
      [
        "Ġnote",
        -1.0
      ],
      [
        "Ġare",
        -1.0
      ],
      [
        "Ġ30",
        -1.0
      ],
      [
        "People",
        -1.0
      ],
      [
        "Ġstorage",
        -1.0
      ],
      [
        "Ġlikely",
        -1.0
      ],
      [
        "Ġinequality",
        -1.0
      ],
      [
        "Ġalgebra",
        -1.0
      ],
      [
        "Ġdirected",
        -1.0
      ],
      [
        "PP",
        -1.0
      ],
      [
        "Ġvolcanic",
        -1.0
      ],
      [
        "St",
        -1.0
      ],
      [
        "Ġracial",
        -1.0
      ],
      [
        "Ġphenomena",
        -1.0
      ],
      [
        "op",
        -1.0
      ],
      [
        "Ġliber",
        -1.0
      ],
      [
        "Ġfestival",
        -1.0
      ],
      [
        "ĠMat",
        -1.0
      ],
      [
        "Ġhall",
        -1.0
      ],
      [
        "Ġblack",
        -1.0
      ],
      [
        "Ġupon",
        -1.0
      ],
      [
        "Ġrid",
        -1.0
      ],
      [
        "Ġit",
        -1.0
      ],
      [
        "Ġagents",
        -1.0
      ],
      [
        "conscious",
        -1.0
      ],
      [
        "ĠConf",
        -1.0
      ],
      [
        "Ġdesignated",
        -1.0
      ],
      [
        "dal",
        -1.0
      ],
      [
        "ĠWildlife",
        -1.0
      ],
      [
        "Ġban",
        -1.0
      ],
      [
        "Ġbeings",
        -1.0
      ],
      [
        "Ġsemiconductor",
        -1.0
      ],
      [
        "ĠWord",
        -1.0
      ],
      [
        "Ġvessels",
        -1.0
      ],
      [
        "Ġpure",
        -1.0
      ],
      [
        "ĠClass",
        -1.0
      ],
      [
        "Ġdamaged",
        -1.0
      ],
      [
        "ional",
        -1.0
      ],
      [
        "cing",
        -1.0
      ],
      [
        "Ġrules",
        -1.0
      ],
      [
        "Ġlocated",
        -1.0
      ],
      [
        "name",
        -1.0
      ],
      [
        "Ġrelieve",
        -1.0
      ],
      [
        "Ġsong",
        -1.0
      ],
      [
        "Ġspin",
        -1.0
      ],
      [
        "efficient",
        -1.0
      ],
      [
        "Ġsti",
        -1.0
      ],
      [
        "RE",
        -1.0
      ],
      [
        "ĠHand",
        -1.0
      ],
      [
        "ĠGreek",
        -1.0
      ],
      [
        "Ġmiles",
        -1.0
      ],
      [
        "Ġsophisticated",
        -1.0
      ],
      [
        "Ġexpense",
        -1.0
      ],
      [
        "Ġaffirm",
        -1.0
      ],
      [
        "Ġdepartment",
        -1.0
      ],
      [
        "Ġ2008",
        -1.0
      ],
      [
        "Ġagencies",
        -1.0
      ],
      [
        "ets",
        -1.0
      ],
      [
        "Ġ$",
        -1.0
      ],
      [
        "li",
        -1.0
      ],
      [
        "Ġelephant",
        -1.0
      ],
      [
        "Ġret",
        -1.0
      ],
      [
        "ef",
        -1.0
      ],
      [
        "Ġstill",
        -1.0
      ],
      [
        "Ġaspir",
        -1.0
      ],
      [
        "rian",
        -1.0
      ],
      [
        "Ġpollutants",
        -1.0
      ],
      [
        "Ġclo",
        -1.0
      ],
      [
        "Ġthirty",
        -1.0
      ],
      [
        "Ġske",
        -1.0
      ],
      [
        "iff",
        -1.0
      ],
      [
        "ĠKorea",
        -1.0
      ],
      [
        "Ġdeploy",
        -1.0
      ],
      [
        "Ġswimming",
        -1.0
      ],
      [
        "Ġyield",
        -1.0
      ],
      [
        "Ġmammals",
        -1.0
      ],
      [
        "Ġsettlement",
        -1.0
      ],
      [
        "Ġtribes",
        -1.0
      ],
      [
        "Ġattempted",
        -1.0
      ],
      [
        "Ġreverse",
        -1.0
      ],
      [
        "Ġcollect",
        -1.0
      ],
      [
        "ness",
        -1.0
      ],
      [
        "Ġregulation",
        -1.0
      ],
      [
        "ars",
        -1.0
      ],
      [
        "7",
        -1.0
      ],
      [
        "Ġ2",
        -1.0
      ],
      [
        "ĠNews",
        -1.0
      ],
      [
        "place",
        -1.0
      ],
      [
        "Ġestate",
        -1.0
      ],
      [
        "Ġspr",
        -1.0
      ],
      [
        "Ġskin",
        -1.0
      ],
      [
        "ĠGra",
        -1.0
      ],
      [
        "ĠBill",
        -1.0
      ],
      [
        "Ġhousing",
        -1.0
      ],
      [
        "ĠHouston",
        -1.0
      ],
      [
        "ĠStudies",
        -1.0
      ],
      [
        "ĠIntelligence",
        -1.0
      ],
      [
        "Ġstates",
        -1.0
      ],
      [
        "mp",
        -1.0
      ],
      [
        "ĠAS",
        -1.0
      ],
      [
        "present",
        -1.0
      ],
      [
        "ĠWi",
        -1.0
      ],
      [
        "Ġsymptoms",
        -1.0
      ],
      [
        "ĠDi",
        -1.0
      ],
      [
        "Ġexcept",
        -1.0
      ],
      [
        "port",
        -1.0
      ],
      [
        "Ġemb",
        -1.0
      ],
      [
        "ĠArt",
        -1.0
      ],
      [
        "rage",
        -1.0
      ],
      [
        "ference",
        -1.0
      ],
      [
        "Ġhistoric",
        -1.0
      ],
      [
        "Ġbreak",
        -1.0
      ],
      [
        "equently",
        -1.0
      ],
      [
        "Ġfeed",
        -1.0
      ],
      [
        "Ġbefore",
        -1.0
      ],
      [
        "Ġform",
        -1.0
      ],
      [
        "Ġinternet",
        -1.0
      ],
      [
        "¯",
        -1.0
      ],
      [
        "Ġ50",
        -1.0
      ],
      [
        "Ġis",
        -1.0
      ],
      [
        "Ġtall",
        -1.0
      ],
      [
        "Ġelevation",
        -1.0
      ],
      [
        "Ġvision",
        -1.0
      ],
      [
        "Ġdirector",
        -1.0
      ],
      [
        "Ġsport",
        -1.0
      ],
      [
        "Ġsites",
        -1.0
      ],
      [
        "ĠCompany",
        -1.0
      ],
      [
        "Ġcentre",
        -1.0
      ],
      [
        "ting",
        -1.0
      ],
      [
        "Similar",
        -1.0
      ],
      [
        "Ġvolunteer",
        -1.0
      ],
      [
        "B",
        -1.0
      ],
      [
        "Ġissues",
        -1.0
      ],
      [
        "ited",
        -1.0
      ],
      [
        "Ġconsistent",
        -1.0
      ],
      [
        "Ġtherapy",
        -1.0
      ],
      [
        "ĠGDP",
        -1.0
      ],
      [
        "Ġ2004",
        -1.0
      ],
      [
        "Ġabundant",
        -1.0
      ],
      [
        "ĠMon",
        -1.0
      ],
      [
        "ĠFo",
        -1.0
      ],
      [
        "SH",
        -1.0
      ],
      [
        "Ġturns",
        -1.0
      ],
      [
        "Ġrenewable",
        -1.0
      ],
      [
        "Ġcareful",
        -1.0
      ],
      [
        "Ġregistration",
        -1.0
      ],
      [
        "ied",
        -1.0
      ],
      [
        "ure",
        -1.0
      ],
      [
        "sions",
        -1.0
      ],
      [
        "ĠCharles",
        -1.0
      ],
      [
        "Ġcycle",
        -1.0
      ],
      [
        "Ġdangerous",
        -1.0
      ],
      [
        "Ġbillion",
        -1.0
      ],
      [
        "Ġsurvey",
        -1.0
      ],
      [
        "Ġsolar",
        -1.0
      ],
      [
        "Ġlake",
        -1.0
      ],
      [
        "Ġappearance",
        -1.0
      ],
      [
        "Ġhang",
        -1.0
      ],
      [
        "gin",
        -1.0
      ],
      [
        "ĠNetherlands",
        -1.0
      ],
      [
        "å",
        -1.0
      ],
      [
        "âĢĿ,",
        -1.0
      ],
      [
        "Ġflying",
        -1.0
      ],
      [
        "Ġdel",
        -1.0
      ],
      [
        "land",
        -1.0
      ],
      [
        "ĠJacob",
        -1.0
      ],
      [
        "sion",
        -1.0
      ],
      [
        "Ġalso",
        -1.0
      ],
      [
        "ics",
        -1.0
      ],
      [
        "Ġenvironments",
        -1.0
      ],
      [
        "Ġstories",
        -1.0
      ],
      [
        "ĠSurvey",
        -1.0
      ],
      [
        "Ġoffering",
        -1.0
      ],
      [
        "Ġcategory",
        -1.0
      ],
      [
        "Ġdirection",
        -1.0
      ],
      [
        "Ġlabour",
        -1.0
      ],
      [
        "Ġmeasured",
        -1.0
      ],
      [
        "Ġfluid",
        -1.0
      ],
      [
        "ģ",
        -1.0
      ],
      [
        "bic",
        -1.0
      ],
      [
        "Ġstage",
        -1.0
      ],
      [
        "inter",
        -1.0
      ],
      [
        "Ġsigns",
        -1.0
      ],
      [
        "Ġtaxes",
        -1.0
      ],
      [
        "Ġdegree",
        -1.0
      ],
      [
        "ĠInternet",
        -1.0
      ],
      [
        "Ġtemperature",
        -1.0
      ],
      [
        "Ġcustomers",
        -1.0
      ],
      [
        "Ġinnovation",
        -1.0
      ],
      [
        "Ġnegoti",
        -1.0
      ],
      [
        "EN",
        -1.0
      ],
      [
        "Ġreveal",
        -1.0
      ],
      [
        "Ġpharmac",
        -1.0
      ],
      [
        "used",
        -1.0
      ],
      [
        "Ġwound",
        -1.0
      ],
      [
        "Ġfiles",
        -1.0
      ],
      [
        "Ġpermit",
        -1.0
      ],
      [
        "Ġfollowed",
        -1.0
      ],
      [
        "What",
        -1.0
      ],
      [
        "Ġelectrical",
        -1.0
      ],
      [
        "ologies",
        -1.0
      ],
      [
        "Ø",
        -1.0
      ],
      [
        "Ġgive",
        -1.0
      ],
      [
        "ĠCor",
        -1.0
      ],
      [
        "ĠJim",
        -1.0
      ],
      [
        "Ġargue",
        -1.0
      ],
      [
        "Ġfight",
        -1.0
      ],
      [
        "Ġcomplicated",
        -1.0
      ],
      [
        "Ġepisode",
        -1.0
      ],
      [
        "ĠNGO",
        -1.0
      ],
      [
        "imp",
        -1.0
      ],
      [
        "%",
        -1.0
      ],
      [
        "ĠDigital",
        -1.0
      ],
      [
        "pal",
        -1.0
      ],
      [
        "ĠElizabeth",
        -1.0
      ],
      [
        "Ġsense",
        -1.0
      ],
      [
        "mar",
        -1.0
      ],
      [
        "Ġbroad",
        -1.0
      ],
      [
        "Ġcompletion",
        -1.0
      ],
      [
        "Ġkids",
        -1.0
      ],
      [
        "ĠIC",
        -1.0
      ],
      [
        "Ġoccupied",
        -1.0
      ],
      [
        "ĠOpen",
        -1.0
      ],
      [
        "Ġdecision",
        -1.0
      ],
      [
        "Ġbear",
        -1.0
      ],
      [
        "Ġmistake",
        -1.0
      ],
      [
        "Ġdozen",
        -1.0
      ],
      [
        "NT",
        -1.0
      ],
      [
        "ĠFund",
        -1.0
      ],
      [
        "Ġcarbon",
        -1.0
      ],
      [
        "Ġtube",
        -1.0
      ],
      [
        "Ġmembers",
        -1.0
      ],
      [
        "ĠCI",
        -1.0
      ],
      [
        "Ġserving",
        -1.0
      ],
      [
        "ĠGarden",
        -1.0
      ],
      [
        "V",
        -1.0
      ],
      [
        "ĠWhy",
        -1.0
      ],
      [
        "source",
        -1.0
      ],
      [
        "Ġautomobile",
        -1.0
      ],
      [
        "Ġliteracy",
        -1.0
      ],
      [
        "Ġable",
        -1.0
      ],
      [
        "Ġconcept",
        -1.0
      ],
      [
        "ĠCha",
        -1.0
      ],
      [
        "a",
        -1.0
      ],
      [
        "ĠAsia",
        -1.0
      ],
      [
        "Ġinfant",
        -1.0
      ],
      [
        "Ġdefine",
        -1.0
      ],
      [
        "Ġconsumer",
        -1.0
      ],
      [
        "Ġinjured",
        -1.0
      ],
      [
        "page",
        -1.0
      ],
      [
        "ĠCDC",
        -1.0
      ],
      [
        "ĠDistrict",
        -1.0
      ],
      [
        "Ġbeliefs",
        -1.0
      ],
      [
        "Ġpressure",
        -1.0
      ],
      [
        "43",
        -1.0
      ],
      [
        "ĠSp",
        -1.0
      ],
      [
        "ĠGospel",
        -1.0
      ],
      [
        "Ġmechanics",
        -1.0
      ],
      [
        "ĠAmerican",
        -1.0
      ],
      [
        "omplete",
        -1.0
      ],
      [
        "Ġchi",
        -1.0
      ],
      [
        "):",
        -1.0
      ],
      [
        "Ġleadership",
        -1.0
      ],
      [
        "Ġstopped",
        -1.0
      ],
      [
        "Ġcomposed",
        -1.0
      ],
      [
        "88",
        -1.0
      ],
      [
        "93",
        -1.0
      ],
      [
        "Ġmember",
        -1.0
      ],
      [
        "February",
        -1.0
      ],
      [
        "tz",
        -1.0
      ],
      [
        "wards",
        -1.0
      ],
      [
        "Ġrestore",
        -1.0
      ],
      [
        "Ġdebris",
        -1.0
      ],
      [
        "Ġhappy",
        -1.0
      ],
      [
        "Re",
        -1.0
      ],
      [
        "Ġcomplications",
        -1.0
      ],
      [
        "Ġnumbers",
        -1.0
      ],
      [
        "ĠVolume",
        -1.0
      ],
      [
        "Ġhe",
        -1.0
      ],
      [
        "Wh",
        -1.0
      ],
      [
        "Ġspecified",
        -1.0
      ],
      [
        ".âĢĿ",
        -1.0
      ],
      [
        "Ġcomb",
        -1.0
      ],
      [
        "Ġdelay",
        -1.0
      ],
      [
        "ĠCap",
        -1.0
      ],
      [
        "Ġnausea",
        -1.0
      ],
      [
        "CS",
        -1.0
      ],
      [
        "HA",
        -1.0
      ],
      [
        "ĠAl",
        -1.0
      ],
      [
        "led",
        -1.0
      ],
      [
        "Ġenerg",
        -1.0
      ],
      [
        "Ġhorse",
        -1.0
      ],
      [
        "Ġresembl",
        -1.0
      ],
      [
        "Ġbehaviors",
        -1.0
      ],
      [
        "LD",
        -1.0
      ],
      [
        "Ġdisadvantage",
        -1.0
      ],
      [
        "rse",
        -1.0
      ],
      [
        "ĠSm",
        -1.0
      ],
      [
        "Ġengineers",
        -1.0
      ],
      [
        "Ġcommand",
        -1.0
      ],
      [
        "des",
        -1.0
      ],
      [
        "Ġtimes",
        -1.0
      ],
      [
        "ĠPennsylvania",
        -1.0
      ],
      [
        "Ġdelivered",
        -1.0
      ],
      [
        "SQL",
        -1.0
      ],
      [
        "²",
        -1.0
      ],
      [
        "Ġassess",
        -1.0
      ],
      [
        "Ġreputation",
        -1.0
      ],
      [
        "Ġusage",
        -1.0
      ],
      [
        "Ġpresence",
        -1.0
      ],
      [
        "mitted",
        -1.0
      ],
      [
        "mental",
        -1.0
      ],
      [
        "Ġwritten",
        -1.0
      ],
      [
        "Ġresearchers",
        -1.0
      ],
      [
        "ĠCanada",
        -1.0
      ],
      [
        "Ġeruption",
        -1.0
      ],
      [
        "ĠReligion",
        -1.0
      ],
      [
        "Ġ[",
        -1.0
      ],
      [
        "Ġfail",
        -1.0
      ],
      [
        "Me",
        -1.0
      ],
      [
        "ĠBerkeley",
        -1.0
      ],
      [
        "Ġless",
        -1.0
      ],
      [
        "ĠAcademy",
        -1.0
      ],
      [
        "Ġclassified",
        -1.0
      ],
      [
        "Ġslave",
        -1.0
      ],
      [
        "ĠGood",
        -1.0
      ],
      [
        "Ġhorizontal",
        -1.0
      ],
      [
        "Ġconduct",
        -1.0
      ],
      [
        "Ġ1930",
        -1.0
      ],
      [
        "Ġvia",
        -1.0
      ],
      [
        "ĠâĢľ",
        -1.0
      ],
      [
        "Ġseparated",
        -1.0
      ],
      [
        "Ġregularly",
        -1.0
      ],
      [
        "ĠTimes",
        -1.0
      ],
      [
        "Ġamount",
        -1.0
      ],
      [
        "ĺ",
        -1.0
      ],
      [
        "Ġshore",
        -1.0
      ],
      [
        "Ġyears",
        -1.0
      ],
      [
        "Ġinterpretation",
        -1.0
      ],
      [
        "ĠPri",
        -1.0
      ],
      [
        "Ġgenuine",
        -1.0
      ],
      [
        "Ġedition",
        -1.0
      ],
      [
        "rich",
        -1.0
      ],
      [
        "Ġfought",
        -1.0
      ],
      [
        "Ġlogical",
        -1.0
      ],
      [
        "ĠThen",
        -1.0
      ],
      [
        "ĠPer",
        -1.0
      ],
      [
        "ada",
        -1.0
      ],
      [
        "Ġcomplain",
        -1.0
      ],
      [
        "Ġcylinder",
        -1.0
      ],
      [
        "Ġclass",
        -1.0
      ],
      [
        "Ġrestrict",
        -1.0
      ],
      [
        "Ġnumber",
        -1.0
      ],
      [
        "Ġacid",
        -1.0
      ],
      [
        "ĠNew",
        -1.0
      ],
      [
        "Ġexistence",
        -1.0
      ],
      [
        "also",
        -1.0
      ],
      [
        "ĠAlexander",
        -1.0
      ],
      [
        "Ġcredit",
        -1.0
      ],
      [
        "O",
        -1.0
      ],
      [
        "Ġlosses",
        -1.0
      ],
      [
        "lets",
        -1.0
      ],
      [
        "Ġprojects",
        -1.0
      ],
      [
        "Ġsurgical",
        -1.0
      ],
      [
        "Ġja",
        -1.0
      ],
      [
        "38",
        -1.0
      ],
      [
        "Ġwhom",
        -1.0
      ],
      [
        "ble",
        -1.0
      ],
      [
        "ĠMass",
        -1.0
      ],
      [
        "âĢĵ",
        -1.0
      ],
      [
        "Ġcur",
        -1.0
      ],
      [
        "Ġtip",
        -1.0
      ],
      [
        "Ġsmaller",
        -1.0
      ],
      [
        "ĠPalestine",
        -1.0
      ],
      [
        "MA",
        -1.0
      ],
      [
        "Ġliterally",
        -1.0
      ],
      [
        "ville",
        -1.0
      ],
      [
        "ĠPhilosoph",
        -1.0
      ],
      [
        "Ġreserved",
        -1.0
      ],
      [
        "uth",
        -1.0
      ],
      [
        "Ġcivil",
        -1.0
      ],
      [
        "John",
        -1.0
      ],
      [
        "Ġgovernment",
        -1.0
      ],
      [
        "Ġchanging",
        -1.0
      ],
      [
        "Ġmonitoring",
        -1.0
      ],
      [
        "Ġman",
        -1.0
      ],
      [
        "ĠChina",
        -1.0
      ],
      [
        "Ġjust",
        -1.0
      ],
      [
        "ĠEa",
        -1.0
      ],
      [
        "Ġapplicable",
        -1.0
      ],
      [
        "Ġsources",
        -1.0
      ],
      [
        "Ġauthentic",
        -1.0
      ],
      [
        "Ġfarms",
        -1.0
      ],
      [
        "Ġproposed",
        -1.0
      ],
      [
        "En",
        -1.0
      ],
      [
        "ĠBecause",
        -1.0
      ],
      [
        ");",
        -1.0
      ],
      [
        "May",
        -1.0
      ],
      [
        "Ġbecoming",
        -1.0
      ],
      [
        "Ġworking",
        -1.0
      ],
      [
        "Ġclean",
        -1.0
      ],
      [
        "ice",
        -1.0
      ],
      [
        "Ġdifference",
        -1.0
      ],
      [
        "Ġnumerous",
        -1.0
      ],
      [
        "Ġsignificantly",
        -1.0
      ],
      [
        "ĠBack",
        -1.0
      ],
      [
        "Ġconservation",
        -1.0
      ],
      [
        "Ġgames",
        -1.0
      ],
      [
        "Ġlittle",
        -1.0
      ],
      [
        "Ġsevere",
        -1.0
      ],
      [
        "Ġtransmit",
        -1.0
      ],
      [
        "ĠSingapore",
        -1.0
      ],
      [
        "Ġmessages",
        -1.0
      ],
      [
        "Ð¾Ð",
        -1.0
      ],
      [
        "ĠAtlantic",
        -1.0
      ],
      [
        "ĠEmergency",
        -1.0
      ],
      [
        "Ġdevelop",
        -1.0
      ],
      [
        "Ġfuel",
        -1.0
      ],
      [
        "Ġproviding",
        -1.0
      ],
      [
        "ĠArkansas",
        -1.0
      ],
      [
        "Ġdescend",
        -1.0
      ],
      [
        "ock",
        -1.0
      ],
      [
        "fully",
        -1.0
      ],
      [
        "oo",
        -1.0
      ],
      [
        "Ġbrowser",
        -1.0
      ],
      [
        "ĠâĢĶ",
        -1.0
      ],
      [
        "Ġautism",
        -1.0
      ],
      [
        "Ġn",
        -1.0
      ],
      [
        "Ġdeclar",
        -1.0
      ],
      [
        "Ġlisted",
        -1.0
      ],
      [
        "Ġfracture",
        -1.0
      ],
      [
        "Ġrisk",
        -1.0
      ],
      [
        "Ġto",
        -1.0
      ],
      [
        "ĠPress",
        -1.0
      ],
      [
        "ĠWil",
        -1.0
      ],
      [
        "De",
        -1.0
      ],
      [
        "Ġselection",
        -1.0
      ],
      [
        "Ġjustice",
        -1.0
      ],
      [
        "28",
        -1.0
      ],
      [
        "national",
        -1.0
      ],
      [
        "ru",
        -1.0
      ],
      [
        "Ġjuvenile",
        -1.0
      ],
      [
        "way",
        -1.0
      ],
      [
        "Ġpress",
        -1.0
      ],
      [
        "Ġread",
        -1.0
      ],
      [
        "ĠSE",
        -1.0
      ],
      [
        "Ġbabies",
        -1.0
      ],
      [
        "Ġuranium",
        -1.0
      ],
      [
        "ĠBC",
        -1.0
      ],
      [
        "Ġinvolved",
        -1.0
      ],
      [
        "33",
        -1.0
      ],
      [
        "Ġdogs",
        -1.0
      ],
      [
        "Ġquantities",
        -1.0
      ],
      [
        "Ġintelligent",
        -1.0
      ],
      [
        "Ġefficacy",
        -1.0
      ],
      [
        "us",
        -1.0
      ],
      [
        "Ġmeaning",
        -1.0
      ],
      [
        "Ġmanufacture",
        -1.0
      ],
      [
        "terrestrial",
        -1.0
      ],
      [
        "Ġeating",
        -1.0
      ],
      [
        "Ġedge",
        -1.0
      ],
      [
        "Ġdramatic",
        -1.0
      ],
      [
        "ĠA",
        -1.0
      ],
      [
        "Ġgravitational",
        -1.0
      ],
      [
        "face",
        -1.0
      ],
      [
        "Ġchildren",
        -1.0
      ],
      [
        "ĠGerman",
        -1.0
      ],
      [
        "ai",
        -1.0
      ],
      [
        "Ġche",
        -1.0
      ],
      [
        "spe",
        -1.0
      ],
      [
        "Ġinherit",
        -1.0
      ],
      [
        "Ġcorrelation",
        -1.0
      ],
      [
        "Ġconsidered",
        -1.0
      ],
      [
        "read",
        -1.0
      ],
      [
        "Ġaverage",
        -1.0
      ],
      [
        "ĠLess",
        -1.0
      ],
      [
        "Ġserves",
        -1.0
      ],
      [
        "pass",
        -1.0
      ],
      [
        "Ġseparate",
        -1.0
      ],
      [
        "Ġprivacy",
        -1.0
      ],
      [
        "Ġalgae",
        -1.0
      ],
      [
        "Ġupper",
        -1.0
      ],
      [
        "Ġpaper",
        -1.0
      ],
      [
        "physical",
        -1.0
      ],
      [
        "lu",
        -1.0
      ],
      [
        "Ad",
        -1.0
      ],
      [
        "cle",
        -1.0
      ],
      [
        "Ġcourt",
        -1.0
      ],
      [
        "Ġfuture",
        -1.0
      ],
      [
        "European",
        -1.0
      ],
      [
        "Ġhydr",
        -1.0
      ],
      [
        "Ġschedule",
        -1.0
      ],
      [
        "Ġtells",
        -1.0
      ],
      [
        "ways",
        -1.0
      ],
      [
        "Ġtree",
        -1.0
      ],
      [
        "Ġclim",
        -1.0
      ],
      [
        "Ġmalnutrition",
        -1.0
      ],
      [
        "Ġdem",
        -1.0
      ],
      [
        "Ġsuch",
        -1.0
      ],
      [
        "Ġbird",
        -1.0
      ],
      [
        "Ġflexible",
        -1.0
      ],
      [
        "Ġconvinced",
        -1.0
      ],
      [
        "Ġpairs",
        -1.0
      ],
      [
        "LL",
        -1.0
      ],
      [
        "Ġecosystem",
        -1.0
      ],
      [
        "ĠHurricane",
        -1.0
      ],
      [
        "Ġexperienced",
        -1.0
      ],
      [
        "Ġauthority",
        -1.0
      ],
      [
        "Ġdu",
        -1.0
      ],
      [
        "Ġexplore",
        -1.0
      ],
      [
        "Ġagreement",
        -1.0
      ],
      [
        "Ġindex",
        -1.0
      ],
      [
        "Ġa",
        -1.0
      ],
      [
        "Ġ",
        -1.0
      ],
      [
        "Ġgasoline",
        -1.0
      ],
      [
        "Ġguard",
        -1.0
      ],
      [
        "Ġends",
        -1.0
      ],
      [
        "ĠÃ",
        -1.0
      ],
      [
        "ĠNorth",
        -1.0
      ],
      [
        "Ġappetite",
        -1.0
      ],
      [
        "Ġcontinue",
        -1.0
      ],
      [
        "ĠBuilding",
        -1.0
      ],
      [
        "TION",
        -1.0
      ],
      [
        "Ġaccording",
        -1.0
      ],
      [
        "bil",
        -1.0
      ],
      [
        "ĠR",
        -1.0
      ],
      [
        "Ġfinding",
        -1.0
      ],
      [
        "ĠProgram",
        -1.0
      ],
      [
        "Ġconcluded",
        -1.0
      ],
      [
        "Ġcooperation",
        -1.0
      ],
      [
        "bal",
        -1.0
      ],
      [
        "Ġtoxic",
        -1.0
      ],
      [
        "Ġidentifying",
        -1.0
      ],
      [
        "lled",
        -1.0
      ],
      [
        "fr",
        -1.0
      ],
      [
        "98",
        -1.0
      ],
      [
        "Ġletters",
        -1.0
      ],
      [
        "ĠBible",
        -1.0
      ],
      [
        "Ġoutcomes",
        -1.0
      ],
      [
        "Ġ70",
        -1.0
      ],
      [
        "Ġnecessarily",
        -1.0
      ],
      [
        "ura",
        -1.0
      ],
      [
        "Ġbreeding",
        -1.0
      ],
      [
        "ved",
        -1.0
      ],
      [
        "While",
        -1.0
      ],
      [
        "Ġone",
        -1.0
      ],
      [
        "lus",
        -1.0
      ],
      [
        "Ġdispute",
        -1.0
      ],
      [
        "Ġpainting",
        -1.0
      ],
      [
        "Ġhomes",
        -1.0
      ],
      [
        "Da",
        -1.0
      ],
      [
        "ĠChildren",
        -1.0
      ],
      [
        "Ġgoals",
        -1.0
      ],
      [
        "Ġconfirm",
        -1.0
      ],
      [
        "tribution",
        -1.0
      ],
      [
        "uting",
        -1.0
      ],
      [
        "Ġ.",
        -1.0
      ],
      [
        "50",
        -1.0
      ],
      [
        "Ġ||",
        -1.0
      ],
      [
        "Ġencyclopedia",
        -1.0
      ],
      [
        "Ġthreats",
        -1.0
      ],
      [
        "Ġopposite",
        -1.0
      ],
      [
        "Ġimpair",
        -1.0
      ],
      [
        "ĠCommittee",
        -1.0
      ],
      [
        "Ġwhole",
        -1.0
      ],
      [
        "ĠVenezuela",
        -1.0
      ],
      [
        "Ġaudience",
        -1.0
      ],
      [
        "Ġgoal",
        -1.0
      ],
      [
        "ĠSA",
        -1.0
      ],
      [
        "ĠBrazil",
        -1.0
      ],
      [
        "Ġtwi",
        -1.0
      ],
      [
        "Ġ1988",
        -1.0
      ],
      [
        "AC",
        -1.0
      ],
      [
        "Ġdriver",
        -1.0
      ],
      [
        "made",
        -1.0
      ],
      [
        "Ġgender",
        -1.0
      ],
      [
        "Ġacoustic",
        -1.0
      ],
      [
        "That",
        -1.0
      ],
      [
        "Ġdisrupt",
        -1.0
      ],
      [
        "Ġpossibly",
        -1.0
      ],
      [
        "Ġled",
        -1.0
      ],
      [
        "Ġphenomenon",
        -1.0
      ],
      [
        "Ġdemonstrated",
        -1.0
      ],
      [
        "Ġopening",
        -1.0
      ],
      [
        "ell",
        -1.0
      ],
      [
        "Ġgoing",
        -1.0
      ],
      [
        "able",
        -1.0
      ],
      [
        "Ġhunting",
        -1.0
      ],
      [
        "Ġmixture",
        -1.0
      ],
      [
        "Ġourselves",
        -1.0
      ],
      [
        "ĠForest",
        -1.0
      ],
      [
        "Ġkernel",
        -1.0
      ],
      [
        "Ġdry",
        -1.0
      ],
      [
        "EP",
        -1.0
      ],
      [
        "ĠSpe",
        -1.0
      ],
      [
        "ĠFr",
        -1.0
      ],
      [
        "Ġtrans",
        -1.0
      ],
      [
        "not",
        -1.0
      ],
      [
        "Ġraise",
        -1.0
      ],
      [
        "DP",
        -1.0
      ],
      [
        "Ġtherapeutic",
        -1.0
      ],
      [
        "ity",
        -1.0
      ],
      [
        "ĠKnow",
        -1.0
      ],
      [
        "ĠUp",
        -1.0
      ],
      [
        "Ġnothing",
        -1.0
      ],
      [
        "ep",
        -1.0
      ],
      [
        "ĠDisorder",
        -1.0
      ],
      [
        "ustainable",
        -1.0
      ],
      [
        "ck",
        -1.0
      ],
      [
        "ner",
        -1.0
      ],
      [
        "Ġcircle",
        -1.0
      ],
      [
        "Ġdesigned",
        -1.0
      ],
      [
        "Ġcarrier",
        -1.0
      ],
      [
        "theless",
        -1.0
      ],
      [
        "Ġcost",
        -1.0
      ],
      [
        "ĠMarine",
        -1.0
      ],
      [
        "ences",
        -1.0
      ],
      [
        "pathy",
        -1.0
      ],
      [
        "Ġdoesn",
        -1.0
      ],
      [
        "âĢ¢",
        -1.0
      ],
      [
        "ĠGar",
        -1.0
      ],
      [
        "ĠCincinnati",
        -1.0
      ],
      [
        "ĠConsider",
        -1.0
      ],
      [
        "Ġeven",
        -1.0
      ],
      [
        "Ġ1950",
        -1.0
      ],
      [
        "Ġpot",
        -1.0
      ],
      [
        "Ġpsychiatr",
        -1.0
      ],
      [
        "nis",
        -1.0
      ],
      [
        "GA",
        -1.0
      ],
      [
        "LS",
        -1.0
      ],
      [
        "Ġrivers",
        -1.0
      ],
      [
        "Ġathlet",
        -1.0
      ],
      [
        "hen",
        -1.0
      ],
      [
        "Ġabortion",
        -1.0
      ],
      [
        "gent",
        -1.0
      ],
      [
        "men",
        -1.0
      ],
      [
        "Ġfinance",
        -1.0
      ],
      [
        "Ġpermanent",
        -1.0
      ],
      [
        "),",
        -1.0
      ],
      [
        "ĠBar",
        -1.0
      ],
      [
        "Ġcareer",
        -1.0
      ],
      [
        "Ġlarvae",
        -1.0
      ],
      [
        "Ġcommonly",
        -1.0
      ],
      [
        "Ġdisagree",
        -1.0
      ],
      [
        "ame",
        -1.0
      ],
      [
        "Ġprecipitation",
        -1.0
      ],
      [
        "Ġimage",
        -1.0
      ],
      [
        "matic",
        -1.0
      ],
      [
        "Ġsend",
        -1.0
      ],
      [
        "ĠLong",
        -1.0
      ],
      [
        "Ġfrozen",
        -1.0
      ],
      [
        "dow",
        -1.0
      ],
      [
        "king",
        -1.0
      ],
      [
        "ĠIce",
        -1.0
      ],
      [
        "MS",
        -1.0
      ],
      [
        "Ġbegun",
        -1.0
      ],
      [
        "Ġlea",
        -1.0
      ],
      [
        "je",
        -1.0
      ],
      [
        "ĠCooper",
        -1.0
      ],
      [
        "Ġprocedures",
        -1.0
      ],
      [
        "î",
        -1.0
      ],
      [
        "ĠServices",
        -1.0
      ],
      [
        "Ġmis",
        -1.0
      ],
      [
        "over",
        -1.0
      ],
      [
        "@",
        -1.0
      ],
      [
        "GS",
        -1.0
      ],
      [
        "Ġphotos",
        -1.0
      ],
      [
        "ĠBlue",
        -1.0
      ],
      [
        "ĠStephen",
        -1.0
      ],
      [
        "Ġlivestock",
        -1.0
      ],
      [
        "ology",
        -1.0
      ],
      [
        "Ġranging",
        -1.0
      ],
      [
        "Ġold",
        -1.0
      ],
      [
        "ĠKingdom",
        -1.0
      ],
      [
        "ĠKey",
        -1.0
      ],
      [
        "Ġidentity",
        -1.0
      ],
      [
        "Ġfeel",
        -1.0
      ],
      [
        "Ġinstrument",
        -1.0
      ],
      [
        "Ġbaby",
        -1.0
      ],
      [
        "Ġfirm",
        -1.0
      ],
      [
        "Ġwalls",
        -1.0
      ],
      [
        "´",
        -1.0
      ],
      [
        "Ġidentify",
        -1.0
      ],
      [
        "ĠCanyon",
        -1.0
      ],
      [
        "Ġmuch",
        -1.0
      ],
      [
        "Ġbu",
        -1.0
      ],
      [
        "NU",
        -1.0
      ],
      [
        "Ġrescue",
        -1.0
      ],
      [
        "top",
        -1.0
      ],
      [
        "ously",
        -1.0
      ],
      [
        "Ġecosystems",
        -1.0
      ],
      [
        "ined",
        -1.0
      ],
      [
        "Ġrising",
        -1.0
      ],
      [
        "Ġpreserve",
        -1.0
      ],
      [
        "Ġgas",
        -1.0
      ],
      [
        "Ġje",
        -1.0
      ],
      [
        "ĠEm",
        -1.0
      ],
      [
        "ĠSwitzerland",
        -1.0
      ],
      [
        "Ġhope",
        -1.0
      ],
      [
        "Ġparticipants",
        -1.0
      ],
      [
        ".;",
        -1.0
      ],
      [
        "Ġcl",
        -1.0
      ],
      [
        "ĠSc",
        -1.0
      ],
      [
        "Ġcorrectly",
        -1.0
      ],
      [
        "scope",
        -1.0
      ],
      [
        "Ġwhether",
        -1.0
      ],
      [
        "Ġrarely",
        -1.0
      ],
      [
        "Ġlow",
        -1.0
      ],
      [
        "Ġdecrease",
        -1.0
      ],
      [
        "like",
        -1.0
      ],
      [
        "Ġtown",
        -1.0
      ],
      [
        "ĠConference",
        -1.0
      ],
      [
        "ĠCu",
        -1.0
      ],
      [
        "ĠBro",
        -1.0
      ],
      [
        "Ġparties",
        -1.0
      ],
      [
        "76",
        -1.0
      ],
      [
        "Ġviolent",
        -1.0
      ],
      [
        "Ġoxygen",
        -1.0
      ],
      [
        "Ġflower",
        -1.0
      ],
      [
        "Ġagent",
        -1.0
      ],
      [
        "Ġlifestyle",
        -1.0
      ],
      [
        "Ġmixed",
        -1.0
      ],
      [
        "wa",
        -1.0
      ],
      [
        "Ġpre",
        -1.0
      ],
      [
        "Ġnon",
        -1.0
      ],
      [
        "02",
        -1.0
      ],
      [
        "Ġproblems",
        -1.0
      ],
      [
        "Ġgenetic",
        -1.0
      ],
      [
        "Ġvol",
        -1.0
      ],
      [
        "Ġti",
        -1.0
      ],
      [
        "ĠDes",
        -1.0
      ],
      [
        "xes",
        -1.0
      ],
      [
        "ĠNe",
        -1.0
      ],
      [
        "Ġotherwise",
        -1.0
      ],
      [
        "Ġrep",
        -1.0
      ],
      [
        "An",
        -1.0
      ],
      [
        "Ġwere",
        -1.0
      ],
      [
        "ĠIs",
        -1.0
      ],
      [
        "Ġfacing",
        -1.0
      ],
      [
        "Ġfragment",
        -1.0
      ],
      [
        "Ġill",
        -1.0
      ],
      [
        "Ġgives",
        -1.0
      ],
      [
        "Don",
        -1.0
      ],
      [
        "Ġbelieved",
        -1.0
      ],
      [
        "ky",
        -1.0
      ],
      [
        "Ġnow",
        -1.0
      ],
      [
        "sides",
        -1.0
      ],
      [
        "Ġcontained",
        -1.0
      ],
      [
        "den",
        -1.0
      ],
      [
        "gan",
        -1.0
      ],
      [
        "Ġreaders",
        -1.0
      ],
      [
        "ĠSub",
        -1.0
      ],
      [
        "ĠEu",
        -1.0
      ],
      [
        "ĠEdward",
        -1.0
      ],
      [
        "erson",
        -1.0
      ],
      [
        "lin",
        -1.0
      ],
      [
        "Ġpan",
        -1.0
      ],
      [
        "Ġreality",
        -1.0
      ],
      [
        "Ġyet",
        -1.0
      ],
      [
        "Ġsource",
        -1.0
      ],
      [
        "Ġorders",
        -1.0
      ],
      [
        "Ġwi",
        -1.0
      ],
      [
        "Ġblog",
        -1.0
      ],
      [
        "67",
        -1.0
      ],
      [
        "Ġchart",
        -1.0
      ],
      [
        "Ġbru",
        -1.0
      ],
      [
        "Ġrebel",
        -1.0
      ],
      [
        "its",
        -1.0
      ],
      [
        "Ġfather",
        -1.0
      ],
      [
        "Ġpresents",
        -1.0
      ],
      [
        "ĠBre",
        -1.0
      ],
      [
        "Ġattach",
        -1.0
      ],
      [
        "ld",
        -1.0
      ],
      [
        "Ġgraduate",
        -1.0
      ],
      [
        "Ġr",
        -1.0
      ],
      [
        "ĠCenter",
        -1.0
      ],
      [
        "ĠDirect",
        -1.0
      ],
      [
        "gi",
        -1.0
      ],
      [
        "Ġpotassium",
        -1.0
      ],
      [
        "ĠBu",
        -1.0
      ],
      [
        "ma",
        -1.0
      ],
      [
        "Ġnational",
        -1.0
      ],
      [
        "37",
        -1.0
      ],
      [
        "Ġpeak",
        -1.0
      ],
      [
        "Ġfill",
        -1.0
      ],
      [
        "ĠRoosevelt",
        -1.0
      ],
      [
        "Ġchapter",
        -1.0
      ],
      [
        "Ġsight",
        -1.0
      ],
      [
        "Ġrights",
        -1.0
      ],
      [
        "T",
        -1.0
      ],
      [
        "Ġy",
        -1.0
      ],
      [
        "Ġadminist",
        -1.0
      ],
      [
        "Ġunion",
        -1.0
      ],
      [
        "Ġbread",
        -1.0
      ],
      [
        "Ġindigenous",
        -1.0
      ],
      [
        "Ġcollision",
        -1.0
      ],
      [
        "Where",
        -1.0
      ],
      [
        "Ġstick",
        -1.0
      ],
      [
        "ĠWhite",
        -1.0
      ],
      [
        "Ġusual",
        -1.0
      ],
      [
        "ux",
        -1.0
      ],
      [
        "Ġsubsi",
        -1.0
      ],
      [
        "Ġflo",
        -1.0
      ],
      [
        "ĠJan",
        -1.0
      ],
      [
        "cept",
        -1.0
      ],
      [
        "ising",
        -1.0
      ],
      [
        "Ġmarks",
        -1.0
      ],
      [
        "ĠDen",
        -1.0
      ],
      [
        "ze",
        -1.0
      ],
      [
        "tric",
        -1.0
      ],
      [
        "Ġitself",
        -1.0
      ],
      [
        "type",
        -1.0
      ],
      [
        "Ġatmosphere",
        -1.0
      ],
      [
        "Ġindividual",
        -1.0
      ],
      [
        "ĠDr",
        -1.0
      ],
      [
        "Ġextreme",
        -1.0
      ],
      [
        "tis",
        -1.0
      ],
      [
        "Ġrequest",
        -1.0
      ],
      [
        "Ġ15",
        -1.0
      ],
      [
        "ĠZ",
        -1.0
      ],
      [
        "Ġ42",
        -1.0
      ],
      [
        "ĠVI",
        -1.0
      ],
      [
        "ĠEarth",
        -1.0
      ],
      [
        "Ġsignals",
        -1.0
      ],
      [
        "ĠSch",
        -1.0
      ],
      [
        "cclesiastical",
        -1.0
      ],
      [
        "UT",
        -1.0
      ],
      [
        "get",
        -1.0
      ],
      [
        "Ġbuffer",
        -1.0
      ],
      [
        "Ġprominent",
        -1.0
      ],
      [
        "aries",
        -1.0
      ],
      [
        "Ġagricultural",
        -1.0
      ],
      [
        "Ġdestruction",
        -1.0
      ],
      [
        "ĠAccess",
        -1.0
      ],
      [
        "Ġcor",
        -1.0
      ],
      [
        "um",
        -1.0
      ],
      [
        "Ġmarkets",
        -1.0
      ],
      [
        "Ġfly",
        -1.0
      ],
      [
        "Ġnarrative",
        -1.0
      ],
      [
        "Ġacademic",
        -1.0
      ],
      [
        "Ġwin",
        -1.0
      ],
      [
        "Ġwhat",
        -1.0
      ],
      [
        "ĠNetwork",
        -1.0
      ],
      [
        "Ġstores",
        -1.0
      ],
      [
        "Ġinternal",
        -1.0
      ],
      [
        "mb",
        -1.0
      ],
      [
        "Ġpurchase",
        -1.0
      ],
      [
        "ĠAgency",
        -1.0
      ],
      [
        "'",
        -1.0
      ],
      [
        "Ġyourself",
        -1.0
      ],
      [
        "Ġobserved",
        -1.0
      ],
      [
        "Ġwelcome",
        -1.0
      ],
      [
        "Ġnor",
        -1.0
      ],
      [
        "ĠEducation",
        -1.0
      ],
      [
        "Ġvolcano",
        -1.0
      ],
      [
        "AN",
        -1.0
      ],
      [
        "ĠCity",
        -1.0
      ],
      [
        "Ġhormone",
        -1.0
      ],
      [
        "cial",
        -1.0
      ],
      [
        "Ġpneumonia",
        -1.0
      ],
      [
        "RI",
        -1.0
      ],
      [
        "Ġimproving",
        -1.0
      ],
      [
        "Ġth",
        -1.0
      ],
      [
        "ĠMemorial",
        -1.0
      ],
      [
        "Ġremoval",
        -1.0
      ],
      [
        "Q",
        -1.0
      ],
      [
        "Ġawarded",
        -1.0
      ],
      [
        "ĠWh",
        -1.0
      ],
      [
        "ances",
        -1.0
      ],
      [
        "Ġbo",
        -1.0
      ],
      [
        "Ġcorrespond",
        -1.0
      ],
      [
        "ER",
        -1.0
      ],
      [
        "Ġvisited",
        -1.0
      ],
      [
        "Ġowners",
        -1.0
      ],
      [
        "ĠJupiter",
        -1.0
      ],
      [
        "Ġap",
        -1.0
      ],
      [
        "Note",
        -1.0
      ],
      [
        "Ġfrom",
        -1.0
      ],
      [
        "Ġhappened",
        -1.0
      ],
      [
        "Ġspecifically",
        -1.0
      ],
      [
        "Ġsampling",
        -1.0
      ],
      [
        "Ġchlor",
        -1.0
      ],
      [
        "Ġinstruments",
        -1.0
      ],
      [
        "Ġstrict",
        -1.0
      ],
      [
        "Ġsmall",
        -1.0
      ],
      [
        "ĠSpring",
        -1.0
      ],
      [
        "Ġshield",
        -1.0
      ],
      [
        "Ġorigin",
        -1.0
      ],
      [
        "ĠAmazon",
        -1.0
      ],
      [
        "Ġregarded",
        -1.0
      ],
      [
        "ĠMac",
        -1.0
      ],
      [
        "Ġdetailed",
        -1.0
      ],
      [
        "Ġdeeper",
        -1.0
      ],
      [
        "vo",
        -1.0
      ],
      [
        "er",
        -1.0
      ],
      [
        "Ġinvest",
        -1.0
      ],
      [
        "Med",
        -1.0
      ],
      [
        "ĠCommon",
        -1.0
      ],
      [
        "ĠMinister",
        -1.0
      ],
      [
        "etary",
        -1.0
      ],
      [
        "Ġarmed",
        -1.0
      ],
      [
        "ĠCD",
        -1.0
      ],
      [
        "Ġauto",
        -1.0
      ],
      [
        "68",
        -1.0
      ],
      [
        "th",
        -1.0
      ],
      [
        "Ġproblem",
        -1.0
      ],
      [
        "Ġmedicines",
        -1.0
      ],
      [
        "Ġoceans",
        -1.0
      ],
      [
        "Ġincrease",
        -1.0
      ],
      [
        "ĠChesapeake",
        -1.0
      ],
      [
        "ĠUnited",
        -1.0
      ],
      [
        "Î",
        -1.0
      ],
      [
        "Ġhearing",
        -1.0
      ],
      [
        "Ġgrain",
        -1.0
      ],
      [
        "f",
        -1.0
      ],
      [
        "co",
        -1.0
      ],
      [
        "fall",
        -1.0
      ],
      [
        "LT",
        -1.0
      ],
      [
        "sb",
        -1.0
      ],
      [
        "ĠColon",
        -1.0
      ],
      [
        "Ġfruits",
        -1.0
      ],
      [
        "Ġarts",
        -1.0
      ],
      [
        "historic",
        -1.0
      ],
      [
        "Ġdisabilities",
        -1.0
      ],
      [
        "Ġword",
        -1.0
      ],
      [
        "ED",
        -1.0
      ],
      [
        "ups",
        -1.0
      ],
      [
        "ĠBefore",
        -1.0
      ],
      [
        "ĠRetrieved",
        -1.0
      ],
      [
        "Ġmales",
        -1.0
      ],
      [
        "Ġhygiene",
        -1.0
      ],
      [
        "Ġ2013",
        -1.0
      ],
      [
        "int",
        -1.0
      ],
      [
        "Ġknow",
        -1.0
      ],
      [
        "ĠSo",
        -1.0
      ],
      [
        "Ġamazing",
        -1.0
      ],
      [
        "Ġrehabilitation",
        -1.0
      ],
      [
        "Ġmission",
        -1.0
      ],
      [
        "ography",
        -1.0
      ],
      [
        "mic",
        -1.0
      ],
      [
        "ĠIslands",
        -1.0
      ],
      [
        "Ġinvention",
        -1.0
      ],
      [
        "Ġevident",
        -1.0
      ],
      [
        "Ġprovided",
        -1.0
      ],
      [
        "Ġlight",
        -1.0
      ],
      [
        "Ġtakes",
        -1.0
      ],
      [
        "Ġface",
        -1.0
      ],
      [
        "ĠBehavior",
        -1.0
      ],
      [
        "ym",
        -1.0
      ],
      [
        "Ġhyper",
        -1.0
      ],
      [
        "nta",
        -1.0
      ],
      [
        "Ġcra",
        -1.0
      ],
      [
        "Ġpathogen",
        -1.0
      ],
      [
        "al",
        -1.0
      ],
      [
        "ynthesis",
        -1.0
      ],
      [
        "Ġround",
        -1.0
      ],
      [
        "ĠMark",
        -1.0
      ],
      [
        "Ġfrequent",
        -1.0
      ],
      [
        "ĠRead",
        -1.0
      ],
      [
        "ĠOrgan",
        -1.0
      ],
      [
        "Ġhumans",
        -1.0
      ],
      [
        "oral",
        -1.0
      ],
      [
        "July",
        -1.0
      ],
      [
        "ĠChi",
        -1.0
      ],
      [
        "Ġjudgment",
        -1.0
      ],
      [
        "Ġresearcher",
        -1.0
      ],
      [
        "Ġbelieve",
        -1.0
      ],
      [
        "Ġdisability",
        -1.0
      ],
      [
        "Ġendeavo",
        -1.0
      ],
      [
        "Ġdepth",
        -1.0
      ],
      [
        "Ġbudget",
        -1.0
      ],
      [
        "grade",
        -1.0
      ],
      [
        "ĠEngine",
        -1.0
      ],
      [
        "Ġvictim",
        -1.0
      ],
      [
        "DE",
        -1.0
      ],
      [
        "Ġadds",
        -1.0
      ],
      [
        "pe",
        -1.0
      ],
      [
        "Ġuses",
        -1.0
      ],
      [
        "TH",
        -1.0
      ],
      [
        "owing",
        -1.0
      ],
      [
        "P",
        -1.0
      ],
      [
        "ĠLewis",
        -1.0
      ],
      [
        "ĠChristians",
        -1.0
      ],
      [
        "ĠDavid",
        -1.0
      ],
      [
        "shing",
        -1.0
      ],
      [
        "ivity",
        -1.0
      ],
      [
        "oth",
        -1.0
      ],
      [
        "Ġreaction",
        -1.0
      ],
      [
        "mission",
        -1.0
      ],
      [
        "Ġpioneer",
        -1.0
      ],
      [
        "Ġno",
        -1.0
      ],
      [
        "CE",
        -1.0
      ],
      [
        "posing",
        -1.0
      ],
      [
        "Ġexperiment",
        -1.0
      ],
      [
        "Ġbiggest",
        -1.0
      ],
      [
        "ĠNI",
        -1.0
      ],
      [
        "Ġinvestiga",
        -1.0
      ],
      [
        "Ġlearning",
        -1.0
      ],
      [
        "Ġcapture",
        -1.0
      ],
      [
        "Ġvehicle",
        -1.0
      ],
      [
        "Ġtemple",
        -1.0
      ],
      [
        "Ġtrying",
        -1.0
      ],
      [
        "lings",
        -1.0
      ],
      [
        "aling",
        -1.0
      ],
      [
        "Ġisolated",
        -1.0
      ],
      [
        "Ġreplaced",
        -1.0
      ],
      [
        "Ġimmigrants",
        -1.0
      ],
      [
        "ĠSS",
        -1.0
      ],
      [
        "Ġhomosexual",
        -1.0
      ],
      [
        "ĠMissouri",
        -1.0
      ],
      [
        "Ġfounded",
        -1.0
      ],
      [
        "zy",
        -1.0
      ],
      [
        "Ġfunds",
        -1.0
      ],
      [
        "During",
        -1.0
      ],
      [
        "Ġspecific",
        -1.0
      ],
      [
        "Ġshapes",
        -1.0
      ],
      [
        "ably",
        -1.0
      ],
      [
        "ster",
        -1.0
      ],
      [
        "Ġsilicon",
        -1.0
      ],
      [
        "Ġcharacterized",
        -1.0
      ],
      [
        "Ġconclusion",
        -1.0
      ],
      [
        "Ġauthorities",
        -1.0
      ],
      [
        "Ġlesson",
        -1.0
      ],
      [
        "Ġlu",
        -1.0
      ],
      [
        "Ġdecide",
        -1.0
      ],
      [
        "Ġarchitecture",
        -1.0
      ],
      [
        "ĠOlympic",
        -1.0
      ],
      [
        "ages",
        -1.0
      ],
      [
        "Ġqual",
        -1.0
      ],
      [
        "Ġmorning",
        -1.0
      ],
      [
        "Ġstereo",
        -1.0
      ],
      [
        "ĠCitizen",
        -1.0
      ],
      [
        "Ġintroduced",
        -1.0
      ],
      [
        "tr",
        -1.0
      ],
      [
        "ĠForce",
        -1.0
      ],
      [
        "Ġdignity",
        -1.0
      ],
      [
        "ĠMilitary",
        -1.0
      ],
      [
        "ous",
        -1.0
      ],
      [
        "Ġexact",
        -1.0
      ],
      [
        "Ġadult",
        -1.0
      ],
      [
        "ĠAIDS",
        -1.0
      ],
      [
        "Ġcommunity",
        -1.0
      ],
      [
        "friendly",
        -1.0
      ],
      [
        "ĠHowever",
        -1.0
      ],
      [
        "was",
        -1.0
      ],
      [
        "Ġfresh",
        -1.0
      ],
      [
        "Ġprinciples",
        -1.0
      ],
      [
        "tin",
        -1.0
      ],
      [
        "Ġrecogni",
        -1.0
      ],
      [
        "Ġconvert",
        -1.0
      ],
      [
        "ĠUSA",
        -1.0
      ],
      [
        "ĠEngland",
        -1.0
      ],
      [
        "les",
        -1.0
      ],
      [
        "ð",
        -1.0
      ],
      [
        "stance",
        -1.0
      ],
      [
        "ĠArab",
        -1.0
      ],
      [
        "Ġindividuals",
        -1.0
      ],
      [
        "Ġcould",
        -1.0
      ],
      [
        "Ġdistribution",
        -1.0
      ],
      [
        "Ġprevail",
        -1.0
      ],
      [
        "How",
        -1.0
      ],
      [
        "Ġimplementation",
        -1.0
      ],
      [
        "Ġconsensus",
        -1.0
      ],
      [
        "Ġsa",
        -1.0
      ],
      [
        "Ġparadigm",
        -1.0
      ],
      [
        "Ġflag",
        -1.0
      ],
      [
        "Ġpar",
        -1.0
      ],
      [
        "IR",
        -1.0
      ],
      [
        "Ġstandard",
        -1.0
      ],
      [
        "nk",
        -1.0
      ],
      [
        "Ġanxiety",
        -1.0
      ],
      [
        "Ġdoes",
        -1.0
      ],
      [
        "Ġcook",
        -1.0
      ],
      [
        "Ġregime",
        -1.0
      ],
      [
        "appropriate",
        -1.0
      ],
      [
        "Ġaccept",
        -1.0
      ],
      [
        "Ġnormal",
        -1.0
      ],
      [
        "ost",
        -1.0
      ],
      [
        "ĠSydney",
        -1.0
      ],
      [
        "Ġeye",
        -1.0
      ],
      [
        "olution",
        -1.0
      ],
      [
        "05",
        -1.0
      ],
      [
        "Sp",
        -1.0
      ],
      [
        "Ġdegradation",
        -1.0
      ],
      [
        "ĠEffect",
        -1.0
      ],
      [
        "Scientists",
        -1.0
      ],
      [
        "Ġallow",
        -1.0
      ],
      [
        "Ġfeatures",
        -1.0
      ],
      [
        "Ġhighest",
        -1.0
      ],
      [
        "Ġseason",
        -1.0
      ],
      [
        "night",
        -1.0
      ],
      [
        "Ġthreat",
        -1.0
      ],
      [
        "reg",
        -1.0
      ],
      [
        "Ġven",
        -1.0
      ],
      [
        "Ġmaintained",
        -1.0
      ],
      [
        "Ġchoice",
        -1.0
      ],
      [
        "Ġearlier",
        -1.0
      ],
      [
        "ig",
        -1.0
      ],
      [
        "Ġsnow",
        -1.0
      ],
      [
        "Ġreduction",
        -1.0
      ],
      [
        "pu",
        -1.0
      ],
      [
        "ĠBy",
        -1.0
      ],
      [
        "Ġexport",
        -1.0
      ],
      [
        "Ġfourth",
        -1.0
      ],
      [
        "hn",
        -1.0
      ],
      [
        "ka",
        -1.0
      ],
      [
        "Ġattorney",
        -1.0
      ],
      [
        "Ġcensus",
        -1.0
      ],
      [
        "ox",
        -1.0
      ],
      [
        "Ġlinked",
        -1.0
      ],
      [
        "AR",
        -1.0
      ],
      [
        "October",
        -1.0
      ],
      [
        "Ġlaunch",
        -1.0
      ],
      [
        "'t",
        -1.0
      ],
      [
        "Ġsurvival",
        -1.0
      ],
      [
        "Ġadvance",
        -1.0
      ],
      [
        "New",
        -1.0
      ],
      [
        "Ġpur",
        -1.0
      ],
      [
        "Ġgeographic",
        -1.0
      ],
      [
        "Ġproductivity",
        -1.0
      ],
      [
        "tch",
        -1.0
      ],
      [
        "Ġgastrointestinal",
        -1.0
      ],
      [
        "Ġquickly",
        -1.0
      ],
      [
        "...",
        -1.0
      ],
      [
        "Ġdata",
        -1.0
      ],
      [
        "Ġpromoting",
        -1.0
      ],
      [
        "ĠMS",
        -1.0
      ],
      [
        "Ġmathematician",
        -1.0
      ],
      [
        "Ġsingle",
        -1.0
      ],
      [
        "Ġmountains",
        -1.0
      ],
      [
        "78",
        -1.0
      ],
      [
        "ĠJust",
        -1.0
      ],
      [
        "ĠQu",
        -1.0
      ],
      [
        "Ġloved",
        -1.0
      ],
      [
        "ĠCommuni",
        -1.0
      ],
      [
        "Ġfaster",
        -1.0
      ],
      [
        "ĠArctic",
        -1.0
      ],
      [
        "Ġinfrared",
        -1.0
      ],
      [
        "ĠSolomon",
        -1.0
      ],
      [
        "ĠAccording",
        -1.0
      ],
      [
        "Ġcrucial",
        -1.0
      ],
      [
        "Ġsatellite",
        -1.0
      ],
      [
        "d",
        -1.0
      ],
      [
        "free",
        -1.0
      ],
      [
        "uit",
        -1.0
      ],
      [
        "ĠDrug",
        -1.0
      ],
      [
        "Ġtask",
        -1.0
      ],
      [
        "Ġoblig",
        -1.0
      ],
      [
        "Ġportrait",
        -1.0
      ],
      [
        "Ġmatters",
        -1.0
      ],
      [
        "ĠConvention",
        -1.0
      ],
      [
        "Ġsponsor",
        -1.0
      ],
      [
        "ni",
        -1.0
      ],
      [
        "Ġsystem",
        -1.0
      ],
      [
        "Ġsum",
        -1.0
      ],
      [
        "ality",
        -1.0
      ],
      [
        "Ġwindows",
        -1.0
      ],
      [
        "Ġcampaign",
        -1.0
      ],
      [
        "ĠUtah",
        -1.0
      ],
      [
        "ĠKentucky",
        -1.0
      ],
      [
        "Ġbasis",
        -1.0
      ],
      [
        "PC",
        -1.0
      ],
      [
        "oli",
        -1.0
      ],
      [
        "20",
        -1.0
      ],
      [
        "old",
        -1.0
      ],
      [
        "Ġpain",
        -1.0
      ],
      [
        "ĠOregon",
        -1.0
      ],
      [
        "Ġextinct",
        -1.0
      ],
      [
        "Ġsplit",
        -1.0
      ],
      [
        "Ġvulnerable",
        -1.0
      ],
      [
        "Ġasked",
        -1.0
      ],
      [
        "e",
        -1.0
      ],
      [
        "Ġdied",
        -1.0
      ],
      [
        "Ġpunishment",
        -1.0
      ],
      [
        "z",
        -1.0
      ],
      [
        "ĠGeorge",
        -1.0
      ],
      [
        "Ġsurface",
        -1.0
      ],
      [
        "Ġcomplex",
        -1.0
      ],
      [
        "Ġlabor",
        -1.0
      ],
      [
        "Ġalphabet",
        -1.0
      ],
      [
        "Ġreceived",
        -1.0
      ],
      [
        "ent",
        -1.0
      ],
      [
        "âĢĺ",
        -1.0
      ],
      [
        "ÃŃ",
        -1.0
      ],
      [
        "Ġadvoca",
        -1.0
      ],
      [
        "¢",
        -1.0
      ],
      [
        "Ġorgans",
        -1.0
      ],
      [
        "Ġla",
        -1.0
      ],
      [
        "Ġbrother",
        -1.0
      ],
      [
        "0",
        -1.0
      ],
      [
        "Ġproceed",
        -1.0
      ],
      [
        "Ġenergy",
        -1.0
      ],
      [
        "95",
        -1.0
      ],
      [
        "Ġconsideration",
        -1.0
      ],
      [
        "Ġsaying",
        -1.0
      ],
      [
        "Ġdepression",
        -1.0
      ],
      [
        "eld",
        -1.0
      ],
      [
        "OE",
        -1.0
      ],
      [
        "Ġdemonstr",
        -1.0
      ],
      [
        "Ġexclusively",
        -1.0
      ],
      [
        "kes",
        -1.0
      ],
      [
        "ĠGe",
        -1.0
      ],
      [
        "stand",
        -1.0
      ],
      [
        "ĠPost",
        -1.0
      ],
      [
        "Ġ29",
        -1.0
      ],
      [
        "ĠTrade",
        -1.0
      ],
      [
        "Ġnitrogen",
        -1.0
      ],
      [
        "Ġnurse",
        -1.0
      ],
      [
        "Ġov",
        -1.0
      ],
      [
        "Ġbrain",
        -1.0
      ],
      [
        "Ġtypes",
        -1.0
      ],
      [
        "Ġmanufacturers",
        -1.0
      ],
      [
        "Ġarise",
        -1.0
      ],
      [
        "Ġavoid",
        -1.0
      ],
      [
        "ĠTable",
        -1.0
      ],
      [
        "Ġgrounds",
        -1.0
      ],
      [
        "hydr",
        -1.0
      ],
      [
        "9",
        -1.0
      ],
      [
        "fer",
        -1.0
      ],
      [
        "gged",
        -1.0
      ],
      [
        "Ġed",
        -1.0
      ],
      [
        "Ġtape",
        -1.0
      ],
      [
        "control",
        -1.0
      ],
      [
        "Ġreceive",
        -1.0
      ],
      [
        "Ġbirth",
        -1.0
      ],
      [
        "ĠAlexandr",
        -1.0
      ],
      [
        "Ġpotentially",
        -1.0
      ],
      [
        "Ġmal",
        -1.0
      ],
      [
        "ful",
        -1.0
      ],
      [
        "ĸ",
        -1.0
      ],
      [
        "Ġequipment",
        -1.0
      ],
      [
        "ĠArthur",
        -1.0
      ],
      [
        "Ġpolicy",
        -1.0
      ],
      [
        "Ġcrown",
        -1.0
      ],
      [
        "Ġcoverage",
        -1.0
      ],
      [
        "Ġpull",
        -1.0
      ],
      [
        "Ġabroad",
        -1.0
      ],
      [
        "Ġassembly",
        -1.0
      ],
      [
        "ĠVe",
        -1.0
      ],
      [
        "Ġtwenty",
        -1.0
      ],
      [
        "Ġbrings",
        -1.0
      ],
      [
        "Ġhabit",
        -1.0
      ],
      [
        "Ġsentence",
        -1.0
      ],
      [
        "ĠC",
        -1.0
      ],
      [
        "she",
        -1.0
      ],
      [
        "ense",
        -1.0
      ],
      [
        "Ġphilosoph",
        -1.0
      ],
      [
        "ĠZealand",
        -1.0
      ],
      [
        "Ġtransplant",
        -1.0
      ],
      [
        "42",
        -1.0
      ],
      [
        "ex",
        -1.0
      ],
      [
        "Ġindustries",
        -1.0
      ],
      [
        "Ġannounced",
        -1.0
      ],
      [
        "Ġrecycling",
        -1.0
      ],
      [
        "Ġescape",
        -1.0
      ],
      [
        "Ġten",
        -1.0
      ],
      [
        "Ġclu",
        -1.0
      ],
      [
        "Ġmort",
        -1.0
      ],
      [
        "ĠEvolution",
        -1.0
      ],
      [
        "Ġseparation",
        -1.0
      ],
      [
        "Ġmental",
        -1.0
      ],
      [
        "dom",
        -1.0
      ],
      [
        "inary",
        -1.0
      ],
      [
        ".).",
        -1.0
      ],
      [
        "ence",
        -1.0
      ],
      [
        "Ġdynamic",
        -1.0
      ],
      [
        "book",
        -1.0
      ],
      [
        "vi",
        -1.0
      ],
      [
        "Ġmention",
        -1.0
      ],
      [
        "ĠFlo",
        -1.0
      ],
      [
        "Ġhusband",
        -1.0
      ],
      [
        "«",
        -1.0
      ],
      [
        "Ġpal",
        -1.0
      ],
      [
        "Ġcompetitive",
        -1.0
      ],
      [
        "k",
        -1.0
      ],
      [
        "suming",
        -1.0
      ],
      [
        "ines",
        -1.0
      ],
      [
        "word",
        -1.0
      ],
      [
        "Ġgrant",
        -1.0
      ],
      [
        "Ġmetaphor",
        -1.0
      ],
      [
        "Ġuniversity",
        -1.0
      ],
      [
        "Ġmuscle",
        -1.0
      ],
      [
        "AB",
        -1.0
      ],
      [
        "ĠMichigan",
        -1.0
      ],
      [
        "yd",
        -1.0
      ],
      [
        "ont",
        -1.0
      ],
      [
        "Ġunknown",
        -1.0
      ],
      [
        "ook",
        -1.0
      ],
      [
        "Ġprompt",
        -1.0
      ],
      [
        "ĠAtmospheric",
        -1.0
      ],
      [
        "pical",
        -1.0
      ],
      [
        "Ġwelfare",
        -1.0
      ],
      [
        "Ġrespectively",
        -1.0
      ],
      [
        "Ġcouple",
        -1.0
      ],
      [
        "Ġâ",
        -1.0
      ],
      [
        "Ġcholesterol",
        -1.0
      ],
      [
        "Ġuseful",
        -1.0
      ],
      [
        "ĠPeace",
        -1.0
      ],
      [
        "Ġsteady",
        -1.0
      ],
      [
        "Ġ=",
        -1.0
      ],
      [
        "sy",
        -1.0
      ],
      [
        "ĠPart",
        -1.0
      ],
      [
        "Ġpowder",
        -1.0
      ],
      [
        "Ġfamiliar",
        -1.0
      ],
      [
        "16",
        -1.0
      ],
      [
        "Ġdesert",
        -1.0
      ],
      [
        "Ġtherefore",
        -1.0
      ],
      [
        "ey",
        -1.0
      ],
      [
        "man",
        -1.0
      ],
      [
        "Ġsimpl",
        -1.0
      ],
      [
        "á",
        -1.0
      ],
      [
        "Ġport",
        -1.0
      ],
      [
        "Ġinhibit",
        -1.0
      ],
      [
        "ĠAlternative",
        -1.0
      ],
      [
        "ĠLincoln",
        -1.0
      ],
      [
        "Ġdamage",
        -1.0
      ],
      [
        "Ġbringing",
        -1.0
      ],
      [
        "ive",
        -1.0
      ],
      [
        "Ġpresent",
        -1.0
      ],
      [
        "Ġscore",
        -1.0
      ],
      [
        "Ġmembrane",
        -1.0
      ],
      [
        "Ġmaintenance",
        -1.0
      ],
      [
        "Ġdiscomfort",
        -1.0
      ],
      [
        "Ġ100",
        -1.0
      ],
      [
        "Ġprofessor",
        -1.0
      ],
      [
        "Ġadhe",
        -1.0
      ],
      [
        "Ġ20",
        -1.0
      ],
      [
        "UC",
        -1.0
      ],
      [
        "Ġpower",
        -1.0
      ],
      [
        "Ġgauge",
        -1.0
      ],
      [
        "Ġpronoun",
        -1.0
      ],
      [
        "width",
        -1.0
      ],
      [
        "Ġaddresses",
        -1.0
      ],
      [
        "ĠFood",
        -1.0
      ],
      [
        "ĠWomen",
        -1.0
      ],
      [
        "ĠBr",
        -1.0
      ],
      [
        "One",
        -1.0
      ],
      [
        "Ġslightly",
        -1.0
      ],
      [
        "Ġif",
        -1.0
      ],
      [
        "Ġdescribed",
        -1.0
      ],
      [
        "Ġsupplements",
        -1.0
      ],
      [
        "Ĵ",
        -1.0
      ],
      [
        "Ġpregnancy",
        -1.0
      ],
      [
        "Ġbelieves",
        -1.0
      ],
      [
        "Ġcorresponding",
        -1.0
      ],
      [
        "IC",
        -1.0
      ],
      [
        "ms",
        -1.0
      ],
      [
        "Ġmentioned",
        -1.0
      ],
      [
        "Ġdemands",
        -1.0
      ],
      [
        "kin",
        -1.0
      ],
      [
        "ius",
        -1.0
      ],
      [
        "ĠSouthern",
        -1.0
      ],
      [
        "ĠHi",
        -1.0
      ],
      [
        "Ġgained",
        -1.0
      ],
      [
        "Ġsupplement",
        -1.0
      ],
      [
        "62",
        -1.0
      ],
      [
        "ĠP",
        -1.0
      ],
      [
        "ĠMassachusetts",
        -1.0
      ],
      [
        "ĠF",
        -1.0
      ],
      [
        "Ã³",
        -1.0
      ],
      [
        "Ġversus",
        -1.0
      ],
      [
        "Ġshot",
        -1.0
      ],
      [
        "As",
        -1.0
      ],
      [
        "Ã¡",
        -1.0
      ],
      [
        "Ġexploration",
        -1.0
      ],
      [
        "Ġinteractive",
        -1.0
      ],
      [
        "Ġins",
        -1.0
      ],
      [
        "ĠMal",
        -1.0
      ],
      [
        "Ġcities",
        -1.0
      ],
      [
        "Ġthis",
        -1.0
      ],
      [
        "Ġpursu",
        -1.0
      ],
      [
        "saturated",
        -1.0
      ],
      [
        "ctu",
        -1.0
      ],
      [
        "Ġpollution",
        -1.0
      ],
      [
        "Ġheat",
        -1.0
      ],
      [
        "According",
        -1.0
      ],
      [
        "Ġlooks",
        -1.0
      ],
      [
        "ific",
        -1.0
      ],
      [
        "³",
        -1.0
      ],
      [
        "tic",
        -1.0
      ],
      [
        "ĠAmericans",
        -1.0
      ],
      [
        "compatible",
        -1.0
      ],
      [
        "ĠL",
        -1.0
      ],
      [
        "Ġdoctors",
        -1.0
      ],
      [
        "h",
        -1.0
      ],
      [
        "Ġtank",
        -1.0
      ],
      [
        "ĠRE",
        -1.0
      ],
      [
        "84",
        -1.0
      ],
      [
        "Ġunderlying",
        -1.0
      ],
      [
        "Ġinteraction",
        -1.0
      ],
      [
        "Ġbrief",
        -1.0
      ],
      [
        "Ġclosely",
        -1.0
      ],
      [
        "Ġcomparative",
        -1.0
      ],
      [
        "Ġbelief",
        -1.0
      ],
      [
        "ĠBank",
        -1.0
      ],
      [
        "Ġseem",
        -1.0
      ],
      [
        "Ġjournal",
        -1.0
      ],
      [
        "ĠGuatemala",
        -1.0
      ],
      [
        "Ġste",
        -1.0
      ],
      [
        "Ġdetected",
        -1.0
      ],
      [
        "Ġcontroversial",
        -1.0
      ],
      [
        "Ġclaimed",
        -1.0
      ],
      [
        "Ġroutine",
        -1.0
      ],
      [
        "Ġvirtual",
        -1.0
      ],
      [
        "ĠJuly",
        -1.0
      ],
      [
        "ces",
        -1.0
      ],
      [
        "Ġinitial",
        -1.0
      ],
      [
        "Ġpolitics",
        -1.0
      ],
      [
        "ite",
        -1.0
      ],
      [
        "Ġscan",
        -1.0
      ],
      [
        "Ġsta",
        -1.0
      ],
      [
        "Mar",
        -1.0
      ],
      [
        "Another",
        -1.0
      ],
      [
        "ĠLike",
        -1.0
      ],
      [
        "Ġnu",
        -1.0
      ],
      [
        "ko",
        -1.0
      ],
      [
        "Ġsal",
        -1.0
      ],
      [
        "RA",
        -1.0
      ],
      [
        "Ġpoll",
        -1.0
      ],
      [
        "Ġdiscussion",
        -1.0
      ],
      [
        "83",
        -1.0
      ],
      [
        "ĠG",
        -1.0
      ],
      [
        "ose",
        -1.0
      ],
      [
        "Ġdivorce",
        -1.0
      ],
      [
        "ings",
        -1.0
      ],
      [
        "urs",
        -1.0
      ],
      [
        "Ġgra",
        -1.0
      ],
      [
        "ste",
        -1.0
      ],
      [
        "Ġcovered",
        -1.0
      ],
      [
        "ĠIndeed",
        -1.0
      ],
      [
        "Ġclear",
        -1.0
      ],
      [
        ":",
        -1.0
      ],
      [
        "ĠRo",
        -1.0
      ],
      [
        "Ġcrops",
        -1.0
      ],
      [
        "Ġallows",
        -1.0
      ],
      [
        "Ġregister",
        -1.0
      ],
      [
        "Ġbee",
        -1.0
      ],
      [
        "Ġcannot",
        -1.0
      ],
      [
        "Ġneighbo",
        -1.0
      ],
      [
        "Ġinitiative",
        -1.0
      ],
      [
        "ĠMan",
        -1.0
      ],
      [
        "Ġnight",
        -1.0
      ],
      [
        "Ġgreater",
        -1.0
      ],
      [
        "Ġnorthern",
        -1.0
      ],
      [
        "Ġfro",
        -1.0
      ],
      [
        "Ł",
        -1.0
      ],
      [
        "que",
        -1.0
      ],
      [
        "ĠKen",
        -1.0
      ],
      [
        "ĠPatients",
        -1.0
      ],
      [
        "ĠInstitute",
        -1.0
      ],
      [
        "ial",
        -1.0
      ],
      [
        "Ġrecent",
        -1.0
      ],
      [
        "Ġengage",
        -1.0
      ],
      [
        "Ġskills",
        -1.0
      ],
      [
        "Ġdesire",
        -1.0
      ],
      [
        "Ġmon",
        -1.0
      ],
      [
        "Ġlocal",
        -1.0
      ],
      [
        "Ġcritical",
        -1.0
      ],
      [
        "Ù",
        -1.0
      ],
      [
        "ĠBangladesh",
        -1.0
      ],
      [
        "Ġdetect",
        -1.0
      ],
      [
        "Ġneed",
        -1.0
      ],
      [
        "Ġcamera",
        -1.0
      ],
      [
        "Ġexample",
        -1.0
      ],
      [
        "act",
        -1.0
      ],
      [
        "Ġinsulin",
        -1.0
      ],
      [
        "Ġfeedback",
        -1.0
      ],
      [
        "Ġpromote",
        -1.0
      ],
      [
        "ĠAristotle",
        -1.0
      ],
      [
        "Ġemphasis",
        -1.0
      ],
      [
        "Origin",
        -1.0
[...]
